{
  "version": "1.0",
  "truncation": null,
  "padding": null,
  "added_tokens": [
    {
      "id": 3234,
      "content": "[PAD]",
      "single_word": false,
      "lstrip": false,
      "rstrip": false,
      "normalized": false,
      "special": true
    },
    {
      "id": 3773,
      "content": "[MASK]",
      "single_word": false,
      "lstrip": false,
      "rstrip": false,
      "normalized": false,
      "special": true
    },
    {
      "id": 3869,
      "content": "[UNK]",
      "single_word": false,
      "lstrip": false,
      "rstrip": false,
      "normalized": false,
      "special": true
    },
    {
      "id": 6408,
      "content": "[CLS]",
      "single_word": false,
      "lstrip": false,
      "rstrip": false,
      "normalized": false,
      "special": true
    },
    {
      "id": 6633,
      "content": "[SEP]",
      "single_word": false,
      "lstrip": false,
      "rstrip": false,
      "normalized": false,
      "special": true
    }
  ],
  "normalizer": {
    "type": "Sequence",
    "normalizers": [
      {
        "type": "NFD"
      },
      {
        "type": "Lowercase"
      },
      {
        "type": "StripAccents"
      }
    ]
  },
  "pre_tokenizer": {
    "type": "Sequence",
    "pretokenizers": [
      {
        "type": "Metaspace",
        "replacement": "▁",
        "prepend_scheme": "always",
        "split": true
      }
    ]
  },
  "post_processor": {
    "type": "TemplateProcessing",
    "single": [
      {
        "SpecialToken": {
          "id": "[CLS]",
          "type_id": 0
        }
      },
      {
        "Sequence": {
          "id": "A",
          "type_id": 0
        }
      },
      {
        "SpecialToken": {
          "id": "[SEP]",
          "type_id": 0
        }
      }
    ],
    "pair": [
      {
        "SpecialToken": {
          "id": "[CLS]",
          "type_id": 0
        }
      },
      {
        "Sequence": {
          "id": "A",
          "type_id": 0
        }
      },
      {
        "SpecialToken": {
          "id": "[SEP]",
          "type_id": 0
        }
      },
      {
        "Sequence": {
          "id": "B",
          "type_id": 1
        }
      },
      {
        "SpecialToken": {
          "id": "[SEP]",
          "type_id": 1
        }
      }
    ],
    "special_tokens": {
      "[CLS]": {
        "id": "[CLS]",
        "ids": [
          6408
        ],
        "tokens": [
          "[CLS]"
        ]
      },
      "[SEP]": {
        "id": "[SEP]",
        "ids": [
          6633
        ],
        "tokens": [
          "[SEP]"
        ]
      }
    }
  },
  "decoder": {
    "type": "Metaspace",
    "replacement": "▁",
    "prepend_scheme": "always",
    "split": true
  },
  "model": {
    "type": "BPE",
    "dropout": null,
    "unk_token": "[UNK]",
    "continuing_subword_prefix": null,
    "end_of_word_suffix": null,
    "fuse_unk": false,
    "byte_fallback": false,
    "ignore_merges": false,
    "vocab": {
      "iss": 0,
      "▁milyardan": 1,
      "▁agız": 2,
      "▁ilim": 3,
      "▁yuzyılın": 4,
      "▁sif": 5,
      "▁chat": 6,
      "▁alamadim": 7,
      "yip": 8,
      "gisi": 9,
      "lerinde": 10,
      "▁hast": 11,
      "▁yonel": 12,
      "evizyon": 13,
      "▁mudahal": 14,
      "▁sonradan": 15,
      "▁ec": 16,
      "▁ha": 17,
      "▁must": 18,
      "▁herkesi": 19,
      "▁aras": 20,
      "▁reddet": 21,
      "imiza": 22,
      "imiz": 23,
      "▁form": 24,
      "▁uzeri": 25,
      "▁ticari": 26,
      "ciler": 27,
      "anlık": 28,
      "tia": 29,
      "▁sırada": 30,
      "▁sarkı": 31,
      "▁ebeveyn": 32,
      "▁topragı": 33,
      "▁kapıyı": 34,
      "▁taham": 35,
      "▁q": 36,
      "tıs": 37,
      "▁uzakta": 38,
      "▁olayı": 39,
      "▁tedar": 40,
      "▁esn": 41,
      "istiri": 42,
      "▁burnu": 43,
      "▁halbuki": 44,
      "▁alakasi": 45,
      "▁gittim": 46,
      "▁coz": 47,
      "▁cerey": 48,
      "▁pesinden": 49,
      "▁yeniden": 50,
      "▁otelde": 51,
      "▁artıs": 52,
      "▁buy": 53,
      "amda": 54,
      "▁arasında": 55,
      "▁ozellikleri": 56,
      "▁standart": 57,
      ".6": 58,
      "▁yazarı": 59,
      "▁ulasımı": 60,
      "▁y": 61,
      "▁olustur": 62,
      "▁yur": 63,
      "cileri": 64,
      "ınca": 65,
      "liligini": 66,
      "adıgını": 67,
      "▁heyec": 68,
      "▁gogus": 69,
      "▁aray": 70,
      "▁buc": 71,
      "estiri": 72,
      "hut": 73,
      "▁sorusturma": 74,
      "▁u": 75,
      "sem": 76,
      "▁fig": 77,
      "imler": 78,
      "▁once": 79,
      "▁indian": 80,
      "ık": 81,
      "▁yılına": 82,
      "▁mar": 83,
      "▁bitir": 84,
      "▁ucuslarla": 85,
      "ımız": 86,
      "▁bilgisayar": 87,
      "lenmek": 88,
      "esini": 89,
      "▁hisseyi": 90,
      "evi": 91,
      "umun": 92,
      "▁tesp": 93,
      "▁ra": 94,
      "lerle": 95,
      "ikler": 96,
      "▁rıh": 97,
      "▁spons": 98,
      "▁pencereden": 99,
      "rne": 100,
      "▁kaydetti": 101,
      "▁sir": 102,
      "▁adı": 103,
      "▁havalimanı": 104,
      "▁trafik": 105,
      "▁temizlikten": 106,
      "▁sonucların": 107,
      "larım": 108,
      "isim": 109,
      "▁first": 110,
      "ımı": 111,
      "▁karabiber": 112,
      "▁ameliyat": 113,
      "▁temel": 114,
      "lılar": 115,
      "▁patlıc": 116,
      "ecekleri": 117,
      "▁mucadele": 118,
      "lugunda": 119,
      "▁gozler": 120,
      "meleri": 121,
      "▁boy": 122,
      "▁iplik": 123,
      "▁ora": 124,
      "▁tesisten": 125,
      "▁harikaydi": 126,
      "dım": 127,
      "▁kenarları": 128,
      "landıgında": 129,
      "▁kirpik": 130,
      "▁macı": 131,
      "▁gecer": 132,
      "▁tum": 133,
      "ble": 134,
      "▁yonetiminin": 135,
      "▁annem": 136,
      "telik": 137,
      "az": 138,
      "ans": 139,
      "▁akl": 140,
      "▁hakkı": 141,
      "▁mutla": 142,
      "▁yan": 143,
      "▁acıklam": 144,
      "okr": 145,
      "▁mat": 146,
      "ucc": 147,
      "▁ayının": 148,
      "▁baskanlıgı": 149,
      "▁bec": 150,
      "▁saniye": 151,
      "emden": 152,
      "▁mani": 153,
      "menin": 154,
      "daydi": 155,
      "▁kep": 156,
      "van": 157,
      "▁yetersizdi": 158,
      "▁plaj": 159,
      "▁mektup": 160,
      "▁lezz": 161,
      "eydi": 162,
      "▁yavr": 163,
      "▁gayr": 164,
      "▁konusmaya": 165,
      "▁madde": 166,
      "▁yapti": 167,
      "eci": 168,
      "▁planını": 169,
      "▁pur": 170,
      "▁yuzluydu": 171,
      "id": 172,
      "leti": 173,
      "taj": 174,
      "▁inceleme": 175,
      "anından": 176,
      "end": 177,
      "▁prot": 178,
      "tıp": 179,
      "▁bolumu": 180,
      "ini": 181,
      "▁sozc": 182,
      "ustu": 183,
      "gın": 184,
      "uvar": 185,
      "▁mademki": 186,
      "▁ice": 187,
      "▁siy": 188,
      "▁yangın": 189,
      "iyetle": 190,
      "▁kulag": 191,
      "ansız": 192,
      "▁taks": 193,
      "”": 194,
      "▁bon": 195,
      "▁vak": 196,
      "▁skandal": 197,
      "▁bilmek": 198,
      "▁bildir": 199,
      "▁yukselerek": 200,
      "emizin": 201,
      "tiy": 202,
      "▁dususu": 203,
      "▁endustrisi": 204,
      "▁dua": 205,
      "▁ceza": 206,
      "▁insanlardan": 207,
      "▁evden": 208,
      "▁aslında": 209,
      "▁dip": 210,
      "▁pazarlık": 211,
      "masından": 212,
      "onom": 213,
      "▁ortalık": 214,
      "▁alıcı": 215,
      "manlar": 216,
      "▁gelistirme": 217,
      "▁sevg": 218,
      "▁merh": 219,
      "▁rap": 220,
      "▁sekiz": 221,
      "▁hayatımda": 222,
      "▁kim": 223,
      "▁saglam": 224,
      "izdi": 225,
      "▁yetkilileri": 226,
      "▁tut": 227,
      "▁hayal": 228,
      "▁hesaba": 229,
      "▁milletvek": 230,
      "▁veyahut": 231,
      "▁sim": 232,
      "▁duygular": 233,
      "▁alısveris": 234,
      "oeni": 235,
      "▁ayn": 236,
      "▁prob": 237,
      "▁reviz": 238,
      "alara": 239,
      "lanıyor": 240,
      "hane": 241,
      "▁kaybet": 242,
      "▁etmez": 243,
      "isle": 244,
      "il": 245,
      "▁bulunan": 246,
      "iya": 247,
      "▁koyun": 248,
      "▁ask": 249,
      "▁muamel": 250,
      "▁tanr": 251,
      "▁pazarlama": 252,
      "▁calısması": 253,
      "liyor": 254,
      "00'": 255,
      "▁dısına": 256,
      "▁dusuktu": 257,
      "▁yaptıgını": 258,
      "ku": 259,
      "▁evla": 260,
      "gını": 261,
      "tıkları": 262,
      "▁toplantı": 263,
      "▁begenmedim": 264,
      "▁olumlu": 265,
      "▁ob": 266,
      "▁veririm": 267,
      "liler": 268,
      "▁mud": 269,
      "▁alıskan": 270,
      "▁diger": 271,
      "▁hun": 272,
      "▁aklıma": 273,
      "kk": 274,
      "etic": 275,
      "▁ilg": 276,
      "▁birbirler": 277,
      "ısıyla": 278,
      "▁kose": 279,
      "▁kavga": 280,
      "▁harcamaları": 281,
      "▁almıs": 282,
      "st": 283,
      "▁kog": 284,
      "▁delta": 285,
      "▁bah": 286,
      "▁laborat": 287,
      "▁buyume": 288,
      "▁etkin": 289,
      "lag": 290,
      "'s": 291,
      "▁kendiler": 292,
      "▁guver": 293,
      "▁zeytiny": 294,
      "▁azalt": 295,
      "uyoruz": 296,
      "▁yedi": 297,
      "▁tı": 298,
      "itraj": 299,
      "▁n": 300,
      "▁cap": 301,
      "▁cukur": 302,
      "asyonu": 303,
      "▁tad": 304,
      "▁doktorlar": 305,
      "▁rop": 306,
      "▁acente": 307,
      "lerine": 308,
      "▁yolun": 309,
      "▁dr": 310,
      "▁malzemeleri": 311,
      "mur": 312,
      "▁ayrılık": 313,
      "▁uy": 314,
      "unlu": 315,
      "▁sanki": 316,
      "ıcı": 317,
      "dıgından": 318,
      "edigim": 319,
      "▁bulut": 320,
      "▁esi": 321,
      "▁sureci": 322,
      "'in": 323,
      "▁yasındaki": 324,
      "uste": 325,
      "eceklerini": 326,
      "tik": 327,
      "▁gel": 328,
      "▁yıllarında": 329,
      "▁ekonominin": 330,
      "▁sonraki": 331,
      "▁adlı": 332,
      "▁han": 333,
      "ımla": 334,
      "arlan": 335,
      "ph": 336,
      "▁muddet": 337,
      "▁sirketin": 338,
      "▁oyunun": 339,
      "▁ima": 340,
      "▁lan": 341,
      "▁washington'a": 342,
      "astır": 343,
      "▁senetlerinin": 344,
      "▁hayata": 345,
      "anını": 346,
      "▁gucu": 347,
      "▁yıllarda": 348,
      "▁bitki": 349,
      "▁daha": 350,
      "erhal": 351,
      "..": 352,
      "▁sav": 353,
      "iydi": 354,
      "▁lif": 355,
      "▁mimar": 356,
      "cih": 357,
      "te": 358,
      ".ceyr": 359,
      "inizde": 360,
      "▁mahkum": 361,
      "▁degillerdi": 362,
      "ladılar": 363,
      "0000": 364,
      "▁toplamda": 365,
      "▁insanları": 366,
      "▁eline": 367,
      "ırdı": 368,
      "ksa": 369,
      "▁samim": 370,
      "▁cumartesi": 371,
      "▁sikint": 372,
      "▁faturam": 373,
      "▁hayatını": 374,
      "▁sauna": 375,
      "▁gorusuldu": 376,
      "▁eksikligi": 377,
      "ga": 378,
      "nc": 379,
      "▁baltimore'ye": 380,
      "▁baslarını": 381,
      "▁bekledigini": 382,
      "▁kaptan": 383,
      "▁gunlerini": 384,
      "▁yemegi": 385,
      "▁cd": 386,
      "eciler": 387,
      "▁pilot": 388,
      "▁kopr": 389,
      "▁oranlar": 390,
      "▁sayfa": 391,
      "atlar": 392,
      "macılar": 393,
      "▁cek": 394,
      "▁atat": 395,
      "▁ogrenci": 396,
      "▁ki": 397,
      "ef": 398,
      "▁isine": 399,
      "▁borcunu": 400,
      "▁alma": 401,
      "minin": 402,
      "▁salı": 403,
      "▁serin": 404,
      "▁sars": 405,
      "ttı": 406,
      "egin": 407,
      "▁37": 408,
      "▁basbak": 409,
      "acılara": 410,
      "▁okuyucu": 411,
      "▁sanatcılar": 412,
      "lerimi": 413,
      "oh": 414,
      "yla": 415,
      "usunda": 416,
      "gının": 417,
      "▁bay": 418,
      "▁durgunluk": 419,
      "▁veto": 420,
      "▁sıf": 421,
      "▁dusundu": 422,
      "▁idare": 423,
      "▁durdur": 424,
      "sas": 425,
      "▁muam": 426,
      "ama": 427,
      "▁deri": 428,
      "▁baslıyor": 429,
      "▁ailenin": 430,
      "eren": 431,
      "▁kurumlar": 432,
      "rak": 433,
      "'n": 434,
      "▁co": 435,
      "aki": 436,
      "alma": 437,
      "▁genclik": 438,
      "larımızı": 439,
      "▁gerektigini": 440,
      "rlik": 441,
      "▁altı": 442,
      "▁verir": 443,
      "▁ondan": 444,
      "▁bekleniyor": 445,
      "forlu": 446,
      "▁yonetici": 447,
      "uydu": 448,
      "▁hukumet": 449,
      "▁sakal": 450,
      "▁ihtiyac": 451,
      "▁gokyuz": 452,
      "▁ilgililerdi": 453,
      "▁avukatları": 454,
      "nci": 455,
      "▁saglık": 456,
      "lerdi": 457,
      "ırım": 458,
      "meden": 459,
      "▁ce": 460,
      "ılıgı": 461,
      "▁baskalarına": 462,
      "▁ger": 463,
      "▁icini": 464,
      "ılmıs": 465,
      "▁yemegin": 466,
      "▁hayatta": 467,
      "▁genellikle": 468,
      "▁son": 469,
      "▁domates": 470,
      "▁mill": 471,
      "▁dunya": 472,
      "▁parti": 473,
      "▁konuk": 474,
      "▁ey": 475,
      "▁mesaf": 476,
      "▁hak": 477,
      "sel": 478,
      "arın": 479,
      "▁yuz": 480,
      "▁bus": 481,
      "▁gercekl": 482,
      "▁cag": 483,
      "mac": 484,
      "▁yerlere": 485,
      "▁dik": 486,
      "▁boston": 487,
      "▁kalkıs": 488,
      "▁cıkıs": 489,
      "▁yapı": 490,
      "▁olmustu": 491,
      "impiyat": 492,
      "▁dov": 493,
      "lenir": 494,
      "▁tepeden": 495,
      "▁kitaplar": 496,
      "▁duv": 497,
      "▁hastalıgı": 498,
      "▁bahan": 499,
      "▁almak": 500,
      "▁zengin": 501,
      "▁tadını": 502,
      "asın": 503,
      "▁kıymetler": 504,
      "▁temizligi": 505,
      "▁kalabal": 506,
      "lig": 507,
      "▁tahvil": 508,
      "▁hab": 509,
      "▁mir": 510,
      "▁las": 511,
      "▁aydınlık": 512,
      "▁prof": 513,
      "▁canı": 514,
      "▁ekib": 515,
      "▁taraf": 516,
      "▁fark": 517,
      "▁hukumeti": 518,
      "▁tul": 519,
      "▁kelimeyle": 520,
      "ıh": 521,
      "▁fr": 522,
      "▁vardi": 523,
      "amıyor": 524,
      "▁icten": 525,
      "mıstı": 526,
      "▁calisanlardan": 527,
      "▁boynuna": 528,
      "kı": 529,
      "ak": 530,
      "osuna": 531,
      "uk": 532,
      "▁ilgilen": 533,
      "▁ilgilenmedi": 534,
      "▁dır": 535,
      "▁he": 536,
      "▁inc.": 537,
      "▁hayır": 538,
      "▁havlu": 539,
      "▁akr": 540,
      "▁philadelphia'ya": 541,
      "larının": 542,
      "▁guzeldi": 543,
      "▁kutu": 544,
      "▁ozur": 545,
      "2'de": 546,
      "▁defa": 547,
      "abaz": 548,
      "▁olm": 549,
      "▁sez": 550,
      "▁yuzume": 551,
      "▁koltuk": 552,
      "▁fiyatlandır": 553,
      "acagını": 554,
      "▁benim": 555,
      "anıs": 556,
      ".": 557,
      "inde": 558,
      "▁etkinlik": 559,
      "▁uyeleri": 560,
      "▁milwa": 561,
      "▁hosg": 562,
      "▁kurdu": 563,
      "▁superdi": 564,
      "alif": 565,
      "▁cakmak": 566,
      "▁kral": 567,
      "▁18": 568,
      "z": 569,
      "▁birisi": 570,
      "▁?..": 571,
      "▁uzaktan": 572,
      "▁okudu": 573,
      "▁avuc": 574,
      "▁kariyer": 575,
      "▁kor": 576,
      "▁baskent": 577,
      "▁bu": 578,
      "▁dest": 579,
      "▁bazıları": 580,
      "▁biber": 581,
      "▁yukselisle": 582,
      "▁cagır": 583,
      "▁6": 584,
      "▁kalkıyor": 585,
      "▁gonder": 586,
      "anların": 587,
      "▁vic": 588,
      "▁aktar": 589,
      "▁cenaz": 590,
      "leriyle": 591,
      "▁aktiv": 592,
      "▁bekliyor": 593,
      "▁zaman": 594,
      "it": 595,
      "▁bolgenin": 596,
      "▁dukkanı": 597,
      "▁mekte": 598,
      "▁boyn": 599,
      "▁yontem": 600,
      "▁kendisini": 601,
      "larınız": 602,
      "▁iceride": 603,
      "▁iddi": 604,
      "edir": 605,
      "ikt": 606,
      "▁ruz": 607,
      "lardan": 608,
      "▁mektubu": 609,
      "▁h": 610,
      "▁sozcu": 611,
      "▁ocagın": 612,
      "he": 613,
      "dadır": 614,
      "▁ustelik": 615,
      "otuz": 616,
      "▁cocukluk": 617,
      "▁ulusal": 618,
      "aj": 619,
      "▁sabahın": 620,
      "meyecek": 621,
      "▁toront": 622,
      "cılık": 623,
      "▁ayrıl": 624,
      "ington": 625,
      "▁dey": 626,
      "▁sayısını": 627,
      "▁``": 628,
      "lo": 629,
      "▁yara": 630,
      "▁bugday": 631,
      "▁lok": 632,
      "ımızda": 633,
      "▁verdigi": 634,
      "▁sık": 635,
      "▁ga": 636,
      "ıcak": 637,
      "▁komp": 638,
      "▁bankası": 639,
      "▁agaclar": 640,
      "▁gitmis": 641,
      "▁kelimesi": 642,
      "larındaki": 643,
      "▁tasar": 644,
      "▁veriyor": 645,
      "miyorum": 646,
      "▁mumkun": 647,
      "lasyon": 648,
      "ilige": 649,
      "muyor": 650,
      "'i": 651,
      "▁ortamda": 652,
      ",": 653,
      "▁fır": 654,
      "▁sahs": 655,
      "▁yiyecekler": 656,
      "lasman": 657,
      "▁kimseyi": 658,
      "▁cocuklu": 659,
      "▁ens": 660,
      "▁seyler": 661,
      "tı": 662,
      "▁telef": 663,
      "▁cocugu": 664,
      "▁isgal": 665,
      "inler": 666,
      "▁olmayı": 667,
      "▁zap": 668,
      "▁ettim": 669,
      "▁kacak": 670,
      "▁ellerine": 671,
      "▁imalat": 672,
      "iyetine": 673,
      "▁icine": 674,
      "▁kopru": 675,
      "asındaki": 676,
      "▁dukk": 677,
      "▁harit": 678,
      "▁seydi": 679,
      "▁planın": 680,
      "▁hiss": 681,
      "▁sirketlerinin": 682,
      "▁gozluk": 683,
      "▁ilan": 684,
      "▁ellerinde": 685,
      "▁6'dan": 686,
      "▁viz": 687,
      "▁konu": 688,
      "▁seyinden": 689,
      "▁la": 690,
      "▁tatil": 691,
      "▁deh": 692,
      "▁nikah": 693,
      "▁olarak": 694,
      "cinin": 695,
      "▁krav": 696,
      "▁coluk": 697,
      "▁bıy": 698,
      "▁15": 699,
      "dıklarını": 700,
      "▁mo": 701,
      "▁apartman": 702,
      "▁arazi": 703,
      "▁perde": 704,
      "▁camur": 705,
      "lasıyor": 706,
      "▁seviy": 707,
      "▁”": 708,
      "'ta": 709,
      "▁pazartesi": 710,
      "▁seyir": 711,
      "▁firmaları": 712,
      "▁aktarmalı": 713,
      "rarak": 714,
      "-sat": 715,
      "▁belir": 716,
      "alarım": 717,
      "▁reh": 718,
      "▁un": 719,
      "▁olar": 720,
      "▁basında": 721,
      "larda": 722,
      "umuza": 723,
      "▁gercegi": 724,
      "ıla": 725,
      "▁ihale": 726,
      "▁urunlerin": 727,
      "ukca": 728,
      "▁oda": 729,
      "▁gunes": 730,
      "▁dol": 731,
      "irim": 732,
      "▁noktasına": 733,
      "un": 734,
      "▁mayıs": 735,
      "▁ay": 736,
      "lar": 737,
      "lıklar": 738,
      "▁faal": 739,
      "u": 740,
      "▁omuz": 741,
      "▁kaf": 742,
      "▁ikti": 743,
      "▁unut": 744,
      "▁bono": 745,
      "▁davaya": 746,
      "▁francisco'ya": 747,
      "▁aga": 748,
      "▁yud": 749,
      "misti": 750,
      "▁merkezine": 751,
      "▁hijyen": 752,
      "▁balayi": 753,
      "▁kullanmadim": 754,
      "andır": 755,
      "▁meyv": 756,
      "▁500": 757,
      "▁yapan": 758,
      "▁biy": 759,
      "▁karsılastır": 760,
      "▁tazmin": 761,
      "enli": 762,
      "▁dep": 763,
      "▁tehlik": 764,
      "ıc": 765,
      "▁duzey": 766,
      "▁istedi": 767,
      "hangi": 768,
      "▁bekl": 769,
      "▁tası": 770,
      "▁analizciler": 771,
      "▁teori": 772,
      "▁atlan": 773,
      "▁orman": 774,
      "▁keyif": 775,
      "▁kullanım": 776,
      "▁tahminlerinin": 777,
      "emiyorum": 778,
      "▁kadın": 779,
      "▁evini": 780,
      "▁tabir": 781,
      "madi": 782,
      "leriniz": 783,
      "▁ur": 784,
      "▁oakland'a": 785,
      "▁epey": 786,
      "▁munasebet": 787,
      "▁icinden": 788,
      "▁mesele": 789,
      "&": 790,
      "▁kravat": 791,
      "istel": 792,
      "ograf": 793,
      "▁nuf": 794,
      "▁sub": 795,
      "▁oyuncak": 796,
      "▁hisseler": 797,
      "▁sayı": 798,
      "amiza": 799,
      "▁tır": 800,
      "▁sened": 801,
      "▁oyuncu": 802,
      "▁ucuslar": 803,
      "▁edil": 804,
      "▁kuram": 805,
      "▁sehrine": 806,
      "▁sektorunde": 807,
      "'ı": 808,
      "▁=": 809,
      "samba": 810,
      "ru": 811,
      "yı": 812,
      "p": 813,
      "▁cuv": 814,
      "▁bugunun": 815,
      "▁musteri": 816,
      "▁ogrenciler": 817,
      "▁esv": 818,
      "▁etrafa": 819,
      "oloji": 820,
      "rik": 821,
      "▁vatand": 822,
      "▁insanın": 823,
      "▁vazgec": 824,
      "▁dagdan": 825,
      "▁olcude": 826,
      "▁tavuk": 827,
      "▁prop": 828,
      "▁dokun": 829,
      "min": 830,
      "ian": 831,
      "▁baz": 832,
      "abet": 833,
      "▁bors": 834,
      ".8": 835,
      "▁odalarin": 836,
      "▁haberler": 837,
      "▁1989": 838,
      "▁odedigim": 839,
      "▁herhal": 840,
      "▁edilmesi": 841,
      "▁rom": 842,
      "kuz": 843,
      "▁sehir": 844,
      "▁zamanda": 845,
      "▁sahibi": 846,
      "▁sapk": 847,
      "▁avantaj": 848,
      "▁imkanı": 849,
      "▁kup": 850,
      "eye": 851,
      "unc": 852,
      "▁aram": 853,
      "▁bulgu": 854,
      "yol": 855,
      "▁olus": 856,
      "uyu": 857,
      "▁vide": 858,
      "▁yolculuk": 859,
      "▁intik": 860,
      "etti": 861,
      "ydi": 862,
      "▁iade": 863,
      "isiyle": 864,
      "▁bakım": 865,
      "▁elestiri": 866,
      "▁fi": 867,
      "ıgından": 868,
      "▁avru": 869,
      "▁tasavv": 870,
      "▁edilen": 871,
      "▁maliye": 872,
      "▁cuzdan": 873,
      "▁anay": 874,
      "▁hamur": 875,
      "▁derd": 876,
      "▁tabak": 877,
      "▁stratej": 878,
      "▁tiyatr": 879,
      "uga": 880,
      "▁mer": 881,
      "▁alanında": 882,
      "▁kenar": 883,
      "▁kaybetti": 884,
      "ruf": 885,
      "gil": 886,
      "▁denizi": 887,
      "ay": 888,
      "uler": 889,
      "▁kı": 890,
      "▁isimler": 891,
      "aklar": 892,
      "▁kans": 893,
      "▁katk": 894,
      "kiler": 895,
      "▁kapan": 896,
      "▁duruyor": 897,
      "ici": 898,
      "eda": 899,
      "▁ecz": 900,
      "uguna": 901,
      "▁pas": 902,
      "▁suda": 903,
      "▁yararlan": 904,
      "▁okuy": 905,
      "▁kendilerine": 906,
      "▁bunlar": 907,
      "▁continental": 908,
      "▁anlama": 909,
      "▁ekonomist": 910,
      "eler": 911,
      "▁gitmeyi": 912,
      "onu": 913,
      "▁laz": 914,
      "▁katılım": 915,
      "▁cocukları": 916,
      "isah": 917,
      "▁kalemi": 918,
      "iyer": 919,
      "▁fırtına": 920,
      "▁kalem": 921,
      "umda": 922,
      "▁sını": 923,
      "umuz": 924,
      "▁veya": 925,
      "▁onunla": 926,
      "ern": 927,
      "▁sefer": 928,
      "▁oranları": 929,
      "▁gitmek": 930,
      "▁gelgelelim": 931,
      "▁isler": 932,
      "▁akrab": 933,
      "▁annemin": 934,
      "diye": 935,
      "▁muhafaza": 936,
      "▁kimseye": 937,
      "▁merk": 938,
      "▁197": 939,
      "▁vol": 940,
      "▁got": 941,
      "ev": 942,
      "▁poz": 943,
      "▁berab": 944,
      "ından": 945,
      "▁ev": 946,
      "erleri": 947,
      "▁simdiye": 948,
      "os": 949,
      "▁yazık": 950,
      "▁dayanıs": 951,
      "▁eglenc": 952,
      "▁amacı": 953,
      "▁meger": 954,
      "▁otede": 955,
      "ate": 956,
      "▁pro": 957,
      "▁ink": 958,
      "▁telefonu": 959,
      "▁aralık": 960,
      "▁gerektir": 961,
      "▁dug": 962,
      "▁burokrat": 963,
      "ne": 964,
      "▁pilotlar": 965,
      "edigi": 966,
      "▁fa": 967,
      "▁kararı": 968,
      "usunu": 969,
      "lendirmek": 970,
      "▁fidan": 971,
      "▁diren": 972,
      "▁tem": 973,
      "▁ozen": 974,
      "ek": 975,
      "▁komutan": 976,
      "▁tercih": 977,
      "▁mini": 978,
      "lidir": 979,
      "▁`": 980,
      "▁arada": 981,
      "▁vapur": 982,
      "5": 983,
      "oks": 984,
      "▁past": 985,
      "▁zaten": 986,
      "tern": 987,
      "▁35": 988,
      "▁hale": 989,
      "▁alımı": 990,
      "▁basın": 991,
      "umuzde": 992,
      "▁ilgili": 993,
      "▁mantık": 994,
      "gi": 995,
      "▁sis": 996,
      "▁onlar": 997,
      "cag": 998,
      "▁iflas": 999,
      "▁pah": 1000,
      "▁daima": 1001,
      "vek": 1002,
      "goz": 1003,
      "▁ogr": 1004,
      "alarıyla": 1005,
      "▁eve": 1006,
      "▁masaya": 1007,
      "▁piyas": 1008,
      "▁yılından": 1009,
      "▁polisler": 1010,
      "▁muc": 1011,
      "▁agustos": 1012,
      "re": 1013,
      "ash": 1014,
      "▁ama": 1015,
      "▁degerleri": 1016,
      ".ceyrek": 1017,
      "▁pasif": 1018,
      "▁doviz": 1019,
      "▁aldıgı": 1020,
      "▁sadakat": 1021,
      "sef": 1022,
      "▁olmuyor": 1023,
      "▁varan": 1024,
      "▁farkı": 1025,
      "▁karayolu": 1026,
      "▁mahkeme": 1027,
      "▁ticareti": 1028,
      "▁olun": 1029,
      "erk": 1030,
      "▁yiyecekleri": 1031,
      "rı": 1032,
      "makta": 1033,
      "▁kab": 1034,
      "tım": 1035,
      "ton": 1036,
      "▁hikay": 1037,
      "ene": 1038,
      "▁dum": 1039,
      "art": 1040,
      "▁elleri": 1041,
      "uncu": 1042,
      "▁pır": 1043,
      "agının": 1044,
      "▁dısı": 1045,
      "▁ulus": 1046,
      "den": 1047,
      "▁jur": 1048,
      "lin": 1049,
      "▁zaf": 1050,
      "▁rehber": 1051,
      "▁kak": 1052,
      "▁bazi": 1053,
      "▁lam": 1054,
      "umsal": 1055,
      "ları": 1056,
      "▁sorustur": 1057,
      "▁ceviz": 1058,
      "▁hisseye": 1059,
      "▁pozisyon": 1060,
      "▁hem": 1061,
      "askanı": 1062,
      "▁sozlerini": 1063,
      "▁kapat": 1064,
      "▁ca": 1065,
      "ebilmek": 1066,
      "▁meb": 1067,
      "must": 1068,
      "▁konforu": 1069,
      "enlerin": 1070,
      "▁oturma": 1071,
      "▁oteli": 1072,
      "▁som": 1073,
      "▁iddia": 1074,
      "▁tabl": 1075,
      "'ten": 1076,
      "ari": 1077,
      "▁konular": 1078,
      "▁beyaz": 1079,
      "▁diz": 1080,
      "▁test": 1081,
      "▁ceyreginde": 1082,
      "imore": 1083,
      "▁salonun": 1084,
      "▁subat": 1085,
      "ıyor": 1086,
      "▁zamana": 1087,
      "▁goturdu": 1088,
      "▁hakkinda": 1089,
      "suzluk": 1090,
      "kan": 1091,
      "▁islet": 1092,
      "▁sakat": 1093,
      "%": 1094,
      "ver": 1095,
      "▁gormez": 1096,
      "ye": 1097,
      "fer": 1098,
      "▁yonetim": 1099,
      "▁beraber": 1100,
      "▁kisiye": 1101,
      "▁kıy": 1102,
      "▁id": 1103,
      "▁org": 1104,
      "alık": 1105,
      "▁aday": 1106,
      "▁adımlarla": 1107,
      "▁hasıl": 1108,
      "urken": 1109,
      "▁sozunu": 1110,
      "▁indianapolis": 1111,
      "esiz": 1112,
      "▁kad": 1113,
      "▁mukem": 1114,
      "▁atlanta'dan": 1115,
      "▁sonucu": 1116,
      "▁yoldan": 1117,
      "ladıgı": 1118,
      "▁stokları": 1119,
      "▁fonların": 1120,
      "▁icim": 1121,
      "▁yukse": 1122,
      "▁gozuyle": 1123,
      "▁futbol": 1124,
      "▁sevgil": 1125,
      "▁lirayı": 1126,
      "▁cet": 1127,
      "▁evlerin": 1128,
      "▁var": 1129,
      "▁milyara": 1130,
      "▁alt": 1131,
      "▁lider": 1132,
      "luydu": 1133,
      "▁dusunuyorum": 1134,
      "▁sofra": 1135,
      "▁donemin": 1136,
      "▁yansıt": 1137,
      "▁derde": 1138,
      "ayan": 1139,
      "▁ciddi": 1140,
      "ka": 1141,
      "▁gormedim": 1142,
      "dem": 1143,
      "▁saatte": 1144,
      "aseb": 1145,
      "▁aldıgını": 1146,
      "alet": 1147,
      "▁adını": 1148,
      "▁charl": 1149,
      "▁bilet": 1150,
      "iye": 1151,
      "▁fir": 1152,
      "▁dibine": 1153,
      "▁depremin": 1154,
      "▁tıras": 1155,
      "▁toplumun": 1156,
      "▁uzerine": 1157,
      "▁lazım": 1158,
      "▁tatmin": 1159,
      "▁kod": 1160,
      "▁karısı": 1161,
      "▁amerikalılar": 1162,
      "giniz": 1163,
      "▁sezlong": 1164,
      "▁birim": 1165,
      "ach": 1166,
      "▁bocek": 1167,
      "ust": 1168,
      "▁kola": 1169,
      "▁yem": 1170,
      "▁bakır": 1171,
      "▁malı": 1172,
      "▁personel": 1173,
      "emm": 1174,
      "▁kisiyi": 1175,
      "▁cehen": 1176,
      "▁burn": 1177,
      "▁dolar": 1178,
      "etleri": 1179,
      "▁fransız": 1180,
      "▁yılın": 1181,
      "yle": 1182,
      "ibi": 1183,
      "▁basar": 1184,
      "▁oncesi": 1185,
      "▁pa": 1186,
      "ısma": 1187,
      "▁kolon": 1188,
      "▁yetkililer": 1189,
      "▁agzından": 1190,
      "▁ziyaret": 1191,
      "▁hiz": 1192,
      "▁omz": 1193,
      "▁vakt": 1194,
      "▁gunun": 1195,
      "▁bil": 1196,
      "▁gunler": 1197,
      "▁sahibinin": 1198,
      "▁dolardan": 1199,
      "▁teslim": 1200,
      "▁tutarında": 1201,
      "▁binanın": 1202,
      "▁birkac": 1203,
      "▁vadeli": 1204,
      "▁kırık": 1205,
      "▁makal": 1206,
      "▁kendisi": 1207,
      "lendir": 1208,
      "ese": 1209,
      "▁telefonda": 1210,
      "▁misiniz": 1211,
      "▁butun": 1212,
      "▁kira": 1213,
      "▁fiyatları": 1214,
      "ilen": 1215,
      "▁pittsburgh": 1216,
      "▁ayaklarını": 1217,
      "elerin": 1218,
      "▁angel": 1219,
      "▁yal": 1220,
      "▁ıs": 1221,
      "▁mobil": 1222,
      "▁satısa": 1223,
      "amız": 1224,
      "▁petrol": 1225,
      "▁icimde": 1226,
      "▁isg": 1227,
      "▁ugras": 1228,
      "egine": 1229,
      "▁og": 1230,
      "▁get": 1231,
      "▁etrafını": 1232,
      "▁hakkında": 1233,
      "▁adet": 1234,
      "▁ortalıgı": 1235,
      "▁sorumluluk": 1236,
      "▁kalite": 1237,
      "▁aca": 1238,
      "lıc": 1239,
      "▁yolunda": 1240,
      "elerle": 1241,
      "▁sigortası": 1242,
      "▁yer": 1243,
      "▁klim": 1244,
      "▁kurk": 1245,
      "▁kot": 1246,
      "igine": 1247,
      "▁halini": 1248,
      "▁karsiligini": 1249,
      "▁oldugunu": 1250,
      "▁radyo": 1251,
      "▁zorluk": 1252,
      "▁etmiyor": 1253,
      "enc": 1254,
      "▁pir": 1255,
      "▁s": 1256,
      "▁sekl": 1257,
      "▁asag": 1258,
      "▁pay": 1259,
      "▁disi": 1260,
      "▁varmak": 1261,
      "▁pantolon": 1262,
      "▁allah": 1263,
      "▁vali": 1264,
      "gimiz": 1265,
      "▁hacmi": 1266,
      "irler": 1267,
      "▁eti": 1268,
      "▁ihtimal": 1269,
      "tigine": 1270,
      "tar": 1271,
      "ch": 1272,
      "5'": 1273,
      "▁diyor": 1274,
      "▁havuzun": 1275,
      "lardı": 1276,
      "▁yuklen": 1277,
      "lının": 1278,
      "▁yollarını": 1279,
      "▁eyl": 1280,
      "▁uyku": 1281,
      "▁renkli": 1282,
      "▁kolt": 1283,
      "asının": 1284,
      "▁dem": 1285,
      "▁ucus": 1286,
      "▁sistemi": 1287,
      "gul": 1288,
      "▁iyilik": 1289,
      "▁pitts": 1290,
      "▁hizmet": 1291,
      "▁kuvvetleri": 1292,
      "▁ozlem": 1293,
      "▁20": 1294,
      "▁ozgurluk": 1295,
      "▁ucretleri": 1296,
      "estr": 1297,
      "▁teseb": 1298,
      "▁kopek": 1299,
      "▁kalan": 1300,
      "▁dedim": 1301,
      "▁ro": 1302,
      "▁rej": 1303,
      "sek": 1304,
      "▁santr": 1305,
      "yo": 1306,
      "▁nedenini": 1307,
      "tlu": 1308,
      "▁lez": 1309,
      "▁portakal": 1310,
      "▁vakit": 1311,
      "▁pros": 1312,
      "acı": 1313,
      "▁medya": 1314,
      "▁kotu": 1315,
      "gesi": 1316,
      "▁ayd": 1317,
      "qu": 1318,
      "1": 1319,
      "▁sair": 1320,
      "ehir": 1321,
      "▁akla": 1322,
      "▁hisselerinin": 1323,
      "ki": 1324,
      "▁uzmanları": 1325,
      "▁hav": 1326,
      "▁sosyal": 1327,
      "▁hizmetleri": 1328,
      "▁ade": 1329,
      "ormal": 1330,
      "▁paranın": 1331,
      "aması": 1332,
      "og": 1333,
      "▁danıs": 1334,
      "▁celik": 1335,
      "▁destek": 1336,
      "gıl": 1337,
      "mli": 1338,
      "af": 1339,
      "▁iht": 1340,
      "▁temer": 1341,
      "▁tanıt": 1342,
      "▁ten": 1343,
      "▁baslık": 1344,
      "graf": 1345,
      "kır": 1346,
      "▁muhat": 1347,
      "▁uzerinde": 1348,
      "ger": 1349,
      "▁seviyede": 1350,
      "▁gozlerinin": 1351,
      "▁imk": 1352,
      "▁oteldi": 1353,
      "era": 1354,
      "▁hos": 1355,
      "▁cor": 1356,
      "▁sertif": 1357,
      "▁basa": 1358,
      "▁rapor": 1359,
      "▁ben": 1360,
      "▁etmeyi": 1361,
      "▁arap": 1362,
      "▁evet": 1363,
      "▁ihracları": 1364,
      "▁donemde": 1365,
      "'nden": 1366,
      "mı": 1367,
      "▁inis": 1368,
      "▁meyhan": 1369,
      "▁dil": 1370,
      "▁geminin": 1371,
      "▁ai": 1372,
      "eklen": 1373,
      "▁sovyetler": 1374,
      "amet": 1375,
      "▁kırmızı": 1376,
      "▁eglence": 1377,
      "▁ates": 1378,
      "itler": 1379,
      "son": 1380,
      "▁duvar": 1381,
      "▁kurus": 1382,
      "tak": 1383,
      "yanın": 1384,
      "▁sikayet": 1385,
      "▁odayı": 1386,
      "dıgını": 1387,
      "zir": 1388,
      "dam": 1389,
      "▁televizyon": 1390,
      "▁bom": 1391,
      "▁limuzin": 1392,
      "▁grupları": 1393,
      "ebilirim": 1394,
      "acak": 1395,
      "▁teskil": 1396,
      "▁dieg": 1397,
      "▁katır": 1398,
      "▁ankar": 1399,
      "▁malz": 1400,
      "kten": 1401,
      "▁masada": 1402,
      "▁yuzme": 1403,
      "▁ide": 1404,
      "▁meyve": 1405,
      "▁ulu": 1406,
      "▁uzerinden": 1407,
      "▁yıld": 1408,
      "▁yıldız": 1409,
      "▁tarafında": 1410,
      "▁gunesin": 1411,
      "▁kosesinde": 1412,
      "▁bilgi": 1413,
      "erdi": 1414,
      "▁amc": 1415,
      "e": 1416,
      "ud": 1417,
      "▁haft": 1418,
      "▁kıyas": 1419,
      "▁soylemek": 1420,
      "▁yeni": 1421,
      "▁cadde": 1422,
      "▁organizasyon": 1423,
      "sarak": 1424,
      "tigini": 1425,
      "ark": 1426,
      "▁davranıs": 1427,
      "▁malum": 1428,
      "▁kalkıp": 1429,
      "ili": 1430,
      "lamalar": 1431,
      "▁ayaklarının": 1432,
      "▁vad": 1433,
      "igini": 1434,
      "▁egz": 1435,
      "odr": 1436,
      "▁yıldan": 1437,
      "▁corp": 1438,
      "▁tesis": 1439,
      "▁bilgileri": 1440,
      "▁nokta": 1441,
      "▁ortak": 1442,
      "eli": 1443,
      "▁her": 1444,
      "kili": 1445,
      "/4": 1446,
      "▁hikaye": 1447,
      "lıp": 1448,
      "▁ot": 1449,
      "▁yanı": 1450,
      "eme": 1451,
      "keti": 1452,
      "ıv": 1453,
      "▁govde": 1454,
      "▁sorunların": 1455,
      "▁hurr": 1456,
      "▁oncesine": 1457,
      "leri": 1458,
      "▁sartları": 1459,
      "▁dava": 1460,
      "▁fonlar": 1461,
      "▁olanak": 1462,
      "sul": 1463,
      "▁haftada": 1464,
      "▁calgı": 1465,
      "▁gozlem": 1466,
      "▁hit": 1467,
      "▁care": 1468,
      "▁ilet": 1469,
      "▁konumu": 1470,
      "▁kızım": 1471,
      "▁insanların": 1472,
      "▁agır": 1473,
      "▁komplek": 1474,
      "▁organ": 1475,
      "zet": 1476,
      "▁eden": 1477,
      "▁agr": 1478,
      "▁danısmanı": 1479,
      "▁ucusun": 1480,
      "▁gazeteci": 1481,
      "▁sponsor": 1482,
      "+": 1483,
      "▁cıktı": 1484,
      "▁dısarıda": 1485,
      "▁sus": 1486,
      "▁hatta": 1487,
      "leyen": 1488,
      "▁katil": 1489,
      "▁temiz": 1490,
      "▁sup": 1491,
      "▁cırp": 1492,
      "▁ge": 1493,
      "▁olmasi": 1494,
      "▁yargıc": 1495,
      "lanan": 1496,
      "▁getirdi": 1497,
      "ing": 1498,
      "▁skan": 1499,
      "ırda": 1500,
      "tusu": 1501,
      "kal": 1502,
      "▁oper": 1503,
      "▁kadına": 1504,
      "▁ucuza": 1505,
      "▁pab": 1506,
      "osu": 1507,
      "▁em": 1508,
      "▁yurd": 1509,
      "▁ızdır": 1510,
      "'lik": 1511,
      "▁calısıyor": 1512,
      "▁hakim": 1513,
      "▁sayf": 1514,
      "▁sonu": 1515,
      "▁kayıp": 1516,
      "x": 1517,
      "ıza": 1518,
      "▁yarım": 1519,
      "ucu": 1520,
      "▁calısmaya": 1521,
      "▁baskaları": 1522,
      "▁fırın": 1523,
      "nız": 1524,
      "tr": 1525,
      "▁hangi": 1526,
      "▁balta": 1527,
      "anmak": 1528,
      "▁olmadı": 1529,
      "amaya": 1530,
      "imin": 1531,
      "▁evvel": 1532,
      "▁koru": 1533,
      "▁temizliginden": 1534,
      "iyor": 1535,
      "ci": 1536,
      "▁secen": 1537,
      "atla": 1538,
      "▁getiri": 1539,
      "▁otobus": 1540,
      "▁satır": 1541,
      "▁fuz": 1542,
      "▁protesto": 1543,
      "▁mim": 1544,
      "▁kısmı": 1545,
      "▁huzun": 1546,
      "lari": 1547,
      "▁motiv": 1548,
      "▁gelecegi": 1549,
      "lem": 1550,
      "mos": 1551,
      "▁oak": 1552,
      "▁hik": 1553,
      "▁oyunc": 1554,
      "j": 1555,
      "▁risk": 1556,
      "▁ac": 1557,
      "▁orada": 1558,
      "▁dern": 1559,
      "▁fis": 1560,
      "amac": 1561,
      "▁gob": 1562,
      "isine": 1563,
      "▁rol": 1564,
      "▁gostergeleri": 1565,
      "ur": 1566,
      "edeki": 1567,
      "▁sandal": 1568,
      "▁oranında": 1569,
      "▁kay": 1570,
      "imci": 1571,
      "▁bisiklet": 1572,
      "▁st": 1573,
      "▁oyunlar": 1574,
      "▁malzeme": 1575,
      "▁sınıfta": 1576,
      "▁cocukların": 1577,
      "▁elimi": 1578,
      "erin": 1579,
      "▁duvarın": 1580,
      "mes": 1581,
      "▁iktidar": 1582,
      "▁misafir": 1583,
      "▁yaptıgı": 1584,
      "▁raporları": 1585,
      "abor": 1586,
      "▁milwaukee": 1587,
      "amın": 1588,
      "▁girdi": 1589,
      "▁sola": 1590,
      "▁fık": 1591,
      "▁dostluk": 1592,
      "▁prosed": 1593,
      "▁tuccar": 1594,
      "▁varlıklar": 1595,
      "▁istatist": 1596,
      "▁bolum": 1597,
      "▁yanıt": 1598,
      "▁eger": 1599,
      "▁gozune": 1600,
      "▁dans": 1601,
      "▁sh": 1602,
      "▁ciro": 1603,
      "acaktır": 1604,
      "▁teminat": 1605,
      "#": 1606,
      "▁baslamıs": 1607,
      "▁sifir": 1608,
      "▁yiy": 1609,
      "▁komisyonları": 1610,
      "▁dusuncelerini": 1611,
      "▁yurur": 1612,
      "▁ugra": 1613,
      "▁sinyal": 1614,
      "▁milli": 1615,
      "▁uzakti": 1616,
      "▁tekrar": 1617,
      "▁pansiyon": 1618,
      "▁toz": 1619,
      "▁asır": 1620,
      "iyeti": 1621,
      "emek": 1622,
      "isindan": 1623,
      "ımın": 1624,
      "▁yatırımcıları": 1625,
      "▁rezerve": 1626,
      "▁ici": 1627,
      "▁emlak": 1628,
      "meler": 1629,
      "ıgın": 1630,
      "yas": 1631,
      "▁muhal": 1632,
      "▁gercekten": 1633,
      "▁olsa": 1634,
      "▁edi": 1635,
      "tas": 1636,
      "▁fal": 1637,
      "▁yahut": 1638,
      "▁'": 1639,
      "▁kısalt": 1640,
      "▁nob": 1641,
      "▁rut": 1642,
      "▁olmustur": 1643,
      "'nde": 1644,
      "▁degisimi": 1645,
      "▁odamiz": 1646,
      "▁hayran": 1647,
      "▁ula": 1648,
      "▁sol": 1649,
      "▁ilgisizdi": 1650,
      "▁ban": 1651,
      "▁bankalar": 1652,
      "▁ag": 1653,
      "ster": 1654,
      "▁ila": 1655,
      "imi": 1656,
      "▁hayatı": 1657,
      "▁itir": 1658,
      "kiz": 1659,
      "▁suru": 1660,
      "▁cark": 1661,
      "▁ney": 1662,
      "ital": 1663,
      "▁basbakan": 1664,
      "▁gunumuzde": 1665,
      "▁cezası": 1666,
      "adde": 1667,
      "▁sayisi": 1668,
      "▁parası": 1669,
      "inizi": 1670,
      "▁basvur": 1671,
      "▁mevcut": 1672,
      "ligi": 1673,
      "esine": 1674,
      "▁verin": 1675,
      "isinda": 1676,
      "▁dusunceler": 1677,
      "▁ozgur": 1678,
      "▁konuları": 1679,
      "▁hakikat": 1680,
      "▁cab": 1681,
      "▁cıkarmaya": 1682,
      "lılık": 1683,
      "▁ceb": 1684,
      "▁kampanya": 1685,
      "▁kez": 1686,
      "sekiz": 1687,
      "▁devleti": 1688,
      "uru": 1689,
      "▁miras": 1690,
      "▁yild": 1691,
      "▁bakar": 1692,
      "▁soyle": 1693,
      "▁elinin": 1694,
      "▁kam": 1695,
      "isinin": 1696,
      "▁sebz": 1697,
      "edil": 1698,
      "▁nedeniyle": 1699,
      "al": 1700,
      "▁kop": 1701,
      "▁americ": 1702,
      "erik": 1703,
      "▁olmadıgını": 1704,
      "▁dususle": 1705,
      "▁senaryo": 1706,
      "▁yay": 1707,
      "▁karn": 1708,
      "▁gelirler": 1709,
      "▁kendime": 1710,
      "▁dizi": 1711,
      "eg": 1712,
      "▁kalitesi": 1713,
      "▁devir": 1714,
      "▁baltimore'den": 1715,
      "▁fena": 1716,
      "cısı": 1717,
      "▁dede": 1718,
      "▁temmuz": 1719,
      "▁kosk": 1720,
      "lusu": 1721,
      "▁olduklarını": 1722,
      "ab": 1723,
      "mini": 1724,
      "▁kızın": 1725,
      "▁dosya": 1726,
      "orth": 1727,
      "▁aqua": 1728,
      "▁super": 1729,
      "▁bahc": 1730,
      "ecekti": 1731,
      "▁gay": 1732,
      "biy": 1733,
      "▁iy": 1734,
      "uzlu": 1735,
      "▁tarl": 1736,
      "▁karsın": 1737,
      "▁tip": 1738,
      "▁isci": 1739,
      "▁10'dan": 1740,
      "▁okulu": 1741,
      "▁kendim": 1742,
      "▁tun": 1743,
      "▁dl": 1744,
      "▁nus": 1745,
      "▁havuzu": 1746,
      "▁kamyon": 1747,
      "lastı": 1748,
      "larıma": 1749,
      "▁sesleri": 1750,
      "istir": 1751,
      "aya": 1752,
      "▁duruyordu": 1753,
      "▁hazırlık": 1754,
      "▁balik": 1755,
      "ncu": 1756,
      "▁ayakk": 1757,
      "▁vatan": 1758,
      "▁satısları": 1759,
      "▁boston'dan": 1760,
      "▁getirisi": 1761,
      "▁1990'da": 1762,
      "▁yonet": 1763,
      "▁harekete": 1764,
      "▁yemeklerin": 1765,
      "▁heyeti": 1766,
      "ısının": 1767,
      "▁tor": 1768,
      "▁cumhurb": 1769,
      "?": 1770,
      "▁sorunları": 1771,
      "cuk": 1772,
      "▁miz": 1773,
      "▁american": 1774,
      "▁i": 1775,
      "bi": 1776,
      "▁urun": 1777,
      "meyi": 1778,
      "▁ustun": 1779,
      "eder": 1780,
      "▁universitesi": 1781,
      "▁umit": 1782,
      "_": 1783,
      "▁kar": 1784,
      "▁otob": 1785,
      "▁gonlum": 1786,
      "▁olmak": 1787,
      "▁cıkar": 1788,
      "▁isbir": 1789,
      "▁tam": 1790,
      "▁dalga": 1791,
      "▁cumhurbaskanı": 1792,
      "▁nez": 1793,
      "▁ası": 1794,
      "▁amma": 1795,
      "▁rezerv": 1796,
      "madik": 1797,
      "ktan": 1798,
      "dir": 1799,
      "▁tiyatro": 1800,
      "▁karakter": 1801,
      "iyatr": 1802,
      "▁degilim": 1803,
      "▁bahsederim": 1804,
      "▁bahs": 1805,
      "▁pac": 1806,
      "▁varlıgını": 1807,
      "▁guleryuzlu": 1808,
      "▁ediyor": 1809,
      "uslar": 1810,
      "sa": 1811,
      "yacak": 1812,
      "baz": 1813,
      "abilecegini": 1814,
      "gunluk": 1815,
      "ine": 1816,
      "▁davran": 1817,
      "▁haber": 1818,
      "tiler": 1819,
      "▁altına": 1820,
      "▁havayı": 1821,
      "\"": 1822,
      "▁yalnız": 1823,
      "▁oyn": 1824,
      "▁kentin": 1825,
      "▁planlıyor": 1826,
      "▁ham": 1827,
      "▁okumak": 1828,
      "ilecegi": 1829,
      "▁temet": 1830,
      "ıga": 1831,
      "▁girmek": 1832,
      "▁toh": 1833,
      "ht": 1834,
      "gıc": 1835,
      "▁m": 1836,
      "tti": 1837,
      "▁gerekir": 1838,
      "uyorum": 1839,
      "▁soylen": 1840,
      "lanması": 1841,
      "▁politik": 1842,
      "▁konusunda": 1843,
      "▁ankete": 1844,
      "▁gunlerde": 1845,
      "▁ig": 1846,
      "▁ve": 1847,
      "a'nın": 1848,
      "▁yıllardır": 1849,
      "▁kasım": 1850,
      "▁mode": 1851,
      "iyim": 1852,
      "▁zır": 1853,
      "▁kuralları": 1854,
      "▁lezzet": 1855,
      "▁sikinti": 1856,
      "▁isini": 1857,
      "anın": 1858,
      "▁oldur": 1859,
      "▁varlık": 1860,
      "▁egitim": 1861,
      "▁sukur": 1862,
      "▁yanında": 1863,
      "▁yururluge": 1864,
      "▁istiyorum": 1865,
      "▁oyk": 1866,
      "▁havayollarının": 1867,
      "▁yalnızlık": 1868,
      "▁delikan": 1869,
      "▁gerekiyor": 1870,
      "▁ydi": 1871,
      "▁ipek": 1872,
      "▁bol": 1873,
      "▁ver": 1874,
      "om": 1875,
      "▁krizi": 1876,
      "amaları": 1877,
      "▁bin": 1878,
      "▁cesitler": 1879,
      "▁yav": 1880,
      "▁hangisi": 1881,
      "masın": 1882,
      "▁gobek": 1883,
      "▁bilin": 1884,
      "▁calısan": 1885,
      "▁tedarik": 1886,
      "▁sac": 1887,
      "larımın": 1888,
      "▁ilgil": 1889,
      "ebilecegini": 1890,
      "▁andan": 1891,
      "uc": 1892,
      "▁faaliyet": 1893,
      "▁dom": 1894,
      "alım": 1895,
      "▁tasın": 1896,
      "ızı": 1897,
      "lanma": 1898,
      "▁duskun": 1899,
      "▁ciftciler": 1900,
      "▁sp": 1901,
      "▁avrupa": 1902,
      "▁yıllardan": 1903,
      "uzluydu": 1904,
      "1'e": 1905,
      "▁asıl": 1906,
      "▁maliyeti": 1907,
      "yız": 1908,
      "▁istis": 1909,
      "▁tuhaf": 1910,
      "dası": 1911,
      "▁yazılım": 1912,
      "▁liraya": 1913,
      "temelen": 1914,
      "▁ucu": 1915,
      "▁dere": 1916,
      "▁beklenti": 1917,
      "acık": 1918,
      "▁kisi": 1919,
      "▁gorusme": 1920,
      "▁taz": 1921,
      "lant": 1922,
      "▁ikisi": 1923,
      "tek": 1924,
      "▁umid": 1925,
      "▁leblebi": 1926,
      "▁geldigini": 1927,
      "n": 1928,
      "▁ticaret": 1929,
      "▁cih": 1930,
      "lıgıyla": 1931,
      "▁sarı": 1932,
      "bus": 1933,
      "▁talim": 1934,
      "iyat": 1935,
      "▁kesif": 1936,
      "▁baban": 1937,
      "▁edin": 1938,
      "▁cez": 1939,
      "uyordum": 1940,
      "▁kalit": 1941,
      "▁kıymetleri": 1942,
      "lamıstı": 1943,
      "memiz": 1944,
      "▁itiraz": 1945,
      "▁ele": 1946,
      "▁aydın": 1947,
      "▁kade": 1948,
      "▁toplan": 1949,
      "▁mens": 1950,
      "▁kork": 1951,
      "andan": 1952,
      "▁muhtar": 1953,
      "▁yuksel": 1954,
      "▁etkil": 1955,
      "anc": 1956,
      "▁kabil": 1957,
      "▁seylerin": 1958,
      "larıyla": 1959,
      "▁kavram": 1960,
      "▁oturdu": 1961,
      "▁odaya": 1962,
      "▁gorunuse": 1963,
      "arlar": 1964,
      "larına": 1965,
      "▁hisse": 1966,
      "▁tesisti": 1967,
      "▁veriyorum": 1968,
      "leye": 1969,
      "ıt": 1970,
      "▁cer": 1971,
      "▁kısı": 1972,
      "ag": 1973,
      "▁gazet": 1974,
      "larımı": 1975,
      "▁bankacılık": 1976,
      "mar": 1977,
      "▁tarafına": 1978,
      "ts": 1979,
      "▁seyr": 1980,
      "▁yerlerde": 1981,
      "▁arkadasım": 1982,
      "▁bagı": 1983,
      "akat": 1984,
      "▁bicimde": 1985,
      "▁okum": 1986,
      "▁annesinin": 1987,
      "▁bolumunde": 1988,
      "▁esir": 1989,
      ".m": 1990,
      "▁orgut": 1991,
      "ukee": 1992,
      "▁baska": 1993,
      "▁bis": 1994,
      "▁indirim": 1995,
      "▁gitti": 1996,
      "▁tanım": 1997,
      "▁animasyonlar": 1998,
      "▁bıc": 1999,
      "▁fedakar": 2000,
      "▁kahram": 2001,
      "▁kadar": 2002,
      "kce": 2003,
      "ij": 2004,
      "ginde": 2005,
      "▁vermeye": 2006,
      "asır": 2007,
      "iti": 2008,
      "masız": 2009,
      "▁on": 2010,
      "▁kahval": 2011,
      "▁cars": 2012,
      "ahi": 2013,
      "▁geciyor": 2014,
      "lamak": 2015,
      "atı": 2016,
      "▁suyunu": 2017,
      "enler": 2018,
      "h": 2019,
      "lendi": 2020,
      "▁ustunden": 2021,
      "▁redd": 2022,
      "▁atlanta'ya": 2023,
      "▁potansiy": 2024,
      "▁araya": 2025,
      "▁mis": 2026,
      "land": 2027,
      "▁miy": 2028,
      "▁bayan": 2029,
      "▁sehirde": 2030,
      "▁tv": 2031,
      "▁kaldim": 2032,
      "▁bor": 2033,
      "▁oyunu": 2034,
      "▁gok": 2035,
      "▁port": 2036,
      "▁iyiye": 2037,
      "▁ardına": 2038,
      "▁pr": 2039,
      "▁ureticisi": 2040,
      "▁ısı": 2041,
      "▁ardında": 2042,
      "ind": 2043,
      "▁kitapları": 2044,
      "▁ad": 2045,
      "▁washington'dan": 2046,
      "eligini": 2047,
      "▁tezgah": 2048,
      "▁sokaklarda": 2049,
      "▁depart": 2050,
      "▁itaat": 2051,
      "▁calısanları": 2052,
      "esem": 2053,
      "▁juri": 2054,
      "▁prenses": 2055,
      "gah": 2056,
      "▁cogunlugu": 2057,
      "▁lah": 2058,
      "suz": 2059,
      "▁isletmeler": 2060,
      "yacag": 2061,
      "▁dukkan": 2062,
      "gıcı": 2063,
      "▁duzelt": 2064,
      "▁gor": 2065,
      "lerimizin": 2066,
      "…": 2067,
      "▁yont": 2068,
      "▁uretici": 2069,
      "▁cıkarma": 2070,
      "▁artırmak": 2071,
      "emez": 2072,
      "▁niyet": 2073,
      "▁ayr": 2074,
      "▁siyas": 2075,
      "yuz": 2076,
      "ibe": 2077,
      "▁bahceye": 2078,
      "kah": 2079,
      "ess": 2080,
      "▁mor": 2081,
      "▁muduru": 2082,
      "▁anlasmayı": 2083,
      "▁orgu": 2084,
      "▁degerlendiririm": 2085,
      "▁birdenbire": 2086,
      "▁indir": 2087,
      "arlı": 2088,
      "▁kapasitesi": 2089,
      "▁ap": 2090,
      "▁ib": 2091,
      "▁olmaz": 2092,
      "meldi": 2093,
      "▁konum": 2094,
      "▁gazete": 2095,
      "▁ph": 2096,
      "icisi": 2097,
      "▁kadro": 2098,
      "dirme": 2099,
      "'de": 2100,
      "liginden": 2101,
      "▁aldılar": 2102,
      "imle": 2103,
      "▁ka": 2104,
      "▁cares": 2105,
      "▁dow": 2106,
      "▁ekibi": 2107,
      "▁ucusuna": 2108,
      "▁egzersiz": 2109,
      "▁genc": 2110,
      "azı": 2111,
      "agını": 2112,
      "masında": 2113,
      "▁titr": 2114,
      "ısın": 2115,
      "▁dedikodu": 2116,
      "▁beyler": 2117,
      "▁rez": 2118,
      "▁kut": 2119,
      "▁muzigi": 2120,
      "▁arab": 2121,
      "▁sırasında": 2122,
      "▁mily": 2123,
      "▁alay": 2124,
      "▁birinin": 2125,
      "cum": 2126,
      "maca": 2127,
      "dılar": 2128,
      "▁fikri": 2129,
      "▁karak": 2130,
      "▁idaresi": 2131,
      "▁ince": 2132,
      "▁kapısına": 2133,
      "▁hangileri": 2134,
      "co": 2135,
      "▁gelis": 2136,
      "▁yaptir": 2137,
      "tır": 2138,
      "▁16": 2139,
      "▁ithalat": 2140,
      "▁agab": 2141,
      "▁14": 2142,
      "▁sınır": 2143,
      "▁hul": 2144,
      "▁endust": 2145,
      "▁iste": 2146,
      "▁ov": 2147,
      "▁buyum": 2148,
      "ıtı": 2149,
      "–": 2150,
      "▁basarı": 2151,
      "▁denizin": 2152,
      "▁kayıplar": 2153,
      "▁yog": 2154,
      "▁sabaha": 2155,
      "▁kalacak": 2156,
      "ville": 2157,
      "▁tutum": 2158,
      "arım": 2159,
      "▁degisiklikleri": 2160,
      "▁yakinlarima": 2161,
      "▁kolu": 2162,
      "▁cami": 2163,
      "makla": 2164,
      "▁sehr": 2165,
      "ının": 2166,
      "ustos": 2167,
      "▁dagıt": 2168,
      "▁baskalarının": 2169,
      "▁nam": 2170,
      "▁tac": 2171,
      "▁onay": 2172,
      "eyr": 2173,
      "▁atıs": 2174,
      "▁fiz": 2175,
      "▁sayet": 2176,
      "▁seyahat": 2177,
      "tigim": 2178,
      "cagı": 2179,
      "mad": 2180,
      "▁bag": 2181,
      "▁mater": 2182,
      "▁konumundan": 2183,
      "▁sekreter": 2184,
      "lemeye": 2185,
      "▁eb": 2186,
      "▁muhtemelen": 2187,
      "ayı": 2188,
      "▁in": 2189,
      "▁boncuk": 2190,
      "▁garsonlar": 2191,
      "▁iki": 2192,
      "ost": 2193,
      "▁cem": 2194,
      "met": 2195,
      "▁tarafa": 2196,
      "▁yasay": 2197,
      "▁j": 2198,
      "▁calisanlari": 2199,
      "unden": 2200,
      "▁borcu": 2201,
      "▁pam": 2202,
      "▁vergisi": 2203,
      "▁kaygı": 2204,
      "▁altında": 2205,
      "▁konularda": 2206,
      "▁nik": 2207,
      ".2": 2208,
      "▁kapısından": 2209,
      "▁sayısı": 2210,
      "▁kalk": 2211,
      "lugunun": 2212,
      "tem": 2213,
      "▁atıl": 2214,
      "▁ayında": 2215,
      "▁bununla": 2216,
      "▁ir": 2217,
      "▁seytan": 2218,
      "▁damak": 2219,
      "▁gorunum": 2220,
      "▁yoksul": 2221,
      "▁p": 2222,
      "ec": 2223,
      "asıl": 2224,
      "▁lu": 2225,
      "▁kelep": 2226,
      "▁veg": 2227,
      "▁olimpiyat": 2228,
      "▁hasta": 2229,
      "▁gunesi": 2230,
      "▁kasaba": 2231,
      "▁menf": 2232,
      "▁bolgesi": 2233,
      "▁musteriler": 2234,
      "▁yılların": 2235,
      "▁ruy": 2236,
      "▁seviyesine": 2237,
      "di": 2238,
      "▁yasa": 2239,
      "▁city'den": 2240,
      "acagına": 2241,
      "▁inek": 2242,
      "▁nedeni": 2243,
      "▁yetk": 2244,
      "alan": 2245,
      "▁onayına": 2246,
      "▁istanbul": 2247,
      "▁varlıgı": 2248,
      "▁united": 2249,
      "islari": 2250,
      "▁karsilama": 2251,
      "▁gond": 2252,
      "▁fazlasını": 2253,
      "▁esyalar": 2254,
      "▁sınav": 2255,
      "mki": 2256,
      "▁tahmini": 2257,
      "▁odam": 2258,
      "$": 2259,
      "raz": 2260,
      "▁yapmaktan": 2261,
      "iran": 2262,
      "das": 2263,
      "▁bagır": 2264,
      "reti": 2265,
      "▁hev": 2266,
      "▁acen": 2267,
      "imden": 2268,
      "cılıgı": 2269,
      "▁havaalanı'nda": 2270,
      "lanmadı": 2271,
      "yıl": 2272,
      "▁partisi": 2273,
      "eceg": 2274,
      "▁usul": 2275,
      "7'de": 2276,
      "▁sov": 2277,
      "dırım": 2278,
      "▁kapsamında": 2279,
      "▁yasında": 2280,
      "▁yuzey": 2281,
      "ums": 2282,
      "▁donemi": 2283,
      "▁aylarda": 2284,
      "ekti": 2285,
      "▁kalır": 2286,
      "▁kredileri": 2287,
      "▁turlar": 2288,
      "▁iceri": 2289,
      "▁av": 2290,
      "mul": 2291,
      "▁o": 2292,
      "▁oranda": 2293,
      "▁odamdan": 2294,
      "▁devlet": 2295,
      "▁masal": 2296,
      "alle": 2297,
      "▁tatlilar": 2298,
      "iza": 2299,
      "▁jandar": 2300,
      "▁sandaly": 2301,
      "▁urunleri": 2302,
      "▁vap": 2303,
      "▁mekan": 2304,
      "▁hemsir": 2305,
      "▁birles": 2306,
      "▁duyar": 2307,
      "▁demektir": 2308,
      "raber": 2309,
      "▁hani": 2310,
      "cagız": 2311,
      "▁oz": 2312,
      "rar": 2313,
      "ez": 2314,
      "▁sofor": 2315,
      "▁ab": 2316,
      "ız": 2317,
      "▁sozcuk": 2318,
      "izm": 2319,
      "▁cit": 2320,
      "▁sayg": 2321,
      "▁terbiye": 2322,
      "aca": 2323,
      "sman": 2324,
      "ana": 2325,
      "▁agzını": 2326,
      "▁orne": 2327,
      "▁kendis": 2328,
      "▁belli": 2329,
      "▁kalitesinden": 2330,
      "▁konusuyor": 2331,
      "▁muz": 2332,
      "▁konustu": 2333,
      "▁yardımcısı": 2334,
      "▁basit": 2335,
      "▁kullanıyor": 2336,
      "elt": 2337,
      "rlikte": 2338,
      "alarına": 2339,
      "arak": 2340,
      "ro": 2341,
      "eyn": 2342,
      "▁biri": 2343,
      "▁arkasında": 2344,
      "enlere": 2345,
      "▁lideri": 2346,
      "▁ceyrek": 2347,
      "▁zevk": 2348,
      "▁kilit": 2349,
      "▁egem": 2350,
      "▁acılıs": 2351,
      "lanmıs": 2352,
      "▁dam": 2353,
      "▁kıyıya": 2354,
      "▁iz": 2355,
      "▁adr": 2356,
      "▁unsur": 2357,
      "▁babama": 2358,
      "▁kalıyor": 2359,
      "▁arac": 2360,
      "▁sure": 2361,
      "▁soguk": 2362,
      "▁mucade": 2363,
      "▁eliyle": 2364,
      "▁uretimi": 2365,
      "uya": 2366,
      "▁4": 2367,
      "▁seg": 2368,
      "▁birlikte": 2369,
      "▁gonl": 2370,
      "▁azal": 2371,
      "kar": 2372,
      "stık": 2373,
      "▁memlekette": 2374,
      "▁kom": 2375,
      "unu": 2376,
      "▁kaldırım": 2377,
      "▁charlotte": 2378,
      "▁hedefi": 2379,
      "▁yapılan": 2380,
      "▁tenc": 2381,
      "▁icra": 2382,
      "▁bıraktı": 2383,
      "▁motor": 2384,
      "▁zil": 2385,
      "▁hip": 2386,
      "▁simdi": 2387,
      "▁potansiyel": 2388,
      "obil": 2389,
      "emedim": 2390,
      "▁arb": 2391,
      "▁size": 2392,
      "▁kotuydu": 2393,
      "▁servet": 2394,
      "▁yakin": 2395,
      "▁edep": 2396,
      "ersiz": 2397,
      "ılıg": 2398,
      "▁surec": 2399,
      "elik": 2400,
      "▁palto": 2401,
      "▁dogal": 2402,
      "aga": 2403,
      "sal": 2404,
      "mamak": 2405,
      "▁bul": 2406,
      "▁dogum": 2407,
      "▁contin": 2408,
      "sk": 2409,
      "a'da": 2410,
      "▁manzarasi": 2411,
      "▁tap": 2412,
      "▁savas": 2413,
      "▁petr": 2414,
      "kon": 2415,
      "▁nar": 2416,
      "▁kapıları": 2417,
      "▁teh": 2418,
      "▁cleveland": 2419,
      "▁matem": 2420,
      "▁beb": 2421,
      "▁25": 2422,
      "▁sehirler": 2423,
      "▁ataturk": 2424,
      "▁seh": 2425,
      "▁gecesi": 2426,
      "▁varil": 2427,
      "▁oncesinde": 2428,
      "▁gucunu": 2429,
      "▁islerini": 2430,
      "▁husus": 2431,
      "▁fiyata": 2432,
      "b": 2433,
      "▁hamle": 2434,
      "▁dilek": 2435,
      "▁ilkbah": 2436,
      "dıgım": 2437,
      "▁gelisim": 2438,
      "▁oglum": 2439,
      "umuzun": 2440,
      "▁listeleyin": 2441,
      "▁but": 2442,
      "san": 2443,
      "▁kurulus": 2444,
      "ıslı": 2445,
      "▁sıra": 2446,
      "▁duzen": 2447,
      "▁oluyor": 2448,
      "▁avuk": 2449,
      "▁doları'ndan": 2450,
      "▁pirinc": 2451,
      "inizin": 2452,
      "▁atesi": 2453,
      "▁yapıt": 2454,
      "ellikle": 2455,
      "▁fikir": 2456,
      "▁hizmeti": 2457,
      "▁denver": 2458,
      "dı": 2459,
      "▁yapacak": 2460,
      "abı": 2461,
      "▁manz": 2462,
      "agın": 2463,
      "▁pahaliydi": 2464,
      "▁ucretler": 2465,
      "allı": 2466,
      "▁kimyasal": 2467,
      "iyorum": 2468,
      "▁ortada": 2469,
      "▁okul": 2470,
      "▁sabahı": 2471,
      "▁teknoloj": 2472,
      "▁ısık": 2473,
      "eyi": 2474,
      "▁koseye": 2475,
      "▁alıyor": 2476,
      "isi": 2477,
      "▁and": 2478,
      "▁huzur": 2479,
      "ard": 2480,
      "▁bankaların": 2481,
      "gel": 2482,
      "'d": 2483,
      "▁oyna": 2484,
      "▁bakıyor": 2485,
      "dikten": 2486,
      "▁kala": 2487,
      "▁donem": 2488,
      "▁ortalam": 2489,
      "▁ars": 2490,
      "▁duman": 2491,
      "▁gelecekte": 2492,
      "▁ayrıca": 2493,
      "▁kadr": 2494,
      "▁ucusunda": 2495,
      "ok": 2496,
      "▁tavır": 2497,
      "▁kıvılc": 2498,
      "ain": 2499,
      "▁dolara": 2500,
      "▁pet": 2501,
      "▁yuk": 2502,
      "ecektir": 2503,
      "isleri": 2504,
      "▁guler": 2505,
      "▁sahis": 2506,
      "ıcının": 2507,
      "▁elb": 2508,
      "emiz": 2509,
      "ela": 2510,
      "▁darbe": 2511,
      "▁1988": 2512,
      "ustur": 2513,
      "▁fiyatlarının": 2514,
      "▁fabrik": 2515,
      "▁katana": 2516,
      "▁gunden": 2517,
      "▁guzellik": 2518,
      "leleri": 2519,
      "idi": 2520,
      "medigini": 2521,
      "mma": 2522,
      "▁muda": 2523,
      "▁sirketlerin": 2524,
      "▁evde": 2525,
      "▁penc": 2526,
      "ram": 2527,
      "ilmis": 2528,
      "▁gune": 2529,
      "▁benz": 2530,
      "▁kampanyalar": 2531,
      "▁hur": 2532,
      "▁mevzu": 2533,
      "madıgını": 2534,
      "yarak": 2535,
      "▁adama": 2536,
      "▁borsası'nda": 2537,
      "ligiyle": 2538,
      "▁keleb": 2539,
      "▁moda": 2540,
      "▁portf": 2541,
      "▁lık": 2542,
      "▁bina": 2543,
      "▁digerleri": 2544,
      "go": 2545,
      "▁sm": 2546,
      "▁kuzu": 2547,
      "▁suik": 2548,
      "▁hareketi": 2549,
      "etik": 2550,
      "▁kuyruk": 2551,
      "▁kayıt": 2552,
      "▁uygulama": 2553,
      "ıl": 2554,
      "biye": 2555,
      "▁muht": 2556,
      "▁tarafını": 2557,
      "ilerdi": 2558,
      "▁cumhuriyeti": 2559,
      "▁alın": 2560,
      "▁lokanta": 2561,
      "▁kalb": 2562,
      "▁odalardan": 2563,
      "▁ucreti": 2564,
      "▁uygulamaları": 2565,
      "▁salınc": 2566,
      "▁gelenek": 2567,
      "aleti": 2568,
      "alı": 2569,
      "▁hızla": 2570,
      "▁oldug": 2571,
      "▁kafası": 2572,
      "kinin": 2573,
      "▁pant": 2574,
      "▁ardından": 2575,
      "▁ann": 2576,
      "▁okullar": 2577,
      "jik": 2578,
      "esik": 2579,
      "▁yana": 2580,
      "iness": 2581,
      "▁buh": 2582,
      "▁gununu": 2583,
      "arı": 2584,
      "▁isk": 2585,
      "▁hakem": 2586,
      "▁sevda": 2587,
      "▁por": 2588,
      "indan": 2589,
      "▁doldur": 2590,
      "▁cizgi": 2591,
      "▁faiz": 2592,
      "of": 2593,
      "izlik": 2594,
      "▁halkın": 2595,
      "▁4'ten": 2596,
      "lıgında": 2597,
      "▁sizi": 2598,
      "▁yak": 2599,
      "▁gozunu": 2600,
      "▁komisyonlar": 2601,
      "lk": 2602,
      "▁arkadaslar": 2603,
      "▁22": 2604,
      "▁dedik": 2605,
      "▁bankaları": 2606,
      "maya": 2607,
      "lerimin": 2608,
      "▁fiyatlar": 2609,
      "aren": 2610,
      "▁kumas": 2611,
      "od": 2612,
      "ırı": 2613,
      "▁arbitraj": 2614,
      "▁ket": 2615,
      "tılı": 2616,
      "▁cikis": 2617,
      "lenmis": 2618,
      "▁nef": 2619,
      "ata": 2620,
      "iliyor": 2621,
      "▁kultur": 2622,
      "dum": 2623,
      "▁yukum": 2624,
      "ıdır": 2625,
      "▁komut": 2626,
      "sacak": 2627,
      "anının": 2628,
      "▁dr.": 2629,
      "▁kurallar": 2630,
      "ısır": 2631,
      "▁hazir": 2632,
      "▁hafta": 2633,
      "▁mahkemesi": 2634,
      "tali": 2635,
      "▁kanadı": 2636,
      "bası": 2637,
      "▁fasul": 2638,
      "lıgımı": 2639,
      "▁tanı": 2640,
      "▁zih": 2641,
      "alam": 2642,
      "▁halkla": 2643,
      "▁adi": 2644,
      "▁edip": 2645,
      "▁sen": 2646,
      "▁ız": 2647,
      "▁satısı": 2648,
      "isler": 2649,
      "▁mudur": 2650,
      "▁im": 2651,
      "ord": 2652,
      "▁ihr": 2653,
      "maması": 2654,
      "▁amerikalı": 2655,
      "av": 2656,
      "▁kusk": 2657,
      "i'nin": 2658,
      "mayan": 2659,
      "▁bun": 2660,
      "▁baslarında": 2661,
      "▁alanda": 2662,
      "▁yatırımcının": 2663,
      "▁nokt": 2664,
      "▁basıma": 2665,
      "▁nis": 2666,
      "▁yon": 2667,
      "▁burun": 2668,
      "yım": 2669,
      "lerin": 2670,
      "▁may": 2671,
      "mine": 2672,
      "▁kap": 2673,
      "▁dost": 2674,
      "▁th": 2675,
      "▁pop": 2676,
      "▁toren": 2677,
      "▁neh": 2678,
      "▁islemler": 2679,
      "▁fer": 2680,
      "masına": 2681,
      "liligi": 2682,
      "▁tacirler": 2683,
      "▁millet": 2684,
      "▁metr": 2685,
      "▁kem": 2686,
      "▁muhendis": 2687,
      "▁ucusların": 2688,
      "▁muzakere": 2689,
      "▁istan": 2690,
      "imini": 2691,
      "ade": 2692,
      "3": 2693,
      "▁tesekkurler": 2694,
      "la": 2695,
      "▁tez": 2696,
      "▁tabur": 2697,
      "▁end": 2698,
      "▁boylece": 2699,
      "▁dedi": 2700,
      "geleri": 2701,
      "▁aleyhine": 2702,
      "▁altın": 2703,
      "▁bilimi": 2704,
      "▁ort": 2705,
      "gur": 2706,
      "eligi": 2707,
      "▁des": 2708,
      "▁adına": 2709,
      "▁sevinc": 2710,
      "▁beni": 2711,
      "▁bogazici": 2712,
      "▁bolgede": 2713,
      "▁kuyr": 2714,
      "▁tartısma": 2715,
      "▁boyun": 2716,
      "kez": 2717,
      "▁cig": 2718,
      "uyorlardı": 2719,
      "`": 2720,
      "▁cunku": 2721,
      "oloj": 2722,
      "▁kaynakları": 2723,
      "▁beyn": 2724,
      "medi": 2725,
      "▁delik": 2726,
      "lıgı": 2727,
      "▁odun": 2728,
      "▁dallas'tan": 2729,
      "atik": 2730,
      "▁surdu": 2731,
      "▁cog": 2732,
      "▁istik": 2733,
      "mus": 2734,
      "▁oyle": 2735,
      "ber": 2736,
      "▁sin": 2737,
      "▁artısla": 2738,
      "▁lutfen": 2739,
      "▁medeniyet": 2740,
      "▁alır": 2741,
      "▁bic": 2742,
      "stu": 2743,
      "▁kanun": 2744,
      "▁programı": 2745,
      "▁birbir": 2746,
      "▁sular": 2747,
      "▁odeme": 2748,
      "▁bilim": 2749,
      "isti": 2750,
      "ktu": 2751,
      "▁kızı": 2752,
      "▁gun": 2753,
      "ug": 2754,
      "▁yetkisi": 2755,
      "▁zul": 2756,
      "amadı": 2757,
      "▁anda": 2758,
      "ısını": 2759,
      "▁gorunce": 2760,
      "▁felaket": 2761,
      "ond": 2762,
      "memis": 2763,
      "▁nobet": 2764,
      "▁yandan": 2765,
      "▁hastalık": 2766,
      "▁adım": 2767,
      "sis": 2768,
      "▁dibinde": 2769,
      "▁bunları": 2770,
      "▁hicbir": 2771,
      "medim": 2772,
      "lıg": 2773,
      "len": 2774,
      "ırtı": 2775,
      "▁uzat": 2776,
      "▁k": 2777,
      "▁elli": 2778,
      "yasal": 2779,
      "wa": 2780,
      "tıklarını": 2781,
      "▁fabrika": 2782,
      "▁noktası": 2783,
      "▁ajans": 2784,
      "▁temizlik": 2785,
      "▁pencer": 2786,
      "uklu": 2787,
      "▁gidiyor": 2788,
      "▁olabilecegini": 2789,
      "▁muster": 2790,
      "▁ogretmeni": 2791,
      "ansiyon": 2792,
      "▁olas": 2793,
      "▁yolları": 2794,
      "dar": 2795,
      "sik": 2796,
      "▁sert": 2797,
      "▁evren": 2798,
      "▁stand": 2799,
      "▁krem": 2800,
      "▁tramv": 2801,
      "▁yasamı": 2802,
      "▁der": 2803,
      "▁diyet": 2804,
      "'u": 2805,
      "▁huy": 2806,
      "ika": 2807,
      "ladıgını": 2808,
      "▁edilm": 2809,
      "▁diy": 2810,
      "▁bebek": 2811,
      "leyici": 2812,
      "▁car": 2813,
      "▁arkasına": 2814,
      "▁animasyon": 2815,
      "▁muhaseb": 2816,
      "▁elden": 2817,
      "▁topu": 2818,
      "ektr": 2819,
      "mız": 2820,
      "lere": 2821,
      "▁suz": 2822,
      "▁muhafazak": 2823,
      "▁sahada": 2824,
      "me": 2825,
      "▁$'a": 2826,
      "▁de": 2827,
      "▁kaynak": 2828,
      "▁bedel": 2829,
      "lacak": 2830,
      "▁saga": 2831,
      "lılıgı": 2832,
      "▁kalabalık": 2833,
      "▁degerlendirmeye": 2834,
      "▁olanaklari": 2835,
      "lıga": 2836,
      "▁zev": 2837,
      "▁naz": 2838,
      "▁mit": 2839,
      "▁tesekkur": 2840,
      "▁ekip": 2841,
      "▁cikol": 2842,
      "t": 2843,
      "nak": 2844,
      "▁kirp": 2845,
      "▁buna": 2846,
      "unce": 2847,
      "lama": 2848,
      "beri": 2849,
      "vi": 2850,
      "0.": 2851,
      "▁hou": 2852,
      "ım": 2853,
      "▁kalab": 2854,
      "▁muslum": 2855,
      "/8'e": 2856,
      "▁faturami": 2857,
      "▁anı": 2858,
      "▁ucret": 2859,
      "▁musterileri": 2860,
      "▁dikkate": 2861,
      "araj": 2862,
      "▁telafi": 2863,
      "▁oglan": 2864,
      "▁benimle": 2865,
      "▁siz": 2866,
      "▁kollarını": 2867,
      "▁yudum": 2868,
      "▁sırtında": 2869,
      "▁pit": 2870,
      "manı": 2871,
      "eveyn": 2872,
      "▁ucmak": 2873,
      "ekul": 2874,
      "▁zafer": 2875,
      "▁video": 2876,
      "mayı": 2877,
      "▁analistler": 2878,
      "sak": 2879,
      "▁st.": 2880,
      "▁giz": 2881,
      "▁onunde": 2882,
      "▁key": 2883,
      "klerini": 2884,
      "▁cir": 2885,
      "nun": 2886,
      "eyebilir": 2887,
      "enuz": 2888,
      "▁otuz": 2889,
      "▁kalmadı": 2890,
      "▁calısmak": 2891,
      "▁degeri": 2892,
      "unuz": 2893,
      "▁satıcı": 2894,
      "'e": 2895,
      "aklı": 2896,
      "▁normaldi": 2897,
      "▁degildir": 2898,
      "tırmak": 2899,
      "▁cos": 2900,
      "▁ceph": 2901,
      "▁gurult": 2902,
      "▁ayda": 2903,
      "▁mav": 2904,
      "▁intih": 2905,
      "▁ayrım": 2906,
      "▁bahseder": 2907,
      "elle": 2908,
      "▁taklit": 2909,
      "isyon": 2910,
      "▁yuksekti": 2911,
      "▁yap": 2912,
      "▁tenis": 2913,
      "▁kadınların": 2914,
      "▁mutlu": 2915,
      "▁fakult": 2916,
      "▁planı": 2917,
      "▁ayagını": 2918,
      "mem": 2919,
      "▁yemeklerde": 2920,
      "▁nitelik": 2921,
      "▁belirt": 2922,
      "▁gozden": 2923,
      "yerek": 2924,
      "fet": 2925,
      "mamıs": 2926,
      "▁kosulları": 2927,
      "cılıg": 2928,
      "▁hac": 2929,
      "▁askı": 2930,
      "▁kabuk": 2931,
      "▁8": 2932,
      "sen": 2933,
      "▁koye": 2934,
      "▁surucu": 2935,
      "▁koylu": 2936,
      "le": 2937,
      "likte": 2938,
      "umde": 2939,
      "ley": 2940,
      "▁ongoru": 2941,
      "▁dunyası": 2942,
      "▁dogrudan": 2943,
      "▁kıl": 2944,
      "▁takımı": 2945,
      "likle": 2946,
      "isin": 2947,
      "▁kart": 2948,
      "▁bat": 2949,
      ".4": 2950,
      "▁yardimci": 2951,
      "ile": 2952,
      "▁yapacagını": 2953,
      "etsiz": 2954,
      "▁devletin": 2955,
      "▁mul": 2956,
      "lantı": 2957,
      "▁%2": 2958,
      "▁temettu": 2959,
      "▁hanimdi": 2960,
      "▁bakalım": 2961,
      "egini": 2962,
      "▁etrafı": 2963,
      "d": 2964,
      "▁hizmetler": 2965,
      "▁mus": 2966,
      "▁vir": 2967,
      "▁konuda": 2968,
      "adar": 2969,
      "elim": 2970,
      "▁eksik": 2971,
      "▁camasır": 2972,
      "▁lezzetleri": 2973,
      "▁tasv": 2974,
      "enin": 2975,
      "▁demis": 2976,
      "▁vucud": 2977,
      "▁tekl": 2978,
      "▁uyum": 2979,
      "▁cıkmıs": 2980,
      "▁elini": 2981,
      "▁depremden": 2982,
      "ıyı": 2983,
      "▁yola": 2984,
      "▁bekledi": 2985,
      "ayi": 2986,
      "eginin": 2987,
      "▁niz": 2988,
      "▁deyim": 2989,
      "▁ilham": 2990,
      "anla": 2991,
      "▁vardı": 2992,
      "▁gorul": 2993,
      "▁yuregi": 2994,
      "ıgının": 2995,
      "▁eder": 2996,
      "▁geregi": 2997,
      "▁fen": 2998,
      "▁havaliman": 2999,
      "▁ustu": 3000,
      "▁yatırım": 3001,
      "umuzu": 3002,
      "▁alısver": 3003,
      "▁seftali": 3004,
      "agım": 3005,
      "▁gezi": 3006,
      "▁gazetenin": 3007,
      "▁elem": 3008,
      "▁tr": 3009,
      "ınızı": 3010,
      "likten": 3011,
      "▁gorev": 3012,
      "0": 3013,
      "▁dusmanı": 3014,
      "°": 3015,
      "▁katilmak": 3016,
      "▁cın": 3017,
      "▁aktif": 3018,
      "’": 3019,
      "▁kucuk": 3020,
      "▁sekil": 3021,
      "▁karsi": 3022,
      "mektedir": 3023,
      "cog": 3024,
      "iyi": 3025,
      "▁sat": 3026,
      "▁olayda": 3027,
      "▁zem": 3028,
      "▁teker": 3029,
      "tigi": 3030,
      "day": 3031,
      "▁fonu": 3032,
      "▁seyleri": 3033,
      "▁hucre": 3034,
      "▁sessiz": 3035,
      "▁sesi": 3036,
      "urg": 3037,
      "▁gecit": 3038,
      "▁olc": 3039,
      "▁tahvilleri": 3040,
      "▁istifade": 3041,
      "stır": 3042,
      "▁hadis": 3043,
      "lası": 3044,
      "▁kutuk": 3045,
      "▁es": 3046,
      "▁milyondan": 3047,
      "▁birligi": 3048,
      ".0": 3049,
      "mi": 3050,
      "▁hafız": 3051,
      "▁doy": 3052,
      "aralı": 3053,
      "▁tuh": 3054,
      "▁bunu": 3055,
      "▁taleb": 3056,
      "▁dısisleri": 3057,
      "▁kib": 3058,
      "▁ok": 3059,
      "▁fazl": 3060,
      "▁oldum": 3061,
      "attı": 3062,
      "▁piyan": 3063,
      "usa": 3064,
      "▁internet": 3065,
      "▁jand": 3066,
      "acagım": 3067,
      "▁viski": 3068,
      "▁kıvıl": 3069,
      "▁vadesi": 3070,
      "▁azından": 3071,
      "▁hasar": 3072,
      "odu": 3073,
      "▁badem": 3074,
      "aguar": 3075,
      "▁efsan": 3076,
      "▁kul": 3077,
      "▁ilk": 3078,
      "▁korun": 3079,
      "▁hey": 3080,
      "▁oldu": 3081,
      "igim": 3082,
      "▁haberdar": 3083,
      "▁musait": 3084,
      "duk": 3085,
      "isten": 3086,
      "▁banka": 3087,
      "▁bakın": 3088,
      "▁go": 3089,
      "▁borsası": 3090,
      "▁parasını": 3091,
      "cuları": 3092,
      "sıyla": 3093,
      "'ye": 3094,
      "medig": 3095,
      "▁list": 3096,
      "▁gecik": 3097,
      "▁dondu": 3098,
      "▁sanayi": 3099,
      "l": 3100,
      "endi": 3101,
      "▁taksi": 3102,
      "▁amel": 3103,
      "▁otomobiller": 3104,
      "ugunda": 3105,
      "▁tarihi": 3106,
      "leyi": 3107,
      "▁ayak": 3108,
      "▁domuz": 3109,
      "bar": 3110,
      "usunun": 3111,
      "cisi": 3112,
      "▁istiyor": 3113,
      "ılması": 3114,
      "▁secim": 3115,
      "▁ulk": 3116,
      "lamasını": 3117,
      "▁musterilere": 3118,
      "▁restor": 3119,
      "to": 3120,
      "usu": 3121,
      "mis": 3122,
      "▁ihtiyat": 3123,
      "alar": 3124,
      "▁miktarda": 3125,
      "▁kada": 3126,
      "▁garanti": 3127,
      "▁uc": 3128,
      "▁cıkarmak": 3129,
      "▁degisiklik": 3130,
      "▁sut": 3131,
      "▁kanser": 3132,
      "▁alıcılar": 3133,
      "▁sınıf": 3134,
      "▁kalmaya": 3135,
      "▁olmaktan": 3136,
      "▁gorduk": 3137,
      "▁kasabaya": 3138,
      "▁kurek": 3139,
      "▁konusmak": 3140,
      "anti": 3141,
      "▁abd": 3142,
      "▁ken": 3143,
      "iki": 3144,
      "▁heves": 3145,
      "▁yılı": 3146,
      "▁hemen": 3147,
      "▁cat": 3148,
      "▁parkın": 3149,
      "▁cav": 3150,
      "dıgına": 3151,
      "▁meydan": 3152,
      "▁geldim": 3153,
      "▁tulum": 3154,
      "▁acik": 3155,
      "va": 3156,
      "▁baskanı": 3157,
      "▁donuyor": 3158,
      "▁26": 3159,
      "▁...": 3160,
      "▁bulgur": 3161,
      "anlardan": 3162,
      "▁parca": 3163,
      "▁bi": 3164,
      "▁corp.": 3165,
      "▁nok": 3166,
      "▁rady": 3167,
      "▁hekim": 3168,
      "▁cebinden": 3169,
      "▁tari": 3170,
      "afet": 3171,
      "▁memnuniyeti": 3172,
      "akları": 3173,
      "em": 3174,
      "▁newark": 3175,
      "▁sonra": 3176,
      "▁li": 3177,
      "▁ogrenc": 3178,
      "▁gordu": 3179,
      "adet": 3180,
      "▁yerine": 3181,
      "▁tesaduf": 3182,
      "▁sıkıntısı": 3183,
      "▁kavg": 3184,
      "▁cambaz": 3185,
      "▁kahkaha": 3186,
      "▁odada": 3187,
      "ladi": 3188,
      "mıyordu": 3189,
      "▁yeryuz": 3190,
      "var": 3191,
      "▁lezzeti": 3192,
      "egen": 3193,
      "▁si": 3194,
      "▁sermaye": 3195,
      "▁lamb": 3196,
      "▁paranin": 3197,
      "▁dolas": 3198,
      "etini": 3199,
      "burgh": 3200,
      "▁yuksek": 3201,
      "▁milyona": 3202,
      "▁mevsim": 3203,
      "▁mez": 3204,
      "tu": 3205,
      "ıda": 3206,
      "rını": 3207,
      "uldu": 3208,
      "▁vil": 3209,
      "▁bakıma": 3210,
      "▁halk": 3211,
      "▁deneme": 3212,
      "at": 3213,
      "▁kutup": 3214,
      "▁jo": 3215,
      "▁buf": 3216,
      "▁otom": 3217,
      "adel": 3218,
      "▁turb": 3219,
      "deki": 3220,
      "rken": 3221,
      "▁zarar": 3222,
      "▁kanıt": 3223,
      "tih": 3224,
      "▁yetki": 3225,
      "▁isciler": 3226,
      "onun": 3227,
      "▁kapı": 3228,
      "▁francisco'dan": 3229,
      "unde": 3230,
      "▁yıl": 3231,
      "▁siir": 3232,
      "liginin": 3233,
      "[PAD]": 3234,
      "▁carsaf": 3235,
      "▁sistemini": 3236,
      "▁ener": 3237,
      "▁evleri": 3238,
      "▁geyik": 3239,
      "▁parayı": 3240,
      "anı": 3241,
      "▁mavi": 3242,
      "madım": 3243,
      "▁alan": 3244,
      "▁bilg": 3245,
      "raf": 3246,
      "▁1988'de": 3247,
      "ekk": 3248,
      "▁annesi": 3249,
      "▁sız": 3250,
      "ilendir": 3251,
      "asından": 3252,
      "5'e": 3253,
      "nem": 3254,
      "▁philadelphia": 3255,
      "▁dolandır": 3256,
      "▁yaptır": 3257,
      "han": 3258,
      "mec": 3259,
      "▁tesh": 3260,
      "ilmesine": 3261,
      "▁kulub": 3262,
      "▁imkan": 3263,
      "▁halbu": 3264,
      "▁icr": 3265,
      "▁tamir": 3266,
      "▁munaseb": 3267,
      "▁hoca": 3268,
      "▁kil": 3269,
      "▁konak": 3270,
      "▁ses": 3271,
      "▁basını": 3272,
      "▁tep": 3273,
      "▁re": 3274,
      "▁bizimle": 3275,
      "▁salonu": 3276,
      "▁bicimi": 3277,
      "▁yurudu": 3278,
      "▁misaf": 3279,
      "'y": 3280,
      "▁anlasmanın": 3281,
      "▁hayv": 3282,
      "emis": 3283,
      "▁giyim": 3284,
      "luyor": 3285,
      "▁disk": 3286,
      "esil": 3287,
      "▁mal": 3288,
      "▁yasamını": 3289,
      "▁kapital": 3290,
      "▁tucc": 3291,
      "ut": 3292,
      "▁kagıdı": 3293,
      "▁surecin": 3294,
      "muz": 3295,
      "▁sesler": 3296,
      "'nun": 3297,
      "irmi": 3298,
      "▁l": 3299,
      "▁sayesinde": 3300,
      "onik": 3301,
      "▁aktiviteler": 3302,
      "▁cidd": 3303,
      "▁geliyordu": 3304,
      "▁evr": 3305,
      "lay": 3306,
      "▁dıs": 3307,
      "▁cik": 3308,
      "▁kanunu": 3309,
      "okol": 3310,
      "▁tedbir": 3311,
      "▁haziran": 3312,
      "▁damla": 3313,
      "▁cekic": 3314,
      "▁evine": 3315,
      "▁bilgilendir": 3316,
      "▁tuketici": 3317,
      "▁mec": 3318,
      "izli": 3319,
      "▁ucretini": 3320,
      "arda": 3321,
      "ılıyor": 3322,
      "▁dis": 3323,
      "▁butce": 3324,
      "▁anlamıyla": 3325,
      "▁v": 3326,
      "sınız": 3327,
      "▁kurulunun": 3328,
      "▁tarife": 3329,
      "▁bulas": 3330,
      "reet": 3331,
      "turu": 3332,
      "eksiyon": 3333,
      "▁deg": 3334,
      "▁yaklasık": 3335,
      "▁korku": 3336,
      "▁tey": 3337,
      "ıtma": 3338,
      "lam": 3339,
      "apark": 3340,
      "▁send": 3341,
      "erek": 3342,
      "▁sirket": 3343,
      "▁aleyh": 3344,
      "▁olamaz": 3345,
      "▁personellerden": 3346,
      "▁milliyet": 3347,
      "▁tuccarlar": 3348,
      "▁tabiat": 3349,
      "5'te": 3350,
      "per": 3351,
      "▁sit": 3352,
      "▁gum": 3353,
      "▁...\"": 3354,
      "▁teklif": 3355,
      "▁yetkilisi": 3356,
      "▁cozum": 3357,
      "▁kapas": 3358,
      "▁yavas": 3359,
      "▁yitir": 3360,
      "▁turuna": 3361,
      "▁ekonomisi": 3362,
      "▁dudak": 3363,
      "akende": 3364,
      "▁ucmam": 3365,
      "▁kef": 3366,
      "ik": 3367,
      "▁cevr": 3368,
      "▁a.": 3369,
      "▁par": 3370,
      "▁pis": 3371,
      "▁ortalama": 3372,
      "▁sahit": 3373,
      "▁kırm": 3374,
      "▁senet": 3375,
      "▁marj": 3376,
      "▁city'e": 3377,
      "▁kemik": 3378,
      "▁kapsam": 3379,
      "▁tatlı": 3380,
      "▁arz": 3381,
      "▁fab": 3382,
      "▁basta": 3383,
      "▁olac": 3384,
      "▁45": 3385,
      "▁sarsıntı": 3386,
      "atur": 3387,
      "▁paz": 3388,
      "ong": 3389,
      "▁demokratlar": 3390,
      "umlu": 3391,
      "tarı": 3392,
      "▁iscilerin": 3393,
      "▁atmak": 3394,
      "y": 3395,
      "▁uyustur": 3396,
      "ediye": 3397,
      "▁gelmek": 3398,
      "iyordu": 3399,
      "ou": 3400,
      "asını": 3401,
      "▁kalkan": 3402,
      "▁hele": 3403,
      "▁tarif": 3404,
      "▁genel": 3405,
      "ımıza": 3406,
      "▁kız": 3407,
      "▁kılıc": 3408,
      "eti": 3409,
      "▁tehd": 3410,
      "▁temsilcileri": 3411,
      "or": 3412,
      "nd": 3413,
      "▁makine": 3414,
      "▁gosterdi": 3415,
      "▁hedef": 3416,
      "▁dagın": 3417,
      "▁getir": 3418,
      "▁abla": 3419,
      "azla": 3420,
      "ati": 3421,
      "lug": 3422,
      "ex": 3423,
      "ısık": 3424,
      "acagı": 3425,
      "▁balt": 3426,
      "▁sirk": 3427,
      "▁komun": 3428,
      "alt": 3429,
      "iy": 3430,
      "▁sas": 3431,
      "▁degerini": 3432,
      "▁duserek": 3433,
      "izma": 3434,
      "ediyor": 3435,
      "▁sebeb": 3436,
      "▁fin": 3437,
      "▁hediy": 3438,
      "▁zor": 3439,
      "▁ulkemiz": 3440,
      "unca": 3441,
      "osunda": 3442,
      "▁pamuk": 3443,
      "agına": 3444,
      "▁plani": 3445,
      "▁oluyordu": 3446,
      "▁gelin": 3447,
      "▁emr": 3448,
      "▁kerv": 3449,
      "▁an": 3450,
      "sunuz": 3451,
      "▁kendileri": 3452,
      "▁yıla": 3453,
      "cul": 3454,
      "▁beyefendi": 3455,
      "▁dısarıdan": 3456,
      "▁fabr": 3457,
      "lerim": 3458,
      "▁finc": 3459,
      "▁menfaat": 3460,
      "▁belki": 3461,
      "▁tesisin": 3462,
      "▁heyecan": 3463,
      "o'dan": 3464,
      "▁7'den": 3465,
      "▁kendine": 3466,
      "▁2'den": 3467,
      "▁geldi": 3468,
      "▁cesi": 3469,
      "▁benden": 3470,
      "▁gozlerini": 3471,
      "▁aileler": 3472,
      "▁epe": 3473,
      "▁%4": 3474,
      "▁bardagı": 3475,
      "▁sogu": 3476,
      "▁makaleye": 3477,
      "▁kocası": 3478,
      "▁ist": 3479,
      "▁plat": 3480,
      "▁olabilir": 3481,
      "▁tarzı": 3482,
      "▁corba": 3483,
      "vr": 3484,
      "▁bar": 3485,
      "▁subay": 3486,
      "▁bulur": 3487,
      "▁fas": 3488,
      "▁faaliyetleri": 3489,
      "▁sonrası": 3490,
      "▁hakaret": 3491,
      "▁kon": 3492,
      "▁airlines": 3493,
      "▁halkı": 3494,
      "▁kazanmak": 3495,
      "▁mart": 3496,
      "▁cas": 3497,
      "▁kere": 3498,
      "ayacagını": 3499,
      "▁katkı": 3500,
      "9'da": 3501,
      "▁trans": 3502,
      "▁chp": 3503,
      "▁iceriden": 3504,
      "▁seans": 3505,
      "▁gost": 3506,
      "dıgımı": 3507,
      "▁pazar": 3508,
      "izasyon": 3509,
      "▁tasf": 3510,
      "ucuk": 3511,
      "▁anlasması": 3512,
      "▁piyasasının": 3513,
      "▁one": 3514,
      "▁basladım": 3515,
      "oc": 3516,
      "deydi": 3517,
      "▁kusku": 3518,
      "artesi": 3519,
      "▁bos": 3520,
      "▁ar": 3521,
      "lıgın": 3522,
      "▁temp": 3523,
      "▁aktarmasız": 3524,
      "▁onemi": 3525,
      "dil": 3526,
      "▁tadima": 3527,
      "▁bulama": 3528,
      "cagım": 3529,
      "▁fiyatlarını": 3530,
      "ai": 3531,
      "▁sevk": 3532,
      "uar": 3533,
      "▁heykel": 3534,
      "amay": 3535,
      "▁ayından": 3536,
      "▁sur": 3537,
      "▁ait": 3538,
      "▁--": 3539,
      "▁dekorasyonu": 3540,
      "eticiler": 3541,
      "▁mur": 3542,
      "▁koku": 3543,
      "▁gayet": 3544,
      "▁muhtesem": 3545,
      "▁arası": 3546,
      "▁etraf": 3547,
      "▁omr": 3548,
      "▁espr": 3549,
      "istim": 3550,
      "▁pap": 3551,
      "▁kullan": 3552,
      "eyle": 3553,
      "▁senedi": 3554,
      "▁azınlık": 3555,
      "▁angeles": 3556,
      "▁sahtek": 3557,
      "anları": 3558,
      "▁beye": 3559,
      "liydi": 3560,
      "▁zarf": 3561,
      "ekli": 3562,
      "▁genelde": 3563,
      "ızın": 3564,
      "man": 3565,
      "▁arabalar": 3566,
      "▁umud": 3567,
      "▁anlat": 3568,
      "▁ode": 3569,
      "▁gunluk": 3570,
      "▁tutam": 3571,
      "▁karsıl": 3572,
      "▁vardır": 3573,
      "ılma": 3574,
      "'t": 3575,
      "▁gostermek": 3576,
      "▁birtak": 3577,
      "▁supur": 3578,
      "madan": 3579,
      "ret": 3580,
      "▁ikin": 3581,
      "▁parmak": 3582,
      "ısına": 3583,
      "▁sabır": 3584,
      "▁havaalanından": 3585,
      "▁darb": 3586,
      "▁yapmayı": 3587,
      "▁memleketin": 3588,
      "▁muzik": 3589,
      "▁sesini": 3590,
      "▁.\"": 3591,
      "▁borc": 3592,
      "▁kek": 3593,
      "et": 3594,
      "▁akt": 3595,
      "▁yumurta": 3596,
      "▁olay": 3597,
      "onra": 3598,
      "▁bildirdi": 3599,
      "ding": 3600,
      "▁planlamam": 3601,
      "▁yetenek": 3602,
      "▁laik": 3603,
      "▁uzerindeki": 3604,
      "ısı": 3605,
      "▁ailelerin": 3606,
      "▁rakib": 3607,
      "▁askeri": 3608,
      "▁ef": 3609,
      "▁sebebi": 3610,
      "▁kuyu": 3611,
      "▁vucu": 3612,
      "▁bire": 3613,
      "▁butu": 3614,
      "on": 3615,
      "▁arkadasları": 3616,
      "▁for": 3617,
      "▁oldugun": 3618,
      "▁eks": 3619,
      "▁oldukca": 3620,
      "▁basla": 3621,
      "eyen": 3622,
      "▁nakit": 3623,
      "▁haftanın": 3624,
      "▁yapması": 3625,
      "lbu": 3626,
      "iyle": 3627,
      "▁fut": 3628,
      "▁burokr": 3629,
      "▁ahır": 3630,
      "▁ter": 3631,
      "▁mot": 3632,
      "use": 3633,
      "▁kardesim": 3634,
      "▁bahar": 3635,
      "▁buz": 3636,
      "▁degiller": 3637,
      "▁bulundu": 3638,
      "▁saatleri": 3639,
      "▁mukemmeldi": 3640,
      "▁yarıs": 3641,
      "▁tramvay": 3642,
      "▁bileti": 3643,
      "▁paket": 3644,
      "▁disip": 3645,
      "esti": 3646,
      "▁rah": 3647,
      "▁sokakta": 3648,
      "aları": 3649,
      "▁basımıza": 3650,
      "▁gorus": 3651,
      "▁bir": 3652,
      "▁onların": 3653,
      "acılıgı": 3654,
      "▁tekne": 3655,
      "luguna": 3656,
      "▁il": 3657,
      "▁huc": 3658,
      "▁sacları": 3659,
      "▁data": 3660,
      "umuze": 3661,
      "▁kıymet": 3662,
      "gam": 3663,
      "/4'e": 3664,
      "▁icimden": 3665,
      "▁endeks": 3666,
      "▁ikram": 3667,
      "mafi": 3668,
      "▁ucuyor": 3669,
      "▁koyden": 3670,
      "75": 3671,
      "liyat": 3672,
      "▁havaalanı": 3673,
      "▁eksiklik": 3674,
      "▁soz": 3675,
      "▁dikkat": 3676,
      "tluk": 3677,
      "▁bira": 3678,
      "▁icimi": 3679,
      "lan": 3680,
      "▁falan": 3681,
      "▁seklinde": 3682,
      "emem": 3683,
      "ite": 3684,
      "▁cehr": 3685,
      "ere": 3686,
      "▁olup": 3687,
      "▁yılda": 3688,
      "▁olursa": 3689,
      "▁kablo": 3690,
      "▁duygularını": 3691,
      "▁oranlarının": 3692,
      "ilmesini": 3693,
      "▁sor": 3694,
      "▁doktor": 3695,
      "▁verme": 3696,
      "▁gorgu": 3697,
      "▁haz": 3698,
      "▁guzelligi": 3699,
      "▁dair": 3700,
      "▁kitap": 3701,
      "▁ya": 3702,
      "▁ruzg": 3703,
      "ni": 3704,
      "ılmaya": 3705,
      "▁dosy": 3706,
      "▁degil": 3707,
      "▁tatli": 3708,
      "▁kasıgı": 3709,
      "▁telgraf": 3710,
      "▁boyle": 3711,
      "▁kan": 3712,
      "▁ekim": 3713,
      "▁iceriye": 3714,
      "▁neyse": 3715,
      "▁meclisi": 3716,
      "gınlık": 3717,
      "eyim": 3718,
      "tarak": 3719,
      "▁ihmal": 3720,
      "dikleri": 3721,
      "▁yenilik": 3722,
      "▁alb": 3723,
      "▁kodu": 3724,
      "▁bilir": 3725,
      "▁set": 3726,
      "▁fatur": 3727,
      "▁etti": 3728,
      "▁sozlerine": 3729,
      "▁hızlı": 3730,
      "oker": 3731,
      "▁adamları": 3732,
      "masıyla": 3733,
      "▁enst": 3734,
      "uv": 3735,
      "esinin": 3736,
      "hanede": 3737,
      "▁haval": 3738,
      "dıktan": 3739,
      "▁talep": 3740,
      "▁norm": 3741,
      "▁numar": 3742,
      "ren": 3743,
      "▁olduk": 3744,
      "▁hayret": 3745,
      "▁koridor": 3746,
      "▁adeta": 3747,
      "▁mevduat": 3748,
      "▁ı": 3749,
      "▁enerj": 3750,
      "▁beklent": 3751,
      "▁ata": 3752,
      "▁ikinci": 3753,
      "yse": 3754,
      "▁polis": 3755,
      "▁guney": 3756,
      "▁aqu": 3757,
      "▁lun": 3758,
      "ima": 3759,
      "▁hisselerin": 3760,
      "▁seviyesinde": 3761,
      "▁uste": 3762,
      "▁istegi": 3763,
      "yiz": 3764,
      "▁phil": 3765,
      "▁yuv": 3766,
      "ektedir": 3767,
      "▁sıcak": 3768,
      "sı": 3769,
      "1'de": 3770,
      "▁galib": 3771,
      "▁istiklal": 3772,
      "[MASK]": 3773,
      "▁havayollarını": 3774,
      "▁tarihinde": 3775,
      "▁yanına": 3776,
      "▁kamu": 3777,
      "▁karsılıgı": 3778,
      "▁vs": 3779,
      "uktu": 3780,
      "▁terbiy": 3781,
      "▁yig": 3782,
      "▁sal": 3783,
      "piyat": 3784,
      "sun": 3785,
      "sin": 3786,
      "▁isyan": 3787,
      "▁day": 3788,
      "irdi": 3789,
      "▁havuzlar": 3790,
      "▁gozlerim": 3791,
      "▁hakkını": 3792,
      "▁odalari": 3793,
      "▁erkek": 3794,
      "▁gunku": 3795,
      "ması": 3796,
      "lukte": 3797,
      "▁fiyatını": 3798,
      "▁biliyor": 3799,
      "▁sahn": 3800,
      "ri": 3801,
      "▁dos": 3802,
      "asi": 3803,
      "▁ismi": 3804,
      "iyorlar": 3805,
      "▁sirketinin": 3806,
      "▁ortalaması": 3807,
      "▁sasır": 3808,
      "▁limon": 3809,
      "▁yonunde": 3810,
      "▁per": 3811,
      "▁onur": 3812,
      "alarla": 3813,
      "▁tutar": 3814,
      "▁kitapta": 3815,
      "▁…": 3816,
      "▁mezar": 3817,
      "kleri": 3818,
      "▁vet": 3819,
      "olis": 3820,
      "ugu": 3821,
      "▁yerini": 3822,
      "▁telaf": 3823,
      "▁memur": 3824,
      "▁saman": 3825,
      "▁hissediyor": 3826,
      "▁satmak": 3827,
      "oyu": 3828,
      "▁iliskisi": 3829,
      "▁gelmedi": 3830,
      "cek": 3831,
      "▁alkol": 3832,
      "▁olur": 3833,
      "▁sigorta": 3834,
      "▁kendilerini": 3835,
      "▁barın": 3836,
      "▁aln": 3837,
      "▁kagıtları": 3838,
      "▁lar": 3839,
      "▁harek": 3840,
      "emiyor": 3841,
      "emi": 3842,
      "ence": 3843,
      "▁kulak": 3844,
      "▁sigort": 3845,
      "▁alım-satım": 3846,
      "erlik": 3847,
      "▁araz": 3848,
      "▁dalgalan": 3849,
      "▁ho": 3850,
      "a": 3851,
      "▁bilmem": 3852,
      "▁cont": 3853,
      "▁kagı": 3854,
      "▁hepsini": 3855,
      "▁takım": 3856,
      "desi": 3857,
      "ısından": 3858,
      "▁havada": 3859,
      "▁hatt": 3860,
      "▁cır": 3861,
      "▁ablam": 3862,
      "digine": 3863,
      "▁oteller": 3864,
      "imen": 3865,
      "ıyla": 3866,
      "00'den": 3867,
      "▁hareketler": 3868,
      "[UNK]": 3869,
      "▁uzun": 3870,
      "▁duruma": 3871,
      "▁ile": 3872,
      "ake": 3873,
      "▁kahvaltisi": 3874,
      "▁kavanoz": 3875,
      "▁rakip": 3876,
      "▁kupon": 3877,
      "ıldıgını": 3878,
      "▁hesap": 3879,
      "▁ster": 3880,
      "▁bence": 3881,
      "▁bog": 3882,
      "▁vur": 3883,
      "▁vatandas": 3884,
      "▁bulbul": 3885,
      "▁karsilik": 3886,
      "ork": 3887,
      "abını": 3888,
      "▁/": 3889,
      "▁kaya": 3890,
      "▁yardımı": 3891,
      "cegini": 3892,
      "▁yapılacak": 3893,
      "▁memnunuz": 3894,
      "▁yolunu": 3895,
      "▁hepimiz": 3896,
      "▁boyunca": 3897,
      "▁kesint": 3898,
      "gini": 3899,
      "▁gelisme": 3900,
      "▁ic": 3901,
      "▁batı": 3902,
      "▁bur": 3903,
      "bab": 3904,
      "ayıf": 3905,
      "pan": 3906,
      "▁kapandı": 3907,
      "▁itibar": 3908,
      "'ndan": 3909,
      "▁1.5": 3910,
      "ugunun": 3911,
      "▁nefes": 3912,
      "▁havayolları": 3913,
      "▁ekledi": 3914,
      "▁kenarında": 3915,
      "ın": 3916,
      "edef": 3917,
      "inin": 3918,
      "▁met": 3919,
      "▁carp": 3920,
      "▁evlat": 3921,
      "ır": 3922,
      "acaklarını": 3923,
      "▁transfer": 3924,
      "▁anlas": 3925,
      "▁yapar": 3926,
      "▁ail": 3927,
      "▁durusma": 3928,
      "▁terey": 3929,
      "asa": 3930,
      "▁ayna": 3931,
      "▁top": 3932,
      "▁odalar": 3933,
      "▁gelmis": 3934,
      "▁dolap": 3935,
      "▁kum": 3936,
      "▁odası": 3937,
      "▁sıkı": 3938,
      "elleri": 3939,
      "▁suları": 3940,
      "▁dunyaya": 3941,
      "▁eg": 3942,
      "▁degerlendir": 3943,
      "▁ner": 3944,
      "dın": 3945,
      "▁baglant": 3946,
      "▁“": 3947,
      "irk": 3948,
      "▁jon": 3949,
      "emmel": 3950,
      "▁al": 3951,
      "▁cam": 3952,
      "▁parayi": 3953,
      "▁girer": 3954,
      "▁nakliye": 3955,
      "angi": 3956,
      "▁konuyu": 3957,
      "phia": 3958,
      "inize": 3959,
      "▁29": 3960,
      "▁haline": 3961,
      "▁icme": 3962,
      "▁yaln": 3963,
      "▁pittsburgh'a": 3964,
      "mıyorum": 3965,
      "luk": 3966,
      "▁zek": 3967,
      "▁cekim": 3968,
      "▁herhalde": 3969,
      "▁halka": 3970,
      "▁geriledi": 3971,
      "▁hepsi": 3972,
      "▁sayıda": 3973,
      "uzu": 3974,
      "▁yayın": 3975,
      "▁kiralama": 3976,
      "'na": 3977,
      "▁sonuclar": 3978,
      "▁ayni": 3979,
      "dev": 3980,
      "▁denizinden": 3981,
      "▁isle": 3982,
      "liye": 3983,
      "▁tasımacılıgı": 3984,
      "unda": 3985,
      "▁birini": 3986,
      "▁sembol": 3987,
      "▁degirmen": 3988,
      "▁ayagına": 3989,
      "▁asla": 3990,
      "▁gaf": 3991,
      "urdu": 3992,
      "ob": 3993,
      "▁kasırg": 3994,
      "▁saclarını": 3995,
      "▁sinema": 3996,
      "▁teraz": 3997,
      "burg": 3998,
      "▁atılım": 3999,
      "▁31": 4000,
      "altı": 4001,
      "▁dusunur": 4002,
      "▁suyun": 4003,
      "pa": 4004,
      "▁karsılık": 4005,
      "▁urunu": 4006,
      "▁zira": 4007,
      "▁maden": 4008,
      "▁c": 4009,
      "lemesi": 4010,
      "mustum": 4011,
      "▁sektor": 4012,
      "asına": 4013,
      "​": 4014,
      "▁tuvalet": 4015,
      "▁tab": 4016,
      "▁cur": 4017,
      "am": 4018,
      "▁kıyı": 4019,
      "▁isin": 4020,
      "▁utan": 4021,
      "▁oldugundan": 4022,
      "elere": 4023,
      "▁olabilirdi": 4024,
      "▁ulkelerde": 4025,
      "int": 4026,
      "▁kacır": 4027,
      "▁oranla": 4028,
      "▁fıs": 4029,
      "ane": 4030,
      "▁eskiydi": 4031,
      "kinden": 4032,
      "▁lak": 4033,
      "lenme": 4034,
      "▁karsı": 4035,
      "‘": 4036,
      "/2": 4037,
      "▁panik": 4038,
      "▁sorun": 4039,
      "▁nedenlerden": 4040,
      "usuyla": 4041,
      "▁gorevini": 4042,
      "eb": 4043,
      "▁gerekcesiyle": 4044,
      "▁yapım": 4045,
      "▁op": 4046,
      "ligin": 4047,
      "▁his": 4048,
      "2'ye": 4049,
      "▁hot": 4050,
      "▁basladılar": 4051,
      "▁tarım": 4052,
      "uluyor": 4053,
      "▁kıskanc": 4054,
      "div": 4055,
      "men": 4056,
      "ıcısı": 4057,
      "▁tedavulde": 4058,
      "▁talih": 4059,
      "▁duzel": 4060,
      "▁diye": 4061,
      "▁tane": 4062,
      "▁yıllık": 4063,
      "▁biraz": 4064,
      "▁geriye": 4065,
      "▁koyu": 4066,
      "▁otek": 4067,
      "▁geril": 4068,
      "ilir": 4069,
      "derek": 4070,
      "▁etkisini": 4071,
      "rada": 4072,
      "▁far": 4073,
      "▁sikay": 4074,
      "▁gecmiste": 4075,
      "▁soy": 4076,
      "▁ihtiyacı": 4077,
      "ank": 4078,
      "▁saglamak": 4079,
      "▁40": 4080,
      "ledi": 4081,
      "▁etmek": 4082,
      "tıgına": 4083,
      "▁cum": 4084,
      "fi": 4085,
      "▁tahvillerin": 4086,
      "▁ayag": 4087,
      "▁!..": 4088,
      "▁bagıs": 4089,
      "kt": 4090,
      "▁donan": 4091,
      "▁kiz": 4092,
      "▁artık": 4093,
      "▁hanimla": 4094,
      "▁duy": 4095,
      "▁okur": 4096,
      "vet": 4097,
      "▁delikanlı": 4098,
      "anlar": 4099,
      "▁odanın": 4100,
      "▁gununden": 4101,
      "▁tahsis": 4102,
      "ly": 4103,
      "lip": 4104,
      "▁haberleri": 4105,
      "▁sek": 4106,
      "▁ihal": 4107,
      "▁rakamları": 4108,
      "▁rekor": 4109,
      "▁kazanclar": 4110,
      "▁yapmıs": 4111,
      "▁bakmak": 4112,
      "lup": 4113,
      "▁haric": 4114,
      "▁satın": 4115,
      "▁yasına": 4116,
      "▁belg": 4117,
      "las": 4118,
      "sizdi": 4119,
      "▁aklı": 4120,
      "▁federal": 4121,
      "abil": 4122,
      "▁bahcı": 4123,
      "▁iliskiler": 4124,
      "▁ipotege": 4125,
      "▁kilis": 4126,
      "up": 4127,
      "▁goruntu": 4128,
      "▁isabet": 4129,
      "▁karsısında": 4130,
      "▁miktarı": 4131,
      "▁sorunun": 4132,
      "isk": 4133,
      "▁yat": 4134,
      "▁sınırları": 4135,
      "ucusu": 4136,
      "▁veri": 4137,
      "▁dus": 4138,
      "▁ahlak": 4139,
      "▁ilc": 4140,
      "▁business": 4141,
      "'": 4142,
      "▁verdi": 4143,
      "otu": 4144,
      "asız": 4145,
      "▁dar": 4146,
      "▁28": 4147,
      "▁plan": 4148,
      "bat": 4149,
      "and": 4150,
      "▁lek": 4151,
      "▁yuzunu": 4152,
      "▁ucusunun": 4153,
      "madı": 4154,
      "▁ressam": 4155,
      "▁ulas": 4156,
      "▁operasyon": 4157,
      "▁yaptirmadim": 4158,
      "▁istedigini": 4159,
      "▁duvarı": 4160,
      "▁kr": 4161,
      "▁perakende": 4162,
      "▁yalan": 4163,
      "▁arastır": 4164,
      "▁sapka": 4165,
      "▁nasıl": 4166,
      "▁buradan": 4167,
      "ilig": 4168,
      "▁yasan": 4169,
      "▁rehberimiz": 4170,
      "▁rakı": 4171,
      "▁uygu": 4172,
      "▁degi": 4173,
      "▁so": 4174,
      "▁ydı": 4175,
      "▁basarılı": 4176,
      "▁jaguar": 4177,
      "▁ciz": 4178,
      "▁iktid": 4179,
      "▁iletisim": 4180,
      "ig": 4181,
      "▁ilgilendi": 4182,
      "▁zeka": 4183,
      "yuzlu": 4184,
      "▁ısrar": 4185,
      "kat": 4186,
      "▁tedavul": 4187,
      "▁universit": 4188,
      "arası": 4189,
      "▁doları": 4190,
      "▁vucut": 4191,
      "▁alana": 4192,
      "▁zamanla": 4193,
      "▁bufe": 4194,
      "▁birlesme": 4195,
      "aket": 4196,
      "▁kalıb": 4197,
      "ali": 4198,
      "▁devrim": 4199,
      "lıgından": 4200,
      "▁hizmetinden": 4201,
      "▁asagı": 4202,
      "▁ak": 4203,
      "▁sezlon": 4204,
      "▁anım": 4205,
      "unun": 4206,
      "▁uretim": 4207,
      "ant": 4208,
      "liy": 4209,
      "ıklıgı": 4210,
      "▁oyuncusu": 4211,
      "▁golg": 4212,
      "ep": 4213,
      "▁kalktı": 4214,
      "ize": 4215,
      "gen": 4216,
      "mıs": 4217,
      "▁golge": 4218,
      "▁anket": 4219,
      "imize": 4220,
      "▁balık": 4221,
      "▁hal": 4222,
      "▁;": 4223,
      "ed": 4224,
      "ıldı": 4225,
      "▁basamak": 4226,
      "ca": 4227,
      "▁spor": 4228,
      "layacak": 4229,
      "▁if": 4230,
      "teki": 4231,
      "▁duyg": 4232,
      "▁uluslar": 4233,
      "▁misin": 4234,
      "▁oturu": 4235,
      "▁kent": 4236,
      "▁gali": 4237,
      "oksa": 4238,
      "▁oc": 4239,
      "▁piyasası": 4240,
      "macı": 4241,
      "▁artısı": 4242,
      "▁pak": 4243,
      "▁peynir": 4244,
      "▁onune": 4245,
      "erler": 4246,
      "▁babasının": 4247,
      "▁elbise": 4248,
      "▁demokras": 4249,
      "▁general": 4250,
      "r": 4251,
      "ıg": 4252,
      "lige": 4253,
      "▁kole": 4254,
      "ardan": 4255,
      "▁bolun": 4256,
      "istler": 4257,
      "inlik": 4258,
      "itr": 4259,
      "▁hayalet": 4260,
      "▁malzem": 4261,
      "▁bayr": 4262,
      "▁dili": 4263,
      "▁kaldır": 4264,
      "▁gunleri": 4265,
      "▁istif": 4266,
      "▁uzman": 4267,
      "mesini": 4268,
      "▁sırtına": 4269,
      "▁fazlası": 4270,
      "▁otomobil": 4271,
      "▁imal": 4272,
      "▁isi": 4273,
      "▁yargı": 4274,
      "lugunu": 4275,
      "▁dal": 4276,
      "▁kredi": 4277,
      "daydı": 4278,
      "▁gerek": 4279,
      "▁bircok": 4280,
      "00": 4281,
      "sizligi": 4282,
      "kin": 4283,
      "'nda": 4284,
      "▁sozlesmesi": 4285,
      "▁indi": 4286,
      "▁kapının": 4287,
      "▁deng": 4288,
      "▁di": 4289,
      "iden": 4290,
      "▁cocuklarını": 4291,
      "▁aklına": 4292,
      "ılım": 4293,
      "er": 4294,
      "▁bır": 4295,
      "edav": 4296,
      "▁temyiz": 4297,
      "▁gecenin": 4298,
      "▁yerlerden": 4299,
      "▁mahkemede": 4300,
      "asıyla": 4301,
      "▁vermis": 4302,
      "ustuk": 4303,
      "▁gru": 4304,
      "ip": 4305,
      "lek": 4306,
      "▁harcama": 4307,
      "▁br": 4308,
      "▁konferans": 4309,
      "▁artır": 4310,
      "mustu": 4311,
      "uyorlar": 4312,
      "▁hep": 4313,
      "▁post": 4314,
      "irleri": 4315,
      "isinde": 4316,
      "▁utanc": 4317,
      "leyiciler": 4318,
      "ilisi": 4319,
      "ul": 4320,
      "▁3": 4321,
      "mamız": 4322,
      "acag": 4323,
      "▁yaptı": 4324,
      "eyaz": 4325,
      "osun": 4326,
      "v": 4327,
      "▁oglen": 4328,
      "▁pu": 4329,
      "uma": 4330,
      "ıyordu": 4331,
      "▁derecede": 4332,
      "▁ihtim": 4333,
      "ast": 4334,
      "▁alıp": 4335,
      "▁gib": 4336,
      "bu": 4337,
      "▁kimsenin": 4338,
      "▁bankanın": 4339,
      "▁etmeye": 4340,
      "▁erik": 4341,
      "▁..": 4342,
      "▁iyice": 4343,
      "▁omur": 4344,
      "▁seker": 4345,
      "ikat": 4346,
      "ise": 4347,
      "▁dondur": 4348,
      "▁isleri": 4349,
      "▁dev": 4350,
      "▁itiraf": 4351,
      "▁inan": 4352,
      "ecegini": 4353,
      "lanmasını": 4354,
      "▁muh": 4355,
      "▁kuv": 4356,
      "▁kategor": 4357,
      "▁arzu": 4358,
      "lerinden": 4359,
      "▁ornegin": 4360,
      "▁kurtaj": 4361,
      "▁butc": 4362,
      "▁turden": 4363,
      "▁olmasın": 4364,
      "▁ucuslarının": 4365,
      "de": 4366,
      "▁devri": 4367,
      "▁nisan": 4368,
      "▁bunlardan": 4369,
      "▁animator": 4370,
      "▁vaat": 4371,
      "mesinden": 4372,
      "ekt": 4373,
      "▁guv": 4374,
      "▁yatırımcı": 4375,
      "▁servisi": 4376,
      "dukca": 4377,
      "▁dustu": 4378,
      "▁basarısız": 4379,
      "▁yol": 4380,
      "▁uslu": 4381,
      "▁yanl": 4382,
      "▁kaybı": 4383,
      "um": 4384,
      "▁sade": 4385,
      "▁ulke": 4386,
      "▁eli": 4387,
      "▁hedefleri": 4388,
      "inn": 4389,
      "▁yurut": 4390,
      "fı": 4391,
      "▁kes": 4392,
      "▁nak": 4393,
      "ation": 4394,
      "▁harp": 4395,
      "▁tayin": 4396,
      "▁basladı": 4397,
      "udu": 4398,
      "▁karsıtı": 4399,
      "▁sorum": 4400,
      "aret": 4401,
      "▁havlular": 4402,
      "▁uretic": 4403,
      "▁hepsinin": 4404,
      "▁tutmak": 4405,
      "▁gulery": 4406,
      "lıkları": 4407,
      "▁sultan": 4408,
      "▁houston": 4409,
      "ıya": 4410,
      "▁sı": 4411,
      "▁iliskileri": 4412,
      "▁kalitesini": 4413,
      "▁asagıda": 4414,
      "▁cev": 4415,
      "▁senator": 4416,
      "▁9'dan": 4417,
      "▁bulmak": 4418,
      "▁damar": 4419,
      "▁cub": 4420,
      "'tan": 4421,
      "▁kolunu": 4422,
      "iniz": 4423,
      "▁politikası": 4424,
      "▁teklifini": 4425,
      "▁hırsız": 4426,
      "▁sonunda": 4427,
      "▁yonde": 4428,
      "sir": 4429,
      "▁gozyas": 4430,
      "▁semt": 4431,
      "▁buldum": 4432,
      "▁adamı": 4433,
      "▁siddet": 4434,
      "▁tarafı": 4435,
      "▁planlarını": 4436,
      "▁dısarıya": 4437,
      "lerde": 4438,
      "▁yagı": 4439,
      "dol": 4440,
      "▁hissedar": 4441,
      "imde": 4442,
      "▁izn": 4443,
      "▁nih": 4444,
      "▁tatile": 4445,
      "▁ucretine": 4446,
      "▁duvarlar": 4447,
      "▁adam": 4448,
      "▁kahvaltı": 4449,
      "▁topr": 4450,
      "▁aksamı": 4451,
      "ilmek": 4452,
      "uzin": 4453,
      "▁isterim": 4454,
      "▁yaban": 4455,
      "▁taslar": 4456,
      "▁birinci": 4457,
      "▁komitesi": 4458,
      "siyon": 4459,
      "▁ihtiyar": 4460,
      "▁komite": 4461,
      "▁sil": 4462,
      "▁soylem": 4463,
      "▁etmis": 4464,
      "arip": 4465,
      "etim": 4466,
      "▁mısır": 4467,
      "inden": 4468,
      "▁bes": 4469,
      "▁alman": 4470,
      "▁ko": 4471,
      "▁aksam": 4472,
      "▁ons": 4473,
      "▁mu": 4474,
      "▁spekul": 4475,
      "▁dile": 4476,
      "erans": 4477,
      "▁egitimi": 4478,
      "yon": 4479,
      "▁ucuncu": 4480,
      "▁parlam": 4481,
      "▁sansur": 4482,
      "▁giriste": 4483,
      "▁yabanci": 4484,
      "▁yoksa": 4485,
      "▁saka": 4486,
      "▁basvuru": 4487,
      "▁cevre": 4488,
      "▁cop": 4489,
      "▁ogren": 4490,
      "▁konsol": 4491,
      "▁kanı": 4492,
      "▁mevz": 4493,
      "▁araba": 4494,
      "▁yesil": 4495,
      "▁verim": 4496,
      "▁enstit": 4497,
      "▁orta": 4498,
      "▁listele": 4499,
      "▁olduguna": 4500,
      "▁sanatcı": 4501,
      "▁ti": 4502,
      "▁salt": 4503,
      "▁dor": 4504,
      "▁senar": 4505,
      "▁kongr": 4506,
      "piyon": 4507,
      "▁stud": 4508,
      "▁med": 4509,
      "is": 4510,
      "▁performans": 4511,
      "▁kazandı": 4512,
      "antaj": 4513,
      "▁olmalı": 4514,
      "▁gecirdi": 4515,
      "▁puanlama": 4516,
      "ladık": 4517,
      "▁tartıs": 4518,
      "▁tamamen": 4519,
      "▁men": 4520,
      "ıstı": 4521,
      "▁dunyasında": 4522,
      "▁toprak": 4523,
      "▁resim": 4524,
      "ahat": 4525,
      "▁yad": 4526,
      "tay": 4527,
      "▁girisim": 4528,
      "ıslar": 4529,
      "▁yolu": 4530,
      "idir": 4531,
      "say": 4532,
      "▁cesitleri": 4533,
      "▁koy": 4534,
      "▁babam": 4535,
      "▁yalnızca": 4536,
      "▁verdigim": 4537,
      "▁bagr": 4538,
      "▁yaklasımı": 4539,
      "▁fot": 4540,
      "▁toplantıda": 4541,
      "dip": 4542,
      "▁sansı": 4543,
      "▁yokus": 4544,
      "▁ilgisi": 4545,
      "▁tipi": 4546,
      "agı": 4547,
      "▁rezervasyonu": 4548,
      "as": 4549,
      "▁elde": 4550,
      "▁yarısı": 4551,
      "▁sendik": 4552,
      "▁milyar": 4553,
      "▁harika": 4554,
      "mıstır": 4555,
      "ada": 4556,
      "▁rakamlar": 4557,
      "▁elinden": 4558,
      "▁chic": 4559,
      "▁ailesi": 4560,
      "▁muhafaz": 4561,
      "▁istih": 4562,
      "ten": 4563,
      "▁aramız": 4564,
      "▁ihracı": 4565,
      "▁kampan": 4566,
      "▁serg": 4567,
      "rsı": 4568,
      "▁f": 4569,
      "ına": 4570,
      "lerimize": 4571,
      "ige": 4572,
      "▁11": 4573,
      "▁acısından": 4574,
      "uy": 4575,
      "lisi": 4576,
      "▁evin": 4577,
      "▁bardak": 4578,
      "▁yemekten": 4579,
      "eledi": 4580,
      "adem": 4581,
      "▁okuz": 4582,
      "▁olacagını": 4583,
      "▁yolcu": 4584,
      "▁gencler": 4585,
      "▁suresi": 4586,
      "▁teklifi": 4587,
      "imizin": 4588,
      "▁icap": 4589,
      "▁islemi": 4590,
      "ıgına": 4591,
      "▁olmadi": 4592,
      "▁aks": 4593,
      "▁ark": 4594,
      "▁merkezi": 4595,
      "▁merkez": 4596,
      "▁memnunum": 4597,
      "▁doktorun": 4598,
      "▁hanım": 4599,
      "▁piy": 4600,
      "▁olayın": 4601,
      "▁uyusturucu": 4602,
      "▁kumar": 4603,
      "larla": 4604,
      "▁oy": 4605,
      "▁oranı": 4606,
      "▁emn": 4607,
      "▁burada": 4608,
      "ileri": 4609,
      "▁nelerdir": 4610,
      "▁yuzyıl": 4611,
      "▁bulun": 4612,
      "lıkla": 4613,
      "orma": 4614,
      "▁aldı": 4615,
      "▁kırıklıgı": 4616,
      "▁sermay": 4617,
      "▁etek": 4618,
      "▁gr": 4619,
      "▁yumruk": 4620,
      "cular": 4621,
      "▁vef": 4622,
      "▁tanrı": 4623,
      "▁cocugun": 4624,
      "mustur": 4625,
      "▁dusuk": 4626,
      "▁soyluyor": 4627,
      "▁kuvvet": 4628,
      "▁ederim": 4629,
      "▁garson": 4630,
      "▁irade": 4631,
      "ida": 4632,
      "▁soguktu": 4633,
      "uzel": 4634,
      "▁gal": 4635,
      "onto": 4636,
      "▁raporu": 4637,
      "▁ted": 4638,
      "▁uzuntu": 4639,
      "indeki": 4640,
      "ent": 4641,
      "▁verdigini": 4642,
      "ımları": 4643,
      "ınız": 4644,
      "▁cant": 4645,
      "▁aynı": 4646,
      "▁dizgin": 4647,
      "▁a.m": 4648,
      "▁olanları": 4649,
      "▁rica": 4650,
      "▁kuy": 4651,
      "▁kesinti": 4652,
      "asyon": 4653,
      "▁pazarı": 4654,
      "▁cık": 4655,
      "▁surat": 4656,
      "▁planimiz": 4657,
      "atını": 4658,
      "▁sendika": 4659,
      "▁se": 4660,
      "▁yerler": 4661,
      "▁zamanı": 4662,
      "▁airlin": 4663,
      "▁edebiyat": 4664,
      "▁profes": 4665,
      "dugum": 4666,
      "▁serv": 4667,
      "agon": 4668,
      "▁dah": 4669,
      "▁isletme": 4670,
      "▁katkıda": 4671,
      "▁vah": 4672,
      "▁emeklilik": 4673,
      "▁olasılık": 4674,
      "gun": 4675,
      "iyla": 4676,
      "ahan": 4677,
      "▁odasında": 4678,
      "▁personeli": 4679,
      "ento": 4680,
      "ele": 4681,
      "▁hic": 4682,
      "▁duser": 4683,
      "▁tahvili": 4684,
      "▁hır": 4685,
      "emeye": 4686,
      "ınlık": 4687,
      "allas": 4688,
      "▁sesiyle": 4689,
      "▁num": 4690,
      "▁eseri": 4691,
      "▁muhalefet": 4692,
      "▁seyirci": 4693,
      "▁degildi": 4694,
      "▁toparlan": 4695,
      "det": 4696,
      "▁tas": 4697,
      "▁bakanı": 4698,
      "▁iptal": 4699,
      "eginden": 4700,
      "▁gorevli": 4701,
      "▁kurulusu": 4702,
      "▁od": 4703,
      "▁ithal": 4704,
      "▁kızları": 4705,
      "▁aradan": 4706,
      "acılar": 4707,
      "▁fazla": 4708,
      "▁bırak": 4709,
      "▁zeytin": 4710,
      "layarak": 4711,
      "▁hat": 4712,
      "'da": 4713,
      "▁mey": 4714,
      "▁karıstır": 4715,
      "▁direktor": 4716,
      "▁kaza": 4717,
      "▁acıdan": 4718,
      "sinin": 4719,
      "ates": 4720,
      "▁yang": 4721,
      "▁demek": 4722,
      "▁muay": 4723,
      "▁arabanın": 4724,
      "▁takdirde": 4725,
      "▁etk": 4726,
      "▁arkadas": 4727,
      "▁bilgisay": 4728,
      "▁rahat": 4729,
      "▁icerisinde": 4730,
      "/": 4731,
      "arl": 4732,
      "▁islem": 4733,
      "teri": 4734,
      "▁avukatı": 4735,
      "▁geri": 4736,
      "▁acıkladı": 4737,
      "ılık": 4738,
      "▁gorusmek": 4739,
      "▁kahvalt": 4740,
      "▁dakika": 4741,
      "▁dok": 4742,
      "▁kadınları": 4743,
      "ıyordum": 4744,
      "▁birbirine": 4745,
      "▁birbirlerine": 4746,
      "▁ogl": 4747,
      "▁esit": 4748,
      "▁mermer": 4749,
      "larımız": 4750,
      "▁karab": 4751,
      "▁ulasımını": 4752,
      "lesi": 4753,
      "▁zen": 4754,
      "▁pesinde": 4755,
      "▁bostan": 4756,
      "▁kit": 4757,
      "▁uzmanlar": 4758,
      "do": 4759,
      "▁oldular": 4760,
      "▁harc": 4761,
      "ligini": 4762,
      "▁kuf": 4763,
      "▁engel": 4764,
      "leket": 4765,
      "▁tasım": 4766,
      "▁planları": 4767,
      "▁ekmek": 4768,
      "▁takdir": 4769,
      "▁lafı": 4770,
      "larını": 4771,
      "cıları": 4772,
      "▁duzeyde": 4773,
      "▁ortam": 4774,
      "▁kir": 4775,
      "let": 4776,
      "▁paraları": 4777,
      "▁yanak": 4778,
      "▁yurt": 4779,
      "▁fran": 4780,
      "▁tasa": 4781,
      "▁sozleri": 4782,
      "▁seb": 4783,
      "layan": 4784,
      "▁ilgis": 4785,
      "▁hayvan": 4786,
      "lul": 4787,
      "elemek": 4788,
      "▁kapısında": 4789,
      "▁uzak": 4790,
      "▁palt": 4791,
      "▁baslamak": 4792,
      "ildi": 4793,
      "sali": 4794,
      "▁ulasım": 4795,
      "▁saatlerini": 4796,
      "▁kok": 4797,
      "▁sozcusu": 4798,
      "▁kıv": 4799,
      "ahh": 4800,
      "▁rakam": 4801,
      "▁cekildi": 4802,
      "ayet": 4803,
      "▁dusunce": 4804,
      "▁dahil": 4805,
      "▁piyasalar": 4806,
      "▁yetkili": 4807,
      "▁reklamlar": 4808,
      "iyorlardı": 4809,
      "orta": 4810,
      "kun": 4811,
      "iste": 4812,
      "▁yaprak": 4813,
      "▁caba": 4814,
      "orm": 4815,
      "alarının": 4816,
      "▁seviye": 4817,
      "▁olmadıgı": 4818,
      "ule": 4819,
      "▁isver": 4820,
      "▁degisik": 4821,
      "lık": 4822,
      "▁karsıma": 4823,
      "▁yaklasimi": 4824,
      "▁guc": 4825,
      "▁cograf": 4826,
      "▁talebi": 4827,
      "▁kurumu": 4828,
      "▁mik": 4829,
      "▁pus": 4830,
      "▁sozler": 4831,
      "les": 4832,
      "▁denge": 4833,
      "▁cıkardı": 4834,
      "▁sene": 4835,
      "▁taraftan": 4836,
      "ide": 4837,
      "geler": 4838,
      "sın": 4839,
      "urt": 4840,
      "▁boyut": 4841,
      "“": 4842,
      "▁41": 4843,
      "▁yard": 4844,
      "▁senato": 4845,
      "urlu": 4846,
      "▁hız": 4847,
      "▁suyu": 4848,
      "▁hissesi": 4849,
      "▁evlerinin": 4850,
      "ola": 4851,
      "kur": 4852,
      "▁bugune": 4853,
      "▁etmem": 4854,
      "kul": 4855,
      "▁hazırlan": 4856,
      "▁osman": 4857,
      "eyin": 4858,
      "lıktan": 4859,
      "▁hamal": 4860,
      "▁yeterli": 4861,
      "▁ediyorlar": 4862,
      "▁pul": 4863,
      "▁bez": 4864,
      "tık": 4865,
      "▁isim": 4866,
      "▁2": 4867,
      "tanbul": 4868,
      "▁#": 4869,
      "▁temsil": 4870,
      "▁beden": 4871,
      "▁sakız": 4872,
      "▁misafirimiz": 4873,
      "▁kosesine": 4874,
      "▁denet": 4875,
      "▁anim": 4876,
      "gili": 4877,
      "▁banyosu": 4878,
      "▁ceh": 4879,
      "ol": 4880,
      "▁yemis": 4881,
      "▁kagıt": 4882,
      "▁kurtar": 4883,
      "▁1980'": 4884,
      "meger": 4885,
      "▁grub": 4886,
      "▁dusur": 4887,
      "▁plana": 4888,
      "▁izin": 4889,
      "▁icat": 4890,
      "▁cins": 4891,
      "▁telefonla": 4892,
      "▁karsiladi": 4893,
      "▁rak": 4894,
      "▁sahneye": 4895,
      "ende": 4896,
      "▁harik": 4897,
      "▁ticarette": 4898,
      "▁vakıf": 4899,
      "▁gerekc": 4900,
      "▁beklen": 4901,
      "▁agzına": 4902,
      "▁masa": 4903,
      "▁atlanta": 4904,
      "▁cip": 4905,
      "ilim": 4906,
      "lev": 4907,
      "maktadır": 4908,
      "▁sın": 4909,
      "▁alem": 4910,
      "uz": 4911,
      "▁borsada": 4912,
      "▁operator": 4913,
      "▁lisans": 4914,
      "itesi": 4915,
      "▁eyalet": 4916,
      "▁uygundu": 4917,
      "▁biliyorum": 4918,
      "▁sent": 4919,
      "▁ekonomi": 4920,
      "▁meydana": 4921,
      "yal": 4922,
      "iligi": 4923,
      "▁lob": 4924,
      "▁gelecek": 4925,
      "▁yollarda": 4926,
      "▁acıklama": 4927,
      "▁islerin": 4928,
      "▁cekilm": 4929,
      "▁basım": 4930,
      "ydı": 4931,
      "▁giden": 4932,
      "▁isten": 4933,
      "▁univers": 4934,
      "ezi": 4935,
      "▁hij": 4936,
      "dur": 4937,
      "▁edilir": 4938,
      "▁agzı": 4939,
      "larak": 4940,
      "▁takip": 4941,
      "▁mallar": 4942,
      "▁haberi": 4943,
      "adır": 4944,
      "bire": 4945,
      "▁bilgisi": 4946,
      "q": 4947,
      "▁imz": 4948,
      "▁hakk": 4949,
      "▁ihtiyacları": 4950,
      "▁atlar": 4951,
      "adan": 4952,
      "tikce": 4953,
      "▁yıgın": 4954,
      "▁def": 4955,
      "▁gecir": 4956,
      "▁dur": 4957,
      "▁muhalef": 4958,
      "▁bizim": 4959,
      "dek": 4960,
      "▁siyasi": 4961,
      "▁ekmegi": 4962,
      "▁miting": 4963,
      "mam": 4964,
      "ıyorlar": 4965,
      "▁fırt": 4966,
      "▁sevgi": 4967,
      "▁sever": 4968,
      "dugunde": 4969,
      "▁cevabı": 4970,
      "▁cicek": 4971,
      "gım": 4972,
      "▁tanesi": 4973,
      "ısız": 4974,
      "▁resep": 4975,
      "lesti": 4976,
      "▁tal": 4977,
      "lelim": 4978,
      "ınt": 4979,
      "▁div": 4980,
      "▁pil": 4981,
      "▁t": 4982,
      "▁bundan": 4983,
      "▁cekti": 4984,
      "▁clev": 4985,
      "2": 4986,
      "▁gecm": 4987,
      "▁borsasında": 4988,
      "▁ceket": 4989,
      "alama": 4990,
      "▁ols": 4991,
      "▁lir": 4992,
      "▁bakanlıgı": 4993,
      "▁ust": 4994,
      "▁malzemeler": 4995,
      "▁ihtiy": 4996,
      "▁cercevesinde": 4997,
      "bak": 4998,
      "tıgında": 4999,
      "▁gotur": 5000,
      "anlı": 5001,
      "▁elimden": 5002,
      "onelik": 5003,
      "▁olsun": 5004,
      "▁cumle": 5005,
      "▁ideal": 5006,
      "ket": 5007,
      "▁safh": 5008,
      "▁gonul": 5009,
      "▁analiz": 5010,
      "▁beyle": 5011,
      "▁bogaz": 5012,
      "▁caz": 5013,
      "▁alaka": 5014,
      "tıl": 5015,
      "▁kasık": 5016,
      "▁cagr": 5017,
      "oya": 5018,
      "▁makin": 5019,
      "▁sog": 5020,
      "▁en": 5021,
      "▁saldırı": 5022,
      "▁buny": 5023,
      "▁kanat": 5024,
      "▁kosul": 5025,
      "malar": 5026,
      "▁gar": 5027,
      "▁goc": 5028,
      "tıgını": 5029,
      "▁payı": 5030,
      "▁sakin": 5031,
      "▁esim": 5032,
      "all": 5033,
      "▁tabi": 5034,
      "▁bede": 5035,
      "▁saf": 5036,
      "▁analist": 5037,
      "ugunu": 5038,
      "▁soyley": 5039,
      "dan": 5040,
      "za": 5041,
      "cıya": 5042,
      "▁isbirligi": 5043,
      "▁tev": 5044,
      "▁otelin": 5045,
      "atları": 5046,
      "▁kadınlara": 5047,
      "▁turkc": 5048,
      "▁tehlike": 5049,
      "▁iyi": 5050,
      "▁selam": 5051,
      "ediklerini": 5052,
      "▁oturum": 5053,
      "▁30": 5054,
      "▁kriz": 5055,
      "ah": 5056,
      "se": 5057,
      "tis": 5058,
      "▁final": 5059,
      "yum": 5060,
      "irmen": 5061,
      "elen": 5062,
      "▁ruya": 5063,
      "▁birinde": 5064,
      "▁yeterince": 5065,
      "tim": 5066,
      "▁tuketim": 5067,
      "▁yorum": 5068,
      "seniz": 5069,
      "aydı": 5070,
      "▁sof": 5071,
      "▁ters": 5072,
      "▁sans": 5073,
      "▁ogul": 5074,
      "tat": 5075,
      "▁secenek": 5076,
      "▁yoneticiler": 5077,
      "amıs": 5078,
      "▁hesabı": 5079,
      "'nın": 5080,
      "▁gozlerinden": 5081,
      "▁cin": 5082,
      "▁buk": 5083,
      "▁yemeklerini": 5084,
      "▁ogleden": 5085,
      "▁olmasına": 5086,
      "▁adayı": 5087,
      "▁mum": 5088,
      "▁bit": 5089,
      "▁miami": 5090,
      "▁tık": 5091,
      "inti": 5092,
      "makt": 5093,
      "gan": 5094,
      "elerinin": 5095,
      "cev": 5096,
      "▁yet": 5097,
      "▁arabaya": 5098,
      "▁basına": 5099,
      "▁&": 5100,
      "▁kısmını": 5101,
      "labilir": 5102,
      "▁vucudu": 5103,
      "▁urunler": 5104,
      "lulugunu": 5105,
      "elerde": 5106,
      "▁oner": 5107,
      "cu": 5108,
      "irgin": 5109,
      "▁normal": 5110,
      "une": 5111,
      "▁cay": 5112,
      "▁hizmetci": 5113,
      "▁bekle": 5114,
      "ogram": 5115,
      "ımızın": 5116,
      "▁ceyr": 5117,
      "▁davr": 5118,
      "▁piyasaya": 5119,
      "▁katına": 5120,
      "▁restoran": 5121,
      "▁karsılıgında": 5122,
      "▁agacı": 5123,
      "▁mucev": 5124,
      "▁konusur": 5125,
      "▁kazanc": 5126,
      "▁calısanı": 5127,
      "likler": 5128,
      "▁ayakta": 5129,
      "▁arkada": 5130,
      "yet": 5131,
      "▁muhaf": 5132,
      "▁boru": 5133,
      "▁rev": 5134,
      "edik": 5135,
      "▁yans": 5136,
      "▁teyz": 5137,
      "▁oldugum": 5138,
      "▁birer": 5139,
      "▁maliyetleri": 5140,
      "▁durumdan": 5141,
      "gmen": 5142,
      "▁sark": 5143,
      "▁insa": 5144,
      "▁yerles": 5145,
      "▁ip": 5146,
      "gin": 5147,
      "▁ruzgar": 5148,
      "▁personelden": 5149,
      "▁ettiler": 5150,
      "▁devr": 5151,
      "lıklı": 5152,
      "larında": 5153,
      "▁fatura": 5154,
      "leniyor": 5155,
      "▁ingiliz": 5156,
      "▁ric": 5157,
      "umus": 5158,
      "▁uyesi": 5159,
      "nuz": 5160,
      "▁tanıs": 5161,
      "lıyordu": 5162,
      "9'a": 5163,
      "▁tahviller": 5164,
      "urk": 5165,
      "▁begendim": 5166,
      "▁ign": 5167,
      "▁abon": 5168,
      "anet": 5169,
      "▁ır": 5170,
      "▁konser": 5171,
      "▁donemlerde": 5172,
      "▁kedi": 5173,
      "uye": 5174,
      "▁cikista": 5175,
      "bah": 5176,
      "▁yili": 5177,
      "▁gecirmek": 5178,
      "▁oksur": 5179,
      "▁almayı": 5180,
      "▁derg": 5181,
      "▁sezon": 5182,
      "▁komisyonu": 5183,
      "▁tesv": 5184,
      "▁demet": 5185,
      ">": 5186,
      "▁yollar": 5187,
      "ba": 5188,
      "emedi": 5189,
      "miyor": 5190,
      "▁ord": 5191,
      "▁temsilci": 5192,
      "isinden": 5193,
      "▁vadede": 5194,
      "▁duzenleme": 5195,
      "▁anal": 5196,
      "▁finans": 5197,
      "▁asker": 5198,
      "▁uyelerinin": 5199,
      "▁sonbah": 5200,
      "▁babası": 5201,
      "'ın": 5202,
      "lemeyi": 5203,
      "▁yapının": 5204,
      "tor": 5205,
      "▁heps": 5206,
      "mayacak": 5207,
      "ırak": 5208,
      "▁sıkınt": 5209,
      "▁cumhuriyetci": 5210,
      "▁amerik": 5211,
      "▁ozel": 5212,
      "▁muhabbet": 5213,
      "uzları": 5214,
      "▁duzine": 5215,
      "▁bakıyordu": 5216,
      "▁pek": 5217,
      "▁kolay": 5218,
      "▁eksiklikler": 5219,
      "▁yuzde": 5220,
      "▁biz": 5221,
      "▁dolarlık": 5222,
      "▁sıfır": 5223,
      "ırt": 5224,
      "▁zamanlarda": 5225,
      "▁yoluyla": 5226,
      "▁konuyla": 5227,
      "▁eser": 5228,
      "▁sahib": 5229,
      "▁cuz": 5230,
      "▁arama": 5231,
      "▁neden": 5232,
      "yar": 5233,
      "▁kıs": 5234,
      "▁ileri": 5235,
      "▁peyn": 5236,
      "manın": 5237,
      "▁eglen": 5238,
      "▁mudahale": 5239,
      "▁anlamına": 5240,
      "edig": 5241,
      "▁kosullar": 5242,
      "▁kapıdan": 5243,
      "▁huk": 5244,
      "paz": 5245,
      "▁tef": 5246,
      "tısı": 5247,
      "▁kıyafet": 5248,
      "▁duyguları": 5249,
      "▁dun": 5250,
      "▁ye": 5251,
      "▁lev": 5252,
      "▁hakları": 5253,
      "▁siparis": 5254,
      "▁tesebbus": 5255,
      "sanız": 5256,
      "▁francisco": 5257,
      "ılmaz": 5258,
      "▁ediyoruz": 5259,
      "▁guclu": 5260,
      "ore": 5261,
      "▁da": 5262,
      "▁bunların": 5263,
      "▁soyler": 5264,
      "▁mendil": 5265,
      "▁ucuz": 5266,
      "▁evlilik": 5267,
      "▁karsısına": 5268,
      "▁yuzuk": 5269,
      "▁asagıya": 5270,
      "▁ker": 5271,
      "▁bas": 5272,
      "▁uygul": 5273,
      "▁kendimiz": 5274,
      "▁fırc": 5275,
      "ıma": 5276,
      "▁uf": 5277,
      "edigini": 5278,
      "▁nevi": 5279,
      "▁durumda": 5280,
      "iber": 5281,
      "'nin": 5282,
      "▁yaklas": 5283,
      "▁acısı": 5284,
      "▁havaya": 5285,
      "ılan": 5286,
      "ıstır": 5287,
      "▁sanat": 5288,
      "▁dagı": 5289,
      "▁pabuc": 5290,
      "▁oran": 5291,
      "▁emniyet": 5292,
      "▁mek": 5293,
      "▁ambar": 5294,
      "▁mehmet": 5295,
      "▁sok": 5296,
      "▁yapısı": 5297,
      "▁cumhuriyetciler": 5298,
      "9": 5299,
      "ami": 5300,
      "▁tarafta": 5301,
      "▁kahv": 5302,
      "▁degn": 5303,
      "anıt": 5304,
      "▁degisim": 5305,
      "▁bagım": 5306,
      "aset": 5307,
      "▁pittsburgh'tan": 5308,
      "▁yaka": 5309,
      "▁ekipman": 5310,
      "▁milletvekili": 5311,
      "▁ancak": 5312,
      "▁tel": 5313,
      "▁bilgilerini": 5314,
      "▁pantol": 5315,
      "▁kesin": 5316,
      "ivers": 5317,
      "▁calismasina": 5318,
      "▁bilgis": 5319,
      "▁paran": 5320,
      "▁moral": 5321,
      "▁arıyor": 5322,
      "▁san": 5323,
      "▁yalı": 5324,
      "▁ortasına": 5325,
      "▁cob": 5326,
      "▁sehre": 5327,
      "▁koc": 5328,
      "▁hukumdar": 5329,
      "▁alım-sat": 5330,
      "iyon": 5331,
      "ımızdan": 5332,
      "▁kası": 5333,
      "lulugu": 5334,
      "'deki": 5335,
      "▁kendisine": 5336,
      "▁duyuru": 5337,
      "▁mucevher": 5338,
      "kilerin": 5339,
      "▁deney": 5340,
      "▁duydu": 5341,
      "▁dalg": 5342,
      "▁kalp": 5343,
      "▁carte": 5344,
      "▁kafasına": 5345,
      "▁co.": 5346,
      "▁yarısından": 5347,
      "li": 5348,
      "▁yonelik": 5349,
      "▁23": 5350,
      "▁feda": 5351,
      "▁koyde": 5352,
      "▁saz": 5353,
      "▁galiba": 5354,
      "ota": 5355,
      "▁versiyon": 5356,
      "▁vicdan": 5357,
      "▁odasi": 5358,
      "▁sigara": 5359,
      "▁alev": 5360,
      "▁etkisi": 5361,
      "enlik": 5362,
      "▁plak": 5363,
      "vas": 5364,
      "▁matematik": 5365,
      "▁herkes": 5366,
      "▁verdik": 5367,
      "▁destekl": 5368,
      "▁mun": 5369,
      "▁kurum": 5370,
      "▁kasab": 5371,
      "▁philadelphia'dan": 5372,
      "0-": 5373,
      "ıklık": 5374,
      "▁ilisk": 5375,
      "▁yi": 5376,
      "▁adina": 5377,
      "▁sonda": 5378,
      "▁3'ten": 5379,
      "▁icecek": 5380,
      "▁ikide": 5381,
      "▁geride": 5382,
      "▁cıg": 5383,
      "unluk": 5384,
      "▁protokol": 5385,
      "▁yansı": 5386,
      "▁istasyon": 5387,
      "▁gerceklestir": 5388,
      "▁yabancı": 5389,
      "'a": 5390,
      "▁gorevi": 5391,
      "▁goruyor": 5392,
      "eyh": 5393,
      "aliforn": 5394,
      "▁,": 5395,
      "▁yerde": 5396,
      "▁kuvv": 5397,
      "▁inter": 5398,
      "▁dek": 5399,
      "▁polit": 5400,
      "▁1/2": 5401,
      "▁geceleri": 5402,
      "medik": 5403,
      "▁cesitliligi": 5404,
      "lılıgını": 5405,
      "▁olmasını": 5406,
      "▁ortaydi": 5407,
      "▁igne": 5408,
      "mıstım": 5409,
      "▁acaba": 5410,
      "▁rad": 5411,
      "▁emir": 5412,
      "▁agrı": 5413,
      "▁ortadan": 5414,
      "▁sarf": 5415,
      "▁sordu": 5416,
      "▁200": 5417,
      "▁anla": 5418,
      "▁gozleri": 5419,
      "'nı": 5420,
      "▁durak": 5421,
      "lak": 5422,
      "▁coc": 5423,
      "▁rezervasyon": 5424,
      "▁kalmak": 5425,
      "▁cesitli": 5426,
      "na": 5427,
      "▁bizi": 5428,
      "▁yuzunden": 5429,
      "▁yemek": 5430,
      "ebilecek": 5431,
      "▁ana": 5432,
      "gar": 5433,
      "▁baskı": 5434,
      "lenin": 5435,
      "▁elbet": 5436,
      "▁bastan": 5437,
      "▁yardımcı": 5438,
      "▁lı": 5439,
      "dıg": 5440,
      "▁dusunmuyor": 5441,
      "▁efendi": 5442,
      "▁istedig": 5443,
      "▁endustri": 5444,
      "▁noktaya": 5445,
      "▁tu": 5446,
      "dik": 5447,
      "lendirdi": 5448,
      "▁konut": 5449,
      "▁maliyet": 5450,
      "—": 5451,
      "ran": 5452,
      "olog": 5453,
      "ıldıgında": 5454,
      "engin": 5455,
      "▁mev": 5456,
      "ers": 5457,
      "▁kongre": 5458,
      "bilir": 5459,
      "▁oyuna": 5460,
      "▁gemi": 5461,
      "25": 5462,
      "▁mutlaka": 5463,
      "▁hata": 5464,
      "▁york": 5465,
      "phis": 5466,
      "▁halef": 5467,
      "▁res": 5468,
      "▁alanı": 5469,
      "▁edecegini": 5470,
      "▁cıkıyor": 5471,
      "▁yıllar": 5472,
      "▁direktoru": 5473,
      "▁iddiaları": 5474,
      "▁ucagın": 5475,
      "▁ucuslarını": 5476,
      "▁kocaman": 5477,
      "▁halde": 5478,
      "imdi": 5479,
      "w": 5480,
      "lıydı": 5481,
      "imleri": 5482,
      "▁sonuna": 5483,
      "▁ustune": 5484,
      "▁attı": 5485,
      "▁dert": 5486,
      "▁sıg": 5487,
      "▁kapısını": 5488,
      "▁str": 5489,
      "▁iklim": 5490,
      "▁yastık": 5491,
      "▁12'den": 5492,
      "▁b": 5493,
      "mekten": 5494,
      "ze": 5495,
      "▁suy": 5496,
      "▁patates": 5497,
      "▁dogasi": 5498,
      "meyecegini": 5499,
      "▁27": 5500,
      "▁kelime": 5501,
      "▁kilo": 5502,
      "▁yukarı": 5503,
      ";": 5504,
      "!": 5505,
      "▁suk": 5506,
      "▁salon": 5507,
      "▁onları": 5508,
      "▁hastan": 5509,
      "turdu": 5510,
      "▁mesel": 5511,
      "▁zinc": 5512,
      "▁sap": 5513,
      "▁gen": 5514,
      "▁getirmek": 5515,
      "▁komsu": 5516,
      "lıyor": 5517,
      "▁ısıgı": 5518,
      "▁reform": 5519,
      "▁neredeyse": 5520,
      "▁tarih": 5521,
      "▁olu": 5522,
      "▁terk": 5523,
      "▁ediyorum": 5524,
      "▁basarıya": 5525,
      "lerden": 5526,
      "digimi": 5527,
      "▁korumak": 5528,
      "▁olma": 5529,
      "▁firması": 5530,
      "▁tehdit": 5531,
      "masi": 5532,
      "▁kontrol": 5533,
      "▁gorunuyor": 5534,
      "▁gir": 5535,
      "▁olmaya": 5536,
      "▁kadeh": 5537,
      "iyetini": 5538,
      "▁tasarım": 5539,
      "▁anlamı": 5540,
      "▁cihaz": 5541,
      "amaz": 5542,
      "▁uyarı": 5543,
      "eni": 5544,
      "arılı": 5545,
      "▁gosterir": 5546,
      "▁patr": 5547,
      "▁ayaga": 5548,
      "▁fed": 5549,
      "▁magaza": 5550,
      "▁lig": 5551,
      "ilm": 5552,
      "▁puana": 5553,
      "▁dergi": 5554,
      "▁tecru": 5555,
      "▁zey": 5556,
      "cilerin": 5557,
      "▁bek": 5558,
      "▁plaji": 5559,
      "▁gorusu": 5560,
      "ettim": 5561,
      "lit": 5562,
      "▁demir": 5563,
      "▁kisinin": 5564,
      "▁cıkmak": 5565,
      "▁herk": 5566,
      "▁olacak": 5567,
      "acıları": 5568,
      "▁tank": 5569,
      "▁tazminat": 5570,
      "▁beyef": 5571,
      "▁(": 5572,
      "▁et": 5573,
      "ir": 5574,
      "▁sak": 5575,
      "▁sonrasında": 5576,
      "▁ed": 5577,
      "atın": 5578,
      "▁ekl": 5579,
      "▁mutfak": 5580,
      "▁bulundugu": 5581,
      "▁is": 5582,
      "▁gazin": 5583,
      "atır": 5584,
      "▁pat": 5585,
      "▁kardesi": 5586,
      "▁cumhur": 5587,
      "▁sosy": 5588,
      "▁yemekleri": 5589,
      "lastır": 5590,
      "▁odaydi": 5591,
      "▁yasak": 5592,
      "▁vazif": 5593,
      "▁dallas'a": 5594,
      "▁soya": 5595,
      "larımızın": 5596,
      "estirdi": 5597,
      "▁:": 5598,
      "▁gayrimen": 5599,
      "▁muhafazakar": 5600,
      "▁gey": 5601,
      "▁defter": 5602,
      "▁mont": 5603,
      "fen": 5604,
      "▁yeter": 5605,
      "▁kucuktu": 5606,
      "▁koltuga": 5607,
      "luge": 5608,
      "▁haf": 5609,
      "yen": 5610,
      "▁anayas": 5611,
      "▁ihracat": 5612,
      "▁yarad": 5613,
      "▁model": 5614,
      "onel": 5615,
      "▁roportaj": 5616,
      "▁benzin": 5617,
      "▁vers": 5618,
      "▁$": 5619,
      "▁gaz": 5620,
      "▁karlar": 5621,
      "▁tedirgin": 5622,
      "lum": 5623,
      "▁devreye": 5624,
      "▁kus": 5625,
      "umu": 5626,
      "▁sada": 5627,
      "▁faz": 5628,
      "▁laf": 5629,
      "eral": 5630,
      "▁vegas": 5631,
      "▁kisiler": 5632,
      "▁haklarını": 5633,
      "lat": 5634,
      "adı": 5635,
      "▁teknoloji": 5636,
      "▁gi": 5637,
      "▁merak": 5638,
      "▁hayat": 5639,
      "▁olmasa": 5640,
      "▁acıklanmadı": 5641,
      "▁lakırtı": 5642,
      "▁gereken": 5643,
      "▁ozelligi": 5644,
      "▁rot": 5645,
      "▁ofisi": 5646,
      "▁ong": 5647,
      "ılıs": 5648,
      "▁fırsatı": 5649,
      "g": 5650,
      "▁kel": 5651,
      "▁sipar": 5652,
      "▁durumunda": 5653,
      "tan": 5654,
      "▁$'dan": 5655,
      "▁ta": 5656,
      "▁birimi": 5657,
      "▁gosterin": 5658,
      "▁geceler": 5659,
      "esiyle": 5660,
      "▁calısma": 5661,
      "usun": 5662,
      "eri": 5663,
      "▁ufak": 5664,
      "▁merkeze": 5665,
      "▁aktivite": 5666,
      "▁gucluk": 5667,
      "▁fit": 5668,
      "ie": 5669,
      "▁muhab": 5670,
      "lerek": 5671,
      "▁ister": 5672,
      "larımıza": 5673,
      "iyesi": 5674,
      "▁labor": 5675,
      "▁suruyor": 5676,
      "▁mevdu": 5677,
      "dıgımız": 5678,
      "▁ekonomik": 5679,
      "▁oglu": 5680,
      "▁isp": 5681,
      "▁finanse": 5682,
      "0'a": 5683,
      "▁baskanlık": 5684,
      "cılara": 5685,
      "▁rengi": 5686,
      "▁gecen": 5687,
      "alıgı": 5688,
      "est": 5689,
      "▁yil": 5690,
      "▁tuttu": 5691,
      "▁gerekti": 5692,
      "'den": 5693,
      "3'e": 5694,
      "gis": 5695,
      "▁kurtul": 5696,
      "▁orland": 5697,
      "▁kimi": 5698,
      "olu": 5699,
      "▁felsef": 5700,
      "labil": 5701,
      "▁persembe": 5702,
      "▁saadet": 5703,
      "▁sadece": 5704,
      "▁artarak": 5705,
      "imizi": 5706,
      "▁yılında": 5707,
      "▁orn": 5708,
      "▁kizim": 5709,
      "apolis": 5710,
      "▁cey": 5711,
      "▁denver'e": 5712,
      "▁adamın": 5713,
      "istan": 5714,
      "mesine": 5715,
      "▁cok": 5716,
      "ukluk": 5717,
      "ası": 5718,
      "▁tec": 5719,
      "lamaya": 5720,
      "▁gosteri": 5721,
      "▁leble": 5722,
      "▁saun": 5723,
      "isel": 5724,
      "'ne": 5725,
      "▁ederek": 5726,
      "▁saray": 5727,
      "▁gomleg": 5728,
      "▁af": 5729,
      "▁r": 5730,
      "▁ettik": 5731,
      "▁mad": 5732,
      "9'un": 5733,
      "▁ves": 5734,
      "lardır": 5735,
      "▁birey": 5736,
      "▁kred": 5737,
      "▁buyukel": 5738,
      "▁suya": 5739,
      "ha": 5740,
      "minde": 5741,
      "▁odasına": 5742,
      "▁calisanlarin": 5743,
      "▁karısının": 5744,
      "▁dak": 5745,
      "▁sag": 5746,
      "lenen": 5747,
      "ligine": 5748,
      "▁hızı": 5749,
      "▁pos": 5750,
      "▁yapmaya": 5751,
      "▁hazır": 5752,
      "ecegi": 5753,
      "etre": 5754,
      "bas": 5755,
      "▁herhangi": 5756,
      "▁tesisi": 5757,
      "▁inc": 5758,
      "▁iskonto": 5759,
      "lıgını": 5760,
      "▁depr": 5761,
      "▁arttı": 5762,
      "▁sabah": 5763,
      "▁sam": 5764,
      "▁be": 5765,
      "▁ragmen": 5766,
      "▁pilav": 5767,
      "▁tabii": 5768,
      "ons": 5769,
      "▁cekir": 5770,
      "▁bası": 5771,
      "▁acıgı": 5772,
      "▁elektrik": 5773,
      "▁kol": 5774,
      "▁sebep": 5775,
      "▁hukum": 5776,
      "▁biles": 5777,
      "mekte": 5778,
      "4": 5779,
      "▁kayı": 5780,
      "ator": 5781,
      "▁mil": 5782,
      "mada": 5783,
      "▁rolu": 5784,
      "▁kusur": 5785,
      "▁dolu": 5786,
      "▁sirketine": 5787,
      "▁ilgi": 5788,
      "gru": 5789,
      "▁baslarına": 5790,
      "▁fren": 5791,
      "▁nerede": 5792,
      "▁emek": 5793,
      "▁grubun": 5794,
      "▁calısmaları": 5795,
      "▁ustunde": 5796,
      "▁topluluk": 5797,
      "▁uygar": 5798,
      "abilmek": 5799,
      "▁gul": 5800,
      "niz": 5801,
      "▁kanal": 5802,
      "dim": 5803,
      "gıt": 5804,
      "orlu": 5805,
      "'ni": 5806,
      "▁seye": 5807,
      "▁ogrenmek": 5808,
      "▁val": 5809,
      "▁-": 5810,
      "▁olaylara": 5811,
      "enden": 5812,
      "▁yaptirdi": 5813,
      "▁seyden": 5814,
      "imizde": 5815,
      "▁bak": 5816,
      "▁pisir": 5817,
      "▁olacaktır": 5818,
      "▁bolg": 5819,
      "▁baltimore": 5820,
      "dizli": 5821,
      "▁gorevlisi": 5822,
      "hiss": 5823,
      "▁gordum": 5824,
      "▁''": 5825,
      "▁servis": 5826,
      "el": 5827,
      "▁elinde": 5828,
      "i": 5829,
      "▁masraf": 5830,
      "▁hukmu": 5831,
      "▁soh": 5832,
      "▁reklam": 5833,
      "▁class": 5834,
      "▁tadimiza": 5835,
      "▁sokaga": 5836,
      "▁ozellik": 5837,
      "yi": 5838,
      "▁fik": 5839,
      "▁hafif": 5840,
      "▁ogle": 5841,
      "▁ucusu": 5842,
      "▁fel": 5843,
      "▁puandan": 5844,
      "s": 5845,
      "▁cadır": 5846,
      "▁gozlerimi": 5847,
      "▁ing": 5848,
      "▁sekret": 5849,
      "▁mı": 5850,
      "▁cad": 5851,
      "▁iskel": 5852,
      "▁ulasılamadı": 5853,
      "▁rutubet": 5854,
      "▁om": 5855,
      "▁yetis": 5856,
      "ill": 5857,
      "▁kahve": 5858,
      "▁boz": 5859,
      "▁zemin": 5860,
      "estir": 5861,
      "▁zahmet": 5862,
      "▁acık": 5863,
      "▁hali": 5864,
      "▁opsiyon": 5865,
      "lıdır": 5866,
      "▁gibi": 5867,
      "▁dir": 5868,
      "▁muhareb": 5869,
      "ib": 5870,
      "▁meslek": 5871,
      "mesi": 5872,
      "▁menk": 5873,
      "▁calıs": 5874,
      "▁toplant": 5875,
      "▁koydu": 5876,
      "▁los": 5877,
      "▁sorular": 5878,
      "iv": 5879,
      "ho": 5880,
      "▁tamamı": 5881,
      "▁projesi": 5882,
      "ara": 5883,
      "▁amac": 5884,
      "▁sohbet": 5885,
      "▁yuzu": 5886,
      "ldi": 5887,
      "▁meg": 5888,
      "▁fiyatina": 5889,
      "▁actı": 5890,
      "▁rec": 5891,
      "▁usak": 5892,
      "▁yoluna": 5893,
      "gim": 5894,
      "▁dusman": 5895,
      "▁olanakları": 5896,
      "▁calı": 5897,
      "\\/8": 5898,
      "▁tuz": 5899,
      "▁hizm": 5900,
      "ınızda": 5901,
      "▁zav": 5902,
      "atıl": 5903,
      "enleri": 5904,
      "▁havaal": 5905,
      "▁edit": 5906,
      "▁askerler": 5907,
      "▁ucrete": 5908,
      "▁sef": 5909,
      "▁cekici": 5910,
      "ıydı": 5911,
      "▁entar": 5912,
      "▁metre": 5913,
      "elig": 5914,
      "▁hasret": 5915,
      "▁elestir": 5916,
      "▁tahv": 5917,
      "▁cil": 5918,
      "▁olmus": 5919,
      "▁yildizli": 5920,
      "▁dunyayı": 5921,
      "6": 5922,
      "▁tura": 5923,
      "▁g": 5924,
      "▁otel": 5925,
      "▁hatır": 5926,
      "▁resepsiyon": 5927,
      "▁alıs": 5928,
      "▁tasarısı": 5929,
      "▁duzeni": 5930,
      "▁salat": 5931,
      "▁yasası": 5932,
      "▁tes": 5933,
      "ıklar": 5934,
      "▁gercek": 5935,
      "'te": 5936,
      "▁sonuclarını": 5937,
      "agından": 5938,
      "▁geliri": 5939,
      "▁taraftar": 5940,
      "▁denetim": 5941,
      "▁muzak": 5942,
      "▁elma": 5943,
      "▁pes": 5944,
      "▁oraya": 5945,
      "▁spot": 5946,
      "▁geliyor": 5947,
      "lerimizi": 5948,
      "▁geli": 5949,
      "▁problem": 5950,
      "▁ellerinden": 5951,
      "▁halen": 5952,
      "▁ara": 5953,
      "▁eda": 5954,
      "▁hucum": 5955,
      "▁pist": 5956,
      "usten": 5957,
      "▁kal": 5958,
      "▁sokak": 5959,
      "ecek": 5960,
      "▁kah": 5961,
      "▁tan": 5962,
      "▁ediliyor": 5963,
      "ediy": 5964,
      "▁tamam": 5965,
      "▁new": 5966,
      "▁miktar": 5967,
      "nin": 5968,
      "▁evinin": 5969,
      "▁uyar": 5970,
      "▁gidi": 5971,
      "▁odan": 5972,
      "▁durus": 5973,
      "▁parcaları": 5974,
      "ar": 5975,
      "▁degerinde": 5976,
      "ji": 5977,
      "▁uyk": 5978,
      "ınc": 5979,
      "▁yarın": 5980,
      "▁firmanın": 5981,
      "cilik": 5982,
      "lom": 5983,
      "ıgında": 5984,
      "▁ceyrekte": 5985,
      "▁hitap": 5986,
      "▁kov": 5987,
      "▁pazarda": 5988,
      "▁neler": 5989,
      "▁3.": 5990,
      "▁esy": 5991,
      "▁pers": 5992,
      "ktur": 5993,
      "▁aktivit": 5994,
      "▁dusmus": 5995,
      "daki": 5996,
      "▁hissenin": 5997,
      "▁faktor": 5998,
      "▁hattı": 5999,
      "▁dumanı": 6000,
      "lah": 6001,
      "▁amacıyla": 6002,
      "▁ornek": 6003,
      "▁borcun": 6004,
      "▁sos": 6005,
      "▁durumu": 6006,
      "▁sinir": 6007,
      "ulan": 6008,
      "▁satıslarının": 6009,
      "▁istem": 6010,
      "tig": 6011,
      "▁yurum": 6012,
      "▁otlar": 6013,
      "der": 6014,
      "▁denver'den": 6015,
      "▁karı": 6016,
      "hu": 6017,
      "▁icinde": 6018,
      "▁vez": 6019,
      "▁parcası": 6020,
      "▁sekilde": 6021,
      "▁bl": 6022,
      "▁secmen": 6023,
      "▁)": 6024,
      "▁surdur": 6025,
      "▁insanı": 6026,
      "▁alama": 6027,
      "ic": 6028,
      "lon": 6029,
      "▁politika": 6030,
      "eliydi": 6031,
      "▁merhaba": 6032,
      "▁sem": 6033,
      "▁kos": 6034,
      "▁to": 6035,
      "amı": 6036,
      "▁cim": 6037,
      "▁donusu": 6038,
      "▁sms": 6039,
      "▁ayakları": 6040,
      "▁kas": 6041,
      "▁zar": 6042,
      "▁senetleri": 6043,
      "▁gerc": 6044,
      "▁yonuyle": 6045,
      "▁tarihine": 6046,
      "▁gelen": 6047,
      "c": 6048,
      "▁korum": 6049,
      "kac": 6050,
      "▁icecekler": 6051,
      "▁davul": 6052,
      "▁kurt": 6053,
      ".3": 6054,
      "▁gereksin": 6055,
      "erv": 6056,
      "cut": 6057,
      "▁akın": 6058,
      "par": 6059,
      "ubet": 6060,
      "▁onumuz": 6061,
      "ulmus": 6062,
      "▁ant": 6063,
      "ston": 6064,
      "▁japon": 6065,
      "▁gittik": 6066,
      "▁yere": 6067,
      "▁ogretmen": 6068,
      "meye": 6069,
      "▁yuks": 6070,
      "▁kof": 6071,
      "▁hizmete": 6072,
      "▁erkegi": 6073,
      "▁maz": 6074,
      "emde": 6075,
      "▁kuz": 6076,
      "▁uyan": 6077,
      "▁deve": 6078,
      "iklik": 6079,
      "▁tram": 6080,
      "ler": 6081,
      "▁katı": 6082,
      "▁fak": 6083,
      "000": 6084,
      "▁birlik": 6085,
      "▁degisiklikler": 6086,
      "▁hava": 6087,
      "▁red": 6088,
      "▁cesitlilik": 6089,
      "apon": 6090,
      "hur": 6091,
      "▁philadel": 6092,
      "▁kardesinin": 6093,
      "▁konf": 6094,
      "akal": 6095,
      "▁z": 6096,
      "luga": 6097,
      "▁portfoy": 6098,
      "tin": 6099,
      "▁harcam": 6100,
      "▁sahne": 6101,
      "aduf": 6102,
      "▁kır": 6103,
      "▁hes": 6104,
      "▁%1": 6105,
      "▁calisanlar": 6106,
      "her": 6107,
      "▁faaliyeti": 6108,
      "acılık": 6109,
      "▁ler": 6110,
      "▁insaat": 6111,
      "▁onde": 6112,
      "▁duygu": 6113,
      "▁bırakmak": 6114,
      "▁manzara": 6115,
      "▁yasama": 6116,
      "detti": 6117,
      "▁ulastı": 6118,
      "▁yatır": 6119,
      "▁geleni": 6120,
      "▁as": 6121,
      "▁gorun": 6122,
      "▁cizg": 6123,
      "▁\"": 6124,
      "▁lake": 6125,
      "mek": 6126,
      "▁sepet": 6127,
      "lugu": 6128,
      "▁ise": 6129,
      "▁acmak": 6130,
      "dak": 6131,
      "▁gom": 6132,
      "▁lakin": 6133,
      "▁13": 6134,
      "etli": 6135,
      "▁ceviri": 6136,
      "▁ucunda": 6137,
      "▁tedav": 6138,
      "▁seviyesinden": 6139,
      "▁yuze": 6140,
      "usuna": 6141,
      "edikten": 6142,
      "lanacak": 6143,
      "▁duvarda": 6144,
      "▁.)": 6145,
      "▁konusmayı": 6146,
      "andı": 6147,
      "▁umur": 6148,
      "▁vaz": 6149,
      "▁etrafında": 6150,
      "▁gars": 6151,
      "▁gez": 6152,
      "▁ipotek": 6153,
      "▁dib": 6154,
      "ete": 6155,
      "▁kelim": 6156,
      "sam": 6157,
      "▁icecekleri": 6158,
      "mak": 6159,
      "ims": 6160,
      "dır": 6161,
      "▁parki": 6162,
      "▁donanma": 6163,
      "lastik": 6164,
      "▁tak": 6165,
      "▁10": 6166,
      "▁tasıy": 6167,
      "▁sarım": 6168,
      "▁analistlerin": 6169,
      "▁guz": 6170,
      "▁editor": 6171,
      "▁yerinde": 6172,
      "ih": 6173,
      "▁otele": 6174,
      "▁bilgilendirilmek": 6175,
      "▁alacak": 6176,
      "▁kaliteye": 6177,
      "▁col": 6178,
      "▁yaklasım": 6179,
      "▁elbette": 6180,
      "▁yaz": 6181,
      "▁saygı": 6182,
      "▁taahh": 6183,
      "▁norma": 6184,
      "▁genis": 6185,
      "▁yetersiz": 6186,
      "▁ropor": 6187,
      "dat": 6188,
      "▁yum": 6189,
      "▁tahr": 6190,
      "▁ucunu": 6191,
      "ılır": 6192,
      "▁clas": 6193,
      "bol": 6194,
      "▁olaylar": 6195,
      "▁sey": 6196,
      "▁yab": 6197,
      "▁kurs": 6198,
      "gor": 6199,
      "lıgına": 6200,
      "▁yolcul": 6201,
      "ıs": 6202,
      "siye": 6203,
      "▁oden": 6204,
      "▁oncelik": 6205,
      "▁ne": 6206,
      "▁gurultu": 6207,
      "▁giris": 6208,
      "▁fazlaydi": 6209,
      "mıyor": 6210,
      "▁yerinden": 6211,
      "form": 6212,
      "▁halı": 6213,
      "▁ton": 6214,
      "▁bahcede": 6215,
      "▁tar": 6216,
      "▁henuz": 6217,
      "da": 6218,
      "▁kahvalti": 6219,
      "▁mustes": 6220,
      "larca": 6221,
      "▁anne": 6222,
      "▁ticaretinde": 6223,
      "▁bacak": 6224,
      "▁bonolar": 6225,
      "▁agzında": 6226,
      "anda": 6227,
      "▁yerel": 6228,
      "▁ifade": 6229,
      "lasma": 6230,
      "eket": 6231,
      "nam": 6232,
      "▁yeten": 6233,
      "es": 6234,
      "gunu": 6235,
      "▁enist": 6236,
      "▁deprem": 6237,
      "▁yolda": 6238,
      "▁ortal": 6239,
      "▁cift": 6240,
      "▁ayı": 6241,
      "▁yanlıs": 6242,
      "digim": 6243,
      "▁tok": 6244,
      "0'": 6245,
      "▁proje": 6246,
      "ıf": 6247,
      "▁pencerenin": 6248,
      "▁enflasyon": 6249,
      "dut": 6250,
      "▁nihayet": 6251,
      "▁kardes": 6252,
      "▁hosuma": 6253,
      "anan": 6254,
      "32": 6255,
      "▁cogun": 6256,
      "egiyle": 6257,
      "▁bicim": 6258,
      "edi": 6259,
      "▁muk": 6260,
      "▁imkanlari": 6261,
      "▁farkında": 6262,
      "▁kitabı": 6263,
      "▁yel": 6264,
      "ve": 6265,
      "▁islemleri": 6266,
      "▁iliskin": 6267,
      "▁oteden": 6268,
      "▁ugr": 6269,
      "▁sob": 6270,
      "▁den": 6271,
      "▁ufuk": 6272,
      "▁yarar": 6273,
      "▁piyasayı": 6274,
      "erken": 6275,
      "▁pad": 6276,
      "irip": 6277,
      "ibaren": 6278,
      "▁at": 6279,
      "ncak": 6280,
      "▁anlay": 6281,
      "▁ala": 6282,
      "▁imza": 6283,
      "ıyorsun": 6284,
      "▁ork": 6285,
      "laydi": 6286,
      "▁yakın": 6287,
      "▁grev": 6288,
      "▁bize": 6289,
      "▁akıl": 6290,
      "▁hizmette": 6291,
      "ey": 6292,
      ".9": 6293,
      "▁derec": 6294,
      "▁hissesini": 6295,
      "▁vb": 6296,
      "ma": 6297,
      "uyla": 6298,
      "▁yenil": 6299,
      "▁strateji": 6300,
      "tur": 6301,
      "▁aradi": 6302,
      "▁universite": 6303,
      "▁sınıfın": 6304,
      "▁yemekler": 6305,
      "tmek": 6306,
      "▁dagıtım": 6307,
      "▁ipot": 6308,
      "▁kafa": 6309,
      "ıkları": 6310,
      ":": 6311,
      "▁sutu": 6312,
      "▁dogr": 6313,
      "▁ismini": 6314,
      "diklerini": 6315,
      "▁nere": 6316,
      "▁disiplin": 6317,
      "▁sogut": 6318,
      "erindeki": 6319,
      "bet": 6320,
      "emin": 6321,
      "▁w": 6322,
      "aların": 6323,
      "▁ces": 6324,
      "▁annemle": 6325,
      "▁resmi": 6326,
      "eticisi": 6327,
      "▁rıht": 6328,
      "▁hacı": 6329,
      "▁komit": 6330,
      "▁masaj": 6331,
      "mıslar": 6332,
      "alari": 6333,
      "▁lokma": 6334,
      "▁yuzune": 6335,
      "udur": 6336,
      "▁baskan": 6337,
      "▁dort": 6338,
      "▁vat": 6339,
      "▁stu": 6340,
      "▁dugun": 6341,
      "o": 6342,
      "▁tarafından": 6343,
      "▁doların": 6344,
      "▁cuval": 6345,
      "▁ciftlik": 6346,
      "esinden": 6347,
      "▁kokusu": 6348,
      "▁ik": 6349,
      "▁idar": 6350,
      "▁spekulasyon": 6351,
      "▁oneri": 6352,
      "▁fiyat": 6353,
      "ı": 6354,
      "▁bizde": 6355,
      "▁deniz": 6356,
      "ift": 6357,
      "▁milleti": 6358,
      "▁ders": 6359,
      "▁%": 6360,
      "ham": 6361,
      "egi": 6362,
      "▁.": 6363,
      "▁zayifti": 6364,
      "▁oylama": 6365,
      "▁baslangıc": 6366,
      "▁doneminde": 6367,
      "▁verildi": 6368,
      "▁tren": 6369,
      "▁tavsiye": 6370,
      "▁cocuklar": 6371,
      "▁bera": 6372,
      "aydi": 6373,
      "▁beyan": 6374,
      "▁yardım": 6375,
      "avv": 6376,
      "▁peki": 6377,
      "lı": 6378,
      "▁kanaat": 6379,
      "▁100": 6380,
      "acının": 6381,
      "asında": 6382,
      "sil": 6383,
      "▁sise": 6384,
      "▁seri": 6385,
      "dig": 6386,
      "otte": 6387,
      "▁itibariyle": 6388,
      "▁tom": 6389,
      "▁mah": 6390,
      "▁vagon": 6391,
      "iyeler": 6392,
      "▁yukseldi": 6393,
      "▁varsa": 6394,
      "▁pla": 6395,
      "eland": 6396,
      "▁it": 6397,
      "▁tesir": 6398,
      "▁hisseleri": 6399,
      "▁oku": 6400,
      "itli": 6401,
      "▁cent": 6402,
      "uzluk": 6403,
      "▁.'": 6404,
      "▁istemiyorum": 6405,
      "▁bodr": 6406,
      "▁imaj": 6407,
      "[CLS]": 6408,
      "erince": 6409,
      "▁leh": 6410,
      "▁siper": 6411,
      "▁savun": 6412,
      "▁gunah": 6413,
      "alarını": 6414,
      "▁sar": 6415,
      "▁evi": 6416,
      "▁serisi": 6417,
      "ardı": 6418,
      "leg": 6419,
      "▁elestirmen": 6420,
      "▁mark": 6421,
      "▁eroin": 6422,
      "▁kuslar": 6423,
      "▁calis": 6424,
      "▁fener": 6425,
      "▁goze": 6426,
      "▁sel": 6427,
      "▁detayları": 6428,
      "▁digeri": 6429,
      "▁yasam": 6430,
      "▁strate": 6431,
      "▁herif": 6432,
      "sizlik": 6433,
      "▁arastırma": 6434,
      "▁bolumunu": 6435,
      "▁sebeplerden": 6436,
      "cun": 6437,
      "▁gov": 6438,
      "▁0": 6439,
      "▁onceki": 6440,
      "▁pahali": 6441,
      "▁kursun": 6442,
      "o'ya": 6443,
      "▁semp": 6444,
      "▁onu": 6445,
      "ars": 6446,
      "▁sofr": 6447,
      "▁ordu": 6448,
      "▁anti": 6449,
      "▁kend": 6450,
      "iyet": 6451,
      "▁calismas": 6452,
      "▁vergi": 6453,
      "▁yoktur": 6454,
      "▁ked": 6455,
      "▁yapılanma": 6456,
      "▁tutul": 6457,
      "▁yirmi": 6458,
      "▁basv": 6459,
      "▁cuma": 6460,
      "▁aslan": 6461,
      "oy": 6462,
      "▁gozu": 6463,
      "▁baskısı": 6464,
      "▁phoenix": 6465,
      "▁sid": 6466,
      "▁pazarın": 6467,
      "▁soyledik": 6468,
      "imli": 6469,
      "layı": 6470,
      "▁kars": 6471,
      "▁toplam": 6472,
      "▁esnada": 6473,
      "▁arasından": 6474,
      "▁hanima": 6475,
      "▁fotograf": 6476,
      "▁istihdam": 6477,
      "▁yasıyor": 6478,
      "▁avukat": 6479,
      "ge": 6480,
      "▁pey": 6481,
      "/8": 6482,
      "ıp": 6483,
      "▁dı": 6484,
      "▁uzum": 6485,
      "▁ettigini": 6486,
      "▁listel": 6487,
      "uluk": 6488,
      "din": 6489,
      "etin": 6490,
      "▁tir": 6491,
      "▁arkadası": 6492,
      "▁barda": 6493,
      "▁dortluk": 6494,
      "▁19": 6495,
      "▁evlerine": 6496,
      "▁puan": 6497,
      "sini": 6498,
      "bin": 6499,
      "▁corb": 6500,
      "▁mevki": 6501,
      "▁edebilir": 6502,
      "▁agacın": 6503,
      "▁meh": 6504,
      "▁rehberlik": 6505,
      "▁silah": 6506,
      "▁denizde": 6507,
      "▁fasuly": 6508,
      "▁ongor": 6509,
      "▁ulası": 6510,
      "▁kural": 6511,
      "▁memuru": 6512,
      "tal": 6513,
      "cı": 6514,
      "6'dan": 6515,
      "igi": 6516,
      "▁bayram": 6517,
      "▁profesor": 6518,
      "▁onlara": 6519,
      "▁surpr": 6520,
      "▁kaynagı": 6521,
      "▁kendiniz": 6522,
      "▁acisindan": 6523,
      "ırlar": 6524,
      "▁satısların": 6525,
      "▁stok": 6526,
      "orn": 6527,
      "dugunu": 6528,
      "▁tahk": 6529,
      "▁saatlerde": 6530,
      "▁tutun": 6531,
      "▁gelistir": 6532,
      "▁nefret": 6533,
      "▁bahce": 6534,
      "▁kaliteli": 6535,
      "▁park": 6536,
      "▁tekn": 6537,
      "▁catal": 6538,
      "▁traf": 6539,
      "▁okulda": 6540,
      "yalar": 6541,
      "▁yanından": 6542,
      "ited": 6543,
      "▁derin": 6544,
      "▁sandık": 6545,
      "00'e": 6546,
      "▁olmakla": 6547,
      "▁koruma": 6548,
      "▁ada": 6549,
      "▁belirtti": 6550,
      "▁dinlemek": 6551,
      "dikler": 6552,
      "▁gomlek": 6553,
      "▁ihtil": 6554,
      "▁arkadasim": 6555,
      "▁mac": 6556,
      "ılıgını": 6557,
      "▁sig": 6558,
      "▁yurek": 6559,
      "ustan": 6560,
      "▁ettigi": 6561,
      "▁tahmin": 6562,
      "ieg": 6563,
      "▁basından": 6564,
      "aliydi": 6565,
      "▁basımı": 6566,
      "▁magaz": 6567,
      "dık": 6568,
      "ustugunu": 6569,
      "▁derece": 6570,
      "▁say": 6571,
      "▁tıp": 6572,
      "▁liderleri": 6573,
      "▁dusus": 6574,
      "▁durumun": 6575,
      "▁durumlarda": 6576,
      "▁guven": 6577,
      "▁saati": 6578,
      "▁pl": 6579,
      "▁torb": 6580,
      "▁komisyon": 6581,
      "▁hap": 6582,
      "▁edildi": 6583,
      "yan": 6584,
      "▁doları'na": 6585,
      "▁evlere": 6586,
      "▁prosedur": 6587,
      "▁kisilik": 6588,
      "▁anlamda": 6589,
      "▁hicbiri": 6590,
      "▁soyledi": 6591,
      "▁kullanı": 6592,
      "cıların": 6593,
      "▁soruları": 6594,
      "▁dahi": 6595,
      "▁umut": 6596,
      "▁gunu": 6597,
      "▁yani": 6598,
      "cının": 6599,
      "▁uzere": 6600,
      "▁ihtiyacım": 6601,
      "▁carsamba": 6602,
      "a'ya": 6603,
      "▁pal": 6604,
      "▁satıs": 6605,
      "▁sist": 6606,
      "in": 6607,
      "▁piyasa": 6608,
      "ell": 6609,
      "▁icer": 6610,
      "▁yapma": 6611,
      "▁degis": 6612,
      "tif": 6613,
      "▁farklılık": 6614,
      "iren": 6615,
      "▁sıv": 6616,
      "▁luk": 6617,
      "▁soru": 6618,
      "▁%8": 6619,
      "mekle": 6620,
      "▁agırlık": 6621,
      "▁iyil": 6622,
      "▁emtia": 6623,
      "▁anah": 6624,
      "▁turkiye": 6625,
      "lilik": 6626,
      "▁birik": 6627,
      "▁a": 6628,
      "▁tarz": 6629,
      "gec": 6630,
      "▁piyasanın": 6631,
      "▁yonetimi": 6632,
      "[SEP]": 6633,
      "▁hayatın": 6634,
      "▁tanık": 6635,
      "▁yonetic": 6636,
      "ee": 6637,
      "▁dolayi": 6638,
      "eginde": 6639,
      "*": 6640,
      "etr": 6641,
      "▁kapalı": 6642,
      "ıgı": 6643,
      "▁uye": 6644,
      "▁cesit": 6645,
      "▁gogs": 6646,
      "▁hucr": 6647,
      "lıs": 6648,
      "▁elbis": 6649,
      "▁egit": 6650,
      "▁bal": 6651,
      "▁kısıt": 6652,
      "▁olabil": 6653,
      "▁turu": 6654,
      "▁lira": 6655,
      "▁vermedi": 6656,
      "▁tuketiciler": 6657,
      "▁24": 6658,
      "▁sab": 6659,
      "▁ruh": 6660,
      "▁muhend": 6661,
      "▁du": 6662,
      "▁dustugunu": 6663,
      "▁asans": 6664,
      "▁doktora": 6665,
      "amdan": 6666,
      "▁sebze": 6667,
      "isini": 6668,
      "▁konus": 6669,
      "▁posta": 6670,
      "▁bel": 6671,
      "▁aile": 6672,
      "▁yes": 6673,
      "iligin": 6674,
      "▁eh": 6675,
      "▁lid": 6676,
      "▁kıt": 6677,
      "▁kat": 6678,
      "▁soluk": 6679,
      "▁olmayan": 6680,
      "▁nesil": 6681,
      "ların": 6682,
      "▁olması": 6683,
      "ken": 6684,
      "▁tahsil": 6685,
      "▁fikr": 6686,
      "▁dav": 6687,
      "▁tarihe": 6688,
      "▁alk": 6689,
      "▁ortaya": 6690,
      "▁plastik": 6691,
      "▁icki": 6692,
      "▁stan": 6693,
      "▁olmad": 6694,
      "▁bura": 6695,
      "▁aktarma": 6696,
      "▁okulun": 6697,
      "▁cogunluk": 6698,
      "▁gerekse": 6699,
      "ıyoruz": 6700,
      "im": 6701,
      "us": 6702,
      "amba": 6703,
      "▁satıslara": 6704,
      "usune": 6705,
      "▁anlasmaya": 6706,
      "▁arkad": 6707,
      "▁karanlık": 6708,
      "▁karayol": 6709,
      "aklık": 6710,
      "▁ayıp": 6711,
      "▁fon": 6712,
      "indeydi": 6713,
      "▁mekana": 6714,
      "▁tur": 6715,
      "▁anası": 6716,
      "▁milletin": 6717,
      "▁um": 6718,
      "▁yakıt": 6719,
      "▁cıglık": 6720,
      "▁tarihin": 6721,
      "▁seref": 6722,
      "▁meden": 6723,
      "▁hanim": 6724,
      "lestir": 6725,
      "ınıza": 6726,
      "▁teror": 6727,
      "▁usta": 6728,
      "▁ma": 6729,
      "▁avukatlar": 6730,
      "▁alternatif": 6731,
      "▁asık": 6732,
      "▁5'ten": 6733,
      "urup": 6734,
      "▁not": 6735,
      "▁hurriyet": 6736,
      "▁baktı": 6737,
      "▁anneme": 6738,
      "▁tiyatrosu": 6739,
      "▁kayık": 6740,
      "▁altını": 6741,
      "▁icin": 6742,
      "▁ba": 6743,
      "▁fiyati": 6744,
      "▁ah": 6745,
      "▁kazancı": 6746,
      "arında": 6747,
      "▁boston'a": 6748,
      "▁konusu": 6749,
      "▁yakinlar": 6750,
      "ult": 6751,
      "▁kec": 6752,
      "▁hapis": 6753,
      "▁iceriyor": 6754,
      "maktan": 6755,
      "▁ilav": 6756,
      "malı": 6757,
      "▁dilim": 6758,
      "▁makinesi": 6759,
      "▁po": 6760,
      "lugun": 6761,
      "meyen": 6762,
      "▁kapanıs": 6763,
      "▁rekabet": 6764,
      "▁gev": 6765,
      "▁prov": 6766,
      "▁uzay": 6767,
      "▁eski": 6768,
      "if": 6769,
      "landıgını": 6770,
      "▁giy": 6771,
      "▁patlıcan": 6772,
      ".1": 6773,
      "ladı": 6774,
      "▁dig": 6775,
      "▁hoc": 6776,
      "▁yar": 6777,
      "▁aracı": 6778,
      "▁gon": 6779,
      "lıların": 6780,
      "▁dostu": 6781,
      "elerden": 6782,
      "▁fasulye": 6783,
      "▁fan": 6784,
      "▁kimlik": 6785,
      "▁belgeleri": 6786,
      "iger": 6787,
      "▁guvenlik": 6788,
      "▁mukemmel": 6789,
      "▁otelden": 6790,
      "▁sirketler": 6791,
      "▁mahall": 6792,
      "▁cinayet": 6793,
      "▁kısm": 6794,
      "▁gayrimenkul": 6795,
      "▁banyo": 6796,
      "▁oglunun": 6797,
      "ıyorum": 6798,
      "▁antr": 6799,
      "'un": 6800,
      "▁amer": 6801,
      "▁erk": 6802,
      "▁listesini": 6803,
      "▁cesaret": 6804,
      "▁dısar": 6805,
      "▁aylık": 6806,
      "▁birtakım": 6807,
      "▁etki": 6808,
      "▁salonunda": 6809,
      "▁personeller": 6810,
      "▁git": 6811,
      "ub": 6812,
      "▁sonr": 6813,
      "▁gununun": 6814,
      "▁ekonom": 6815,
      "▁1.": 6816,
      "▁cevir": 6817,
      "▁seyin": 6818,
      "▁7": 6819,
      "lemis": 6820,
      "▁iyiydi": 6821,
      "ılacak": 6822,
      "ban": 6823,
      "▁topraga": 6824,
      "▁sonlarında": 6825,
      "▁dusunc": 6826,
      "▁masanın": 6827,
      "anlara": 6828,
      "▁gozle": 6829,
      "▁yasamın": 6830,
      "=": 6831,
      "▁etmekten": 6832,
      "▁yeteri": 6833,
      "▁zirv": 6834,
      "landı": 6835,
      "▁sec": 6836,
      "▁sistemleri": 6837,
      "▁el": 6838,
      "▁ert": 6839,
      "▁gu": 6840,
      "▁uzer": 6841,
      "ist": 6842,
      "▁yıldızı": 6843,
      "▁duny": 6844,
      "▁yılının": 6845,
      "▁manev": 6846,
      "▁sun": 6847,
      "▁alım": 6848,
      "▁konfor": 6849,
      "amak": 6850,
      "▁daire": 6851,
      "▁ni": 6852,
      "▁aracları": 6853,
      "▁mada": 6854,
      "▁ekm": 6855,
      "▁dernegi": 6856,
      "▁tic": 6857,
      "lamaları": 6858,
      "zer": 6859,
      "▁dekor": 6860,
      "▁sınıfı": 6861,
      "▁yapmak": 6862,
      "▁phoeni": 6863,
      "▁bilmiyorum": 6864,
      "▁komur": 6865,
      "▁ser": 6866,
      "ta": 6867,
      "▁sip": 6868,
      "▁guzel": 6869,
      "▁tenek": 6870,
      "▁12": 6871,
      "▁netic": 6872,
      "▁dakikada": 6873,
      "▁fonları": 6874,
      "yabilir": 6875,
      "▁senin": 6876,
      "eldi": 6877,
      "▁seferinde": 6878,
      "iz": 6879,
      "yosu": 6880,
      "siz": 6881,
      "▁canım": 6882,
      "▁goster": 6883,
      "legi": 6884,
      "▁gelirleri": 6885,
      "▁cemiyet": 6886,
      "▁seattle": 6887,
      "▁kesinlikle": 6888,
      "▁ucak": 6889,
      "▁sinem": 6890,
      "▁japonya": 6891,
      "▁ola": 6892,
      "▁temizdi": 6893,
      "▁zorunda": 6894,
      "▁kısk": 6895,
      "▁ikna": 6896,
      "mızı": 6897,
      "cak": 6898,
      "▁yumur": 6899,
      "▁yaslı": 6900,
      "'yı": 6901,
      "▁enerji": 6902,
      "▁rus": 6903,
      "▁onem": 6904,
      "▁kurb": 6905,
      "▁yun": 6906,
      "▁za": 6907,
      "▁yazarın": 6908,
      "▁donus": 6909,
      "▁doktoru": 6910,
      "▁lim": 6911,
      "ya": 6912,
      "stı": 6913,
      "▁mulk": 6914,
      "▁grup": 6915,
      "▁esya": 6916,
      "▁mide": 6917,
      "▁likid": 6918,
      "▁ayagı": 6919,
      "ısında": 6920,
      "su": 6921,
      "yalizm": 6922,
      "▁yuzlu": 6923,
      "▁bunun": 6924,
      "enek": 6925,
      "erli": 6926,
      "▁sirketi": 6927,
      "osyon": 6928,
      "ruk": 6929,
      "▁sırt": 6930,
      "madim": 6931,
      "▁endek": 6932,
      "▁bazen": 6933,
      "▁kayb": 6934,
      "bul": 6935,
      "▁dısında": 6936,
      "▁para": 6937,
      "inleri": 6938,
      "▁hareket": 6939,
      "▁bask": 6940,
      "▁kub": 6941,
      "▁etmedi": 6942,
      "lik": 6943,
      "lac": 6944,
      "▁sistem": 6945,
      "▁kons": 6946,
      "▁anlattı": 6947,
      "▁sıc": 6948,
      "▁termal": 6949,
      "▁hizmetten": 6950,
      "▁issizlik": 6951,
      "▁zay": 6952,
      "▁ederiz": 6953,
      "▁tat": 6954,
      "▁mon": 6955,
      "lerimiz": 6956,
      "dıkları": 6957,
      "dıgın": 6958,
      "▁ucusa": 6959,
      "▁ittif": 6960,
      "▁bilgiler": 6961,
      "amıza": 6962,
      "▁dairesi": 6963,
      "▁kendi": 6964,
      "onya": 6965,
      "miyordu": 6966,
      "ce": 6967,
      "▁ucusta": 6968,
      "▁havaalan": 6969,
      "▁cogu": 6970,
      "▁herkese": 6971,
      "▁sarap": 6972,
      "dıgı": 6973,
      "▁teor": 6974,
      "ekl": 6975,
      "▁havası": 6976,
      "▁pasa": 6977,
      "ot": 6978,
      "▁ugul": 6979,
      "rut": 6980,
      "▁birden": 6981,
      "▁kendimi": 6982,
      "▁te": 6983,
      "▁mesafe": 6984,
      "▁kapısı": 6985,
      "▁of": 6986,
      "▁net": 6987,
      "▁tahıl": 6988,
      "▁yine": 6989,
      "▁endustr": 6990,
      "▁oyun": 6991,
      "▁sah": 6992,
      "▁bile": 6993,
      "▁cel": 6994,
      "mistim": 6995,
      "▁yo": 6996,
      "pe": 6997,
      "▁muhasebe": 6998,
      "▁dokuz": 6999,
      "▁kızlar": 7000,
      "▁mem": 7001,
      "▁arttıgını": 7002,
      "▁mamafih": 7003,
      "▁yoneticileri": 7004,
      "▁enf": 7005,
      "▁ilave": 7006,
      "▁ucte": 7007,
      "▁istifa": 7008,
      "▁yuzden": 7009,
      "▁isinden": 7010,
      "▁*": 7011,
      "inci": 7012,
      "▁fery": 7013,
      "izin": 7014,
      "lim": 7015,
      "▁koca": 7016,
      "▁istedim": 7017,
      "melidir": 7018,
      "ılmak": 7019,
      "si": 7020,
      "▁inanc": 7021,
      "▁kenarına": 7022,
      "▁tuk": 7023,
      "▁ozellikle": 7024,
      "▁3/": 7025,
      "▁ayır": 7026,
      "▁yonetmen": 7027,
      "▁arabayı": 7028,
      "layıp": 7029,
      "▁piyasaları": 7030,
      "▁itibaren": 7031,
      "eden": 7032,
      "▁seks": 7033,
      "▁giysi": 7034,
      "▁ucuna": 7035,
      "enk": 7036,
      "agi": 7037,
      "gır": 7038,
      "ia": 7039,
      "▁adalet": 7040,
      "▁soze": 7041,
      "illeri": 7042,
      "▁kur": 7043,
      "irli": 7044,
      "▁kırk": 7045,
      "▁del": 7046,
      "inda": 7047,
      "▁izlen": 7048,
      "▁d": 7049,
      "▁cif": 7050,
      "▁meselesi": 7051,
      "alog": 7052,
      "▁ediyordu": 7053,
      "▁koymak": 7054,
      "▁yarat": 7055,
      "▁vermeyi": 7056,
      "lılıg": 7057,
      "▁esnaf": 7058,
      "▁durdu": 7059,
      "▁namaz": 7060,
      "ladım": 7061,
      "▁islemlerde": 7062,
      "▁tedavi": 7063,
      ".7": 7064,
      "▁acent": 7065,
      "▁yetkililerine": 7066,
      "oj": 7067,
      "▁depo": 7068,
      "▁bulmaya": 7069,
      "▁soyl": 7070,
      "▁tepki": 7071,
      "agında": 7072,
      "▁mahkem": 7073,
      "▁0.": 7074,
      "▁dunyada": 7075,
      "▁acıl": 7076,
      "▁sop": 7077,
      "▁mektu": 7078,
      "▁yapıyor": 7079,
      "▁capında": 7080,
      "▁karın": 7081,
      "yası": 7082,
      "▁dakik": 7083,
      "▁huz": 7084,
      "▁yabanc": 7085,
      "▁yok": 7086,
      "▁gunduz": 7087,
      "▁paraya": 7088,
      "anoz": 7089,
      "▁paylas": 7090,
      "ls": 7091,
      "▁bıcak": 7092,
      "net": 7093,
      "▁kac": 7094,
      "▁olurdu": 7095,
      "▁coktu": 7096,
      "▁insanlara": 7097,
      "ayla": 7098,
      "▁kapıya": 7099,
      "▁gıda": 7100,
      "▁salonda": 7101,
      "liginde": 7102,
      "▁196": 7103,
      "▁olumu": 7104,
      "▁art": 7105,
      "▁kenara": 7106,
      "▁sanırım": 7107,
      "▁yapılandır": 7108,
      "▁suren": 7109,
      "▁sonucunda": 7110,
      "derken": 7111,
      "▁kara": 7112,
      "▁davası": 7113,
      "lara": 7114,
      "oz": 7115,
      "mesin": 7116,
      "▁kılav": 7117,
      "▁ind": 7118,
      "▁nedir": 7119,
      "▁baskanın": 7120,
      "▁air": 7121,
      "▁personellerin": 7122,
      "izi": 7123,
      "laması": 7124,
      "k": 7125,
      "▁duk": 7126,
      "▁roman": 7127,
      "mey": 7128,
      "ort": 7129,
      "▁alak": 7130,
      "▁holding": 7131,
      "▁kaldik": 7132,
      "ime": 7133,
      "▁heyet": 7134,
      "▁egil": 7135,
      "aman": 7136,
      "osunu": 7137,
      "iyoruz": 7138,
      "▁uygulam": 7139,
      "erh": 7140,
      "ikti": 7141,
      "▁odak": 7142,
      "ecegine": 7143,
      "▁gormek": 7144,
      "▁ulkede": 7145,
      "▁edeb": 7146,
      "▁cumhuriyet": 7147,
      "att": 7148,
      "▁firma": 7149,
      "▁merdiv": 7150,
      "ac": 7151,
      "iri": 7152,
      "▁surede": 7153,
      "ad": 7154,
      "▁kl": 7155,
      "ose": 7156,
      "▁merdiven": 7157,
      "▁1/": 7158,
      "\\/": 7159,
      "▁lik": 7160,
      "▁oyku": 7161,
      "▁eylul": 7162,
      "cılıgın": 7163,
      "▁doga": 7164,
      "▁sır": 7165,
      "▁herkesin": 7166,
      "▁bili": 7167,
      "▁hek": 7168,
      "▁efend": 7169,
      "▁dislerini": 7170,
      "▁kav": 7171,
      "▁direk": 7172,
      "eo": 7173,
      "▁esk": 7174,
      "▁aksama": 7175,
      "▁mufet": 7176,
      "ında": 7177,
      "▁kesi": 7178,
      "lerce": 7179,
      "▁goz": 7180,
      "▁sergi": 7181,
      "▁kontr": 7182,
      "▁gayret": 7183,
      "▁bazı": 7184,
      "denin": 7185,
      "▁nas": 7186,
      "▁olmay": 7187,
      "▁kisisel": 7188,
      "▁asl": 7189,
      "▁oranını": 7190,
      "tikten": 7191,
      "▁bet": 7192,
      "eh": 7193,
      "lamıs": 7194,
      "pr": 7195,
      "▁tırnak": 7196,
      "▁otur": 7197,
      "▁fil": 7198,
      "▁kurumsal": 7199,
      "▁evler": 7200,
      "▁ref": 7201,
      "▁can": 7202,
      "▁baslangıcı": 7203,
      "▁anayasa": 7204,
      "ındaki": 7205,
      "▁sask": 7206,
      "▁olcu": 7207,
      "'dan": 7208,
      "▁sik": 7209,
      "▁market": 7210,
      "▁ez": 7211,
      "▁fay": 7212,
      "fa": 7213,
      "▁protest": 7214,
      "imizden": 7215,
      "ledim": 7216,
      "▁ote": 7217,
      "▁anahtar": 7218,
      "▁lobi": 7219,
      "▁detay": 7220,
      "elli": 7221,
      "ındı": 7222,
      "▁cekmek": 7223,
      "▁devralma": 7224,
      "▁tah": 7225,
      "acagız": 7226,
      "layacagını": 7227,
      "▁kurban": 7228,
      "lendirme": 7229,
      "▁sirketleri": 7230,
      "ılıgında": 7231,
      "oglu": 7232,
      "▁dogru": 7233,
      "ılı": 7234,
      "▁beyin": 7235,
      "ulu": 7236,
      "▁gelir": 7237,
      "ugum": 7238,
      "▁endeksi": 7239,
      "ıb": 7240,
      "▁sonucları": 7241,
      "▁cun": 7242,
      "▁ayv": 7243,
      "diginden": 7244,
      "▁yarı": 7245,
      "▁kahkah": 7246,
      "▁eslik": 7247,
      "'si": 7248,
      "digini": 7249,
      "ina": 7250,
      "▁ayrı": 7251,
      "▁zamanlar": 7252,
      "▁buzdol": 7253,
      "▁onceden": 7254,
      "▁stat": 7255,
      "▁yuruy": 7256,
      "gu": 7257,
      "▁bolge": 7258,
      "▁kartı": 7259,
      "▁17": 7260,
      "▁kadınlar": 7261,
      "▁tesvik": 7262,
      "▁atol": 7263,
      "8": 7264,
      "▁suphe": 7265,
      "▁cak": 7266,
      "▁piyasada": 7267,
      "ume": 7268,
      "ska": 7269,
      "gre": 7270,
      "▁atese": 7271,
      "▁reng": 7272,
      "▁kapısının": 7273,
      "▁coban": 7274,
      "'ya": 7275,
      "▁suc": 7276,
      "▁turn": 7277,
      "▁ogret": 7278,
      "▁peyniri": 7279,
      "mu": 7280,
      "mer": 7281,
      "▁ucaklar": 7282,
      "▁man": 7283,
      "mayın": 7284,
      "▁cocuk": 7285,
      "▁saldır": 7286,
      "▁franc": 7287,
      "▁onumuzdeki": 7288,
      "▁gecti": 7289,
      "▁ins": 7290,
      "tun": 7291,
      "▁cocuklug": 7292,
      "▁sektoru": 7293,
      "▁yasad": 7294,
      "▁kısım": 7295,
      "▁balkon": 7296,
      "▁terz": 7297,
      "▁jap": 7298,
      "▁kale": 7299,
      "▁yerleri": 7300,
      "culuk": 7301,
      "▁oradan": 7302,
      "▁sahipleri": 7303,
      "▁ortaklık": 7304,
      "▁otesinde": 7305,
      "▁mes": 7306,
      "▁catı": 7307,
      "des": 7308,
      "▁oysa": 7309,
      "op": 7310,
      "▁dag": 7311,
      "▁had": 7312,
      "▁1": 7313,
      "▁ede": 7314,
      "▁isleme": 7315,
      "▁hol": 7316,
      "▁kitab": 7317,
      "gr": 7318,
      "▁cennet": 7319,
      "▁devam": 7320,
      "▁impar": 7321,
      "▁merm": 7322,
      "lıgının": 7323,
      "▁..\"": 7324,
      "▁yatırımcılar": 7325,
      "▁kıraat": 7326,
      "ekkur": 7327,
      "▁kontrolu": 7328,
      "▁onun": 7329,
      "org": 7330,
      "ilik": 7331,
      "▁has": 7332,
      "▁sovyet": 7333,
      "▁ucaga": 7334,
      "▁endis": 7335,
      "mistir": 7336,
      "▁civarı": 7337,
      "ice": 7338,
      "▁haklar": 7339,
      "▁metal": 7340,
      "▁diplom": 7341,
      "▁mıy": 7342,
      "ege": 7343,
      "▁baslamıstı": 7344,
      "▁zincir": 7345,
      "▁hastal": 7346,
      "ırmak": 7347,
      "ow": 7348,
      "▁sonuc": 7349,
      "▁isinin": 7350,
      "▁katıl": 7351,
      "▁sep": 7352,
      "▁merkezinde": 7353,
      "lanmak": 7354,
      "▁babamın": 7355,
      "ımızı": 7356,
      "▁wash": 7357,
      "▁kosede": 7358,
      "sızlık": 7359,
      "▁lou": 7360,
      "▁yas": 7361,
      "▁isimiz": 7362,
      "▁yag": 7363,
      "tla": 7364,
      "▁oldugu": 7365,
      "▁hırs": 7366,
      "▁cocuga": 7367,
      "▁civ": 7368,
      "▁yanımda": 7369,
      "▁havayol": 7370,
      "▁herh": 7371,
      "bal": 7372,
      "▁koms": 7373,
      "▁gozlerle": 7374,
      "asindan": 7375,
      "▁dallas": 7376,
      "eviz": 7377,
      "▁ol": 7378,
      "▁baba": 7379,
      "▁baslar": 7380,
      "▁arasındaki": 7381,
      "▁ul": 7382,
      "▁teb": 7383,
      "▁ocagı": 7384,
      "▁bilimin": 7385,
      "▁siyah": 7386,
      "▁mut": 7387,
      "▁tutma": 7388,
      "▁tay": 7389,
      "▁olgu": 7390,
      "til": 7391,
      "▁ardı": 7392,
      "▁bakkal": 7393,
      "▁bug": 7394,
      "▁yoneticisi": 7395,
      "▁din": 7396,
      "▁kumandan": 7397,
      "▁198": 7398,
      "▁keyf": 7399,
      "▁mali": 7400,
      "▁saatlerinde": 7401,
      "▁sozu": 7402,
      ")": 7403,
      "may": 7404,
      "▁ziy": 7405,
      "▁karmas": 7406,
      "-a": 7407,
      "lerini": 7408,
      "dal": 7409,
      "ental": 7410,
      "▁payları": 7411,
      "▁mıs": 7412,
      "oru": 7413,
      "gı": 7414,
      "▁olum": 7415,
      "▁gosteriyor": 7416,
      "▁ofk": 7417,
      "▁yiyeceklerin": 7418,
      "▁kabul": 7419,
      "▁bugun": 7420,
      "▁baglı": 7421,
      "tum": 7422,
      "gum": 7423,
      "uh": 7424,
      "lanır": 7425,
      "ebil": 7426,
      "▁acıga": 7427,
      "-": 7428,
      "▁sozles": 7429,
      "anmıs": 7430,
      "▁uluslararası": 7431,
      "▁onc": 7432,
      "set": 7433,
      "\\": 7434,
      "▁performansi": 7435,
      "▁ucagı": 7436,
      "vel": 7437,
      "▁apart": 7438,
      "▁kimse": 7439,
      "liklerini": 7440,
      "▁fiyatı": 7441,
      "▁vade": 7442,
      "▁meclis": 7443,
      "▁mutluluk": 7444,
      "▁ofis": 7445,
      "▁cuk": 7446,
      "▁iliski": 7447,
      "▁sona": 7448,
      "▁iscileri": 7449,
      "▁uygun": 7450,
      "▁yeri": 7451,
      "▁kurul": 7452,
      "▁ettig": 7453,
      "▁milyon": 7454,
      "▁sesle": 7455,
      "▁noktada": 7456,
      "▁ucusunu": 7457,
      "anlarda": 7458,
      "▁ortasında": 7459,
      "▁argum": 7460,
      "▁yasamak": 7461,
      "▁tuy": 7462,
      "▁burası": 7463,
      "ilmesi": 7464,
      "ımda": 7465,
      "ra": 7466,
      "▁alet": 7467,
      "▁ren": 7468,
      "▁zam": 7469,
      "'daki": 7470,
      "amayacagını": 7471,
      "▁yogurt": 7472,
      "▁yumus": 7473,
      "▁ayakkabı": 7474,
      "mel": 7475,
      ".5": 7476,
      "▁ihrac": 7477,
      "landır": 7478,
      "ont": 7479,
      "en": 7480,
      "laya": 7481,
      "adaki": 7482,
      "▁mas": 7483,
      "▁aralarında": 7484,
      "▁kaz": 7485,
      "▁yukseldigini": 7486,
      "▁hazin": 7487,
      "ılıga": 7488,
      "▁renk": 7489,
      "masını": 7490,
      "anma": 7491,
      "▁yuzunde": 7492,
      "▁insan": 7493,
      "▁onunden": 7494,
      "▁tabanc": 7495,
      "▁?": 7496,
      "▁isc": 7497,
      "▁aldım": 7498,
      "▁yonu": 7499,
      "▁cesidi": 7500,
      "▁olan": 7501,
      "dıgında": 7502,
      "ibar": 7503,
      "▁asırı": 7504,
      "▁amerikan": 7505,
      "▁kims": 7506,
      "▁tohum": 7507,
      "▁karargah": 7508,
      "▁odanin": 7509,
      "▁animasyonu": 7510,
      "▁farklı": 7511,
      "ıcılık": 7512,
      "▁mi": 7513,
      "egor": 7514,
      "▁kaydı": 7515,
      "iski": 7516,
      "▁temin": 7517,
      "▁kayd": 7518,
      "oroz": 7519,
      "▁piyasasında": 7520,
      "satı": 7521,
      "undan": 7522,
      "▁maddes": 7523,
      "▁dalı": 7524,
      "du": 7525,
      "lattı": 7526,
      "▁kemal": 7527,
      "cok": 7528,
      "▁sozlesme": 7529,
      "▁arm": 7530,
      "▁psik": 7531,
      "▁corap": 7532,
      "▁gid": 7533,
      "▁gibiydi": 7534,
      "▁korid": 7535,
      "▁chicag": 7536,
      "▁dengesi": 7537,
      "aco": 7538,
      "▁sonundan": 7539,
      "lamadı": 7540,
      "▁yatırımcıların": 7541,
      "ceyr": 7542,
      "▁istey": 7543,
      "▁acı": 7544,
      "▁seyi": 7545,
      "▁mecl": 7546,
      "▁cid": 7547,
      "▁animasyonlari": 7548,
      "▁hacim": 7549,
      "▁saba": 7550,
      "▁yası": 7551,
      "meli": 7552,
      "aat": 7553,
      "▁turku": 7554,
      "▁mag": 7555,
      "amam": 7556,
      "▁yerden": 7557,
      "▁am": 7558,
      "▁siyaset": 7559,
      "▁dog": 7560,
      "▁islemlerinde": 7561,
      "▁benzer": 7562,
      "▁kalma": 7563,
      "▁savası": 7564,
      "▁halat": 7565,
      "mazlık": 7566,
      "▁darbuk": 7567,
      "atlı": 7568,
      "▁hay": 7569,
      "▁makam": 7570,
      "▁le": 7571,
      "▁zir": 7572,
      "▁tablo": 7573,
      "▁edebil": 7574,
      "▁gos": 7575,
      "▁karg": 7576,
      "igin": 7577,
      "▁parcasını": 7578,
      "▁kaldı": 7579,
      "▁burc": 7580,
      "▁iskem": 7581,
      "inceye": 7582,
      "▁danısman": 7583,
      "▁yapmadı": 7584,
      "etici": 7585,
      "cık": 7586,
      "▁gider": 7587,
      "▁personelin": 7588,
      "diginde": 7589,
      "atli": 7590,
      "▁havalim": 7591,
      "▁part": 7592,
      "▁bosluk": 7593,
      "eleriyle": 7594,
      "▁teklifin": 7595,
      "▁memphis": 7596,
      "▁altından": 7597,
      "▁erken": 7598,
      "▁tet": 7599,
      "▁ayar": 7600,
      "▁getirir": 7601,
      "vil": 7602,
      "▁yık": 7603,
      "▁beg": 7604,
      "▁sehrin": 7605,
      "▁almaya": 7606,
      "▁masasında": 7607,
      "ırken": 7608,
      "mas": 7609,
      "larından": 7610,
      "▁hala": 7611,
      "▁hissed": 7612,
      "▁ureticileri": 7613,
      "▁1\\/": 7614,
      "▁insanlar": 7615,
      "▁alanlar": 7616,
      "melere": 7617,
      "areti": 7618,
      "kler": 7619,
      "▁sana": 7620,
      "▁odul": 7621,
      "▁isaret": 7622,
      "be": 7623,
      "ugun": 7624,
      "▁kalmıs": 7625,
      "▁vermek": 7626,
      "▁gunde": 7627,
      "iledi": 7628,
      "▁konusma": 7629,
      "▁sul": 7630,
      "▁kıza": 7631,
      "uyle": 7632,
      "muyordu": 7633,
      "▁rast": 7634,
      "▁karıs": 7635,
      "▁satım": 7636,
      "▁eylem": 7637,
      "▁yavru": 7638,
      "▁belge": 7639,
      "▁islemin": 7640,
      "iyete": 7641,
      "air": 7642,
      "m": 7643,
      "▁ortagı": 7644,
      "▁sorunlar": 7645,
      "▁mail": 7646,
      "uyordu": 7647,
      "egim": 7648,
      "abın": 7649,
      "▁don": 7650,
      "alamak": 7651,
      "▁istek": 7652,
      "▁sa": 7653,
      "ulur": 7654,
      "▁sohret": 7655,
      "eger": 7656,
      "acıların": 7657,
      "▁ittifak": 7658,
      "▁aj": 7659,
      "▁5": 7660,
      "endir": 7661,
      "▁erkekler": 7662,
      "▁bo": 7663,
      "▁mutf": 7664,
      "▁turk": 7665,
      "▁sampiyon": 7666,
      "▁tarihte": 7667,
      "istirdi": 7668,
      "▁cic": 7669,
      "70'": 7670,
      "▁takv": 7671,
      "▁sorunu": 7672,
      "▁fes": 7673,
      "▁eleman": 7674,
      "lge": 7675,
      "▁calısanlar": 7676,
      "▁vakti": 7677,
      "lu": 7678,
      "▁sev": 7679,
      "ımdan": 7680,
      "▁ısıgında": 7681,
      "iler": 7682,
      "ıklarını": 7683,
      "▁kampanyalardan": 7684,
      "▁sahiptir": 7685,
      "▁deneyim": 7686,
      "▁durum": 7687,
      "▁havayollarında": 7688,
      "tıgı": 7689,
      "▁anketi": 7690,
      "8'den": 7691,
      "▁bisik": 7692,
      "▁ucretin": 7693,
      "gal": 7694,
      "elerini": 7695,
      "▁beydi": 7696,
      "▁sehri": 7697,
      "lilig": 7698,
      "emey": 7699,
      "0'da": 7700,
      "▁or": 7701,
      "duz": 7702,
      "▁manzar": 7703,
      "iyordum": 7704,
      "▁gizli": 7705,
      "▁er": 7706,
      "▁havuz": 7707,
      "▁gurur": 7708,
      "▁bakıs": 7709,
      "una": 7710,
      "▁menkul": 7711,
      "▁pencere": 7712,
      "atif": 7713,
      "▁uret": 7714,
      "▁sigar": 7715,
      "tın": 7716,
      "▁yatak": 7717,
      "▁kazancları": 7718,
      "▁yerin": 7719,
      "▁tasarruf": 7720,
      "▁": 7721,
      "▁min": 7722,
      "▁edecek": 7723,
      "▁kagıd": 7724,
      "▁gerceklesti": 7725,
      "▁do": 7726,
      "ifti": 7727,
      "▁8'den": 7728,
      "▁anlamak": 7729,
      "▁konuya": 7730,
      "▁kurulu": 7731,
      "▁dolay": 7732,
      "▁sekreteri": 7733,
      "▁kost": 7734,
      "▁imkanlar": 7735,
      "▁aileye": 7736,
      "▁muhar": 7737,
      "ap": 7738,
      "▁sterlin": 7739,
      "lunun": 7740,
      "▁ucundan": 7741,
      "▁siv": 7742,
      "▁tespit": 7743,
      "▁ona": 7744,
      "▁yoktu": 7745,
      "▁soylediler": 7746,
      "▁gures": 7747,
      "5'ten": 7748,
      "▁kısa": 7749,
      "▁ayına": 7750,
      "lamayı": 7751,
      "▁us": 7752,
      "▁seni": 7753,
      "▁hazine": 7754,
      "▁raf": 7755,
      "▁unu": 7756,
      "▁vası": 7757,
      "▁ucretlerini": 7758,
      "▁bab": 7759,
      "▁yazar": 7760,
      "▁personelleri": 7761,
      "▁maas": 7762,
      "▁onemli": 7763,
      "ov": 7764,
      "lal": 7765,
      "ızda": 7766,
      "▁nedenle": 7767,
      "▁gide": 7768,
      "▁yen": 7769,
      "maz": 7770,
      "bur": 7771,
      "▁mesaj": 7772,
      "▁finansman": 7773,
      "▁karan": 7774,
      "mal": 7775,
      "▁incel": 7776,
      "▁ayrıntı": 7777,
      "▁gur": 7778,
      "▁ucusları": 7779,
      "▁made": 7780,
      "▁suph": 7781,
      "▁muhalif": 7782,
      "▁agac": 7783,
      "▁borsa": 7784,
      "▁mikr": 7785,
      "▁gozleriyle": 7786,
      "▁parm": 7787,
      "mez": 7788,
      "▁karsıya": 7789,
      "▁olanaklarını": 7790,
      "ılmasını": 7791,
      "▁sogan": 7792,
      "▁ilac": 7793,
      "▁dunyanın": 7794,
      "▁kamp": 7795,
      "▁vurdu": 7796,
      "▁tered": 7797,
      "▁tav": 7798,
      "▁cayır": 7799,
      "▁gormeye": 7800,
      "▁dusun": 7801,
      "ınır": 7802,
      "▁gidis": 7803,
      "yor": 7804,
      "▁21": 7805,
      "▁alabilir": 7806,
      "▁istir": 7807,
      "okul": 7808,
      "▁vek": 7809,
      "▁yelpaz": 7810,
      "esi": 7811,
      "▁havuzlari": 7812,
      "alarda": 7813,
      "▁veren": 7814,
      "ını": 7815,
      "▁altern": 7816,
      "▁aktor": 7817,
      "▁baglantı": 7818,
      "hi": 7819,
      "▁burosu": 7820,
      "▁gog": 7821,
      "'yi": 7822,
      "▁tek": 7823,
      "▁halinde": 7824,
      "etle": 7825,
      "▁gece": 7826,
      "embe": 7827,
      "▁egilim": 7828,
      "ince": 7829,
      "imizda": 7830,
      "▁gercekles": 7831,
      "▁payını": 7832,
      "▁cıkan": 7833,
      "lın": 7834,
      "▁denize": 7835,
      "(": 7836,
      "▁yagmur": 7837,
      "▁savunma": 7838,
      "▁sırtını": 7839,
      "▁kadının": 7840,
      "▁kadını": 7841,
      "▁gerdan": 7842,
      "sur": 7843,
      "▁korkusu": 7844,
      "▁sahil": 7845,
      "▁ard": 7846,
      "▁bakan": 7847,
      "mekt": 7848,
      "▁kisileri": 7849,
      "▁ulkenin": 7850,
      "▁yor": 7851,
      "▁kuzey": 7852,
      "▁vuc": 7853,
      "▁yiyecek": 7854,
      "sim": 7855,
      "inc": 7856,
      "▁ero": 7857,
      "▁mevzuat": 7858,
      "▁dogrusu": 7859,
      "▁gene": 7860,
      "ayol": 7861,
      "▁city": 7862,
      "▁gulums": 7863,
      "▁gem": 7864,
      "bir": 7865,
      "eleri": 7866,
      "▁zihn": 7867,
      "bil": 7868,
      "▁belediye": 7869,
      "uf": 7870,
      "lamam": 7871,
      "▁zararı": 7872,
      "masının": 7873,
      "▁tarla": 7874,
      "▁zehir": 7875,
      "▁iler": 7876,
      "▁nufus": 7877,
      "▁cocuklara": 7878,
      "▁cen": 7879,
      "▁baslan": 7880,
      "gundu": 7881,
      "aba": 7882,
      "7": 7883,
      "▁buraya": 7884,
      "▁program": 7885,
      "▁film": 7886,
      "atist": 7887,
      "leme": 7888,
      "▁rek": 7889,
      "▁oyuncular": 7890,
      "▁parkı": 7891,
      "▁arkasından": 7892,
      "stım": 7893,
      "ızlı": 7894,
      "▁parc": 7895,
      "▁telefon": 7896,
      "▁buldu": 7897,
      "▁kaymak": 7898,
      "▁kis": 7899,
      "▁ailelere": 7900,
      "▁fakat": 7901,
      "▁kuru": 7902,
      "anta": 7903,
      "kil": 7904,
      "▁elektr": 7905,
      "▁cal": 7906,
      "▁efendim": 7907,
      "ekler": 7908,
      "▁memnun": 7909,
      "ede": 7910,
      "▁surekli": 7911,
      "▁mamafi": 7912,
      "▁toplantısında": 7913,
      "▁tencer": 7914,
      "▁calıstı": 7915,
      "▁mahalle": 7916,
      "▁ıskarta": 7917,
      "lav": 7918,
      "▁memleket": 7919,
      "▁olanlar": 7920,
      "abileceg": 7921,
      "▁beri": 7922,
      "▁ber": 7923,
      "sat": 7924,
      "▁azdi": 7925,
      "0'dan": 7926,
      "▁!": 7927,
      "cılar": 7928,
      "▁evinde": 7929,
      "▁dusunuyor": 7930,
      "▁bosa": 7931,
      "▁agabey": 7932,
      "▁acıldı": 7933,
      "▁toplum": 7934,
      "▁luz": 7935,
      "▁bulunuyor": 7936,
      "▁bey": 7937,
      "▁buyuk": 7938,
      "▁uz": 7939,
      "▁torun": 7940,
      "▁proj": 7941,
      "▁hatun": 7942,
      "▁zayıf": 7943,
      "▁karar": 7944,
      "▁degistir": 7945,
      "malıdır": 7946,
      "▁duvara": 7947,
      "▁ut": 7948,
      "siy": 7949,
      "▁mustaf": 7950,
      "f": 7951,
      "tıktan": 7952,
      "▁yorgunluk": 7953,
      "▁tuf": 7954,
      "▁cercev": 7955,
      "ogu": 7956,
      "iligini": 7957,
      "▁orani": 7958,
      "▁okula": 7959,
      "▁davet": 7960,
      "▁gec": 7961,
      "▁lezzetliydi": 7962,
      "▁imam": 7963,
      "▁armag": 7964,
      "▁koz": 7965,
      "▁demokr": 7966,
      "lgelelim": 7967,
      "abilir": 7968,
      "▁senat": 7969,
      "▁havayolu": 7970,
      "▁kendini": 7971,
      "▁aramızda": 7972,
      "▁sıkıntı": 7973,
      "▁gorur": 7974,
      "▁boya": 7975,
      "hal": 7976,
      "lemek": 7977,
      "▁gore": 7978,
      "▁guleryuzluydu": 7979,
      "misler": 7980,
      "▁topluma": 7981,
      "▁mektep": 7982,
      "▁ıskar": 7983,
      "▁daglar": 7984,
      "▁ikiye": 7985,
      "▁zah": 7986,
      "▁programını": 7987,
      "▁sirkette": 7988,
      "▁kapattı": 7989,
      "▁yazı": 7990,
      "▁cevresinde": 7991,
      "tiv": 7992,
      "▁kansas": 7993,
      "emli": 7994,
      "ational": 7995,
      "▁arasına": 7996,
      "▁dc": 7997,
      "ebilir": 7998,
      "▁begen": 7999,
      "ecilik": 8000,
      "▁sart": 8001,
      "▁tuv": 8002,
      "▁ocak": 8003,
      "▁zamandan": 8004,
      "▁olaydan": 8005,
      "▁yemeklerinden": 8006,
      "mesinin": 8007,
      "▁konumunu": 8008,
      "▁kazan": 8009,
      "alardan": 8010,
      "luluk": 8011,
      "▁yemeklerden": 8012,
      "▁numara": 8013,
      "▁yuzunun": 8014,
      "ıgını": 8015,
      "▁duz": 8016,
      "uyor": 8017,
      "ırk": 8018,
      "▁lis": 8019,
      "▁teklifler": 8020,
      "▁50": 8021,
      "▁hel": 8022,
      "▁bana": 8023,
      "▁veril": 8024,
      "▁cıl": 8025,
      "▁boyu": 8026,
      "usundan": 8027,
      "maları": 8028,
      "▁duzenlem": 8029,
      "lamaz": 8030,
      "ait": 8031,
      "▁hukuk": 8032,
      "▁kalmadim": 8033,
      "elir": 8034,
      "▁ellerini": 8035,
      "▁kayak": 8036,
      "▁sahip": 8037,
      "lasmıs": 8038,
      "ıy": 8039,
      "▁gecmis": 8040,
      "ıcılar": 8041,
      "▁turlu": 8042,
      "▁pan": 8043,
      "▁nine": 8044,
      "▁anlasma": 8045,
      "tırma": 8046,
      "▁agz": 8047,
      "▁tadı": 8048,
      "▁az": 8049,
      "▁perform": 8050,
      "lıkta": 8051,
      "ens": 8052,
      "▁kasır": 8053,
      "▁anlayıs": 8054,
      "▁hamam": 8055,
      "▁yapıl": 8056,
      "▁mola": 8057,
      "▁mel": 8058,
      "▁har": 8059,
      "▁etme": 8060,
      "▁mak": 8061,
      "▁9": 8062,
      "▁199": 8063,
      "▁iktis": 8064,
      "eceksin": 8065,
      "ecegiz": 8066,
      "ıltı": 8067,
      "▁ch": 8068,
      "▁ramaz": 8069,
      "8'de": 8070,
      "▁sizin": 8071,
      "▁raporda": 8072,
      "tansiy": 8073,
      "▁disinda": 8074,
      "▁su": 8075,
      "▁yataklar": 8076,
      "▁gundeme": 8077,
      "▁dolayı": 8078,
      "▁bilinc": 8079,
      "▁dısarı": 8080,
      "▁kun": 8081,
      "ask": 8082,
      "▁yeme": 8083,
      "▁imparator": 8084,
      "▁turist": 8085,
      "▁dayak": 8086,
      "uza": 8087,
      "▁demokrasi": 8088,
      "▁hus": 8089,
      "siniz": 8090,
      "▁barıs": 8091,
      "ultu": 8092,
      "▁olmayacak": 8093,
      "▁pol": 8094,
      "▁fayda": 8095,
      "▁satıslar": 8096,
      "esinde": 8097,
      "▁marka": 8098,
      "larini": 8099,
      "▁fırsat": 8100,
      "eki": 8101,
      "ti": 8102,
      "▁kayn": 8103,
      "▁lut": 8104,
      "▁hukumetin": 8105,
      "▁sahili": 8106,
      "▁onlem": 8107,
      "▁yurtd": 8108,
      "▁prens": 8109,
      "▁e": 8110,
      "attle": 8111,
      "▁verg": 8112,
      "▁lezzetli": 8113,
      "▁davayı": 8114,
      "▁deger": 8115,
      "▁canlı": 8116,
      "ayım": 8117,
      "ani": 8118,
      "verdi": 8119,
      "▁oteki": 8120,
      "▁nit": 8121,
      "▁ek": 8122,
      "▁ali": 8123,
      "▁kisilerin": 8124,
      "an": 8125,
      "lanı": 8126,
      "dug": 8127,
      "▁tahta": 8128,
      "▁endise": 8129,
      "ıntı": 8130,
      "▁oakland": 8131,
      "sız": 8132,
      "▁nes": 8133,
      "▁personellerinden": 8134,
      "▁programları": 8135,
      "indi": 8136,
      "kları": 8137,
      "▁dayan": 8138,
      "▁cevap": 8139,
      "▁adamlar": 8140,
      "▁grubu": 8141,
      "▁bilgiye": 8142,
      "▁asam": 8143,
      "▁ihtir": 8144,
      "▁taht": 8145,
      "▁hisselerini": 8146,
      "▁ayın": 8147,
      "▁ilgilendiler": 8148,
      "▁idi": 8149,
      "▁kesim": 8150,
      "▁kud": 8151,
      "▁etrafına": 8152,
      "▁tama": 8153,
      "▁deli": 8154,
      "tıg": 8155,
      "▁saat": 8156,
      "memek": 8157,
      "digi": 8158,
      "▁ilgiliydi": 8159,
      "▁kapasit": 8160,
      "▁kurumları": 8161,
      "lerinin": 8162,
      "▁civarında": 8163,
      "▁reddetti": 8164,
      "▁insana": 8165,
      "▁islere": 8166,
      "kel": 8167,
      "ecegim": 8168,
      "dugu": 8169,
      "ter": 8170,
      "▁ingil": 8171,
      "ecekler": 8172,
      "▁ih": 8173,
      "ikleri": 8174,
      "▁washington": 8175,
      "▁anlam": 8176,
      "▁odadan": 8177,
      "▁bank": 8178,
      "▁bulus": 8179,
      "▁sevin": 8180,
      "▁gol": 8181,
      "▁mahk": 8182,
      "tir": 8183,
      "ich": 8184,
      "▁cep": 8185,
      "isco": 8186,
      "▁kuc": 8187,
      "sine": 8188,
      "▁bayrak": 8189,
      "▁temsilcisi": 8190,
      "▁islemlerin": 8191
    },
    "merges": [
      [
        "▁ha",
        "f"
      ],
      [
        "▁ger",
        "iledi"
      ],
      [
        "▁kars",
        "ıl"
      ],
      [
        "▁kontrol",
        "u"
      ],
      [
        "▁mi",
        "y"
      ],
      [
        "▁kapı",
        "dan"
      ],
      [
        "▁hareket",
        "ler"
      ],
      [
        "▁cem",
        "iyet"
      ],
      [
        "d",
        "i"
      ],
      [
        "▁ko",
        "d"
      ],
      [
        "ilen",
        "dir"
      ],
      [
        "▁tar",
        "la"
      ],
      [
        "▁or",
        "gu"
      ],
      [
        "▁bul",
        "un"
      ],
      [
        "▁inter",
        "net"
      ],
      [
        "▁ver",
        "digi"
      ],
      [
        "▁kosul",
        "ları"
      ],
      [
        "lem",
        "is"
      ],
      [
        "▁c",
        "iz"
      ],
      [
        "▁",
        "z"
      ],
      [
        "▁var",
        "sa"
      ],
      [
        "▁bil",
        "mem"
      ],
      [
        "lig",
        "iyle"
      ],
      [
        "em",
        "edi"
      ],
      [
        "an",
        "ti"
      ],
      [
        "▁olmay",
        "an"
      ],
      [
        "▁on",
        "u"
      ],
      [
        "▁gun",
        "ler"
      ],
      [
        "▁sorum",
        "luluk"
      ],
      [
        "▁bask",
        "ent"
      ],
      [
        "ist",
        "en"
      ],
      [
        "▁adam",
        "ı"
      ],
      [
        "▁ger",
        "c"
      ],
      [
        "▁ma",
        "mafi"
      ],
      [
        "▁tip",
        "i"
      ],
      [
        "▁bak",
        "alım"
      ],
      [
        "▁fir",
        "st"
      ],
      [
        "▁p",
        "il"
      ],
      [
        "▁",
        "r"
      ],
      [
        "▁oldu",
        "r"
      ],
      [
        "▁olma",
        "yacak"
      ],
      [
        "▁a",
        "d"
      ],
      [
        "▁sen",
        "d"
      ],
      [
        "tı",
        "k"
      ],
      [
        "▁etk",
        "inlik"
      ],
      [
        "▁fak",
        "at"
      ],
      [
        "▁duy",
        "du"
      ],
      [
        "▁etti",
        "m"
      ],
      [
        "▁",
        "id"
      ],
      [
        "▁yol",
        "cul"
      ],
      [
        "an",
        "mak"
      ],
      [
        "p",
        "iyon"
      ],
      [
        "ah",
        "h"
      ],
      [
        "▁",
        "ai"
      ],
      [
        "▁a",
        "det"
      ],
      [
        "▁yem",
        "is"
      ],
      [
        "▁bolum",
        "unde"
      ],
      [
        "r",
        "ik"
      ],
      [
        "lerin",
        "e"
      ],
      [
        "▁bi",
        "z"
      ],
      [
        "▁z",
        "or"
      ],
      [
        "▁cıg",
        "lık"
      ],
      [
        "▁delikan",
        "lı"
      ],
      [
        "▁kims",
        "e"
      ],
      [
        "▁gun",
        "un"
      ],
      [
        "▁sin",
        "yal"
      ],
      [
        "▁kam",
        "yon"
      ],
      [
        "▁dogr",
        "usu"
      ],
      [
        "▁yardım",
        "cısı"
      ],
      [
        "▁en",
        "st"
      ],
      [
        "us",
        "tur"
      ],
      [
        "▁",
        "eh"
      ],
      [
        "▁",
        "/"
      ],
      [
        "▁deniz",
        "e"
      ],
      [
        "▁ka",
        "y"
      ],
      [
        "ın",
        "ızda"
      ],
      [
        "imiz",
        "e"
      ],
      [
        "▁munaseb",
        "et"
      ],
      [
        "▁l",
        "am"
      ],
      [
        "▁res",
        "sam"
      ],
      [
        "ayı",
        "f"
      ],
      [
        "▁dav",
        "et"
      ],
      [
        "▁sınır",
        "ları"
      ],
      [
        "edik",
        "lerini"
      ],
      [
        "▁kas",
        "ık"
      ],
      [
        "ıl",
        "mıs"
      ],
      [
        "mis",
        "ler"
      ],
      [
        "cag",
        "ız"
      ],
      [
        "ey",
        "ebilir"
      ],
      [
        "▁d",
        "ar"
      ],
      [
        "▁ic",
        "e"
      ],
      [
        "▁di",
        "p"
      ],
      [
        "▁bi",
        "r"
      ],
      [
        "▁el",
        "i"
      ],
      [
        "as",
        "h"
      ],
      [
        "▁oy",
        "un"
      ],
      [
        "▁gel",
        "ir"
      ],
      [
        "▁to",
        "p"
      ],
      [
        "▁fon",
        "lar"
      ],
      [
        "▁2",
        "8"
      ],
      [
        "▁goster",
        "ir"
      ],
      [
        "lıg",
        "ına"
      ],
      [
        "▁rek",
        "or"
      ],
      [
        "▁kor",
        "ku"
      ],
      [
        "▁pam",
        "uk"
      ],
      [
        "▁kendi",
        "si"
      ],
      [
        "▁hep",
        "s"
      ],
      [
        "▁us",
        "lu"
      ],
      [
        "▁ust",
        "une"
      ],
      [
        "▁m",
        "ı"
      ],
      [
        "▁bil",
        "im"
      ],
      [
        "▁yaklas",
        "imi"
      ],
      [
        "ı",
        "yor"
      ],
      [
        "d",
        "ı"
      ],
      [
        "▁nok",
        "t"
      ],
      [
        "▁it",
        "ibar"
      ],
      [
        "g",
        "imiz"
      ],
      [
        "▁hicbir",
        "i"
      ],
      [
        "▁kos",
        "esine"
      ],
      [
        "▁cevr",
        "esinde"
      ],
      [
        "▁kus",
        "ur"
      ],
      [
        "ma",
        "lar"
      ],
      [
        "▁kayb",
        "etti"
      ],
      [
        "▁muht",
        "esem"
      ],
      [
        "▁h",
        "is"
      ],
      [
        "▁soz",
        "lerini"
      ],
      [
        "▁k",
        "az"
      ],
      [
        "tır",
        "mak"
      ],
      [
        "▁soy",
        "ley"
      ],
      [
        "▁yan",
        "s"
      ],
      [
        "▁1",
        "5"
      ],
      [
        "▁sozles",
        "mesi"
      ],
      [
        "▁",
        "li"
      ],
      [
        "▁inc",
        "."
      ],
      [
        "▁i",
        "s"
      ],
      [
        "▁d",
        "ustugunu"
      ],
      [
        "▁or",
        "t"
      ],
      [
        "▁beg",
        "en"
      ],
      [
        "r",
        "lik"
      ],
      [
        "▁acık",
        "lam"
      ],
      [
        "▁anlam",
        "a"
      ],
      [
        "as",
        "ız"
      ],
      [
        "t",
        "ı"
      ],
      [
        "▁laz",
        "ım"
      ],
      [
        "b",
        "e"
      ],
      [
        "a",
        "z"
      ],
      [
        "▁cık",
        "tı"
      ],
      [
        "▁peyn",
        "iri"
      ],
      [
        "▁ogr",
        "en"
      ],
      [
        "▁ola",
        "maz"
      ],
      [
        "▁deg",
        "er"
      ],
      [
        "▁strate",
        "ji"
      ],
      [
        "▁sa",
        "n"
      ],
      [
        "▁d",
        "c"
      ],
      [
        "▁kalab",
        "alık"
      ],
      [
        "▁em",
        "tia"
      ],
      [
        "'n",
        "de"
      ],
      [
        "▁ka",
        "rsı"
      ],
      [
        "ın",
        "dı"
      ],
      [
        "▁komut",
        "an"
      ],
      [
        "▁",
        "di"
      ],
      [
        "▁orta",
        "da"
      ],
      [
        "▁kon",
        "gr"
      ],
      [
        "▁par",
        "ayi"
      ],
      [
        "▁mek",
        "an"
      ],
      [
        "▁so",
        "gu"
      ],
      [
        "e",
        "gi"
      ],
      [
        "▁s",
        "ar"
      ],
      [
        "y",
        "uz"
      ],
      [
        "▁kay",
        "gı"
      ],
      [
        "▁kam",
        "u"
      ],
      [
        "en",
        "k"
      ],
      [
        "▁yon",
        "uyle"
      ],
      [
        "▁kes",
        "int"
      ],
      [
        "od",
        "r"
      ],
      [
        "▁n",
        "ih"
      ],
      [
        "▁tal",
        "ih"
      ],
      [
        "▁k",
        "en"
      ],
      [
        "▁ge",
        "z"
      ],
      [
        "ib",
        "ar"
      ],
      [
        "uz",
        "a"
      ],
      [
        "▁den",
        "etim"
      ],
      [
        "g",
        "ın"
      ],
      [
        "▁is",
        "k"
      ],
      [
        "▁ticaret",
        "inde"
      ],
      [
        "r",
        "ak"
      ],
      [
        "▁dedi",
        "m"
      ],
      [
        "el",
        "emek"
      ],
      [
        "▁da",
        "ir"
      ],
      [
        "▁ay",
        "ının"
      ],
      [
        "▁a",
        "la"
      ],
      [
        "▁n",
        "eler"
      ],
      [
        "▁ka",
        "fa"
      ],
      [
        "▁dar",
        "b"
      ],
      [
        "▁alısver",
        "is"
      ],
      [
        "ı",
        "s"
      ],
      [
        "▁oy",
        "lama"
      ],
      [
        "▁urun",
        "ler"
      ],
      [
        "b",
        "an"
      ],
      [
        "▁ya",
        "k"
      ],
      [
        "▁l",
        "ok"
      ],
      [
        "h",
        "e"
      ],
      [
        "▁kor",
        "un"
      ],
      [
        "▁ka",
        "f"
      ],
      [
        "▁uy",
        "arı"
      ],
      [
        "▁ucus",
        "ta"
      ],
      [
        "iy",
        "le"
      ],
      [
        "5'",
        "e"
      ],
      [
        "▁mey",
        "v"
      ],
      [
        "▁ortal",
        "aması"
      ],
      [
        "▁dem",
        "ek"
      ],
      [
        "▁p",
        "la"
      ],
      [
        "l",
        "es"
      ],
      [
        "y",
        "osu"
      ],
      [
        "medi",
        "k"
      ],
      [
        "▁b",
        "alt"
      ],
      [
        "i",
        "yor"
      ],
      [
        "▁al",
        "ıs"
      ],
      [
        "▁g",
        "ok"
      ],
      [
        "▁ah",
        "ır"
      ],
      [
        "▁dev",
        "e"
      ],
      [
        "n",
        "cak"
      ],
      [
        "▁calıs",
        "anı"
      ],
      [
        "▁ail",
        "e"
      ],
      [
        "at",
        "ur"
      ],
      [
        "mak",
        "la"
      ],
      [
        "▁om",
        "r"
      ],
      [
        "▁u",
        "s"
      ],
      [
        "▁ic",
        "ini"
      ],
      [
        "s",
        "ik"
      ],
      [
        "▁j",
        "apon"
      ],
      [
        "d",
        "eki"
      ],
      [
        "▁f",
        "ark"
      ],
      [
        "lendir",
        "me"
      ],
      [
        "▁yar",
        "ın"
      ],
      [
        "es",
        "e"
      ],
      [
        "▁bur",
        "adan"
      ],
      [
        "▁kimse",
        "ye"
      ],
      [
        "▁zam",
        "anı"
      ],
      [
        "▁",
        "p"
      ],
      [
        "▁resep",
        "siyon"
      ],
      [
        "mey",
        "ecek"
      ],
      [
        "▁herk",
        "esi"
      ],
      [
        "▁goster",
        "mek"
      ],
      [
        "▁en",
        "d"
      ],
      [
        "ir",
        "leri"
      ],
      [
        "▁duygu",
        "ları"
      ],
      [
        "e",
        "h"
      ],
      [
        "▁d",
        "al"
      ],
      [
        "▁mak",
        "al"
      ],
      [
        "▁o",
        "sman"
      ],
      [
        "▁f",
        "ed"
      ],
      [
        "▁uy",
        "um"
      ],
      [
        "▁nes",
        "il"
      ],
      [
        "▁personel",
        "i"
      ],
      [
        "▁kir",
        "p"
      ],
      [
        "▁goz",
        "unu"
      ],
      [
        "▁cag",
        "r"
      ],
      [
        "▁olma",
        "dıgını"
      ],
      [
        "emedi",
        "m"
      ],
      [
        "▁yur",
        "ek"
      ],
      [
        "▁cuz",
        "dan"
      ],
      [
        "▁kap",
        "ısı"
      ],
      [
        "t",
        "eki"
      ],
      [
        "▁is",
        "c"
      ],
      [
        "▁ediyor",
        "uz"
      ],
      [
        "▁hava",
        "alan"
      ],
      [
        "h",
        "an"
      ],
      [
        "▁kims",
        "eye"
      ],
      [
        "▁bo",
        "ston"
      ],
      [
        "▁ayak",
        "k"
      ],
      [
        "est",
        "i"
      ],
      [
        "▁baskan",
        "lıgı"
      ],
      [
        "▁ilg",
        "ili"
      ],
      [
        "▁hakk",
        "ı"
      ],
      [
        "▁tes",
        "isti"
      ],
      [
        "▁nere",
        "de"
      ],
      [
        "▁m",
        "acı"
      ],
      [
        "▁or",
        "man"
      ],
      [
        "▁s",
        "ok"
      ],
      [
        "▁amer",
        "ic"
      ],
      [
        "al",
        "ar"
      ],
      [
        "▁hav",
        "ası"
      ],
      [
        "▁el",
        "imi"
      ],
      [
        "▁tur",
        "n"
      ],
      [
        "▁fr",
        "ansız"
      ],
      [
        "▁m",
        "ah"
      ],
      [
        "▁in",
        "anc"
      ],
      [
        "▁fiyat",
        "larının"
      ],
      [
        "▁varlık",
        "lar"
      ],
      [
        "▁",
        "ut"
      ],
      [
        "ul",
        "t"
      ],
      [
        "▁1",
        "2"
      ],
      [
        "ca",
        "k"
      ],
      [
        "▁",
        "alt"
      ],
      [
        "▁yap",
        "ti"
      ],
      [
        "▁g",
        "ev"
      ],
      [
        "0",
        "0'"
      ],
      [
        "'y",
        "e"
      ],
      [
        "▁kır",
        "m"
      ],
      [
        "ma",
        "r"
      ],
      [
        "▁kural",
        "ları"
      ],
      [
        "▁istan",
        "bul"
      ],
      [
        "v",
        "ar"
      ],
      [
        "▁",
        ";"
      ],
      [
        "▁oda",
        "dan"
      ],
      [
        "a",
        "sk"
      ],
      [
        "▁y",
        "ıl"
      ],
      [
        "di",
        "r"
      ],
      [
        "▁r",
        "ez"
      ],
      [
        "▁ge",
        "li"
      ],
      [
        "lama",
        "lar"
      ],
      [
        "ed",
        "igini"
      ],
      [
        "ra",
        "z"
      ],
      [
        "▁ser",
        "in"
      ],
      [
        "m",
        "acılar"
      ],
      [
        "▁cift",
        "ciler"
      ],
      [
        "gi",
        "n"
      ],
      [
        "▁olma",
        "lı"
      ],
      [
        "i",
        "s"
      ],
      [
        "▁do",
        "lu"
      ],
      [
        "gun",
        "luk"
      ],
      [
        "▁anlas",
        "mayı"
      ],
      [
        "▁tes",
        "h"
      ],
      [
        "tır",
        "ma"
      ],
      [
        "▁b",
        "os"
      ],
      [
        "▁belir",
        "t"
      ],
      [
        "▁e",
        "h"
      ],
      [
        "▁uygul",
        "ama"
      ],
      [
        "▁erkek",
        "ler"
      ],
      [
        "o",
        "lu"
      ],
      [
        "▁yap",
        "mak"
      ],
      [
        "▁kas",
        "ab"
      ],
      [
        "▁ser",
        "t"
      ],
      [
        "▁d",
        "ef"
      ],
      [
        "ra",
        "r"
      ],
      [
        "▁otel",
        "den"
      ],
      [
        "▁ist",
        "e"
      ],
      [
        "▁u",
        "cu"
      ],
      [
        "▁end",
        "ust"
      ],
      [
        "▁katk",
        "ı"
      ],
      [
        "▁koy",
        "den"
      ],
      [
        "▁meh",
        "met"
      ],
      [
        "el",
        "igi"
      ],
      [
        "▁c",
        "am"
      ],
      [
        "▁gelistir",
        "me"
      ],
      [
        "▁son",
        "bah"
      ],
      [
        "▁hav",
        "ayol"
      ],
      [
        "'",
        "d"
      ],
      [
        "▁ilisk",
        "in"
      ],
      [
        "▁y",
        "di"
      ],
      [
        "ey",
        "az"
      ],
      [
        "'de",
        "n"
      ],
      [
        "▁yeni",
        "lik"
      ],
      [
        "▁ol",
        "ustur"
      ],
      [
        "im",
        "i"
      ],
      [
        "▁vak",
        "it"
      ],
      [
        "▁mik",
        "tarı"
      ],
      [
        "▁s",
        "ev"
      ],
      [
        "▁a",
        "ncak"
      ],
      [
        "il",
        "erdi"
      ],
      [
        "▁clev",
        "eland"
      ],
      [
        "▁aktiv",
        "it"
      ],
      [
        "▁ates",
        "e"
      ],
      [
        "d",
        "igim"
      ],
      [
        "▁duny",
        "ada"
      ],
      [
        "▁hazır",
        "lan"
      ],
      [
        "▁ta",
        "v"
      ],
      [
        "▁uc",
        "uncu"
      ],
      [
        "et",
        "im"
      ],
      [
        "ıl",
        "ıgı"
      ],
      [
        "▁h",
        "ot"
      ],
      [
        "um",
        "us"
      ],
      [
        "est",
        "irdi"
      ],
      [
        "s",
        "ak"
      ],
      [
        "▁uyustur",
        "ucu"
      ],
      [
        "ir",
        "li"
      ],
      [
        "▁al",
        "ay"
      ],
      [
        "▁burokr",
        "at"
      ],
      [
        "g",
        "el"
      ],
      [
        "i",
        "yi"
      ],
      [
        "l",
        "iyat"
      ],
      [
        "▁tarih",
        "e"
      ],
      [
        "▁yasam",
        "ak"
      ],
      [
        "▁g",
        "om"
      ],
      [
        "▁h",
        "uy"
      ],
      [
        "▁ekonom",
        "inin"
      ],
      [
        "l",
        "ıs"
      ],
      [
        "d",
        "er"
      ],
      [
        "▁c",
        "atı"
      ],
      [
        "▁isbir",
        "ligi"
      ],
      [
        "t",
        "igim"
      ],
      [
        "ladı",
        "lar"
      ],
      [
        "ab",
        "et"
      ],
      [
        "▁kelim",
        "esi"
      ],
      [
        "▁ser",
        "i"
      ],
      [
        "▁or",
        "tak"
      ],
      [
        "▁ic",
        "r"
      ],
      [
        "▁ho",
        "s"
      ],
      [
        "▁dev",
        "ir"
      ],
      [
        "ir",
        "di"
      ],
      [
        "▁siy",
        "as"
      ],
      [
        "▁haval",
        "im"
      ],
      [
        "ey",
        "en"
      ],
      [
        "▁deg",
        "eri"
      ],
      [
        "da",
        "n"
      ],
      [
        "▁edi",
        "tor"
      ],
      [
        "k",
        "ce"
      ],
      [
        "ıyor",
        "sun"
      ],
      [
        "ler",
        "in"
      ],
      [
        "ab",
        "ı"
      ],
      [
        "s",
        "iy"
      ],
      [
        "eg",
        "or"
      ],
      [
[...]
