{
  "version": "1.0",
  "truncation": null,
  "padding": null,
  "added_tokens": [
    {
      "id": 552,
      "content": "[CLS]",
      "single_word": false,
      "lstrip": false,
      "rstrip": false,
      "normalized": false,
      "special": true
    },
    {
      "id": 972,
      "content": "[SEP]",
      "single_word": false,
      "lstrip": false,
      "rstrip": false,
      "normalized": false,
      "special": true
    },
    {
      "id": 2332,
      "content": "[PAD]",
      "single_word": false,
      "lstrip": false,
      "rstrip": false,
      "normalized": false,
      "special": true
    },
    {
      "id": 3472,
      "content": "[MASK]",
      "single_word": false,
      "lstrip": false,
      "rstrip": false,
      "normalized": false,
      "special": true
    },
    {
      "id": 3673,
      "content": "[UNK]",
      "single_word": false,
      "lstrip": false,
      "rstrip": false,
      "normalized": false,
      "special": true
    }
  ],
  "normalizer": {
    "type": "Sequence",
    "normalizers": [
      {
        "type": "NFD"
      },
      {
        "type": "Lowercase"
      },
      {
        "type": "StripAccents"
      }
    ]
  },
  "pre_tokenizer": {
    "type": "Sequence",
    "pretokenizers": [
      {
        "type": "Metaspace",
        "replacement": "▁",
        "prepend_scheme": "always",
        "split": true
      }
    ]
  },
  "post_processor": {
    "type": "TemplateProcessing",
    "single": [
      {
        "SpecialToken": {
          "id": "[CLS]",
          "type_id": 0
        }
      },
      {
        "Sequence": {
          "id": "A",
          "type_id": 0
        }
      },
      {
        "SpecialToken": {
          "id": "[SEP]",
          "type_id": 0
        }
      }
    ],
    "pair": [
      {
        "SpecialToken": {
          "id": "[CLS]",
          "type_id": 0
        }
      },
      {
        "Sequence": {
          "id": "A",
          "type_id": 0
        }
      },
      {
        "SpecialToken": {
          "id": "[SEP]",
          "type_id": 0
        }
      },
      {
        "Sequence": {
          "id": "B",
          "type_id": 1
        }
      },
      {
        "SpecialToken": {
          "id": "[SEP]",
          "type_id": 1
        }
      }
    ],
    "special_tokens": {
      "[CLS]": {
        "id": "[CLS]",
        "ids": [
          552
        ],
        "tokens": [
          "[CLS]"
        ]
      },
      "[SEP]": {
        "id": "[SEP]",
        "ids": [
          972
        ],
        "tokens": [
          "[SEP]"
        ]
      }
    }
  },
  "decoder": {
    "type": "Metaspace",
    "replacement": "▁",
    "prepend_scheme": "always",
    "split": true
  },
  "model": {
    "type": "BPE",
    "dropout": null,
    "unk_token": "[UNK]",
    "continuing_subword_prefix": null,
    "end_of_word_suffix": null,
    "fuse_unk": false,
    "byte_fallback": false,
    "ignore_merges": false,
    "vocab": {
      "iss": 0,
      "▁milyardan": 1,
      "▁agız": 2,
      "▁pr": 3,
      "ledi": 4,
      "detti": 5,
      "▁etmek": 6,
      "▁ureticisi": 7,
      "▁cum": 8,
      "ind": 9,
      "▁sif": 10,
      "▁!..": 11,
      "kt": 12,
      "▁as": 13,
      "▁alamadim": 14,
      "▁gorun": 15,
      "▁\"": 16,
      "gisi": 17,
      "mek": 18,
      "▁artık": 19,
      "▁ad": 20,
      "lerinde": 21,
      "▁duy": 22,
      "▁hast": 23,
      "▁hanimla": 24,
      "evizyon": 25,
      "lugu": 26,
      "▁ise": 27,
      "▁tezgah": 28,
      "anlar": 29,
      "dak": 30,
      "▁gom": 31,
      "▁ec": 32,
      "▁ha": 33,
      "▁must": 34,
      "gah": 35,
      "etli": 36,
      "imiz": 37,
      "ly": 38,
      "▁form": 39,
      "▁tedav": 40,
      "suz": 41,
      "▁seviyesinden": 42,
      "▁sek": 43,
      "▁ihal": 44,
      "usuna": 45,
      "ciler": 46,
      "anlık": 47,
      "▁.)": 48,
      "▁rekor": 49,
      "▁sırada": 50,
      "▁sarkı": 51,
      "andı": 52,
      "▁dukkan": 53,
      "▁kapıyı": 54,
      "▁haric": 55,
      "▁gor": 56,
      "▁vaz": 57,
      "tıs": 58,
      "▁etrafında": 59,
      "▁gars": 60,
      "▁gez": 61,
      "▁satın": 62,
      "▁ipotek": 63,
      "…": 64,
      "▁dib": 65,
      "ete": 66,
      "las": 67,
      "sizdi": 68,
      "▁kelim": 69,
      "▁yont": 70,
      "▁aklı": 71,
      "sam": 72,
      "▁uretici": 73,
      "abil": 74,
      "▁esn": 75,
      "emez": 76,
      "up": 77,
      "▁halbuki": 78,
      "▁karsısında": 79,
      "mak": 80,
      "▁ayr": 81,
      "▁coz": 82,
      "▁niyet": 83,
      "▁sorunun": 84,
      "isk": 85,
      "▁yat": 86,
      "yuz": 87,
      "dır": 88,
      "kah": 89,
      "▁veri": 90,
      "▁yeniden": 91,
      "▁dus": 92,
      "ess": 93,
      "▁otelde": 94,
      "'": 95,
      "▁verdi": 96,
      "▁artıs": 97,
      "▁muduru": 98,
      "▁tak": 99,
      "▁buy": 100,
      "▁10": 101,
      "▁indir": 102,
      "▁dar": 103,
      "▁plan": 104,
      "▁guz": 105,
      "▁arasında": 106,
      "▁yerinde": 107,
      "and": 108,
      "ih": 109,
      "▁otele": 110,
      "▁ulasımı": 111,
      "▁y": 112,
      "▁yuzunu": 113,
      "▁ap": 114,
      "▁ib": 115,
      "▁yur": 116,
      "▁olmaz": 117,
      "cileri": 118,
      "▁olustur": 119,
      "▁alacak": 120,
      "▁kaliteye": 121,
      "▁konum": 122,
      "▁col": 123,
      "madı": 124,
      "▁gazete": 125,
      "▁ulas": 126,
      "▁operasyon": 127,
      "▁kr": 128,
      "▁yaz": 129,
      "adıgını": 130,
      "▁ph": 131,
      "▁heyec": 132,
      "▁yalan": 133,
      "▁arastır": 134,
      "'de": 135,
      "▁nasıl": 136,
      "estiri": 137,
      "▁buc": 138,
      "▁genis": 139,
      "hut": 140,
      "liginden": 141,
      "▁u": 142,
      "ilig": 143,
      "▁ka": 144,
      "▁rehberimiz": 145,
      "▁ekibi": 146,
      "▁yum": 147,
      "▁so": 148,
      "▁genc": 149,
      "ılır": 150,
      "▁clas": 151,
      "bol": 152,
      "▁once": 153,
      "▁sey": 154,
      "ık": 155,
      "agını": 156,
      "▁yab": 157,
      "▁kurs": 158,
      "▁rez": 159,
      "▁kut": 160,
      "▁arab": 161,
      "▁sırasında": 162,
      "▁mily": 163,
      "lıgına": 164,
      "▁ciz": 165,
      "▁alay": 166,
      "▁yolcul": 167,
      "▁mar": 168,
      "ıs": 169,
      "▁iletisim": 170,
      "ig": 171,
      "ımız": 172,
      "▁ilgilendi": 173,
      "siye": 174,
      "▁bilgisayar": 175,
      "yuzlu": 176,
      "▁ısrar": 177,
      "▁ne": 178,
      "kat": 179,
      "esini": 180,
      "▁karak": 181,
      "evi": 182,
      "▁ince": 183,
      "umun": 184,
      "mıyor": 185,
      "▁giris": 186,
      "▁yerinden": 187,
      "▁universit": 188,
      "co": 189,
      "▁yaptir": 190,
      "▁gelis": 191,
      "tır": 192,
      "▁tesp": 193,
      "form": 194,
      "lerle": 195,
      "▁doları": 196,
      "▁sınır": 197,
      "▁ton": 198,
      "▁vucut": 199,
      "▁tar": 200,
      "▁henuz": 201,
      "ikler": 202,
      "aket": 203,
      "ali": 204,
      "da": 205,
      "▁kahvalti": 206,
      "▁endust": 207,
      "rne": 208,
      "▁iste": 209,
      "▁sir": 210,
      "▁adı": 211,
      "▁hizmetinden": 212,
      "▁ov": 213,
      "▁asagı": 214,
      "▁buyum": 215,
      "▁ak": 216,
      "larım": 217,
      "–": 218,
      "unun": 219,
      "isim": 220,
      "▁first": 221,
      "▁uretim": 222,
      "▁anne": 223,
      "ımı": 224,
      "▁yog": 225,
      "▁basarı": 226,
      "ant": 227,
      "▁bacak": 228,
      "▁temel": 229,
      "anda": 230,
      "▁ifade": 231,
      "▁patlıc": 232,
      "eket": 233,
      "ep": 234,
      "▁mucadele": 235,
      "nam": 236,
      "ize": 237,
      "es": 238,
      "gunu": 239,
      "mıs": 240,
      "▁deprem": 241,
      "▁sehr": 242,
      "▁gozler": 243,
      "▁anket": 244,
      "ının": 245,
      "ustos": 246,
      "imize": 247,
      "▁dagıt": 248,
      "▁yolda": 249,
      "▁ortal": 250,
      "▁balık": 251,
      "▁hal": 252,
      "▁nam": 253,
      "▁boy": 254,
      "▁cift": 255,
      "▁;": 256,
      "▁onay": 257,
      "eyr": 258,
      "▁ayı": 259,
      "ed": 260,
      "digim": 261,
      "ıldı": 262,
      "▁tok": 263,
      "0'": 264,
      "ıf": 265,
      "▁tesisten": 266,
      "▁enflasyon": 267,
      "dım": 268,
      "▁seyahat": 269,
      "mad": 270,
      "ca": 271,
      "▁spor": 272,
      "layacak": 273,
      "▁bag": 274,
      "▁tum": 275,
      "▁if": 276,
      "▁kardes": 277,
      "▁annem": 278,
      "lemeye": 279,
      "▁duyg": 280,
      "az": 281,
      "ans": 282,
      "▁akl": 283,
      "oksa": 284,
      "▁oc": 285,
      "▁kent": 286,
      "▁piyasası": 287,
      "▁hakkı": 288,
      "ayı": 289,
      "▁bicim": 290,
      "edi": 291,
      "▁in": 292,
      "▁muk": 293,
      "▁imkanlari": 294,
      "▁farkında": 295,
      "▁kitabı": 296,
      "▁artısı": 297,
      "▁yel": 298,
      "ve": 299,
      "▁yan": 300,
      "▁peynir": 301,
      "▁acıklam": 302,
      "▁iki": 303,
      "okr": 304,
      "▁mat": 305,
      "ucc": 306,
      "▁ugr": 307,
      "met": 308,
      "▁cem": 309,
      "▁den": 310,
      "▁j": 311,
      "▁onune": 312,
      "erken": 313,
      "erler": 314,
      "unden": 315,
      "▁at": 316,
      "ncak": 317,
      "▁ala": 318,
      "▁anlay": 319,
      "▁elbise": 320,
      "menin": 321,
      "daydi": 322,
      "van": 323,
      "▁yetersizdi": 324,
      "r": 325,
      "▁yakın": 326,
      "ıg": 327,
      "lige": 328,
      "▁mektup": 329,
      "▁lezz": 330,
      "▁bize": 331,
      "▁akıl": 332,
      "ardan": 333,
      "▁altında": 334,
      "eydi": 335,
      "ey": 336,
      "istler": 337,
      "▁derec": 338,
      "inlik": 339,
      "itr": 340,
      "▁gayr": 341,
      "▁madde": 342,
      "▁malzem": 343,
      "▁yapti": 344,
      "▁sayısı": 345,
      "ma": 346,
      "uyla": 347,
      "eci": 348,
      "tur": 349,
      "▁kalk": 350,
      "▁aradi": 351,
      "▁kaldır": 352,
      "▁yemekler": 353,
      "▁gunleri": 354,
      "▁istif": 355,
      "id": 356,
      "▁uzman": 357,
      "▁ayında": 358,
      "mesini": 359,
      "▁ipot": 360,
      "taj": 361,
      "▁kafa": 362,
      "▁ir": 363,
      "anından": 364,
      "ıkları": 365,
      ":": 366,
      "▁otomobil": 367,
      "end": 368,
      "▁damak": 369,
      "▁dogr": 370,
      "▁prot": 371,
      "▁imal": 372,
      "▁p": 373,
      "ec": 374,
      "▁isi": 375,
      "bet": 376,
      "emin": 377,
      "▁w": 378,
      "▁tehdit": 379,
      "aların": 380,
      "▁ces": 381,
      "▁bolumu": 382,
      "ini": 383,
      "▁sozc": 384,
      "ustu": 385,
      "asıl": 386,
      "▁lu": 387,
      "lugunu": 388,
      "eticisi": 389,
      "gın": 390,
      "▁dal": 391,
      "▁hasta": 392,
      "▁kredi": 393,
      "▁siy": 394,
      "mıslar": 395,
      "▁gerek": 396,
      "▁bircok": 397,
      "00": 398,
      "kin": 399,
      "'nda": 400,
      "▁yuzune": 401,
      "”": 402,
      "▁kapının": 403,
      "▁di": 404,
      "udur": 405,
      "▁vak": 406,
      "▁bon": 407,
      "▁ruy": 408,
      "▁baskan": 409,
      "iden": 410,
      "▁dort": 411,
      "▁bildir": 412,
      "di": 413,
      "▁yasa": 414,
      "ılım": 415,
      "▁vat": 416,
      "▁seviyesine": 417,
      "er": 418,
      "▁bır": 419,
      "▁nedeni": 420,
      "▁yetk": 421,
      "edav": 422,
      "▁ceza": 423,
      "alan": 424,
      "▁dugun": 425,
      "▁dip": 426,
      "▁evden": 427,
      "o": 428,
      "▁tarafından": 429,
      "masından": 430,
      "onom": 431,
      "asıyla": 432,
      "esinden": 433,
      "▁kokusu": 434,
      "▁gond": 435,
      "▁ik": 436,
      "▁alıcı": 437,
      "▁gru": 438,
      "▁sevg": 439,
      "▁sınav": 440,
      "▁idar": 441,
      "ip": 442,
      "lek": 443,
      "manlar": 444,
      "▁merh": 445,
      "▁fiyat": 446,
      "▁rap": 447,
      "▁br": 448,
      "ı": 449,
      "▁odam": 450,
      "mustu": 451,
      "▁artır": 452,
      "▁hep": 453,
      "$": 454,
      "raz": 455,
      "uyorlar": 456,
      "▁deniz": 457,
      "isinde": 458,
      "▁kim": 459,
      "▁ders": 460,
      "▁%": 461,
      "reti": 462,
      "izdi": 463,
      "ul": 464,
      "▁3": 465,
      "▁yetkilileri": 466,
      "egi": 467,
      "▁.": 468,
      "imden": 469,
      "▁tut": 470,
      "▁hayal": 471,
      "▁yaptı": 472,
      "acag": 473,
      "▁milletvek": 474,
      "▁sim": 475,
      "▁baslangıc": 476,
      "yıl": 477,
      "▁doneminde": 478,
      "▁alısveris": 479,
      "eyaz": 480,
      "eceg": 481,
      "v": 482,
      "▁tavsiye": 483,
      "▁tren": 484,
      "▁cocuklar": 485,
      "▁oglen": 486,
      "▁pu": 487,
      "uma": 488,
      "aydi": 489,
      "▁ayn": 490,
      "▁yardım": 491,
      "▁prob": 492,
      "ıyordu": 493,
      "▁sov": 494,
      "dırım": 495,
      "lanıyor": 496,
      "▁yasında": 497,
      "▁derecede": 498,
      "▁ihtim": 499,
      "lı": 500,
      "ast": 501,
      "hane": 502,
      "asında": 503,
      "bu": 504,
      "sil": 505,
      "▁kimsenin": 506,
      "ekti": 507,
      "▁etmeye": 508,
      "isle": 509,
      "il": 510,
      "▁..": 511,
      "dig": 512,
      "▁iceri": 513,
      "▁av": 514,
      "▁koyun": 515,
      "▁o": 516,
      "▁seker": 517,
      "ikat": 518,
      "ise": 519,
      "▁itibariyle": 520,
      "▁mah": 521,
      "▁ask": 522,
      "▁isleri": 523,
      "▁yukseldi": 524,
      "▁dev": 525,
      "▁devlet": 526,
      "▁inan": 527,
      "ecegini": 528,
      "▁pla": 529,
      "liyor": 530,
      "▁muh": 531,
      "▁it": 532,
      "▁kuv": 533,
      "00'": 534,
      "▁masal": 535,
      "alle": 536,
      "lerinden": 537,
      "▁hisseleri": 538,
      "▁ornegin": 539,
      "▁urunleri": 540,
      "▁vap": 541,
      "▁kurtaj": 542,
      "▁birles": 543,
      "▁cent": 544,
      "▁ucuslarının": 545,
      "ku": 546,
      "▁.'": 547,
      "▁istemiyorum": 548,
      "de": 549,
      "▁nisan": 550,
      "▁oz": 551,
      "[CLS]": 552,
      "rar": 553,
      "▁toplantı": 554,
      "ez": 555,
      "▁begenmedim": 556,
      "▁guv": 557,
      "▁savun": 558,
      "▁gunah": 559,
      "alarını": 560,
      "▁ab": 561,
      "▁yatırımcı": 562,
      "ız": 563,
      "▁veririm": 564,
      "▁servisi": 565,
      "izm": 566,
      "▁sar": 567,
      "▁cit": 568,
      "▁sayg": 569,
      "▁evi": 570,
      "▁dustu": 571,
      "▁yol": 572,
      "ardı": 573,
      "aca": 574,
      "leg": 575,
      "▁istik": 576,
      "▁mark": 577,
      "▁yanl": 578,
      "▁diger": 579,
      "ana": 580,
      "▁calis": 581,
      "▁orne": 582,
      "▁goze": 583,
      "kk": 584,
      "▁sel": 585,
      "▁ilg": 586,
      "etic": 587,
      "ısıyla": 588,
      "▁kendis": 589,
      "▁yasam": 590,
      "▁strate": 591,
      "▁herif": 592,
      "sizlik": 593,
      "um": 594,
      "▁muz": 595,
      "▁arastırma": 596,
      "st": 597,
      "▁sade": 598,
      "cun": 599,
      "▁yardımcısı": 600,
      "▁ulke": 601,
      "▁bah": 602,
      "▁eli": 603,
      "alarına": 604,
      "▁onceki": 605,
      "arak": 606,
      "ro": 607,
      "eyn": 608,
      "▁biri": 609,
      "▁buyume": 610,
      "'s": 611,
      "▁kes": 612,
      "▁nak": 613,
      "o'ya": 614,
      "▁ceyrek": 615,
      "▁zevk": 616,
      "▁onu": 617,
      "▁azalt": 618,
      "▁basladı": 619,
      "udu": 620,
      "lanmıs": 621,
      "ars": 622,
      "▁sofr": 623,
      "▁ordu": 624,
      "▁kend": 625,
      "iyet": 626,
      "▁dam": 627,
      "▁n": 628,
      "▁sorum": 629,
      "aret": 630,
      "▁vergi": 631,
      "▁cap": 632,
      "asyonu": 633,
      "▁tad": 634,
      "▁iz": 635,
      "▁gulery": 636,
      "lerine": 637,
      "▁arac": 638,
      "lıkları": 639,
      "▁basv": 640,
      "▁cuma": 641,
      "ıya": 642,
      "▁sı": 643,
      "▁sure": 644,
      "▁mucade": 645,
      "oy": 646,
      "▁gozu": 647,
      "▁uretimi": 648,
      "▁asagıda": 649,
      "▁cev": 650,
      "uya": 651,
      "▁sid": 652,
      "▁4": 653,
      "mur": 654,
      "▁azal": 655,
      "▁bulmak": 656,
      "▁kars": 657,
      "▁toplam": 658,
      "kar": 659,
      "▁kom": 660,
      "'tan": 661,
      "▁geyik": 662,
      "▁uy": 663,
      "unu": 664,
      "▁fotograf": 665,
      "ıcı": 666,
      "▁kaldırım": 667,
      "iniz": 668,
      "▁istihdam": 669,
      "▁sonunda": 670,
      "edigim": 671,
      "▁avukat": 672,
      "▁bulut": 673,
      "ge": 674,
      "/8": 675,
      "'in": 676,
      "ıp": 677,
      "▁tenc": 678,
      "▁dı": 679,
      "▁icra": 680,
      "tik": 681,
      "▁bıraktı": 682,
      "▁gel": 683,
      "▁listel": 684,
      "▁ettigini": 685,
      "▁motor": 686,
      "uluk": 687,
      "▁adamı": 688,
      "etin": 689,
      "▁tarafı": 690,
      "▁simdi": 691,
      "▁potansiyel": 692,
      "▁han": 693,
      "obil": 694,
      "▁barda": 695,
      "▁dortluk": 696,
      "▁19": 697,
      "lerde": 698,
      "ph": 699,
      "arlan": 700,
      "▁sirketin": 701,
      "▁puan": 702,
      "▁oyunun": 703,
      "▁kotuydu": 704,
      "astır": 705,
      "imde": 706,
      "ılıg": 707,
      "▁surec": 708,
      "ersiz": 709,
      "▁hayata": 710,
      "elik": 711,
      "▁silah": 712,
      "▁yıllarda": 713,
      "▁gucu": 714,
      "▁adam": 715,
      "aga": 716,
      "sal": 717,
      "▁daha": 718,
      "▁bul": 719,
      "▁dogum": 720,
      "..": 721,
      "▁sav": 722,
      "iydi": 723,
      "▁topr": 724,
      "▁mimar": 725,
      "▁manzarasi": 726,
      "▁aksamı": 727,
      "cih": 728,
      "▁savas": 729,
      "te": 730,
      "▁kural": 731,
      "▁petr": 732,
      "tal": 733,
      "cı": 734,
      "kon": 735,
      "igi": 736,
      "▁yaban": 737,
      "▁bayram": 738,
      "▁teh": 739,
      "▁insanları": 740,
      "▁matem": 741,
      "▁eline": 742,
      "ırdı": 743,
      "ksa": 744,
      "▁beb": 745,
      "▁cumartesi": 746,
      "siyon": 747,
      "▁faturam": 748,
      "▁acisindan": 749,
      "▁seh": 750,
      "▁gorusuldu": 751,
      "▁gecesi": 752,
      "ga": 753,
      "▁stok": 754,
      "nc": 755,
      "▁baltimore'ye": 756,
      "▁sil": 757,
      "▁etmis": 758,
      "dugunu": 759,
      "▁islerini": 760,
      "etim": 761,
      "inden": 762,
      "▁bes": 763,
      "▁yemegi": 764,
      "▁fiyata": 765,
      "b": 766,
      "▁hamle": 767,
      "▁pilot": 768,
      "▁ko": 769,
      "▁saatlerde": 770,
      "atlar": 771,
      "▁tutun": 772,
      "▁gelistir": 773,
      "▁aksam": 774,
      "▁cek": 775,
      "▁bahce": 776,
      "▁mu": 777,
      "▁oglum": 778,
      "▁listeleyin": 779,
      "▁park": 780,
      "▁tekn": 781,
      "▁ogrenci": 782,
      "▁ki": 783,
      "san": 784,
      "▁but": 785,
      "ef": 786,
      "▁kurulus": 787,
      "erans": 788,
      "yon": 789,
      "▁sıra": 790,
      "▁duzen": 791,
      "▁oluyor": 792,
      "▁avuk": 793,
      "▁traf": 794,
      "▁doları'ndan": 795,
      "▁alma": 796,
      "▁giriste": 797,
      "yalar": 798,
      "▁salı": 799,
      "ellikle": 800,
      "▁yoksa": 801,
      "▁fikir": 802,
      "▁hizmeti": 803,
      "▁denver": 804,
      "dı": 805,
      "ttı": 806,
      "abı": 807,
      "▁manz": 808,
      "agın": 809,
      "egin": 810,
      "meleri": 811,
      "▁basbak": 812,
      "lerimi": 813,
      "oh": 814,
      "yla": 815,
      "▁cevre": 816,
      "▁ada": 817,
      "▁bay": 818,
      "iyorum": 819,
      "▁okul": 820,
      "usunda": 821,
      "▁sabahı": 822,
      "▁teknoloj": 823,
      "▁cop": 824,
      "▁ogren": 825,
      "▁idare": 826,
      "▁ısık": 827,
      "▁mac": 828,
      "eyi": 829,
      "ama": 830,
      "▁sig": 831,
      "▁mevz": 832,
      "▁araba": 833,
      "▁muam": 834,
      "▁verim": 835,
      "▁tahmin": 836,
      "▁orta": 837,
      "▁basından": 838,
      "aliydi": 839,
      "▁listele": 840,
      "rak": 841,
      "▁magaz": 842,
      "isi": 843,
      "▁olduguna": 844,
      "'n": 845,
      "▁huzur": 846,
      "dık": 847,
      "▁co": 848,
      "aki": 849,
      "alma": 850,
      "gel": 851,
      "larımızı": 852,
      "▁gerektigini": 853,
      "▁dor": 854,
      "'d": 855,
      "▁derece": 856,
      "▁say": 857,
      "▁dusus": 858,
      "▁med": 859,
      "is": 860,
      "▁donem": 861,
      "▁guven": 862,
      "▁saati": 863,
      "▁duman": 864,
      "▁performans": 865,
      "▁yonetici": 866,
      "▁komisyon": 867,
      "▁hap": 868,
      "▁ayrıca": 869,
      "ok": 870,
      "▁edildi": 871,
      "uydu": 872,
      "▁tavır": 873,
      "▁hukumet": 874,
      "▁doları'na": 875,
      "yan": 876,
      "▁dolara": 877,
      "▁ihtiyac": 878,
      "▁gokyuz": 879,
      "▁olmalı": 880,
      "▁kisilik": 881,
      "▁yuk": 882,
      "▁anlamda": 883,
      "isleri": 884,
      "▁tartıs": 885,
      "▁saglık": 886,
      "lerdi": 887,
      "ırım": 888,
      "▁men": 889,
      "▁soyledi": 890,
      "cıların": 891,
      "▁guler": 892,
      "▁dahi": 893,
      "▁elb": 894,
      "▁gunu": 895,
      "emiz": 896,
      "▁umut": 897,
      "ılıgı": 898,
      "meden": 899,
      "▁ger": 900,
      "▁toprak": 901,
      "ılmıs": 902,
      "▁resim": 903,
      "ahat": 904,
      "▁yani": 905,
      "ustur": 906,
      "▁fabrik": 907,
      "tay": 908,
      "▁girisim": 909,
      "cının": 910,
      "▁yolu": 911,
      "▁ihtiyacım": 912,
      "▁son": 913,
      "▁carsamba": 914,
      "▁mill": 915,
      "▁dunya": 916,
      "idir": 917,
      "▁gunden": 918,
      "▁guzellik": 919,
      "idi": 920,
      "medigini": 921,
      "▁domates": 922,
      "mma": 923,
      "▁parti": 924,
      "▁muda": 925,
      "▁cesitleri": 926,
      "▁pal": 927,
      "▁koy": 928,
      "▁satıs": 929,
      "▁sist": 930,
      "in": 931,
      "▁babam": 932,
      "▁penc": 933,
      "▁piyasa": 934,
      "▁evde": 935,
      "ram": 936,
      "▁icer": 937,
      "ilmis": 938,
      "▁ey": 939,
      "▁gune": 940,
      "▁degis": 941,
      "▁mesaf": 942,
      "tif": 943,
      "▁benz": 944,
      "▁fot": 945,
      "▁kampanyalar": 946,
      "▁hur": 947,
      "▁mevzu": 948,
      "madıgını": 949,
      "▁soru": 950,
      "▁hak": 951,
      "sel": 952,
      "arın": 953,
      "▁yuz": 954,
      "▁gercekl": 955,
      "▁cag": 956,
      "▁ilgisi": 957,
      "agı": 958,
      "▁dik": 959,
      "as": 960,
      "▁boston": 961,
      "▁elde": 962,
      "lilik": 963,
      "▁turkiye": 964,
      "▁rezervasyonu": 965,
      "▁a": 966,
      "▁tarz": 967,
      "▁piyasanın": 968,
      "▁yapı": 969,
      "▁yonetimi": 970,
      "▁bina": 971,
      "[SEP]": 972,
      "▁milyar": 973,
      "▁hayatın": 974,
      "▁portf": 975,
      "▁digerleri": 976,
      "go": 977,
      "mıstır": 978,
      "ada": 979,
      "ee": 980,
      "▁dov": 981,
      "▁elinden": 982,
      "▁rakamlar": 983,
      "▁dolayi": 984,
      "▁duv": 985,
      "eginde": 986,
      "*": 987,
      "▁almak": 988,
      "etr": 989,
      "▁ailesi": 990,
      "ıgı": 991,
      "asın": 992,
      "▁kıymetler": 993,
      "▁temizligi": 994,
      "▁istih": 995,
      "▁uye": 996,
      "▁muhafaz": 997,
      "ten": 998,
      "▁cesit": 999,
      "▁kayıt": 1000,
      "▁gogs": 1001,
      "lig": 1002,
      "▁tahvil": 1003,
      "▁kampan": 1004,
      "ıl": 1005,
      "▁uygulama": 1006,
      "▁f": 1007,
      "ına": 1008,
      "▁elbis": 1009,
      "▁hab": 1010,
      "▁egit": 1011,
      "▁mir": 1012,
      "▁alın": 1013,
      "▁bal": 1014,
      "▁prof": 1015,
      "▁kısıt": 1016,
      "▁kalb": 1017,
      "▁acısından": 1018,
      "▁ucreti": 1019,
      "▁lira": 1020,
      "uy": 1021,
      "▁taraf": 1022,
      "lisi": 1023,
      "▁fark": 1024,
      "▁evin": 1025,
      "alı": 1026,
      "▁sab": 1027,
      "▁hukumeti": 1028,
      "▁bardak": 1029,
      "▁oldug": 1030,
      "▁ruh": 1031,
      "▁tul": 1032,
      "▁muhend": 1033,
      "▁du": 1034,
      "ıh": 1035,
      "▁fr": 1036,
      "▁pant": 1037,
      "▁ann": 1038,
      "▁ardından": 1039,
      "adem": 1040,
      "▁vardi": 1041,
      "mıstı": 1042,
      "▁olacagını": 1043,
      "▁yolcu": 1044,
      "isini": 1045,
      "▁konus": 1046,
      "▁teklifi": 1047,
      "▁yana": 1048,
      "▁bel": 1049,
      "▁aile": 1050,
      "ak": 1051,
      "uk": 1052,
      "arı": 1053,
      "▁lid": 1054,
      "imizin": 1055,
      "▁kat": 1056,
      "▁isk": 1057,
      "▁ilgilen": 1058,
      "ların": 1059,
      "▁olması": 1060,
      "ken": 1061,
      "▁he": 1062,
      "indan": 1063,
      "ıgına": 1064,
      "▁fikr": 1065,
      "▁dav": 1066,
      "▁doldur": 1067,
      "▁hayır": 1068,
      "▁cizgi": 1069,
      "▁alk": 1070,
      "▁olmadi": 1071,
      "▁faiz": 1072,
      "of": 1073,
      "izlik": 1074,
      "▁ortaya": 1075,
      "▁ark": 1076,
      "▁icki": 1077,
      "▁akr": 1078,
      "lıgında": 1079,
      "▁olmad": 1080,
      "larının": 1081,
      "▁merkezi": 1082,
      "▁merkez": 1083,
      "▁guzeldi": 1084,
      "▁yak": 1085,
      "▁aktarma": 1086,
      "lk": 1087,
      "▁arkadaslar": 1088,
      "▁defa": 1089,
      "▁hanım": 1090,
      "▁piy": 1091,
      "▁olm": 1092,
      "im": 1093,
      "us": 1094,
      "amba": 1095,
      "▁sez": 1096,
      "▁koltuk": 1097,
      "maya": 1098,
      "acagını": 1099,
      "▁fiyatlar": 1100,
      "▁benim": 1101,
      "▁kumas": 1102,
      "od": 1103,
      "anıs": 1104,
      ".": 1105,
      "▁kumar": 1106,
      "inde": 1107,
      "▁arkad": 1108,
      "▁karayol": 1109,
      "larla": 1110,
      "▁oy": 1111,
      "▁nef": 1112,
      "ata": 1113,
      "▁fon": 1114,
      "▁kultur": 1115,
      "dum": 1116,
      "▁oranı": 1117,
      "▁burada": 1118,
      "ıdır": 1119,
      "▁komut": 1120,
      "ileri": 1121,
      "▁nelerdir": 1122,
      "▁tur": 1123,
      "anının": 1124,
      "▁yuzyıl": 1125,
      "▁bulun": 1126,
      "▁um": 1127,
      "▁kral": 1128,
      "z": 1129,
      "▁?..": 1130,
      "lıkla": 1131,
      "ısır": 1132,
      "▁hafta": 1133,
      "▁avuc": 1134,
      "▁mahkemesi": 1135,
      "▁kor": 1136,
      "▁aldı": 1137,
      "▁bu": 1138,
      "bası": 1139,
      "▁dest": 1140,
      "▁sermay": 1141,
      "▁gr": 1142,
      "▁hanim": 1143,
      "▁tanı": 1144,
      "lestir": 1145,
      "▁6": 1146,
      "▁ma": 1147,
      "▁zih": 1148,
      "anların": 1149,
      "▁cocugun": 1150,
      "▁aktar": 1151,
      "mustur": 1152,
      "▁5'ten": 1153,
      "▁dusuk": 1154,
      "▁soyluyor": 1155,
      "leriyle": 1156,
      "▁sen": 1157,
      "▁not": 1158,
      "▁satısı": 1159,
      "▁aktiv": 1160,
      "▁kuvvet": 1161,
      "▁mudur": 1162,
      "▁im": 1163,
      "isler": 1164,
      "▁ihr": 1165,
      "▁zaman": 1166,
      "▁ederim": 1167,
      "▁garson": 1168,
      "it": 1169,
      "▁bekliyor": 1170,
      "▁baktı": 1171,
      "▁amerikalı": 1172,
      "▁mekte": 1173,
      "av": 1174,
      "▁boyn": 1175,
      "uzel": 1176,
      "▁gal": 1177,
      "mayan": 1178,
      "▁bun": 1179,
      "▁icin": 1180,
      "▁ba": 1181,
      "▁fiyati": 1182,
      "▁ted": 1183,
      "▁alanda": 1184,
      "▁ah": 1185,
      "ent": 1186,
      "▁iddi": 1187,
      "edir": 1188,
      "ınız": 1189,
      "▁nokt": 1190,
      "arında": 1191,
      "▁boston'a": 1192,
      "▁ruz": 1193,
      "▁nis": 1194,
      "lardan": 1195,
      "▁aynı": 1196,
      "▁yon": 1197,
      "▁konusu": 1198,
      "lerin": 1199,
      "ult": 1200,
      "▁may": 1201,
      "▁hapis": 1202,
      "maktan": 1203,
      "▁kuy": 1204,
      "▁ilav": 1205,
      "▁h": 1206,
      "malı": 1207,
      "▁dilim": 1208,
      "▁sozcu": 1209,
      "asyon": 1210,
      "▁kap": 1211,
      "he": 1212,
      "▁dost": 1213,
      "▁cık": 1214,
      "▁islemler": 1215,
      "▁fer": 1216,
      "masına": 1217,
      "▁po": 1218,
      "lugun": 1219,
      "aj": 1220,
      "▁rekabet": 1221,
      "liligi": 1222,
      "▁se": 1223,
      "▁sendika": 1224,
      "▁yerler": 1225,
      "▁millet": 1226,
      "▁metr": 1227,
      "▁dey": 1228,
      "cılık": 1229,
      "▁ayrıl": 1230,
      "ington": 1231,
      "▁zamanı": 1232,
      "▁kem": 1233,
      "▁eski": 1234,
      "if": 1235,
      "▁``": 1236,
      "▁edebiyat": 1237,
      "▁giy": 1238,
      "lo": 1239,
      "▁profes": 1240,
      "▁serv": 1241,
      "ladı": 1242,
      "▁ucusların": 1243,
      "▁lok": 1244,
      "▁dah": 1245,
      "ımızda": 1246,
      "▁sık": 1247,
      "▁bugday": 1248,
      "▁dig": 1249,
      "▁isletme": 1250,
      "ıcak": 1251,
      "▁katkıda": 1252,
      "▁hoc": 1253,
      "▁komp": 1254,
      "▁yar": 1255,
      "▁bankası": 1256,
      "▁emeklilik": 1257,
      "▁aracı": 1258,
      "▁gon": 1259,
      "gun": 1260,
      "▁dostu": 1261,
      "elerden": 1262,
      "ade": 1263,
      "3": 1264,
      "▁tesekkurler": 1265,
      "la": 1266,
      "iger": 1267,
      "▁tez": 1268,
      "▁personeli": 1269,
      "▁end": 1270,
      "▁guvenlik": 1271,
      "▁otelden": 1272,
      "▁tasar": 1273,
      "▁sirketler": 1274,
      "▁veriyor": 1275,
      "ele": 1276,
      "▁dedi": 1277,
      "geleri": 1278,
      "▁hic": 1279,
      "miyorum": 1280,
      "▁kısm": 1281,
      "▁hır": 1282,
      "ınlık": 1283,
      "▁ort": 1284,
      "gur": 1285,
      "▁altın": 1286,
      "lasyon": 1287,
      "▁gayrimenkul": 1288,
      "allas": 1289,
      "muyor": 1290,
      "▁num": 1291,
      "▁banyo": 1292,
      "▁degildi": 1293,
      "▁beni": 1294,
      "det": 1295,
      ",": 1296,
      "▁tas": 1297,
      "ıyorum": 1298,
      "▁tartısma": 1299,
      "▁bakanı": 1300,
      "▁boyun": 1301,
      "▁fır": 1302,
      "`": 1303,
      "'un": 1304,
      "▁yiyecekler": 1305,
      "▁cunku": 1306,
      "▁amer": 1307,
      "oloj": 1308,
      "▁erk": 1309,
      "medi": 1310,
      "▁listesini": 1311,
      "▁cesaret": 1312,
      "▁cocuklu": 1313,
      "▁delik": 1314,
      "▁od": 1315,
      "▁aylık": 1316,
      "▁ithal": 1317,
      "▁seyler": 1318,
      "tı": 1319,
      "lıgı": 1320,
      "▁odun": 1321,
      "▁birtakım": 1322,
      "▁telef": 1323,
      "▁cocugu": 1324,
      "▁etki": 1325,
      "atik": 1326,
      "▁cog": 1327,
      "acılar": 1328,
      "▁fazla": 1329,
      "mus": 1330,
      "▁bırak": 1331,
      "▁oyle": 1332,
      "▁personeller": 1333,
      "ber": 1334,
      "▁sin": 1335,
      "▁lutfen": 1336,
      "▁artısla": 1337,
      "▁hat": 1338,
      "▁ettim": 1339,
      "▁alır": 1340,
      "▁zeytin": 1341,
      "'da": 1342,
      "▁bic": 1343,
      "▁git": 1344,
      "stu": 1345,
      "▁mey": 1346,
      "ub": 1347,
      "▁kanun": 1348,
      "▁direktor": 1349,
      "▁icine": 1350,
      "▁birbir": 1351,
      "asındaki": 1352,
      "▁sonr": 1353,
      "▁odeme": 1354,
      "▁programı": 1355,
      "▁dukk": 1356,
      "ates": 1357,
      "▁ekonom": 1358,
      "▁bilim": 1359,
      "▁1.": 1360,
      "▁hiss": 1361,
      "isti": 1362,
      "ktu": 1363,
      "▁demek": 1364,
      "▁etk": 1365,
      "▁seyin": 1366,
      "▁kızı": 1367,
      "▁arkadas": 1368,
      "▁gun": 1369,
      "ug": 1370,
      "▁bilgisay": 1371,
      "▁7": 1372,
      "▁iyiydi": 1373,
      "▁rahat": 1374,
      "ban": 1375,
      "/": 1376,
      "▁icerisinde": 1377,
      "▁dusunc": 1378,
      "▁islem": 1379,
      "▁masanın": 1380,
      "teri": 1381,
      "▁anda": 1382,
      "ısını": 1383,
      "=": 1384,
      "▁ilan": 1385,
      "▁felaket": 1386,
      "▁geri": 1387,
      "▁6'dan": 1388,
      "▁ellerinde": 1389,
      "▁konu": 1390,
      "▁la": 1391,
      "ılık": 1392,
      "▁tatil": 1393,
      "landı": 1394,
      "▁kahvalt": 1395,
      "▁sec": 1396,
      "▁dakika": 1397,
      "▁yandan": 1398,
      "▁el": 1399,
      "▁dok": 1400,
      "▁hastalık": 1401,
      "▁olarak": 1402,
      "▁adım": 1403,
      "▁gu": 1404,
      "▁uzer": 1405,
      "ist": 1406,
      "▁hicbir": 1407,
      "medim": 1408,
      "▁bıy": 1409,
      "▁mo": 1410,
      "▁ogl": 1411,
      "lıg": 1412,
      "len": 1413,
      "▁duny": 1414,
      "ırtı": 1415,
      "▁perde": 1416,
      "▁yılının": 1417,
      "▁seviy": 1418,
      "▁”": 1419,
      "▁sun": 1420,
      "larımız": 1421,
      "▁karab": 1422,
      "▁alım": 1423,
      "▁k": 1424,
      "'ta": 1425,
      "amak": 1426,
      "▁pazartesi": 1427,
      "▁seyir": 1428,
      "▁kit": 1429,
      "wa": 1430,
      "▁ekm": 1431,
      "do": 1432,
      "▁tic": 1433,
      "▁fabrika": 1434,
      "▁belir": 1435,
      "▁harc": 1436,
      "ligini": 1437,
      "▁temizlik": 1438,
      "▁gidiyor": 1439,
      "uklu": 1440,
      "▁pencer": 1441,
      "alarım": 1442,
      "▁engel": 1443,
      "▁reh": 1444,
      "▁ajans": 1445,
      "▁kuf": 1446,
      "▁dekor": 1447,
      "▁un": 1448,
      "leket": 1449,
      "▁yapmak": 1450,
      "▁basında": 1451,
      "▁sınıfı": 1452,
      "▁tasım": 1453,
      "▁ekmek": 1454,
      "larda": 1455,
      "ansiyon": 1456,
      "▁takdir": 1457,
      "larını": 1458,
      "▁ser": 1459,
      "ıla": 1460,
      "cıları": 1461,
      "▁olas": 1462,
      "ta": 1463,
      "▁sip": 1464,
      "▁guzel": 1465,
      "▁ortam": 1466,
      "▁12": 1467,
      "▁kir": 1468,
      "▁oda": 1469,
      "▁gunes": 1470,
      "dar": 1471,
      "let": 1472,
      "▁dol": 1473,
      "sik": 1474,
      "irim": 1475,
      "un": 1476,
      "eldi": 1477,
      "▁ay": 1478,
      "iz": 1479,
      "lar": 1480,
      "▁der": 1481,
      "▁yurt": 1482,
      "lıklar": 1483,
      "siz": 1484,
      "▁faal": 1485,
      "▁goster": 1486,
      "▁fran": 1487,
      "u": 1488,
      "▁seb": 1489,
      "▁sozleri": 1490,
      "▁omuz": 1491,
      "layan": 1492,
      "▁hayvan": 1493,
      "lul": 1494,
      "▁ucak": 1495,
      "▁kaf": 1496,
      "ika": 1497,
      "▁uzak": 1498,
      "▁diy": 1499,
      "▁ikti": 1500,
      "▁unut": 1501,
      "▁sinem": 1502,
      "▁bebek": 1503,
      "▁ola": 1504,
      "ildi": 1505,
      "▁car": 1506,
      "▁bono": 1507,
      "▁temizdi": 1508,
      "▁animasyon": 1509,
      "▁zorunda": 1510,
      "▁francisco'ya": 1511,
      "▁elden": 1512,
      "▁topu": 1513,
      "ektr": 1514,
      "▁ulasım": 1515,
      "▁kok": 1516,
      "cak": 1517,
      "mız": 1518,
      "misti": 1519,
      "▁sozcusu": 1520,
      "lere": 1521,
      "▁merkezine": 1522,
      "▁kıv": 1523,
      "▁rakam": 1524,
      "▁yumur": 1525,
      "ayet": 1526,
      "▁dusunce": 1527,
      "▁dahil": 1528,
      "▁yetkili": 1529,
      "▁kullanmadim": 1530,
      "orta": 1531,
      "▁enerji": 1532,
      "kun": 1533,
      "iste": 1534,
      "▁onem": 1535,
      "me": 1536,
      "orm": 1537,
      "▁de": 1538,
      "andır": 1539,
      "▁yaprak": 1540,
      "▁kaynak": 1541,
      "▁caba": 1542,
      "alarının": 1543,
      "lacak": 1544,
      "▁seviye": 1545,
      "▁$'a": 1546,
      "▁za": 1547,
      "▁donus": 1548,
      "▁lim": 1549,
      "ya": 1550,
      "lık": 1551,
      "▁yaklasimi": 1552,
      "stı": 1553,
      "▁kalabalık": 1554,
      "▁mulk": 1555,
      "▁olanaklari": 1556,
      "lıga": 1557,
      "▁zev": 1558,
      "▁grup": 1559,
      "▁guc": 1560,
      "▁esya": 1561,
      "▁naz": 1562,
      "▁dep": 1563,
      "▁mide": 1564,
      "▁tehlik": 1565,
      "▁tesekkur": 1566,
      "ıc": 1567,
      "▁ekip": 1568,
      "▁duzey": 1569,
      "ısında": 1570,
      "su": 1571,
      "▁istedi": 1572,
      "t": 1573,
      "nak": 1574,
      "hangi": 1575,
      "▁mik": 1576,
      "▁bekl": 1577,
      "▁bunun": 1578,
      "▁tası": 1579,
      "lama": 1580,
      "enek": 1581,
      "erli": 1582,
      "les": 1583,
      "▁sirketi": 1584,
      "▁atlan": 1585,
      "▁sırt": 1586,
      "▁sene": 1587,
      "ruk": 1588,
      "ide": 1589,
      "madim": 1590,
      "▁endek": 1591,
      "sın": 1592,
      "▁orman": 1593,
      "urt": 1594,
      "▁boyut": 1595,
      "“": 1596,
      "▁kadın": 1597,
      "▁yard": 1598,
      "▁kayb": 1599,
      "bul": 1600,
      "ım": 1601,
      "▁para": 1602,
      "▁dısında": 1603,
      "▁kalab": 1604,
      "▁ur": 1605,
      "▁hareket": 1606,
      "urlu": 1607,
      "▁bask": 1608,
      "▁suyu": 1609,
      "▁hız": 1610,
      "▁icinden": 1611,
      "&": 1612,
      "▁hissesi": 1613,
      "ola": 1614,
      "istel": 1615,
      "lik": 1616,
      "kur": 1617,
      "▁ucret": 1618,
      "lac": 1619,
      "▁sistem": 1620,
      "▁kons": 1621,
      "ograf": 1622,
      "▁anlattı": 1623,
      "▁nuf": 1624,
      "▁bugune": 1625,
      "▁sub": 1626,
      "▁oglan": 1627,
      "▁hizmetten": 1628,
      "▁etmem": 1629,
      "▁siz": 1630,
      "▁hisseler": 1631,
      "kul": 1632,
      "▁sayı": 1633,
      "▁tat": 1634,
      "▁pit": 1635,
      "▁tır": 1636,
      "eyin": 1637,
      "lerimiz": 1638,
      "manı": 1639,
      "dıgın": 1640,
      "▁oyuncu": 1641,
      "▁ucusa": 1642,
      "lıktan": 1643,
      "▁ucmak": 1644,
      "▁ucuslar": 1645,
      "▁edil": 1646,
      "mayı": 1647,
      "▁analistler": 1648,
      "▁kendi": 1649,
      "▁bez": 1650,
      "sak": 1651,
      "tık": 1652,
      "▁isim": 1653,
      "ce": 1654,
      "▁2": 1655,
      "▁#": 1656,
      "▁cogu": 1657,
      "dıgı": 1658,
      "▁onunde": 1659,
      "▁temsil": 1660,
      "▁teor": 1661,
      "▁=": 1662,
      "ekl": 1663,
      "ru": 1664,
      "▁key": 1665,
      "ot": 1666,
      "▁misafirimiz": 1667,
      "p": 1668,
      "▁cir": 1669,
      "nun": 1670,
      "▁anim": 1671,
      "enuz": 1672,
      "gili": 1673,
      "▁te": 1674,
      "▁ceh": 1675,
      "ol": 1676,
      "▁musteri": 1677,
      "▁kagıt": 1678,
      "▁degeri": 1679,
      "▁of": 1680,
      "unuz": 1681,
      "▁net": 1682,
      "meger": 1683,
      "'e": 1684,
      "▁yine": 1685,
      "▁grub": 1686,
      "▁dusur": 1687,
      "aklı": 1688,
      "▁endustr": 1689,
      "▁oyun": 1690,
      "▁sah": 1691,
      "▁vatand": 1692,
      "▁insanın": 1693,
      "▁bile": 1694,
      "▁cel": 1695,
      "tırmak": 1696,
      "▁yo": 1697,
      "▁izin": 1698,
      "▁olcude": 1699,
      "▁tavuk": 1700,
      "▁cins": 1701,
      "▁ayda": 1702,
      "▁telefonla": 1703,
      "▁rak": 1704,
      "min": 1705,
      "ian": 1706,
      "▁baz": 1707,
      "▁mem": 1708,
      "abet": 1709,
      "ende": 1710,
      "▁yoneticileri": 1711,
      "▁ticarette": 1712,
      "▁bors": 1713,
      "▁enf": 1714,
      "▁ilave": 1715,
      "isyon": 1716,
      "▁beklen": 1717,
      "▁istifa": 1718,
      "▁yuzden": 1719,
      "▁yap": 1720,
      "▁rom": 1721,
      "▁*": 1722,
      "▁atlanta": 1723,
      "inci": 1724,
      "▁sehir": 1725,
      "▁zamanda": 1726,
      "ilim": 1727,
      "maktadır": 1728,
      "▁sın": 1729,
      "lim": 1730,
      "uz": 1731,
      "▁planı": 1732,
      "▁sahibi": 1733,
      "mem": 1734,
      "▁yemeklerde": 1735,
      "itesi": 1736,
      "▁eyalet": 1737,
      "▁belirt": 1738,
      "▁kup": 1739,
      "▁sent": 1740,
      "eye": 1741,
      "▁ekonomi": 1742,
      "▁gozden": 1743,
      "unc": 1744,
      "▁meydana": 1745,
      "yal": 1746,
      "iligi": 1747,
      "mamıs": 1748,
      "si": 1749,
      "▁inanc": 1750,
      "▁tuk": 1751,
      "▁ozellikle": 1752,
      "▁kosulları": 1753,
      "▁lob": 1754,
      "uyu": 1755,
      "cılıg": 1756,
      "▁hac": 1757,
      "▁gelecek": 1758,
      "▁8": 1759,
      "sen": 1760,
      "▁yolculuk": 1761,
      "eden": 1762,
      "ydi": 1763,
      "▁giden": 1764,
      "etti": 1765,
      "le": 1766,
      "ydı": 1767,
      "isiyle": 1768,
      "▁bakım": 1769,
      "▁koylu": 1770,
      "▁elestiri": 1771,
      "▁univers": 1772,
      "ley": 1773,
      "enk": 1774,
      "dur": 1775,
      "larak": 1776,
      "▁takip": 1777,
      "▁kıl": 1778,
      "ia": 1779,
      "▁haberi": 1780,
      "likle": 1781,
      "isin": 1782,
      "▁kart": 1783,
      "▁anay": 1784,
      "q": 1785,
      "▁imz": 1786,
      "▁hakk": 1787,
      "▁bat": 1788,
      "▁kur": 1789,
      "adan": 1790,
      "▁yardimci": 1791,
      "▁def": 1792,
      "▁tabak": 1793,
      "ile": 1794,
      "▁gecir": 1795,
      "▁dur": 1796,
      "▁devletin": 1797,
      "lantı": 1798,
      "▁tiyatr": 1799,
      "▁mul": 1800,
      "uga": 1801,
      "▁mer": 1802,
      "▁bizim": 1803,
      "dek": 1804,
      "▁hanimdi": 1805,
      "mam": 1806,
      "ıyorlar": 1807,
      "▁kenar": 1808,
      "egini": 1809,
      "ruf": 1810,
      "gil": 1811,
      "▁sevgi": 1812,
      "▁denizi": 1813,
      "inda": 1814,
      "d": 1815,
      "▁d": 1816,
      "ay": 1817,
      "uler": 1818,
      "▁cif": 1819,
      "▁kı": 1820,
      "▁ediyordu": 1821,
      "▁mus": 1822,
      "▁katk": 1823,
      "▁cicek": 1824,
      "ısız": 1825,
      "▁konuda": 1826,
      "adar": 1827,
      "ici": 1828,
      "▁tal": 1829,
      "▁yarat": 1830,
      "elim": 1831,
      "ınt": 1832,
      "eda": 1833,
      "▁eksik": 1834,
      "▁camasır": 1835,
      "▁pil": 1836,
      "▁lezzetleri": 1837,
      "▁t": 1838,
      "▁cekti": 1839,
      "uguna": 1840,
      "ladım": 1841,
      "enin": 1842,
      "2": 1843,
      "▁vucud": 1844,
      "▁tekl": 1845,
      "▁gecm": 1846,
      "▁uyum": 1847,
      "▁pas": 1848,
      "alama": 1849,
      "▁elini": 1850,
      "▁lir": 1851,
      "▁acent": 1852,
      "oj": 1853,
      "▁bakanlıgı": 1854,
      "▁soyl": 1855,
      "ıyı": 1856,
      "▁bunlar": 1857,
      "▁anlama": 1858,
      "▁yola": 1859,
      "▁tepki": 1860,
      "agında": 1861,
      "eler": 1862,
      "onu": 1863,
      "▁ust": 1864,
      "ayi": 1865,
      "▁ihtiy": 1866,
      "▁mahkem": 1867,
      "▁katılım": 1868,
      "▁dunyada": 1869,
      "▁cocukları": 1870,
      "▁vardı": 1871,
      "bak": 1872,
      "▁acıl": 1873,
      "▁eder": 1874,
      "▁kalem": 1875,
      "umda": 1876,
      "▁sını": 1877,
      "▁fen": 1878,
      "▁mektu": 1879,
      "umuz": 1880,
      "▁veya": 1881,
      "ern": 1882,
      "▁yapıyor": 1883,
      "▁sefer": 1884,
      "▁ustu": 1885,
      "onelik": 1886,
      "▁yatırım": 1887,
      "▁olsun": 1888,
      "▁oranları": 1889,
      "▁alısver": 1890,
      "▁cumle": 1891,
      "▁gitmek": 1892,
      "▁isler": 1893,
      "ket": 1894,
      "▁annemin": 1895,
      "yası": 1896,
      "▁dakik": 1897,
      "diye": 1898,
      "▁gonul": 1899,
      "▁elem": 1900,
      "▁analiz": 1901,
      "▁beyle": 1902,
      "▁tr": 1903,
      "▁huz": 1904,
      "▁bogaz": 1905,
      "▁merk": 1906,
      "▁yok": 1907,
      "▁alaka": 1908,
      "tıl": 1909,
      "▁gunduz": 1910,
      "▁paraya": 1911,
      "▁gorev": 1912,
      "0": 1913,
      "°": 1914,
      "▁makin": 1915,
      "ev": 1916,
      "▁poz": 1917,
      "▁bıcak": 1918,
      "▁katilmak": 1919,
      "net": 1920,
      "▁kac": 1921,
      "ından": 1922,
      "▁ev": 1923,
      "ayla": 1924,
      "▁sog": 1925,
      "▁insanlara": 1926,
      "’": 1927,
      "▁kucuk": 1928,
      "▁en": 1929,
      "erleri": 1930,
      "▁simdiye": 1931,
      "liginde": 1932,
      "▁art": 1933,
      "▁kosul": 1934,
      "malar": 1935,
      "▁sekil": 1936,
      "os": 1937,
      "mektedir": 1938,
      "▁karsi": 1939,
      "▁gar": 1940,
      "iyi": 1941,
      "▁sat": 1942,
      "▁meger": 1943,
      "day": 1944,
      "▁kara": 1945,
      "tigi": 1946,
      "ate": 1947,
      "▁seyleri": 1948,
      "lara": 1949,
      "oz": 1950,
      "▁aralık": 1951,
      "▁goc": 1952,
      "tıgını": 1953,
      "▁payı": 1954,
      "urg": 1955,
      "▁sesi": 1956,
      "▁dug": 1957,
      "▁olc": 1958,
      "▁nedir": 1959,
      "▁esim": 1960,
      "ne": 1961,
      "▁tahvilleri": 1962,
      "all": 1963,
      "▁fa": 1964,
      "stır": 1965,
      "▁bede": 1966,
      "▁air": 1967,
      "▁saf": 1968,
      "izi": 1969,
      "usunu": 1970,
      "▁personellerin": 1971,
      "▁kararı": 1972,
      "▁analist": 1973,
      "▁acıkladı": 1974,
      "laması": 1975,
      "ugunu": 1976,
      "▁es": 1977,
      "▁milyondan": 1978,
      "k": 1979,
      "▁birligi": 1980,
      "▁soyley": 1981,
      "mi": 1982,
      "▁duk": 1983,
      "▁roman": 1984,
      "▁tem": 1985,
      "mey": 1986,
      "ort": 1987,
      "▁bunu": 1988,
      "▁taleb": 1989,
      "▁alak": 1990,
      "ek": 1991,
      "dan": 1992,
      "za": 1993,
      "▁tercih": 1994,
      "▁ok": 1995,
      "▁fazl": 1996,
      "attı": 1997,
      "▁kaldik": 1998,
      "▁piyan": 1999,
      "ime": 2000,
      "▁internet": 2001,
      "▁otelin": 2002,
      "▁azından": 2003,
      "▁`": 2004,
      "▁arada": 2005,
      "▁vapur": 2006,
      "5": 2007,
      "▁iyi": 2008,
      "erh": 2009,
      "▁zaten": 2010,
      "▁hasar": 2011,
      "ecegine": 2012,
      "▁gormek": 2013,
      "ikti": 2014,
      "▁kul": 2015,
      "▁ilk": 2016,
      "▁edeb": 2017,
      "▁cumhuriyet": 2018,
      "▁hale": 2019,
      "▁hey": 2020,
      "▁firma": 2021,
      "▁oldu": 2022,
      "ah": 2023,
      "▁basın": 2024,
      "▁kriz": 2025,
      "▁merdiv": 2026,
      "igim": 2027,
      "ac": 2028,
      "▁ilgili": 2029,
      "se": 2030,
      "umuzde": 2031,
      "gi": 2032,
      "▁sis": 2033,
      "▁onlar": 2034,
      "cag": 2035,
      "iri": 2036,
      "▁iflas": 2037,
      "duk": 2038,
      "ad": 2039,
      "yum": 2040,
      "▁yık": 2041,
      "vek": 2042,
      "isten": 2043,
      "▁banka": 2044,
      "elen": 2045,
      "▁ogr": 2046,
      "▁go": 2047,
      "▁eve": 2048,
      "▁merdiven": 2049,
      "▁piyas": 2050,
      "▁borsası": 2051,
      "▁parasını": 2052,
      "▁oyku": 2053,
      "▁eylul": 2054,
      "▁muc": 2055,
      "'ye": 2056,
      "re": 2057,
      "ash": 2058,
      "▁agustos": 2059,
      "▁lik": 2060,
      "▁ama": 2061,
      "▁list": 2062,
      "▁yorum": 2063,
      "▁bilmek": 2064,
      "▁doviz": 2065,
      "aydı": 2066,
      "▁sır": 2067,
      "▁sof": 2068,
      "▁sanayi": 2069,
      "▁herkesin": 2070,
      "l": 2071,
      "▁ters": 2072,
      "▁sans": 2073,
      "endi": 2074,
      "sef": 2075,
      "▁kav": 2076,
      "▁varan": 2077,
      "▁direk": 2078,
      "▁karayolu": 2079,
      "▁tarihi": 2080,
      "leyi": 2081,
      "▁ayak": 2082,
      "▁esk": 2083,
      "bar": 2084,
      "▁aksama": 2085,
      "ında": 2086,
      "usunun": 2087,
      "▁mahkeme": 2088,
      "cisi": 2089,
      "▁goz": 2090,
      "erk": 2091,
      "▁istiyor": 2092,
      "▁kontr": 2093,
      "rı": 2094,
      "ılması": 2095,
      "▁bazı": 2096,
      "▁secim": 2097,
      "'nın": 2098,
      "▁kab": 2099,
      "makta": 2100,
      "denin": 2101,
      "ton": 2102,
      "▁hikay": 2103,
      "▁cin": 2104,
      "ene": 2105,
      "▁ulk": 2106,
      "▁ogleden": 2107,
      "▁dum": 2108,
      "▁bit": 2109,
      "art": 2110,
      "inti": 2111,
      "▁elleri": 2112,
      "▁restor": 2113,
      "eh": 2114,
      "lamıs": 2115,
      "pr": 2116,
      "makt": 2117,
      "to": 2118,
      "usu": 2119,
      "mis": 2120,
      "▁otur": 2121,
      "▁fil": 2122,
      "gan": 2123,
      "alar": 2124,
      "agının": 2125,
      "▁dısı": 2126,
      "▁garanti": 2127,
      "cev": 2128,
      "▁uc": 2129,
      "▁can": 2130,
      "▁ref": 2131,
      "▁degisiklik": 2132,
      "▁yet": 2133,
      "den": 2134,
      "▁sut": 2135,
      "▁basına": 2136,
      "▁sınıf": 2137,
      "▁&": 2138,
      "lin": 2139,
      "ındaki": 2140,
      "labilir": 2141,
      "▁zaf": 2142,
      "▁rehber": 2143,
      "▁olcu": 2144,
      "'dan": 2145,
      "▁sik": 2146,
      "elerde": 2147,
      "▁oner": 2148,
      "anti": 2149,
      "cu": 2150,
      "▁abd": 2151,
      "▁bazi": 2152,
      "▁lam": 2153,
      "▁ez": 2154,
      "▁ken": 2155,
      "une": 2156,
      "ları": 2157,
      "iki": 2158,
      "▁cay": 2159,
      "▁fay": 2160,
      "▁bekle": 2161,
      "ogram": 2162,
      "ımızın": 2163,
      "▁ceyr": 2164,
      "▁yılı": 2165,
      "▁sorustur": 2166,
      "▁piyasaya": 2167,
      "▁hemen": 2168,
      "▁cat": 2169,
      "▁hisseye": 2170,
      "▁hem": 2171,
      "▁pozisyon": 2172,
      "askanı": 2173,
      "▁detay": 2174,
      "elli": 2175,
      "▁devralma": 2176,
      "▁tah": 2177,
      "must": 2178,
      "▁kazanc": 2179,
      "enlerin": 2180,
      "▁oteli": 2181,
      "▁meydan": 2182,
      "▁iddia": 2183,
      "▁ayakta": 2184,
      "'ten": 2185,
      "▁acik": 2186,
      "▁sirketleri": 2187,
      "ari": 2188,
      "yet": 2189,
      "▁dogru": 2190,
      "▁muhaf": 2191,
      "▁beyaz": 2192,
      "▁baskanı": 2193,
      "▁diz": 2194,
      "edik": 2195,
      "▁test": 2196,
      "ılı": 2197,
      "▁...": 2198,
      "▁beyin": 2199,
      "imore": 2200,
      "ulu": 2201,
      "▁birer": 2202,
      "▁gelir": 2203,
      "ıyor": 2204,
      "▁endeksi": 2205,
      "▁parca": 2206,
      "▁bi": 2207,
      "▁sark": 2208,
      "▁insa": 2209,
      "suzluk": 2210,
      "▁nok": 2211,
      "▁sonucları": 2212,
      "▁cun": 2213,
      "gin": 2214,
      "▁ip": 2215,
      "▁ruzgar": 2216,
      "afet": 2217,
      "kan": 2218,
      "akları": 2219,
      "em": 2220,
      "▁islet": 2221,
      "▁yarı": 2222,
      "▁kahkah": 2223,
      "%": 2224,
      "▁devr": 2225,
      "ver": 2226,
      "ye": 2227,
      "▁sonra": 2228,
      "larında": 2229,
      "fer": 2230,
      "▁yonetim": 2231,
      "digini": 2232,
      "ina": 2233,
      "▁ayrı": 2234,
      "▁gordu": 2235,
      "▁zamanlar": 2236,
      "▁kıy": 2237,
      "▁id": 2238,
      "▁org": 2239,
      "▁tahviller": 2240,
      "gu": 2241,
      "alık": 2242,
      "▁yerine": 2243,
      "▁aday": 2244,
      "▁bolge": 2245,
      "urk": 2246,
      "▁begendim": 2247,
      "▁kavg": 2248,
      "▁kadınlar": 2249,
      "▁tesvik": 2250,
      "▁odada": 2251,
      "8": 2252,
      "▁lezzeti": 2253,
      "▁kad": 2254,
      "▁si": 2255,
      "▁sermaye": 2256,
      "▁cak": 2257,
      "▁atlanta'dan": 2258,
      "uye": 2259,
      "▁piyasada": 2260,
      "▁sonucu": 2261,
      "ume": 2262,
      "bah": 2263,
      "ska": 2264,
      "gre": 2265,
      "burgh": 2266,
      "▁yuksek": 2267,
      "▁mez": 2268,
      "tu": 2269,
      "▁sezon": 2270,
      "ıda": 2271,
      "'ya": 2272,
      "▁tesv": 2273,
      "▁komisyonu": 2274,
      "uldu": 2275,
      "▁futbol": 2276,
      "▁suc": 2277,
      "▁halk": 2278,
      ">": 2279,
      "▁deneme": 2280,
      "at": 2281,
      "▁ogret": 2282,
      "▁var": 2283,
      "ba": 2284,
      "emedi": 2285,
      "mer": 2286,
      "▁alt": 2287,
      "miyor": 2288,
      "▁buf": 2289,
      "▁ord": 2290,
      "luydu": 2291,
      "▁otom": 2292,
      "adel": 2293,
      "isinden": 2294,
      "▁man": 2295,
      "▁anal": 2296,
      "deki": 2297,
      "▁finans": 2298,
      "▁cocuk": 2299,
      "▁asker": 2300,
      "rken": 2301,
      "▁zarar": 2302,
      "▁saldır": 2303,
      "▁sonbah": 2304,
      "▁franc": 2305,
      "ayan": 2306,
      "▁gecti": 2307,
      "▁ins": 2308,
      "ka": 2309,
      "tun": 2310,
      "tih": 2311,
      "▁babası": 2312,
      "'ın": 2313,
      "aseb": 2314,
      "alet": 2315,
      "▁adını": 2316,
      "onun": 2317,
      "▁kapı": 2318,
      "tor": 2319,
      "ırak": 2320,
      "▁sıkınt": 2321,
      "unde": 2322,
      "▁yıl": 2323,
      "▁bilet": 2324,
      "▁siir": 2325,
      "iye": 2326,
      "▁sahipleri": 2327,
      "▁amerik": 2328,
      "▁fir": 2329,
      "liginin": 2330,
      "▁ozel": 2331,
      "[PAD]": 2332,
      "▁mes": 2333,
      "▁uzerine": 2334,
      "▁carsaf": 2335,
      "des": 2336,
      "▁pek": 2337,
      "▁oysa": 2338,
      "▁ener": 2339,
      "op": 2340,
      "▁yuzde": 2341,
      "▁dag": 2342,
      "▁biz": 2343,
      "▁parayı": 2344,
      "▁had": 2345,
      "▁dolarlık": 2346,
      "anı": 2347,
      "▁1": 2348,
      "▁ede": 2349,
      "▁birim": 2350,
      "ust": 2351,
      "▁hol": 2352,
      "ırt": 2353,
      "▁alan": 2354,
      "▁yem": 2355,
      "▁bilg": 2356,
      "raf": 2357,
      "▁zamanlarda": 2358,
      "▁kitab": 2359,
      "▁eser": 2360,
      "gr": 2361,
      "▁personel": 2362,
      "▁annesi": 2363,
      "▁devam": 2364,
      "ilendir": 2365,
      "▁neden": 2366,
      "asından": 2367,
      "▁burn": 2368,
      "▁..\"": 2369,
      "▁yatırımcılar": 2370,
      "▁kıs": 2371,
      "ekkur": 2372,
      "▁philadelphia": 2373,
      "▁ileri": 2374,
      "▁dolar": 2375,
      "▁onun": 2376,
      "▁peyn": 2377,
      "ilik": 2378,
      "etleri": 2379,
      "han": 2380,
      "▁yılın": 2381,
      "▁has": 2382,
      "▁kulub": 2383,
      "yle": 2384,
      "ibi": 2385,
      "manın": 2386,
      "▁sovyet": 2387,
      "▁basar": 2388,
      "▁eglen": 2389,
      "▁ucaga": 2390,
      "▁anlamına": 2391,
      "▁endis": 2392,
      "mistir": 2393,
      "edig": 2394,
      "▁imkan": 2395,
      "▁civarı": 2396,
      "▁halbu": 2397,
      "▁ziyaret": 2398,
      "▁hoca": 2399,
      "▁kil": 2400,
      "▁huk": 2401,
      "▁vakt": 2402,
      "▁gunun": 2403,
      "▁bil": 2404,
      "▁gunler": 2405,
      "▁konak": 2406,
      "▁dolardan": 2407,
      "ege": 2408,
      "▁teslim": 2409,
      "▁dun": 2410,
      "▁zincir": 2411,
      "▁hastal": 2412,
      "▁birkac": 2413,
      "▁ses": 2414,
      "▁vadeli": 2415,
      "▁sonuc": 2416,
      "▁basını": 2417,
      "▁kırık": 2418,
      "▁tep": 2419,
      "▁re": 2420,
      "▁misaf": 2421,
      "▁makal": 2422,
      "▁sep": 2423,
      "'y": 2424,
      "▁francisco": 2425,
      "▁hayv": 2426,
      "lendir": 2427,
      "ore": 2428,
      "▁mal": 2429,
      "▁butun": 2430,
      "▁fiyatları": 2431,
      "ımızı": 2432,
      "▁tucc": 2433,
      "ut": 2434,
      "ilen": 2435,
      "▁pittsburgh": 2436,
      "▁wash": 2437,
      "▁da": 2438,
      "elerin": 2439,
      "sızlık": 2440,
      "▁yal": 2441,
      "▁ıs": 2442,
      "▁mobil": 2443,
      "▁yas": 2444,
      "amız": 2445,
      "▁petrol": 2446,
      "muz": 2447,
      "▁ucuz": 2448,
      "▁yag": 2449,
      "egine": 2450,
      "'nun": 2451,
      "▁og": 2452,
      "▁oldugu": 2453,
      "▁bas": 2454,
      "▁get": 2455,
      "▁ker": 2456,
      "▁uygul": 2457,
      "▁hakkında": 2458,
      "▁l": 2459,
      "▁civ": 2460,
      "▁adet": 2461,
      "ıma": 2462,
      "▁kalite": 2463,
      "▁uf": 2464,
      "▁sorumluluk": 2465,
      "edigini": 2466,
      "lıc": 2467,
      "▁havayol": 2468,
      "▁herh": 2469,
      "▁durumda": 2470,
      "elerle": 2471,
      "iber": 2472,
      "▁yer": 2473,
      "▁yaklas": 2474,
      "▁dallas": 2475,
      "'nin": 2476,
      "▁kot": 2477,
      "lay": 2478,
      "eviz": 2479,
      "ılan": 2480,
      "▁ol": 2481,
      "▁dıs": 2482,
      "▁oldugunu": 2483,
      "▁karsiligini": 2484,
      "ıstır": 2485,
      "▁radyo": 2486,
      "▁baba": 2487,
      "▁sanat": 2488,
      "▁zorluk": 2489,
      "▁arasındaki": 2490,
      "▁ul": 2491,
      "▁cik": 2492,
      "▁teb": 2493,
      "enc": 2494,
      "▁pir": 2495,
      "▁s": 2496,
      "▁oran": 2497,
      "▁sekl": 2498,
      "▁asag": 2499,
      "▁pay": 2500,
      "▁disi": 2501,
      "▁mek": 2502,
      "▁tedbir": 2503,
      "▁mut": 2504,
      "▁tay": 2505,
      "▁sok": 2506,
      "▁hacmi": 2507,
      "irler": 2508,
      "tar": 2509,
      "9": 2510,
      "▁evine": 2511,
      "til": 2512,
      "▁tuketici": 2513,
      "▁kahv": 2514,
      "ch": 2515,
      "5'": 2516,
      "▁diyor": 2517,
      "▁mec": 2518,
      "▁ardı": 2519,
      "lardı": 2520,
      "anıt": 2521,
      "izli": 2522,
      "arda": 2523,
      "▁degisim": 2524,
      "aset": 2525,
      "▁bagım": 2526,
      "▁bug": 2527,
      "▁pittsburgh'tan": 2528,
      "ılıyor": 2529,
      "▁din": 2530,
      "▁dis": 2531,
      "▁butce": 2532,
      "▁ancak": 2533,
      "▁tel": 2534,
      "▁198": 2535,
      "▁v": 2536,
      "▁uyku": 2537,
      "▁pantol": 2538,
      "sınız": 2539,
      "▁kolt": 2540,
      "ivers": 2541,
      "asının": 2542,
      "▁dem": 2543,
      "▁ucus": 2544,
      "▁sistemi": 2545,
      "gul": 2546,
      "▁bilgis": 2547,
      "▁saatlerinde": 2548,
      "▁paran": 2549,
      "▁san": 2550,
      ")": 2551,
      "▁sozu": 2552,
      "▁deg": 2553,
      "▁pitts": 2554,
      "▁hizmet": 2555,
      "▁ucretleri": 2556,
      "▁yaklasık": 2557,
      "may": 2558,
      "▁kopek": 2559,
      "▁ziy": 2560,
      "▁korku": 2561,
      "▁dedim": 2562,
      "▁koc": 2563,
      "▁tey": 2564,
      "lam": 2565,
      "lerini": 2566,
      "dal": 2567,
      "▁rej": 2568,
      "iyon": 2569,
      "▁send": 2570,
      "oru": 2571,
      "gı": 2572,
      "erek": 2573,
      "▁kası": 2574,
      "▁sirket": 2575,
      "▁aleyh": 2576,
      "▁olum": 2577,
      "▁personellerden": 2578,
      "▁ofk": 2579,
      "▁kabul": 2580,
      "▁bugun": 2581,
      "yo": 2582,
      "▁gum": 2583,
      "tlu": 2584,
      "▁lez": 2585,
      "▁...\"": 2586,
      "▁teklif": 2587,
      "▁cozum": 2588,
      "gum": 2589,
      "uh": 2590,
      "▁kapas": 2591,
      "ebil": 2592,
      "▁vakit": 2593,
      "lanır": 2594,
      "▁deney": 2595,
      "-": 2596,
      "▁sozles": 2597,
      "▁dalg": 2598,
      "▁onc": 2599,
      "acı": 2600,
      "▁kalp": 2601,
      "\\": 2602,
      "▁kotu": 2603,
      "gesi": 2604,
      "▁ayd": 2605,
      "li": 2606,
      "▁yonelik": 2607,
      "▁kimse": 2608,
      "▁fiyatı": 2609,
      "▁vade": 2610,
      "1": 2611,
      "qu": 2612,
      "▁sair": 2613,
      "▁dudak": 2614,
      "▁ofis": 2615,
      "ik": 2616,
      "▁cevr": 2617,
      "▁par": 2618,
      "▁iliski": 2619,
      "▁sona": 2620,
      "▁ortalama": 2621,
      "ki": 2622,
      "▁sigara": 2623,
      "▁uygun": 2624,
      "▁yeri": 2625,
      "▁etkisi": 2626,
      "▁hav": 2627,
      "▁hizmetleri": 2628,
      "▁kurul": 2629,
      "▁milyon": 2630,
      "▁herkes": 2631,
      "▁paranın": 2632,
      "▁ortasında": 2633,
      "aması": 2634,
      "og": 2635,
      "▁danıs": 2636,
      "▁senet": 2637,
      "▁destek": 2638,
      "▁mun": 2639,
      "▁kurum": 2640,
      "▁kapsam": 2641,
      "af": 2642,
      "▁iht": 2643,
      "▁arz": 2644,
      "▁fab": 2645,
      "▁kasab": 2646,
      "▁basta": 2647,
      "▁burası": 2648,
      "ilmesi": 2649,
      "ımda": 2650,
      "▁olac": 2651,
      "▁ten": 2652,
      "ıklık": 2653,
      "ra": 2654,
      "▁ilisk": 2655,
      "atur": 2656,
      "▁uzerinde": 2657,
      "▁adina": 2658,
      "▁ren": 2659,
      "ger": 2660,
      "▁zam": 2661,
      "▁paz": 2662,
      "▁icecek": 2663,
      "▁imk": 2664,
      "▁oteldi": 2665,
      "▁ayakkabı": 2666,
      "mel": 2667,
      ".5": 2668,
      "▁cıg": 2669,
      "y": 2670,
      "▁ihrac": 2671,
      "landır": 2672,
      "ont": 2673,
      "▁hos": 2674,
      "▁cor": 2675,
      "ediye": 2676,
      "▁basa": 2677,
      "▁istasyon": 2678,
      "en": 2679,
      "iyordu": 2680,
      "▁rapor": 2681,
      "asını": 2682,
      "▁ben": 2683,
      "'a": 2684,
      "ou": 2685,
      "laya": 2686,
      "▁kalkan": 2687,
      "eyh": 2688,
      "▁hele": 2689,
      "▁tarif": 2690,
      "▁genel": 2691,
      "▁mas": 2692,
      "ımıza": 2693,
      "▁,": 2694,
      "▁kız": 2695,
      "▁yerde": 2696,
      "▁kaz": 2697,
      "▁evet": 2698,
      "▁kuvv": 2699,
      "▁inter": 2700,
      "▁donemde": 2701,
      "▁polit": 2702,
      "▁renk": 2703,
      "▁dek": 2704,
      "mı": 2705,
      "eti": 2706,
      "masını": 2707,
      "▁dil": 2708,
      "▁tehd": 2709,
      "anma": 2710,
      "or": 2711,
      "▁insan": 2712,
      "eklen": 2713,
      "nd": 2714,
      "amet": 2715,
      "▁?": 2716,
      "▁eglence": 2717,
      "▁olan": 2718,
      "▁ates": 2719,
      "▁makine": 2720,
      "▁gosterdi": 2721,
      "▁duvar": 2722,
      "▁hedef": 2723,
      "tak": 2724,
      "▁getir": 2725,
      "dıgında": 2726,
      "▁sikayet": 2727,
      "azla": 2728,
      "dıgını": 2729,
      "zir": 2730,
      "ibar": 2731,
      "ati": 2732,
      "lug": 2733,
      "▁rad": 2734,
      "▁amerikan": 2735,
      "▁emir": 2736,
      "dam": 2737,
      "▁televizyon": 2738,
      "▁kims": 2739,
      "▁ortadan": 2740,
      "▁sordu": 2741,
      "▁balt": 2742,
      "acak": 2743,
      "▁sirk": 2744,
      "▁gozleri": 2745,
      "alt": 2746,
      "▁anla": 2747,
      "iy": 2748,
      "▁mi": 2749,
      "▁malz": 2750,
      "lak": 2751,
      "iski": 2752,
      "▁coc": 2753,
      "▁rezervasyon": 2754,
      "ediyor": 2755,
      "▁sebeb": 2756,
      "▁yuzme": 2757,
      "▁temin": 2758,
      "▁fin": 2759,
      "▁ide": 2760,
      "▁zor": 2761,
      "na": 2762,
      "▁meyve": 2763,
      "▁yuzunden": 2764,
      "▁uzerinden": 2765,
      "undan": 2766,
      "▁yıld": 2767,
      "▁yıldız": 2768,
      "▁yemek": 2769,
      "agına": 2770,
      "▁baskı": 2771,
      "du": 2772,
      "gar": 2773,
      "▁ana": 2774,
      "▁plani": 2775,
      "▁yardımcı": 2776,
      "cok": 2777,
      "▁sozlesme": 2778,
      "dıg": 2779,
      "▁bilgi": 2780,
      "erdi": 2781,
      "▁amc": 2782,
      "e": 2783,
      "ud": 2784,
      "▁gid": 2785,
      "▁efendi": 2786,
      "▁haft": 2787,
      "▁endustri": 2788,
      "▁tu": 2789,
      "▁yeni": 2790,
      "▁dengesi": 2791,
      "▁cadde": 2792,
      "dik": 2793,
      "▁konut": 2794,
      "tigini": 2795,
      "▁an": 2796,
      "ark": 2797,
      "—": 2798,
      "▁maliyet": 2799,
      "▁davranıs": 2800,
      "ran": 2801,
      "ili": 2802,
      "▁yatırımcıların": 2803,
      "sunuz": 2804,
      "ers": 2805,
      "▁mev": 2806,
      "▁vad": 2807,
      "▁kongre": 2808,
      "▁yıla": 2809,
      "bilir": 2810,
      "igini": 2811,
      "▁gemi": 2812,
      "▁seyi": 2813,
      "▁acı": 2814,
      "cul": 2815,
      "▁mecl": 2816,
      "▁york": 2817,
      "▁fabr": 2818,
      "lerim": 2819,
      "▁hacim": 2820,
      "▁belki": 2821,
      "▁res": 2822,
      "▁tesisin": 2823,
      "▁heyecan": 2824,
      "▁tesis": 2825,
      "▁yıllar": 2826,
      "▁nokta": 2827,
      "aat": 2828,
      "▁geldi": 2829,
      "▁ortak": 2830,
      "eli": 2831,
      "▁her": 2832,
      "▁mag": 2833,
      "▁ucuslarını": 2834,
      "▁turku": 2835,
      "amam": 2836,
      "▁yerden": 2837,
      "▁ot": 2838,
      "▁yanı": 2839,
      "eme": 2840,
      "▁am": 2841,
      "▁halde": 2842,
      "▁gozlerini": 2843,
      "▁aileler": 2844,
      "leri": 2845,
      "▁siyaset": 2846,
      "▁dava": 2847,
      "imdi": 2848,
      "w": 2849,
      "▁bardagı": 2850,
      "▁makaleye": 2851,
      "▁dog": 2852,
      "▁olanak": 2853,
      "▁sonuna": 2854,
      "▁islemlerinde": 2855,
      "▁haftada": 2856,
      "▁ist": 2857,
      "▁ustune": 2858,
      "▁olabilir": 2859,
      "▁attı": 2860,
      "▁corba": 2861,
      "▁gozlem": 2862,
      "vr": 2863,
      "▁dert": 2864,
      "▁hit": 2865,
      "▁bar": 2866,
      "▁ilet": 2867,
      "▁konumu": 2868,
      "▁insanların": 2869,
      "▁fas": 2870,
      "▁str": 2871,
      "▁savası": 2872,
      "▁agır": 2873,
      "▁sonrası": 2874,
      "▁kon": 2875,
      "▁halkı": 2876,
      "▁organ": 2877,
      "▁mart": 2878,
      "▁b": 2879,
      "atlı": 2880,
      "▁kere": 2881,
      "zet": 2882,
      "▁hay": 2883,
      "ayacagını": 2884,
      "▁eden": 2885,
      "▁le": 2886,
      "▁zir": 2887,
      "mekten": 2888,
      "▁suy": 2889,
      "▁ucusun": 2890,
      "▁gazeteci": 2891,
      "▁pazar": 2892,
      "izasyon": 2893,
      "▁patates": 2894,
      "▁gos": 2895,
      "▁kelime": 2896,
      "+": 2897,
      ";": 2898,
      "▁cıktı": 2899,
      "!": 2900,
      "▁sus": 2901,
      "▁hatta": 2902,
      "▁suk": 2903,
      "▁kaldı": 2904,
      "▁katil": 2905,
      "oc": 2906,
      "▁temiz": 2907,
      "▁sup": 2908,
      "▁salon": 2909,
      "▁danısman": 2910,
      "▁ge": 2911,
      "etici": 2912,
      "▁hastan": 2913,
      "▁olmasi": 2914,
      "▁yargıc": 2915,
      "artesi": 2916,
      "▁mesel": 2917,
      "ing": 2918,
      "▁zinc": 2919,
      "▁gider": 2920,
      "▁bos": 2921,
      "▁personelin": 2922,
      "diginde": 2923,
      "▁ar": 2924,
      "▁sap": 2925,
      "kal": 2926,
      "▁oper": 2927,
      "▁gen": 2928,
      "▁havalim": 2929,
      "osu": 2930,
      "▁em": 2931,
      "lıgın": 2932,
      "▁part": 2933,
      "▁aktarmasız": 2934,
      "▁komsu": 2935,
      "lıyor": 2936,
      "▁reform": 2937,
      "dil": 2938,
      "▁fiyatlarını": 2939,
      "▁erken": 2940,
      "▁sevk": 2941,
      "▁altından": 2942,
      "▁tarih": 2943,
      "▁olu": 2944,
      "▁terk": 2945,
      "▁ediyorum": 2946,
      "▁hakim": 2947,
      "▁sayf": 2948,
      "lerden": 2949,
      "▁sur": 2950,
      "▁beg": 2951,
      "▁--": 2952,
      "▁kayıp": 2953,
      "▁sonu": 2954,
      "x": 2955,
      "▁mur": 2956,
      "eticiler": 2957,
      "▁koku": 2958,
      "▁olma": 2959,
      "▁sehrin": 2960,
      "▁gayet": 2961,
      "ıza": 2962,
      "mas": 2963,
      "larından": 2964,
      "▁hala": 2965,
      "▁gir": 2966,
      "▁arası": 2967,
      "▁etraf": 2968,
      "▁kontrol": 2969,
      "▁hissed": 2970,
      "▁gorunuyor": 2971,
      "ucu": 2972,
      "▁insanlar": 2973,
      "▁olmaya": 2974,
      "areti": 2975,
      "kler": 2976,
      "tr": 2977,
      "be": 2978,
      "ugun": 2979,
      "▁kullan": 2980,
      "▁vermek": 2981,
      "▁hangi": 2982,
      "▁gunde": 2983,
      "▁isaret": 2984,
      "nız": 2985,
      "▁cihaz": 2986,
      "amaz": 2987,
      "eni": 2988,
      "▁sul": 2989,
      "eyle": 2990,
      "▁senedi": 2991,
      "uyle": 2992,
      "▁karıs": 2993,
      "▁satım": 2994,
      "amaya": 2995,
      "▁eylem": 2996,
      "imin": 2997,
      "anları": 2998,
      "▁beye": 2999,
      "iyor": 3000,
      "m": 3001,
      "ci": 3002,
      "▁getiri": 3003,
      "liydi": 3004,
      "▁otobus": 3005,
      "ilm": 3006,
      "▁satır": 3007,
      "ekli": 3008,
      "▁dergi": 3009,
      "▁mail": 3010,
      "▁mim": 3011,
      "▁genelde": 3012,
      "man": 3013,
      "uyordu": 3014,
      "ızın": 3015,
      "▁zey": 3016,
      "cilerin": 3017,
      "▁kısmı": 3018,
      "▁bek": 3019,
      "▁anlat": 3020,
      "lari": 3021,
      "▁plaji": 3022,
      "▁ode": 3023,
      "lem": 3024,
      "▁don": 3025,
      "▁gunluk": 3026,
      "▁istek": 3027,
      "▁oak": 3028,
      "▁karsıl": 3029,
      "▁sa": 3030,
      "lit": 3031,
      "▁vardır": 3032,
      "eger": 3033,
      "▁demir": 3034,
      "▁kisinin": 3035,
      "'t": 3036,
      "▁hik": 3037,
      "▁birtak": 3038,
      "▁aj": 3039,
      "▁oyunc": 3040,
      "j": 3041,
      "▁5": 3042,
      "▁herk": 3043,
      "▁ac": 3044,
      "▁olacak": 3045,
      "▁risk": 3046,
      "▁orada": 3047,
      "▁bo": 3048,
      "madan": 3049,
      "ret": 3050,
      "▁gob": 3051,
      "isine": 3052,
      "▁(": 3053,
      "▁et": 3054,
      "ısına": 3055,
      "▁parmak": 3056,
      "ir": 3057,
      "▁sak": 3058,
      "▁turk": 3059,
      "▁rol": 3060,
      "▁mutf": 3061,
      "▁sonrasında": 3062,
      "▁yapmayı": 3063,
      "▁darb": 3064,
      "▁havaalanından": 3065,
      "▁ed": 3066,
      "▁cic": 3067,
      "ur": 3068,
      "atın": 3069,
      "▁sandal": 3070,
      "▁sorunu": 3071,
      "▁ekl": 3072,
      "▁muzik": 3073,
      "▁is": 3074,
      "▁oranında": 3075,
      "lge": 3076,
      "▁.\"": 3077,
      "lu": 3078,
      "▁borc": 3079,
      "▁sev": 3080,
      "▁kay": 3081,
      "imci": 3082,
      "▁st": 3083,
      "ımdan": 3084,
      "iler": 3085,
      "et": 3086,
      "atır": 3087,
      "▁kampanyalardan": 3088,
      "▁akt": 3089,
      "▁pat": 3090,
      "▁cumhur": 3091,
      "▁yumurta": 3092,
      "▁durum": 3093,
      "▁yemekleri": 3094,
      "onra": 3095,
      "▁olay": 3096,
      "▁cocukların": 3097,
      "tıgı": 3098,
      "lastır": 3099,
      "▁havayollarında": 3100,
      "▁bisik": 3101,
      "▁ucretin": 3102,
      "▁dallas'a": 3103,
      "ding": 3104,
      "gal": 3105,
      "▁beydi": 3106,
      "▁:": 3107,
      "▁gayrimen": 3108,
      "ısı": 3109,
      "0'da": 3110,
      "erin": 3111,
      "emey": 3112,
      "▁or": 3113,
      "duz": 3114,
      "mes": 3115,
      "▁manzar": 3116,
      "▁gey": 3117,
      "▁misafir": 3118,
      "▁defter": 3119,
      "▁er": 3120,
      "▁havuz": 3121,
      "▁ef": 3122,
      "▁bakıs": 3123,
      "fen": 3124,
      "amın": 3125,
      "una": 3126,
      "▁menkul": 3127,
      "▁yeter": 3128,
      "▁kucuktu": 3129,
      "▁girdi": 3130,
      "▁vucu": 3131,
      "atif": 3132,
      "▁butu": 3133,
      "▁uret": 3134,
      "▁haf": 3135,
      "on": 3136,
      "yen": 3137,
      "▁bolum": 3138,
      "▁yanıt": 3139,
      "▁eger": 3140,
      "▁eks": 3141,
      "▁yatak": 3142,
      "▁basla": 3143,
      "eyen": 3144,
      "▁tasarruf": 3145,
      "▁dans": 3146,
      "▁nakit": 3147,
      "▁": 3148,
      "▁min": 3149,
      "▁edecek": 3150,
      "▁model": 3151,
      "onel": 3152,
      "▁do": 3153,
      "#": 3154,
      "▁8'den": 3155,
      "lbu": 3156,
      "iyle": 3157,
      "▁yiy": 3158,
      "▁kurulu": 3159,
      "▁fut": 3160,
      "▁burokr": 3161,
      "▁$": 3162,
      "▁dolay": 3163,
      "▁gaz": 3164,
      "▁ter": 3165,
      "▁imkanlar": 3166,
      "▁mot": 3167,
      "lum": 3168,
      "▁kus": 3169,
      "ap": 3170,
      "umu": 3171,
      "▁faz": 3172,
      "▁laf": 3173,
      "▁buz": 3174,
      "▁kisiler": 3175,
      "eral": 3176,
      "lat": 3177,
      "adı": 3178,
      "▁ona": 3179,
      "▁yoktu": 3180,
      "▁teknoloji": 3181,
      "▁gi": 3182,
      "▁merak": 3183,
      "▁bulundu": 3184,
      "▁hayat": 3185,
      "▁yarıs": 3186,
      "5'ten": 3187,
      "▁bileti": 3188,
      "▁paket": 3189,
      "▁kısa": 3190,
      "▁tekrar": 3191,
      "▁toz": 3192,
      "iyeti": 3193,
      "g": 3194,
      "▁kel": 3195,
      "emek": 3196,
      "esti": 3197,
      "▁rah": 3198,
      "▁us": 3199,
      "▁sipar": 3200,
      "▁durumunda": 3201,
      "isindan": 3202,
      "ımın": 3203,
      "▁ici": 3204,
      "tan": 3205,
      "▁hazine": 3206,
      "▁$'dan": 3207,
      "meler": 3208,
      "aları": 3209,
      "▁raf": 3210,
      "▁ta": 3211,
      "▁gorus": 3212,
      "▁unu": 3213,
      "ıgın": 3214,
      "▁gosterin": 3215,
      "yas": 3216,
      "esiyle": 3217,
      "▁calısma": 3218,
      "▁muhal": 3219,
      "▁ucretlerini": 3220,
      "▁bab": 3221,
      "▁bir": 3222,
      "eri": 3223,
      "▁olsa": 3224,
      "▁merkeze": 3225,
      "▁edi": 3226,
      "▁aktivite": 3227,
      "▁yazar": 3228,
      "▁personelleri": 3229,
      "▁il": 3230,
      "▁onemli": 3231,
      "ov": 3232,
      "▁muhab": 3233,
      "▁ister": 3234,
      "▁huc": 3235,
      "▁yahut": 3236,
      "▁sacları": 3237,
      "▁nedenle": 3238,
      "▁kıymet": 3239,
      "▁'": 3240,
      "▁mevdu": 3241,
      "▁yen": 3242,
      "maz": 3243,
      "▁mesaj": 3244,
      "▁endeks": 3245,
      "mal": 3246,
      "'nde": 3247,
      "▁incel": 3248,
      "▁ikram": 3249,
      "▁gur": 3250,
      "▁ucusları": 3251,
      "▁rengi": 3252,
      "▁ucuyor": 3253,
      "▁gecen": 3254,
      "▁agac": 3255,
      "▁borsa": 3256,
      "▁odamiz": 3257,
      "▁mikr": 3258,
      "▁havaalanı": 3259,
      "est": 3260,
      "▁yil": 3261,
      "'den": 3262,
      "mez": 3263,
      "▁soz": 3264,
      "▁ula": 3265,
      "▁ilac": 3266,
      "▁dunyanın": 3267,
      "▁dikkat": 3268,
      "▁sol": 3269,
      "▁kimi": 3270,
      "▁ban": 3271,
      "tluk": 3272,
      "lan": 3273,
      "▁persembe": 3274,
      "▁ag": 3275,
      "▁tav": 3276,
      "▁seklinde": 3277,
      "emem": 3278,
      "ite": 3279,
      "ster": 3280,
      "▁sadece": 3281,
      "▁dusun": 3282,
      "▁ila": 3283,
      "imizi": 3284,
      "ere": 3285,
      "▁yılında": 3286,
      "▁orn": 3287,
      "▁gidis": 3288,
      "imi": 3289,
      "yor": 3290,
      "▁yılda": 3291,
      "▁hayatı": 3292,
      "▁itir": 3293,
      "▁olursa": 3294,
      "▁suru": 3295,
      "▁denver'e": 3296,
      "▁adamın": 3297,
      "▁basbakan": 3298,
      "esi": 3299,
      "adde": 3300,
      "alarda": 3301,
      "mesine": 3302,
      "▁cok": 3303,
      "ını": 3304,
      "ası": 3305,
      "▁tec": 3306,
      "lamaya": 3307,
      "▁gosteri": 3308,
      "▁sor": 3309,
      "hi": 3310,
      "▁mevcut": 3311,
      "ligi": 3312,
      "esine": 3313,
      "▁gog": 3314,
      "▁ozgur": 3315,
      "▁doktor": 3316,
      "▁af": 3317,
      "▁tek": 3318,
      "▁r": 3319,
      "▁halinde": 3320,
      "▁cab": 3321,
      "▁haz": 3322,
      "▁ves": 3323,
      "▁dair": 3324,
      "▁kitap": 3325,
      "▁ya": 3326,
      "lılık": 3327,
      "▁ceb": 3328,
      "▁gece": 3329,
      "ni": 3330,
      "▁kez": 3331,
      "embe": 3332,
      "▁degil": 3333,
      "uru": 3334,
      "▁suya": 3335,
      "▁kasıgı": 3336,
      "ha": 3337,
      "ince": 3338,
      "▁odasına": 3339,
      "▁soyle": 3340,
      "▁kam": 3341,
      "isinin": 3342,
      "▁boyle": 3343,
      "▁kan": 3344,
      "▁ekim": 3345,
      "▁dak": 3346,
      "▁sag": 3347,
      "ligine": 3348,
      "eyim": 3349,
      "tarak": 3350,
      "▁pos": 3351,
      "▁nedeniyle": 3352,
      "▁denize": 3353,
      "(": 3354,
      "al": 3355,
      "▁hazır": 3356,
      "▁yapmaya": 3357,
      "dikleri": 3358,
      "▁yagmur": 3359,
      "▁savunma": 3360,
      "▁alb": 3361,
      "▁kodu": 3362,
      "ecegi": 3363,
      "▁kop": 3364,
      "erik": 3365,
      "▁olmadıgını": 3366,
      "▁kadının": 3367,
      "▁dususle": 3368,
      "▁kadını": 3369,
      "▁yay": 3370,
      "sur": 3371,
      "▁herhangi": 3372,
      "▁fatur": 3373,
      "▁etti": 3374,
      "▁ard": 3375,
      "▁tesisi": 3376,
      "▁inc": 3377,
      "mekt": 3378,
      "▁bakan": 3379,
      "▁karn": 3380,
      "▁adamları": 3381,
      "▁ulkenin": 3382,
      "▁dizi": 3383,
      "eg": 3384,
      "▁yor": 3385,
      "lıgını": 3386,
      "▁kalitesi": 3387,
      "▁depr": 3388,
      "▁devir": 3389,
      "uv": 3390,
      "▁arttı": 3391,
      "cısı": 3392,
      "▁dede": 3393,
      "esinin": 3394,
      "▁temmuz": 3395,
      "▁haval": 3396,
      "▁vuc": 3397,
      "▁sabah": 3398,
      "▁yiyecek": 3399,
      "▁sam": 3400,
      "sim": 3401,
      "inc": 3402,
      "dıktan": 3403,
      "▁talep": 3404,
      "ab": 3405,
      "mini": 3406,
      "▁numar": 3407,
      "ren": 3408,
      "▁olduk": 3409,
      "ayol": 3410,
      "▁city": 3411,
      "▁gem": 3412,
      "▁bası": 3413,
      "▁elektrik": 3414,
      "bir": 3415,
      "eleri": 3416,
      "▁kol": 3417,
      "▁sebep": 3418,
      "▁hukum": 3419,
      "bil": 3420,
      "▁belediye": 3421,
      "▁beklent": 3422,
      "4": 3423,
      "▁firması": 3424,
      "uf": 3425,
      "▁kayı": 3426,
      "▁ikinci": 3427,
      "▁bahc": 3428,
      "ator": 3429,
      "▁mil": 3430,
      "▁gay": 3431,
      "▁polis": 3432,
      "masının": 3433,
      "biy": 3434,
      "▁iy": 3435,
      "uzlu": 3436,
      "▁tarla": 3437,
      "▁iler": 3438,
      "▁aqu": 3439,
      "ima": 3440,
      "▁cocuklara": 3441,
      "▁cen": 3442,
      "▁baslan": 3443,
      "▁kusur": 3444,
      "aba": 3445,
      "7": 3446,
      "▁buraya": 3447,
      "▁program": 3448,
      "▁film": 3449,
      "▁tip": 3450,
      "▁isci": 3451,
      "▁ilgi": 3452,
      "gru": 3453,
      "leme": 3454,
      "▁phil": 3455,
      "▁10'dan": 3456,
      "▁yuv": 3457,
      "▁havuzu": 3458,
      "▁kamyon": 3459,
      "lastı": 3460,
      "▁rek": 3461,
      "▁sıcak": 3462,
      "▁arkasından": 3463,
      "sı": 3464,
      "stım": 3465,
      "▁sesleri": 3466,
      "istir": 3467,
      "aya": 3468,
      "▁parc": 3469,
      "▁telefon": 3470,
      "▁emek": 3471,
      "[MASK]": 3472,
      "▁ayakk": 3473,
      "▁tarihinde": 3474,
      "▁havayollarını": 3475,
      "▁buldu": 3476,
      "▁ustunde": 3477,
      "▁kis": 3478,
      "▁ailelere": 3479,
      "▁yanına": 3480,
      "▁fakat": 3481,
      "▁gul": 3482,
      "▁boston'dan": 3483,
      "▁kamu": 3484,
      "▁satısları": 3485,
      "dim": 3486,
      "gıt": 3487,
      "uktu": 3488,
      "▁yonet": 3489,
      "▁seye": 3490,
      "kil": 3491,
      "▁-": 3492,
      "▁ogrenmek": 3493,
      "▁cal": 3494,
      "▁elektr": 3495,
      "▁harekete": 3496,
      "▁seyden": 3497,
      "imizde": 3498,
      "▁bak": 3499,
      "▁yemeklerin": 3500,
      "▁bolg": 3501,
      "▁baltimore": 3502,
      "ekler": 3503,
      "▁memnun": 3504,
      "ede": 3505,
      "ısının": 3506,
      "▁tor": 3507,
      "▁cumhurb": 3508,
      "?": 3509,
      "▁sorunları": 3510,
      "▁gordum": 3511,
      "▁''": 3512,
      "▁sal": 3513,
      "sun": 3514,
      "sin": 3515,
      "▁servis": 3516,
      "el": 3517,
      "▁elinde": 3518,
      "▁day": 3519,
      "i": 3520,
      "▁i": 3521,
      "bi": 3522,
      "irdi": 3523,
      "▁masraf": 3524,
      "▁soh": 3525,
      "▁urun": 3526,
      "▁reklam": 3527,
      "▁odalari": 3528,
      "▁class": 3529,
      "meyi": 3530,
      "▁erkek": 3531,
      "▁mahalle": 3532,
      "ması": 3533,
      "▁ozellik": 3534,
      "yi": 3535,
      "▁sahn": 3536,
      "ri": 3537,
      "▁dos": 3538,
      "asi": 3539,
      "▁memleket": 3540,
      "iyorlar": 3541,
      "▁olanlar": 3542,
      "lav": 3543,
      "▁ber": 3544,
      "▁fik": 3545,
      "sat": 3546,
      "▁azdi": 3547,
      "eder": 3548,
      "▁ogle": 3549,
      "▁per": 3550,
      "▁ucusu": 3551,
      "▁fel": 3552,
      "_": 3553,
      "▁kar": 3554,
      "0'dan": 3555,
      "alarla": 3556,
      "s": 3557,
      "▁otob": 3558,
      "▁olmak": 3559,
      "▁!": 3560,
      "▁cıkar": 3561,
      "cılar": 3562,
      "▁sekret": 3563,
      "▁mı": 3564,
      "▁…": 3565,
      "▁cad": 3566,
      "▁dusunuyor": 3567,
      "▁om": 3568,
      "▁mezar": 3569,
      "▁toplum": 3570,
      "▁bey": 3571,
      "▁buyuk": 3572,
      "▁uz": 3573,
      "▁tam": 3574,
      "▁vet": 3575,
      "▁kahve": 3576,
      "▁proj": 3577,
      "▁boz": 3578,
      "▁karar": 3579,
      "▁degistir": 3580,
      "ugu": 3581,
      "▁yerini": 3582,
      "▁amma": 3583,
      "▁rezerv": 3584,
      "▁memur": 3585,
      "madik": 3586,
      "dir": 3587,
      "estir": 3588,
      "▁tiyatro": 3589,
      "siy": 3590,
      "f": 3591,
      "iyatr": 3592,
      "tıktan": 3593,
      "oyu": 3594,
      "▁bahs": 3595,
      "▁acık": 3596,
      "cek": 3597,
      "▁hali": 3598,
      "▁olur": 3599,
      "▁sigorta": 3600,
      "▁gibi": 3601,
      "▁cercev": 3602,
      "iligini": 3603,
      "▁guleryuzlu": 3604,
      "▁aln": 3605,
      "▁dir": 3606,
      "ib": 3607,
      "▁ediyor": 3608,
      "uslar": 3609,
      "▁davet": 3610,
      "sa": 3611,
      "▁meslek": 3612,
      "yacak": 3613,
      "▁gec": 3614,
      "abilecegini": 3615,
      "emiyor": 3616,
      "▁harek": 3617,
      "mesi": 3618,
      "emi": 3619,
      "gunluk": 3620,
      "▁calıs": 3621,
      "▁toplant": 3622,
      "ine": 3623,
      "iv": 3624,
      "▁demokr": 3625,
      "▁davran": 3626,
      "▁haber": 3627,
      "abilir": 3628,
      "▁kulak": 3629,
      "tiler": 3630,
      "▁havayolu": 3631,
      "▁sigort": 3632,
      "ara": 3633,
      "▁amac": 3634,
      "▁altına": 3635,
      "▁sohbet": 3636,
      "▁yuzu": 3637,
      "▁sıkıntı": 3638,
      "erlik": 3639,
      "ldi": 3640,
      "▁fiyatina": 3641,
      "▁actı": 3642,
      "▁araz": 3643,
      "\"": 3644,
      "▁ho": 3645,
      "▁yalnız": 3646,
      "hal": 3647,
      "a": 3648,
      "lemek": 3649,
      "▁oyn": 3650,
      "▁gore": 3651,
      "▁kagı": 3652,
      "▁ham": 3653,
      "gim": 3654,
      "▁masa": 3655,
      "▁takım": 3656,
      "ıga": 3657,
      "▁dusman": 3658,
      "▁olanakları": 3659,
      "▁calı": 3660,
      "ısından": 3661,
      "ht": 3662,
      "gıc": 3663,
      "▁havada": 3664,
      "▁limon": 3665,
      "▁toh": 3666,
      "▁m": 3667,
      "▁tuz": 3668,
      "▁hizm": 3669,
      "ıyla": 3670,
      "uyorum": 3671,
      "imen": 3672,
      "[UNK]": 3673,
      "▁uzun": 3674,
      "▁yazı": 3675,
      "▁politik": 3676,
      "▁konusunda": 3677,
      "▁ile": 3678,
      "enleri": 3679,
      "tiv": 3680,
      "▁ankete": 3681,
      "▁havaal": 3682,
      "▁rakip": 3683,
      "emli": 3684,
      "▁gunlerde": 3685,
      "▁ucrete": 3686,
      "▁sef": 3687,
      "▁ig": 3688,
      "▁arasına": 3689,
      "▁ve": 3690,
      "ebilir": 3691,
      "▁hesap": 3692,
      "▁begen": 3693,
      "▁bog": 3694,
      "▁vur": 3695,
      "ecilik": 3696,
      "a'nın": 3697,
      "elig": 3698,
      "▁sart": 3699,
      "▁ocak": 3700,
      "▁mode": 3701,
      "ork": 3702,
      "▁tahv": 3703,
      "▁cil": 3704,
      "▁/": 3705,
      "▁lezzet": 3706,
      "▁olmus": 3707,
      "▁yemeklerinden": 3708,
      "▁sikinti": 3709,
      "▁konumunu": 3710,
      "▁kazan": 3711,
      "6": 3712,
      "luluk": 3713,
      "alardan": 3714,
      "▁yemeklerden": 3715,
      "▁isini": 3716,
      "anın": 3717,
      "cegini": 3718,
      "▁numara": 3719,
      "▁varlık": 3720,
      "▁egitim": 3721,
      "▁yolunu": 3722,
      "▁g": 3723,
      "▁otel": 3724,
      "ıgını": 3725,
      "▁hatır": 3726,
      "▁duz": 3727,
      "uyor": 3728,
      "▁alıs": 3729,
      "▁lis": 3730,
      "▁yanında": 3731,
      "▁tes": 3732,
      "▁istiyorum": 3733,
      "ıklar": 3734,
      "▁gercek": 3735,
      "▁bana": 3736,
      "▁veril": 3737,
      "▁boyu": 3738,
      "gini": 3739,
      "▁havayollarının": 3740,
      "maları": 3741,
      "agından": 3742,
      "▁ic": 3743,
      "▁geliri": 3744,
      "▁delikan": 3745,
      "▁bur": 3746,
      "▁hukuk": 3747,
      "▁muzak": 3748,
      "pan": 3749,
      "▁kapandı": 3750,
      "▁gerekiyor": 3751,
      "▁kalmadim": 3752,
      "elir": 3753,
      "▁itibar": 3754,
      "▁ellerini": 3755,
      "▁bol": 3756,
      "▁sahip": 3757,
      "'ndan": 3758,
      "ıy": 3759,
      "ıcılar": 3760,
      "▁pan": 3761,
      "▁anlasma": 3762,
      "▁ver": 3763,
      "▁nefes": 3764,
      "▁havayolları": 3765,
      "om": 3766,
      "▁agz": 3767,
      "▁geliyor": 3768,
      "lerimizi": 3769,
      "ın": 3770,
      "edef": 3771,
      "inin": 3772,
      "▁met": 3773,
      "▁bin": 3774,
      "▁problem": 3775,
      "amaları": 3776,
      "▁yav": 3777,
      "ır": 3778,
      "▁ara": 3779,
      "▁az": 3780,
      "▁perform": 3781,
      "masın": 3782,
      "▁anlas": 3783,
      "▁yapar": 3784,
      "▁ail": 3785,
      "lıkta": 3786,
      "▁kal": 3787,
      "▁sac": 3788,
      "▁sokak": 3789,
      "asa": 3790,
      "ecek": 3791,
      "▁top": 3792,
      "▁kah": 3793,
      "▁odalar": 3794,
      "▁ilgil": 3795,
      "▁tan": 3796,
      "ens": 3797,
      "uc": 3798,
      "▁gelmis": 3799,
      "▁tamam": 3800,
      "▁faaliyet": 3801,
      "▁dom": 3802,
      "▁hamam": 3803,
      "▁kum": 3804,
      "alım": 3805,
      "▁new": 3806,
      "▁yapıl": 3807,
      "▁miktar": 3808,
      "ızı": 3809,
      "▁mola": 3810,
      "▁har": 3811,
      "▁gidi": 3812,
      "▁odan": 3813,
      "▁eg": 3814,
      "▁dunyaya": 3815,
      "▁durus": 3816,
      "▁sp": 3817,
      "▁degerlendir": 3818,
      "ar": 3819,
      "▁etme": 3820,
      "▁mak": 3821,
      "▁9": 3822,
      "ji": 3823,
      "▁199": 3824,
      "▁“": 3825,
      "▁uyk": 3826,
      "ınc": 3827,
      "uzluydu": 3828,
      "▁yarın": 3829,
      "▁ch": 3830,
      "cilik": 3831,
      "▁al": 3832,
      "8'de": 3833,
      "▁cam": 3834,
      "▁maliyeti": 3835,
      "tansiy": 3836,
      "▁ceyrekte": 3837,
      "angi": 3838,
      "▁konuyu": 3839,
      "▁su": 3840,
      "phia": 3841,
      "▁kov": 3842,
      "▁haline": 3843,
      "▁neler": 3844,
      "▁ucu": 3845,
      "▁esy": 3846,
      "▁beklenti": 3847,
      "▁pers": 3848,
      "▁icme": 3849,
      "▁yaln": 3850,
      "▁dısarı": 3851,
      "▁aktivit": 3852,
      "daki": 3853,
      "luk": 3854,
      "ask": 3855,
      "▁yeme": 3856,
      "▁kisi": 3857,
      "▁gorusme": 3858,
      "▁taz": 3859,
      "▁hus": 3860,
      "▁ikisi": 3861,
      "siniz": 3862,
      "▁ornek": 3863,
      "▁barıs": 3864,
      "▁zek": 3865,
      "▁sos": 3866,
      "n": 3867,
      "▁ticaret": 3868,
      "▁cih": 3869,
      "▁durumu": 3870,
      "▁pol": 3871,
      "▁sinir": 3872,
      "iyat": 3873,
      "▁halka": 3874,
      "▁satıslar": 3875,
      "▁fayda": 3876,
      "▁istem": 3877,
      "tig": 3878,
      "▁sayıda": 3879,
      "der": 3880,
      "esinde": 3881,
      "▁denver'den": 3882,
      "▁yayın": 3883,
      "'na": 3884,
      "▁edin": 3885,
      "▁cez": 3886,
      "▁karı": 3887,
      "hu": 3888,
      "▁icinde": 3889,
      "▁kalit": 3890,
      "▁parcası": 3891,
      "▁sekilde": 3892,
      "▁sonuclar": 3893,
      "▁bl": 3894,
      "▁itiraz": 3895,
      "▁ele": 3896,
      "▁fırsat": 3897,
      "liye": 3898,
      "unda": 3899,
      "▁kade": 3900,
      "▁toplan": 3901,
      "eki": 3902,
      "▁)": 3903,
      "▁alama": 3904,
      "▁insanı": 3905,
      "ti": 3906,
      "ic": 3907,
      "▁kork": 3908,
      "andan": 3909,
      "urdu": 3910,
      "▁politika": 3911,
      "lon": 3912,
      "▁yuksel": 3913,
      "anc": 3914,
      "▁kayn": 3915,
      "▁lut": 3916,
      "ob": 3917,
      "▁sem": 3918,
      "▁hukumetin": 3919,
      "▁kos": 3920,
      "▁to": 3921,
      "larıyla": 3922,
      "amı": 3923,
      "▁kavram": 3924,
      "▁yurtd": 3925,
      "▁prens": 3926,
      "▁e": 3927,
      "▁odaya": 3928,
      "arlar": 3929,
      "burg": 3930,
      "larına": 3931,
      "▁hisse": 3932,
      "▁deger": 3933,
      "▁tesisti": 3934,
      "▁veriyorum": 3935,
      "ıt": 3936,
      "▁nit": 3937,
      "▁cer": 3938,
      "▁kas": 3939,
      "▁karsılık": 3940,
      "▁zar": 3941,
      "▁senetleri": 3942,
      "▁zira": 3943,
      "▁ek": 3944,
      "▁c": 3945,
      "▁kısı": 3946,
      "▁gerc": 3947,
      "an": 3948,
      "lanı": 3949,
      "▁sektor": 3950,
      "asına": 3951,
      "dug": 3952,
      "​": 3953,
      "ag": 3954,
      "▁tahta": 3955,
      "▁endise": 3956,
      "▁tab": 3957,
      "▁gazet": 3958,
      "ıntı": 3959,
      "larımı": 3960,
      "▁gelen": 3961,
      "▁oakland": 3962,
      "c": 3963,
      "ts": 3964,
      "▁korum": 3965,
      "am": 3966,
      "sız": 3967,
      "▁nes": 3968,
      "▁personellerinden": 3969,
      "kac": 3970,
      "indi": 3971,
      "▁icecekler": 3972,
      "▁isin": 3973,
      "▁kurt": 3974,
      "▁dayan": 3975,
      "elere": 3976,
      "▁cevap": 3977,
      "akat": 3978,
      "▁olabilirdi": 3979,
      "int": 3980,
      "▁bicimde": 3981,
      "▁okum": 3982,
      "▁grubu": 3983,
      "erv": 3984,
      "cut": 3985,
      "ane": 3986,
      "▁eskiydi": 3987,
      "par": 3988,
      "▁lak": 3989,
      "ulmus": 3990,
      "▁baska": 3991,
      "▁ilgilendiler": 3992,
      "▁karsı": 3993,
      "ston": 3994,
      "▁bis": 3995,
      "▁japon": 3996,
      "▁yere": 3997,
      "▁ogretmen": 3998,
      "meye": 3999,
      "▁yuks": 4000,
      "▁tac": 4001,
      "‘": 4002,
      "▁gitti": 4003,
      "tıg": 4004,
      "▁hizmete": 4005,
      "▁indirim": 4006,
      "▁maz": 4007,
      "▁saat": 4008,
      "▁sorun": 4009,
      "▁nedenlerden": 4010,
      "▁animasyonlar": 4011,
      "eb": 4012,
      "▁kuz": 4013,
      "digi": 4014,
      "▁kadar": 4015,
      "▁yapım": 4016,
      "▁op": 4017,
      "iklik": 4018,
      "▁ilgiliydi": 4019,
      "ij": 4020,
      "ler": 4021,
      "ligin": 4022,
      "000": 4023,
      "▁fak": 4024,
      "▁birlik": 4025,
      "▁degisiklikler": 4026,
      "asır": 4027,
      "lerinin": 4028,
      "▁civarında": 4029,
      "masız": 4030,
      "▁on": 4031,
      "▁hava": 4032,
      "▁cars": 4033,
      "▁kahval": 4034,
      "▁red": 4035,
      "▁insana": 4036,
      "uluyor": 4037,
      "apon": 4038,
      "hur": 4039,
      "lamak": 4040,
      "▁philadel": 4041,
      "ecegim": 4042,
      "ter": 4043,
      "dugu": 4044,
      "ecekler": 4045,
      "▁ingil": 4046,
      "kel": 4047,
      "▁ih": 4048,
      "div": 4049,
      "men": 4050,
      "▁konf": 4051,
      "▁washington": 4052,
      "▁z": 4053,
      "luga": 4054,
      "▁anlam": 4055,
      "▁portfoy": 4056,
      "tin": 4057,
      "atı": 4058,
      "enler": 4059,
      "h": 4060,
      "▁odadan": 4061,
      "lendi": 4062,
      "▁bank": 4063,
      "▁diye": 4064,
      "▁atlanta'ya": 4065,
      "▁yıllık": 4066,
      "▁kır": 4067,
      "▁tane": 4068,
      "▁biraz": 4069,
      "▁potansiy": 4070,
      "▁geriye": 4071,
      "▁araya": 4072,
      "▁hes": 4073,
      "▁mis": 4074,
      "▁calisanlar": 4075,
      "land": 4076,
      "▁bayan": 4077,
      "▁gol": 4078,
      "▁mahk": 4079,
      "tir": 4080,
      "▁kaldim": 4081,
      "▁bor": 4082,
      "▁oyunu": 4083,
      "acılık": 4084,
      "rada": 4085,
      "▁gok": 4086,
      "▁far": 4087,
      "▁port": 4088,
      "▁soy": 4089,
      "▁ihtiyacı": 4090,
      "▁cep": 4091,
      "isco": 4092,
      "▁kuc": 4093,
      "▁insaat": 4094,
      "▁duygu": 4095
    },
    "merges": [
      [
        "▁am",
        "erik"
      ],
      [
        "an",
        "lar"
      ],
      [
        "a",
        "sı"
      ],
      [
        "▁ha",
        "f"
      ],
      [
        "▁o",
        "l"
      ],
      [
        "▁kar",
        "ak"
      ],
      [
        "▁kars",
        "ıl"
      ],
      [
        "ar",
        "ı"
      ],
      [
        "▁ev",
        "ine"
      ],
      [
        "▁ak",
        "ıl"
      ],
      [
        "▁dallas",
        "'a"
      ],
      [
        "▁po",
        "lit"
      ],
      [
        "ol",
        "a"
      ],
      [
        "▁duny",
        "anın"
      ],
      [
        "len",
        "di"
      ],
      [
        "▁do",
        "s"
      ],
      [
        "c",
        "ılıg"
      ],
      [
        "▁",
        "m"
      ],
      [
        "b",
        "ul"
      ],
      [
        "▁n",
        "um"
      ],
      [
        "▁s",
        "av"
      ],
      [
        "▁h",
        "ab"
      ],
      [
        "▁sig",
        "orta"
      ],
      [
        "t",
        "ıs"
      ],
      [
        "▁t",
        "enc"
      ],
      [
        "▁c",
        "es"
      ],
      [
        "▁s",
        "i"
      ],
      [
        "d",
        "i"
      ],
      [
        "▁t",
        "ab"
      ],
      [
        "▁son",
        "a"
      ],
      [
        "an",
        "d"
      ],
      [
        "▁sp",
        "or"
      ],
      [
        "ilen",
        "dir"
      ],
      [
        "▁al",
        "ır"
      ],
      [
        "g",
        "isi"
      ],
      [
        "▁tar",
        "la"
      ],
      [
        "o",
        "s"
      ],
      [
        "▁devr",
        "alma"
      ],
      [
        "em",
        "ez"
      ],
      [
        "is",
        "ini"
      ],
      [
        "▁..",
        "."
      ],
      [
        "▁bul",
        "un"
      ],
      [
        "la",
        "r"
      ],
      [
        "lıg",
        "ını"
      ],
      [
        "▁ol",
        "um"
      ],
      [
        "▁f",
        "ut"
      ],
      [
        "▁inter",
        "net"
      ],
      [
        "a",
        "larının"
      ],
      [
        "▁p",
        "it"
      ],
      [
        "▁kosul",
        "ları"
      ],
      [
        "▁in",
        "dir"
      ],
      [
        "▁h",
        "er"
      ],
      [
        "'",
        "tan"
      ],
      [
        "▁ol",
        "uyor"
      ],
      [
        "▁gorun",
        "uyor"
      ],
      [
        "▁ad",
        "ım"
      ],
      [
        "▁dur",
        "um"
      ],
      [
        "▁c",
        "iz"
      ],
      [
        "eg",
        "in"
      ],
      [
        "▁",
        "z"
      ],
      [
        "▁it",
        "hal"
      ],
      [
        "▁bank",
        "ası"
      ],
      [
        "han",
        "e"
      ],
      [
        "'t",
        "en"
      ],
      [
        "▁soy",
        "l"
      ],
      [
        "▁tep",
        "ki"
      ],
      [
        "▁a",
        "y"
      ],
      [
        "▁gec",
        "en"
      ],
      [
        "em",
        "edi"
      ],
      [
        "an",
        "ti"
      ],
      [
        "▁ust",
        "u"
      ],
      [
        "▁ha",
        "l"
      ],
      [
        "▁b",
        "uz"
      ],
      [
        "▁k",
        "uf"
      ],
      [
        "▁bo",
        "z"
      ],
      [
        "▁y",
        "er"
      ],
      [
        "▁ya",
        "s"
      ],
      [
        "▁on",
        "u"
      ],
      [
        "▁k",
        "el"
      ],
      [
        "▁gun",
        "ler"
      ],
      [
        "▁ist",
        "asyon"
      ],
      [
        "▁hal",
        "ine"
      ],
      [
        "▁sorum",
        "luluk"
      ],
      [
        "▁og",
        "len"
      ],
      [
        "▁",
        "do"
      ],
      [
        "▁rah",
        "at"
      ],
      [
        "▁k",
        "om"
      ],
      [
        "ist",
        "en"
      ],
      [
        "ma",
        "kt"
      ],
      [
        "▁n",
        "e"
      ],
      [
        "▁adam",
        "ı"
      ],
      [
        "▁ger",
        "c"
      ],
      [
        "▁on",
        "a"
      ],
      [
        "▁y",
        "il"
      ],
      [
        "▁fir",
        "st"
      ],
      [
        "▁denver",
        "'e"
      ],
      [
        "a",
        "rı"
      ],
      [
        "c",
        "ı"
      ],
      [
        "ay",
        "et"
      ],
      [
        "▁p",
        "il"
      ],
      [
        "k",
        "et"
      ],
      [
        "▁",
        "r"
      ],
      [
        "▁",
        "la"
      ],
      [
        "▁g",
        "irdi"
      ],
      [
        "▁kan",
        "un"
      ],
      [
        "▁a",
        "d"
      ],
      [
        "▁",
        "ha"
      ],
      [
        "▁kahv",
        "e"
      ],
      [
        "al",
        "t"
      ],
      [
        "▁sen",
        "d"
      ],
      [
        "tı",
        "k"
      ],
      [
        "▁t",
        "ip"
      ],
      [
        "▁pittsburgh",
        "'tan"
      ],
      [
        "▁fak",
        "at"
      ],
      [
        "ey",
        "n"
      ],
      [
        "ar",
        "da"
      ],
      [
        "▁etti",
        "m"
      ],
      [
        "▁gel",
        "mis"
      ],
      [
        "▁ar",
        "ttı"
      ],
      [
        "▁i",
        "h"
      ],
      [
        "▁",
        "id"
      ],
      [
        "▁yol",
        "cul"
      ],
      [
        "b",
        "ar"
      ],
      [
        "a",
        "cı"
      ],
      [
        "▁on",
        "un"
      ],
      [
        "t",
        "ig"
      ],
      [
        "▁en",
        "gel"
      ],
      [
        "▁personel",
        "lerinden"
      ],
      [
        "▁mas",
        "anın"
      ],
      [
        "▁si",
        "z"
      ],
      [
        "▁a",
        "det"
      ],
      [
        "▁b",
        "ur"
      ],
      [
        "g",
        "ı"
      ],
      [
        "▁kar",
        "des"
      ],
      [
        "▁t",
        "el"
      ],
      [
        "uy",
        "e"
      ],
      [
        "ul",
        "du"
      ],
      [
        "▁o",
        "larak"
      ],
      [
        "ler",
        "den"
      ],
      [
        "▁el",
        "de"
      ],
      [
        "▁def",
        "a"
      ],
      [
        "▁fay",
        "da"
      ],
      [
        "▁a",
        "ir"
      ],
      [
        "lerin",
        "e"
      ],
      [
        "umuz",
        "de"
      ],
      [
        "▁bi",
        "z"
      ],
      [
        "▁z",
        "or"
      ],
      [
        "▁kos",
        "ul"
      ],
      [
        "e",
        "z"
      ],
      [
        "▁kims",
        "e"
      ],
      [
        "▁b",
        "oz"
      ],
      [
        "▁gun",
        "un"
      ],
      [
        "▁orta",
        "lama"
      ],
      [
        "▁kam",
        "yon"
      ],
      [
        "▁kav",
        "g"
      ],
      [
        "▁yardım",
        "cısı"
      ],
      [
        "us",
        "tur"
      ],
      [
        "▁ucret",
        "leri"
      ],
      [
        "▁du",
        "k"
      ],
      [
        "▁de",
        "de"
      ],
      [
        "▁et",
        "tigini"
      ],
      [
        "▁",
        "/"
      ],
      [
        "le",
        "m"
      ],
      [
        "▁deniz",
        "e"
      ],
      [
        "▁o",
        "ak"
      ],
      [
        "▁ka",
        "y"
      ],
      [
        "imiz",
        "e"
      ],
      [
        "l",
        "iye"
      ],
      [
        "▁al",
        "acak"
      ],
      [
        "▁l",
        "am"
      ],
      [
        "▁begen",
        "medim"
      ],
      [
        "▁d",
        "eger"
      ],
      [
        "▁gerek",
        "iyor"
      ],
      [
        "▁dav",
        "et"
      ],
      [
        "▁ar",
        "ada"
      ],
      [
        "▁doları",
        "'na"
      ],
      [
        "▁olac",
        "agını"
      ],
      [
        "ıl",
        "mıs"
      ],
      [
        "iz",
        "m"
      ],
      [
        "▁imk",
        "anlar"
      ],
      [
        "▁sor",
        "um"
      ],
      [
        "▁lezz",
        "et"
      ],
      [
        "▁sig",
        "ort"
      ],
      [
        "m",
        "e"
      ],
      [
        "▁d",
        "ar"
      ],
      [
        "▁el",
        "i"
      ],
      [
        "▁di",
        "p"
      ],
      [
        "▁bi",
        "r"
      ],
      [
        "▁amerik",
        "alı"
      ],
      [
        "▁b",
        "acak"
      ],
      [
        "▁tav",
        "uk"
      ],
      [
        "as",
        "h"
      ],
      [
        "▁orta",
        "dan"
      ],
      [
        "▁fa",
        "al"
      ],
      [
        "▁oy",
        "un"
      ],
      [
        "▁onun",
        "e"
      ],
      [
        "▁bir",
        "az"
      ],
      [
        "in",
        "ce"
      ],
      [
        "▁ge",
        "ce"
      ],
      [
        "▁",
        "uz"
      ],
      [
        "▁gel",
        "ir"
      ],
      [
        "▁kon",
        "usu"
      ],
      [
        "▁k",
        "is"
      ],
      [
        "r",
        "az"
      ],
      [
        "▁...",
        "\""
      ],
      [
        "▁ka",
        "d"
      ],
      [
        "▁to",
        "p"
      ],
      [
        "▁kal",
        "ab"
      ],
      [
        "▁sen",
        "etleri"
      ],
      [
        "eg",
        "i"
      ],
      [
        "▁ag",
        "ız"
      ],
      [
        "▁lut",
        "fen"
      ],
      [
        "lıg",
        "ına"
      ],
      [
        "▁rek",
        "or"
      ],
      [
        "▁kor",
        "ku"
      ],
      [
        "▁c",
        "ars"
      ],
      [
        "▁ka",
        "b"
      ],
      [
        "▁piyas",
        "ada"
      ],
      [
        "▁f",
        "akat"
      ],
      [
        "▁sat",
        "ın"
      ],
      [
        "▁ust",
        "une"
      ],
      [
        "▁m",
        "ı"
      ],
      [
        "▁c",
        "in"
      ],
      [
        "▁bil",
        "im"
      ],
      [
        "▁on",
        "une"
      ],
      [
        "▁yaklas",
        "imi"
      ],
      [
        "▁co",
        "gu"
      ],
      [
        "d",
        "ı"
      ],
      [
        "ı",
        "yor"
      ],
      [
        "▁ko",
        "m"
      ],
      [
        "▁v",
        "ad"
      ],
      [
        "▁men",
        "kul"
      ],
      [
        "▁sef",
        "er"
      ],
      [
        "▁nok",
        "t"
      ],
      [
        "▁mev",
        "z"
      ],
      [
        "▁it",
        "ibar"
      ],
      [
        "ın",
        "ın"
      ],
      [
        "▁mem",
        "nun"
      ],
      [
        "▁bas",
        "ta"
      ],
      [
        "▁dal",
        "g"
      ],
      [
        "▁bun",
        "u"
      ],
      [
        "il",
        "di"
      ],
      [
        "▁uy",
        "gun"
      ],
      [
        "le",
        "r"
      ],
      [
        "▁el",
        "inde"
      ],
      [
        "▁ur",
        "et"
      ],
      [
        "y",
        "la"
      ],
      [
        "k",
        "ar"
      ],
      [
        "▁kal",
        "b"
      ],
      [
        "▁t",
        "oh"
      ],
      [
        "ad",
        "a"
      ],
      [
        "um",
        "uz"
      ],
      [
        "ar",
        "ın"
      ],
      [
        "▁kus",
        "ur"
      ],
      [
        "▁kit",
        "ab"
      ],
      [
        "▁yo",
        "ksa"
      ],
      [
        "d",
        "ık"
      ],
      [
        "is",
        "ine"
      ],
      [
        "dı",
        "gın"
      ],
      [
        "ma",
        "lar"
      ],
      [
        "el",
        "ik"
      ],
      [
        "▁i",
        "de"
      ],
      [
        "▁alt",
        "ına"
      ],
      [
        "▁",
        "ur"
      ],
      [
        "▁den",
        "ey"
      ],
      [
        "lan",
        "d"
      ],
      [
        "▁k",
        "az"
      ],
      [
        "▁ay",
        "lık"
      ],
      [
        "▁s",
        "ap"
      ],
      [
        "▁soy",
        "ley"
      ],
      [
        "tır",
        "mak"
      ],
      [
        "▁?",
        ".."
      ],
      [
        "▁kal",
        "dim"
      ],
      [
        "l",
        "emek"
      ],
      [
        "▁kuv",
        "v"
      ],
      [
        "ı",
        "dır"
      ],
      [
        "ıg",
        "ı"
      ],
      [
        "▁e",
        "z"
      ],
      [
        "▁og",
        "le"
      ],
      [
        "▁g",
        "em"
      ],
      [
        "est",
        "i"
      ],
      [
        "▁i",
        "s"
      ],
      [
        "▁mey",
        "dan"
      ],
      [
        "▁or",
        "t"
      ],
      [
        "▁beg",
        "en"
      ],
      [
        "▁malz",
        "em"
      ],
      [
        "▁acık",
        "lam"
      ],
      [
        "u",
        "ktu"
      ],
      [
        "▁per",
        "de"
      ],
      [
        "▁fel",
        "aket"
      ],
      [
        "▁gorus",
        "uldu"
      ],
      [
        "▁erk",
        "en"
      ],
      [
        "cı",
        "ları"
      ],
      [
        "▁duy",
        "gu"
      ],
      [
        "▁anlam",
        "a"
      ],
      [
        "t",
        "ay"
      ],
      [
        "▁g",
        "uc"
      ],
      [
        "t",
        "ı"
      ],
      [
        "mas",
        "ız"
      ],
      [
        "▁kar",
        "a"
      ],
      [
        "▁kar",
        "t"
      ],
      [
        "b",
        "e"
      ],
      [
        "de",
        "t"
      ],
      [
        "m",
        "an"
      ],
      [
        "▁ic",
        "ra"
      ],
      [
        "d",
        "am"
      ],
      [
        "a",
        "z"
      ],
      [
        "▁cık",
        "tı"
      ],
      [
        "▁ogr",
        "en"
      ],
      [
        "▁a",
        "m"
      ],
      [
        "▁ko",
        "l"
      ],
      [
        "▁deg",
        "er"
      ],
      [
        "▁sa",
        "n"
      ],
      [
        "▁kalab",
        "alık"
      ],
      [
        "▁",
        "ge"
      ],
      [
        "▁sade",
        "ce"
      ],
      [
        "t",
        "ık"
      ],
      [
        "▁a",
        "f"
      ],
      [
        "ı",
        "t"
      ],
      [
        "▁d",
        "eg"
      ],
      [
        "▁ko",
        "r"
      ],
      [
        "ıy",
        "la"
      ],
      [
        "ad",
        "de"
      ],
      [
        "id",
        "i"
      ],
      [
        ".",
        "5"
      ],
      [
        "m",
        "al"
      ],
      [
        "▁sah",
        "ip"
      ],
      [
        "▁h",
        "az"
      ],
      [
        "'n",
        "de"
      ],
      [
        "▁aktiv",
        "ite"
      ],
      [
        "▁k",
        "isinin"
      ],
      [
        "▁oldug",
        "una"
      ],
      [
        "ok",
        "r"
      ],
      [
        "▁",
        "mes"
      ],
      [
        "▁kad",
        "ar"
      ],
      [
        "s",
        "el"
      ],
      [
        "▁1",
        "0'dan"
      ],
      [
        "▁bil",
        "e"
      ],
      [
        "▁se",
        "k"
      ],
      [
        "im",
        "iz"
      ],
      [
        "▁",
        "di"
      ],
      [
        "▁katil",
        "mak"
      ],
      [
        "eli",
        "k"
      ],
      [
        "lam",
        "aya"
      ],
      [
        "▁personel",
        "ler"
      ],
      [
        "ar",
        "dı"
      ],
      [
        "ecek",
        "ler"
      ],
      [
        "e",
        "gi"
      ],
      [
        "▁s",
        "ar"
      ],
      [
        "▁am",
        "ma"
      ],
      [
        "▁ıs",
        "rar"
      ],
      [
        "▁yar",
        "gıc"
      ],
      [
        "y",
        "uz"
      ],
      [
        "▁do",
        "k"
      ],
      [
        "▁rak",
        "ip"
      ],
      [
        "g",
        "um"
      ],
      [
        "▁an",
        "lay"
      ],
      [
        "▁kam",
        "u"
      ],
      [
        "en",
        "k"
      ],
      [
        "▁arastır",
        "ma"
      ],
      [
        "▁gor",
        "ev"
      ],
      [
        "▁g",
        "um"
      ],
      [
        "▁d",
        "e"
      ],
      [
        "▁in",
        "ter"
      ],
      [
        "▁f",
        "orm"
      ],
      [
        "o",
        "k"
      ],
      [
        "lul",
        "uk"
      ],
      [
        "▁pol",
        "is"
      ],
      [
        "▁m",
        "em"
      ],
      [
        "▁k",
        "en"
      ],
      [
        "it",
        "r"
      ],
      [
        "▁ge",
        "z"
      ],
      [
        "ib",
        "ar"
      ],
      [
        "▁uy",
        "k"
      ],
      [
        "g",
        "ın"
      ],
      [
        "▁s",
        "em"
      ],
      [
        "▁is",
        "k"
      ],
      [
        "r",
        "ak"
      ],
      [
        "▁dedi",
        "m"
      ],
      [
        "▁a",
        "l"
      ],
      [
        "▁da",
        "ir"
      ],
      [
        "▁hukum",
        "eti"
      ],
      [
        "▁m",
        "uc"
      ],
      [
        "▁yap",
        "rak"
      ],
      [
        "▁bolg",
        "e"
      ],
      [
        "▁b",
        "on"
      ],
      [
        "▁a",
        "la"
      ],
      [
        "l",
        "ak"
      ],
      [
        "la",
        "stı"
      ],
      [
        "▁z",
        "ir"
      ],
      [
        "▁s",
        "uc"
      ],
      [
        "▁n",
        "eler"
      ],
      [
        "▁dar",
        "b"
      ],
      [
        "er",
        "ik"
      ],
      [
        "▁gun",
        "duz"
      ],
      [
        "▁kim",
        "s"
      ],
      [
        "▁alısver",
        "is"
      ],
      [
        "ı",
        "s"
      ],
      [
        "ma",
        "dik"
      ],
      [
        "▁",
        "h"
      ],
      [
        "lık",
        "ta"
      ],
      [
        "b",
        "an"
      ],
      [
        "▁ya",
        "k"
      ],
      [
        "▁l",
        "ok"
      ],
      [
        "▁edi",
        "yor"
      ],
      [
        "h",
        "e"
      ],
      [
        "▁bas",
        "lan"
      ],
      [
        "▁ka",
        "f"
      ],
      [
        "iy",
        "le"
      ],
      [
        "▁tek",
        "rar"
      ],
      [
        "▁d",
        "ısı"
      ],
      [
        "▁p",
        "r"
      ],
      [
        "▁uc",
        "us"
      ],
      [
        "▁dem",
        "ek"
      ],
      [
        "▁p",
        "la"
      ],
      [
        "ar",
        "lan"
      ],
      [
        "e",
        "di"
      ],
      [
        "l",
        "es"
      ],
      [
        "▁zaman",
        "larda"
      ],
      [
        "el",
        "en"
      ],
      [
        "▁da",
        "mak"
      ],
      [
        "▁b",
        "alt"
      ],
      [
        "▁d",
        "or"
      ],
      [
        "i",
        "yor"
      ],
      [
        "▁al",
        "ıs"
      ],
      [
        "▁g",
        "ok"
      ],
      [
        "n",
        "cak"
      ],
      [
        "▁ail",
        "e"
      ],
      [
        "▁dok",
        "tor"
      ],
      [
        "▁",
        "ust"
      ],
      [
        "▁han",
        "ım"
      ],
      [
        "▁b",
        "o"
      ],
      [
        "▁y",
        "en"
      ],
      [
        "at",
        "ur"
      ],
      [
        "▁yıl",
        "da"
      ],
      [
        "m",
        "ini"
      ],
      [
        "▁u",
        "s"
      ],
      [
        "▁ener",
        "ji"
      ],
      [
        "g",
        "ah"
      ],
      [
        "s",
        "ik"
      ],
      [
        "▁yard",
        "imci"
      ],
      [
        "ab",
        "a"
      ],
      [
        "▁j",
        "apon"
      ],
      [
        "▁og",
        "ret"
      ],
      [
        "d",
        "eki"
      ],
      [
        "▁m",
        "as"
      ],
      [
        "▁",
        "le"
      ],
      [
        "▁f",
        "ark"
      ],
      [
        "▁gi",
        "di"
      ],
      [
        "▁heyec",
        "an"
      ],
      [
        "▁ac",
        "ı"
      ],
      [
        "▁telef",
        "on"
      ],
      [
        "▁odam",
        "iz"
      ],
      [
        "▁yar",
        "ın"
      ],
      [
        "k",
        "ah"
      ],
      [
        "▁yan",
        "dan"
      ],
      [
        "▁islem",
        "lerinde"
      ],
      [
        "▁zam",
        "anı"
      ],
      [
        "▁tesekkur",
        "ler"
      ],
      [
        "▁",
        "p"
      ],
      [
        "s",
        "iye"
      ],
      [
        "▁se",
        "c"
      ],
      [
        "▁sov",
        "yet"
      ],
      [
        "▁sozc",
        "usu"
      ],
      [
        "▁dost",
        "u"
      ],
      [
        "men",
        "in"
      ],
      [
        "▁s",
        "ın"
      ],
      [
        "▁",
        "g"
      ],
      [
        "▁oldu",
        "g"
      ],
      [
        "▁ac",
        "ık"
      ],
      [
        "▁en",
        "d"
      ],
      [
        "▁mas",
        "raf"
      ],
      [
        "y",
        "di"
      ],
      [
        "▁ka",
        "l"
      ],
      [
        "lig",
        "e"
      ],
      [
        "▁ayakk",
        "abı"
      ],
      [
        "▁rom",
        "an"
      ],
      [
        "ci",
        "ler"
      ],
      [
        "e",
        "h"
      ],
      [
        "▁d",
        "al"
      ],
      [
        "▁zir",
        "a"
      ],
      [
        "▁kah",
        "v"
      ],
      [
        "▁mak",
        "al"
      ],
      [
        "▁bo",
        "g"
      ],
      [
        "▁og",
        "lum"
      ],
      [
        "▁cesit",
        "leri"
      ],
      [
        "ma",
        "m"
      ],
      [
        "▁uy",
        "um"
      ],
      [
        "▁personel",
        "i"
      ],
      [
        "▁t",
        "ak"
      ],
      [
        "▁halk",
        "a"
      ],
      [
        "▁son",
        "uc"
      ],
      [
        "▁gru",
        "p"
      ],
      [
        "▁t",
        "ucc"
      ],
      [
        "▁olma",
        "dıgını"
      ],
      [
        "o",
        "c"
      ],
      [
        "end",
        "e"
      ],
      [
        "▁r",
        "enk"
      ],
      [
        "▁akt",
        "ar"
      ],
      [
        "▁k",
        "ıl"
      ],
      [
        "▁yok",
        "sa"
      ],
      [
        "▁b",
        "at"
      ],
      [
        "i",
        "t"
      ],
      [
        "▁s",
        "e"
      ],
      [
        "▁de",
        "v"
      ],
      [
        "h",
        "an"
      ],
      [
        "g",
        "ru"
      ],
      [
        "▁",
        "on"
      ],
      [
        "▁deg",
        "is"
      ],
      [
        "ıg",
        "ın"
      ],
      [
        "▁rek",
        "abet"
      ],
      [
        "▁ayak",
        "k"
      ],
      [
        "▁im",
        "kan"
      ],
      [
        "▁bo",
        "ston"
      ],
      [
        "▁ik",
        "isi"
      ],
      [
        "▁g",
        "ru"
      ],
      [
        "b",
        "il"
      ],
      [
        "▁y",
        "uz"
      ],
      [
        "▁hakk",
        "ı"
      ],
      [
        "▁hey",
        "ec"
      ],
      [
        "▁ilg",
        "ili"
      ],
      [
        "▁fır",
        "sat"
      ],
      [
        "▁tes",
        "isti"
      ],
      [
        "▁sar",
        "k"
      ],
      [
        "ı",
        "gı"
      ],
      [
        "▁or",
        "man"
      ],
      [
        "▁el",
        "em"
      ],
      [
        "▁s",
        "ok"
      ],
      [
        "▁",
        "unu"
      ],
      [
        "▁yemek",
        "ler"
      ],
      [
        "▁ticaret",
        "te"
      ],
      [
        "al",
        "ar"
      ],
      [
        "us",
        "unu"
      ],
      [
        "▁a",
        "ma"
      ],
      [
        "▁n",
        "iyet"
      ],
      [
        "er",
        "lik"
      ],
      [
        "▁t",
        "es"
      ],
      [
        "h",
        "al"
      ],
      [
        "▁ed",
        "il"
      ],
      [
        "▁ins",
        "a"
      ],
      [
        "uz",
        "luydu"
      ],
      [
        "▁m",
        "ey"
      ],
      [
        "▁bi",
        "le"
      ],
      [
        "▁on",
        "em"
      ],
      [
        "▁da",
        "m"
      ],
      [
        "im",
        "a"
      ],
      [
        "▁tah",
        "v"
      ],
      [
        "▁m",
        "ah"
      ],
      [
        "r",
        "ken"
      ],
      [
        "▁in",
        "anc"
      ],
      [
        "▁e",
        "di"
      ],
      [
        "▁s",
        "ah"
      ],
      [
        "ug",
        "una"
      ],
      [
        "▁mal",
        "iyet"
      ],
      [
        "ar",
        "ında"
      ],
      [
        "ul",
        "t"
      ],
      [
        "m",
        "eye"
      ],
      [
        "▁send",
        "ika"
      ],
      [
        "em",
        "em"
      ],
      [
        "▁",
        "dı"
      ],
      [
        "▁uy",
        "e"
      ],
      [
        "is",
        "yon"
      ],
      [
        "▁1",
        "2"
      ],
      [
        "▁bas",
        "bak"
      ],
      [
        "▁d",
        "uv"
      ],
      [
        "▁olan",
        "lar"
      ],
      [
        "ca",
        "k"
      ],
      [
        "▁",
        "ne"
      ],
      [
        "▁is",
        "e"
      ],
      [
        "▁",
        "alt"
      ],
      [
        "▁n",
        "edir"
      ],
      [
        "'y",
        "e"
      ],
      [
        "0",
        "0'"
      ],
      [
        "▁balt",
        "imore"
      ],
      [
        "▁yap",
        "ti"
      ],
      [
        "▁m",
        "ek"
      ],
      [
        "▁mot",
        "or"
      ],
      [
        "len",
        "dir"
      ],
      [
        "▁b",
        "ugun"
      ],
      [
        "▁s",
        "ek"
      ],
      [
        "▁mily",
        "ardan"
      ],
      [
        "▁ozel",
        "lik"
      ],
      [
        "▁",
        "o"
      ],
      [
        "▁dak",
        "ika"
      ],
      [
        "▁tez",
        "gah"
      ],
      [
        "▁mer",
        "k"
      ],
      [
        "i",
        "de"
      ],
      [
        "▁",
        ";"
      ],
      [
        "▁un",
        "ut"
      ],
      [
        "▁y",
        "ur"
      ],
      [
        "di",
        "r"
      ],
      [
        "▁y",
        "ıl"
      ],
      [
        "▁oda",
        "dan"
      ],
      [
        "▁r",
        "ez"
      ],
      [
        "▁g",
        "ucu"
      ],
      [
        "▁tav",
        "ır"
      ],
      [
        "ed",
        "igini"
      ],
      [
        "▁d",
        "il"
      ],
      [
        "ra",
        "z"
      ],
      [
        "▁s",
        "or"
      ],
      [
        "▁olma",
        "lı"
      ],
      [
        "gi",
        "n"
      ],
      [
        "a",
        "larına"
      ],
      [
        "▁",
        "&"
      ],
      [
        "eceg",
        "ini"
      ],
      [
        "il",
        "ig"
      ],
      [
        "i",
        "s"
      ],
      [
        "y",
        "le"
      ],
      [
        "▁ter",
        "s"
      ],
      [
        "▁sa",
        "b"
      ],
      [
        "▁sabah",
        "ı"
      ],
      [
        "lama",
        "ya"
      ],
      [
        "▁i",
        "k"
      ],
      [
        "▁",
        "4"
      ],
      [
        "gun",
        "luk"
      ],
      [
        "▁c",
        "ık"
      ],
      [
        "iy",
        "at"
      ],
      [
        "▁p",
        "oz"
      ],
      [
        "anı",
        "t"
      ],
      [
        "▁kum",
        "as"
      ],
      [
        "▁a",
        "ile"
      ],
      [
        "▁b",
        "os"
      ],
      [
        "▁belir",
        "t"
      ],
      [
        "▁da",
        "l"
      ],
      [
        "▁uygul",
        "ama"
      ],
      [
        "▁c",
        "ap"
      ],
      [
        "▁yap",
        "mak"
      ],
      [
        "▁mal",
        "z"
      ],
      [
        "le",
        "g"
      ],
      [
        "g",
        "er"
      ],
      [
        "▁yay",
        "ın"
      ],
      [
        "▁kas",
        "ab"
      ],
      [
        "▁ol",
        "du"
      ],
      [
        "▁m",
        "uh"
      ],
      [
        "▁de",
        "n"
      ],
      [
        "▁g",
        "er"
      ],
      [
        "▁sist",
        "em"
      ],
      [
        "lan",
        "ır"
      ],
      [
        "ra",
        "r"
      ],
      [
        "e",
        "de"
      ],
      [
        "▁duz",
        "en"
      ],
      [
        "▁otel",
        "den"
      ],
      [
        "asın",
        "a"
      ],
      [
        "a",
        "h"
      ],
      [
        "▁",
        "us"
      ],
      [
        "▁ist",
        "e"
      ],
      [
        "▁u",
        "cu"
      ],
      [
        "▁end",
        "ust"
      ],
      [
        "▁",
        "*"
      ],
      [
        "l",
        "edi"
      ],
      [
        "r",
        "u"
      ],
      [
        "c",
        "ag"
      ],
      [
        "st",
        "ır"
      ],
      [
        "in",
        "di"
      ],
      [
        "▁",
        "at"
      ],
      [
        "b",
        "urg"
      ],
      [
        "▁c",
        "am"
      ],
      [
        "e",
        "s"
      ],
      [
        "t",
        "ıg"
      ],
      [
        "▁kad",
        "ını"
      ],
      [
        "mas",
        "ı"
      ],
      [
        "▁dus",
        "uk"
      ],
      [
        "▁sof",
        "r"
      ],
      [
        "▁b",
        "ol"
      ],
      [
        "▁mahkem",
        "esi"
      ],
      [
        "▁son",
        "bah"
      ],
      [
        "lı",
        "k"
      ],
      [
        "'",
        "d"
      ],
      [
        "▁hav",
        "ayol"
      ],
      [
        "'de",
        "n"
      ],
      [
        "ey",
        "az"
      ],
      [
        "▁ol",
        "ustur"
      ],
      [
        "r",
        "a"
      ],
      [
        "im",
        "i"
      ],
      [
        "▁vak",
        "it"
      ],
      [
        "▁s",
        "ev"
      ],
      [
        "y",
        "on"
      ],
      [
        "▁ic",
        "ine"
      ],
      [
        "▁k",
        "uy"
      ],
      [
        "▁a",
        "ncak"
      ],
      [
        "▁reh",
        "ber"
      ],
      [
        "▁k",
        "ars"
      ],
      [
        "▁za",
        "man"
      ],
      [
        "▁s",
        "ını"
      ],
      [
        "▁so",
        "s"
      ],
      [
        "▁kon",
        "us"
      ],
      [
        "▁aktiv",
        "it"
      ],
      [
        "am",
        "ız"
      ],
      [
        "l",
        "a"
      ],
      [
        "d",
        "igim"
      ],
      [
        "▁dolar",
        "dan"
      ],
      [
        "▁fut",
        "bol"
      ],
      [
        "▁el",
        "e"
      ],
      [
        "▁duny",
        "ada"
      ],
      [
        "▁cez",
        "a"
      ],
      [
        "▁k",
        "op"
      ],
      [
        "▁gaz",
        "et"
      ],
      [
        "ad",
        "ar"
      ],
      [
        "▁ta",
        "v"
      ],
      [
        "▁tes",
        "p"
      ],
      [
        "et",
        "im"
      ],
      [
        "un",
        "de"
      ],
      [
        "ıl",
        "ıgı"
      ],
      [
        "eler",
        "de"
      ],
      [
        "▁yer",
        "de"
      ],
      [
        "▁ko",
        "p"
      ],
      [
        "▁oldug",
        "u"
      ],
      [
        "cı",
        "ların"
      ],
      [
        "▁sev",
        "gi"
      ],
      [
        "▁kur",
        "t"
      ],
      [
        "s",
        "ak"
      ],
      [
        "▁en",
        "f"
      ],
      [
        "▁kap",
        "sam"
      ],
      [
        "si",
        "z"
      ],
      [
        "▁uz",
        "ak"
      ],
      [
        "eg",
        "e"
      ],
      [
        "▁o",
        "nun"
      ],
      [
        "▁al",
        "ay"
      ],
      [
        "g",
        "el"
      ],
      [
        "▁gay",
        "et"
      ],
      [
        "▁sag",
        "lık"
      ],
      [
        "i",
        "yi"
      ],
      [
        "▁od",
        "un"
      ],
      [
        "▁mu",
        "am"
      ],
      [
        "▁anlam",
        "da"
      ],
      [
        "▁g",
        "el"
      ],
      [
        "ad",
        "em"
      ],
      [
        "▁g",
        "om"
      ],
      [
        "▁art",
        "ır"
      ],
      [
        "▁sek",
        "tor"
      ],
      [
        "▁b",
        "ay"
      ],
      [
        "e",
        "bil"
      ],
      [
        "▁kar",
        "ar"
      ],
      [
        "y",
        "o"
      ],
      [
        "▁y",
        "onelik"
      ],
      [
        "▁p",
        "h"
      ],
      [
        "▁.",
        "'"
      ],
      [
        "▁s",
        "er"
      ],
      [
        "ı",
        "k"
      ],
      [
        "d",
        "er"
      ],
      [
        "▁c",
        "em"
      ],
      [
        "▁bak",
        "anı"
      ],
      [
        "em",
        "ey"
      ],
      [
        "ab",
        "et"
      ],
      [
        "▁o",
        "dan"
      ],
      [
        "ru",
        "f"
      ],
      [
        "▁ol",
        "dugu"
      ],
      [
        "is",
        "ler"
      ],
      [
        "▁bil",
        "eti"
      ],
      [
        "▁huk",
        "uk"
      ],
      [
        "di",
        "gi"
      ],
      [
        "▁or",
        "ada"
      ],
      [
        "lig",
        "ini"
      ],
      [
        "▁edil",
        "di"
      ],
      [
        "▁o",
        "yle"
      ],
      [
        "▁or",
        "tak"
      ],
      [
        "▁s",
        "il"
      ],
      [
        "▁ho",
        "s"
      ],
      [
        "▁hab",
        "er"
      ],
      [
        "▁han",
        "imdi"
      ],
      [
        "▁i",
        "st"
      ],
      [
        "la",
        "mıs"
      ],
      [
        "v",
        "e"
      ],
      [
        "▁kar",
        "arı"
      ],
      [
        "▁taraf",
        "ı"
      ],
      [
        "▁gun",
        "ah"
      ],
      [
        "▁dev",
        "ir"
      ],
      [
        "em",
        "ek"
      ],
      [
        "abil",
        "ecegini"
      ],
      [
        "is",
        "co"
      ],
      [
        "▁c",
        "iv"
      ],
      [
        "▁",
        "meger"
      ],
      [
        "▁haval",
        "im"
      ],
      [
        "ir",
        "di"
      ],
      [
        "▁wash",
        "ington"
      ],
      [
        "s",
        "iz"
      ],
      [
        "ey",
        "en"
      ],
      [
        "▁g",
        "elir"
      ],
      [
        "▁cum",
        "a"
      ],
      [
        "▁deg",
        "eri"
      ],
      [
        "▁vuc",
        "ut"
      ],
      [
        "lu",
        "gun"
      ],
      [
        "da",
        "n"
      ],
      [
        "▁t",
        "u"
      ],
      [
        "▁hal",
        "inde"
      ],
      [
        "ler",
        "in"
      ],
      [
        "ab",
        "ı"
      ],
      [
        "▁mily",
        "on"
      ],
      [
        "s",
        "iy"
      ],
      [
        "▁san",
        "at"
      ],
      [
        "r",
        "i"
      ],
      [
        "▁dog",
        "um"
      ],
      [
        "▁e",
        "s"
      ],
      [
        "▁m",
        "ag"
      ],
      [
        "ig",
        "ini"
      ],
      [
        "iyor",
        "lar"
      ],
      [
        "▁seviy",
        "esinden"
      ],
      [
        "et",
        "e"
      ],
      [
        "a",
        "de"
      ],
      [
        "▁t",
        "a"
      ],
      [
        "▁ol",
        "anlar"
      ],
      [
        "▁yas",
        "am"
      ],
      [
        "▁has",
        "tan"
      ],
      [
        "l",
        "i"
      ],
      [
        "▁s",
        "ec"
      ],
      [
        "▁sekl",
        "inde"
      ],
      [
        "▁",
        "ol"
      ],
      [
        "▁kısm",
        "ı"
      ],
      [
        "▁ta",
        "n"
      ],
      [
        "in",
        "g"
      ],
      [
        "▁sen",
        "edi"
      ],
      [
        "il",
        "igini"
      ],
      [
        "▁fatur",
        "am"
      ],
      [
        "▁kıs",
        "m"
      ],
      [
        "▁su",
        "b"
      ],
      [
        "▁son",
        "ucu"
      ],
      [
        "id",
        "e"
      ],
      [
        "a",
        "s"
      ],
      [
        "▁k",
        "oy"
      ],
      [
        "▁ara",
        "di"
      ],
      [
        "▁ol",
        "sa"
      ],
      [
        "an",
        "ıs"
      ],
      [
        "▁",
        "ul"
      ],
      [
        "g",
        "ıc"
      ],
      [
        "▁el",
        "lerinde"
      ],
      [
        "▁c",
        "um"
      ],
      [
        "▁hav",
        "ada"
      ],
      [
        "i",
        "yle"
      ],
      [
        "eceg",
        "ine"
      ],
      [
        "▁il",
        "isk"
      ],
      [
        "▁l",
        "is"
      ],
      [
        "▁bırak",
        "tı"
      ],
      [
        "▁y",
        "oksa"
      ],
      [
        "in",
        "ci"
      ],
      [
        "▁donem",
        "de"
      ],
      [
        "▁tasar",
        "ruf"
      ],
      [
        "▁yuz",
        "den"
      ],
      [
        "al",
        "an"
      ],
      [
        "▁hizmet",
        "leri"
      ],
      [
        "▁bors",
        "a"
      ],
      [
        "▁polit",
        "ika"
      ],
      [
        "▁ter",
        "cih"
      ],
      [
        "tlu",
        "k"
      ],
      [
        "en",
        "d"
      ],
      [
        "▁halk",
        "ı"
      ],
      [
        "▁gu",
        "c"
      ],
      [
        "▁neden",
        "i"
      ],
      [
        "▁ayr",
        "ıl"
      ],
      [
        "u",
        "v"
      ],
      [
        "▁kar",
        "n"
      ],
      [
        "▁ar",
        "z"
      ],
      [
        "▁k",
        "av"
      ],
      [
        "de",
        "n"
      ],
      [
        "o",
        "d"
      ],
      [
        "la",
        "k"
      ],
      [
        "▁boy",
        "u"
      ],
      [
        "▁kat",
        "il"
      ],
      [
        "▁mak",
        "ine"
      ],
      [
        "▁ka",
        "dar"
      ],
      [
        "▁",
        ","
      ],
      [
        "▁kıymet",
        "ler"
      ],
      [
        "ımız",
        "a"
      ],
      [
        "▁danıs",
        "man"
      ],
      [
        "▁h",
        "izm"
      ],
      [
        "▁cık",
        "ar"
      ],
      [
        "tı",
        "l"
      ],
      [
        "▁ortal",
        "ama"
      ],
      [
        "▁mev",
        "cut"
      ],
      [
        "ad",
        "e"
      ],
      [
        "▁",
        "ay"
      ],
      [
        "eti",
        "ci"
      ],
      [
        "▁fir",
        "ma"
      ],
      [
        "▁beklen",
        "ti"
      ],
      [
        "▁kaf",
        "a"
      ],
      [
        "sa",
        "l"
      ],
      [
        "v",
        "an"
      ],
      [
        "du",
        "k"
      ],
      [
        "▁ek",
        "ip"
      ],
      [
        "▁den",
        "eme"
      ],
      [
        "▁du",
        "z"
      ],
      [
        "▁zam",
        "an"
      ],
      [
        "▁hizm",
        "eti"
      ],
      [
        "ı",
        "c"
      ],
      [
        "a",
        "bil"
      ],
      [
        "▁o",
        "da"
      ],
      [
        "me",
        "ye"
      ],
      [
        "▁san",
        "ayi"
      ],
      [
        "▁o",
        "v"
      ],
      [
        "ler",
        "de"
      ],
      [
        "er",
        "in"
      ],
      [
        "er",
        "ler"
      ],
      [
        "▁havuz",
        "u"
      ],
      [
        "m",
        "esi"
      ],
      [
        "▁h",
        "av"
      ],
      [
        "▁sik",
        "ayet"
      ],
      [
        "dug",
        "u"
      ],
      [
        "▁eve",
        "t"
      ],
      [
        "ye",
        "t"
      ],
      [
        "▁f",
        "ir"
      ],
      [
        "▁ko",
        "tu"
      ],
      [
        "▁c",
        "ok"
      ],
      [
        "▁",
        "dir"
      ],
      [
        "a",
        "at"
      ],
      [
        "il",
        "im"
      ],
      [
        "las",
        "yon"
      ],
      [
        "is",
        "i"
      ],
      [
        "a",
        "larını"
      ],
      [
        "▁yıl",
        "ında"
      ],
      [
        "▁boy",
        "un"
      ],
      [
        "lu",
        "k"
      ],
      [
        "ti",
        "k"
      ],
      [
        "ya",
        "s"
      ],
      [
        "▁r",
        "ol"
      ],
      [
        "l",
        "isi"
      ],
      [
        "▁dolay",
        "i"
      ],
      [
        "▁g",
        "eldi"
      ],
      [
        "el",
        "i"
      ],
      [
        "▁on",
        "er"
      ],
      [
        "▁g",
        "az"
      ],
      [
        "▁y",
        "o"
      ],
      [
        "c",
        "iler"
      ],
      [
        "▁p",
        "o"
      ],
      [
        "▁du",
        "r"
      ],
      [
        "m",
        "ur"
      ],
      [
        "▁d",
        "ug"
      ],
      [
        "▁sev",
        "g"
      ],
      [
        "▁k",
        "ası"
      ],
      [
        "▁lezz",
        "eti"
      ],
      [
        "▁sur",
        "u"
      ],
      [
        "▁ham",
        "am"
      ],
      [
        "▁bil",
        "mek"
      ],
      [
        "▁m",
        "adde"
      ],
      [
        "ug",
        "u"
      ],
      [
        "▁kor",
        "um"
      ],
      [
        "▁kal",
        "dır"
      ],
      [
        "▁gen",
        "el"
      ],
      [
        "▁u",
        "c"
      ],
      [
        "asın",
        "dan"
      ],
      [
        "▁hak",
        "k"
      ],
      [
        "▁donem",
        "inde"
      ],
      [
        "▁og",
        "ren"
      ],
      [
        "▁ama",
        "c"
      ],
      [
        "▁m",
        "ik"
      ],
      [
        "i",
        "k"
      ],
      [
        "er",
        "ans"
      ],
      [
        "▁c",
        "ek"
      ],
      [
        "d",
        "ik"
      ],
      [
        "▁",
        "ib"
      ],
      [
        "▁yaz",
        "ar"
      ],
      [
        "▁m",
        "is"
      ],
      [
        "a",
        "gı"
      ],
      [
        "ug",
        "a"
      ],
      [
        "▁n",
        "ot"
      ],
      [
        "▁ol",
        "dug"
      ],
      [
        "s",
        "in"
      ],
      [
        "mes",
        "i"
      ],
      [
        "u",
        "n"
      ],
      [
        "▁s",
        "art"
      ],
      [
        "▁ogr",
        "et"
      ],
      [
        "▁dus",
        "unc"
      ],
      [
        "r",
        "et"
      ],
      [
        "▁ha",
        "v"
      ],
      [
        "/",
        "8"
      ],
      [
        "▁",
        "st"
      ],
      [
        "▁merkez",
        "i"
      ],
      [
        "▁elektr",
        "ik"
      ],
      [
        "▁h",
        "at"
      ],
      [
        "is",
        "inde"
      ],
      [
        "▁olma",
        "z"
      ],
      [
        "▁b",
        "as"
      ],
      [
        "i",
        "ye"
      ],
      [
        "▁kars",
        "ısında"
      ],
      [
        "▁as",
        "k"
      ],
      [
        "▁bic",
        "im"
      ],
      [
        "▁yatırımcı",
        "ların"
      ],
      [
        "asın",
        "ı"
      ],
      [
        "▁ve",
        "ya"
      ],
      [
        "▁co",
        "k"
      ],
      [
        "▁si",
        "k"
      ],
      [
        "s",
        "u"
      ],
      [
        "▁eglen",
        "ce"
      ],
      [
        "lig",
        "ine"
      ],
      [
        "▁b",
        "asından"
      ],
      [
        "▁hast",
        "al"
      ],
      [
        "▁animasyon",
        "lar"
      ],
      [
        "di",
        "g"
      ],
      [
        "m",
        "isti"
      ],
      [
        "▁dusun",
        "uyor"
      ],
      [
        "▁dah",
        "i"
      ],
      [
        "▁konu",
        "da"
      ],
      [
        "▁y",
        "at"
      ],
      [
        "ug",
        "un"
      ],
      [
        "▁portf",
        "oy"
      ],
      [
        "▁tal",
        "eb"
      ],
      [
        "▁p",
        "at"
      ],
      [
        "s",
        "t"
      ],
      [
        "▁t",
        "ası"
      ],
      [
        "ind",
        "e"
      ],
      [
        "s",
        "a"
      ],
      [
        "▁fabr",
        "ik"
      ],
      [
        "▁",
        "im"
      ],
      [
        "▁alt",
        "ından"
      ],
      [
        "e",
        "k"
      ],
      [
        "▁gun",
        "den"
      ],
      [
        "est",
        "iri"
      ],
      [
        "st",
        "on"
      ],
      [
        "▁kul",
        "tur"
      ],
      [
        "▁indir",
        "im"
      ],
      [
        "▁o",
        "n"
      ],
      [
        "t",
        "ik"
      ],
      [
        "▁calis",
        "anlar"
      ],
      [
        "▁dol",
        "ar"
      ],
      [
        "▁cumhur",
        "b"
      ],
      [
        "▁or",
        "an"
      ],
      [
        "l",
        "ı"
      ],
      [
        "▁soyl",
        "e"
      ],
      [
        "▁m",
        "az"
      ],
      [
        "▁an",
        "im"
      ],
      [
        "▁oz",
        "gur"
      ],
      [
        "▁hoc",
        "a"
      ],
      [
        "▁dev",
        "r"
      ],
      [
        "ler",
        "iyle"
      ],
      [
        "or",
        "k"
      ],
      [
        "gun",
        "u"
      ],
      [
        "▁sık",
        "ıntı"
      ],
      [
        "▁so",
        "k"
      ],
      [
        "▁se",
        "m"
      ],
      [
        "▁lir",
        "a"
      ],
      [
        "▁g",
        "en"
      ],
      [
        "k",
        "en"
      ],
      [
        "▁har",
        "c"
      ],
      [
        "▁n",
        "eden"
      ],
      [
        "dıg",
        "ını"
      ],
      [
        "▁baz",
        "ı"
      ],
      [
        "▁bors",
        "ası"
      ],
      [
        "▁hak",
        "im"
      ],
      [
        "▁saat",
        "i"
      ],
      [
        "l",
        "ık"
      ],
      [
        "s",
        "un"
      ],
      [
        "lık",
        "ları"
      ],
      [
        "▁var",
        "an"
      ],
      [
        "▁b",
        "ayan"
      ],
      [
        "▁go",
        "c"
      ],
      [
        "▁uz",
        "un"
      ],
      [
        "▁gec",
        "e"
      ],
      [
        "▁c",
        "ev"
      ],
      [
        "▁do",
        "m"
      ],
      [
        "▁dol",
        "arı"
      ],
      [
        "▁d",
        "uz"
      ],
      [
        "▁edi",
        "n"
      ],
      [
        "▁piy",
        "an"
      ],
      [
        "▁yap",
        "maya"
      ],
      [
        "▁ala",
        "k"
      ],
      [
        "▁millet",
        "vek"
      ],
      [
        "▁co",
        "c"
      ],
      [
        "c",
        "ak"
      ],
      [
        "▁dol",
        "dur"
      ],
      [
        "▁r",
        "ad"
      ],
      [
        "▁ol",
        "u"
      ],
      [
        "▁temiz",
        "ligi"
      ],
      [
        "er",
        "i"
      ],
      [
        "▁ucus",
        "ları"
      ],
      [
        "am",
        "ı"
      ],
      [
        "▁buy",
        "ume"
      ],
      [
        "▁t",
        "ers"
      ],
      [
        "o",
        "m"
      ],
      [
        "▁di",
        "y"
      ],
      [
        "▁se",
        "z"
      ],
      [
        "ey",
        "h"
      ],
      [
        "ist",
        "e"
      ],
      [
        "▁s",
        "ist"
      ],
      [
        "▁mik",
        "r"
      ],
      [
        "▁bask",
        "anı"
      ],
      [
        "▁yan",
        "ında"
      ],
      [
        "▁gen",
        "is"
      ],
      [
        "▁",
        "5"
      ],
      [
        "▁ha",
        "n"
      ],
      [
        "l",
        "am"
      ],
      [
        "uy",
        "le"
      ],
      [
        "▁mas",
        "al"
      ],
      [
        "▁ser",
        "v"
      ],
      [
        "▁c",
        "ab"
      ],
      [
        "▁halbu",
        "ki"
      ],
      [
        "▁dıs",
        "ı"
      ],
      [
        "asın",
        "da"
      ],
      [
        "uyor",
        "lar"
      ],
      [
        "i",
        "c"
      ],
      [
        "▁yolcul",
        "uk"
      ],
      [
        "▁civ",
        "arı"
      ],
      [
        "ıy",
        "ı"
      ],
      [
        "o",
        "z"
      ],
      [
        "an",
        "ı"
      ],
      [
        "s",
        "iyon"
      ],
      [
        "▁i",
        "d"
      ],
      [
        "▁!",
        ".."
      ],
      [
        "▁p",
        "os"
      ],
      [
        "▁bir",
        "ligi"
      ],
      [
        "▁hav",
        "al"
      ],
      [
        "▁c",
        "er"
      ],
      [
        "▁d",
        "ur"
      ],
      [
        "▁",
        "as"
      ],
      [
        "▁is",
        "leri"
      ],
      [
        "▁g",
        "eri"
      ],
      [
        "▁cih",
        "az"
      ],
      [
        "▁olanak",
        "lari"
      ],
      [
        "s",
        "i"
      ],
      [
        "r",
        "ar"
      ],
      [
        "et",
        "ti"
      ],
      [
        "ed",
        "ir"
      ],
      [
        "m",
        "alı"
      ],
      [
        "ol",
        "oj"
      ],
      [
        "u",
        "muz"
      ],
      [
        "▁herh",
        "angi"
      ],
      [
        "unu",
        "z"
      ],
      [
        "▁cev",
        "ap"
      ],
      [
        "▁buy",
        "um"
      ],
      [
        "▁do",
        "r"
      ],
      [
        "ıl",
        "ır"
      ],
      [
        "li",
        "k"
      ],
      [
        "▁s",
        "en"
      ],
      [
        "▁es",
        "k"
      ],
      [
        "d",
        "en"
      ],
      [
        "▁v",
        "ak"
      ],
      [
        "▁",
        "ta"
      ],
      [
        "ın",
        "tı"
      ],
      [
        "▁olm",
        "us"
      ],
      [
        "▁piyas",
        "anın"
      ],
      [
        "ade",
        "m"
      ],
      [
        "▁personel",
        "lerden"
      ],
      [
        "▁ya",
        "z"
      ],
      [
        "u",
        "ru"
      ],
      [
        "▁insa",
        "n"
      ],
      [
        "▁e",
        "k"
      ],
      [
        "▁tas",
        "ı"
      ],
      [
        "▁al",
        "ım"
      ],
      [
        "▁y",
        "anı"
      ],
      [
        "▁anal",
        "iz"
      ],
      [
        "▁p",
        "ol"
      ],
      [
        "▁mes",
        "el"
      ],
      [
        "o",
        "r"
      ],
      [
        "▁kar",
        "sı"
      ],
      [
        "▁oran",
        "ları"
      ],
      [
        "▁yatırım",
        "cı"
      ],
      [
        "▁tar",
        "af"
      ],
      [
        "▁art",
        "ıs"
      ],
      [
        "t",
        "if"
      ],
      [
        "e",
        "st"
      ],
      [
        "▁bur",
        "ası"
      ],
      [
        "▁bir",
        "tak"
      ],
      [
        "▁bak",
        "an"
      ],
      [
        "m",
        "ez"
      ],
      [
        "▁gazet",
        "e"
      ],
      [
        "a",
        "k"
      ],
      [
        "l",
        "em"
      ],
      [
        "▁teh",
        "d"
      ],
      [
        "▁f",
        "r"
      ],
      [
        "▁dak",
        "ik"
      ],
      [
        "h",
        "ur"
      ],
      [
        "▁kahv",
        "alt"
      ],
      [
        "▁ail",
        "esi"
      ],
      [
        "ust",
        "u"
      ],
      [
        "▁mal",
        "iyeti"
      ],
      [
        "▁clas",
        "s"
      ],
      [
        "▁dı",
        "s"
      ],
      [
        "▁s",
        "eh"
      ],
      [
        "▁sil",
        "ah"
      ],
      [
        "m",
        "ız"
      ],
      [
        "▁seh",
        "r"
      ],
      [
        "▁gir",
        "is"
      ],
      [
        "▁rez",
        "erv"
      ],
      [
        "▁v",
        "es"
      ],
      [
        "▁oak",
        "land"
      ],
      [
        "▁c",
        "ih"
      ],
      [
        "▁k",
        "ar"
      ],
      [
        "▁g",
        "iy"
      ],
      [
        "ıs",
        "ını"
      ],
      [
        "▁gorus",
        "me"
      ],
      [
        "o",
        "'ya"
      ],
      [
        "▁degis",
        "iklik"
      ],
      [
        "▁",
        "ince"
      ],
      [
        "▁avuk",
        "at"
      ],
      [
        "▁dil",
        "im"
      ],
      [
        "▁olm",
        "asi"
      ],
      [
        "ımız",
        "ı"
      ],
      [
        "▁c",
        "el"
      ],
      [
        "▁sonr",
        "asında"
      ],
      [
        "▁t",
        "am"
      ],
      [
        "▁olma",
        "di"
      ],
      [
        "'d",
        "en"
      ],
      [
        "▁var",
        "dır"
      ],
      [
        "e",
        "e"
      ],
      [
        "▁sim",
        "diye"
      ],
      [
        "▁s",
        "end"
      ],
      [
        "▁kalit",
        "e"
      ],
      [
        "▁havayol",
        "u"
      ],
      [
        "▁p",
        "ay"
      ],
      [
        "▁ic",
        "inden"
      ],
      [
        "▁yiyecek",
        "ler"
      ],
      [
        "▁o",
        "lan"
      ],
      [
        "▁b",
        "og"
      ],
      [
        "▁toplan",
        "tı"
      ],
      [
        "▁analist",
        "ler"
      ],
      [
        "▁guv",
        "en"
      ],
      [
        "▁es",
        "im"
      ],
      [
        "▁h",
        "atır"
      ],
      [
        "▁hac",
        "im"
      ],
      [
        "▁ki",
        "r"
      ],
      [
        "dı",
        "k"
      ],
      [
        "▁uret",
        "im"
      ],
      [
        "▁el",
        "ektr"
      ],
      [
        "▁hiss",
        "eler"
      ],
      [
        "asın",
        "ın"
      ],
      [
        "▁ulk",
        "enin"
      ],
      [
        "ta",
        "n"
      ],
      [
        "▁h",
        "ar"
      ],
      [
        "s",
        "ka"
      ],
      [
        "ik",
        "at"
      ],
      [
        "n",
        "ak"
      ],
      [
        "▁hab",
        "eri"
      ],
      [
        "▁",
        "al"
      ],
      [
        "▁ilgil",
        "iydi"
      ],
      [
        "▁mah",
        "alle"
      ],
      [
        "▁otob",
        "us"
      ],
      [
        "▁al",
        "b"
      ],
      [
        "▁kis",
        "ilik"
      ],
      [
        "▁t",
        "ar"
      ],
      [
        "▁ak",
        "tiv"
      ],
      [
        "▁f",
        "ır"
      ],
      [
        "ın",
        "t"
      ],
      [
        "il",
        "mis"
      ],
      [
        "ın",
        "a"
      ],
      [
        "▁dur",
        "us"
      ],
      [
        "▁bas",
        "a"
      ],
      [
        "un",
        "e"
      ],
      [
        "mek",
        "ten"
      ],
      [
        "eler",
        "e"
      ],
      [
        "▁yer",
        "e"
      ],
      [
        "▁kaz",
        "an"
      ],
      [
        "▁an",
        "al"
      ],
      [
        "▁tel",
        "ef"
      ],
      [
        "lem",
        "ek"
      ],
      [
        "▁ur",
        "eticisi"
      ],
      [
        "t",
        "ak"
      ],
      [
        "▁kur",
        "um"
      ],
      [
        "▁yon",
        "etici"
      ],
      [
        "ar",
        "t"
      ],
      [
        "▁uc",
        "mak"
      ],
      [
        "u",
        "b"
      ],
      [
        "▁pr",
        "oj"
      ],
      [
        "▁kurul",
        "u"
      ],
      [
        "y",
        "as"
      ],
      [
        "m",
        "ıs"
      ],
      [
        "▁",
        "-"
      ],
      [
        "▁sın",
        "av"
      ],
      [
        "ec",
        "ilik"
      ],
      [
        "▁sor",
        "unu"
      ],
      [
        "▁s",
        "ur"
      ],
      [
        "ler",
        "imiz"
      ],
      [
        "▁t",
        "em"
      ],
      [
        "t",
        "eri"
      ],
      [
        "▁ola",
        "rak"
      ],
      [
        "▁gun",
        "luk"
      ],
      [
        "▁a",
        "v"
      ],
      [
        "▁sek",
        "er"
      ],
      [
        "lan",
        "mıs"
      ],
      [
        "▁or",
        "gan"
      ],
      [
        "▁tal",
        "ep"
      ],
      [
        "dık",
        "tan"
      ],
      [
        "▁il",
        "eri"
      ],
      [
        "▁h",
        "ast"
      ],
      [
        "▁k",
        "um"
      ],
      [
        "la",
        "y"
      ],
      [
        "▁b",
        "ir"
      ],
      [
        "▁s",
        "oz"
      ],
      [
        "r",
        "e"
      ],
      [
        "ad",
        "ıgını"
      ],
      [
        "ımız",
        "da"
      ],
      [
        "co",
        "k"
      ],
      [
        "ların",
        "ı"
      ],
      [
        "ası",
        "yla"
      ],
      [
        "▁bil",
        "g"
      ],
      [
        "▁kı",
        "y"
      ],
      [
        "▁kayı",
        "t"
      ],
      [
        "a",
        "st"
      ],
      [
        "▁sey",
        "e"
      ],
      [
        "▁icin",
        "de"
      ],
      [
        "ler",
        "imi"
      ],
      [
        "ma",
        "mıs"
      ],
      [
        "▁i",
        "m"
      ],
      [
        "▁da",
        "gıt"
      ],
      [
        "▁iht",
        "im"
      ],
      [
        "▁ha",
        "lbu"
      ],
      [
        "▁buyum",
        "e"
      ],
      [
        "▁do",
        "gru"
      ],
      [
        "0'",
        "dan"
      ],
      [
        "▁ar",
        "asındaki"
      ],
      [
        "▁re",
        "f"
      ],
      [
        "m",
        "us"
      ],
      [
        "▁cit",
        "y"
      ],
      [
        "▁bir",
        "kac"
      ],
      [
        "▁",
        "bi"
      ],
      [
        "▁r",
        "af"
      ],
      [
        "▁deg",
        "istir"
      ],
      [
        "▁kahval",
        "ti"
      ],
      [
        "c",
        "u"
      ],
      [
        "▁yemek",
        "lerden"
      ],
      [
        "▁genel",
        "de"
      ],
      [
        "▁arkad",
        "as"
      ],
      [
        "▁merdiv",
        "en"
      ],
      [
        "▁toplan",
        "t"
      ],
      [
        "▁univers",
        "it"
      ],
      [
        "▁basbak",
        "an"
      ],
      [
        "et",
        "leri"
      ],
      [
        "l",
        "ey"
      ],
      [
        "▁do",
        "gr"
      ],
      [
        "m",
        "asının"
      ],
      [
        "v",
        "r"
      ],
      [
        "▁l",
        "u"
      ],
      [
        "▁de",
        "pr"
      ],
      [
        "▁bilgisay",
        "ar"
      ],
      [
        "▁ot",
        "ur"
      ],
      [
        "▁yard",
        "ım"
      ],
      [
        "▁b",
        "eye"
      ],
      [
        "▁",
        "y"
      ],
      [
        "▁kıs",
        "a"
      ],
      [
        "d",
        "igi"
      ],
      [
        "c",
        "a"
      ],
      [
        "▁bur",
        "okr"
      ],
      [
        "▁dor",
        "tluk"
      ],
      [
        "▁mem",
        "ur"
      ],
      [
        "st",
        "ı"
      ],
      [
        "▁i",
        "leri"
      ],
      [
        "▁t",
        "um"
      ],
      [
        "ıs",
        "ına"
      ],
      [
        "▁ol",
        "cu"
      ],
      [
        "▁sev",
        "k"
      ],
      [
        "▁l",
        "a"
      ],
      [
        "makt",
        "an"
      ],
      [
        "▁bo",
        "y"
      ],
      [
        "▁yetk",
        "ili"
      ],
      [
        "l",
        "ek"
      ],
      [
        "▁der",
        "t"
      ],
      [
        "i",
        "ki"
      ],
      [
        "▁gerc",
        "ekl"
      ],
      [
        "▁do",
        "lay"
      ],
      [
        "▁d",
        "on"
      ],
      [
        "▁g",
        "u"
      ],
      [
        "▁muc",
        "ade"
      ],
      [
        "et",
        "r"
      ],
      [
        "az",
        "la"
      ],
      [
        "▁",
        "2"
      ],
      [
        "er",
        "v"
      ],
      [
        "sı",
        "n"
      ],
      [
        "▁yag",
        "mur"
      ],
      [
        "▁aj",
        "ans"
      ],
      [
        "▁i",
        "l"
      ],
      [
        "▁muh",
        "af"
      ],
      [
        "▁koy",
        "un"
      ],
      [
        "▁ka",
        "v"
      ],
      [
        "▁gu",
        "m"
      ],
      [
        "c",
        "un"
      ],
      [
        "▁kab",
        "ul"
      ],
      [
        "▁",
        "d"
      ],
      [
        "ist",
        "ir"
      ],
      [
        "▁i",
        "r"
      ],
      [
        "▁i",
        "la"
      ],
      [
        "▁r",
        "uh"
      ],
      [
        "▁a",
        "n"
      ],
      [
        "▁kr",
        "al"
      ],
      [
        "▁",
        "“"
      ],
      [
        "▁res",
        "im"
      ],
      [
        "▁kampanyalar",
        "dan"
      ],
      [
        "ı",
        "stır"
      ],
      [
        "▁",
        "b"
      ],
      [
        "▁mek",
        "tu"
      ],
      [
        "▁polit",
        "ik"
      ],
      [
        "l",
        "iydi"
      ],
      [
        "▁arkadas",
        "lar"
      ],
      [
        "▁otel",
        "de"
      ],
      [
        "t",
        "igi"
      ],
      [
        "di",
        "k"
      ],
      [
        "▁ak",
        "l"
      ],
      [
        "▁atlan",
        "ta"
      ],
      [
        "▁h",
        "e"
      ],
      [
        "▁sa",
        "de"
      ],
      [
        "▁ucus",
        "u"
      ],
      [
        "▁se",
        "h"
      ],
      [
        "▁k",
        "ere"
      ],
      [
        "▁ban",
        "a"
      ],
      [
        "▁yur",
        "t"
      ],
      [
        "▁den",
        "gesi"
      ],
      [
        "id",
        "en"
      ],
      [
        "▁yo",
        "l"
      ],
      [
        "el",
        "e"
      ],
      [
        "▁olm",
        "ad"
      ],
      [
        "▁bel",
        "ediye"
      ],
      [
        "ek",
        "tr"
      ],
      [
        "▁tek",
        "l"
      ],
      [
        "▁boy",
        "n"
      ],
      [
        "▁dest",
        "ek"
      ],
      [
        "ce",
        "k"
      ],
      [
        "▁artıs",
        "la"
      ],
      [
        "▁k",
        "ısı"
      ],
      [
        "ız",
        "a"
      ],
      [
        "▁yol",
        "a"
      ],
      [
        "▁",
        "ir"
      ],
      [
        "▁ucus",
        "a"
      ],
      [
        "t",
        "tı"
      ],
      [
        "▁sermay",
        "e"
      ],
      [
        "▁fiyat",
        "larını"
      ],
      [
        "▁k",
        "or"
      ],
      [
        "▁d",
        "o"
      ],
      [
        "▁sir",
        "ket"
      ],
      [
        "▁dog",
        "r"
      ],
      [
        "ta",
        "j"
      ],
      [
        "▁gru",
        "b"
      ],
      [
        "▁alak",
        "a"
      ],
      [
        "▁t",
        "ok"
      ],
      [
        "▁s",
        "eb"
      ],
      [
        "ir",
        "im"
      ],
      [
        "ama",
        "sı"
      ],
      [
        "ımız",
        "ın"
      ],
      [
        "ec",
        "eg"
      ],
      [
        "▁m",
        "in"
      ],
      [
        "▁m",
        "obil"
      ],
      [
        "▁p",
        "as"
      ],
      [
        "ler",
        "e"
      ],
      [
        "im",
        "den"
      ],
      [
        "o",
        "h"
      ],
      [
        "▁kal",
        "em"
      ],
      [
        "lug",
        "u"
      ],
      [
        "▁c",
        "if"
      ],
      [
        "▁merk",
        "ez"
      ],
      [
        "▁ipot",
        "ek"
      ],
      [
        "▁t",
        "ah"
      ],
      [
        "0'",
        "da"
      ],
      [
        "▁mes",
        "lek"
      ],
      [
        "c",
        "i"
      ],
      [
        "▁ucus",
        "ların"
      ],
      [
        "▁ulas",
        "ım"
      ],
      [
        "▁ucus",
        "un"
      ],
      [
        "ı",
        "z"
      ],
      [
        "▁m",
        "u"
      ],
      [
        "▁yuks",
        "el"
      ],
      [
        "▁neden",
        "lerden"
      ],
      [
        "▁neler",
        "dir"
      ],
      [
        "lug",
        "a"
      ],
      [
        "d",
        "u"
      ],
      [
        "▁dus",
        "un"
      ],
      [
        "▁calıs",
        "ma"
      ],
      [
        "▁t",
        "ek"
      ],
      [
        "▁ben",
        "i"
      ],
      [
        "▁st",
        "ok"
      ],
      [
        "▁bask",
        "an"
      ],
      [
        "tık",
        "tan"
      ],
      [
        "▁bas",
        "ka"
      ],
      [
        "e",
        "d"
      ],
      [
        "edi",
        "r"
      ],
      [
        "lay",
        "an"
      ],
      [
        "a",
        "rak"
      ],
      [
        "▁u",
        "m"
      ],
      [
        "▁m",
        "a"
      ],
      [
        "n",
        "ız"
      ],
      [
        "▁yonetici",
        "leri"
      ],
      [
        "g",
        "o"
      ],
      [
        "es",
        "inden"
      ],
      [
        "er",
        "n"
      ],
      [
        "em",
        "iyor"
      ],
      [
        "▁c",
        "en"
      ],
      [
        "d",
        "aki"
      ],
      [
        "le",
        "y"
      ],
      [
        "▁d",
        "us"
      ],
      [
        "il",
        "ik"
      ],
      [
        "ek",
        "ler"
      ],
      [
        "▁b",
        "ic"
      ],
      [
        "▁ka",
        "n"
      ],
      [
        "▁par",
        "ca"
      ],
      [
        "l",
        "estir"
      ],
      [
        "▁si",
        "ir"
      ],
      [
        "▁ac",
        "ıl"
      ],
      [
        "▁bilg",
        "is"
      ],
      [
        "▁r",
        "isk"
      ],
      [
        "lar",
        "ına"
      ],
      [
        "00",
        "0"
      ],
      [
        "t",
        "in"
      ],
      [
        "lug",
        "un"
      ],
      [
        "la",
        "stır"
      ],
      [
        "▁yuz",
        "u"
      ],
      [
        "▁kısı",
        "t"
      ],
      [
        "ı",
        "r"
      ],
      [
        "▁ba",
        "sa"
      ],
      [
        "▁do",
        "g"
      ],
      [
        "ı",
        "la"
      ],
      [
        "lig",
        "inden"
      ],
      [
        "▁tekn",
        "oloj"
      ],
      [
        "z",
        "ir"
      ],
      [
        "▁gi",
        "d"
      ],
      [
        "▁doları",
        "'ndan"
      ],
      [
        "▁is",
        "lerini"
      ],
      [
        "▁yer",
        "ini"
      ],
      [
        "l",
        "er"
      ],
      [
        "▁cer",
        "cev"
      ],
      [
        "▁m",
        "un"
      ],
      [
        "o",
        "p"
      ],
      [
        "▁h",
        "an"
      ],
      [
        "▁u",
        "z"
      ],
      [
        "▁muh",
        "ab"
      ],
      [
        "h",
        "angi"
      ],
      [
        "n",
        "a"
      ],
      [
        "o",
        "g"
      ],
      [
        "ıg",
        "a"
      ],
      [
        "t",
        "u"
      ],
      [
        "▁b",
        "l"
      ],
      [
        "▁anlas",
        "ma"
      ],
      [
        "ın",
        "dan"
      ],
      [
        "▁gec",
        "m"
      ],
      [
        "▁alt",
        "ın"
      ],
      [
        "acı",
        "lar"
      ],
      [
        "▁sık",
        "ınt"
      ],
      [
        "m",
        "ay"
      ],
      [
        "en",
        "ler"
      ],
      [
        "▁mem",
        "leket"
      ],
      [
        "m",
        "ı"
      ],
      [
        "la",
        "m"
      ],
      [
        "▁",
        "cun"
      ],
      [
        "▁",
        "#"
      ],
      [
        "▁iddi",
        "a"
      ],
      [
        "▁y",
        "an"
      ],
      [
        "▁h",
        "al"
      ],
      [
        "▁d",
        "ig"
      ],
      [
        "at",
        "lar"
      ],
      [
        "ların",
        "ın"
      ],
      [
        "t",
        "a"
      ],
      [
        "▁civ",
        "arında"
      ],
      [
        "et",
        "li"
      ],
      [
        "▁tas",
        "ım"
      ],
      [
        "as",
        "ır"
      ],
      [
        "u",
        "du"
      ],
      [
        "▁ya",
        "p"
      ],
      [
        "▁bır",
        "ak"
      ],
      [
        "▁asagı",
        "da"
      ],
      [
        "▁is",
        "ci"
      ],
      [
        "▁ayrı",
        "ca"
      ],
      [
        "▁il",
        "a"
      ],
      [
        "▁d",
        "ugun"
      ],
      [
        "▁k",
        "uv"
      ],
      [
        "k",
        "at"
      ],
      [
        "si",
        "k"
      ],
      [
        "▁azal",
        "t"
      ],
      [
        "n",
        "un"
      ],
      [
        "▁u",
        "r"
      ],
      [
        "▁ya",
        "g"
      ],
      [
        "▁s",
        "ut"
      ],
      [
        "▁y",
        "al"
      ],
      [
        "▁ko",
        "y"
      ],
      [
        "▁sah",
        "n"
      ],
      [
        "lerimiz",
        "i"
      ],
      [
        "▁yıld",
        "ız"
      ],
      [
        "▁kap",
        "ının"
      ],
      [
        "▁gey",
        "ik"
      ],
      [
        "du",
        "m"
      ],
      [
        "▁p",
        "al"
      ],
      [
        "s",
        "ın"
      ],
      [
        "▁um",
        "ut"
      ],
      [
        "b",
        "ol"
      ],
      [
        "▁r",
        "om"
      ],
      [
        "▁bar",
        "ıs"
      ],
      [
        "▁annem",
        "in"
      ],
      [
        "m",
        "esine"
      ],
      [
        "t",
        "un"
      ],
      [
        "▁ay",
        "ak"
      ],
      [
        "▁go",
        "m"
      ],
      [
        "▁f",
        "on"
      ],
      [
        "▁eder",
        "im"
      ],
      [
        "▁hafta",
        "da"
      ],
      [
        "▁son",
        "u"
      ],
      [
        "▁k",
        "il"
      ],
      [
        "▁du",
        "sun"
      ],
      [
        "m",
        "asına"
      ],
      [
        "▁s",
        "o"
      ],
      [
        "▁h",
        "it"
      ],
      [
        "▁a",
        "j"
      ],
      [
        "▁a",
        "lan"
      ],
      [
        "ind",
        "en"
      ],
      [
        "▁ac",
        "tı"
      ],
      [
        "lu",
        "m"
      ],
      [
        "▁m",
        "i"
      ],
      [
        "▁",
        "f"
      ],
      [
        "▁goz",
        "leri"
      ],
      [
        "▁",
        "ve"
      ],
      [
        "el",
        "likle"
      ],
      [
        "▁yap",
        "ı"
      ],
      [
        "ur",
        "du"
      ],
      [
        "m",
        "ad"
      ],
      [
        "▁e",
        "d"
      ],
      [
        "er",
        "ek"
      ],
      [
        "es",
        "iyle"
      ],
      [
        "▁et",
        "me"
      ],
      [
        "▁go",
        "z"
      ],
      [
        "▁ya",
        "ni"
      ],
      [
        "▁kad",
        "ının"
      ],
      [
        "▁sorun",
        "ları"
      ],
      [
        "anın",
        "dan"
      ],
      [
        "▁tehd",
        "it"
      ],
      [
        "▁bekl",
        "iyor"
      ],
      [
        "lam",
        "ası"
      ],
      [
        "▁sey",
        "ir"
      ],
      [
        "▁ban",
        "yo"
      ],
      [
        "▁b",
        "ır"
      ],
      [
        "▁as",
        "agı"
      ],
      [
        "em",
        "in"
      ],
      [
        "▁t",
        "er"
      ],
      [
        "▁co",
        "z"
      ],
      [
        "▁yuk",
        "s"
      ],
      [
        "a",
        "d"
      ],
      [
        "▁yıl",
        "lık"
      ],
      [
        "▁ol",
        "c"
      ],
      [
        "▁kıs",
        "ıt"
      ],
      [
        "▁",
        "ic"
      ],
      [
        "▁de",
        "gil"
      ],
      [
        "▁kon",
        "f"
      ],
      [
        "ag",
        "ını"
      ],
      [
        "▁pr",
        "ot"
      ],
      [
        "▁f",
        "iyat"
      ],
      [
        "▁y",
        "uv"
      ],
      [
        "▁far",
        "k"
      ],
      [
        "▁guler",
        "yuzlu"
      ],
      [
        "▁k",
        "ent"
      ],
      [
        "▁ver",
        "gi"
      ],
      [
        "n",
        "i"
      ],
      [
        "▁d",
        "ol"
      ],
      [
        "▁yar",
        "at"
      ],
      [
        "▁huz",
        "ur"
      ],
      [
        "▁kal",
        "dı"
      ],
      [
        "▁hav",
        "uz"
      ],
      [
        "du",
        "r"
      ],
      [
        "ek",
        "i"
      ],
      [
        "ey",
        "im"
      ],
      [
        "▁yap",
        "mayı"
      ],
      [
        "▁ad",
        "ını"
      ],
      [
        "▁ek",
        "s"
      ],
      [
        "▁tar",
        "if"
      ],
      [
        "▁bul",
        "ut"
      ],
      [
        "▁ne",
        "dir"
      ],
      [
        "▁kon",
        "umu"
      ],
      [
        "▁s",
        "at"
      ],
      [
        "▁yuks",
        "eldi"
      ],
      [
        "▁hukumet",
        "in"
      ],
      [
        "al",
        "le"
      ],
      [
        "t",
        "i"
      ],
      [
        "▁go",
        "r"
      ],
      [
        "▁mer",
        "h"
      ],
      [
        "▁gel",
        "ecek"
      ],
      [
        "▁tan",
        "e"
      ],
      [
        "▁di",
        "ger"
      ],
      [
        "▁",
        "l"
      ],
      [
        "▁ces",
        "it"
      ],
      [
        "▁",
        "3"
      ],
      [
        "▁s",
        "uyu"
      ],
      [
        "i",
        "z"
      ],
      [
        "▁de",
        "g"
      ],
      [
        "▁yuz",
        "une"
      ],
      [
        "▁say",
        "ısı"
      ],
      [
        "▁elb",
        "ise"
      ],
      [
        "▁g",
        "et"
      ],
      [
        "▁al",
        "ak"
      ],
      [
        "▁al",
        "ma"
      ],
      [
        "▁gun",
        "u"
      ],
      [
        "▁rad",
        "yo"
      ],
      [
        "ın",
        "da"
      ],
      [
        "▁barda",
        "gı"
      ],
      [
        "i",
        "leri"
      ],
      [
        "▁go",
        "nd"
      ],
      [
        "▁bas",
        "v"
      ],
      [
        "ar",
        "k"
      ],
      [
        "▁satıs",
        "ları"
      ],
      [
        "▁p",
        "enc"
      ],
      [
        "▁bo",
        "l"
      ],
      [
        "▁gun",
        "lerde"
      ],
      [
        "▁y",
        "uk"
      ],
      [
        "▁bas",
        "ar"
      ],
      [
        "▁ver",
        "iyor"
      ],
      [
        "e",
        "m"
      ],
      [
        "▁bakan",
        "lıgı"
      ],
      [
        "▁a",
        "b"
      ],
      [
        "▁an",
        "la"
      ],
      [
        "▁guc",
        "u"
      ],
      [
        "▁kur",
        "taj"
      ],
      [
        "as",
        "yon"
      ],
      [
        "en",
        "i"
      ],
      [
        "▁b",
        "ak"
      ],
      [
        "▁ar",
        "k"
      ],
      [
        "▁otom",
        "obil"
      ],
      [
        "▁ceyrek",
        "te"
      ],
      [
        "in",
        "d"
      ],
      [
        "▁pol",
        "it"
      ],
      [
        "▁kuc",
        "uk"
      ],
      [
        "▁da",
        "hi"
      ],
      [
        "or",
        "m"
      ],
      [
        "▁havaal",
        "anından"
      ],
      [
        "▁par",
        "t"
      ],
      [
        "▁hisse",
        "leri"
      ],
      [
        "▁1",
        "9"
      ],
      [
        "▁o",
        "tur"
      ],
      [
        "▁par",
        "a"
      ],
      [
        "▁el",
        "inden"
      ],
      [
        "▁v",
        "et"
      ],
      [
        "l",
        "ıc"
      ],
      [
        "▁",
        "emek"
      ],
      [
        "les",
        "tir"
      ],
      [
        "▁bor",
        "c"
      ],
      [
        "▁d",
        "ay"
      ],
      [
        "▁m",
        "etr"
      ],
      [
        "i",
        "r"
      ],
      [
        "▁bas",
        "arı"
      ],
      [
        "▁bil",
        "dir"
      ],
      [
        "▁un",
        "ivers"
      ],
      [
        "g",
        "ul"
      ],
      [
        "es",
        "inin"
      ],
      [
        "▁teklif",
        "i"
      ],
      [
        "▁s",
        "ep"
      ],
      [
        "ıyor",
        "du"
      ],
      [
        "▁esk",
        "iydi"
      ],
      [
        "▁num",
        "ara"
      ],
      [
        "▁b",
        "ask"
      ],
      [
        "▁g",
        "ul"
      ],
      [
        "k",
        "ul"
      ],
      [
        "▁listel",
        "eyin"
      ],
      [
        "l",
        "ik"
      ],
      [
        "en",
        "lerin"
      ],
      [
        "▁dem",
        "okr"
      ],
      [
        "▁bek",
        "len"
      ],
      [
        "e",
        "leri"
      ],
      [
        "▁sik",
        "inti"
      ],
      [
        "▁yer",
        "ine"
      ],
      [
        "▁b",
        "es"
      ],
      [
        "▁sirket",
        "ler"
      ],
      [
        "▁var",
        "di"
      ],
      [
        "▁si",
        "l"
      ],
      [
        "ast",
        "ır"
      ],
      [
        "in",
        "ti"
      ],
      [
        "lig",
        "inin"
      ],
      [
        "▁z",
        "ey"
      ],
      [
        "▁sır",
        "a"
      ],
      [
        "▁bir",
        "les"
      ],
      [
        "▁so",
        "z"
      ],
      [
        "▁g",
        "uzel"
      ],
      [
        "▁top",
        "lum"
      ],
      [
        "ız",
        "ı"
      ],
      [
        "lar",
        "la"
      ],
      [
        "▁ka",
        "til"
      ],
      [
        "ag",
        "ında"
      ],
      [
        "▁gec",
        "esi"
      ],
      [
        "▁yo",
        "ktu"
      ],
      [
        "▁di",
        "yor"
      ],
      [
        "▁num",
        "ar"
      ],
      [
        "▁yıl",
        "ının"
      ],
      [
        "▁kok",
        "usu"
      ],
      [
        "▁coz",
        "um"
      ],
      [
        "ey",
        "e"
      ],
      [
        "▁",
        "ekl"
      ],
      [
        "▁gun",
        "de"
      ],
      [
        "▁bi",
        "l"
      ],
      [
        "▁olma",
        "k"
      ],
      [
        "e",
        "l"
      ],
      [
        "▁p",
        "ir"
      ],
      [
        "▁8",
        "'den"
      ],
      [
        "▁insan",
        "lara"
      ],
      [
        "m",
        "uyor"
      ],
      [
        "st",
        "ım"
      ],
      [
        "▁b",
        "iz"
      ],
      [
        "▁s",
        "os"
      ],
      [
        "▁i",
        "p"
      ],
      [
        "▁m",
        "et"
      ],
      [
        "e",
        "r"
      ],
      [
        "▁baskan",
        "ı"
      ],
      [
        "m",
        "as"
      ],
      [
        "▁begen",
        "dim"
      ],
      [
        "im",
        "en"
      ],
      [
        "▁par",
        "asını"
      ],
      [
        "d",
        "et"
      ],
      [
        "la",
        "ma"
      ],
      [
        "▁i",
        "g"
      ],
      [
        "▁t",
        "urk"
      ],
      [
        "▁sa",
        "v"
      ],
      [
        "▁v",
        "ap"
      ],
      [
        "▁u",
        "gr"
      ],
      [
        "▁",
        "iki"
      ],
      [
        "▁",
        "("
      ],
      [
        "m",
        "asından"
      ],
      [
        "▁",
        "erk"
      ],
      [
        "▁",
        "8"
      ],
      [
        "igi",
        "m"
      ],
      [
        "em",
        "i"
      ],
      [
        "▁so",
        "r"
      ],
      [
        "▁sekil",
        "de"
      ],
      [
        "▁d",
        "ib"
      ],
      [
        "eb",
        "il"
      ],
      [
        "▁ol",
        "an"
      ],
      [
        "▁c",
        "eb"
      ],
      [
        "▁i",
        "ci"
      ],
      [
        "▁oy",
        "unu"
      ],
      [
        "▁mi",
        "ly"
      ],
      [
        "▁mez",
        "ar"
      ],
      [
        "▁uzer",
        "inden"
      ],
      [
        "ıl",
        "ı"
      ],
      [
        "▁kah",
        "kah"
      ],
      [
        "k",
        "k"
      ],
      [
        "▁h",
        "ac"
      ],
      [
        "ın",
        "c"
      ],
      [
        "eceg",
        "im"
      ],
      [
        "ı",
        "cılar"
      ],
      [
        "▁par",
        "ayı"
      ],
      [
        "▁kahv",
        "al"
      ],
      [
        "acag",
        "ını"
      ],
      [
        "ı",
        "h"
      ],
      [
        "▁e",
        "m"
      ],
      [
        "l",
        "uydu"
      ],
      [
        "g",
        "ar"
      ],
      [
        "ek",
        "et"
      ],
      [
        "▁s",
        "ul"
      ],
      [
        "e",
        "re"
      ],
      [
        "▁pit",
        "ts"
      ],
      [
        "▁g",
        "ar"
      ],
      [
        "▁cocuk",
        "lar"
      ],
      [
        "▁plan",
        "i"
      ],
      [
        "▁",
        "erken"
      ],
      [
        "▁e",
        "ve"
      ],
      [
        "ıl",
        "ık"
      ],
      [
        "ma",
        "y"
      ],
      [
        "▁",
        "ak"
      ],
      [
        "▁",
        "ma"
      ],
      [
        "▁uz",
        "er"
      ],
      [
        "sız",
        "lık"
      ],
      [
        "m",
        "ayan"
      ],
      [
        "▁sey",
        "leri"
      ],
      [
        "▁dev",
        "let"
      ],
      [
        "a",
        "m"
      ],
      [
        "▁fark",
        "ında"
      ],
      [
        "▁dor",
        "t"
      ],
      [
        "▁ba",
        "s"
      ],
      [
        "▁n",
        "it"
      ],
      [
        "▁il",
        "et"
      ],
      [
        "▁bon",
        "o"
      ],
      [
        "▁icin",
        "e"
      ],
      [
        "l",
        "ılık"
      ],
      [
        "▁yol",
        "da"
      ],
      [
        "▁c",
        "aba"
      ],
      [
        "▁oda",
        "lari"
      ],
      [
        "▁",
        "ask"
      ],
      [
        "ma",
        "ya"
      ],
      [
        "m",
        "ey"
      ],
      [
        "▁kon",
        "ak"
      ],
      [
        "▁or",
        "g"
      ],
      [
        "▁duv",
        "ar"
      ],
      [
        "ık",
        "ları"
      ],
      [
        "▁ref",
        "orm"
      ],
      [
        "i",
        "gi"
      ],
      [
        "▁b",
        "alık"
      ],
      [
        "▁",
        "es"
      ],
      [
        "mek",
        "t"
      ],
      [
        "i",
        "len"
      ],
      [
        "▁b",
        "ırak"
      ],
      [
        "▁ort",
        "ak"
      ],
      [
        "▁da",
        "y"
      ],
      [
        "e",
        "ydi"
      ],
      [
        "▁ka",
        "rı"
      ],
      [
        "il",
        "igi"
      ],
      [
        "r",
        "en"
      ],
      [
        "ı",
        "p"
      ],
      [
        "▁",
        "za"
      ],
      [
        "▁olu",
        "yor"
      ],
      [
        "▁ih",
        "t"
      ],
      [
        "▁if",
        "ade"
      ],
      [
        "ak",
        "ları"
      ],
      [
        "i",
        "li"
      ],
      [
        "ma",
        "dim"
      ],
      [
        "ı",
        "g"
      ],
      [
        "iz",
        "lik"
      ],
      [
        "l",
        "en"
      ],
      [
        "▁er",
        "k"
      ],
      [
        "u",
        "yor"
      ],
      [
        "▁",
        "iz"
      ],
      [
        "hu",
        "t"
      ],
      [
        "▁av",
        "uk"
      ],
      [
        "▁v",
        "uc"
      ],
      [
        "lar",
        "ak"
      ],
      [
        "▁te",
        "n"
      ],
      [
        "▁sa",
        "c"
      ],
      [
        "▁soz",
        "u"
      ],
      [
        "▁deg",
        "il"
      ],
      [
        "anın",
        "ın"
      ],
      [
        "▁t",
        "az"
      ],
      [
        "dı",
        "m"
      ],
      [
        "▁adam",
        "ın"
      ],
      [
        "mey",
        "e"
      ],
      [
        "▁phil",
        "adel"
      ],
      [
        "▁sat",
        "ısı"
      ],
      [
        "a",
        "l"
      ],
      [
        "▁ko",
        "du"
      ],
      [
        "as",
        "a"
      ],
      [
        "▁var",
        "lık"
      ],
      [
        "▁it",
        "ir"
      ],
      [
        "n",
        "am"
      ],
      [
        "▁y",
        "ine"
      ],
      [
        "a",
        "r"
      ],
      [
        "▁m",
        "ar"
      ],
      [
        "▁personel",
        "in"
      ],
      [
        "▁k",
        "r"
      ],
      [
        "ı",
        "lık"
      ],
      [
        "un",
        "uz"
      ],
      [
        "▁f",
        "ay"
      ],
      [
        "d",
        "ar"
      ],
      [
        "▁b",
        "ez"
      ],
      [
        "▁bek",
        "le"
      ],
      [
        "▁eks",
        "ik"
      ],
      [
        "▁mut",
        "f"
      ],
      [
        "▁tem",
        "muz"
      ],
      [
        "▁r",
        "ak"
      ],
      [
        "▁n",
        "ef"
      ],
      [
        "e",
        "li"
      ],
      [
        "▁gel",
        "is"
      ],
      [
        "▁",
        "”"
      ],
      [
        "▁ust",
        "unde"
      ],
      [
        "▁otel",
        "e"
      ],
      [
        "▁cev",
        "r"
      ],
      [
        "▁yeter",
        "sizdi"
      ],
      [
        "at",
        "ır"
      ],
      [
        "▁c",
        "o"
      ],
      [
        "▁",
        "ger"
      ],
      [
        "▁on",
        "unde"
      ],
      [
        "'",
        "n"
      ],
      [
        "▁kar",
        "s"
      ],
      [
        "▁'",
        "'"
      ],
      [
        "▁",
        "ver"
      ],
      [
        "de",
        "s"
      ],
      [
        "▁zor",
        "unda"
      ],
      [
        "ıs",
        "ıyla"
      ],
      [
        "▁kıy",
        "met"
      ],
      [
        "▁al",
        "t"
      ],
      [
        "▁mas",
        "a"
      ],
      [
        "▁al",
        "a"
      ],
      [
        "suz",
        "luk"
      ],
      [
        "▁endek",
        "s"
      ],
      [
        "ed",
        "ig"
      ],
      [
        "▁l",
        "e"
      ],
      [
        "an",
        "ları"
      ],
      [
        "▁ba",
        "ba"
      ],
      [
        "▁ken",
        "t"
      ],
      [
        "c",
        "ok"
      ],
      [
        "▁m",
        "ark"
      ],
      [
        "'",
        "ın"
      ],
      [
        "u",
        "t"
      ],
      [
        "▁r",
        "es"
      ],
      [
        "▁g",
        "ore"
      ],
      [
        "'",
        "ta"
      ],
      [
        "m",
        "iyorum"
      ],
      [
        "▁s",
        "ark"
      ],
      [
        "t",
        "ar"
      ],
      [
        "l",
        "eri"
      ],
      [
        "▁b",
        "a"
      ],
      [
        "ti",
        "h"
      ],
      [
        "▁ar",
        "tık"
      ],
      [
        "▁kası",
        "gı"
      ],
      [
        "dı",
        "r"
      ],
      [
        "▁v",
        "ade"
      ],
      [
        "▁ayr",
        "ı"
      ],
      [
        "▁yas",
        "a"
      ],
      [
        "ik",
        "ti"
      ],
      [
        "ız",
        "ın"
      ],
      [
        "g",
        "e"
      ],
      [
        "▁tur",
        "k"
      ],
      [
        "▁eg",
        "er"
      ],
      [
        "ıs",
        "ız"
      ],
      [
        "▁s",
        "im"
      ],
      [
        "▁kat",
        "k"
      ],
      [
        "▁g",
        "e"
      ],
      [
        "▁hay",
        "v"
      ],
      [
        "▁uc",
        "ret"
      ],
      [
        "▁havayol",
        "larında"
      ],
      [
        "▁muh",
        "end"
      ],
      [
        "▁go",
        "ster"
      ],
      [
        "enler",
        "in"
      ],
      [
        "▁goz",
        "lerini"
      ],
      [
        "▁fabr",
        "ika"
      ],
      [
        "am",
        "ak"
      ],
      [
        "▁d",
        "ayan"
      ],
      [
        "▁t",
        "en"
      ],
      [
        "c",
        "ek"
      ],
      [
        "on",
        "el"
      ],
      [
        "i",
        "h"
      ],
      [
        "▁m",
        "ed"
      ],
      [
        "ur",
        "u"
      ],
      [
        "▁k",
        "end"
      ],
      [
        "mı",
        "z"
      ],
      [
        "▁b",
        "un"
      ],
      [
        "▁c",
        "at"
      ],
      [
        "iv",
        "ers"
      ],
      [
        "▁yap",
        "ım"
      ],
      [
        "▁koy",
        "lu"
      ],
      [
        "on",
        "om"
      ],
      [
        "c",
        "ısı"
      ],
      [
        "▁devlet",
        "in"
      ],
      [
        "as",
        "i"
      ],
      [
        "▁k",
        "uz"
      ],
      [
        "ci",
        "h"
      ],
      [
        "5",
        "'"
      ],
      [
        "▁o",
        "t"
      ],
      [
        "▁ara",
        "stır"
      ],
      [
        "ur",
        "t"
      ],
      [
        "du",
        "g"
      ],
      [
        "▁kon",
        "tr"
      ],
      [
        "a",
        "ydi"
      ],
      [
        "▁sır",
        "asında"
      ],
      [
        "▁guzel",
        "lik"
      ],
      [
        "p",
        "ar"
      ],
      [
        "▁is",
        "im"
      ],
      [
        "▁sev",
        "iye"
      ],
      [
        "an",
        "ma"
      ],
      [
        "▁sin",
        "em"
      ],
      [
        "▁b",
        "asını"
      ],
      [
        "lerin",
        "den"
      ],
      [
        "▁t",
        "eh"
      ],
      [
        "▁zinc",
        "ir"
      ],
      [
        "▁kr",
        "iz"
      ],
      [
        "▁co",
        "p"
      ],
      [
        "▁ted",
        "bir"
      ],
      [
        "▁",
        "?"
      ],
      [
        "▁taraf",
        "ından"
      ],
      [
        "▁ol",
        "mak"
      ],
      [
        "▁bah",
        "c"
      ],
      [
        "at",
        "es"
      ],
      [
        "▁iki",
        "si"
      ],
      [
        "▁co",
        "g"
      ],
      [
        "▁",
        "ez"
      ],
      [
        "iy",
        "on"
      ],
      [
        "u",
        "s"
      ],
      [
        "el",
        "er"
      ],
      [
        "▁amer",
        "ik"
      ],
      [
        "▁gir",
        "isim"
      ],
      [
        "▁d",
        "ısında"
      ],
      [
        "▁do",
        "st"
      ],
      [
        "▁orn",
        "ek"
      ],
      [
        "ma",
        "sın"
      ],
      [
        "▁g",
        "or"
      ],
      [
        "l",
        "iyor"
      ],
      [
        "i",
        "le"
      ],
      [
        "▁degis",
        "im"
      ],
      [
        "▁c",
        "ep"
      ],
      [
        "▁kum",
        "ar"
      ],
      [
        "▁ask",
        "er"
      ],
      [
        "▁h",
        "uz"
      ],
      [
        "it",
        "esi"
      ],
      [
        "▁l",
        "ob"
      ],
      [
        "▁de",
        "k"
      ],
      [
        "▁dogr",
        "u"
      ],
      [
        "di",
        "m"
      ],
      [
        "▁k",
        "ur"
      ],
      [
        "im",
        "in"
      ],
      [
        "i",
        "p"
      ],
      [
        "▁",
        "edi"
      ],
      [
        "▁anla",
        "t"
      ],
      [
        "▁so",
        "h"
      ],
      [
        "▁",
        "co"
      ],
      [
        "▁ha",
        "t"
      ],
      [
        "a",
        "li"
      ],
      [
        "i",
        "g"
      ],
      [
        "▁b",
        "ede"
      ],
      [
        "▁o",
        "de"
      ],
      [
        "d",
        "e"
      ],
      [
        "▁b",
        "i"
      ],
      [
        "g",
        "an"
      ],
      [
        "▁g",
        "unden"
      ],
      [
        "▁if",
        "las"
      ],
      [
        "ay",
        "an"
      ],
      [
        "c",
        "ev"
      ],
      [
        "▁yak",
        "las"
      ],
      [
        "k",
        "an"
      ],
      [
        "▁u",
        "ret"
      ],
      [
        "▁meydan",
        "a"
      ],
      [
        "▁gel",
        "en"
      ],
      [
        "▁bak",
        "ıs"
      ],
      [
        "iyor",
        "um"
      ],
      [
        "▁yal",
        "nız"
      ],
      [
        "▁duy",
        "g"
      ],
      [
        "▁g",
        "ob"
      ],
      [
        "▁fiyat",
        "lar"
      ],
      [
        "▁id",
        "ar"
      ],
      [
        "▁tut",
        "un"
      ],
      [
        "aları",
        "m"
      ],
      [
        "m",
        "el"
      ],
      [
        "▁herk",
        "es"
      ],
      [
        "▁",
        "a"
      ],
      [
        "i",
        "ci"
      ],
      [
        "▁si",
        "p"
      ],
      [
        "▁davran",
        "ıs"
      ],
      [
        "g",
        "al"
      ],
      [
        "ıs",
        "ının"
      ],
      [
        "▁altın",
        "a"
      ],
      [
        "▁g",
        "al"
      ],
      [
        "k",
        "al"
      ],
      [
        "▁kon",
        "u"
      ],
      [
        "▁tem",
        "el"
      ],
      [
        "▁ucret",
        "lerini"
      ],
      [
        "ka",
        "n"
      ],
      [
        "▁ıs",
        "ık"
      ],
      [
        "▁h",
        "oc"
      ],
      [
        "▁zar",
        "ar"
      ],
      [
        "il",
        "i"
      ],
      [
        "j",
        "i"
      ],
      [
        "ıl",
        "dı"
      ],
      [
        "e",
        "p"
      ],
      [
        "▁h",
        "ur"
      ],
      [
        "ra",
        "f"
      ],
      [
        "▁idar",
        "e"
      ],
      [
        "▁cor",
        "ba"
      ],
      [
        "▁ilav",
        "e"
      ],
      [
        "e",
        "g"
      ],
      [
        "▁yemek",
        "lerde"
      ],
      [
        "▁icecek",
        "ler"
      ],
      [
        "▁",
        "un"
      ],
      [
        "▁kı",
        "s"
      ],
      [
        "enler",
        "i"
      ],
      [
        "t",
        "e"
      ],
      [
        "▁f",
        "as"
      ],
      [
        "▁enf",
        "lasyon"
      ],
      [
        "▁gen",
        "c"
      ],
      [
        "eti",
        "ciler"
      ],
      [
        "el",
        "li"
      ],
      [
        "▁s",
        "uya"
      ],
      [
        "'d",
        "e"
      ],
      [
        "lay",
        "acak"
      ],
      [
        "▁du",
        "y"
      ],
      [
        "um",
        "a"
      ],
      [
        "▁ort",
        "a"
      ],
      [
        "ıl",
        "ıg"
      ],
      [
        "▁",
        "ıs"
      ],
      [
        "▁ar",
        "d"
      ],
      [
        "▁so",
        "g"
      ],
      [
        "▁calı",
        "s"
      ],
      [
        "▁ol",
        "m"
      ],
      [
        "▁ko",
        "ku"
      ],
      [
        "▁tes",
        "ekkur"
      ],
      [
        "▁r",
        "uy"
      ],
      [
        "▁ba",
        "k"
      ],
      [
        "▁or",
        "anı"
      ],
      [
        "▁mat",
        "em"
      ],
      [
        "▁g",
        "it"
      ],
      [
        "▁ha",
        "s"
      ],
      [
        "▁ne",
        "den"
      ],
      [
        "eler",
        "le"
      ],
      [
        "▁kar",
        "ayol"
      ],
      [
        "ust",
        "os"
      ],
      [
        "▁d",
        "og"
      ],
      [
        "▁d",
        "uk"
      ],
      [
        "▁em",
        "ir"
      ],
      [
        "▁par",
        "aya"
      ],
      [
        "▁mik",
        "tar"
      ],
      [
        "b",
        "ir"
      ],
      [
        "as",
        "et"
      ],
      [
        "im",
        "de"
      ],
      [
        "▁ay",
        "ı"
      ],
      [
        "iy",
        "i"
      ],
      [
        "▁v",
        "ucu"
      ],
      [
        "'",
        "y"
      ],
      [
        "▁gul",
        "er"
      ],
      [
        "▁y",
        "ılı"
      ],
      [
        "lama",
        "sı"
      ],
      [
        "▁g",
        "uv"
      ],
      [
        "s",
        "en"
      ],
      [
        "▁s",
        "an"
      ],
      [
        "▁y",
        "ıla"
      ],
      [
        "d",
        "an"
      ],
      [
        "medi",
        "m"
      ],
      [
        "▁ger",
        "iye"
      ],
      [
        "l",
        "in"
      ],
      [
        "▁dur",
        "umu"
      ],
      [
        "▁sark",
        "ı"
      ],
      [
        "▁",
        "zir"
      ],
      [
        "in",
        "iz"
      ],
      [
        "ıl",
        "ım"
      ],
      [
        "▁oldu",
        "gunu"
      ],
      [
        "▁on",
        "c"
      ],
      [
        "t",
        "lu"
      ],
      [
        "el",
        "di"
      ],
      [
        "da",
        "k"
      ],
      [
        "▁h",
        "edef"
      ],
      [
        "eviz",
        "yon"
      ],
      [
        "▁ev",
        "i"
      ],
      [
        "g",
        "il"
      ],
      [
        "▁",
        "\""
      ],
      [
        "ma",
        "ları"
      ],
      [
        "▁s",
        "al"
      ],
      [
        "▁de",
        "st"
      ],
      [
        "k",
        "il"
      ],
      [
        "as",
        "ı"
      ],
      [
        "▁",
        "i"
      ],
      [
        "▁",
        "ede"
      ],
      [
        "▁dik",
        "kat"
      ],
      [
        "og",
        "ram"
      ],
      [
        "alar",
        "la"
      ],
      [
        "▁onc",
        "eki"
      ],
      [
        "l",
        "u"
      ],
      [
        "▁kr",
        "edi"
      ],
      [
        "▁hareket",
        "e"
      ],
      [
        "s",
        "izdi"
      ],
      [
        "▁m",
        "ev"
      ],
      [
        "▁v",
        "er"
      ],
      [
        "▁yolcu",
        "luk"
      ],
      [
        "en",
        "ek"
      ],
      [
        "▁b",
        "eklen"
      ],
      [
        "▁hal",
        "de"
      ],
      [
        "▁butu",
        "n"
      ],
      [
        "▁der",
        "ec"
      ],
      [
        "▁bol",
        "umu"
      ],
      [
        "▁y",
        "alan"
      ],
      [
        "m",
        "is"
      ],
      [
        "▁ta",
        "k"
      ],
      [
        "ler",
        "di"
      ],
      [
        "▁uc",
        "reti"
      ],
      [
        "▁",
        "tu"
      ],
      [
        "us",
        "tu"
      ],
      [
        "▁ann",
        "esi"
      ],
      [
        "▁d",
        "ir"
      ],
      [
        "▁hizmet",
        "ten"
      ],
      [
        "cı",
        "lık"
      ],
      [
        "▁yer",
        "inden"
      ],
      [
        "g",
        "ini"
      ],
      [
        "▁franc",
        "isco"
      ],
      [
        "▁b",
        "asın"
      ],
      [
        "▁par",
        "c"
      ],
      [
        "▁d",
        "ip"
      ],
      [
        "y",
        "a"
      ],
      [
        "▁is",
        "ter"
      ],
      [
        "▁g",
        "ec"
      ],
      [
        "li",
        "g"
      ],
      [
        "l",
        "iligi"
      ],
      [
        "'d",
        "an"
      ],
      [
        "▁di",
        "ye"
      ],
      [
        "▁b",
        "asında"
      ],
      [
        "ans",
        "iyon"
      ],
      [
        "u",
        "yle"
      ],
      [
        "uy",
        "la"
      ],
      [
        "▁e",
        "g"
      ],
      [
        "em",
        "e"
      ],
      [
        "▁elb",
        "is"
      ],
      [
        "▁lez",
        "zet"
      ],
      [
        "▁c",
        "ar"
      ],
      [
        "ar",
        "eti"
      ],
      [
        "▁gel",
        "iyor"
      ],
      [
        "s",
        "uz"
      ],
      [
        "▁ar",
        "ac"
      ],
      [
        "'",
        "den"
      ],
      [
        "▁zaman",
        "da"
      ],
      [
        "▁et",
        "mem"
      ],
      [
        "de",
        "k"
      ],
      [
        "ıg",
        "ını"
      ],
      [
        "a",
        "p"
      ],
      [
        "an",
        "dır"
      ],
      [
        "▁olm",
        "ak"
      ],
      [
        "▁hal",
        "i"
      ],
      [
        "▁sayı",
        "da"
      ],
      [
        "am",
        "a"
      ],
      [
        "▁gun",
        "e"
      ],
      [
        "▁ay",
        "da"
      ],
      [
        "a",
        "g"
      ],
      [
        "▁ucus",
        "larının"
      ],
      [
        "▁m",
        "er"
      ],
      [
        "es",
        "ini"
      ],
      [
        "▁serv",
        "is"
      ],
      [
        "▁hap",
        "is"
      ],
      [
        "ım",
        "ız"
      ],
      [
        "masın",
        "a"
      ],
      [
        "si",
        "l"
      ],
      [
        "▁k",
        "ıy"
      ],
      [
        "▁t",
        "eb"
      ],
      [
        "▁bu",
        "r"
      ],
      [
        "▁ayak",
        "ta"
      ],
      [
        "is",
        "in"
      ],
      [
        "ey",
        "r"
      ],
      [
        "p",
        "an"
      ],
      [
        "▁son",
        "ra"
      ],
      [
        "▁t",
        "op"
      ],
      [
        "▁tesis",
        "in"
      ],
      [
        "▁m",
        "il"
      ],
      [
        "▁mu",
        "da"
      ],
      [
        "d",
        "il"
      ],
      [
        "d",
        "ıgı"
      ],
      [
        "▁ko",
        "t"
      ],
      [
        "an",
        "t"
      ],
      [
        "ıy",
        "a"
      ],
      [
        "an",
        "a"
      ],
      [
        "▁tesv",
        "ik"
      ],
      [
        "▁ek",
        "sik"
      ],
      [
        "▁s",
        "onra"
      ],
      [
        "▁se",
        "y"
      ],
      [
        "▁of",
        "is"
      ],
      [
        "▁bu",
        "rada"
      ],
      [
        "'",
        "ten"
      ],
      [
        "▁ne",
        "f"
      ],
      [
        "ır",
        "ım"
      ],
      [
        "r",
        "o"
      ],
      [
        "▁s",
        "uk"
      ],
      [
        "▁top",
        "lan"
      ],
      [
        "▁ik",
        "ram"
      ],
      [
        "▁kur",
        "s"
      ],
      [
        "▁b",
        "asına"
      ],
      [
        "▁mahk",
        "em"
      ],
      [
        "e",
        "lerin"
      ],
      [
        "is",
        "t"
      ],
      [
        "▁seviy",
        "esine"
      ],
      [
        "er",
        "di"
      ],
      [
        "▁yar",
        "d"
      ],
      [
        "l",
        "av"
      ],
      [
        "▁..",
        "\""
      ],
      [
        "▁p",
        "ant"
      ],
      [
        "▁m",
        "ec"
      ],
      [
        "▁et",
        "k"
      ],
      [
        "ak",
        "i"
      ],
      [
        "t",
        "er"
      ],
      [
        "ers",
        "iz"
      ],
      [
        "▁do",
        "lar"
      ],
      [
        "dı",
        "g"
      ],
      [
        "an",
        "ların"
      ],
      [
        "▁s",
        "ef"
      ],
      [
        "▁gor",
        "mek"
      ],
      [
        "▁di",
        "n"
      ],
      [
        "o",
        "y"
      ],
      [
        "▁kor",
        "k"
      ],
      [
        "▁tam",
        "am"
      ],
      [
        "ler",
        "le"
      ],
      [
        "▁in",
        "san"
      ],
      [
        "▁mevz",
        "u"
      ],
      [
        "▁il",
        "er"
      ],
      [
        "y",
        "i"
      ],
      [
        "▁k",
        "ut"
      ],
      [
        "▁n",
        "ak"
      ],
      [
        "▁ey",
        "lul"
      ],
      [
        "▁ya",
        "na"
      ],
      [
        "▁prob",
        "lem"
      ],
      [
        "▁mu",
        "dur"
      ],
      [
        "ları",
        "m"
      ],
      [
        "▁pr",
        "ens"
      ],
      [
        "▁baz",
        "i"
      ],
      [
        "▁oran",
        "ında"
      ],
      [
        "a",
        "tır"
      ],
      [
        "er",
        "ken"
      ],
      [
        "▁se",
        "b"
      ],
      [
        "▁cif",
        "t"
      ],
      [
        "▁kel",
        "im"
      ],
      [
        "uyor",
        "um"
      ],
      [
        "iz",
        "i"
      ],
      [
        "ar",
        "s"
      ],
      [
        "▁f",
        "ab"
      ],
      [
        "▁iz",
        "in"
      ],
      [
        "▁org",
        "an"
      ],
      [
        "▁hiss",
        "ed"
      ],
      [
        "▁a",
        "t"
      ],
      [
        "▁k",
        "o"
      ],
      [
        "▁sen",
        "t"
      ],
      [
        "▁is",
        "ini"
      ],
      [
        "▁ken",
        "ar"
      ],
      [
        "mı",
        "stı"
      ],
      [
        "▁ya",
        "y"
      ],
      [
        "▁du",
        "m"
      ],
      [
        "▁havayol",
        "ları"
      ],
      [
        "▁git",
        "mek"
      ],
      [
        "▁ay",
        "n"
      ],
      [
        "▁tek",
        "n"
      ],
      [
        "▁ol",
        "ur"
      ],
      [
        "▁d",
        "ik"
      ],
      [
        "▁s",
        "ir"
      ],
      [
        "▁yardım",
        "cı"
      ],
      [
        "▁ol",
        "maz"
      ],
      [
        "eda",
        "v"
      ],
      [
        "▁kuvv",
        "et"
      ],
      [
        "▁coc",
        "ugu"
      ],
      [
        "▁",
        "mi"
      ],
      [
        "er",
        "h"
      ],
      [
        "▁y",
        "on"
      ],
      [
        "▁n",
        "es"
      ],
      [
        "o",
        "b"
      ],
      [
        "▁bo",
        "yle"
      ],
      [
        "▁f",
        "ilm"
      ],
      [
        "▁hay",
        "van"
      ],
      [
        "▁fa",
        "iz"
      ],
      [
        "▁goster",
        "in"
      ],
      [
        "▁mi",
        "s"
      ],
      [
        "▁",
        "5'ten"
      ],
      [
        "▁hayat",
        "a"
      ],
      [
        "▁mim",
        "ar"
      ],
      [
        "▁top",
        "lam"
      ],
      [
        "▁ins",
        "anı"
      ],
      [
        "▁ist",
        "iyorum"
      ],
      [
        "lik",
        "le"
      ],
      [
        "is",
        "s"
      ],
      [
        "▁t",
        "ut"
      ],
      [
        "▁uc",
        "uyor"
      ],
      [
        "▁pr",
        "ob"
      ],
      [
        "▁nok",
        "ta"
      ],
      [
        "▁o",
        "k"
      ],
      [
        "den",
        "in"
      ],
      [
        "ur",
        "k"
      ],
      [
        "lan",
        "tı"
      ],
      [
        "▁an",
        "ay"
      ],
      [
        "▁",
        "te"
      ],
      [
        "▁mes",
        "af"
      ],
      [
        "l",
        "eket"
      ],
      [
        "▁cog",
        "u"
      ],
      [
        "▁bah",
        "ce"
      ],
      [
        "u",
        "dur"
      ],
      [
        "▁yıl",
        "lar"
      ],
      [
        "▁h",
        "o"
      ],
      [
        "▁kars",
        "iligini"
      ],
      [
        "▁ort",
        "asında"
      ],
      [
        "▁b",
        "uc"
      ],
      [
        "▁yaln",
        "ız"
      ],
      [
        "▁ol",
        "maya"
      ],
      [
        "▁",
        "cok"
      ],
      [
        "▁ar",
        "astır"
      ],
      [
        "▁k",
        "us"
      ],
      [
        "▁t",
        "o"
      ],
      [
        "▁saat",
        "lerde"
      ],
      [
        "a",
        "'nın"
      ],
      [
        "lıg",
        "a"
      ],
      [
        "▁t",
        "av"
      ],
      [
        "▁neden",
        "iyle"
      ],
      [
        "▁k",
        "at"
      ],
      [
        "as",
        "ın"
      ],
      [
        "l",
        "ıyor"
      ],
      [
        "▁cocuk",
        "lara"
      ],
      [
        "al",
        "ım"
      ],
      [
        "▁hiss",
        "e"
      ],
      [
        "m",
        "ak"
      ],
      [
        "m",
        "ma"
      ],
      [
        "▁ada",
        "m"
      ],
      [
        "▁seh",
        "ir"
      ],
      [
        "▁kadın",
        "lar"
      ],
      [
        "▁ihtiyac",
        "ım"
      ],
      [
        "▁ur",
        "etici"
      ],
      [
        "▁or",
        "ta"
      ],
      [
        "am",
        "ası"
      ],
      [
        "▁a",
        "s"
      ],
      [
        "▁yıl",
        "d"
      ],
      [
        "▁ben",
        "z"
      ],
      [
        "▁s",
        "ac"
      ],
      [
        "▁",
        "9"
      ],
      [
        "▁ki",
        "si"
      ],
      [
        "ir",
        "ler"
      ],
      [
        "▁kı",
        "v"
      ],
      [
        "▁",
        "am"
      ],
      [
        "▁l",
        "ist"
      ],
      [
        "▁anal",
        "ist"
      ],
      [
        "c",
        "ılık"
      ],
      [
        "▁al",
        "n"
      ],
      [
        "▁dom",
        "ates"
      ],
      [
        "▁anla",
        "ttı"
      ],
      [
        "▁f",
        "el"
      ],
      [
        "▁h",
        "angi"
      ],
      [
        "▁u",
        "st"
      ],
      [
        "▁piy",
        "as"
      ],
      [
        "▁b",
        "ina"
      ],
      [
        "y",
        "alar"
      ],
      [
        "lar",
        "ı"
      ],
      [
        "▁ka",
        "t"
      ],
      [
        "i",
        "dir"
      ],
      [
        "▁ha",
        "k"
      ],
      [
        "d",
        "ıgını"
      ],
      [
        "▁boy",
[...]
