{
  "version": "1.0",
  "truncation": null,
  "padding": null,
  "added_tokens": [
    {
      "id": 6423,
      "content": "[PAD]",
      "single_word": false,
      "lstrip": false,
      "rstrip": false,
      "normalized": false,
      "special": true
    },
    {
      "id": 7514,
      "content": "[MASK]",
      "single_word": false,
      "lstrip": false,
      "rstrip": false,
      "normalized": false,
      "special": true
    },
    {
      "id": 7681,
      "content": "[UNK]",
      "single_word": false,
      "lstrip": false,
      "rstrip": false,
      "normalized": false,
      "special": true
    },
    {
      "id": 12747,
      "content": "[CLS]",
      "single_word": false,
      "lstrip": false,
      "rstrip": false,
      "normalized": false,
      "special": true
    },
    {
      "id": 13184,
      "content": "[SEP]",
      "single_word": false,
      "lstrip": false,
      "rstrip": false,
      "normalized": false,
      "special": true
    }
  ],
  "normalizer": {
    "type": "Sequence",
    "normalizers": [
      {
        "type": "NFD"
      },
      {
        "type": "Lowercase"
      },
      {
        "type": "StripAccents"
      }
    ]
  },
  "pre_tokenizer": {
    "type": "Sequence",
    "pretokenizers": [
      {
        "type": "Metaspace",
        "replacement": "▁",
        "prepend_scheme": "always",
        "split": true
      }
    ]
  },
  "post_processor": {
    "type": "TemplateProcessing",
    "single": [
      {
        "SpecialToken": {
          "id": "[CLS]",
          "type_id": 0
        }
      },
      {
        "Sequence": {
          "id": "A",
          "type_id": 0
        }
      },
      {
        "SpecialToken": {
          "id": "[SEP]",
          "type_id": 0
        }
      }
    ],
    "pair": [
      {
        "SpecialToken": {
          "id": "[CLS]",
          "type_id": 0
        }
      },
      {
        "Sequence": {
          "id": "A",
          "type_id": 0
        }
      },
      {
        "SpecialToken": {
          "id": "[SEP]",
          "type_id": 0
        }
      },
      {
        "Sequence": {
          "id": "B",
          "type_id": 1
        }
      },
      {
        "SpecialToken": {
          "id": "[SEP]",
          "type_id": 1
        }
      }
    ],
    "special_tokens": {
      "[CLS]": {
        "id": "[CLS]",
        "ids": [
          12747
        ],
        "tokens": [
          "[CLS]"
        ]
      },
      "[SEP]": {
        "id": "[SEP]",
        "ids": [
          13184
        ],
        "tokens": [
          "[SEP]"
        ]
      }
    }
  },
  "decoder": {
    "type": "Metaspace",
    "replacement": "▁",
    "prepend_scheme": "always",
    "split": true
  },
  "model": {
    "type": "WordPiece",
    "unk_token": "[UNK]",
    "continuing_subword_prefix": "##",
    "max_input_chars_per_word": 100,
    "vocab": {
      "▁milyardan": 0,
      "▁agız": 1,
      "##sızlıgını": 2,
      "▁davranısını": 3,
      "▁kahvenin": 4,
      "▁ilim": 5,
      "##malıydı": 6,
      "▁dilin": 7,
      "▁vesil": 8,
      "▁yuzyılın": 9,
      "▁sif": 10,
      "▁pekmez": 11,
      "▁sic": 12,
      "▁onayını": 13,
      "▁muzigin": 14,
      "##to": 15,
      "▁chat": 16,
      "▁alamadim": 17,
      "▁durmamacasına": 18,
      "▁cozumu": 19,
      "▁hast": 20,
      "▁bilgiyi": 21,
      "▁yonel": 22,
      "▁mudahal": 23,
      "##cuyu": 24,
      "▁sonradan": 25,
      "##dugunu": 26,
      "##elim": 27,
      "▁artırma": 28,
      "▁oynamaya": 29,
      "▁kamuoyuna": 30,
      "▁ec": 31,
      "▁ha": 32,
      "▁serce": 33,
      "▁must": 34,
      "▁herkesi": 35,
      "▁aras": 36,
      "▁reddet": 37,
      "▁ucretle": 38,
      "##lamasının": 39,
      "▁miami'den": 40,
      "▁form": 41,
      "▁beklenen": 42,
      "##una": 43,
      "▁uzeri": 44,
      "▁valisi": 45,
      "▁ticari": 46,
      "▁temerrut": 47,
      "▁gezin": 48,
      "▁dusmesine": 49,
      "▁sırada": 50,
      "▁sarkı": 51,
      "▁ebeveyn": 52,
      "▁abim": 53,
      "▁topragı": 54,
      "▁kaybına": 55,
      "▁kapıyı": 56,
      "▁fazilet": 57,
      "##son": 58,
      "##raber": 59,
      "▁taham": 60,
      "##ikatur": 61,
      "▁q": 62,
      "▁elimizde": 63,
      "▁toplamak": 64,
      "▁uzakta": 65,
      "▁olayı": 66,
      "▁dola": 67,
      "▁fedakarlık": 68,
      "▁fonlarını": 69,
      "▁tanrısı": 70,
      "▁tedar": 71,
      "▁kanep": 72,
      "▁zorla": 73,
      "▁esn": 74,
      "##ildim": 75,
      "▁burnu": 76,
      "▁halbuki": 77,
      "##asır": 78,
      "▁alakasi": 79,
      "▁gittim": 80,
      "▁coz": 81,
      "▁siyasete": 82,
      "▁cerey": 83,
      "##tiniz": 84,
      "▁pesinden": 85,
      "▁memuriyet": 86,
      "##anlardan": 87,
      "▁yeniden": 88,
      "▁otelde": 89,
      "▁gecmisi": 90,
      "▁gurultuye": 91,
      "▁artıs": 92,
      "▁angeles'e": 93,
      "▁yapımını": 94,
      "▁salın": 95,
      "▁buy": 96,
      "##lasyon": 97,
      "▁vaj": 98,
      "▁ureticilerinin": 99,
      "▁birlestir": 100,
      "##lık": 101,
      "##an'ın": 102,
      "▁ifsa": 103,
      "▁arasında": 104,
      "▁ozellikleri": 105,
      "▁standart": 106,
      "▁yazarı": 107,
      "▁ulasımı": 108,
      "▁y": 109,
      "▁yapmadıgını": 110,
      "▁calısıyorlar": 111,
      "▁olustur": 112,
      "▁yur": 113,
      "##-p": 114,
      "▁kazanclara": 115,
      "▁bekledigimden": 116,
      "##panya": 117,
      "▁carsı": 118,
      "▁oturt": 119,
      "▁toplantıdan": 120,
      "▁edebiyatı": 121,
      "▁heyec": 122,
      "##han": 123,
      "▁manevra": 124,
      "▁gogus": 125,
      "▁aray": 126,
      "▁dusurmek": 127,
      "▁sayede": 128,
      "▁buc": 129,
      "▁bagısıklık": 130,
      "▁sorusturma": 131,
      "▁1989'un": 132,
      "▁u": 133,
      "##alarda": 134,
      "▁seviyelerinde": 135,
      "▁calık": 136,
      "##cih": 137,
      "##eldir": 138,
      "##'nde": 139,
      "▁maclarda": 140,
      "▁cıkmam": 141,
      "▁yken": 142,
      "▁fig": 143,
      "▁isteyen": 144,
      "##landıgında": 145,
      "▁operasyonlarına": 146,
      "##izlik": 147,
      "▁once": 148,
      "▁indian": 149,
      "##mayla": 150,
      "▁ayagın": 151,
      "##mıstır": 152,
      "##emizi": 153,
      "▁odasindan": 154,
      "▁bilgisayarlarının": 155,
      "▁yılına": 156,
      "▁mar": 157,
      "▁bitir": 158,
      "▁ucuslarla": 159,
      "▁edemez": 160,
      "▁bilgisayar": 161,
      "▁dudakları": 162,
      "##orma": 163,
      "▁degerli": 164,
      "▁hisseyi": 165,
      "▁soval": 166,
      "▁tesp": 167,
      "##ılırsa": 168,
      "▁ra": 169,
      "##hur": 170,
      "▁tavada": 171,
      "▁kokteyl": 172,
      "▁ruhundan": 173,
      "▁karısıklık": 174,
      "##amızın": 175,
      "▁karara": 176,
      "▁katılıyor": 177,
      "##'ı": 178,
      "▁soylemeye": 179,
      "▁rıh": 180,
      "▁spons": 181,
      "▁kirliydi": 182,
      "▁pencereden": 183,
      "▁marif": 184,
      "▁kaydetti": 185,
      "▁sir": 186,
      "▁adı": 187,
      "▁sonrasına": 188,
      "▁havalimanı": 189,
      "▁trafik": 190,
      "▁temizlikten": 191,
      "▁sonucların": 192,
      "▁unsuru": 193,
      "▁first": 194,
      "▁futbolcu": 195,
      "▁karabiber": 196,
      "##uldugunu": 197,
      "▁ameliyat": 198,
      "▁aldıktan": 199,
      "▁kokuyordu": 200,
      "▁anlatmak": 201,
      "▁temel": 202,
      "▁kısmen": 203,
      "▁ydim": 204,
      "▁mih": 205,
      "##atil": 206,
      "##tası": 207,
      "▁tanın": 208,
      "▁patlıc": 209,
      "▁mektebe": 210,
      "▁hadisenin": 211,
      "##un": 212,
      "▁mucadele": 213,
      "##ladılar": 214,
      "▁kaliteyi": 215,
      "##imizin": 216,
      "▁traj": 217,
      "▁gozler": 218,
      "##lenmesi": 219,
      "▁yatag": 220,
      "▁seridi": 221,
      "##kuz": 222,
      "▁perdesi": 223,
      "▁irf": 224,
      "▁boy": 225,
      "▁diline": 226,
      "▁sanıyorum": 227,
      "▁nabz": 228,
      "▁iplik": 229,
      "▁iyims": 230,
      "▁endeksleri": 231,
      "▁ora": 232,
      "##itesi": 233,
      "▁parkta": 234,
      "▁tesisten": 235,
      "▁etmisler": 236,
      "▁demokratik": 237,
      "▁harikaydi": 238,
      "##se": 239,
      "##elikle": 240,
      "▁kenarları": 241,
      "▁kirpik": 242,
      "▁gecer": 243,
      "▁macı": 244,
      "▁tum": 245,
      "▁yonetiminin": 246,
      "▁kasırga": 247,
      "▁indianapolis'ten": 248,
      "##yeni": 249,
      "▁annem": 250,
      "▁duygusu": 251,
      "▁guzelim": 252,
      "▁kasabadan": 253,
      "▁akl": 254,
      "▁nut": 255,
      "▁faydasını": 256,
      "▁hakkı": 257,
      "▁farkına": 258,
      "▁kahveci": 259,
      "▁mutla": 260,
      "▁rengini": 261,
      "##meli": 262,
      "##uklugu": 263,
      "##isinden": 264,
      "▁boc": 265,
      "▁bahset": 266,
      "##emeye": 267,
      "▁yan": 268,
      "▁acıklam": 269,
      "##lerdi": 270,
      "▁daglarda": 271,
      "▁sarmas": 272,
      "▁mat": 273,
      "▁perdelerini": 274,
      "▁baksana": 275,
      "▁ayının": 276,
      "▁baskanlıgı": 277,
      "##tır": 278,
      "▁oil": 279,
      "▁bec": 280,
      "##1'de": 281,
      "▁saniye": 282,
      "▁yukunu": 283,
      "▁berber": 284,
      "##org": 285,
      "##igine": 286,
      "▁doneminden": 287,
      "▁mani": 288,
      "▁kep": 289,
      "▁yukselt": 290,
      "▁odalarında": 291,
      "▁yetersizdi": 292,
      "▁plaj": 293,
      "##isk": 294,
      "▁mektup": 295,
      "##iyla": 296,
      "▁lezz": 297,
      "##'ne": 298,
      "▁yavr": 299,
      "##ladi": 300,
      "▁degistiriyor": 301,
      "▁gayr": 302,
      "▁konusmaya": 303,
      "▁madde": 304,
      "##8'de": 305,
      "▁yapti": 306,
      "▁muhendisi": 307,
      "▁sivil": 308,
      "▁ray": 309,
      "▁dolardır": 310,
      "##aller": 311,
      "▁planını": 312,
      "▁pur": 313,
      "▁yuzluydu": 314,
      "##ugum": 315,
      "▁ariz": 316,
      "##ke": 317,
      "##adde": 318,
      "▁deligi": 319,
      "##muyor": 320,
      "▁mısın": 321,
      "▁sapan": 322,
      "▁inceleme": 323,
      "##elerde": 324,
      "##madık": 325,
      "##lın": 326,
      "▁prot": 327,
      "▁birka": 328,
      "▁kilerin": 329,
      "##lasın": 330,
      "▁mukav": 331,
      "▁adında": 332,
      "▁arad": 333,
      "▁titizlik": 334,
      "▁dibinden": 335,
      "▁keresinde": 336,
      "##lantı": 337,
      "##ucc": 338,
      "▁bolumu": 339,
      "##lilig": 340,
      "▁diego'ya": 341,
      "▁sozc": 342,
      "▁koruy": 343,
      "##'tan": 344,
      "▁bilete": 345,
      "##dan": 346,
      "##bin": 347,
      "▁kendimizi": 348,
      "▁evrenin": 349,
      "##beri": 350,
      "▁tırman": 351,
      "##o'dan": 352,
      "▁mademki": 353,
      "##nın": 354,
      "▁acıyla": 355,
      "▁ice": 356,
      "▁siy": 357,
      "##yan": 358,
      "##iyetin": 359,
      "▁rafin": 360,
      "▁yangın": 361,
      "##ieg": 362,
      "▁muhabir": 363,
      "▁verebilirim": 364,
      "▁kulag": 365,
      "##duktan": 366,
      "▁cevaplar": 367,
      "▁tezker": 368,
      "##ad": 369,
      "▁taks": 370,
      "▁italyan": 371,
      "”": 372,
      "▁abi": 373,
      "▁bon": 374,
      "▁vak": 375,
      "▁skandal": 376,
      "▁bilmek": 377,
      "##acaklarını": 378,
      "▁bildir": 379,
      "##istirdi": 380,
      "▁yukselerek": 381,
      "▁koltuklar": 382,
      "##aray": 383,
      "▁dususu": 384,
      "##ydi": 385,
      "##lal": 386,
      "▁dua": 387,
      "▁ceza": 388,
      "▁endustrisi": 389,
      "▁insanlardan": 390,
      "▁evden": 391,
      "▁cagında": 392,
      "▁aslında": 393,
      "▁dip": 394,
      "▁islemciler": 395,
      "▁duvarların": 396,
      "##gı": 397,
      "▁pazarlık": 398,
      "▁kumsal": 399,
      "▁bulasık": 400,
      "▁ortalık": 401,
      "▁alıcı": 402,
      "▁gelistirme": 403,
      "##ill": 404,
      "▁sevg": 405,
      "▁mahallede": 406,
      "▁merh": 407,
      "##ızı": 408,
      "▁chicago'dan": 409,
      "##mesinin": 410,
      "▁rap": 411,
      "▁sekiz": 412,
      "##cıları": 413,
      "▁hayatımda": 414,
      "▁dostları": 415,
      "▁iskan": 416,
      "▁dururdu": 417,
      "##uttur": 418,
      "▁tohumları": 419,
      "▁kim": 420,
      "▁goruyoruz": 421,
      "▁imkanları": 422,
      "▁saglam": 423,
      "##kez": 424,
      "▁yetkilileri": 425,
      "##amdan": 426,
      "▁tut": 427,
      "▁hayal": 428,
      "▁yıcı": 429,
      "▁york'tan": 430,
      "▁dondum": 431,
      "▁hesaba": 432,
      "▁bildi": 433,
      "▁milletvek": 434,
      "▁veyahut": 435,
      "▁sim": 436,
      "▁duygular": 437,
      "▁magrur": 438,
      "▁bayanlar": 439,
      "▁uretimin": 440,
      "▁alısveris": 441,
      "▁nesne": 442,
      "▁tahminleri": 443,
      "##nu": 444,
      "▁alabilecegini": 445,
      "▁yırt": 446,
      "▁ayn": 447,
      "▁prob": 448,
      "##gunuz": 449,
      "▁reviz": 450,
      "▁gunlerden": 451,
      "▁koylerinde": 452,
      "▁ihtiras": 453,
      "▁uykus": 454,
      "##amda": 455,
      "▁kaybet": 456,
      "▁itibari": 457,
      "▁oldugumuzu": 458,
      "##hassa": 459,
      "▁gelmeden": 460,
      "▁etmez": 461,
      "▁yaparlar": 462,
      "▁kk": 463,
      "##daki": 464,
      "▁bulunan": 465,
      "▁organı": 466,
      "##'ye": 467,
      "##ırda": 468,
      "▁yeryuzunun": 469,
      "▁koyun": 470,
      "▁genisleme": 471,
      "▁kulturu": 472,
      "▁edinmek": 473,
      "▁agırlıgında": 474,
      "▁mecliste": 475,
      "▁karsılas": 476,
      "▁ask": 477,
      "▁muamel": 478,
      "##andev": 479,
      "▁hain": 480,
      "▁tanr": 481,
      "##memesi": 482,
      "▁pazarlama": 483,
      "▁uzmanların": 484,
      "▁dc'ye": 485,
      "▁verecek": 486,
      "▁yatakta": 487,
      "##ong": 488,
      "▁calısması": 489,
      "▁dizlerine": 490,
      "##1'e": 491,
      "▁kuması": 492,
      "▁dısına": 493,
      "##'luk": 494,
      "▁dusuktu": 495,
      "##2'de": 496,
      "▁anlasılıyor": 497,
      "▁yaptıgını": 498,
      "▁girisimleri": 499,
      "▁neyi": 500,
      "▁mc": 501,
      "▁saatler": 502,
      "▁eserleri": 503,
      "▁seyh": 504,
      "▁esyaları": 505,
      "▁evla": 506,
      "▁mikrop": 507,
      "▁mazhar": 508,
      "##eyecek": 509,
      "▁restoranlar": 510,
      "▁toplantı": 511,
      "##aen": 512,
      "##dem": 513,
      "▁begenmedim": 514,
      "▁riskine": 515,
      "##tam": 516,
      "▁duygularla": 517,
      "▁krizinden": 518,
      "##uy": 519,
      "▁olumlu": 520,
      "▁ob": 521,
      "▁yasaların": 522,
      "▁durumlar": 523,
      "▁dukkanları": 524,
      "▁istinaden": 525,
      "##nem": 526,
      "▁lazımdır": 527,
      "▁1.0": 528,
      "▁veririm": 529,
      "##desinin": 530,
      "##iss": 531,
      "▁babaları": 532,
      "##saydı": 533,
      "##50'": 534,
      "▁dakikadan": 535,
      "▁mud": 536,
      "▁sonuca": 537,
      "##maca": 538,
      "▁alıskan": 539,
      "▁lod": 540,
      "▁zamanlama": 541,
      "▁diger": 542,
      "▁hun": 543,
      "##ti": 544,
      "▁aklıma": 545,
      "##emizin": 546,
      "▁sermayesini": 547,
      "##uyorlardı": 548,
      "▁sanduk": 549,
      "##enili": 550,
      "▁kavga": 551,
      "▁ilg": 552,
      "▁kose": 553,
      "▁birbirler": 554,
      "▁harcamaları": 555,
      "▁fırtın": 556,
      "##bil": 557,
      "▁almıs": 558,
      "▁silahlar": 559,
      "##lasmıs": 560,
      "▁genislet": 561,
      "▁korkut": 562,
      "▁kog": 563,
      "##cagım": 564,
      "##osunu": 565,
      "▁delta": 566,
      "▁bah": 567,
      "▁ziraat": 568,
      "##ızın": 569,
      "##oker": 570,
      "##tıs": 571,
      "▁durmak": 572,
      "▁laborat": 573,
      "▁buyume": 574,
      "▁etkin": 575,
      "▁gam": 576,
      "▁guver": 577,
      "▁kendiler": 578,
      "▁yarıda": 579,
      "▁zeytiny": 580,
      "##erh": 581,
      "▁azalt": 582,
      "▁yedi": 583,
      "▁ugradı": 584,
      "##mıyla": 585,
      "▁tı": 586,
      "▁n": 587,
      "▁cap": 588,
      "▁cukur": 589,
      "##kiler": 590,
      "▁aniden": 591,
      "▁tad": 592,
      "▁doktorlar": 593,
      "▁rop": 594,
      "##tıgımı": 595,
      "##izasyon": 596,
      "▁acente": 597,
      "##imen": 598,
      "▁duduk": 599,
      "##adem": 600,
      "▁yolun": 601,
      "▁dr": 602,
      "▁askın": 603,
      "▁malzemeleri": 604,
      "▁sokakları": 605,
      "##izden": 606,
      "##memek": 607,
      "▁bolgesine": 608,
      "##uyup": 609,
      "##erindeki": 610,
      "##l": 611,
      "##hiss": 612,
      "▁turunu": 613,
      "▁sper": 614,
      "▁yumr": 615,
      "▁teslimat": 616,
      "▁adinaydi": 617,
      "##lasması": 618,
      "▁alımlar": 619,
      "▁yufka": 620,
      "##kot": 621,
      "▁ayrılık": 622,
      "▁uy": 623,
      "▁sınıfa": 624,
      "▁sanatın": 625,
      "▁sanki": 626,
      "##ırıl": 627,
      "▁feryat": 628,
      "##ksa": 629,
      "▁bulut": 630,
      "▁esi": 631,
      "▁tepk": 632,
      "▁sureci": 633,
      "▁sidd": 634,
      "##trilyon": 635,
      "▁yasındaki": 636,
      "▁resimler": 637,
      "##'nu": 638,
      "##lanıyor": 639,
      "▁gel": 640,
      "▁yıllarında": 641,
      "▁ekonominin": 642,
      "▁edilmisti": 643,
      "▁sonraki": 644,
      "▁adlı": 645,
      "▁han": 646,
      "##dev": 647,
      "▁zinciri": 648,
      "▁faaliyete": 649,
      "▁muddet": 650,
      "▁ulkesinde": 651,
      "▁sirketin": 652,
      "▁oyunun": 653,
      "▁ima": 654,
      "▁guzergah": 655,
      "▁lan": 656,
      "▁suyuna": 657,
      "##latma": 658,
      "▁hıc": 659,
      "▁dilden": 660,
      "▁washington'a": 661,
      "▁enflasyonu": 662,
      "##umuza": 663,
      "▁kucucuk": 664,
      "▁hikayesini": 665,
      "▁tuketic": 666,
      "▁yukselmesini": 667,
      "▁senetlerinin": 668,
      "▁ehemm": 669,
      "▁verimli": 670,
      "▁hayata": 671,
      "▁sonuclarından": 672,
      "▁suvari": 673,
      "▁leri": 674,
      "▁gucu": 675,
      "▁yıllarda": 676,
      "▁bitki": 677,
      "##alet": 678,
      "▁iyiden": 679,
      "▁daha": 680,
      "##ep": 681,
      "▁sav": 682,
      "▁lif": 683,
      "▁muzigini": 684,
      "▁mimar": 685,
      "▁elimize": 686,
      "##rat": 687,
      "▁mahkum": 688,
      "##ındır": 689,
      "▁degillerdi": 690,
      "▁toplamda": 691,
      "##bar": 692,
      "▁insanları": 693,
      "##ograf": 694,
      "##ebilirim": 695,
      "▁eline": 696,
      "##amp": 697,
      "▁tesiste": 698,
      "▁parcacıklar": 699,
      "##uzluktan": 700,
      "▁olagand": 701,
      "▁samim": 702,
      "▁heyetin": 703,
      "##arası": 704,
      "##sulu": 705,
      "▁cumartesi": 706,
      "##ım": 707,
      "▁sikint": 708,
      "▁ahenk": 709,
      "##inlerini": 710,
      "▁temizligini": 711,
      "##ilebilir": 712,
      "▁faturam": 713,
      "##eller": 714,
      "▁katilmadim": 715,
      "▁medeniyeti": 716,
      "▁hayatını": 717,
      "▁sauna": 718,
      "▁eksikligi": 719,
      "##ı": 720,
      "▁gorusuldu": 721,
      "##abıyla": 722,
      "▁romat": 723,
      "▁baltimore'ye": 724,
      "##iki": 725,
      "##lesmis": 726,
      "##malar": 727,
      "▁baslarını": 728,
      "▁bekledigini": 729,
      "▁kaptan": 730,
      "▁gunlerini": 731,
      "##enti": 732,
      "▁yemegi": 733,
      "▁cd": 734,
      "▁ism": 735,
      "▁pilot": 736,
      "▁kopr": 737,
      "▁oranlar": 738,
      "▁kazanıyor": 739,
      "▁sayfa": 740,
      "▁maliyetlerin": 741,
      "▁hipot": 742,
      "▁cek": 743,
      "##eyin": 744,
      "▁atat": 745,
      "▁kazak": 746,
      "▁ların": 747,
      "▁ogrenci": 748,
      "▁tavırla": 749,
      "▁adımlar": 750,
      "▁ki": 751,
      "##alıga": 752,
      "▁kazanclarını": 753,
      "▁gaflet": 754,
      "▁avucuna": 755,
      "▁isine": 756,
      "▁kadında": 757,
      "▁yarıya": 758,
      "▁verdim": 759,
      "▁doları'nda": 760,
      "##iliginden": 761,
      "▁borcunu": 762,
      "▁sozlesmenin": 763,
      "##ger": 764,
      "▁alma": 765,
      "▁destekle": 766,
      "▁yukumluluk": 767,
      "▁salı": 768,
      "▁serin": 769,
      "▁hamlede": 770,
      "▁sars": 771,
      "▁partiyi": 772,
      "##lanabi": 773,
      "##umuze": 774,
      "▁37": 775,
      "▁basbak": 776,
      "▁okuyucu": 777,
      "▁sanatcılar": 778,
      "##abz": 779,
      "##avuz": 780,
      "▁telekomunikasyon": 781,
      "▁bay": 782,
      "##be": 783,
      "▁durgunluk": 784,
      "▁veto": 785,
      "▁sıf": 786,
      "##icisi": 787,
      "▁dusundu": 788,
      "▁idare": 789,
      "##lıgıyla": 790,
      "▁durdur": 791,
      "▁acıklaması": 792,
      "##dde": 793,
      "▁muam": 794,
      "▁deri": 795,
      "▁karsıla": 796,
      "▁baslıyor": 797,
      "##lasının": 798,
      "▁ailenin": 799,
      "##ziv": 800,
      "▁kurumlar": 801,
      "▁yasasında": 802,
      "##lerin": 803,
      "▁gazeteciler": 804,
      "▁denizden": 805,
      "▁co": 806,
      "▁diyorlar": 807,
      "▁girerken": 808,
      "▁genclik": 809,
      "##ılmasına": 810,
      "▁gerektigini": 811,
      "▁meydanı": 812,
      "##cum": 813,
      "▁elimde": 814,
      "▁kasları": 815,
      "▁altı": 816,
      "▁verir": 817,
      "##ıcıya": 818,
      "▁cekilmis": 819,
      "##mu": 820,
      "▁gazel": 821,
      "▁ondan": 822,
      "▁tasavvur": 823,
      "##may": 824,
      "▁bekleniyor": 825,
      "▁gerekiyordu": 826,
      "▁yonetici": 827,
      "▁oturuyor": 828,
      "▁gectigimiz": 829,
      "▁onder": 830,
      "▁tamamlan": 831,
      "▁cıktısı": 832,
      "▁dokundu": 833,
      "▁hanımı": 834,
      "▁haberim": 835,
      "▁listesine": 836,
      "##umus": 837,
      "▁hukumet": 838,
      "▁finansmanı": 839,
      "##sekiz": 840,
      "▁havl": 841,
      "▁sakal": 842,
      "▁hizmetin": 843,
      "▁ihtiyac": 844,
      "▁gokyuz": 845,
      "▁ilgililerdi": 846,
      "▁iltif": 847,
      "▁sapkasını": 848,
      "▁avukatları": 849,
      "##dıgımız": 850,
      "##isel": 851,
      "▁ezber": 852,
      "##likte": 853,
      "▁saglık": 854,
      "▁otop": 855,
      "▁macın": 856,
      "▁alemi": 857,
      "##uluk": 858,
      "▁karlarının": 859,
      "##asyona": 860,
      "##armıs": 861,
      "▁hepsine": 862,
      "##boy": 863,
      "▁ce": 864,
      "▁baskalarına": 865,
      "▁ger": 866,
      "▁icini": 867,
      "▁yemegin": 868,
      "##evizyon": 869,
      "▁tanıklık": 870,
      "▁faizini": 871,
      "▁hayatta": 872,
      "▁mulkiyeti": 873,
      "##dı": 874,
      "##ator": 875,
      "##red": 876,
      "▁hastaları": 877,
      "▁genellikle": 878,
      "▁gelenler": 879,
      "▁tahkikat": 880,
      "▁rengine": 881,
      "▁son": 882,
      "▁domates": 883,
      "▁mill": 884,
      "▁dunya": 885,
      "▁elektron": 886,
      "##gal": 887,
      "▁caresizlik": 888,
      "##e": 889,
      "▁derginin": 890,
      "▁havayollarıyla": 891,
      "▁parti": 892,
      "##urt": 893,
      "▁maddeler": 894,
      "▁konuk": 895,
      "▁inci": 896,
      "##adıgı": 897,
      "##ing": 898,
      "▁arabacı": 899,
      "▁sektore": 900,
      "##cuları": 901,
      "▁yuzlerini": 902,
      "▁bakimsizdi": 903,
      "▁ey": 904,
      "▁ibar": 905,
      "▁mesaf": 906,
      "▁paha": 907,
      "▁ikl": 908,
      "▁orneklerini": 909,
      "▁12'si": 910,
      "▁ziyafet": 911,
      "##outh": 912,
      "▁civi": 913,
      "▁hak": 914,
      "##ındı": 915,
      "▁insanlık": 916,
      "▁edecegim": 917,
      "▁yuz": 918,
      "▁bus": 919,
      "▁gercekl": 920,
      "##lin": 921,
      "▁atan": 922,
      "##mi": 923,
      "▁niyetinde": 924,
      "▁cag": 925,
      "▁belediy": 926,
      "▁devral": 927,
      "##leyip": 928,
      "▁dik": 929,
      "▁yerlere": 930,
      "▁boston": 931,
      "▁kırmız": 932,
      "▁kalkıs": 933,
      "▁likor": 934,
      "▁cıkıs": 935,
      "▁sigortacılar": 936,
      "▁yapı": 937,
      "##'ta": 938,
      "##egiyle": 939,
      "▁olmustu": 940,
      "##eyebilir": 941,
      "##amul": 942,
      "##tc": 943,
      "▁dov": 944,
      "▁gitmeye": 945,
      "▁tepeden": 946,
      "▁kitaplar": 947,
      "▁duv": 948,
      "▁hastalıgı": 949,
      "▁bahan": 950,
      "▁beyi": 951,
      "##slı": 952,
      "▁almak": 953,
      "▁zengin": 954,
      "▁tadını": 955,
      "▁kıymetler": 956,
      "▁temizligi": 957,
      "##dum": 958,
      "▁kalabal": 959,
      "▁yuzyılda": 960,
      "▁kese": 961,
      "▁bircog": 962,
      "▁tahvil": 963,
      "▁buyumeye": 964,
      "▁hab": 965,
      "##nıp": 966,
      "▁mir": 967,
      "▁las": 968,
      "▁grafik": 969,
      "##ader": 970,
      "▁aydınlık": 971,
      "▁esliginde": 972,
      "▁prof": 973,
      "▁mudure": 974,
      "##ılgan": 975,
      "▁caddeye": 976,
      "▁kısaltması": 977,
      "▁canı": 978,
      "▁ekib": 979,
      "▁ucusla": 980,
      "##tıgına": 981,
      "▁tasıt": 982,
      "▁tuyu": 983,
      "▁elinizde": 984,
      "▁taraf": 985,
      "▁fark": 986,
      "▁hukumeti": 987,
      "▁tul": 988,
      "▁tarihini": 989,
      "▁kelimeyle": 990,
      "##umuzun": 991,
      "▁olanaklarini": 992,
      "▁islerinin": 993,
      "▁tehlikeye": 994,
      "▁ekran": 995,
      "##larından": 996,
      "▁muzigi": 997,
      "▁ytl": 998,
      "##imize": 999,
      "▁fr": 1000,
      "##otuz": 1001,
      "▁varır": 1002,
      "▁vardi": 1003,
      "▁icten": 1004,
      "▁calisanlardan": 1005,
      "▁boynuna": 1006,
      "##lıga": 1007,
      "▁kenti": 1008,
      "▁grupların": 1009,
      "▁mukemm": 1010,
      "▁sigor": 1011,
      "##dadı": 1012,
      "▁yadig": 1013,
      "##lamayı": 1014,
      "##emesi": 1015,
      "▁ilgilen": 1016,
      "##suzlugun": 1017,
      "▁ilgilenmedi": 1018,
      "▁kullandıgını": 1019,
      "##acaksın": 1020,
      "▁bilegi": 1021,
      "▁ozelliklerinden": 1022,
      "▁dır": 1023,
      "▁he": 1024,
      "▁diken": 1025,
      "▁inc.": 1026,
      "##iliyordu": 1027,
      "▁sorunla": 1028,
      "▁hayır": 1029,
      "##at": 1030,
      "▁havlu": 1031,
      "▁kayalar": 1032,
      "##larının": 1033,
      "▁akr": 1034,
      "▁philadelphia'ya": 1035,
      "▁ihsan": 1036,
      "▁levazım": 1037,
      "▁guzeldi": 1038,
      "▁kutu": 1039,
      "▁tepsi": 1040,
      "▁yoklugunda": 1041,
      "▁isgucu": 1042,
      "▁alac": 1043,
      "▁ozur": 1044,
      "▁canak": 1045,
      "▁defa": 1046,
      "▁kusu": 1047,
      "▁danısmanlık": 1048,
      "▁olm": 1049,
      "▁bilimleri": 1050,
      "▁gerisi": 1051,
      "##aretle": 1052,
      "▁sez": 1053,
      "▁yuzume": 1054,
      "▁koltuk": 1055,
      "▁fiyatlandır": 1056,
      "##larınız": 1057,
      "▁vurusu": 1058,
      "##ıldıgında": 1059,
      "▁gorunmek": 1060,
      "▁dergisinde": 1061,
      "▁benim": 1062,
      ".": 1063,
      "▁milliyetci": 1064,
      "▁etkinlik": 1065,
      "##asın": 1066,
      "▁os": 1067,
      "##atıl": 1068,
      "▁sırayla": 1069,
      "▁uyeleri": 1070,
      "▁aracların": 1071,
      "▁milwa": 1072,
      "▁verebilir": 1073,
      "▁hosg": 1074,
      "▁kurdu": 1075,
      "##gınız": 1076,
      "▁superdi": 1077,
      "##alarla": 1078,
      "▁tezgahı": 1079,
      "▁katildim": 1080,
      "▁karsılıgını": 1081,
      "▁cakmak": 1082,
      "▁savasının": 1083,
      "▁kral": 1084,
      "▁uzaktan": 1085,
      "z": 1086,
      "▁18": 1087,
      "▁birisi": 1088,
      "##lige": 1089,
      "▁?..": 1090,
      "▁okudu": 1091,
      "▁zur": 1092,
      "▁avuc": 1093,
      "▁terliklerini": 1094,
      "▁kariyer": 1095,
      "▁kor": 1096,
      "##ulan": 1097,
      "▁bu": 1098,
      "▁baskent": 1099,
      "▁yarısını": 1100,
      "▁dest": 1101,
      "##sav": 1102,
      "▁vasıtasıyla": 1103,
      "▁bazıları": 1104,
      "▁inti": 1105,
      "▁gazetesi": 1106,
      "▁biber": 1107,
      "▁yukselisle": 1108,
      "▁uyuz": 1109,
      "▁akar": 1110,
      "▁cagır": 1111,
      "▁kente": 1112,
      "▁hissettim": 1113,
      "▁kitapların": 1114,
      "▁dosyada": 1115,
      "▁6": 1116,
      "##lara": 1117,
      "▁kalkıyor": 1118,
      "▁ustesinden": 1119,
      "##erlik": 1120,
      "▁gonder": 1121,
      "▁denizci": 1122,
      "##ikten": 1123,
      "▁vic": 1124,
      "▁verenler": 1125,
      "▁aktar": 1126,
      "▁dedesinin": 1127,
      "##elere": 1128,
      "##tıgında": 1129,
      "▁attım": 1130,
      "##dikce": 1131,
      "▁ucakla": 1132,
      "▁cenaz": 1133,
      "▁asist": 1134,
      "▁aktiv": 1135,
      "▁bekliyor": 1136,
      "▁zaman": 1137,
      "##sak": 1138,
      "▁bolgenin": 1139,
      "▁armut": 1140,
      "▁dukkanı": 1141,
      "▁mekte": 1142,
      "##makta": 1143,
      "▁boyn": 1144,
      "▁oyuncuları": 1145,
      "##o": 1146,
      "▁yontem": 1147,
      "▁golun": 1148,
      "▁kendisini": 1149,
      "##dirme": 1150,
      "▁iceride": 1151,
      "##ecegim": 1152,
      "##hanenin": 1153,
      "▁iddi": 1154,
      "##iciye": 1155,
      "##m": 1156,
      "▁kaftan": 1157,
      "▁romatizm": 1158,
      "##dim": 1159,
      "▁ruz": 1160,
      "▁seyrediyordu": 1161,
      "▁kors": 1162,
      "▁catma": 1163,
      "▁kabin": 1164,
      "▁partiler": 1165,
      "▁bagladı": 1166,
      "▁kulagına": 1167,
      "##larımızda": 1168,
      "▁anlayislari": 1169,
      "##lıktan": 1170,
      "▁mektubu": 1171,
      "▁tif": 1172,
      "▁h": 1173,
      "##ci": 1174,
      "▁yılki": 1175,
      "▁kentte": 1176,
      "▁sozcu": 1177,
      "▁diplomasi": 1178,
      "##abına": 1179,
      "▁tipik": 1180,
      "▁ocagın": 1181,
      "▁degisimin": 1182,
      "##isine": 1183,
      "##mesin": 1184,
      "##lamam": 1185,
      "##leyecek": 1186,
      "▁miami'ye": 1187,
      "##erdeki": 1188,
      "▁mırıldan": 1189,
      "▁ustelik": 1190,
      "▁cocukluk": 1191,
      "▁ulusal": 1192,
      "▁nehri": 1193,
      "##aff": 1194,
      "▁gonderdi": 1195,
      "▁sabahın": 1196,
      "##erdi": 1197,
      "##emde": 1198,
      "▁dey": 1199,
      "▁toront": 1200,
      "▁ayrıl": 1201,
      "▁huv": 1202,
      "▁kattan": 1203,
      "▁kına": 1204,
      "▁sayısını": 1205,
      "▁``": 1206,
      "##iren": 1207,
      "▁kahvaltida": 1208,
      "▁yara": 1209,
      "▁cezasına": 1210,
      "▁bugday": 1211,
      "▁verdigi": 1212,
      "▁lok": 1213,
      "##dart": 1214,
      "▁sık": 1215,
      "▁ga": 1216,
      "##'un": 1217,
      "▁komp": 1218,
      "▁loca": 1219,
      "▁bankası": 1220,
      "##-b": 1221,
      "▁vekili": 1222,
      "▁dusmesi": 1223,
      "▁ornegi": 1224,
      "▁sitem": 1225,
      "▁canta": 1226,
      "▁agaclar": 1227,
      "▁gitmis": 1228,
      "▁gectiler": 1229,
      "▁kelimesi": 1230,
      "##meye": 1231,
      "##perv": 1232,
      "▁tug": 1233,
      "▁isciyi": 1234,
      "##us": 1235,
      "▁busbutun": 1236,
      "##gun": 1237,
      "▁donusum": 1238,
      "▁tasar": 1239,
      "▁kime": 1240,
      "▁veriyor": 1241,
      "▁baklava": 1242,
      "##‘": 1243,
      "##mediler": 1244,
      "##izler": 1245,
      "##imizle": 1246,
      "▁omrunde": 1247,
      "▁milletvekilleri": 1248,
      "##gimde": 1249,
      "▁etmiyorum": 1250,
      "##ar": 1251,
      "▁azaltmak": 1252,
      "▁bagın": 1253,
      "▁konserve": 1254,
      "▁mumkun": 1255,
      "▁muzisy": 1256,
      "##hal": 1257,
      "▁ortamda": 1258,
      "##ık": 1259,
      "▁ilerleme": 1260,
      ",": 1261,
      "▁dillere": 1262,
      "▁hususunda": 1263,
      "▁fır": 1264,
      "##ırtılar": 1265,
      "▁sahs": 1266,
      "##ımın": 1267,
      "▁yiyecekler": 1268,
      "##mada": 1269,
      "▁kimseyi": 1270,
      "##ni": 1271,
      "▁ayagında": 1272,
      "▁cemaat": 1273,
      "▁cocuklu": 1274,
      "▁seylerden": 1275,
      "▁ens": 1276,
      "▁milyarlar": 1277,
      "▁ayrılır": 1278,
      "##lamaya": 1279,
      "▁seyler": 1280,
      "▁ets": 1281,
      "▁telef": 1282,
      "▁cocugu": 1283,
      "##'nın": 1284,
      "▁isgal": 1285,
      "▁emrini": 1286,
      "▁olmayı": 1287,
      "##raf": 1288,
      "▁ettim": 1289,
      "▁zap": 1290,
      "▁giderler": 1291,
      "▁olumunden": 1292,
      "▁kacak": 1293,
      "▁kasa": 1294,
      "▁ellerine": 1295,
      "▁imalat": 1296,
      "▁icine": 1297,
      "▁kopru": 1298,
      "▁ispan": 1299,
      "▁dukk": 1300,
      "▁harit": 1301,
      "▁seydi": 1302,
      "▁band": 1303,
      "▁planın": 1304,
      "▁muamele": 1305,
      "▁hiss": 1306,
      "▁sirketlerinin": 1307,
      "▁gozluk": 1308,
      "##mıstı": 1309,
      "▁oldugunun": 1310,
      "▁mektupta": 1311,
      "▁viraj": 1312,
      "##ecen": 1313,
      "▁sehit": 1314,
      "▁sunu": 1315,
      "▁bahis": 1316,
      "▁cenaze": 1317,
      "▁tuzu": 1318,
      "##tern": 1319,
      "▁kopuk": 1320,
      "▁silahlarını": 1321,
      "▁kasırgası": 1322,
      "▁adamdı": 1323,
      "##ıya": 1324,
      "▁ilan": 1325,
      "▁ellerinde": 1326,
      "▁6'dan": 1327,
      "▁viz": 1328,
      "▁konu": 1329,
      "##diyen": 1330,
      "▁seyinden": 1331,
      "▁la": 1332,
      "▁tatil": 1333,
      "▁deh": 1334,
      "##ıklarını": 1335,
      "▁nikah": 1336,
      "▁gecekondu": 1337,
      "##tıkca": 1338,
      "▁siyasal": 1339,
      "▁birimler": 1340,
      "##all": 1341,
      "▁olarak": 1342,
      "▁agı": 1343,
      "▁krav": 1344,
      "▁alması": 1345,
      "▁vergiler": 1346,
      "▁ogleye": 1347,
      "▁coluk": 1348,
      "▁ceyrege": 1349,
      "▁bıy": 1350,
      "▁15": 1351,
      "▁mo": 1352,
      "##arım": 1353,
      "▁apartman": 1354,
      "##adına": 1355,
      "##ist": 1356,
      "##elendi": 1357,
      "▁arazi": 1358,
      "▁kaybe": 1359,
      "▁doneme": 1360,
      "▁perde": 1361,
      "▁camur": 1362,
      "▁seviy": 1363,
      "▁”": 1364,
      "▁askerlerle": 1365,
      "▁piyasalarında": 1366,
      "▁pazartesi": 1367,
      "▁seyir": 1368,
      "▁firmaları": 1369,
      "▁gozum": 1370,
      "▁aktarmalı": 1371,
      "▁teyp": 1372,
      "▁degistirmek": 1373,
      "▁toplantısı": 1374,
      "##ilmeye": 1375,
      "▁etegi": 1376,
      "##sur": 1377,
      "▁celiski": 1378,
      "▁belir": 1379,
      "▁edec": 1380,
      "##omatik": 1381,
      "▁cagırdı": 1382,
      "▁yeg": 1383,
      "▁reh": 1384,
      "▁un": 1385,
      "▁bitirdi": 1386,
      "▁olar": 1387,
      "▁basında": 1388,
      "##gunu": 1389,
      "▁okuma": 1390,
      "▁gercegi": 1391,
      "▁dedigi": 1392,
      "▁urunlerin": 1393,
      "▁ihale": 1394,
      "▁revize": 1395,
      "▁bekci": 1396,
      "▁terorizm": 1397,
      "▁senedine": 1398,
      "##ısır": 1399,
      "▁oda": 1400,
      "▁gunes": 1401,
      "▁dol": 1402,
      "▁aracılıgıyla": 1403,
      "▁tutumu": 1404,
      "##ulmaz": 1405,
      "▁sanatı": 1406,
      "▁hedeflere": 1407,
      "▁noktasına": 1408,
      "▁mayıs": 1409,
      "##culuk": 1410,
      "▁ay": 1411,
      "▁aldır": 1412,
      "##isyon": 1413,
      "▁baglam": 1414,
      "▁kamera": 1415,
      "▁bomba": 1416,
      "##ırk": 1417,
      "▁bakla": 1418,
      "▁faal": 1419,
      "▁insul": 1420,
      "##azlık": 1421,
      "▁hesapların": 1422,
      "u": 1423,
      "▁fazlasına": 1424,
      "▁kalitesine": 1425,
      "▁omuz": 1426,
      "▁termin": 1427,
      "▁acan": 1428,
      "##ıda": 1429,
      "##ang": 1430,
      "##ihat": 1431,
      "▁bucak": 1432,
      "##oludur": 1433,
      "▁yalancı": 1434,
      "▁kaf": 1435,
      "▁sebeplerini": 1436,
      "▁ikti": 1437,
      "▁unut": 1438,
      "▁antikor": 1439,
      "▁hastanede": 1440,
      "▁bono": 1441,
      "▁teklifte": 1442,
      "##bon": 1443,
      "▁davaya": 1444,
      "##iyenin": 1445,
      "##ıktan": 1446,
      "▁francisco'ya": 1447,
      "▁olacaktı": 1448,
      "▁aga": 1449,
      "##yasını": 1450,
      "▁yonetm": 1451,
      "▁yud": 1452,
      "▁pazarlam": 1453,
      "##lardır": 1454,
      "▁sacma": 1455,
      "▁tapın": 1456,
      "▁merkezine": 1457,
      "▁hijyen": 1458,
      "##adetin": 1459,
      "▁siparisi": 1460,
      "▁muhallebi": 1461,
      "▁sitesinden": 1462,
      "##a'da": 1463,
      "▁balayi": 1464,
      "▁olduktan": 1465,
      "##teye": 1466,
      "▁kullanmadim": 1467,
      "##ener": 1468,
      "▁urk": 1469,
      "▁kasabada": 1470,
      "▁saygıyla": 1471,
      "▁ogretim": 1472,
      "▁kamıs": 1473,
      "##tuk": 1474,
      "▁meyv": 1475,
      "▁yaptim": 1476,
      "▁gercege": 1477,
      "▁calıyor": 1478,
      "▁kulu": 1479,
      "▁teknolojisinin": 1480,
      "▁500": 1481,
      "▁cagrı": 1482,
      "▁meydanda": 1483,
      "▁yapan": 1484,
      "▁biy": 1485,
      "##apark": 1486,
      "##ahat": 1487,
      "▁hızlıca": 1488,
      "##;": 1489,
      "▁karsılastır": 1490,
      "▁tazmin": 1491,
      "▁aksamın": 1492,
      "▁dep": 1493,
      "▁yakıs": 1494,
      "▁tehlik": 1495,
      "##malı": 1496,
      "##layınca": 1497,
      "##gimiz": 1498,
      "▁duzey": 1499,
      "▁dine": 1500,
      "##agında": 1501,
      "▁istedi": 1502,
      "##bi": 1503,
      "▁etrafta": 1504,
      "##okr": 1505,
      "▁yapmıstı": 1506,
      "▁bekl": 1507,
      "▁tası": 1508,
      "▁analizciler": 1509,
      "▁uzattı": 1510,
      "##ota": 1511,
      "▁gulus": 1512,
      "▁karagoz": 1513,
      "▁teori": 1514,
      "▁atlan": 1515,
      "▁keyif": 1516,
      "##bur": 1517,
      "▁orman": 1518,
      "▁fiyatların": 1519,
      "▁cıkarları": 1520,
      "▁kullanım": 1521,
      "##ice": 1522,
      "▁dorduncu": 1523,
      "▁tahminlerinin": 1524,
      "▁telefona": 1525,
      "▁kadın": 1526,
      "▁evini": 1527,
      "▁tabir": 1528,
      "▁war": 1529,
      "▁istasyonda": 1530,
      "##ırı": 1531,
      "▁bulten": 1532,
      "##ow": 1533,
      "▁ur": 1534,
      "▁oakland'a": 1535,
      "▁epey": 1536,
      "▁munasebet": 1537,
      "##lesme": 1538,
      "▁sulara": 1539,
      "▁icinden": 1540,
      "▁mesele": 1541,
      "&": 1542,
      "▁kravat": 1543,
      "##unikasyon": 1544,
      "##ligini": 1545,
      "▁nuf": 1546,
      "▁masrafı": 1547,
      "▁sub": 1548,
      "▁ayakkab": 1549,
      "▁lisansını": 1550,
      "▁oyuncak": 1551,
      "▁hisseler": 1552,
      "▁geleceg": 1553,
      "▁sayı": 1554,
      "▁oyununa": 1555,
      "▁hijyenik": 1556,
      "▁tır": 1557,
      "▁129": 1558,
      "##tef": 1559,
      "##-a": 1560,
      "▁hastaya": 1561,
      "##kileri": 1562,
      "▁borclarını": 1563,
      "##dıkca": 1564,
      "▁sened": 1565,
      "▁oyuncu": 1566,
      "##ezler": 1567,
      "##ırlı": 1568,
      "##ini": 1569,
      "▁karsil": 1570,
      "▁ucuslar": 1571,
      "▁edil": 1572,
      "▁faydası": 1573,
      "▁kuram": 1574,
      "▁baslayacak": 1575,
      "▁sehrine": 1576,
      "▁sektorunde": 1577,
      "▁tecrub": 1578,
      "▁fiya": 1579,
      "##.125": 1580,
      "▁iyisini": 1581,
      "▁otomobili": 1582,
      "▁faaliyette": 1583,
      "##sıyor": 1584,
      "▁=": 1585,
      "##tusu": 1586,
      "▁ziyan": 1587,
      "##aklık": 1588,
      "##can": 1589,
      "▁hazırlanan": 1590,
      "p": 1591,
      "▁ibm": 1592,
      "##egimi": 1593,
      "▁cuv": 1594,
      "▁bugunun": 1595,
      "▁tugla": 1596,
      "##\\/8'e": 1597,
      "▁valilik": 1598,
      "▁diego'dan": 1599,
      "▁musteri": 1600,
      "▁ogrenciler": 1601,
      "▁esv": 1602,
      "##lege": 1603,
      "▁gizem": 1604,
      "▁nese": 1605,
      "▁aki": 1606,
      "##a'nın": 1607,
      "##bert": 1608,
      "##uzey": 1609,
      "▁star": 1610,
      "▁etrafa": 1611,
      "##elen": 1612,
      "##lerce": 1613,
      "##lulerin": 1614,
      "▁vatand": 1615,
      "▁insanın": 1616,
      "▁vazgec": 1617,
      "▁dagdan": 1618,
      "▁gunahı": 1619,
      "▁hazırlıklar": 1620,
      "▁alcak": 1621,
      "▁arkadaslarını": 1622,
      "▁segment": 1623,
      "##ellik": 1624,
      "▁olcude": 1625,
      "▁tavuk": 1626,
      "▁ekonomistler": 1627,
      "##anet": 1628,
      "##esil": 1629,
      "▁doc": 1630,
      "▁prop": 1631,
      "▁dokun": 1632,
      "▁dama": 1633,
      "▁bitiyor": 1634,
      "▁big": 1635,
      "▁baz": 1636,
      "##alle": 1637,
      "▁gencin": 1638,
      "▁partisinin": 1639,
      "##lamak": 1640,
      "▁bors": 1641,
      "▁maharetle": 1642,
      "▁odalarin": 1643,
      "▁gosteren": 1644,
      "▁1989": 1645,
      "▁haberler": 1646,
      "▁odedigim": 1647,
      "▁hatları": 1648,
      "▁pencereyi": 1649,
      "▁darbukasını": 1650,
      "▁birinc": 1651,
      "▁herhal": 1652,
      "▁iltifat": 1653,
      "▁asamasında": 1654,
      "▁edilmesi": 1655,
      "##etti": 1656,
      "▁rom": 1657,
      "##iyeti": 1658,
      "▁sehir": 1659,
      "▁zamanda": 1660,
      "##uki": 1661,
      "▁hocam": 1662,
      "▁sahibi": 1663,
      "▁sayıya": 1664,
      "▁sapk": 1665,
      "▁avantaj": 1666,
      "▁kıvır": 1667,
      "▁boks": 1668,
      "▁imkanı": 1669,
      "▁kup": 1670,
      "▁anac": 1671,
      "##aduf": 1672,
      "##leti": 1673,
      "##undeki": 1674,
      "▁aram": 1675,
      "▁bulgu": 1676,
      "▁devletler": 1677,
      "▁bazılarının": 1678,
      "##tih": 1679,
      "▁kalkın": 1680,
      "##kım": 1681,
      "##.12": 1682,
      "▁yapımı": 1683,
      "▁olus": 1684,
      "##luyor": 1685,
      "▁vide": 1686,
      "##ıldıktan": 1687,
      "##ustum": 1688,
      "##miyordu": 1689,
      "##ster": 1690,
      "▁yolculuk": 1691,
      "▁intik": 1692,
      "##acıların": 1693,
      "▁iade": 1694,
      "▁bakım": 1695,
      "▁elestiri": 1696,
      "▁fi": 1697,
      "##asal": 1698,
      "▁uyeligini": 1699,
      "##gım": 1700,
      "▁binada": 1701,
      "▁uzunluk": 1702,
      "▁ofkesini": 1703,
      "▁avru": 1704,
      "##unlar": 1705,
      "▁tasavv": 1706,
      "▁geciriyor": 1707,
      "▁artist": 1708,
      "▁yukseliste": 1709,
      "▁profesyon": 1710,
      "▁edilen": 1711,
      "▁maliye": 1712,
      "▁cuzdan": 1713,
      "##cakti": 1714,
      "▁anay": 1715,
      "▁hamur": 1716,
      "▁201": 1717,
      "▁litre": 1718,
      "▁derd": 1719,
      "##br": 1720,
      "##tel": 1721,
      "▁gosterileri": 1722,
      "▁km": 1723,
      "▁oranlarına": 1724,
      "▁sınırlı": 1725,
      "▁talebini": 1726,
      "▁tabak": 1727,
      "##sına": 1728,
      "▁stratej": 1729,
      "▁simgesi": 1730,
      "▁tiyatr": 1731,
      "▁mer": 1732,
      "##kce": 1733,
      "##acaktır": 1734,
      "▁bicmek": 1735,
      "##bac": 1736,
      "▁zevkimize": 1737,
      "▁alanında": 1738,
      "##ledigi": 1739,
      "▁kenar": 1740,
      "▁goruldu": 1741,
      "▁1988'in": 1742,
      "##memistir": 1743,
      "▁kaybetti": 1744,
      "##amlı": 1745,
      "▁denizi": 1746,
      "▁isimler": 1747,
      "▁kı": 1748,
      "##giliz": 1749,
      "##ivers": 1750,
      "▁kans": 1751,
      "▁komisyonu'na": 1752,
      "▁%70'": 1753,
      "▁loc": 1754,
      "▁12.5": 1755,
      "▁katk": 1756,
      "▁tarifeler": 1757,
      "##esinde": 1758,
      "▁kapan": 1759,
      "▁tung": 1760,
      "▁cifti": 1761,
      "▁vatanın": 1762,
      "▁soguktan": 1763,
      "▁duruyor": 1764,
      "##ars": 1765,
      "▁com": 1766,
      "▁iddialarını": 1767,
      "▁sesinin": 1768,
      "▁faturalar": 1769,
      "##maya": 1770,
      "▁iskele": 1771,
      "##imi": 1772,
      "▁ecz": 1773,
      "##2'den": 1774,
      "▁televizyona": 1775,
      "▁kalkarak": 1776,
      "▁uzlasma": 1777,
      "▁imkanlarindan": 1778,
      "##uzlu": 1779,
      "▁gerisinde": 1780,
      "▁pas": 1781,
      "▁atın": 1782,
      "▁cıplak": 1783,
      "▁suda": 1784,
      "▁raporun": 1785,
      "▁basladıgında": 1786,
      "▁yararlan": 1787,
      "▁til": 1788,
      "▁kambiy": 1789,
      "▁ogrencisi": 1790,
      "▁basları": 1791,
      "##ken": 1792,
      "▁kelimesinin": 1793,
      "▁okuy": 1794,
      "▁gazoz": 1795,
      "##egini": 1796,
      "▁bunlar": 1797,
      "▁kendilerine": 1798,
      "▁anlama": 1799,
      "▁continental": 1800,
      "▁ekonomist": 1801,
      "▁agacının": 1802,
      "▁gitmeyi": 1803,
      "▁89": 1804,
      "▁renklerin": 1805,
      "▁laz": 1806,
      "▁ilerledi": 1807,
      "▁katılım": 1808,
      "▁rezalet": 1809,
      "▁cocukları": 1810,
      "##ugunun": 1811,
      "##&": 1812,
      "▁dalgalanması": 1813,
      "▁kalemi": 1814,
      "##irmen": 1815,
      "▁oksuz": 1816,
      "▁fırtına": 1817,
      "▁gunese": 1818,
      "▁kalem": 1819,
      "▁ihan": 1820,
      "##ıgım": 1821,
      "▁sını": 1822,
      "▁degerlerine": 1823,
      "##arif": 1824,
      "▁karbon": 1825,
      "▁veya": 1826,
      "▁gorunmuyor": 1827,
      "▁onunla": 1828,
      "▁sefer": 1829,
      "▁oranları": 1830,
      "▁lodos": 1831,
      "▁gosterdigini": 1832,
      "▁gideri": 1833,
      "▁gitmek": 1834,
      "▁gelgelelim": 1835,
      "##9'da": 1836,
      "▁genelinde": 1837,
      "▁bilezik": 1838,
      "▁isler": 1839,
      "▁yanıtını": 1840,
      "▁hayvanı": 1841,
      "▁reklamların": 1842,
      "▁saldırgan": 1843,
      "▁akrab": 1844,
      "▁annemin": 1845,
      "▁yuzle": 1846,
      "▁minimum": 1847,
      "▁muhafaza": 1848,
      "##ıgının": 1849,
      "▁baslat": 1850,
      "▁yazıları": 1851,
      "▁yuvası": 1852,
      "▁kimseye": 1853,
      "##ra": 1854,
      "▁merk": 1855,
      "▁bakanlar": 1856,
      "▁197": 1857,
      "▁mute": 1858,
      "▁cezbet": 1859,
      "▁vol": 1860,
      "##\\/8": 1861,
      "▁got": 1862,
      "##0'": 1863,
      "▁poz": 1864,
      "▁berab": 1865,
      "▁hacminde": 1866,
      "##ecek": 1867,
      "##sinin": 1868,
      "##yas": 1869,
      "▁ev": 1870,
      "▁cıv": 1871,
      "▁dersiniz": 1872,
      "▁simdiye": 1873,
      "##kaz": 1874,
      "##eligini": 1875,
      "▁secimde": 1876,
      "▁guverte": 1877,
      "▁yazık": 1878,
      "▁kitabın": 1879,
      "▁dayanıs": 1880,
      "▁midir": 1881,
      "▁eglenc": 1882,
      "▁amacı": 1883,
      "▁irti": 1884,
      "▁meger": 1885,
      "▁faaliyetlerini": 1886,
      "▁otede": 1887,
      "▁maliyetler": 1888,
      "▁astı": 1889,
      "▁pro": 1890,
      "▁ink": 1891,
      "##yalar": 1892,
      "##let": 1893,
      "▁telefonu": 1894,
      "▁aralık": 1895,
      "##isiniz": 1896,
      "##atik": 1897,
      "▁gerektir": 1898,
      "▁dug": 1899,
      "▁burokrat": 1900,
      "▁pilotlar": 1901,
      "▁fa": 1902,
      "▁geldikleri": 1903,
      "▁belleg": 1904,
      "▁reklamcılık": 1905,
      "▁yasaları": 1906,
      "▁kararı": 1907,
      "▁mutlul": 1908,
      "##lanma": 1909,
      "##naz": 1910,
      "##ece": 1911,
      "▁fidan": 1912,
      "▁diren": 1913,
      "▁deliye": 1914,
      "##ce": 1915,
      "▁tem": 1916,
      "##el": 1917,
      "▁ozen": 1918,
      "▁tavana": 1919,
      "##metli": 1920,
      "▁olusan": 1921,
      "▁disleri": 1922,
      "▁komutan": 1923,
      "##kay": 1924,
      "▁tercih": 1925,
      "▁destegini": 1926,
      "▁aracılar": 1927,
      "▁adımı": 1928,
      "▁mini": 1929,
      "##ıyorsun": 1930,
      "##ubet": 1931,
      "▁maske": 1932,
      "##leri": 1933,
      "##unku": 1934,
      "▁yonetime": 1935,
      "▁itim": 1936,
      "▁`": 1937,
      "▁muayene": 1938,
      "▁arada": 1939,
      "▁vapur": 1940,
      "5": 1941,
      "▁kendinizi": 1942,
      "▁past": 1943,
      "▁otomotiv": 1944,
      "▁zaten": 1945,
      "▁cevresi": 1946,
      "▁dc'den": 1947,
      "▁35": 1948,
      "##ikler": 1949,
      "▁filmleri": 1950,
      "▁hale": 1951,
      "##liligini": 1952,
      "##ikt": 1953,
      "▁alımı": 1954,
      "▁basın": 1955,
      "▁alabil": 1956,
      "##uzdu": 1957,
      "▁ilgili": 1958,
      "▁mantık": 1959,
      "▁egi": 1960,
      "▁yse": 1961,
      "##lamasına": 1962,
      "▁sis": 1963,
      "▁operasyonları": 1964,
      "▁onlar": 1965,
      "##abak": 1966,
      "▁iflas": 1967,
      "▁pah": 1968,
      "▁daima": 1969,
      "##lestirme": 1970,
      "##aların": 1971,
      "▁telekom": 1972,
      "▁atmos": 1973,
      "##gimi": 1974,
      "▁ceo": 1975,
      "##narak": 1976,
      "▁diplomat": 1977,
      "▁ogr": 1978,
      "▁eve": 1979,
      "▁masaya": 1980,
      "▁piyas": 1981,
      "▁sanık": 1982,
      "▁yılından": 1983,
      "▁polisler": 1984,
      "##acagını": 1985,
      "##ıyor": 1986,
      "▁minnet": 1987,
      "▁muc": 1988,
      "▁agustos": 1989,
      "▁eller": 1990,
      "▁yılını": 1991,
      "▁ama": 1992,
      "##manının": 1993,
      "▁degerleri": 1994,
      "##oseksu": 1995,
      "▁yazıyor": 1996,
      "▁pasif": 1997,
      "▁ikilik": 1998,
      "▁doviz": 1999,
      "▁helv": 2000,
      "▁aldıgı": 2001,
      "▁yorg": 2002,
      "▁acıkca": 2003,
      "##laması": 2004,
      "▁toprakları": 2005,
      "▁yetistir": 2006,
      "▁sadakat": 2007,
      "▁halb": 2008,
      "##dıg": 2009,
      "▁universitesi'nde": 2010,
      "##imden": 2011,
      "▁olmuyor": 2012,
      "▁akım": 2013,
      "▁yemeni": 2014,
      "▁ilke": 2015,
      "▁varan": 2016,
      "▁farkı": 2017,
      "▁canav": 2018,
      "▁kahveden": 2019,
      "▁kırılması": 2020,
      "▁muhakk": 2021,
      "▁karayolu": 2022,
      "▁ruzgarı": 2023,
      "##ea": 2024,
      "▁anlar": 2025,
      "▁eksikleri": 2026,
      "▁rakibini": 2027,
      "▁gidecek": 2028,
      "▁mahkeme": 2029,
      "▁ticareti": 2030,
      "##ayım": 2031,
      "▁olun": 2032,
      "##yaz": 2033,
      "##ciler": 2034,
      "▁yiyecekleri": 2035,
      "##emiyor": 2036,
      "▁anlarda": 2037,
      "▁kab": 2038,
      "##eyecegini": 2039,
      "▁hikay": 2040,
      "▁gozyasları": 2041,
      "▁dum": 2042,
      "##30": 2043,
      "▁fabrikası": 2044,
      "▁mig": 2045,
      "▁elleri": 2046,
      "▁kavun": 2047,
      "▁pır": 2048,
      "▁wh": 2049,
      "▁seyrediyor": 2050,
      "▁ıslah": 2051,
      "▁dısı": 2052,
      "▁kızcagız": 2053,
      "▁bric": 2054,
      "▁munasebetsizlik": 2055,
      "▁ulus": 2056,
      "##uyla": 2057,
      "▁mız": 2058,
      "▁jur": 2059,
      "▁yatırımların": 2060,
      "▁cantasında": 2061,
      "##ecegimiz": 2062,
      "▁ogrencileri": 2063,
      "▁zaf": 2064,
      "##ıltı": 2065,
      "▁tahl": 2066,
      "▁rehber": 2067,
      "▁gunune": 2068,
      "▁testere": 2069,
      "▁dedig": 2070,
      "▁kak": 2071,
      "▁gorevden": 2072,
      "▁bazi": 2073,
      "▁lam": 2074,
      "##sas": 2075,
      "▁yavrum": 2076,
      "##omosyon": 2077,
      "▁bardaklar": 2078,
      "▁sofraya": 2079,
      "▁insaf": 2080,
      "▁sorustur": 2081,
      "▁ceviz": 2082,
      "##izin": 2083,
      "▁insanlıga": 2084,
      "▁hisseye": 2085,
      "▁pozisyon": 2086,
      "▁hem": 2087,
      "▁gonullu": 2088,
      "▁sozlerini": 2089,
      "▁kapat": 2090,
      "##inleri": 2091,
      "▁kırıklıgına": 2092,
      "▁hataları": 2093,
      "▁ca": 2094,
      "▁meb": 2095,
      "▁cıkma": 2096,
      "##meyecek": 2097,
      "▁calıstıgını": 2098,
      "▁konforu": 2099,
      "▁oturma": 2100,
      "▁oteli": 2101,
      "▁yureginde": 2102,
      "▁som": 2103,
      "##stır": 2104,
      "▁aygıt": 2105,
      "▁iddia": 2106,
      "▁financi": 2107,
      "▁tabl": 2108,
      "▁personelinin": 2109,
      "▁aclıktan": 2110,
      "##uyordu": 2111,
      "▁bib": 2112,
      "▁kayıgın": 2113,
      "▁varlıgına": 2114,
      "▁yaratmaya": 2115,
      "▁konular": 2116,
      "▁beyaz": 2117,
      "▁diz": 2118,
      "##undan": 2119,
      "▁duran": 2120,
      "▁test": 2121,
      "▁nimet": 2122,
      "▁ceyreginde": 2123,
      "▁kızının": 2124,
      "##00'": 2125,
      "▁paylar": 2126,
      "▁salonun": 2127,
      "▁subat": 2128,
      "▁dram": 2129,
      "▁biriminin": 2130,
      "##ot": 2131,
      "▁alanlarda": 2132,
      "▁rob": 2133,
      "▁zamana": 2134,
      "▁goturdu": 2135,
      "▁garaj": 2136,
      "▁hakkinda": 2137,
      "▁edilmedi": 2138,
      "##umun": 2139,
      "##ibin": 2140,
      "##mediklerini": 2141,
      "##iyi": 2142,
      "▁harca": 2143,
      "▁fiyatın": 2144,
      "##ıyorlar": 2145,
      "▁islet": 2146,
      "▁sakat": 2147,
      "%": 2148,
      "▁birbirlerini": 2149,
      "▁gormez": 2150,
      "▁getirilerin": 2151,
      "▁damg": 2152,
      "▁houston'a": 2153,
      "▁kısın": 2154,
      "##emle": 2155,
      "▁yonetim": 2156,
      "##47": 2157,
      "##dırıyor": 2158,
      "▁beraber": 2159,
      "▁degerlendirme": 2160,
      "▁me": 2161,
      "▁kurmaya": 2162,
      "▁bozuk": 2163,
      "▁kisiye": 2164,
      "▁kıy": 2165,
      "▁id": 2166,
      "▁org": 2167,
      "##ecegi": 2168,
      "##ro": 2169,
      "▁tesise": 2170,
      "▁yapmad": 2171,
      "▁aday": 2172,
      "##gıyla": 2173,
      "▁toplumlar": 2174,
      "▁adımlarla": 2175,
      "▁detroit": 2176,
      "▁hasıl": 2177,
      "▁dahilinde": 2178,
      "▁ispir": 2179,
      "▁mektebi": 2180,
      "▁sozunu": 2181,
      "▁belirten": 2182,
      "▁havalimanı'nda": 2183,
      "▁ısıklar": 2184,
      "▁indianapolis": 2185,
      "▁ny": 2186,
      "##landır": 2187,
      "▁kad": 2188,
      "▁mukem": 2189,
      "##acılık": 2190,
      "▁arkaya": 2191,
      "▁sevmeye": 2192,
      "▁alnının": 2193,
      "▁sonucu": 2194,
      "▁atlanta'dan": 2195,
      "##sızlıgı": 2196,
      "▁stop": 2197,
      "▁yoldan": 2198,
      "▁esek": 2199,
      "▁acılım": 2200,
      "▁stokları": 2201,
      "##iel": 2202,
      "▁iktisat": 2203,
      "▁turlerini": 2204,
      "▁fonların": 2205,
      "▁icim": 2206,
      "▁gemiyi": 2207,
      "▁yukse": 2208,
      "▁gozuyle": 2209,
      "▁ahkam": 2210,
      "▁futbol": 2211,
      "▁sevgil": 2212,
      "▁lirayı": 2213,
      "##iyetle": 2214,
      "▁postacı": 2215,
      "▁patent": 2216,
      "▁cet": 2217,
      "▁kolayını": 2218,
      "▁evlerin": 2219,
      "▁var": 2220,
      "▁olumsuzluk": 2221,
      "▁hadise": 2222,
      "##lerek": 2223,
      "▁milyara": 2224,
      "##urarak": 2225,
      "▁alt": 2226,
      "▁konseyi": 2227,
      "▁lider": 2228,
      "▁dusunuyorum": 2229,
      "▁sorar": 2230,
      "▁sofra": 2231,
      "##anmak": 2232,
      "##lesini": 2233,
      "▁donemin": 2234,
      "##vec": 2235,
      "▁yansıt": 2236,
      "##udum": 2237,
      "▁kacındı": 2238,
      "▁balo": 2239,
      "▁derde": 2240,
      "▁ruhu": 2241,
      "##ayan": 2242,
      "▁ciddi": 2243,
      "##ınıyor": 2244,
      "▁gormedim": 2245,
      "▁saatte": 2246,
      "▁tabancayı": 2247,
      "▁aldıgını": 2248,
      "▁tukur": 2249,
      "▁pencereye": 2250,
      "▁anladı": 2251,
      "##uydu": 2252,
      "▁adını": 2253,
      "##ey": 2254,
      "▁charl": 2255,
      "▁boynunu": 2256,
      "▁gazeteleri": 2257,
      "▁kalmaz": 2258,
      "##nal": 2259,
      "##lamur": 2260,
      "▁bilet": 2261,
      "▁acıyor": 2262,
      "▁neye": 2263,
      "▁fir": 2264,
      "▁dibine": 2265,
      "▁depremin": 2266,
      "##til": 2267,
      "▁tıras": 2268,
      "▁toplumun": 2269,
      "▁amca": 2270,
      "▁basmak": 2271,
      "▁uzerine": 2272,
      "▁icermektedir": 2273,
      "▁lazım": 2274,
      "##odu": 2275,
      "▁tatmin": 2276,
      "▁kod": 2277,
      "▁biridir": 2278,
      "▁bitis": 2279,
      "▁yazarları": 2280,
      "▁karısı": 2281,
      "▁amerikalılar": 2282,
      "▁sezlong": 2283,
      "▁yumuk": 2284,
      "▁birim": 2285,
      "▁bocek": 2286,
      "##ibine": 2287,
      "##lanın": 2288,
      "▁kola": 2289,
      "▁yem": 2290,
      "▁bakır": 2291,
      "▁malı": 2292,
      "▁personel": 2293,
      "▁iliskilerin": 2294,
      "▁kisiyi": 2295,
      "▁giydi": 2296,
      "▁cehen": 2297,
      "▁burn": 2298,
      "▁cinc": 2299,
      "##ribut": 2300,
      "▁kurulan": 2301,
      "▁kullanmayı": 2302,
      "▁dolar": 2303,
      "▁fransız": 2304,
      "▁mısınız": 2305,
      "##asyonun": 2306,
      "▁yılın": 2307,
      "##sana": 2308,
      "▁sahipligi": 2309,
      "##tia": 2310,
      "▁basar": 2311,
      "▁oncesi": 2312,
      "▁pa": 2313,
      "##rem": 2314,
      "▁kolon": 2315,
      "▁yetkililer": 2316,
      "▁sosyete": 2317,
      "▁agzından": 2318,
      "▁ziyaret": 2319,
      "##acag": 2320,
      "▁kavur": 2321,
      "##elerin": 2322,
      "▁yanları": 2323,
      "▁hiz": 2324,
      "▁omz": 2325,
      "▁vakt": 2326,
      "▁hissedarları": 2327,
      "▁gunun": 2328,
      "▁bil": 2329,
      "▁gunler": 2330,
      "##atır": 2331,
      "▁sahibinin": 2332,
      "##ısma": 2333,
      "▁dolardan": 2334,
      "▁teslim": 2335,
      "▁tutarında": 2336,
      "##lop": 2337,
      "▁ogrenme": 2338,
      "##afor": 2339,
      "▁binanın": 2340,
      "▁oakland'dan": 2341,
      "▁bakımından": 2342,
      "▁olusturmak": 2343,
      "▁birkac": 2344,
      "▁vadeli": 2345,
      "▁tarihli": 2346,
      "▁kırık": 2347,
      "▁cesmenin": 2348,
      "▁haksızlıgı": 2349,
      "▁makal": 2350,
      "▁dusmek": 2351,
      "▁kendisi": 2352,
      "▁bilgisayarı": 2353,
      "##ıdır": 2354,
      "##asina": 2355,
      "▁uzaklas": 2356,
      "▁zavall": 2357,
      "▁yadigar": 2358,
      "##medig": 2359,
      "▁telefonda": 2360,
      "▁misiniz": 2361,
      "▁sokaklarında": 2362,
      "▁merhamet": 2363,
      "▁butun": 2364,
      "▁kira": 2365,
      "▁fiyatları": 2366,
      "##mektedir": 2367,
      "▁birligini": 2368,
      "##lestir": 2369,
      "▁oranın": 2370,
      "##acaklar": 2371,
      "▁pittsburgh": 2372,
      "▁ayaklarını": 2373,
      "##zer": 2374,
      "▁angel": 2375,
      "▁artısları": 2376,
      "##yıp": 2377,
      "##/3": 2378,
      "▁yal": 2379,
      "▁askıya": 2380,
      "▁pırıltı": 2381,
      "▁ıs": 2382,
      "▁mobil": 2383,
      "▁satısa": 2384,
      "▁memphis'ten": 2385,
      "▁petrol": 2386,
      "▁icimde": 2387,
      "▁isg": 2388,
      "##cuya": 2389,
      "▁ugras": 2390,
      "▁vermez": 2391,
      "▁og": 2392,
      "▁get": 2393,
      "▁ısıgını": 2394,
      "##antı": 2395,
      "▁etrafını": 2396,
      "▁hakkında": 2397,
      "▁cıkmıstı": 2398,
      "▁adet": 2399,
      "▁ortalıgı": 2400,
      "▁sorumluluk": 2401,
      "▁kalite": 2402,
      "▁aca": 2403,
      "##lekler": 2404,
      "▁yolunda": 2405,
      "▁satar": 2406,
      "▁sigortası": 2407,
      "##x": 2408,
      "▁sunnet": 2409,
      "##azla": 2410,
      "▁yer": 2411,
      "##lı": 2412,
      "##ilisi": 2413,
      "▁klim": 2414,
      "▁kot": 2415,
      "▁kurk": 2416,
      "▁cıkıyordu": 2417,
      "▁roz": 2418,
      "▁halini": 2419,
      "##ida": 2420,
      "▁karsiligini": 2421,
      "▁bilesik": 2422,
      "▁oldugunu": 2423,
      "▁radyo": 2424,
      "▁93": 2425,
      "▁zorluk": 2426,
      "▁etmiyor": 2427,
      "▁pir": 2428,
      "##cilikle": 2429,
      "▁s": 2430,
      "▁sekl": 2431,
      "▁asag": 2432,
      "▁sahnenin": 2433,
      "▁pay": 2434,
      "##lerinden": 2435,
      "▁disi": 2436,
      "▁varmak": 2437,
      "▁dagları": 2438,
      "▁mam": 2439,
      "▁pantolon": 2440,
      "▁allah": 2441,
      "▁vali": 2442,
      "▁belirtmek": 2443,
      "##cıyı": 2444,
      "▁hacmi": 2445,
      "▁eti": 2446,
      "▁ihtimal": 2447,
      "##iginin": 2448,
      "##tıktan": 2449,
      "##ich": 2450,
      "▁kalbine": 2451,
      "▁diyor": 2452,
      "##derken": 2453,
      "##ecegiz": 2454,
      "▁havuzun": 2455,
      "##klerini": 2456,
      "##saca": 2457,
      "##mazlar": 2458,
      "▁zab": 2459,
      "▁kimliklerini": 2460,
      "▁yuklen": 2461,
      "##11": 2462,
      "##elir": 2463,
      "##ers": 2464,
      "▁yollarını": 2465,
      "▁eyl": 2466,
      "▁iftir": 2467,
      "##5'ini": 2468,
      "▁uyku": 2469,
      "▁hepsinden": 2470,
      "▁renkli": 2471,
      "▁kolt": 2472,
      "▁yazılımı": 2473,
      "##tıran": 2474,
      "▁cagrısı": 2475,
      "▁jul": 2476,
      "▁kazancların": 2477,
      "▁tomurcuk": 2478,
      "▁evvela": 2479,
      "▁kapatma": 2480,
      "▁ettiginde": 2481,
      "▁katından": 2482,
      "##digimden": 2483,
      "▁york'ta": 2484,
      "▁dem": 2485,
      "▁ucus": 2486,
      "▁sistemi": 2487,
      "##lanmıstır": 2488,
      "▁onerisi": 2489,
      "##det": 2490,
      "▁zat": 2491,
      "▁iyilik": 2492,
      "##enlere": 2493,
      "##lanması": 2494,
      "▁hizmet": 2495,
      "▁kuvvetleri": 2496,
      "▁pitts": 2497,
      "▁ozgurluk": 2498,
      "▁20": 2499,
      "▁ucretleri": 2500,
      "▁teseb": 2501,
      "▁1.6": 2502,
      "▁kopek": 2503,
      "##ektedir": 2504,
      "##maktır": 2505,
      "▁ozlem": 2506,
      "▁mol": 2507,
      "▁dongu": 2508,
      "▁kalan": 2509,
      "▁kurtardı": 2510,
      "##5'e": 2511,
      "▁dedim": 2512,
      "▁farz": 2513,
      "▁restorani": 2514,
      "▁jurnal": 2515,
      "##iligi": 2516,
      "##0000": 2517,
      "▁rej": 2518,
      "▁ro": 2519,
      "##atti": 2520,
      "▁yurdun": 2521,
      "▁karsıladı": 2522,
      "##usunda": 2523,
      "▁surum": 2524,
      "##alarıyla": 2525,
      "▁santr": 2526,
      "▁odemesi": 2527,
      "##larini": 2528,
      "##isinda": 2529,
      "##tis": 2530,
      "▁nedenini": 2531,
      "##ayi": 2532,
      "▁avlu": 2533,
      "▁hacmine": 2534,
      "##.5": 2535,
      "▁lez": 2536,
      "▁konaklama": 2537,
      "▁hattının": 2538,
      "▁hatırlattı": 2539,
      "##ıc": 2540,
      "▁portakal": 2541,
      "▁vakit": 2542,
      "▁carptı": 2543,
      "▁pros": 2544,
      "##uh": 2545,
      "▁talip": 2546,
      "▁kakao": 2547,
      "▁medya": 2548,
      "▁kotu": 2549,
      "▁ayd": 2550,
      "##'nda": 2551,
      "##lemisti": 2552,
      "▁insanoglu": 2553,
      "1": 2554,
      "▁tamamladı": 2555,
      "▁sair": 2556,
      "##mamız": 2557,
      "▁'lik": 2558,
      "▁kalenin": 2559,
      "▁dalına": 2560,
      "▁tetkik": 2561,
      "▁hafifce": 2562,
      "▁vakfı": 2563,
      "##ince": 2564,
      "##anti": 2565,
      "▁akla": 2566,
      "▁hisselerinin": 2567,
      "▁uzmanları": 2568,
      "▁sarkılar": 2569,
      "▁isminin": 2570,
      "##af": 2571,
      "▁hakikaten": 2572,
      "▁kemer": 2573,
      "▁secime": 2574,
      "▁isareti": 2575,
      "▁etsin": 2576,
      "##raz": 2577,
      "▁hav": 2578,
      "▁sosyal": 2579,
      "▁hizmetleri": 2580,
      "##mak": 2581,
      "▁elmas": 2582,
      "▁tarafindan": 2583,
      "##aladıgını": 2584,
      "▁kupası": 2585,
      "▁depol": 2586,
      "▁ade": 2587,
      "▁berbat": 2588,
      "▁buyumesi": 2589,
      "▁memnuniyetini": 2590,
      "▁kendilerinin": 2591,
      "▁dakikasında": 2592,
      "▁paranın": 2593,
      "▁yede": 2594,
      "▁gectikten": 2595,
      "##ry": 2596,
      "▁celik": 2597,
      "▁danıs": 2598,
      "▁manevr": 2599,
      "##kulu": 2600,
      "▁destek": 2601,
      "▁cevresine": 2602,
      "##inizin": 2603,
      "##lerime": 2604,
      "▁nashville'den": 2605,
      "▁iht": 2606,
      "##ıldıgı": 2607,
      "▁temer": 2608,
      "▁tanıt": 2609,
      "##acıklar": 2610,
      "▁sehrinde": 2611,
      "▁haftaya": 2612,
      "▁vız": 2613,
      "##iyorlardi": 2614,
      "▁otellerin": 2615,
      "##ton": 2616,
      "▁deyip": 2617,
      "▁ten": 2618,
      "▁baslık": 2619,
      "##esel": 2620,
      "▁asistan": 2621,
      "▁muhat": 2622,
      "▁uzerinde": 2623,
      "##.9": 2624,
      "##erli": 2625,
      "##esen": 2626,
      "##liyat": 2627,
      "▁yazılı": 2628,
      "▁seviyede": 2629,
      "▁gozlerinin": 2630,
      "▁kullanılır": 2631,
      "▁imk": 2632,
      "▁oteldi": 2633,
      "▁dalgalanma": 2634,
      "▁kuyum": 2635,
      "▁gram": 2636,
      "▁hos": 2637,
      "##meyi": 2638,
      "▁cor": 2639,
      "▁orlando'ya": 2640,
      "▁sertif": 2641,
      "▁basa": 2642,
      "▁tadil": 2643,
      "▁rapor": 2644,
      "▁ekibinin": 2645,
      "▁ben": 2646,
      "▁talepte": 2647,
      "▁tulumb": 2648,
      "##lemis": 2649,
      "▁etmeyi": 2650,
      "▁arap": 2651,
      "▁evet": 2652,
      "▁ihracları": 2653,
      "▁donemde": 2654,
      "▁omru": 2655,
      "##egin": 2656,
      "▁meyhan": 2657,
      "▁inis": 2658,
      "▁sifa": 2659,
      "▁dil": 2660,
      "##isim": 2661,
      "▁mesela": 2662,
      "▁geminin": 2663,
      "▁ailesinin": 2664,
      "▁kapıda": 2665,
      "▁ai": 2666,
      "##aması": 2667,
      "▁sovyetler": 2668,
      "▁bankasının": 2669,
      "##ması": 2670,
      "##urlu": 2671,
      "##elerinin": 2672,
      "▁kırmızı": 2673,
      "▁eglence": 2674,
      "▁mıdır": 2675,
      "▁ucakları": 2676,
      "##gili": 2677,
      "▁ates": 2678,
      "▁yazarlık": 2679,
      "▁yerdi": 2680,
      "▁kurus": 2681,
      "▁duvar": 2682,
      "▁sikayet": 2683,
      "▁odayı": 2684,
      "▁televizyon": 2685,
      "▁bom": 2686,
      "▁limuzin": 2687,
      "▁bulmustu": 2688,
      "▁dogrul": 2689,
      "▁grupları": 2690,
      "▁gogsunun": 2691,
      "▁teskil": 2692,
      "▁bedeli": 2693,
      "▁masasının": 2694,
      "##alarımı": 2695,
      "▁dieg": 2696,
      "##demli": 2697,
      "▁katır": 2698,
      "▁2.6": 2699,
      "▁ankar": 2700,
      "▁malz": 2701,
      "##eratif": 2702,
      "▁gozunden": 2703,
      "##mıs": 2704,
      "▁biter": 2705,
      "▁masada": 2706,
      "▁yuzme": 2707,
      "▁ide": 2708,
      "▁atoly": 2709,
      "##ultu": 2710,
      "▁meyve": 2711,
      "▁ulu": 2712,
      "▁uzerinden": 2713,
      "▁acılıyor": 2714,
      "##hayet": 2715,
      "▁yıld": 2716,
      "▁yıldız": 2717,
      "▁tarafında": 2718,
      "##iyeden": 2719,
      "▁cicekleri": 2720,
      "▁gunesin": 2721,
      "##usunde": 2722,
      "▁kosesinde": 2723,
      "▁sondaj": 2724,
      "▁korfez": 2725,
      "▁bilgi": 2726,
      "▁amc": 2727,
      "▁barikat": 2728,
      "e": 2729,
      "▁baglilik": 2730,
      "▁kullanarak": 2731,
      "▁haft": 2732,
      "##tikten": 2733,
      "▁kıyas": 2734,
      "▁bakısı": 2735,
      "▁soylemek": 2736,
      "▁haberin": 2737,
      "##aklar": 2738,
      "▁yeni": 2739,
      "▁sidde": 2740,
      "▁cadde": 2741,
      "▁organizasyon": 2742,
      "▁dallarında": 2743,
      "▁sorusu": 2744,
      "▁yonden": 2745,
      "▁ilaclar": 2746,
      "▁davranıs": 2747,
      "▁malum": 2748,
      "▁alıyorlar": 2749,
      "▁kalkıp": 2750,
      "##ib": 2751,
      "##ızda": 2752,
      "##ırt": 2753,
      "▁hastalıga": 2754,
      "▁yemeye": 2755,
      "▁mufett": 2756,
      "▁ayaklarının": 2757,
      "##rak": 2758,
      "▁suretle": 2759,
      "▁olmayabilir": 2760,
      "▁vad": 2761,
      "▁gecip": 2762,
      "##'da": 2763,
      "▁bilek": 2764,
      "▁hakika": 2765,
      "▁egz": 2766,
      "▁tereddut": 2767,
      "▁tahkik": 2768,
      "▁yazmak": 2769,
      "▁sablon": 2770,
      "▁icerde": 2771,
      "▁gitgide": 2772,
      "##uslu": 2773,
      "▁gozlerinde": 2774,
      "##dık": 2775,
      "##her": 2776,
      "▁yatagı": 2777,
      "▁yıldızlar": 2778,
      "▁cikiyordu": 2779,
      "##allah": 2780,
      "▁yıldan": 2781,
      "▁masalı": 2782,
      "▁muhit": 2783,
      "##vr": 2784,
      "▁corp": 2785,
      "##dog": 2786,
      "▁tesis": 2787,
      "▁bilgileri": 2788,
      "▁tarafın": 2789,
      "▁sıkıntıya": 2790,
      "▁maliyetlerini": 2791,
      "##'nden": 2792,
      "▁nokta": 2793,
      "▁ortak": 2794,
      "▁her": 2795,
      "▁hikaye": 2796,
      "▁gorduler": 2797,
      "▁tovbe": 2798,
      "▁ilgiliydiler": 2799,
      "▁hazırlıkları": 2800,
      "##ikasyon": 2801,
      "▁beklenenden": 2802,
      "▁kafam": 2803,
      "##unc": 2804,
      "▁ideoloj": 2805,
      "▁ot": 2806,
      "▁yanı": 2807,
      "▁kag": 2808,
      "▁govde": 2809,
      "▁mustesar": 2810,
      "▁sorunların": 2811,
      "▁halihazırda": 2812,
      "▁hurr": 2813,
      "##tılı": 2814,
      "▁oncesine": 2815,
      "▁sartları": 2816,
      "▁oyu": 2817,
      "▁dava": 2818,
      "▁kırlarda": 2819,
      "▁hardal": 2820,
      "▁lyn": 2821,
      "▁fonlar": 2822,
      "▁olanak": 2823,
      "▁kisiden": 2824,
      "##tugu": 2825,
      "▁haftada": 2826,
      "▁indirimi": 2827,
      "##ılıgında": 2828,
      "▁dolarına": 2829,
      "▁calgı": 2830,
      "▁gozlem": 2831,
      "▁hit": 2832,
      "▁care": 2833,
      "##ozof": 2834,
      "▁talebe": 2835,
      "▁ilet": 2836,
      "▁konumu": 2837,
      "▁kızım": 2838,
      "▁multeci": 2839,
      "▁insanların": 2840,
      "▁panc": 2841,
      "▁santaj": 2842,
      "##lıgın": 2843,
      "▁benzerlik": 2844,
      "##lit": 2845,
      "▁yukselen": 2846,
      "▁agır": 2847,
      "##emem": 2848,
      "▁komplek": 2849,
      "##+": 2850,
      "▁cozmek": 2851,
      "##akını": 2852,
      "▁organ": 2853,
      "▁deneyler": 2854,
      "▁hisselerine": 2855,
      "▁eden": 2856,
      "##idi": 2857,
      "▁agr": 2858,
      "▁mecbur": 2859,
      "▁topcu": 2860,
      "▁danısmanı": 2861,
      "▁ogrencilerin": 2862,
      "##aliforn": 2863,
      "▁isletmesi": 2864,
      "▁tasarısını": 2865,
      "▁ucusun": 2866,
      "▁gazeteci": 2867,
      "▁300": 2868,
      "##yet": 2869,
      "##tator": 2870,
      "▁yaslarında": 2871,
      "▁sponsor": 2872,
      "▁ibadet": 2873,
      "##yip": 2874,
      "##ont": 2875,
      "+": 2876,
      "▁cıktı": 2877,
      "▁ileride": 2878,
      "▁isbası": 2879,
      "▁dısarıda": 2880,
      "▁izah": 2881,
      "▁gozumde": 2882,
      "▁sus": 2883,
      "▁hatta": 2884,
      "▁kazanım": 2885,
      "▁damlac": 2886,
      "▁katil": 2887,
      "▁insanlarla": 2888,
      "▁temiz": 2889,
      "▁sup": 2890,
      "##%": 2891,
      "▁louis'e": 2892,
      "▁anladım": 2893,
      "▁navl": 2894,
      "▁cocugum": 2895,
      "▁hokk": 2896,
      "▁cırp": 2897,
      "▁ge": 2898,
      "▁etut": 2899,
      "▁ciftlikleri": 2900,
      "▁olmasi": 2901,
      "▁giren": 2902,
      "▁teyit": 2903,
      "▁yargıc": 2904,
      "▁getirdi": 2905,
      "▁ucmanın": 2906,
      "▁skan": 2907,
      "▁hınc": 2908,
      "▁adamla": 2909,
      "▁camasırları": 2910,
      "▁hizmetine": 2911,
      "##ikat": 2912,
      "▁olurlar": 2913,
      "▁iyiligini": 2914,
      "##mis": 2915,
      "▁oper": 2916,
      "▁kadına": 2917,
      "▁ucuza": 2918,
      "▁pab": 2919,
      "▁muhalle": 2920,
      "▁em": 2921,
      "▁hayvanları": 2922,
      "▁yurd": 2923,
      "##iyeri": 2924,
      "##abilecek": 2925,
      "▁namus": 2926,
      "▁twa": 2927,
      "▁ızdır": 2928,
      "##kini": 2929,
      "▁haftalık": 2930,
      "▁koltugun": 2931,
      "##etin": 2932,
      "##lanmak": 2933,
      "▁kurulusları": 2934,
      "▁calısıyor": 2935,
      "▁israil": 2936,
      "▁emper": 2937,
      "▁cıkarlarını": 2938,
      "▁hakim": 2939,
      "##giniz": 2940,
      "▁sayf": 2941,
      "▁sipahi": 2942,
      "▁fonun": 2943,
      "▁sonu": 2944,
      "▁kayıp": 2945,
      "▁gercekleri": 2946,
      "##duy": 2947,
      "x": 2948,
      "▁etkilen": 2949,
      "▁sanay": 2950,
      "##ker": 2951,
      "▁acıp": 2952,
      "▁istanbul'a": 2953,
      "▁kuny": 2954,
      "▁koruk": 2955,
      "▁adımda": 2956,
      "▁yarım": 2957,
      "##guluyor": 2958,
      "▁calısmaya": 2959,
      "##ediy": 2960,
      "▁guclerin": 2961,
      "▁baskaları": 2962,
      "▁fırın": 2963,
      "▁fırsatını": 2964,
      "##atch": 2965,
      "▁yurttas": 2966,
      "▁hangi": 2967,
      "##kes": 2968,
      "##kt": 2969,
      "▁balta": 2970,
      "▁cirkin": 2971,
      "▁gelme": 2972,
      "▁dilber": 2973,
      "▁sevkiyat": 2974,
      "▁makarn": 2975,
      "##cb": 2976,
      "▁kilometre": 2977,
      "▁yarattı": 2978,
      "##indedir": 2979,
      "##ecilik": 2980,
      "##ende": 2981,
      "▁olmadı": 2982,
      "▁sinirleri": 2983,
      "▁yaradılıs": 2984,
      "▁evvel": 2985,
      "##asa": 2986,
      "▁koru": 2987,
      "▁temizliginden": 2988,
      "▁istah": 2989,
      "▁ablası": 2990,
      "▁mezun": 2991,
      "▁endisesi": 2992,
      "▁secen": 2993,
      "##lısı": 2994,
      "▁bolgeyi": 2995,
      "▁getiri": 2996,
      "▁ekliyor": 2997,
      "▁hastalar": 2998,
      "▁otobus": 2999,
      "▁satır": 3000,
      "##lıgının": 3001,
      "▁fuz": 3002,
      "▁protesto": 3003,
      "▁mim": 3004,
      "▁kısmı": 3005,
      "##ass": 3006,
      "▁huzun": 3007,
      "▁gerceklik": 3008,
      "▁temelinde": 3009,
      "▁motiv": 3010,
      "▁gelecegi": 3011,
      "▁oak": 3012,
      "▁tekk": 3013,
      "▁cıgırt": 3014,
      "▁karmasık": 3015,
      "▁gencleri": 3016,
      "▁hik": 3017,
      "##eyh": 3018,
      "▁oyunc": 3019,
      "j": 3020,
      "▁risk": 3021,
      "▁ac": 3022,
      "##'s": 3023,
      "▁orada": 3024,
      "▁dern": 3025,
      "▁fis": 3026,
      "▁tartısmaya": 3027,
      "▁konumda": 3028,
      "▁gob": 3029,
      "▁alacagını": 3030,
      "▁yazılar": 3031,
      "##ayıp": 3032,
      "▁klasik": 3033,
      "▁magdur": 3034,
      "▁gokyuzune": 3035,
      "▁bulacak": 3036,
      "▁rol": 3037,
      "▁calisirim": 3038,
      "##ize": 3039,
      "##unun": 3040,
      "▁gostergeleri": 3041,
      "▁donustu": 3042,
      "▁carsıya": 3043,
      "##ec": 3044,
      "▁sandal": 3045,
      "▁puani": 3046,
      "##urdu": 3047,
      "##ilmistir": 3048,
      "▁oranında": 3049,
      "##ulur": 3050,
      "▁masraflar": 3051,
      "▁basak": 3052,
      "▁fac": 3053,
      "▁kay": 3054,
      "▁bisiklet": 3055,
      "▁st": 3056,
      "▁oyunlar": 3057,
      "▁avaz": 3058,
      "##ladık": 3059,
      "▁malzeme": 3060,
      "▁kinden": 3061,
      "##bay": 3062,
      "##mel": 3063,
      "▁sınıfta": 3064,
      "▁bilgisini": 3065,
      "##eceksiniz": 3066,
      "##lerimiz": 3067,
      "▁cocukların": 3068,
      "▁buklum": 3069,
      "##langıc": 3070,
      "##hisse": 3071,
      "##and": 3072,
      "##ugune": 3073,
      "##ını": 3074,
      "##yi": 3075,
      "▁elimi": 3076,
      "▁turistlerin": 3077,
      "##id": 3078,
      "▁kimin": 3079,
      "▁tufek": 3080,
      "▁fl": 3081,
      "##sine": 3082,
      "▁duvarın": 3083,
      "▁iktidar": 3084,
      "##ifti": 3085,
      "▁yaptıgı": 3086,
      "▁misafir": 3087,
      "▁nesesi": 3088,
      "##yen": 3089,
      "▁raporları": 3090,
      "##.7": 3091,
      "▁kiraz": 3092,
      "##4": 3093,
      "▁kısıtlamasını": 3094,
      "▁obur": 3095,
      "▁ep": 3096,
      "▁milwaukee": 3097,
      "##imin": 3098,
      "▁ormanları": 3099,
      "▁girdi": 3100,
      "▁sola": 3101,
      "▁fık": 3102,
      "▁dostluk": 3103,
      "▁pemb": 3104,
      "##anya": 3105,
      "##9'dan": 3106,
      "▁sozlesmeler": 3107,
      "▁usa": 3108,
      "▁aklın": 3109,
      "▁dergisi": 3110,
      "▁tutacak": 3111,
      "▁prosed": 3112,
      "▁nort": 3113,
      "▁tuccar": 3114,
      "▁varlıklar": 3115,
      "▁istatist": 3116,
      "▁yasanın": 3117,
      "▁bolum": 3118,
      "▁yanıt": 3119,
      "▁kadınlardan": 3120,
      "▁eger": 3121,
      "▁bagırdı": 3122,
      "▁kuralların": 3123,
      "▁koptu": 3124,
      "▁gozune": 3125,
      "▁dedem": 3126,
      "▁dans": 3127,
      "▁binalar": 3128,
      "▁deftere": 3129,
      "##ilerle": 3130,
      "▁sh": 3131,
      "▁ciro": 3132,
      "▁tarihinden": 3133,
      "##sinde": 3134,
      "▁bula": 3135,
      "▁teminat": 3136,
      "#": 3137,
      "▁jones": 3138,
      "▁baslamıs": 3139,
      "▁sifir": 3140,
      "▁taktik": 3141,
      "▁koken": 3142,
      "▁yiy": 3143,
      "▁ihtimali": 3144,
      "▁artısının": 3145,
      "▁seyahate": 3146,
      "▁salata": 3147,
      "▁dizginleri": 3148,
      "##abil": 3149,
      "▁komisyonları": 3150,
      "▁acel": 3151,
      "##imle": 3152,
      "▁deterj": 3153,
      "##istan": 3154,
      "▁dusuncelerini": 3155,
      "##nı": 3156,
      "▁yurur": 3157,
      "▁izleme": 3158,
      "▁baskasın": 3159,
      "▁ugra": 3160,
      "▁sinyal": 3161,
      "▁milli": 3162,
      "▁yanaklarını": 3163,
      "▁uzakti": 3164,
      "▁mecmu": 3165,
      "##istiri": 3166,
      "▁gayri": 3167,
      "▁tekrar": 3168,
      "##i": 3169,
      "▁pansiyon": 3170,
      "▁kanto": 3171,
      "▁toz": 3172,
      "▁asır": 3173,
      "▁ulasa": 3174,
      "▁ajansın": 3175,
      "▁sirketlerinden": 3176,
      "▁kaldırılması": 3177,
      "##uz": 3178,
      "▁acil": 3179,
      "▁konforluydu": 3180,
      "▁verimlilik": 3181,
      "▁sers": 3182,
      "▁rakamı": 3183,
      "▁apartmana": 3184,
      "▁rezerve": 3185,
      "▁yatırımcıları": 3186,
      "##iden": 3187,
      "▁ici": 3188,
      "▁emlak": 3189,
      "▁rota": 3190,
      "▁otorite": 3191,
      "▁gomlegini": 3192,
      "▁ayakkabılar": 3193,
      "▁filmin": 3194,
      "##obil": 3195,
      "##tere": 3196,
      "▁degistirdi": 3197,
      "▁muhal": 3198,
      "▁ayrıntıları": 3199,
      "▁gercekten": 3200,
      "▁sektorde": 3201,
      "▁karnını": 3202,
      "▁olsa": 3203,
      "##kur": 3204,
      "▁cabasına": 3205,
      "##v": 3206,
      "▁edi": 3207,
      "##beye": 3208,
      "▁hissesinin": 3209,
      "##era": 3210,
      "##suzdu": 3211,
      "▁ekipleri": 3212,
      "##annem": 3213,
      "▁fal": 3214,
      "▁yahut": 3215,
      "▁ani": 3216,
      "##enler": 3217,
      "▁kamuoy": 3218,
      "▁'": 3219,
      "▁durmadan": 3220,
      "▁kısalt": 3221,
      "##leyen": 3222,
      "▁tartı": 3223,
      "▁birta": 3224,
      "▁kalbi": 3225,
      "##talık": 3226,
      "▁rut": 3227,
      "▁nob": 3228,
      "▁yardımıyla": 3229,
      "##imizi": 3230,
      "▁olmustur": 3231,
      "▁puf": 3232,
      "##unt": 3233,
      "▁soba": 3234,
      "▁oykusu": 3235,
      "▁tunel": 3236,
      "▁avize": 3237,
      "▁boyunda": 3238,
      "▁degisimi": 3239,
      "▁dust": 3240,
      "▁odamiz": 3241,
      "▁hayran": 3242,
      "▁bankacılıgı": 3243,
      "##etleri": 3244,
      "▁soyluyorlar": 3245,
      "▁gorebilir": 3246,
      "▁ula": 3247,
      "▁yasanan": 3248,
      "▁sol": 3249,
      "▁inkılap": 3250,
      "▁ilgisizdi": 3251,
      "▁soldan": 3252,
      "▁arıtma": 3253,
      "▁ban": 3254,
      "##tanın": 3255,
      "▁bankalar": 3256,
      "▁eyaletler": 3257,
      "▁hukumetinin": 3258,
      "▁ag": 3259,
      "▁paralarını": 3260,
      "▁layık": 3261,
      "▁opec": 3262,
      "▁basınc": 3263,
      "▁dayanısma": 3264,
      "▁ila": 3265,
      "▁personelinden": 3266,
      "▁tastan": 3267,
      "▁esitlik": 3268,
      "▁hayatı": 3269,
      "▁itir": 3270,
      "▁suru": 3271,
      "▁sunum": 3272,
      "▁cark": 3273,
      "▁ney": 3274,
      "▁gunumuzde": 3275,
      "▁basbakan": 3276,
      "▁kristal": 3277,
      "▁cezası": 3278,
      "▁sayisi": 3279,
      "▁mesgul": 3280,
      "▁pantolonunu": 3281,
      "▁parası": 3282,
      "##igim": 3283,
      "▁bilgilerine": 3284,
      "▁basvur": 3285,
      "##yap": 3286,
      "▁hikayeler": 3287,
      "##6'da": 3288,
      "##kilere": 3289,
      "▁mevcut": 3290,
      "▁gelmesi": 3291,
      "▁verin": 3292,
      "##umk": 3293,
      "▁dusunceler": 3294,
      "▁ozgur": 3295,
      "▁calismalar": 3296,
      "▁konuları": 3297,
      "▁hakikat": 3298,
      "▁cab": 3299,
      "▁veremem": 3300,
      "▁kader": 3301,
      "▁36": 3302,
      "▁cıkarmaya": 3303,
      "▁gunlerinde": 3304,
      "▁muhim": 3305,
      "##iklerin": 3306,
      "▁sıkıstır": 3307,
      "▁ayrılan": 3308,
      "▁kong": 3309,
      "▁ceb": 3310,
      "▁ustunu": 3311,
      "##layabil": 3312,
      "▁kampanya": 3313,
      "▁kayıpları": 3314,
      "##tik": 3315,
      "▁kambiyo": 3316,
      "▁kez": 3317,
      "▁daktilo": 3318,
      "▁yapacagı": 3319,
      "▁devleti": 3320,
      "##zet": 3321,
      "▁hamil": 3322,
      "▁esyayı": 3323,
      "▁miras": 3324,
      "##alıyor": 3325,
      "▁yild": 3326,
      "▁kullanmaya": 3327,
      "▁bakar": 3328,
      "▁soyle": 3329,
      "##luluk": 3330,
      "##lıc": 3331,
      "▁elinin": 3332,
      "▁kam": 3333,
      "##otlar": 3334,
      "▁senedinin": 3335,
      "▁musam": 3336,
      "▁sebz": 3337,
      "▁olgunluk": 3338,
      "##xpr": 3339,
      "▁nedeniyle": 3340,
      "▁olasılıkla": 3341,
      "▁yavrusu": 3342,
      "##cıların": 3343,
      "▁georg": 3344,
      "##lastırıyor": 3345,
      "▁kadif": 3346,
      "▁sarkının": 3347,
      "##6'sı": 3348,
      "▁alabilirdim": 3349,
      "▁burokras": 3350,
      "##lerimizden": 3351,
      "▁kop": 3352,
      "▁americ": 3353,
      "▁olmadıgını": 3354,
      "▁duygusunun": 3355,
      "▁dususle": 3356,
      "▁senaryo": 3357,
      "▁istin": 3358,
      "▁kooperatif": 3359,
      "▁yay": 3360,
      "▁gazeteye": 3361,
      "▁uykuda": 3362,
      "▁haket": 3363,
      "##lıgıma": 3364,
      "▁kampanyası": 3365,
      "##gec": 3366,
      "▁karn": 3367,
      "▁gelirler": 3368,
      "##32": 3369,
      "▁kendime": 3370,
      "▁dizi": 3371,
      "▁gozlerimin": 3372,
      "▁haberde": 3373,
      "##larken": 3374,
      "▁kalitesi": 3375,
      "▁devir": 3376,
      "▁baltimore'den": 3377,
      "▁fena": 3378,
      "▁dede": 3379,
      "▁temmuz": 3380,
      "▁artıyor": 3381,
      "##ev": 3382,
      "▁kosk": 3383,
      "▁1/4'e": 3384,
      "▁bob": 3385,
      "▁lav": 3386,
      "##iski": 3387,
      "▁olduklarını": 3388,
      "##anta": 3389,
      "##sor": 3390,
      "▁feo": 3391,
      "▁kızın": 3392,
      "▁devi": 3393,
      "##ladı": 3394,
      "##medigi": 3395,
      "▁alınan": 3396,
      "▁dosya": 3397,
      "▁ikamet": 3398,
      "##cu": 3399,
      "▁olcusu": 3400,
      "##aver": 3401,
      "▁notu": 3402,
      "▁muhabiri": 3403,
      "▁tursu": 3404,
      "▁aqua": 3405,
      "▁super": 3406,
      "▁calmaya": 3407,
      "▁kaynaklandıgını": 3408,
      "▁psil": 3409,
      "▁bahc": 3410,
      "▁kıvr": 3411,
      "▁ormanın": 3412,
      "▁teblig": 3413,
      "▁konusmalar": 3414,
      "▁kilisesi": 3415,
      "▁ebeveynler": 3416,
      "▁gay": 3417,
      "▁iy": 3418,
      "▁hanımlar": 3419,
      "▁perdeler": 3420,
      "▁tarl": 3421,
      "▁karsın": 3422,
      "▁secimlerde": 3423,
      "▁tip": 3424,
      "▁isci": 3425,
      "▁10'dan": 3426,
      "▁okulu": 3427,
      "▁gecme": 3428,
      "▁kendim": 3429,
      "▁tun": 3430,
      "▁dl": 3431,
      "▁nus": 3432,
      "▁havuzu": 3433,
      "▁kamyon": 3434,
      "▁buhar": 3435,
      "▁fikirleri": 3436,
      "▁sirke": 3437,
      "▁musaade": 3438,
      "▁anahtarı": 3439,
      "▁saniyede": 3440,
      "▁fikrini": 3441,
      "▁destan": 3442,
      "▁sesleri": 3443,
      "▁cuzdanı": 3444,
      "▁hepimizi": 3445,
      "▁islerde": 3446,
      "▁duruyordu": 3447,
      "▁hazırlık": 3448,
      "▁balik": 3449,
      "▁topladı": 3450,
      "▁ayakk": 3451,
      "##ob": 3452,
      "▁vatan": 3453,
      "##dam": 3454,
      "▁sacak": 3455,
      "▁bilgisayarlarda": 3456,
      "▁satısları": 3457,
      "▁boston'dan": 3458,
      "##mıslardı": 3459,
      "▁isteklerimizi": 3460,
      "▁getirisi": 3461,
      "▁kulagını": 3462,
      "▁maymun": 3463,
      "▁1990'da": 3464,
      "##masa": 3465,
      "▁yonet": 3466,
      "▁harekete": 3467,
      "##endis": 3468,
      "▁yemeklerin": 3469,
      "▁heyeti": 3470,
      "▁gibidir": 3471,
      "▁miyim": 3472,
      "▁destekler": 3473,
      "▁takiben": 3474,
      "▁emin": 3475,
      "##gul": 3476,
      "▁tor": 3477,
      "?": 3478,
      "▁cumhurb": 3479,
      "▁sorunları": 3480,
      "##acaktı": 3481,
      "##opter": 3482,
      "▁miz": 3483,
      "##tane": 3484,
      "▁saglıgına": 3485,
      "▁american": 3486,
      "▁i": 3487,
      "##madıgı": 3488,
      "##lerken": 3489,
      "##ıverdi": 3490,
      "▁mutfagın": 3491,
      "##rupalı": 3492,
      "▁urun": 3493,
      "##abının": 3494,
      "▁onayladı": 3495,
      "##dugunda": 3496,
      "▁ustun": 3497,
      "##uge": 3498,
      "▁kalorifer": 3499,
      "##dikler": 3500,
      "▁sarayın": 3501,
      "##teler": 3502,
      "▁sirketinden": 3503,
      "##lılıgını": 3504,
      "▁universitesi": 3505,
      "▁umit": 3506,
      "▁sporcu": 3507,
      "_": 3508,
      "▁kar": 3509,
      "▁temas": 3510,
      "##ucuları": 3511,
      "▁saglıyor": 3512,
      "▁gelmisti": 3513,
      "▁bagdas": 3514,
      "▁tabaklar": 3515,
      "▁sekerleme": 3516,
      "▁otob": 3517,
      "▁gonlum": 3518,
      "▁olmak": 3519,
      "▁brok": 3520,
      "▁cıkar": 3521,
      "##illi": 3522,
      "▁isbir": 3523,
      "##rken": 3524,
      "##ez": 3525,
      "▁demec": 3526,
      "##arak": 3527,
      "##lendirme": 3528,
      "##cel": 3529,
      "##cegi": 3530,
      "##lasma": 3531,
      "▁tam": 3532,
      "##ig": 3533,
      "▁sanayicileri": 3534,
      "▁dalga": 3535,
      "▁veda": 3536,
      "##ulen": 3537,
      "▁cumhurbaskanı": 3538,
      "▁nev": 3539,
      "##ssa": 3540,
      "▁riski": 3541,
      "▁nez": 3542,
      "▁peni": 3543,
      "▁ası": 3544,
      "▁amma": 3545,
      "▁rezerv": 3546,
      "##iyetini": 3547,
      "▁1969'un": 3548,
      "▁tiyatro": 3549,
      "▁karakter": 3550,
      "▁iskeleye": 3551,
      "▁bitkiler": 3552,
      "▁tecavuz": 3553,
      "▁bıyık": 3554,
      "▁degilim": 3555,
      "▁bahsederim": 3556,
      "▁bahs": 3557,
      "▁bakı": 3558,
      "▁olmanın": 3559,
      "▁sual": 3560,
      "▁doksan": 3561,
      "▁sahnede": 3562,
      "▁artan": 3563,
      "▁pac": 3564,
      "▁guzelligini": 3565,
      "▁kurmay": 3566,
      "▁varlıgını": 3567,
      "##dini": 3568,
      "▁hakkındaki": 3569,
      "▁guleryuzlu": 3570,
      "▁expr": 3571,
      "▁bulamac": 3572,
      "▁ediyor": 3573,
      "##emis": 3574,
      "▁davran": 3575,
      "▁klor": 3576,
      "▁haber": 3577,
      "##maktadır": 3578,
      "▁asama": 3579,
      "##ısını": 3580,
      "▁altına": 3581,
      "▁ogrencilere": 3582,
      "▁44": 3583,
      "▁artısa": 3584,
      "▁havayı": 3585,
      "▁amiri": 3586,
      "##erin": 3587,
      "\"": 3588,
      "▁yuklu": 3589,
      "▁yalnız": 3590,
      "▁yazarlarının": 3591,
      "▁endiselen": 3592,
      "▁sınavı": 3593,
      "##ata": 3594,
      "▁intikam": 3595,
      "▁oyn": 3596,
      "▁kentin": 3597,
      "▁planlıyor": 3598,
      "▁camları": 3599,
      "▁ham": 3600,
      "▁okumak": 3601,
      "▁hurmet": 3602,
      "▁temet": 3603,
      "##uyu": 3604,
      "▁girmek": 3605,
      "▁toh": 3606,
      "▁tavan": 3607,
      "▁m": 3608,
      "##o'nun": 3609,
      "▁gerekir": 3610,
      "▁kapasitesine": 3611,
      "▁teskilat": 3612,
      "▁kosullarına": 3613,
      "##dırdı": 3614,
      "##daydi": 3615,
      "##lıg": 3616,
      "▁onlarda": 3617,
      "▁kurulusun": 3618,
      "▁resesyon": 3619,
      "##/4": 3620,
      "▁soylen": 3621,
      "▁politik": 3622,
      "##kinden": 3623,
      "▁verileri": 3624,
      "▁3.5": 3625,
      "▁konusunda": 3626,
      "##sti": 3627,
      "##asındaki": 3628,
      "▁misafirimize": 3629,
      "▁ankete": 3630,
      "##he": 3631,
      "▁rolunu": 3632,
      "▁show": 3633,
      "▁onlemek": 3634,
      "▁serb": 3635,
      "▁universiteyi": 3636,
      "▁gunlerde": 3637,
      "##cılara": 3638,
      "▁universiteye": 3639,
      "▁hastalıkların": 3640,
      "▁taleplerinin": 3641,
      "▁ig": 3642,
      "▁ve": 3643,
      "▁aglamaya": 3644,
      "##ıllı": 3645,
      "▁yıllardır": 3646,
      "▁kasım": 3647,
      "▁mode": 3648,
      "▁isley": 3649,
      "▁kapmak": 3650,
      "▁zır": 3651,
      "▁kuralları": 3652,
      "▁lezzet": 3653,
      "▁seyiyle": 3654,
      "▁oruc": 3655,
      "##atlar": 3656,
      "▁sikinti": 3657,
      "##ilini": 3658,
      "▁hareketiyle": 3659,
      "▁adayları": 3660,
      "▁sineye": 3661,
      "▁isini": 3662,
      "▁lokant": 3663,
      "▁oldur": 3664,
      "▁surece": 3665,
      "##do": 3666,
      "▁getirileri": 3667,
      "##acagim": 3668,
      "▁varlık": 3669,
      "▁egitim": 3670,
      "##ının": 3671,
      "##ew": 3672,
      "##esmen": 3673,
      "##ims": 3674,
      "▁sukur": 3675,
      "▁zapt": 3676,
      "▁hissini": 3677,
      "##yonun": 3678,
      "▁devamı": 3679,
      "##or": 3680,
      "##asıl": 3681,
      "▁inanmak": 3682,
      "##bu": 3683,
      "▁ısıgın": 3684,
      "▁yanında": 3685,
      "▁edilecegini": 3686,
      "▁sırrı": 3687,
      "▁yururluge": 3688,
      "▁istiyorum": 3689,
      "##ameti": 3690,
      "▁oturup": 3691,
      "##rap": 3692,
      "##iri": 3693,
      "▁konsep": 3694,
      "##.1": 3695,
      "▁oyk": 3696,
      "▁york'a": 3697,
      "▁avucunun": 3698,
      "▁havayollarının": 3699,
      "▁cokusunden": 3700,
      "▁yalnızlık": 3701,
      "##gumuz": 3702,
      "##enc": 3703,
      "▁delikan": 3704,
      "▁denem": 3705,
      "▁sergisi": 3706,
      "▁budak": 3707,
      "##elig": 3708,
      "▁elleriyle": 3709,
      "▁gerekiyor": 3710,
      "▁salkım": 3711,
      "▁uyandır": 3712,
      "##tenin": 3713,
      "▁ydi": 3714,
      "▁sayın": 3715,
      "▁bol": 3716,
      "##ale": 3717,
      "▁ipek": 3718,
      "▁edenler": 3719,
      "##la": 3720,
      "▁yunan": 3721,
      "##inal": 3722,
      "▁ver": 3723,
      "▁efsane": 3724,
      "▁krizi": 3725,
      "##cli": 3726,
      "▁ucan": 3727,
      "##uncusu": 3728,
      "##°": 3729,
      "▁bin": 3730,
      "▁cesitler": 3731,
      "▁yav": 3732,
      "##asıtasıyla": 3733,
      "▁hangisi": 3734,
      "▁gucuyle": 3735,
      "▁olmaktadır": 3736,
      "##elerim": 3737,
      "▁gobek": 3738,
      "▁kahvelerin": 3739,
      "▁bilin": 3740,
      "▁ailesini": 3741,
      "##ecilerin": 3742,
      "▁kurtu": 3743,
      "▁calısan": 3744,
      "▁tedarik": 3745,
      "▁sac": 3746,
      "▁ilgil": 3747,
      "##emin": 3748,
      "▁andan": 3749,
      "##isti": 3750,
      "▁acmayı": 3751,
      "##aklıgı": 3752,
      "▁guvenc": 3753,
      "▁faaliyet": 3754,
      "▁dom": 3755,
      "▁kavgası": 3756,
      "##mesinde": 3757,
      "▁sertifikaları": 3758,
      "▁dilinden": 3759,
      "▁tasın": 3760,
      "▁surecek": 3761,
      "▁iflah": 3762,
      "▁hikayesi": 3763,
      "##iy": 3764,
      "▁mukelle": 3765,
      "##etler": 3766,
      "▁duskun": 3767,
      "▁anlatır": 3768,
      "▁ciftciler": 3769,
      "▁sp": 3770,
      "▁avrupa": 3771,
      "##umla": 3772,
      "##lesine": 3773,
      "##mma": 3774,
      "▁bok": 3775,
      "▁ruyamda": 3776,
      "▁mıyım": 3777,
      "▁yıllardan": 3778,
      "▁burjuv": 3779,
      "##anla": 3780,
      "##egimizi": 3781,
      "▁ayrildik": 3782,
      "▁reorganizasyon": 3783,
      "▁asıl": 3784,
      "▁vurmak": 3785,
      "▁maliyeti": 3786,
      "##askanı": 3787,
      "##eligine": 3788,
      "▁istis": 3789,
      "▁oyunları": 3790,
      "##ıb": 3791,
      "##uste": 3792,
      "▁tuhaf": 3793,
      "##ilerin": 3794,
      "##eyaz": 3795,
      "▁satıcıları": 3796,
      "▁yazılım": 3797,
      "▁poyraz": 3798,
      "▁liraya": 3799,
      "▁sozune": 3800,
      "▁gelirlerinin": 3801,
      "##kan": 3802,
      "▁ucu": 3803,
      "##uzluydu": 3804,
      "##estirdi": 3805,
      "##var": 3806,
      "▁dere": 3807,
      "▁rezervasyonlar": 3808,
      "▁eczan": 3809,
      "▁savasın": 3810,
      "▁peygam": 3811,
      "▁davranmaya": 3812,
      "▁beklenti": 3813,
      "▁kaldırımın": 3814,
      "##dek": 3815,
      "▁tuketicilerin": 3816,
      "▁yıg": 3817,
      "▁dinlenmek": 3818,
      "▁uykudan": 3819,
      "▁onemsiz": 3820,
      "▁teyzemin": 3821,
      "▁degerlerin": 3822,
      "##cog": 3823,
      "▁kisi": 3824,
      "▁beyz": 3825,
      "▁gorusme": 3826,
      "▁taz": 3827,
      "##lelim": 3828,
      "▁devrinin": 3829,
      "▁ikisi": 3830,
      "▁umid": 3831,
      "▁duydum": 3832,
      "▁leblebi": 3833,
      "▁geldigini": 3834,
      "▁guleryuz": 3835,
      "▁veterin": 3836,
      "##leyerek": 3837,
      "▁hacmin": 3838,
      "n": 3839,
      "▁ticaret": 3840,
      "▁ahbap": 3841,
      "▁cih": 3842,
      "▁tutk": 3843,
      "▁toplumsal": 3844,
      "▁sarı": 3845,
      "▁talim": 3846,
      "▁yayıncılar": 3847,
      "▁hub": 3848,
      "▁harf": 3849,
      "▁kalabalıgı": 3850,
      "▁kesif": 3851,
      "▁satırları": 3852,
      "▁baban": 3853,
      "▁edin": 3854,
      "▁karsıt": 3855,
      "▁cez": 3856,
      "▁koltugunda": 3857,
      "▁kalit": 3858,
      "##ucu": 3859,
      "▁kıymetleri": 3860,
      "▁ikinc": 3861,
      "##ani": 3862,
      "▁itiraz": 3863,
      "▁ele": 3864,
      "▁aydın": 3865,
      "##ceyr": 3866,
      "▁kade": 3867,
      "▁parmaklarını": 3868,
      "▁toplan": 3869,
      "##irin": 3870,
      "▁pırıl": 3871,
      "▁sayısının": 3872,
      "▁hijy": 3873,
      "▁mens": 3874,
      "▁1987'de": 3875,
      "▁analistleri": 3876,
      "▁kafamı": 3877,
      "##orlu": 3878,
      "▁kork": 3879,
      "▁muhtar": 3880,
      "▁cıktım": 3881,
      "▁baglar": 3882,
      "▁olmalıdır": 3883,
      "▁dolaptan": 3884,
      "▁yuksel": 3885,
      "▁etkil": 3886,
      "▁metni": 3887,
      "▁derslerine": 3888,
      "##attle": 3889,
      "##yaları": 3890,
      "▁teshis": 3891,
      "▁yolsuzluk": 3892,
      "▁kabil": 3893,
      "▁seylerin": 3894,
      "▁enistemiz": 3895,
      "▁kavram": 3896,
      "##uru": 3897,
      "▁oturdu": 3898,
      "##anları": 3899,
      "▁odaya": 3900,
      "▁gorunuse": 3901,
      "▁seslerini": 3902,
      "##keli": 3903,
      "▁tasıyor": 3904,
      "##esin": 3905,
      "▁getirmis": 3906,
      "▁hisse": 3907,
      "▁sanal": 3908,
      "▁birbirinden": 3909,
      "▁tecrube": 3910,
      "##ısa": 3911,
      "▁calısanların": 3912,
      "##dik": 3913,
      "▁tesisti": 3914,
      "▁veriyorum": 3915,
      "▁sırf": 3916,
      "▁yuva": 3917,
      "##mamı": 3918,
      "▁okumaya": 3919,
      "▁siirde": 3920,
      "▁cer": 3921,
      "▁nasihat": 3922,
      "▁yemeginden": 3923,
      "▁vapura": 3924,
      "##agat": 3925,
      "▁ırmak": 3926,
      "▁kısı": 3927,
      "▁tasarımı": 3928,
      "##umb": 3929,
      "▁ucusunuz": 3930,
      "▁atıp": 3931,
      "▁yıgını": 3932,
      "▁tımar": 3933,
      "▁oynamak": 3934,
      "##yse": 3935,
      "##ca": 3936,
      "▁gazet": 3937,
      "▁bankacılık": 3938,
      "▁ual": 3939,
      "▁tarafına": 3940,
      "▁seyr": 3941,
      "##ht": 3942,
      "##ersiz": 3943,
      "▁yerlerde": 3944,
      "▁kaybol": 3945,
      "▁riskleri": 3946,
      "▁esvap": 3947,
      "▁aklını": 3948,
      "##ettim": 3949,
      "##ınc": 3950,
      "▁yayını": 3951,
      "##yn": 3952,
      "##les": 3953,
      "▁arkadasım": 3954,
      "▁bagı": 3955,
      "▁bicimde": 3956,
      "▁okum": 3957,
      "▁ekmegini": 3958,
      "▁baslı": 3959,
      "▁annesinin": 3960,
      "▁bolumunde": 3961,
      "##danoz": 3962,
      "##tal": 3963,
      "▁esir": 3964,
      "▁yapildi": 3965,
      "▁orgut": 3966,
      "##acagına": 3967,
      "▁aksiy": 3968,
      "▁sefere": 3969,
      "▁kurnaz": 3970,
      "▁baska": 3971,
      "▁devrimci": 3972,
      "##ecektim": 3973,
      "▁basvurusu": 3974,
      "▁yatagın": 3975,
      "▁bis": 3976,
      "▁degisikliklerini": 3977,
      "##s": 3978,
      "##4'te": 3979,
      "▁korkular": 3980,
      "##bak": 3981,
      "▁indirim": 3982,
      "▁gitti": 3983,
      "▁tanım": 3984,
      "▁animasyonlar": 3985,
      "▁raporunu": 3986,
      "▁kurtulus": 3987,
      "▁bıc": 3988,
      "▁fedakar": 3989,
      "▁olcut": 3990,
      "▁ulasimi": 3991,
      "▁annemi": 3992,
      "▁kahram": 3993,
      "▁kadar": 3994,
      "▁yapmakla": 3995,
      "##tırma": 3996,
      "▁artısın": 3997,
      "▁vermeye": 3998,
      "▁hatası": 3999,
      "▁zarfın": 4000,
      "▁ayrık": 4001,
      "▁beygir": 4002,
      "▁sivr": 4003,
      "▁odamın": 4004,
      "▁kahval": 4005,
      "▁on": 4006,
      "▁cars": 4007,
      "▁kategorisi": 4008,
      "▁geciyor": 4009,
      "▁sozcugu": 4010,
      "▁dizay": 4011,
      "▁orayı": 4012,
      "##dalı": 4013,
      "▁kisilig": 4014,
      "##t": 4015,
      "▁mesrut": 4016,
      "▁minimini": 4017,
      "▁eserler": 4018,
      "▁kaybeden": 4019,
      "##alarımız": 4020,
      "▁gugum": 4021,
      "▁yt": 4022,
      "▁suyunu": 4023,
      "##lerdeki": 4024,
      "▁ustunden": 4025,
      "h": 4026,
      "▁redd": 4027,
      "▁atlanta'ya": 4028,
      "▁gelistiri": 4029,
      "▁potansiy": 4030,
      "##45'ten": 4031,
      "▁bizle": 4032,
      "▁araya": 4033,
      "▁otellerden": 4034,
      "##his": 4035,
      "▁mis": 4036,
      "▁miy": 4037,
      "▁buyumesini": 4038,
      "▁kule": 4039,
      "▁bayan": 4040,
      "▁sehirde": 4041,
      "▁tv": 4042,
      "▁talimat": 4043,
      "▁kaldim": 4044,
      "▁mavisi": 4045,
      "▁bor": 4046,
      "▁oyunu": 4047,
      "##ırtı": 4048,
      "##anc": 4049,
      "▁gok": 4050,
      "▁pembe": 4051,
      "##ıntı": 4052,
      "▁sozlerden": 4053,
      "##gam": 4054,
      "▁dahili": 4055,
      "##lumu": 4056,
      "▁port": 4057,
      "##larımdan": 4058,
      "##st": 4059,
      "▁istiyordu": 4060,
      "▁iyiye": 4061,
      "▁columb": 4062,
      "▁ardına": 4063,
      "▁pr": 4064,
      "▁parmaklarıyla": 4065,
      "▁yokusu": 4066,
      "▁birkacı": 4067,
      "▁piyano": 4068,
      "▁guvence": 4069,
      "▁ureticisi": 4070,
      "▁ısı": 4071,
      "▁kirem": 4072,
      "##lugunda": 4073,
      "▁ardında": 4074,
      "##eci": 4075,
      "▁uzlas": 4076,
      "▁denli": 4077,
      "▁gecede": 4078,
      "##lom": 4079,
      "▁kitapları": 4080,
      "▁piyaz": 4081,
      "▁sandıgı": 4082,
      "##tem": 4083,
      "##nd": 4084,
      "▁gruba": 4085,
      "##anıklıgı": 4086,
      "▁hatıraların": 4087,
      "##yerek": 4088,
      "▁ad": 4089,
      "▁hamla": 4090,
      "▁washington'dan": 4091,
      "▁dokum": 4092,
      "▁prensip": 4093,
      "▁karnı": 4094,
      "▁guzelligine": 4095,
      "▁tiyatronun": 4096,
      "##agu": 4097,
      "▁isletiyor": 4098,
      "▁tezgah": 4099,
      "▁sunlar": 4100,
      "▁sokaklarda": 4101,
      "▁depart": 4102,
      "▁mutema": 4103,
      "▁hazırlanısı": 4104,
      "▁itaat": 4105,
      "▁calısanları": 4106,
      "##ıga": 4107,
      "▁juri": 4108,
      "▁pav": 4109,
      "▁prenses": 4110,
      "▁ibret": 4111,
      "##ici": 4112,
      "▁cogunlugu": 4113,
      "##sanız": 4114,
      "▁1991": 4115,
      "▁unlu": 4116,
      "▁lah": 4117,
      "▁raporlar": 4118,
      "▁merkezleri": 4119,
      "##cası": 4120,
      "##dince": 4121,
      "▁islev": 4122,
      "##melerine": 4123,
      "▁yavasca": 4124,
      "▁varıyor": 4125,
      "▁gencliginde": 4126,
      "▁isletmeler": 4127,
      "▁puanlarim": 4128,
      "▁agustos'ta": 4129,
      "##gen": 4130,
      "##alıgı": 4131,
      "##turu": 4132,
      "▁mesru": 4133,
      "▁kargasa": 4134,
      "##mistik": 4135,
      "▁dukkan": 4136,
      "▁fuar": 4137,
      "##anının": 4138,
      "▁koyluler": 4139,
      "##ekul": 4140,
      "▁duzelt": 4141,
      "▁bilgisayarlar": 4142,
      "▁turkler": 4143,
      "▁gor": 4144,
      "▁nereler": 4145,
      "##ag": 4146,
      "▁sokagın": 4147,
      "##pe": 4148,
      "▁yogun": 4149,
      "▁tokyo": 4150,
      "…": 4151,
      "▁rehberden": 4152,
      "▁urunlerde": 4153,
      "##tmıs": 4154,
      "▁anımsa": 4155,
      "▁tahminle": 4156,
      "▁yont": 4157,
      "▁uretici": 4158,
      "▁cıkarma": 4159,
      "▁geldiler": 4160,
      "▁meseleyi": 4161,
      "▁baskanlıgında": 4162,
      "▁denizini": 4163,
      "▁artırmak": 4164,
      "▁direnc": 4165,
      "▁kast": 4166,
      "▁niyet": 4167,
      "▁alfab": 4168,
      "▁ayr": 4169,
      "##siyon": 4170,
      "##uga": 4171,
      "▁tarihleri": 4172,
      "##larında": 4173,
      "▁siyas": 4174,
      "▁konserv": 4175,
      "▁bahceye": 4176,
      "▁duzeyinde": 4177,
      "##ud": 4178,
      "▁mor": 4179,
      "▁beklentilerimi": 4180,
      "##ko": 4181,
      "▁muduru": 4182,
      "▁yanlis": 4183,
      "▁anlasmayı": 4184,
      "▁kalmamıs": 4185,
      "##gini": 4186,
      "▁degerlendiririm": 4187,
      "▁birdenbire": 4188,
      "##yiz": 4189,
      "▁orgu": 4190,
      "▁indir": 4191,
      "▁turdan": 4192,
      "▁kenarı": 4193,
      "##elik": 4194,
      "▁cevapları": 4195,
      "▁hasılat": 4196,
      "▁kapasitesi": 4197,
      "##ılmaz": 4198,
      "##5'de": 4199,
      "▁ap": 4200,
      "▁ib": 4201,
      "▁kusagın": 4202,
      "▁olmaz": 4203,
      "▁dereceye": 4204,
      "▁pom": 4205,
      "▁gırtlag": 4206,
      "##lıkla": 4207,
      "▁konum": 4208,
      "▁gazete": 4209,
      "▁bedelle": 4210,
      "▁sozluk": 4211,
      "▁hamuru": 4212,
      "##lıgından": 4213,
      "▁muy": 4214,
      "▁ph": 4215,
      "▁kadro": 4216,
      "##yp": 4217,
      "##ıydı": 4218,
      "##mek": 4219,
      "▁sevis": 4220,
      "##mayacagını": 4221,
      "▁aldılar": 4222,
      "▁olmayacagını": 4223,
      "▁ongordu": 4224,
      "##ıldıgını": 4225,
      "▁ka": 4226,
      "▁cares": 4227,
      "▁dallarını": 4228,
      "▁dow": 4229,
      "▁olcumu": 4230,
      "▁ekibi": 4231,
      "▁ucusuna": 4232,
      "▁milyonluk": 4233,
      "##ahi": 4234,
      "▁egzersiz": 4235,
      "▁65": 4236,
      "▁yuregini": 4237,
      "▁alıcıları": 4238,
      "▁otomobile": 4239,
      "▁genc": 4240,
      "##agon": 4241,
      "▁luzum": 4242,
      "▁bunlara": 4243,
      "##alamaya": 4244,
      "##gut": 4245,
      "##5'lik": 4246,
      "▁cleveland'a": 4247,
      "▁kalıp": 4248,
      "▁miralay": 4249,
      "▁titr": 4250,
      "▁dedikodu": 4251,
      "▁beyler": 4252,
      "▁rez": 4253,
      "▁kut": 4254,
      "##lar": 4255,
      "##lararası": 4256,
      "▁arab": 4257,
      "##sızın": 4258,
      "▁mily": 4259,
      "▁sırasında": 4260,
      "##ake": 4261,
      "##urdum": 4262,
      "##ayın": 4263,
      "▁alay": 4264,
      "▁hisset": 4265,
      "▁birinin": 4266,
      "▁arkadaslarıyla": 4267,
      "##etic": 4268,
      "##agın": 4269,
      "▁fikri": 4270,
      "##nan": 4271,
      "##dım": 4272,
      "##mekle": 4273,
      "▁kurbanı": 4274,
      "▁partilerin": 4275,
      "▁gizlemek": 4276,
      "##lac": 4277,
      "▁donmustu": 4278,
      "▁beklendigini": 4279,
      "▁tuvaletler": 4280,
      "▁karak": 4281,
      "▁birbirinin": 4282,
      "▁idaresi": 4283,
      "▁arastırmacı": 4284,
      "▁mcb": 4285,
      "##emb": 4286,
      "▁ince": 4287,
      "▁kapısına": 4288,
      "##ecileri": 4289,
      "▁ithalat": 4290,
      "▁hangileri": 4291,
      "▁gelis": 4292,
      "▁yaptir": 4293,
      "▁16": 4294,
      "▁yatırımları": 4295,
      "▁agab": 4296,
      "▁14": 4297,
      "▁sınır": 4298,
      "▁hul": 4299,
      "##lulugunu": 4300,
      "▁kullandim": 4301,
      "▁gurultusu": 4302,
      "##yal": 4303,
      "▁dumana": 4304,
      "▁endust": 4305,
      "▁liman": 4306,
      "▁iste": 4307,
      "##ilendir": 4308,
      "▁ov": 4309,
      "##5'": 4310,
      "▁buyum": 4311,
      "▁olayları": 4312,
      "▁satıcısı": 4313,
      "▁eas": 4314,
      "▁tasıdı": 4315,
      "▁kitaplara": 4316,
      "–": 4317,
      "▁basarı": 4318,
      "▁denizin": 4319,
      "▁kayıplar": 4320,
      "▁imtiyaz": 4321,
      "▁yog": 4322,
      "▁sabaha": 4323,
      "▁cocuklardan": 4324,
      "▁cogal": 4325,
      "▁kalacak": 4326,
      "##ligim": 4327,
      "##lerine": 4328,
      "##allas": 4329,
      "▁tutum": 4330,
      "▁ısıl": 4331,
      "▁tartısmalar": 4332,
      "▁degisiklikleri": 4333,
      "##samba": 4334,
      "▁yakinlarima": 4335,
      "▁yelk": 4336,
      "▁kurde": 4337,
      "▁anlasmaz": 4338,
      "▁kolu": 4339,
      "▁cami": 4340,
      "▁tasları": 4341,
      "▁aynısını": 4342,
      "▁huner": 4343,
      "▁agrıları": 4344,
      "▁sehr": 4345,
      "▁doz": 4346,
      "▁dagıt": 4347,
      "##emli": 4348,
      "##tigimiz": 4349,
      "▁nam": 4350,
      "##lasman": 4351,
      "▁tac": 4352,
      "▁baskalarının": 4353,
      "▁onay": 4354,
      "▁saglar": 4355,
      "▁testi": 4356,
      "▁atıs": 4357,
      "▁acenteye": 4358,
      "##ktır": 4359,
      "▁fiz": 4360,
      "▁canına": 4361,
      "##y": 4362,
      "▁sayet": 4363,
      "▁seyahat": 4364,
      "▁guvenligini": 4365,
      "▁hesaptan": 4366,
      "▁bag": 4367,
      "▁mater": 4368,
      "▁konumundan": 4369,
      "▁odama": 4370,
      "▁murekkep": 4371,
      "▁sekreter": 4372,
      "▁sovyetlerin": 4373,
      "▁camı": 4374,
      "▁eb": 4375,
      "##arlandı": 4376,
      "▁muhtemelen": 4377,
      "▁kalmıstı": 4378,
      "▁masasına": 4379,
      "##ugunda": 4380,
      "▁gelirin": 4381,
      "▁kundur": 4382,
      "##eksu": 4383,
      "▁in": 4384,
      "▁boncuk": 4385,
      "▁kepenk": 4386,
      "▁garsonlar": 4387,
      "▁iki": 4388,
      "▁sakaya": 4389,
      "##met": 4390,
      "▁cem": 4391,
      "▁misafire": 4392,
      "▁tarafa": 4393,
      "##lesti": 4394,
      "▁yasay": 4395,
      "##um": 4396,
      "▁j": 4397,
      "▁cogunu": 4398,
      "▁paralar": 4399,
      "▁cenesine": 4400,
      "▁calisanlari": 4401,
      "▁gelisimi": 4402,
      "▁hayrete": 4403,
      "▁caddenin": 4404,
      "▁borcu": 4405,
      "▁isletmelere": 4406,
      "##ikti": 4407,
      "▁ogeleri": 4408,
      "##ram": 4409,
      "▁giysiler": 4410,
      "▁verecegini": 4411,
      "##iyesi": 4412,
      "▁damarı": 4413,
      "▁seylere": 4414,
      "▁biyotekn": 4415,
      "▁levh": 4416,
      "▁pam": 4417,
      "▁zabit": 4418,
      "▁vergisi": 4419,
      "▁kaygı": 4420,
      "▁bunda": 4421,
      "▁hijyenikti": 4422,
      "▁altında": 4423,
      "▁konularda": 4424,
      "▁setin": 4425,
      "▁nik": 4426,
      "▁materyalizm": 4427,
      "▁istemis": 4428,
      "▁kapısından": 4429,
      "▁dolabın": 4430,
      "▁sayısı": 4431,
      "▁kırdı": 4432,
      "▁goruyordu": 4433,
      "▁nin": 4434,
      "▁adamlarının": 4435,
      "▁kirec": 4436,
      "▁ihtiyacim": 4437,
      "▁niyetine": 4438,
      "▁kalk": 4439,
      "##00'den": 4440,
      "▁yaratır": 4441,
      "##iyon": 4442,
      "▁becer": 4443,
      "▁yene": 4444,
      "▁californ": 4445,
      "▁atıl": 4446,
      "▁ayında": 4447,
      "##are": 4448,
      "▁geb": 4449,
      "▁bununla": 4450,
      "▁kayda": 4451,
      "▁ir": 4452,
      "▁seytan": 4453,
      "▁damak": 4454,
      "##0'a": 4455,
      "##ebe": 4456,
      "▁gorunum": 4457,
      "▁yoksul": 4458,
      "▁p": 4459,
      "▁odem": 4460,
      "▁kurgu": 4461,
      "▁trav": 4462,
      "▁yaklastıgını": 4463,
      "▁agacların": 4464,
      "▁lu": 4465,
      "▁kelep": 4466,
      "▁sinirlerini": 4467,
      "##ite": 4468,
      "▁veg": 4469,
      "▁olimpiyat": 4470,
      "▁ıslık": 4471,
      "##chester": 4472,
      "▁yasından": 4473,
      "▁phoenix'e": 4474,
      "▁trafigi": 4475,
      "▁sebepler": 4476,
      "▁hasta": 4477,
      "▁gunesi": 4478,
      "▁peynirleri": 4479,
      "##meni": 4480,
      "▁kasaba": 4481,
      "▁birde": 4482,
      "##lig": 4483,
      "##vil": 4484,
      "▁kotums": 4485,
      "##du.": 4486,
      "▁menf": 4487,
      "##esine": 4488,
      "▁bolgesi": 4489,
      "▁roportajda": 4490,
      "▁musteriler": 4491,
      "▁yılların": 4492,
      "▁nav": 4493,
      "▁taahhut": 4494,
      "##esi'ne": 4495,
      "▁ruy": 4496,
      "▁gidisat": 4497,
      "▁istedigi": 4498,
      "▁komuru": 4499,
      "▁seviyesine": 4500,
      "▁yasa": 4501,
      "▁75": 4502,
      "▁city'den": 4503,
      "##layacagını": 4504,
      "▁inek": 4505,
      "▁nedeni": 4506,
      "▁yetk": 4507,
      "▁rahmet": 4508,
      "▁babadan": 4509,
      "▁digerlerine": 4510,
      "▁havaalanı'na": 4511,
      "▁onayına": 4512,
      "▁istanbul": 4513,
      "##cılıg": 4514,
      "▁varlıgı": 4515,
      "▁united": 4516,
      "▁karsilama": 4517,
      "▁gond": 4518,
      "▁fazlasını": 4519,
      "▁esyalar": 4520,
      "##mesini": 4521,
      "▁sınav": 4522,
      "##eligi": 4523,
      "▁bık": 4524,
      "▁kızgınlık": 4525,
      "▁cosku": 4526,
      "▁fısıltı": 4527,
      "▁calıstır": 4528,
      "▁tahmini": 4529,
      "▁hok": 4530,
      "▁odam": 4531,
      "▁piyanonun": 4532,
      "$": 4533,
      "▁yapmaktan": 4534,
      "▁olsaydı": 4535,
      "##oza": 4536,
      "▁haps": 4537,
      "##ecekleri": 4538,
      "▁kaynaklarına": 4539,
      "▁bagır": 4540,
      "▁hev": 4541,
      "##up": 4542,
      "▁acen": 4543,
      "##kiz": 4544,
      "▁parayla": 4545,
      "▁havaalanı'nda": 4546,
      "▁canlanma": 4547,
      "▁1.1": 4548,
      "▁bankacılar": 4549,
      "▁hizmetlerini": 4550,
      "##inin": 4551,
      "▁gemiydi": 4552,
      "▁partisi": 4553,
      "▁arkadasına": 4554,
      "▁ihalesinde": 4555,
      "##000": 4556,
      "▁usul": 4557,
      "##emedi": 4558,
      "▁gokyuzunu": 4559,
      "▁kin": 4560,
      "▁kazananlar": 4561,
      "##abaz": 4562,
      "##jur": 4563,
      "▁sov": 4564,
      "▁kapsamında": 4565,
      "##ıstır": 4566,
      "##ıgıyla": 4567,
      "▁yasında": 4568,
      "##yası": 4569,
      "##ılıs": 4570,
      "▁vilayet": 4571,
      "▁yuzey": 4572,
      "##lıdır": 4573,
      "▁donemi": 4574,
      "##lusu": 4575,
      "▁aylarda": 4576,
      "▁yasıyorum": 4577,
      "▁kalır": 4578,
      "▁kredileri": 4579,
      "▁pozisyonu": 4580,
      "▁turlar": 4581,
      "▁iceri": 4582,
      "▁av": 4583,
      "▁geregini": 4584,
      "▁danısmanları": 4585,
      "▁o": 4586,
      "▁oranda": 4587,
      "▁odamdan": 4588,
      "##rill": 4589,
      "▁devlet": 4590,
      "▁masal": 4591,
      "▁jandar": 4592,
      "▁tatlilar": 4593,
      "##ıntısı": 4594,
      "▁teneff": 4595,
      "##ic": 4596,
      "▁sandaly": 4597,
      "##urduk": 4598,
      "▁hatir": 4599,
      "##am": 4600,
      "▁urunleri": 4601,
      "##lan": 4602,
      "▁vap": 4603,
      "▁mekan": 4604,
      "▁hemsir": 4605,
      "▁birles": 4606,
      "▁duyar": 4607,
      "▁acele": 4608,
      "▁kahraman": 4609,
      "▁arkadasa": 4610,
      "##ıldıgına": 4611,
      "▁demektir": 4612,
      "▁kırlangıc": 4613,
      "▁hani": 4614,
      "▁gogu": 4615,
      "▁degerinin": 4616,
      "##alar": 4617,
      "▁oz": 4618,
      "▁renkte": 4619,
      "▁sofor": 4620,
      "▁mevc": 4621,
      "▁ab": 4622,
      "##alam": 4623,
      "▁likidit": 4624,
      "##liklerini": 4625,
      "##asında": 4626,
      "▁48": 4627,
      "▁sozcuk": 4628,
      "▁ampul": 4629,
      "##tıl": 4630,
      "▁tit": 4631,
      "▁sayg": 4632,
      "##ze": 4633,
      "▁cit": 4634,
      "▁terbiye": 4635,
      "▁idrak": 4636,
      "##edikten": 4637,
      "▁temmuzda": 4638,
      "▁cagın": 4639,
      "▁hazırladı": 4640,
      "▁agzını": 4641,
      "▁kosu": 4642,
      "▁orne": 4643,
      "▁yegen": 4644,
      "##azaran": 4645,
      "##iz": 4646,
      "▁kendis": 4647,
      "##ecekti": 4648,
      "▁belli": 4649,
      "▁kalitesinden": 4650,
      "▁konusuyor": 4651,
      "##'la": 4652,
      "▁muz": 4653,
      "▁konustu": 4654,
      "▁lambaları": 4655,
      "##anız": 4656,
      "▁renklerde": 4657,
      "##itti": 4658,
      "▁tipini": 4659,
      "##undaki": 4660,
      "▁yardımcısı": 4661,
      "▁basit": 4662,
      "##amac": 4663,
      "▁verip": 4664,
      "▁sabahtan": 4665,
      "▁indirimlerden": 4666,
      "##liyorum": 4667,
      "▁kullanıyor": 4668,
      "▁arkasında": 4669,
      "▁teklifleri": 4670,
      "▁dilinin": 4671,
      "▁biri": 4672,
      "▁ucuslarınız": 4673,
      "▁selef": 4674,
      "▁ekol": 4675,
      "▁lideri": 4676,
      "##teki": 4677,
      "▁ceyrek": 4678,
      "▁zevk": 4679,
      "▁sıp": 4680,
      "▁kilit": 4681,
      "▁egem": 4682,
      "▁acılıs": 4683,
      "▁albumu": 4684,
      "##ki": 4685,
      "▁iyilestir": 4686,
      "##.50": 4687,
      "▁mantıklı": 4688,
      "▁california": 4689,
      "▁korf": 4690,
      "##arlık": 4691,
      "##'si": 4692,
      "▁korkuya": 4693,
      "##lının": 4694,
      "▁dam": 4695,
      "##amam": 4696,
      "##edik": 4697,
      "▁trend": 4698,
      "▁kıyıya": 4699,
      "##yıl": 4700,
      "▁docent": 4701,
      "##ustan": 4702,
      "▁iz": 4703,
      "▁adr": 4704,
      "▁unsur": 4705,
      "▁babama": 4706,
      "##ational": 4707,
      "▁kalıyor": 4708,
      "▁arac": 4709,
      "▁sure": 4710,
      "▁soguk": 4711,
      "▁basarili": 4712,
      "▁mucade": 4713,
      "▁eliyle": 4714,
      "▁burnundan": 4715,
      "▁uretimi": 4716,
      "▁defne": 4717,
      "##ullu": 4718,
      "▁4": 4719,
      "▁seg": 4720,
      "▁birlikte": 4721,
      "▁yaratıc": 4722,
      "▁gonl": 4723,
      "▁azal": 4724,
      "▁ikam": 4725,
      "##ciligin": 4726,
      "▁ciftci": 4727,
      "▁memlekette": 4728,
      "▁kom": 4729,
      "▁penceresinden": 4730,
      "▁demeye": 4731,
      "▁hizmetlerinden": 4732,
      "▁kaldırım": 4733,
      "▁charlotte": 4734,
      "▁olanagı": 4735,
      "▁aff": 4736,
      "▁jener": 4737,
      "▁isteklerini": 4738,
      "▁hedefi": 4739,
      "▁yapıyı": 4740,
      "##eceg": 4741,
      "▁yapılan": 4742,
      "▁tenc": 4743,
      "▁icra": 4744,
      "##sarı": 4745,
      "▁mahluk": 4746,
      "▁bıraktı": 4747,
      "▁kacın": 4748,
      "▁motor": 4749,
      "▁zil": 4750,
      "▁kusuru": 4751,
      "▁hip": 4752,
      "▁simdi": 4753,
      "##olog": 4754,
      "▁potansiyel": 4755,
      "▁yasları": 4756,
      "▁urunlerinin": 4757,
      "##esk": 4758,
      "▁seyle": 4759,
      "▁arb": 4760,
      "▁dibe": 4761,
      "▁size": 4762,
      "▁kotuydu": 4763,
      "▁servet": 4764,
      "▁sorumlulugunu": 4765,
      "##izligi": 4766,
      "▁alımının": 4767,
      "▁memurlar": 4768,
      "▁yakin": 4769,
      "▁minn": 4770,
      "▁edep": 4771,
      "▁surec": 4772,
      "##cık": 4773,
      "##lemesi": 4774,
      "▁ozenle": 4775,
      "▁palto": 4776,
      "##etr": 4777,
      "▁dogal": 4778,
      "▁ordusunun": 4779,
      "▁buro": 4780,
      "##lesinde": 4781,
      "##adı": 4782,
      "▁bul": 4783,
      "▁dogum": 4784,
      "▁contin": 4785,
      "▁manzarasi": 4786,
      "▁tap": 4787,
      "▁savas": 4788,
      "▁kısaca": 4789,
      "▁petr": 4790,
      "##ayeti": 4791,
      "##ucul": 4792,
      "##ısım": 4793,
      "▁nar": 4794,
      "▁kapıları": 4795,
      "##9": 4796,
      "▁teh": 4797,
      "▁ku": 4798,
      "▁matem": 4799,
      "▁cleveland": 4800,
      "▁toplumunun": 4801,
      "▁vermesini": 4802,
      "▁balıkcı": 4803,
      "▁kullanılıyor": 4804,
      "▁fabrikada": 4805,
      "▁fiyatlari": 4806,
      "##dugune": 4807,
      "▁beb": 4808,
      "##larin": 4809,
      "▁murekk": 4810,
      "▁gordugunu": 4811,
      "▁gitmisti": 4812,
      "▁25": 4813,
      "▁sehirler": 4814,
      "▁ayık": 4815,
      "▁ataturk": 4816,
      "##yalı": 4817,
      "▁kibr": 4818,
      "▁subesi": 4819,
      "▁toplantılar": 4820,
      "▁seh": 4821,
      "▁gecesi": 4822,
      "▁varil": 4823,
      "▁dusuncesini": 4824,
      "▁oncesinde": 4825,
      "▁gucleri": 4826,
      "▁fıkra": 4827,
      "▁gucunu": 4828,
      "##ıklar": 4829,
      "▁islerini": 4830,
      "▁52": 4831,
      "▁davasında": 4832,
      "▁feslegen": 4833,
      "▁sonbaharı": 4834,
      "▁husus": 4835,
      "▁sorunlarını": 4836,
      "▁1,": 4837,
      "▁fiyata": 4838,
      "▁kursu": 4839,
      "▁nice": 4840,
      "##inti": 4841,
      "b": 4842,
      "▁hamle": 4843,
      "▁dusundum": 4844,
      "##`": 4845,
      "▁dilek": 4846,
      "##olojisi": 4847,
      "▁ilkbah": 4848,
      "▁herifin": 4849,
      "▁cıp": 4850,
      "▁cocuklarına": 4851,
      "##ısıyla": 4852,
      "▁uykusuna": 4853,
      "▁gidelim": 4854,
      "▁sistemine": 4855,
      "▁gelisim": 4856,
      "▁notları": 4857,
      "▁almıstı": 4858,
      "▁hayaller": 4859,
      "##romu": 4860,
      "▁numaralı": 4861,
      "▁oglum": 4862,
      "▁charlotte'ye": 4863,
      "▁olmaması": 4864,
      "▁gezeg": 4865,
      "▁kulagında": 4866,
      "▁haklarına": 4867,
      "▁listeleyin": 4868,
      "▁but": 4869,
      "▁iri": 4870,
      "▁kurulus": 4871,
      "▁kilom": 4872,
      "▁sıra": 4873,
      "▁duzen": 4874,
      "▁doları'ndan": 4875,
      "▁avuk": 4876,
      "▁oluyor": 4877,
      "▁gıc": 4878,
      "▁olcum": 4879,
      "▁ortamında": 4880,
      "▁pirinc": 4881,
      "##ucuk": 4882,
      "▁atesi": 4883,
      "▁yapıt": 4884,
      "▁aletler": 4885,
      "▁hocası": 4886,
      "##uya": 4887,
      "▁fikir": 4888,
      "▁hizmeti": 4889,
      "▁denver": 4890,
      "▁yapacak": 4891,
      "▁evlilig": 4892,
      "▁ifadesini": 4893,
      "▁fisk": 4894,
      "▁aksine": 4895,
      "##endek": 4896,
      "▁manz": 4897,
      "▁pahaliydi": 4898,
      "▁turban": 4899,
      "▁portfoyu": 4900,
      "▁ucretler": 4901,
      "##lasa": 4902,
      "▁kimyasal": 4903,
      "▁ortada": 4904,
      "▁okul": 4905,
      "▁sabahı": 4906,
      "▁teknoloj": 4907,
      "▁sosyalizm": 4908,
      "##ınlık": 4909,
      "▁ısık": 4910,
      "##elektr": 4911,
      "▁adamakıllı": 4912,
      "##on'un": 4913,
      "▁ortalamasından": 4914,
      "▁donup": 4915,
      "##em": 4916,
      "▁ordek": 4917,
      "▁suclamaları": 4918,
      "▁verilmesi": 4919,
      "▁kaymakam": 4920,
      "▁koseye": 4921,
      "▁alıyor": 4922,
      "##lulugu": 4923,
      "▁and": 4924,
      "▁huzur": 4925,
      "▁kokuları": 4926,
      "##aylon": 4927,
      "▁dallas'ta": 4928,
      "##yacagı": 4929,
      "##ine": 4930,
      "##lendirdi": 4931,
      "▁bankaların": 4932,
      "##dogu": 4933,
      "##dol": 4934,
      "##bat": 4935,
      "▁patronun": 4936,
      "▁iftih": 4937,
      "▁oyna": 4938,
      "##aj": 4939,
      "▁bakıyor": 4940,
      "##eliydi": 4941,
      "▁kala": 4942,
      "▁kisilerle": 4943,
      "▁kazanın": 4944,
      "▁muthis": 4945,
      "▁donem": 4946,
      "▁ortalam": 4947,
      "▁etmesi": 4948,
      "▁ars": 4949,
      "▁etmenin": 4950,
      "▁duman": 4951,
      "▁reding": 4952,
      "▁lisede": 4953,
      "##so": 4954,
      "##ulup": 4955,
      "##odr": 4956,
      "▁maddenin": 4957,
      "▁gelecekte": 4958,
      "▁baglıdır": 4959,
      "##iyat": 4960,
      "▁ayrıca": 4961,
      "▁kadr": 4962,
      "▁ucusunda": 4963,
      "▁kıvılc": 4964,
      "▁tavır": 4965,
      "▁davada": 4966,
      "▁kullanıldıgını": 4967,
      "##ada": 4968,
      "▁dolara": 4969,
      "##irip": 4970,
      "##eff": 4971,
      "▁salah": 4972,
      "##ıkları": 4973,
      "▁yuk": 4974,
      "##ıslı": 4975,
      "▁pet": 4976,
      "▁almanlar": 4977,
      "▁guler": 4978,
      "▁sahis": 4979,
      "▁elb": 4980,
      "▁kendimize": 4981,
      "##siz": 4982,
      "▁darbe": 4983,
      "▁1988": 4984,
      "##itre": 4985,
      "▁fiyatlarının": 4986,
      "▁katana": 4987,
      "▁fabrik": 4988,
      "▁muzaker": 4989,
      "##west": 4990,
      "▁kalemleri": 4991,
      "▁gunden": 4992,
      "▁guzellik": 4993,
      "▁faaliyetlerden": 4994,
      "▁alanın": 4995,
      "▁annenin": 4996,
      "##amiza": 4997,
      "##mesidir": 4998,
      "▁muda": 4999,
      "▁baskenti": 5000,
      "▁sirketlerin": 5001,
      "▁alnı": 5002,
      "##isme": 5003,
      "▁evde": 5004,
      "▁penc": 5005,
      "▁hotel": 5006,
      "##nla": 5007,
      "▁yuruyordu": 5008,
      "##sal": 5009,
      "##nc": 5010,
      "▁gune": 5011,
      "▁gozlerine": 5012,
      "##suna": 5013,
      "▁benz": 5014,
      "##verdi": 5015,
      "▁7.8": 5016,
      "▁kampanyalar": 5017,
      "▁hur": 5018,
      "▁mevzu": 5019,
      "▁toprakta": 5020,
      "##du": 5021,
      "▁adama": 5022,
      "##iginde": 5023,
      "▁borsası'nda": 5024,
      "▁keleb": 5025,
      "▁opsiyonu": 5026,
      "##ap": 5027,
      "▁rok": 5028,
      "▁insandan": 5029,
      "##iyeleri": 5030,
      "##ılımı": 5031,
      "▁moda": 5032,
      "▁oturmus": 5033,
      "▁kazada": 5034,
      "▁ri": 5035,
      "▁portf": 5036,
      "▁lık": 5037,
      "##ligin": 5038,
      "##ları": 5039,
      "▁bina": 5040,
      "▁universitede": 5041,
      "▁digerleri": 5042,
      "▁sm": 5043,
      "▁kuzu": 5044,
      "##uttu": 5045,
      "▁bulunmaktadır": 5046,
      "##lardir": 5047,
      "##ysa": 5048,
      "▁suik": 5049,
      "▁ankara": 5050,
      "▁izm": 5051,
      "▁peri": 5052,
      "▁hareketi": 5053,
      "▁kısıtlamaları": 5054,
      "▁faaliyetinde": 5055,
      "▁dikkatini": 5056,
      "▁ontar": 5057,
      "▁kuyruk": 5058,
      "▁beton": 5059,
      "▁gitar": 5060,
      "##asyonu": 5061,
      "▁guzele": 5062,
      "##ston": 5063,
      "▁kayıt": 5064,
      "▁uygulama": 5065,
      "▁dinlen": 5066,
      "##meyin": 5067,
      "##dinden": 5068,
      "▁muht": 5069,
      "##gim": 5070,
      "▁tarafını": 5071,
      "▁cumhuriyeti": 5072,
      "▁avans": 5073,
      "▁cimento": 5074,
      "▁hisseyle": 5075,
      "▁alın": 5076,
      "▁yasamadik": 5077,
      "##mıstım": 5078,
      "▁matemat": 5079,
      "▁gozlerden": 5080,
      "▁lokanta": 5081,
      "▁kalb": 5082,
      "▁72": 5083,
      "▁odalardan": 5084,
      "##elendir": 5085,
      "▁bankacı": 5086,
      "▁ucreti": 5087,
      "▁uygulamaları": 5088,
      "▁salınc": 5089,
      "▁gelenek": 5090,
      "▁eyleme": 5091,
      "▁gidip": 5092,
      "▁birimiz": 5093,
      "▁kanunla": 5094,
      "▁hukumleri": 5095,
      "▁sikintim": 5096,
      "▁cıkıp": 5097,
      "▁nereye": 5098,
      "##ert": 5099,
      "▁hızla": 5100,
      "▁oldug": 5101,
      "▁kafası": 5102,
      "▁dediler": 5103,
      "▁eziyet": 5104,
      "▁soygun": 5105,
      "▁izni": 5106,
      "▁sarh": 5107,
      "▁gordugu": 5108,
      "▁sakınca": 5109,
      "▁yemin": 5110,
      "##muslar": 5111,
      "##asını": 5112,
      "▁tik": 5113,
      "▁ardından": 5114,
      "▁ann": 5115,
      "▁pant": 5116,
      "▁okullar": 5117,
      "▁dunyasından": 5118,
      "▁borclanma": 5119,
      "##yle": 5120,
      "▁bord": 5121,
      "##gin": 5122,
      "▁armagan": 5123,
      "##ofon": 5124,
      "▁aklimizda": 5125,
      "▁yana": 5126,
      "▁kapadı": 5127,
      "▁gemilere": 5128,
      "▁buh": 5129,
      "▁gununu": 5130,
      "##ardan": 5131,
      "▁hicbirinin": 5132,
      "▁isk": 5133,
      "▁iyilerini": 5134,
      "▁hakem": 5135,
      "##dıgım": 5136,
      "▁sevda": 5137,
      "▁por": 5138,
      "##larınızı": 5139,
      "▁fiyatlardan": 5140,
      "▁hob": 5141,
      "▁doldur": 5142,
      "▁cizgi": 5143,
      "▁ilcesinde": 5144,
      "▁piyasasını": 5145,
      "▁faiz": 5146,
      "##sı": 5147,
      "▁halkın": 5148,
      "▁toronto": 5149,
      "▁4'ten": 5150,
      "##ludur": 5151,
      "▁yururlukte": 5152,
      "▁felc": 5153,
      "▁b.": 5154,
      "▁sizi": 5155,
      "▁yak": 5156,
      "▁gozunu": 5157,
      "▁komisyonlar": 5158,
      "▁arkadaslar": 5159,
      "##ansal": 5160,
      "##ort": 5161,
      "▁22": 5162,
      "##of": 5163,
      "▁dedik": 5164,
      "▁bankaları": 5165,
      "▁savcılar": 5166,
      "##amad": 5167,
      "▁programda": 5168,
      "▁fiyatlar": 5169,
      "▁kumas": 5170,
      "▁ruyalar": 5171,
      "▁arbitraj": 5172,
      "▁tasların": 5173,
      "▁ket": 5174,
      "▁cikis": 5175,
      "##sızca": 5176,
      "##inlere": 5177,
      "▁nef": 5178,
      "▁kalkıslı": 5179,
      "▁bagları": 5180,
      "▁kultur": 5181,
      "##mar": 5182,
      "▁yukum": 5183,
      "▁guncel": 5184,
      "▁komut": 5185,
      "▁burbank": 5186,
      "▁tohumu": 5187,
      "##malıdır": 5188,
      "▁49": 5189,
      "▁evlerini": 5190,
      "▁dr.": 5191,
      "##ous": 5192,
      "▁oteye": 5193,
      "##iyetleri": 5194,
      "##ırdı": 5195,
      "▁kurallar": 5196,
      "▁anlatmaya": 5197,
      "▁hazir": 5198,
      "▁hafta": 5199,
      "▁mahkemesi": 5200,
      "##tes": 5201,
      "▁kanadı": 5202,
      "▁sadakati": 5203,
      "▁fasul": 5204,
      "▁tanı": 5205,
      "▁koyuldu": 5206,
      "▁bırakıyor": 5207,
      "##dıgı": 5208,
      "##eyr": 5209,
      "##ısından": 5210,
      "▁zih": 5211,
      "▁donanım": 5212,
      "##diklerinde": 5213,
      "##'te": 5214,
      "##iyor": 5215,
      "##egimiz": 5216,
      "▁halkla": 5217,
      "▁adi": 5218,
      "▁edip": 5219,
      "▁bekliyordu": 5220,
      "▁sen": 5221,
      "▁ız": 5222,
      "▁satısı": 5223,
      "▁ozellestirme": 5224,
      "▁mudur": 5225,
      "▁im": 5226,
      "▁ihr": 5227,
      "##gisi": 5228,
      "▁amerikalı": 5229,
      "##tesi": 5230,
      "##gır": 5231,
      "▁kusk": 5232,
      "▁tedbirler": 5233,
      "▁bayragını": 5234,
      "▁bun": 5235,
      "▁ilgisizlik": 5236,
      "▁romant": 5237,
      "▁baslarında": 5238,
      "▁alanda": 5239,
      "▁tim": 5240,
      "##bası": 5241,
      "▁kimya": 5242,
      "▁yatırımcının": 5243,
      "▁iyisi": 5244,
      "##tig": 5245,
      "▁nokt": 5246,
      "▁baslangıcta": 5247,
      "##zı": 5248,
      "▁basıma": 5249,
      "▁nis": 5250,
      "##e'nin": 5251,
      "▁dehs": 5252,
      "▁yon": 5253,
      "▁burun": 5254,
      "▁may": 5255,
      "▁kayın": 5256,
      "▁kızdır": 5257,
      "##irk": 5258,
      "##usuyla": 5259,
      "▁bilmez": 5260,
      "▁duzenlemeleri": 5261,
      "▁fonlarına": 5262,
      "▁kap": 5263,
      "▁yuvarlak": 5264,
      "▁dost": 5265,
      "▁th": 5266,
      "▁pop": 5267,
      "▁yabancilara": 5268,
      "##alamak": 5269,
      "▁toren": 5270,
      "▁neh": 5271,
      "▁felce": 5272,
      "▁islemler": 5273,
      "##burgh": 5274,
      "▁kanalı": 5275,
      "▁fer": 5276,
      "▁icti": 5277,
      "▁bildirim": 5278,
      "▁tacirler": 5279,
      "▁millet": 5280,
      "▁metr": 5281,
      "▁ahmet": 5282,
      "▁zararları": 5283,
      "▁bardagın": 5284,
      "▁polisi": 5285,
      "▁diyalog": 5286,
      "▁cevrede": 5287,
      "▁kem": 5288,
      "▁buyumenin": 5289,
      "▁iceriyordu": 5290,
      "##tıga": 5291,
      "▁muhendis": 5292,
      "▁ucusların": 5293,
      "▁louis": 5294,
      "▁kafes": 5295,
      "▁muzakere": 5296,
      "##dip": 5297,
      "##telik": 5298,
      "▁donmeye": 5299,
      "▁istan": 5300,
      "▁bulutlar": 5301,
      "▁mahkemeler": 5302,
      "▁koylulerin": 5303,
      "▁balgam": 5304,
      "##ortu": 5305,
      "▁ralli": 5306,
      "▁yerlesti": 5307,
      "▁odenmesi": 5308,
      "3": 5309,
      "▁tesekkurler": 5310,
      "##atmak": 5311,
      "▁tavr": 5312,
      "▁tez": 5313,
      "▁tabur": 5314,
      "▁satı": 5315,
      "▁end": 5316,
      "▁ormanı": 5317,
      "▁mahp": 5318,
      "##ektr": 5319,
      "▁boylece": 5320,
      "▁dedi": 5321,
      "▁neyin": 5322,
      "▁dekorasyon": 5323,
      "▁cıkmaya": 5324,
      "##lenme": 5325,
      "##trily": 5326,
      "##'ini": 5327,
      "##ket": 5328,
      "##le": 5329,
      "##ıntılı": 5330,
      "▁aleyhine": 5331,
      "▁altın": 5332,
      "▁bilimi": 5333,
      "▁ort": 5334,
      "▁binası": 5335,
      "##enci": 5336,
      "##0'ı": 5337,
      "▁yaptım": 5338,
      "▁ustlen": 5339,
      "▁dirsek": 5340,
      "▁des": 5341,
      "##eden": 5342,
      "▁adına": 5343,
      "▁sevinc": 5344,
      "▁beni": 5345,
      "▁delikten": 5346,
      "##apolis": 5347,
      "▁bogazici": 5348,
      "▁bolgede": 5349,
      "▁arttır": 5350,
      "▁kuyr": 5351,
      "▁yuruyus": 5352,
      "▁adamdan": 5353,
      "▁tarlada": 5354,
      "▁tartısma": 5355,
      "▁boyun": 5356,
      "▁cig": 5357,
      "##lali": 5358,
      "`": 5359,
      "##oroz": 5360,
      "##asının": 5361,
      "▁cunku": 5362,
      "▁dekoru": 5363,
      "##eldi": 5364,
      "▁kaynakları": 5365,
      "▁kitaptan": 5366,
      "▁unvanını": 5367,
      "▁begenmedik": 5368,
      "##masından": 5369,
      "▁beyn": 5370,
      "▁keten": 5371,
      "▁binbası": 5372,
      "▁delik": 5373,
      "▁secimlerin": 5374,
      "##anma": 5375,
      "##kanlıgı": 5376,
      "##'nun": 5377,
      "▁odun": 5378,
      "▁dallas'tan": 5379,
      "▁surdu": 5380,
      "##esap": 5381,
      "▁cog": 5382,
      "##rlik": 5383,
      "▁oluk": 5384,
      "▁yasamaya": 5385,
      "▁istik": 5386,
      "▁merakla": 5387,
      "▁tamamını": 5388,
      "▁oyle": 5389,
      "##abileceg": 5390,
      "▁sin": 5391,
      "▁artısla": 5392,
      "▁lutfen": 5393,
      "▁medeniyet": 5394,
      "▁lavan": 5395,
      "▁alır": 5396,
      "▁kopruler": 5397,
      "▁bic": 5398,
      "▁iskenc": 5399,
      "▁ızgar": 5400,
      "▁karaltı": 5401,
      "▁kanun": 5402,
      "▁salona": 5403,
      "▁esde": 5404,
      "▁muammayı": 5405,
      "▁altındaki": 5406,
      "##masını": 5407,
      "▁programı": 5408,
      "▁sular": 5409,
      "▁birbir": 5410,
      "##ımda": 5411,
      "▁odeme": 5412,
      "##ock": 5413,
      "▁gecim": 5414,
      "▁bilim": 5415,
      "##yarak": 5416,
      "▁mizah": 5417,
      "▁biletlerini": 5418,
      "▁kızı": 5419,
      "▁gun": 5420,
      "▁lise": 5421,
      "▁yukarıda": 5422,
      "##lardaki": 5423,
      "▁yetkisi": 5424,
      "##memis": 5425,
      "▁keske": 5426,
      "▁zul": 5427,
      "▁anda": 5428,
      "▁uydur": 5429,
      "▁gorunce": 5430,
      "▁felaket": 5431,
      "▁uretiminin": 5432,
      "▁did": 5433,
      "▁amcam": 5434,
      "▁inisleri": 5435,
      "▁etmisti": 5436,
      "▁nobet": 5437,
      "▁kullandı": 5438,
      "##dıgına": 5439,
      "▁yandan": 5440,
      "##desine": 5441,
      "▁anlattım": 5442,
      "▁teknede": 5443,
      "▁hastalık": 5444,
      "▁adım": 5445,
      "▁hediye": 5446,
      "▁merte": 5447,
      "▁avantajı": 5448,
      "▁dibinde": 5449,
      "▁hın": 5450,
      "##ininin": 5451,
      "▁bunları": 5452,
      "▁bayi": 5453,
      "▁kileri": 5454,
      "▁hicbir": 5455,
      "▁parcayı": 5456,
      "▁bosu": 5457,
      "▁aldat": 5458,
      "▁sonuclara": 5459,
      "##otte": 5460,
      "▁yaptık": 5461,
      "▁uzat": 5462,
      "▁yukselise": 5463,
      "▁kurulunda": 5464,
      "##4'de": 5465,
      "##islik": 5466,
      "##tin": 5467,
      "##yak": 5468,
      "##cta": 5469,
      "▁ciftligi": 5470,
      "▁katılımcıların": 5471,
      "▁kadıncagız": 5472,
      "▁k": 5473,
      "##kat": 5474,
      "##mamak": 5475,
      "▁elli": 5476,
      "##ırtmak": 5477,
      "▁jet": 5478,
      "##edeki": 5479,
      "▁konsantr": 5480,
      "##ıcılar": 5481,
      "▁bilgim": 5482,
      "▁isleminin": 5483,
      "▁verdigimiz": 5484,
      "▁kredisi": 5485,
      "▁eglenceli": 5486,
      "##ub": 5487,
      "▁saye": 5488,
      "▁uns": 5489,
      "##ehr": 5490,
      "▁montaj": 5491,
      "▁buluyor": 5492,
      "▁zorluklarla": 5493,
      "▁butceye": 5494,
      "▁fabrika": 5495,
      "▁noktası": 5496,
      "▁ajans": 5497,
      "▁temizlik": 5498,
      "▁pencer": 5499,
      "▁muster": 5500,
      "▁olabilecegini": 5501,
      "▁gidiyor": 5502,
      "▁ogretmeni": 5503,
      "▁oncu": 5504,
      "##onom": 5505,
      "▁kahveler": 5506,
      "▁olas": 5507,
      "▁yolları": 5508,
      "▁anlatım": 5509,
      "##lesen": 5510,
      "##att": 5511,
      "##dugumdan": 5512,
      "▁oburu": 5513,
      "▁tuken": 5514,
      "##sagı": 5515,
      "▁ilcesine": 5516,
      "▁ulastırma": 5517,
      "▁sert": 5518,
      "▁evren": 5519,
      "▁stand": 5520,
      "##onik": 5521,
      "▁krem": 5522,
      "▁tramv": 5523,
      "▁gununde": 5524,
      "▁yasamı": 5525,
      "▁projeleri": 5526,
      "▁kapıs": 5527,
      "##'ni": 5528,
      "▁der": 5529,
      "▁yut": 5530,
      "▁1\\": 5531,
      "##bet": 5532,
      "▁diyet": 5533,
      "▁hastanın": 5534,
      "▁olaya": 5535,
      "▁duvarlarında": 5536,
      "##liyordu": 5537,
      "▁huy": 5538,
      "▁dord": 5539,
      "##iyesini": 5540,
      "##larımızı": 5541,
      "##ılma": 5542,
      "▁kovustur": 5543,
      "##av": 5544,
      "▁ikisinin": 5545,
      "▁dinin": 5546,
      "▁she": 5547,
      "##00'e": 5548,
      "▁edilm": 5549,
      "▁tehdidi": 5550,
      "▁diy": 5551,
      "▁bebek": 5552,
      "▁car": 5553,
      "▁arkasına": 5554,
      "▁bany": 5555,
      "##uculuk": 5556,
      "▁animasyon": 5557,
      "##'sini": 5558,
      "▁muhaseb": 5559,
      "▁elden": 5560,
      "##/8'e": 5561,
      "▁topu": 5562,
      "▁arabası": 5563,
      "▁emekliye": 5564,
      "▁paya": 5565,
      "▁deneyimi": 5566,
      "##1'den": 5567,
      "▁harman": 5568,
      "▁yonlerden": 5569,
      "▁kumarhane": 5570,
      "▁suz": 5571,
      "▁montreal": 5572,
      "##ettir": 5573,
      "▁bagımlılıgı": 5574,
      "▁dovus": 5575,
      "▁muhafazak": 5576,
      "▁pasaj": 5577,
      "▁mahs": 5578,
      "▁sahada": 5579,
      "##abilecegine": 5580,
      "▁zer": 5581,
      "▁ekonomisinin": 5582,
      "▁$'a": 5583,
      "##ıs": 5584,
      "▁de": 5585,
      "▁kaynak": 5586,
      "▁bedel": 5587,
      "▁pahalıya": 5588,
      "▁kalf": 5589,
      "▁ifa": 5590,
      "▁kain": 5591,
      "▁hi": 5592,
      "▁saga": 5593,
      "##anını": 5594,
      "▁yasant": 5595,
      "▁gururunu": 5596,
      "▁diril": 5597,
      "▁ihtilal": 5598,
      "▁kazanmaya": 5599,
      "▁kalabalık": 5600,
      "▁degerlendirmeye": 5601,
      "▁pınar": 5602,
      "▁olanaklari": 5603,
      "▁zev": 5604,
      "▁naz": 5605,
      "▁uygulan": 5606,
      "▁mit": 5607,
      "▁muhendislik": 5608,
      "▁tesekkur": 5609,
      "##ecegimi": 5610,
      "##liginin": 5611,
      "▁emirleri": 5612,
      "▁ekip": 5613,
      "##digini": 5614,
      "##liligi": 5615,
      "▁annemden": 5616,
      "▁rehberim": 5617,
      "▁cikol": 5618,
      "▁altıda": 5619,
      "##masız": 5620,
      "##gan": 5621,
      "t": 5622,
      "##elerini": 5623,
      "▁kirp": 5624,
      "##eydi": 5625,
      "▁buna": 5626,
      "▁kırım": 5627,
      "##liydi": 5628,
      "▁babasından": 5629,
      "▁mask": 5630,
      "##dıgını": 5631,
      "▁kalmad": 5632,
      "▁satırlar": 5633,
      "▁minneapolis": 5634,
      "##lanmasına": 5635,
      "##memisti": 5636,
      "▁1990": 5637,
      "▁dibi": 5638,
      "▁saatinde": 5639,
      "▁hou": 5640,
      "▁yasamının": 5641,
      "▁brons": 5642,
      "▁agacları": 5643,
      "▁kalab": 5644,
      "##mayan": 5645,
      "▁etmeyecegini": 5646,
      "▁havalarda": 5647,
      "##ız": 5648,
      "▁muslum": 5649,
      "▁yavasti": 5650,
      "##sıyla": 5651,
      "▁havaalanının": 5652,
      "▁kurumun": 5653,
      "##'lik": 5654,
      "▁faturami": 5655,
      "▁yanıma": 5656,
      "▁yaglı": 5657,
      "##ade": 5658,
      "▁anı": 5659,
      "▁erkeklerin": 5660,
      "▁ucret": 5661,
      "▁musterileri": 5662,
      "▁dikkate": 5663,
      "▁bulundugunu": 5664,
      "▁telafi": 5665,
      "▁yaver": 5666,
      "▁oglan": 5667,
      "##elt": 5668,
      "##mul": 5669,
      "▁resmini": 5670,
      "▁benimle": 5671,
      "▁siz": 5672,
      "▁1.4": 5673,
      "▁koleksiyon": 5674,
      "▁yarından": 5675,
      "▁tehdid": 5676,
      "▁bakıcı": 5677,
      "▁kollarını": 5678,
      "▁yudum": 5679,
      "▁sırtında": 5680,
      "▁pit": 5681,
      "##mekte": 5682,
      "▁kayısı": 5683,
      "▁universiteden": 5684,
      "▁emekli": 5685,
      "▁pen": 5686,
      "▁sorusuna": 5687,
      "▁deme": 5688,
      "##lerim": 5689,
      "▁derecelendirme": 5690,
      "▁ucmak": 5691,
      "▁yonetimin": 5692,
      "▁zafer": 5693,
      "▁51": 5694,
      "▁stratejiler": 5695,
      "##*": 5696,
      "▁olacagı": 5697,
      "▁video": 5698,
      "▁fenerleri": 5699,
      "▁gumruk": 5700,
      "▁analistler": 5701,
      "##lamıslar": 5702,
      "▁maliyetinin": 5703,
      "▁okulları": 5704,
      "##iye": 5705,
      "▁giz": 5706,
      "▁st.": 5707,
      "##apon": 5708,
      "▁daya": 5709,
      "▁onunde": 5710,
      "##6's": 5711,
      "▁key": 5712,
      "▁hızını": 5713,
      "▁guresci": 5714,
      "##elleri": 5715,
      "▁fırsatta": 5716,
      "▁kafasını": 5717,
      "▁sini": 5718,
      "▁cir": 5719,
      "##$": 5720,
      "▁koalisyon": 5721,
      "##dun": 5722,
      "▁andır": 5723,
      "▁hayattan": 5724,
      "▁istiyoruz": 5725,
      "▁otuz": 5726,
      "▁kalmadı": 5727,
      "▁calısmak": 5728,
      "▁yengec": 5729,
      "▁yedek": 5730,
      "▁degeri": 5731,
      "▁azap": 5732,
      "▁satıcı": 5733,
      "▁kahveye": 5734,
      "▁bilgisayarın": 5735,
      "##ıklık": 5736,
      "▁direnis": 5737,
      "▁bush": 5738,
      "▁normaldi": 5739,
      "##lanta": 5740,
      "##tiginde": 5741,
      "▁temizlikte": 5742,
      "▁degildir": 5743,
      "▁ortalıkta": 5744,
      "##baz": 5745,
      "▁dergileri": 5746,
      "▁cos": 5747,
      "##lerden": 5748,
      "▁ceph": 5749,
      "▁cember": 5750,
      "▁operasyonu": 5751,
      "▁gurult": 5752,
      "▁ayda": 5753,
      "▁tersan": 5754,
      "##ezz": 5755,
      "##ıldı": 5756,
      "▁mav": 5757,
      "▁gavur": 5758,
      "▁kayanın": 5759,
      "▁ruhunun": 5760,
      "▁anında": 5761,
      "▁fıstık": 5762,
      "▁intih": 5763,
      "▁gorunen": 5764,
      "▁kitaplarını": 5765,
      "##eli": 5766,
      "▁ayrım": 5767,
      "##ilmesine": 5768,
      "▁bahseder": 5769,
      "▁dosyayı": 5770,
      "▁sanız": 5771,
      "▁taklit": 5772,
      "▁niteligi": 5773,
      "▁yuksekti": 5774,
      "▁yap": 5775,
      "▁tenis": 5776,
      "▁yapragı": 5777,
      "▁yapıyordu": 5778,
      "▁yuzyıllar": 5779,
      "▁kadınların": 5780,
      "▁mutlu": 5781,
      "▁merkezli": 5782,
      "▁fakult": 5783,
      "▁planı": 5784,
      "▁istihbar": 5785,
      "##ulmustu": 5786,
      "▁ayagını": 5787,
      "##ayacak": 5788,
      "##maların": 5789,
      "▁demiri": 5790,
      "▁sokaktan": 5791,
      "▁birco": 5792,
      "▁yemeklerde": 5793,
      "▁lokasyon": 5794,
      "▁yn": 5795,
      "▁nitelik": 5796,
      "▁kullanılan": 5797,
      "▁belirt": 5798,
      "##haneye": 5799,
      "▁gozden": 5800,
      "▁corbayı": 5801,
      "##ime": 5802,
      "▁sırtından": 5803,
      "##ho": 5804,
      "▁kosulları": 5805,
      "##lasan": 5806,
      "▁annesiyle": 5807,
      "##arken": 5808,
      "▁hac": 5809,
      "▁askı": 5810,
      "▁kabuk": 5811,
      "▁8": 5812,
      "▁aradilar": 5813,
      "▁pilak": 5814,
      "▁fakir": 5815,
      "▁koye": 5816,
      "▁surucu": 5817,
      "##istal": 5818,
      "▁koylu": 5819,
      "▁bitmek": 5820,
      "▁kahvede": 5821,
      "▁olgun": 5822,
      "▁kapsamına": 5823,
      "▁serbet": 5824,
      "▁ongoru": 5825,
      "▁aylarında": 5826,
      "▁zan": 5827,
      "▁dunyası": 5828,
      "▁islemlerine": 5829,
      "##dedir": 5830,
      "▁dogrudan": 5831,
      "▁soyun": 5832,
      "▁kıl": 5833,
      "▁geldig": 5834,
      "▁donmek": 5835,
      "▁takımı": 5836,
      "▁arkadan": 5837,
      "▁tıpkı": 5838,
      "##atesi": 5839,
      "▁kart": 5840,
      "▁lezzetsizdi": 5841,
      "▁bat": 5842,
      "▁tov": 5843,
      "▁tatili": 5844,
      "▁yardimci": 5845,
      "▁kayg": 5846,
      "▁sıgır": 5847,
      "▁yapacagını": 5848,
      "▁kredinin": 5849,
      "##men": 5850,
      "▁devletin": 5851,
      "##atsız": 5852,
      "▁mul": 5853,
      "▁%2": 5854,
      "▁yaptıg": 5855,
      "▁trilyon": 5856,
      "▁temettu": 5857,
      "##agına": 5858,
      "##labilir": 5859,
      "##elek": 5860,
      "▁hanimdi": 5861,
      "##lest": 5862,
      "▁maddeye": 5863,
      "▁bakalım": 5864,
      "▁ite": 5865,
      "▁fasulyesi": 5866,
      "▁reis": 5867,
      "▁eserin": 5868,
      "▁hazret": 5869,
      "##lıkların": 5870,
      "##emek": 5871,
      "▁etrafı": 5872,
      "d": 5873,
      "##ydı": 5874,
      "##bire": 5875,
      "▁koyunun": 5876,
      "▁hizmetler": 5877,
      "▁zirveye": 5878,
      "▁mus": 5879,
      "▁vir": 5880,
      "##naya": 5881,
      "##larınla": 5882,
      "##day": 5883,
      "▁gav": 5884,
      "▁mujde": 5885,
      "▁konuda": 5886,
      "▁gecin": 5887,
      "▁secenegi": 5888,
      "▁eksik": 5889,
      "▁camasır": 5890,
      "▁lezzetleri": 5891,
      "##'u": 5892,
      "##ılması": 5893,
      "▁tasv": 5894,
      "▁bitmis": 5895,
      "▁uyum": 5896,
      "▁vucud": 5897,
      "▁demis": 5898,
      "▁tekl": 5899,
      "▁param": 5900,
      "▁yuzleri": 5901,
      "##istel": 5902,
      "##umlu": 5903,
      "▁korudu": 5904,
      "▁cıkmıs": 5905,
      "▁yanık": 5906,
      "▁saatine": 5907,
      "▁elini": 5908,
      "##ner": 5909,
      "##ebilirdi": 5910,
      "▁hayatımız": 5911,
      "▁surdurdu": 5912,
      "▁hane": 5913,
      "▁depremden": 5914,
      "▁benziyordu": 5915,
      "▁yola": 5916,
      "▁bekledi": 5917,
      "▁yemege": 5918,
      "▁riske": 5919,
      "##ımcı": 5920,
      "##vet": 5921,
      "##irleri": 5922,
      "▁dunyasına": 5923,
      "▁niz": 5924,
      "▁deyim": 5925,
      "▁dolma": 5926,
      "▁ilham": 5927,
      "##edildi": 5928,
      "##ıcak": 5929,
      "▁vardı": 5930,
      "▁yuregi": 5931,
      "▁gorul": 5932,
      "▁aran": 5933,
      "▁eksikti": 5934,
      "▁soylemis": 5935,
      "▁eder": 5936,
      "▁kurtulur": 5937,
      "▁geregi": 5938,
      "▁fen": 5939,
      "##usuna": 5940,
      "▁havaliman": 5941,
      "##ilerdi": 5942,
      "▁bilmiyordu": 5943,
      "▁bucagından": 5944,
      "▁getirilerinin": 5945,
      "▁hissedarlar": 5946,
      "▁ustu": 5947,
      "▁yatırım": 5948,
      "▁faydalar": 5949,
      "▁alısver": 5950,
      "▁seftali": 5951,
      "▁fitn": 5952,
      "▁ceylan": 5953,
      "▁gezi": 5954,
      "▁burnunu": 5955,
      "##ınızda": 5956,
      "▁gazetenin": 5957,
      "▁enflasyona": 5958,
      "##eceginden": 5959,
      "▁dalgın": 5960,
      "▁vesik": 5961,
      "##da": 5962,
      "▁suların": 5963,
      "▁elem": 5964,
      "▁egilimleri": 5965,
      "▁tr": 5966,
      "▁koskun": 5967,
      "##hut": 5968,
      "▁gostermeye": 5969,
      "##eme": 5970,
      "▁gorev": 5971,
      "0": 5972,
      "▁dusmanı": 5973,
      "°": 5974,
      "##iliyor": 5975,
      "▁aylar": 5976,
      "▁topar": 5977,
      "▁katilmak": 5978,
      "▁cın": 5979,
      "▁grubuna": 5980,
      "##layarak": 5981,
      "▁aktif": 5982,
      "##lerde": 5983,
      "’": 5984,
      "##emey": 5985,
      "▁kucuk": 5986,
      "▁muhafız": 5987,
      "##ban": 5988,
      "▁sekil": 5989,
      "▁karsi": 5990,
      "##aman": 5991,
      "▁surdurmek": 5992,
      "▁rahatsızlık": 5993,
      "▁dilleri": 5994,
      "▁numarasını": 5995,
      "▁sat": 5996,
      "▁olume": 5997,
      "▁olayda": 5998,
      "▁kulakları": 5999,
      "▁zem": 6000,
      "▁dolasır": 6001,
      "▁sizinle": 6002,
      "▁teker": 6003,
      "##kart": 6004,
      "▁fonu": 6005,
      "▁guldu": 6006,
      "▁seyleri": 6007,
      "##deydi": 6008,
      "▁takımının": 6009,
      "▁hucre": 6010,
      "▁edilmistir": 6011,
      "##larım": 6012,
      "▁kendimden": 6013,
      "▁eksi": 6014,
      "▁sessiz": 6015,
      "▁sesi": 6016,
      "▁gecit": 6017,
      "▁olc": 6018,
      "##leye": 6019,
      "▁bahceden": 6020,
      "▁romanı": 6021,
      "▁karları": 6022,
      "▁tahvilleri": 6023,
      "▁istifade": 6024,
      "▁hadis": 6025,
      "▁kutuk": 6026,
      "▁bakarak": 6027,
      "##tas": 6028,
      "▁hıckır": 6029,
      "▁es": 6030,
      "▁milyondan": 6031,
      "▁birligi": 6032,
      "▁hosgor": 6033,
      "▁hafız": 6034,
      "##tikce": 6035,
      "##arl": 6036,
      "##eliyor": 6037,
      "##ugunde": 6038,
      "▁doy": 6039,
      "##diy": 6040,
      "▁faaliyetlerinin": 6041,
      "▁tuh": 6042,
      "▁bunu": 6043,
      "▁taleb": 6044,
      "##gulu": 6045,
      "##arip": 6046,
      "##ug": 6047,
      "##'ya": 6048,
      "▁gunlerin": 6049,
      "▁yazıya": 6050,
      "##egen": 6051,
      "▁dısisleri": 6052,
      "▁ok": 6053,
      "▁fazl": 6054,
      "▁oldum": 6055,
      "▁kib": 6056,
      "▁ucuslara": 6057,
      "▁donen": 6058,
      "▁zamanında": 6059,
      "▁piyan": 6060,
      "▁baskanının": 6061,
      "▁internet": 6062,
      "##sel": 6063,
      "▁jand": 6064,
      "▁isy": 6065,
      "▁soyluyordu": 6066,
      "##elerce": 6067,
      "▁viski": 6068,
      "▁kıvıl": 6069,
      "▁vadesi": 6070,
      "▁azından": 6071,
      "##itmek": 6072,
      "##melere": 6073,
      "▁casusluk": 6074,
      "▁hocalık": 6075,
      "▁hasar": 6076,
      "##ma": 6077,
      "▁kızar": 6078,
      "▁liradan": 6079,
      "▁cagdas": 6080,
      "▁badem": 6081,
      "▁efsan": 6082,
      "▁kul": 6083,
      "▁ilk": 6084,
      "▁korun": 6085,
      "▁olanların": 6086,
      "##sık": 6087,
      "##armak": 6088,
      "##saat": 6089,
      "▁saksı": 6090,
      "▁ogrendi": 6091,
      "▁hey": 6092,
      "▁oldu": 6093,
      "▁yır": 6094,
      "##bank": 6095,
      "##iness": 6096,
      "▁havalimanlarından": 6097,
      "▁atar": 6098,
      "▁haberdar": 6099,
      "▁uykuya": 6100,
      "▁havanın": 6101,
      "▁baklav": 6102,
      "##anıs": 6103,
      "##tu": 6104,
      "▁musait": 6105,
      "▁felsefe": 6106,
      "##ayede": 6107,
      "▁banka": 6108,
      "##cılık": 6109,
      "▁bakın": 6110,
      "▁cesaretini": 6111,
      "▁pavyon": 6112,
      "▁sevgili": 6113,
      "▁go": 6114,
      "▁servisleri": 6115,
      "▁borsası": 6116,
      "▁eczacı": 6117,
      "▁davanın": 6118,
      "▁parasını": 6119,
      "▁kavak": 6120,
      "▁olmadan": 6121,
      "▁list": 6122,
      "▁gecik": 6123,
      "▁bakımı": 6124,
      "##laydi": 6125,
      "▁dondu": 6126,
      "▁hastaneye": 6127,
      "▁lunapark": 6128,
      "▁tebrik": 6129,
      "▁toplulugu": 6130,
      "▁meyveleri": 6131,
      "▁yerlesim": 6132,
      "▁hasarı": 6133,
      "▁sanayi": 6134,
      "▁kalitede": 6135,
      "l": 6136,
      "▁kıp": 6137,
      "▁arkadaslık": 6138,
      "▁taksi": 6139,
      "##illeri": 6140,
      "▁amel": 6141,
      "▁otomobiller": 6142,
      "▁hukumete": 6143,
      "▁iyimser": 6144,
      "▁aktiviteleri": 6145,
      "▁ipin": 6146,
      "##50": 6147,
      "▁lond": 6148,
      "▁tarihi": 6149,
      "▁fırladı": 6150,
      "##acagından": 6151,
      "▁ayak": 6152,
      "▁domuz": 6153,
      "▁halkalar": 6154,
      "▁sıcagı": 6155,
      "##masi": 6156,
      "▁gorme": 6157,
      "##aat": 6158,
      "▁tarlayı": 6159,
      "##esem": 6160,
      "▁istiyor": 6161,
      "▁sunumu": 6162,
      "▁sınırlarını": 6163,
      "▁krok": 6164,
      "▁secim": 6165,
      "▁itimat": 6166,
      "##zav": 6167,
      "▁simsek": 6168,
      "▁tım": 6169,
      "##eceksin": 6170,
      "▁ulk": 6171,
      "▁kompartım": 6172,
      "▁musterilere": 6173,
      "▁restor": 6174,
      "##o'ya": 6175,
      "▁antik": 6176,
      "▁gorusmedik": 6177,
      "▁ipuc": 6178,
      "▁gunesten": 6179,
      "##irgin": 6180,
      "▁telas": 6181,
      "▁tarlaları": 6182,
      "##eler": 6183,
      "##lamıstır": 6184,
      "▁ihtiyat": 6185,
      "▁taban": 6186,
      "##usunu": 6187,
      "▁miktarda": 6188,
      "▁kada": 6189,
      "▁karaya": 6190,
      "▁garanti": 6191,
      "▁ovgu": 6192,
      "▁uc": 6193,
      "▁cıkarmak": 6194,
      "▁degisiklik": 6195,
      "▁sut": 6196,
      "▁kanser": 6197,
      "##tiklerini": 6198,
      "▁alıcılar": 6199,
      "▁sınıf": 6200,
      "▁kalmaya": 6201,
      "▁olmaktan": 6202,
      "▁kurallara": 6203,
      "▁gorduk": 6204,
      "▁marul": 6205,
      "▁karısına": 6206,
      "▁kasabaya": 6207,
      "▁kullanımını": 6208,
      "▁kurek": 6209,
      "▁kargo": 6210,
      "▁gecirdik": 6211,
      "▁konusmak": 6212,
      "▁silk": 6213,
      "▁abd": 6214,
      "▁ken": 6215,
      "▁oynar": 6216,
      "##etro": 6217,
      "▁gormezden": 6218,
      "▁cabası": 6219,
      "▁keser": 6220,
      "▁sinek": 6221,
      "▁tl": 6222,
      "▁heves": 6223,
      "##ibi": 6224,
      "▁yılı": 6225,
      "##emon": 6226,
      "▁bugunden": 6227,
      "##lıklı": 6228,
      "▁cat": 6229,
      "▁moder": 6230,
      "##yla": 6231,
      "▁hemen": 6232,
      "▁parkın": 6233,
      "▁komunist": 6234,
      "▁fat": 6235,
      "▁cav": 6236,
      "▁edebilecegini": 6237,
      "▁arka": 6238,
      "▁yıllara": 6239,
      "##sek": 6240,
      "##cisi": 6241,
      "▁olumune": 6242,
      "▁meydan": 6243,
      "##isleri": 6244,
      "▁patlaması": 6245,
      "##lamıstı": 6246,
      "▁geldim": 6247,
      "▁tulum": 6248,
      "▁acik": 6249,
      "▁petersburg": 6250,
      "▁bunca": 6251,
      "▁edecekti": 6252,
      "▁sapı": 6253,
      "▁tın": 6254,
      "▁duzeyine": 6255,
      "▁istanbul'un": 6256,
      "##uza": 6257,
      "▁baskanı": 6258,
      "##manın": 6259,
      "▁donuyor": 6260,
      "▁26": 6261,
      "▁getiriyor": 6262,
      "▁bilmec": 6263,
      "▁yorumlara": 6264,
      "##ems": 6265,
      "▁...": 6266,
      "▁tarifesini": 6267,
      "▁olcek": 6268,
      "##.23": 6269,
      "▁bulgur": 6270,
      "▁gasp": 6271,
      "▁70": 6272,
      "##sun": 6273,
      "▁yangından": 6274,
      "##emi": 6275,
      "▁depreminin": 6276,
      "▁parca": 6277,
      "▁bi": 6278,
      "▁menek": 6279,
      "▁yelpaze": 6280,
      "##ehan": 6281,
      "▁rady": 6282,
      "▁nok": 6283,
      "▁corp.": 6284,
      "▁hekim": 6285,
      "▁cebinden": 6286,
      "▁pik": 6287,
      "▁kurtarma": 6288,
      "▁tari": 6289,
      "▁gokyuzunde": 6290,
      "▁baskumandan": 6291,
      "##kca": 6292,
      "▁memnuniyeti": 6293,
      "##ans": 6294,
      "▁nazaran": 6295,
      "▁kendinin": 6296,
      "▁oya": 6297,
      "▁firmalar": 6298,
      "##min": 6299,
      "▁tahminini": 6300,
      "##illerin": 6301,
      "##ıklı": 6302,
      "▁newark": 6303,
      "▁reklamları": 6304,
      "▁sonra": 6305,
      "▁bulunmak": 6306,
      "▁misafirleri": 6307,
      "▁li": 6308,
      "##rada": 6309,
      "▁dilenci": 6310,
      "##leyi": 6311,
      "▁yasamında": 6312,
      "▁ogrenc": 6313,
      "##burg": 6314,
      "▁fındık": 6315,
      "▁iyilerdi": 6316,
      "▁colde": 6317,
      "▁gordu": 6318,
      "##lamadı": 6319,
      "##ume": 6320,
      "▁meseleler": 6321,
      "▁satısının": 6322,
      "▁ayrıntılarıyla": 6323,
      "▁alındı": 6324,
      "▁'l": 6325,
      "▁yerine": 6326,
      "▁tesaduf": 6327,
      "▁sıkıntısı": 6328,
      "▁maruz": 6329,
      "▁uygarlık": 6330,
      "▁borsacılara": 6331,
      "##'nin": 6332,
      "##3.2": 6333,
      "▁kisisi": 6334,
      "▁kavg": 6335,
      "▁cambaz": 6336,
      "▁kahkaha": 6337,
      "▁odada": 6338,
      "▁araclar": 6339,
      "##eleme": 6340,
      "▁yeryuz": 6341,
      "▁bı": 6342,
      "▁lezzeti": 6343,
      "##bul": 6344,
      "▁uyelig": 6345,
      "##anlık": 6346,
      "▁si": 6347,
      "▁sermaye": 6348,
      "##gus": 6349,
      "▁poy": 6350,
      "##larımı": 6351,
      "##iyer": 6352,
      "▁dedesi": 6353,
      "##eksiyon": 6354,
      "▁yatıs": 6355,
      "▁derdi": 6356,
      "▁lamb": 6357,
      "▁cıkacagını": 6358,
      "▁rakipleri": 6359,
      "▁kararsiz": 6360,
      "##enli": 6361,
      "##aca": 6362,
      "▁paranin": 6363,
      "▁dolas": 6364,
      "▁demokrat": 6365,
      "▁sorunlarına": 6366,
      "▁yuksek": 6367,
      "##ab": 6368,
      "▁zenginlik": 6369,
      "▁milyona": 6370,
      "▁basarısı": 6371,
      "▁mevsim": 6372,
      "▁rahip": 6373,
      "▁mez": 6374,
      "##ork": 6375,
      "##tmeye": 6376,
      "▁konusmanın": 6377,
      "▁peters": 6378,
      "▁vil": 6379,
      "▁bakıma": 6380,
      "▁halk": 6381,
      "▁deneme": 6382,
      "▁kutup": 6383,
      "##essum": 6384,
      "▁jo": 6385,
      "##onel": 6386,
      "▁buf": 6387,
      "▁otom": 6388,
      "▁stil": 6389,
      "▁modern": 6390,
      "##mey": 6391,
      "▁dogrusunu": 6392,
      "▁newark'tan": 6393,
      "▁turb": 6394,
      "▁tatilimiz": 6395,
      "▁ogretmenleri": 6396,
      "##gıt": 6397,
      "##acıya": 6398,
      "##ystems": 6399,
      "▁zarar": 6400,
      "▁kanıt": 6401,
      "##lerinize": 6402,
      "▁ulkelerin": 6403,
      "▁yetki": 6404,
      "▁isciler": 6405,
      "▁davar": 6406,
      "##gur": 6407,
      "▁kapı": 6408,
      "##aben": 6409,
      "▁francisco'dan": 6410,
      "▁yıl": 6411,
      "##ustur": 6412,
      "▁siir": 6413,
      "▁asfalt": 6414,
      "▁bogazına": 6415,
      "▁caydan": 6416,
      "▁digerine": 6417,
      "##ekk": 6418,
      "▁buldular": 6419,
      "▁gosterg": 6420,
      "##dıgımı": 6421,
      "▁hacet": 6422,
      "[PAD]": 6423,
      "##ıyordum": 6424,
      "▁carsaf": 6425,
      "##ologlar": 6426,
      "##alarım": 6427,
      "▁helik": 6428,
      "##amıza": 6429,
      "▁tezgahın": 6430,
      "▁ofise": 6431,
      "▁rit": 6432,
      "▁sistemini": 6433,
      "▁ener": 6434,
      "▁evleri": 6435,
      "▁geyik": 6436,
      "▁arkadasını": 6437,
      "▁parayı": 6438,
      "▁biyoloji": 6439,
      "##osun": 6440,
      "▁belirsiz": 6441,
      "##.ceyrek": 6442,
      "▁mavi": 6443,
      "▁acıklık": 6444,
      "▁milyonlarca": 6445,
      "▁alan": 6446,
      "▁mizac": 6447,
      "▁bilg": 6448,
      "▁guvertede": 6449,
      "▁1988'de": 6450,
      "▁alıskanlıgı": 6451,
      "▁bolgesinde": 6452,
      "▁annesi": 6453,
      "▁sız": 6454,
      "##urg": 6455,
      "##inden": 6456,
      "▁long": 6457,
      "##ılıyordu": 6458,
      "▁adımlarını": 6459,
      "▁ilginc": 6460,
      "▁philadelphia": 6461,
      "▁tacir": 6462,
      "▁planda": 6463,
      "▁haricinde": 6464,
      "▁coktan": 6465,
      "▁dolandır": 6466,
      "▁yaptır": 6467,
      "##ılıgıyla": 6468,
      "▁macer": 6469,
      "▁tesh": 6470,
      "▁rum": 6471,
      "▁kulub": 6472,
      "##ılıgını": 6473,
      "▁populer": 6474,
      "##taj": 6475,
      "▁pahalı": 6476,
      "▁imkan": 6477,
      "▁icr": 6478,
      "▁tamir": 6479,
      "▁munaseb": 6480,
      "▁basyaz": 6481,
      "▁hoca": 6482,
      "▁kil": 6483,
      "▁kabugu": 6484,
      "▁nobetci": 6485,
      "##ick": 6486,
      "##lt": 6487,
      "▁cıkmayı": 6488,
      "▁konak": 6489,
      "▁birbirleri": 6490,
      "▁cekmec": 6491,
      "▁yoz": 6492,
      "▁bizleri": 6493,
      "▁rahatlıgı": 6494,
      "▁ses": 6495,
      "▁seviyelerde": 6496,
      "▁basını": 6497,
      "▁teli": 6498,
      "▁tep": 6499,
      "▁re": 6500,
      "▁bizimle": 6501,
      "▁salonu": 6502,
      "▁bicimi": 6503,
      "▁yurudu": 6504,
      "▁misaf": 6505,
      "▁sallantı": 6506,
      "##tım": 6507,
      "▁anlasmanın": 6508,
      "▁hayv": 6509,
      "▁giyim": 6510,
      "▁disk": 6511,
      "▁onlugu": 6512,
      "##ıma": 6513,
      "##leme": 6514,
      "▁kalanlar": 6515,
      "▁aykırı": 6516,
      "▁mal": 6517,
      "##eb": 6518,
      "▁yasamını": 6519,
      "▁kapital": 6520,
      "▁makineler": 6521,
      "▁tucc": 6522,
      "##dıkları": 6523,
      "▁tutuk": 6524,
      "▁meblag": 6525,
      "▁bagrı": 6526,
      "▁kagıdı": 6527,
      "▁surecin": 6528,
      "▁salatası": 6529,
      "▁dortte": 6530,
      "▁koprunun": 6531,
      "▁karsımıza": 6532,
      "##ledigim": 6533,
      "▁musluman": 6534,
      "▁yatagına": 6535,
      "▁cizgileri": 6536,
      "▁otobusun": 6537,
      "▁sesler": 6538,
      "##lenmesini": 6539,
      "##macılar": 6540,
      "▁divan": 6541,
      "▁gazeteyi": 6542,
      "▁l": 6543,
      "▁yonlendirdi": 6544,
      "▁kararsizim": 6545,
      "▁sayesinde": 6546,
      "##impiyat": 6547,
      "▁gormus": 6548,
      "▁sevgilisini": 6549,
      "▁dususe": 6550,
      "▁aktiviteler": 6551,
      "▁soyleyebilir": 6552,
      "▁misafirimizle": 6553,
      "▁oglunu": 6554,
      "▁cidd": 6555,
      "▁paketi": 6556,
      "▁alanlarında": 6557,
      "▁geliyordu": 6558,
      "▁nicin": 6559,
      "##oca": 6560,
      "▁evr": 6561,
      "▁dusunmek": 6562,
      "##maktadırlar": 6563,
      "▁filik": 6564,
      "▁dıs": 6565,
      "##agımı": 6566,
      "▁yazısı": 6567,
      "▁karısını": 6568,
      "▁hayvanlar": 6569,
      "▁meze": 6570,
      "##larla": 6571,
      "##ts": 6572,
      "▁kesil": 6573,
      "▁cik": 6574,
      "▁toreni": 6575,
      "▁kanunu": 6576,
      "▁etmektedir": 6577,
      "▁tedbir": 6578,
      "▁mermi": 6579,
      "▁haziran": 6580,
      "##ina": 6581,
      "▁gorusmeleri": 6582,
      "▁dısa": 6583,
      "▁damla": 6584,
      "▁cekic": 6585,
      "▁agrısı": 6586,
      "▁evine": 6587,
      "##duz": 6588,
      "▁bilgilendir": 6589,
      "▁sirketlerini": 6590,
      "▁avluya": 6591,
      "▁tuketici": 6592,
      "▁yasamına": 6593,
      "▁mec": 6594,
      "▁karanfil": 6595,
      "▁girince": 6596,
      "▁nesn": 6597,
      "▁olmadıgına": 6598,
      "##uye": 6599,
      "▁ucretini": 6600,
      "##acaat": 6601,
      "▁annesine": 6602,
      "▁tezk": 6603,
      "▁bagırsak": 6604,
      "▁kutlama": 6605,
      "##leyin": 6606,
      "▁dis": 6607,
      "▁butce": 6608,
      "▁anlamıyla": 6609,
      "▁usulca": 6610,
      "▁refah": 6611,
      "▁kazık": 6612,
      "▁v": 6613,
      "▁suruleri": 6614,
      "▁kurulunun": 6615,
      "##ima": 6616,
      "▁tarife": 6617,
      "##-": 6618,
      "▁bulas": 6619,
      "##aza": 6620,
      "▁ciddiye": 6621,
      "▁disinden": 6622,
      "▁galibiyet": 6623,
      "##malık": 6624,
      "▁silahı": 6625,
      "▁cizgisini": 6626,
      "##etim": 6627,
      "▁fert": 6628,
      "##ala": 6629,
      "▁deg": 6630,
      "##lardi": 6631,
      "##mıyoruz": 6632,
      "▁filan": 6633,
      "##io": 6634,
      "▁yaklasık": 6635,
      "▁bolumunun": 6636,
      "▁korku": 6637,
      "▁surecinde": 6638,
      "##acılar": 6639,
      "▁motorun": 6640,
      "##3'te": 6641,
      "▁tey": 6642,
      "▁pot": 6643,
      "▁trene": 6644,
      "##ranc": 6645,
      "▁sizlere": 6646,
      "##larca": 6647,
      "##-f": 6648,
      "▁a.b.d.": 6649,
      "▁buyukelci": 6650,
      "▁send": 6651,
      "▁1.8": 6652,
      "▁sirket": 6653,
      "▁aleyh": 6654,
      "##di": 6655,
      "▁olamaz": 6656,
      "▁personellerden": 6657,
      "▁milliyet": 6658,
      "▁tuccarlar": 6659,
      "▁tabiat": 6660,
      "▁yazıyı": 6661,
      "▁baskal": 6662,
      "▁kazancını": 6663,
      "▁giderim": 6664,
      "▁sit": 6665,
      "▁gum": 6666,
      "▁oynuyor": 6667,
      "##eciler": 6668,
      "▁...\"": 6669,
      "▁teklif": 6670,
      "▁yetkilisi": 6671,
      "▁cozum": 6672,
      "##uvar": 6673,
      "▁kofte": 6674,
      "▁kapas": 6675,
      "▁gelince": 6676,
      "▁ulkesi": 6677,
      "▁yavas": 6678,
      "▁7.9": 6679,
      "▁kavramı": 6680,
      "▁yitir": 6681,
      "▁turuna": 6682,
      "▁ekonomisi": 6683,
      "▁mahkemenin": 6684,
      "##enik": 6685,
      "▁tefer": 6686,
      "▁fersah": 6687,
      "▁tencere": 6688,
      "▁dudak": 6689,
      "▁ucmam": 6690,
      "▁karam": 6691,
      "▁dusuyor": 6692,
      "▁duyul": 6693,
      "▁oyuncuların": 6694,
      "▁kef": 6695,
      "▁cihan": 6696,
      "▁birin": 6697,
      "▁cevr": 6698,
      "▁curuk": 6699,
      "##tıg": 6700,
      "▁a.": 6701,
      "▁par": 6702,
      "▁gerektigine": 6703,
      "▁yukselmesine": 6704,
      "▁kilim": 6705,
      "▁pis": 6706,
      "▁satıcılar": 6707,
      "▁ortalama": 6708,
      "▁sahit": 6709,
      "▁kırm": 6710,
      "▁sehrinden": 6711,
      "▁olmadigini": 6712,
      "##uklu": 6713,
      "▁yorgunluktan": 6714,
      "##elle": 6715,
      "##p": 6716,
      "##mil": 6717,
      "▁sozunde": 6718,
      "##dal": 6719,
      "▁evrende": 6720,
      "▁tepe": 6721,
      "##rin": 6722,
      "▁senet": 6723,
      "▁marj": 6724,
      "##akin": 6725,
      "▁city'e": 6726,
      "▁soylesi": 6727,
      "▁kemik": 6728,
      "▁suistim": 6729,
      "▁kapsam": 6730,
      "▁tatlı": 6731,
      "▁degerlendirmek": 6732,
      "▁donanımı": 6733,
      "##vey": 6734,
      "▁arz": 6735,
      "▁fab": 6736,
      "##aseb": 6737,
      "▁basta": 6738,
      "▁atmosfer": 6739,
      "▁kaybedenleri": 6740,
      "▁gormedi": 6741,
      "▁olac": 6742,
      "▁kopar": 6743,
      "▁45": 6744,
      "##geler": 6745,
      "▁sarsıntı": 6746,
      "##lıgım": 6747,
      "▁suclamalar": 6748,
      "▁paz": 6749,
      "▁ayrica": 6750,
      "▁yazdı": 6751,
      "##nci": 6752,
      "▁demokratlar": 6753,
      "▁columbus": 6754,
      "##'y": 6755,
      "▁bonosu": 6756,
      "##'t": 6757,
      "▁almadim": 6758,
      "▁iscilerin": 6759,
      "▁atmak": 6760,
      "y": 6761,
      "##iyet": 6762,
      "▁agzımı": 6763,
      "▁uyustur": 6764,
      "▁cama": 6765,
      "##unda": 6766,
      "▁gelmek": 6767,
      "▁adliye": 6768,
      "▁gerec": 6769,
      "▁gazetecilik": 6770,
      "▁tasır": 6771,
      "▁charlotte'den": 6772,
      "##wa": 6773,
      "▁kalkan": 6774,
      "▁hele": 6775,
      "▁tarif": 6776,
      "▁genel": 6777,
      "▁pound": 6778,
      "▁kız": 6779,
      "##larımın": 6780,
      "▁suredir": 6781,
      "▁evime": 6782,
      "##edav": 6783,
      "▁basbakanı": 6784,
      "##ecegini": 6785,
      "##bes": 6786,
      "▁ram": 6787,
      "▁kılıc": 6788,
      "##ınız": 6789,
      "##nız": 6790,
      "▁gorevlileri": 6791,
      "▁telesk": 6792,
      "▁tehd": 6793,
      "##ekli": 6794,
      "##eral": 6795,
      "▁temsilcileri": 6796,
      "▁yataga": 6797,
      "##unuza": 6798,
      "▁kilogram": 6799,
      "▁cenneti": 6800,
      "▁ilgilenmediler": 6801,
      "##sev": 6802,
      "##ırarak": 6803,
      "##ilecek": 6804,
      "▁yaparak": 6805,
      "▁sobanın": 6806,
      "##ikleri": 6807,
      "▁kararını": 6808,
      "▁makine": 6809,
      "▁gosterdi": 6810,
      "▁hedef": 6811,
      "▁dagın": 6812,
      "▁getir": 6813,
      "▁karla": 6814,
      "▁abla": 6815,
      "▁duygusunu": 6816,
      "##larımızın": 6817,
      "##oeni": 6818,
      "##ezi": 6819,
      "▁stres": 6820,
      "▁nush": 6821,
      "##ali": 6822,
      "▁balt": 6823,
      "▁sirk": 6824,
      "▁komun": 6825,
      "▁ihtiyacını": 6826,
      "##bek": 6827,
      "▁fırının": 6828,
      "▁sas": 6829,
      "##arındaki": 6830,
      "##nasında": 6831,
      "▁duserek": 6832,
      "▁diyorum": 6833,
      "▁degerini": 6834,
      "▁%6": 6835,
      "▁sevdi": 6836,
      "▁hayli": 6837,
      "##acakları": 6838,
      "▁sebeb": 6839,
      "▁fin": 6840,
      "▁hediy": 6841,
      "##ıgına": 6842,
      "##lamaz": 6843,
      "▁kendisiyle": 6844,
      "▁haksızlık": 6845,
      "##avr": 6846,
      "▁zor": 6847,
      "▁reklamı": 6848,
      "▁vurguladı": 6849,
      "▁ulkemiz": 6850,
      "##isco": 6851,
      "##usten": 6852,
      "▁surgun": 6853,
      "▁pamuk": 6854,
      "▁izleri": 6855,
      "##lerimizin": 6856,
      "▁evladı": 6857,
      "▁orgutun": 6858,
      "▁tavaf": 6859,
      "▁plani": 6860,
      "▁gelin": 6861,
      "▁oluyordu": 6862,
      "▁subvansiyon": 6863,
      "▁emr": 6864,
      "▁sırası": 6865,
      "##enden": 6866,
      "▁doldurdu": 6867,
      "▁kerv": 6868,
      "▁koop": 6869,
      "▁mimarlık": 6870,
      "##lılıg": 6871,
      "▁halli": 6872,
      "##anıyla": 6873,
      "▁an": 6874,
      "▁taze": 6875,
      "##gru": 6876,
      "▁baslarda": 6877,
      "##8'e": 6878,
      "▁yuf": 6879,
      "▁ilce": 6880,
      "▁bayramı": 6881,
      "▁genclerin": 6882,
      "▁gelistirmek": 6883,
      "##abiliyor": 6884,
      "▁evlen": 6885,
      "##izdi": 6886,
      "▁satılan": 6887,
      "▁kendileri": 6888,
      "▁yıla": 6889,
      "##digimi": 6890,
      "##otiv": 6891,
      "▁soyledim": 6892,
      "▁burcu": 6893,
      "▁beyefendi": 6894,
      "##ebilecek": 6895,
      "▁derhal": 6896,
      "▁dısarıdan": 6897,
      "▁fabr": 6898,
      "▁finc": 6899,
      "▁menfaat": 6900,
      "##ılıklar": 6901,
      "▁belki": 6902,
      "▁dusunmedigini": 6903,
      "▁kirlilik": 6904,
      "▁tesisin": 6905,
      "▁heyecan": 6906,
      "##ılıgı": 6907,
      "▁7'den": 6908,
      "▁kendine": 6909,
      "▁2'den": 6910,
      "▁niteliginde": 6911,
      "▁geldi": 6912,
      "##ınıza": 6913,
      "▁kartal": 6914,
      "▁romancının": 6915,
      "▁haykır": 6916,
      "▁ustunluk": 6917,
      "▁sıcr": 6918,
      "▁pervane": 6919,
      "▁tasvir": 6920,
      "##diginin": 6921,
      "▁34": 6922,
      "▁edelim": 6923,
      "▁cesi": 6924,
      "▁benden": 6925,
      "▁gozlerini": 6926,
      "▁aileler": 6927,
      "▁epe": 6928,
      "##anlarda": 6929,
      "##eveyn": 6930,
      "##dın": 6931,
      "▁yansıttıgını": 6932,
      "▁%4": 6933,
      "▁soluc": 6934,
      "▁ambal": 6935,
      "##ellikle": 6936,
      "▁bardagı": 6937,
      "▁sogu": 6938,
      "▁bekley": 6939,
      "▁makaleye": 6940,
      "▁mevzuatı": 6941,
      "▁kocası": 6942,
      "▁destekli": 6943,
      "▁30-hisse": 6944,
      "##q": 6945,
      "▁ertesi": 6946,
      "▁ist": 6947,
      "▁plat": 6948,
      "▁olabilir": 6949,
      "▁tarzı": 6950,
      "▁corba": 6951,
      "##dana": 6952,
      "▁talihsizlik": 6953,
      "▁bar": 6954,
      "▁otor": 6955,
      "▁subay": 6956,
      "▁aleyhinde": 6957,
      "▁bulur": 6958,
      "▁fas": 6959,
      "▁faaliyetleri": 6960,
      "##adel": 6961,
      "##edef": 6962,
      "▁toronto'dan": 6963,
      "▁sonrası": 6964,
      "▁hakaret": 6965,
      "▁kon": 6966,
      "##temelen": 6967,
      "▁airlines": 6968,
      "##3'e": 6969,
      "▁halkı": 6970,
      "▁huzursuzluk": 6971,
      "##use": 6972,
      "▁kazanmak": 6973,
      "▁cıngırak": 6974,
      "▁mart": 6975,
      "▁cas": 6976,
      "▁kere": 6977,
      "▁yavaslama": 6978,
      "▁piyango": 6979,
      "▁ını": 6980,
      "▁katkı": 6981,
      "▁dokul": 6982,
      "▁seviyeye": 6983,
      "▁trans": 6984,
      "▁omuzlarını": 6985,
      "▁derler": 6986,
      "▁chp": 6987,
      "▁iceriden": 6988,
      "▁seans": 6989,
      "▁gost": 6990,
      "▁savur": 6991,
      "▁cografya": 6992,
      "##rlikte": 6993,
      "▁pazar": 6994,
      "##altı": 6995,
      "##.m": 6996,
      "▁tasf": 6997,
      "▁anlasması": 6998,
      "▁piyasasının": 6999,
      "▁kaba": 7000,
      "▁isimleri": 7001,
      "▁one": 7002,
      "##ukee": 7003,
      "▁bed": 7004,
      "▁basladım": 7005,
      "▁oldugunda": 7006,
      "##4'e": 7007,
      "##goz": 7008,
      "▁fol": 7009,
      "▁catısma": 7010,
      "▁tamamıyla": 7011,
      "▁tacirleri": 7012,
      "▁idman": 7013,
      "▁barut": 7014,
      "##isten": 7015,
      "▁kusku": 7016,
      "▁birinden": 7017,
      "##haneyi": 7018,
      "▁tehdidini": 7019,
      "▁balıgı": 7020,
      "▁bos": 7021,
      "▁oksuruk": 7022,
      "▁acıklamayı": 7023,
      "▁dogrult": 7024,
      "▁ar": 7025,
      "▁refakat": 7026,
      "▁bulmus": 7027,
      "##mayın": 7028,
      "##abilecegini": 7029,
      "▁ihtimalle": 7030,
      "▁yasın": 7031,
      "▁temp": 7032,
      "▁aktarmasız": 7033,
      "▁onemi": 7034,
      "##biy": 7035,
      "##alog": 7036,
      "▁tadima": 7037,
      "▁bulama": 7038,
      "▁mars": 7039,
      "##ladıklarını": 7040,
      "▁fiyatlarını": 7041,
      "##aparki": 7042,
      "▁sevk": 7043,
      "▁muayen": 7044,
      "▁psikiyatri": 7045,
      "▁parlak": 7046,
      "▁odemesini": 7047,
      "▁heykel": 7048,
      "▁ayından": 7049,
      "▁tanıtım": 7050,
      "▁sur": 7051,
      "##onra": 7052,
      "▁ait": 7053,
      "▁--": 7054,
      "▁dekorasyonu": 7055,
      "##lamanın": 7056,
      "▁mur": 7057,
      "▁koku": 7058,
      "▁sebek": 7059,
      "▁gayet": 7060,
      "▁muhtesem": 7061,
      "▁detaylar": 7062,
      "▁cicekler": 7063,
      "▁arası": 7064,
      "▁etraf": 7065,
      "▁omr": 7066,
      "▁tampa": 7067,
      "▁saglama": 7068,
      "▁hind": 7069,
      "##de": 7070,
      "▁musun": 7071,
      "▁muv": 7072,
      "▁yonetiminde": 7073,
      "▁espr": 7074,
      "##ile": 7075,
      "▁pap": 7076,
      "▁reak": 7077,
      "▁7'de": 7078,
      "▁bırakma": 7079,
      "▁kullan": 7080,
      "##meldi": 7081,
      "##enek": 7082,
      "▁rub": 7083,
      "▁insanog": 7084,
      "##kine": 7085,
      "▁senedi": 7086,
      "##iligini": 7087,
      "▁azınlık": 7088,
      "▁isletim": 7089,
      "##siyle": 7090,
      "▁olsunlar": 7091,
      "▁angeles": 7092,
      "▁ayaklarıyla": 7093,
      "▁sahtek": 7094,
      "▁yenilen": 7095,
      "▁sogugu": 7096,
      "##gine": 7097,
      "▁beye": 7098,
      "##mazdı": 7099,
      "▁yapıs": 7100,
      "▁zarf": 7101,
      "▁dinam": 7102,
      "##iver": 7103,
      "▁uykusu": 7104,
      "▁girdim": 7105,
      "##otif": 7106,
      "▁genelde": 7107,
      "▁kelimeler": 7108,
      "▁beklet": 7109,
      "▁arabalar": 7110,
      "▁umud": 7111,
      "▁anlat": 7112,
      "##ılık": 7113,
      "▁onemini": 7114,
      "▁adıyla": 7115,
      "▁ode": 7116,
      "##ırak": 7117,
      "▁koymus": 7118,
      "▁gunluk": 7119,
      "▁seylerle": 7120,
      "##onya": 7121,
      "##etle": 7122,
      "▁tutam": 7123,
      "▁gelisimini": 7124,
      "▁karsıl": 7125,
      "▁vardır": 7126,
      "▁kapagı": 7127,
      "##ska": 7128,
      "▁baraj": 7129,
      "▁gostermek": 7130,
      "##ere": 7131,
      "▁turkiye'nin": 7132,
      "▁birtak": 7133,
      "▁frank": 7134,
      "▁kazandıgını": 7135,
      "▁hisseden": 7136,
      "▁teknolojisi": 7137,
      "▁supur": 7138,
      "▁soktu": 7139,
      "▁ikin": 7140,
      "##lemek": 7141,
      "▁parmak": 7142,
      "▁sabır": 7143,
      "##mik": 7144,
      "▁havaalanından": 7145,
      "▁darb": 7146,
      "▁yapmayı": 7147,
      "▁kilidi": 7148,
      "▁memleketin": 7149,
      "▁muzik": 7150,
      "▁sesini": 7151,
      "▁versin": 7152,
      "▁.\"": 7153,
      "▁borc": 7154,
      "▁gecelik": 7155,
      "▁kek": 7156,
      "▁odenek": 7157,
      "##abileceginden": 7158,
      "##lerinde": 7159,
      "▁degisiyor": 7160,
      "##acılıgı": 7161,
      "▁domatesleri": 7162,
      "▁zararlar": 7163,
      "▁akt": 7164,
      "▁yumurta": 7165,
      "##istler": 7166,
      "▁olay": 7167,
      "##lugune": 7168,
      "▁listeleyebilir": 7169,
      "##gunlukla": 7170,
      "##0.": 7171,
      "##lanmayı": 7172,
      "▁atmayı": 7173,
      "##'de": 7174,
      "▁pesine": 7175,
      "▁bildirdi": 7176,
      "##elige": 7177,
      "▁planlamam": 7178,
      "##bal": 7179,
      "##legi": 7180,
      "▁yetenek": 7181,
      "▁laik": 7182,
      "▁genetik": 7183,
      "##alarında": 7184,
      "▁boynuz": 7185,
      "▁uzerindeki": 7186,
      "▁yazmaya": 7187,
      "▁baslayan": 7188,
      "##islerden": 7189,
      "##okul": 7190,
      "▁ailelerin": 7191,
      "▁rakib": 7192,
      "##amıyorum": 7193,
      "▁askeri": 7194,
      "▁ef": 7195,
      "▁sebebi": 7196,
      "▁kuyu": 7197,
      "▁kombin": 7198,
      "▁almasını": 7199,
      "##udur": 7200,
      "▁biletleri": 7201,
      "▁gelsin": 7202,
      "▁vucu": 7203,
      "▁milyonu": 7204,
      "▁bire": 7205,
      "##ait": 7206,
      "▁ilkbahar": 7207,
      "▁butu": 7208,
      "▁arkadasları": 7209,
      "▁for": 7210,
      "▁oldugun": 7211,
      "▁acım": 7212,
      "##akti": 7213,
      "▁eks": 7214,
      "▁oldukca": 7215,
      "▁basla": 7216,
      "##ion": 7217,
      "▁1'den": 7218,
      "▁nakit": 7219,
      "▁gozda": 7220,
      "▁kusun": 7221,
      "▁isliyor": 7222,
      "▁haftanın": 7223,
      "▁esrar": 7224,
      "▁kontratı": 7225,
      "▁yapması": 7226,
      "▁istirak": 7227,
      "▁metrik": 7228,
      "▁karton": 7229,
      "▁burokrasi": 7230,
      "▁gozalt": 7231,
      "▁tutt": 7232,
      "▁fut": 7233,
      "▁burokr": 7234,
      "▁ahır": 7235,
      "▁etmistir": 7236,
      "▁ter": 7237,
      "##ya'da": 7238,
      "▁mot": 7239,
      "##lam": 7240,
      "▁liber": 7241,
      "##6": 7242,
      "▁espri": 7243,
      "▁yaslarına": 7244,
      "##vert": 7245,
      "##gide": 7246,
      "▁kaps": 7247,
      "▁borca": 7248,
      "##yosu": 7249,
      "▁kardesim": 7250,
      "▁bahar": 7251,
      "▁buz": 7252,
      "▁degiller": 7253,
      "▁topuk": 7254,
      "▁ayva": 7255,
      "##ebilir": 7256,
      "▁gazetelerde": 7257,
      "▁suclar": 7258,
      "▁saatleri": 7259,
      "▁bulundu": 7260,
      "▁mukemmeldi": 7261,
      "##ledim": 7262,
      "▁yanıl": 7263,
      "##lak": 7264,
      "▁yarıs": 7265,
      "▁tramvay": 7266,
      "▁nazar": 7267,
      "▁bileti": 7268,
      "▁boldu": 7269,
      "▁paket": 7270,
      "▁disip": 7271,
      "▁rıza": 7272,
      "##kunc": 7273,
      "▁oranının": 7274,
      "▁etiket": 7275,
      "▁rah": 7276,
      "▁kirli": 7277,
      "▁sokakta": 7278,
      "▁bakıslarını": 7279,
      "##:": 7280,
      "▁varlıklarının": 7281,
      "▁basımıza": 7282,
      "▁gorus": 7283,
      "##tmis": 7284,
      "▁hacminin": 7285,
      "▁dusen": 7286,
      "▁tepesinde": 7287,
      "▁egr": 7288,
      "▁bir": 7289,
      "▁onların": 7290,
      "##eyif": 7291,
      "▁tekne": 7292,
      "▁il": 7293,
      "▁bastır": 7294,
      "▁dusurdu": 7295,
      "▁inkar": 7296,
      "▁yasal": 7297,
      "▁huc": 7298,
      "▁sacları": 7299,
      "▁data": 7300,
      "▁sacların": 7301,
      "▁kıymet": 7302,
      "▁kullanmadik": 7303,
      "▁neticesinde": 7304,
      "▁icimden": 7305,
      "▁endeks": 7306,
      "▁ikram": 7307,
      "▁ucuyor": 7308,
      "▁koyden": 7309,
      "▁bahcıvan": 7310,
      "▁uyeye": 7311,
      "▁hesapları": 7312,
      "▁havaalanı": 7313,
      "▁eksiklik": 7314,
      "▁ipotekler": 7315,
      "▁soz": 7316,
      "▁bakısları": 7317,
      "##tıras": 7318,
      "▁mahsulu": 7319,
      "##ttı": 7320,
      "▁dikkat": 7321,
      "▁bira": 7322,
      "▁icimi": 7323,
      "▁mucadelenin": 7324,
      "▁falan": 7325,
      "▁seklinde": 7326,
      "▁olanlara": 7327,
      "▁sonbahar": 7328,
      "▁kiralam": 7329,
      "▁yuzdelik": 7330,
      "▁dordu": 7331,
      "##lılık": 7332,
      "##f": 7333,
      "▁cehr": 7334,
      "▁olup": 7335,
      "▁fez": 7336,
      "▁yılda": 7337,
      "▁olursa": 7338,
      "▁kablo": 7339,
      "▁dusmanları": 7340,
      "▁duygularını": 7341,
      "▁isgali": 7342,
      "##ood": 7343,
      "▁manasıyla": 7344,
      "##5'te": 7345,
      "▁kumarbaz": 7346,
      "▁patatesleri": 7347,
      "▁cıkarır": 7348,
      "▁kesilmis": 7349,
      "▁cene": 7350,
      "▁gercekte": 7351,
      "▁alacaklılar": 7352,
      "▁oranlarının": 7353,
      "▁ahen": 7354,
      "##hanesi": 7355,
      "##lerinizi": 7356,
      "▁sularda": 7357,
      "▁sor": 7358,
      "##sıp": 7359,
      "▁dervis": 7360,
      "##noz": 7361,
      "##asız": 7362,
      "▁toplantıya": 7363,
      "▁doktor": 7364,
      "▁verme": 7365,
      "##alandır": 7366,
      "▁yurtdısına": 7367,
      "▁filozof": 7368,
      "▁gorgu": 7369,
      "##untu": 7370,
      "▁haz": 7371,
      "▁guzelligi": 7372,
      "▁markaları": 7373,
      "▁dair": 7374,
      "##uktu": 7375,
      "▁kitap": 7376,
      "▁araplar": 7377,
      "▁ya": 7378,
      "▁ruzg": 7379,
      "▁maliyetlerinin": 7380,
      "▁dereden": 7381,
      "▁kestane": 7382,
      "##2": 7383,
      "▁secimleri": 7384,
      "▁yılb": 7385,
      "▁yuregim": 7386,
      "▁kapılarını": 7387,
      "▁dosy": 7388,
      "▁degil": 7389,
      "▁tatli": 7390,
      "▁bicimine": 7391,
      "##.": 7392,
      "▁kasıgı": 7393,
      "▁pazarlarda": 7394,
      "▁telgraf": 7395,
      "##ls": 7396,
      "▁gelmez": 7397,
      "##essus": 7398,
      "▁sezonu": 7399,
      "▁kokulu": 7400,
      "▁noktasında": 7401,
      "▁boyle": 7402,
      "▁sıtma": 7403,
      "▁kan": 7404,
      "▁ekim": 7405,
      "▁iceriye": 7406,
      "▁neyse": 7407,
      "▁meclisi": 7408,
      "▁kapılarında": 7409,
      "▁120": 7410,
      "▁faydalan": 7411,
      "▁birbirleriyle": 7412,
      "▁ihmal": 7413,
      "▁yetkililerin": 7414,
      "▁halkını": 7415,
      "▁yenilik": 7416,
      "▁kayıtları": 7417,
      "▁isti": 7418,
      "▁makb": 7419,
      "##larını": 7420,
      "▁alb": 7421,
      "##jik": 7422,
      "▁kodu": 7423,
      "##ılabilir": 7424,
      "▁kalmadik": 7425,
      "##agı": 7426,
      "▁bilir": 7427,
      "▁yazının": 7428,
      "##makt": 7429,
      "##iydi": 7430,
      "▁spekulasyonlar": 7431,
      "##lastik": 7432,
      "▁set": 7433,
      "▁fatur": 7434,
      "▁etti": 7435,
      "▁sozlerine": 7436,
      "▁hizmetlerinin": 7437,
      "▁sahiplerinden": 7438,
      "▁hızlı": 7439,
      "##siv": 7440,
      "▁adamları": 7441,
      "##aliydi": 7442,
      "▁enst": 7443,
      "▁ucagının": 7444,
      "##cag": 7445,
      "##icinin": 7446,
      "▁yetenegine": 7447,
      "▁hucreleri": 7448,
      "##dıgında": 7449,
      "▁sermayeyi": 7450,
      "▁haval": 7451,
      "▁seneye": 7452,
      "##imizde": 7453,
      "▁talep": 7454,
      "▁norm": 7455,
      "▁keci": 7456,
      "▁santral": 7457,
      "▁numar": 7458,
      "##taki": 7459,
      "▁olduk": 7460,
      "▁gelmistir": 7461,
      "##ayol": 7462,
      "▁sallan": 7463,
      "▁ıyla": 7464,
      "▁hayret": 7465,
      "▁koridor": 7466,
      "▁renginde": 7467,
      "▁yasadık": 7468,
      "▁1985": 7469,
      "##inlerin": 7470,
      "▁adeta": 7471,
      "▁mevduat": 7472,
      "▁ı": 7473,
      "▁enerj": 7474,
      "▁beklent": 7475,
      "▁ata": 7476,
      "▁ikinci": 7477,
      "▁cereyan": 7478,
      "##lıydı": 7479,
      "▁yasaya": 7480,
      "▁polis": 7481,
      "##-sat": 7482,
      "▁havay": 7483,
      "▁caddeyi": 7484,
      "##iyatr": 7485,
      "▁guney": 7486,
      "▁aqu": 7487,
      "▁sum": 7488,
      "▁lun": 7489,
      "▁yatırımcılara": 7490,
      "##umuz": 7491,
      "##ilige": 7492,
      "▁ailesine": 7493,
      "▁intern": 7494,
      "▁birine": 7495,
      "▁hisselerin": 7496,
      "▁seviyesinde": 7497,
      "▁38": 7498,
      "##(": 7499,
      "▁uste": 7500,
      "▁istegi": 7501,
      "▁phil": 7502,
      "▁yuv": 7503,
      "##izli": 7504,
      "▁sıcak": 7505,
      "▁bankalarının": 7506,
      "▁dansı": 7507,
      "▁sayi": 7508,
      "##eor": 7509,
      "▁1970'": 7510,
      "▁galib": 7511,
      "▁istiklal": 7512,
      "##istin": 7513,
      "[MASK]": 7514,
      "▁havayollarını": 7515,
      "▁tarihinde": 7516,
      "▁turkiye'de": 7517,
      "▁seneden": 7518,
      "▁bazda": 7519,
      "▁yanına": 7520,
      "▁suresini": 7521,
      "▁aynen": 7522,
      "▁kamu": 7523,
      "▁karsılıgı": 7524,
      "▁gas": 7525,
      "▁vs": 7526,
      "▁ın": 7527,
      "▁terbiy": 7528,
      "▁eylemi": 7529,
      "▁boyutta": 7530,
      "▁1'de": 7531,
      "▁helikopter": 7532,
      "▁soyadı": 7533,
      "▁yig": 7534,
      "▁devlete": 7535,
      "##yuzlu": 7536,
      "##7'den": 7537,
      "▁okulunda": 7538,
      "▁parcalar": 7539,
      "▁sal": 7540,
      "▁dayalı": 7541,
      "▁konsept": 7542,
      "▁sagduy": 7543,
      "▁isyan": 7544,
      "▁nem": 7545,
      "▁day": 7546,
      "▁ellerinin": 7547,
      "▁havuzlar": 7548,
      "▁gozlerim": 7549,
      "▁hakkını": 7550,
      "▁tumunu": 7551,
      "##ıgını": 7552,
      "▁ydu": 7553,
      "▁elestirmenler": 7554,
      "▁odalari": 7555,
      "▁sacmalık": 7556,
      "▁agızları": 7557,
      "##od": 7558,
      "▁kardesleri": 7559,
      "▁erkek": 7560,
      "▁gunku": 7561,
      "▁fiyatını": 7562,
      "▁ismi": 7563,
      "▁sahn": 7564,
      "▁dos": 7565,
      "▁biliyor": 7566,
      "▁ortalaması": 7567,
      "▁sirketinin": 7568,
      "▁sasır": 7569,
      "▁iadesi": 7570,
      "##eren": 7571,
      "▁limon": 7572,
      "##set": 7573,
      "▁yonunde": 7574,
      "▁kapatıl": 7575,
      "▁per": 7576,
      "▁onur": 7577,
      "##ıstı": 7578,
      "▁dususten": 7579,
      "▁dalgalar": 7580,
      "▁takımını": 7581,
      "▁kenarda": 7582,
      "▁kalpak": 7583,
      "▁geldigi": 7584,
      "##idir": 7585,
      "##cular": 7586,
      "▁tutar": 7587,
      "▁kitapta": 7588,
      "▁…": 7589,
      "▁mezar": 7590,
      "▁onerileri": 7591,
      "▁idareye": 7592,
      "##fa": 7593,
      "##indeyiz": 7594,
      "▁vet": 7595,
      "▁iliskiye": 7596,
      "##alama": 7597,
      "▁yerini": 7598,
      "▁yahudi": 7599,
      "##gah": 7600,
      "▁telaf": 7601,
      "▁feder": 7602,
      "▁askerleri": 7603,
      "▁aklınız": 7604,
      "##isiydi": 7605,
      "▁memur": 7606,
      "▁saman": 7607,
      "▁hissediyor": 7608,
      "▁satmak": 7609,
      "▁bakanlıgı'nın": 7610,
      "▁musterilerini": 7611,
      "▁iliskisi": 7612,
      "▁girisimci": 7613,
      "▁gelmedi": 7614,
      "▁alkol": 7615,
      "▁yasadı": 7616,
      "▁olur": 7617,
      "▁sigorta": 7618,
      "▁kendilerini": 7619,
      "▁rehberi": 7620,
      "##emir": 7621,
      "▁barın": 7622,
      "▁hosgoru": 7623,
      "▁teknolojisini": 7624,
      "▁aln": 7625,
      "▁nu": 7626,
      "▁kocak": 7627,
      "▁kagıtları": 7628,
      "▁cincinnati": 7629,
      "▁lar": 7630,
      "▁harek": 7631,
      "▁maf": 7632,
      "▁bilimsel": 7633,
      "▁otesi": 7634,
      "▁bilgilerin": 7635,
      "▁arzusu": 7636,
      "▁sofrasında": 7637,
      "##ligi": 7638,
      "▁goruluyor": 7639,
      "##mustu": 7640,
      "▁boh": 7641,
      "▁kulak": 7642,
      "##ul": 7643,
      "▁senden": 7644,
      "##ors": 7645,
      "##pan": 7646,
      "▁kaderi": 7647,
      "▁sigort": 7648,
      "▁mintan": 7649,
      "▁sınıfları": 7650,
      "▁alım-satım": 7651,
      "▁gumus": 7652,
      "▁umutlarını": 7653,
      "##ileri": 7654,
      "▁vermektedir": 7655,
      "▁araz": 7656,
      "▁dalgalan": 7657,
      "▁ho": 7658,
      "▁faizi": 7659,
      "##elerle": 7660,
      "a": 7661,
      "▁bilmem": 7662,
      "▁zaferi": 7663,
      "▁cont": 7664,
      "▁kagı": 7665,
      "##ilig": 7666,
      "▁hepsini": 7667,
      "##tıgını": 7668,
      "##an": 7669,
      "▁takım": 7670,
      "▁1992": 7671,
      "▁havada": 7672,
      "▁hatt": 7673,
      "▁cır": 7674,
      "▁ablam": 7675,
      "##atin": 7676,
      "▁ugultu": 7677,
      "▁oteller": 7678,
      "▁hareketler": 7679,
      "▁basrol": 7680,
      "[UNK]": 7681,
      "▁uzun": 7682,
      "##ıcısı": 7683,
      "▁duruma": 7684,
      "▁ile": 7685,
      "##dugumu": 7686,
      "▁kahvaltisi": 7687,
      "##yacak": 7688,
      "##9'un": 7689,
      "##ayıf": 7690,
      "▁beklemek": 7691,
      "▁kavanoz": 7692,
      "▁rakip": 7693,
      "▁olmazsa": 7694,
      "##arlar": 7695,
      "##elerden": 7696,
      "▁kupon": 7697,
      "##5'ten": 7698,
      "##uzluk": 7699,
      "▁radyoyu": 7700,
      "▁hesap": 7701,
      "▁ster": 7702,
      "▁muf": 7703,
      "##leriniz": 7704,
      "▁bog": 7705,
      "▁vur": 7706,
      "##civert": 7707,
      "▁vatandas": 7708,
      "▁bulbul": 7709,
      "▁karsilik": 7710,
      "##digimiz": 7711,
      "▁bence": 7712,
      "▁bahsetti": 7713,
      "▁olacagına": 7714,
      "▁mab": 7715,
      "##tat": 7716,
      "▁rıhtıma": 7717,
      "▁/": 7718,
      "▁guzeli": 7719,
      "▁kaya": 7720,
      "▁yardımı": 7721,
      "▁parmagını": 7722,
      "▁urunun": 7723,
      "▁kabiliyet": 7724,
      "▁yapılacak": 7725,
      "▁iskemle": 7726,
      "##emiz": 7727,
      "▁memnunuz": 7728,
      "▁yolunu": 7729,
      "▁yargıclar": 7730,
      "##tırmak": 7731,
      "▁sicakti": 7732,
      "##endinin": 7733,
      "##ba": 7734,
      "##ektir": 7735,
      "▁gorevl": 7736,
      "##ganlık": 7737,
      "▁edebiyatın": 7738,
      "##eti": 7739,
      "▁hepimiz": 7740,
      "▁faturamin": 7741,
      "▁devrimi": 7742,
      "▁sorunlarının": 7743,
      "▁boyunca": 7744,
      "▁bebegi": 7745,
      "▁kesint": 7746,
      "▁hıy": 7747,
      "▁rul": 7748,
      "▁magazaların": 7749,
      "▁gorevleri": 7750,
      "##olo": 7751,
      "▁gelisme": 7752,
      "##ladıgını": 7753,
      "▁dyp": 7754,
      "▁mesafeyi": 7755,
      "▁ic": 7756,
      "▁sozlesmesini": 7757,
      "▁batı": 7758,
      "▁mobilya": 7759,
      "▁bur": 7760,
      "##eginiz": 7761,
      "##musum": 7762,
      "▁ascı": 7763,
      "▁kapandı": 7764,
      "▁engelliler": 7765,
      "▁itibar": 7766,
      "▁aramaya": 7767,
      "▁sokaklar": 7768,
      "▁mekteb": 7769,
      "▁1.5": 7770,
      "▁durumuna": 7771,
      "▁bonoları": 7772,
      "▁nefes": 7773,
      "▁havayolları": 7774,
      "##desini": 7775,
      "##asur": 7776,
      "▁ekledi": 7777,
      "▁kenarında": 7778,
      "▁carp": 7779,
      "▁met": 7780,
      "▁direkt": 7781,
      "▁evlat": 7782,
      "▁yetkililere": 7783,
      "▁57": 7784,
      "▁memnunduk": 7785,
      "▁transfer": 7786,
      "▁anlas": 7787,
      "##ber": 7788,
      "▁ail": 7789,
      "▁yapar": 7790,
      "▁durusma": 7791,
      "▁terey": 7792,
      "▁istikamet": 7793,
      "▁salep": 7794,
      "▁muhac": 7795,
      "##almaya": 7796,
      "▁ayna": 7797,
      "▁top": 7798,
      "▁taksit": 7799,
      "▁odalar": 7800,
      "▁gelistirmeye": 7801,
      "▁malzemesi": 7802,
      "##ınt": 7803,
      "▁gorusmedim": 7804,
      "▁gelmis": 7805,
      "▁dolap": 7806,
      "##ulatif": 7807,
      "▁nufusu": 7808,
      "##larıdır": 7809,
      "▁gidiyoruz": 7810,
      "▁zırh": 7811,
      "▁kum": 7812,
      "##edig": 7813,
      "▁sıkı": 7814,
      "##msal": 7815,
      "▁odası": 7816,
      "##anam": 7817,
      "▁varlıklarını": 7818,
      "##59": 7819,
      "▁suları": 7820,
      "▁ucları": 7821,
      "▁kadayıf": 7822,
      "▁dunyaya": 7823,
      "▁eg": 7824,
      "▁vererek": 7825,
      "##esinin": 7826,
      "▁dikis": 7827,
      "▁cıkınca": 7828,
      "##ege": 7829,
      "▁yapabil": 7830,
      "▁degerlendir": 7831,
      "▁ner": 7832,
      "##ment": 7833,
      "▁baglant": 7834,
      "##7'de": 7835,
      "▁“": 7836,
      "▁mudafa": 7837,
      "##ash": 7838,
      "▁jon": 7839,
      "▁sirketini": 7840,
      "▁al": 7841,
      "▁cam": 7842,
      "▁yuc": 7843,
      "##ebilecegi": 7844,
      "▁parayi": 7845,
      "▁girer": 7846,
      "▁nakliye": 7847,
      "▁havale": 7848,
      "▁kapılar": 7849,
      "##ay": 7850,
      "▁konuyu": 7851,
      "▁yorumu": 7852,
      "▁geldiginde": 7853,
      "▁arpa": 7854,
      "▁29": 7855,
      "▁sunuyor": 7856,
      "▁haline": 7857,
      "▁tesisler": 7858,
      "▁oto": 7859,
      "▁kafil": 7860,
      "▁vergiyi": 7861,
      "▁anasının": 7862,
      "▁icme": 7863,
      "▁yaln": 7864,
      "▁akciger": 7865,
      "▁acmıs": 7866,
      "▁pittsburgh'a": 7867,
      "▁yah": 7868,
      "▁kaleci": 7869,
      "▁sefalet": 7870,
      "▁ulkeden": 7871,
      "▁cıkısı": 7872,
      "▁obj": 7873,
      "▁muttef": 7874,
      "▁oturumda": 7875,
      "▁kupeler": 7876,
      "▁satımında": 7877,
      "##c": 7878,
      "▁zek": 7879,
      "▁cekim": 7880,
      "##iligin": 7881,
      "▁dolastı": 7882,
      "▁arkadasımla": 7883,
      "▁ticaretinin": 7884,
      "▁padisah": 7885,
      "▁herhalde": 7886,
      "▁halka": 7887,
      "▁bunal": 7888,
      "▁ret": 7889,
      "▁ci": 7890,
      "▁zum": 7891,
      "▁dusmanın": 7892,
      "▁geriledi": 7893,
      "▁sayıda": 7894,
      "▁hepsi": 7895,
      "▁iliskinin": 7896,
      "##manız": 7897,
      "▁direksiyon": 7898,
      "▁yayın": 7899,
      "▁kiralama": 7900,
      "▁problemleri": 7901,
      "##madan": 7902,
      "##'na": 7903,
      "##abında": 7904,
      "▁sonuclar": 7905,
      "▁ayni": 7906,
      "▁emegi": 7907,
      "▁yapıldı": 7908,
      "▁ciftlerine": 7909,
      "▁denizinden": 7910,
      "▁isle": 7911,
      "▁sembol": 7912,
      "▁tasımacılıgı": 7913,
      "▁birini": 7914,
      "##dugunde": 7915,
      "▁atıf": 7916,
      "▁degirmen": 7917,
      "▁46": 7918,
      "▁ayagına": 7919,
      "▁kisiligi": 7920,
      "▁uyu": 7921,
      "##cılı": 7922,
      "▁asla": 7923,
      "##unuz": 7924,
      "▁gaf": 7925,
      "▁no": 7926,
      "##lukla": 7927,
      "▁ureticiler": 7928,
      "▁zamanların": 7929,
      "##geleri": 7930,
      "##'daki": 7931,
      "▁bitti": 7932,
      "##oglu": 7933,
      "▁yemekte": 7934,
      "##des": 7935,
      "##esli": 7936,
      "▁saclarını": 7937,
      "▁goren": 7938,
      "▁karsılıklı": 7939,
      "▁sinema": 7940,
      "▁kasırg": 7941,
      "▁gozun": 7942,
      "▁teraz": 7943,
      "▁atılım": 7944,
      "▁31": 7945,
      "##iriz": 7946,
      "▁dersi": 7947,
      "▁uzerindeydi": 7948,
      "▁pazara": 7949,
      "▁dusunur": 7950,
      "▁tatbik": 7951,
      "▁teknik": 7952,
      "▁suyun": 7953,
      "##layalım": 7954,
      "▁karsılık": 7955,
      "▁listesi": 7956,
      "▁urunu": 7957,
      "##ij": 7958,
      "▁zira": 7959,
      "▁maden": 7960,
      "▁ogut": 7961,
      "▁c": 7962,
      "##anın": 7963,
      "▁kıskanclık": 7964,
      "▁carda": 7965,
      "##ımla": 7966,
      "▁sektor": 7967,
      "​": 7968,
      "▁pec": 7969,
      "▁tuvalet": 7970,
      "##ydım": 7971,
      "▁tab": 7972,
      "▁tahvilin": 7973,
      "▁cur": 7974,
      "##forlu": 7975,
      "▁kıyı": 7976,
      "▁bad": 7977,
      "▁sukun": 7978,
      "▁isin": 7979,
      "▁utan": 7980,
      "▁yildiz": 7981,
      "▁kesimi": 7982,
      "▁atolye": 7983,
      "▁oldugundan": 7984,
      "▁olabilirdi": 7985,
      "▁ulkelerde": 7986,
      "▁kerp": 7987,
      "▁tuccarı": 7988,
      "▁kacır": 7989,
      "▁oranla": 7990,
      "▁fıs": 7991,
      "▁eskiydi": 7992,
      "##cagını": 7993,
      "##meyecegini": 7994,
      "##endi": 7995,
      "▁kktc": 7996,
      "▁dalgası": 7997,
      "##emeyi": 7998,
      "▁kitleye": 7999,
      "▁cizgiler": 8000,
      "▁lak": 8001,
      "▁grubunun": 8002,
      "▁muhtesemdi": 8003,
      "▁karsı": 8004,
      "▁dilerim": 8005,
      "▁baskasının": 8006,
      "▁tutarı": 8007,
      "▁yusuf": 8008,
      "▁demiryolu": 8009,
      "‘": 8010,
      "##lag": 8011,
      "▁panik": 8012,
      "▁sorun": 8013,
      "▁nedenlerden": 8014,
      "##sizdi": 8015,
      "▁gorevini": 8016,
      "▁davranmak": 8017,
      "▁rekabeti": 8018,
      "##ye": 8019,
      "##ulmesi": 8020,
      "▁gerekcesiyle": 8021,
      "▁kabile": 8022,
      "▁yapım": 8023,
      "▁op": 8024,
      "##sim": 8025,
      "▁yonleriyle": 8026,
      "##suz": 8027,
      "▁his": 8028,
      "▁hot": 8029,
      "▁camek": 8030,
      "▁yone": 8031,
      "▁artırmayı": 8032,
      "▁basladılar": 8033,
      "##usundan": 8034,
      "▁tarım": 8035,
      "▁terfi": 8036,
      "▁sıhh": 8037,
      "##indir": 8038,
      "##ebil": 8039,
      "##piyat": 8040,
      "▁gelecekteki": 8041,
      "▁belirlen": 8042,
      "##,": 8043,
      "▁kıskanc": 8044,
      "▁sıcaklık": 8045,
      "▁olumle": 8046,
      "##tanbul": 8047,
      "##urlar": 8048,
      "##ılmıstır": 8049,
      "##katli": 8050,
      "▁tedavulde": 8051,
      "▁mers": 8052,
      "▁vucuduna": 8053,
      "##ıyla": 8054,
      "##arında": 8055,
      "▁talih": 8056,
      "▁duzel": 8057,
      "##go": 8058,
      "##ith": 8059,
      "▁vucuda": 8060,
      "##kor": 8061,
      "▁recel": 8062,
      "▁kisilere": 8063,
      "##alıklar": 8064,
      "▁nasip": 8065,
      "▁diye": 8066,
      "▁tane": 8067,
      "▁yıllık": 8068,
      "##eceklerini": 8069,
      "▁biraz": 8070,
      "▁geriye": 8071,
      "▁studyo": 8072,
      "▁konustuk": 8073,
      "▁derinlik": 8074,
      "▁getiren": 8075,
      "▁koyu": 8076,
      "▁otek": 8077,
      "##ıl": 8078,
      "▁surdugunu": 8079,
      "▁vakası": 8080,
      "▁geril": 8081,
      "##arya": 8082,
      "▁aydan": 8083,
      "▁etkisini": 8084,
      "▁mesleg": 8085,
      "##ınır": 8086,
      "##minde": 8087,
      "##tiv": 8088,
      "▁far": 8089,
      "##ıh": 8090,
      "▁sikay": 8091,
      "▁gecmiste": 8092,
      "##lirken": 8093,
      "▁soy": 8094,
      "▁ihtiyacı": 8095,
      "▁ucagına": 8096,
      "▁onumuze": 8097,
      "▁yuzeyinde": 8098,
      "▁vegas'a": 8099,
      "▁cesedi": 8100,
      "▁saglamak": 8101,
      "▁hibe": 8102,
      "▁incelem": 8103,
      "▁40": 8104,
      "▁etmek": 8105,
      "▁sagda": 8106,
      "##ırp": 8107,
      "▁okyan": 8108,
      "▁alab": 8109,
      "▁cum": 8110,
      "##?": 8111,
      "▁yeraltı": 8112,
      "▁tahvillerin": 8113,
      "▁ayag": 8114,
      "▁!..": 8115,
      "▁bagıs": 8116,
      "▁donan": 8117,
      "▁ortami": 8118,
      "▁kiz": 8119,
      "##poh": 8120,
      "▁slog": 8121,
      "▁artık": 8122,
      "▁hanimla": 8123,
      "▁duy": 8124,
      "▁okur": 8125,
      "▁delikanlı": 8126,
      "▁yardımc": 8127,
      "▁arkadasimla": 8128,
      "##otek": 8129,
      "##dular": 8130,
      "##aklı": 8131,
      "▁gorustuk": 8132,
      "▁ilgisinden": 8133,
      "▁yapr": 8134,
      "##mamıstı": 8135,
      "##larıyla": 8136,
      "##tigini": 8137,
      "##lacak": 8138,
      "▁bireysel": 8139,
      "▁kazasından": 8140,
      "▁olmas": 8141,
      "▁newark'a": 8142,
      "▁odanın": 8143,
      "##lıkları": 8144,
      "▁durur": 8145,
      "▁gununden": 8146,
      "▁acıklıyor": 8147,
      "▁tahsis": 8148,
      "▁mutfaga": 8149,
      "▁kentinde": 8150,
      "##seydi": 8151,
      "▁projede": 8152,
      "▁sıvı": 8153,
      "##ulmus": 8154,
      "▁politikaları": 8155,
      "##)": 8156,
      "▁anlıs": 8157,
      "▁haberleri": 8158,
      "▁sek": 8159,
      "▁ihal": 8160,
      "▁rakamları": 8161,
      "▁cift-a": 8162,
      "▁tekstil": 8163,
      "▁rekor": 8164,
      "▁alındıgında": 8165,
      "▁kazanclar": 8166,
      "▁cincinnati'den": 8167,
      "▁sandıg": 8168,
      "▁dusunmeye": 8169,
      "##ukce": 8170,
      "##aga": 8171,
      "▁yapmıs": 8172,
      "##'unu": 8173,
      "▁tıg": 8174,
      "▁ital": 8175,
      "▁heg": 8176,
      "▁bakmak": 8177,
      "▁ilgiyle": 8178,
      "▁haric": 8179,
      "##ilecegi": 8180,
      "▁gogsunde": 8181,
      "##ant": 8182,
      "▁dayı": 8183,
      "▁satın": 8184,
      "▁yasına": 8185,
      "▁derste": 8186,
      "▁hop": 8187,
      "##'dan": 8188,
      "▁belg": 8189,
      "##esidir": 8190,
      "▁saraydan": 8191,
      "▁ayrılmak": 8192,
      "▁aklı": 8193,
      "▁montreal'a": 8194,
      "▁federal": 8195,
      "▁bahcı": 8196,
      "▁yapın": 8197,
      "▁iliskiler": 8198,
      "▁ipotege": 8199,
      "▁global": 8200,
      "▁kilis": 8201,
      "▁isaretler": 8202,
      "▁goruntu": 8203,
      "▁isabet": 8204,
      "▁karsısında": 8205,
      "▁miktarı": 8206,
      "▁bekar": 8207,
      "##abeti": 8208,
      "▁sorunun": 8209,
      "▁istim": 8210,
      "▁askere": 8211,
      "##bus": 8212,
      "▁yat": 8213,
      "▁ziyade": 8214,
      "##lk": 8215,
      "##unuzun": 8216,
      "##msiz": 8217,
      "▁sınırları": 8218,
      "▁veri": 8219,
      "▁ithalatı": 8220,
      "▁dus": 8221,
      "▁ahlak": 8222,
      "▁ilc": 8223,
      "▁business": 8224,
      "'": 8225,
      "▁verdi": 8226,
      "▁bircogu": 8227,
      "▁rep": 8228,
      "▁belirtil": 8229,
      "▁katında": 8230,
      "##lıgını": 8231,
      "##akta": 8232,
      "▁etmemek": 8233,
      "▁aldigim": 8234,
      "▁solda": 8235,
      "▁arkasını": 8236,
      "▁dar": 8237,
      "▁ceker": 8238,
      "▁kadınlarla": 8239,
      "▁28": 8240,
      "▁plan": 8241,
      "▁kagıda": 8242,
      "▁bolgelerinde": 8243,
      "▁koltukta": 8244,
      "▁ulkeye": 8245,
      "##tle": 8246,
      "##dadır": 8247,
      "▁baktım": 8248,
      "▁mektuplar": 8249,
      "▁asın": 8250,
      "▁madem": 8251,
      "▁aklının": 8252,
      "▁lek": 8253,
      "▁yuzunu": 8254,
      "▁ucusunun": 8255,
      "▁gelmiyor": 8256,
      "▁ortalamaydi": 8257,
      "##rik": 8258,
      "▁tereyagı": 8259,
      "▁isterseniz": 8260,
      "▁calar": 8261,
      "▁ressam": 8262,
      "▁ulas": 8263,
      "▁operasyon": 8264,
      "▁istedigini": 8265,
      "▁yaptirmadim": 8266,
      "▁duvarı": 8267,
      "▁perakende": 8268,
      "▁kr": 8269,
      "▁yorgan": 8270,
      "▁tencereyi": 8271,
      "▁yalan": 8272,
      "▁onundeki": 8273,
      "▁arastır": 8274,
      "▁sapka": 8275,
      "▁ron": 8276,
      "▁puanlık": 8277,
      "▁kurulmus": 8278,
      "▁nasıl": 8279,
      "##eri": 8280,
      "##ie": 8281,
      "▁gorunus": 8282,
      "▁bahtiyar": 8283,
      "▁buradan": 8284,
      "▁lisan": 8285,
      "▁piyasaların": 8286,
      "▁yasan": 8287,
      "##luk": 8288,
      "▁rehberimiz": 8289,
      "##dasını": 8290,
      "▁rakı": 8291,
      "▁yolculugun": 8292,
      "##landıgını": 8293,
      "▁hemsire": 8294,
      "▁suclam": 8295,
      "▁teshir": 8296,
      "▁aslı": 8297,
      "▁uygu": 8298,
      "##sali": 8299,
      "▁degi": 8300,
      "▁so": 8301,
      "▁liralık": 8302,
      "▁atalarımızın": 8303,
      "▁ydı": 8304,
      "▁inancı": 8305,
      "##ucular": 8306,
      "##in": 8307,
      "▁sebepleri": 8308,
      "▁gorevine": 8309,
      "##ell": 8310,
      "▁basarılı": 8311,
      "##isli": 8312,
      "▁jaguar": 8313,
      "▁alar": 8314,
      "▁kartel": 8315,
      "▁ciz": 8316,
      "##uver": 8317,
      "▁brosur": 8318,
      "▁iktid": 8319,
      "▁muamelesi": 8320,
      "▁fincanını": 8321,
      "▁iletisim": 8322,
      "##layan": 8323,
      "##enn": 8324,
      "▁ucuslarda": 8325,
      "▁vis": 8326,
      "▁soylemedi": 8327,
      "▁ilgilendi": 8328,
      "▁yagm": 8329,
      "▁gosterisi": 8330,
      "▁zeka": 8331,
      "##gundu": 8332,
      "▁ısrar": 8333,
      "▁tedavul": 8334,
      "▁cesitliydi": 8335,
      "##igimi": 8336,
      "▁kulturune": 8337,
      "##lanan": 8338,
      "▁universit": 8339,
      "##tir": 8340,
      "▁kerem": 8341,
      "▁belirsizlik": 8342,
      "##iste": 8343,
      "▁toparlanma": 8344,
      "▁doları": 8345,
      "▁vucut": 8346,
      "▁alana": 8347,
      "##kin": 8348,
      "▁zamanla": 8349,
      "##inc": 8350,
      "▁bufe": 8351,
      "##cut": 8352,
      "▁birlesme": 8353,
      "##macı": 8354,
      "▁kalıb": 8355,
      "▁astr": 8356,
      "▁gan": 8357,
      "##ıf": 8358,
      "▁devrim": 8359,
      "##iniz": 8360,
      "▁hareketle": 8361,
      "▁kayıpların": 8362,
      "##anlarim": 8363,
      "▁hizmetinden": 8364,
      "▁asagı": 8365,
      "▁kaldırdı": 8366,
      "▁ak": 8367,
      "▁sezlon": 8368,
      "▁anım": 8369,
      "▁yunus": 8370,
      "▁ucurt": 8371,
      "##alı": 8372,
      "▁luks": 8373,
      "▁uretim": 8374,
      "▁ilkeleri": 8375,
      "▁dilde": 8376,
      "▁bav": 8377,
      "▁oyuncusu": 8378,
      "▁golg": 8379,
      "##etidir": 8380,
      "##ununun": 8381,
      "▁tahkim": 8382,
      "##uldu": 8383,
      "▁maddeleri": 8384,
      "##ekler": 8385,
      "▁kalktı": 8386,
      "##ılar": 8387,
      "▁kadav": 8388,
      "▁artıslar": 8389,
      "▁odayi": 8390,
      "##lendigini": 8391,
      "▁golge": 8392,
      "##ustuk": 8393,
      "▁verime": 8394,
      "▁anket": 8395,
      "##oru": 8396,
      "▁ihtilaf": 8397,
      "▁balık": 8398,
      "▁hal": 8399,
      "▁;": 8400,
      "##masına": 8401,
      "▁cekirde": 8402,
      "##acagımı": 8403,
      "▁kucagına": 8404,
      "▁hile": 8405,
      "▁basamak": 8406,
      "▁teknenin": 8407,
      "▁spor": 8408,
      "▁icindir": 8409,
      "▁if": 8410,
      "▁unvan": 8411,
      "##emesini": 8412,
      "▁yasayan": 8413,
      "▁duyg": 8414,
      "▁uluslar": 8415,
      "▁oturu": 8416,
      "▁misin": 8417,
      "▁kent": 8418,
      "▁gali": 8419,
      "▁oc": 8420,
      "▁piyasası": 8421,
      "##imore": 8422,
      "##hwest": 8423,
      "▁kume": 8424,
      "▁artısı": 8425,
      "▁kosullarda": 8426,
      "▁pak": 8427,
      "▁onlemler": 8428,
      "##fet": 8429,
      "##acıları": 8430,
      "▁peynir": 8431,
      "##inler": 8432,
      "▁onumuzde": 8433,
      "▁kutuphane": 8434,
      "▁sigarasını": 8435,
      "▁istemiyor": 8436,
      "▁zember": 8437,
      "##erik": 8438,
      "▁onune": 8439,
      "▁esyalarını": 8440,
      "▁babasının": 8441,
      "▁kabahat": 8442,
      "▁dogur": 8443,
      "##leleri": 8444,
      "▁kata": 8445,
      "▁derken": 8446,
      "▁elbise": 8447,
      "▁hatıra": 8448,
      "▁demokras": 8449,
      "▁karyol": 8450,
      "▁general": 8451,
      "▁kudret": 8452,
      "▁nedenler": 8453,
      "▁katılımcı": 8454,
      "r": 8455,
      "▁kole": 8456,
      "▁kayna": 8457,
      "##osuna": 8458,
      "▁tasımaya": 8459,
      "##usup": 8460,
      "##og": 8461,
      "▁atesten": 8462,
      "▁oldugumuz": 8463,
      "▁bolun": 8464,
      "▁tahammul": 8465,
      "##izmi": 8466,
      "##dir": 8467,
      "▁gecis": 8468,
      "##tif": 8469,
      "▁hayalet": 8470,
      "▁edilebilir": 8471,
      "▁bahtiy": 8472,
      "▁yarısının": 8473,
      "##su": 8474,
      "▁malzem": 8475,
      "▁bayr": 8476,
      "▁talebinin": 8477,
      "▁ederdi": 8478,
      "▁sozun": 8479,
      "##yayı": 8480,
      "▁1.2": 8481,
      "▁dili": 8482,
      "▁erkeklere": 8483,
      "▁kaka": 8484,
      "##cilerin": 8485,
      "##lo": 8486,
      "▁cabalarını": 8487,
      "▁agızlarına": 8488,
      "▁kaldır": 8489,
      "▁gemiler": 8490,
      "▁savcılık": 8491,
      "▁gunleri": 8492,
      "▁istif": 8493,
      "▁kazası": 8494,
      "▁uzman": 8495,
      "▁sırtına": 8496,
      "▁tartısmayı": 8497,
      "▁fotografta": 8498,
      "▁5'te": 8499,
      "▁katal": 8500,
      "▁fazlası": 8501,
      "▁dusecegini": 8502,
      "▁otomobil": 8503,
      "##ral": 8504,
      "▁imal": 8505,
      "##ge": 8506,
      "▁televizyonda": 8507,
      "▁samimiyet": 8508,
      "▁kokuyor": 8509,
      "▁isi": 8510,
      "▁programın": 8511,
      "▁odasının": 8512,
      "▁konusunu": 8513,
      "▁yargı": 8514,
      "##osunda": 8515,
      "▁nisp": 8516,
      "▁capta": 8517,
      "##mli": 8518,
      "##uncaya": 8519,
      "▁dal": 8520,
      "##onto": 8521,
      "##kun": 8522,
      "▁kredi": 8523,
      "▁gerek": 8524,
      "▁bircok": 8525,
      "##real": 8526,
      "▁gelge": 8527,
      "##reet": 8528,
      "▁sozlesmesi": 8529,
      "▁indi": 8530,
      "▁sahıs": 8531,
      "##co": 8532,
      "▁deng": 8533,
      "▁kapının": 8534,
      "▁di": 8535,
      "▁denilen": 8536,
      "▁tasarruflar": 8537,
      "▁yuzmek": 8538,
      "▁cocuklarını": 8539,
      "▁aklına": 8540,
      "▁kullanımı": 8541,
      "##name": 8542,
      "▁damga": 8543,
      "▁bır": 8544,
      "##iran": 8545,
      "▁yiyor": 8546,
      "▁orası": 8547,
      "▁cevabını": 8548,
      "▁temyiz": 8549,
      "▁gecenin": 8550,
      "▁yerlerden": 8551,
      "##liye": 8552,
      "▁kodunu": 8553,
      "##yar": 8554,
      "▁mahkemede": 8555,
      "##iyeler": 8556,
      "▁reasur": 8557,
[...]
