{
  "version": "1.0",
  "truncation": null,
  "padding": null,
  "added_tokens": [
    {
      "id": 747,
      "content": "[SEP]",
      "single_word": false,
      "lstrip": false,
      "rstrip": false,
      "normalized": false,
      "special": true
    },
    {
      "id": 3129,
      "content": "[CLS]",
      "single_word": false,
      "lstrip": false,
      "rstrip": false,
      "normalized": false,
      "special": true
    },
    {
      "id": 12223,
      "content": "[UNK]",
      "single_word": false,
      "lstrip": false,
      "rstrip": false,
      "normalized": false,
      "special": true
    },
    {
      "id": 13465,
      "content": "[MASK]",
      "single_word": false,
      "lstrip": false,
      "rstrip": false,
      "normalized": false,
      "special": true
    },
    {
      "id": 14270,
      "content": "[PAD]",
      "single_word": false,
      "lstrip": false,
      "rstrip": false,
      "normalized": false,
      "special": true
    }
  ],
  "normalizer": {
    "type": "Sequence",
    "normalizers": [
      {
        "type": "NFD"
      },
      {
        "type": "Lowercase"
      },
      {
        "type": "StripAccents"
      }
    ]
  },
  "pre_tokenizer": {
    "type": "Sequence",
    "pretokenizers": [
      {
        "type": "Metaspace",
        "replacement": "▁",
        "prepend_scheme": "always",
        "split": true
      }
    ]
  },
  "post_processor": {
    "type": "TemplateProcessing",
    "single": [
      {
        "SpecialToken": {
          "id": "[CLS]",
          "type_id": 0
        }
      },
      {
        "Sequence": {
          "id": "A",
          "type_id": 0
        }
      },
      {
        "SpecialToken": {
          "id": "[SEP]",
          "type_id": 0
        }
      }
    ],
    "pair": [
      {
        "SpecialToken": {
          "id": "[CLS]",
          "type_id": 0
        }
      },
      {
        "Sequence": {
          "id": "A",
          "type_id": 0
        }
      },
      {
        "SpecialToken": {
          "id": "[SEP]",
          "type_id": 0
        }
      },
      {
        "Sequence": {
          "id": "B",
          "type_id": 1
        }
      },
      {
        "SpecialToken": {
          "id": "[SEP]",
          "type_id": 1
        }
      }
    ],
    "special_tokens": {
      "[CLS]": {
        "id": "[CLS]",
        "ids": [
          3129
        ],
        "tokens": [
          "[CLS]"
        ]
      },
      "[SEP]": {
        "id": "[SEP]",
        "ids": [
          747
        ],
        "tokens": [
          "[SEP]"
        ]
      }
    }
  },
  "decoder": {
    "type": "Metaspace",
    "replacement": "▁",
    "prepend_scheme": "always",
    "split": true
  },
  "model": {
    "type": "BPE",
    "dropout": null,
    "unk_token": "[UNK]",
    "continuing_subword_prefix": null,
    "end_of_word_suffix": null,
    "fuse_unk": false,
    "byte_fallback": false,
    "ignore_merges": false,
    "vocab": {
      "▁karısına": 0,
      "▁muthis": 1,
      "▁sentten": 2,
      "ılabilir": 3,
      "▁adamların": 4,
      "▁minibus": 5,
      "▁ucretle": 6,
      "▁araba": 7,
      "▁yaslarda": 8,
      "▁ekledi": 9,
      "▁giderek": 10,
      "▁biriminin": 11,
      "▁araclar": 12,
      "▁yil": 13,
      "▁yasası": 14,
      "uh": 15,
      "▁yaptıgını": 16,
      "▁donemin": 17,
      "▁vakıf": 18,
      "lıdır": 19,
      "▁ceyrege": 20,
      "▁degillerdi": 21,
      "▁tahsil": 22,
      "▁cevresinin": 23,
      "▁universitesi": 24,
      "ıldım": 25,
      "▁kurs": 26,
      "▁bıcak": 27,
      "ule": 28,
      "▁mevsim": 29,
      "▁yasaları": 30,
      "▁olas": 31,
      "ken": 32,
      "▁yonetime": 33,
      "▁al": 34,
      "▁sorusu": 35,
      "▁dev": 36,
      "▁halkı": 37,
      "▁yılb": 38,
      "▁ureticisinin": 39,
      "▁kongre": 40,
      "▁oldugumuz": 41,
      "▁memlekete": 42,
      "▁kıraat": 43,
      "▁tasıt": 44,
      "emizi": 45,
      "▁cevrede": 46,
      "▁&": 47,
      "▁seher": 48,
      "▁parkı": 49,
      "▁kıymetleriyle": 50,
      "▁kosullarına": 51,
      "▁metaller": 52,
      "▁bucagından": 53,
      "▁yetkililerinin": 54,
      "▁yalnızlık": 55,
      "mayla": 56,
      "▁patronu": 57,
      "▁bosu": 58,
      "▁mi": 59,
      "elim": 60,
      "▁ramazan": 61,
      "adel": 62,
      "▁munaseb": 63,
      "▁mutlaka": 64,
      "▁dini": 65,
      "iyi": 66,
      "▁surecte": 67,
      "▁dısa": 68,
      "erindeki": 69,
      "▁iyice": 70,
      "▁istem": 71,
      "eginin": 72,
      "▁tahminleri": 73,
      "▁toprakta": 74,
      "▁karanlıkta": 75,
      "▁icaz": 76,
      "veri": 77,
      "▁ucuslara": 78,
      "▁ulkenin": 79,
      "ırtılar": 80,
      "▁tul": 81,
      "▁endiselen": 82,
      "▁bib": 83,
      "cegi": 84,
      "▁tek": 85,
      "sel": 86,
      "▁dilber": 87,
      "▁subat": 88,
      "allah": 89,
      "▁kazan": 90,
      "▁salınc": 91,
      "▁koken": 92,
      "▁hukum": 93,
      "▁maddenin": 94,
      "▁arama": 95,
      "isim": 96,
      "tikten": 97,
      "▁rezalet": 98,
      "▁ucretini": 99,
      "▁duzgun": 100,
      "▁dolusu": 101,
      "▁yaralan": 102,
      "▁dansı": 103,
      "digim": 104,
      "ımla": 105,
      "▁basınc": 106,
      "▁erkegi": 107,
      "▁basyaz": 108,
      "unu": 109,
      "▁uzuntu": 110,
      "▁gelisme": 111,
      "5'de": 112,
      "kanlıgı": 113,
      "▁feda": 114,
      "▁golgesi": 115,
      "▁sikinti": 116,
      "▁koyden": 117,
      "▁gerekli": 118,
      "graf": 119,
      "▁gelirlerinin": 120,
      "▁sozc": 121,
      "▁dogrul": 122,
      "▁bekl": 123,
      "▁pazar": 124,
      "▁sınırlar": 125,
      "▁gemiler": 126,
      "▁tutacak": 127,
      "▁isimlerini": 128,
      "▁tik": 129,
      "▁23": 130,
      "d": 131,
      "▁ortadan": 132,
      "▁obu": 133,
      "▁aranmak": 134,
      "▁atesi": 135,
      "▁kutlama": 136,
      "deri": 137,
      "duz": 138,
      "▁bankalarının": 139,
      "▁amel": 140,
      "arlandı": 141,
      "▁cak": 142,
      "▁meydana": 143,
      "▁fark": 144,
      "▁sera": 145,
      "▁pazara": 146,
      "▁merdivenin": 147,
      "▁per": 148,
      "▁cozumler": 149,
      "▁aksamın": 150,
      "▁ayni": 151,
      "▁ismini": 152,
      "p'nin": 153,
      "ogret": 154,
      "▁kart": 155,
      "pr": 156,
      "▁surum": 157,
      "▁renklerin": 158,
      "▁temizligini": 159,
      "labil": 160,
      "▁basarısız": 161,
      "▁yasından": 162,
      "▁hissesine": 163,
      "▁gelistiri": 164,
      "▁cesi": 165,
      "▁redingot": 166,
      "▁gormedigini": 167,
      "▁dagdan": 168,
      "▁tesisi": 169,
      "▁romatizm": 170,
      "▁oldugundan": 171,
      "▁%1": 172,
      "▁nedeniyle": 173,
      "▁gozlerle": 174,
      "▁gorusu": 175,
      "▁lig": 176,
      "malıyım": 177,
      "▁birco": 178,
      "▁ilgilenmediler": 179,
      "▁altından": 180,
      "ılt": 181,
      "izde": 182,
      "▁kuvvetli": 183,
      "▁oyunları": 184,
      "▁fakul": 185,
      "▁izni": 186,
      "▁donemi": 187,
      "tılı": 188,
      "agım": 189,
      "▁endustrisinin": 190,
      "▁arasına": 191,
      "▁ayak": 192,
      "▁klasik": 193,
      "▁onlerine": 194,
      "▁oglunun": 195,
      "▁etkisi": 196,
      "▁unvan": 197,
      "edikten": 198,
      "▁birinde": 199,
      "▁dunyası": 200,
      "▁cozum": 201,
      "▁bankacılar": 202,
      "▁icti": 203,
      "▁beye": 204,
      "▁garanti": 205,
      "▁fazlaydi": 206,
      "▁hit": 207,
      "▁yonetimin": 208,
      "▁bolgelerinde": 209,
      "bert": 210,
      "▁acıklanmadı": 211,
      "▁tut": 212,
      "▁bav": 213,
      "▁kasa": 214,
      "rek": 215,
      "piyon": 216,
      "▁bakıyor": 217,
      "▁ez": 218,
      "▁birbirimiz": 219,
      "▁kalemleri": 220,
      "▁kacırdı": 221,
      "▁yerel": 222,
      "tay": 223,
      "▁tezk": 224,
      "▁oteye": 225,
      "▁asagida": 226,
      "▁der": 227,
      "akını": 228,
      "▁etegi": 229,
      "▁eyalette": 230,
      "▁saldır": 231,
      "▁acik": 232,
      "▁elbis": 233,
      "▁yazık": 234,
      "▁davranmak": 235,
      "▁adliye": 236,
      "desi": 237,
      "6": 238,
      "▁avans": 239,
      "tum": 240,
      "▁cevaplar": 241,
      "inizde": 242,
      "▁intih": 243,
      "▁karsısına": 244,
      "▁nah": 245,
      "▁mort": 246,
      "▁sirketten": 247,
      "▁degiller": 248,
      "dim": 249,
      "lıgının": 250,
      "▁kestir": 251,
      "▁aynı": 252,
      "ost": 253,
      "ash": 254,
      "lıların": 255,
      "lamalar": 256,
      "▁meselesi": 257,
      "▁vuk": 258,
      "▁mutfakta": 259,
      "▁onune": 260,
      "▁kulliyat": 261,
      "▁must": 262,
      "▁bircok": 263,
      "▁hassas": 264,
      "▁sevimli": 265,
      "▁getirilerinin": 266,
      "mazlık": 267,
      "▁yonune": 268,
      "▁birileri": 269,
      "▁hastal": 270,
      "gal": 271,
      "▁uydur": 272,
      "'dan": 273,
      "▁dısisleri": 274,
      "▁ov": 275,
      "▁pirz": 276,
      "▁meydan": 277,
      "▁ai": 278,
      "▁cocukluk": 279,
      "ann": 280,
      "▁cakı": 281,
      "▁guver": 282,
      "diye": 283,
      "▁kis": 284,
      "▁9'dan": 285,
      "lerimizi": 286,
      "▁caz": 287,
      "▁guvensizlik": 288,
      "▁kapsamında": 289,
      "▁davranislari": 290,
      "ugunde": 291,
      "▁glob": 292,
      "▁gozet": 293,
      "▁kazancın": 294,
      "▁lokasyonu": 295,
      "urken": 296,
      "▁belg": 297,
      "▁reformu": 298,
      "▁his": 299,
      "meyle": 300,
      "▁kupon": 301,
      "▁bagım": 302,
      "▁osmanlı": 303,
      "▁cope": 304,
      "▁kac": 305,
      "otlar": 306,
      "ogram": 307,
      "▁leble": 308,
      "▁sahipligi": 309,
      "▁muav": 310,
      "▁doku": 311,
      "dugumdan": 312,
      "▁gencliginde": 313,
      "▁oteller": 314,
      "▁kadar": 315,
      "00'": 316,
      "▁dı": 317,
      "▁aksine": 318,
      "anından": 319,
      "▁dip": 320,
      "▁odu": 321,
      "▁artıslarına": 322,
      "▁bıyıkları": 323,
      "▁hotel": 324,
      "▁uzaklarda": 325,
      "▁vatanı": 326,
      "ass": 327,
      "▁avru": 328,
      "likte": 329,
      "▁yapıldı": 330,
      "▁maclarda": 331,
      "lıcı": 332,
      "▁test": 333,
      "▁yalı": 334,
      "▁kahram": 335,
      "▁yit": 336,
      "ft": 337,
      "▁gotur": 338,
      "ergah": 339,
      "▁kalf": 340,
      "▁pilotlar": 341,
      "ıp": 342,
      "▁lub": 343,
      "▁wall": 344,
      "araj": 345,
      "eli": 346,
      "▁bolgeleri": 347,
      "▁kosullarda": 348,
      "tc": 349,
      "▁darbukasını": 350,
      "▁kaput": 351,
      "▁rok": 352,
      "▁cekir": 353,
      "▁icerde": 354,
      "▁yonlendirdi": 355,
      "▁buyumenin": 356,
      "agı": 357,
      "▁konsol": 358,
      "▁bahcı": 359,
      "▁yasak": 360,
      "▁itiraf": 361,
      "▁yiyecekler": 362,
      "her": 363,
      "ayın": 364,
      "▁iliskilerini": 365,
      "adde": 366,
      "▁ozgu": 367,
      "duy": 368,
      "emiz": 369,
      "▁cekic": 370,
      "ion": 371,
      "cısı": 372,
      "dugune": 373,
      "▁insan": 374,
      "▁yarısı": 375,
      "▁hakika": 376,
      "▁senden": 377,
      "erken": 378,
      "▁yolculuk": 379,
      "tanbul": 380,
      "yetli": 381,
      "▁agzımı": 382,
      "▁memlekette": 383,
      "▁rot": 384,
      "▁cesaretini": 385,
      "▁ya": 386,
      "▁haber": 387,
      "▁digerine": 388,
      "▁barut": 389,
      "▁danısmanlık": 390,
      "▁almasını": 391,
      "ustr": 392,
      "▁konuya": 393,
      "▁sehrinde": 394,
      "▁cıkıs": 395,
      "▁temmuz'da": 396,
      "▁kod": 397,
      "▁devi": 398,
      "▁genelkurmay": 399,
      "▁birbirler": 400,
      "▁imz": 401,
      "▁silahı": 402,
      "▁sayısını": 403,
      "▁hafta": 404,
      "▁kuvv": 405,
      "▁fut": 406,
      "▁ulastı": 407,
      ">": 408,
      "▁yaptıgı": 409,
      "▁kapsam": 410,
      "ifti": 411,
      "▁zev": 412,
      "isme": 413,
      "▁bash": 414,
      "r": 415,
      "▁kuzey": 416,
      "▁heyecanla": 417,
      "▁gun": 418,
      "▁onunla": 419,
      "lara": 420,
      "▁louis'e": 421,
      "▁kıymetleri": 422,
      "▁secimlerde": 423,
      "▁genc": 424,
      "▁hazir": 425,
      "▁evr": 426,
      "▁tatbik": 427,
      "▁havasını": 428,
      "▁cekti": 429,
      "▁ediyorlar": 430,
      "▁pec": 431,
      "▁oranı": 432,
      "▁heps": 433,
      "▁askına": 434,
      "▁toz": 435,
      "▁olanlar": 436,
      "▁yoldan": 437,
      "▁oksur": 438,
      "▁yapabil": 439,
      "▁bizler": 440,
      "ırlı": 441,
      "▁aylık": 442,
      "▁yapı": 443,
      "▁konusur": 444,
      "▁gorgu": 445,
      "uluyor": 446,
      "rada": 447,
      "▁birin": 448,
      "eklen": 449,
      "▁tazmin": 450,
      "alarına": 451,
      "lardi": 452,
      "▁nobet": 453,
      "▁ailesinin": 454,
      "▁okuldan": 455,
      "▁muhakkak": 456,
      "▁oncelikle": 457,
      "▁kazanım": 458,
      "▁kalın": 459,
      "▁adında": 460,
      "▁manzar": 461,
      "▁100000": 462,
      "duk": 463,
      "▁cıkmaya": 464,
      "▁boga": 465,
      "▁yerinin": 466,
      "▁yedikten": 467,
      "▁parlamento": 468,
      "ums": 469,
      "▁ucrete": 470,
      "▁st": 471,
      "mesiyle": 472,
      "▁onsu": 473,
      "▁turkiye": 474,
      "▁gorusleri": 475,
      "▁baskı": 476,
      "▁demec": 477,
      "▁limanda": 478,
      "▁spekulator": 479,
      "▁komplek": 480,
      "tı": 481,
      "▁genclerin": 482,
      "▁kayıplar": 483,
      "▁yurtd": 484,
      "▁cisim": 485,
      "eki": 486,
      "hw": 487,
      "▁yurum": 488,
      "▁iskonto": 489,
      "leyin": 490,
      "▁londra": 491,
      "▁girisimi": 492,
      "▁sunları": 493,
      "▁ibm": 494,
      "▁yaparım": 495,
      "▁katına": 496,
      "▁ogrencilerin": 497,
      "▁rotar": 498,
      "▁yuregim": 499,
      "▁hacmi": 500,
      "▁mahkum": 501,
      "▁calıstır": 502,
      "▁terbiy": 503,
      "▁fast": 504,
      "▁askerlik": 505,
      "▁uyelik": 506,
      "▁cıktıktan": 507,
      "▁cıkmıstı": 508,
      "▁kl": 509,
      "▁gal": 510,
      "daki": 511,
      "▁tarla": 512,
      "▁fik": 513,
      "▁kosede": 514,
      "▁insanlıga": 515,
      "▁efsane": 516,
      "▁ambargo": 517,
      "▁isletmelere": 518,
      "▁karı": 519,
      "'nden": 520,
      "ina": 521,
      "angi": 522,
      "▁beb": 523,
      "▁yatır": 524,
      "uldum": 525,
      "ucunun": 526,
      "▁lirayı": 527,
      "▁fonlarının": 528,
      "▁savasta": 529,
      "▁risk": 530,
      "yle": 531,
      "▁dunyayı": 532,
      "▁gunese": 533,
      "▁odedi": 534,
      "igim": 535,
      "▁getiri": 536,
      "▁katır": 537,
      "▁ihtiyar": 538,
      "▁yukseliyor": 539,
      "▁ureticileri": 540,
      ";": 541,
      "▁akıllı": 542,
      "▁arb": 543,
      "▁sı": 544,
      "▁govdes": 545,
      "▁avize": 546,
      "▁iyisi": 547,
      "▁dedim": 548,
      "▁tohumları": 549,
      "▁evrenin": 550,
      "▁kin": 551,
      "▁telas": 552,
      "▁cozul": 553,
      "▁odasının": 554,
      "▁nebze": 555,
      "▁dostu": 556,
      "▁hediye": 557,
      "▁yumuk": 558,
      "▁kend": 559,
      "▁kam": 560,
      "▁muhtac": 561,
      "30": 562,
      "▁montreal'a": 563,
      "▁parc": 564,
      "▁faaliyetlerinin": 565,
      "▁elmas": 566,
      "lerinizi": 567,
      "▁ipotekleri": 568,
      "▁1\\/2": 569,
      "▁tacir": 570,
      "apolis": 571,
      "lulerin": 572,
      "amadı": 573,
      "▁gormek": 574,
      "kım": 575,
      "▁arayısı": 576,
      "▁siy": 577,
      "▁yardimci": 578,
      "▁za": 579,
      "▁dirsek": 580,
      "▁kendilerinden": 581,
      "▁baslarda": 582,
      "▁salas": 583,
      "▁firması": 584,
      "▁islemlere": 585,
      "▁12'si": 586,
      "▁dusurmeye": 587,
      "▁a.b.": 588,
      "▁diplomat": 589,
      "makta": 590,
      "palı": 591,
      "▁masrafları": 592,
      "▁tahkikat": 593,
      "▁itim": 594,
      "▁ihr": 595,
      "▁odenek": 596,
      "▁ekim": 597,
      "▁bayiler": 598,
      "▁kıymet": 599,
      "iyorlardi": 600,
      "▁ofisi": 601,
      "▁!": 602,
      "vas": 603,
      "▁konusmaya": 604,
      "▁merak": 605,
      "▁paranın": 606,
      "▁musluman": 607,
      "▁gormezden": 608,
      "▁adı": 609,
      "▁defter": 610,
      "▁personellerinden": 611,
      "▁tarih": 612,
      "▁kadınla": 613,
      "▁the": 614,
      "slı": 615,
      "▁parcasını": 616,
      "▁adamının": 617,
      "▁enflasyonun": 618,
      "magını": 619,
      "▁gordug": 620,
      "▁liseyi": 621,
      "alarında": 622,
      "▁sırtını": 623,
      "▁vers": 624,
      "▁isciler": 625,
      "▁cekip": 626,
      "andır": 627,
      "▁benimle": 628,
      "▁kanun": 629,
      "▁tahminlerinin": 630,
      "▁ramp": 631,
      "▁binbası": 632,
      "▁soyle": 633,
      "▁istil": 634,
      "$": 635,
      "▁sır": 636,
      "▁basarılar": 637,
      "▁davasında": 638,
      "▁rahatti": 639,
      "▁kulaklarına": 640,
      "▁ert": 641,
      "ind": 642,
      "▁gozumun": 643,
      "▁enstit": 644,
      "▁mich": 645,
      "▁bakı": 646,
      "▁tavsiy": 647,
      "▁malzemesi": 648,
      "▁istegi": 649,
      "▁gomlek": 650,
      "▁suik": 651,
      "▁gencin": 652,
      "▁tasarım": 653,
      "▁kabugu": 654,
      "▁kurtardı": 655,
      "edeki": 656,
      "▁prensesi": 657,
      "amı": 658,
      "▁ugur": 659,
      "▁cihazı": 660,
      "▁yarattı": 661,
      "▁zeytiny": 662,
      "▁ep": 663,
      "▁mukabele": 664,
      "▁albay": 665,
      "▁halihazırda": 666,
      "▁kahvelerin": 667,
      "esim": 668,
      "nc": 669,
      "▁abdul": 670,
      "▁milli": 671,
      "▁yazdı": 672,
      "▁yılları": 673,
      "▁uluslararası": 674,
      "▁kampanyalar": 675,
      "elleri": 676,
      "▁burnundan": 677,
      "▁programlarının": 678,
      "▁ofiste": 679,
      "▁karsısında": 680,
      "▁golgesinde": 681,
      "▁bildigini": 682,
      "▁titriyordu": 683,
      "▁hekimi": 684,
      "lenmek": 685,
      "▁reddetti": 686,
      "▁persembe": 687,
      "misler": 688,
      "aldı": 689,
      "▁ailesini": 690,
      "▁gag": 691,
      "yınca": 692,
      "▁ucuz": 693,
      "ızın": 694,
      "▁ontar": 695,
      "▁odemek": 696,
      "▁kolayca": 697,
      "▁bizle": 698,
      "▁ırmak": 699,
      "▁yaptirmadim": 700,
      "▁dayım": 701,
      "▁goruyoruz": 702,
      "▁ice": 703,
      "▁baslık": 704,
      "▁kullanılıyor": 705,
      "▁vucudunu": 706,
      "▁yakında": 707,
      "▁orgut": 708,
      "allas": 709,
      "▁dusunmuyor": 710,
      "how": 711,
      "▁etkileri": 712,
      "▁sayısının": 713,
      "lesmis": 714,
      "▁geldiginde": 715,
      "▁gecerli": 716,
      "▁sozune": 717,
      "▁fırının": 718,
      "▁kap": 719,
      "▁tatmin": 720,
      "▁yabanci": 721,
      "deydi": 722,
      "▁subay": 723,
      "▁sist": 724,
      "▁bosal": 725,
      "▁20.": 726,
      "adına": 727,
      "1'e": 728,
      "ruk": 729,
      "▁bilgiye": 730,
      "▁muslum": 731,
      "▁cen": 732,
      "▁oturuyor": 733,
      "▁odasindan": 734,
      "▁deger": 735,
      "▁bolgede": 736,
      "▁edilmedi": 737,
      "▁loc": 738,
      "▁dogum": 739,
      "ecegim": 740,
      "▁traj": 741,
      "▁mallar": 742,
      "▁memnunuz": 743,
      "▁kitabın": 744,
      "▁yaptirdi": 745,
      "▁duyuyorum": 746,
      "[SEP]": 747,
      "ikt": 748,
      "▁yururlukte": 749,
      "▁zamanlar": 750,
      "▁gelmisti": 751,
      "▁ok": 752,
      "▁lez": 753,
      "▁pencereyi": 754,
      "▁kamar": 755,
      "▁planim": 756,
      "ırmak": 757,
      "▁icer": 758,
      "▁sınıfı": 759,
      "▁isgucu": 760,
      "▁plana": 761,
      "▁doları'na": 762,
      "medim": 763,
      "narak": 764,
      "▁ihtiyacımız": 765,
      "▁donemine": 766,
      "▁dola": 767,
      "▁kırık": 768,
      "▁teseb": 769,
      "▁kadifeden": 770,
      "pe": 771,
      "▁kuvvet": 772,
      "▁yaptıg": 773,
      "▁hıy": 774,
      "▁bayramı": 775,
      "▁kanunlar": 776,
      "etr": 777,
      "▁agaclardan": 778,
      "▁erdog": 779,
      "▁avantajı": 780,
      "▁tok": 781,
      "▁gucuyle": 782,
      "edikleri": 783,
      "▁obj": 784,
      "▁sıf": 785,
      "ahh": 786,
      "▁gerileme": 787,
      "▁alır": 788,
      "▁adamı": 789,
      "kleri": 790,
      "▁dine": 791,
      "ranc": 792,
      "▁olumu": 793,
      "▁bakanlıgı'nın": 794,
      "▁tarlaları": 795,
      "▁kabukları": 796,
      "▁otesi": 797,
      "▁kargasa": 798,
      "▁hay": 799,
      "ıklarını": 800,
      "▁olu": 801,
      "▁nedenler": 802,
      "▁palt": 803,
      "▁yazarlarının": 804,
      "▁yapraklar": 805,
      "asindan": 806,
      "▁yurttas": 807,
      "▁davulu": 808,
      "▁ilcesinde": 809,
      "▁5.5": 810,
      "▁kafil": 811,
      "ec": 812,
      "▁tabiat": 813,
      "▁lid": 814,
      "▁davul": 815,
      "▁pazarının": 816,
      "iyordum": 817,
      "lamanın": 818,
      "▁hicbirini": 819,
      "anının": 820,
      "▁kavur": 821,
      "▁fiyatlara": 822,
      "▁sutu": 823,
      "▁ri": 824,
      "▁ilgilendiler": 825,
      "▁borek": 826,
      "mesinin": 827,
      "lup": 828,
      "▁girip": 829,
      "▁seyin": 830,
      "▁koymus": 831,
      "ilendir": 832,
      "▁dusus": 833,
      "▁kestane": 834,
      "▁gorusmeleri": 835,
      "▁ispirto": 836,
      "▁hac": 837,
      "▁sivil": 838,
      "uttur": 839,
      "malıydı": 840,
      "ofon": 841,
      "▁koymak": 842,
      "▁du": 843,
      "▁dusurdu": 844,
      "malarına": 845,
      "▁biri": 846,
      "▁siparisini": 847,
      "▁seviyorum": 848,
      "▁uygulan": 849,
      "kah": 850,
      "lerinin": 851,
      "tu": 852,
      "▁kisinin": 853,
      "bul": 854,
      "▁pop": 855,
      "▁gerceklesti": 856,
      "ediklerini": 857,
      "▁ons": 858,
      "▁etmeye": 859,
      "▁rezervasyonlardan": 860,
      "▁hedef": 861,
      ".9": 862,
      "▁ideal": 863,
      "3": 864,
      "▁idar": 865,
      "▁mıydı": 866,
      "▁calis": 867,
      "aları": 868,
      "▁omru": 869,
      "uyup": 870,
      "▁merrill": 871,
      "▁ekonomisi": 872,
      "▁karsıma": 873,
      "▁lev": 874,
      "▁rak": 875,
      "▁secildi": 876,
      "▁phoeni": 877,
      "▁studyo": 878,
      "▁islet": 879,
      "▁yazınız": 880,
      "▁yapmadim": 881,
      "▁cekmeye": 882,
      "▁degirmen": 883,
      "▁kisisel": 884,
      "▁deve": 885,
      "▁balıkcı": 886,
      "▁kavramlar": 887,
      "▁verdim": 888,
      "▁destekl": 889,
      "kunu": 890,
      "▁newark": 891,
      "▁cag": 892,
      "▁yargıc": 893,
      "▁sevinc": 894,
      "▁yataklar": 895,
      "▁gununden": 896,
      "▁istikrar": 897,
      "▁cıkarken": 898,
      "isiniz": 899,
      "▁digerleri": 900,
      "▁hocamız": 901,
      "ulu": 902,
      "iger": 903,
      "ladım": 904,
      "▁guvenc": 905,
      "▁cekis": 906,
      "▁havuzu": 907,
      "ilerle": 908,
      "ekte": 909,
      "▁yukunu": 910,
      "cok": 911,
      "ına": 912,
      "medi": 913,
      "▁vucu": 914,
      "elir": 915,
      "▁cekmek": 916,
      "▁istedi": 917,
      "▁universitede": 918,
      "▁mutlul": 919,
      "▁mudafa": 920,
      "▁sic": 921,
      "▁basından": 922,
      "egine": 923,
      "▁cazib": 924,
      "▁doneminde": 925,
      "▁olgun": 926,
      "▁islemler": 927,
      "malık": 928,
      "▁onceden": 929,
      "▁unu": 930,
      "▁teyp": 931,
      "▁tamamıyla": 932,
      "ahi": 933,
      "▁ulasimi": 934,
      "trilyon": 935,
      "ield": 936,
      "▁1970'": 937,
      "siye": 938,
      "▁se": 939,
      "▁maddeye": 940,
      "▁yanisira": 941,
      "▁ucretlerini": 942,
      "▁havuzlari": 943,
      "lest": 944,
      "▁peki": 945,
      "▁deri": 946,
      "▁dagı": 947,
      "▁kapılar": 948,
      "▁durumunda": 949,
      "▁ekstra": 950,
      "▁vazife": 951,
      "▁lik": 952,
      "▁adama": 953,
      "retli": 954,
      "▁akla": 955,
      "▁sube": 956,
      "▁raporunu": 957,
      "orleri": 958,
      "▁kimin": 959,
      "paz": 960,
      "amızda": 961,
      "▁sabaha": 962,
      "▁sorunları": 963,
      "▁oyunlarının": 964,
      "makıllı": 965,
      "▁ihtiy": 966,
      "▁cihazlar": 967,
      "▁tedavulde": 968,
      "▁vasıta": 969,
      "▁yemeginden": 970,
      "▁alabilir": 971,
      "▁infil": 972,
      "sis": 973,
      "▁felsefesi": 974,
      "ıldıktan": 975,
      "▁bir": 976,
      "▁17": 977,
      "▁tuketic": 978,
      "dıkca": 979,
      "cegini": 980,
      "▁borcunu": 981,
      "▁zer": 982,
      "iligini": 983,
      "▁soz": 984,
      "▁cabayı": 985,
      "▁odanın": 986,
      "▁yakalama": 987,
      "lanmıstır": 988,
      "▁sevki": 989,
      "▁finc": 990,
      "adır": 991,
      "▁tel": 992,
      "ılı": 993,
      "▁los": 994,
      "ıldıgında": 995,
      "▁taahh": 996,
      "indedir": 997,
      "▁ucusun": 998,
      "▁stratejiyi": 999,
      "▁pas": 1000,
      "lanıyor": 1001,
      "▁yakıt": 1002,
      "▁odanin": 1003,
      "6'ya": 1004,
      "▁giysi": 1005,
      "dip": 1006,
      "▁verg": 1007,
      "▁yal": 1008,
      "▁halatlar": 1009,
      "▁katılımcı": 1010,
      "▁odasından": 1011,
      "▁misafirleri": 1012,
      "▁bu": 1013,
      "▁gozunu": 1014,
      "su": 1015,
      "biri": 1016,
      "▁kuny": 1017,
      "▁ogesi": 1018,
      "▁onunu": 1019,
      "▁kimliklerini": 1020,
      "▁kostur": 1021,
      "▁yonunde": 1022,
      "▁degi": 1023,
      "▁kilogram": 1024,
      "ileb": 1025,
      "▁endiseleri": 1026,
      "▁konak": 1027,
      "▁gelis": 1028,
      "▁yuksel": 1029,
      "▁bahceleri": 1030,
      "erli": 1031,
      "▁restoran": 1032,
      "eor": 1033,
      "lis": 1034,
      "▁mul": 1035,
      "▁hacmin": 1036,
      "▁gazel": 1037,
      "▁belgeler": 1038,
      "▁minneapolis": 1039,
      "▁arkadan": 1040,
      "▁buyukluk": 1041,
      "▁orgutun": 1042,
      "▁katil": 1043,
      "ence": 1044,
      "▁torba": 1045,
      "▁rekabet": 1046,
      "▁duz": 1047,
      "▁irmik": 1048,
      "▁eristi": 1049,
      "▁arabaya": 1050,
      "▁tahvil": 1051,
      ".000": 1052,
      "▁puani": 1053,
      "▁zehir": 1054,
      "▁golg": 1055,
      "▁kalite": 1056,
      "▁guv": 1057,
      "itesi": 1058,
      "▁zann": 1059,
      "▁dekorasyon": 1060,
      "▁menkul": 1061,
      "▁simsek": 1062,
      "▁piy": 1063,
      "▁tahminler": 1064,
      "▁kapasit": 1065,
      "▁bolgenin": 1066,
      "vi": 1067,
      "▁yaslar": 1068,
      "▁dolaptan": 1069,
      "▁alıcılar": 1070,
      "▁olum": 1071,
      "▁dısı": 1072,
      "tileri": 1073,
      "▁havayı": 1074,
      "cesi": 1075,
      "▁sandıgı": 1076,
      "▁seref": 1077,
      "erleri": 1078,
      "▁doları'ndan": 1079,
      "▁secenekler": 1080,
      "▁yapmak": 1081,
      "ildik": 1082,
      "▁derecelen": 1083,
      "▁tur": 1084,
      "ılıgın": 1085,
      "▁satımında": 1086,
      "▁set": 1087,
      "▁yonlerden": 1088,
      "dıgımı": 1089,
      "▁beline": 1090,
      "▁tepki": 1091,
      "▁bolumunu": 1092,
      "▁mac": 1093,
      "▁kısı": 1094,
      "▁soylediler": 1095,
      "▁hatun": 1096,
      "▁puan": 1097,
      "▁izin": 1098,
      "▁yiyeceklerden": 1099,
      "▁noktaya": 1100,
      "▁komuru": 1101,
      "▁kucagına": 1102,
      "lesi": 1103,
      "kca": 1104,
      "cut": 1105,
      "▁rej": 1106,
      "lag": 1107,
      "▁kayı": 1108,
      "▁kosk": 1109,
      "▁paydos": 1110,
      "▁arab": 1111,
      "tin": 1112,
      "▁artık": 1113,
      "▁kullanılan": 1114,
      "▁gayet": 1115,
      "▁kasar": 1116,
      "layın": 1117,
      "▁elden": 1118,
      "ılmasına": 1119,
      "udur": 1120,
      "lo": 1121,
      "tiniz": 1122,
      "▁verdigimiz": 1123,
      "ni": 1124,
      "▁mamafi": 1125,
      "▁bonosu": 1126,
      "▁bolgesine": 1127,
      "▁cıkarmayı": 1128,
      "▁asans": 1129,
      "▁piyasalarda": 1130,
      "▁zamankinden": 1131,
      "▁yagı": 1132,
      "▁domatesleri": 1133,
      "ginden": 1134,
      "desine": 1135,
      "▁atlanta'dan": 1136,
      "▁fıs": 1137,
      "ınlık": 1138,
      "uruz": 1139,
      "▁bucuk": 1140,
      "▁kat": 1141,
      "▁takdim": 1142,
      "▁isleme": 1143,
      "▁141": 1144,
      "ısır": 1145,
      "▁firma": 1146,
      "▁agız": 1147,
      "gis": 1148,
      "▁kullanarak": 1149,
      "adım": 1150,
      "▁ayse": 1151,
      "▁sidd": 1152,
      "▁milyonluk": 1153,
      "▁silahlı": 1154,
      "▁fol": 1155,
      "nan": 1156,
      "▁hazır": 1157,
      "▁acıkladı": 1158,
      "▁mahall": 1159,
      "▁divan": 1160,
      "▁medy": 1161,
      "p": 1162,
      "▁yerlestir": 1163,
      "▁sudan": 1164,
      "iyetinde": 1165,
      "ro": 1166,
      "▁bık": 1167,
      "ator": 1168,
      "i'nin": 1169,
      "▁girer": 1170,
      "▁dayı": 1171,
      "▁kitleye": 1172,
      "▁vermeyi": 1173,
      "leyici": 1174,
      "▁seviyesine": 1175,
      "ing": 1176,
      "▁kapıya": 1177,
      "▁sirketlerinden": 1178,
      "▁hissine": 1179,
      "▁kıta": 1180,
      "▁macın": 1181,
      "▁kufur": 1182,
      "▁ortusu": 1183,
      "almaya": 1184,
      "▁soy": 1185,
      "▁hol": 1186,
      "▁ileride": 1187,
      "kta": 1188,
      "▁muda": 1189,
      "▁sınıfın": 1190,
      "▁tın": 1191,
      "▁kurus": 1192,
      "▁kadir": 1193,
      "▁port": 1194,
      "odu": 1195,
      "▁protokol": 1196,
      "▁vaktinde": 1197,
      "uzin": 1198,
      "▁levazım": 1199,
      "▁cerceve": 1200,
      "▁garip": 1201,
      "▁mermer": 1202,
      "▁yazıyı": 1203,
      "-p": 1204,
      "▁yuks": 1205,
      "essus": 1206,
      "▁kimyasal": 1207,
      "▁ink": 1208,
      "▁konfor": 1209,
      "▁kalitesini": 1210,
      "▁kavanoz": 1211,
      "▁getirilerin": 1212,
      "▁turistlerin": 1213,
      "ıllı": 1214,
      "▁bassav": 1215,
      "▁usta": 1216,
      "▁expr": 1217,
      "▁huner": 1218,
      "▁2017": 1219,
      "▁komunist": 1220,
      "▁normaldi": 1221,
      "▁aklınız": 1222,
      "▁politikası": 1223,
      "▁kusku": 1224,
      "▁secimi": 1225,
      "▁rahmet": 1226,
      "▁aza": 1227,
      "▁sesleri": 1228,
      "▁tep": 1229,
      "▁hucum": 1230,
      "▁feder": 1231,
      "▁aleyhinde": 1232,
      "▁istihbar": 1233,
      "▁fabrikası": 1234,
      "▁tarafında": 1235,
      "▁cav": 1236,
      "▁alamadik": 1237,
      "om": 1238,
      "▁aile": 1239,
      "▁yukseltti": 1240,
      "▁hazırlanısı": 1241,
      "▁yaz": 1242,
      "▁mahal": 1243,
      "▁memur": 1244,
      "▁piyasanın": 1245,
      "▁pilotların": 1246,
      "▁yse": 1247,
      "▁isveren": 1248,
      "lukta": 1249,
      "▁tereddut": 1250,
      "▁analizciler": 1251,
      "▁milwaukee'den": 1252,
      "▁isteklerimizi": 1253,
      "indeyiz": 1254,
      "ibaren": 1255,
      "cilikle": 1256,
      "▁parki": 1257,
      "▁parcaları": 1258,
      "▁isti": 1259,
      "▁hasret": 1260,
      "temelen": 1261,
      "▁ulkemizde": 1262,
      "▁fiyatı": 1263,
      "▁kaybetti": 1264,
      "▁turkler": 1265,
      "▁sezlong": 1266,
      "▁ciger": 1267,
      "▁oya": 1268,
      "▁davayı": 1269,
      "▁tanıt": 1270,
      "▁asagı": 1271,
      "▁yaklasimi": 1272,
      "▁doksan": 1273,
      "ibi": 1274,
      "▁beyzbol": 1275,
      "▁sin": 1276,
      "▁hissedar": 1277,
      "▁borcun": 1278,
      "▁yedir": 1279,
      "lıkları": 1280,
      "mesi": 1281,
      "▁aslında": 1282,
      "▁penceresinden": 1283,
      "▁kisilerle": 1284,
      "/4'e": 1285,
      ".375": 1286,
      "▁pis": 1287,
      "men": 1288,
      "▁guclerin": 1289,
      "▁korkusu": 1290,
      "uza": 1291,
      "▁dogruya": 1292,
      "▁bedeli": 1293,
      "▁gazetesinde": 1294,
      "▁soguk": 1295,
      "tem": 1296,
      "iren": 1297,
      "▁olgu": 1298,
      "tigine": 1299,
      "▁yurek": 1300,
      "ecegini": 1301,
      "▁farkına": 1302,
      "▁kapmak": 1303,
      "▁krok": 1304,
      "▁istasyon": 1305,
      "▁dizlerine": 1306,
      "▁vucuda": 1307,
      "▁kalabalık": 1308,
      "▁cerr": 1309,
      "▁oteli": 1310,
      "▁planlıyor": 1311,
      "icinin": 1312,
      "▁eldiven": 1313,
      "▁grub": 1314,
      "“": 1315,
      "lek": 1316,
      "ettim": 1317,
      "▁kanto": 1318,
      "▁hayli": 1319,
      "▁cant": 1320,
      "▁opucuk": 1321,
      "▁nasihat": 1322,
      "▁sıkıntısını": 1323,
      "lanmaya": 1324,
      "▁hisselerine": 1325,
      "▁dukkanları": 1326,
      "▁entr": 1327,
      "▁kazaz": 1328,
      "▁endustri": 1329,
      "▁cesaret": 1330,
      "▁gerektigine": 1331,
      "▁ziyade": 1332,
      "lin": 1333,
      "▁gozalt": 1334,
      "▁kilo": 1335,
      "▁cocugunu": 1336,
      "▁basbakanı": 1337,
      "▁sade": 1338,
      "▁ucuza": 1339,
      "▁teknik": 1340,
      "▁yelken": 1341,
      "▁kib": 1342,
      "yabil": 1343,
      "▁toplantı": 1344,
      "▁uzan": 1345,
      "ilecek": 1346,
      "den": 1347,
      "▁suru": 1348,
      "▁business": 1349,
      "▁havalimanı'nda": 1350,
      "▁sonundan": 1351,
      "▁altmıs": 1352,
      "▁ucusunu": 1353,
      "▁memleketin": 1354,
      "▁caresizlik": 1355,
      "▁burcu": 1356,
      "▁arkadasimla": 1357,
      "▁toplumunun": 1358,
      "▁maymun": 1359,
      "▁halefi": 1360,
      "▁entari": 1361,
      "▁kurtulus": 1362,
      "▁ihtiyat": 1363,
      "▁izledi": 1364,
      "▁ayrıntılarıyla": 1365,
      "5'": 1366,
      "us": 1367,
      "kse": 1368,
      "'la": 1369,
      "▁sabun": 1370,
      "wa": 1371,
      "iy": 1372,
      "▁yetisk": 1373,
      "ilme": 1374,
      "▁yapıt": 1375,
      "▁beklem": 1376,
      "▁tersine": 1377,
      "▁acılım": 1378,
      "▁havası": 1379,
      "▁herhangi": 1380,
      "▁gecip": 1381,
      "▁hesap": 1382,
      "▁falan": 1383,
      "egi": 1384,
      "▁filan": 1385,
      "▁talebin": 1386,
      "​": 1387,
      "▁acak": 1388,
      "▁soyadı": 1389,
      "ugunu": 1390,
      "▁a": 1391,
      "▁senetleri": 1392,
      "▁1991'de": 1393,
      "▁boynu": 1394,
      "▁dilenci": 1395,
      "▁pazarlarda": 1396,
      "▁tepe": 1397,
      "▁atın": 1398,
      "▁havaalanı'na": 1399,
      "▁dagları": 1400,
      "▁kitab": 1401,
      "ayol": 1402,
      "▁acılıyor": 1403,
      "▁vakit": 1404,
      "▁karn": 1405,
      "umuzu": 1406,
      "ose": 1407,
      "▁mangal": 1408,
      "agın": 1409,
      "▁sebeplerden": 1410,
      "▁sipar": 1411,
      "▁yuzbası": 1412,
      "▁kapıcı": 1413,
      "▁sonucta": 1414,
      "▁kadında": 1415,
      "itten": 1416,
      "▁hak": 1417,
      "▁hafifce": 1418,
      "▁yeni": 1419,
      "▁kıyıda": 1420,
      "▁buf": 1421,
      "▁animasyonlari": 1422,
      "alif": 1423,
      "▁maddes": 1424,
      "▁donemden": 1425,
      "▁pest": 1426,
      "▁bilgilerine": 1427,
      "▁gerdan": 1428,
      "▁hid": 1429,
      "▁istemis": 1430,
      "▁gorunen": 1431,
      "▁tim": 1432,
      "▁kullanmadik": 1433,
      "▁cıv": 1434,
      "mıslardı": 1435,
      "▁sente": 1436,
      "mıstır": 1437,
      "▁onemli": 1438,
      "▁haklarına": 1439,
      "7'nin": 1440,
      "▁sessizce": 1441,
      "lemesi": 1442,
      "geleri": 1443,
      "luya": 1444,
      "▁oyuna": 1445,
      "madi": 1446,
      "▁aff": 1447,
      "▁kıyamet": 1448,
      "▁kume": 1449,
      "▁bır": 1450,
      "sak": 1451,
      "▁tet": 1452,
      "▁olmuyor": 1453,
      "y": 1454,
      "▁olanaklari": 1455,
      "▁serg": 1456,
      "▁atılım": 1457,
      "▁buyum": 1458,
      "orn": 1459,
      "▁surpriz": 1460,
      "▁kıc": 1461,
      "▁mimarlık": 1462,
      "▁kazanclar": 1463,
      "▁baskanlıgı": 1464,
      "▁37": 1465,
      "▁edebilir": 1466,
      "akar": 1467,
      "▁duvarlarında": 1468,
      "▁gorus": 1469,
      "istler": 1470,
      "▁tav": 1471,
      "▁yildiz": 1472,
      "▁sacların": 1473,
      "ersey": 1474,
      "iliyor": 1475,
      "▁birbirine": 1476,
      "dv": 1477,
      "▁hosg": 1478,
      "▁ote": 1479,
      "▁zorun": 1480,
      "▁otlar": 1481,
      "▁sıcrama": 1482,
      "▁emrini": 1483,
      "dırdı": 1484,
      "▁atese": 1485,
      "▁yuzuk": 1486,
      "▁istinaden": 1487,
      "ınt": 1488,
      "ıyım": 1489,
      "▁telef": 1490,
      "sek": 1491,
      "▁gozunden": 1492,
      "▁sp": 1493,
      "teye": 1494,
      "▁roman": 1495,
      "▁ordusunun": 1496,
      "▁gunlerin": 1497,
      "▁masaj": 1498,
      "▁buyumeye": 1499,
      "▁hazin": 1500,
      "▁cikista": 1501,
      "liyordu": 1502,
      "▁nisan": 1503,
      "ulan": 1504,
      "▁bahtiy": 1505,
      "▁cevabı": 1506,
      "ustuk": 1507,
      "ecilerin": 1508,
      "va": 1509,
      "▁fonların": 1510,
      "▁alısveris": 1511,
      "▁azade": 1512,
      "▁ilac": 1513,
      "▁y": 1514,
      "▁ki": 1515,
      "e'nin": 1516,
      "▁hokk": 1517,
      "▁iftih": 1518,
      "▁canlı": 1519,
      "▁cul": 1520,
      "hn": 1521,
      "▁goruntu": 1522,
      "▁takımın": 1523,
      "▁donustu": 1524,
      "▁sad": 1525,
      "▁benzin": 1526,
      "▁temmuzda": 1527,
      "▁imkanlari": 1528,
      "▁tutmaya": 1529,
      "▁miktarı": 1530,
      "▁gereken": 1531,
      "▁meht": 1532,
      "▁idaresi": 1533,
      "▁apartmana": 1534,
      "▁sım": 1535,
      "▁dardi": 1536,
      "▁mekan": 1537,
      "▁teg": 1538,
      "▁insanlara": 1539,
      "▁insaatı": 1540,
      "▁koltuguna": 1541,
      "▁kahkaha": 1542,
      "▁pat": 1543,
      "▁ederken": 1544,
      "▁yardımı": 1545,
      "acan": 1546,
      "▁toplumun": 1547,
      "ydı": 1548,
      "▁kit": 1549,
      "30'dan": 1550,
      "5": 1551,
      "▁sanmıyorum": 1552,
      "▁zek": 1553,
      "▁devrimci": 1554,
      "▁hemsire": 1555,
      "kuz": 1556,
      "▁adeta": 1557,
      "▁birden": 1558,
      "▁sessiz": 1559,
      "▁kord": 1560,
      "▁toplantılarda": 1561,
      "▁in": 1562,
      "larım": 1563,
      "▁derken": 1564,
      "ımızın": 1565,
      "▁kazanmak": 1566,
      "▁tecessus": 1567,
      "▁istir": 1568,
      "▁nice": 1569,
      "▁dısına": 1570,
      "▁memuru": 1571,
      "▁kosesinde": 1572,
      "▁acık": 1573,
      "▁baskanın": 1574,
      "armak": 1575,
      "▁inek": 1576,
      "▁seyahate": 1577,
      "ast": 1578,
      "▁karyol": 1579,
      "▁sofrasında": 1580,
      "▁ekib": 1581,
      "▁wash": 1582,
      "▁antik": 1583,
      "alık": 1584,
      "▁muhafazakar": 1585,
      "mekten": 1586,
      "▁giren": 1587,
      "50": 1588,
      "▁kapandıktan": 1589,
      "▁efsanesi": 1590,
      "▁nakliy": 1591,
      "▁markaları": 1592,
      "er": 1593,
      "rak": 1594,
      "▁saatlere": 1595,
      "▁telefonla": 1596,
      "▁yus": 1597,
      "lasır": 1598,
      "▁parayi": 1599,
      "▁suclamaları": 1600,
      "edigim": 1601,
      "gisi": 1602,
      "▁karar": 1603,
      "▁mantık": 1604,
      "▁karlı": 1605,
      "▁meh": 1606,
      "▁sıtma": 1607,
      "▁sıcaktan": 1608,
      "olojisi": 1609,
      "▁pacaları": 1610,
      "istan": 1611,
      "masında": 1612,
      "uston": 1613,
      "▁yetersizligi": 1614,
      "tir": 1615,
      "▁mab": 1616,
      "ifi": 1617,
      "▁ucları": 1618,
      "▁yagmur": 1619,
      "acaklar": 1620,
      "▁gorusunu": 1621,
      "▁ipotekler": 1622,
      "▁sairleri": 1623,
      "▁onumuz": 1624,
      "danoz": 1625,
      "▁hasta": 1626,
      "▁gozune": 1627,
      "▁olma": 1628,
      "umuze": 1629,
      "▁kans": 1630,
      "▁ide": 1631,
      "▁kurk": 1632,
      "▁suyun": 1633,
      "▁ikisi": 1634,
      "▁kızın": 1635,
      "▁durumuna": 1636,
      "kon": 1637,
      "▁mahkem": 1638,
      "▁fiyatina": 1639,
      "▁arm": 1640,
      "▁kaptan": 1641,
      "▁tehdid": 1642,
      "▁omrunde": 1643,
      "▁bunlardan": 1644,
      "▁universiteyi": 1645,
      "arson": 1646,
      "mayacak": 1647,
      "▁birtak": 1648,
      "▁insaat": 1649,
      "▁fa": 1650,
      "▁mıyım": 1651,
      "▁ulu": 1652,
      "▁gog": 1653,
      "egen": 1654,
      "▁alınması": 1655,
      "▁1/4": 1656,
      "▁kel": 1657,
      "elige": 1658,
      "maz": 1659,
      "▁fin": 1660,
      "▁isk": 1661,
      "▁zan": 1662,
      "▁ruya": 1663,
      "cu": 1664,
      "▁nerde": 1665,
      "▁sapma": 1666,
      "▁planda": 1667,
      "ıntıları": 1668,
      "▁verdig": 1669,
      "ulmaz": 1670,
      "▁orij": 1671,
      "larımıza": 1672,
      "▁kompleksi": 1673,
      "▁yapmaya": 1674,
      "▁basla": 1675,
      "▁sch": 1676,
      "gum": 1677,
      "▁hukm": 1678,
      "▁sonucların": 1679,
      "▁birlesimi": 1680,
      "▁usulca": 1681,
      "▁hizmette": 1682,
      "▁yildizli": 1683,
      "iyetli": 1684,
      "▁sart": 1685,
      "▁yiyecekleri": 1686,
      "tern": 1687,
      "▁giriyor": 1688,
      "▁tahkik": 1689,
      "▁yemeni": 1690,
      "ultu": 1691,
      "▁asist": 1692,
      "xpr": 1693,
      "elemek": 1694,
      "▁disinda": 1695,
      "▁kadınlardan": 1696,
      "▁koop": 1697,
      "▁yuzluydu": 1698,
      "▁denizden": 1699,
      "▁siddete": 1700,
      "▁zem": 1701,
      "▁kaybe": 1702,
      "▁dusmanı": 1703,
      "sik": 1704,
      "▁surun": 1705,
      "▁ucunu": 1706,
      "▁utu": 1707,
      "▁ster": 1708,
      "▁mend": 1709,
      "og": 1710,
      "47": 1711,
      "estr": 1712,
      "gin": 1713,
      "saydı": 1714,
      "▁gunlerinin": 1715,
      "▁aleme": 1716,
      "▁dun": 1717,
      "▁babasından": 1718,
      "▁yasanan": 1719,
      "▁ine": 1720,
      "▁hava": 1721,
      "▁buny": 1722,
      "▁kanada": 1723,
      "▁ruzgarı": 1724,
      "▁zeytinyagı": 1725,
      "▁muhafaza": 1726,
      "▁maddesi": 1727,
      "▁taze": 1728,
      "say": 1729,
      "'a": 1730,
      "▁hocası": 1731,
      "▁yapmadıgını": 1732,
      "▁edemey": 1733,
      "▁destegi": 1734,
      "legin": 1735,
      "larınla": 1736,
      "▁zarif": 1737,
      "▁binanın": 1738,
      "▁memnun": 1739,
      "▁ann": 1740,
      "unuz": 1741,
      "▁tat": 1742,
      "▁geride": 1743,
      "b": 1744,
      "▁charlotte'den": 1745,
      "▁sırada": 1746,
      "lım": 1747,
      "▁fan": 1748,
      "▁car": 1749,
      "▁avrupa'da": 1750,
      "▁soluk": 1751,
      "▁etmenin": 1752,
      "▁ebe": 1753,
      "ant": 1754,
      "▁derg": 1755,
      "▁muay": 1756,
      "ont": 1757,
      "▁liraya": 1758,
      "▁tepk": 1759,
      "▁islemlerinin": 1760,
      "▁ekibinin": 1761,
      "▁itirazlar": 1762,
      "▁satıslarda": 1763,
      "ustur": 1764,
      "▁arabayı": 1765,
      "▁tadına": 1766,
      "▁burosu": 1767,
      "mer": 1768,
      "▁mutlu": 1769,
      "▁kenarında": 1770,
      "▁muhac": 1771,
      "aja": 1772,
      "▁dususu": 1773,
      "▁anlamına": 1774,
      "▁kayg": 1775,
      "▁seniz": 1776,
      "▁kımıl": 1777,
      "▁bekleniyor": 1778,
      "ki": 1779,
      "▁ofisleri": 1780,
      "▁pencereye": 1781,
      "lenmesine": 1782,
      "cılıgı": 1783,
      "▁hayatın": 1784,
      "uslu": 1785,
      "akat": 1786,
      "▁yapıp": 1787,
      "an'ın": 1788,
      "▁arastır": 1789,
      "▁rehberden": 1790,
      "▁lezzeti": 1791,
      "asyonun": 1792,
      "▁dis": 1793,
      "▁cırp": 1794,
      "▁kalkan": 1795,
      "▁gali": 1796,
      "▁tutar": 1797,
      "9'da": 1798,
      "menin": 1799,
      "▁yabanc": 1800,
      "▁por": 1801,
      "▁oksuz": 1802,
      "▁vermis": 1803,
      "dırma": 1804,
      "▁kaliteliydi": 1805,
      "▁resep": 1806,
      "desini": 1807,
      "▁giderken": 1808,
      "▁kadavra": 1809,
      "▁parmaklarıyla": 1810,
      "▁kosul": 1811,
      "▁400": 1812,
      "▁sirke": 1813,
      "▁maliyetlerin": 1814,
      "▁ikamet": 1815,
      "yım": 1816,
      "▁keder": 1817,
      "▁ardı": 1818,
      "▁otesinde": 1819,
      "sini": 1820,
      "gıc": 1821,
      "▁artısın": 1822,
      "▁malz": 1823,
      "emiydi": 1824,
      "▁kizim": 1825,
      "▁dakik": 1826,
      "▁mutfak": 1827,
      "▁sesle": 1828,
      "ıntı": 1829,
      "▁koprunun": 1830,
      "▁amca": 1831,
      "▁temin": 1832,
      "▁saglama": 1833,
      "▁lamb": 1834,
      "▁biraz": 1835,
      "lasıyor": 1836,
      "atin": 1837,
      "▁ozellikle": 1838,
      "▁ulasılamadı": 1839,
      "▁dusunceleri": 1840,
      "▁gosterisi": 1841,
      "▁vasıf": 1842,
      "▁ucuslarınız": 1843,
      "▁hamuru": 1844,
      "▁gecmesi": 1845,
      "▁piyasaya": 1846,
      "dugumuz": 1847,
      "ıgıyla": 1848,
      "▁misafirimize": 1849,
      "▁bahseder": 1850,
      "▁gecmisi": 1851,
      "▁karının": 1852,
      "esini": 1853,
      "▁kova": 1854,
      "▁olmayı": 1855,
      "▁teyit": 1856,
      "af": 1857,
      "▁gerekse": 1858,
      "▁kızıl": 1859,
      "▁usak": 1860,
      "▁zarf": 1861,
      "istel": 1862,
      "▁yazısı": 1863,
      "▁parmakları": 1864,
      "umde": 1865,
      "▁iyiligini": 1866,
      "▁melek": 1867,
      "erv": 1868,
      "▁verilir": 1869,
      "▁cene": 1870,
      "▁macında": 1871,
      "▁mudurlugu": 1872,
      "▁kapsamlı": 1873,
      "▁dede": 1874,
      "▁indirimi": 1875,
      "▁normal": 1876,
      "▁urunu": 1877,
      "▁onayı": 1878,
      "▁kapanısına": 1879,
      "▁soh": 1880,
      "▁kooperatif": 1881,
      "sadı": 1882,
      "ligin": 1883,
      "▁tavana": 1884,
      "kor": 1885,
      "▁tasvir": 1886,
      "▁senetlerinin": 1887,
      "▁bizleri": 1888,
      "▁evlat": 1889,
      "oseksu": 1890,
      "▁kisilerin": 1891,
      "▁parcacıklar": 1892,
      "▁ik": 1893,
      "▁cumle": 1894,
      "▁istek": 1895,
      "▁sarayın": 1896,
      "▁hediy": 1897,
      "▁kayd": 1898,
      "eden": 1899,
      "▁mamafih": 1900,
      "iste": 1901,
      "▁hissetti": 1902,
      "▁zarfın": 1903,
      "▁sını": 1904,
      "ıma": 1905,
      "▁iste": 1906,
      "▁farz": 1907,
      "▁dunyaya": 1908,
      "▁aktivite": 1909,
      "▁7.8": 1910,
      "▁fincanı": 1911,
      "▁sarkıcı": 1912,
      "▁tunel": 1913,
      "stra": 1914,
      "▁cız": 1915,
      "▁departman": 1916,
      "▁yanisi": 1917,
      "▁oglak": 1918,
      "untu": 1919,
      "▁ziyaret": 1920,
      "▁hile": 1921,
      "▁madem": 1922,
      "▁hob": 1923,
      "ag": 1924,
      "▁kazanclara": 1925,
      "▁sultan": 1926,
      "▁vergiler": 1927,
      "▁cıkarmak": 1928,
      "▁istanbul": 1929,
      "samba": 1930,
      "▁esv": 1931,
      "ıyordum": 1932,
      "▁gozler": 1933,
      ".38": 1934,
      "mazlar": 1935,
      "▁taz": 1936,
      "cuh": 1937,
      "▁muhaseb": 1938,
      "▁damla": 1939,
      "▁genelde": 1940,
      "▁bulacak": 1941,
      "▁59": 1942,
      "▁hub": 1943,
      "▁cicek": 1944,
      "▁mahsul": 1945,
      "ade": 1946,
      "▁``": 1947,
      "▁vis": 1948,
      "▁gecimini": 1949,
      "▁faizleri": 1950,
      "▁sipahi": 1951,
      "ezi": 1952,
      "▁kolay": 1953,
      "asinda": 1954,
      "▁bırakıyor": 1955,
      "ecekleri": 1956,
      "▁kuruluslar": 1957,
      "▁kitap": 1958,
      "▁diyor": 1959,
      "ktır": 1960,
      "▁degis": 1961,
      "▁puandan": 1962,
      "▁islemlerin": 1963,
      "▁gelismeler": 1964,
      "lesini": 1965,
      "▁ortamına": 1966,
      "▁enistemiz": 1967,
      "▁armagan": 1968,
      "▁hayvan": 1969,
      "▁ortalama": 1970,
      "▁sened": 1971,
      "▁denizi": 1972,
      "madim": 1973,
      "▁piyasa": 1974,
      "▁teklifini": 1975,
      "▁birik": 1976,
      "7'de": 1977,
      "▁oden": 1978,
      "▁efendi": 1979,
      "▁kofte": 1980,
      "▁eksikler": 1981,
      "▁kurumlar": 1982,
      "▁bakla": 1983,
      "lemek": 1984,
      "▁zemin": 1985,
      "ahlık": 1986,
      "▁gormuyor": 1987,
      "▁karan": 1988,
      "▁yanıt": 1989,
      "▁kostum": 1990,
      "c": 1991,
      "▁yolcu": 1992,
      "▁ogleden": 1993,
      "▁yılı": 1994,
      "oroz": 1995,
      "▁dalgalan": 1996,
      "ra": 1997,
      "tmi": 1998,
      "▁lav": 1999,
      "edig": 2000,
      "▁piyango": 2001,
      "▁kimseye": 2002,
      "unluk": 2003,
      "9'un": 2004,
      "▁gogsunun": 2005,
      "ask": 2006,
      "dana": 2007,
      "▁kapatmak": 2008,
      "▁hataları": 2009,
      "▁seneden": 2010,
      "▁ayrı": 2011,
      "▁yasay": 2012,
      "ell": 2013,
      "▁eskiydi": 2014,
      "artma": 2015,
      "dıgından": 2016,
      "ster": 2017,
      "▁sak": 2018,
      "▁gereksin": 2019,
      "▁zavallı": 2020,
      "▁adıyla": 2021,
      "▁yazıları": 2022,
      "▁mevcut": 2023,
      "▁bildir": 2024,
      "uzları": 2025,
      "▁serveti": 2026,
      "▁balta": 2027,
      "mıs": 2028,
      "▁muess": 2029,
      "▁olaydan": 2030,
      "▁sanıyorum": 2031,
      "▁hapis": 2032,
      "▁yede": 2033,
      "▁yukselise": 2034,
      "▁cirit": 2035,
      "ark": 2036,
      "▁bilez": 2037,
      "▁seb": 2038,
      "▁fuze": 2039,
      "▁cinsiyet": 2040,
      "▁gecenin": 2041,
      "landıgını": 2042,
      "▁toren": 2043,
      "▁derde": 2044,
      "▁okyan": 2045,
      "▁taksim": 2046,
      "▁yemeklerden": 2047,
      "▁acılar": 2048,
      "▁ulasımı": 2049,
      "▁tov": 2050,
      "▁fiyatından": 2051,
      "▁rek": 2052,
      "▁tutul": 2053,
      "▁$'dan": 2054,
      "▁gul": 2055,
      "▁tas": 2056,
      "umdan": 2057,
      "▁cumhuriyet": 2058,
      "▁gider": 2059,
      "▁eserin": 2060,
      "▁koru": 2061,
      "▁ilim": 2062,
      "siy": 2063,
      "imizden": 2064,
      "▁sise": 2065,
      "▁defa": 2066,
      "▁aktarmasız": 2067,
      "osuna": 2068,
      "▁borsada": 2069,
      "▁cic": 2070,
      "mac": 2071,
      "▁kısın": 2072,
      "leleri": 2073,
      "▁cıkarları": 2074,
      "laması": 2075,
      "▁odul": 2076,
      "▁ula": 2077,
      "ibine": 2078,
      "▁tarifesini": 2079,
      "▁yangından": 2080,
      "lelim": 2081,
      "▁deneyim": 2082,
      "mız": 2083,
      "▁karak": 2084,
      "▁cocugu": 2085,
      "▁antikor": 2086,
      "▁sahan": 2087,
      "▁201": 2088,
      "▁kalab": 2089,
      "▁siyaset": 2090,
      "▁gordu": 2091,
      "▁nam": 2092,
      "▁depremi": 2093,
      "▁depremde": 2094,
      "▁bakanlar": 2095,
      "▁deng": 2096,
      "▁kılıc": 2097,
      "▁1'de": 2098,
      "eldir": 2099,
      "▁vakfı": 2100,
      "▁mademki": 2101,
      "▁sabahları": 2102,
      "▁muhend": 2103,
      "▁sofraya": 2104,
      "▁van": 2105,
      "▁basvur": 2106,
      "▁donum": 2107,
      "naya": 2108,
      "okul": 2109,
      "tanı": 2110,
      "▁tavuk": 2111,
      "▁malları": 2112,
      "▁endek": 2113,
      "▁gitmeye": 2114,
      "▁tak": 2115,
      "▁''": 2116,
      "▁zum": 2117,
      "▁alıs": 2118,
      "▁sicak": 2119,
      "▁aramak": 2120,
      "▁turs": 2121,
      "▁kopr": 2122,
      "cek": 2123,
      "▁sayfa": 2124,
      "▁ekl": 2125,
      "leme": 2126,
      "uya": 2127,
      "▁kazanc": 2128,
      ".125": 2129,
      "▁pittsburgh": 2130,
      "▁havayolları": 2131,
      "▁mek": 2132,
      "cel": 2133,
      "▁paylasım": 2134,
      "▁yorgunluktan": 2135,
      "▁dallas": 2136,
      "ıza": 2137,
      "▁alttan": 2138,
      "▁astı": 2139,
      "▁karsilama": 2140,
      "▁ihmal": 2141,
      "▁karmasası": 2142,
      "▁ikiye": 2143,
      "evi": 2144,
      "▁par": 2145,
      "ısım": 2146,
      "▁senenin": 2147,
      "▁mesaj": 2148,
      "▁darb": 2149,
      "▁beyefendi": 2150,
      "▁dag": 2151,
      "eyn": 2152,
      "▁verdik": 2153,
      "▁kelim": 2154,
      "▁kurnaz": 2155,
      "▁degerler": 2156,
      "▁dim": 2157,
      "▁topraga": 2158,
      "▁arabul": 2159,
      "▁getirdi": 2160,
      "▁bilimleri": 2161,
      "▁hakkinda": 2162,
      "▁kisiye": 2163,
      "▁sucu": 2164,
      "▁bakımdan": 2165,
      "▁haklar": 2166,
      "▁mimar": 2167,
      "▁problemleri": 2168,
      "ime": 2169,
      "▁ihale": 2170,
      "▁piyanonun": 2171,
      "▁zamandır": 2172,
      "eyi": 2173,
      "atli": 2174,
      "▁ocagın": 2175,
      "▁kabiliyeti": 2176,
      "▁ona": 2177,
      "duguna": 2178,
      "▁canavar": 2179,
      "▁boru": 2180,
      "▁cinsten": 2181,
      "▁tahvili": 2182,
      "lege": 2183,
      "msal": 2184,
      "▁mar": 2185,
      "lanacak": 2186,
      "▁m": 2187,
      "▁aldılar": 2188,
      "▁haric": 2189,
      "▁1.0": 2190,
      "▁lam": 2191,
      "▁gonderdi": 2192,
      "▁satılan": 2193,
      "▁bayan": 2194,
      "yor": 2195,
      "dogu": 2196,
      "▁ayrica": 2197,
      "▁kadr": 2198,
      "▁yerleri": 2199,
      "▁laborat": 2200,
      "▁kotums": 2201,
      "eri": 2202,
      "▁ettig": 2203,
      "▁cikol": 2204,
      "▁geciyor": 2205,
      "aver": 2206,
      "▁duvar": 2207,
      "▁ekonomisini": 2208,
      "▁etmemek": 2209,
      "▁emegi": 2210,
      "▁oldugumu": 2211,
      "▁birbirlerini": 2212,
      "▁anla": 2213,
      "ılıgıyla": 2214,
      "▁cub": 2215,
      "▁birbiri": 2216,
      "▁tacirler": 2217,
      "▁etiket": 2218,
      "▁yurtdısında": 2219,
      "▁universiteye": 2220,
      "▁kacak": 2221,
      "▁ayının": 2222,
      "▁kuralları": 2223,
      "lerdeki": 2224,
      "▁havasında": 2225,
      "larındaki": 2226,
      "▁saatlerinde": 2227,
      "lit": 2228,
      "▁bicimi": 2229,
      "▁soyley": 2230,
      "▁odemeler": 2231,
      "▁kazancı": 2232,
      "▁sapkasını": 2233,
      "▁goruntusu": 2234,
      "imlari": 2235,
      "▁bur": 2236,
      "▁cad": 2237,
      "▁potansiy": 2238,
      "▁sacmalık": 2239,
      "▁boz": 2240,
      "elendi": 2241,
      "gel": 2242,
      "▁riv": 2243,
      "▁seni": 2244,
      "iyesi": 2245,
      "▁nesne": 2246,
      "▁tuzu": 2247,
      "▁konuları": 2248,
      "▁1/4'e": 2249,
      "▁yek": 2250,
      "dız": 2251,
      "cıyı": 2252,
      "▁espr": 2253,
      "cun": 2254,
      "▁kırıs": 2255,
      "▁savunmak": 2256,
      "▁sporcu": 2257,
      "▁sabahı": 2258,
      "▁tumuyle": 2259,
      "day": 2260,
      "▁agacların": 2261,
      "▁performansa": 2262,
      "▁numara": 2263,
      "▁bilhassa": 2264,
      "▁kulaga": 2265,
      "▁uygulamaları": 2266,
      "▁kazak": 2267,
      "▁rengini": 2268,
      "▁ısıgı": 2269,
      "▁kulagına": 2270,
      "▁pey": 2271,
      "▁kahveden": 2272,
      "perv": 2273,
      "▁toplan": 2274,
      "▁olmadıgına": 2275,
      "▁bilgisayar-programı": 2276,
      "▁anladı": 2277,
      "▁calısıyorum": 2278,
      "ınc": 2279,
      "▁alıskan": 2280,
      "▁havadan": 2281,
      "▁boldu": 2282,
      "▁tuz": 2283,
      "▁kimseyi": 2284,
      "▁oku": 2285,
      "▁ileriye": 2286,
      "▁senedinin": 2287,
      "▁dusuncesini": 2288,
      "▁haberim": 2289,
      "▁kurulu'nun": 2290,
      "▁fel": 2291,
      "▁goruyordu": 2292,
      "▁beton": 2293,
      "▁muhallebi": 2294,
      "▁isten": 2295,
      "▁nohut": 2296,
      "▁semt": 2297,
      "▁dort": 2298,
      "▁esitlik": 2299,
      "▁sakinleri": 2300,
      "▁sıra": 2301,
      "▁tarihe": 2302,
      "▁yatırımcıların": 2303,
      "▁denver'de": 2304,
      "eyebilir": 2305,
      "▁romanc": 2306,
      "▁ruhundan": 2307,
      "▁dususe": 2308,
      "▁sahası": 2309,
      "▁tezgah": 2310,
      "▁piyade": 2311,
      "madılar": 2312,
      "▁nereye": 2313,
      "▁elleriyle": 2314,
      "ibar": 2315,
      "▁birisini": 2316,
      "▁vicdan": 2317,
      "▁kapıs": 2318,
      "▁minder": 2319,
      "'sine": 2320,
      "▁adi": 2321,
      "▁odenmesi": 2322,
      "=": 2323,
      "▁arzı": 2324,
      "▁ansik": 2325,
      "▁tarafından": 2326,
      "▁kuz": 2327,
      "ber": 2328,
      "▁plaj": 2329,
      "▁telif": 2330,
      "▁telefonu": 2331,
      "▁sidde": 2332,
      "▁duzenli": 2333,
      "▁evi": 2334,
      "▁edebiyatı": 2335,
      "▁sirketlerine": 2336,
      "▁ydi": 2337,
      "lılıgı": 2338,
      "▁agırlıgında": 2339,
      "▁lavanta": 2340,
      "▁edildigini": 2341,
      "lerime": 2342,
      "▁etrafta": 2343,
      "▁yut": 2344,
      "sızın": 2345,
      "▁uygulamaya": 2346,
      "▁kıyafet": 2347,
      "▁1988": 2348,
      "▁gulu": 2349,
      "son": 2350,
      "▁basbakan": 2351,
      "▁yelpaz": 2352,
      "▁kalktı": 2353,
      "▁tucc": 2354,
      "lamur": 2355,
      "▁tasa": 2356,
      "aladıgını": 2357,
      "▁istiyorum": 2358,
      "▁kalmadı": 2359,
      "▁ardından": 2360,
      "▁yapmaktan": 2361,
      "ayi": 2362,
      "▁fatura": 2363,
      "▁pu": 2364,
      "▁kısım": 2365,
      "iledi": 2366,
      "mekle": 2367,
      "▁oyununa": 2368,
      "▁hisseyle": 2369,
      "▁yasları": 2370,
      "▁4": 2371,
      "yon": 2372,
      "▁aracılık": 2373,
      "▁ısır": 2374,
      "▁serb": 2375,
      "▁q": 2376,
      "▁hekim": 2377,
      "▁kov": 2378,
      "▁kabuk": 2379,
      "iyetleri": 2380,
      "▁sizden": 2381,
      "▁analiz": 2382,
      "▁merkeze": 2383,
      "▁bana": 2384,
      "yı": 2385,
      "▁fant": 2386,
      "▁kucak": 2387,
      "▁yıldızlar": 2388,
      "▁gaz": 2389,
      "▁kos": 2390,
      "uluk": 2391,
      "ssa": 2392,
      "lalı": 2393,
      "▁bakarak": 2394,
      "▁daire": 2395,
      "▁sor": 2396,
      "▁birligi": 2397,
      "▁ir": 2398,
      "▁sayıda": 2399,
      "▁acentamiza": 2400,
      "▁yorumu": 2401,
      "▁amerika": 2402,
      "▁yemekte": 2403,
      "▁evler": 2404,
      "!": 2405,
      "▁duzel": 2406,
      "▁sehr": 2407,
      "▁taraftan": 2408,
      "▁kıl": 2409,
      "▁otorite": 2410,
      "anan": 2411,
      "▁caddesi": 2412,
      "▁calıs": 2413,
      "ımıza": 2414,
      "▁konuyla": 2415,
      "▁soruları": 2416,
      "▁saclarına": 2417,
      "▁dergisi": 2418,
      "▁saunadan": 2419,
      "▁3.1": 2420,
      "▁ick": 2421,
      "▁koyde": 2422,
      "▁balkon": 2423,
      "▁eczacı": 2424,
      "ban": 2425,
      "▁dervis": 2426,
      "▁oldukca": 2427,
      "▁yaslarında": 2428,
      "▁tenis": 2429,
      "▁artırma": 2430,
      "▁dogal": 2431,
      "▁agrı": 2432,
      "▁40": 2433,
      "zav": 2434,
      "▁turist": 2435,
      "▁ozellikleri": 2436,
      "amadıgını": 2437,
      "▁esy": 2438,
      "▁noktaları": 2439,
      "▁louis": 2440,
      "dik": 2441,
      "alma": 2442,
      "dart": 2443,
      "inlerini": 2444,
      "▁genis": 2445,
      "▁detaylar": 2446,
      "▁arap": 2447,
      "▁sum": 2448,
      "▁tef": 2449,
      "emek": 2450,
      "▁aclık": 2451,
      "▁belirsiz": 2452,
      "▁gormez": 2453,
      "inti": 2454,
      "▁gecirdim": 2455,
      "▁arkadasım": 2456,
      "▁talepte": 2457,
      "▁yarısının": 2458,
      "▁bisiklet": 2459,
      "▁gokyuzunde": 2460,
      "lamadı": 2461,
      "▁programına": 2462,
      "▁ucusunun": 2463,
      "tek": 2464,
      "▁gercekles": 2465,
      "▁ormanda": 2466,
      "▁havayolları'nın": 2467,
      "▁kahvalti": 2468,
      "▁iddialar": 2469,
      "ıncaya": 2470,
      "▁kim": 2471,
      "ırlar": 2472,
      "▁yazın": 2473,
      "larınız": 2474,
      "▁olasılıgı": 2475,
      "▁gom": 2476,
      "▁baskasın": 2477,
      "▁giyin": 2478,
      "▁telaf": 2479,
      "esap": 2480,
      "▁cemaat": 2481,
      "▁boh": 2482,
      "islari": 2483,
      "▁depart": 2484,
      "ation": 2485,
      "▁adımları": 2486,
      "▁kasımda": 2487,
      "▁ların": 2488,
      "▁degerlerine": 2489,
      "▁patlıc": 2490,
      "▁bera": 2491,
      "enti": 2492,
      "8'in": 2493,
      "▁sicakti": 2494,
      "▁kor": 2495,
      "▁teblig": 2496,
      "▁cocug": 2497,
      "▁alıyor": 2498,
      "▁tuttum": 2499,
      "ati": 2500,
      "▁prop": 2501,
      "▁araplar": 2502,
      "amadım": 2503,
      "▁kaldırdı": 2504,
      "▁dibi": 2505,
      "ry": 2506,
      "▁ideoloj": 2507,
      "▁kilis": 2508,
      "▁cezaev": 2509,
      "▁aktr": 2510,
      "▁konumu": 2511,
      "▁yankı": 2512,
      "▁buyume": 2513,
      "uyorum": 2514,
      "re": 2515,
      "▁etek": 2516,
      "▁benziyor": 2517,
      "▁imkanları": 2518,
      "▁basın": 2519,
      "ranı": 2520,
      "▁mevdu": 2521,
      "▁be": 2522,
      "▁ima": 2523,
      "▁boyle": 2524,
      "▁eb": 2525,
      "▁makarn": 2526,
      "▁binalar": 2527,
      "izasyon": 2528,
      "▁bog": 2529,
      "▁kahve": 2530,
      "▁14": 2531,
      "▁sınırlarını": 2532,
      "▁seklinde": 2533,
      "▁toplantıdan": 2534,
      "▁iadesi": 2535,
      "▁konsolos": 2536,
      "▁sirketin": 2537,
      "luye": 2538,
      "▁orland": 2539,
      "▁kalmaya": 2540,
      "antı": 2541,
      "▁sozu": 2542,
      "▁doz": 2543,
      "malarını": 2544,
      "▁degistiriyor": 2545,
      "labilir": 2546,
      "inn": 2547,
      "esil": 2548,
      "umda": 2549,
      "lasması": 2550,
      "acılık": 2551,
      "▁cin": 2552,
      "▁airlines": 2553,
      "▁1987'de": 2554,
      "cılarının": 2555,
      "▁merkezinde": 2556,
      "▁miydi": 2557,
      "▁tarihini": 2558,
      "'de": 2559,
      "▁olurdu": 2560,
      "kinden": 2561,
      "ılımı": 2562,
      "▁vurusu": 2563,
      "liginden": 2564,
      "ılıgı": 2565,
      "▁anlama": 2566,
      "▁uygar": 2567,
      "5$": 2568,
      "▁komisyonu'na": 2569,
      "▁oksuruk": 2570,
      "▁servisten": 2571,
      "▁kaliteyi": 2572,
      "aparki": 2573,
      "▁pitts": 2574,
      "▁cocugum": 2575,
      "▁soyledi": 2576,
      "▁gorusmedik": 2577,
      "▁bagırsak": 2578,
      "▁tatilimi": 2579,
      "▁mana": 2580,
      "▁tavan": 2581,
      "▁ger": 2582,
      "▁potansiyel": 2583,
      "▁onlerinde": 2584,
      "▁yazıya": 2585,
      "ish": 2586,
      "ınır": 2587,
      "▁ton": 2588,
      "▁rıht": 2589,
      "▁tv": 2590,
      "▁taslar": 2591,
      "▁egit": 2592,
      "▁kı": 2593,
      "▁yonetm": 2594,
      "▁olaya": 2595,
      "▁yanda": 2596,
      "aslı": 2597,
      "▁gunlerden": 2598,
      "▁pansiyonda": 2599,
      "'nın": 2600,
      "▁bo": 2601,
      "▁testi": 2602,
      "▁saman": 2603,
      "▁zamana": 2604,
      "▁*": 2605,
      "▁bastır": 2606,
      "atıcı": 2607,
      "▁ucus": 2608,
      "▁yanını": 2609,
      "▁varlıgına": 2610,
      "▁kale": 2611,
      "▁universitelerin": 2612,
      "dirdi": 2613,
      "▁kurban": 2614,
      "▁ana": 2615,
      "▁gideri": 2616,
      "▁konusmalar": 2617,
      "▁yılında": 2618,
      "▁hikayeler": 2619,
      "▁demir": 2620,
      "▁otob": 2621,
      "▁huy": 2622,
      "▁yarısından": 2623,
      "sim": 2624,
      "▁tuhaf": 2625,
      "-sat": 2626,
      "▁!..": 2627,
      "▁kardesleri": 2628,
      "▁yolun": 2629,
      "▁hastane": 2630,
      "▁midem": 2631,
      "▁dernek": 2632,
      "▁krizi": 2633,
      "imleri": 2634,
      "▁doktorun": 2635,
      "▁miami'den": 2636,
      "sizim": 2637,
      "▁pesine": 2638,
      "cil": 2639,
      "▁beceri": 2640,
      "lilerden": 2641,
      "▁ense": 2642,
      "▁ilmin": 2643,
      "▁dediler": 2644,
      "▁evin": 2645,
      "▁kucuktu": 2646,
      "ikleri": 2647,
      "▁kenti": 2648,
      "hiss": 2649,
      "▁bank": 2650,
      "▁iyisini": 2651,
      "▁cekmis": 2652,
      "'nin": 2653,
      "▁div": 2654,
      "▁bulur": 2655,
      "▁sakin": 2656,
      "▁vadede": 2657,
      "▁verilen": 2658,
      "▁twa": 2659,
      "▁ayr": 2660,
      "▁soganı": 2661,
      "▁populer": 2662,
      "▁yıldan": 2663,
      "▁kaynak": 2664,
      "▁tabanc": 2665,
      "▁buyumesi": 2666,
      "▁tuccarlar": 2667,
      "▁uvey": 2668,
      "▁isim": 2669,
      "oloji": 2670,
      "▁sozler": 2671,
      "▁denet": 2672,
      "▁isciyi": 2673,
      "cılıgın": 2674,
      "▁karısını": 2675,
      "▁calisan": 2676,
      "▁faizi": 2677,
      "▁gucleri": 2678,
      "orma": 2679,
      "ada": 2680,
      "ındık": 2681,
      "▁baslayacak": 2682,
      "▁caddeyi": 2683,
      "▁evrende": 2684,
      "▁yuf": 2685,
      "▁gunku": 2686,
      "▁gunduz": 2687,
      "▁olcusu": 2688,
      "▁gittik": 2689,
      "▁uygarlık": 2690,
      "▁bilgi": 2691,
      "▁operasyonu": 2692,
      "▁gozlerine": 2693,
      "▁farkın": 2694,
      "ındaki": 2695,
      "▁islerde": 2696,
      "istal": 2697,
      "gının": 2698,
      "ıcısı": 2699,
      "▁doviz": 2700,
      "uttu": 2701,
      "▁canlandır": 2702,
      "iyeleri": 2703,
      "uu": 2704,
      "▁grubu": 2705,
      "▁ar": 2706,
      "ya'da": 2707,
      "v": 2708,
      "▁kokusu": 2709,
      "▁teknolojisinin": 2710,
      "imle": 2711,
      "▁konustu": 2712,
      "ester": 2713,
      "▁levh": 2714,
      "▁iler": 2715,
      "▁kurumsal": 2716,
      "▁gezer": 2717,
      "▁baskent": 2718,
      "▁rakipler": 2719,
      "5'te": 2720,
      "▁misafirler": 2721,
      "▁uret": 2722,
      "▁anlasmazlık": 2723,
      "▁kılav": 2724,
      "▁yetkililere": 2725,
      "ceye": 2726,
      "▁rezerve": 2727,
      "▁zihn": 2728,
      "tıp": 2729,
      "lamasının": 2730,
      "▁manasıyla": 2731,
      "▁dogur": 2732,
      "▁yazarın": 2733,
      "▁bahis": 2734,
      "▁sıkıya": 2735,
      "▁muhabiri": 2736,
      "▁arif": 2737,
      "▁istemedi": 2738,
      "▁kanunla": 2739,
      "lak": 2740,
      "▁ickiler": 2741,
      "▁adam": 2742,
      "ansiyon": 2743,
      "dalı": 2744,
      "▁dram": 2745,
      "siv": 2746,
      "▁operasyonlarını": 2747,
      "▁haline": 2748,
      "▁italyan": 2749,
      "▁gazi": 2750,
      "▁noktada": 2751,
      "▁motiv": 2752,
      "▁keman": 2753,
      "gundu": 2754,
      "▁kurt": 2755,
      "▁pazarın": 2756,
      "res": 2757,
      "▁gugum": 2758,
      "▁sofra": 2759,
      "▁hareketini": 2760,
      "▁olacagını": 2761,
      "tasıyla": 2762,
      "▁viz": 2763,
      "acıkta": 2764,
      "▁bicimde": 2765,
      "▁programlar": 2766,
      "▁west": 2767,
      "▁tedbir": 2768,
      "▁sordu": 2769,
      "▁franch": 2770,
      "▁departmanı": 2771,
      "▁almanlar": 2772,
      "hti": 2773,
      "ırken": 2774,
      "▁sendika": 2775,
      "▁senetlerini": 2776,
      "yp": 2777,
      "▁umuduyla": 2778,
      "gunuz": 2779,
      "▁kosu": 2780,
      "ıdır": 2781,
      "▁yansıt": 2782,
      "▁davranmaya": 2783,
      "▁dahil": 2784,
      "▁gurult": 2785,
      "▁cos": 2786,
      "ited": 2787,
      "▁kuy": 2788,
      "ulması": 2789,
      "mayın": 2790,
      "▁deplasmanda": 2791,
      "▁macer": 2792,
      "▁savas": 2793,
      "gıt": 2794,
      "▁yılda": 2795,
      "▁musunuz": 2796,
      "▁gumus": 2797,
      "▁seviyelerde": 2798,
      "▁sevgisini": 2799,
      "bab": 2800,
      "▁yanımda": 2801,
      "▁destekli": 2802,
      "▁dinlen": 2803,
      "▁mahkemesi": 2804,
      "▁elimden": 2805,
      "▁ucusla": 2806,
      "▁oyku": 2807,
      "▁iyiden": 2808,
      "▁gıda": 2809,
      "lıklar": 2810,
      "▁bulbul": 2811,
      "▁ezber": 2812,
      "mul": 2813,
      "▁biriyle": 2814,
      "▁yed": 2815,
      "luyla": 2816,
      "▁hakkı": 2817,
      "▁sıkıstır": 2818,
      "▁gunden": 2819,
      "▁kısıtlama": 2820,
      "etti": 2821,
      "▁pırlanta": 2822,
      "▁20": 2823,
      "▁kaliforn": 2824,
      "ona": 2825,
      "kındaki": 2826,
      "pan": 2827,
      "▁babasıyla": 2828,
      "▁yemege": 2829,
      "▁dikkatle": 2830,
      "▁gubre": 2831,
      "▁ucmak": 2832,
      "ler": 2833,
      "▁muayen": 2834,
      "esinin": 2835,
      "▁video": 2836,
      "▁fist": 2837,
      "▁listede": 2838,
      "▁oldugun": 2839,
      "ıcak": 2840,
      "olu": 2841,
      "▁alısver": 2842,
      "▁pozisyonları": 2843,
      "▁aklıma": 2844,
      "▁motorun": 2845,
      "larımda": 2846,
      "iyete": 2847,
      "▁gururunu": 2848,
      "guluyor": 2849,
      "▁tadı": 2850,
      "▁bomba": 2851,
      "mal": 2852,
      ".4": 2853,
      "▁edilemez": 2854,
      "▁federal": 2855,
      "▁getirmeye": 2856,
      "▁bebek": 2857,
      "▁yanıtını": 2858,
      "▁ters": 2859,
      "▁halef": 2860,
      "▁ny": 2861,
      "agının": 2862,
      "use": 2863,
      "▁cet": 2864,
      "▁cekirdek": 2865,
      "▁midir": 2866,
      "▁lakırt": 2867,
      "abilecek": 2868,
      "▁lider": 2869,
      "▁askeri": 2870,
      "▁jo": 2871,
      "▁herkesi": 2872,
      "▁yapıyor": 2873,
      "▁gozlerden": 2874,
      "ayacagını": 2875,
      "enlerin": 2876,
      "▁kalıyor": 2877,
      "▁zirv": 2878,
      "▁camı": 2879,
      "▁gerekiyor": 2880,
      "▁adımı": 2881,
      "▁civi": 2882,
      "▁sunu": 2883,
      "▁dolma": 2884,
      "▁birbiriyle": 2885,
      "▁sed": 2886,
      "▁yaslı": 2887,
      "lararası": 2888,
      "iben": 2889,
      "▁hastalıktan": 2890,
      "▁acıkca": 2891,
      "▁kıvıl": 2892,
      "▁cayır": 2893,
      "▁faaliyete": 2894,
      "▁aleyhine": 2895,
      "▁sigor": 2896,
      "cuların": 2897,
      "▁ablası": 2898,
      "▁yokus": 2899,
      "▁oyla": 2900,
      "▁catı": 2901,
      "▁yoktu": 2902,
      "casına": 2903,
      "▁ro": 2904,
      "▁buyudu": 2905,
      "▁bilgisi": 2906,
      "▁esnaf": 2907,
      "▁cincinnati": 2908,
      "▁akraba": 2909,
      "▁ettigini": 2910,
      "▁bolgesi": 2911,
      "▁cimen": 2912,
      "▁civ": 2913,
      "▁ankete": 2914,
      "▁pasaj": 2915,
      "45": 2916,
      "▁temizligi": 2917,
      "▁iceriye": 2918,
      "▁burn": 2919,
      "▁isinin": 2920,
      "eda": 2921,
      "▁cıktık": 2922,
      "ustugunu": 2923,
      "▁anlıyor": 2924,
      "▁isaret": 2925,
      "▁cleveland'dan": 2926,
      "▁arkasından": 2927,
      "▁itaat": 2928,
      "▁gecit": 2929,
      "▁mut": 2930,
      "▁basta": 2931,
      "▁birbirlerine": 2932,
      "▁polit": 2933,
      "▁ulastırma": 2934,
      "erdeki": 2935,
      "yonun": 2936,
      "▁balon": 2937,
      "ından": 2938,
      "lip": 2939,
      "▁york'tan": 2940,
      "▁kente": 2941,
      "▁anti": 2942,
      "meyin": 2943,
      "▁doktoru": 2944,
      "▁kaymakam": 2945,
      "▁azaltmak": 2946,
      "▁borclanma": 2947,
      "o'nun": 2948,
      "lıgıma": 2949,
      "▁ambar": 2950,
      "▁personelinden": 2951,
      "▁amacla": 2952,
      "▁sıcagı": 2953,
      "▁okullar": 2954,
      "▁nazar": 2955,
      "▁politik": 2956,
      "▁olanagı": 2957,
      "▁lakırtı": 2958,
      "▁edecegim": 2959,
      "▁ispir": 2960,
      "▁inanıyor": 2961,
      "▁gencler": 2962,
      "ecilik": 2963,
      "▁sauna": 2964,
      "▁arastırma": 2965,
      "▁burokras": 2966,
      "▁anlayislari": 2967,
      "▁guvercin": 2968,
      "uc": 2969,
      "▁sınıfta": 2970,
      "▁mag": 2971,
      "▁sineye": 2972,
      "kar": 2973,
      "ihat": 2974,
      "▁satma": 2975,
      "lik": 2976,
      "sinde": 2977,
      "▁calısması": 2978,
      "▁inc": 2979,
      "▁olarak": 2980,
      "▁torb": 2981,
      "iret": 2982,
      "▁iyil": 2983,
      "▁tung": 2984,
      "essum": 2985,
      "▁ogul": 2986,
      "etci": 2987,
      "kit": 2988,
      "▁saldırgan": 2989,
      "▁nav": 2990,
      "▁egilimleri": 2991,
      "▁tavır": 2992,
      "▁esrar": 2993,
      "▁41": 2994,
      "▁cercev": 2995,
      "▁yagmurun": 2996,
      "▁dokum": 2997,
      "▁askerler": 2998,
      "▁havuzun": 2999,
      "dugu": 3000,
      "▁ariz": 3001,
      "▁kıvır": 3002,
      "▁cıkınca": 3003,
      "▁cevap": 3004,
      "▁paralar": 3005,
      "isindan": 3006,
      "▁yanl": 3007,
      "▁dikkatini": 3008,
      "▁mil": 3009,
      "masına": 3010,
      "▁odun": 3011,
      "▁tumu": 3012,
      "▁tesiri": 3013,
      "▁karsil": 3014,
      "'unu": 3015,
      "▁engellemek": 3016,
      "▁prenses": 3017,
      "ter": 3018,
      "▁yanlıs": 3019,
      "▁hareket": 3020,
      "▁magaza": 3021,
      "▁gormem": 3022,
      "gr": 3023,
      "▁yuzlerini": 3024,
      "digimi": 3025,
      "▁olası": 3026,
      "▁seydi": 3027,
      "▁ortalıgı": 3028,
      "▁lod": 3029,
      "burgh": 3030,
      "▁karsılıgını": 3031,
      "fes": 3032,
      "dım": 3033,
      "▁oldugunu": 3034,
      "larken": 3035,
      "▁tabl": 3036,
      "▁puanlarim": 3037,
      "▁havuzlar": 3038,
      "▁kısmı": 3039,
      "▁mudur": 3040,
      "▁gayrimenkul": 3041,
      "▁yazarlar": 3042,
      "▁degildi": 3043,
      "▁kalkar": 3044,
      "▁kuslar": 3045,
      "▁edilebilir": 3046,
      "▁heg": 3047,
      "▁sordum": 3048,
      "▁ter": 3049,
      ".50": 3050,
      "▁express": 3051,
      "▁tutam": 3052,
      "ındır": 3053,
      "usunu": 3054,
      "▁fran": 3055,
      "▁mahk": 3056,
      "▁plat": 3057,
      "▁gerilim": 3058,
      "sızlıgı": 3059,
      "ital": 3060,
      "▁piyasaları": 3061,
      "▁zinciri": 3062,
      "ıklı": 3063,
      "sem": 3064,
      "▁oynuyor": 3065,
      "▁aska": 3066,
      "▁bilgilerini": 3067,
      "kanlı": 3068,
      "▁boyu": 3069,
      "agon": 3070,
      "▁hey": 3071,
      "dıgın": 3072,
      "iyor": 3073,
      "▁sabahın": 3074,
      "▁yatagında": 3075,
      "▁babamın": 3076,
      "▁dorduncu": 3077,
      "▁yollarda": 3078,
      "▁guvenli": 3079,
      "▁aramaya": 3080,
      "▁reasur": 3081,
      "▁karaya": 3082,
      "▁cevapları": 3083,
      "mas": 3084,
      "▁gectigimiz": 3085,
      "briy": 3086,
      "▁eden": 3087,
      "astırma": 3088,
      "▁fener": 3089,
      "▁dilek": 3090,
      "▁kumas": 3091,
      "▁damar": 3092,
      "▁doneminden": 3093,
      "▁teraz": 3094,
      "▁tl": 3095,
      "▁cıktı": 3096,
      "▁berbat": 3097,
      "▁juri": 3098,
      "eligini": 3099,
      "▁calısanları": 3100,
      "▁arka": 3101,
      "lesinin": 3102,
      "▁lezzetini": 3103,
      "yla": 3104,
      "lesen": 3105,
      "▁bilgil": 3106,
      "▁temelinde": 3107,
      "▁spekulasyon": 3108,
      "▁dım": 3109,
      "▁arkasında": 3110,
      "ilisi": 3111,
      "▁part": 3112,
      "ine": 3113,
      "▁hastalıga": 3114,
      "▁krav": 3115,
      "▁ekipmanı": 3116,
      "▁charlotte": 3117,
      "▁beta": 3118,
      "▁ayaklarını": 3119,
      "imizin": 3120,
      "▁hastan": 3121,
      "sizdi": 3122,
      "guna": 3123,
      "▁yerlerde": 3124,
      "▁kadınlarla": 3125,
      "▁uzmanı": 3126,
      "▁badem": 3127,
      "▁#": 3128,
      "[CLS]": 3129,
      "▁getirileri": 3130,
      "▁murat": 3131,
      "ımı": 3132,
      "▁turden": 3133,
      "▁birbirimizi": 3134,
      "▁tecavuz": 3135,
      "▁kusak": 3136,
      "▁temerrut": 3137,
      "ecegine": 3138,
      "▁cevir": 3139,
      "lılara": 3140,
      "▁tarh": 3141,
      "uyla": 3142,
      "▁ruhu": 3143,
      "▁santimetre": 3144,
      "▁elektr": 3145,
      "op": 3146,
      "▁istedigi": 3147,
      "▁ithal": 3148,
      "▁vek": 3149,
      "olojik": 3150,
      "mos": 3151,
      "asıtasıyla": 3152,
      "▁etkilen": 3153,
      "▁bolumlerinde": 3154,
      "▁yeryuz": 3155,
      "▁bonolarının": 3156,
      "▁tabagına": 3157,
      "▁guler": 3158,
      "▁kaldırımda": 3159,
      "acık": 3160,
      "▁doy": 3161,
      "▁cıglık": 3162,
      "▁yuruyus": 3163,
      "▁ısıl": 3164,
      "ata": 3165,
      "erler": 3166,
      "oru": 3167,
      "▁okula": 3168,
      "▁birini": 3169,
      "▁uf": 3170,
      "bur": 3171,
      "▁delikanlı": 3172,
      "esidir": 3173,
      "▁faaliyeti": 3174,
      "▁pittsburgh'a": 3175,
      "aray": 3176,
      "yse": 3177,
      "te": 3178,
      "▁kafayı": 3179,
      "▁past": 3180,
      "▁mintan": 3181,
      "▁bogazici": 3182,
      "▁onceki": 3183,
      "lamam": 3184,
      "est": 3185,
      "▁varır": 3186,
      "▁zil": 3187,
      "▁vekil": 3188,
      "▁vurgun": 3189,
      "▁hek": 3190,
      "ilerdi": 3191,
      "▁basladılar": 3192,
      "▁dinliyor": 3193,
      "▁versiyonu": 3194,
      "enlerden": 3195,
      "▁buhar": 3196,
      "▁duvarların": 3197,
      "▁rah": 3198,
      "inlerin": 3199,
      "▁faal": 3200,
      "▁piyasayı": 3201,
      "▁mukemmeldi": 3202,
      "▁yurumeye": 3203,
      "▁rop": 3204,
      "▁mekteb": 3205,
      "▁atlanta'ya": 3206,
      "j": 3207,
      "isine": 3208,
      "▁makin": 3209,
      "▁ofis": 3210,
      "tlar": 3211,
      "▁ayrildik": 3212,
      "raber": 3213,
      "▁ug": 3214,
      "▁calıstıklarını": 3215,
      "eger": 3216,
      "▁ucaklar": 3217,
      "▁halkını": 3218,
      "▁hastaya": 3219,
      "▁anac": 3220,
      "▁hizmetleri": 3221,
      "▁havalimanı": 3222,
      "▁yasaların": 3223,
      ".65": 3224,
      "▁cezası": 3225,
      "▁pot": 3226,
      "▁seyret": 3227,
      "▁duyguların": 3228,
      "▁manzum": 3229,
      "▁gorunmuyor": 3230,
      "▁yegen": 3231,
      "ma": 3232,
      "▁ilg": 3233,
      "umuza": 3234,
      "▁kusun": 3235,
      "▁kafayla": 3236,
      "▁binası": 3237,
      "▁memuriyet": 3238,
      "▁amacıyla": 3239,
      "eceginin": 3240,
      "▁olmasıdır": 3241,
      "▁alanı": 3242,
      "▁mektebe": 3243,
      "▁neye": 3244,
      "▁adımda": 3245,
      "▁bulmaya": 3246,
      "▁varlıkların": 3247,
      "uktu": 3248,
      "▁intik": 3249,
      "▁koz": 3250,
      "▁dav": 3251,
      "abil": 3252,
      "▁icr": 3253,
      "▁muhakk": 3254,
      "turu": 3255,
      "cog": 3256,
      "misti": 3257,
      "▁kurtarma": 3258,
      "▁neti": 3259,
      "▁ıcı": 3260,
      "▁kararlar": 3261,
      "▁gune": 3262,
      "lanmadı": 3263,
      "▁lahana": 3264,
      "▁agzı": 3265,
      "cagızı": 3266,
      "sekse": 3267,
      "▁pahali": 3268,
      "▁baslangıcı": 3269,
      "▁cesitli": 3270,
      "▁okuy": 3271,
      "▁karbon": 3272,
      "▁biletlerini": 3273,
      "idin": 3274,
      "▁kulagımdan": 3275,
      "▁ara": 3276,
      "▁odama": 3277,
      "▁birbir": 3278,
      "▁carptı": 3279,
      "▁sebze": 3280,
      "▁endeksi": 3281,
      "er'in": 3282,
      "▁jurnal": 3283,
      "▁baslangıcta": 3284,
      "▁fed": 3285,
      "▁yaygın": 3286,
      "aklar": 3287,
      "uver": 3288,
      "▁kar": 3289,
      "▁bulmus": 3290,
      "▁yene": 3291,
      "▁agaclarının": 3292,
      "▁kudret": 3293,
      "▁yogun": 3294,
      "▁bakır": 3295,
      "impiyat": 3296,
      "▁elektronik": 3297,
      "▁hareketiyle": 3298,
      "▁denizciler": 3299,
      "ip": 3300,
      "▁biy": 3301,
      "▁gemi": 3302,
      "▁sat": 3303,
      "▁200": 3304,
      "▁ayaklarına": 3305,
      "▁les": 3306,
      "artesi": 3307,
      "▁vucudu": 3308,
      "dirme": 3309,
      "▁elem": 3310,
      "▁hisselerinin": 3311,
      "▁bahcenin": 3312,
      "▁bacakları": 3313,
      "▁cehen": 3314,
      "▁1980'lerin": 3315,
      "▁tetik": 3316,
      "br": 3317,
      "▁inci": 3318,
      "▁yakın": 3319,
      "75": 3320,
      "▁skan": 3321,
      "▁pır": 3322,
      "dıgı": 3323,
      "▁net": 3324,
      "ilmaz": 3325,
      "▁oranlar": 3326,
      "▁neyse": 3327,
      "▁yerles": 3328,
      "▁%6": 3329,
      "▁veremem": 3330,
      "▁piyasaların": 3331,
      "▁geliyor": 3332,
      "▁edebil": 3333,
      "memistim": 3334,
      "▁kendisiyle": 3335,
      "▁sid": 3336,
      "▁beg": 3337,
      "▁alfab": 3338,
      "▁kafamı": 3339,
      "▁amacı": 3340,
      "&": 3341,
      "▁bankaları": 3342,
      "▁ye": 3343,
      "▁almak": 3344,
      "▁kalkarak": 3345,
      "uslar": 3346,
      "▁telerate": 3347,
      "▁kirliydi": 3348,
      "▁ucret": 3349,
      "imde": 3350,
      "▁cocuklarının": 3351,
      "▁emper": 3352,
      "▁yoldası": 3353,
      "▁imam": 3354,
      "▁saygısız": 3355,
      "▁husus": 3356,
      "▁stat": 3357,
      "▁atolye": 3358,
      "maların": 3359,
      "▁turkce": 3360,
      "edigini": 3361,
      "▁soyl": 3362,
      "▁kursu": 3363,
      "▁genel": 3364,
      "▁cont": 3365,
      "▁cef": 3366,
      "▁oldugum": 3367,
      "ılan": 3368,
      "▁merkezi": 3369,
      "gun": 3370,
      "▁bunal": 3371,
      "▁igne": 3372,
      "▁panc": 3373,
      "▁iliskiye": 3374,
      "▁kesinti": 3375,
      "▁kendimiz": 3376,
      "alarda": 3377,
      "bak": 3378,
      "▁salvar": 3379,
      "▁vermektedir": 3380,
      "▁isada": 3381,
      "hi": 3382,
      "▁sanırım": 3383,
      "▁isletmeler": 3384,
      "▁cuh": 3385,
      "▁askın": 3386,
      "▁kararını": 3387,
      "▁anımsa": 3388,
      "▁yerin": 3389,
      "▁ızdır": 3390,
      "▁serbest": 3391,
      "ucular": 3392,
      "asın": 3393,
      "▁asf": 3394,
      "▁grubunun": 3395,
      "▁okumaya": 3396,
      "▁edildi": 3397,
      "urlu": 3398,
      "ore": 3399,
      "▁isimizi": 3400,
      "▁kuf": 3401,
      "▁ign": 3402,
      "cılı": 3403,
      "▁guclu": 3404,
      "▁kozmetik": 3405,
      "▁gunumuzde": 3406,
      "▁colde": 3407,
      "dde": 3408,
      "▁salata": 3409,
      "▁devreye": 3410,
      "▁sınavı": 3411,
      "▁para": 3412,
      "▁tiyatr": 3413,
      "▁kafesi": 3414,
      "▁talih": 3415,
      "lige": 3416,
      "▁kocak": 3417,
      "▁memphis": 3418,
      "▁odasına": 3419,
      "▁cın": 3420,
      "▁cuk": 3421,
      "▁ozlem": 3422,
      "kam": 3423,
      "▁gecirir": 3424,
      "▁kesiminin": 3425,
      "'daki": 3426,
      "▁bomb": 3427,
      "abak": 3428,
      "▁uygun": 3429,
      "▁atalarımızın": 3430,
      "▁surucu": 3431,
      "ett": 3432,
      "▁ceviz": 3433,
      "▁engin": 3434,
      "kay": 3435,
      "▁goruyorum": 3436,
      "▁onerdi": 3437,
      "▁1986": 3438,
      "▁bakım": 3439,
      "▁trans": 3440,
      "▁haftalarda": 3441,
      "▁kendini": 3442,
      "▁yayla": 3443,
      "▁gozume": 3444,
      "▁gemilere": 3445,
      "▁yuklu": 3446,
      "▁ulkeye": 3447,
      "▁liber": 3448,
      "▁kumsali": 3449,
      "▁ayın": 3450,
      "▁isliyor": 3451,
      "▁hatıraları": 3452,
      "▁nashville'den": 3453,
      "▁tezgahın": 3454,
      "▁bekliyordu": 3455,
      "▁1969'un": 3456,
      "▁azından": 3457,
      "otte": 3458,
      "▁seyde": 3459,
      "▁muster": 3460,
      "▁birimini": 3461,
      "langıc": 3462,
      "▁asci": 3463,
      "bet": 3464,
      "▁orne": 3465,
      "▁gozlerinde": 3466,
      "▁rezerv": 3467,
      "▁hoslan": 3468,
      "▁kıt": 3469,
      "▁eserini": 3470,
      "isiydi": 3471,
      "▁8'den": 3472,
      "meldi": 3473,
      "ıcının": 3474,
      "cuları": 3475,
      "acasına": 3476,
      "▁haksızlık": 3477,
      "▁agızlarına": 3478,
      "▁durmadan": 3479,
      "vet": 3480,
      "▁yasamı": 3481,
      "▁lafı": 3482,
      "▁bulan": 3483,
      "▁ateste": 3484,
      "▁nasıl": 3485,
      "▁oper": 3486,
      "▁kem": 3487,
      "▁gunde": 3488,
      "lendim": 3489,
      "▁mız": 3490,
      "▁nazaran": 3491,
      "▁degistirdi": 3492,
      "▁yarıya": 3493,
      "▁orlando'dan": 3494,
      "▁satısa": 3495,
      "▁hic": 3496,
      "inleri": 3497,
      "▁cekirde": 3498,
      "lıgından": 3499,
      "▁gorustuk": 3500,
      "geler": 3501,
      "▁ucundan": 3502,
      "▁delikanl": 3503,
      "▁blok": 3504,
      "▁fiyatlardan": 3505,
      "▁pound": 3506,
      "▁kutusu": 3507,
      "▁onayını": 3508,
      "▁tahvilin": 3509,
      "▁verip": 3510,
      "▁testere": 3511,
      "▁aslı": 3512,
      "▁epeyce": 3513,
      "endek": 3514,
      "▁yonunu": 3515,
      "▁agırlık": 3516,
      "▁neredeyse": 3517,
      "▁dusundu": 3518,
      "▁terazi": 3519,
      "▁fiyatlarında": 3520,
      "sam": 3521,
      "▁kimi": 3522,
      "▁cuz": 3523,
      "▁anlıslanabili": 3524,
      "▁ilerleme": 3525,
      "▁d": 3526,
      "▁kocasıyla": 3527,
      "innati": 3528,
      "▁ul": 3529,
      "▁cabalar": 3530,
      "ciden": 3531,
      "▁yapr": 3532,
      "▁yanakları": 3533,
      "rut": 3534,
      "▁eleman": 3535,
      "▁tereyagı": 3536,
      "▁denges": 3537,
      "▁vic": 3538,
      "▁agr": 3539,
      "alarım": 3540,
      "ana": 3541,
      "▁acısı": 3542,
      "▁dizinin": 3543,
      "▁dilde": 3544,
      "▁suk": 3545,
      "asi": 3546,
      "▁for": 3547,
      "▁kayıpların": 3548,
      "esemdi": 3549,
      "▁doneme": 3550,
      "iklik": 3551,
      "▁sıfır": 3552,
      "▁dallarında": 3553,
      "▁faturamin": 3554,
      "▁keyif": 3555,
      "▁houston": 3556,
      "▁gecirmek": 3557,
      "ib": 3558,
      "▁yetkilisi": 3559,
      "▁rejim": 3560,
      "tmek": 3561,
      "telik": 3562,
      "lıları": 3563,
      "▁vapura": 3564,
      "ert": 3565,
      "▁sosyalist": 3566,
      "ilmis": 3567,
      "▁gonlunu": 3568,
      "▁doneminin": 3569,
      "▁surdurmek": 3570,
      "ecegi": 3571,
      "▁olmamak": 3572,
      "▁vergi": 3573,
      "iyer": 3574,
      "▁omuzlarını": 3575,
      "▁yıllık": 3576,
      "lat": 3577,
      "▁berab": 3578,
      "▁acmayı": 3579,
      "▁cıkmak": 3580,
      "▁100": 3581,
      "▁tanesi": 3582,
      "▁vucuduna": 3583,
      "▁gulery": 3584,
      "stık": 3585,
      "▁basvuru": 3586,
      "▁verdi": 3587,
      "▁bırakın": 3588,
      "ilikleri": 3589,
      "▁bolge": 3590,
      "▁gazino": 3591,
      "▁br": 3592,
      "▁toplumu": 3593,
      "▁deterj": 3594,
      "▁karabors": 3595,
      "▁yardımc": 3596,
      "▁stand": 3597,
      "▁salonu": 3598,
      "▁sakalı": 3599,
      "irleri": 3600,
      "▁odamın": 3601,
      "▁uykusu": 3602,
      "▁duygus": 3603,
      "▁japonlar": 3604,
      "▁plaji": 3605,
      "▁ziraat": 3606,
      "▁televizyon": 3607,
      "▁bekledigini": 3608,
      "▁birbirlerinin": 3609,
      "▁konusu": 3610,
      "lıgıyla": 3611,
      "▁ma": 3612,
      "▁3.5": 3613,
      "▁mide": 3614,
      "ern": 3615,
      "▁durumu": 3616,
      "apark": 3617,
      "▁kattan": 3618,
      "▁ampul": 3619,
      "▁agacının": 3620,
      "▁kırıklıgı": 3621,
      "▁tiyatroda": 3622,
      "▁redd": 3623,
      "▁kagıdı": 3624,
      "▁onca": 3625,
      "▁tefer": 3626,
      "▁kapatma": 3627,
      "uyor": 3628,
      "metli": 3629,
      "▁acel": 3630,
      "▁aya": 3631,
      "▁.'": 3632,
      "▁hizmete": 3633,
      "▁olusan": 3634,
      "▁parmak": 3635,
      "ılıga": 3636,
      "mu": 3637,
      "▁bekleme": 3638,
      "▁benzer": 3639,
      "▁millet": 3640,
      "▁mecl": 3641,
      "▁bolgeye": 3642,
      "▁corbayı": 3643,
      "▁gecis": 3644,
      "▁?": 3645,
      "▁politikasını": 3646,
      "▁memleket": 3647,
      "▁hissesinin": 3648,
      "bilecegini": 3649,
      "▁18": 3650,
      "▁sahaya": 3651,
      "▁vegas'tan": 3652,
      "▁cip": 3653,
      "▁havayolunun": 3654,
      "▁duzey": 3655,
      "▁yaptım": 3656,
      "▁olac": 3657,
      "▁evrak": 3658,
      "▁yemeklerde": 3659,
      "▁uyusturucu": 3660,
      "imizi": 3661,
      "▁olduk": 3662,
      "sir": 3663,
      "▁baki": 3664,
      "▁kus": 3665,
      "rını": 3666,
      "▁itibariyle": 3667,
      "▁havalarda": 3668,
      "▁kesinlik": 3669,
      "▁do": 3670,
      "▁kesildi": 3671,
      "▁karton": 3672,
      "▁verilmesi": 3673,
      "▁hayal": 3674,
      "▁uzay": 3675,
      "▁39": 3676,
      "▁katkı": 3677,
      "▁cocugun": 3678,
      "ıb": 3679,
      "aylon": 3680,
      "ksan": 3681,
      "▁bagımsız": 3682,
      "▁dondu": 3683,
      "▁one": 3684,
      "s": 3685,
      "▁boc": 3686,
      "▁kurtulmak": 3687,
      "▁lisansını": 3688,
      "maya": 3689,
      "▁cabasına": 3690,
      "▁efsan": 3691,
      "▁agzının": 3692,
      "▁taleplerinin": 3693,
      "kez": 3694,
      "▁etkinlikler": 3695,
      "▁salonda": 3696,
      "▁yapragı": 3697,
      "suz": 3698,
      "▁pozisyon": 3699,
      "▁tarihleri": 3700,
      "▁puf": 3701,
      "▁sasırtıcı": 3702,
      "yosu": 3703,
      "▁aydınlat": 3704,
      "▁ada": 3705,
      ".6": 3706,
      "▁phoenix": 3707,
      "aklık": 3708,
      "▁nedenle": 3709,
      "▁oralarda": 3710,
      "▁gergin": 3711,
      "ette": 3712,
      "▁dururdu": 3713,
      "lari": 3714,
      "▁parka": 3715,
      "▁yuksekten": 3716,
      "▁kayıp": 3717,
      "▁havuza": 3718,
      "▁sınırı": 3719,
      "▁terlik": 3720,
      "▁satımı": 3721,
      "▁sırasında": 3722,
      "▁ocagı": 3723,
      "net": 3724,
      "▁muk": 3725,
      "▁egilim": 3726,
      "▁hijyen": 3727,
      "▁oz": 3728,
      "▁westchester": 3729,
      "▁sundu": 3730,
      "▁pilavı": 3731,
      "▁edeb": 3732,
      "▁o": 3733,
      "▁dalgalanma": 3734,
      "▁hayat": 3735,
      "▁onlardan": 3736,
      "▁13": 3737,
      "▁yetk": 3738,
      "▁tesisten": 3739,
      "mek": 3740,
      "▁ozellik": 3741,
      "▁bulas": 3742,
      "▁onlarda": 3743,
      "▁hamil": 3744,
      "▁ıslah": 3745,
      "▁dokmek": 3746,
      "▁gorevlisi": 3747,
      "▁donanımı": 3748,
      "ne": 3749,
      "▁donusum": 3750,
      "▁yetkilileri": 3751,
      "eveyn": 3752,
      "▁cekil": 3753,
      "▁dinlem": 3754,
      "▁fazilet": 3755,
      "▁fal": 3756,
      "bu": 3757,
      "manı": 3758,
      "▁davası": 3759,
      "9'dan": 3760,
      "▁devletler": 3761,
      "▁mahp": 3762,
      "gılı": 3763,
      "▁emel": 3764,
      "ikti": 3765,
      "dır": 3766,
      "▁oykuler": 3767,
      "▁sehirleri": 3768,
      "▁yaratır": 3769,
      "cagım": 3770,
      "▁oranları": 3771,
      "▁biciminde": 3772,
      "▁bilgilerin": 3773,
      "yıf": 3774,
      "▁hayatımızın": 3775,
      "▁hec": 3776,
      "esti": 3777,
      "▁tartısmaya": 3778,
      "▁amiri": 3779,
      "▁bilinc": 3780,
      "culuk": 3781,
      "▁ta": 3782,
      "aklıgı": 3783,
      "▁harekete": 3784,
      "likten": 3785,
      "▁ankar": 3786,
      "▁tesisin": 3787,
      "▁kayak": 3788,
      "▁asla": 3789,
      "▁lyn": 3790,
      "7": 3791,
      "amız": 3792,
      "▁yayın": 3793,
      "▁muamel": 3794,
      "▁petrol": 3795,
      "▁gulus": 3796,
      "▁dususler": 3797,
      "▁surdur": 3798,
      "iyle": 3799,
      "▁herkesten": 3800,
      "▁kalmadik": 3801,
      "▁annesinin": 3802,
      "▁ec": 3803,
      "▁izah": 3804,
      "▁anlamiyla": 3805,
      "▁oturum": 3806,
      "▁etken": 3807,
      "▁uzere": 3808,
      "dugum": 3809,
      "▁taraf": 3810,
      "▁inat": 3811,
      "▁aday": 3812,
      "udi": 3813,
      "▁te": 3814,
      "▁ayrım": 3815,
      "▁havalimanından": 3816,
      "▁sandıg": 3817,
      "▁ap": 3818,
      "▁ustu": 3819,
      "▁hukumleri": 3820,
      "▁eline": 3821,
      "memi": 3822,
      "▁halk": 3823,
      "▁vermedi": 3824,
      "▁kinden": 3825,
      "▁basarısı": 3826,
      "iyatr": 3827,
      "ısa": 3828,
      "▁munasebetsizlik": 3829,
      "▁ruyalar": 3830,
      "▁denen": 3831,
      "▁boynunu": 3832,
      "▁kopruler": 3833,
      "▁telefon": 3834,
      "▁pencerenin": 3835,
      "▁ayrılan": 3836,
      "▁tecru": 3837,
      "▁bom": 3838,
      "▁ortagı": 3839,
      "▁muhur": 3840,
      "▁roportajda": 3841,
      "▁sevk": 3842,
      "▁kırk": 3843,
      "▁ak": 3844,
      "gag": 3845,
      "▁zafer": 3846,
      "▁teshir": 3847,
      "ardan": 3848,
      "▁kaygı": 3849,
      "iyat": 3850,
      "▁muhasebe": 3851,
      "ebi": 3852,
      "▁parmagı": 3853,
      "▁docent": 3854,
      "▁yavasti": 3855,
      "▁sem": 3856,
      "▁mily": 3857,
      "▁oto": 3858,
      "▁cogun": 3859,
      "▁nak": 3860,
      "otekn": 3861,
      "▁tuh": 3862,
      "lenecek": 3863,
      "▁varlıklarını": 3864,
      "▁sozlesmesi": 3865,
      "▁seslere": 3866,
      "▁bilimin": 3867,
      "▁ingiliz": 3868,
      "▁org": 3869,
      "▁minneapolis'ten": 3870,
      "▁ortaklık": 3871,
      "larımın": 3872,
      "acıklar": 3873,
      "▁sigort": 3874,
      "▁sper": 3875,
      "▁milletten": 3876,
      "▁saga": 3877,
      "▁gorur": 3878,
      "▁anlaya": 3879,
      "▁esim": 3880,
      "ader": 3881,
      "▁gizem": 3882,
      "▁aran": 3883,
      "▁beklenenden": 3884,
      "▁gecin": 3885,
      "anya": 3886,
      "▁illa": 3887,
      "▁oyk": 3888,
      "▁sozlesmeler": 3889,
      "▁iliskilerinde": 3890,
      "▁kenarına": 3891,
      "ehir": 3892,
      "▁olaylara": 3893,
      "▁topragı": 3894,
      "▁milyon": 3895,
      "ırda": 3896,
      "▁idareye": 3897,
      "▁dolayısıyla": 3898,
      "▁baskan": 3899,
      "1'den": 3900,
      "▁karanlık": 3901,
      "▁oturmus": 3902,
      "▁milwaukee": 3903,
      "▁mutfag": 3904,
      "tıkları": 3905,
      "yalar": 3906,
      "▁asker": 3907,
      "▁kopuk": 3908,
      "▁a.b.d.": 3909,
      "▁sanız": 3910,
      "▁koku": 3911,
      "▁kurul": 3912,
      "▁1988'de": 3913,
      "▁ır": 3914,
      "mıyorlar": 3915,
      "alam": 3916,
      "▁pak": 3917,
      "▁rezervasyonlar": 3918,
      "▁fıstık": 3919,
      "▁pasa": 3920,
      "▁kaldik": 3921,
      "gıl": 3922,
      "▁aletleri": 3923,
      "▁ederler": 3924,
      "▁kut": 3925,
      "lerden": 3926,
      "asına": 3927,
      "▁temp": 3928,
      "medig": 3929,
      "▁milletvek": 3930,
      "▁giden": 3931,
      "▁kıymetler": 3932,
      "▁kosullar": 3933,
      "▁ahbap": 3934,
      "▁otomobiller": 3935,
      "▁asama": 3936,
      "▁37.5": 3937,
      "▁iklim": 3938,
      "▁satımda": 3939,
      "itler": 3940,
      "lerinden": 3941,
      "▁ozgurluk": 3942,
      "▁birlesik": 3943,
      "▁boslugu": 3944,
      "▁evinden": 3945,
      "▁carsı": 3946,
      "▁oran": 3947,
      "▁ellerini": 3948,
      "▁olabilecegine": 3949,
      "▁3.3": 3950,
      "alar": 3951,
      "▁aldı": 3952,
      "mamacasına": 3953,
      "reet": 3954,
      "tle": 3955,
      "▁cins": 3956,
      "▁kurumun": 3957,
      "jde": 3958,
      "▁okka": 3959,
      "isco": 3960,
      "lanab": 3961,
      "▁kisiyle": 3962,
      "▁babam": 3963,
      "▁hanımlar": 3964,
      "▁turkuler": 3965,
      "bir": 3966,
      "leyiciler": 3967,
      "▁gorusmelerin": 3968,
      "▁inter": 3969,
      "▁gur": 3970,
      "▁tazminat": 3971,
      "▁actı": 3972,
      "▁celik": 3973,
      "▁patates": 3974,
      "▁tasarımı": 3975,
      "▁oncu": 3976,
      "tansiy": 3977,
      "▁1.4": 3978,
      "tıldı": 3979,
      "arki": 3980,
      "▁evvel": 3981,
      "▁ilgilenmedi": 3982,
      "▁istasyonu": 3983,
      "▁birbirleriyle": 3984,
      "tıcı": 3985,
      "yoz": 3986,
      "▁kıyaslandıgında": 3987,
      "▁iyiles": 3988,
      "ınca": 3989,
      "▁atmayı": 3990,
      "▁cebinden": 3991,
      "▁sinyal": 3992,
      "▁gundem": 3993,
      "▁hep": 3994,
      "▁karsiligi": 3995,
      "▁yaptıktan": 3996,
      "▁piyasasına": 3997,
      "▁yola": 3998,
      "▁seks": 3999,
      "▁caydan": 4000,
      "▁muzayede": 4001,
      "▁dısarıdan": 4002,
      "▁damg": 4003,
      "▁ucusa": 4004,
      "▁kaz": 4005,
      "▁oradan": 4006,
      "▁hakkın": 4007,
      "▁islemini": 4008,
      "▁markanın": 4009,
      "▁yumruk": 4010,
      "▁surecini": 4011,
      "▁mısınız": 4012,
      "▁olasılıkla": 4013,
      "▁muhalefet": 4014,
      "▁mizac": 4015,
      "imi": 4016,
      "dort": 4017,
      "▁kalmıs": 4018,
      "▁kubb": 4019,
      "▁cakal": 4020,
      "akları": 4021,
      "▁lıgı": 4022,
      "▁tug": 4023,
      "▁dizgin": 4024,
      "▁sonucunu": 4025,
      "lıca": 4026,
      "▁sektorun": 4027,
      "▁otomobilin": 4028,
      "▁kapali": 4029,
      "▁sende": 4030,
      "▁havalimanı'na": 4031,
      "▁fotografı": 4032,
      "apon": 4033,
      "▁grupları": 4034,
      "25": 4035,
      "▁ses": 4036,
      "▁atesle": 4037,
      "▁prov": 4038,
      "▁okulun": 4039,
      "▁gol": 4040,
      "yol": 4041,
      "mıyorum": 4042,
      "▁acıklıyor": 4043,
      "▁yatak": 4044,
      "imore": 4045,
      "▁karav": 4046,
      "▁yumus": 4047,
      "▁anında": 4048,
      "yip": 4049,
      "▁esas": 4050,
      "▁ovgu": 4051,
      "▁caminin": 4052,
      "▁sek": 4053,
      "▁kocasının": 4054,
      "▁kokusunu": 4055,
      "▁birligi'nin": 4056,
      "▁yaklasım": 4057,
      "▁davetliler": 4058,
      "▁nok": 4059,
      "▁hasıl": 4060,
      "▁artıslar": 4061,
      "rily": 4062,
      "▁bitim": 4063,
      "▁iskar": 4064,
      "tt": 4065,
      "izdir": 4066,
      "▁afrik": 4067,
      "▁tencerede": 4068,
      "▁yapacagını": 4069,
      "▁yabancilara": 4070,
      "▁sokaklarında": 4071,
      "▁kendilig": 4072,
      "▁otomotiv": 4073,
      "59": 4074,
      "▁alması": 4075,
      "▁oldug": 4076,
      "▁cırak": 4077,
      "▁sar": 4078,
      "yacak": 4079,
      "▁gelistirmeye": 4080,
      "jon": 4081,
      "▁muzigin": 4082,
      "▁yapıl": 4083,
      "fı": 4084,
      "▁ogrenci": 4085,
      "▁reisi": 4086,
      "▁dokunul": 4087,
      "arındaki": 4088,
      "▁planın": 4089,
      "▁peygam": 4090,
      "▁jose": 4091,
      "/32": 4092,
      "▁kesf": 4093,
      "▁seyrediyordu": 4094,
      "▁olmaz": 4095,
      "▁olusturdu": 4096,
      "▁da": 4097,
      "vr": 4098,
      "▁sanatcılar": 4099,
      "▁ozenle": 4100,
      "▁karsıtı": 4101,
      "▁yolunda": 4102,
      "▁canını": 4103,
      "▁satısların": 4104,
      "▁olayda": 4105,
      "gec": 4106,
      "▁zapt": 4107,
      "▁meblag": 4108,
      "melidir": 4109,
      "ınıyor": 4110,
      "▁sırf": 4111,
      "▁dek": 4112,
      "▁sebebi": 4113,
      "▁aglamaya": 4114,
      "▁bizden": 4115,
      "ıltı": 4116,
      "▁mutlulugu": 4117,
      "ikr": 4118,
      "▁yonde": 4119,
      "▁koruk": 4120,
      "legi": 4121,
      "ırp": 4122,
      "▁toronto": 4123,
      "▁cumhuriyetcilerin": 4124,
      "t": 4125,
      "▁oburleri": 4126,
      "gur": 4127,
      "ental": 4128,
      "▁fuz": 4129,
      "▁cumhurb": 4130,
      "uye": 4131,
      "▁trak": 4132,
      "▁ısıgın": 4133,
      "▁klima": 4134,
      "▁etmey": 4135,
      "lıgında": 4136,
      "▁artısının": 4137,
      "▁alan": 4138,
      "eksiyon": 4139,
      "▁karsiladi": 4140,
      "▁ipot": 4141,
      "▁agaca": 4142,
      "▁roz": 4143,
      "qu": 4144,
      "▁havayollarıyla": 4145,
      "▁raf": 4146,
      "▁kutuk": 4147,
      "▁feragat": 4148,
      "▁dikkat": 4149,
      "lıgına": 4150,
      "▁gelince": 4151,
      "▁dir": 4152,
      "▁cenaze": 4153,
      "▁alakaliydi": 4154,
      "▁geldig": 4155,
      "▁2'ye": 4156,
      "▁arbitraj": 4157,
      "▁nag": 4158,
      "▁kaps": 4159,
      "▁oyna": 4160,
      "▁kokteyl": 4161,
      "▁hazırlıklar": 4162,
      "▁yonlendir": 4163,
      "▁gezin": 4164,
      "cıları": 4165,
      "▁katip": 4166,
      "yal": 4167,
      "▁olmasını": 4168,
      "▁beyef": 4169,
      "▁kocasını": 4170,
      "yet": 4171,
      "▁profesor": 4172,
      "▁ufuk": 4173,
      "▁yadig": 4174,
      "▁omer": 4175,
      "▁subv": 4176,
      "▁karab": 4177,
      "▁boslukta": 4178,
      "▁tasım": 4179,
      "ındı": 4180,
      "▁ucuyor": 4181,
      "▁haberde": 4182,
      "ursuz": 4183,
      "▁basbak": 4184,
      "▁coz": 4185,
      "▁soyledik": 4186,
      "▁urun": 4187,
      "▁guzel": 4188,
      "▁ani": 4189,
      "sarken": 4190,
      "▁evini": 4191,
      "▁odalarin": 4192,
      "amlı": 4193,
      "▁madde": 4194,
      "haneye": 4195,
      "ziv": 4196,
      "▁genclere": 4197,
      "▁leri": 4198,
      "▁bang": 4199,
      "▁bitirmek": 4200,
      "▁yuzum": 4201,
      "▁yaglı": 4202,
      "dıg": 4203,
      "▁katilmak": 4204,
      "rne": 4205,
      "▁istik": 4206,
      "yap": 4207,
      "▁otuz": 4208,
      "▁kahkahalar": 4209,
      "eginden": 4210,
      "▁kec": 4211,
      "▁bulamac": 4212,
      "▁yapardı": 4213,
      "▁niyet": 4214,
      "▁yetki": 4215,
      "▁tal": 4216,
      "▁talim": 4217,
      "▁tavla": 4218,
      "▁sebep": 4219,
      "▁oysa": 4220,
      "▁taahhut": 4221,
      "▁karsılıklı": 4222,
      "▁sahıs": 4223,
      "▁komunistler": 4224,
      "▁toplant": 4225,
      "▁iliskin": 4226,
      "▁personel": 4227,
      "▁oranlarını": 4228,
      "ilim": 4229,
      "▁merdiven": 4230,
      "▁havlu": 4231,
      "eleriyle": 4232,
      "▁veterin": 4233,
      "▁tatb": 4234,
      "▁memurları": 4235,
      "▁karısının": 4236,
      "▁olar": 4237,
      "▁ını": 4238,
      "▁uza": 4239,
      "▁selam": 4240,
      "ilen": 4241,
      "▁bazilari": 4242,
      "log": 4243,
      "▁otobusun": 4244,
      "▁gelmesi": 4245,
      "▁otelden": 4246,
      "▁beri": 4247,
      "acılara": 4248,
      "▁tahv": 4249,
      "larda": 4250,
      "▁cocukların": 4251,
      "onlar": 4252,
      "▁dog": 4253,
      "▁dusurmek": 4254,
      "emde": 4255,
      "ologlar": 4256,
      "kav": 4257,
      "ırtmak": 4258,
      "▁elbiselerini": 4259,
      "teki": 4260,
      "▁parca": 4261,
      "▁suzgec": 4262,
      "▁alıntı": 4263,
      "▁ustesinden": 4264,
      "▁kadın": 4265,
      "▁musterilere": 4266,
      "▁coluk": 4267,
      "▁guzelim": 4268,
      "▁kasla": 4269,
      "▁degilim": 4270,
      "▁cihaz": 4271,
      "▁saglamayı": 4272,
      "▁verdigini": 4273,
      "▁zaf": 4274,
      "▁duygusal": 4275,
      "80": 4276,
      "lukte": 4277,
      "▁demeye": 4278,
      "▁dedikleri": 4279,
      "imet": 4280,
      "▁kapısında": 4281,
      "▁has": 4282,
      "▁bilimi": 4283,
      "▁gerekir": 4284,
      "▁zahmet": 4285,
      "▁trene": 4286,
      "▁halıları": 4287,
      "▁end": 4288,
      "▁beni": 4289,
      "▁hacmine": 4290,
      "▁ekonomi": 4291,
      "▁bira": 4292,
      "▁yuzleri": 4293,
      "▁lezzet": 4294,
      "▁mudahal": 4295,
      "▁hemen": 4296,
      "▁kategor": 4297,
      "▁yuzunden": 4298,
      "▁alaka": 4299,
      "▁yumurta": 4300,
      "▁clev": 4301,
      "▁hissediyor": 4302,
      "tırmak": 4303,
      "▁sorumlu": 4304,
      "▁icimi": 4305,
      "▁olculere": 4306,
      "▁tecrub": 4307,
      ",": 4308,
      "▁sahiptir": 4309,
      "▁hostes": 4310,
      "▁degisir": 4311,
      "▁zay": 4312,
      "▁70": 4313,
      "▁kendinize": 4314,
      "jur": 4315,
      "▁had": 4316,
      "▁basrol": 4317,
      "▁saraydan": 4318,
      "sti": 4319,
      "▁programın": 4320,
      "▁60": 4321,
      "▁aldıgı": 4322,
      "▁kagıtları": 4323,
      "▁tekstil": 4324,
      "▁yarının": 4325,
      "▁neb": 4326,
      "▁degerine": 4327,
      "▁dunyasına": 4328,
      "▁getirdigini": 4329,
      "▁mit": 4330,
      "ıkları": 4331,
      "ilya": 4332,
      "▁tesisler": 4333,
      "▁durak": 4334,
      "lamalarını": 4335,
      "▁yuzunu": 4336,
      "▁etmekte": 4337,
      "▁satısın": 4338,
      "▁`": 4339,
      "▁hırsız": 4340,
      "▁chicago'dan": 4341,
      "▁derste": 4342,
      "ktu": 4343,
      "▁hoc": 4344,
      "▁tı": 4345,
      "fi": 4346,
      "dıgını": 4347,
      "tır": 4348,
      "▁sandaly": 4349,
      "zır": 4350,
      "▁sep": 4351,
      "▁pro": 4352,
      "▁guncel": 4353,
      "▁rec": 4354,
      "▁vucud": 4355,
      "▁metr": 4356,
      "▁programını": 4357,
      "▁mujde": 4358,
      "▁bakıyordu": 4359,
      "▁beyn": 4360,
      "▁denli": 4361,
      "▁gerceklik": 4362,
      "▁arastırmada": 4363,
      "aren": 4364,
      "▁dogu": 4365,
      "▁yemek": 4366,
      "▁gelmis": 4367,
      "▁yukselen": 4368,
      "▁yepyeni": 4369,
      "▁slog": 4370,
      "dın": 4371,
      "▁kabiliyet": 4372,
      "▁denizde": 4373,
      "▁navl": 4374,
      "mustum": 4375,
      "tiklerini": 4376,
      "▁endust": 4377,
      "▁kendisinden": 4378,
      "▁mayın": 4379,
      "asyona": 4380,
      "▁irf": 4381,
      "▁kullanıl": 4382,
      "stım": 4383,
      "▁uzaga": 4384,
      "▁bek": 4385,
      "▁davasını": 4386,
      "ef": 4387,
      "▁lokant": 4388,
      "▁azap": 4389,
      "ncu": 4390,
      "▁dolardı": 4391,
      "▁kesi": 4392,
      "lanın": 4393,
      "▁terliklerini": 4394,
      "▁evliligin": 4395,
      "▁farklılık": 4396,
      "▁ilc": 4397,
      "▁ugultu": 4398,
      "▁hukmu": 4399,
      "▁savasının": 4400,
      "▁macta": 4401,
      "▁fiyatlarla": 4402,
      "ligimin": 4403,
      "▁sıkıntısı": 4404,
      "mıstık": 4405,
      "▁agustos": 4406,
      "▁ortaydi": 4407,
      "▁sozlesme": 4408,
      "▁yatırımcı": 4409,
      "irligi": 4410,
      "▁yım": 4411,
      "azın": 4412,
      "▁oglan": 4413,
      "gu": 4414,
      "▁kayda": 4415,
      "▁muhatap": 4416,
      "▁girdim": 4417,
      "▁alet": 4418,
      "▁ortasından": 4419,
      "amın": 4420,
      "▁g": 4421,
      "lerle": 4422,
      "▁ustun": 4423,
      "/2": 4424,
      "eliginde": 4425,
      "▁turizm": 4426,
      "ımızdan": 4427,
      "▁gorusmeler": 4428,
      "▁malı": 4429,
      "eller": 4430,
      "angoz": 4431,
      "▁hong": 4432,
      "dık": 4433,
      "▁kabin": 4434,
      "▁li": 4435,
      "organ": 4436,
      "▁aldim": 4437,
      "▁kurallara": 4438,
      "▁otellerin": 4439,
      "ihan": 4440,
      "▁ero": 4441,
      "▁baslarında": 4442,
      "▁tetkik": 4443,
      "▁oldugunda": 4444,
      "▁iskele": 4445,
      "▁kilom": 4446,
      "▁patr": 4447,
      "▁analist": 4448,
      "▁bunlara": 4449,
      "▁varil": 4450,
      "▁guney": 4451,
      "▁did": 4452,
      "▁depremden": 4453,
      "▁veren": 4454,
      "▁eglence": 4455,
      "ladı": 4456,
      "▁leblebi": 4457,
      "▁yalnızca": 4458,
      "iss": 4459,
      "▁algı": 4460,
      "▁zayıf": 4461,
      "▁bazen": 4462,
      "▁muhat": 4463,
      "▁gereginden": 4464,
      "▁,": 4465,
      "▁borsası": 4466,
      "▁kaval": 4467,
      "ttı": 4468,
      "▁hayalleri": 4469,
      "▁suyunu": 4470,
      "▁kendiniz": 4471,
      "▁uykuya": 4472,
      "▁kurtu": 4473,
      "▁hucre": 4474,
      "mma": 4475,
      "▁maruz": 4476,
      "▁engelleri": 4477,
      "▁unsuru": 4478,
      "▁ker": 4479,
      "▁tık": 4480,
      "▁yetkisi": 4481,
      "▁york'a": 4482,
      "▁dukkanlar": 4483,
      "▁an": 4484,
      "▁takımları": 4485,
      "▁okul": 4486,
      "▁ayaz": 4487,
      "▁simdi": 4488,
      "▁sevin": 4489,
      "ap": 4490,
      "bulans": 4491,
      "▁misali": 4492,
      "kik": 4493,
      "▁barın": 4494,
      "▁etrafı": 4495,
      "egini": 4496,
      "▁satısı": 4497,
      "▁amerikan": 4498,
      "▁surec": 4499,
      "▁buk": 4500,
      "0'de": 4501,
      "latır": 4502,
      "tane": 4503,
      "lal": 4504,
      "▁hamlenin": 4505,
      "▁patatesleri": 4506,
      "itleri": 4507,
      "▁kullandim": 4508,
      "▁otomobil": 4509,
      "▁tomurcuk": 4510,
      "▁yazılım": 4511,
      "ilmesini": 4512,
      "lamaları": 4513,
      "▁onunden": 4514,
      "▁tesir": 4515,
      "iki": 4516,
      "▁1.9": 4517,
      "▁performanstan": 4518,
      "▁tablo": 4519,
      "ak": 4520,
      "▁kanadı": 4521,
      "▁oner": 4522,
      "▁ucretin": 4523,
      "▁cıkarlarını": 4524,
      "▁teklifine": 4525,
      "amak": 4526,
      "▁ihalesi": 4527,
      "▁sonucları": 4528,
      "▁artırmayı": 4529,
      "▁yıldız": 4530,
      "cıs": 4531,
      "▁kullanma": 4532,
      "▁kovustur": 4533,
      "li": 4534,
      "▁balay": 4535,
      "▁derslerinde": 4536,
      "▁muht": 4537,
      "cunun": 4538,
      "▁asagıl": 4539,
      "lig": 4540,
      "▁animator": 4541,
      "la": 4542,
      "▁otele": 4543,
      "asıdır": 4544,
      "▁olabil": 4545,
      "▁islemlerini": 4546,
      "▁seviyelerinde": 4547,
      "▁calısma": 4548,
      "imen": 4549,
      "▁tarcın": 4550,
      "▁pantolonunu": 4551,
      "▁seydir": 4552,
      "▁teknolojisini": 4553,
      "▁aktif": 4554,
      "iniz": 4555,
      "kiler": 4556,
      "▁tahminle": 4557,
      "▁sozde": 4558,
      "▁baltimore'den": 4559,
      "ukee": 4560,
      "▁fasulye": 4561,
      "▁muzaker": 4562,
      "▁minar": 4563,
      "▁geleni": 4564,
      "▁orası": 4565,
      "▁oynad": 4566,
      "lasma": 4567,
      "▁dereden": 4568,
      "▁bazilar": 4569,
      "▁aksaklik": 4570,
      "▁karsılıgında": 4571,
      "▁but": 4572,
      "▁itibari": 4573,
      "▁omzuna": 4574,
      "▁ayrılır": 4575,
      "▁hel": 4576,
      "ilmedi": 4577,
      "▁izlemek": 4578,
      "▁dayan": 4579,
      "▁mıs": 4580,
      "lenen": 4581,
      "▁profes": 4582,
      "▁boynuna": 4583,
      "▁takdir": 4584,
      "▁dondum": 4585,
      "▁po": 4586,
      "ınızı": 4587,
      "lıgımız": 4588,
      "”": 4589,
      "▁katıldı": 4590,
      "▁indian": 4591,
      "▁hindistan": 4592,
      "▁prosed": 4593,
      "▁sırtı": 4594,
      "▁kurulus": 4595,
      "▁pesinde": 4596,
      "▁zaten": 4597,
      "▁hisse": 4598,
      "▁konusma": 4599,
      "▁georg": 4600,
      "▁tarzı": 4601,
      "'den": 4602,
      "mis": 4603,
      "▁tepeden": 4604,
      "▁120": 4605,
      "▁iddi": 4606,
      "▁yukseldi": 4607,
      "▁zevk": 4608,
      "▁hepimizi": 4609,
      "4": 4610,
      "ır": 4611,
      "▁dergisinde": 4612,
      "▁bası": 4613,
      "▁hurr": 4614,
      "▁satısının": 4615,
      "ea": 4616,
      "▁yeng": 4617,
      "▁gam": 4618,
      "ci": 4619,
      "▁chat": 4620,
      "▁yeme": 4621,
      "▁konuyu": 4622,
      "emiyorum": 4623,
      "▁baslar": 4624,
      "ok": 4625,
      "▁donemlerde": 4626,
      "▁1.8": 4627,
      "imler": 4628,
      "▁ulkesi": 4629,
      "▁el": 4630,
      "▁depr": 4631,
      "▁katıl": 4632,
      "▁gıc": 4633,
      "lerinize": 4634,
      "▁ilave": 4635,
      "▁katılım": 4636,
      "▁ayrıntıları": 4637,
      "▁havl": 4638,
      "▁talep": 4639,
      "▁girince": 4640,
      "▁sakaya": 4641,
      "▁tarlada": 4642,
      "▁soluc": 4643,
      "▁jam": 4644,
      "▁sevgisi": 4645,
      "lub": 4646,
      "▁espri": 4647,
      "eo": 4648,
      "▁islerinde": 4649,
      "▁bulut": 4650,
      "▁orani": 4651,
      "▁calıstı": 4652,
      "ebe": 4653,
      "▁dedek": 4654,
      "▁ytl": 4655,
      "▁geceler": 4656,
      "▁oyunun": 4657,
      "▁vet": 4658,
      "▁haksızlıgı": 4659,
      "▁ticaretinde": 4660,
      "▁baktım": 4661,
      "▁civarı": 4662,
      "▁tesvik": 4663,
      "▁kullanılır": 4664,
      "▁varlıgı": 4665,
      "▁tedbiri": 4666,
      "▁liste": 4667,
      "▁47": 4668,
      "liginin": 4669,
      "lam": 4670,
      "▁hakikat": 4671,
      "▁eti": 4672,
      "ydi": 4673,
      "▁gelene": 4674,
      "lesiyor": 4675,
      "▁ant": 4676,
      "▁yonelikti": 4677,
      "▁degistirmek": 4678,
      "▁jones": 4679,
      "▁yumurt": 4680,
      "ımları": 4681,
      "80'": 4682,
      "▁kacır": 4683,
      "▁etik": 4684,
      "▁ob": 4685,
      "▁kesif": 4686,
      "▁aram": 4687,
      "▁omur": 4688,
      "▁ıs": 4689,
      "▁sof": 4690,
      "seksen": 4691,
      "▁islere": 4692,
      "▁yaban": 4693,
      "eb": 4694,
      "▁mezar": 4695,
      "ilmez": 4696,
      "ıcılık": 4697,
      "mazdı": 4698,
      "▁musteriler": 4699,
      "▁planının": 4700,
      "▁ne": 4701,
      "▁isaretleri": 4702,
      "▁adamdan": 4703,
      "bin": 4704,
      "▁anlamı": 4705,
      "▁ymıs": 4706,
      "▁haftada": 4707,
      "meliyim": 4708,
      "▁sınıf": 4709,
      "evizyon": 4710,
      "ıgını": 4711,
      "▁fon": 4712,
      "▁karıstırın": 4713,
      "▁belirten": 4714,
      "▁aynada": 4715,
      "mı": 4716,
      "kurmay": 4717,
      "tmeye": 4718,
      "▁insana": 4719,
      "▁kuvvetleri": 4720,
      "▁kulturu": 4721,
      "letti": 4722,
      "kını": 4723,
      "▁tercum": 4724,
      "▁mutfagi": 4725,
      "▁veril": 4726,
      "▁sistemini": 4727,
      "'n": 4728,
      "malar": 4729,
      "▁egr": 4730,
      "▁suph": 4731,
      "▁davar": 4732,
      "▁tanıgı": 4733,
      "ugu": 4734,
      "▁2": 4735,
      "▁kullanmaya": 4736,
      "▁memnuniyet": 4737,
      "▁iceceklerden": 4738,
      "▁sırtından": 4739,
      "▁rus": 4740,
      "▁kagıt": 4741,
      "▁modelleri": 4742,
      "▁pal": 4743,
      "▁mucade": 4744,
      "▁konusmayı": 4745,
      "ekt": 4746,
      "cilerin": 4747,
      "muslar": 4748,
      "▁dusunce": 4749,
      "real": 4750,
      "▁re": 4751,
      "▁asın": 4752,
      "▁cesit": 4753,
      "▁ucurt": 4754,
      "▁yolculuga": 4755,
      "▁koalisyon": 4756,
      "▁tiyatro": 4757,
      "▁fırında": 4758,
      "▁islevi": 4759,
      "adar": 4760,
      "▁yolcul": 4761,
      "▁cekildi": 4762,
      "otiv": 4763,
      "▁surecinin": 4764,
      "▁gurur": 4765,
      "▁sef": 4766,
      "▁bankaların": 4767,
      "▁ortaklıgı": 4768,
      "▁kediye": 4769,
      "▁spor": 4770,
      "tr": 4771,
      "▁magazaların": 4772,
      "▁nut": 4773,
      "▁hibe": 4774,
      "▁toplantıya": 4775,
      "▁sorunlardan": 4776,
      "etini": 4777,
      "▁doktorlar": 4778,
      "▁soyledim": 4779,
      "▁haberdar": 4780,
      "▁direktoru": 4781,
      "estirdi": 4782,
      "madıgını": 4783,
      "lamıstı": 4784,
      "▁piyas": 4785,
      "▁inc.": 4786,
      "▁etmiyor": 4787,
      "▁belirt": 4788,
      "▁sonuclar": 4789,
      "▁hepimizin": 4790,
      "▁duran": 4791,
      "▁genisleme": 4792,
      "▁ortalaması": 4793,
      "emedim": 4794,
      "▁armag": 4795,
      "▁hayv": 4796,
      "▁talebe": 4797,
      "▁dekor": 4798,
      "▁yerlerinden": 4799,
      "▁civarında": 4800,
      "▁arar": 4801,
      "▁tesise": 4802,
      "▁kırım": 4803,
      "▁kapıyı": 4804,
      "▁harcam": 4805,
      "▁tekn": 4806,
      "▁yılın": 4807,
      "▁cent": 4808,
      "▁genelinde": 4809,
      "▁kaydet": 4810,
      "tema": 4811,
      "▁etmek": 4812,
      "▁mater": 4813,
      "▁duman": 4814,
      "▁cesme": 4815,
      "▁vot": 4816,
      "▁tedavi": 4817,
      "▁kez": 4818,
      "▁guclerini": 4819,
      "▁herhalde": 4820,
      "▁saclarının": 4821,
      "▁bahce": 4822,
      "▁yararlan": 4823,
      "ugunda": 4824,
      "▁sinemaya": 4825,
      "▁dahiliye": 4826,
      "tık": 4827,
      "kum": 4828,
      "▁bakımından": 4829,
      "▁baskanlıgında": 4830,
      "iyim": 4831,
      "▁perde": 4832,
      "▁kapılarında": 4833,
      "▁mudure": 4834,
      "▁dunyada": 4835,
      "'ın": 4836,
      "▁brok": 4837,
      "ane": 4838,
      "onya": 4839,
      "0'ı": 4840,
      "5'i": 4841,
      "cul": 4842,
      "▁yud": 4843,
      "▁kaf": 4844,
      "▁iceriyor": 4845,
      "▁ilgililerdi": 4846,
      "▁miras": 4847,
      "▁kurmak": 4848,
      "▁hırs": 4849,
      "▁baskal": 4850,
      "▁davet": 4851,
      "▁saniye": 4852,
      "leyip": 4853,
      "▁plak": 4854,
      "▁antren": 4855,
      "iyel": 4856,
      "▁hisseleri": 4857,
      "▁babamla": 4858,
      "▁trafigi": 4859,
      "tam": 4860,
      "▁yiyor": 4861,
      "▁band": 4862,
      "▁kalor": 4863,
      "▁reklam": 4864,
      "▁81": 4865,
      "luge": 4866,
      "▁co": 4867,
      "▁girisim": 4868,
      "▁altındaki": 4869,
      "▁kullanıcı": 4870,
      "▁kalan": 4871,
      "▁charl": 4872,
      "▁bilgiler": 4873,
      "▁tatilimden": 4874,
      "▁lezz": 4875,
      "ilmistir": 4876,
      "▁atmosfer": 4877,
      "irgin": 4878,
      "▁yeterli": 4879,
      "▁deli": 4880,
      "▁bunyesinde": 4881,
      "▁apıs": 4882,
      "inci": 4883,
      "▁\"": 4884,
      "▁lıgın": 4885,
      "▁kapısının": 4886,
      "▁85": 4887,
      "▁acen": 4888,
      "▁durusma": 4889,
      "▁tuk": 4890,
      "▁halen": 4891,
      "▁gitmek": 4892,
      "▁hastaneye": 4893,
      "▁etleri": 4894,
      "erh": 4895,
      "▁hayatı": 4896,
      "▁yalnız": 4897,
      "▁carsıda": 4898,
      "▁dogrudan": 4899,
      "▁avuk": 4900,
      "▁mesaf": 4901,
      "itraj": 4902,
      "▁akar": 4903,
      "▁ayna": 4904,
      "▁ti": 4905,
      "▁bat": 4906,
      "ayıcı": 4907,
      "▁editoru": 4908,
      "▁vegas": 4909,
      "lantılı": 4910,
      "▁gitgide": 4911,
      "▁corb": 4912,
      "trily": 4913,
      "▁onda": 4914,
      "gmen": 4915,
      "▁senede": 4916,
      "▁kemer": 4917,
      "▁aylarda": 4918,
      "▁soylemedi": 4919,
      "▁konusunda": 4920,
      "▁kelimesinin": 4921,
      "▁problem": 4922,
      "▁guvenlik": 4923,
      "▁ley": 4924,
      "▁cumleleri": 4925,
      "uvar": 4926,
      "▁mulakat": 4927,
      "▁star": 4928,
      "▁havuz": 4929,
      "▁fazl": 4930,
      "▁saz": 4931,
      "▁santim": 4932,
      "dukları": 4933,
      "▁hazırlıkları": 4934,
      "▁boyuna": 4935,
      "▁sifir": 4936,
      "▁sacı": 4937,
      "▁denver'e": 4938,
      "▁kendinden": 4939,
      "mamız": 4940,
      "▁olduktan": 4941,
      "▁duygularının": 4942,
      "▁ortalık": 4943,
      "ullu": 4944,
      "▁bakın": 4945,
      "▁romanı": 4946,
      "▁secimlerin": 4947,
      "▁kısm": 4948,
      "ımdır": 4949,
      "▁donen": 4950,
      "▁burokrasi": 4951,
      "▁uyeligi": 4952,
      "▁kararıyla": 4953,
      "▁kaynaklar": 4954,
      "▁ret": 4955,
      "▁hazırlan": 4956,
      "▁agrısı": 4957,
      "▁gorevleri": 4958,
      "umuzda": 4959,
      "▁isareti": 4960,
      "▁sefer": 4961,
      "▁olabilecegini": 4962,
      "▁ruz": 4963,
      "▁takımı": 4964,
      "▁tabana": 4965,
      "▁ba": 4966,
      "▁kisiligi": 4967,
      "▁anlıslanabilirlik": 4968,
      "▁yont": 4969,
      "▁gorunce": 4970,
      "▁baslangıc": 4971,
      "▁benden": 4972,
      "▁muhendisi": 4973,
      "eceklerini": 4974,
      "▁aki": 4975,
      "▁v": 4976,
      "▁nihai": 4977,
      "▁kavg": 4978,
      "eysel": 4979,
      "▁kuruldu": 4980,
      "lerken": 4981,
      "▁cabalarını": 4982,
      "▁post": 4983,
      "▁diken": 4984,
      "▁mesajı": 4985,
      "▁ark": 4986,
      "amıyor": 4987,
      "▁zab": 4988,
      "▁%3": 4989,
      "azım": 4990,
      "▁kendilerine": 4991,
      "▁korkuya": 4992,
      "adem": 4993,
      "▁faktor": 4994,
      "▁duzine": 4995,
      "cb": 4996,
      "▁agb": 4997,
      "▁bilgisayarlarda": 4998,
      "▁saun": 4999,
      "▁gold": 5000,
      "▁gok": 5001,
      "▁kapa": 5002,
      "ise": 5003,
      "▁yeryuzunde": 5004,
      "goz": 5005,
      "▁eli": 5006,
      "▁ornegi": 5007,
      "▁ondan": 5008,
      "le": 5009,
      "▁bı": 5010,
      "▁dama": 5011,
      "▁almanya": 5012,
      "▁kalp": 5013,
      "hal": 5014,
      "▁dibinde": 5015,
      "▁dumanı": 5016,
      "oyla": 5017,
      "▁karabiber": 5018,
      "▁yerlerini": 5019,
      "mil": 5020,
      "▁odada": 5021,
      "▁sarkının": 5022,
      "▁sınır": 5023,
      "▁harcamalardan": 5024,
      "▁vaktini": 5025,
      "▁gormus": 5026,
      "▁mı": 5027,
      "▁geyik": 5028,
      "▁enf": 5029,
      "erans": 5030,
      "bek": 5031,
      "▁belleg": 5032,
      "▁gecekondu": 5033,
      "ılması": 5034,
      "tia": 5035,
      "▁biletleri": 5036,
      "▁cagında": 5037,
      "gırak": 5038,
      "lendirmek": 5039,
      "▁bi": 5040,
      "▁siddetini": 5041,
      "▁neres": 5042,
      "▁isletme": 5043,
      "ısıyla": 5044,
      "ıntılı": 5045,
      "▁hala": 5046,
      "▁1.7": 5047,
      "▁isine": 5048,
      "▁miktarda": 5049,
      "▁yatırımı": 5050,
      "oza": 5051,
      "▁keyf": 5052,
      "iyeden": 5053,
      "▁di": 5054,
      "▁cocuga": 5055,
      "gar": 5056,
      "▁listeleri": 5057,
      "▁say": 5058,
      "▁tansiyon": 5059,
      "▁kahvehan": 5060,
      "▁bilegi": 5061,
      "▁24": 5062,
      "▁getiriyor": 5063,
      "▁erkeklere": 5064,
      "mıyoruz": 5065,
      "ladıgını": 5066,
      "▁itimat": 5067,
      "sinin": 5068,
      "yacag": 5069,
      "emeyecegim": 5070,
      "▁multeci": 5071,
      "▁harcama": 5072,
      "▁guresci": 5073,
      "0'da": 5074,
      "▁lu": 5075,
      "▁tren": 5076,
      "malıdır": 5077,
      "▁oyun": 5078,
      "▁bilmek": 5079,
      "▁farklı": 5080,
      "▁olmadı": 5081,
      "▁dikkate": 5082,
      "▁iyimser": 5083,
      "lı": 5084,
      "▁argum": 5085,
      "▁kay": 5086,
      "▁sezonu": 5087,
      "▁bagr": 5088,
      "▁eserler": 5089,
      "▁dısarı": 5090,
      "▁hukuka": 5091,
      "▁yan": 5092,
      "▁balık": 5093,
      "▁gogs": 5094,
      "▁kıyas": 5095,
      "k": 5096,
      "▁gecirdik": 5097,
      "▁sez": 5098,
      "▁gelsin": 5099,
      "▁basmak": 5100,
      "▁sakak": 5101,
      "▁iznini": 5102,
      "▁ayrılıp": 5103,
      "▁arkas": 5104,
      "▁konusuyla": 5105,
      "ard": 5106,
      "ent": 5107,
      "▁saldırı": 5108,
      "usa": 5109,
      "▁gozda": 5110,
      "▁mavi": 5111,
      "▁rov": 5112,
      "▁cıkarmıs": 5113,
      "ay": 5114,
      "▁gelecekteki": 5115,
      "▁sahis": 5116,
      "▁kisiden": 5117,
      "▁musluk": 5118,
      "▁harbi": 5119,
      "▁yılından": 5120,
      "▁ogle": 5121,
      "▁tahvillerinin": 5122,
      "ildigi": 5123,
      "ize": 5124,
      "▁erdi": 5125,
      "▁yatırımcının": 5126,
      "▁sapka": 5127,
      "▁si": 5128,
      "▁mecmu": 5129,
      "▁suruleri": 5130,
      "▁3/4'e": 5131,
      "▁ekonominin": 5132,
      "▁subvansiyon": 5133,
      "▁rahatsız": 5134,
      "▁romancının": 5135,
      "▁kambiyo": 5136,
      "▁cıplak": 5137,
      "▁coc": 5138,
      "▁ekip": 5139,
      "▁oakland": 5140,
      "har": 5141,
      "▁yetkili": 5142,
      "▁okulda": 5143,
      "▁uyum": 5144,
      "▁gazeteciler": 5145,
      "▁anlatmak": 5146,
      "▁haps": 5147,
      "▁patiska": 5148,
      "arip": 5149,
      "▁niyetinde": 5150,
      "▁sıklıkla": 5151,
      "▁okulunda": 5152,
      "▁ol": 5153,
      "▁konut": 5154,
      "▁hesaba": 5155,
      "▁girmek": 5156,
      "▁bad": 5157,
      "muyor": 5158,
      "▁havaya": 5159,
      "▁em": 5160,
      "▁pemb": 5161,
      "▁sekiz": 5162,
      "▁felsefe": 5163,
      "▁tarlaya": 5164,
      "lardir": 5165,
      "▁muamele": 5166,
      "atını": 5167,
      "talık": 5168,
      "▁genclik": 5169,
      "klerini": 5170,
      "▁dayanagı": 5171,
      "▁seyiyle": 5172,
      "iye": 5173,
      "▁yenilg": 5174,
      "▁arttı": 5175,
      "▁varıncaya": 5176,
      "▁dokuz": 5177,
      "▁kimisi": 5178,
      "▁aktiviteler": 5179,
      "▁borsası'nda": 5180,
      "▁ozen": 5181,
      "gil": 5182,
      "gene": 5183,
      "▁geril": 5184,
      "▁hizmetine": 5185,
      "▁saglık": 5186,
      "▁analizi": 5187,
      "▁ortaya": 5188,
      "aba": 5189,
      "luga": 5190,
      "▁ataturk": 5191,
      "▁orgu": 5192,
      "▁guzelligine": 5193,
      "▁yt": 5194,
      "▁hasılat": 5195,
      "u": 5196,
      "beri": 5197,
      "▁oynadıgını": 5198,
      "▁kayalar": 5199,
      "yayı": 5200,
      "▁alacaklılar": 5201,
      "▁gitti": 5202,
      "h": 5203,
      "'nde": 5204,
      "lanıp": 5205,
      "▁kurek": 5206,
      "▁birde": 5207,
      "▁olduguna": 5208,
      "▁rica": 5209,
      "▁firmaları": 5210,
      "▁dille": 5211,
      "▁hicbirinin": 5212,
      "▁sebeb": 5213,
      "▁istemez": 5214,
      "▁uzakta": 5215,
      "▁kulce": 5216,
      "▁harik": 5217,
      "▁ettik": 5218,
      "▁umit": 5219,
      "ingi": 5220,
      "▁uy": 5221,
      "▁kafasına": 5222,
      "▁balk": 5223,
      "larlar": 5224,
      "▁yukarıya": 5225,
      "▁yel": 5226,
      "▁okumak": 5227,
      "lıgını": 5228,
      "▁gununde": 5229,
      "▁hediyesi": 5230,
      "▁kotu": 5231,
      "▁canak": 5232,
      "▁suy": 5233,
      "▁reasurans": 5234,
      "▁camur": 5235,
      "▁bekledi": 5236,
      "▁teknede": 5237,
      "▁fig": 5238,
      "oj": 5239,
      "zırda": 5240,
      "▁baglilik": 5241,
      "▁elektron": 5242,
      "iska": 5243,
      "▁arada": 5244,
      ".5'e": 5245,
      "▁or": 5246,
      ".8": 5247,
      "ıgım": 5248,
      "▁razı": 5249,
      "▁armut": 5250,
      "▁damarı": 5251,
      "mb": 5252,
      "▁buro": 5253,
      "▁kag": 5254,
      "▁sefere": 5255,
      "▁dul": 5256,
      "▁kızının": 5257,
      "▁yavasca": 5258,
      "▁teker": 5259,
      "▁kacın": 5260,
      "▁marj": 5261,
      "▁polem": 5262,
      "▁mahkemeler": 5263,
      "▁kanaat": 5264,
      "usup": 5265,
      "▁kredileri": 5266,
      "▁ailelere": 5267,
      "▁durmamacasına": 5268,
      "▁kenarı": 5269,
      "▁elli": 5270,
      "lıc": 5271,
      "▁temizliginden": 5272,
      "ig": 5273,
      "▁calısmaları": 5274,
      "▁fiyatını": 5275,
      "▁h": 5276,
      "▁olmayan": 5277,
      "▁evren": 5278,
      "▁cesedi": 5279,
      "▁koruması": 5280,
      "▁ala": 5281,
      "enek": 5282,
      "▁sahipleri": 5283,
      "▁sıcram": 5284,
      "▁guvencesi": 5285,
      "▁etki": 5286,
      "▁bono": 5287,
      "▁fas": 5288,
      "▁kongr": 5289,
      "▁makar": 5290,
      "▁tarihte": 5291,
      "▁tartısmaların": 5292,
      "emize": 5293,
      "▁kurucusu": 5294,
      "▁programda": 5295,
      "▁acisindan": 5296,
      "▁bacak": 5297,
      "lası": 5298,
      "du": 5299,
      "ugun": 5300,
      "▁sahn": 5301,
      "▁islemlerde": 5302,
      "▁amaca": 5303,
      "▁kızlar": 5304,
      "aduf": 5305,
      "▁alabilecegini": 5306,
      "osyon": 5307,
      "▁kala": 5308,
      "▁kelimelerle": 5309,
      "▁12'den": 5310,
      "▁matba": 5311,
      "lul": 5312,
      "▁huzur": 5313,
      "▁oteden": 5314,
      "▁terbiye": 5315,
      "▁kaybederek": 5316,
      "▁gelmez": 5317,
      "▁degerlendirme": 5318,
      "▁secimleri": 5319,
      "▁idi": 5320,
      "▁avcı": 5321,
      "za": 5322,
      "lastik": 5323,
      "onu": 5324,
      "▁iscileri": 5325,
      "▁artısa": 5326,
      "dadı": 5327,
      "▁cocuklarına": 5328,
      "▁belinde": 5329,
      "uzluktan": 5330,
      "▁cirkin": 5331,
      "▁ders": 5332,
      "▁kisilik": 5333,
      "▁turlarina": 5334,
      "acagından": 5335,
      "▁banyosu": 5336,
      "ndaki": 5337,
      "▁dosy": 5338,
      "▁nesil": 5339,
      "▁devre": 5340,
      "▁cogunlugu": 5341,
      "▁murekk": 5342,
      "▁rıhtım": 5343,
      "▁teslim": 5344,
      "▁gazetecileri": 5345,
      "▁savundu": 5346,
      "▁odası": 5347,
      "uzel": 5348,
      "▁a.m": 5349,
      "'nu": 5350,
      "▁yanıtlar": 5351,
      "▁kontrol": 5352,
      "▁esir": 5353,
      "▁kapasitesi": 5354,
      "▁bush": 5355,
      "▁sureli": 5356,
      "▁satısını": 5357,
      "▁toplumsal": 5358,
      "▁semsiye": 5359,
      "▁65": 5360,
      "▁diline": 5361,
      "▁herkes": 5362,
      "▁meseleyi": 5363,
      "anların": 5364,
      "▁modeller": 5365,
      "▁dogdu": 5366,
      "▁anad": 5367,
      "▁alakadar": 5368,
      "▁talebi": 5369,
      "▁ev": 5370,
      "▁siv": 5371,
      "▁ifade": 5372,
      "▁duy": 5373,
      "lav": 5374,
      "▁sozlerle": 5375,
      "▁sularda": 5376,
      "▁may": 5377,
      "▁kurulu'nda": 5378,
      "▁dedig": 5379,
      "▁kahvaltida": 5380,
      "▁lut": 5381,
      "▁uzerinde": 5382,
      "▁yapılanma": 5383,
      "▁yuk": 5384,
      "▁tulbent": 5385,
      "ger": 5386,
      "▁muz": 5387,
      "▁kurulusu": 5388,
      "▁(": 5389,
      "▁milliyetci": 5390,
      "lgelelim": 5391,
      "▁balt": 5392,
      "▁gokyuzune": 5393,
      "▁cıkacagını": 5394,
      "▁edilecek": 5395,
      "▁olan": 5396,
      "▁1": 5397,
      "kunc": 5398,
      "'ten": 5399,
      "▁delikanlının": 5400,
      "▁randev": 5401,
      "▁revizyon": 5402,
      "▁binada": 5403,
      "▁yo": 5404,
      "▁gurultu": 5405,
      "umun": 5406,
      "latmak": 5407,
      "▁solda": 5408,
      "eder": 5409,
      "▁konuma": 5410,
      "lisi": 5411,
      "▁nih": 5412,
      "▁sorum": 5413,
      "▁karsılık": 5414,
      "▁dusuk": 5415,
      "▁kalabalıgın": 5416,
      "▁riskini": 5417,
      "▁cizgisini": 5418,
      "▁birisi": 5419,
      "▁kaya": 5420,
      "▁kusları": 5421,
      "▁kararına": 5422,
      "igimi": 5423,
      "▁kazayla": 5424,
      "alle": 5425,
      "▁sablon": 5426,
      "▁karıs": 5427,
      "▁padisah": 5428,
      "▁zekası": 5429,
      "▁sogut": 5430,
      "▁suları": 5431,
      "▁baglam": 5432,
      "▁noktalarına": 5433,
      "▁izleri": 5434,
      "▁vekili": 5435,
      "dukten": 5436,
      "▁destekle": 5437,
      "▁kazanıyor": 5438,
      "▁day": 5439,
      "▁keten": 5440,
      "▁hayalet": 5441,
      "f": 5442,
      "▁gosteren": 5443,
      "▁kuk": 5444,
      "▁hizmetlerinden": 5445,
      "▁vaktim": 5446,
      "seydi": 5447,
      "esindeydi": 5448,
      "▁komun": 5449,
      "▁kucucuk": 5450,
      "▁listeleyin": 5451,
      "▁kabul": 5452,
      "▁yasındaki": 5453,
      "▁finansal": 5454,
      "▁uzakti": 5455,
      "▁yili": 5456,
      "▁ogretmeni": 5457,
      "tus": 5458,
      "otif": 5459,
      "rik": 5460,
      "▁israil": 5461,
      "▁vız": 5462,
      "▁saatini": 5463,
      "sine": 5464,
      "▁seviyesinden": 5465,
      "▁beach": 5466,
      "▁kalmadim": 5467,
      "ieg": 5468,
      "▁asırı": 5469,
      "▁apart": 5470,
      "▁pap": 5471,
      "▁rob": 5472,
      "▁zinc": 5473,
      "▁kodu": 5474,
      "erhal": 5475,
      "▁kredilere": 5476,
      "▁kuvvetler": 5477,
      "▁kaldıgını": 5478,
      "enk": 5479,
      "▁safh": 5480,
      "▁yoktur": 5481,
      "imizde": 5482,
      "▁alama": 5483,
      "▁okum": 5484,
      "bal": 5485,
      "▁tir": 5486,
      "▁pros": 5487,
      "▁anlasmayı": 5488,
      "▁bircogu": 5489,
      "▁temizlikte": 5490,
      "▁od": 5491,
      "landı": 5492,
      "acaklarını": 5493,
      "atlı": 5494,
      "▁tor": 5495,
      "▁odayı": 5496,
      "▁urunler": 5497,
      "ayan": 5498,
      "'luk": 5499,
      "▁geriye": 5500,
      "▁toky": 5501,
      "lay": 5502,
      "dil": 5503,
      "▁savcılar": 5504,
      "▁kavga": 5505,
      "▁kullanımını": 5506,
      "▁kızar": 5507,
      "▁ilk": 5508,
      "uar": 5509,
      "▁masayı": 5510,
      "igi": 5511,
      "▁tadima": 5512,
      "▁mevs": 5513,
      "▁hasarı": 5514,
      "▁toplantılarında": 5515,
      "▁kaldırma": 5516,
      "▁kitaba": 5517,
      "▁isver": 5518,
      "▁teyz": 5519,
      "▁verici": 5520,
      "culugu": 5521,
      "▁ihtiyacım": 5522,
      "▁dugun": 5523,
      "ugunun": 5524,
      "▁..": 5525,
      "▁yumur": 5526,
      "▁klim": 5527,
      "▁anlamda": 5528,
      "▁erken": 5529,
      "▁temb": 5530,
      "▁yapmakta": 5531,
      "▁duda": 5532,
      "▁kullanıyor": 5533,
      "▁manev": 5534,
      "▁depremle": 5535,
      "▁olag": 5536,
      "▁beklentilerimi": 5537,
      "oks": 5538,
      "▁aygıt": 5539,
      "▁gec": 5540,
      "▁tasımacılıgı": 5541,
      "▁yarı": 5542,
      "kac": 5543,
      "▁yeri": 5544,
      "alama": 5545,
      "▁gerektir": 5546,
      "▁sorunlarının": 5547,
      "▁yazılar": 5548,
      "▁kardeslik": 5549,
      "▁gobek": 5550,
      "indan": 5551,
      "imum": 5552,
      "▁boynunda": 5553,
      "opter": 5554,
      "▁farkında": 5555,
      "▁etsin": 5556,
      "▁birim": 5557,
      "▁kub": 5558,
      "sen": 5559,
      "▁tapın": 5560,
      "▁solunum": 5561,
      "tıklarını": 5562,
      "ya": 5563,
      "▁fikirleri": 5564,
      "▁onların": 5565,
      "▁oturmak": 5566,
      "▁indi": 5567,
      "ıldıgını": 5568,
      "▁hocam": 5569,
      "isler": 5570,
      "▁tasf": 5571,
      "▁yuzde": 5572,
      "▁etmektedir": 5573,
      "▁kaldırılması": 5574,
      "▁durup": 5575,
      "▁orayı": 5576,
      "▁alımının": 5577,
      "▁kredi": 5578,
      "▁buldum": 5579,
      "▁aks": 5580,
      "▁partiyi": 5581,
      "▁bicimine": 5582,
      "ill": 5583,
      "▁tanrı": 5584,
      "▁aldat": 5585,
      "altı": 5586,
      "▁edilmis": 5587,
      "▁agzını": 5588,
      "▁isra": 5589,
      "▁perdeden": 5590,
      "▁yerlerden": 5591,
      "islik": 5592,
      "▁zul": 5593,
      "▁kamuoy": 5594,
      "▁yeterliydi": 5595,
      "▁evimize": 5596,
      "nci": 5597,
      "▁ste": 5598,
      "▁yapmadı": 5599,
      "▁bildigi": 5600,
      "▁geregi": 5601,
      "▁1980": 5602,
      "▁gelistirme": 5603,
      "▁yapraklarını": 5604,
      "▁musterinin": 5605,
      "▁muammayı": 5606,
      "▁havayollarında": 5607,
      "▁sokagı": 5608,
      "▁personelleri": 5609,
      "▁kalacak": 5610,
      "aset": 5611,
      "▁gelecekte": 5612,
      "▁alakasi": 5613,
      "▁seattle'den": 5614,
      "▁asa": 5615,
      "▁faaliyetinde": 5616,
      "▁kazananlar": 5617,
      "▁soba": 5618,
      "ke": 5619,
      "▁anasının": 5620,
      "▁aynısını": 5621,
      "▁giz": 5622,
      "anet": 5623,
      "▁1\\/4": 5624,
      "▁koyuldu": 5625,
      "▁onume": 5626,
      "manın": 5627,
      "uf": 5628,
      "▁dususle": 5629,
      "▁esi": 5630,
      "▁camek": 5631,
      "▁haklı": 5632,
      "▁sıc": 5633,
      "▁8": 5634,
      "▁simdilik": 5635,
      "▁iptal": 5636,
      "▁aklımdan": 5637,
      "▁okuma": 5638,
      "abet": 5639,
      "▁turunu": 5640,
      "▁salonuna": 5641,
      "zer": 5642,
      "▁key": 5643,
      "▁yavru": 5644,
      "▁evimizde": 5645,
      "▁mir": 5646,
      "uge": 5647,
      "▁versiyon": 5648,
      "▁yollardan": 5649,
      "▁cesmenin": 5650,
      "▁ettiginde": 5651,
      "▁karam": 5652,
      "▁kacta": 5653,
      "▁yahudi": 5654,
      "▁deneme": 5655,
      "▁alım-sat": 5656,
      "▁samimiyet": 5657,
      "▁nasip": 5658,
      "▁gay": 5659,
      "▁ucunda": 5660,
      "et": 5661,
      "▁grubuna": 5662,
      "enn": 5663,
      "olis": 5664,
      "▁yar": 5665,
      "▁hıckırık": 5666,
      "▁umut": 5667,
      "ational": 5668,
      "▁renk": 5669,
      "▁cevre": 5670,
      "▁mahkemesinde": 5671,
      "▁varmak": 5672,
      "ıs": 5673,
      "▁agzım": 5674,
      "ılgan": 5675,
      "▁omz": 5676,
      "lukla": 5677,
      "▁so": 5678,
      "mayan": 5679,
      "▁suya": 5680,
      "▁esk": 5681,
      "ledigi": 5682,
      "▁uzmanlar": 5683,
      "▁ikam": 5684,
      "▁mevc": 5685,
      "▁sub": 5686,
      "▁sınav": 5687,
      "▁dusmeye": 5688,
      "istlerin": 5689,
      "▁magazada": 5690,
      "▁parayla": 5691,
      "▁dudakları": 5692,
      "▁long": 5693,
      "▁degildir": 5694,
      "ye": 5695,
      "▁inis": 5696,
      "▁yabancıların": 5697,
      "arında": 5698,
      "▁gunluk": 5699,
      "▁icimden": 5700,
      "▁haykır": 5701,
      "agında": 5702,
      "▁doları'nda": 5703,
      "▁cıkıp": 5704,
      "▁holding": 5705,
      "▁baskanları": 5706,
      "▁olay": 5707,
      "uklu": 5708,
      "▁hijyenik": 5709,
      "abilecegine": 5710,
      "▁vezn": 5711,
      "▁seviyesinin": 5712,
      "▁aracılar": 5713,
      "▁endustriler": 5714,
      "ftadır": 5715,
      "▁yız": 5716,
      "▁kısıtlamalar": 5717,
      "▁kazık": 5718,
      "▁asamasında": 5719,
      "▁bodrum": 5720,
      "adan": 5721,
      "▁beklentimin": 5722,
      "▁faaliyet": 5723,
      "5'lik": 5724,
      "▁sonlarında": 5725,
      "▁kapıdan": 5726,
      "dog": 5727,
      "▁sonraki": 5728,
      "rill": 5729,
      "▁cakmak": 5730,
      "6'dan": 5731,
      "▁oks": 5732,
      "▁bakıyorum": 5733,
      "▁elimizde": 5734,
      "▁otellerden": 5735,
      "▁tarifeleri": 5736,
      "▁guzelligin": 5737,
      "▁rap": 5738,
      "ilmek": 5739,
      "▁gelisim": 5740,
      "▁ilgisizlik": 5741,
      "▁hareketlerini": 5742,
      "▁cuzdanı": 5743,
      "▁baskumandan": 5744,
      "▁carpan": 5745,
      "acagını": 5746,
      "▁islemi": 5747,
      "▁kata": 5748,
      "gul": 5749,
      "meni": 5750,
      "aliydi": 5751,
      "▁lokma": 5752,
      "▁ilkokul": 5753,
      "▁kokain": 5754,
      "uyen": 5755,
      "▁tarihlerinde": 5756,
      "▁boyun": 5757,
      "▁baba": 5758,
      "▁hapishane": 5759,
      "▁adin": 5760,
      "umus": 5761,
      "▁biridir": 5762,
      ".2": 5763,
      "▁eki": 5764,
      "▁bunu": 5765,
      "▁ırk": 5766,
      "▁incelem": 5767,
      "▁iri": 5768,
      "▁tamam": 5769,
      "▁maydanoz": 5770,
      "suzluk": 5771,
      "▁tah": 5772,
      "▁servis": 5773,
      "▁takım": 5774,
      "▁sayın": 5775,
      "▁anlas": 5776,
      "▁degisimi": 5777,
      "▁birilerini": 5778,
      "lerin": 5779,
      "hane": 5780,
      "▁kına": 5781,
      "▁inancı": 5782,
      "kot": 5783,
      "▁olmaya": 5784,
      "▁giriste": 5785,
      "▁dairesine": 5786,
      "▁dusunmek": 5787,
      "▁sonuclarının": 5788,
      "▁tarihli": 5789,
      "ksa": 5790,
      "▁muhabbet": 5791,
      "▁calisanlari": 5792,
      "dukca": 5793,
      "agan": 5794,
      "▁pudra": 5795,
      "▁de": 5796,
      "ic": 5797,
      "▁kentin": 5798,
      "▁rolu": 5799,
      "▁zincirinin": 5800,
      "▁mesru": 5801,
      "▁meg": 5802,
      "▁odemesini": 5803,
      "▁uretiyor": 5804,
      "lacak": 5805,
      "▁satırları": 5806,
      "ukluk": 5807,
      "egin": 5808,
      "baz": 5809,
      "▁bar": 5810,
      "▁egilimi": 5811,
      "▁durur": 5812,
      "▁baslat": 5813,
      "mediler": 5814,
      "▁annesiyle": 5815,
      "▁muy": 5816,
      "▁raporlar": 5817,
      "▁ailenin": 5818,
      "▁reorgan": 5819,
      "▁yorgun": 5820,
      "▁hayatta": 5821,
      "▁agzına": 5822,
      "▁cantasında": 5823,
      "▁isv": 5824,
      "▁ata": 5825,
      "▁guzelligi": 5826,
      "teci": 5827,
      "les": 5828,
      "▁'lı": 5829,
      "▁bolum": 5830,
      "izi": 5831,
      "▁gitmeyi": 5832,
      "▁fev": 5833,
      "▁dongu": 5834,
      "▁bos": 5835,
      "▁unvanını": 5836,
      "▁anlatım": 5837,
      "duktan": 5838,
      "oeni": 5839,
      "▁yapılacak": 5840,
      "▁mısın": 5841,
      "▁ruhunun": 5842,
      "▁saglıklı": 5843,
      "▁haberin": 5844,
      "▁mizah": 5845,
      "▁imkanı": 5846,
      "dıgım": 5847,
      "▁peh": 5848,
      "▁-": 5849,
      "lesme": 5850,
      "▁istiyordu": 5851,
      "▁goze": 5852,
      "▁dusunur": 5853,
      "▁hazırladı": 5854,
      "▁rejimi": 5855,
      "z": 5856,
      "▁giy": 5857,
      "8'e": 5858,
      "▁hanim": 5859,
      "cilerinin": 5860,
      "▁karısık": 5861,
      "▁misafiri": 5862,
      "olo": 5863,
      "▁acıklaması": 5864,
      "▁ecekti": 5865,
      "▁pus": 5866,
      "▁yarına": 5867,
      "cik": 5868,
      "▁yet": 5869,
      "▁altern": 5870,
      "▁bilanc": 5871,
      "▁yanından": 5872,
      "▁acmak": 5873,
      "▁bayr": 5874,
      "egimizi": 5875,
      "▁oneririm": 5876,
      "▁sene": 5877,
      "▁edebiyatın": 5878,
      "▁12.5": 5879,
      "▁yapildi": 5880,
      "▁karnını": 5881,
      "▁washington": 5882,
      "▁uzerime": 5883,
      "▁ın": 5884,
      "▁misin": 5885,
      "▁seyir": 5886,
      "▁muharr": 5887,
      "▁rota": 5888,
      "▁sehri": 5889,
      "▁takı": 5890,
      "alandır": 5891,
      "elerin": 5892,
      "▁cilek": 5893,
      "▁nufuz": 5894,
      "▁yudum": 5895,
      "▁degerli": 5896,
      "elerim": 5897,
      "▁biliyor": 5898,
      "▁bilezik": 5899,
      "▁birimleri": 5900,
      "▁yasında": 5901,
      "ai": 5902,
      "▁seh": 5903,
      "▁duruyor": 5904,
      "▁rev": 5905,
      "▁gectigini": 5906,
      "▁amir": 5907,
      "▁duruma": 5908,
      "▁iskenc": 5909,
      "manının": 5910,
      "▁buy": 5911,
      "▁mel": 5912,
      "▁tahk": 5913,
      "emeyecegini": 5914,
      "layarak": 5915,
      "▁lak": 5916,
      "▁yavrum": 5917,
      "▁iktis": 5918,
      "70'": 5919,
      "▁personeline": 5920,
      "▁yana": 5921,
      "▁benziyordu": 5922,
      "▁kısa": 5923,
      "▁temasa": 5924,
      "anma": 5925,
      "▁esvap": 5926,
      "▁piyasası": 5927,
      "▁davetiye": 5928,
      "▁reaksiyon": 5929,
      "▁gelecegini": 5930,
      "▁odayi": 5931,
      "▁dantel": 5932,
      "▁sonradan": 5933,
      "anlardan": 5934,
      "▁duruyordu": 5935,
      "▁ut": 5936,
      "▁yoneticilerin": 5937,
      "tak": 5938,
      "kt": 5939,
      "▁yiyeceklerin": 5940,
      "▁heye": 5941,
      "▁bus": 5942,
      "▁yonetim": 5943,
      "ecekler": 5944,
      "▁gelmek": 5945,
      "var": 5946,
      "▁etkilerini": 5947,
      "▁devlet": 5948,
      "▁.": 5949,
      "▁fabrikasının": 5950,
      "▁yollar": 5951,
      ".1": 5952,
      "ladıkları": 5953,
      "▁icermektedir": 5954,
      "tırma": 5955,
      "▁meb": 5956,
      "▁ayagın": 5957,
      "uzdu": 5958,
      "▁planını": 5959,
      "▁maya": 5960,
      "▁karsımıza": 5961,
      "alan": 5962,
      "eliydi": 5963,
      "▁soyleyebilir": 5964,
      "▁hedefleri": 5965,
      "▁kaydetti": 5966,
      "▁lanet": 5967,
      "▁omrunun": 5968,
      "▁vaj": 5969,
      "▁kanser": 5970,
      "▁sozcukleri": 5971,
      "▁ayık": 5972,
      "▁rakamları": 5973,
      "▁dogrusu": 5974,
      "▁medya": 5975,
      "▁begendim": 5976,
      "▁osman": 5977,
      "▁versin": 5978,
      "asa": 5979,
      "▁sureci": 5980,
      "isah": 5981,
      "▁degisimin": 5982,
      "▁ku": 5983,
      "▁profesoru": 5984,
      "▁gomlegini": 5985,
      "landır": 5986,
      "aguar": 5987,
      "▁havada": 5988,
      "▁dans": 5989,
      "umuzdan": 5990,
      "desinin": 5991,
      "▁klor": 5992,
      "unlar": 5993,
      "▁ugra": 5994,
      "ort": 5995,
      "▁gosterin": 5996,
      "▁musteri": 5997,
      "▁kitapları": 5998,
      "lamasını": 5999,
      "▁sup": 6000,
      "▁kara": 6001,
      "▁payı": 6002,
      "▁gozunun": 6003,
      "▁ederek": 6004,
      "▁york'ta": 6005,
      "▁herh": 6006,
      "orth": 6007,
      "▁davasının": 6008,
      "▁icindir": 6009,
      "▁sirketidir": 6010,
      "▁olasılıgını": 6011,
      "▁buranın": 6012,
      "▁sayesinde": 6013,
      "▁tev": 6014,
      "umuzun": 6015,
      "▁kırlangıc": 6016,
      "izme": 6017,
      "▁esde": 6018,
      "▁oldular": 6019,
      "▁silah": 6020,
      "▁bilmiyor": 6021,
      "▁satıcılar": 6022,
      "▁toront": 6023,
      "▁harman": 6024,
      "alisyon": 6025,
      "▁62": 6026,
      "▁tarifeler": 6027,
      "ates": 6028,
      "ısal": 6029,
      "▁sekreter": 6030,
      "▁dilden": 6031,
      "ecik": 6032,
      "▁duskun": 6033,
      "▁hukumete": 6034,
      "▁tehdidi": 6035,
      "▁senetlerine": 6036,
      "▁ucuslarının": 6037,
      "▁huzun": 6038,
      "▁ayından": 6039,
      "▁koptu": 6040,
      "▁yaparak": 6041,
      "▁esyaları": 6042,
      "▁maddeler": 6043,
      "▁dum": 6044,
      "▁spot": 6045,
      "▁tuyu": 6046,
      "siyle": 6047,
      "▁adım": 6048,
      "co": 6049,
      "▁kalmaz": 6050,
      "▁zaman": 6051,
      "dug": 6052,
      "▁seviyesinde": 6053,
      "▁sıvı": 6054,
      "eratif": 6055,
      "▁fonksiyon": 6056,
      "▁ydım": 6057,
      "lerimize": 6058,
      "▁cozumu": 6059,
      "w": 6060,
      "▁kardes": 6061,
      "▁golu": 6062,
      "▁cemiyet": 6063,
      "▁muhtemelen": 6064,
      "ars": 6065,
      "▁ulkesinde": 6066,
      "▁ilcesine": 6067,
      "igine": 6068,
      "ladık": 6069,
      "▁boyunca": 6070,
      "▁agaclar": 6071,
      "▁sponsor": 6072,
      "dılar": 6073,
      "▁dan": 6074,
      "ıver": 6075,
      "aleti": 6076,
      "ikten": 6077,
      "▁parti": 6078,
      "▁memnuniyetini": 6079,
      "▁herkese": 6080,
      "▁ciftligi": 6081,
      "▁isletmeleri": 6082,
      "▁iflah": 6083,
      "▁sallan": 6084,
      "▁meden": 6085,
      "landırdı": 6086,
      "▁yapt": 6087,
      "kları": 6088,
      "▁seyh": 6089,
      "▁ulusal": 6090,
      "▁yatagına": 6091,
      "▁gelenek": 6092,
      "▁1.5": 6093,
      "▁magara": 6094,
      "▁gitmem": 6095,
      "▁sosyal": 6096,
      "▁oruc": 6097,
      "▁ha": 6098,
      "▁alanını": 6099,
      "nı": 6100,
      "▁asagılık": 6101,
      "▁hukumdar": 6102,
      "00000": 6103,
      "▁yıldızları": 6104,
      "▁esnada": 6105,
      "▁gorevlerini": 6106,
      "abiliyor": 6107,
      "▁nesesi": 6108,
      "▁sanduk": 6109,
      "▁neyi": 6110,
      "sul": 6111,
      "▁aracların": 6112,
      "▁dusur": 6113,
      "▁digeri": 6114,
      "lasarak": 6115,
      "▁temas": 6116,
      "▁tebessum": 6117,
      "▁3.": 6118,
      "▁begenmedik": 6119,
      "▁kendilerinin": 6120,
      "diklerinde": 6121,
      "cag": 6122,
      "lanta": 6123,
      "▁mad": 6124,
      "▁barınagı": 6125,
      "lanmasına": 6126,
      "▁beyden": 6127,
      "▁yone": 6128,
      "▁cıktıgını": 6129,
      "mekt": 6130,
      "asının": 6131,
      "▁halinden": 6132,
      "▁cıkma": 6133,
      "▁ayır": 6134,
      "▁elimde": 6135,
      "liler": 6136,
      "▁dusundum": 6137,
      "▁yaklas": 6138,
      "▁aracı": 6139,
      "▁kendisine": 6140,
      "▁alanları": 6141,
      "ima": 6142,
      "ektif": 6143,
      "ıc": 6144,
      "lamak": 6145,
      "lanabilir": 6146,
      "▁direnis": 6147,
      "lıyorum": 6148,
      "anla": 6149,
      "ek": 6150,
      "mızı": 6151,
      "▁ederim": 6152,
      "▁sarh": 6153,
      "▁resmini": 6154,
      "▁secim": 6155,
      "▁ed": 6156,
      "▁oyunu": 6157,
      "▁kilit": 6158,
      "▁ogrenc": 6159,
      "▁deme": 6160,
      "▁secime": 6161,
      "▁yaratıc": 6162,
      "asina": 6163,
      "uyorlar": 6164,
      "▁fit": 6165,
      "▁pl": 6166,
      "▁huzursuzluk": 6167,
      "▁katında": 6168,
      "▁cog": 6169,
      "▁efend": 6170,
      "amad": 6171,
      "▁endise": 6172,
      "form": 6173,
      "dası": 6174,
      "▁alıyordu": 6175,
      "ilini": 6176,
      "3'te": 6177,
      "dev": 6178,
      "▁yır": 6179,
      "▁otede": 6180,
      "landıgında": 6181,
      "▁evv": 6182,
      "alad": 6183,
      "▁geldikleri": 6184,
      "▁degildim": 6185,
      "ırım": 6186,
      "▁sansı": 6187,
      "▁iyimserlik": 6188,
      "▁dug": 6189,
      "▁mevzuatı": 6190,
      "▁petersburg": 6191,
      "▁coban": 6192,
      "▁ustunu": 6193,
      "▁ilav": 6194,
      "▁sıy": 6195,
      "▁hızla": 6196,
      "▁pınar": 6197,
      "ciger": 6198,
      "▁deplasman": 6199,
      "▁elini": 6200,
      "lanması": 6201,
      "▁entar": 6202,
      "▁birbirleri": 6203,
      "▁alacak": 6204,
      "ılar": 6205,
      "▁satıs": 6206,
      "▁senaryo": 6207,
      "▁alt": 6208,
      "▁tukur": 6209,
      "▁bany": 6210,
      "▁etmisti": 6211,
      "▁degerini": 6212,
      "▁operasyonlarına": 6213,
      "▁cikis": 6214,
      "▁belir": 6215,
      "mine": 6216,
      "amiza": 6217,
      "▁ciftci": 6218,
      "ların": 6219,
      "▁iman": 6220,
      "▁fu": 6221,
      "▁parcayı": 6222,
      "▁1'den": 6223,
      "▁58": 6224,
      "▁yuku": 6225,
      "▁sinem": 6226,
      "▁burbank": 6227,
      "▁cesidi": 6228,
      "▁faturam": 6229,
      "▁dah": 6230,
      "▁sanatlar": 6231,
      "▁sorusturma": 6232,
      "▁kararın": 6233,
      "▁neler": 6234,
      "▁sorunum": 6235,
      "▁siparisleri": 6236,
      "▁yatırımcılar": 6237,
      "▁600": 6238,
      "ımız": 6239,
      "▁incel": 6240,
      "▁radyoyu": 6241,
      "▁rahat": 6242,
      "▁ipotege": 6243,
      "lasabilir": 6244,
      "▁yıl": 6245,
      "▁esyayı": 6246,
      "mısım": 6247,
      "▁gelin": 6248,
      "▁genellikle": 6249,
      "lıyordu": 6250,
      "yaları": 6251,
      "▁dısar": 6252,
      "▁1991": 6253,
      "tan": 6254,
      "arlık": 6255,
      "kilere": 6256,
      "▁muhar": 6257,
      "▁yontemi": 6258,
      "▁partisinin": 6259,
      "▁bostan": 6260,
      "▁acıl": 6261,
      "▁sebek": 6262,
      "ebil": 6263,
      ".": 6264,
      "▁gorun": 6265,
      "tıran": 6266,
      "▁yatırım": 6267,
      "▁spekul": 6268,
      "▁acıyla": 6269,
      "▁tavuklar": 6270,
      "▁sinirlerini": 6271,
      "▁imtiy": 6272,
      "▁egz": 6273,
      "0": 6274,
      "eydi": 6275,
      "▁kapak": 6276,
      "▁hukumeti": 6277,
      "edir": 6278,
      "▁sayf": 6279,
      "▁moral": 6280,
      "▁ekmekle": 6281,
      "yst": 6282,
      "▁mukem": 6283,
      "uldu": 6284,
      "▁mo": 6285,
      "▁kaldim": 6286,
      "▁satın": 6287,
      "amızın": 6288,
      "▁ekonomistler": 6289,
      "▁notu": 6290,
      "00'e": 6291,
      "▁kendisi": 6292,
      "ıga": 6293,
      "▁masraflar": 6294,
      "ikatur": 6295,
      "▁ikimiz": 6296,
      "ırdı": 6297,
      "ızda": 6298,
      "▁komitesi": 6299,
      "▁ayagı": 6300,
      "▁cleveland": 6301,
      "air": 6302,
      "▁bizde": 6303,
      "▁tedbirler": 6304,
      "▁olumle": 6305,
      "▁tec": 6306,
      "▁seyle": 6307,
      "▁miralay": 6308,
      "▁corp.": 6309,
      "▁heyetin": 6310,
      "▁erk": 6311,
      "▁yes": 6312,
      "▁tartı": 6313,
      "▁santr": 6314,
      "▁beyanat": 6315,
      "▁misyon": 6316,
      "▁olumden": 6317,
      "▁sarkıları": 6318,
      "▁bastan": 6319,
      "▁koc": 6320,
      "▁yardıma": 6321,
      "▁sab": 6322,
      "▁sakat": 6323,
      "▁kaldı": 6324,
      "▁jon": 6325,
      "▁suruk": 6326,
      "▁sapı": 6327,
      "emezdi": 6328,
      "l": 6329,
      "▁bes": 6330,
      "▁uyardı": 6331,
      "▁nefese": 6332,
      "▁bizlere": 6333,
      "▁bre": 6334,
      "▁tum": 6335,
      "ırtı": 6336,
      "▁aramızda": 6337,
      "▁basv": 6338,
      "▁evlilik": 6339,
      "▁vadeli": 6340,
      "iyon": 6341,
      "▁defne": 6342,
      "▁99": 6343,
      "▁rady": 6344,
      "▁yogurt": 6345,
      "▁oak": 6346,
      "etik": 6347,
      "▁maliyetlerini": 6348,
      "▁sosyalizm": 6349,
      "▁rol": 6350,
      "▁yargı": 6351,
      "▁utanc": 6352,
      "eliyor": 6353,
      "▁gir": 6354,
      "▁surekli": 6355,
      "▁sıkıntı": 6356,
      "▁bilmez": 6357,
      "▁tab": 6358,
      "▁verecegini": 6359,
      "▁makineleri": 6360,
      "▁delta": 6361,
      "aki": 6362,
      "▁gunumuz": 6363,
      "▁sal": 6364,
      "▁stan": 6365,
      "▁3.ceyrek": 6366,
      "▁konusmak": 6367,
      "▁hız": 6368,
      "▁anlay": 6369,
      "▁sıgır": 6370,
      "▁francisco'ya": 6371,
      "▁lezzetli": 6372,
      "▁goz": 6373,
      "‘": 6374,
      "▁taraftar": 6375,
      "▁koseye": 6376,
      "▁degisti": 6377,
      "▁sert": 6378,
      "ilebilir": 6379,
      "▁murekkep": 6380,
      "▁kurustan": 6381,
      "▁yataga": 6382,
      "▁bulun": 6383,
      "emey": 6384,
      "yince": 6385,
      "▁sif": 6386,
      "▁yetkililerine": 6387,
      "▁duzeni": 6388,
      "▁7.5": 6389,
      "▁sevgili": 6390,
      "▁chp": 6391,
      "ikli": 6392,
      "▁belediye": 6393,
      "amet": 6394,
      "▁soktu": 6395,
      "▁turp": 6396,
      "▁milyara": 6397,
      "▁gidip": 6398,
      "▁tenc": 6399,
      "▁bankanın": 6400,
      "▁felc": 6401,
      "▁yarıs": 6402,
      "▁eder": 6403,
      "▁paraları": 6404,
      "▁yosun": 6405,
      "▁karargah": 6406,
      "ifer": 6407,
      "onto": 6408,
      "ıyoruz": 6409,
      "▁personelin": 6410,
      "▁yılki": 6411,
      "▁kok": 6412,
      "▁bulus": 6413,
      "ısının": 6414,
      "▁uretimi": 6415,
      "▁guc": 6416,
      "▁10": 6417,
      "chester": 6418,
      "▁mol": 6419,
      "▁olcut": 6420,
      "▁33": 6421,
      "▁cık": 6422,
      "▁gecir": 6423,
      "/8": 6424,
      "▁nakliye": 6425,
      "▁sorununa": 6426,
      "▁odemesi": 6427,
      "▁1\\/8": 6428,
      "▁vaktiyle": 6429,
      "▁kuyruk": 6430,
      "▁cıg": 6431,
      "▁ticari": 6432,
      "ıv": 6433,
      "▁basladı": 6434,
      "ob": 6435,
      "▁cerey": 6436,
      "▁ligin": 6437,
      "▁memnunum": 6438,
      "▁tahminini": 6439,
      "▁kelime": 6440,
      "▁bilgileri": 6441,
      "▁edit": 6442,
      "▁oda": 6443,
      "▁hepsinin": 6444,
      "▁edilen": 6445,
      "ific": 6446,
      "▁kazandı": 6447,
      "▁saka": 6448,
      "▁yarından": 6449,
      "▁bakısı": 6450,
      "▁vad": 6451,
      "▁/": 6452,
      "ın": 6453,
      "▁misafirimizle": 6454,
      "▁malumat": 6455,
      "▁?..": 6456,
      "▁yardımıyla": 6457,
      "▁salon": 6458,
      "▁urunlerinin": 6459,
      "yag": 6460,
      "▁ongordu": 6461,
      "▁musiki": 6462,
      "▁bogaz": 6463,
      "▁bagrı": 6464,
      "▁resesyon": 6465,
      "fen": 6466,
      "▁dalı": 6467,
      "elerinin": 6468,
      "▁uslu": 6469,
      "▁gucunu": 6470,
      "▁dususun": 6471,
      "ve": 6472,
      "▁saglar": 6473,
      "▁hissedarların": 6474,
      "▁cıkarıp": 6475,
      "▁76": 6476,
      "▁anadolu": 6477,
      "ulur": 6478,
      "▁eyaletler": 6479,
      "▁bugune": 6480,
      "▁ortalamanın": 6481,
      "▁kafam": 6482,
      "▁cıkıyordu": 6483,
      "▁gozunde": 6484,
      "▁fabr": 6485,
      "▁uyelerini": 6486,
      "▁kimden": 6487,
      "▁gurultuye": 6488,
      "▁sehirde": 6489,
      "▁arad": 6490,
      "▁sorusuna": 6491,
      "acak": 6492,
      "▁hik": 6493,
      "atı": 6494,
      "▁kapsamına": 6495,
      "▁kesin": 6496,
      "▁eksi": 6497,
      "▁acıklama": 6498,
      "lattı": 6499,
      "▁ihtis": 6500,
      "▁tay": 6501,
      "mur": 6502,
      "▁demokrat": 6503,
      "▁hanimdi": 6504,
      "▁endustriyel": 6505,
      "▁ailesi": 6506,
      "▁suren": 6507,
      "fer": 6508,
      "▁odev": 6509,
      "▁yolunu": 6510,
      "▁gucle": 6511,
      "▁44": 6512,
      "▁gaflet": 6513,
      "▁duygularını": 6514,
      "▁ulkeyi": 6515,
      "▁ayakta": 6516,
      "anlarla": 6517,
      "▁cem": 6518,
      "▁kızım": 6519,
      "▁nash": 6520,
      "▁alanlar": 6521,
      "▁gozetim": 6522,
      "yi": 6523,
      "▁deter": 6524,
      "▁tasdik": 6525,
      "nin": 6526,
      "▁yemis": 6527,
      "indeydi": 6528,
      "afeti": 6529,
      "▁pasap": 6530,
      "▁nadir": 6531,
      "▁issizlik": 6532,
      "▁yazma": 6533,
      "▁ettikten": 6534,
      "▁faturami": 6535,
      "▁ucreti": 6536,
      "▁boyutu": 6537,
      "▁art": 6538,
      "▁bitir": 6539,
      "▁revize": 6540,
      "▁izleme": 6541,
      "▁yapma": 6542,
      "▁makam": 6543,
      "▁kasırga": 6544,
      "▁besin": 6545,
      "▁ettiklerini": 6546,
      "▁psil": 6547,
      "▁kontrolu": 6548,
      "▁olunca": 6549,
      "▁hamlesi": 6550,
      "miyor": 6551,
      "▁propaganda": 6552,
      "▁sıralarda": 6553,
      "▁serisi": 6554,
      "▁sola": 6555,
      "▁uykudan": 6556,
      "ayık": 6557,
      "▁nereden": 6558,
      "▁kurtar": 6559,
      "▁hij": 6560,
      "▁tavrı": 6561,
      "unca": 6562,
      "▁ciftlerine": 6563,
      "▁tahrik": 6564,
      "ebilirdi": 6565,
      "▁uykuda": 6566,
      "demli": 6567,
      "▁hes": 6568,
      "▁saatine": 6569,
      "▁birincisi": 6570,
      "▁aracları": 6571,
      "▁yapıldıgını": 6572,
      "▁istedigim": 6573,
      "▁fatur": 6574,
      "▁almıstı": 6575,
      "▁kardesi": 6576,
      "▁iletisimi": 6577,
      "▁deyisle": 6578,
      "▁united": 6579,
      "▁asagıda": 6580,
      "▁derv": 6581,
      "▁etrafını": 6582,
      "tis": 6583,
      "▁ayri": 6584,
      "ama": 6585,
      "dal": 6586,
      "dem": 6587,
      "▁dukkanında": 6588,
      "▁dem": 6589,
      "mik": 6590,
      "▁alıskanlıgı": 6591,
      "▁ogren": 6592,
      "▁acısıyla": 6593,
      "du.": 6594,
      "od": 6595,
      "tıgımı": 6596,
      "▁ora": 6597,
      "▁yakınında": 6598,
      "▁dalgın": 6599,
      "▁korid": 6600,
      "▁hissedarlar": 6601,
      "▁calısmaya": 6602,
      "▁gercekl": 6603,
      "▁cagr": 6604,
      "▁imkanlarindan": 6605,
      "▁ulas": 6606,
      "▁konus": 6607,
      "▁gozden": 6608,
      "alara": 6609,
      "▁sabır": 6610,
      "▁partiler": 6611,
      "▁tahmininde": 6612,
      "▁saatlerini": 6613,
      "▁vade": 6614,
      "ley": 6615,
      "▁basladıgını": 6616,
      "▁biriktir": 6617,
      "▁uzerinden": 6618,
      "▁0": 6619,
      "▁seyinden": 6620,
      "▁gırt": 6621,
      "▁bakimsizdi": 6622,
      "▁sorunun": 6623,
      "▁altını": 6624,
      "ekon": 6625,
      "▁elinizde": 6626,
      "▁olaganustu": 6627,
      "▁adamın": 6628,
      "▁gecik": 6629,
      "▁hucr": 6630,
      "▁gide": 6631,
      "▁refah": 6632,
      "▁sozcugu": 6633,
      "▁sis": 6634,
      "▁yuruy": 6635,
      "▁yuruyordu": 6636,
      "▁oynat": 6637,
      "▁katilmadim": 6638,
      "▁nisp": 6639,
      "dıgında": 6640,
      "▁kr": 6641,
      "▁misafirimiz": 6642,
      "leyecek": 6643,
      "▁iyiye": 6644,
      "pu": 6645,
      "▁mev": 6646,
      "▁hade": 6647,
      "▁dolar": 6648,
      "▁meyv": 6649,
      "▁odalarda": 6650,
      "▁insanlarla": 6651,
      "▁cekici": 6652,
      "▁gozleri": 6653,
      "dırım": 6654,
      "iyorlar": 6655,
      "▁konusunu": 6656,
      "vey": 6657,
      "▁tehdidini": 6658,
      "▁basbakanlık": 6659,
      "▁tatlilar": 6660,
      "▁con": 6661,
      "▁idare": 6662,
      "▁temizleme": 6663,
      "▁87": 6664,
      "▁tarafın": 6665,
      "▁cıkar": 6666,
      "ph": 6667,
      "▁donemlerinde": 6668,
      "eyecegini": 6669,
      "▁imkan": 6670,
      "dugunu": 6671,
      "▁dislerini": 6672,
      "▁sebepleri": 6673,
      "▁edelim": 6674,
      "lerdir": 6675,
      "▁'li": 6676,
      "▁devleti": 6677,
      "tluk": 6678,
      "mesini": 6679,
      "masının": 6680,
      "▁hırsızlar": 6681,
      "▁vasatti": 6682,
      "▁sorunlar": 6683,
      "▁konf": 6684,
      "▁kalitesine": 6685,
      "▁tam": 6686,
      "lumu": 6687,
      "▁dokundu": 6688,
      "▁daima": 6689,
      "mser": 6690,
      "▁franchise": 6691,
      "▁kullanmayı": 6692,
      "▁saf": 6693,
      "▁kadına": 6694,
      "▁bekcisi": 6695,
      "▁hastaları": 6696,
      "▁ehemm": 6697,
      "▁american": 6698,
      "▁uyelerinin": 6699,
      "▁muf": 6700,
      "'": 6701,
      "▁eylul": 6702,
      "▁yang": 6703,
      "▁vatandaslar": 6704,
      "▁daya": 6705,
      "▁hangisi": 6706,
      "▁ciddiyet": 6707,
      "▁dib": 6708,
      "▁anlasmaya": 6709,
      "▁parlak": 6710,
      "ayeti": 6711,
      "▁73": 6712,
      "▁likidit": 6713,
      "▁pasif": 6714,
      "▁pantol": 6715,
      "▁cebinde": 6716,
      "▁nor": 6717,
      "▁yasıyor": 6718,
      "▁oncesi": 6719,
      "▁casusluk": 6720,
      "▁girisimleri": 6721,
      "▁mevz": 6722,
      "▁girisimde": 6723,
      "▁yedi": 6724,
      "▁neticesinde": 6725,
      "▁ahen": 6726,
      "▁kirec": 6727,
      "▁ustune": 6728,
      "▁tanıs": 6729,
      "▁tahkim": 6730,
      "eni": 6731,
      "▁nevi": 6732,
      "▁bagdas": 6733,
      "▁hesabı": 6734,
      "lanır": 6735,
      "▁renklerde": 6736,
      "▁odalardan": 6737,
      "▁ciftlikleri": 6738,
      "▁aslına": 6739,
      "ser": 6740,
      "▁=": 6741,
      "▁yig": 6742,
      "▁kil": 6743,
      "sınız": 6744,
      "▁sozcusu": 6745,
      "▁hızlıca": 6746,
      "▁katı": 6747,
      "▁istifa": 6748,
      "▁masalı": 6749,
      "▁iceriden": 6750,
      "lim": 6751,
      "▁secimde": 6752,
      "▁satıslarının": 6753,
      "▁yasadık": 6754,
      "lendigini": 6755,
      "▁referans": 6756,
      "lerine": 6757,
      "▁war": 6758,
      "▁iktid": 6759,
      "mustu": 6760,
      "▁bahsetti": 6761,
      "lasmıstı": 6762,
      "▁sayı": 6763,
      "▁eldiv": 6764,
      "▁siir": 6765,
      "▁yonu": 6766,
      "mezdi": 6767,
      "▁viraj": 6768,
      "▁acıklamada": 6769,
      "3'e": 6770,
      "▁beklenti": 6771,
      "kı": 6772,
      "▁dilim": 6773,
      "omosyon": 6774,
      "lge": 6775,
      "▁ual": 6776,
      "▁birahan": 6777,
      "ımızda": 6778,
      "▁kalma": 6779,
      "▁onum": 6780,
      "luy": 6781,
      "▁500": 6782,
      "emi": 6783,
      "dadır": 6784,
      "▁elbet": 6785,
      "▁25": 6786,
      "dırmak": 6787,
      "▁odulu": 6788,
      "▁arkada": 6789,
      "▁sohret": 6790,
      "ızlı": 6791,
      "▁yeryuzunun": 6792,
      "lerimle": 6793,
      "▁gozlemcileri": 6794,
      "▁1/2": 6795,
      "sizce": 6796,
      "imize": 6797,
      "▁olanı": 6798,
      "▁avukatı": 6799,
      "▁tarihinden": 6800,
      "▁val": 6801,
      "▁calismas": 6802,
      "▁rehberim": 6803,
      "▁tahvillerin": 6804,
      "▁pasta": 6805,
      "▁devletin": 6806,
      "▁hattı": 6807,
      "iyorsunuz": 6808,
      "▁bask": 6809,
      "▁kasım": 6810,
      "▁un": 6811,
      "▁pantolon": 6812,
      "▁sınıfa": 6813,
      "▁bucak": 6814,
      "▁olmayacagını": 6815,
      "▁mektupta": 6816,
      "▁niteligi": 6817,
      "▁tenkit": 6818,
      "▁diy": 6819,
      "▁cıkardı": 6820,
      "▁yaratmaya": 6821,
      "▁rakı": 6822,
      "▁tesaduf": 6823,
      "▁sikintilardan": 6824,
      "▁kade": 6825,
      "▁mahs": 6826,
      "▁kapasitesine": 6827,
      "▁karsımda": 6828,
      "▁montreal": 6829,
      "▁yukarıda": 6830,
      "leri": 6831,
      "sas": 6832,
      "▁ga": 6833,
      "▁olcekli": 6834,
      "▁suc": 6835,
      "▁hicbirine": 6836,
      "▁ısıgını": 6837,
      "▁yarad": 6838,
      "▁yukselt": 6839,
      "ceklerini": 6840,
      "▁donmus": 6841,
      "▁sektorde": 6842,
      "▁uslup": 6843,
      "▁halkla": 6844,
      "▁mesgul": 6845,
      "▁sesiyle": 6846,
      "▁olmasa": 6847,
      "▁gavur": 6848,
      "▁karsın": 6849,
      "ısın": 6850,
      "▁guleryuzlulerdi": 6851,
      "endi": 6852,
      "▁konforlu": 6853,
      "astır": 6854,
      "▁sehre": 6855,
      "irler": 6856,
      "▁mustesar": 6857,
      "▁kadıncagız": 6858,
      "▁9": 6859,
      "▁80": 6860,
      "▁tırman": 6861,
      "▁iyilik": 6862,
      "▁kerv": 6863,
      "▁sayisi": 6864,
      "olog": 6865,
      "▁rich": 6866,
      "▁denge": 6867,
      "▁fak": 6868,
      "▁kalanlar": 6869,
      "▁tesekkur": 6870,
      "▁calısıyordu": 6871,
      "▁cunku": 6872,
      "▁gumruk": 6873,
      "▁elbiseler": 6874,
      "ayı": 6875,
      "ukca": 6876,
      "▁ickiye": 6877,
      "▁askerin": 6878,
      "▁tarif": 6879,
      "▁yavas": 6880,
      "▁vesik": 6881,
      "▁oyunc": 6882,
      "esi": 6883,
      "▁zincir": 6884,
      "ıyor": 6885,
      "▁ikinc": 6886,
      "▁girmis": 6887,
      "▁oncelik": 6888,
      "▁birlestir": 6889,
      "▁yaptik": 6890,
      "▁savasa": 6891,
      "ılmak": 6892,
      "uste": 6893,
      "▁ihracı": 6894,
      "▁gulmeye": 6895,
      "▁eser": 6896,
      "▁oldur": 6897,
      "▁bankacılıgı": 6898,
      "▁gostermeye": 6899,
      "▁silk": 6900,
      "stır": 6901,
      "▁yurt": 6902,
      "▁komite": 6903,
      "▁dedem": 6904,
      "▁sonuna": 6905,
      "▁doldurdu": 6906,
      "▁sirketinin": 6907,
      "▁lı": 6908,
      "cılara": 6909,
      "▁kadro": 6910,
      "▁ibar": 6911,
      "▁heyeti": 6912,
      "▁olasılık": 6913,
      "▁carte": 6914,
      "il": 6915,
      "unuza": 6916,
      "esi'nde": 6917,
      "▁akıs": 6918,
      "▁mef": 6919,
      "satı": 6920,
      "▁pırıl": 6921,
      "▁ekonomist": 6922,
      "▁i": 6923,
      "▁fikir": 6924,
      "▁enist": 6925,
      "▁man": 6926,
      "▁yaka": 6927,
      "▁kurtarmak": 6928,
      "eyl": 6929,
      "ıy": 6930,
      "▁alana": 6931,
      "it": 6932,
      "▁1988'in": 6933,
      "▁degisiklikler": 6934,
      "ıydı": 6935,
      "▁7\\/8": 6936,
      "▁haket": 6937,
      "▁yas": 6938,
      "▁viski": 6939,
      "▁ipotek": 6940,
      "▁yag": 6941,
      "ten": 6942,
      "▁temmuz": 6943,
      "▁kazada": 6944,
      "fil": 6945,
      "▁adina": 6946,
      "▁istey": 6947,
      "▁lise": 6948,
      "▁degisikligi": 6949,
      "▁vatandas": 6950,
      "▁baskanlık": 6951,
      "▁izini": 6952,
      "atch": 6953,
      "▁grafik": 6954,
      "sey": 6955,
      "▁3": 6956,
      "go": 6957,
      "bil": 6958,
      "▁bitis": 6959,
      "▁korf": 6960,
      "▁cezve": 6961,
      "jyen": 6962,
      "inizin": 6963,
      "▁kasap": 6964,
      "▁notlar": 6965,
      "▁vide": 6966,
      "gan": 6967,
      "’": 6968,
      "▁animasyonu": 6969,
      "▁kasıgı": 6970,
      "ledi": 6971,
      "▁satmaya": 6972,
      "▁ortalamasından": 6973,
      "▁ifadeler": 6974,
      "▁hacminde": 6975,
      "▁dostum": 6976,
      "'in": 6977,
      "anoz": 6978,
      "▁kahveci": 6979,
      "▁yarar": 6980,
      "▁pasifik": 6981,
      "▁dizi": 6982,
      "▁fis": 6983,
      "▁baz": 6984,
      "▁daglar": 6985,
      "▁market": 6986,
      "▁cekilm": 6987,
      "▁ithalatı": 6988,
      "acagımı": 6989,
      "▁sn": 6990,
      "▁saglıyor": 6991,
      "emle": 6992,
      "▁panjur": 6993,
      "▁mortgage": 6994,
      "izm": 6995,
      "▁kravat": 6996,
      "▁kasım'da": 6997,
      "uydu": 6998,
      "▁komisyonu'nun": 6999,
      "inle": 7000,
      "▁jur": 7001,
      "▁artarak": 7002,
      "▁agzından": 7003,
      "▁tar": 7004,
      "▁ord": 7005,
      "▁sertif": 7006,
      "sızlıgını": 7007,
      "▁rakamlar": 7008,
      "▁lar": 7009,
      "▁indirimlerden": 7010,
      "me": 7011,
      "▁yuksekti": 7012,
      "▁dayanısma": 7013,
      "sizligi": 7014,
      "▁halı": 7015,
      "▁onlarla": 7016,
      "▁edilmesi": 7017,
      "▁yemegini": 7018,
      "▁pit": 7019,
      "▁ortaokul": 7020,
      "▁alk": 7021,
      "▁illet": 7022,
      "▁annemin": 7023,
      "▁kalabal": 7024,
      "ardı": 7025,
      "▁diye": 7026,
      "▁kesil": 7027,
      "▁otor": 7028,
      "▁vurguladı": 7029,
      "▁valisi": 7030,
      "▁iskeleye": 7031,
      "▁hijy": 7032,
      "▁cadır": 7033,
      "iliyordu": 7034,
      "▁hamal": 7035,
      "▁diyen": 7036,
      "▁faydalan": 7037,
      "▁kızlarla": 7038,
      "kal": 7039,
      "▁fac": 7040,
      "▁dikkatimi": 7041,
      "▁mini": 7042,
      "▁seylerle": 7043,
      "▁yetenegine": 7044,
      "▁kendinde": 7045,
      "bol": 7046,
      "▁edecek": 7047,
      "▁silahlarını": 7048,
      "▁erkekler": 7049,
      "inlik": 7050,
      "▁hayata": 7051,
      "larımdan": 7052,
      "▁mesafe": 7053,
      "▁hayvanları": 7054,
      "alt": 7055,
      "▁olacaktır": 7056,
      "▁toplantının": 7057,
      "▁veri": 7058,
      "▁etmiyorum": 7059,
      "▁uluslar": 7060,
      "▁plani": 7061,
      "▁yardımcıs": 7062,
      "▁gormedim": 7063,
      "▁gerekcesiyle": 7064,
      "'ini": 7065,
      "▁tiyatroya": 7066,
      "▁capında": 7067,
      "rupalı": 7068,
      "▁kalitesinden": 7069,
      "▁dovus": 7070,
      "▁del": 7071,
      "▁saatleri": 7072,
      "bank": 7073,
      "▁mahkeme": 7074,
      "▁tesp": 7075,
      "▁magdur": 7076,
      "onel": 7077,
      "macalar": 7078,
      "larını": 7079,
      "vec": 7080,
      "itre": 7081,
      "▁havuc": 7082,
      "▁giris": 7083,
      "▁sehrin": 7084,
      "▁hayran": 7085,
      "unun": 7086,
      "54": 7087,
      "▁ascı": 7088,
      "▁kalb": 7089,
      "▁muhaf": 7090,
      "▁som": 7091,
      "0.1": 7092,
      "lerisi": 7093,
      "▁peynirleri": 7094,
      "▁resim": 7095,
      "ılıgını": 7096,
      "▁lokasyon": 7097,
      "▁ediyordu": 7098,
      "irerek": 7099,
      "▁kaynaklarına": 7100,
      "lerimizin": 7101,
      "▁tutum": 7102,
      "▁cizgi": 7103,
      "▁na": 7104,
      "▁sizinle": 7105,
      "ıg": 7106,
      "▁oglu": 7107,
      "▁ihrac": 7108,
      "▁kaba": 7109,
      "▁adinaydi": 7110,
      "▁borsa": 7111,
      "▁ehl": 7112,
      "▁duskunlugu": 7113,
      "lac": 7114,
      "▁milyar": 7115,
      "▁olmalıdır": 7116,
      "▁pers": 7117,
      "eland": 7118,
      "oc": 7119,
      "▁gundeme": 7120,
      "▁cift-a": 7121,
      "▁yanına": 7122,
      "▁isimiz": 7123,
      "▁havayollarının": 7124,
      "etteki": 7125,
      "▁yatırımları": 7126,
      "▁stres": 7127,
      "lanmak": 7128,
      "▁onlemek": 7129,
      "▁durumunun": 7130,
      "▁bileti": 7131,
      "▁hain": 7132,
      "▁mahkemede": 7133,
      "▁yuzyıllar": 7134,
      "kinin": 7135,
      "▁yapılandır": 7136,
      "ebilecegini": 7137,
      "▁sonuca": 7138,
      "meli": 7139,
      "▁kerp": 7140,
      "▁hususta": 7141,
      "▁bebegi": 7142,
      "▁tad": 7143,
      "▁evlerin": 7144,
      "▁mucev": 7145,
      "▁anah": 7146,
      "▁carpıs": 7147,
      "▁yakin": 7148,
      "▁adamla": 7149,
      "▁asl": 7150,
      "▁seyrediyor": 7151,
      "▁kred": 7152,
      "▁vermez": 7153,
      "▁yardımcısı": 7154,
      "tas": 7155,
      "▁edecekti": 7156,
      "▁ihti": 7157,
      "▁soruyu": 7158,
      "▁savcılık": 7159,
      "▁damlac": 7160,
      "▁gonlum": 7161,
      "▁iliskisini": 7162,
      "▁kendiler": 7163,
      "▁filmleri": 7164,
      "ustum": 7165,
      "▁kasabada": 7166,
      "endis": 7167,
      "▁kendimde": 7168,
      "▁bakıs": 7169,
      "malıyız": 7170,
      "▁yasant": 7171,
      "▁maarif": 7172,
      "▁alac": 7173,
      "▁sermaye": 7174,
      "▁uzaklas": 7175,
      "▁sedir": 7176,
      "▁p": 7177,
      "▁egzersiz": 7178,
      "▁sefalet": 7179,
      "▁biris": 7180,
      "▁kalmad": 7181,
      "osun": 7182,
      "▁ebeveynler": 7183,
      "▁biletin": 7184,
      "▁problemi": 7185,
      "alarımızın": 7186,
      "▁gerisinde": 7187,
      "▁kuvvetin": 7188,
      "▁unut": 7189,
      "▁yonetici": 7190,
      "▁no": 7191,
      "▁filmi": 7192,
      "▁yuva": 7193,
      "▁skandal": 7194,
      "▁yukselmesini": 7195,
      "▁hasar": 7196,
      "▁merkez": 7197,
      "uzu": 7198,
      "▁fiyat": 7199,
      "lendirme": 7200,
      "▁agrıları": 7201,
      "▁oy": 7202,
      "▁koyluler": 7203,
      "▁yeter": 7204,
      "▁menf": 7205,
      "▁istedig": 7206,
      "▁paz": 7207,
      "ond": 7208,
      "at": 7209,
      "▁milyarlar": 7210,
      "lant": 7211,
      "▁demet": 7212,
      "▁dolarlık": 7213,
      "▁baslayan": 7214,
      "▁tarafına": 7215,
      "igin": 7216,
      "▁kenarda": 7217,
      "▁tahtası": 7218,
      "daydi": 7219,
      "▁secenekleri": 7220,
      "amızı": 7221,
      "▁yen": 7222,
      "▁olmadan": 7223,
      "▁vergiyi": 7224,
      "▁ayn": 7225,
      "etro": 7226,
      "▁kanalı": 7227,
      "uv": 7228,
      "▁seylerden": 7229,
      "▁begen": 7230,
      "▁kızına": 7231,
      "-hisse": 7232,
      "▁acıyor": 7233,
      "▁baraj": 7234,
      "▁acele": 7235,
      "▁adına": 7236,
      "▁ars": 7237,
      "▁ekonomik": 7238,
      "▁bolumu": 7239,
      "▁teması": 7240,
      "▁usulu": 7241,
      "iyeler": 7242,
      "▁karısımı": 7243,
      "▁sekline": 7244,
      "eligi": 7245,
      "▁colum": 7246,
      "▁ken": 7247,
      "▁yemegine": 7248,
      "▁cıkmayı": 7249,
      "▁dengesi": 7250,
      "▁pul": 7251,
      "larımız": 7252,
      "▁baskanının": 7253,
      "▁ogrencilere": 7254,
      "ram": 7255,
      "▁agır": 7256,
      "▁yenilen": 7257,
      "▁teor": 7258,
      "sın": 7259,
      "lıgım": 7260,
      "irmi": 7261,
      "ldi": 7262,
      "▁maske": 7263,
      "▁harc": 7264,
      "▁ekipman": 7265,
      "▁ted": 7266,
      "▁cıkarmaya": 7267,
      "yaz": 7268,
      "▁vas": 7269,
      "gında": 7270,
      "▁boyut": 7271,
      "▁hanımef": 7272,
      "▁altına": 7273,
      "▁kırmız": 7274,
      "umandan": 7275,
      "▁kırmızı": 7276,
      "▁gerc": 7277,
      "▁kom": 7278,
      "▁heyecanı": 7279,
      "▁artısla": 7280,
      "▁bıcakla": 7281,
      "▁yapmıs": 7282,
      "▁halleri": 7283,
      "istiri": 7284,
      "▁alev": 7285,
      "▁orta": 7286,
      "▁list": 7287,
      "▁kitaplarını": 7288,
      "ılır": 7289,
      "'da": 7290,
      "▁cm": 7291,
      "▁sovyet": 7292,
      "asini": 7293,
      "▁tehlik": 7294,
      "▁degerlerin": 7295,
      "ulatif": 7296,
      "ate": 7297,
      "▁numaralı": 7298,
      "▁dibe": 7299,
      "rı": 7300,
      "▁icecekleri": 7301,
      "▁ym": 7302,
      "▁zamanlarını": 7303,
      "▁olsa": 7304,
      "▁vapurun": 7305,
      "mun": 7306,
      "▁dusmanları": 7307,
      "▁edilmisti": 7308,
      "▁samar": 7309,
      "▁milletinin": 7310,
      "▁gozlerini": 7311,
      "▁koleksiyon": 7312,
      "▁sarap": 7313,
      "▁kelimesi": 7314,
      "▁zamanlama": 7315,
      "▁nefret": 7316,
      "▁hisseden": 7317,
      "azaran": 7318,
      "▁kıskanclık": 7319,
      "▁muhim": 7320,
      "atesi": 7321,
      "▁arkadasının": 7322,
      "lıgın": 7323,
      "alıga": 7324,
      "▁ruba": 7325,
      "reti": 7326,
      "▁satır": 7327,
      "▁philadelphia": 7328,
      "▁gidisat": 7329,
      "▁cit": 7330,
      "▁dibinden": 7331,
      "▁isbası": 7332,
      "▁yol": 7333,
      "▁kedi": 7334,
      "dıgımız": 7335,
      "▁9'da": 7336,
      "▁enerj": 7337,
      "▁saglayacak": 7338,
      "▁hissettim": 7339,
      "▁sermayesi": 7340,
      "beye": 7341,
      "▁sikintim": 7342,
      "▁transfer": 7343,
      "▁seattle": 7344,
      "▁diregi": 7345,
      "▁kuram": 7346,
      "▁miami'ye": 7347,
      "▁teh": 7348,
      "▁hukumetinin": 7349,
      "▁cehennem": 7350,
      "▁gosterir": 7351,
      "▁merhal": 7352,
      "▁cikolata": 7353,
      "▁sorunumuz": 7354,
      "▁vir": 7355,
      "▁nizam": 7356,
      "▁emin": 7357,
      "▁kansas": 7358,
      "▁zamanında": 7359,
      "▁topları": 7360,
      "30'da": 7361,
      "tiv": 7362,
      "sızca": 7363,
      "▁sapk": 7364,
      "▁tamamı": 7365,
      "▁park": 7366,
      "▁tipini": 7367,
      "▁goc": 7368,
      "▁sozcu": 7369,
      "▁prote": 7370,
      "▁zat": 7371,
      "▁istasyonun": 7372,
      "▁cat": 7373,
      "cular": 7374,
      "daydı": 7375,
      "umla": 7376,
      "▁dinler": 7377,
      "▁etkisiyle": 7378,
      "arya": 7379,
      "▁cerceveyi": 7380,
      "▁aracılı": 7381,
      "▁mukellef": 7382,
      "▁kuyu": 7383,
      "▁sektor": 7384,
      "bac": 7385,
      "osunun": 7386,
      "▁gorevl": 7387,
      "▁kahramanlık": 7388,
      "▁fiya": 7389,
      "ayıf": 7390,
      "▁karsiligini": 7391,
      "▁mahsus": 7392,
      "▁kodunu": 7393,
      "\\/8'e": 7394,
      "lamaya": 7395,
      "▁muhafaz": 7396,
      "▁desteklemek": 7397,
      "▁amerik": 7398,
      "▁tahviller": 7399,
      "▁gru": 7400,
      "▁basladıgında": 7401,
      "▁mevcuttur": 7402,
      "▁tursu": 7403,
      "▁rezervasyonu": 7404,
      "▁dakikasında": 7405,
      "▁sahipti": 7406,
      "saat": 7407,
      "▁hisselerde": 7408,
      "▁bas": 7409,
      "▁zorlu": 7410,
      "bat": 7411,
      "▁duvarı": 7412,
      "▁kocasından": 7413,
      "tıgını": 7414,
      "abaz": 7415,
      "▁istanbul'a": 7416,
      "▁acıgı": 7417,
      "▁gole": 7418,
      "▁suratı": 7419,
      "▁havaalanı'ndan": 7420,
      "▁yarın": 7421,
      "▁artı": 7422,
      "▁aquaparki": 7423,
      "▁dunyasından": 7424,
      "▁hiddet": 7425,
      "▁siyasete": 7426,
      "▁fiyatlar": 7427,
      "▁calıyor": 7428,
      "▁hatları": 7429,
      "▁islev": 7430,
      "▁gozluk": 7431,
      "▁kalkıp": 7432,
      "▁artır": 7433,
      "▁ayakları": 7434,
      "▁yesil": 7435,
      "▁ust": 7436,
      "▁eglenceli": 7437,
      "ım": 7438,
      "▁geldim": 7439,
      "▁siirde": 7440,
      "▁mart": 7441,
      "▁cenesine": 7442,
      "▁parktan": 7443,
      "▁mimarisi": 7444,
      "▁cehalet": 7445,
      "▁bildirildi": 7446,
      "▁istanbul'da": 7447,
      "▁bayrak": 7448,
      "▁icleri": 7449,
      "▁yuklen": 7450,
      "▁seylere": 7451,
      "ligim": 7452,
      "ılmaya": 7453,
      "▁tebrik": 7454,
      "▁piyasadan": 7455,
      "▁pom": 7456,
      "▁oglunu": 7457,
      "in": 7458,
      "▁tuvaletler": 7459,
      "lın": 7460,
      "ıyorsun": 7461,
      "tıyor": 7462,
      "▁katkıda": 7463,
      "maca": 7464,
      "▁aksiy": 7465,
      "▁kurulunda": 7466,
      "▁fırc": 7467,
      "▁bula": 7468,
      "▁niteliginde": 7469,
      "▁insul": 7470,
      "forlu": 7471,
      "rar": 7472,
      "liginde": 7473,
      "▁aileye": 7474,
      "▁calısanlarının": 7475,
      "▁bereket": 7476,
      "▁kimlik": 7477,
      "on": 7478,
      "▁yururluge": 7479,
      "▁yetistir": 7480,
      "▁birinden": 7481,
      "ecekti": 7482,
      "▁kesiti": 7483,
      "▁sanayi": 7484,
      "▁yukarı": 7485,
      "▁tartıs": 7486,
      "▁onem": 7487,
      "▁kaybına": 7488,
      "ımın": 7489,
      "▁kıs": 7490,
      "emeyecek": 7491,
      "▁dinin": 7492,
      "▁general": 7493,
      "ortu": 7494,
      "burg": 7495,
      "▁cir": 7496,
      "emin": 7497,
      "▁etkili": 7498,
      "▁aqu": 7499,
      "▁80'": 7500,
      "▁kazancını": 7501,
      "▁basına": 7502,
      "▁55": 7503,
      "sıp": 7504,
      "▁kararnam": 7505,
      "liydi": 7506,
      "▁satım": 7507,
      "▁saati": 7508,
      "▁kost": 7509,
      "▁hızını": 7510,
      "▁mobilyalar": 7511,
      "▁nota": 7512,
      "▁erkenden": 7513,
      "▁muam": 7514,
      "asıyla": 7515,
      "▁vaziyeti": 7516,
      "▁kak": 7517,
      "▁kosulların": 7518,
      "▁firmanın": 7519,
      "▁gelen": 7520,
      "lileri": 7521,
      "▁biyoloji": 7522,
      "▁yer": 7523,
      "▁j": 7524,
      "▁mah": 7525,
      "▁boyunda": 7526,
      "▁tarihine": 7527,
      "▁olmaması": 7528,
      "▁adamakıllı": 7529,
      "▁ilgisini": 7530,
      "▁ciftlik": 7531,
      "sana": 7532,
      "▁dusunuyordu": 7533,
      "mar": 7534,
      "▁etmistir": 7535,
      "jik": 7536,
      "▁tr": 7537,
      "▁nine": 7538,
      "▁ikibin": 7539,
      "▁sınıfları": 7540,
      "▁staj": 7541,
      "▁kitapcı": 7542,
      "ekkur": 7543,
      "▁universite": 7544,
      "▁kıy": 7545,
      "▁iliskilerin": 7546,
      "▁doktor": 7547,
      "▁tası": 7548,
      "▁baslan": 7549,
      "▁dusuyor": 7550,
      "lacagını": 7551,
      "▁amcam": 7552,
      "▁raporda": 7553,
      "▁mekana": 7554,
      "▁57": 7555,
      "▁operator": 7556,
      "▁kurum": 7557,
      "▁ogretmenim": 7558,
      "▁yunus": 7559,
      "▁kardesinin": 7560,
      "▁arıyorum": 7561,
      "usuna": 7562,
      "▁dol": 7563,
      "liklerini": 7564,
      "▁hatırım": 7565,
      "▁cıktısı": 7566,
      "meleri": 7567,
      "▁listesini": 7568,
      "▁varsay": 7569,
      "95": 7570,
      "▁alanın": 7571,
      "lem": 7572,
      "▁arastırmalar": 7573,
      "▁muc": 7574,
      "▁sorunlarını": 7575,
      "▁finan": 7576,
      "▁tes": 7577,
      "▁arzusu": 7578,
      "lanma": 7579,
      "▁go": 7580,
      "▁hayatımız": 7581,
      "tım": 7582,
      "▁harika": 7583,
      "izlik": 7584,
      "▁bakıcı": 7585,
      "▁rahip": 7586,
      "▁ilgisi": 7587,
      "▁ilgisinden": 7588,
      "▁papaz": 7589,
      "▁arabadan": 7590,
      "▁donuk": 7591,
      "ciler": 7592,
      "arlan": 7593,
      "▁gerektiriyor": 7594,
      "▁sırrı": 7595,
      "▁dey": 7596,
      "▁duyuru": 7597,
      "▁imza": 7598,
      "▁yatırımcıları": 7599,
      "▁pahalı": 7600,
      "▁degilsiniz": 7601,
      "lardır": 7602,
      "▁birlikte": 7603,
      "muz": 7604,
      "tısı": 7605,
      "▁gasp": 7606,
      "▁cambaz": 7607,
      "▁metrek": 7608,
      "▁yasa": 7609,
      "▁tencereyi": 7610,
      "ogretim": 7611,
      "▁mendil": 7612,
      "▁gercege": 7613,
      "▁hin": 7614,
      "▁duydum": 7615,
      "▁secil": 7616,
      "▁bab": 7617,
      "▁esnasında": 7618,
      "▁kılavuz": 7619,
      "▁yuzunde": 7620,
      "▁niye": 7621,
      "▁stop": 7622,
      "▁arabalar": 7623,
      "agıyla": 7624,
      "▁oranında": 7625,
      "▁dok": 7626,
      "▁yanı": 7627,
      "madan": 7628,
      "gunluk": 7629,
      "▁hata": 7630,
      "▁odamdan": 7631,
      "▁sesinin": 7632,
      "▁yıldırım": 7633,
      "▁tasarrufu": 7634,
      "▁yaptim": 7635,
      "▁fr": 7636,
      "phis": 7637,
      "▁tarafını": 7638,
      "▁degisiklikleri": 7639,
      "▁secimler": 7640,
      "▁partinin": 7641,
      "▁duygusunu": 7642,
      "▁gonder": 7643,
      "▁sag": 7644,
      "▁yetersizdi": 7645,
      "▁insanlardan": 7646,
      "▁calisanlardan": 7647,
      "▁baglı": 7648,
      "meti": 7649,
      "▁tahr": 7650,
      "▁lap": 7651,
      "▁calık": 7652,
      "▁kanunu": 7653,
      "▁performans": 7654,
      "▁anladım": 7655,
      "ville": 7656,
      "▁tatildi": 7657,
      "▁ulkeler": 7658,
      "5'ini": 7659,
      "▁tarafı": 7660,
      "▁musait": 7661,
      "ıldıgı": 7662,
      "▁atıp": 7663,
      "▁milyonu": 7664,
      "▁dallarını": 7665,
      "▁gorunuse": 7666,
      "▁hisselerin": 7667,
      "▁isterseniz": 7668,
      "▁yataktan": 7669,
      "▁havale": 7670,
      "izma": 7671,
      "▁uygu": 7672,
      "lanan": 7673,
      "▁kulak": 7674,
      "ılırsa": 7675,
      "▁diplomasi": 7676,
      "▁vurmak": 7677,
      "▁zaaf": 7678,
      "▁istemem": 7679,
      "▁gozum": 7680,
      "kli": 7681,
      "iyeri": 7682,
      "ıyordu": 7683,
      "rsı": 7684,
      "▁tehlikesi": 7685,
      "▁denizasır": 7686,
      "▁derd": 7687,
      "▁hanima": 7688,
      "▁avrupa": 7689,
      "▁temettu": 7690,
      "dirde": 7691,
      ".ceyrek": 7692,
      "▁hulya": 7693,
      "▁pencerelere": 7694,
      "▁degist": 7695,
      "indey": 7696,
      "▁sohbet": 7697,
      "▁duzen": 7698,
      "▁ucuna": 7699,
      "▁romant": 7700,
      "▁rakib": 7701,
      "▁masanın": 7702,
      "▁satıslarını": 7703,
      "▁toplantısı": 7704,
      "▁marat": 7705,
      "yar": 7706,
      "▁teminat": 7707,
      "ner": 7708,
      "▁cosk": 7709,
      "▁kaldım": 7710,
      "▁elemanlar": 7711,
      "▁arastırmacı": 7712,
      "a'dan": 7713,
      "▁ettikleri": 7714,
      "▁hizmetlerinin": 7715,
      "▁telkin": 7716,
      "▁sovyetlerin": 7717,
      "▁agabeyim": 7718,
      "▁bagırdı": 7719,
      "etim": 7720,
      "▁internet": 7721,
      "▁anlattım": 7722,
      "▁odaları": 7723,
      "▁birinci": 7724,
      "ırt": 7725,
      "▁soze": 7726,
      "san": 7727,
      "▁kapısına": 7728,
      "▁ekipleri": 7729,
      "▁ikide": 7730,
      "▁tuketici": 7731,
      "ozof": 7732,
      "▁sov": 7733,
      "▁carsamba": 7734,
      "fet": 7735,
      "▁super": 7736,
      "▁bilgisay": 7737,
      "enik": 7738,
      "▁des": 7739,
      "asti": 7740,
      "▁gorevden": 7741,
      "neti": 7742,
      "▁alkol": 7743,
      "▁simdiye": 7744,
      "aret": 7745,
      "masın": 7746,
      "urt": 7747,
      "▁senedi": 7748,
      "▁parav": 7749,
      "▁tumunu": 7750,
      "▁cob": 7751,
      "inal": 7752,
      "cık": 7753,
      "▁tuketim": 7754,
      "▁rıza": 7755,
      "▁arastırmaları": 7756,
      "▁program": 7757,
      "▁talebini": 7758,
      "yacagı": 7759,
      "uyordu": 7760,
      "▁konu": 7761,
      "▁kızını": 7762,
      "▁kimse": 7763,
      "abileceg": 7764,
      "▁kadif": 7765,
      "▁silahlar": 7766,
      "▁tamamen": 7767,
      "▁sam": 7768,
      "▁karsılastırıldıgında": 7769,
      "▁ipucu": 7770,
      "▁kitaplara": 7771,
      "▁lacivert": 7772,
      "▁manevra": 7773,
      "▁ulkelerde": 7774,
      "▁cevabını": 7775,
      "▁yazmak": 7776,
      "▁anlasma": 7777,
      "▁ucagını": 7778,
      "▁idrak": 7779,
      "▁erkege": 7780,
      "▁kahval": 7781,
      "▁gecelerde": 7782,
      "cta": 7783,
      "▁demokratik": 7784,
      "▁babasını": 7785,
      "▁ornek": 7786,
      "acıları": 7787,
      "malı": 7788,
      "▁kupe": 7789,
      "▁oranla": 7790,
      "▁serviste": 7791,
      "el": 7792,
      "ıldı": 7793,
      "▁kole": 7794,
      "suzlugun": 7795,
      "cıya": 7796,
      "▁yenden": 7797,
      "gır": 7798,
      "▁aqua": 7799,
      "▁kasır": 7800,
      "▁takımının": 7801,
      "▁kardesim": 7802,
      "arılı": 7803,
      "atları": 7804,
      "▁taban": 7805,
      "▁deftere": 7806,
      "▁halini": 7807,
      "▁ates": 7808,
      "▁varan": 7809,
      "▁saclarını": 7810,
      "▁gaf": 7811,
      "▁okulu": 7812,
      "eniz": 7813,
      "metler": 7814,
      "▁iliski": 7815,
      "idir": 7816,
      "▁gorevini": 7817,
      "▁kıvr": 7818,
      "▁sız": 7819,
      "▁bize": 7820,
      "▁hakları": 7821,
      "▁kitaplarda": 7822,
      "▁limuzin": 7823,
      "▁bozuk": 7824,
      "▁yak": 7825,
      "▁dusen": 7826,
      "▁olmasi": 7827,
      "▁babasının": 7828,
      "▁kum": 7829,
      "▁ornegin": 7830,
      "▁cih": 7831,
      "▁katildim": 7832,
      "▁sirketine": 7833,
      "▁asab": 7834,
      "▁iyi": 7835,
      "sk": 7836,
      "▁zararları": 7837,
      "ısından": 7838,
      "▁tekne": 7839,
      "▁tasların": 7840,
      "▁olumlu": 7841,
      "▁kosulları": 7842,
      "▁boya": 7843,
      "cıdır": 7844,
      "umu": 7845,
      "▁alabil": 7846,
      "▁carsıya": 7847,
      "▁site": 7848,
      "▁kardesimin": 7849,
      "▁yemekten": 7850,
      "▁ge": 7851,
      "ahan": 7852,
      "▁lideri": 7853,
      "▁krizinden": 7854,
      "▁kapat": 7855,
      "▁duduk": 7856,
      "iller": 7857,
      "▁hepsi": 7858,
      "sulu": 7859,
      "▁bıc": 7860,
      "x": 7861,
      "▁maks": 7862,
      "▁mesafeyi": 7863,
      "▁phoenix'den": 7864,
      "▁indust": 7865,
      "▁yılan": 7866,
      "▁sabrı": 7867,
      "▁ustanın": 7868,
      "▁bakısta": 7869,
      "▁defterleri": 7870,
      "▁bunda": 7871,
      "▁metre": 7872,
      "▁dusmanın": 7873,
      "uga": 7874,
      "▁ucakları": 7875,
      "romu": 7876,
      "▁hemsir": 7877,
      "▁atların": 7878,
      "▁ucretlerin": 7879,
      "▁kendime": 7880,
      "▁kalemi": 7881,
      "▁bitmek": 7882,
      "▁daga": 7883,
      "ex": 7884,
      "▁ibadet": 7885,
      "▁nedenini": 7886,
      "▁grupların": 7887,
      "▁analistler": 7888,
      "isli": 7889,
      "eceksin": 7890,
      "▁seans": 7891,
      "▁artısına": 7892,
      "▁dakikada": 7893,
      "▁keresinde": 7894,
      "▁secenek": 7895,
      "▁figur": 7896,
      "▁gazetelerde": 7897,
      "▁anlamak": 7898,
      "anız": 7899,
      "▁eyaleti": 7900,
      "▁termin": 7901,
      "atla": 7902,
      "▁klas": 7903,
      "▁dokun": 7904,
      "ırtıları": 7905,
      "▁fisk": 7906,
      "manlık": 7907,
      "▁kamp": 7908,
      "▁med": 7909,
      "▁kars": 7910,
      "▁vucudunun": 7911,
      "▁utop": 7912,
      "▁hafiflet": 7913,
      "▁bulunuyor": 7914,
      "▁hisselerini": 7915,
      "▁denizin": 7916,
      "▁planı": 7917,
      "tmıs": 7918,
      "▁surgun": 7919,
      "▁sosyete": 7920,
      "▁cezasını": 7921,
      "akta": 7922,
      "▁kust": 7923,
      "0.": 7924,
      "ediy": 7925,
      "▁bagı": 7926,
      "▁129": 7927,
      "▁mal": 7928,
      "▁cama": 7929,
      "▁gidiyorum": 7930,
      "▁baskasının": 7931,
      "▁pahal": 7932,
      "▁tıp": 7933,
      "ift": 7934,
      "▁arkadasımla": 7935,
      "▁pazarına": 7936,
      "abileceginden": 7937,
      "o": 7938,
      "▁boyutta": 7939,
      "▁hizmetin": 7940,
      "▁savunma": 7941,
      "esem": 7942,
      "▁egitmen": 7943,
      "ık": 7944,
      "▁22": 7945,
      "▁baca": 7946,
      "▁artısları": 7947,
      "▁dam": 7948,
      "tigimiz": 7949,
      "kini": 7950,
      "▁tram": 7951,
      "sur": 7952,
      "tmis": 7953,
      "▁merkezli": 7954,
      "▁dusun": 7955,
      "▁b.": 7956,
      "▁hayattan": 7957,
      "▁arkadaslarıyla": 7958,
      "▁kasırg": 7959,
      "▁restoranlar": 7960,
      "▁tarafa": 7961,
      "▁z": 7962,
      "▁gonul": 7963,
      "▁tered": 7964,
      "2'ye": 7965,
      "ult": 7966,
      "▁doner": 7967,
      "ain": 7968,
      "ems": 7969,
      "am": 7970,
      "▁dusunuyor": 7971,
      "ılıs": 7972,
      "arın": 7973,
      "en": 7974,
      "▁evet": 7975,
      "▁mustaf": 7976,
      "▁num": 7977,
      "▁kaynakları": 7978,
      "▁asık": 7979,
      "▁hissede": 7980,
      "▁yuzeyinde": 7981,
      "▁olumune": 7982,
      "▁hızlı": 7983,
      "▁ertesi": 7984,
      "▁ulkelerin": 7985,
      "▁universit": 7986,
      "▁ihracının": 7987,
      "▁tarihinin": 7988,
      "▁kuması": 7989,
      "▁korumak": 7990,
      "▁havay": 7991,
      "▁goruslerini": 7992,
      "▁cez": 7993,
      "▁tedav": 7994,
      "▁politikaya": 7995,
      "▁birimi": 7996,
      "uzey": 7997,
      "▁alıcı": 7998,
      "uklugu": 7999,
      "▁embriy": 8000,
      "▁me": 8001,
      "▁kazasında": 8002,
      "▁sark": 8003,
      "▁cami": 8004,
      "▁airlin": 8005,
      "▁hakkında": 8006,
      "▁etrafımda": 8007,
      "▁cevresi": 8008,
      "▁magrur": 8009,
      "▁gozlerim": 8010,
      "ukle": 8011,
      "▁opsiyonu": 8012,
      "▁avrupalı": 8013,
      "▁isaretler": 8014,
      "▁hatirlamiyorum": 8015,
      "▁og": 8016,
      "▁geleceg": 8017,
      "eci": 8018,
      "▁olmakla": 8019,
      "▁semp": 8020,
      "▁sorgu": 8021,
      "▁mor": 8022,
      "▁bulabil": 8023,
      "mamı": 8024,
      "▁don": 8025,
      "ret": 8026,
      "ep": 8027,
      "▁26": 8028,
      "▁sartları": 8029,
      "▁first": 8030,
      "▁teb": 8031,
      "▁cesitler": 8032,
      "▁kızı": 8033,
      "▁oncesinde": 8034,
      "▁dyp": 8035,
      "▁tablosu": 8036,
      "ekul": 8037,
      "▁cas": 8038,
      "o'ya": 8039,
      "name": 8040,
      "▁tatli": 8041,
      "▁degilsin": 8042,
      "▁yakından": 8043,
      "▁dolayı": 8044,
      "▁eroin": 8045,
      "▁atmaya": 8046,
      "lıkla": 8047,
      "ligine": 8048,
      "▁isinde": 8049,
      "▁degisik": 8050,
      "acag": 8051,
      "▁turev": 8052,
      "▁bırakır": 8053,
      "▁tuy": 8054,
      "▁tahakk": 8055,
      "▁yadigar": 8056,
      "mem": 8057,
      "'deki": 8058,
      "▁dekorasyonu": 8059,
      "▁ozunde": 8060,
      "▁ureticisi": 8061,
      "▁riski": 8062,
      "▁yapar": 8063,
      "emon": 8064,
      "▁bıcagı": 8065,
      "▁brit": 8066,
      "▁ci": 8067,
      "mesinde": 8068,
      "nız": 8069,
      "▁suların": 8070,
      "▁elestirmenler": 8071,
      "▁elestirmen": 8072,
      "▁olmadi": 8073,
      "▁kızgınlık": 8074,
      "▁belirtmek": 8075,
      "▁termal": 8076,
      "▁seylerin": 8077,
      "▁34": 8078,
      "egor": 8079,
      "▁tasarı": 8080,
      "▁etut": 8081,
      "▁tama": 8082,
      "▁belgeleri": 8083,
      "▁yetenekleri": 8084,
      "▁bulten": 8085,
      "▁kotuluk": 8086,
      "▁ticaretin": 8087,
      "4'de": 8088,
      "▁deligi": 8089,
      "▁metni": 8090,
      "▁celiski": 8091,
      "▁traktor": 8092,
      "▁kast": 8093,
      "▁tramvay": 8094,
      "▁tersan": 8095,
      "▁engel": 8096,
      "layı": 8097,
      "▁tarafta": 8098,
      "▁impar": 8099,
      "▁karsıla": 8100,
      "atmak": 8101,
      "▁kosesinden": 8102,
      "▁kese": 8103,
      "kk": 8104,
      "▁bulundur": 8105,
      "▁sogan": 8106,
      "▁yuvar": 8107,
      "atil": 8108,
      "▁vardı": 8109,
      "▁heyecan": 8110,
      "esk": 8111,
      "▁analistlerin": 8112,
      "▁ihtilal": 8113,
      "▁usul": 8114,
      "cası": 8115,
      "ait": 8116,
      "▁dist": 8117,
      "▁if": 8118,
      "iyiz": 8119,
      "yanın": 8120,
      "▁kırıklıgına": 8121,
      "▁suphe": 8122,
      "▁rengine": 8123,
      "▁soldan": 8124,
      "▁ex": 8125,
      "▁selef": 8126,
      "▁kurulunu": 8127,
      "aff": 8128,
      "▁yapıyı": 8129,
      "▁kahvaltisi": 8130,
      "▁programında": 8131,
      "ansız": 8132,
      "▁ayrıntı": 8133,
      "▁havlular": 8134,
      "lop": 8135,
      "▁birinc": 8136,
      "iktir": 8137,
      "ikalar": 8138,
      "▁otobus": 8139,
      "▁kur": 8140,
      "▁aksam": 8141,
      "▁tun": 8142,
      "▁kusların": 8143,
      "▁ister": 8144,
      "▁kent": 8145,
      "▁senin": 8146,
      "▁donmek": 8147,
      "▁cihan": 8148,
      "iyetle": 8149,
      "▁zey": 8150,
      "izin": 8151,
      "▁isini": 8152,
      "▁city": 8153,
      "leniyor": 8154,
      "▁yapabilir": 8155,
      "utlu": 8156,
      "▁bakanlıgı": 8157,
      "▁olmadıgını": 8158,
      "▁gozlerinin": 8159,
      "▁durmak": 8160,
      "▁pusul": 8161,
      "▁akım": 8162,
      "▁isleri": 8163,
      "▁birer": 8164,
      "latma": 8165,
      "▁kesti": 8166,
      "▁ertel": 8167,
      "▁musik": 8168,
      "▁likor": 8169,
      "▁tavaf": 8170,
      "▁uzerindeki": 8171,
      "meyecek": 8172,
      "▁seviy": 8173,
      "▁olmas": 8174,
      "▁riskleri": 8175,
      "ge": 8176,
      "▁allah": 8177,
      "▁cekisme": 8178,
      "▁temsilcisi": 8179,
      "▁zeyt": 8180,
      "▁46": 8181,
      "▁saatte": 8182,
      "▁onarım": 8183,
      "▁saatlerce": 8184,
      "▁limon": 8185,
      "lon": 8186,
      "▁kahkah": 8187,
      "▁titr": 8188,
      "▁degismedi": 8189,
      "id": 8190,
      "▁arkadaslarından": 8191,
      "▁planlarını": 8192,
      "eff": 8193,
      "atur": 8194,
      "▁bl": 8195,
      "ugum": 8196,
      "mli": 8197,
      "ıntısı": 8198,
      "anta": 8199,
      "▁tuccar": 8200,
      "iti": 8201,
      "▁dugmeleri": 8202,
      "▁financi": 8203,
      "▁fiyatlandır": 8204,
      "▁olmak": 8205,
      "▁formul": 8206,
      "gus": 8207,
      "naz": 8208,
      "▁kılıf": 8209,
      "▁surdurdu": 8210,
      "▁kazancları": 8211,
      "▁hikay": 8212,
      "▁malzem": 8213,
      "ncak": 8214,
      "▁yanında": 8215,
      "▁hale": 8216,
      "▁tanık": 8217,
      "mez": 8218,
      "masıdır": 8219,
      "atti": 8220,
      "▁ipin": 8221,
      "▁celal": 8222,
      "▁beyi": 8223,
      "▁aykırı": 8224,
      "gısını": 8225,
      "▁gidil": 8226,
      "▁parmaklarını": 8227,
      "isidir": 8228,
      "▁ayagında": 8229,
      "▁baslı": 8230,
      "▁perakendeciler": 8231,
      "▁w": 8232,
      "▁karla": 8233,
      "▁ard": 8234,
      "▁minnet": 8235,
      "▁carda": 8236,
      "▁rum": 8237,
      "▁kaldırmak": 8238,
      "▁terzi": 8239,
      "danın": 8240,
      "tla": 8241,
      "to": 8242,
      "▁bende": 8243,
      "emizde": 8244,
      "▁sefi": 8245,
      "▁soylenti": 8246,
      "▁sevmek": 8247,
      "eksu": 8248,
      "▁kokuyor": 8249,
      "▁teyze": 8250,
      "▁gum": 8251,
      "▁davada": 8252,
      "▁bisik": 8253,
      "▁kayaların": 8254,
      "alog": 8255,
      "▁dosyayı": 8256,
      "▁abim": 8257,
      "▁huzurlu": 8258,
      "▁ortasında": 8259,
      "▁inanmak": 8260,
      "▁sekerleme": 8261,
      "▁servisi": 8262,
      "▁uretimin": 8263,
      "▁komplo": 8264,
      "▁odagı": 8265,
      "▁ureticilerinin": 8266,
      "▁boks": 8267,
      "▁nedeni": 8268,
      "▁32": 8269,
      "▁kosulu": 8270,
      "▁kredilerin": 8271,
      "▁avukatlar": 8272,
      "egiyle": 8273,
      "▁izliyor": 8274,
      "avr": 8275,
      "▁iade": 8276,
      "▁kafasını": 8277,
      "▁hot": 8278,
      "▁hatası": 8279,
      "▁hatir": 8280,
      "▁olmasın": 8281,
      ".7": 8282,
      "▁numarası": 8283,
      "ilmisti": 8284,
      "▁haf": 8285,
      "▁baklav": 8286,
      "▁horm": 8287,
      "▁salat": 8288,
      "eliler": 8289,
      "▁kuraklık": 8290,
      "▁iddia": 8291,
      "▁sıkıntıları": 8292,
      "▁epe": 8293,
      "▁adını": 8294,
      "tator": 8295,
      "▁makaleye": 8296,
      "▁ralli": 8297,
      "▁politikacılar": 8298,
      "▁bilegini": 8299,
      "hangi": 8300,
      "atın": 8301,
      "ekom": 8302,
      "▁cares": 8303,
      "iran": 8304,
      "▁satıslardan": 8305,
      "▁suyuna": 8306,
      "▁yalan": 8307,
      "luydu": 8308,
      "▁gunlerinden": 8309,
      "▁fiili": 8310,
      "▁28": 8311,
      "▁mecliste": 8312,
      "▁sekreteri": 8313,
      "▁kisisi": 8314,
      "▁suretle": 8315,
      "▁calismasi": 8316,
      "▁nitelik": 8317,
      "▁kesmek": 8318,
      "▁tu": 8319,
      "▁lun": 8320,
      "▁yazarlık": 8321,
      "iginin": 8322,
      "ibin": 8323,
      "▁gogsu": 8324,
      "▁52": 8325,
      "▁cırpıda": 8326,
      "▁agızları": 8327,
      "▁keyifli": 8328,
      "▁golf": 8329,
      "▁oburune": 8330,
      "katli": 8331,
      "▁ustelik": 8332,
      "▁havaalanı": 8333,
      "▁yaklasık": 8334,
      "▁alamadim": 8335,
      "verdi": 8336,
      "▁uzum": 8337,
      "▁lobi": 8338,
      "▁vez": 8339,
      "andı": 8340,
      "'d": 8341,
      "▁prens": 8342,
      "▁muesses": 8343,
      "▁yapmaları": 8344,
      "▁suclamalar": 8345,
      "▁mode": 8346,
      "▁atlanta": 8347,
      "▁geceyi": 8348,
      "usuz": 8349,
      "▁pahaliydi": 8350,
      "larıma": 8351,
      "▁bankacı": 8352,
      "▁..\"": 8353,
      "▁seyleri": 8354,
      "▁iliskisi": 8355,
      "ors": 8356,
      "▁bulunan": 8357,
      "▁olmasına": 8358,
      "▁yerlere": 8359,
      "▁cocuklara": 8360,
      "▁ceyrek": 8361,
      "▁rusvet": 8362,
      "▁once": 8363,
      "▁sevgil": 8364,
      "▁zenginlik": 8365,
      "▁kocasına": 8366,
      "▁ilgiyle": 8367,
      "uncusu": 8368,
      "▁sec": 8369,
      "▁devr": 8370,
      "▁supurge": 8371,
      "▁elestiri": 8372,
      "urarak": 8373,
      "dıran": 8374,
      "▁ilgis": 8375,
      "▁sahneye": 8376,
      "▁hastalıgı": 8377,
      "▁destan": 8378,
      "▁air": 8379,
      "▁sigarasını": 8380,
      "▁75": 8381,
      "\\/8": 8382,
      "▁sansur": 8383,
      "▁soyleyin": 8384,
      "▁esn": 8385,
      "se": 8386,
      "▁imal": 8387,
      "▁hus": 8388,
      "▁telesk": 8389,
      "diyen": 8390,
      "irim": 8391,
      "▁yasam": 8392,
      "▁antr": 8393,
      "▁durdur": 8394,
      "▁asistan": 8395,
      "▁zor": 8396,
      "▁keskin": 8397,
      "▁um": 8398,
      "gı": 8399,
      "▁istedim": 8400,
      "▁sofr": 8401,
      "▁ceh": 8402,
      "▁kendi": 8403,
      "▁onur": 8404,
      "▁ediyorlardı": 8405,
      "anıs": 8406,
      "▁ziyan": 8407,
      "▁donusu": 8408,
      "▁kolayını": 8409,
      "▁cop": 8410,
      "eyaz": 8411,
      "▁kasket": 8412,
      "▁kandil": 8413,
      "▁hurmet": 8414,
      "▁yad": 8415,
      "▁hizmetler": 8416,
      "larak": 8417,
      "fa": 8418,
      "▁hızı": 8419,
      "▁mahsulu": 8420,
      "ararak": 8421,
      "izik": 8422,
      "▁ustunden": 8423,
      "▁fazlasını": 8424,
      "▁baglan": 8425,
      "▁mufett": 8426,
      "▁munak": 8427,
      "▁fikri": 8428,
      "▁red": 8429,
      "a": 8430,
      "▁mot": 8431,
      "▁ugruna": 8432,
      "ah": 8433,
      "▁verir": 8434,
      "ac": 8435,
      "▁siddet": 8436,
      "▁muhareb": 8437,
      "cagıza": 8438,
      "▁eyalet": 8439,
      "▁oyley": 8440,
      "nak": 8441,
      "▁duzenleyici": 8442,
      "▁hayatını": 8443,
      "▁konum": 8444,
      "▁kompozit": 8445,
      "▁mektep": 8446,
      "▁61": 8447,
      "▁yara": 8448,
      "▁terfi": 8449,
      "▁mars": 8450,
      "▁kitapların": 8451,
      "ıklar": 8452,
      "▁olacak": 8453,
      "liyor": 8454,
      "larca": 8455,
      "▁iv": 8456,
      "▁t": 8457,
      "▁faydalar": 8458,
      "ısı": 8459,
      "▁senato": 8460,
      "▁edil": 8461,
      "▁nesi": 8462,
      "▁sorumlulugunu": 8463,
      "▁tutuk": 8464,
      "aseb": 8465,
      "▁daktilo": 8466,
      "miyorum": 8467,
      "▁uye": 8468,
      "▁degeri": 8469,
      "▁talip": 8470,
      "bs": 8471,
      "▁hakem": 8472,
      "melerini": 8473,
      "orta": 8474,
      "▁yapımını": 8475,
      "▁yusuf": 8476,
      "▁planladıgını": 8477,
      "▁titizlik": 8478,
      "▁oakland'dan": 8479,
      "▁organı": 8480,
      "▁balo": 8481,
      "▁ikilik": 8482,
      "amaları": 8483,
      "▁duk": 8484,
      "obil": 8485,
      "adetin": 8486,
      "▁kulturune": 8487,
      "▁siyah": 8488,
      "▁hepsinden": 8489,
      "+": 8490,
      "abını": 8491,
      "▁kumastan": 8492,
      "ola": 8493,
      "▁kesilmis": 8494,
      "▁kelimeleri": 8495,
      "▁yetenegi": 8496,
      "kten": 8497,
      "▁alakali": 8498,
      "▁destegini": 8499,
      "em": 8500,
      "larından": 8501,
      "▁mektup": 8502,
      "▁poh": 8503,
      "▁onumuze": 8504,
      "▁lob": 8505,
      "ıslı": 8506,
      "▁takiben": 8507,
      "▁bis": 8508,
      "▁gecim": 8509,
      "▁ziy": 8510,
      "▁dortyuz": 8511,
      "▁temelini": 8512,
      "▁abla": 8513,
      "▁kims": 8514,
      "sali": 8515,
      "▁nefer": 8516,
      "arken": 8517,
      "▁cebine": 8518,
      "▁bug": 8519,
      "alarımız": 8520,
      "tugu": 8521,
      "▁param": 8522,
      "▁yarım": 8523,
      "▁hipot": 8524,
      "▁bilimsel": 8525,
      "▁pes": 8526,
      "'nun": 8527,
      "▁nufusu": 8528,
      "▁aktivit": 8529,
      "▁ulkeden": 8530,
      "▁olmus": 8531,
      "▁care": 8532,
      "▁haftalık": 8533,
      "cev": 8534,
      "▁tarihinde": 8535,
      "▁satı": 8536,
      "▁mazhar": 8537,
      "▁yeraltı": 8538,
      "▁sevda": 8539,
      "▁agz": 8540,
      "etli": 8541,
      "▁mucevher": 8542,
      "▁agab": 8543,
      "▁gozyasları": 8544,
      "▁milletin": 8545,
      "▁guven": 8546,
      "▁kapıda": 8547,
      "▁ucakların": 8548,
      "▁havalimanlarından": 8549,
      "press": 8550,
      "▁fot": 8551,
      "▁hazırlık": 8552,
      "▁yasaya": 8553,
      "▁paul": 8554,
      "▁evlerine": 8555,
      "▁kaymak": 8556,
      "▁muzak": 8557,
      "▁kambiy": 8558,
      "▁gorunusu": 8559,
      "▁yuzmek": 8560,
      "ral": 8561,
      "▁maf": 8562,
      "elde": 8563,
      "dum": 8564,
      "▁kanunun": 8565,
      "▁varlıkları": 8566,
      "▁sirketlerden": 8567,
      "leket": 8568,
      "▁bitkiler": 8569,
      "▁ilgin": 8570,
      "hassa": 8571,
      "▁ofise": 8572,
      "▁international": 8573,
      "▁mayıs": 8574,
      "▁mekte": 8575,
      "'ndaki": 8576,
      "▁endiseler": 8577,
      "▁mani": 8578,
      "avuz": 8579,
      "▁samdan": 8580,
      "usunde": 8581,
      "▁paket": 8582,
      "▁mahluk": 8583,
      "▁alındıgında": 8584,
      "▁ey": 8585,
      "icisi": 8586,
      "pul": 8587,
      "alardan": 8588,
      "▁kamıs": 8589,
      "/8'den": 8590,
      "▁dısında": 8591,
      "▁oturdu": 8592,
      "▁rehberi": 8593,
      "▁temizdi": 8594,
      "▁olmam": 8595,
      "▁gunah": 8596,
      "▁detay": 8597,
      "▁adamına": 8598,
      "▁fert": 8599,
      "▁bardak": 8600,
      "yabilir": 8601,
      "▁keb": 8602,
      "▁yurtdısına": 8603,
      "▁oranlarına": 8604,
      "acıların": 8605,
      "▁duzelt": 8606,
      "▁romancı": 8607,
      "▁surat": 8608,
      "▁duzeyinde": 8609,
      "ide": 8610,
      "elerden": 8611,
      "ian": 8612,
      "mec": 8613,
      "▁icki": 8614,
      "▁devri": 8615,
      "▁mucadelesi": 8616,
      "▁teklifleri": 8617,
      "butun": 8618,
      "▁karsıladı": 8619,
      "▁borclarını": 8620,
      "▁basında": 8621,
      "▁calar": 8622,
      "▁kadınlara": 8623,
      "▁diler": 8624,
      "▁hayatımı": 8625,
      "▁makya": 8626,
      "▁cumartesi": 8627,
      "▁milyardan": 8628,
      "▁...\"": 8629,
      "▁anayasa": 8630,
      "▁milwa": 8631,
      "ket": 8632,
      "▁insanı": 8633,
      "▁gayr": 8634,
      "▁irade": 8635,
      "▁tuttur": 8636,
      "emeyi": 8637,
      "▁kararı": 8638,
      "▁pazarda": 8639,
      "▁tiyatronun": 8640,
      "▁cekirdegi": 8641,
      "▁198": 8642,
      "▁cesitlendirme": 8643,
      "▁karın": 8644,
      "▁aktiviteleri": 8645,
      "5'e": 8646,
      "▁otların": 8647,
      "▁tit": 8648,
      "▁kagıda": 8649,
      "▁pad": 8650,
      "▁samim": 8651,
      "▁aln": 8652,
      "▁perakende": 8653,
      "▁dalgası": 8654,
      "▁akciger": 8655,
      "uru": 8656,
      "▁hukuk": 8657,
      "0'dan": 8658,
      "▁azaltma": 8659,
      "▁tanım": 8660,
      "▁topraklar": 8661,
      "▁pah": 8662,
      "▁getirmis": 8663,
      "▁yine": 8664,
      "▁dert": 8665,
      "▁herif": 8666,
      "emir": 8667,
      "▁dost": 8668,
      "▁anne": 8669,
      "▁fren": 8670,
      "of": 8671,
      "▁fir": 8672,
      "▁dinlenmek": 8673,
      "▁oluk": 8674,
      "▁orneklerini": 8675,
      "▁ucakla": 8676,
      "indeki": 8677,
      "▁yonetimler": 8678,
      "▁kalem": 8679,
      "▁konular": 8680,
      "▁evimde": 8681,
      "▁kahveye": 8682,
      "▁ceyr": 8683,
      "▁dustu": 8684,
      "civert": 8685,
      "▁yasamının": 8686,
      "▁herkesin": 8687,
      "▁sirketinden": 8688,
      "▁bekar": 8689,
      "▁bulgu": 8690,
      "▁seksen": 8691,
      "▁basketbol": 8692,
      "gım": 8693,
      "▁ufaklık": 8694,
      "▁sallantı": 8695,
      "▁mesleg": 8696,
      "▁sinirleri": 8697,
      "▁sol": 8698,
      "▁ugr": 8699,
      "▁kural": 8700,
      "6'sı": 8701,
      "▁ropor": 8702,
      "gusu": 8703,
      "▁islerinin": 8704,
      "mekte": 8705,
      "▁tulumb": 8706,
      "▁not": 8707,
      "osunu": 8708,
      "▁sair": 8709,
      "▁sirk": 8710,
      "ekk": 8711,
      "▁efendim": 8712,
      "yerek": 8713,
      "ıstı": 8714,
      "▁savası": 8715,
      "▁bizi": 8716,
      "▁inziv": 8717,
      "▁kıyı": 8718,
      "gulu": 8719,
      "▁bicim": 8720,
      "▁beyazın": 8721,
      "leye": 8722,
      "▁duzeyi": 8723,
      "▁posta": 8724,
      "▁olabilirdi": 8725,
      "▁enst": 8726,
      "dizli": 8727,
      "▁hayaller": 8728,
      "stı": 8729,
      "▁boylu": 8730,
      "▁isg": 8731,
[...]
