{
  "version": "1.0",
  "truncation": null,
  "padding": null,
  "added_tokens": [
    {
      "id": 1021,
      "content": "[MASK]",
      "single_word": false,
      "lstrip": false,
      "rstrip": false,
      "normalized": false,
      "special": true
    },
    {
      "id": 1350,
      "content": "[PAD]",
      "single_word": false,
      "lstrip": false,
      "rstrip": false,
      "normalized": false,
      "special": true
    },
    {
      "id": 2095,
      "content": "[UNK]",
      "single_word": false,
      "lstrip": false,
      "rstrip": false,
      "normalized": false,
      "special": true
    },
    {
      "id": 2559,
      "content": "[SEP]",
      "single_word": false,
      "lstrip": false,
      "rstrip": false,
      "normalized": false,
      "special": true
    },
    {
      "id": 2582,
      "content": "[CLS]",
      "single_word": false,
      "lstrip": false,
      "rstrip": false,
      "normalized": false,
      "special": true
    }
  ],
  "normalizer": {
    "type": "Sequence",
    "normalizers": [
      {
        "type": "NFD"
      },
      {
        "type": "Lowercase"
      },
      {
        "type": "StripAccents"
      }
    ]
  },
  "pre_tokenizer": {
    "type": "Sequence",
    "pretokenizers": [
      {
        "type": "Metaspace",
        "replacement": "▁",
        "prepend_scheme": "always",
        "split": true
      }
    ]
  },
  "post_processor": {
    "type": "TemplateProcessing",
    "single": [
      {
        "SpecialToken": {
          "id": "[CLS]",
          "type_id": 0
        }
      },
      {
        "Sequence": {
          "id": "A",
          "type_id": 0
        }
      },
      {
        "SpecialToken": {
          "id": "[SEP]",
          "type_id": 0
        }
      }
    ],
    "pair": [
      {
        "SpecialToken": {
          "id": "[CLS]",
          "type_id": 0
        }
      },
      {
        "Sequence": {
          "id": "A",
          "type_id": 0
        }
      },
      {
        "SpecialToken": {
          "id": "[SEP]",
          "type_id": 0
        }
      },
      {
        "Sequence": {
          "id": "B",
          "type_id": 1
        }
      },
      {
        "SpecialToken": {
          "id": "[SEP]",
          "type_id": 1
        }
      }
    ],
    "special_tokens": {
      "[CLS]": {
        "id": "[CLS]",
        "ids": [
          2582
        ],
        "tokens": [
          "[CLS]"
        ]
      },
      "[SEP]": {
        "id": "[SEP]",
        "ids": [
          2559
        ],
        "tokens": [
          "[SEP]"
        ]
      }
    }
  },
  "decoder": {
    "type": "Metaspace",
    "replacement": "▁",
    "prepend_scheme": "always",
    "split": true
  },
  "model": {
    "type": "BPE",
    "dropout": null,
    "unk_token": "[UNK]",
    "continuing_subword_prefix": null,
    "end_of_word_suffix": null,
    "fuse_unk": false,
    "byte_fallback": false,
    "ignore_merges": false,
    "vocab": {
      "alar": 0,
      "▁alan": 1,
      "ikti": 2,
      "▁yarıs": 3,
      "▁odaya": 4,
      "▁efendi": 5,
      "▁bıy": 6,
      "▁listele": 7,
      "▁philadel": 8,
      "ırdı": 9,
      "▁kir": 10,
      "meleri": 11,
      "▁faaliyet": 12,
      "▁elinde": 13,
      "a": 14,
      "▁col": 15,
      "inde": 16,
      "▁butu": 17,
      "▁havayol": 18,
      "▁ajans": 19,
      "▁kısa": 20,
      "edav": 21,
      "▁kas": 22,
      "▁tutun": 23,
      "▁makine": 24,
      "▁bebek": 25,
      "▁cocugu": 26,
      "▁gars": 27,
      "▁dusunc": 28,
      "iklik": 29,
      "ler": 30,
      "▁calıs": 31,
      "▁yuksel": 32,
      "▁olustur": 33,
      "▁amma": 34,
      "▁satısları": 35,
      "uh": 36,
      "cev": 37,
      "oc": 38,
      "▁sozleri": 39,
      "▁karayolu": 40,
      "lav": 41,
      "ıc": 42,
      "isco": 43,
      "▁listel": 44,
      "ston": 45,
      "▁istemiyorum": 46,
      "imizde": 47,
      "▁od": 48,
      "▁mevz": 49,
      "▁aralık": 50,
      "y": 51,
      "etleri": 52,
      "elerde": 53,
      "sun": 54,
      "▁ciz": 55,
      "isine": 56,
      "▁doları'na": 57,
      "▁bog": 58,
      "imci": 59,
      "▁poz": 60,
      "gı": 61,
      "anları": 62,
      "▁gozlem": 63,
      "▁soy": 64,
      "▁le": 65,
      "▁kons": 66,
      "▁maz": 67,
      "▁salı": 68,
      "▁yan": 69,
      "▁seye": 70,
      "▁mesaf": 71,
      "▁sebep": 72,
      "tıs": 73,
      "ers": 74,
      "▁eylem": 75,
      "▁cogu": 76,
      "les": 77,
      "▁sıra": 78,
      "▁sahipleri": 79,
      "▁darb": 80,
      "▁had": 81,
      "▁birkac": 82,
      "▁ko": 83,
      "▁matem": 84,
      "▁muam": 85,
      "▁anim": 86,
      "▁isk": 87,
      "liydi": 88,
      "▁ulas": 89,
      "▁cıg": 90,
      "▁gayet": 91,
      "▁ucmak": 92,
      "▁begen": 93,
      "usunu": 94,
      "▁ag": 95,
      "▁patates": 96,
      "▁ancak": 97,
      "▁gar": 98,
      "▁personeli": 99,
      "▁pil": 100,
      "▁de": 101,
      "ırt": 102,
      "ince": 103,
      "▁oranı": 104,
      "▁yolda": 105,
      "▁tasarruf": 106,
      "liginin": 107,
      "▁franc": 108,
      "▁halkı": 109,
      "▁eline": 110,
      "▁seviye": 111,
      "▁sade": 112,
      "3": 113,
      "unda": 114,
      "ly": 115,
      "▁devir": 116,
      "▁gir": 117,
      "▁iflas": 118,
      "ru": 119,
      "uldu": 120,
      "su": 121,
      "▁kazanc": 122,
      "▁cev": 123,
      "▁itibariyle": 124,
      "▁iddia": 125,
      "▁huz": 126,
      "ların": 127,
      "▁seyleri": 128,
      "lerde": 129,
      "▁vucud": 130,
      "▁pantol": 131,
      "▁ornegin": 132,
      "▁fut": 133,
      "▁vardı": 134,
      "'s": 135,
      "▁ihtiyac": 136,
      "▁hamle": 137,
      "▁gormek": 138,
      "▁mart": 139,
      "eci": 140,
      "▁ib": 141,
      "▁oc": 142,
      "ledi": 143,
      "▁kontrol": 144,
      "▁olabilirdi": 145,
      "▁uf": 146,
      "luk": 147,
      "▁j": 148,
      "▁ber": 149,
      "ia": 150,
      "▁kaynak": 151,
      "kler": 152,
      "▁dis": 153,
      "▁bal": 154,
      "ca": 155,
      "▁itibar": 156,
      "▁merkeze": 157,
      "▁degistir": 158,
      "imde": 159,
      "▁oz": 160,
      "▁piy": 161,
      "▁dik": 162,
      "▁soyle": 163,
      "x": 164,
      "yle": 165,
      "▁erk": 166,
      "▁basında": 167,
      "▁pit": 168,
      "▁sesi": 169,
      "▁bileti": 170,
      "▁men": 171,
      "▁anlattı": 172,
      "iyordu": 173,
      "▁kahkah": 174,
      "▁beb": 175,
      "▁herkesin": 176,
      "lar": 177,
      "itesi": 178,
      "▁yuzunden": 179,
      "▁bunu": 180,
      "▁*": 181,
      "▁sonra": 182,
      "▁kaf": 183,
      "▁piyasa": 184,
      "▁duz": 185,
      "akları": 186,
      "r": 187,
      "▁araya": 188,
      "meyi": 189,
      "▁karsılık": 190,
      "▁esya": 191,
      "=": 192,
      "▁olarak": 193,
      "apon": 194,
      "▁acısından": 195,
      "▁gayrimen": 196,
      "ladı": 197,
      "▁hava": 198,
      "▁dususle": 199,
      "▁gosterdi": 200,
      "▁karsıl": 201,
      "▁yumurta": 202,
      "▁milletvek": 203,
      "▁istihdam": 204,
      "'n": 205,
      "▁not": 206,
      "▁don": 207,
      "▁ilav": 208,
      "▁toh": 209,
      "▁tavsiye": 210,
      "▁da": 211,
      "siye": 212,
      "▁rak": 213,
      "lak": 214,
      "madan": 215,
      "medigini": 216,
      "ıkları": 217,
      "4": 218,
      "e": 219,
      "▁ekip": 220,
      "▁yolculuk": 221,
      "▁ilave": 222,
      "unu": 223,
      "lıgın": 224,
      "▁si": 225,
      "elerden": 226,
      "▁yasında": 227,
      "▁konut": 228,
      "▁zor": 229,
      "▁ces": 230,
      "▁)": 231,
      "eh": 232,
      "▁yemeklerden": 233,
      "▁dor": 234,
      "▁oldugu": 235,
      "▁halbu": 236,
      "ediyor": 237,
      "▁sul": 238,
      "▁kos": 239,
      "▁gecen": 240,
      "undan": 241,
      "▁zar": 242,
      "▁tesisin": 243,
      "▁fot": 244,
      "▁red": 245,
      "▁zeytin": 246,
      "w": 247,
      "▁toplum": 248,
      "▁millet": 249,
      "uyla": 250,
      "ge": 251,
      "▁kabul": 252,
      "▁gok": 253,
      "▁getiri": 254,
      "if": 255,
      "▁if": 256,
      "▁tesekkur": 257,
      "▁hali": 258,
      "▁ellerini": 259,
      "▁tavır": 260,
      "▁e": 261,
      "ıt": 262,
      "van": 263,
      "ır": 264,
      "▁gitmek": 265,
      "▁temsil": 266,
      "ess": 267,
      "▁cak": 268,
      "form": 269,
      "ugu": 270,
      "ılmıs": 271,
      "▁fa": 272,
      "▁enf": 273,
      "▁organ": 274,
      "▁yalan": 275,
      "ise": 276,
      "land": 277,
      "um": 278,
      "▁haftada": 279,
      "▁yılı": 280,
      "▁muk": 281,
      "▁depr": 282,
      "▁endustri": 283,
      "▁tane": 284,
      "▁istif": 285,
      "▁olur": 286,
      "▁hukum": 287,
      "▁oglan": 288,
      "ilmesi": 289,
      "ey": 290,
      "'ın": 291,
      "▁gercek": 292,
      "▁ucus": 293,
      "bu": 294,
      "▁=": 295,
      "ileri": 296,
      "▁sokak": 297,
      "▁beklen": 298,
      "mal": 299,
      "▁n": 300,
      "▁key": 301,
      "▁hala": 302,
      "▁bilgis": 303,
      "urt": 304,
      "▁endis": 305,
      "▁9": 306,
      "▁faz": 307,
      "▁boyn": 308,
      "▁sebeb": 309,
      "m": 310,
      "▁tak": 311,
      "ısız": 312,
      "▁biz": 313,
      "onun": 314,
      "kah": 315,
      "una": 316,
      "▁beyle": 317,
      "▁rehber": 318,
      "▁ucuslar": 319,
      "▁hayata": 320,
      "igi": 321,
      "▁cag": 322,
      "▁adamı": 323,
      "asında": 324,
      "ıklık": 325,
      "oz": 326,
      "▁damak": 327,
      "▁esk": 328,
      "▁numar": 329,
      "may": 330,
      "▁toplan": 331,
      "gin": 332,
      "▁ba": 333,
      "▁avukat": 334,
      "▁kor": 335,
      "eticisi": 336,
      "▁cesitleri": 337,
      "uma": 338,
      "ih": 339,
      "tıg": 340,
      "▁gecm": 341,
      "▁demek": 342,
      "zir": 343,
      "ci": 344,
      ":": 345,
      "▁malzem": 346,
      "▁tedav": 347,
      "ugun": 348,
      "lilik": 349,
      ".5": 350,
      "st": 351,
      "▁sordu": 352,
      "af": 353,
      "▁ho": 354,
      "▁oglen": 355,
      "▁kr": 356,
      "edigim": 357,
      "ikat": 358,
      "▁first": 359,
      "layan": 360,
      "g": 361,
      "▁dusus": 362,
      "▁tiyatr": 363,
      "erk": 364,
      "▁ayakk": 365,
      "▁day": 366,
      "▁polit": 367,
      "larım": 368,
      "▁stok": 369,
      "isti": 370,
      "▁katkıda": 371,
      "▁oranları": 372,
      "▁icme": 373,
      "0'": 374,
      "▁sav": 375,
      "▁,": 376,
      "▁tesis": 377,
      "▁yel": 378,
      "inda": 379,
      "▁far": 380,
      "▁personellerden": 381,
      "▁kapının": 382,
      "▁acık": 383,
      "esinde": 384,
      "iydi": 385,
      "▁sınıfı": 386,
      "▁sıkınt": 387,
      "▁vucut": 388,
      "▁oldug": 389,
      "▁kırık": 390,
      "▁emeklilik": 391,
      "'d": 392,
      "▁parcası": 393,
      "▁yerine": 394,
      "▁cicek": 395,
      "▁otobus": 396,
      "p": 397,
      "▁kah": 398,
      "▁yıllar": 399,
      "▁onemli": 400,
      "▁kıymet": 401,
      "▁olduk": 402,
      "enek": 403,
      "imdi": 404,
      "▁meydana": 405,
      "▁kurul": 406,
      "▁ev": 407,
      "acı": 408,
      "eginde": 409,
      "larında": 410,
      "▁denizi": 411,
      "▁sipar": 412,
      "▁ar": 413,
      "go": 414,
      "▁dog": 415,
      "▁nakit": 416,
      "▁omuz": 417,
      "lo": 418,
      "sil": 419,
      "art": 420,
      "▁5": 421,
      "▁vardır": 422,
      "▁uretimi": 423,
      "▁tah": 424,
      "mıyor": 425,
      "▁w": 426,
      "▁ekmek": 427,
      "▁etti": 428,
      "▁eli": 429,
      "▁ma": 430,
      "▁talep": 431,
      "▁uzak": 432,
      "larıyla": 433,
      "▁buc": 434,
      "adde": 435,
      "sız": 436,
      "▁bayram": 437,
      "▁am": 438,
      "▁yeniden": 439,
      "▁akl": 440,
      "▁air": 441,
      "▁fiyati": 442,
      "uslar": 443,
      "der": 444,
      "▁net": 445,
      "▁yaban": 446,
      "ımız": 447,
      "▁satır": 448,
      "eden": 449,
      "▁bakan": 450,
      "▁dusun": 451,
      "▁herk": 452,
      "▁baslangıc": 453,
      "▁eksik": 454,
      "▁seh": 455,
      "ene": 456,
      "▁isci": 457,
      "▁lezz": 458,
      "ımızın": 459,
      "▁hatır": 460,
      "ıcılar": 461,
      "alt": 462,
      "▁yurtd": 463,
      "▁verdi": 464,
      "▁havaalanından": 465,
      "ılıg": 466,
      "▁dunyanın": 467,
      "▁endust": 468,
      "▁koyun": 469,
      "▁bilet": 470,
      "rı": 471,
      "▁edebiyat": 472,
      "aseb": 473,
      "▁sır": 474,
      "▁huzur": 475,
      "mekten": 476,
      "▁yiyecekler": 477,
      "▁bahs": 478,
      "▁i": 479,
      "▁deniz": 480,
      "burgh": 481,
      "▁yatırımcıların": 482,
      "▁ge": 483,
      "▁bul": 484,
      "▁denver'e": 485,
      "▁hayal": 486,
      "ya": 487,
      "eviz": 488,
      "▁yılın": 489,
      "▁bey": 490,
      "▁sorumluluk": 491,
      "sın": 492,
      "ına": 493,
      "ıyorlar": 494,
      "▁hayv": 495,
      "mektedir": 496,
      "▁p": 497,
      "▁sinir": 498,
      "▁$'a": 499,
      "aket": 500,
      "▁iletisim": 501,
      "eleri": 502,
      "endi": 503,
      "▁hazine": 504,
      "▁ogle": 505,
      "isiyle": 506,
      "▁su": 507,
      "▁sonucu": 508,
      "sik": 509,
      "▁komisyon": 510,
      "▁sof": 511,
      "▁gorusuldu": 512,
      "dar": 513,
      "▁fik": 514,
      "lige": 515,
      "alarını": 516,
      "uler": 517,
      "▁kucuk": 518,
      "▁mes": 519,
      "lere": 520,
      "▁or": 521,
      "▁;": 522,
      "un": 523,
      "▁mus": 524,
      "▁senedi": 525,
      "▁niyet": 526,
      "artesi": 527,
      "enin": 528,
      "ates": 529,
      "▁sayf": 530,
      "ımın": 531,
      "ust": 532,
      "▁buz": 533,
      "▁mut": 534,
      "esinden": 535,
      "andı": 536,
      "at": 537,
      "▁dur": 538,
      "▁memur": 539,
      "▁kalb": 540,
      "▁gore": 541,
      "a'nın": 542,
      "▁kararı": 543,
      "▁ig": 544,
      "udu": 545,
      "miyorum": 546,
      "▁herh": 547,
      "▁sovyet": 548,
      "▁ozgur": 549,
      "er": 550,
      "ilig": 551,
      "imize": 552,
      "▁mev": 553,
      "mamıs": 554,
      "▁fırsat": 555,
      "edig": 556,
      "▁borc": 557,
      "udur": 558,
      "en": 559,
      "▁clas": 560,
      "▁yuzme": 561,
      "▁yerinde": 562,
      "bi": 563,
      "▁kalmadim": 564,
      "▁begenmedim": 565,
      "▁veril": 566,
      "▁muh": 567,
      "▁boston'a": 568,
      "lıkla": 569,
      "▁dusuk": 570,
      "arı": 571,
      "▁gogs": 572,
      "manı": 573,
      "▁listesini": 574,
      "end": 575,
      "▁eglence": 576,
      "▁muhal": 577,
      "▁sistemi": 578,
      "▁universit": 579,
      "alama": 580,
      "tig": 581,
      "▁hem": 582,
      "▁saf": 583,
      "▁odan": 584,
      "▁otomobil": 585,
      "▁hikay": 586,
      "▁kodu": 587,
      "▁hayvan": 588,
      "▁oyle": 589,
      "▁gul": 590,
      "▁ses": 591,
      "▁alım": 592,
      "▁oner": 593,
      "▁anlat": 594,
      "leket": 595,
      "▁aldı": 596,
      "▁dusunuyor": 597,
      "▁traf": 598,
      "▁fazl": 599,
      "▁ann": 600,
      "▁tahmin": 601,
      "erken": 602,
      "luluk": 603,
      "▁oyun": 604,
      "▁konak": 605,
      "▁f": 606,
      "lemeye": 607,
      "▁bede": 608,
      "ti": 609,
      "orm": 610,
      "eyh": 611,
      "▁gece": 612,
      "▁yarın": 613,
      "▁insanı": 614,
      "▁bır": 615,
      "▁akr": 616,
      "lari": 617,
      "▁sans": 618,
      "▁:": 619,
      "▁bo": 620,
      "lik": 621,
      "▁toz": 622,
      "▁kullanmadim": 623,
      "▁anda": 624,
      "▁pos": 625,
      "▁he": 626,
      "ıma": 627,
      "▁pas": 628,
      "▁onay": 629,
      "▁yumur": 630,
      "ne": 631,
      "▁adam": 632,
      "▁merkezine": 633,
      "▁itir": 634,
      "▁insana": 635,
      "▁sırada": 636,
      "▁nedenlerden": 637,
      "ley": 638,
      "cu": 639,
      "ore": 640,
      "▁ihrac": 641,
      "▁ucretlerini": 642,
      "▁politika": 643,
      "▁plani": 644,
      "▁guzeldi": 645,
      "▁duman": 646,
      "▁menkul": 647,
      "▁dem": 648,
      "dıgı": 649,
      "▁endek": 650,
      "ind": 651,
      "esiyle": 652,
      "▁birles": 653,
      "▁saat": 654,
      "▁anket": 655,
      "ka": 656,
      "▁hik": 657,
      "tıl": 658,
      "▁isim": 659,
      "sızlık": 660,
      "ans": 661,
      "▁yont": 662,
      "▁islemler": 663,
      "yi": 664,
      "▁icki": 665,
      "▁bekl": 666,
      "mistir": 667,
      "▁kot": 668,
      "▁lok": 669,
      "▁yonetimi": 670,
      "▁kac": 671,
      "ib": 672,
      "▁aile": 673,
      "▁bunun": 674,
      "landır": 675,
      "▁destek": 676,
      "eyn": 677,
      "us": 678,
      "▁dep": 679,
      "▁naz": 680,
      "▁islet": 681,
      "uzluydu": 682,
      "usunun": 683,
      "erin": 684,
      "8'de": 685,
      "▁ziy": 686,
      "▁kez": 687,
      "▁onlar": 688,
      "ec": 689,
      "nun": 690,
      "▁ta": 691,
      "mesi": 692,
      "▁basladı": 693,
      "▁10'dan": 694,
      "emey": 695,
      "cak": 696,
      "ere": 697,
      "dı": 698,
      "▁ticaret": 699,
      "▁etmeye": 700,
      "larak": 701,
      "nc": 702,
      "▁serv": 703,
      "▁mec": 704,
      "▁etki": 705,
      "▁savası": 706,
      "▁dunyaya": 707,
      "▁kahv": 708,
      "▁zih": 709,
      "til": 710,
      "▁icra": 711,
      "▁iler": 712,
      "▁class": 713,
      "ayan": 714,
      "▁ozel": 715,
      "ask": 716,
      "▁kral": 717,
      "▁bolum": 718,
      "stır": 719,
      "▁acıklam": 720,
      "▁kitabı": 721,
      "yalar": 722,
      "abilecegini": 723,
      "▁ez": 724,
      "masını": 725,
      "▁bakım": 726,
      "arlan": 727,
      "▁ayrıl": 728,
      "▁ya": 729,
      "esini": 730,
      "ont": 731,
      "siz": 732,
      "ıgın": 733,
      "adar": 734,
      "sal": 735,
      "▁yag": 736,
      "▁kol": 737,
      "imden": 738,
      "▁ir": 739,
      "▁lutfen": 740,
      "▁tem": 741,
      "co": 742,
      "▁yapıyor": 743,
      "ının": 744,
      "eni": 745,
      "▁dam": 746,
      "▁fabrik": 747,
      "ama": 748,
      "▁kalite": 749,
      "▁ifade": 750,
      "▁isletme": 751,
      "▁alısveris": 752,
      "▁sistem": 753,
      "▁yoktu": 754,
      "emiyor": 755,
      "lugunu": 756,
      "▁ih": 757,
      "▁ey": 758,
      "'ndan": 759,
      "▁bes": 760,
      "of": 761,
      "▁ik": 762,
      "▁yum": 763,
      "▁tabak": 764,
      "▁akt": 765,
      "des": 766,
      "amak": 767,
      "ligini": 768,
      "▁kapıyı": 769,
      "▁art": 770,
      "ma": 771,
      "lerinin": 772,
      "▁ziyaret": 773,
      "▁mevdu": 774,
      "▁ikinci": 775,
      "isleri": 776,
      "imi": 777,
      "▁kit": 778,
      "aları": 779,
      "▁cit": 780,
      "ime": 781,
      "▁cars": 782,
      "mekt": 783,
      "dan": 784,
      "▁af": 785,
      "▁te": 786,
      "▁arastırma": 787,
      "onra": 788,
      "phia": 789,
      "▁tarihinde": 790,
      "hal": 791,
      "▁hiss": 792,
      "atı": 793,
      "▁rap": 794,
      "▁kolt": 795,
      "ikler": 796,
      "▁ortaya": 797,
      "▁oyn": 798,
      "enleri": 799,
      "mis": 800,
      "▁firma": 801,
      "yal": 802,
      "▁asagı": 803,
      "▁sekret": 804,
      "▁basta": 805,
      "▁sigorta": 806,
      "▁za": 807,
      "iler": 808,
      "ayet": 809,
      "iniz": 810,
      "▁sorunu": 811,
      "▁gel": 812,
      "▁mem": 813,
      "b": 814,
      "▁yal": 815,
      "▁nedenle": 816,
      "▁penc": 817,
      "▁alama": 818,
      "▁kal": 819,
      "▁belir": 820,
      "erh": 821,
      "▁yemek": 822,
      "▁tan": 823,
      "ton": 824,
      ";": 825,
      "▁delik": 826,
      "sin": 827,
      "▁yog": 828,
      "▁bors": 829,
      "▁havayolu": 830,
      "▁gunden": 831,
      "ume": 832,
      "▁kut": 833,
      "eyle": 834,
      "▁ust": 835,
      "alle": 836,
      "▁yemeklerinden": 837,
      "▁tezgah": 838,
      "▁uzman": 839,
      "▁bug": 840,
      "▁memnun": 841,
      "▁idare": 842,
      "▁pay": 843,
      "▁firması": 844,
      "▁ph": 845,
      "▁alk": 846,
      "ay": 847,
      "▁agac": 848,
      "▁bicim": 849,
      "▁yonetim": 850,
      "▁haline": 851,
      "▁azal": 852,
      "▁alacak": 853,
      "▁parmak": 854,
      "▁mudur": 855,
      "aset": 856,
      "ub": 857,
      "▁bilg": 858,
      "▁gecir": 859,
      "▁cem": 860,
      "cek": 861,
      "ildi": 862,
      "adem": 863,
      "▁sorustur": 864,
      "▁dı": 865,
      "dam": 866,
      "aat": 867,
      "▁huk": 868,
      "ver": 869,
      "▁dallas": 870,
      "▁benz": 871,
      "mıstır": 872,
      "erleri": 873,
      "alım": 874,
      "dug": 875,
      "manın": 876,
      "yası": 877,
      "▁detay": 878,
      "▁sozcusu": 879,
      "▁artısla": 880,
      "emek": 881,
      "▁kaldır": 882,
      "gan": 883,
      "▁fikir": 884,
      "▁suy": 885,
      "adı": 886,
      "▁ettigini": 887,
      "▁sim": 888,
      "▁mah": 889,
      "▁nis": 890,
      "▁temel": 891,
      "▁mill": 892,
      "▁has": 893,
      "▁yuv": 894,
      "f": 895,
      "▁vergi": 896,
      "▁kere": 897,
      "edigini": 898,
      "▁gazeteci": 899,
      "▁dus": 900,
      "lk": 901,
      "amın": 902,
      "▁otur": 903,
      "▁teklifi": 904,
      "▁kars": 905,
      "tor": 906,
      "lem": 907,
      "anti": 908,
      "tif": 909,
      "▁ticarette": 910,
      "▁yine": 911,
      "▁elini": 912,
      "▁islemlerinde": 913,
      "oru": 914,
      "▁sayı": 915,
      "alan": 916,
      "▁boyle": 917,
      "▁burn": 918,
      "bil": 919,
      "ult": 920,
      "▁konusunda": 921,
      "amız": 922,
      "▁sikayet": 923,
      "cıları": 924,
      "az": 925,
      "▁guzel": 926,
      "▁belki": 927,
      "▁personelleri": 928,
      "ısıyla": 929,
      "▁bor": 930,
      "▁suya": 931,
      "▁med": 932,
      "▁mur": 933,
      "det": 934,
      "▁artıs": 935,
      "daki": 936,
      "▁personeller": 937,
      "▁ilgi": 938,
      "ı": 939,
      "▁mun": 940,
      "lemek": 941,
      "uyordu": 942,
      "rar": 943,
      "emiz": 944,
      "uyorlar": 945,
      "▁ban": 946,
      "▁hacmi": 947,
      "▁fr": 948,
      "▁yas": 949,
      "▁paket": 950,
      "▁.": 951,
      "▁beni": 952,
      "▁bildir": 953,
      "▁ucreti": 954,
      "▁arkadas": 955,
      "▁egitim": 956,
      "▁aj": 957,
      "asa": 958,
      "eb": 959,
      "▁sevgi": 960,
      "iss": 961,
      "gi": 962,
      "▁sehir": 963,
      "▁senetleri": 964,
      "aması": 965,
      "▁uret": 966,
      "▁gorunuyor": 967,
      "inin": 968,
      "cun": 969,
      "▁bol": 970,
      "▁yuzune": 971,
      "▁siyaset": 972,
      "ulmus": 973,
      "▁3": 974,
      "▁gozlerini": 975,
      "▁yay": 976,
      "ograf": 977,
      "/8": 978,
      "▁indirim": 979,
      "agı": 980,
      "▁uygul": 981,
      "▁kisilik": 982,
      "ez": 983,
      "▁ard": 984,
      "▁yav": 985,
      "ecegi": 986,
      "▁kelime": 987,
      "▁tac": 988,
      "▁gitti": 989,
      "reti": 990,
      "las": 991,
      "leriyle": 992,
      "mıstı": 993,
      "t": 994,
      "▁akıl": 995,
      "▁lezzetleri": 996,
      "▁say": 997,
      "▁geliyor": 998,
      "▁hastan": 999,
      "▁alay": 1000,
      "▁kuf": 1001,
      "▁analiz": 1002,
      "▁lu": 1003,
      "andan": 1004,
      "▁av": 1005,
      "▁kadar": 1006,
      "▁yere": 1007,
      "▁sinem": 1008,
      "ast": 1009,
      "▁tarih": 1010,
      "7": 1011,
      "▁borsa": 1012,
      "ok": 1013,
      "ırak": 1014,
      "#": 1015,
      "▁istedi": 1016,
      "▁ek": 1017,
      "ili": 1018,
      "▁evin": 1019,
      "muz": 1020,
      "[MASK]": 1021,
      "uya": 1022,
      "▁finans": 1023,
      "▁izin": 1024,
      "se": 1025,
      "▁cevr": 1026,
      "▁seyden": 1027,
      "▁onunde": 1028,
      "asın": 1029,
      "▁duzen": 1030,
      "▁mekte": 1031,
      "elerle": 1032,
      "▁kahvalt": 1033,
      "▁kes": 1034,
      "▁kumar": 1035,
      "▁daha": 1036,
      "▁orne": 1037,
      "▁hareket": 1038,
      "anc": 1039,
      "estiri": 1040,
      "▁babam": 1041,
      "lin": 1042,
      "to": 1043,
      "iz": 1044,
      "▁reform": 1045,
      "ist": 1046,
      "ruf": 1047,
      "arın": 1048,
      "ekler": 1049,
      "▁danıs": 1050,
      "▁tul": 1051,
      "adel": 1052,
      "ding": 1053,
      "▁tip": 1054,
      "▁198": 1055,
      "▁ornek": 1056,
      "▁kardes": 1057,
      "ıl": 1058,
      "▁sa": 1059,
      "▁dagıt": 1060,
      "▁ken": 1061,
      "▁a": 1062,
      "▁gunu": 1063,
      "▁farkında": 1064,
      "▁oglum": 1065,
      "ide": 1066,
      "▁uzerinden": 1067,
      "▁kelim": 1068,
      "▁rakam": 1069,
      "unun": 1070,
      "▁rekor": 1071,
      "▁&": 1072,
      "▁goz": 1073,
      "gunu": 1074,
      "▁bahc": 1075,
      "▁must": 1076,
      "▁ele": 1077,
      "▁bazi": 1078,
      "▁eyalet": 1079,
      "▁muzik": 1080,
      "▁imz": 1081,
      "▁vatand": 1082,
      "▁ters": 1083,
      "▁gerekiyor": 1084,
      "▁sabah": 1085,
      "▁edecek": 1086,
      "▁us": 1087,
      "▁arasına": 1088,
      "▁prens": 1089,
      "%": 1090,
      "iligini": 1091,
      "▁k": 1092,
      "▁giriste": 1093,
      "up": 1094,
      "liligi": 1095,
      "lum": 1096,
      "▁kat": 1097,
      "sat": 1098,
      "▁mola": 1099,
      "▁zam": 1100,
      "▁operasyon": 1101,
      "▁etrafında": 1102,
      "atın": 1103,
      "▁taraf": 1104,
      "▁tec": 1105,
      "▁tenc": 1106,
      "▁personellerin": 1107,
      "▁cık": 1108,
      "n": 1109,
      "▁dav": 1110,
      "▁gom": 1111,
      "areti": 1112,
      "leyi": 1113,
      "idi": 1114,
      "tan": 1115,
      "▁verim": 1116,
      "amaz": 1117,
      "▁boston": 1118,
      "▁karsiligini": 1119,
      "nız": 1120,
      "▁diger": 1121,
      "▁son": 1122,
      "agında": 1123,
      "▁lid": 1124,
      "▁araz": 1125,
      "▁def": 1126,
      "igim": 1127,
      "▁ordu": 1128,
      "ten": 1129,
      "▁francisco'ya": 1130,
      "ncak": 1131,
      "▁misafir": 1132,
      "▁sonrasında": 1133,
      "▁hur": 1134,
      "▁ofk": 1135,
      "▁sonrası": 1136,
      "▁uzun": 1137,
      "▁ekim": 1138,
      "lacak": 1139,
      "ırım": 1140,
      "est": 1141,
      "▁ac": 1142,
      "▁kitap": 1143,
      "ıf": 1144,
      "▁azalt": 1145,
      "lac": 1146,
      "▁tahv": 1147,
      "ph": 1148,
      "▁bolumu": 1149,
      "▁fiyatlarını": 1150,
      "iyor": 1151,
      "▁gunlerde": 1152,
      "ou": 1153,
      "▁savunma": 1154,
      "▁kampanyalar": 1155,
      "▁ucusu": 1156,
      "'ten": 1157,
      "li": 1158,
      "▁olan": 1159,
      "▁kurt": 1160,
      "ecekler": 1161,
      "eceg": 1162,
      "akat": 1163,
      "▁im": 1164,
      "▁guz": 1165,
      "sınız": 1166,
      "ıldı": 1167,
      "▁artısı": 1168,
      "tar": 1169,
      "▁dom": 1170,
      "▁kis": 1171,
      "▁?": 1172,
      "erli": 1173,
      "▁kultur": 1174,
      "▁ener": 1175,
      "▁direk": 1176,
      "abı": 1177,
      "▁caba": 1178,
      "▁karsısında": 1179,
      "▁garson": 1180,
      "▁sıkıntı": 1181,
      "▁tehlik": 1182,
      "cok": 1183,
      "▁burokr": 1184,
      "sen": 1185,
      "ilendir": 1186,
      "▁.)": 1187,
      "ıyor": 1188,
      "▁ihtiyacı": 1189,
      "▁sark": 1190,
      "▁kıy": 1191,
      "▁bogaz": 1192,
      "edef": 1193,
      "▁sekl": 1194,
      "▁dalg": 1195,
      "▁nak": 1196,
      "▁sigara": 1197,
      "▁odalari": 1198,
      "ısır": 1199,
      "▁once": 1200,
      "be": 1201,
      "▁unu": 1202,
      "▁soyledi": 1203,
      "cut": 1204,
      "abet": 1205,
      "gisi": 1206,
      "▁degisiklikler": 1207,
      "▁tahvil": 1208,
      "▁kosulları": 1209,
      "dum": 1210,
      "▁cif": 1211,
      "hangi": 1212,
      "▁maliyeti": 1213,
      "▁gosterin": 1214,
      "▁faiz": 1215,
      "▁plaji": 1216,
      "▁evi": 1217,
      "▁ten": 1218,
      "ersiz": 1219,
      "▁cocugun": 1220,
      "▁tarif": 1221,
      "ov": 1222,
      "eli": 1223,
      "▁ins": 1224,
      "▁bilgi": 1225,
      "egine": 1226,
      "▁birtak": 1227,
      "▁yasa": 1228,
      "▁anay": 1229,
      "▁ise": 1230,
      "▁surec": 1231,
      "ter": 1232,
      "▁dair": 1233,
      "▁kom": 1234,
      "▁parti": 1235,
      "▁burada": 1236,
      "▁kurtaj": 1237,
      "▁sup": 1238,
      "bir": 1239,
      "▁bana": 1240,
      "▁teor": 1241,
      "▁is": 1242,
      "rken": 1243,
      "▁sohbet": 1244,
      "▁kil": 1245,
      "▁erken": 1246,
      "dim": 1247,
      "▁bilim": 1248,
      "▁olsun": 1249,
      "▁anlam": 1250,
      "▁12": 1251,
      "ecek": 1252,
      "▁ren": 1253,
      "▁hanimdi": 1254,
      "▁alıs": 1255,
      "▁deprem": 1256,
      "▁yık": 1257,
      "▁oyunc": 1258,
      "mel": 1259,
      "▁ha": 1260,
      "ilim": 1261,
      "00": 1262,
      "▁yatırımcılar": 1263,
      "▁yalnız": 1264,
      "▁test": 1265,
      "▁satıs": 1266,
      "liginden": 1267,
      "▁top": 1268,
      "▁siir": 1269,
      "▁kısı": 1270,
      "$": 1271,
      "▁uz": 1272,
      "▁nefes": 1273,
      "▁hır": 1274,
      "▁edil": 1275,
      "▁dogru": 1276,
      "acagını": 1277,
      "▁bin": 1278,
      "▁zaman": 1279,
      "▁city": 1280,
      "▁dov": 1281,
      "▁cel": 1282,
      "in": 1283,
      "et": 1284,
      "▁getir": 1285,
      "▁maliyet": 1286,
      "ik": 1287,
      "sunuz": 1288,
      "▁lam": 1289,
      "▁doldur": 1290,
      "ısına": 1291,
      "▁ikisi": 1292,
      "▁kisi": 1293,
      "▁ekm": 1294,
      "▁sevk": 1295,
      "▁dogr": 1296,
      "▁cen": 1297,
      "▁sor": 1298,
      "ve": 1299,
      "▁sayg": 1300,
      "ark": 1301,
      "▁arac": 1302,
      "▁terk": 1303,
      "gur": 1304,
      "▁endeks": 1305,
      "▁cad": 1306,
      "▁8'den": 1307,
      "▁nelerdir": 1308,
      "ılım": 1309,
      "▁mobil": 1310,
      "▁har": 1311,
      "▁boyun": 1312,
      "dig": 1313,
      "acılar": 1314,
      "▁tır": 1315,
      "▁rezervasyonu": 1316,
      "▁git": 1317,
      "▁elb": 1318,
      "▁tepki": 1319,
      "▁cift": 1320,
      "itr": 1321,
      "▁ede": 1322,
      "agının": 1323,
      "▁basv": 1324,
      "▁kayn": 1325,
      "▁lob": 1326,
      "v": 1327,
      "▁futbol": 1328,
      "▁savun": 1329,
      "sı": 1330,
      "▁insanın": 1331,
      "▁katilmak": 1332,
      "▁deney": 1333,
      "▁tasım": 1334,
      "uru": 1335,
      "▁grubu": 1336,
      "0": 1337,
      "▁baz": 1338,
      "▁ilk": 1339,
      "▁ip": 1340,
      "lge": 1341,
      "▁dar": 1342,
      "▁perde": 1343,
      "▁kayıt": 1344,
      "▁olanak": 1345,
      "▁piyan": 1346,
      "▁uc": 1347,
      "alet": 1348,
      "▁sar": 1349,
      "[PAD]": 1350,
      "▁kadın": 1351,
      "tih": 1352,
      "▁oteli": 1353,
      "▁arab": 1354,
      "▁kalkan": 1355,
      "▁boyu": 1356,
      "▁uyk": 1357,
      "▁ter": 1358,
      "▁karak": 1359,
      "yuzlu": 1360,
      "lıgı": 1361,
      "▁problem": 1362,
      "▁h": 1363,
      "9": 1364,
      "▁iyi": 1365,
      "imen": 1366,
      "▁gerek": 1367,
      "ht": 1368,
      "▁sig": 1369,
      "ayı": 1370,
      "▁eder": 1371,
      "▁satım": 1372,
      "ları": 1373,
      "▁ici": 1374,
      "emez": 1375,
      "▁ekibi": 1376,
      "▁7": 1377,
      "abil": 1378,
      "▁parca": 1379,
      "▁tay": 1380,
      "▁oyku": 1381,
      "▁nedeniyle": 1382,
      "▁tek": 1383,
      "▁sur": 1384,
      "mustu": 1385,
      "tik": 1386,
      "▁gru": 1387,
      "▁tiyatro": 1388,
      "▁dayan": 1389,
      "▁basını": 1390,
      "▁inter": 1391,
      "ye": 1392,
      "ecegine": 1393,
      "▁saglık": 1394,
      "▁mesaj": 1395,
      "dırım": 1396,
      "▁dusman": 1397,
      "ki": 1398,
      "8": 1399,
      "ade": 1400,
      "▁ulasım": 1401,
      "▁francisco": 1402,
      "▁esim": 1403,
      "▁elestiri": 1404,
      "▁kusur": 1405,
      "▁z": 1406,
      "▁kop": 1407,
      "izdi": 1408,
      "▁alak": 1409,
      "'y": 1410,
      "▁tesisi": 1411,
      "ıklar": 1412,
      "▁direktor": 1413,
      "▁emir": 1414,
      "yen": 1415,
      "▁ingil": 1416,
      "▁olm": 1417,
      "▁herkes": 1418,
      "▁cik": 1419,
      "▁aklı": 1420,
      "▁anlas": 1421,
      "let": 1422,
      "▁edi": 1423,
      "▁hizmet": 1424,
      "▁kov": 1425,
      "▁199": 1426,
      "ulu": 1427,
      "isyon": 1428,
      "oloj": 1429,
      "▁t": 1430,
      "▁kısmı": 1431,
      "▁ortam": 1432,
      "taj": 1433,
      "▁koku": 1434,
      "▁ile": 1435,
      "▁onem": 1436,
      "▁yagmur": 1437,
      "▁\"": 1438,
      "▁buyum": 1439,
      "2": 1440,
      "▁beklent": 1441,
      "”": 1442,
      "mes": 1443,
      "▁grub": 1444,
      "tıgını": 1445,
      "▁gal": 1446,
      "▁program": 1447,
      "lanır": 1448,
      "mem": 1449,
      "▁yılının": 1450,
      "▁taz": 1451,
      "▁kıv": 1452,
      "larda": 1453,
      "▁gorev": 1454,
      "alarda": 1455,
      "▁cer": 1456,
      "▁sayıda": 1457,
      "▁ulke": 1458,
      "eler": 1459,
      "▁tasar": 1460,
      "ogram": 1461,
      "▁eks": 1462,
      "▁form": 1463,
      "▁cumhurb": 1464,
      "▁yukseldi": 1465,
      "cisi": 1466,
      "▁piyasanın": 1467,
      "▁gayrimenkul": 1468,
      "▁sirketleri": 1469,
      "▁arkadaslar": 1470,
      "lerin": 1471,
      "duz": 1472,
      "▁yapmak": 1473,
      "▁kahve": 1474,
      "tarak": 1475,
      "▁adım": 1476,
      "▁acent": 1477,
      "denin": 1478,
      "net": 1479,
      "▁yoneticileri": 1480,
      "▁ureticisi": 1481,
      "▁dok": 1482,
      "ydı": 1483,
      "▁kahval": 1484,
      "▁bank": 1485,
      "▁coc": 1486,
      "digini": 1487,
      "cıların": 1488,
      "▁genelde": 1489,
      "▁proj": 1490,
      "iri": 1491,
      "▁cep": 1492,
      "▁inc": 1493,
      "▁civ": 1494,
      "▁gem": 1495,
      "▁hisse": 1496,
      "ant": 1497,
      "▁to": 1498,
      "▁kup": 1499,
      "▁begendim": 1500,
      "▁tic": 1501,
      "▁bizim": 1502,
      "ebil": 1503,
      "▁arz": 1504,
      "lerimi": 1505,
      "▁kavram": 1506,
      "▁cercev": 1507,
      "▁amerik": 1508,
      "▁rahat": 1509,
      "ecegini": 1510,
      "maları": 1511,
      "maktan": 1512,
      "▁yanına": 1513,
      "tansiy": 1514,
      "amba": 1515,
      "▁cocuklara": 1516,
      "▁havayollarını": 1517,
      "▁geri": 1518,
      "▁guleryuzlu": 1519,
      "▁yat": 1520,
      "▁vet": 1521,
      "arında": 1522,
      "▁as": 1523,
      "▁%": 1524,
      "▁ka": 1525,
      "▁zamanda": 1526,
      "▁il": 1527,
      "mız": 1528,
      "▁end": 1529,
      "'ye": 1530,
      "tık": 1531,
      "lık": 1532,
      "ında": 1533,
      "▁kamyon": 1534,
      "&": 1535,
      "▁yiy": 1536,
      "▁onun": 1537,
      "sizlik": 1538,
      "▁haft": 1539,
      "▁met": 1540,
      "▁sus": 1541,
      "▁york": 1542,
      "▁ucak": 1543,
      "▁oyunu": 1544,
      "ef": 1545,
      "ıyorum": 1546,
      "gesi": 1547,
      "▁hanimla": 1548,
      "▁kurulus": 1549,
      "▁borsası": 1550,
      "▁sez": 1551,
      "▁em": 1552,
      "▁yemeklerde": 1553,
      "eg": 1554,
      "▁can": 1555,
      "'dan": 1556,
      "▁ustu": 1557,
      "▁ruy": 1558,
      "▁ic": 1559,
      "es": 1560,
      "ıya": 1561,
      "▁seker": 1562,
      "ap": 1563,
      "▁olu": 1564,
      "gar": 1565,
      "▁basarı": 1566,
      "▁oteldi": 1567,
      "▁arasındaki": 1568,
      "▁mektup": 1569,
      "ucc": 1570,
      "▁ucret": 1571,
      "▁tat": 1572,
      "▁mek": 1573,
      "▁anlamına": 1574,
      "yum": 1575,
      "▁koylu": 1576,
      "▁may": 1577,
      "▁bize": 1578,
      "eme": 1579,
      "hane": 1580,
      "▁kıymetler": 1581,
      "dek": 1582,
      "▁.\"": 1583,
      "▁ellerinde": 1584,
      "▁inan": 1585,
      "▁aynı": 1586,
      "gah": 1587,
      "lerinden": 1588,
      "acak": 1589,
      "▁seyler": 1590,
      "'de": 1591,
      "▁fır": 1592,
      "▁bile": 1593,
      "▁derece": 1594,
      "▁urun": 1595,
      "▁bah": 1596,
      "▁harekete": 1597,
      "all": 1598,
      "▁yolcu": 1599,
      "▁kuvv": 1600,
      "mad": 1601,
      "▁go": 1602,
      "▁seyahat": 1603,
      "▁kontr": 1604,
      "▁yolu": 1605,
      "erler": 1606,
      "▁doları'ndan": 1607,
      "etin": 1608,
      "▁kuv": 1609,
      "alarına": 1610,
      "tak": 1611,
      "▁konuyu": 1612,
      "ayi": 1613,
      "lerimiz": 1614,
      "?": 1615,
      "askanı": 1616,
      "onu": 1617,
      "▁korku": 1618,
      "▁ben": 1619,
      "▁indir": 1620,
      "▁bugday": 1621,
      "▁idar": 1622,
      "▁nokta": 1623,
      "▁gidis": 1624,
      "▁onu": 1625,
      "▁geliri": 1626,
      "▁ısrar": 1627,
      "▁belirt": 1628,
      "▁sadece": 1629,
      "umu": 1630,
      "▁19": 1631,
      "etici": 1632,
      "▁kent": 1633,
      "ılık": 1634,
      "▁atlanta": 1635,
      "▁soyluyor": 1636,
      "allas": 1637,
      "ayol": 1638,
      "▁icecek": 1639,
      "▁icine": 1640,
      "laya": 1641,
      "▁istih": 1642,
      "▁dib": 1643,
      "ık": 1644,
      "uyorum": 1645,
      "leme": 1646,
      "▁sarkı": 1647,
      "▁kum": 1648,
      "eye": 1649,
      "▁deger": 1650,
      "▁sun": 1651,
      "▁fiyat": 1652,
      "as": 1653,
      "…": 1654,
      "esti": 1655,
      "og": 1656,
      "agını": 1657,
      "▁tarla": 1658,
      "▁yardım": 1659,
      "anların": 1660,
      "bet": 1661,
      "▁kur": 1662,
      "▁sil": 1663,
      "▁seviyesinden": 1664,
      "▁bl": 1665,
      "▁restor": 1666,
      "▁burası": 1667,
      "▁ilgilen": 1668,
      "▁ef": 1669,
      "▁dedim": 1670,
      "▁yargıc": 1671,
      "agın": 1672,
      "▁ucusların": 1673,
      "ınız": 1674,
      "▁kurulu": 1675,
      "▁amc": 1676,
      "hut": 1677,
      "▁sonu": 1678,
      "▁ila": 1679,
      "▁ipot": 1680,
      "▁parc": 1681,
      "▁soyley": 1682,
      "▁gerektigini": 1683,
      "▁butce": 1684,
      "eket": 1685,
      "dık": 1686,
      "▁kok": 1687,
      "landı": 1688,
      "▁yemeklerin": 1689,
      "▁bulundu": 1690,
      "ash": 1691,
      "▁bası": 1692,
      "▁kapsam": 1693,
      "▁koltuk": 1694,
      "▁ilan": 1695,
      "▁sahibi": 1696,
      "▁halde": 1697,
      "▁oakland": 1698,
      "elig": 1699,
      "▁ucuslarını": 1700,
      "mak": 1701,
      "▁alma": 1702,
      "▁yanl": 1703,
      "▁sermaye": 1704,
      "▁yuksek": 1705,
      "▁gog": 1706,
      "▁milyon": 1707,
      "▁cesit": 1708,
      "▁sırt": 1709,
      "▁ilisk": 1710,
      "▁pat": 1711,
      "▁uzerine": 1712,
      "▁cekti": 1713,
      "▁sos": 1714,
      "▁ogr": 1715,
      "lbu": 1716,
      "▁meyve": 1717,
      "▁duygu": 1718,
      "lerinde": 1719,
      "▁sekil": 1720,
      "▁bırak": 1721,
      "▁vuc": 1722,
      "▁gur": 1723,
      "▁herif": 1724,
      "▁deg": 1725,
      "▁calısma": 1726,
      "ıgını": 1727,
      "inc": 1728,
      "asındaki": 1729,
      "▁ak": 1730,
      "lamak": 1731,
      "ustu": 1732,
      "▁silah": 1733,
      "▁imkan": 1734,
      "▁ada": 1735,
      "▁yerinden": 1736,
      "▁aradi": 1737,
      "▁yuz": 1738,
      "▁erkek": 1739,
      "▁hayat": 1740,
      "▁y": 1741,
      "▁roman": 1742,
      "tay": 1743,
      "▁yaptı": 1744,
      "▁uye": 1745,
      "▁rapor": 1746,
      "▁otel": 1747,
      "▁veri": 1748,
      "kal": 1749,
      "▁digerleri": 1750,
      "▁yapar": 1751,
      "▁sov": 1752,
      "detti": 1753,
      "▁bon": 1754,
      "▁kalem": 1755,
      "▁olması": 1756,
      "ar": 1757,
      "▁meydan": 1758,
      "lerle": 1759,
      "▁gum": 1760,
      "▁hanım": 1761,
      "ansiyon": 1762,
      "▁tuz": 1763,
      "ab": 1764,
      "▁endise": 1765,
      "▁ol": 1766,
      "▁devlet": 1767,
      "▁dek": 1768,
      "dak": 1769,
      "▁tav": 1770,
      "larımızı": 1771,
      "▁ders": 1772,
      "▁onceki": 1773,
      "iyeti": 1774,
      "▁hatta": 1775,
      "▁yanında": 1776,
      "liye": 1777,
      "▁kisiler": 1778,
      "▁kavg": 1779,
      "▁ay": 1780,
      "uye": 1781,
      "▁amerikalı": 1782,
      "l": 1783,
      "▁mez": 1784,
      "▁evet": 1785,
      "▁ceza": 1786,
      "\\": 1787,
      "▁ayak": 1788,
      "▁azdi": 1789,
      "▁mahkeme": 1790,
      "▁zinc": 1791,
      "▁danısman": 1792,
      "▁odeme": 1793,
      "▁yaprak": 1794,
      "▁ikram": 1795,
      "▁ask": 1796,
      "yas": 1797,
      "ster": 1798,
      "▁kav": 1799,
      "▁dısı": 1800,
      "▁toplam": 1801,
      "▁dengesi": 1802,
      "▁mal": 1803,
      "▁ceyr": 1804,
      "▁adet": 1805,
      "ork": 1806,
      "▁sikinti": 1807,
      "▁rehberimiz": 1808,
      "▁hasta": 1809,
      "kin": 1810,
      "▁dıs": 1811,
      "ot": 1812,
      "▁koc": 1813,
      "▁gelis": 1814,
      "▁hay": 1815,
      "elim": 1816,
      "ıga": 1817,
      "▁muhafaz": 1818,
      "ah": 1819,
      "ag": 1820,
      "cısı": 1821,
      "▁bag": 1822,
      "▁bab": 1823,
      "▁tor": 1824,
      "▁amac": 1825,
      "▁davran": 1826,
      "▁dag": 1827,
      "ji": 1828,
      "▁yemekler": 1829,
      "isler": 1830,
      "▁fatur": 1831,
      "okr": 1832,
      "▁analistler": 1833,
      "▁sab": 1834,
      "▁dolardan": 1835,
      "ılıyor": 1836,
      "▁at": 1837,
      "▁kul": 1838,
      "▁4": 1839,
      "bar": 1840,
      "▁doktor": 1841,
      "▁pr": 1842,
      "▁kend": 1843,
      "▁dudak": 1844,
      "▁havuz": 1845,
      "atır": 1846,
      "kun": 1847,
      "lastı": 1848,
      "imore": 1849,
      "-": 1850,
      "deki": 1851,
      "▁kayb": 1852,
      "▁bıcak": 1853,
      "par": 1854,
      "▁lezzet": 1855,
      "ep": 1856,
      "▁olcu": 1857,
      "▁str": 1858,
      "▁cum": 1859,
      "▁tahta": 1860,
      "▁kulub": 1861,
      "▁adını": 1862,
      "evi": 1863,
      "▁seyi": 1864,
      "ket": 1865,
      "▁tatil": 1866,
      "madim": 1867,
      "▁radyo": 1868,
      "+": 1869,
      "▁dip": 1870,
      "▁dısında": 1871,
      "▁(": 1872,
      "uklu": 1873,
      "▁ileri": 1874,
      "▁zorluk": 1875,
      "▁olanakları": 1876,
      "▁kapas": 1877,
      "▁orman": 1878,
      "▁prot": 1879,
      "▁ediyorum": 1880,
      "▁amer": 1881,
      "tıktan": 1882,
      "uga": 1883,
      "ması": 1884,
      "aret": 1885,
      "▁havaal": 1886,
      "▁kız": 1887,
      "erek": 1888,
      "▁okul": 1889,
      "▁arastır": 1890,
      "▁seyir": 1891,
      "▁merh": 1892,
      "▁turkiye": 1893,
      "▁actı": 1894,
      "stı": 1895,
      "▁gelen": 1896,
      "onom": 1897,
      "▁oper": 1898,
      "▁ihtiyacım": 1899,
      "op": 1900,
      "▁komut": 1901,
      "sa": 1902,
      "onel": 1903,
      "▁icin": 1904,
      "alarla": 1905,
      "▁gu": 1906,
      "▁varlık": 1907,
      "▁v": 1908,
      "▁dustu": 1909,
      "*": 1910,
      "dal": 1911,
      "▁olac": 1912,
      "▁ucaga": 1913,
      "▁hap": 1914,
      "▁incel": 1915,
      "▁po": 1916,
      "▁manzarasi": 1917,
      "▁hapis": 1918,
      "ınc": 1919,
      "ın": 1920,
      "▁hakkında": 1921,
      "▁arada": 1922,
      "iger": 1923,
      "lı": 1924,
      "▁dogum": 1925,
      "▁vermek": 1926,
      "▁olsa": 1927,
      "kul": 1928,
      "eydi": 1929,
      "▁topr": 1930,
      "▁basına": 1931,
      "–": 1932,
      "▁yaptir": 1933,
      "▁pla": 1934,
      "▁dede": 1935,
      "lugun": 1936,
      "fer": 1937,
      "▁zira": 1938,
      "ız": 1939,
      "▁iliski": 1940,
      "maktadır": 1941,
      "▁tep": 1942,
      "▁lim": 1943,
      "▁denver'den": 1944,
      "misti": 1945,
      "ari": 1946,
      "▁sahip": 1947,
      "ina": 1948,
      "ram": 1949,
      "▁num": 1950,
      "▁kopek": 1951,
      "▁cab": 1952,
      "bası": 1953,
      "ilm": 1954,
      "andır": 1955,
      "ıdır": 1956,
      "▁yani": 1957,
      "etti": 1958,
      "▁zamanı": 1959,
      "▁hizmete": 1960,
      "▁tarz": 1961,
      "▁sendika": 1962,
      "uguna": 1963,
      "medi": 1964,
      "▁politik": 1965,
      "ebilir": 1966,
      "▁yemegi": 1967,
      "lat": 1968,
      "re": 1969,
      "▁zincir": 1970,
      "▁boz": 1971,
      "▁ardından": 1972,
      "▁odasına": 1973,
      "▁hamam": 1974,
      "vek": 1975,
      "▁arkad": 1976,
      "izasyon": 1977,
      "ra": 1978,
      "▁ayda": 1979,
      "ni": 1980,
      "▁karıs": 1981,
      "▁ilgilendiler": 1982,
      "▁yorum": 1983,
      "▁doları": 1984,
      "▁anne": 1985,
      "▁islem": 1986,
      "▁kuc": 1987,
      "▁kurum": 1988,
      "▁icerisinde": 1989,
      "▁havayolları": 1990,
      "▁ediyordu": 1991,
      "emem": 1992,
      "am": 1993,
      "oy": 1994,
      "ola": 1995,
      "cılar": 1996,
      "▁ihr": 1997,
      "ba": 1998,
      "▁fiyata": 1999,
      "▁sigort": 2000,
      "▁dost": 2001,
      "(": 2002,
      "lug": 2003,
      "lon": 2004,
      "ri": 2005,
      "▁cok": 2006,
      "▁olmak": 2007,
      "ızı": 2008,
      "lu": 2009,
      "▁hacim": 2010,
      "▁acıkladı": 2011,
      "▁kaldik": 2012,
      "▁pant": 2013,
      "iden": 2014,
      "ydi": 2015,
      "ustos": 2016,
      "▁fir": 2017,
      "▁donem": 2018,
      "kt": 2019,
      "bilir": 2020,
      "▁ortadan": 2021,
      "▁lezzeti": 2022,
      "▁madde": 2023,
      "amam": 2024,
      "▁hak": 2025,
      "cı": 2026,
      "anma": 2027,
      "▁bagım": 2028,
      "asına": 2029,
      "yacak": 2030,
      "▁yuk": 2031,
      "dugunu": 2032,
      "▁gelistir": 2033,
      "▁sik": 2034,
      "▁kanun": 2035,
      "▁ettim": 2036,
      "▁cir": 2037,
      "▁per": 2038,
      "▁kagıt": 2039,
      "q": 2040,
      "▁etmek": 2041,
      "▁emek": 2042,
      "▁yola": 2043,
      "▁gun": 2044,
      "izli": 2045,
      "iyet": 2046,
      "iyorlar": 2047,
      "▁ara": 2048,
      "▁sozu": 2049,
      "sur": 2050,
      "acılık": 2051,
      "iski": 2052,
      "▁univers": 2053,
      "mek": 2054,
      "meler": 2055,
      "ul": 2056,
      "▁pittsburgh": 2057,
      "▁han": 2058,
      "▁fiyatı": 2059,
      "▁san": 2060,
      "lıkları": 2061,
      "ban": 2062,
      "▁nedeni": 2063,
      "tiler": 2064,
      "▁ort": 2065,
      "▁sut": 2066,
      "▁u": 2067,
      "▁dev": 2068,
      "ran": 2069,
      "▁giden": 2070,
      "▁nedir": 2071,
      "▁sac": 2072,
      "▁altında": 2073,
      "ete": 2074,
      "▁oluyor": 2075,
      "▁milyondan": 2076,
      "▁gecti": 2077,
      "▁ortalama": 2078,
      "ıcak": 2079,
      "▁cil": 2080,
      "▁avuk": 2081,
      "▁gunduz": 2082,
      "▁sozcu": 2083,
      "usunda": 2084,
      "▁hol": 2085,
      "▁gelmis": 2086,
      "▁dikkat": 2087,
      "▁iste": 2088,
      "▁bicimde": 2089,
      "▁kıl": 2090,
      "afet": 2091,
      "ldi": 2092,
      "uluyor": 2093,
      "malar": 2094,
      "[UNK]": 2095,
      "kan": 2096,
      "▁yonetici": 2097,
      "ing": 2098,
      "▁olacak": 2099,
      "stu": 2100,
      "▁bulmak": 2101,
      "tlu": 2102,
      "lanıyor": 2103,
      "▁ister": 2104,
      "▁ihtiy": 2105,
      "urk": 2106,
      "▁avuc": 2107,
      "▁teknoloj": 2108,
      "▁durus": 2109,
      "▁anlasma": 2110,
      "▁milyardan": 2111,
      "▁ofis": 2112,
      "▁sure": 2113,
      "ek": 2114,
      "▁ogl": 2115,
      "▁cıkar": 2116,
      "isin": 2117,
      "▁tamam": 2118,
      "▁buraya": 2119,
      "'in": 2120,
      "▁gon": 2121,
      "▁s": 2122,
      "mayan": 2123,
      "alık": 2124,
      "▁isaret": 2125,
      "▁karsı": 2126,
      "▁vucu": 2127,
      "edik": 2128,
      "he": 2129,
      "istler": 2130,
      "sam": 2131,
      "▁kab": 2132,
      "▁cez": 2133,
      "ıgı": 2134,
      "▁sat": 2135,
      "im": 2136,
      "emi": 2137,
      "▁ucu": 2138,
      "▁ardı": 2139,
      "▁basın": 2140,
      "▁personellerinden": 2141,
      "ir": 2142,
      "▁cun": 2143,
      "▁hissed": 2144,
      "▁edildi": 2145,
      "evizyon": 2146,
      "'nun": 2147,
      "▁elbise": 2148,
      "▁alb": 2149,
      "▁kahvalti": 2150,
      "meye": 2151,
      "eral": 2152,
      "▁ıs": 2153,
      "int": 2154,
      "▁personelin": 2155,
      "bah": 2156,
      "▁yer": 2157,
      "▁yarat": 2158,
      "isinin": 2159,
      "masından": 2160,
      "▁aracı": 2161,
      "▁koy": 2162,
      "▁d": 2163,
      "▁anlama": 2164,
      "dir": 2165,
      "raz": 2166,
      "▁ulasımı": 2167,
      "▁birlik": 2168,
      "▁alısver": 2169,
      "dur": 2170,
      "ro": 2171,
      "▁fas": 2172,
      "atik": 2173,
      "ılı": 2174,
      "▁diy": 2175,
      "eyim": 2176,
      "uc": 2177,
      "▁para": 2178,
      "eki": 2179,
      "▁tut": 2180,
      "▁piyasada": 2181,
      "▁gunun": 2182,
      "▁durumu": 2183,
      "▁ortal": 2184,
      "gini": 2185,
      "▁henuz": 2186,
      "▁kalab": 2187,
      "▁evine": 2188,
      "▁gaz": 2189,
      "/": 2190,
      "▁mey": 2191,
      "▁seb": 2192,
      "▁otelden": 2193,
      "▁hafta": 2194,
      "▁duk": 2195,
      "oj": 2196,
      "▁turk": 2197,
      "ahat": 2198,
      "▁insanları": 2199,
      "edir": 2200,
      "▁kimse": 2201,
      "▁uyum": 2202,
      "siyon": 2203,
      "▁hicbir": 2204,
      "kac": 2205,
      "▁esn": 2206,
      "oyu": 2207,
      "▁gid": 2208,
      "▁ham": 2209,
      "▁icinde": 2210,
      "▁calisanlar": 2211,
      "▁ger": 2212,
      "labilir": 2213,
      "▁almak": 2214,
      "▁uzer": 2215,
      "larımız": 2216,
      "urg": 2217,
      "▁sene": 2218,
      "▁havayollarında": 2219,
      "▁gey": 2220,
      "aydı": 2221,
      "wa": 2222,
      "lara": 2223,
      "mıslar": 2224,
      "ugunu": 2225,
      "iligi": 2226,
      "ıyordu": 2227,
      "geleri": 2228,
      "▁disi": 2229,
      "▁yaklasık": 2230,
      "gunluk": 2231,
      "▁ser": 2232,
      "▁yaln": 2233,
      "▁ov": 2234,
      "▁sefer": 2235,
      "▁sesleri": 2236,
      "▁bunlar": 2237,
      "▁tad": 2238,
      "▁mi": 2239,
      "▁dil": 2240,
      "▁gez": 2241,
      "▁sag": 2242,
      "▁odam": 2243,
      "▁ist": 2244,
      "▁ker": 2245,
      "▁paraya": 2246,
      "▁programı": 2247,
      "dikleri": 2248,
      "mam": 2249,
      "▁kalk": 2250,
      "▁ayakkabı": 2251,
      "▁kus": 2252,
      "▁sektor": 2253,
      "▁tel": 2254,
      "lıgını": 2255,
      "iber": 2256,
      "▁ul": 2257,
      "▁gorun": 2258,
      "▁buy": 2259,
      "▁bit": 2260,
      "▁risk": 2261,
      "▁resim": 2262,
      "▁giy": 2263,
      "▁gozler": 2264,
      "▁pers": 2265,
      "▁sıcak": 2266,
      "▁yanıt": 2267,
      "▁gos": 2268,
      "▁isler": 2269,
      "▁kafa": 2270,
      "▁kem": 2271,
      "▁": 2272,
      "tir": 2273,
      "▁gibi": 2274,
      "▁istem": 2275,
      "▁yuzyıl": 2276,
      "▁ucuyor": 2277,
      "▁uzerinde": 2278,
      "▁amerikan": 2279,
      "▁yuzunu": 2280,
      "larımı": 2281,
      "▁ulkenin": 2282,
      "alı": 2283,
      "▁beklenti": 2284,
      "▁eski": 2285,
      "za": 2286,
      "enuz": 2287,
      "▁og": 2288,
      "▁park": 2289,
      "▁olacagını": 2290,
      "▁mucadele": 2291,
      "▁hizmetinden": 2292,
      "▁acisindan": 2293,
      "astır": 2294,
      "manlar": 2295,
      "▁kel": 2296,
      "▁kalabalık": 2297,
      "erv": 2298,
      "▁dolar": 2299,
      "▁dum": 2300,
      "▁tası": 2301,
      "▁cozum": 2302,
      "▁kazan": 2303,
      "isi": 2304,
      "lerine": 2305,
      "▁prob": 2306,
      "▁muduru": 2307,
      "▁birer": 2308,
      "▁cocuklu": 2309,
      "▁sevg": 2310,
      "▁goze": 2311,
      "enc": 2312,
      "▁baltimore": 2313,
      "▁insaat": 2314,
      "▁birligi": 2315,
      "gili": 2316,
      "an": 2317,
      "▁tucc": 2318,
      "eyi": 2319,
      "▁kayıp": 2320,
      "▁mil": 2321,
      "▁tedbir": 2322,
      "▁telefonla": 2323,
      "▁ok": 2324,
      "▁sef": 2325,
      "▁atlanta'dan": 2326,
      "▁dısarı": 2327,
      "▁tekn": 2328,
      "▁agır": 2329,
      "tırmak": 2330,
      "▁hayatı": 2331,
      "▁merdiven": 2332,
      "▁potansiyel": 2333,
      "▁isi": 2334,
      "eda": 2335,
      "diye": 2336,
      "▁karı": 2337,
      "ıntı": 2338,
      "lastır": 2339,
      "▁op": 2340,
      "▁balık": 2341,
      "iyi": 2342,
      "▁eylul": 2343,
      "▁beydi": 2344,
      "egin": 2345,
      "gum": 2346,
      "len": 2347,
      "▁tesvik": 2348,
      "▁beyin": 2349,
      "▁kimi": 2350,
      "▁mutf": 2351,
      "ort": 2352,
      "▁personel": 2353,
      "▁veririm": 2354,
      "▁sol": 2355,
      "▁yoksa": 2356,
      "▁yiyecek": 2357,
      "▁peynir": 2358,
      "▁komp": 2359,
      "▁ucretin": 2360,
      "▁sermay": 2361,
      "likle": 2362,
      "▁dava": 2363,
      "▁degerlendir": 2364,
      "▁cek": 2365,
      "agına": 2366,
      "uktu": 2367,
      "▁olmalı": 2368,
      "▁makaleye": 2369,
      "▁tez": 2370,
      "eger": 2371,
      "▁etme": 2372,
      "▁fel": 2373,
      "▁et": 2374,
      "▁aktar": 2375,
      "▁ince": 2376,
      "cilerin": 2377,
      "▁takım": 2378,
      "▁yapmayı": 2379,
      "▁dert": 2380,
      "ucu": 2381,
      "▁tarafı": 2382,
      "▁sayısı": 2383,
      "▁bay": 2384,
      "▁hizm": 2385,
      "▁gelir": 2386,
      "digim": 2387,
      "ibi": 2388,
      "▁yatırımcı": 2389,
      "mma": 2390,
      "▁sis": 2391,
      "▁geyik": 2392,
      "▁otob": 2393,
      "▁duvar": 2394,
      "▁sir": 2395,
      "▁konum": 2396,
      "elere": 2397,
      "▁yab": 2398,
      "▁dizi": 2399,
      "de": 2400,
      "han": 2401,
      "▁elektr": 2402,
      "▁doviz": 2403,
      "▁aleyh": 2404,
      "▁isleri": 2405,
      "▁fen": 2406,
      "▁sent": 2407,
      "irler": 2408,
      "▁hic": 2409,
      "▁zey": 2410,
      "'tan": 2411,
      "▁8": 2412,
      "kar": 2413,
      "▁olmus": 2414,
      "▁tekrar": 2415,
      "o": 2416,
      "▁yor": 2417,
      "di": 2418,
      "▁yem": 2419,
      "ımıza": 2420,
      ",": 2421,
      "luga": 2422,
      "▁gorus": 2423,
      "▁sair": 2424,
      "▁guv": 2425,
      "▁masa": 2426,
      "'a": 2427,
      "cilik": 2428,
      "ara": 2429,
      "▁--": 2430,
      "▁bilmek": 2431,
      "▁ceh": 2432,
      "lit": 2433,
      "▁imk": 2434,
      "▁artır": 2435,
      "ibar": 2436,
      "▁kapandı": 2437,
      "▁mahalle": 2438,
      "▁lira": 2439,
      "ardı": 2440,
      "▁makin": 2441,
      "▁pilot": 2442,
      "▁eve": 2443,
      "gıc": 2444,
      "▁attı": 2445,
      "▁ayı": 2446,
      "▁genel": 2447,
      "malı": 2448,
      "▁cuma": 2449,
      "▁yatak": 2450,
      "asının": 2451,
      "▁olduguna": 2452,
      "▁imal": 2453,
      "▁bun": 2454,
      "▁tehdit": 2455,
      "▁mul": 2456,
      "▁hac": 2457,
      "▁baskanı": 2458,
      "▁devr": 2459,
      "me": 2460,
      "madı": 2461,
      "▁haval": 2462,
      ">": 2463,
      "▁sorunun": 2464,
      "isindan": 2465,
      "elli": 2466,
      "▁mikr": 2467,
      "▁-": 2468,
      "ılan": 2469,
      "dil": 2470,
      "▁itiraz": 2471,
      "▁olanlar": 2472,
      "▁tas": 2473,
      "▁yazı": 2474,
      "▁..\"": 2475,
      "erdi": 2476,
      "▁sonuc": 2477,
      "▁den": 2478,
      "▁hakim": 2479,
      "▁telefon": 2480,
      "▁heyecan": 2481,
      "▁gordum": 2482,
      "cılıg": 2483,
      "sef": 2484,
      "▁yolcul": 2485,
      "▁umut": 2486,
      "▁alamadim": 2487,
      "▁sak": 2488,
      "uyor": 2489,
      "aların": 2490,
      "ıda": 2491,
      "▁hisseleri": 2492,
      "uydu": 2493,
      "ada": 2494,
      "▁ves": 2495,
      "▁ail": 2496,
      "▁rad": 2497,
      "▁mer": 2498,
      "tal": 2499,
      "00'": 2500,
      "▁zaten": 2501,
      "aj": 2502,
      "▁genis": 2503,
      "▁yur": 2504,
      "▁cay": 2505,
      "▁tab": 2506,
      "▁”": 2507,
      "ıza": 2508,
      "lıgına": 2509,
      "▁hukuk": 2510,
      "▁kad": 2511,
      "▁varan": 2512,
      "▁etraf": 2513,
      "▁boyut": 2514,
      "ektr": 2515,
      "▁sehr": 2516,
      "▁yerden": 2517,
      "eticiler": 2518,
      "mesini": 2519,
      "▁gercekl": 2520,
      "ende": 2521,
      "ıg": 2522,
      "asır": 2523,
      "▁biri": 2524,
      "▁salon": 2525,
      "▁felaket": 2526,
      "▁hazır": 2527,
      "leri": 2528,
      "▁ilac": 2529,
      "▁aday": 2530,
      "▁orta": 2531,
      "▁pan": 2532,
      "▁urunleri": 2533,
      "kel": 2534,
      "▁bina": 2535,
      "▁pazar": 2536,
      "▁hız": 2537,
      "ima": 2538,
      "▁der": 2539,
      "▁diz": 2540,
      "▁yeme": 2541,
      "lam": 2542,
      "da": 2543,
      "▁duyg": 2544,
      "iy": 2545,
      "iste": 2546,
      "▁haber": 2547,
      "▁kar": 2548,
      "▁mik": 2549,
      "enler": 2550,
      "▁tekl": 2551,
      "▁nef": 2552,
      "▁gor": 2553,
      "ege": 2554,
      "yet": 2555,
      "▁yil": 2556,
      "▁halbuki": 2557,
      "du": 2558,
      "[SEP]": 2559,
      "▁kucuktu": 2560,
      "ilen": 2561,
      "▁veya": 2562,
      "▁yardımcısı": 2563,
      "▁sacları": 2564,
      "▁engel": 2565,
      "▁manzar": 2566,
      "ıcı": 2567,
      "larla": 2568,
      "▁banka": 2569,
      "▁neden": 2570,
      "▁devam": 2571,
      "ısını": 2572,
      "istel": 2573,
      "▁fayda": 2574,
      "must": 2575,
      "▁halk": 2576,
      "▁carsamba": 2577,
      "imizi": 2578,
      "ens": 2579,
      "▁rakamlar": 2580,
      "▁anal": 2581,
      "[CLS]": 2582,
      "anıt": 2583,
      "▁karar": 2584,
      "elerin": 2585,
      "▁olas": 2586,
      "▁aktiv": 2587,
      "▁meger": 2588,
      "asyonu": 2589,
      "uf": 2590,
      "▁barıs": 2591,
      "agından": 2592,
      "ediye": 2593,
      "▁bekliyor": 2594,
      "lerini": 2595,
      "▁kap": 2596,
      "sel": 2597,
      "▁ama": 2598,
      "’": 2599,
      "▁suc": 2600,
      "▁wash": 2601,
      "▁mis": 2602,
      "▁tr": 2603,
      "▁kadınlar": 2604,
      "▁derecede": 2605,
      "▁hakk": 2606,
      "ars": 2607,
      "abilir": 2608,
      "ıyla": 2609,
      "ut": 2610,
      "ecegim": 2611,
      "el": 2612,
      "▁soh": 2613,
      "unde": 2614,
      "▁sınır": 2615,
      "▁ord": 2616,
      "▁hastal": 2617,
      "yo": 2618,
      "ıp": 2619,
      "▁hukumet": 2620,
      "▁orada": 2621,
      "▁mat": 2622,
      "c": 2623,
      "▁girisim": 2624,
      "cının": 2625,
      "inlik": 2626,
      "▁sandal": 2627,
      "▁aqu": 2628,
      "ekli": 2629,
      "▁annemin": 2630,
      "▁nasıl": 2631,
      "▁olanaklari": 2632,
      "duk": 2633,
      "suzluk": 2634,
      "▁gerc": 2635,
      "▁kaldı": 2636,
      "▁mu": 2637,
      "▁gune": 2638,
      "cul": 2639,
      "▁gunluk": 2640,
      "▁yıldız": 2641,
      "▁en": 2642,
      "anıs": 2643,
      "▁araba": 2644,
      "▁vak": 2645,
      "'da": 2646,
      "o'ya": 2647,
      "▁fiyatlar": 2648,
      "ını": 2649,
      "umun": 2650,
      "attı": 2651,
      "▁odalar": 2652,
      "tiv": 2653,
      "▁gozleri": 2654,
      "▁yerler": 2655,
      "▁kimsenin": 2656,
      "▁mac": 2657,
      "▁kurs": 2658,
      "▁zamanlarda": 2659,
      "▁takdir": 2660,
      "▁birbir": 2661,
      "na": 2662,
      "▁altından": 2663,
      "'den": 2664,
      "▁bek": 2665,
      "lisi": 2666,
      "▁mo": 2667,
      "gın": 2668,
      "▁kadının": 2669,
      "irdi": 2670,
      "si": 2671,
      "▁hal": 2672,
      "▁dol": 2673,
      "kil": 2674,
      "▁min": 2675,
      "cileri": 2676,
      "muyor": 2677,
      "ken": 2678,
      "istir": 2679,
      "▁lik": 2680,
      "ımızı": 2681,
      "▁dahil": 2682,
      "▁olabilir": 2683,
      "luydu": 2684,
      "▁hisseye": 2685,
      "▁onc": 2686,
      "▁bacak": 2687,
      "▁etmem": 2688,
      "▁metr": 2689,
      "▁mimar": 2690,
      "ij": 2691,
      "▁uy": 2692,
      "▁alanda": 2693,
      "▁servis": 2694,
      "onelik": 2695,
      "▁tesisten": 2696,
      "▁teh": 2697,
      "esinin": 2698,
      "▁aksamı": 2699,
      "▁turku": 2700,
      "▁ki": 2701,
      "▁es": 2702,
      "▁ceyrekte": 2703,
      "▁gozden": 2704,
      "▁cumhuriyet": 2705,
      "urdu": 2706,
      "atlı": 2707,
      "ern": 2708,
      "▁teklif": 2709,
      "▁savas": 2710,
      "▁..": 2711,
      "ga": 2712,
      "▁mevcut": 2713,
      "▁gunes": 2714,
      "inden": 2715,
      "oh": 2716,
      "▁barda": 2717,
      "▁gider": 2718,
      "eti": 2719,
      "ud": 2720,
      "▁kasab": 2721,
      "▁6": 2722,
      "▁new": 2723,
      "▁fiyatina": 2724,
      "▁karn": 2725,
      "1": 2726,
      "▁edin": 2727,
      "▁olmaya": 2728,
      "▁profes": 2729,
      "suz": 2730,
      "izm": 2731,
      "▁korum": 2732,
      "rak": 2733,
      "▁egit": 2734,
      "▁istifa": 2735,
      "bol": 2736,
      "mus": 2737,
      "▁heyec": 2738,
      "▁cumle": 2739,
      "▁ec": 2740,
      "▁listeleyin": 2741,
      "▁dilim": 2742,
      "▁hisseler": 2743,
      "▁milyar": 2744,
      "gim": 2745,
      "▁cic": 2746,
      "ator": 2747,
      "▁dort": 2748,
      "arlar": 2749,
      "▁…": 2750,
      "emli": 2751,
      "▁iht": 2752,
      "▁yazar": 2753,
      "▁odada": 2754,
      "ali": 2755,
      "▁durumda": 2756,
      "▁yaklasimi": 2757,
      "▁satıslar": 2758,
      "▁fin": 2759,
      "▁dah": 2760,
      "▁istiyor": 2761,
      "▁goc": 2762,
      "▁petrol": 2763,
      "lıg": 2764,
      "▁doneminde": 2765,
      "▁dolarlık": 2766,
      "▁ne": 2767,
      "▁kitab": 2768,
      "▁masal": 2769,
      "tıgı": 2770,
      "alarım": 2771,
      "▁boy": 2772,
      "▁yıl": 2773,
      "angi": 2774,
      "▁ediyor": 2775,
      "▁japon": 2776,
      "▁yerini": 2777,
      "▁port": 2778,
      "▁nam": 2779,
      "▁bolge": 2780,
      "▁sahn": 2781,
      "ku": 2782,
      "▁sirketi": 2783,
      "▁telef": 2784,
      "▁harc": 2785,
      "▁olmaz": 2786,
      "em": 2787,
      "▁um": 2788,
      "▁faal": 2789,
      "▁komsu": 2790,
      "▁guler": 2791,
      "▁kalit": 2792,
      "▁animasyon": 2793,
      "elen": 2794,
      "▁ana": 2795,
      "nak": 2796,
      "▁tartıs": 2797,
      "uzlu": 2798,
      "▁ilgisi": 2799,
      "▁gemi": 2800,
      "▁hukumeti": 2801,
      "ısından": 2802,
      "▁hab": 2803,
      "▁hoc": 2804,
      "▁man": 2805,
      "▁om": 2806,
      "▁nuf": 2807,
      "▁cam": 2808,
      "▁ustune": 2809,
      "▁sını": 2810,
      "▁boston'dan": 2811,
      "ayacagını": 2812,
      "▁dusur": 2813,
      "▁piyas": 2814,
      "'ta": 2815,
      "▁...\"": 2816,
      "▁aktarma": 2817,
      "sak": 2818,
      "▁ayrıca": 2819,
      "▁kayı": 2820,
      "▁toprak": 2821,
      "▁dey": 2822,
      "▁rezerv": 2823,
      "▁ekonomi": 2824,
      "umuzde": 2825,
      "▁denize": 2826,
      "arak": 2827,
      "eldi": 2828,
      "aki": 2829,
      "▁m": 2830,
      "▁duy": 2831,
      "▁goster": 2832,
      "▁strate": 2833,
      "▁yap": 2834,
      "▁hayatın": 2835,
      "mi": 2836,
      "▁st": 2837,
      "▁evde": 2838,
      "▁sanat": 2839,
      "k": 2840,
      "▁ayr": 2841,
      "▁her": 2842,
      "is": 2843,
      "▁carsaf": 2844,
      "▁misafirimiz": 2845,
      "6": 2846,
      "▁un": 2847,
      "▁adamın": 2848,
      "▁...": 2849,
      "▁bahce": 2850,
      "▁fabr": 2851,
      "▁vaz": 2852,
      "▁ayında": 2853,
      "▁sona": 2854,
      "yan": 2855,
      "larına": 2856,
      "▁kendis": 2857,
      ".": 2858,
      "▁limon": 2859,
      "▁fran": 2860,
      "usuna": 2861,
      "ıgına": 2862,
      "▁renk": 2863,
      "▁malz": 2864,
      "ızın": 2865,
      "▁tahvilleri": 2866,
      "▁haric": 2867,
      "▁sem": 2868,
      "▁hus": 2869,
      "lantı": 2870,
      "▁kı": 2871,
      "▁yetk": 2872,
      "▁yıllık": 2873,
      "ası": 2874,
      "▁soz": 2875,
      "▁zevk": 2876,
      "▁hasar": 2877,
      "sizdi": 2878,
      "▁kuz": 2879,
      "▁buldu": 2880,
      "cılık": 2881,
      "▁pazartesi": 2882,
      "adan": 2883,
      "▁pir": 2884,
      "ren": 2885,
      "yla": 2886,
      "▁duzey": 2887,
      "▁insa": 2888,
      "▁devralma": 2889,
      "ıyı": 2890,
      "▁sorun": 2891,
      "▁soru": 2892,
      "▁basa": 2893,
      "makt": 2894,
      "▁saati": 2895,
      "▁pittsburgh'tan": 2896,
      "▁durum": 2897,
      "▁ilet": 2898,
      "▁guzellik": 2899,
      "uk": 2900,
      "▁yıllarda": 2901,
      "▁kendi": 2902,
      "▁olcude": 2903,
      "▁ceb": 2904,
      "▁zek": 2905,
      "▁internet": 2906,
      "egi": 2907,
      "▁bel": 2908,
      "ac": 2909,
      "▁yeter": 2910,
      "iki": 2911,
      "▁ogret": 2912,
      "▁kokusu": 2913,
      "▁ode": 2914,
      "nam": 2915,
      "▁oyuncu": 2916,
      "la": 2917,
      "▁edeb": 2918,
      "▁asag": 2919,
      "▁el": 2920,
      "▁yemekleri": 2921,
      "‘": 2922,
      "dır": 2923,
      "▁yılında": 2924,
      "▁diyor": 2925,
      "▁vur": 2926,
      "inti": 2927,
      "al": 2928,
      "▁persembe": 2929,
      "▁kampan": 2930,
      "▁pu": 2931,
      "▁muzak": 2932,
      "▁vapur": 2933,
      "▁seviy": 2934,
      "▁mezar": 2935,
      "'nda": 2936,
      "lıgında": 2937,
      "▁bakıs": 2938,
      "▁dusunce": 2939,
      "▁ankete": 2940,
      "▁eden": 2941,
      "▁bardagı": 2942,
      "▁rekabet": 2943,
      "embe": 2944,
      "▁res": 2945,
      "▁tanı": 2946,
      "▁5'ten": 2947,
      "uz": 2948,
      "uzel": 2949,
      "▁sorum": 2950,
      "tigini": 2951,
      "▁hastalık": 2952,
      "ellikle": 2953,
      "▁konus": 2954,
      "▁?..": 2955,
      "erik": 2956,
      "▁`": 2957,
      "ıs": 2958,
      "'un": 2959,
      "▁etmis": 2960,
      "cag": 2961,
      "▁bugune": 2962,
      "ur": 2963,
      "▁cal": 2964,
      "iyon": 2965,
      "▁sirketler": 2966,
      "▁sonucları": 2967,
      "▁simdiye": 2968,
      "▁yuzde": 2969,
      "ede": 2970,
      "▁isini": 2971,
      "▁vakit": 2972,
      "▁musteri": 2973,
      "usu": 2974,
      "▁ithal": 2975,
      "▁komisyonu": 2976,
      "▁''": 2977,
      "▁#": 2978,
      "▁ates": 2979,
      "ımda": 2980,
      "▁yılda": 2981,
      "▁gokyuz": 2982,
      "j": 2983,
      "▁so": 2984,
      "asyon": 2985,
      "▁istik": 2986,
      "▁cat": 2987,
      "lul": 2988,
      "▁olma": 2989,
      "▁lut": 2990,
      "▁bis": 2991,
      "lıyor": 2992,
      "▁agz": 2993,
      "▁piyasaya": 2994,
      "▁nit": 2995,
      "▁otelde": 2996,
      "▁baltimore'ye": 2997,
      "lıc": 2998,
      "kon": 2999,
      "▁kalp": 3000,
      "ic": 3001,
      "▁cap": 3002,
      "▁ayd": 3003,
      "ımı": 3004,
      "▁yuzu": 3005,
      "▁derec": 3006,
      "▁ucusa": 3007,
      "uluk": 3008,
      "​": 3009,
      "▁uygun": 3010,
      "▁mahk": 3011,
      "▁siz": 3012,
      "▁yapti": 3013,
      "_": 3014,
      "▁basar": 3015,
      "▁soyl": 3016,
      "ize": 3017,
      "▁sok": 3018,
      "▁mode": 3019,
      "▁nokt": 3020,
      "▁dunyada": 3021,
      "▁asagıda": 3022,
      "▁kriz": 3023,
      "▁havayollarının": 3024,
      "▁$": 3025,
      "▁tam": 3026,
      "▁sın": 3027,
      "▁basbak": 3028,
      "lanı": 3029,
      "▁kızı": 3030,
      "▁hizmetten": 3031,
      "▁adina": 3032,
      "lendi": 3033,
      "anının": 3034,
      "▁part": 3035,
      "il": 3036,
      "▁merk": 3037,
      "'nın": 3038,
      "▁senet": 3039,
      "aba": 3040,
      "▁neler": 3041,
      "▁memleket": 3042,
      "▁kumas": 3043,
      "▁haf": 3044,
      "▁teslim": 3045,
      "▁hakkı": 3046,
      "▁bekle": 3047,
      "▁domates": 3048,
      "▁uygulama": 3049,
      "▁ayn": 3050,
      "▁raf": 3051,
      "▁petr": 3052,
      "▁saatlerde": 3053,
      "ustur": 3054,
      "▁cumhur": 3055,
      "▁yetersizdi": 3056,
      "▁annesi": 3057,
      "▁elinden": 3058,
      "erlik": 3059,
      "▁bircok": 3060,
      "esine": 3061,
      "▁merkezi": 3062,
      "▁yet": 3063,
      "ayla": 3064,
      "enk": 3065,
      "arda": 3066,
      "▁benim": 3067,
      "ligin": 3068,
      "▁tur": 3069,
      "ak": 3070,
      "od": 3071,
      "uyle": 3072,
      "▁dos": 3073,
      "▁ailesi": 3074,
      "▁sanayi": 3075,
      "gıt": 3076,
      "'nin": 3077,
      "▁konumunu": 3078,
      "iyatr": 3079,
      "▁mevzu": 3080,
      "▁bos": 3081,
      "▁hat": 3082,
      "▁defa": 3083,
      "gel": 3084,
      "▁gunde": 3085,
      "▁eskiydi": 3086,
      "▁dukk": 3087,
      "▁portfoy": 3088,
      "eri": 3089,
      "▁oldugunu": 3090,
      "▁gidi": 3091,
      "ini": 3092,
      "ate": 3093,
      "teri": 3094,
      "▁teb": 3095,
      "▁sınıf": 3096,
      "▁gulery": 3097,
      "▁corba": 3098,
      "▁ozellik": 3099,
      "▁mar": 3100,
      "▁temmuz": 3101,
      "▁ucuz": 3102,
      "▁kosul": 3103,
      "▁takip": 3104,
      "▁zaf": 3105,
      "▁havuzu": 3106,
      "▁sınav": 3107,
      "▁cent": 3108,
      "▁geldi": 3109,
      "▁bugun": 3110,
      "▁nisan": 3111,
      "▁dans": 3112,
      "▁genc": 3113,
      "▁gunleri": 3114,
      "▁yen": 3115,
      "▁rol": 3116,
      "raf": 3117,
      "hur": 3118,
      "▁sirket": 3119,
      "▁tu": 3120,
      "ekkur": 3121,
      "▁insanların": 3122,
      "▁ad": 3123,
      "▁iddi": 3124,
      "▁mucade": 3125,
      "imin": 3126,
      "▁sah": 3127,
      "day": 3128,
      "▁pal": 3129,
      "0'dan": 3130,
      "0'da": 3131,
      "▁saldır": 3132,
      "▁rej": 3133,
      "▁ark": 3134,
      "▁temizligi": 3135,
      "isini": 3136,
      "▁sog": 3137,
      "indan": 3138,
      "▁yarı": 3139,
      "▁org": 3140,
      "▁tey": 3141,
      "mini": 3142,
      "ınlık": 3143,
      "▁ucusun": 3144,
      "▁bez": 3145,
      "▁tum": 3146,
      "▁cocuk": 3147,
      "▁hizmeti": 3148,
      "▁atlanta'ya": 3149,
      "▁l": 3150,
      "▁acik": 3151,
      "▁yeri": 3152,
      "▁dugun": 3153,
      "ite": 3154,
      "ana": 3155,
      "d": 3156,
      "masına": 3157,
      "▁kims": 3158,
      "ıstır": 3159,
      "ılır": 3160,
      "▁ozellikle": 3161,
      "▁ilg": 3162,
      "▁sub": 3163,
      "dugu": 3164,
      "▁gunah": 3165,
      "▁oranında": 3166,
      "▁belediye": 3167,
      "▁bask": 3168,
      "▁vad": 3169,
      "▁ugr": 3170,
      "ha": 3171,
      "edi": 3172,
      "▁kalitesi": 3173,
      "▁sozlesme": 3174,
      "▁artık": 3175,
      "▁dun": 3176,
      "▁satısı": 3177,
      "▁ruzgar": 3178,
      "▁dug": 3179,
      "▁banyo": 3180,
      "▁siy": 3181,
      "ksa": 3182,
      "▁mulk": 3183,
      "isim": 3184,
      "▁mahkem": 3185,
      "▁sonr": 3186,
      "▁ted": 3187,
      "▁gond": 3188,
      ")": 3189,
      "ol": 3190,
      "▁kan": 3191,
      "▁baskan": 3192,
      "met": 3193,
      "▁prof": 3194,
      "▁mir": 3195,
      "diginde": 3196,
      "▁iy": 3197,
      "▁tahviller": 3198,
      "lay": 3199,
      "▁hanim": 3200,
      "▁endustr": 3201,
      "▁cizgi": 3202,
      "anından": 3203,
      "▁aktarmasız": 3204,
      "▁bilgisay": 3205,
      "▁devletin": 3206,
      "▁rezervasyon": 3207,
      "yor": 3208,
      "▁degisiklik": 3209,
      "▁film": 3210,
      "▁yetkilileri": 3211,
      "daydi": 3212,
      "adıgını": 3213,
      "min": 3214,
      "▁ah": 3215,
      "▁icecekler": 3216,
      "▁ot": 3217,
      "▁anlamda": 3218,
      "lek": 3219,
      "▁butun": 3220,
      "▁kam": 3221,
      "larının": 3222,
      "mıs": 3223,
      "▁geriye": 3224,
      "▁bardak": 3225,
      "ciler": 3226,
      "▁temizdi": 3227,
      "lamıs": 3228,
      "▁tok": 3229,
      "▁dekor": 3230,
      "▁hangi": 3231,
      "▁sam": 3232,
      "unc": 3233,
      "indi": 3234,
      "▁herhangi": 3235,
      "ug": 3236,
      "▁muhaf": 3237,
      "▁ogrenci": 3238,
      "▁din": 3239,
      "eyaz": 3240,
      "▁vat": 3241,
      "▁dig": 3242,
      "▁merdiv": 3243,
      "▁lak": 3244,
      "▁tal": 3245,
      "\"": 3246,
      "dım": 3247,
      "▁zorunda": 3248,
      "▁demir": 3249,
      "mas": 3250,
      "▁gayr": 3251,
      "▁islerini": 3252,
      "▁gonul": 3253,
      "▁gorusme": 3254,
      "▁cor": 3255,
      "▁ceyrek": 3256,
      "▁sehrin": 3257,
      "gru": 3258,
      "rada": 3259,
      "▁dahi": 3260,
      "▁paz": 3261,
      "imizin": 3262,
      "▁katil": 3263,
      "▁sı": 3264,
      "▁mail": 3265,
      "..": 3266,
      "▁aylık": 3267,
      "▁kampanyalardan": 3268,
      "yon": 3269,
      "▁suk": 3270,
      "▁olmasi": 3271,
      "oksa": 3272,
      "ekti": 3273,
      "▁ogrenmek": 3274,
      "▁hissesi": 3275,
      "av": 3276,
      "▁.'": 3277,
      "▁muc": 3278,
      "▁kenar": 3279,
      "▁ihal": 3280,
      "▁baslan": 3281,
      "ad": 3282,
      "aya": 3283,
      "▁ortak": 3284,
      "larından": 3285,
      "▁iyiydi": 3286,
      "▁birim": 3287,
      "▁pek": 3288,
      "▁lez": 3289,
      "ger": 3290,
      "▁insanlar": 3291,
      "▁!": 3292,
      "▁halinde": 3293,
      "▁camasır": 3294,
      "▁sif": 3295,
      "amaları": 3296,
      "▁konf": 3297,
      "▁ucusları": 3298,
      "▁sist": 3299,
      "ttı": 3300,
      "▁olum": 3301,
      "▁beyaz": 3302,
      "▁yatırım": 3303,
      "▁cocukları": 3304,
      "▁hast": 3305,
      "uy": 3306,
      "pan": 3307,
      "▁hesap": 3308,
      "ılıgı": 3309,
      "▁miktar": 3310,
      "▁cevre": 3311,
      "▁acıl": 3312,
      "▁cadde": 3313,
      "den": 3314,
      "▁planı": 3315,
      "tr": 3316,
      "▁odun": 3317,
      "▁c": 3318,
      "▁elde": 3319,
      "▁g": 3320,
      "▁dal": 3321,
      "madıgını": 3322,
      "urlu": 3323,
      "▁cunku": 3324,
      "`": 3325,
      "▁ogren": 3326,
      "▁1.": 3327,
      "▁zarar": 3328,
      "isk": 3329,
      "▁portf": 3330,
      "liyor": 3331,
      "▁tuk": 3332,
      "▁giris": 3333,
      "▁makal": 3334,
      "▁aksam": 3335,
      "aca": 3336,
      "▁gecesi": 3337,
      "▁mag": 3338,
      "▁basbakan": 3339,
      "ından": 3340,
      "▁ailelere": 3341,
      "▁fay": 3342,
      "ati": 3343,
      "▁rek": 3344,
      "alarının": 3345,
      "▁kaldırım": 3346,
      "▁sep": 3347,
      "esi": 3348,
      "san": 3349,
      "iyorum": 3350,
      "▁davet": 3351,
      "izlik": 3352,
      "asi": 3353,
      "▁girdi": 3354,
      "▁sonunda": 3355,
      "anı": 3356,
      "▁yard": 3357,
      "lugu": 3358,
      "▁oak": 3359,
      "mur": 3360,
      "▁agustos": 3361,
      "▁6'dan": 3362,
      "▁yo": 3363,
      "▁sozc": 3364,
      "▁ogretmen": 3365,
      "aga": 3366,
      "▁buyuk": 3367,
      "▁ulk": 3368,
      "▁list": 3369,
      "▁sip": 3370,
      "mey": 3371,
      "tı": 3372,
      "ırtı": 3373,
      "ım": 3374,
      "“": 3375,
      "▁taleb": 3376,
      "▁baktı": 3377,
      "▁yaklas": 3378,
      "une": 3379,
      "▁sec": 3380,
      "▁odamiz": 3381,
      "▁defter": 3382,
      "▁ula": 3383,
      "kat": 3384,
      "lıga": 3385,
      "▁buf": 3386,
      "▁kim": 3387,
      "egini": 3388,
      "▁sirketin": 3389,
      "idir": 3390,
      "▁oldu": 3391,
      "▁temiz": 3392,
      "▁esy": 3393,
      "▁veriyor": 3394,
      "pr": 3395,
      "▁oda": 3396,
      "'na": 3397,
      "cegini": 3398,
      "▁sen": 3399,
      "▁mak": 3400,
      "lig": 3401,
      "▁dolara": 3402,
      "▁tren": 3403,
      "▁lir": 3404,
      "▁acı": 3405,
      "ika": 3406,
      "aklı": 3407,
      "asından": 3408,
      "▁ilgili": 3409,
      "isinde": 3410,
      "▁karsi": 3411,
      "▁sık": 3412,
      "▁philadelphia": 3413,
      "▁fon": 3414,
      "▁dukkan": 3415,
      "▁kade": 3416,
      "▁ikti": 3417,
      "▁spor": 3418,
      "▁mahkemesi": 3419,
      "▁buyume": 3420,
      "▁konuda": 3421,
      "▁karab": 3422,
      "▁pozisyon": 3423,
      "▁babası": 3424,
      "▁mark": 3425,
      "▁faturam": 3426,
      "anlık": 3427,
      "ımızda": 3428,
      "it": 3429,
      "▁fikr": 3430,
      "▁sekilde": 3431,
      "▁biraz": 3432,
      "ekl": 3433,
      "larını": 3434,
      "▁kaldim": 3435,
      "▁arasında": 3436,
      "▁ayakta": 3437,
      "▁phil": 3438,
      "lama": 3439,
      "▁etkisi": 3440,
      "yuz": 3441,
      "on": 3442,
      "maya": 3443,
      "ılması": 3444,
      "▁gosteri": 3445,
      "▁yayın": 3446,
      "etli": 3447,
      "▁aileler": 3448,
      "▁imkanlar": 3449,
      "▁yurt": 3450,
      "▁coz": 3451,
      "▁pitts": 3452,
      "▁gob": 3453,
      "▁sev": 3454,
      "etim": 3455,
      "▁piyasası": 3456,
      "°": 3457,
      "iyle": 3458,
      "▁orn": 3459,
      "▁elden": 3460,
      "▁delikan": 3461,
      "▁insan": 3462,
      "5'ten": 3463,
      "▁cıktı": 3464,
      "▁seviyesine": 3465,
      "▁fil": 3466,
      "▁toplant": 3467,
      "lendir": 3468,
      "▁temin": 3469,
      "▁enerji": 3470,
      "▁re": 3471,
      "te": 3472,
      "▁ona": 3473,
      "▁guven": 3474,
      "▁elektrik": 3475,
      "▁hes": 3476,
      "▁ruh": 3477,
      "liginde": 3478,
      "bak": 3479,
      "▁mim": 3480,
      "▁yana": 3481,
      "masız": 3482,
      "▁oran": 3483,
      "anlar": 3484,
      "▁fazla": 3485,
      "ch": 3486,
      "▁cog": 3487,
      "▁mot": 3488,
      "obil": 3489,
      "atif": 3490,
      "dıgını": 3491,
      "tin": 3492,
      "▁bar": 3493,
      "▁eser": 3494,
      "etic": 3495,
      "gal": 3496,
      "rne": 3497,
      "meden": 3498,
      "lılık": 3499,
      "▁arttı": 3500,
      "▁potansiy": 3501,
      "and": 3502,
      "▁sey": 3503,
      "▁nes": 3504,
      "▁yıld": 3505,
      "▁ilgilendi": 3506,
      "masın": 3507,
      "atlar": 3508,
      "▁vadeli": 3509,
      "▁zev": 3510,
      "▁otele": 3511,
      "vr": 3512,
      "▁tercih": 3513,
      "▁baskı": 3514,
      "▁katk": 3515,
      "▁sin": 3516,
      "mez": 3517,
      "▁duv": 3518,
      "▁kaliteye": 3519,
      "▁ayrı": 3520,
      "▁topu": 3521,
      "ligi": 3522,
      "▁diye": 3523,
      "eder": 3524,
      "▁yapım": 3525,
      "▁la": 3526,
      "kur": 3527,
      "dik": 3528,
      "▁ısık": 3529,
      "▁1": 3530,
      "▁ton": 3531,
      "iv": 3532,
      "▁yakın": 3533,
      "▁ekonom": 3534,
      "dıg": 3535,
      "mı": 3536,
      "▁dakik": 3537,
      "▁yahut": 3538,
      "inci": 3539,
      "le": 3540,
      "▁par": 3541,
      "▁r": 3542,
      "▁kadını": 3543,
      "tır": 3544,
      "▁manz": 3545,
      "▁baba": 3546,
      "▁of": 3547,
      "isle": 3548,
      "▁cop": 3549,
      "▁dunya": 3550,
      "▁beye": 3551,
      "▁!..": 3552,
      "ladım": 3553,
      "▁dostu": 3554,
      "▁vardi": 3555,
      "h": 3556,
      "▁bir": 3557,
      "▁katılım": 3558,
      "▁get": 3559,
      "ber": 3560,
      "5": 3561,
      "gun": 3562,
      "▁yuzden": 3563,
      "▁id": 3564,
      "masının": 3565,
      "▁suru": 3566,
      "▁adamları": 3567,
      "ıy": 3568,
      "▁puan": 3569,
      "▁kotu": 3570,
      "▁annem": 3571,
      "▁kork": 3572,
      "▁yasam": 3573,
      "5'": 3574,
      "▁otom": 3575,
      "dıktan": 3576,
      "▁tuketici": 3577,
      "ine": 3578,
      "▁onune": 3579,
      "▁ustunde": 3580,
      "ob": 3581,
      "miyor": 3582,
      "▁yanı": 3583,
      "▁ap": 3584,
      "▁send": 3585,
      "stım": 3586,
      "'t": 3587,
      "▁ilgil": 3588,
      "▁sezon": 3589,
      "▁inanc": 3590,
      "erans": 3591,
      "▁sonuna": 3592,
      "▁civarı": 3593,
      "kk": 3594,
      "isinden": 3595,
      "▁fakat": 3596,
      "▁merak": 3597,
      "unuz": 3598,
      "▁gazete": 3599,
      "▁motor": 3600,
      "▁bic": 3601,
      "mayı": 3602,
      "▁du": 3603,
      "etr": 3604,
      "anda": 3605,
      "▁olmad": 3606,
      "lamaya": 3607,
      "▁dak": 3608,
      "▁zir": 3609,
      "▁beg": 3610,
      "anın": 3611,
      "ee": 3612,
      "ındaki": 3613,
      "ecilik": 3614,
      "▁konu": 3615,
      "cih": 3616,
      "▁mektu": 3617,
      "▁rengi": 3618,
      "lıkta": 3619,
      "zet": 3620,
      "enlerin": 3621,
      "▁dolay": 3622,
      "div": 3623,
      "▁gr": 3624,
      "▁sofr": 3625,
      "▁car": 3626,
      "▁tesp": 3627,
      "gu": 3628,
      "▁cevap": 3629,
      "iye": 3630,
      "▁konumu": 3631,
      "laması": 3632,
      "▁ref": 3633,
      "ington": 3634,
      "▁yar": 3635,
      "lanmıs": 3636,
      "▁tehd": 3637,
      "u": 3638,
      "▁sirk": 3639,
      "!": 3640,
      "▁seklinde": 3641,
      "▁unut": 3642,
      "▁bat": 3643,
      "nd": 3644,
      "▁balt": 3645,
      "▁kon": 3646,
      "or": 3647,
      "ısı": 3648,
      "▁reh": 3649,
      "▁dergi": 3650,
      "▁analist": 3651,
      "lerden": 3652,
      "s": 3653,
      "▁masraf": 3654,
      "▁hit": 3655,
      "▁guc": 3656,
      "▁di": 3657,
      "▁10": 3658,
      "▁istasyon": 3659,
      "'nde": 3660,
      "ta": 3661,
      "▁dortluk": 3662,
      "▁bak": 3663,
      "▁gucu": 3664,
      "▁nok": 3665,
      "ip": 3666,
      "▁olay": 3667,
      "ilmis": 3668,
      "lerim": 3669,
      "▁haz": 3670,
      "▁ederim": 3671,
      "▁degisim": 3672,
      "▁baska": 3673,
      "▁istek": 3674,
      "▁zamanlar": 3675,
      "ilik": 3676,
      "do": 3677,
      "igini": 3678,
      "▁kullan": 3679,
      "leg": 3680,
      "▁elem": 3681,
      "▁rez": 3682,
      "ian": 3683,
      "▁tesv": 3684,
      "maz": 3685,
      "▁bi": 3686,
      "▁tesisti": 3687,
      "▁masanın": 3688,
      "▁alıcı": 3689,
      "▁deneme": 3690,
      "lıklar": 3691,
      "sim": 3692,
      "siy": 3693,
      "▁bulut": 3694,
      "▁hep": 3695,
      "▁sel": 3696,
      "ed": 3697,
      "▁gay": 3698,
      "▁kuy": 3699,
      "▁alın": 3700,
      "▁muz": 3701,
      "▁asker": 3702,
      "osu": 3703,
      "▁/": 3704,
      "lardı": 3705,
      "▁muda": 3706,
      "▁fer": 3707,
      "▁basından": 3708,
      "▁rakip": 3709,
      "▁okum": 3710,
      "▁hav": 3711,
      "lestir": 3712,
      "▁ucuslarının": 3713,
      "▁gozu": 3714,
      "▁kıs": 3715,
      "ivers": 3716,
      "▁patlıc": 3717,
      "▁bil": 3718,
      "▁tesekkurler": 3719,
      "▁ruz": 3720,
      "▁iceri": 3721,
      "▁elbis": 3722,
      "digi": 3723,
      "▁ve": 3724,
      "▁but": 3725,
      "▁altın": 3726,
      "▁performans": 3727,
      "▁polis": 3728,
      "▁cesaret": 3729,
      "▁kotuydu": 3730,
      "▁magaz": 3731,
      "▁eglen": 3732,
      "fen": 3733,
      "▁hemen": 3734,
      "ig": 3735,
      "▁hizmetleri": 3736,
      "▁uyku": 3737,
      "▁sap": 3738,
      "▁vade": 3739,
      "om": 3740,
      "▁mesel": 3741,
      "▁yon": 3742,
      "▁plan": 3743,
      "'ya": 3744,
      "▁hey": 3745,
      "tluk": 3746,
      "▁sal": 3747,
      "▁yapıl": 3748,
      "▁muhab": 3749,
      "▁an": 3750,
      "▁teknoloji": 3751,
      "▁ver": 3752,
      "▁alt": 3753,
      "▁istiyorum": 3754,
      "▁anla": 3755,
      "▁bankası": 3756,
      "'": 3757,
      "▁icer": 3758,
      "▁halka": 3759,
      "▁gordu": 3760,
      "▁olursa": 3761,
      "isten": 3762,
      "▁kisinin": 3763,
      "amaya": 3764,
      "imiz": 3765,
      "'e": 3766,
      "menin": 3767,
      "siniz": 3768,
      "▁co": 3769,
      "▁gec": 3770,
      "elik": 3771,
      "▁animasyonlar": 3772,
      "▁degeri": 3773,
      "▁hoca": 3774,
      "▁arkasından": 3775,
      "emin": 3776,
      "▁az": 3777,
      "▁demokr": 3778,
      "ent": 3779,
      "▁dest": 3780,
      "▁elleri": 3781,
      "▁ch": 3782,
      "▁davranıs": 3783,
      "lardan": 3784,
      "▁kongre": 3785,
      "▁yok": 3786,
      "▁temizlik": 3787,
      "▁calı": 3788,
      "▁kır": 3789,
      "z": 3790,
      "▁fak": 3791,
      "▁odadan": 3792,
      "mer": 3793,
      "▁dedi": 3794,
      "▁cih": 3795,
      "▁peyn": 3796,
      "▁civarında": 3797,
      "▁kapı": 3798,
      "▁model": 3799,
      "▁adı": 3800,
      "▁sabahı": 3801,
      "▁sp": 3802,
      "ruk": 3803,
      "▁mas": 3804,
      "ici": 3805,
      "▁fotograf": 3806,
      "▁kası": 3807,
      "▁anlay": 3808,
      "man": 3809,
      "▁pol": 3810,
      "ıla": 3811,
      "▁konusu": 3812,
      "id": 3813,
      "elir": 3814,
      "▁huc": 3815,
      "▁ola": 3816,
      "▁olc": 3817,
      "▁kara": 3818,
      "os": 3819,
      "▁eger": 3820,
      "▁fark": 3821,
      "▁“": 3822,
      "▁toplantı": 3823,
      "▁garanti": 3824,
      "amı": 3825,
      "▁ihtim": 3826,
      "▁fab": 3827,
      "▁duny": 3828,
      "eyen": 3829,
      "▁bas": 3830,
      "▁isin": 3831,
      "▁havalim": 3832,
      "▁karayol": 3833,
      "▁insanlara": 3834,
      "▁fiyatları": 3835,
      "ele": 3836,
      "madik": 3837,
      "▁kredi": 3838,
      "▁cin": 3839,
      "▁havada": 3840,
      "▁yonet": 3841,
      "000": 3842,
      "▁eg": 3843,
      "▁ocak": 3844,
      "▁kural": 3845,
      "makta": 3846,
      "▁gen": 3847,
      "▁bolg": 3848,
      "asıyla": 3849,
      "alma": 3850,
      "▁bakanlıgı": 3851,
      "▁harek": 3852,
      "▁durumunda": 3853,
      "yıl": 3854,
      "▁ala": 3855,
      "tu": 3856,
      "tun": 3857,
      "ce": 3858,
      "▁paranın": 3859,
      "▁cocuklar": 3860,
      "gul": 3861,
      "umda": 3862,
      "▁yaz": 3863,
      "▁havaalanı": 3864,
      "mustur": 3865,
      "▁yonelik": 3866,
      "▁yapmaya": 3867,
      "asıl": 3868,
      "▁kasıgı": 3869,
      "▁gidiyor": 3870,
      "▁on": 3871,
      "ardan": 3872,
      "▁ogleden": 3873,
      "i": 3874,
      "lan": 3875,
      "▁hedef": 3876,
      "▁misaf": 3877,
      "▁sart": 3878,
      "▁payı": 3879,
      "▁paran": 3880,
      "▁ucretleri": 3881,
      "atur": 3882,
      "▁o": 3883,
      "▁degildi": 3884,
      "▁endeksi": 3885,
      "▁ipotek": 3886,
      "▁yardimci": 3887,
      "ret": 3888,
      "▁iz": 3889,
      "▁bıraktı": 3890,
      "▁hale": 3891,
      "▁yerde": 3892,
      "asını": 3893,
      "▁sozles": 3894,
      "▁alır": 3895,
      "▁aktivite": 3896,
      "▁al": 3897,
      "bul": 3898,
      "▁ortasında": 3899,
      "▁``": 3900,
      "unden": 3901,
      "ts": 3902,
      "uyu": 3903,
      "ınt": 3904,
      "▁basla": 3905,
      "ımdan": 3906,
      "▁yardımcı": 3907,
      "▁reklam": 3908,
      "▁oysa": 3909,
      "men": 3910,
      "burg": 3911,
      "▁ekl": 3912,
      "layacak": 3913,
      "▁kulak": 3914,
      "▁yetkili": 3915,
      "▁olmadi": 3916,
      "gil": 3917,
      "▁meslek": 3918,
      "▁ilgiliydi": 3919,
      "lasyon": 3920,
      "hu": 3921,
      "▁mily": 3922,
      "▁ur": 3923,
      "▁sonbah": 3924,
      "▁oy": 3925,
      "▁cocukların": 3926,
      "▁merkez": 3927,
      "▁secim": 3928,
      "▁oyunun": 3929,
      "▁haberi": 3930,
      "▁satın": 3931,
      "▁gunler": 3932,
      "eyin": 3933,
      "▁veriyorum": 3934,
      "▁gelecek": 3935,
      "▁simdi": 3936,
      "▁mecl": 3937,
      "▁olmadıgını": 3938,
      "uv": 3939,
      "▁muhend": 3940,
      "▁dir": 3941,
      "▁tartısma": 3942,
      "▁kuvvet": 3943,
      "▁bazı": 3944,
      "▁alaka": 3945,
      "▁do": 3946,
      "ısının": 3947,
      "▁cins": 3948,
      "ıh": 3949,
      "izi": 3950,
      "▁gol": 3951,
      "▁mı": 3952,
      "▁lis": 3953,
      "▁yandan": 3954,
      "emedi": 3955,
      "ata": 3956,
      "▁bono": 3957,
      "▁dolayi": 3958,
      "▁ab": 3959,
      "▁donemde": 3960,
      "▁hayır": 3961,
      "▁icinden": 3962,
      "▁sırasında": 3963,
      "▁pencer": 3964,
      "▁iki": 3965,
      "estir": 3966,
      "▁degil": 3967,
      "▁bakanı": 3968,
      "▁bilgisayar": 3969,
      "ktu": 3970,
      "gre": 3971,
      "▁agız": 3972,
      "▁yolunu": 3973,
      "▁kart": 3974,
      "▁parasını": 3975,
      "▁tarafından": 3976,
      "▁laf": 3977,
      "▁saatlerinde": 3978,
      "▁suyu": 3979,
      "▁kısıt": 3980,
      "▁'": 3981,
      "▁donus": 3982,
      "ev": 3983,
      "▁kamu": 3984,
      "▁kısm": 3985,
      "▁in": 3986,
      "▁atlan": 3987,
      "▁tavuk": 3988,
      "umuz": 3989,
      "medim": 3990,
      "▁dakika": 3991,
      "▁guvenlik": 3992,
      "▁yapı": 3993,
      "▁enflasyon": 3994,
      "ska": 3995,
      "lıktan": 3996,
      "aydi": 3997,
      "mesine": 3998,
      "▁cihaz": 3999,
      "▁hele": 4000,
      "▁vap": 4001,
      "meger": 4002,
      "▁abd": 4003,
      "▁vakt": 4004,
      "▁aln": 4005,
      "▁grup": 4006,
      "lerimizi": 4007,
      "▁gi": 4008,
      "▁otelin": 4009,
      "▁aktivit": 4010,
      "aliydi": 4011,
      "azla": 4012,
      "▁servisi": 4013,
      "▁birtakım": 4014,
      "eklen": 4015,
      "▁televizyon": 4016,
      "▁imkanlari": 4017,
      "▁aksama": 4018,
      "acag": 4019,
      "▁perform": 4020,
      "▁b": 4021,
      "▁yak": 4022,
      "▁calis": 4023,
      "▁parayı": 4024,
      "▁mide": 4025,
      "▁etk": 4026,
      "▁denver": 4027,
      "ısında": 4028,
      "▁var": 4029,
      "eyr": 4030,
      "▁bulun": 4031,
      "▁hukumetin": 4032,
      "▁kagı": 4033,
      "▁uretim": 4034,
      "dıgında": 4035,
      "▁bu": 4036,
      "▁washington": 4037,
      "lim": 4038,
      "▁ed": 4039,
      "▁kay": 4040,
      "▁bayan": 4041,
      "▁cumartesi": 4042,
      "biy": 4043,
      "▁uretici": 4044,
      "▁numara": 4045,
      "▁ide": 4046,
      "▁yıla": 4047,
      "▁ucrete": 4048,
      "hi": 4049,
      "▁hos": 4050,
      "▁yuks": 4051,
      "▁yeni": 4052,
      "▁rah": 4053,
      "▁bur": 4054,
      "irim": 4055,
      "tigi": 4056,
      "▁sonuclar": 4057,
      "ile": 4058,
      "lerdi": 4059,
      "▁seyin": 4060,
      "▁tes": 4061,
      "▁degis": 4062,
      "—": 4063,
      "▁altına": 4064,
      "▁kaz": 4065,
      "ligine": 4066,
      "▁yol": 4067,
      "▁gazet": 4068,
      "▁it": 4069,
      "▁tarihi": 4070,
      "tur": 4071,
      "▁sid": 4072,
      "dıgın": 4073,
      "▁sek": 4074,
      "amet": 4075,
      "▁bisik": 4076,
      "iyat": 4077,
      "▁se": 4078,
      "▁fabrika": 4079,
      "▁rom": 4080,
      "▁er": 4081,
      "▁sorunları": 4082,
      "ane": 4083,
      "▁tar": 4084,
      "qu": 4085,
      "▁2": 4086,
      "▁azından": 4087,
      "▁br": 4088,
      "orta": 4089,
      "▁$'dan": 4090,
      "▁evden": 4091,
      "▁arası": 4092,
      "gr": 4093,
      "alardan": 4094,
      "▁dallas'a": 4095
    },
    "merges": [
      [
        "d",
        "eki"
      ],
      [
        "i",
        "bi"
      ],
      [
        "▁g",
        "uzel"
      ],
      [
        "▁potansiy",
        "el"
      ],
      [
        "▁b",
        "uy"
      ],
      [
        "h",
        "ur"
      ],
      [
        "k",
        "sa"
      ],
      [
        "▁",
        "ey"
      ],
      [
        "▁bo",
        "s"
      ],
      [
        "▁a",
        "f"
      ],
      [
        "▁d",
        "ort"
      ],
      [
        "si",
        "k"
      ],
      [
        "▁ucret",
        "e"
      ],
      [
        "▁bor",
        "c"
      ],
      [
        "▁sig",
        "orta"
      ],
      [
        "▁hik",
        "ay"
      ],
      [
        "ek",
        "l"
      ],
      [
        "▁",
        "mus"
      ],
      [
        "▁beklen",
        "ti"
      ],
      [
        "▁k",
        "a"
      ],
      [
        "▁mudur",
        "u"
      ],
      [
        "▁hav",
        "ayol"
      ],
      [
        "k",
        "en"
      ],
      [
        "▁d",
        "eg"
      ],
      [
        "▁d",
        "elik"
      ],
      [
        "▁",
        "ef"
      ],
      [
        "u",
        "dur"
      ],
      [
        "▁b",
        "os"
      ],
      [
        "im",
        "ci"
      ],
      [
        "▁s",
        "ans"
      ],
      [
        "▁f",
        "atur"
      ],
      [
        "ıl",
        "ım"
      ],
      [
        "l",
        "di"
      ],
      [
        "▁p",
        "ar"
      ],
      [
        "ler",
        "in"
      ],
      [
        "u",
        "l"
      ],
      [
        "▁yag",
        "mur"
      ],
      [
        "▁program",
        "ı"
      ],
      [
        "n",
        "et"
      ],
      [
        "▁univers",
        "it"
      ],
      [
        "▁g",
        "um"
      ],
      [
        "▁kor",
        "k"
      ],
      [
        "▁bas",
        "ar"
      ],
      [
        "ug",
        "un"
      ],
      [
        "▁p",
        "ir"
      ],
      [
        "▁ka",
        "c"
      ],
      [
        "g",
        "un"
      ],
      [
        "▁k",
        "ok"
      ],
      [
        "uy",
        "le"
      ],
      [
        "▁m",
        "im"
      ],
      [
        "▁co",
        "g"
      ],
      [
        "▁her",
        "hangi"
      ],
      [
        "▁ren",
        "gi"
      ],
      [
        "▁y",
        "emek"
      ],
      [
        "▁kisi",
        "ler"
      ],
      [
        "am",
        "ız"
      ],
      [
        "anı",
        "t"
      ],
      [
        "▁o",
        "t"
      ],
      [
        "▁sor",
        "um"
      ],
      [
        "▁g",
        "ey"
      ],
      [
        "▁p",
        "ayı"
      ],
      [
        "▁i",
        "r"
      ],
      [
        "im",
        "e"
      ],
      [
        "imiz",
        "in"
      ],
      [
        "▁bil",
        "gi"
      ],
      [
        "▁sat",
        "ım"
      ],
      [
        "▁az",
        "ından"
      ],
      [
        "t",
        "er"
      ],
      [
        "▁p",
        "enc"
      ],
      [
        "ı",
        "ya"
      ],
      [
        "▁tar",
        "la"
      ],
      [
        "lar",
        "ına"
      ],
      [
        "▁de",
        "g"
      ],
      [
        "▁az",
        "alt"
      ],
      [
        "▁d",
        "en"
      ],
      [
        "▁y",
        "ab"
      ],
      [
        "▁t",
        "ep"
      ],
      [
        "▁katk",
        "ıda"
      ],
      [
        "st",
        "ı"
      ],
      [
        "▁p",
        "aket"
      ],
      [
        "y",
        "en"
      ],
      [
        "▁do",
        "l"
      ],
      [
        "▁tem",
        "iz"
      ],
      [
        "ıg",
        "ını"
      ],
      [
        "▁at",
        "es"
      ],
      [
        "▁d",
        "ev"
      ],
      [
        "ların",
        "ın"
      ],
      [
        "▁fiyat",
        "larını"
      ],
      [
        "un",
        "c"
      ],
      [
        "▁olma",
        "sı"
      ],
      [
        "▁yuz",
        "yıl"
      ],
      [
        "▁anla",
        "ttı"
      ],
      [
        "ıl",
        "ır"
      ],
      [
        "▁ba",
        "na"
      ],
      [
        "▁mil",
        "let"
      ],
      [
        "▁sig",
        "ort"
      ],
      [
        "on",
        "t"
      ],
      [
        "▁a",
        "h"
      ],
      [
        "mekt",
        "edir"
      ],
      [
        "▁ver",
        "il"
      ],
      [
        "▁az",
        "di"
      ],
      [
        "▁kat",
        "ılım"
      ],
      [
        "▁top",
        "lum"
      ],
      [
        "▁muh",
        "ab"
      ],
      [
        "▁oda",
        "m"
      ],
      [
        "i",
        "t"
      ],
      [
        "▁or",
        "gan"
      ],
      [
        "▁ar",
        "d"
      ],
      [
        "▁c",
        "ol"
      ],
      [
        "▁oda",
        "lari"
      ],
      [
        "lig",
        "ini"
      ],
      [
        "▁n",
        "e"
      ],
      [
        "▁hac",
        "im"
      ],
      [
        "▁ka",
        "f"
      ],
      [
        "es",
        "ini"
      ],
      [
        "▁en",
        "er"
      ],
      [
        "▁insan",
        "a"
      ],
      [
        "▁var",
        "di"
      ],
      [
        "▁i",
        "c"
      ],
      [
        "a",
        "lan"
      ],
      [
        "h",
        "ut"
      ],
      [
        "lan",
        "tı"
      ],
      [
        "▁get",
        "ir"
      ],
      [
        "▁bak",
        "ıs"
      ],
      [
        "▁oldu",
        "gu"
      ],
      [
        "▁ek",
        "onom"
      ],
      [
        "or",
        "m"
      ],
      [
        "▁",
        "!"
      ],
      [
        "ey",
        "im"
      ],
      [
        "iyor",
        "lar"
      ],
      [
        "▁kis",
        "ilik"
      ],
      [
        "l",
        "e"
      ],
      [
        "▁sov",
        "yet"
      ],
      [
        "▁eglen",
        "ce"
      ],
      [
        "▁h",
        "erh"
      ],
      [
        "g",
        "ah"
      ],
      [
        "▁kuc",
        "uktu"
      ],
      [
        "▁l",
        "ak"
      ],
      [
        "▁sat",
        "ır"
      ],
      [
        "g",
        "im"
      ],
      [
        "▁si",
        "l"
      ],
      [
        "▁m",
        "at"
      ],
      [
        "▁seviy",
        "esine"
      ],
      [
        "us",
        "unun"
      ],
      [
        "▁ha",
        "kk"
      ],
      [
        "h",
        "an"
      ],
      [
        "▁p",
        "etr"
      ],
      [
        "▁dun",
        "y"
      ],
      [
        "▁bilgis",
        "ay"
      ],
      [
        "is",
        "in"
      ],
      [
        "▁yan",
        "i"
      ],
      [
        "ur",
        "u"
      ],
      [
        "is",
        "inin"
      ],
      [
        "b",
        "ar"
      ],
      [
        "▁ins",
        "anı"
      ],
      [
        "ları",
        "m"
      ],
      [
        "ig",
        "ini"
      ],
      [
        "um",
        "uz"
      ],
      [
        "b",
        "ir"
      ],
      [
        "▁ann",
        "esi"
      ],
      [
        "▁co",
        "z"
      ],
      [
        "▁n",
        "iyet"
      ],
      [
        "▁",
        "ul"
      ],
      [
        "▁if",
        "ade"
      ],
      [
        "▁p",
        "ol"
      ],
      [
        "▁kar",
        "ak"
      ],
      [
        "▁go",
        "l"
      ],
      [
        "▁i",
        "ler"
      ],
      [
        "a",
        "dan"
      ],
      [
        "▁h",
        "e"
      ],
      [
        "▁personel",
        "in"
      ],
      [
        "▁t",
        "eh"
      ],
      [
        "at",
        "or"
      ],
      [
        "iy",
        "i"
      ],
      [
        "▁kum",
        "as"
      ],
      [
        "▁kı",
        "z"
      ],
      [
        "▁he",
        "p"
      ],
      [
        "▁a",
        "lay"
      ],
      [
        "ım",
        "ız"
      ],
      [
        "▁",
        "lik"
      ],
      [
        "▁i",
        "f"
      ],
      [
        "▁bay",
        "ram"
      ],
      [
        "▁par",
        "ayı"
      ],
      [
        "ci",
        "leri"
      ],
      [
        "▁sey",
        "ler"
      ],
      [
        "ların",
        "da"
      ],
      [
        "▁yaklas",
        "imi"
      ],
      [
        "▁coc",
        "uklu"
      ],
      [
        "▁ger",
        "i"
      ],
      [
        "▁b",
        "asından"
      ],
      [
        "▁on",
        "ay"
      ],
      [
        "▁u",
        "y"
      ],
      [
        "m",
        "ust"
      ],
      [
        "en",
        "de"
      ],
      [
        "ı",
        "m"
      ],
      [
        "n",
        "a"
      ],
      [
        "▁ol",
        "mak"
      ],
      [
        "t",
        "ıgını"
      ],
      [
        "▁ka",
        "h"
      ],
      [
        "ı",
        "gı"
      ],
      [
        "▁et",
        "meye"
      ],
      [
        "▁insan",
        "ları"
      ],
      [
        "▁etk",
        "isi"
      ],
      [
        "▁t",
        "e"
      ],
      [
        "▁insa",
        "n"
      ],
      [
        "▁gi",
        "d"
      ],
      [
        "▁a",
        "il"
      ],
      [
        "▁d",
        "iger"
      ],
      [
        "v",
        "e"
      ],
      [
        "et",
        "i"
      ],
      [
        "0",
        "0"
      ],
      [
        "▁ya",
        "lan"
      ],
      [
        "▁gec",
        "m"
      ],
      [
        "▁et",
        "me"
      ],
      [
        "▁yıl",
        "larda"
      ],
      [
        "d",
        "uz"
      ],
      [
        "▁dum",
        "an"
      ],
      [
        "id",
        "ir"
      ],
      [
        "e",
        "st"
      ],
      [
        "▁l",
        "ut"
      ],
      [
        "▁fran",
        "c"
      ],
      [
        "▁",
        "on"
      ],
      [
        "▁",
        "ekl"
      ],
      [
        "▁kır",
        "ık"
      ],
      [
        "▁or",
        "d"
      ],
      [
        "b",
        "ası"
      ],
      [
        "▁ar",
        "asında"
      ],
      [
        "▁yemek",
        "ler"
      ],
      [
        "▁yatırım",
        "cılar"
      ],
      [
        "e",
        "de"
      ],
      [
        "▁gun",
        "un"
      ],
      [
        "▁dolar",
        "lık"
      ],
      [
        "az",
        "la"
      ],
      [
        "ay",
        "dı"
      ],
      [
        "▁du",
        "k"
      ],
      [
        "▁ay",
        "ında"
      ],
      [
        "▁s",
        "ig"
      ],
      [
        "ey",
        "r"
      ],
      [
        "'n",
        "un"
      ],
      [
        "▁seh",
        "ir"
      ],
      [
        "▁",
        "dik"
      ],
      [
        "▁b",
        "or"
      ],
      [
        "▁teh",
        "lik"
      ],
      [
        "▁ko",
        "n"
      ],
      [
        "▁im",
        "kan"
      ],
      [
        "lar",
        "ım"
      ],
      [
        "▁hap",
        "is"
      ],
      [
        "l",
        "anı"
      ],
      [
        "g",
        "r"
      ],
      [
        "er",
        "siz"
      ],
      [
        "ak",
        "lı"
      ],
      [
        "▁k",
        "oc"
      ],
      [
        "▁yıl",
        "lar"
      ],
      [
        "▁gos",
        "ter"
      ],
      [
        "▁kon",
        "gre"
      ],
      [
        "▁parc",
        "ası"
      ],
      [
        "▁m",
        "ed"
      ],
      [
        "eb",
        "il"
      ],
      [
        "la",
        "ya"
      ],
      [
        "▁",
        "“"
      ],
      [
        "▁yanı",
        "t"
      ],
      [
        "▁yok",
        "sa"
      ],
      [
        "▁piyas",
        "aya"
      ],
      [
        "▁gar",
        "anti"
      ],
      [
        "▁olm",
        "a"
      ],
      [
        "lan",
        "mıs"
      ],
      [
        "▁g",
        "og"
      ],
      [
        "▁ev",
        "den"
      ],
      [
        "▁den",
        "eme"
      ],
      [
        "▁y",
        "az"
      ],
      [
        "▁cocuk",
        "ların"
      ],
      [
        "masın",
        "ı"
      ],
      [
        "i",
        "y"
      ],
      [
        "▁cer",
        "cev"
      ],
      [
        "o",
        "k"
      ],
      [
        "▁bi",
        "le"
      ],
      [
        "u",
        "r"
      ],
      [
        "▁se",
        "c"
      ],
      [
        "▁i",
        "h"
      ],
      [
        "ib",
        "ar"
      ],
      [
        "▁sekl",
        "inde"
      ],
      [
        "▁k",
        "om"
      ],
      [
        "at",
        "tı"
      ],
      [
        "s",
        "ak"
      ],
      [
        "ok",
        "r"
      ],
      [
        "a",
        "yi"
      ],
      [
        "▁tav",
        "uk"
      ],
      [
        "▁dusun",
        "ce"
      ],
      [
        "▁kom",
        "ut"
      ],
      [
        "▁kaz",
        "an"
      ],
      [
        "▁m",
        "ez"
      ],
      [
        "▁tes",
        "p"
      ],
      [
        "▁kend",
        "i"
      ],
      [
        "▁ey",
        "lul"
      ],
      [
        "▁yonet",
        "ici"
      ],
      [
        "▁",
        "te"
      ],
      [
        "▁t",
        "er"
      ],
      [
        "▁tak",
        "ip"
      ],
      [
        "▁gazet",
        "e"
      ],
      [
        "er",
        "n"
      ],
      [
        "▁m",
        "ek"
      ],
      [
        "▁",
        "ask"
      ],
      [
        "▁ask",
        "er"
      ],
      [
        "▁oldug",
        "unu"
      ],
      [
        "▁calıs",
        "ma"
      ],
      [
        "lig",
        "inden"
      ],
      [
        "▁oda",
        "dan"
      ],
      [
        "▁di",
        "ger"
      ],
      [
        "es",
        "inden"
      ],
      [
        "▁amerik",
        "an"
      ],
      [
        "ol",
        "a"
      ],
      [
        "▁kap",
        "sam"
      ],
      [
        "▁kars",
        "iligini"
      ],
      [
        "kt",
        "u"
      ],
      [
        "▁al",
        "n"
      ],
      [
        "▁bak",
        "tı"
      ],
      [
        "▁e",
        "s"
      ],
      [
        "▁ta",
        "k"
      ],
      [
        "▁iz",
        "in"
      ],
      [
        "▁is",
        "i"
      ],
      [
        "▁mahk",
        "em"
      ],
      [
        "▁bir",
        "ligi"
      ],
      [
        "▁kar",
        "ar"
      ],
      [
        "u",
        "d"
      ],
      [
        "in",
        "a"
      ],
      [
        "▁herkes",
        "in"
      ],
      [
        "▁ya",
        "ban"
      ],
      [
        "▁belir",
        "t"
      ],
      [
        "▁gun",
        "ah"
      ],
      [
        "r",
        "e"
      ],
      [
        "gi",
        "li"
      ],
      [
        "▁cocuk",
        "lar"
      ],
      [
        "u",
        "c"
      ],
      [
        "▁se",
        "b"
      ],
      [
        "▁dur",
        "us"
      ],
      [
        "▁ediyor",
        "um"
      ],
      [
        "e",
        "yi"
      ],
      [
        "▁ar",
        "ab"
      ],
      [
        "▁ust",
        "unde"
      ],
      [
        "▁adam",
        "ı"
      ],
      [
        "▁s",
        "u"
      ],
      [
        "▁v",
        "et"
      ],
      [
        "▁mer",
        "k"
      ],
      [
        "▁e",
        "m"
      ],
      [
        "ed",
        "ig"
      ],
      [
        "▁al",
        "ak"
      ],
      [
        "▁kars",
        "i"
      ],
      [
        "▁s",
        "ark"
      ],
      [
        "▁sey",
        "leri"
      ],
      [
        "▁depr",
        "em"
      ],
      [
        "▁s",
        "ade"
      ],
      [
        "▁",
        "ak"
      ],
      [
        "▁kal",
        "b"
      ],
      [
        "▁d",
        "em"
      ],
      [
        "▁",
        "oy"
      ],
      [
        "▁hal",
        "ine"
      ],
      [
        "e",
        "n"
      ],
      [
        "l",
        "ay"
      ],
      [
        "▁mahk",
        "eme"
      ],
      [
        "▁ac",
        "ik"
      ],
      [
        "y",
        "or"
      ],
      [
        "s",
        "am"
      ],
      [
        "▁an",
        "lay"
      ],
      [
        "m",
        "asını"
      ],
      [
        "ers",
        "iz"
      ],
      [
        "s",
        "al"
      ],
      [
        "ev",
        "iz"
      ],
      [
        "▁den",
        "ey"
      ],
      [
        "▁.",
        "."
      ],
      [
        "s",
        "iy"
      ],
      [
        "▁sermay",
        "e"
      ],
      [
        "▁h",
        "enuz"
      ],
      [
        "▁ic",
        "ecek"
      ],
      [
        "▁m",
        "ik"
      ],
      [
        "▁dol",
        "ar"
      ],
      [
        "uyor",
        "um"
      ],
      [
        "▁yap",
        "ıyor"
      ],
      [
        "▁in",
        "san"
      ],
      [
        "▁hal",
        "e"
      ],
      [
        "im",
        "de"
      ],
      [
        "▁sa",
        "m"
      ],
      [
        "▁kal",
        "kan"
      ],
      [
        "▁g",
        "ur"
      ],
      [
        "lar",
        "dı"
      ],
      [
        "▁bu",
        "l"
      ],
      [
        "▁ar",
        "acı"
      ],
      [
        "u",
        "b"
      ],
      [
        "▁b",
        "ey"
      ],
      [
        "▁kosul",
        "ları"
      ],
      [
        "am",
        "az"
      ],
      [
        "ar",
        "eti"
      ],
      [
        "▁zam",
        "anı"
      ],
      [
        "▁ay",
        "n"
      ],
      [
        "la",
        "m"
      ],
      [
        "▁",
        "yor"
      ],
      [
        "og",
        "ram"
      ],
      [
        "▁p",
        "ant"
      ],
      [
        "dı",
        "m"
      ],
      [
        "▁is",
        "t"
      ],
      [
        "c",
        "ilik"
      ],
      [
        "▁bask",
        "an"
      ],
      [
        "▁ren",
        "k"
      ],
      [
        "▁h",
        "ay"
      ],
      [
        "l",
        "uk"
      ],
      [
        "▁elektr",
        "ik"
      ],
      [
        "de",
        "k"
      ],
      [
        "g",
        "ini"
      ],
      [
        "▁ya",
        "n"
      ],
      [
        "me",
        "ye"
      ],
      [
        "en",
        "i"
      ],
      [
        "▁g",
        "ucu"
      ],
      [
        "▁hav",
        "al"
      ],
      [
        "r",
        "ken"
      ],
      [
        "▁teknoloj",
        "i"
      ],
      [
        "il",
        "im"
      ],
      [
        "▁duy",
        "gu"
      ],
      [
        "▁ev",
        "ine"
      ],
      [
        "▁di",
        "z"
      ],
      [
        "▁kar",
        "ı"
      ],
      [
        "▁s",
        "il"
      ],
      [
        "o",
        "t"
      ],
      [
        "▁sirket",
        "ler"
      ],
      [
        "▁o",
        "f"
      ],
      [
        "▁19",
        "9"
      ],
      [
        "m",
        "anlar"
      ],
      [
        "▁s",
        "ok"
      ],
      [
        "▁ar",
        "a"
      ],
      [
        "ol",
        "oj"
      ],
      [
        "▁",
        "al"
      ],
      [
        "▁ta",
        "raf"
      ],
      [
        "in",
        "g"
      ],
      [
        "▁",
        "iy"
      ],
      [
        "▁duk",
        "kan"
      ],
      [
        "▁har",
        "ic"
      ],
      [
        "▁kad",
        "ın"
      ],
      [
        "▁han",
        "imdi"
      ],
      [
        "▁mek",
        "tu"
      ],
      [
        "▁gog",
        "s"
      ],
      [
        "▁yetk",
        "ili"
      ],
      [
        "▁der",
        "gi"
      ],
      [
        "'",
        "y"
      ],
      [
        "▁h",
        "uk"
      ],
      [
        "▁bol",
        "um"
      ],
      [
        "▁al",
        "an"
      ],
      [
        "▁el",
        "estiri"
      ],
      [
        "▁dev",
        "am"
      ],
      [
        "u",
        "lu"
      ],
      [
        "d",
        "ik"
      ],
      [
        "lıg",
        "ı"
      ],
      [
        "ak",
        "et"
      ],
      [
        "lug",
        "un"
      ],
      [
        "▁yol",
        "cu"
      ],
      [
        "▁denver",
        "'den"
      ],
      [
        "▁rom",
        "an"
      ],
      [
        "▁ka",
        "p"
      ],
      [
        "▁hast",
        "alık"
      ],
      [
        "▁ama",
        "c"
      ],
      [
        "a",
        "l"
      ],
      [
        "▁goz",
        "den"
      ],
      [
        "▁gid",
        "en"
      ],
      [
        "▁k",
        "ere"
      ],
      [
        "▁k",
        "um"
      ],
      [
        "▁gor",
        "dum"
      ],
      [
        "▁he",
        "m"
      ],
      [
        "▁de",
        "pr"
      ],
      [
        "▁il",
        "av"
      ],
      [
        "ec",
        "ilik"
      ],
      [
        "▁karsı",
        "lık"
      ],
      [
        "▁havuz",
        "u"
      ],
      [
        "▁ucus",
        "un"
      ],
      [
        "▁yemek",
        "lerin"
      ],
      [
        "t",
        "al"
      ],
      [
        "▁rezervasyon",
        "u"
      ],
      [
        "▁kr",
        "al"
      ],
      [
        "▁dig",
        "er"
      ],
      [
        "t",
        "ık"
      ],
      [
        "▁g",
        "erek"
      ],
      [
        "▁",
        "l"
      ],
      [
        "▁sorun",
        "ları"
      ],
      [
        "ar",
        "s"
      ],
      [
        "ra",
        "k"
      ],
      [
        "▁so",
        "f"
      ],
      [
        "▁t",
        "uk"
      ],
      [
        "▁ph",
        "il"
      ],
      [
        "▁par",
        "c"
      ],
      [
        "▁oldu",
        "gunu"
      ],
      [
        "▁g",
        "iy"
      ],
      [
        "▁yurt",
        "d"
      ],
      [
        "▁",
        "ih"
      ],
      [
        "▁hayat",
        "ın"
      ],
      [
        "▁tesv",
        "ik"
      ],
      [
        "▁il",
        "isk"
      ],
      [
        "in",
        "den"
      ],
      [
        "▁d",
        "est"
      ],
      [
        "▁c",
        "ic"
      ],
      [
        "▁um",
        "ut"
      ],
      [
        "▁muz",
        "ik"
      ],
      [
        "▁y",
        "ine"
      ],
      [
        "▁g",
        "o"
      ],
      [
        "an",
        "c"
      ],
      [
        "▁s",
        "uy"
      ],
      [
        "▁hiss",
        "eye"
      ],
      [
        "▁s",
        "ın"
      ],
      [
        "af",
        "et"
      ],
      [
        "▁",
        "ar"
      ],
      [
        "ıl",
        "ı"
      ],
      [
        "▁d",
        "isi"
      ],
      [
        "▁oran",
        "ları"
      ],
      [
        "▁a",
        "rada"
      ],
      [
        "▁t",
        "iyatr"
      ],
      [
        "▁ben",
        "i"
      ],
      [
        "ın",
        "ın"
      ],
      [
        "ha",
        "l"
      ],
      [
        "in",
        "da"
      ],
      [
        "▁lezzet",
        "leri"
      ],
      [
        "▁kal",
        "ab"
      ],
      [
        "▁s",
        "os"
      ],
      [
        "▁guven",
        "lik"
      ],
      [
        "▁om",
        "uz"
      ],
      [
        "or",
        "k"
      ],
      [
        "ad",
        "an"
      ],
      [
        "▁a",
        "qu"
      ],
      [
        "▁ol",
        "m"
      ],
      [
        "▁ser",
        "v"
      ],
      [
        "▁y",
        "eni"
      ],
      [
        "▁bo",
        "l"
      ],
      [
        "▁bas",
        "v"
      ],
      [
        "ıg",
        "ın"
      ],
      [
        "▁hat",
        "ta"
      ],
      [
        "le",
        "y"
      ],
      [
        "▁i",
        "p"
      ],
      [
        "▁r",
        "ak"
      ],
      [
        "▁do",
        "lar"
      ],
      [
        "s",
        "el"
      ],
      [
        "▁ne",
        "den"
      ],
      [
        "▁men",
        "kul"
      ],
      [
        "▁dev",
        "ir"
      ],
      [
        "▁m",
        "ev"
      ],
      [
        "▁plan",
        "i"
      ],
      [
        "▁var",
        "dı"
      ],
      [
        ".",
        "."
      ],
      [
        "s",
        "ı"
      ],
      [
        "▁y",
        "ıla"
      ],
      [
        "▁bag",
        "ım"
      ],
      [
        "▁f",
        "ay"
      ],
      [
        "▁havayol",
        "ları"
      ],
      [
        "▁ed",
        "il"
      ],
      [
        "t",
        "ar"
      ],
      [
        "▁dik",
        "kat"
      ],
      [
        "▁sur",
        "u"
      ],
      [
        "▁gun",
        "ler"
      ],
      [
        "▁ba",
        "sa"
      ],
      [
        "▁t",
        "es"
      ],
      [
        "▁p",
        "u"
      ],
      [
        "n",
        "e"
      ],
      [
        "▁de",
        "gil"
      ],
      [
        "▁sim",
        "diye"
      ],
      [
        "▁bar",
        "da"
      ],
      [
        "t",
        "ir"
      ],
      [
        "um",
        "a"
      ],
      [
        "▁ol",
        "mus"
      ],
      [
        "▁p",
        "ark"
      ],
      [
        "de",
        "t"
      ],
      [
        "▁muc",
        "ade"
      ],
      [
        "ma",
        "mıs"
      ],
      [
        "ir",
        "i"
      ],
      [
        "▁ge",
        "c"
      ],
      [
        "▁fiyat",
        "ina"
      ],
      [
        "▁a",
        "mer"
      ],
      [
        "c",
        "ak"
      ],
      [
        "▁hac",
        "mi"
      ],
      [
        "▁t",
        "op"
      ],
      [
        "c",
        "ılıg"
      ],
      [
        "▁dem",
        "ir"
      ],
      [
        "c",
        "ag"
      ],
      [
        "▁soyl",
        "ey"
      ],
      [
        "▁ger",
        "c"
      ],
      [
        "▁zaman",
        "larda"
      ],
      [
        "▁kap",
        "ıyı"
      ],
      [
        "▁oz",
        "ellikle"
      ],
      [
        "▁pittsburgh",
        "'tan"
      ],
      [
        "ed",
        "en"
      ],
      [
        "▁s",
        "p"
      ],
      [
        "d",
        "iye"
      ],
      [
        "b",
        "et"
      ],
      [
        "▁nok",
        "t"
      ],
      [
        "ik",
        "lik"
      ],
      [
        "▁yap",
        "maya"
      ],
      [
        "▁so",
        "h"
      ],
      [
        "▁po",
        "z"
      ],
      [
        "▁sik",
        "ayet"
      ],
      [
        "g",
        "il"
      ],
      [
        "▁ak",
        "r"
      ],
      [
        "on",
        "ra"
      ],
      [
        "▁c",
        "ok"
      ],
      [
        "▁yas",
        "ında"
      ],
      [
        "ay",
        "ı"
      ],
      [
        "a",
        "rı"
      ],
      [
        "▁baltimore",
        "'ye"
      ],
      [
        "im",
        "i"
      ],
      [
        "▁per",
        "de"
      ],
      [
        "on",
        "u"
      ],
      [
        "▁sirket",
        "leri"
      ],
      [
        "▁kagı",
        "t"
      ],
      [
        "▁",
        "ver"
      ],
      [
        "▁istem",
        "iyorum"
      ],
      [
        "▁cocuk",
        "ları"
      ],
      [
        "▁t",
        "eb"
      ],
      [
        "▁hak",
        "im"
      ],
      [
        "▁b",
        "og"
      ],
      [
        "▁m",
        "uc"
      ],
      [
        "k",
        "ul"
      ],
      [
        "ab",
        "il"
      ],
      [
        "▁ist",
        "e"
      ],
      [
        "▁halbu",
        "ki"
      ],
      [
        "▁k",
        "ay"
      ],
      [
        "dug",
        "u"
      ],
      [
        "▁mo",
        "de"
      ],
      [
        "▁on",
        "un"
      ],
      [
        "▁acık",
        "ladı"
      ],
      [
        "▁h",
        "ac"
      ],
      [
        "▁ic",
        "in"
      ],
      [
        "r",
        "uk"
      ],
      [
        "▁bah",
        "s"
      ],
      [
        "▁kur",
        "al"
      ],
      [
        "▁yardım",
        "cısı"
      ],
      [
        "ı",
        "k"
      ],
      [
        "▁",
        "el"
      ],
      [
        "▁do",
        "v"
      ],
      [
        "ler",
        "den"
      ],
      [
        "▁is",
        "let"
      ],
      [
        "▁y",
        "er"
      ],
      [
        "▁zaman",
        "lar"
      ],
      [
        "ı",
        "yor"
      ],
      [
        "▁y",
        "ılı"
      ],
      [
        "▁ham",
        "am"
      ],
      [
        "ay",
        "ol"
      ],
      [
        "▁sef",
        "er"
      ],
      [
        "▁yıl",
        "da"
      ],
      [
        "▁kampan",
        "yalar"
      ],
      [
        "ka",
        "n"
      ],
      [
        "g",
        "ru"
      ],
      [
        "▁to",
        "z"
      ],
      [
        "▁ag",
        "ır"
      ],
      [
        "▁dus",
        "ur"
      ],
      [
        "ma",
        "dan"
      ],
      [
        "▁siy",
        "aset"
      ],
      [
        "▁serv",
        "isi"
      ],
      [
        "▁bas",
        "a"
      ],
      [
        "▁bu",
        "r"
      ],
      [
        "s",
        "in"
      ],
      [
        "▁m",
        "az"
      ],
      [
        "s",
        "uz"
      ],
      [
        "in",
        "ci"
      ],
      [
        "▁l",
        "ez"
      ],
      [
        "▁goz",
        "e"
      ],
      [
        "m",
        "asının"
      ],
      [
        "▁",
        "edi"
      ],
      [
        "at",
        "ur"
      ],
      [
        "▁ada",
        "y"
      ],
      [
        "▁t",
        "ac"
      ],
      [
        "▁f",
        "ilm"
      ],
      [
        "▁a",
        "m"
      ],
      [
        "▁b",
        "eklen"
      ],
      [
        "c",
        "ut"
      ],
      [
        "l",
        "i"
      ],
      [
        "u",
        "ru"
      ],
      [
        "▁ko",
        "r"
      ],
      [
        "▁h",
        "atır"
      ],
      [
        "▁mahkem",
        "esi"
      ],
      [
        "k",
        "on"
      ],
      [
        "▁sal",
        "on"
      ],
      [
        "lig",
        "ine"
      ],
      [
        "▁ort",
        "ak"
      ],
      [
        "▁kon",
        "ak"
      ],
      [
        "▁te",
        "or"
      ],
      [
        "▁g",
        "el"
      ],
      [
        "m",
        "ıs"
      ],
      [
        "▁kon",
        "us"
      ],
      [
        "da",
        "m"
      ],
      [
        "▁doları",
        "'na"
      ],
      [
        "i",
        "a"
      ],
      [
        "▁ar",
        "z"
      ],
      [
        "▁or",
        "g"
      ],
      [
        "▁kim",
        "s"
      ],
      [
        "▁ki",
        "r"
      ],
      [
        "m",
        "isti"
      ],
      [
        "in",
        "e"
      ],
      [
        "▁du",
        "dak"
      ],
      [
        "▁o",
        "larak"
      ],
      [
        "b",
        "u"
      ],
      [
        "se",
        "f"
      ],
      [
        "ler",
        "di"
      ],
      [
        "el",
        "li"
      ],
      [
        "▁ogret",
        "men"
      ],
      [
        "▁yolcu",
        "luk"
      ],
      [
        "▁ser",
        "may"
      ],
      [
        "▁cum",
        "artesi"
      ],
      [
        "a",
        "at"
      ],
      [
        "▁uy",
        "e"
      ],
      [
        "▁bor",
        "s"
      ],
      [
        "▁hal",
        "de"
      ],
      [
        "▁hanim",
        "la"
      ],
      [
        "len",
        "dir"
      ],
      [
        "▁",
        "#"
      ],
      [
        "em",
        "li"
      ],
      [
        "li",
        "g"
      ],
      [
        "▁par",
        "asını"
      ],
      [
        "lam",
        "aya"
      ],
      [
        "l",
        "o"
      ],
      [
        "ı",
        "l"
      ],
      [
        "▁",
        "in"
      ],
      [
        "▁bul",
        "ut"
      ],
      [
        "▁",
        "uz"
      ],
      [
        "▁ko",
        "c"
      ],
      [
        "▁",
        "at"
      ],
      [
        "▁n",
        "is"
      ],
      [
        "▁b",
        "ur"
      ],
      [
        "lan",
        "ıyor"
      ],
      [
        "▁gun",
        "leri"
      ],
      [
        "▁d",
        "on"
      ],
      [
        "▁nis",
        "an"
      ],
      [
        "▁dom",
        "ates"
      ],
      [
        "▁og",
        "le"
      ],
      [
        "▁animasyon",
        "lar"
      ],
      [
        "▁",
        "y"
      ],
      [
        "ey",
        "az"
      ],
      [
        "▁kur",
        "t"
      ],
      [
        "a",
        "r"
      ],
      [
        "▁ya",
        "na"
      ],
      [
        "▁",
        "4"
      ],
      [
        "may",
        "ı"
      ],
      [
        "ar",
        "dan"
      ],
      [
        "y",
        "on"
      ],
      [
        "c",
        "ısı"
      ],
      [
        "▁nef",
        "es"
      ],
      [
        "▁ka",
        "s"
      ],
      [
        "▁kit",
        "ab"
      ],
      [
        "▁endek",
        "si"
      ],
      [
        "▁h",
        "edef"
      ],
      [
        "▁tem",
        "sil"
      ],
      [
        "▁yak",
        "las"
      ],
      [
        "ak",
        "ları"
      ],
      [
        "▁eks",
        "ik"
      ],
      [
        "▁od",
        "asına"
      ],
      [
        "▁gel",
        "ir"
      ],
      [
        "el",
        "e"
      ],
      [
        "▁ola",
        "bilir"
      ],
      [
        "lar",
        "ı"
      ],
      [
        "▁ad",
        "ina"
      ],
      [
        "ler",
        "le"
      ],
      [
        "▁a",
        "mma"
      ],
      [
        "▁b",
        "ak"
      ],
      [
        "▁kol",
        "t"
      ],
      [
        "▁pr",
        "ob"
      ],
      [
        "▁sag",
        "lık"
      ],
      [
        "▁alak",
        "a"
      ],
      [
        "▁b",
        "ag"
      ],
      [
        "▁lut",
        "fen"
      ],
      [
        "em",
        "e"
      ],
      [
        "'t",
        "en"
      ],
      [
        "b",
        "a"
      ],
      [
        "▁etraf",
        "ında"
      ],
      [
        "il",
        "ik"
      ],
      [
        "▁s",
        "or"
      ],
      [
        "▁kit",
        "abı"
      ],
      [
        "ek",
        "kur"
      ],
      [
        "▁ka",
        "m"
      ],
      [
        "c",
        "egini"
      ],
      [
        "▁",
        "eger"
      ],
      [
        "▁is",
        "ler"
      ],
      [
        "▁ka",
        "gı"
      ],
      [
        "▁mevz",
        "u"
      ],
      [
        "0",
        "0'"
      ],
      [
        "▁gorus",
        "uldu"
      ],
      [
        "▁ev",
        "de"
      ],
      [
        "um",
        "da"
      ],
      [
        "a",
        "d"
      ],
      [
        "▁y",
        "arı"
      ],
      [
        "▁de",
        "k"
      ],
      [
        "masın",
        "a"
      ],
      [
        "▁al",
        "acak"
      ],
      [
        "ma",
        "n"
      ],
      [
        "e",
        "r"
      ],
      [
        "▁da",
        "h"
      ],
      [
        "a",
        "c"
      ],
      [
        "iyat",
        "r"
      ],
      [
        "tan",
        "siy"
      ],
      [
        "▁egit",
        "im"
      ],
      [
        "ac",
        "ılık"
      ],
      [
        "ir",
        "im"
      ],
      [
        "▁num",
        "ara"
      ],
      [
        "▁",
        "d"
      ],
      [
        "ac",
        "ı"
      ],
      [
        "ed",
        "igini"
      ],
      [
        "ler",
        "e"
      ],
      [
        "▁dolar",
        "dan"
      ],
      [
        "▁t",
        "raf"
      ],
      [
        "▁iht",
        "iy"
      ],
      [
        "▁o",
        "p"
      ],
      [
        "▁g",
        "r"
      ],
      [
        "an",
        "dır"
      ],
      [
        "▁yas",
        "am"
      ],
      [
        "en",
        "c"
      ],
      [
        "▁gi",
        "di"
      ],
      [
        "▁h",
        "af"
      ],
      [
        "▁zir",
        "a"
      ],
      [
        "▁kıymet",
        "ler"
      ],
      [
        "▁endust",
        "ri"
      ],
      [
        "▁uy",
        "um"
      ],
      [
        "ılı",
        "r"
      ],
      [
        "l",
        "ılık"
      ],
      [
        "▁kap",
        "ının"
      ],
      [
        "▁ay",
        "r"
      ],
      [
        "▁i",
        "s"
      ],
      [
        "us",
        "una"
      ],
      [
        "y",
        "uzlu"
      ],
      [
        "▁k",
        "ac"
      ],
      [
        "▁bilg",
        "is"
      ],
      [
        "ik",
        "ti"
      ],
      [
        "▁y",
        "uk"
      ],
      [
        "o",
        "f"
      ],
      [
        "▁do",
        "ları"
      ],
      [
        "▁bak",
        "an"
      ],
      [
        "sı",
        "z"
      ],
      [
        "▁tahv",
        "il"
      ],
      [
        "▁s",
        "av"
      ],
      [
        "▁m",
        "em"
      ],
      [
        "ay",
        "acagını"
      ],
      [
        "▁calı",
        "s"
      ],
      [
        "imiz",
        "e"
      ],
      [
        "▁or",
        "ta"
      ],
      [
        "▁neden",
        "le"
      ],
      [
        "▁k",
        "ur"
      ],
      [
        "▁dus",
        "un"
      ],
      [
        "▁kan",
        "un"
      ],
      [
        "e",
        "c"
      ],
      [
        "gi",
        "n"
      ],
      [
        "▁p",
        "eyn"
      ],
      [
        "a",
        "b"
      ],
      [
        "▁do",
        "g"
      ],
      [
        "▁ka",
        "lit"
      ],
      [
        "▁b",
        "ut"
      ],
      [
        "▁kar",
        "ab"
      ],
      [
        "▁t",
        "enc"
      ],
      [
        "ec",
        "egini"
      ],
      [
        "ust",
        "ur"
      ],
      [
        "▁al",
        "b"
      ],
      [
        "▁i",
        "m"
      ],
      [
        "ı",
        "cı"
      ],
      [
        "▁hal",
        "k"
      ],
      [
        "▁b",
        "o"
      ],
      [
        "▁teh",
        "d"
      ],
      [
        "▁kahv",
        "alt"
      ],
      [
        "▁olabilir",
        "di"
      ],
      [
        "▁",
        "b"
      ],
      [
        "▁ha",
        "k"
      ],
      [
        "d",
        "igim"
      ],
      [
        "▁bur",
        "aya"
      ],
      [
        "▁gir",
        "iste"
      ],
      [
        "uc",
        "u"
      ],
      [
        "'",
        "a"
      ],
      [
        "l",
        "erin"
      ],
      [
        "▁b",
        "an"
      ],
      [
        "en",
        "ler"
      ],
      [
        "▁cif",
        "t"
      ],
      [
        "i",
        "den"
      ],
      [
        "uz",
        "luydu"
      ],
      [
        "▁d",
        "us"
      ],
      [
        "▁yuks",
        "eldi"
      ],
      [
        "er",
        "ek"
      ],
      [
        "is",
        "le"
      ],
      [
        "r",
        "i"
      ],
      [
        "▁an",
        "ket"
      ],
      [
        "▁sır",
        "asında"
      ],
      [
        "▁soy",
        "ley"
      ],
      [
        "▁b",
        "ırak"
      ],
      [
        "▁",
        "ez"
      ],
      [
        "▁hab",
        "er"
      ],
      [
        "▁b",
        "l"
      ],
      [
        "▁v",
        "e"
      ],
      [
        "lar",
        "ını"
      ],
      [
        "▁res",
        "im"
      ],
      [
        "ın",
        "tı"
      ],
      [
        "▁on",
        "c"
      ],
      [
        "e",
        "ydi"
      ],
      [
        "▁ediyor",
        "du"
      ],
      [
        "k",
        "al"
      ],
      [
        "▁hal",
        "inde"
      ],
      [
        "▁cek",
        "ti"
      ],
      [
        "▁",
        "ek"
      ],
      [
        "s",
        "ik"
      ],
      [
        "e",
        "ler"
      ],
      [
        "ag",
        "ına"
      ],
      [
        "▁par",
        "mak"
      ],
      [
        "▁has",
        "ar"
      ],
      [
        "an",
        "lık"
      ],
      [
        "▁dedi",
        "m"
      ],
      [
        "▁kendi",
        "s"
      ],
      [
        "▁ol",
        "ur"
      ],
      [
        "▁eg",
        "len"
      ],
      [
        "▁sa",
        "l"
      ],
      [
        "is",
        "ine"
      ],
      [
        "tık",
        "tan"
      ],
      [
        "▁ger",
        "cek"
      ],
      [
        "▁h",
        "ol"
      ],
      [
        "il",
        "igi"
      ],
      [
        "ar",
        "ak"
      ],
      [
        "▁dav",
        "ran"
      ],
      [
        "est",
        "ir"
      ],
      [
        "▁s",
        "ey"
      ],
      [
        "▁ar",
        "asındaki"
      ],
      [
        "▁hat",
        "ır"
      ],
      [
        "▁bas",
        "ta"
      ],
      [
        "▁",
        "erk"
      ],
      [
        "e",
        "f"
      ],
      [
        "m",
        "anı"
      ],
      [
        "▁yer",
        "ini"
      ],
      [
        "▁k",
        "i"
      ],
      [
        "▁neden",
        "lerden"
      ],
      [
        "▁mas",
        "al"
      ],
      [
        "▁dusun",
        "uyor"
      ],
      [
        "o",
        "h"
      ],
      [
        "ta",
        "y"
      ],
      [
        "i",
        "z"
      ],
      [
        "it",
        "r"
      ],
      [
        "▁ayak",
        "ta"
      ],
      [
        "▁seb",
        "ep"
      ],
      [
        "is",
        "e"
      ],
      [
        "▁hizm",
        "et"
      ],
      [
        "▁yaz",
        "ar"
      ],
      [
        "▁hayat",
        "a"
      ],
      [
        "r",
        "o"
      ],
      [
        "l",
        "eri"
      ],
      [
        "▁kal",
        "em"
      ],
      [
        "ay",
        "et"
      ],
      [
        "▁yem",
        "egi"
      ],
      [
        "▁hal",
        "i"
      ],
      [
        "▁ya",
        "ni"
      ],
      [
        "uyor",
        "du"
      ],
      [
        "um",
        "e"
      ],
      [
        "▁",
        "lu"
      ],
      [
        "▁neler",
        "dir"
      ],
      [
        "▁el",
        "b"
      ],
      [
        "▁kar",
        "a"
      ],
      [
        "▁insan",
        "lara"
      ],
      [
        "is",
        "co"
      ],
      [
        "on",
        "om"
      ],
      [
        "▁d",
        "am"
      ],
      [
        "er",
        "ik"
      ],
      [
        "▁ann",
        "e"
      ],
      [
        "o",
        "u"
      ],
      [
        "▁genel",
        "de"
      ],
      [
        "▁d",
        "al"
      ],
      [
        "▁duny",
        "ada"
      ],
      [
        "ama",
        "z"
      ],
      [
        "▁per",
        "form"
      ],
      [
        "▁d",
        "iy"
      ],
      [
        "▁degis",
        "im"
      ],
      [
        "ı",
        "y"
      ],
      [
        "y",
        "al"
      ],
      [
        "▁tah",
        "min"
      ],
      [
        "▁ic",
        "ra"
      ],
      [
        "▁makal",
        "eye"
      ],
      [
        "▁kı",
        "sı"
      ],
      [
        "'",
        "ın"
      ],
      [
        "▁ver",
        "iyorum"
      ],
      [
        "▁k",
        "o"
      ],
      [
        "▁bir",
        "cok"
      ],
      [
        "i",
        "j"
      ],
      [
        "r",
        "af"
      ],
      [
        "▁",
        "ik"
      ],
      [
        "▁pil",
        "ot"
      ],
      [
        "lıg",
        "a"
      ],
      [
        "▁guzel",
        "di"
      ],
      [
        "ı",
        "lı"
      ],
      [
        "▁ede",
        "b"
      ],
      [
        "▁v",
        "er"
      ],
      [
        "▁tasar",
        "ruf"
      ],
      [
        "▁den",
        "ver"
      ],
      [
        "lem",
        "e"
      ],
      [
        "▁bil",
        "et"
      ],
      [
        "▁ortal",
        "ama"
      ],
      [
        "▁yuks",
        "el"
      ],
      [
        "▁kahv",
        "e"
      ],
      [
        "▁el",
        "ini"
      ],
      [
        "▁mer",
        "h"
      ],
      [
        "ist",
        "i"
      ],
      [
        "▁hay",
        "van"
      ],
      [
        "▁sur",
        "e"
      ],
      [
        "▁k",
        "ayı"
      ],
      [
        "▁oper",
        "asyon"
      ],
      [
        "▁guc",
        "u"
      ],
      [
        "i",
        "li"
      ],
      [
        "ını",
        "z"
      ],
      [
        "▁kolt",
        "uk"
      ],
      [
        "▁coc",
        "ugu"
      ],
      [
        "e",
        "si"
      ],
      [
        "▁m",
        "er"
      ],
      [
        "▁is",
        "tik"
      ],
      [
        "▁sof",
        "r"
      ],
      [
        "t",
        "ıgı"
      ],
      [
        "er",
        "leri"
      ],
      [
        "▁istif",
        "a"
      ],
      [
        "▁m",
        "adde"
      ],
      [
        "i",
        "yle"
      ],
      [
        "▁zaman",
        "da"
      ],
      [
        "i",
        "ci"
      ],
      [
        "▁manzar",
        "asi"
      ],
      [
        "u",
        "muz"
      ],
      [
        "▁yap",
        "mak"
      ],
      [
        "di",
        "v"
      ],
      [
        "e",
        "h"
      ],
      [
        "l",
        "as"
      ],
      [
        "▁dest",
        "ek"
      ],
      [
        "▁da",
        "mak"
      ],
      [
        "▁si",
        "z"
      ],
      [
        "ast",
        "ır"
      ],
      [
        "▁kayı",
        "t"
      ],
      [
        "▁b",
        "el"
      ],
      [
        "▁ha",
        "t"
      ],
      [
        "in",
        "de"
      ],
      [
        "am",
        "aya"
      ],
      [
        "▁yemek",
        "lerde"
      ],
      [
        "▁se",
        "m"
      ],
      [
        "▁bir",
        "i"
      ],
      [
        "▁op",
        "er"
      ],
      [
        "al",
        "ım"
      ],
      [
        "m",
        "enin"
      ],
      [
        "lam",
        "ası"
      ],
      [
        "▁sın",
        "ıf"
      ],
      [
        "ir",
        "ler"
      ],
      [
        "▁d",
        "ar"
      ],
      [
        "▁di",
        "k"
      ],
      [
        "▁it",
        "hal"
      ],
      [
        "m",
        "ay"
      ],
      [
        "▁sip",
        "ar"
      ],
      [
        "▁j",
        "apon"
      ],
      [
        "▁mily",
        "ardan"
      ],
      [
        "▁yaz",
        "ı"
      ],
      [
        "▁d",
        "ir"
      ],
      [
        "▁il",
        "an"
      ],
      [
        "un",
        "dan"
      ],
      [
        "st",
        "er"
      ],
      [
        "▁",
        "v"
      ],
      [
        "▁ilgil",
        "en"
      ],
      [
        "▁vak",
        "it"
      ],
      [
        "▁mek",
        "te"
      ],
      [
        "▁c",
        "um"
      ],
      [
        "cı",
        "lık"
      ],
      [
        "la",
        "rı"
      ],
      [
        "▁i",
        "se"
      ],
      [
        "▁ol",
        "an"
      ],
      [
        "an",
        "ıs"
      ],
      [
        "▁8",
        "'den"
      ],
      [
        "▁r",
        "ed"
      ],
      [
        "▁b",
        "irim"
      ],
      [
        "▁go",
        "z"
      ],
      [
        "▁y",
        "al"
      ],
      [
        "'",
        "den"
      ],
      [
        "▁kıs",
        "ıt"
      ],
      [
        "is",
        "yon"
      ],
      [
        "me",
        "den"
      ],
      [
        "▁u",
        "ret"
      ],
      [
        "lama",
        "ya"
      ],
      [
        "▁y",
        "ık"
      ],
      [
        "▁ayr",
        "ı"
      ],
      [
        "▁h",
        "as"
      ],
      [
        "▁dek",
        "or"
      ],
      [
        "s",
        "a"
      ],
      [
        "▁ayrı",
        "l"
      ],
      [
        "▁k",
        "ars"
      ],
      [
        "▁l",
        "ob"
      ],
      [
        "▁is",
        "tih"
      ],
      [
        "▁tas",
        "ar"
      ],
      [
        "▁ola",
        "cak"
      ],
      [
        "'",
        "da"
      ],
      [
        "▁rez",
        "erv"
      ],
      [
        "le",
        "g"
      ],
      [
        "k",
        "el"
      ],
      [
        "u",
        "m"
      ],
      [
        "▁muh",
        "al"
      ],
      [
        "▁b",
        "ugun"
      ],
      [
        "▁han",
        "im"
      ],
      [
        "▁sal",
        "ı"
      ],
      [
        "u",
        "ktu"
      ],
      [
        "▁oran",
        "ında"
      ],
      [
        "d",
        "er"
      ],
      [
        "▁u",
        "cu"
      ],
      [
        "▁kal",
        "it"
      ],
      [
        "▁r",
        "ek"
      ],
      [
        "▁kam",
        "u"
      ],
      [
        "▁yıl",
        "ında"
      ],
      [
        "▁ur",
        "etici"
      ],
      [
        "▁top",
        "lam"
      ],
      [
        "▁ver",
        "mek"
      ],
      [
        "▁an",
        "lama"
      ],
      [
        "▁b",
        "ede"
      ],
      [
        "da",
        "k"
      ],
      [
        "ay",
        "a"
      ],
      [
        "▁te",
        "n"
      ],
      [
        "t",
        "u"
      ],
      [
        "▁kı",
        "y"
      ],
      [
        "ı",
        "yla"
      ],
      [
        "▁el",
        "leri"
      ],
      [
        "▁ih",
        "t"
      ],
      [
        "▁",
        ":"
      ],
      [
        "▁hav",
        "a"
      ],
      [
        "▁g",
        "emi"
      ],
      [
        "n",
        "i"
      ],
      [
        "y",
        "ası"
      ],
      [
        "ka",
        "c"
      ],
      [
        "▁oldug",
        "una"
      ],
      [
        "▁de",
        "y"
      ],
      [
        "c",
        "ek"
      ],
      [
        "▁b",
        "at"
      ],
      [
        "makt",
        "a"
      ],
      [
        "en",
        "lerin"
      ],
      [
        "▁yer",
        "inden"
      ],
      [
        "▁m",
        "obil"
      ],
      [
        "▁edi",
        "yor"
      ],
      [
        "▁mes",
        "af"
      ],
      [
        "▁y",
        "ar"
      ],
      [
        "lerin",
        "e"
      ],
      [
        "▁son",
        "unda"
      ],
      [
        "▁muh",
        "end"
      ],
      [
        "b",
        "e"
      ],
      [
        "▁baz",
        "i"
      ],
      [
        "ler",
        "de"
      ],
      [
        "▁so",
        "s"
      ],
      [
        "e",
        "dir"
      ],
      [
        "▁k",
        "ah"
      ],
      [
        "▁s",
        "og"
      ],
      [
        "▁yolcul",
        "uk"
      ],
      [
        "▁ipot",
        "ek"
      ],
      [
        "▁",
        "a"
      ],
      [
        "▁k",
        "im"
      ],
      [
        "▁d",
        "ı"
      ],
      [
        "▁sa",
        "at"
      ],
      [
        "'",
        "ta"
      ],
      [
        "▁es",
        "ki"
      ],
      [
        "▁uc",
        "mak"
      ],
      [
        "▁b",
        "r"
      ],
      [
        "▁m",
        "ul"
      ],
      [
        "▁b",
        "ana"
      ],
      [
        "▁sa",
        "y"
      ],
      [
        "▁ist",
        "iyorum"
      ],
      [
        "▁pr",
        "ens"
      ],
      [
        "l",
        "ig"
      ],
      [
        "e",
        "lerin"
      ],
      [
        "▁sok",
        "ak"
      ],
      [
        "▁su",
        "b"
      ],
      [
        "▁sa",
        "tıs"
      ],
      [
        "▁tab",
        "ak"
      ],
      [
        "▁kim",
        "i"
      ],
      [
        "la",
        "y"
      ],
      [
        "▁dav",
        "et"
      ],
      [
        "▁gorun",
        "uyor"
      ],
      [
        "▁kap",
        "ı"
      ],
      [
        "▁do",
        "gr"
      ],
      [
        "▁ban",
        "k"
      ],
      [
        "▁in",
        "c"
      ],
      [
        "▁sat",
        "ın"
      ],
      [
        "▁yuz",
        "me"
      ],
      [
        "l",
        "ıg"
      ],
      [
        "imiz",
        "de"
      ],
      [
        "▁as",
        "ag"
      ],
      [
        "▁sur",
        "ec"
      ],
      [
        "k",
        "in"
      ],
      [
        "▁ar",
        "aya"
      ],
      [
        "▁e",
        "d"
      ],
      [
        "▁deg",
        "istir"
      ],
      [
        "makta",
        "dır"
      ],
      [
        "k",
        "at"
      ],
      [
        "t",
        "a"
      ],
      [
        "▁et",
        "k"
      ],
      [
        "ar",
        "ı"
      ],
      [
        "▁c",
        "ay"
      ],
      [
        "▁a",
        "l"
      ],
      [
        "id",
        "e"
      ],
      [
        "▁g",
        "en"
      ],
      [
        "▁ulas",
        "ımı"
      ],
      [
        "▁b",
        "acak"
      ],
      [
        "ec",
        "ek"
      ],
      [
        "et",
        "li"
      ],
      [
        "o",
        "p"
      ],
      [
        "▁ter",
        "s"
      ],
      [
        "▁g",
        "ru"
      ],
      [
        "▁cum",
        "a"
      ],
      [
        "▁",
        "”"
      ],
      [
        "▁ha",
        "y"
      ],
      [
        "▁sek",
        "ret"
      ],
      [
        "ıs",
        "ıyla"
      ],
      [
        "▁el",
        "inden"
      ],
      [
        "▁ver",
        "im"
      ],
      [
        "▁ko",
        "tu"
      ],
      [
        "▁ya",
        "sa"
      ],
      [
        "▁",
        "uc"
      ],
      [
        "▁il",
        "gili"
      ],
      [
        "lig",
        "inde"
      ],
      [
        "▁merkez",
        "ine"
      ],
      [
        "im",
        "iz"
      ],
      [
        "▁f",
        "as"
      ],
      [
        "▁bug",
        "une"
      ],
      [
        "▁asagı",
        "da"
      ],
      [
        "▁ail",
        "eler"
      ],
      [
        "eviz",
        "yon"
      ],
      [
        "▁cars",
        "amba"
      ],
      [
        "las",
        "yon"
      ],
      [
        "▁koy",
        "un"
      ],
      [
        "uy",
        "u"
      ],
      [
        "▁kontr",
        "ol"
      ],
      [
        "l",
        "ge"
      ],
      [
        "▁s",
        "ist"
      ],
      [
        "▁yiyecek",
        "ler"
      ],
      [
        "d",
        "ıgını"
      ],
      [
        "▁d",
        "in"
      ],
      [
        "'",
        "e"
      ],
      [
        "▁d",
        "uz"
      ],
      [
        "n",
        "un"
      ],
      [
        "di",
        "g"
      ],
      [
        "▁ver",
        "irim"
      ],
      [
        "▁sek",
        "tor"
      ],
      [
        "▁u",
        "la"
      ],
      [
        "▁bicim",
        "de"
      ],
      [
        "in",
        "i"
      ],
      [
        "g",
        "ul"
      ],
      [
        "ye",
        "t"
      ],
      [
        "▁ceyr",
        "ek"
      ],
      [
        "y",
        "uz"
      ],
      [
        "▁bir",
        "im"
      ],
      [
        "ag",
        "ının"
      ],
      [
        "▁ort",
        "asında"
      ],
      [
        "▁kor",
        "um"
      ],
      [
        "▁listel",
        "e"
      ],
      [
        "▁hiss",
        "esi"
      ],
      [
        "▁p",
        "ay"
      ],
      [
        "▁..",
        "\""
      ],
      [
        "▁mas",
        "anın"
      ],
      [
        "lan",
        "dır"
      ],
      [
        "▁guv",
        "en"
      ],
      [
        "▁tic",
        "aret"
      ],
      [
        "▁s",
        "ur"
      ],
      [
        "▁dıs",
        "ı"
      ],
      [
        "larım",
        "ız"
      ],
      [
        "m",
        "ur"
      ],
      [
        "▁bas",
        "arı"
      ],
      [
        "lar",
        "a"
      ],
      [
        "▁gu",
        "c"
      ],
      [
        "▁",
        "g"
      ],
      [
        "▁k",
        "r"
      ],
      [
        "▁",
        "ger"
      ],
      [
        "▁ar",
        "ac"
      ],
      [
        "▁o",
        "lan"
      ],
      [
        "▁gen",
        "el"
      ],
      [
        "l",
        "u"
      ],
      [
        "▁g",
        "uc"
      ],
      [
        "▁tem",
        "el"
      ],
      [
        "▁ay",
        "lık"
      ],
      [
        "▁o",
        "la"
      ],
      [
        "▁p",
        "lan"
      ],
      [
        "▁uz",
        "ak"
      ],
      [
        "▁fot",
        "ograf"
      ],
      [
        "▁yuks",
        "ek"
      ],
      [
        "▁m",
        "es"
      ],
      [
        "▁k",
        "as"
      ],
      [
        "▁p",
        "la"
      ],
      [
        "▁goster",
        "in"
      ],
      [
        "▁a",
        "kt"
      ],
      [
        "d",
        "ır"
      ],
      [
        "must",
        "u"
      ],
      [
        "▁olu",
        "r"
      ],
      [
        "▁d",
        "ayan"
      ],
      [
        "▁y",
        "ol"
      ],
      [
        "▁sa",
        "b"
      ],
      [
        "m",
        "istir"
      ],
      [
        "z",
        "et"
      ],
      [
        "▁ar",
        "k"
      ],
      [
        "▁mu",
        "am"
      ],
      [
        "▁s",
        "ak"
      ],
      [
        "asın",
        "ı"
      ],
      [
        "▁kampanyalar",
        "dan"
      ],
      [
        "▁d",
        "eger"
      ],
      [
        "▁s",
        "ag"
      ],
      [
        "▁u",
        "st"
      ],
      [
        "e",
        "p"
      ],
      [
        "▁bil",
        "g"
      ],
      [
        "art",
        "esi"
      ],
      [
        "▁yemek",
        "lerinden"
      ],
      [
        "▁bir",
        "tak"
      ],
      [
        "▁tarih",
        "inde"
      ],
      [
        "▁bur",
        "okr"
      ],
      [
        "▁ka",
        "l"
      ],
      [
        "uy",
        "a"
      ],
      [
        "▁b",
        "ek"
      ],
      [
        "▁ot",
        "om"
      ],
      [
        "la",
        "cak"
      ],
      [
        "el",
        "i"
      ],
      [
        "▁g",
        "az"
      ],
      [
        "at",
        "ik"
      ],
      [
        "eli",
        "r"
      ],
      [
        "iz",
        "li"
      ],
      [
        "▁bek",
        "le"
      ],
      [
        "▁sin",
        "em"
      ],
      [
        "▁k",
        "ent"
      ],
      [
        "▁vap",
        "ur"
      ],
      [
        "▁uzer",
        "inden"
      ],
      [
        "▁yab",
        "an"
      ],
      [
        "ac",
        "a"
      ],
      [
        "es",
        "iyle"
      ],
      [
        "▁bu",
        "rada"
      ],
      [
        "▁fik",
        "ir"
      ],
      [
        "▁do",
        "r"
      ],
      [
        "ur",
        "g"
      ],
      [
        "▁aktiv",
        "it"
      ],
      [
        "▁soy",
        "l"
      ],
      [
        "sun",
        "uz"
      ],
      [
        "em",
        "i"
      ],
      [
        "▁gu",
        "ler"
      ],
      [
        "▁a",
        "cı"
      ],
      [
        "iyor",
        "du"
      ],
      [
        "m",
        "iyorum"
      ],
      [
        "▁o",
        "dan"
      ],
      [
        "▁b",
        "asında"
      ],
      [
        "▁h",
        "ic"
      ],
      [
        "in",
        "t"
      ],
      [
        "▁an",
        "al"
      ],
      [
        "▁emek",
        "lilik"
      ],
      [
        "▁huk",
        "um"
      ],
      [
        "▁bun",
        "lar"
      ],
      [
        "▁",
        "den"
      ],
      [
        "tı",
        "s"
      ],
      [
        "▁r",
        "en"
      ],
      [
        "im",
        "en"
      ],
      [
        "▁al",
        "ıcı"
      ],
      [
        "am",
        "ası"
      ],
      [
        "▁fut",
        "bol"
      ],
      [
        "d",
        "aki"
      ],
      [
        "▁im",
        "k"
      ],
      [
        "▁am",
        "erik"
      ],
      [
        "▁k",
        "uv"
      ],
      [
        "m",
        "i"
      ],
      [
        "as",
        "ır"
      ],
      [
        "▁c",
        "eb"
      ],
      [
        "▁ar",
        "ttı"
      ],
      [
        "▁soz",
        "c"
      ],
      [
        "▁dav",
        "a"
      ],
      [
        "▁n",
        "ok"
      ],
      [
        "al",
        "ık"
      ],
      [
        "▁kal",
        "dı"
      ],
      [
        "il",
        "m"
      ],
      [
        "▁cocuk",
        "lara"
      ],
      [
        "▁",
        "da"
      ],
      [
        "▁o",
        "kul"
      ],
      [
        "▁m",
        "us"
      ],
      [
        "▁t",
        "u"
      ],
      [
        "anın",
        "dan"
      ],
      [
        "ler",
        "i"
      ],
      [
        "til",
        "er"
      ],
      [
        "alar",
        "dan"
      ],
      [
        "edi",
        "r"
      ],
      [
        "▁tes",
        "lim"
      ],
      [
        "▁gun",
        "lerde"
      ],
      [
        "▁tem",
        "in"
      ],
      [
        "▁ol",
        "maya"
      ],
      [
        "lar",
        "ın"
      ],
      [
        "▁t",
        "ic"
      ],
      [
        "▁da",
        "m"
      ],
      [
        "lıg",
        "ına"
      ],
      [
        "▁sen",
        "etleri"
      ],
      [
        "am",
        "ı"
      ],
      [
        "▁g",
        "ob"
      ],
      [
        "'de",
        "n"
      ],
      [
        "i",
        "st"
      ],
      [
        "c",
        "ev"
      ],
      [
        "▁s",
        "iy"
      ],
      [
        "▁s",
        "ut"
      ],
      [
        "▁met",
        "r"
      ],
      [
        "▁i",
        "l"
      ],
      [
        "ı",
        "stır"
      ],
      [
        "▁",
        "z"
      ],
      [
        "i",
        "de"
      ],
      [
        "▁def",
        "ter"
      ],
      [
        "▁aktar",
        "ma"
      ],
      [
        "▁s",
        "o"
      ],
      [
        "▁im",
        "al"
      ],
      [
        "▁y",
        "alan"
      ],
      [
        "▁phil",
        "adel"
      ],
      [
        "▁ic",
        "ine"
      ],
      [
        "imiz",
        "i"
      ],
      [
        "al",
        "l"
      ],
      [
        "▁son",
        "ra"
      ],
      [
        "▁s",
        "an"
      ],
      [
        "il",
        "er"
      ],
      [
        "▁nak",
        "it"
      ],
      [
        "▁ek",
        "ibi"
      ],
      [
        "▁$",
        "'dan"
      ],
      [
        "▁son",
        "u"
      ],
      [
        "is",
        "k"
      ],
      [
        "▁ark",
        "ad"
      ],
      [
        "m",
        "an"
      ],
      [
        "▁kat",
        "il"
      ],
      [
        "▁",
        "di"
      ],
      [
        "lul",
        "uk"
      ],
      [
        "eg",
        "e"
      ],
      [
        "▁toplan",
        "t"
      ],
      [
        "▁gor",
        "un"
      ],
      [
        "▁yal",
        "n"
      ],
      [
        "ap",
        "on"
      ],
      [
        "▁do",
        "st"
      ],
      [
        "▁mem",
        "ur"
      ],
      [
        "▁iy",
        "iydi"
      ],
      [
        "▁bay",
        "an"
      ],
      [
        "▁",
        "ta"
      ],
      [
        "▁ist",
        "asyon"
      ],
      [
        "▁f",
        "iyat"
      ],
      [
        "al",
        "ar"
      ],
      [
        "▁b",
        "iz"
      ],
      [
        "▁ac",
        "ık"
      ],
      [
        "▁kar",
        "ayol"
      ],
      [
        "▁e",
        "v"
      ],
      [
        "▁ka",
        "rı"
      ],
      [
        "▁bun",
        "u"
      ],
      [
        "▁du",
        "s"
      ],
      [
        "▁odam",
        "iz"
      ],
      [
        "▁a",
        "y"
      ],
      [
        "▁yat",
        "ak"
      ],
      [
        "▁degil",
        "di"
      ],
      [
        "▁",
        "j"
      ],
      [
        "hu",
        "t"
      ],
      [
        "▁m",
        "al"
      ],
      [
        "ede",
        "f"
      ],
      [
        "s",
        "e"
      ],
      [
        "▁misaf",
        "ir"
      ],
      [
        "li",
        "k"
      ],
      [
        "▁b",
        "ab"
      ],
      [
        "▁bors",
        "ası"
      ],
      [
        "▁mot",
        "or"
      ],
      [
        "les",
        "tir"
      ],
      [
        "▁m",
        "ot"
      ],
      [
        "▁neden",
        "i"
      ],
      [
        "▁u",
        "n"
      ],
      [
        "a",
        "ma"
      ],
      [
        "▁ar",
        "t"
      ],
      [
        "▁en",
        "dek"
      ],
      [
        "is",
        "inde"
      ],
      [
        "da",
        "y"
      ],
      [
        "▁yo",
        "ksa"
      ],
      [
        "▁t",
        "ok"
      ],
      [
        "5'",
        "ten"
      ],
      [
        "ra",
        "da"
      ],
      [
        "ist",
        "ler"
      ],
      [
        "▁se",
        "k"
      ],
      [
        "▁mal",
        "iyeti"
      ],
      [
        "▁sın",
        "ır"
      ],
      [
        "▁konum",
        "unu"
      ],
      [
        "▁",
        "le"
      ],
      [
        "z",
        "a"
      ],
      [
        "▁sa",
        "v"
      ],
      [
        "▁begen",
        "dim"
      ],
      [
        "▁sp",
        "or"
      ],
      [
        "lerin",
        "de"
      ],
      [
        "▁seb",
        "eb"
      ],
      [
        "▁in",
        "dir"
      ],
      [
        "▁sev",
        "iye"
      ],
      [
        "▁o",
        "n"
      ],
      [
        "o",
        "s"
      ],
      [
        "▁f",
        "ark"
      ],
      [
        "lar",
        "da"
      ],
      [
        "▁ko",
        "m"
      ],
      [
        "▁1",
        "0'dan"
      ],
      [
        "▁ken",
        "di"
      ],
      [
        "la",
        "v"
      ],
      [
        "r",
        "u"
      ],
      [
        "'n",
        "dan"
      ],
      [
        "▁fabr",
        "ik"
      ],
      [
        "an",
        "dan"
      ],
      [
        "▁kal",
        "k"
      ],
      [
        "is",
        "i"
      ],
      [
        "▁g",
        "unu"
      ],
      [
        "▁kus",
        "ur"
      ],
      [
        "▁taraf",
        "ı"
      ],
      [
        "▁yatırımcı",
        "ların"
      ],
      [
        "▁b",
        "eg"
      ],
      [
        "ra",
        "z"
      ],
      [
        "y",
        "et"
      ],
      [
        "▁ha",
        "ber"
      ],
      [
        "oy",
        "u"
      ],
      [
        "▁man",
        "z"
      ],
      [
        "▁bas",
        "k"
      ],
      [
        "ıl",
        "ması"
      ],
      [
        "▁ev",
        "et"
      ],
      [
        "▁g",
        "em"
      ],
      [
        "▁calis",
        "anlar"
      ],
      [
        "▁bah",
        "c"
      ],
      [
        "ı",
        "g"
      ],
      [
        "▁ayak",
        "k"
      ],
      [
        "▁a",
        "d"
      ],
      [
        "▁yer",
        "ine"
      ],
      [
        "i",
        "yi"
      ],
      [
        "▁biz",
        "im"
      ],
      [
        "▁hizmet",
        "inden"
      ],
      [
        "▁ted",
        "bir"
      ],
      [
        "▁send",
        "ika"
      ],
      [
        "▁deg",
        "eri"
      ],
      [
        "▁yan",
        "dan"
      ],
      [
        "ım",
        "ı"
      ],
      [
        "es",
        "inin"
      ],
      [
        "▁o",
        "ak"
      ],
      [
        "m",
        "ıyor"
      ],
      [
        "abil",
        "ecegini"
      ],
      [
        "▁personel",
        "i"
      ],
      [
        "ad",
        "em"
      ],
      [
        "ıy",
        "la"
      ],
      [
        "▁h",
        "os"
      ],
      [
        "▁sor",
        "unu"
      ],
      [
        "u",
        "k"
      ],
      [
        "▁m",
        "ar"
      ],
      [
        "▁",
        "e"
      ],
      [
        "g",
        "ıc"
      ],
      [
        "u",
        "yor"
      ],
      [
        "▁yen",
        "iden"
      ],
      [
        "▁el",
        "em"
      ],
      [
        "d",
        "am"
      ],
      [
        "i",
        "n"
      ],
      [
        "▁m",
        "ir"
      ],
      [
        "▁yap",
        "ım"
      ],
      [
        "ul",
        "mus"
      ],
      [
        "d",
        "al"
      ],
      [
        "▁on",
        "em"
      ],
      [
        "▁havayol",
        "larında"
      ],
      [
        "d",
        "ık"
      ],
      [
        "▁so",
        "n"
      ],
      [
        "g",
        "al"
      ],
      [
        "en",
        "s"
      ],
      [
        "al",
        "ı"
      ],
      [
        "▁",
        "co"
      ],
      [
        "▁bil",
        "e"
      ],
      [
        "▁b",
        "en"
      ],
      [
        "▁anlam",
        "da"
      ],
      [
        "a",
        "m"
      ],
      [
        "▁ol",
        "dugu"
      ],
      [
        "a",
        "gı"
      ],
      [
        "▁duk",
        "k"
      ],
      [
        "▁rek",
        "or"
      ],
      [
        "▁c",
        "o"
      ],
      [
        "▁dak",
        "ika"
      ],
      [
        "▁oda",
        "ya"
      ],
      [
        "t",
        "e"
      ],
      [
        "▁gi",
        "t"
      ],
      [
        "▁s",
        "el"
      ],
      [
        "▁du",
        "sun"
      ],
      [
        "ik",
        "a"
      ],
      [
        "▁cık",
        "ar"
      ],
      [
        "▁f",
        "il"
      ],
      [
        "▁tel",
        "evizyon"
      ],
      [
        "▁s",
        "im"
      ],
      [
        "▁i",
        "ht"
      ],
      [
        "▁a",
        "b"
      ],
      [
        "▁kar",
        "arı"
      ],
      [
        "▁et",
        "ti"
      ],
      [
        "e",
        "s"
      ],
      [
        "ak",
        "i"
      ],
      [
        "is",
        "t"
      ],
      [
        "▁",
        "1"
      ],
      [
        "▁pers",
        "onel"
      ],
      [
        "m",
        "esini"
      ],
      [
        "or",
        "ta"
      ],
      [
        "▁es",
        "er"
      ],
      [
        "lık",
        "tan"
      ],
      [
        "▁at",
        "lan"
      ],
      [
        "▁or",
        "t"
      ],
      [
        "iy",
        "on"
      ],
      [
        "'",
        "de"
      ],
      [
        "▁s",
        "aat"
      ],
      [
        "▁yum",
        "ur"
      ],
      [
        "▁piyas",
        "ada"
      ],
      [
        "▁ik",
        "ti"
      ],
      [
        "lam",
        "a"
      ],
      [
        "▁do",
        "lara"
      ],
      [
        "▁rad",
        "yo"
      ],
      [
        "▁orta",
        "dan"
      ],
      [
        "▁soz",
        "leri"
      ],
      [
        "▁y",
        "et"
      ],
      [
        "▁yeter",
        "sizdi"
      ],
      [
        "▁p",
        "art"
      ],
      [
        "ı",
        "da"
      ],
      [
        "▁g",
        "ore"
      ],
      [
        "l",
        "bu"
      ],
      [
        "▁",
        "lam"
      ],
      [
        "un",
        "uz"
      ],
      [
        "la",
        "stır"
      ],
      [
        "▁dur",
        "um"
      ],
      [
        "m",
        "edi"
      ],
      [
        "di",
        "gi"
      ],
      [
        "▁sık",
        "ıntı"
      ],
      [
        "▁vak",
        "t"
      ],
      [
        "e",
        "m"
      ],
      [
        "▁y",
        "oksa"
      ],
      [
        "ag",
        "ı"
      ],
      [
        "▁tah",
        "v"
      ],
      [
        "▁f",
        "en"
      ],
      [
        "k",
        "a"
      ],
      [
        "d",
        "ar"
      ],
      [
        "li",
        "t"
      ],
      [
        "▁",
        "ken"
      ],
      [
        "▁",
        "it"
      ],
      [
        "us",
        "unu"
      ],
      [
        "▁haval",
        "im"
      ],
      [
        "▁or",
        "du"
      ],
      [
        "▁",
        "er"
      ],
      [
        "g",
        "ar"
      ],
      [
        "▁ka",
        "d"
      ],
      [
        "ca",
        "k"
      ],
      [
        "▁ac",
        "ı"
      ],
      [
        "d",
        "ir"
      ],
      [
        "▁p",
        "o"
      ],
      [
        "▁zor",
        "unda"
      ],
      [
        "▁tahvil",
        "leri"
      ],
      [
        "r",
        "en"
      ],
      [
        "▁tak",
        "dir"
      ],
      [
        "▁k",
        "il"
      ],
      [
        "▁bon",
        "o"
      ],
      [
        "▁havayol",
        "larını"
      ],
      [
        "▁b",
        "uc"
      ],
      [
        "▁pr",
        "of"
      ],
      [
        "▁ya",
        "s"
      ],
      [
        "ı",
        "z"
      ],
      [
        "▁un",
        "ut"
      ],
      [
        "g",
        "re"
      ],
      [
        "▁dol",
        "arı"
      ],
      [
        "▁duz",
        "en"
      ],
      [
        "▁p",
        "an"
      ],
      [
        "▁si",
        "k"
      ],
      [
        "og",
        "raf"
      ],
      [
        "▁mem",
        "leket"
      ],
      [
        "▁m",
        "ı"
      ],
      [
        "▁mas",
        "a"
      ],
      [
        "▁her",
        "k"
      ],
      [
        "a",
        "bil"
      ],
      [
        "▁tan",
        "ı"
      ],
      [
        "▁kul",
        "tur"
      ],
      [
        "ta",
        "j"
      ],
      [
        "▁sor",
        "unun"
      ],
      [
        "▁m",
        "etr"
      ],
      [
        "enler",
        "in"
      ],
      [
        "▁faz",
        "la"
      ],
      [
        "isin",
        "dan"
      ],
      [
        "▁oc",
        "ak"
      ],
      [
        "▁sey",
        "in"
      ],
      [
        "▁if",
        "las"
      ],
      [
        "▁o",
        "l"
      ],
      [
        "suz",
        "luk"
      ],
      [
        "▁h",
        "oc"
      ],
      [
        "▁ak",
        "tar"
      ],
      [
        "ma",
        "dıgını"
      ],
      [
        "▁ala",
        "k"
      ],
      [
        "▁e",
        "g"
      ],
      [
        "▁b",
        "az"
      ],
      [
        "▁c",
        "ars"
      ],
      [
        "▁hakk",
        "ı"
      ],
      [
        "t",
        "tı"
      ],
      [
        "▁onun",
        "e"
      ],
      [
        "lıg",
        "ında"
      ],
      [
        "▁k",
        "en"
      ],
      [
        "▁s",
        "at"
      ],
      [
        "▁g",
        "it"
      ],
      [
        "▁d",
        "a"
      ],
      [
        "▁ham",
        "le"
      ],
      [
        "▁str",
        "ate"
      ],
      [
        "or",
        "e"
      ],
      [
        "▁bar",
        "dak"
      ],
      [
        "▁bulun",
        "du"
      ],
      [
        "ıc",
        "ak"
      ],
      [
        "▁g",
        "er"
      ],
      [
        "▁bol",
        "umu"
      ],
      [
        "▁beb",
        "ek"
      ],
      [
        "▁goz",
        "ler"
      ],
      [
        "▁.",
        "'"
      ],
      [
        "y",
        "a"
      ],
      [
        "▁mem",
        "nun"
      ],
      [
        "▁milyon",
        "dan"
      ],
      [
        "▁kam",
        "yon"
      ],
      [
        "uy",
        "e"
      ],
      [
        "▁et",
        "mek"
      ],
      [
        "▁tes",
        "v"
      ],
      [
        "mas",
        "ız"
      ],
      [
        "▁ka",
        "b"
      ],
      [
        "▁erk",
        "en"
      ],
      [
        "5",
        "'"
      ],
      [
        "▁bug",
        "day"
      ],
      [
        "▁tekl",
        "if"
      ],
      [
        "▁co",
        "p"
      ],
      [
        "▁uzer",
        "ine"
      ],
      [
        "e",
        "bil"
      ],
      [
        "▁ya",
        "hut"
      ],
      [
        "▁cun",
        "ku"
      ],
      [
        "▁sa",
        "g"
      ],
      [
        "▁hafta",
        "da"
      ],
      [
        "▁e",
        "ve"
      ],
      [
        "▁d",
        "ers"
      ],
      [
        "a",
        "ya"
      ],
      [
        "lerin",
        "i"
      ],
      [
        "▁i",
        "d"
      ],
      [
        "▁gidi",
        "yor"
      ],
      [
        "b",
        "i"
      ],
      [
        "▁cez",
        "a"
      ],
      [
        "▁y",
        "ıl"
      ],
      [
        "▁d",
        "ug"
      ],
      [
        "▁imkanlar",
        "i"
      ],
      [
        "m",
        "as"
      ],
      [
        "p",
        "h"
      ],
      [
        "h",
        "al"
      ],
      [
        "▁k",
        "uy"
      ],
      [
        "▁sor",
        "ustur"
      ],
      [
        "▁soyl",
        "uyor"
      ],
      [
        "▁so",
        "l"
      ],
      [
        "eceg",
        "im"
      ],
      [
        "▁sah",
        "ip"
      ],
      [
        "ar",
        "a"
      ],
      [
        "am",
        "et"
      ],
      [
        "▁ol",
        "sa"
      ],
      [
        "dı",
        "g"
      ],
      [
        "▁ziy",
        "aret"
      ],
      [
        "▁say",
        "g"
      ],
      [
        "▁far",
        "k"
      ],
      [
        "'",
        "n"
      ],
      [
        "ın",
        "daki"
      ],
      [
        "▁v",
        "eri"
      ],
      [
        "▁al",
        "ım"
      ],
      [
        "▁prof",
        "es"
      ],
      [
        "ec",
        "egi"
      ],
      [
        "▁",
        "'"
      ],
      [
        "▁r",
        "ad"
      ],
      [
        "d",
        "ı"
      ],
      [
        "h",
        "angi"
      ],
      [
        "g",
        "el"
      ],
      [
        "bil",
        "ir"
      ],
      [
        "▁m",
        "in"
      ],
      [
        "▁orne",
        "gin"
      ],
      [
        "▁m",
        "uz"
      ],
      [
        "▁kims",
        "e"
      ],
      [
        "g",
        "ı"
      ],
      [
        "on",
        "un"
      ],
      [
        "▁gun",
        "luk"
      ],
      [
        "▁anlam",
        "ına"
      ],
      [
        "an",
        "ti"
      ],
      [
        "▁k",
        "os"
      ],
      [
        "▁baskan",
        "ı"
      ],
      [
        "▁goster",
        "di"
      ],
      [
        "▁sade",
        "ce"
      ],
      [
        "ust",
        "os"
      ],
      [
        "▁r",
        "isk"
      ],
      [
        "▁ef",
        "endi"
      ],
      [
        "▁o",
        "nun"
      ],
      [
        "▁t",
        "ip"
      ],
      [
        "ist",
        "en"
      ],
      [
        "▁beklen",
        "t"
      ],
      [
        "ıyor",
        "lar"
      ],
      [
        "▁gi",
        "y"
      ],
      [
        "▁yur",
        "t"
      ],
      [
        "ug",
        "una"
      ],
      [
        "ıs",
        "ız"
      ],
      [
        "ag",
        "ını"
      ],
      [
        "▁kalit",
        "eye"
      ],
      [
        "▁ul",
        "k"
      ],
      [
        "ab",
        "ı"
      ],
      [
        "▁merdiv",
        "en"
      ],
      [
        "▁ne",
        "ler"
      ],
      [
        "▁lez",
        "zet"
      ],
      [
        "j",
        "i"
      ],
      [
        "▁a",
        "v"
      ],
      [
        "▁tek",
        "n"
      ],
      [
        "ıl",
        "dı"
      ],
      [
        "▁anal",
        "ist"
      ],
      [
        "dıg",
        "ı"
      ],
      [
        "▁se",
        "ye"
      ],
      [
        "▁oy",
        "n"
      ],
      [
        "ay",
        "la"
      ],
      [
        "▁ola",
        "rak"
      ],
      [
        "er",
        "lik"
      ],
      [
        "ın",
        "c"
      ],
      [
        "id",
        "i"
      ],
      [
        "▁i",
        "b"
      ],
      [
        "▁polit",
        "ika"
      ],
      [
        "▁kal",
        "dim"
      ],
      [
        "du",
        "gu"
      ],
      [
        "▁an",
        "cak"
      ],
      [
        "▁si",
        "ir"
      ],
      [
        "ama",
        "sı"
      ],
      [
        "▁y",
        "a"
      ],
      [
        "▁par",
        "an"
      ],
      [
        "▁ne",
        "f"
      ],
      [
        "l",
        "av"
      ],
      [
        "▁",
        "&"
      ],
      [
        "▁ilgilendi",
        "ler"
      ],
      [
        "▁in",
        "ter"
      ],
      [
        "▁gun",
        "duz"
      ],
      [
        "▁ogr",
        "en"
      ],
      [
        "du",
        "r"
      ],
      [
        "▁fir",
        "ması"
      ],
      [
        "as",
        "ı"
      ],
      [
        "▁al",
        "ır"
      ],
      [
        "▁kayı",
        "p"
      ],
      [
        "▁pit",
        "ts"
      ],
      [
        "▁iki",
        "si"
      ],
      [
        "▁y",
        "ok"
      ],
      [
        "▁idar",
        "e"
      ],
      [
        "▁e",
        "di"
      ],
      [
        "▁cam",
        "asır"
      ],
      [
        "▁an",
        "las"
      ],
      [
        "ek",
        "tr"
      ],
      [
        "el",
        "ig"
      ],
      [
        "▁bi",
        "z"
      ],
      [
        "▁r",
        "ef"
      ],
      [
        "▁ol",
        "dug"
      ],
      [
        "▁se",
        "y"
      ],
      [
        "▁l",
        "am"
      ],
      [
        "▁kur",
        "um"
      ],
      [
        "▁n",
        "um"
      ],
      [
        "▁is",
        "te"
      ],
      [
        "asın",
        "a"
      ],
      [
        "g",
        "esi"
      ],
      [
        "▁has",
        "ta"
      ],
      [
        "t",
        "ay"
      ],
      [
        "▁yıld",
        "ız"
      ],
      [
        "▁piy",
        "an"
      ],
      [
        "ey",
        "in"
      ],
      [
        "▁n",
        "eler"
      ],
      [
        "▁g",
        "ul"
      ],
      [
        "▁goz",
        "u"
      ],
      [
        "▁konu",
        "da"
      ],
      [
        "▁bu",
        "gun"
      ],
      [
        "▁sen",
        "edi"
      ],
      [
        "▁h",
        "av"
      ],
      [
        "g",
        "in"
      ],
      [
        "e",
        "lik"
      ],
      [
        "▁her",
        "if"
      ],
      [
        "▁yap",
        "ti"
      ],
      [
        "▁yan",
        "l"
      ],
      [
        "l",
        "um"
      ],
      [
        "▁sabah",
        "ı"
      ],
      [
        "▁huz",
        "ur"
      ],
      [
        "▁devr",
        "alma"
      ],
      [
        "▁du",
        "n"
      ],
      [
        "▁re",
        "j"
      ],
      [
        "c",
        "isi"
      ],
      [
        "▁ho",
        "ca"
      ],
      [
        "ib",
        "i"
      ],
      [
        "▁har",
        "c"
      ],
      [
        "▁s",
        "ek"
      ],
      [
        "▁",
        "st"
      ],
      [
        "▁ag",
        "z"
      ],
      [
        "m",
        "ız"
      ],
      [
        "▁etti",
        "gini"
      ],
      [
        "▁il",
        "g"
      ],
      [
        "▁otel",
        "den"
      ],
      [
        "a",
        "dı"
      ],
      [
        "▁gel",
        "mis"
      ],
      [
        "l",
        "ey"
      ],
      [
        "▁",
        "de"
      ],
      [
        "▁al",
        "dı"
      ],
      [
        "m",
        "ini"
      ],
      [
        "al",
        "iydi"
      ],
      [
        "▁hal",
        "bu"
      ],
      [
        "▁ka",
        "dar"
      ],
      [
        "u",
        "y"
      ],
      [
        "▁hukum",
        "et"
      ],
      [
        "▁ka",
        "v"
      ],
      [
        "▁k",
        "ıs"
      ],
      [
        "▁ol",
        "duk"
      ],
      [
        "▁grub",
        "u"
      ],
      [
        "▁",
        "dı"
      ],
      [
        "▁yard",
        "ım"
      ],
      [
        "▁z",
        "ev"
      ],
      [
        "o",
        "n"
      ],
      [
        "▁olanak",
        "lari"
      ],
      [
        "ası",
        "l"
      ],
      [
        "▁g",
        "on"
      ],
      [
        "▁u",
        "r"
      ],
      [
        "uk",
        "lu"
      ],
      [
        "▁bir",
        "az"
      ],
      [
        "al",
        "et"
      ],
      [
        "▁buy",
        "ume"
      ],
      [
        "lık",
        "lar"
      ],
      [
        "▁",
        "es"
      ],
      [
        "'",
        "t"
      ],
      [
        "▁yen",
        "i"
      ],
      [
        "▁islem",
        "lerinde"
      ],
      [
        "am",
        "a"
      ],
      [
        "ma",
        "ya"
      ],
      [
        "ır",
        "ak"
      ],
      [
        "▁dah",
        "i"
      ],
      [
        "b",
        "ol"
      ],
      [
        "ah",
        "at"
      ],
      [
        "▁c",
        "ent"
      ],
      [
        "el",
        "likle"
      ],
      [
        "▁r",
        "ap"
      ],
      [
        "▁sir",
        "ket"
      ],
      [
        "▁sirket",
        "in"
      ],
      [
        "▁l",
        "ir"
      ],
      [
        "▁",
        "5'ten"
      ],
      [
        "▁uc",
        "ak"
      ],
      [
        "tı",
        "l"
      ],
      [
        "▁h",
        "ey"
      ],
      [
        "▁da",
        "l"
      ],
      [
        "▁in",
        "s"
      ],
      [
        "▁gey",
        "ik"
      ],
      [
        "▁mul",
        "k"
      ],
      [
        "▁ba",
        "b"
      ],
      [
        "▁du",
        "stu"
      ],
      [
        "▁o",
        "r"
      ],
      [
        "▁ihr",
        "ac"
      ],
      [
        "▁p",
        "r"
      ],
      [
        "▁t",
        "um"
      ],
      [
        "▁ta",
        "n"
      ],
      [
        "▁y",
        "ork"
      ],
      [
        "▁bekl",
        "iyor"
      ],
      [
        "▁l",
        "is"
      ],
      [
        "▁s",
        "ik"
      ],
      [
        "▁gorus",
        "me"
      ],
      [
        "b",
        "ah"
      ],
      [
        "iz",
        "i"
      ],
      [
        "▁p",
        "as"
      ],
      [
        "'",
        "un"
      ],
      [
        "ar",
        "da"
      ],
      [
        "▁m",
        "erk"
      ],
      [
        "▁he",
        "r"
      ],
      [
        "▁bolg",
        "e"
      ],
      [
        "▁h",
        "izm"
      ],
      [
        "▁yap",
        "ar"
      ],
      [
        "▁u",
        "c"
      ],
      [
        "▁i",
        "leri"
      ],
      [
        "▁ban",
        "a"
      ],
      [
        "▁paz",
        "ar"
      ],
      [
        "▁ak",
        "l"
      ],
      [
        "▁bab",
        "am"
      ],
      [
        "▁kay",
        "n"
      ],
      [
        "y",
        "di"
      ],
      [
        "eg",
        "inde"
      ],
      [
        "ıl",
        "ık"
      ],
      [
        "▁yay",
        "ın"
      ],
      [
        "▁deg",
        "il"
      ],
      [
        "▁ic",
        "inde"
      ],
      [
        "▁s",
        "uya"
      ],
      [
        "an",
        "ı"
      ],
      [
        "▁cars",
        "af"
      ],
      [
        "▁ha",
        "li"
      ],
      [
        "▁ki",
        "l"
      ],
      [
        "em",
        "iz"
      ],
      [
        "mak",
        "tan"
      ],
      [
        "▁fa",
        "iz"
      ],
      [
        "▁d",
        "om"
      ],
      [
        "lar",
        "ında"
      ],
      [
        "▁telef",
        "on"
      ],
      [
        "▁g",
        "oz"
      ],
      [
        "▁o",
        "d"
      ],
      [
        "lan",
        "ır"
      ],
      [
        "▁es",
        "k"
      ],
      [
        "▁yuz",
        "unu"
      ],
      [
        "▁k",
        "or"
      ],
      [
        "▁sen",
        "d"
      ],
      [
        "▁kal",
        "madim"
      ],
      [
        "▁tek",
        "rar"
      ],
      [
        "▁k",
        "em"
      ],
      [
        "▁kar",
        "t"
      ],
      [
        "▁s",
        "iz"
      ],
      [
        "▁o",
        "c"
      ],
      [
        "▁oy",
        "un"
      ],
      [
        "▁",
        "us"
      ],
      [
        "▁sayı",
        "da"
      ],
      [
        "▁di",
        "p"
      ],
      [
        "▁so",
        "r"
      ],
      [
        "▁un",
        "ivers"
      ],
      [
        "▁kısı",
        "t"
      ],
      [
        "▁m",
        "et"
      ],
      [
        "▁kaf",
        "a"
      ],
      [
        "▁ac",
        "ısından"
      ],
      [
        "di",
        "k"
      ],
      [
        "▁ayn",
        "ı"
      ],
      [
        "eg",
        "i"
      ],
      [
        "▁alt",
        "ına"
      ],
      [
        "▁or",
        "man"
      ],
      [
        "er",
        "k"
      ],
      [
        "▁a",
        "g"
      ],
      [
        "▁ic",
        "i"
      ],
      [
        "▁b",
        "eye"
      ],
      [
        "▁havaal",
        "anından"
      ],
      [
        "▁hak",
        "k"
      ],
      [
        "▁tah",
        "ta"
      ],
      [
        "a",
        "k"
      ],
      [
        "▁s",
        "ab"
      ],
      [
        "c",
        "ul"
      ],
      [
        "▁t",
        "ec"
      ],
      [
        "▁he",
        "le"
      ],
      [
        "▁havayol",
        "u"
      ],
      [
        "▁al",
        "k"
      ],
      [
        "▁kası",
        "gı"
      ],
      [
        "▁ne",
        "dir"
      ],
      [
        "▁cor",
        "ba"
      ],
      [
        "eceg",
        "ini"
      ],
      [
        "▁",
        "6"
      ],
      [
        "am",
        "ın"
      ],
      [
        "▁kar",
        "des"
      ],
      [
        "▁bors",
        "a"
      ],
      [
        "y",
        "le"
      ],
      [
        "▁sev",
        "gi"
      ],
      [
        "▁",
        "k"
      ],
      [
        "▁onun",
        "de"
      ],
      [
        "▁kar",
        "sı"
      ],
      [
        "▁yemek",
        "leri"
      ],
      [
        "▁but",
        "ce"
      ],
      [
        "▁bel",
        "ir"
      ],
      [
        "▁rezerv",
        "asyon"
      ],
      [
        "s",
        "i"
      ],
      [
        "▁l",
        "id"
      ],
      [
        "▁sin",
        "ir"
      ],
      [
        "▁san",
        "at"
      ],
      [
        "▁kos",
        "ul"
      ],
      [
        "▁hes",
        "ap"
      ],
      [
        "de",
        "n"
      ],
      [
        "▁u",
        "f"
      ],
      [
        "▁b",
        "it"
      ],
      [
        "▁ko",
        "l"
      ],
      [
        "▁c",
        "ıg"
      ],
      [
        "i",
        "c"
      ],
      [
        "▁ba",
        "ska"
      ],
      [
        "▁b",
        "er"
      ],
      [
        "▁fir",
        "st"
      ],
      [
        "▁derec",
        "ede"
      ],
      [
        "asın",
        "da"
      ],
      [
        "er",
        "al"
      ],
      [
        "▁b",
        "eydi"
      ],
      [
        "▁gu",
        "m"
      ],
      [
        "▁k",
        "av"
      ],
      [
        "ım",
        "a"
      ],
      [
        "▁otel",
        "e"
      ],
      [
        "ed",
        "ik"
      ],
      [
        "▁o",
        "rne"
      ],
      [
        "et",
        "im"
      ],
      [
        "ind",
        "e"
      ],
      [
        "▁ay",
        "ak"
      ],
      [
        "ma",
        "m"
      ],
      [
        "'n",
        "in"
      ],
      [
        "▁kah",
        "kah"
      ],
      [
        "▁gayrimen",
        "kul"
      ],
      [
        "t",
        "ur"
      ],
      [
        "▁d",
        "e"
      ],
      [
        "▁anlas",
        "ma"
      ],
      [
        "▁an",
        "a"
      ],
      [
        "▁deger",
        "lendir"
      ],
      [
        "mes",
        "ini"
      ],
      [
        "▁yap",
        "ı"
      ],
      [
        "▁ces",
        "it"
      ],
      [
        "▁",
        "am"
      ],
      [
        "▁tar",
        "ih"
      ],
      [
        "ay",
        "i"
      ],
      [
        "el",
        "en"
      ],
      [
        "y",
        "e"
      ],
      [
        "▁",
        "bi"
      ],
      [
        "▁gor",
        "ev"
      ],
      [
        "la",
        "ması"
      ],
      [
        "▁yer",
        "inde"
      ],
      [
        "▁ruz",
        "gar"
      ],
      [
        "l",
        "ilik"
      ],
      [
        "▁dost",
        "u"
      ],
      [
        "▁ev",
        "e"
      ],
      [
        "▁misafir",
        "imiz"
      ],
      [
        "▁t",
        "ay"
      ],
      [
        "▁hoc",
        "a"
      ],
      [
        "man",
        "ın"
      ],
      [
        "▁yuk",
        "s"
      ],
      [
        "▁hukumet",
        "in"
      ],
      [
        "d",
        "et"
      ],
      [
        "▁hiss",
        "e"
      ],
      [
        "▁a",
        "da"
      ],
      [
        "i",
        "ydi"
      ],
      [
        "▁v",
        "ade"
      ],
      [
        "ecek",
        "ler"
      ],
      [
        "▁paz",
        "artesi"
      ],
      [
        "den",
        "in"
      ],
      [
        "ek",
        "et"
      ],
      [
        "▁cog",
        "u"
      ],
      [
        "i",
        "ler"
      ],
      [
        "▁duz",
        "ey"
      ],
      [
        "▁",
        "*"
      ],
      [
        "▁!",
        ".."
      ],
      [
        "▁r",
        "es"
      ],
      [
        "▁c",
        "h"
      ],
      [
        "▁herh",
        "angi"
      ],
      [
        "▁s",
        "en"
      ],
      [
        "▁yuk",
        "sel"
      ],
      [
        "gun",
        "u"
      ],
      [
        "▁ek",
        "ip"
      ],
      [
        "m",
        "en"
      ],
      [
        "s",
        "t"
      ],
      [
        "▁bak",
        "ım"
      ],
      [
        "▁i",
        "ki"
      ],
      [
        "▁haz",
        "ır"
      ],
      [
        "▁bic",
        "im"
      ],
      [
        "i",
        "f"
      ],
      [
        "ra",
        "n"
      ],
      [
        "iy",
        "at"
      ],
      [
        "▁on",
        "unde"
      ],
      [
        "▁s",
        "ev"
      ],
      [
        "▁oyun",
        "cu"
      ],
      [
        "▁mak",
        "in"
      ],
      [
        "▁a",
        "z"
      ],
      [
        "▁o",
        "lu"
      ],
      [
        "▁olu",
        "m"
      ],
      [
        "▁piy",
        "as"
      ],
      [
        "▁bab",
        "ası"
      ],
      [
        "▁er",
        "k"
      ],
      [
        "um",
        "u"
      ],
      [
        "▁g",
        "al"
      ],
      [
        "▁",
        "?"
      ],
      [
        "c",
        "ının"
      ],
      [
        "▁oldu",
        "k"
      ],
      [
        "▁k",
        "ey"
      ],
      [
        "▁lir",
        "a"
      ],
      [
        "▁soh",
        "bet"
      ],
      [
        "▁b",
        "ıy"
      ],
      [
        "an",
        "d"
      ],
      [
        "st",
        "u"
      ],
      [
        "▁soyl",
        "e"
      ],
      [
        "▁tar",
        "if"
      ],
      [
        "t",
        "i"
      ],
      [
        "▁se",
        "v"
      ],
      [
        "ag",
        "a"
      ],
      [
        "▁deniz",
        "e"
      ],
      [
        "▁c",
        "iz"
      ],
      [
        "han",
        "e"
      ],
      [
        "as",
        "et"
      ],
      [
        "et",
        "in"
      ],
      [
        "dıgın",
        "da"
      ],
      [
        "▁seh",
        "r"
      ],
      [
        "at",
        "ır"
      ],
      [
        "ım",
        "ın"
      ],
      [
        "▁yon",
        "et"
      ],
      [
        "▁uc",
        "aga"
      ],
      [
        "▁d",
        "er"
      ],
      [
        "e",
        "l"
      ],
      [
        "▁yıl",
        "ın"
      ],
      [
        "▁der",
        "ec"
      ],
      [
        "▁",
        "ir"
      ],
      [
        "▁kom",
        "isyon"
      ],
      [
        "'d",
        "a"
      ],
      [
        "▁tem",
        "muz"
      ],
      [
        "▁p",
        "h"
      ],
      [
        "▁is",
        "im"
      ],
      [
        "▁a",
        "j"
      ],
      [
        "s",
        "izdi"
      ],
      [
        "▁n",
        "edir"
      ],
      [
        "▁m",
        "a"
      ],
      [
        "▁",
        "is"
      ],
      [
        "▁den",
        "gesi"
      ],
      [
        "▁z",
        "or"
      ],
      [
        "▁s",
        "uc"
      ],
      [
        "et",
        "r"
      ],
      [
        "ın",
        "lık"
      ],
      [
        "▁alan",
        "da"
      ],
      [
        "ed",
        "iye"
      ],
      [
        "▁de",
        "tay"
      ],
      [
        "▁ver",
        "iyor"
      ],
      [
        "▁uret",
        "imi"
      ],
      [
        "▁",
        "t"
      ],
      [
        "lık",
        "ları"
      ],
      [
        "▁b",
        "ul"
      ],
      [
        "tı",
        "r"
      ],
      [
        "▁da",
        "r"
      ],
      [
        "d",
        "u"
      ],
      [
        "end",
        "e"
      ],
      [
        "▁i",
        "g"
      ],
      [
        "▁g",
        "eldi"
      ],
      [
        "t",
        "o"
      ],
      [
        "▁kul",
        "ub"
      ],
      [
        "▁bask",
        "ı"
      ],
      [
        "iz",
        "asyon"
      ],
      [
        "u",
        "v"
      ],
      [
        "▁kars",
        "ı"
      ],
      [
        "▁tuk",
        "etici"
      ],
      [
        "i",
        "si"
      ],
      [
        "▁ogren",
        "mek"
      ],
      [
        "▁to",
        "p"
      ],
      [
        "▁cal",
        "ı"
      ],
      [
        "▁g",
        "ar"
      ],
      [
        "▁ya",
        "l"
      ],
      [
        "▁bur",
        "ada"
      ],
      [
        "▁han",
        "ım"
      ],
      [
        "▁sist",
        "emi"
      ],
      [
        "▁g",
        "ir"
      ],
      [
        "▁il",
        "er"
      ],
      [
        "i",
        "h"
      ],
      [
        "▁art",
        "ıs"
      ],
      [
        "▁gayr",
        "imen"
      ],
      [
        "ta",
        "k"
      ],
      [
        "▁top",
        "u"
      ],
      [
        "▁",
        "du"
      ],
      [
        "ad",
        "ar"
      ],
      [
        "m",
        "az"
      ],
      [
        "▁ken",
        "ar"
      ],
      [
        "lar",
        "i"
      ],
      [
        "▁c",
        "il"
      ],
      [
        "▁b",
        "ır"
      ],
      [
        "▁il",
        "gi"
      ],
      [
        "▁konus",
        "unda"
      ],
      [
        "▁ol",
        "ustur"
      ],
      [
        "▁ola",
        "n"
      ],
      [
        "must",
        "ur"
      ],
      [
        "▁n",
        "ak"
      ],
      [
        "▁ed",
        "en"
      ],
      [
        "▁gru",
        "b"
      ],
      [
        "▁ka",
        "z"
      ],
      [
        "un",
        "den"
      ],
      [
        "▁hey",
        "ec"
      ],
      [
        "as",
        "ındaki"
      ],
      [
        "lıg",
        "ını"
      ],
      [
        "▁ver",
        "gi"
      ],
      [
        "▁saat",
        "lerinde"
      ],
      [
        "a",
        "cı"
      ],
      [
        "▁mu",
        "da"
      ],
      [
        "at",
        "es"
      ],
      [
        "▁kah",
        "ve"
      ],
      [
        "▁ne",
        "w"
      ],
      [
        "▁b",
        "ekl"
      ],
      [
        "▁b",
        "on"
      ],
      [
        "▁k",
        "ap"
      ],
      [
        "▁icecek",
        "ler"
      ],
      [
        "ag",
        "ın"
      ],
      [
        "l",
        "ak"
      ],
      [
        "▁olan",
        "ak"
      ],
      [
        "▁b",
        "asına"
      ],
      [
        "▁bar",
        "ıs"
      ],
      [
        "▁?",
        ".."
      ],
      [
        "▁h",
        "iss"
      ],
      [
        "▁ken",
        "t"
      ],
      [
        "▁p",
        "ort"
      ],
      [
        "▁uzer",
        "inde"
      ],
      [
        "▁de",
        "st"
      ],
      [
        "▁ek",
        "s"
      ],
      [
        "▁bu",
        "y"
      ],
      [
        "▁kay",
        "ıp"
      ],
      [
        "▁ins",
        "an"
      ],
      [
        "m",
        "esine"
      ],
      [
        "d",
        "a"
      ],
      [
        "▁taraf",
        "ından"
      ],
      [
        "▁gel",
        "istir"
      ],
      [
        "t",
        "un"
      ],
      [
        "▁ic",
        "eri"
      ],
      [
        "▁c",
        "en"
      ],
      [
        "ım",
        "da"
      ],
      [
        "es",
        "tir"
      ],
      [
        "▁di",
        "s"
      ],
      [
        "▁h",
        "ur"
      ],
      [
        "▁tes",
        "isi"
      ],
      [
        "g",
        "a"
      ],
      [
        "▁",
        "id"
      ],
      [
        "▁y",
        "um"
      ],
      [
        "▁oldu",
        "g"
      ],
      [
        "▁de",
        "de"
      ],
      [
        "▁sah",
        "n"
      ],
      [
        "▁z",
        "inc"
      ],
      [
        "▁yon",
        "elik"
      ],
      [
        "▁an",
        "da"
      ],
      [
        "▁t",
        "amam"
      ],
      [
        "00",
        "0"
      ],
      [
        "▁",
        "ma"
      ],
      [
        "▁barda",
        "gı"
      ],
      [
        "▁olur",
        "sa"
      ],
      [
        "▁icer",
        "isinde"
      ],
      [
        "▁ko",
        "y"
      ],
      [
        "▁sey",
        "den"
      ],
      [
        "▁kars",
        "ısında"
      ],
      [
        "▁du",
        "r"
      ],
      [
        "▁p",
        "il"
      ],
      [
        "▁meydan",
        "a"
      ],
      [
        "ab",
        "a"
      ],
      [
        "▁kullan",
        "madim"
      ],
      [
        "▁gec",
        "ti"
      ],
      [
        "▁tu",
        "r"
      ],
      [
        "▁uc",
        "uz"
      ],
      [
        "▁y",
        "anı"
      ],
      [
        "ası",
        "yla"
      ],
      [
        "▁gar",
        "s"
      ],
      [
        "▁h",
        "ak"
      ],
      [
        "d",
        "ug"
      ],
      [
        "ların",
        "dan"
      ],
      [
        "▁d",
        "anıs"
      ],
      [
        "uc",
        "c"
      ],
      [
        "▁",
        "ol"
      ],
      [
        "a",
        "bilir"
      ],
      [
        "▁k",
        "ul"
      ],
      [
        "▁sa",
        "de"
      ],
      [
        "▁tar",
        "tıs"
      ],
      [
        "▁t",
        "ur"
      ],
      [
        "▁b",
        "es"
      ],
      [
        "▁d",
        "ay"
      ],
      [
        "es",
        "ine"
      ],
      [
        "an",
        "lar"
      ],
      [
        "▁ag",
        "ustos"
      ],
      [
        "▁ger",
        "ek"
      ],
      [
        "▁i",
        "z"
      ],
      [
        "l",
        "ıc"
      ],
      [
        "▁ay",
        "rı"
      ],
      [
        "▁g",
        "id"
      ],
      [
        "▁dusun",
        "c"
      ],
      [
        "▁sir",
        "k"
      ],
      [
        "▁cev",
        "r"
      ],
      [
        "▁b",
        "oz"
      ],
      [
        "▁es",
        "y"
      ],
      [
        "o",
        "r"
      ],
      [
        "▁z",
        "ey"
      ],
      [
        "lig",
        "e"
      ],
      [
        "▁soy",
        "le"
      ],
      [
        "as",
        "a"
      ],
      [
        "▁am",
        "ac"
      ],
      [
        "er",
        "in"
      ],
      [
        "ad",
        "el"
      ],
      [
        "ad",
        "ı"
      ],
      [
        "la",
        "dı"
      ],
      [
        "▁ay",
        "ı"
      ],
      [
        "or",
        "t"
      ],
      [
        "▁b",
        "ask"
      ],
      [
        "▁anla",
        "t"
      ],
      [
        "▁ba",
        "g"
      ],
      [
        "▁cesit",
        "leri"
      ],
      [
        "▁id",
        "ar"
      ],
      [
        "▁ya",
        "rı"
      ],
      [
        "▁elb",
        "ise"
      ],
      [
        "i",
        "dir"
      ],
      [
        "ma",
        "dik"
      ],
      [
        "▁ha",
        "st"
      ],
      [
        "d",
        "ing"
      ],
      [
        "▁denver",
        "'e"
      ],
      [
        "▁ko",
        "ku"
      ],
      [
        "medi",
        "m"
      ],
      [
        "a",
        "y"
      ],
      [
        "▁alıs",
        "ver"
      ],
      [
        "▁philadel",
        "phia"
      ],
      [
        "▁yetkili",
        "leri"
      ],
      [
        "os",
        "u"
      ],
      [
        "▁tat",
        "il"
      ],
      [
        "m",
        "asından"
      ],
      [
        "lık",
        "ta"
      ],
      [
        "▁devlet",
        "in"
      ],
      [
        "en",
        "in"
      ],
      [
        "▁d",
        "uk"
      ],
      [
        "en",
        "uz"
      ],
      [
        "us",
        "t"
      ],
      [
        "▁k",
        "on"
      ],
      [
        "h",
        "u"
      ],
      [
        "▁ist",
        "iyor"
      ],
      [
        "l",
        "an"
      ],
      [
        "▁ort",
        "adan"
      ],
      [
        "▁olac",
        "agını"
      ],
      [
        "▁olma",
        "dıgını"
      ],
      [
        "a",
        "lı"
      ],
      [
        "▁tekn",
        "oloj"
      ],
      [
        "gı",
        "t"
      ],
      [
        "▁im",
        "z"
      ],
      [
        "▁kıs",
        "a"
      ],
      [
        "iv",
        "ers"
      ],
      [
        "o",
        "d"
      ],
      [
        "▁et",
        "ki"
      ],
      [
        "▁tal",
        "ep"
      ],
      [
        "ag",
        "ından"
      ],
      [
        "uy",
        "du"
      ],
      [
        "▁buy",
        "uk"
      ],
      [
        "d",
        "ırım"
      ],
      [
        "▁il",
        "gil"
      ],
      [
        "▁sonr",
        "asında"
      ],
      [
        "i",
        "ka"
      ],
      [
        "▁ıs",
        "ık"
      ],
      [
        "▁ben",
        "im"
      ],
      [
        "o",
        "c"
      ],
      [
        "▁elb",
        "is"
      ],
      [
        "▁eg",
        "it"
      ],
      [
        "▁son",
        "ucu"
      ],
      [
        "▁b",
        "oy"
      ],
      [
        "▁t",
        "edav"
      ],
      [
        "▁ort",
        "am"
      ],
      [
        "▁otel",
        "de"
      ],
      [
        "▁p",
        "os"
      ],
      [
        "▁sev",
        "k"
      ],
      [
        "▁ort",
        "al"
      ],
      [
        "iyor",
        "um"
      ],
      [
        "▁sek",
        "il"
      ],
      [
        "▁yal",
        "nız"
      ],
      [
        "▁gel",
        "is"
      ],
      [
        "▁h",
        "o"
      ],
      [
        "▁",
        "kac"
      ],
      [
        "w",
        "a"
      ],
      [
        "▁ener",
        "ji"
      ],
      [
        "ıs",
        "ına"
      ],
      [
        "o",
        "ksa"
      ],
      [
        "al",
        "le"
      ],
      [
        "▁gec",
        "ir"
      ],
      [
        "▁s",
        "em"
      ],
      [
        "ı",
        "cılar"
      ],
      [
        "▁dem",
        "okr"
      ],
      [
        "t",
        "eri"
      ],
      [
        "▁de",
        "n"
      ],
      [
        "▁e",
        "k"
      ],
      [
        "▁sar",
        "k"
      ],
      [
        "m",
        "em"
      ],
      [
        "▁g",
        "uz"
      ],
      [
        "▁y",
        "ay"
      ],
      [
        "▁h",
        "an"
      ],
      [
        "▁haf",
        "ta"
      ],
      [
        "▁basbak",
        "an"
      ],
      [
        "▁yard",
        "imci"
      ],
      [
        "▁yon",
        "etici"
      ],
      [
        "▁dok",
        "tor"
      ],
      [
        "y",
        "dı"
      ],
      [
        "ı",
        "t"
      ],
      [
        "b",
        "il"
      ],
      [
        "▁bo",
        "y"
      ],
      [
        "u",
        "g"
      ],
      [
        "0'",
        "dan"
      ],
      [
        "▁bi",
        "n"
      ],
      [
        "▁t",
        "ut"
      ],
      [
        "▁dıs",
        "arı"
      ],
      [
        "ımız",
        "ı"
      ],
      [
        "men",
        "in"
      ],
      [
        "▁bir",
        "lik"
      ],
      [
        "▁tiyatr",
        "o"
      ],
      [
        "h",
        "a"
      ],
      [
        "en",
        "d"
      ],
      [
        "▁ins",
        "aat"
      ],
      [
        "▁dev",
        "let"
      ],
      [
        "▁p",
        "az"
      ],
      [
        "o",
        "b"
      ],
      [
        "▁cumhur",
        "b"
      ],
      [
        "▁t",
        "o"
      ],
      [
        "▁prob",
        "lem"
      ],
      [
        "▁sa",
        "k"
      ],
      [
        "▁get",
        "iri"
      ],
      [
        "▁sev",
        "iy"
      ],
      [
        "▁f",
        "ak"
      ],
      [
        "▁kaz",
        "anc"
      ],
      [
        "▁t",
        "an"
      ],
      [
        "▁dolay",
        "i"
      ],
      [
        "▁ki",
        "si"
      ],
      [
        "ar",
        "dı"
      ],
      [
        "ı",
        "sı"
      ],
      [
        "▁ya",
        "y"
      ],
      [
        "▁var",
        "an"
      ],
      [
        "v",
        "an"
      ],
      [
        "ecegi",
        "m"
      ],
      [
        "▁ag",
        "ac"
      ],
      [
        "▁fir",
        "ma"
      ],
      [
        "▁ba",
        "z"
      ],
      [
        "ed",
        "igim"
      ],
      [
        "la",
        "k"
      ],
      [
        "▁kel",
        "ime"
      ],
      [
        "▁is",
        "ini"
      ],
      [
        "r",
        "ak"
      ],
      [
        "et",
        "leri"
      ],
      [
        "▁sey",
        "e"
      ],
      [
        "l",
        "ıyor"
      ],
      [
        "▁listel",
        "eyin"
      ],
      [
        "dı",
        "k"
      ],
      [
        "erli",
        "k"
      ],
      [
        "e",
        "d"
      ],
      [
        "▁l",
        "u"
      ],
      [
        "▁in",
        "an"
      ],
[...]
