{
  "version": "1.0",
  "truncation": null,
  "padding": null,
  "added_tokens": [
    {
      "id": 5348,
      "content": "[PAD]",
      "single_word": false,
      "lstrip": false,
      "rstrip": false,
      "normalized": false,
      "special": true
    },
    {
      "id": 6149,
      "content": "[UNK]",
      "single_word": false,
      "lstrip": false,
      "rstrip": false,
      "normalized": false,
      "special": true
    },
    {
      "id": 6621,
      "content": "[SEP]",
      "single_word": false,
      "lstrip": false,
      "rstrip": false,
      "normalized": false,
      "special": true
    },
    {
      "id": 10849,
      "content": "[CLS]",
      "single_word": false,
      "lstrip": false,
      "rstrip": false,
      "normalized": false,
      "special": true
    },
    {
      "id": 13297,
      "content": "[MASK]",
      "single_word": false,
      "lstrip": false,
      "rstrip": false,
      "normalized": false,
      "special": true
    }
  ],
  "normalizer": {
    "type": "Sequence",
    "normalizers": [
      {
        "type": "NFD"
      },
      {
        "type": "Lowercase"
      },
      {
        "type": "StripAccents"
      }
    ]
  },
  "pre_tokenizer": {
    "type": "Sequence",
    "pretokenizers": [
      {
        "type": "Metaspace",
        "replacement": "▁",
        "prepend_scheme": "always",
        "split": true
      }
    ]
  },
  "post_processor": {
    "type": "TemplateProcessing",
    "single": [
      {
        "SpecialToken": {
          "id": "[CLS]",
          "type_id": 0
        }
      },
      {
        "Sequence": {
          "id": "A",
          "type_id": 0
        }
      },
      {
        "SpecialToken": {
          "id": "[SEP]",
          "type_id": 0
        }
      }
    ],
    "pair": [
      {
        "SpecialToken": {
          "id": "[CLS]",
          "type_id": 0
        }
      },
      {
        "Sequence": {
          "id": "A",
          "type_id": 0
        }
      },
      {
        "SpecialToken": {
          "id": "[SEP]",
          "type_id": 0
        }
      },
      {
        "Sequence": {
          "id": "B",
          "type_id": 1
        }
      },
      {
        "SpecialToken": {
          "id": "[SEP]",
          "type_id": 1
        }
      }
    ],
    "special_tokens": {
      "[CLS]": {
        "id": "[CLS]",
        "ids": [
          10849
        ],
        "tokens": [
          "[CLS]"
        ]
      },
      "[SEP]": {
        "id": "[SEP]",
        "ids": [
          6621
        ],
        "tokens": [
          "[SEP]"
        ]
      }
    }
  },
  "decoder": {
    "type": "Metaspace",
    "replacement": "▁",
    "prepend_scheme": "always",
    "split": true
  },
  "model": {
    "type": "WordPiece",
    "unk_token": "[UNK]",
    "continuing_subword_prefix": "##",
    "max_input_chars_per_word": 100,
    "vocab": {
      "##mik": 0,
      "▁tahkik": 1,
      "▁akade": 2,
      "▁odaya": 3,
      "▁yakasına": 4,
      "▁efendi": 5,
      "▁isveren": 6,
      "▁kanunu": 7,
      "▁merkezinin": 8,
      "##dıgını": 9,
      "▁cıkmam": 10,
      "##ittir": 11,
      "▁129": 12,
      "▁kısa": 13,
      "##palı": 14,
      "##naya": 15,
      "▁konusuyla": 16,
      "▁kini": 17,
      "▁bebek": 18,
      "▁sahneye": 19,
      "▁yonetiminin": 20,
      "▁cocugu": 21,
      "▁cikis": 22,
      "▁koylerde": 23,
      "▁tezgahı": 24,
      "▁'l": 25,
      "▁ekonomistler": 26,
      "▁gozlu": 27,
      "##atesi": 28,
      "##amıyor": 29,
      "▁1/8": 30,
      "▁indianapolis'ten": 31,
      "▁sahası": 32,
      "▁misafirleri": 33,
      "▁fazlaydi": 34,
      "▁secimler": 35,
      "▁80'": 36,
      "##ston": 37,
      "▁fidan": 38,
      "##3": 39,
      "##ıgının": 40,
      "##ikli": 41,
      "▁yetis": 42,
      "▁sikint": 43,
      "▁hızlıca": 44,
      "▁haberleri": 45,
      "▁istemiyorum": 46,
      "▁karsıladı": 47,
      "▁veriyordu": 48,
      "▁mich": 49,
      "▁yargı": 50,
      "▁yaslarında": 51,
      "▁multeci": 52,
      "▁hissenin": 53,
      "▁sube": 54,
      "▁karla": 55,
      "##lsun": 56,
      "▁bodr": 57,
      "▁ustur": 58,
      "▁reng": 59,
      "▁malını": 60,
      "##ayeti": 61,
      "##mesinin": 62,
      "##lugunun": 63,
      "▁alıskan": 64,
      "▁buyukluk": 65,
      "##aralı": 66,
      "##dugunde": 67,
      "▁seye": 68,
      "▁mesaf": 69,
      "▁sarı": 70,
      "▁perakende": 71,
      "##lerimizi": 72,
      "▁gucunun": 73,
      "▁23": 74,
      "▁profesyonel": 75,
      "##istiri": 76,
      "##mamıs": 77,
      "##”": 78,
      "▁mustes": 79,
      "##tara": 80,
      "▁sıra": 81,
      "▁baslık": 82,
      "##asına": 83,
      "▁gorevli": 84,
      "▁ipucu": 85,
      "##irip": 86,
      "▁muesses": 87,
      "▁had": 88,
      "▁kamar": 89,
      "▁hucreleri": 90,
      "▁ko": 91,
      "▁tesiri": 92,
      "##larıdır": 93,
      "▁alakali": 94,
      "▁urunlerini": 95,
      "▁seyahate": 96,
      "▁ymis": 97,
      "##urlar": 98,
      "##gel": 99,
      "▁okulun": 100,
      "▁cikolata": 101,
      "▁gayet": 102,
      "##idir": 103,
      "▁ag": 104,
      "##mayız": 105,
      "##arip": 106,
      "##imler": 107,
      "▁pacaları": 108,
      "▁orland": 109,
      "▁ancak": 110,
      "▁havaalanı'na": 111,
      "▁gemilere": 112,
      "▁12.5": 113,
      "▁oranı": 114,
      "▁kemik": 115,
      "▁faaliyetlerini": 116,
      "▁paul": 117,
      "▁halkı": 118,
      "▁malın": 119,
      "▁eline": 120,
      "▁unvan": 121,
      "▁gosterge": 122,
      "▁kendileri": 123,
      "▁devir": 124,
      "▁muv": 125,
      "▁kursu": 126,
      "##ememis": 127,
      "##4": 128,
      "▁ederdi": 129,
      "▁kerv": 130,
      "▁saglama": 131,
      "▁muhendisi": 132,
      "▁teklifine": 133,
      "▁iddia": 134,
      "▁amel": 135,
      "▁yavrusu": 136,
      "##mki": 137,
      "▁kapsamlı": 138,
      "▁500": 139,
      "▁konusmak": 140,
      "▁testi": 141,
      "##kileri": 142,
      "▁canavar": 143,
      "▁pantol": 144,
      "##azaran": 145,
      "##eme": 146,
      "##ili": 147,
      "▁she": 148,
      "▁bucagından": 149,
      "▁vezn": 150,
      "##ur": 151,
      "##ti": 152,
      "##iyorlardı": 153,
      "▁iyisi": 154,
      "##lk": 155,
      "▁hareketi": 156,
      "▁isaretleri": 157,
      "▁bitk": 158,
      "▁motorun": 159,
      "▁izlen": 160,
      "▁oc": 161,
      "▁ulkeye": 162,
      "▁olabilirdi": 163,
      "▁havayolunun": 164,
      "▁huv": 165,
      "▁hi": 166,
      "##eci": 167,
      "▁dis": 168,
      "▁avlu": 169,
      "▁itibar": 170,
      "▁acıyla": 171,
      "▁dolandır": 172,
      "▁merkeze": 173,
      "▁kilometre": 174,
      "▁muf": 175,
      "▁goller": 176,
      "▁muthis": 177,
      "▁agrısı": 178,
      "▁olumsuzluk": 179,
      "▁soyle": 180,
      "▁kayalar": 181,
      "▁hane": 182,
      "▁pit": 183,
      "▁anlattı": 184,
      "▁iyilerini": 185,
      "▁ayse": 186,
      "##lıcı": 187,
      "##lamadı": 188,
      "▁kahkah": 189,
      "▁beb": 190,
      "▁muzakere": 191,
      "▁balo": 192,
      "▁kagıda": 193,
      "▁dogrul": 194,
      "##sak": 195,
      "▁bunu": 196,
      "▁kuvvetleri": 197,
      "▁beyg": 198,
      "▁piyasa": 199,
      "▁merdivenleri": 200,
      "r": 201,
      "▁idi": 202,
      "▁sasırtıcı": 203,
      "▁araya": 204,
      "▁yaptıklarını": 205,
      "▁indi": 206,
      "▁karsılık": 207,
      "▁yurek": 208,
      "##aj": 209,
      "##nam": 210,
      "##mustur": 211,
      "▁gecirdik": 212,
      "##lemeye": 213,
      "▁korsan": 214,
      "▁katilmadim": 215,
      "▁restoranlar": 216,
      "▁hava": 217,
      "▁gosterdi": 218,
      "▁santimetre": 219,
      "▁yumurta": 220,
      "▁milletvek": 221,
      "▁geldik": 222,
      "▁hayrete": 223,
      "▁not": 224,
      "##ulup": 225,
      "▁eyl": 226,
      "▁satıslarını": 227,
      "▁ilav": 228,
      "▁toh": 229,
      "▁cır": 230,
      "▁sım": 231,
      "##ırlar": 232,
      "##kit": 233,
      "▁planlar": 234,
      "▁icime": 235,
      "##emey": 236,
      "##rol": 237,
      "▁gozlerim": 238,
      "▁rak": 239,
      "▁yatagın": 240,
      "▁ihtilal": 241,
      "▁adamının": 242,
      "▁alanı": 243,
      "▁lin": 244,
      "##ıldım": 245,
      "▁dibinden": 246,
      "▁atolye": 247,
      "▁takv": 248,
      "▁pesinde": 249,
      "▁)": 250,
      "▁ilgin": 251,
      "▁onunu": 252,
      "▁eris": 253,
      "▁olusturmak": 254,
      "▁yemeklerden": 255,
      "▁lisansını": 256,
      "▁ugruna": 257,
      "▁sul": 258,
      "▁ex": 259,
      "▁savur": 260,
      "▁edilm": 261,
      "##liydi": 262,
      "▁yaklasım": 263,
      "▁okuma": 264,
      "▁dizisi": 265,
      "##ıgıyla": 266,
      "▁fot": 267,
      "##bilir": 268,
      "▁zeytin": 269,
      "▁kızın": 270,
      "w": 271,
      "▁doktorlar": 272,
      "##ırk": 273,
      "▁uzakti": 274,
      "▁aldik": 275,
      "▁toplum": 276,
      "▁ihtil": 277,
      "▁taahh": 278,
      "▁gosterebilir": 279,
      "▁millet": 280,
      "##han": 281,
      "▁tepesinde": 282,
      "▁kabul": 283,
      "▁suphe": 284,
      "▁denizci": 285,
      "▁ucurt": 286,
      "▁baki": 287,
      "▁gas": 288,
      "▁samimiyet": 289,
      "▁chat": 290,
      "▁romancı": 291,
      "##abor": 292,
      "▁oyley": 293,
      "▁tavır": 294,
      "▁ellerini": 295,
      "▁otlar": 296,
      "▁izledi": 297,
      "▁icme": 298,
      "▁organ": 299,
      "▁enf": 300,
      "▁yalan": 301,
      "▁fa": 302,
      "▁aydan": 303,
      "▁ozenle": 304,
      "▁arkadan": 305,
      "▁nobet": 306,
      "▁isteklerini": 307,
      "▁redd": 308,
      "▁tahakkuk": 309,
      "▁wh": 310,
      "▁depr": 311,
      "##per": 312,
      "▁tane": 313,
      "▁hade": 314,
      "▁hayvanlar": 315,
      "▁oglan": 316,
      "▁renkli": 317,
      "▁muhac": 318,
      "▁gercek": 319,
      "▁=": 320,
      "▁geldiginde": 321,
      "▁muhareb": 322,
      "▁frans": 323,
      "▁belirterek": 324,
      "##ofon": 325,
      "▁yanlis": 326,
      "▁bilgis": 327,
      "▁aydınlık": 328,
      "▁tırn": 329,
      "##say": 330,
      "##cakti": 331,
      "▁sebeb": 332,
      "▁tasarımı": 333,
      "▁ikl": 334,
      "▁kazaz": 335,
      "▁sahibinin": 336,
      "▁sehrinden": 337,
      "▁iyiye": 338,
      "▁kalabalıgı": 339,
      "▁kıdemli": 340,
      "▁iyimserlik": 341,
      "▁yargıcı": 342,
      "▁aracları": 343,
      "▁kisilere": 344,
      "▁insanlıga": 345,
      "##..": 346,
      "▁kulce": 347,
      "▁hayata": 348,
      "##atır": 349,
      "##lılıgını": 350,
      "##malarını": 351,
      "▁yedikten": 352,
      "▁sabık": 353,
      "▁numar": 354,
      "##ranı": 355,
      "▁avukat": 356,
      "▁ba": 357,
      "▁traktor": 358,
      "##er'in": 359,
      "▁ornekler": 360,
      "##ıldıgında": 361,
      "▁kor": 362,
      "##iklik": 363,
      "▁suyunun": 364,
      "▁dantel": 365,
      "▁denizciler": 366,
      "##anoz": 367,
      "▁sh": 368,
      "##ununun": 369,
      "▁gurult": 370,
      "##b.": 371,
      "▁arastırmada": 372,
      "▁likidit": 373,
      "##neti": 374,
      "##kiler": 375,
      "▁performansı": 376,
      "▁donemlerinde": 377,
      "▁mers": 378,
      "▁kuram": 379,
      "▁lahana": 380,
      "▁binaen": 381,
      "▁kr": 382,
      "▁baglantı": 383,
      "▁arb": 384,
      "▁first": 385,
      "▁muhar": 386,
      "##alı": 387,
      "▁vaktim": 388,
      "##arını": 389,
      "▁tiyatr": 390,
      "▁yoneticiler": 391,
      "▁teslimat": 392,
      "▁kendim": 393,
      "##anıt": 394,
      "##endir": 395,
      "▁kazanclar": 396,
      "▁teseb": 397,
      "▁ithalatı": 398,
      "▁sukun": 399,
      "▁acıga": 400,
      "▁pom": 401,
      "▁kahveden": 402,
      "▁teri": 403,
      "▁ayrılıp": 404,
      "▁davranmaya": 405,
      "##ebilir": 406,
      "##emden": 407,
      "▁yurutme": 408,
      "▁sav": 409,
      "▁tadına": 410,
      "▁tarlayı": 411,
      "▁yaptıgı": 412,
      "▁gecimini": 413,
      "▁sınıfı": 414,
      "##onom": 415,
      "##derek": 416,
      "▁doktorların": 417,
      "▁serveti": 418,
      "##tam": 419,
      "▁oldug": 420,
      "▁verilir": 421,
      "▁'li": 422,
      "##sadı": 423,
      "▁baktım": 424,
      "▁analizciler": 425,
      "▁koyu": 426,
      "▁tasımacılıgı": 427,
      "▁otobus": 428,
      "▁bozuk": 429,
      "▁corb": 430,
      "▁yapabilir": 431,
      "▁yıllar": 432,
      "▁onemli": 433,
      "##0'dan": 434,
      "▁dayı": 435,
      "▁faydasını": 436,
      "##arındaki": 437,
      "▁hatıra": 438,
      "▁olduk": 439,
      "▁somur": 440,
      "▁olsaydı": 441,
      "▁davanın": 442,
      "##anması": 443,
      "##iyesini": 444,
      "▁krav": 445,
      "▁catlak": 446,
      "▁baslayacagını": 447,
      "##ligi": 448,
      "▁durusma": 449,
      "▁iktis": 450,
      "▁alemi": 451,
      "▁firmaları": 452,
      "▁tutumu": 453,
      "▁kadınları": 454,
      "##isyon": 455,
      "▁kosu": 456,
      "▁musluk": 457,
      "▁serisi": 458,
      "▁ev": 459,
      "▁kapıları": 460,
      "▁asf": 461,
      "▁sularda": 462,
      "▁muhalefet": 463,
      "▁seyrediyor": 464,
      "##.23": 465,
      "##isiniz": 466,
      "▁uretimi": 467,
      "▁kendisini": 468,
      "▁gizli": 469,
      "▁tah": 470,
      "▁bilez": 471,
      "##uma": 472,
      "▁ekmek": 473,
      "▁hasan": 474,
      "▁angeles'e": 475,
      "▁odedi": 476,
      "##eyaz": 477,
      "▁zirv": 478,
      "##diginden": 479,
      "▁kafası": 480,
      "▁etti": 481,
      "▁saglar": 482,
      "▁talep": 483,
      "▁sorunların": 484,
      "▁sakız": 485,
      "▁elci": 486,
      "▁getiriler": 487,
      "▁bayram": 488,
      "▁am": 489,
      "##cel": 490,
      "▁kusagının": 491,
      "##'daki": 492,
      "▁sini": 493,
      "▁kesif": 494,
      "▁1991": 495,
      "▁satır": 496,
      "▁populer": 497,
      "▁ozelligi": 498,
      "##avr": 499,
      "▁uygulan": 500,
      "▁baslangıc": 501,
      "▁kayda": 502,
      "▁isci": 503,
      "▁lezz": 504,
      "##meyen": 505,
      "▁kagıdı": 506,
      "▁hatır": 507,
      "▁acmıs": 508,
      "▁aska": 509,
      "▁surpriz": 510,
      "▁yurtd": 511,
      "▁1.4": 512,
      "▁dunyadan": 513,
      "▁dunyanın": 514,
      "▁koyun": 515,
      "▁onunuz": 516,
      "▁kotuluk": 517,
      "▁kalmıstı": 518,
      "##sal": 519,
      "▁zekası": 520,
      "##80'": 521,
      "▁begenmedik": 522,
      "▁siyasal": 523,
      "▁sır": 524,
      "##bab": 525,
      "##igini": 526,
      "▁soylenir": 527,
      "▁dususten": 528,
      "##adde": 529,
      "▁sorumluluk": 530,
      "▁bul": 531,
      "▁cıp": 532,
      "▁zem": 533,
      "▁denver'e": 534,
      "▁surpr": 535,
      "##ete": 536,
      "▁hastane": 537,
      "▁dillere": 538,
      "▁rum": 539,
      "##atlar": 540,
      "##'e": 541,
      "▁soganı": 542,
      "▁dere": 543,
      "▁cocuklarının": 544,
      "##ulmustur": 545,
      "▁buyumeye": 546,
      "▁kitaplar": 547,
      "##isiyle": 548,
      "▁$'a": 549,
      "▁kasık": 550,
      "▁york'tan": 551,
      "▁zur": 552,
      "##lanmaya": 553,
      "▁dusecegini": 554,
      "##ilmisti": 555,
      "##keti": 556,
      "▁asistan": 557,
      "▁sahile": 558,
      "##anıklıgı": 559,
      "▁sof": 560,
      "▁projeyi": 561,
      "▁baslıyor": 562,
      "▁kurk": 563,
      "▁ekran": 564,
      "▁mes": 565,
      "▁kucuk": 566,
      "▁rengine": 567,
      "▁;": 568,
      "▁kuyum": 569,
      "##aklı": 570,
      "▁senedi": 571,
      "▁niyet": 572,
      "##maması": 573,
      "##latmak": 574,
      "▁oncesi": 575,
      "▁yild": 576,
      "▁gorucu": 577,
      "▁yurumek": 578,
      "▁buz": 579,
      "##alik": 580,
      "##cılara": 581,
      "##ameti": 582,
      "▁idman": 583,
      "▁etmesine": 584,
      "##tiniz": 585,
      "▁gercekles": 586,
      "▁milwaukee'ye": 587,
      "▁utanc": 588,
      "▁modelleri": 589,
      "##usunda": 590,
      "##unce": 591,
      "##enlere": 592,
      "▁ofisleri": 593,
      "▁hırs": 594,
      "▁amir": 595,
      "▁herh": 596,
      "##ca": 597,
      "##iyeli": 598,
      "##met": 599,
      "▁mev": 600,
      "##kli": 601,
      "▁yavru": 602,
      "▁satılması": 603,
      "▁aittir": 604,
      "▁hafif": 605,
      "▁yuzme": 606,
      "##larımızın": 607,
      "▁sunuyor": 608,
      "▁aklımdan": 609,
      "▁ihtiyacını": 610,
      "▁kuzey": 611,
      "▁cami": 612,
      "▁yaptirmadim": 613,
      "▁ugrama": 614,
      "▁veril": 615,
      "▁del": 616,
      "▁serit": 617,
      "▁kuzu": 618,
      "▁dayak": 619,
      "▁birbirinden": 620,
      "▁bicmek": 621,
      "▁boston'a": 622,
      "▁ihtiyarın": 623,
      "▁tif": 624,
      "▁kilo": 625,
      "▁direktoru": 626,
      "##alisyon": 627,
      "▁listesini": 628,
      "▁oykusu": 629,
      "▁eglence": 630,
      "##asa": 631,
      "▁california": 632,
      "▁muhal": 633,
      "##lının": 634,
      "▁tutum": 635,
      "▁avantajı": 636,
      "▁efsane": 637,
      "▁hem": 638,
      "▁dagıtım": 639,
      "▁daktilo": 640,
      "▁kodu": 641,
      "▁yanıtını": 642,
      "##siv": 643,
      "##agı": 644,
      "▁ses": 645,
      "##lerken": 646,
      "▁yatagı": 647,
      "▁taco": 648,
      "▁nihayet": 649,
      "##lastırmak": 650,
      "▁helikopter": 651,
      "▁indirdi": 652,
      "##ılıgında": 653,
      "##lasması": 654,
      "▁dusunuyor": 655,
      "▁cagrısı": 656,
      "▁saatini": 657,
      "▁kamuoyuna": 658,
      "##temelen": 659,
      "##uya": 660,
      "▁insanı": 661,
      "▁tovbe": 662,
      "##liligi": 663,
      "▁hesapların": 664,
      "▁akr": 665,
      "##kta": 666,
      "▁kacırdı": 667,
      "▁toz": 668,
      "▁ozet": 669,
      "▁kenarda": 670,
      "▁anda": 671,
      "▁donuk": 672,
      "▁b.": 673,
      "▁berab": 674,
      "▁yumur": 675,
      "##pan": 676,
      "▁pas": 677,
      "##ieg": 678,
      "▁muayen": 679,
      "▁adam": 680,
      "##yım": 681,
      "▁merkezine": 682,
      "▁terliklerini": 683,
      "▁sırada": 684,
      "▁meydanı": 685,
      "##acagını": 686,
      "▁bilanc": 687,
      "▁konfor": 688,
      "▁belleg": 689,
      "▁ihrac": 690,
      "▁gorundu": 691,
      "▁ucretlerini": 692,
      "##1": 693,
      "▁masadan": 694,
      "▁refah": 695,
      "##ekler": 696,
      "▁arap": 697,
      "▁vererek": 698,
      "##amdan": 699,
      "▁tecavuz": 700,
      "▁acak": 701,
      "▁evime": 702,
      "▁kıskanc": 703,
      "▁ceyrege": 704,
      "▁geciyordu": 705,
      "▁kaynaklarına": 706,
      "▁ucretler": 707,
      "▁etrafını": 708,
      "▁serk": 709,
      "▁ceviri": 710,
      "▁tahsis": 711,
      "##kuz": 712,
      "▁lok": 713,
      "▁ocagı": 714,
      "▁acıkca": 715,
      "##ni": 716,
      "▁seyrediyordu": 717,
      "##azlık": 718,
      "▁korun": 719,
      "▁gorunumu": 720,
      "▁destek": 721,
      "▁tersan": 722,
      "▁olimpiyat": 723,
      "▁saskınlık": 724,
      "▁sente": 725,
      "##sap": 726,
      "▁agacın": 727,
      "▁zihn": 728,
      "▁sonbaharda": 729,
      "▁ziy": 730,
      "▁birisi": 731,
      "▁sogan": 732,
      "▁bitirdi": 733,
      "▁basladı": 734,
      "▁sorununa": 735,
      "▁10'dan": 736,
      "▁kabus": 737,
      "##emle": 738,
      "▁data": 739,
      "▁olayı": 740,
      "▁yuf": 741,
      "▁cene": 742,
      "▁yukselen": 743,
      "▁etki": 744,
      "##ezz": 745,
      "##arlar": 746,
      "▁dunyaya": 747,
      "▁cob": 748,
      "▁agzı": 749,
      "▁doc": 750,
      "▁sakak": 751,
      "▁tasır": 752,
      "▁iler": 753,
      "▁delikanl": 754,
      "▁kasabaya": 755,
      "▁bugunun": 756,
      "##igine": 757,
      "##lenmis": 758,
      "▁termal": 759,
      "▁oncelik": 760,
      "▁bitim": 761,
      "▁geride": 762,
      "##laması": 763,
      "##lacak": 764,
      "▁yasaya": 765,
      "▁muster": 766,
      "▁pahal": 767,
      "▁guclerini": 768,
      "##tarı": 769,
      "▁ogrenim": 770,
      "▁birimi": 771,
      "▁degismedi": 772,
      "▁aradilar": 773,
      "##cut": 774,
      "▁unsur": 775,
      "##uklar": 776,
      "▁kelimelere": 777,
      "▁avucuna": 778,
      "▁edebilir": 779,
      "##siye": 780,
      "▁seviyeye": 781,
      "▁omr": 782,
      "▁tem": 783,
      "##dort": 784,
      "##ndaki": 785,
      "##msiz": 786,
      "▁kasar": 787,
      "▁dam": 788,
      "▁doktu": 789,
      "▁fabrik": 790,
      "▁hindistan": 791,
      "▁olmasın": 792,
      "▁odem": 793,
      "▁sistem": 794,
      "▁mab": 795,
      "▁rolunu": 796,
      "▁bes": 797,
      "▁yatırımcının": 798,
      "##ge": 799,
      "▁sedy": 800,
      "▁odagı": 801,
      "▁talepte": 802,
      "▁yum": 803,
      "▁hayvanların": 804,
      "▁kapıyı": 805,
      "▁art": 806,
      "##tıcı": 807,
      "##ens": 808,
      "▁salonu": 809,
      "▁cıkacagını": 810,
      "▁mevdu": 811,
      "▁suretle": 812,
      "##lerimin": 813,
      "▁konserve": 814,
      "##du.": 815,
      "▁ink": 816,
      "▁yaralan": 817,
      "▁tarihinde": 818,
      "▁hizmette": 819,
      "▁cirkin": 820,
      "▁akımı": 821,
      "▁yılını": 822,
      "▁yanakları": 823,
      "▁sergisi": 824,
      "##elir": 825,
      "▁agaclar": 826,
      "▁kolundan": 827,
      "##alarıyla": 828,
      "▁gel": 829,
      "▁kurulusunun": 830,
      "▁dibinde": 831,
      "▁meb": 832,
      "▁orgutu": 833,
      "▁penc": 834,
      "▁kal": 835,
      "▁meht": 836,
      "▁gorunum": 837,
      "▁yemek": 838,
      "##ılma": 839,
      "▁bacaklarını": 840,
      "▁intihar": 841,
      "▁bors": 842,
      "▁fet": 843,
      "▁yaptıkları": 844,
      "▁deter": 845,
      "▁gecme": 846,
      "##esik": 847,
      "▁gorustu": 848,
      "▁alakasi": 849,
      "##irlik": 850,
      "▁ekonomisi": 851,
      "▁munasebet": 852,
      "▁uzman": 853,
      "▁sindir": 854,
      "▁lakin": 855,
      "▁kızını": 856,
      "##50": 857,
      "▁sıfır": 858,
      "▁kalitede": 859,
      "▁dokun": 860,
      "▁bicim": 861,
      "▁gecmiste": 862,
      "##lukla": 863,
      "▁ornegi": 864,
      "##laydi": 865,
      "▁mudur": 866,
      "▁icr": 867,
      "##abı": 868,
      "##etre": 869,
      "▁fiyatlandır": 870,
      "▁ambargo": 871,
      "▁anlasmayı": 872,
      "▁ozelliklerinden": 873,
      "▁atese": 874,
      "▁avına": 875,
      "▁dizinin": 876,
      "##mıyoruz": 877,
      "▁kardesinin": 878,
      "▁cekilm": 879,
      "▁eseri": 880,
      "▁bord": 881,
      "▁koalisyon": 882,
      "▁kapak": 883,
      "▁bilgisi": 884,
      "▁43": 885,
      "▁kolları": 886,
      "▁baslayan": 887,
      "▁huk": 888,
      "▁benz": 889,
      "▁belinde": 890,
      "▁stad": 891,
      "▁kapıda": 892,
      "▁tarihlerinde": 893,
      "▁duduk": 894,
      "▁hisseden": 895,
      "▁programın": 896,
      "##liy": 897,
      "▁degisimi": 898,
      "▁bulama": 899,
      "##digimiz": 900,
      "##lendirmek": 901,
      "##mus": 902,
      "▁cisim": 903,
      "▁fikir": 904,
      "##sı": 905,
      "▁fasul": 906,
      "▁yurum": 907,
      "▁nis": 908,
      "▁evlerini": 909,
      "▁hissedarların": 910,
      "▁sertifik": 911,
      "▁fazlası": 912,
      "▁ayag": 913,
      "##medik": 914,
      "▁kelimeler": 915,
      "▁burc": 916,
      "▁kredisi": 917,
      "▁onerileri": 918,
      "##ane": 919,
      "##mayan": 920,
      "▁toky": 921,
      "▁kaynaklar": 922,
      "▁otur": 923,
      "##ecektir": 924,
      "▁balik": 925,
      "▁sosyalist": 926,
      "▁hissettim": 927,
      "▁gerceklesti": 928,
      "##isini": 929,
      "▁hattının": 930,
      "▁universite": 931,
      "▁fotografı": 932,
      "##anmıs": 933,
      "▁kartal": 934,
      "▁kucagına": 935,
      "▁cıkıyor": 936,
      "▁ucları": 937,
      "▁kavr": 938,
      "▁dayanık": 939,
      "▁past": 940,
      "▁dilenci": 941,
      "##dasını": 942,
      "##teri": 943,
      "▁kıyas": 944,
      "▁heyetin": 945,
      "▁etkileri": 946,
      "▁kahram": 947,
      "▁guzel": 948,
      "▁bildi": 949,
      "▁suya": 950,
      "▁metal": 951,
      "▁mudahale": 952,
      "##luydu": 953,
      "▁kopekler": 954,
      "##ırdı": 955,
      "▁banyosu": 956,
      "▁ilgi": 957,
      "ı": 958,
      "##nıp": 959,
      "▁promosyon": 960,
      "▁cerceve": 961,
      "▁hazırlıkları": 962,
      "▁ual": 963,
      "##ala": 964,
      "▁hacmi": 965,
      "▁yas": 966,
      "▁yukunu": 967,
      "▁sirketinden": 968,
      "▁satıcısı": 969,
      "▁beni": 970,
      "▁enerj": 971,
      "##mıyla": 972,
      "▁universiteden": 973,
      "##ıma": 974,
      "▁dikkatini": 975,
      "▁mahsul": 976,
      "##umu": 977,
      "▁okula": 978,
      "▁siyaset": 979,
      "▁seneye": 980,
      "▁ayrılan": 981,
      "▁evlen": 982,
      "▁keske": 983,
      "▁yedi": 984,
      "▁uygul": 985,
      "##danoz": 986,
      "▁kanunlar": 987,
      "##mıyorlar": 988,
      "▁surecte": 989,
      "▁ulkemiz": 990,
      "▁tac": 991,
      "##tir": 992,
      "##ily": 993,
      "▁biber": 994,
      "▁pilotların": 995,
      "▁zorun": 996,
      "##siyle": 997,
      "▁tecrub": 998,
      "▁ressam": 999,
      "▁say": 1000,
      "▁hastan": 1001,
      "▁alay": 1002,
      "▁vizyon": 1003,
      "▁olasılıgı": 1004,
      "▁analiz": 1005,
      "▁vaat": 1006,
      "▁isterseniz": 1007,
      "▁kadar": 1008,
      "▁kafil": 1009,
      "▁baslangıcta": 1010,
      "##lam": 1011,
      "▁dagın": 1012,
      "▁geregi": 1013,
      "▁ajansı": 1014,
      "▁taleplerinin": 1015,
      "▁bufe": 1016,
      "▁sozcuklerin": 1017,
      "▁dolas": 1018,
      "▁defne": 1019,
      "▁cevresinin": 1020,
      "▁istedi": 1021,
      "##latma": 1022,
      "▁1\\/": 1023,
      "##evizyon": 1024,
      "▁tehlikesi": 1025,
      "▁gorur": 1026,
      "▁genisleme": 1027,
      "##'na": 1028,
      "▁avrupalı": 1029,
      "▁izin": 1030,
      "##umb": 1031,
      "▁hareketle": 1032,
      "▁tahk": 1033,
      "▁seyden": 1034,
      "▁dururdu": 1035,
      "▁diregi": 1036,
      "▁destekley": 1037,
      "##uyordu": 1038,
      "▁kahvalt": 1039,
      "▁duvarların": 1040,
      "##ınlık": 1041,
      "▁girdiler": 1042,
      "▁giyin": 1043,
      "▁kurucusu": 1044,
      "▁toplantıyı": 1045,
      "▁onların": 1046,
      "##bac": 1047,
      "##arında": 1048,
      "▁hesabı": 1049,
      "▁brons": 1050,
      "##muyor": 1051,
      "##dukca": 1052,
      "▁gelmeye": 1053,
      "▁babam": 1054,
      "##'": 1055,
      "▁komunistler": 1056,
      "##siy": 1057,
      "▁cadır": 1058,
      "▁gordun": 1059,
      "▁karsilama": 1060,
      "##ursuz": 1061,
      "▁ekonomisini": 1062,
      "##z": 1063,
      "##/8'e": 1064,
      "##gmen": 1065,
      "▁kopegi": 1066,
      "▁andan": 1067,
      "##ag": 1068,
      "▁sa": 1069,
      "##orleri": 1070,
      "▁ken": 1071,
      "▁a": 1072,
      "##hn": 1073,
      "▁durumuna": 1074,
      "▁basımda": 1075,
      "▁hastalıgına": 1076,
      "##dukten": 1077,
      "▁buyumesi": 1078,
      "##ıkları": 1079,
      "▁senaryo": 1080,
      "▁elimizde": 1081,
      "##ıv": 1082,
      "▁fol": 1083,
      "▁&": 1084,
      "▁goz": 1085,
      "##larında": 1086,
      "##odr": 1087,
      "▁must": 1088,
      "▁imz": 1089,
      "▁bazi": 1090,
      "▁kayık": 1091,
      "▁atesten": 1092,
      "▁seylerden": 1093,
      "▁rakipleri": 1094,
      "▁odası": 1095,
      "##eysel": 1096,
      "##ogretim": 1097,
      "▁sabah": 1098,
      "▁evini": 1099,
      "##ladıgı": 1100,
      "▁damar": 1101,
      "##mezdi": 1102,
      "##duklarını": 1103,
      "▁gormedi": 1104,
      "▁birbiriyle": 1105,
      "##erler": 1106,
      "▁bıyık": 1107,
      "▁sera": 1108,
      "##inc": 1109,
      "##sına": 1110,
      "▁kazancları": 1111,
      "▁calisanlarin": 1112,
      "▁piyasalarda": 1113,
      "▁kirlilik": 1114,
      "▁etmeyi": 1115,
      "▁operasyon": 1116,
      "▁bitki": 1117,
      "##elerinin": 1118,
      "▁temettu": 1119,
      "▁cık": 1120,
      "##onya": 1121,
      "##ide": 1122,
      "##raz": 1123,
      "▁gom": 1124,
      "▁yetkililerin": 1125,
      "▁macları": 1126,
      "▁cogunlugu": 1127,
      "▁anında": 1128,
      "▁yasına": 1129,
      "▁incelen": 1130,
      "##iyetli": 1131,
      "▁bus": 1132,
      "##lerde": 1133,
      "▁kavus": 1134,
      "▁suclamaları": 1135,
      "▁karsiligini": 1136,
      "##larımı": 1137,
      "▁yarısının": 1138,
      "##umuzu": 1139,
      "▁filik": 1140,
      "▁q": 1141,
      "▁varmak": 1142,
      "##ileri": 1143,
      "▁mudafa": 1144,
      "▁def": 1145,
      "▁verilen": 1146,
      "##enek": 1147,
      "▁sultan": 1148,
      "##5'i": 1149,
      "##tu": 1150,
      "▁ogrendi": 1151,
      "▁beyz": 1152,
      "▁burnundan": 1153,
      "▁turizm": 1154,
      "▁gozlerle": 1155,
      "▁taksit": 1156,
      "▁tahv": 1157,
      "▁sınırlarını": 1158,
      "▁yorgunluk": 1159,
      "▁satıslarda": 1160,
      "▁bolumu": 1161,
      "##ustral": 1162,
      "▁fiyatlarını": 1163,
      "▁gununun": 1164,
      "▁tanım": 1165,
      "##y": 1166,
      "▁davasına": 1167,
      "▁savunma": 1168,
      "▁video": 1169,
      "▁odasından": 1170,
      "▁ucusu": 1171,
      "▁oranda": 1172,
      "▁vermis": 1173,
      "▁eserini": 1174,
      "▁olan": 1175,
      "##asındaki": 1176,
      "▁paylasım": 1177,
      "▁sular": 1178,
      "▁kiralama": 1179,
      "##ydı": 1180,
      "▁sonuclarının": 1181,
      "▁charlotte'ye": 1182,
      "##liyorum": 1183,
      "▁yaptıg": 1184,
      "##sali": 1185,
      "▁?": 1186,
      "##ciyi": 1187,
      "▁gidiyorum": 1188,
      "▁dukkanlar": 1189,
      "▁kontrolunu": 1190,
      "▁sıkıntı": 1191,
      "▁avans": 1192,
      "▁asırı": 1193,
      "##yı": 1194,
      "▁karton": 1195,
      "▁olasılıkla": 1196,
      "▁sanız": 1197,
      "▁aramak": 1198,
      "##bert": 1199,
      "▁atan": 1200,
      "▁sessizce": 1201,
      "▁uykus": 1202,
      "##oludur": 1203,
      "▁dosyada": 1204,
      "▁oranın": 1205,
      "##dinden": 1206,
      "▁fiyatlarının": 1207,
      "##abında": 1208,
      "##acıya": 1209,
      "▁milliyet": 1210,
      "##oza": 1211,
      "▁kanalı": 1212,
      "##layıcı": 1213,
      "▁misali": 1214,
      "▁vardiy": 1215,
      "▁sekl": 1216,
      "▁bogaz": 1217,
      "▁tasla": 1218,
      "▁dusmanı": 1219,
      "▁nisp": 1220,
      "▁odalari": 1221,
      "▁mahal": 1222,
      "▁evlat": 1223,
      "▁18": 1224,
      "##eleriyle": 1225,
      "▁once": 1226,
      "▁komisyonları": 1227,
      "▁ehl": 1228,
      "▁soyledi": 1229,
      "▁hisselerde": 1230,
      "##ass": 1231,
      "▁samim": 1232,
      "##lt": 1233,
      "▁cif": 1234,
      "▁kafayla": 1235,
      "▁duskunlugu": 1236,
      "▁sende": 1237,
      "▁entar": 1238,
      "▁alıyorlar": 1239,
      "▁kazandı": 1240,
      "▁ihan": 1241,
      "▁sahipler": 1242,
      "▁ten": 1243,
      "▁zavallı": 1244,
      "▁olaganustu": 1245,
      "▁siparisleri": 1246,
      "▁ortu": 1247,
      "##erdeki": 1248,
      "##leyicileri": 1249,
      "▁birtak": 1250,
      "▁yasa": 1251,
      "▁fat": 1252,
      "▁rıza": 1253,
      "▁surec": 1254,
      "##.12": 1255,
      "▁hepsinden": 1256,
      "▁hallerini": 1257,
      "▁baslamak": 1258,
      "▁bale": 1259,
      "▁gogsune": 1260,
      "▁rahatlıgı": 1261,
      "▁oakland'a": 1262,
      "▁17": 1263,
      "▁parcalar": 1264,
      "▁kalkıp": 1265,
      "▁31": 1266,
      "▁ebe": 1267,
      "##ınız": 1268,
      "▁kil": 1269,
      "▁wil": 1270,
      "▁piyasasında": 1271,
      "▁olsun": 1272,
      "##usa": 1273,
      "▁sahan": 1274,
      "▁olaydan": 1275,
      "▁12": 1276,
      "▁ren": 1277,
      "▁hanimdi": 1278,
      "▁koltukta": 1279,
      "▁kestir": 1280,
      "▁derste": 1281,
      "▁limuzin": 1282,
      "▁akp": 1283,
      "▁aracılı": 1284,
      "▁basketbol": 1285,
      "▁sims": 1286,
      "##cılıgın": 1287,
      "▁kaleci": 1288,
      "▁satıs": 1289,
      "▁bolumunu": 1290,
      "▁kısı": 1291,
      "▁haftaya": 1292,
      "▁boynuz": 1293,
      "▁loc": 1294,
      "##ometr": 1295,
      "▁kardesi": 1296,
      "▁baklav": 1297,
      "▁bin": 1298,
      "▁zaman": 1299,
      "▁dov": 1300,
      "▁lam": 1301,
      "##ima": 1302,
      "▁gezi": 1303,
      "▁city": 1304,
      "▁doldur": 1305,
      "▁maliyet": 1306,
      "▁uzlas": 1307,
      "▁sozum": 1308,
      "▁bozul": 1309,
      "▁duyurdu": 1310,
      "▁ikisi": 1311,
      "▁pisir": 1312,
      "▁sevk": 1313,
      "▁sor": 1314,
      "▁dusundu": 1315,
      "▁sayg": 1316,
      "▁esyalar": 1317,
      "##agını": 1318,
      "▁vol": 1319,
      "▁alabilir": 1320,
      "##mos": 1321,
      "▁teyp": 1322,
      "▁anlıslanabilirlik": 1323,
      "▁havalimanı'nda": 1324,
      "▁iktisat": 1325,
      "▁har": 1326,
      "▁tır": 1327,
      "▁rezervasyonu": 1328,
      "▁otomobiller": 1329,
      "▁lob": 1330,
      "▁gemiler": 1331,
      "▁cift": 1332,
      "▁acmayı": 1333,
      "▁sablon": 1334,
      "▁gelenek": 1335,
      "▁futbol": 1336,
      "▁pilavı": 1337,
      "##lenecek": 1338,
      "▁ayagını": 1339,
      "0": 1340,
      "▁kesin": 1341,
      "▁baz": 1342,
      "▁ip": 1343,
      "▁turlar": 1344,
      "##mes": 1345,
      "##lılara": 1346,
      "▁dar": 1347,
      "▁fabrikayı": 1348,
      "▁yarar": 1349,
      "▁onayladı": 1350,
      "▁gelmiyor": 1351,
      "▁uc": 1352,
      "##irler": 1353,
      "▁sokagın": 1354,
      "▁sar": 1355,
      "▁kadın": 1356,
      "##bay": 1357,
      "##kili": 1358,
      "▁devrimci": 1359,
      "▁kalkan": 1360,
      "▁ticari": 1361,
      "▁sevgisi": 1362,
      "▁h": 1363,
      "▁iyi": 1364,
      "##alarımızı": 1365,
      "##esti": 1366,
      "▁politikacılar": 1367,
      "▁minibar": 1368,
      "▁ici": 1369,
      "##lesi": 1370,
      "▁televizyonda": 1371,
      "▁neh": 1372,
      "##uyle": 1373,
      "##jik": 1374,
      "##lastır": 1375,
      "▁rezalet": 1376,
      "##mektir": 1377,
      "▁projede": 1378,
      "▁teneke": 1379,
      "▁tanesi": 1380,
      "▁kans": 1381,
      "▁kelimeleri": 1382,
      "▁operasyonu": 1383,
      "▁dayan": 1384,
      "▁inter": 1385,
      "▁iscinin": 1386,
      "▁saglık": 1387,
      "▁mesaj": 1388,
      "▁bizler": 1389,
      "▁mucev": 1390,
      "8": 1391,
      "▁evvela": 1392,
      "▁esim": 1393,
      "##uyu": 1394,
      "▁olunca": 1395,
      "##ladıgını": 1396,
      "▁ingil": 1397,
      "##tuk": 1398,
      "##tı": 1399,
      "##urdu": 1400,
      "▁ihtiyacim": 1401,
      "##yak": 1402,
      "▁direktor": 1403,
      "▁emir": 1404,
      "▁a.": 1405,
      "▁ceket": 1406,
      "##aba": 1407,
      "▁basak": 1408,
      "##lege": 1409,
      "##iklerin": 1410,
      "▁onundeki": 1411,
      "▁anlıs": 1412,
      "▁nav": 1413,
      "##cisi": 1414,
      "▁kov": 1415,
      "▁hizmet": 1416,
      "▁kapıya": 1417,
      "##abet": 1418,
      "▁199": 1419,
      "##ebiliriz": 1420,
      "▁final": 1421,
      "▁t": 1422,
      "▁denli": 1423,
      "▁doneme": 1424,
      "▁ortam": 1425,
      "▁kaymakam": 1426,
      "▁hok": 1427,
      "##ilerini": 1428,
      "▁medy": 1429,
      "##edigim": 1430,
      "##lamada": 1431,
      "##meyecegini": 1432,
      "▁bagımsız": 1433,
      "##ola": 1434,
      "▁onemi": 1435,
      "##ligim": 1436,
      "▁bosal": 1437,
      "▁kokteyl": 1438,
      "2": 1439,
      "▁havuzlar": 1440,
      "▁dusmesine": 1441,
      "”": 1442,
      "▁mahallede": 1443,
      "▁nan": 1444,
      "▁program": 1445,
      "▁mobilyalar": 1446,
      "##gara": 1447,
      "▁onerdi": 1448,
      "▁uyar": 1449,
      "▁taz": 1450,
      "▁yansıt": 1451,
      "▁seyret": 1452,
      "▁yemegine": 1453,
      "▁araclara": 1454,
      "▁faaliyetlerinin": 1455,
      "▁ediliyor": 1456,
      "▁cer": 1457,
      "▁sayıda": 1458,
      "##otuz": 1459,
      "▁sadakat": 1460,
      "▁musam": 1461,
      "▁bolumun": 1462,
      "▁puanlama": 1463,
      "▁selef": 1464,
      "##esel": 1465,
      "▁piyasanın": 1466,
      "▁ets": 1467,
      "##yon": 1468,
      "▁dusunuyorum": 1469,
      "▁bilgil": 1470,
      "▁pesinden": 1471,
      "##araya": 1472,
      "##sulu": 1473,
      "▁yonde": 1474,
      "▁kuyruk": 1475,
      "▁baskal": 1476,
      "▁icecekleri": 1477,
      "▁yoluna": 1478,
      "▁oncelikle": 1479,
      "▁umit": 1480,
      "▁yoneticilerine": 1481,
      "▁gonlunu": 1482,
      "▁karam": 1483,
      "##var": 1484,
      "▁48": 1485,
      "▁rutubet": 1486,
      "##mızı": 1487,
      "▁acent": 1488,
      "▁ifsa": 1489,
      "▁hendek": 1490,
      "▁dok": 1491,
      "▁belgeler": 1492,
      "▁malı": 1493,
      "##islerden": 1494,
      "▁kahval": 1495,
      "▁lehine": 1496,
      "▁coc": 1497,
      "▁evimde": 1498,
      "##diyen": 1499,
      "▁kararları": 1500,
      "▁konforlu": 1501,
      "▁olmasa": 1502,
      "##izasyon": 1503,
      "▁deri": 1504,
      "▁esi": 1505,
      "▁yukum": 1506,
      "▁pazarına": 1507,
      "▁civ": 1508,
      "▁babama": 1509,
      "▁rehberlik": 1510,
      "▁kahvenin": 1511,
      "▁gazeteleri": 1512,
      "▁ruzgarı": 1513,
      "▁kalanlar": 1514,
      "▁newark": 1515,
      "▁bitmis": 1516,
      "▁edecekti": 1517,
      "▁to": 1518,
      "▁tiyatroda": 1519,
      "▁konsey": 1520,
      "##yl": 1521,
      "##astır": 1522,
      "▁mecmu": 1523,
      "▁tic": 1524,
      "▁muhabbet": 1525,
      "▁jet": 1526,
      "▁enflasyonun": 1527,
      "##agının": 1528,
      "▁canları": 1529,
      "▁mavi": 1530,
      "▁gorusmelerin": 1531,
      "▁arbitraj": 1532,
      "▁kapmak": 1533,
      "▁isletmelere": 1534,
      "▁geri": 1535,
      "▁endiseleri": 1536,
      "##isel": 1537,
      "▁yat": 1538,
      "▁haket": 1539,
      "▁pilotlar": 1540,
      "▁topa": 1541,
      "##sor": 1542,
      "##tan": 1543,
      "##ıla": 1544,
      "▁parki": 1545,
      "▁il": 1546,
      "▁fırsatı": 1547,
      "▁haberde": 1548,
      "##lamıstır": 1549,
      "▁hanımı": 1550,
      "▁bilimin": 1551,
      "▁kusak": 1552,
      "##lesini": 1553,
      "▁gazel": 1554,
      "▁kamyon": 1555,
      "▁devleti": 1556,
      "▁tazminatı": 1557,
      "▁dinam": 1558,
      "▁yasındaki": 1559,
      "##iyla": 1560,
      "▁hareketin": 1561,
      "##ren": 1562,
      "▁dunyası": 1563,
      "▁pah": 1564,
      "▁odemeyi": 1565,
      "##ısında": 1566,
      "▁ıslık": 1567,
      "##akin": 1568,
      "▁ruhsat": 1569,
      "▁durumunun": 1570,
      "▁bolgesine": 1571,
      "##lamıyor": 1572,
      "▁sez": 1573,
      "▁boyutta": 1574,
      "##suzluk": 1575,
      "▁suclamalar": 1576,
      "##imizi": 1577,
      "▁can": 1578,
      "##ilya": 1579,
      "▁tıkır": 1580,
      "▁direksiyon": 1581,
      "▁oteldi": 1582,
      "▁asist": 1583,
      "▁maddesi": 1584,
      "##meliyim": 1585,
      "##ındı": 1586,
      "▁koylu": 1587,
      "▁yazarlarının": 1588,
      "▁nezaket": 1589,
      "##ational": 1590,
      "▁cın": 1591,
      "▁bununla": 1592,
      "▁endustriler": 1593,
      "▁kost": 1594,
      "▁ellerinde": 1595,
      "▁inan": 1596,
      "##ımdır": 1597,
      "▁olayla": 1598,
      "▁davetliler": 1599,
      "▁ima": 1600,
      "▁edilecegini": 1601,
      "▁derece": 1602,
      "▁urun": 1603,
      "▁gorunus": 1604,
      "##cagıza": 1605,
      "▁tuketiciler": 1606,
      "▁hissesini": 1607,
      "▁bilete": 1608,
      "▁yolu": 1609,
      "▁maks": 1610,
      "▁doldurdu": 1611,
      "▁dallarını": 1612,
      "##sinin": 1613,
      "▁simgesi": 1614,
      "▁tabur": 1615,
      "▁bakanlıgı'nın": 1616,
      "▁komite": 1617,
      "▁ulkelerden": 1618,
      "▁korku": 1619,
      "##oj": 1620,
      "▁indir": 1621,
      "##ındır": 1622,
      "▁oil": 1623,
      "▁nokta": 1624,
      "▁bulunmaktadır": 1625,
      "▁trilyon": 1626,
      "▁gorusmeler": 1627,
      "▁gidis": 1628,
      "##akını": 1629,
      "▁sadece": 1630,
      "▁cekip": 1631,
      "▁muhalle": 1632,
      "▁desteklen": 1633,
      "▁cırpıda": 1634,
      "##isiydi": 1635,
      "▁isletmesi": 1636,
      "##ullu": 1637,
      "▁ihracları": 1638,
      "▁uykusuna": 1639,
      "▁onlerinde": 1640,
      "▁agacların": 1641,
      "▁golg": 1642,
      "▁cenaz": 1643,
      "▁dib": 1644,
      "##izin": 1645,
      "▁suruk": 1646,
      "▁reding": 1647,
      "▁carsıda": 1648,
      "▁hastalıgın": 1649,
      "▁editor": 1650,
      "▁yiyor": 1651,
      "▁sun": 1652,
      "▁piyango": 1653,
      "▁arkasını": 1654,
      "▁hakkın": 1655,
      "##ılgan": 1656,
      "##unlar": 1657,
      "▁kararsizim": 1658,
      "▁iktidara": 1659,
      "▁1/2": 1660,
      "▁kabukları": 1661,
      "▁raporu": 1662,
      "▁benimle": 1663,
      "##kın": 1664,
      "▁fig": 1665,
      "▁emperyalizm": 1666,
      "▁burası": 1667,
      "▁sandıgı": 1668,
      "##'nde": 1669,
      "##\\/": 1670,
      "##5'ten": 1671,
      "▁bayır": 1672,
      "▁ucusların": 1673,
      "▁amc": 1674,
      "##macalar": 1675,
      "##ph": 1676,
      "▁sıcaktan": 1677,
      "##enti": 1678,
      "▁enstitusu": 1679,
      "▁sacı": 1680,
      "▁kendisi": 1681,
      "▁karabiber": 1682,
      "▁kilisesi": 1683,
      "▁karac": 1684,
      "##70'": 1685,
      "▁kandil": 1686,
      "▁performanstan": 1687,
      "##manı": 1688,
      "▁gerektigini": 1689,
      "##bardım": 1690,
      "▁dogruya": 1691,
      "▁patiska": 1692,
      "▁sonbaharı": 1693,
      "▁etkinlikler": 1694,
      "▁peki": 1695,
      "▁bası": 1696,
      "##co": 1697,
      "##isk": 1698,
      "▁veren": 1699,
      "▁kapsam": 1700,
      "▁tahvili": 1701,
      "▁talebin": 1702,
      "▁kafamda": 1703,
      "▁baslar": 1704,
      "▁fener": 1705,
      "▁chp": 1706,
      "▁anlattım": 1707,
      "▁tex": 1708,
      "##demli": 1709,
      "▁oakland": 1710,
      "▁sahilde": 1711,
      "##cu": 1712,
      "▁medeniyet": 1713,
      "##suzlugu": 1714,
      "##uculuk": 1715,
      "▁vazif": 1716,
      "##lıklarını": 1717,
      "##lantılı": 1718,
      "▁elinizde": 1719,
      "▁olgunluk": 1720,
      "▁ilisk": 1721,
      "##sıp": 1722,
      "▁edilebilir": 1723,
      "▁pat": 1724,
      "##dim": 1725,
      "▁duvarın": 1726,
      "▁bogazici": 1727,
      "▁iman": 1728,
      "▁meyve": 1729,
      "▁ertesi": 1730,
      "▁vuc": 1731,
      "▁kimseyi": 1732,
      "▁herif": 1733,
      "▁etmisler": 1734,
      "##mma": 1735,
      "▁bildirildi": 1736,
      "▁deg": 1737,
      "▁3.ceyrek": 1738,
      "▁birligi'nin": 1739,
      "▁bilgim": 1740,
      "##amba": 1741,
      "▁aradi": 1742,
      "##aladıgını": 1743,
      "▁istediler": 1744,
      "▁tırman": 1745,
      "▁dolarına": 1746,
      "▁oakland'dan": 1747,
      "▁roman": 1748,
      "▁islemlerin": 1749,
      "▁metrek": 1750,
      "▁yaptı": 1751,
      "▁hastaya": 1752,
      "▁alıyordu": 1753,
      "##iyeleri": 1754,
      "▁futbolcu": 1755,
      "▁satıcıları": 1756,
      "▁topluma": 1757,
      "▁prensip": 1758,
      "▁cıkarları": 1759,
      "▁meydan": 1760,
      "▁minder": 1761,
      "▁esyaları": 1762,
      "▁isletmeler": 1763,
      "▁faktor": 1764,
      "▁endise": 1765,
      "▁ol": 1766,
      "▁devlet": 1767,
      "▁mahkemede": 1768,
      "▁tesh": 1769,
      "▁hataları": 1770,
      "▁tav": 1771,
      "▁artısına": 1772,
      "▁secmek": 1773,
      "▁tıpkı": 1774,
      "▁yanında": 1775,
      "▁cografya": 1776,
      "▁kisiler": 1777,
      "▁palt": 1778,
      "▁kavg": 1779,
      "##rlikte": 1780,
      "▁hurr": 1781,
      "##dar": 1782,
      "▁mez": 1783,
      "▁uygundu": 1784,
      "##iyeden": 1785,
      "▁evet": 1786,
      "▁merte": 1787,
      "\\": 1788,
      "▁telgraf": 1789,
      "▁mahkeme": 1790,
      "▁zinc": 1791,
      "▁hayatımı": 1792,
      "▁kahveci": 1793,
      "▁toronto'dan": 1794,
      "▁ask": 1795,
      "▁yasanan": 1796,
      "▁iznini": 1797,
      "▁toplam": 1798,
      "##cil": 1799,
      "▁kızdır": 1800,
      "▁cana": 1801,
      "##kse": 1802,
      "##larımız": 1803,
      "▁sikinti": 1804,
      "##lesine": 1805,
      "▁dan": 1806,
      "▁hasta": 1807,
      "▁yuzlu": 1808,
      "▁dıs": 1809,
      "▁delta": 1810,
      "▁baslaması": 1811,
      "##lıg": 1812,
      "▁hay": 1813,
      "##lanacak": 1814,
      "▁tesisleri": 1815,
      "▁degerine": 1816,
      "▁ihalesi": 1817,
      "##lesen": 1818,
      "##lim": 1819,
      "▁sepet": 1820,
      "▁pudra": 1821,
      "##lanı": 1822,
      "▁gan": 1823,
      "##l": 1824,
      "▁amac": 1825,
      "▁stu": 1826,
      "▁sit": 1827,
      "▁toparlanma": 1828,
      "▁taraflar": 1829,
      "##dogu": 1830,
      "▁taraftarları": 1831,
      "▁davran": 1832,
      "▁dag": 1833,
      "##ınızı": 1834,
      "▁konusma": 1835,
      "▁norma": 1836,
      "##yeni": 1837,
      "##9": 1838,
      "▁yemekler": 1839,
      "▁at": 1840,
      "▁edemey": 1841,
      "▁imam": 1842,
      "▁neyi": 1843,
      "▁kend": 1844,
      "▁saldırgan": 1845,
      "##ize": 1846,
      "##medim": 1847,
      "##amızın": 1848,
      "▁havuz": 1849,
      "▁sampanya": 1850,
      "##ıyorlar": 1851,
      "##ern": 1852,
      "▁kullandıgını": 1853,
      "▁mucadeleyi": 1854,
      "▁olcu": 1855,
      "##ilet": 1856,
      "##hi": 1857,
      "▁performansa": 1858,
      "▁carsıya": 1859,
      "▁bilinc": 1860,
      "▁gecekon": 1861,
      "▁tahta": 1862,
      "▁proje": 1863,
      "▁hissede": 1864,
      "##inden": 1865,
      "▁seyi": 1866,
      "▁edici": 1867,
      "▁cıkarmıs": 1868,
      "▁dip": 1869,
      "▁detroit": 1870,
      "##leyip": 1871,
      "▁(": 1872,
      "▁gunune": 1873,
      "▁rey": 1874,
      "▁davar": 1875,
      "▁vas": 1876,
      "▁orman": 1877,
      "▁ediyorum": 1878,
      "▁89": 1879,
      "▁noktasında": 1880,
      "▁kerp": 1881,
      "##ulmus": 1882,
      "▁seyir": 1883,
      "▁makam": 1884,
      "▁sutu": 1885,
      "▁sapk": 1886,
      "▁tesiste": 1887,
      "▁babasından": 1888,
      "▁derecelendirme": 1889,
      "▁baskumandan": 1890,
      "▁annemden": 1891,
      "▁reklamlar": 1892,
      "▁ote": 1893,
      "▁cebinden": 1894,
      "▁yuvarlak": 1895,
      "▁koruma": 1896,
      "▁mans": 1897,
      "▁elle": 1898,
      "▁cıkması": 1899,
      "##irli": 1900,
      "▁ceph": 1901,
      "▁varlık": 1902,
      "▁v": 1903,
      "▁sistemini": 1904,
      "##edikleri": 1905,
      "▁ansik": 1906,
      "▁dokuz": 1907,
      "##esen": 1908,
      "▁studyo": 1909,
      "▁ucakları": 1910,
      "▁cantasında": 1911,
      "▁makinesi": 1912,
      "##ler": 1913,
      "▁baglan": 1914,
      "▁zapt": 1915,
      "▁aylarında": 1916,
      "▁fed": 1917,
      "##melerde": 1918,
      "▁kocası": 1919,
      "▁ihmal": 1920,
      "##yasını": 1921,
      "##imlari": 1922,
      "▁kavramının": 1923,
      "##desine": 1924,
      "▁kazanmak": 1925,
      "##des": 1926,
      "▁ayrica": 1927,
      "##ince": 1928,
      "▁iclerinde": 1929,
      "▁davasında": 1930,
      "▁gectiler": 1931,
      "▁sahis": 1932,
      "▁yaptir": 1933,
      "▁201": 1934,
      "▁tesaduf": 1935,
      "▁cıkarıyor": 1936,
      "▁gercege": 1937,
      "##ogu": 1938,
      "▁dede": 1939,
      "▁cirit": 1940,
      "▁bilmiyordu": 1941,
      "##ish": 1942,
      "##lay": 1943,
      "▁gecenin": 1944,
      "▁tıg": 1945,
      "▁kef": 1946,
      "▁jandarma": 1947,
      "##acan": 1948,
      "▁oynuyor": 1949,
      "##atıcı": 1950,
      "▁tep": 1951,
      "##imizin": 1952,
      "▁denver'den": 1953,
      "##dıgına": 1954,
      "▁isbirligi": 1955,
      "▁misafirin": 1956,
      "▁kosullarına": 1957,
      "▁tavr": 1958,
      "▁fiyatını": 1959,
      "##adın": 1960,
      "##ıyı": 1961,
      "▁topluluk": 1962,
      "##'luk": 1963,
      "▁zamanı": 1964,
      "▁riske": 1965,
      "▁hizmete": 1966,
      "▁taraftar": 1967,
      "▁hatası": 1968,
      "▁umur": 1969,
      "▁fakul": 1970,
      "▁vesik": 1971,
      "▁sendika": 1972,
      "▁yazısı": 1973,
      "▁yapımı": 1974,
      "▁iliskisi": 1975,
      "▁fac": 1976,
      "▁kitaplara": 1977,
      "▁yemegi": 1978,
      "▁ayrılmak": 1979,
      "▁grubunun": 1980,
      "▁endisesi": 1981,
      "▁tamamen": 1982,
      "▁herhal": 1983,
      "▁ayrıntı": 1984,
      "▁sebze": 1985,
      "##il": 1986,
      "##ville": 1987,
      "##ardı": 1988,
      "▁herkese": 1989,
      "##>": 1990,
      "▁yede": 1991,
      "▁gırtlag": 1992,
      "▁programının": 1993,
      "▁bakıyorum": 1994,
      "##endinin": 1995,
      "▁derken": 1996,
      "▁anadolu": 1997,
      "▁obu": 1998,
      "##kunu": 1999,
      "▁nar": 2000,
      "▁ilgilendiler": 2001,
      "▁yorum": 2002,
      "##osunun": 2003,
      "▁karıstı": 2004,
      "▁kuc": 2005,
      "▁pist": 2006,
      "##ırda": 2007,
      "▁icerisinde": 2008,
      "▁boyutu": 2009,
      "##ilmeye": 2010,
      "##urcuk": 2011,
      "▁batak": 2012,
      "##ain": 2013,
      "▁ulkede": 2014,
      "▁panel": 2015,
      "▁sıkıntıları": 2016,
      "▁tasıdı": 2017,
      "▁birco": 2018,
      "▁panik": 2019,
      "▁kumsali": 2020,
      "▁lal": 2021,
      "▁dostlar": 2022,
      "▁bardagın": 2023,
      "▁vaktinde": 2024,
      "▁kızım": 2025,
      "▁fiyata": 2026,
      "▁birey": 2027,
      "##layabilir": 2028,
      "(": 2029,
      "▁ortamında": 2030,
      "##mem": 2031,
      "▁piyano": 2032,
      "▁bine": 2033,
      "▁phoenix'den": 2034,
      "##okr": 2035,
      "##ırım": 2036,
      "▁album": 2037,
      "##larımıza": 2038,
      "▁kocaman": 2039,
      "##eye": 2040,
      "▁mangal": 2041,
      "▁yogurt": 2042,
      "▁esv": 2043,
      "##apark": 2044,
      "▁dolardı": 2045,
      "▁ederler": 2046,
      "▁okullar": 2047,
      "▁dusuyor": 2048,
      "▁veyahut": 2049,
      "▁kartı": 2050,
      "▁kadınlara": 2051,
      "▁ederken": 2052,
      "▁kazanım": 2053,
      "▁oldugumuz": 2054,
      "##ecegini": 2055,
      "▁chicago'dan": 2056,
      "##eksu": 2057,
      "▁balta": 2058,
      "▁sik": 2059,
      "##era": 2060,
      "##orma": 2061,
      "▁karsilamadi": 2062,
      "▁bosa": 2063,
      "▁ucusuna": 2064,
      "▁hedefleri": 2065,
      "▁iskele": 2066,
      "▁dow": 2067,
      "▁rıht": 2068,
      "▁isg": 2069,
      "▁cograf": 2070,
      "##ikten": 2071,
      "▁planladıgını": 2072,
      "▁vermeye": 2073,
      "▁sevimli": 2074,
      "▁vurus": 2075,
      "▁mahp": 2076,
      "▁univers": 2077,
      "##sizim": 2078,
      "▁ruzg": 2079,
      "▁cogunun": 2080,
      "▁onder": 2081,
      "▁belirtildi": 2082,
      "##cusu": 2083,
      "▁darbe": 2084,
      "##asur": 2085,
      "▁mevzuat": 2086,
      "▁san": 2087,
      "▁ortusu": 2088,
      "▁namına": 2089,
      "##50'": 2090,
      "##asıdır": 2091,
      "▁denizde": 2092,
      "▁u": 2093,
      "▁gram": 2094,
      "▁kimya": 2095,
      "▁giden": 2096,
      "▁babanın": 2097,
      "##umuzda": 2098,
      "▁milyondan": 2099,
      "▁havlular": 2100,
      "▁gelmis": 2101,
      "▁avuk": 2102,
      "▁sozcu": 2103,
      "▁hol": 2104,
      "▁surun": 2105,
      "##om": 2106,
      "▁satırları": 2107,
      "▁dikkat": 2108,
      "▁iste": 2109,
      "▁kızlarla": 2110,
      "##tenin": 2111,
      "▁mesa": 2112,
      "▁teskil": 2113,
      "▁kurek": 2114,
      "▁kazasında": 2115,
      "▁nereye": 2116,
      "▁eb": 2117,
      "▁dinlen": 2118,
      "▁formulu": 2119,
      "▁1'den": 2120,
      "▁haps": 2121,
      "▁yargıl": 2122,
      "▁gene": 2123,
      "##unuzun": 2124,
      "▁basarısı": 2125,
      "##toru": 2126,
      "##erek": 2127,
      "▁yukselis": 2128,
      "▁gelistirmek": 2129,
      "▁milyardan": 2130,
      "▁cıgır": 2131,
      "▁sure": 2132,
      "▁bayi": 2133,
      "▁taahhut": 2134,
      "▁milyonu": 2135,
      "▁cırak": 2136,
      "▁cıkar": 2137,
      "▁gon": 2138,
      "##omosyon": 2139,
      "▁aslına": 2140,
      "▁isaret": 2141,
      "▁kimseler": 2142,
      "▁duyar": 2143,
      "##armak": 2144,
      "▁45": 2145,
      "##tigim": 2146,
      "▁40": 2147,
      "▁ayrıldı": 2148,
      "##istim": 2149,
      "▁donusum": 2150,
      "▁yaprakları": 2151,
      "##akti": 2152,
      "▁kahvalti": 2153,
      "▁huzun": 2154,
      "▁ıs": 2155,
      "▁fikirler": 2156,
      "##kor": 2157,
      "▁personelin": 2158,
      "##egiyle": 2159,
      "##uler": 2160,
      "##kunc": 2161,
      "▁seyr": 2162,
      "▁kalabalıgın": 2163,
      "▁raporun": 2164,
      "▁yetersizligi": 2165,
      "▁koy": 2166,
      "▁dine": 2167,
      "▁yaptim": 2168,
      "▁cincinnati": 2169,
      "▁amacı": 2170,
      "▁izlenim": 2171,
      "▁serp": 2172,
      "▁arabası": 2173,
      "##as": 2174,
      "##ara": 2175,
      "##dug": 2176,
      "▁alısver": 2177,
      "##acaat": 2178,
      "##ıldıgına": 2179,
      "▁intik": 2180,
      "##memek": 2181,
      "##lemesi": 2182,
      "▁gunun": 2183,
      "▁kemer": 2184,
      "▁ortal": 2185,
      "▁hadis": 2186,
      "▁varıncaya": 2187,
      "▁ciddi": 2188,
      "▁kurumlar": 2189,
      "▁zavallının": 2190,
      "▁sobanın": 2191,
      "▁gomlegi": 2192,
      "▁imparatorlugu": 2193,
      "▁pabuc": 2194,
      "▁yarıda": 2195,
      "▁insanları": 2196,
      "##larca": 2197,
      "▁lisan": 2198,
      "##ıgım": 2199,
      "##sizligi": 2200,
      "▁madam": 2201,
      "▁sokaklarda": 2202,
      "▁bahset": 2203,
      "▁hicbir": 2204,
      "▁gelismeler": 2205,
      "▁kıdem": 2206,
      "▁gid": 2207,
      "▁ureticilerinin": 2208,
      "▁arkası": 2209,
      "▁kuvvetler": 2210,
      "▁olurlar": 2211,
      "▁tereyagı": 2212,
      "▁artırma": 2213,
      "##meni": 2214,
      "##bet": 2215,
      "▁acente": 2216,
      "##ous": 2217,
      "▁dusurmek": 2218,
      "▁gey": 2219,
      "▁boyunda": 2220,
      "▁gecim": 2221,
      "▁koyde": 2222,
      "▁zamandan": 2223,
      "##aen": 2224,
      "▁gecmisi": 2225,
      "▁kayın": 2226,
      "##mız": 2227,
      "▁yaklasık": 2228,
      "▁gozune": 2229,
      "▁fiy": 2230,
      "▁eziyet": 2231,
      "▁yaln": 2232,
      "##agoz": 2233,
      "##ulen": 2234,
      "▁ayni": 2235,
      "▁gorevi": 2236,
      "▁tabancayı": 2237,
      "▁bırakır": 2238,
      "▁kusu": 2239,
      "▁getirmek": 2240,
      "▁newark'a": 2241,
      "▁seninle": 2242,
      "▁mi": 2243,
      "▁dil": 2244,
      "##9'da": 2245,
      "▁ahkam": 2246,
      "▁ist": 2247,
      "▁ker": 2248,
      "▁programı": 2249,
      "##magını": 2250,
      "▁ayakkabı": 2251,
      "##%": 2252,
      "▁kullanılan": 2253,
      "▁kud": 2254,
      "▁kus": 2255,
      "▁calısıyorum": 2256,
      "▁elbiselerini": 2257,
      "##lendi": 2258,
      "▁kurtulur": 2259,
      "▁sorular": 2260,
      "▁resim": 2261,
      "##ırıp": 2262,
      "▁yalı": 2263,
      "▁saglıgı": 2264,
      "▁cimento": 2265,
      "▁40'": 2266,
      "▁sanmıyorum": 2267,
      "▁international": 2268,
      "▁sendromu": 2269,
      "▁kem": 2270,
      "▁onemini": 2271,
      "▁dergiler": 2272,
      "▁amerikan": 2273,
      "▁baskanlıgında": 2274,
      "##ılıklar": 2275,
      "##land": 2276,
      "▁be": 2277,
      "▁onlugu": 2278,
      "▁bahceleri": 2279,
      "▁vucudun": 2280,
      "▁belirli": 2281,
      "▁olacagını": 2282,
      "▁mısınız": 2283,
      "▁aylarda": 2284,
      "▁acisindan": 2285,
      "▁dumanı": 2286,
      "▁olmasindan": 2287,
      "▁koprunun": 2288,
      "▁girdim": 2289,
      "▁sırtından": 2290,
      "▁dolar": 2291,
      "▁enstit": 2292,
      "▁acıklıyor": 2293,
      "▁boslukta": 2294,
      "##forlu": 2295,
      "▁tası": 2296,
      "▁odaları": 2297,
      "▁tohumu": 2298,
      "▁korumak": 2299,
      "##tis": 2300,
      "▁teyz": 2301,
      "▁kızıl": 2302,
      "▁durdu": 2303,
      "▁maddeleri": 2304,
      "▁surede": 2305,
      "▁baskanları": 2306,
      "▁birer": 2307,
      "▁cocuklu": 2308,
      "▁sevg": 2309,
      "▁hikaye": 2310,
      "▁fiyatlarıyla": 2311,
      "▁arkamdan": 2312,
      "▁yek": 2313,
      "##abilecegine": 2314,
      "▁yakında": 2315,
      "##ıtma": 2316,
      "▁mulkiyet": 2317,
      "▁doyum": 2318,
      "▁ent": 2319,
      "▁tucc": 2320,
      "▁kayıp": 2321,
      "▁kadınların": 2322,
      "##for": 2323,
      "▁biletleri": 2324,
      "▁bunlara": 2325,
      "▁ayagın": 2326,
      "▁pasaj": 2327,
      "▁telefonla": 2328,
      "▁sef": 2329,
      "▁dısarı": 2330,
      "##ugunun": 2331,
      "▁pad": 2332,
      "▁bolgenin": 2333,
      "▁agır": 2334,
      "##ayıf": 2335,
      "▁adin": 2336,
      "##mamak": 2337,
      "▁birbirinin": 2338,
      "##laya": 2339,
      "▁indianapolis": 2340,
      "##kur": 2341,
      "##anlık": 2342,
      "▁eylul": 2343,
      "▁sanatcılar": 2344,
      "▁fırının": 2345,
      "▁beyin": 2346,
      "▁calısan": 2347,
      "▁uyelik": 2348,
      "▁1.7": 2349,
      "##iciye": 2350,
      "▁tomurcuk": 2351,
      "▁ekledi": 2352,
      "##gimi": 2353,
      "▁peynir": 2354,
      "▁kolayını": 2355,
      "##arlıgı": 2356,
      "▁boynunda": 2357,
      "##'dan": 2358,
      "▁ucagını": 2359,
      "▁cek": 2360,
      "##celeri": 2361,
      "▁1/": 2362,
      "▁tanın": 2363,
      "##emesi": 2364,
      "▁boncuk": 2365,
      "▁et": 2366,
      "##indey": 2367,
      "▁cikol": 2368,
      "##ilerdi": 2369,
      "▁roportaj": 2370,
      "▁cihazı": 2371,
      "▁hub": 2372,
      "▁varol": 2373,
      "▁calgı": 2374,
      "▁sertifikaları": 2375,
      "▁terti": 2376,
      "▁kedi": 2377,
      "##lige": 2378,
      "▁adamdı": 2379,
      "▁muslum": 2380,
      "▁entari": 2381,
      "▁otob": 2382,
      "##kes": 2383,
      "▁nut": 2384,
      "▁sir": 2385,
      "▁nashville": 2386,
      "##antaj": 2387,
      "##likler": 2388,
      "▁yetkisi": 2389,
      "##ker": 2390,
      "▁olcum": 2391,
      "▁borclarını": 2392,
      "▁karsın": 2393,
      "▁isleri": 2394,
      "##ugunde": 2395,
      "▁yapraklar": 2396,
      "▁sent": 2397,
      "▁guvenini": 2398,
      "▁vaktiyle": 2399,
      "##umus": 2400,
      "▁hic": 2401,
      "▁hastalıkların": 2402,
      "▁otor": 2403,
      "##if": 2404,
      "▁degilsin": 2405,
      "▁bitis": 2406,
      "▁islev": 2407,
      "▁kontratı": 2408,
      "▁projesi": 2409,
      "▁desteklemek": 2410,
      "▁suresini": 2411,
      "▁yem": 2412,
      "##meniz": 2413,
      "##'yı": 2414,
      "▁subesi": 2415,
      "▁guv": 2416,
      "##sine": 2417,
      "▁istasyonun": 2418,
      "▁torba": 2419,
      "▁koylulerin": 2420,
      "▁pilak": 2421,
      "▁karbon": 2422,
      "▁icten": 2423,
      "▁calisan": 2424,
      "##arya": 2425,
      "▁--": 2426,
      "▁kitle": 2427,
      "▁siddet": 2428,
      "##ıstı": 2429,
      "▁artır": 2430,
      "##izik": 2431,
      "▁makin": 2432,
      "▁sekreteri": 2433,
      "##kul": 2434,
      "▁reklamcılık": 2435,
      "▁ayı": 2436,
      "##urlu": 2437,
      "▁cozmek": 2438,
      "##dadır": 2439,
      "##abilecek": 2440,
      "▁yaradılıs": 2441,
      "▁yatak": 2442,
      "##slı": 2443,
      "▁52": 2444,
      "##gunuz": 2445,
      "▁cuk": 2446,
      "▁tasıyor": 2447,
      "▁bun": 2448,
      "▁kategorisi": 2449,
      "▁bolgeden": 2450,
      "▁ailesini": 2451,
      "▁cazib": 2452,
      "▁koop": 2453,
      "▁kapatma": 2454,
      "▁varmıs": 2455,
      "▁hac": 2456,
      "▁montaj": 2457,
      "##ktu": 2458,
      "##sarken": 2459,
      "▁dizlerine": 2460,
      "##unun": 2461,
      "▁haval": 2462,
      "▁yenilg": 2463,
      "▁os": 2464,
      "▁muzigini": 2465,
      "▁dizay": 2466,
      "▁bulutu": 2467,
      "▁diplomasi": 2468,
      "##sanız": 2469,
      "▁sarsıntıda": 2470,
      "▁karsiladi": 2471,
      "▁mikr": 2472,
      "##g": 2473,
      "▁ilgiliydiler": 2474,
      "▁den": 2475,
      "▁hakim": 2476,
      "▁aklım": 2477,
      "▁telefon": 2478,
      "##2'ye": 2479,
      "▁binayı": 2480,
      "▁saglam": 2481,
      "▁yolcul": 2482,
      "▁umut": 2483,
      "▁duzel": 2484,
      "##lon": 2485,
      "▁atılım": 2486,
      "▁guvensizlik": 2487,
      "▁ortaklıgı": 2488,
      "▁tadını": 2489,
      "▁muamele": 2490,
      "##yiz": 2491,
      "▁cant": 2492,
      "▁borcun": 2493,
      "##iska": 2494,
      "▁kib": 2495,
      "▁etmekte": 2496,
      "▁durumunu": 2497,
      "▁vaziyet": 2498,
      "▁tab": 2499,
      "▁”": 2500,
      "▁hukuk": 2501,
      "▁kad": 2502,
      "##sk": 2503,
      "##ısık": 2504,
      "▁fatura": 2505,
      "##memistir": 2506,
      "▁masasına": 2507,
      "▁beta": 2508,
      "▁saygı": 2509,
      "▁deli": 2510,
      "▁olmas": 2511,
      "##amadım": 2512,
      "▁kızar": 2513,
      "##manlık": 2514,
      "▁urunleri": 2515,
      "▁orta": 2516,
      "##ko": 2517,
      "##meler": 2518,
      "▁salata": 2519,
      "▁bina": 2520,
      "##imci": 2521,
      "##dıklarını": 2522,
      "▁hız": 2523,
      "▁seyim": 2524,
      "▁beach": 2525,
      "▁rekabetin": 2526,
      "▁dern": 2527,
      "▁tazmin": 2528,
      "▁gunlerini": 2529,
      "▁yapabil": 2530,
      "▁haber": 2531,
      "▁yuzyılda": 2532,
      "▁sikintimiz": 2533,
      "▁yuruyordu": 2534,
      "▁senatorler": 2535,
      "▁tahminini": 2536,
      "▁gorusleri": 2537,
      "▁orgutun": 2538,
      "▁uzerime": 2539,
      "▁hani": 2540,
      "▁jo": 2541,
      "▁tatildi": 2542,
      "▁fi": 2543,
      "▁ateste": 2544,
      "##allah": 2545,
      "▁bahcenin": 2546,
      "▁veya": 2547,
      "##makıllı": 2548,
      "▁sacları": 2549,
      "▁evimizde": 2550,
      "▁hisselere": 2551,
      "▁bilimi": 2552,
      "##trily": 2553,
      "▁sual": 2554,
      "▁saga": 2555,
      "▁banka": 2556,
      "▁com": 2557,
      "▁ye": 2558,
      "▁hosuma": 2559,
      "▁verenler": 2560,
      "##ost": 2561,
      "▁anal": 2562,
      "##sman": 2563,
      "▁kazananlar": 2564,
      "▁karar": 2565,
      "##layacagını": 2566,
      "##sıyor": 2567,
      "▁gelecekteki": 2568,
      "▁montreal": 2569,
      "▁oturmak": 2570,
      "▁hatirlamiyorum": 2571,
      "##alarla": 2572,
      "▁kap": 2573,
      "##\\/8'e": 2574,
      "▁tr": 2575,
      "##gam": 2576,
      "▁vuruyor": 2577,
      "##in": 2578,
      "▁irf": 2579,
      "##nd": 2580,
      "##lusu": 2581,
      "▁buklum": 2582,
      "▁pazara": 2583,
      "▁sınır": 2584,
      "▁tekerlek": 2585,
      "▁hastal": 2586,
      "▁glas": 2587,
      "▁imaj": 2588,
      "▁orada": 2589,
      "▁harita": 2590,
      "▁misin": 2591,
      "c": 2592,
      "▁hın": 2593,
      "▁olanaklari": 2594,
      "▁hocam": 2595,
      "▁oynad": 2596,
      "##kım": 2597,
      "▁kaliforn": 2598,
      "▁kaldı": 2599,
      "▁revize": 2600,
      "▁irmik": 2601,
      "▁gune": 2602,
      "▁gonlumu": 2603,
      "##kırı": 2604,
      "▁hayatımız": 2605,
      "▁columbia": 2606,
      "▁istemiyor": 2607,
      "▁baban": 2608,
      "▁ayakkabılarını": 2609,
      "▁tramv": 2610,
      "▁yerler": 2611,
      "▁gozleri": 2612,
      "▁adeta": 2613,
      "▁acıklama": 2614,
      "▁kimsenin": 2615,
      "▁intern": 2616,
      "##atli": 2617,
      "▁altından": 2618,
      "▁mıdır": 2619,
      "▁iskel": 2620,
      "▁bek": 2621,
      "▁uzerindeydi": 2622,
      "##o'ya": 2623,
      "▁istiklal": 2624,
      "▁sosyal": 2625,
      "▁min": 2626,
      "▁yasın": 2627,
      "▁senetlerinin": 2628,
      "▁calısıyorlar": 2629,
      "▁bosluk": 2630,
      "▁tanıs": 2631,
      "▁lik": 2632,
      "##phis": 2633,
      "##hayet": 2634,
      "▁prote": 2635,
      "▁hisseye": 2636,
      "▁onc": 2637,
      "▁mısın": 2638,
      "▁bacak": 2639,
      "▁teknede": 2640,
      "▁sandıg": 2641,
      "##sas": 2642,
      "▁sayfaları": 2643,
      "▁umuduyla": 2644,
      "▁bili": 2645,
      "▁sayın": 2646,
      "##amıyorum": 2647,
      "▁catısma": 2648,
      "▁tesisten": 2649,
      "▁hissine": 2650,
      "##mekle": 2651,
      "▁sokaklarında": 2652,
      "##sacak": 2653,
      "▁otuz": 2654,
      "▁ceyrekte": 2655,
      "▁yud": 2656,
      "▁kazancın": 2657,
      "▁acısıyla": 2658,
      "##atsız": 2659,
      "▁giderleri": 2660,
      "▁bakanlar": 2661,
      "▁bilgilendirilmek": 2662,
      "▁fonlarına": 2663,
      "▁kattan": 2664,
      "▁takipsizlik": 2665,
      "▁kuvvetin": 2666,
      "▁otomobile": 2667,
      "▁inis": 2668,
      "▁gozle": 2669,
      "▁gunes": 2670,
      "##ımı": 2671,
      "##eceksin": 2672,
      "##egimizi": 2673,
      "▁iptal": 2674,
      "▁bob": 2675,
      "▁istanbul'a": 2676,
      "▁gorevden": 2677,
      "▁islemciler": 2678,
      "▁ism": 2679,
      "▁icermektedir": 2680,
      "##alamak": 2681,
      "▁bircogu": 2682,
      "▁bahar": 2683,
      "▁fısıltı": 2684,
      "##sızlıgı": 2685,
      "▁gelme": 2686,
      "##4'de": 2687,
      "▁berbat": 2688,
      "##gum": 2689,
      "▁cumle": 2690,
      "▁dusundum": 2691,
      "▁listeleyin": 2692,
      "##lerce": 2693,
      "▁alıntı": 2694,
      "▁olculere": 2695,
      "▁cic": 2696,
      "▁alabil": 2697,
      "▁vapurun": 2698,
      "▁dort": 2699,
      "▁ikinc": 2700,
      "▁topları": 2701,
      "▁sonucunu": 2702,
      "▁…": 2703,
      "▁odada": 2704,
      "▁kanuna": 2705,
      "##esindeki": 2706,
      "▁sakaya": 2707,
      "▁notu": 2708,
      "▁milyonluk": 2709,
      "##yol": 2710,
      "▁tuh": 2711,
      "▁kurtarma": 2712,
      "##paz": 2713,
      "▁petrol": 2714,
      "▁tutt": 2715,
      "▁ne": 2716,
      "▁kitab": 2717,
      "▁masal": 2718,
      "▁tamir": 2719,
      "▁kendisinden": 2720,
      "▁kopya": 2721,
      "▁parkta": 2722,
      "▁isletmeleri": 2723,
      "▁isimlerini": 2724,
      "▁apartman": 2725,
      "▁toplantının": 2726,
      "▁fonu": 2727,
      "▁ediyor": 2728,
      "▁japon": 2729,
      "##tih": 2730,
      "▁yonlerden": 2731,
      "▁koye": 2732,
      "##araj": 2733,
      "▁dolusu": 2734,
      "▁um": 2735,
      "##dikleri": 2736,
      "▁komsu": 2737,
      "▁elimde": 2738,
      "▁animasyon": 2739,
      "##islik": 2740,
      "▁kisiye": 2741,
      "▁koseyi": 2742,
      "▁kaybetti": 2743,
      "##gis": 2744,
      "▁surer": 2745,
      "▁patlıcanı": 2746,
      "▁hukumeti": 2747,
      "##trilyon": 2748,
      "▁avrupa": 2749,
      "▁airlines'in": 2750,
      "▁om": 2751,
      "▁nuf": 2752,
      "▁cam": 2753,
      "##tıgı": 2754,
      "▁serbest": 2755,
      "▁yavasca": 2756,
      "▁inat": 2757,
      "▁piyas": 2758,
      "▁geciriyor": 2759,
      "##mini": 2760,
      "▁uste": 2761,
      "▁uyarısında": 2762,
      "▁dey": 2763,
      "▁toprak": 2764,
      "▁misafirimizle": 2765,
      "▁rezerv": 2766,
      "▁sehrinde": 2767,
      "▁olup": 2768,
      "▁ruzgarların": 2769,
      "▁bahcı": 2770,
      "▁set": 2771,
      "▁beline": 2772,
      "▁ilgiyi": 2773,
      "▁rıhtım": 2774,
      "▁duy": 2775,
      "▁lar": 2776,
      "##'ini": 2777,
      "▁strate": 2778,
      "▁hayatın": 2779,
      "##ade": 2780,
      "##anmak": 2781,
      "##vek": 2782,
      "▁yapılandır": 2783,
      "▁yetenegi": 2784,
      "▁anlarda": 2785,
      "▁keb": 2786,
      "6": 2787,
      "▁baslamıstı": 2788,
      "▁havuzdan": 2789,
      "▁un": 2790,
      "▁gorusmeleri": 2791,
      "▁agb": 2792,
      "##al": 2793,
      "▁adamın": 2794,
      "▁...": 2795,
      "▁alar": 2796,
      "##sızlıga": 2797,
      "▁yonetiminde": 2798,
      "##kum": 2799,
      "▁bahce": 2800,
      "▁fabr": 2801,
      "##lıydı": 2802,
      "##erdi": 2803,
      "▁yapmadıgını": 2804,
      "▁kalorifer": 2805,
      "▁saksı": 2806,
      "▁munaseb": 2807,
      "▁muess": 2808,
      "▁ruhunu": 2809,
      "▁calısanlarının": 2810,
      "▁evimize": 2811,
      "▁fran": 2812,
      "▁tuhaf": 2813,
      "▁duygularını": 2814,
      "▁odasının": 2815,
      "▁sakınca": 2816,
      "▁edecegim": 2817,
      "▁malz": 2818,
      "▁dolabın": 2819,
      "▁haric": 2820,
      "▁hus": 2821,
      "▁ucte": 2822,
      "▁hizmetini": 2823,
      "##ydi": 2824,
      "▁ustası": 2825,
      "▁beygir": 2826,
      "▁gorevlisi": 2827,
      "▁oyunlar": 2828,
      "##ilig": 2829,
      "▁zevk": 2830,
      "▁matematik": 2831,
      "▁sanatcı": 2832,
      "▁tatbik": 2833,
      "##luye": 2834,
      "▁saatin": 2835,
      "▁kuz": 2836,
      "▁askerler": 2837,
      "▁saglamak": 2838,
      "▁depremden": 2839,
      "▁pir": 2840,
      "▁surat": 2841,
      "▁kalor": 2842,
      "▁bereket": 2843,
      "▁poker": 2844,
      "##orm": 2845,
      "▁cesmenin": 2846,
      "▁ogrenc": 2847,
      "##zet": 2848,
      "##.0": 2849,
      "▁verileri": 2850,
      "▁obj": 2851,
      "▁tasarısı": 2852,
      "▁derecelen": 2853,
      "▁saati": 2854,
      "▁pittsburgh'tan": 2855,
      "▁durum": 2856,
      "##udum": 2857,
      "▁sokaga": 2858,
      "▁atların": 2859,
      "▁kenarına": 2860,
      "▁bel": 2861,
      "##cul": 2862,
      "▁yeter": 2863,
      "##takı": 2864,
      "▁ogret": 2865,
      "▁yuze": 2866,
      "▁ode": 2867,
      "▁birlesme": 2868,
      "##ezler": 2869,
      "▁algı": 2870,
      "▁ilce": 2871,
      "▁budak": 2872,
      "▁yeng": 2873,
      "‘": 2874,
      "▁yılında": 2875,
      "##ınıza": 2876,
      "##legin": 2877,
      "▁kararın": 2878,
      "▁trib": 2879,
      "▁borsası'nda": 2880,
      "▁bildigi": 2881,
      "##tem": 2882,
      "▁varlıklar": 2883,
      "▁alımlar": 2884,
      "##istir": 2885,
      "▁yanları": 2886,
      "▁ankete": 2887,
      "▁kaps": 2888,
      "▁kenara": 2889,
      "▁zorla": 2890,
      "▁indian": 2891,
      "##cog": 2892,
      "▁siyas": 2893,
      "▁yorumlara": 2894,
      "▁yapmadim": 2895,
      "▁kondu": 2896,
      "▁trafik": 2897,
      "▁res": 2898,
      "▁secimleri": 2899,
      "▁oturumda": 2900,
      "▁yılan": 2901,
      "▁iliskin": 2902,
      "##'a": 2903,
      "▁duydu": 2904,
      "▁keci": 2905,
      "▁terzi": 2906,
      "▁gozlerden": 2907,
      "##otif": 2908,
      "##ulmustu": 2909,
      "▁seyh": 2910,
      "▁`": 2911,
      "##uza": 2912,
      "▁doktorun": 2913,
      "▁nabz": 2914,
      "▁sirketler": 2915,
      "▁sonucları": 2916,
      "▁aldıgını": 2917,
      "##mektedir": 2918,
      "▁iyiles": 2919,
      "▁atmosfer": 2920,
      "▁kafayı": 2921,
      "▁isini": 2922,
      "##ginde": 2923,
      "▁telefonuma": 2924,
      "▁mukelle": 2925,
      "##mesinde": 2926,
      "▁imtiy": 2927,
      "▁kitaplarını": 2928,
      "##til": 2929,
      "▁terbiye": 2930,
      "▁mufet": 2931,
      "▁mekana": 2932,
      "▁inanclar": 2933,
      "▁1980'lerin": 2934,
      "▁reklamların": 2935,
      "##oglu": 2936,
      "▁selam": 2937,
      "##ıydı": 2938,
      "##mıyordu": 2939,
      "▁onerisi": 2940,
      "▁halden": 2941,
      "▁fert": 2942,
      "▁kısıtlaması": 2943,
      "▁filmi": 2944,
      "▁olma": 2945,
      "▁lut": 2946,
      "▁odami": 2947,
      "##!": 2948,
      "##nla": 2949,
      "##amayacagını": 2950,
      "▁baltimore'ye": 2951,
      "▁dim": 2952,
      "▁kendinin": 2953,
      "▁katal": 2954,
      "▁ayd": 2955,
      "▁gerceklik": 2956,
      "▁42": 2957,
      "▁8'de": 2958,
      "▁golgesinde": 2959,
      "##dat": 2960,
      "▁gerdan": 2961,
      "##emizin": 2962,
      "##oya": 2963,
      "▁mel": 2964,
      "##sav": 2965,
      "▁mahk": 2966,
      "##unikasyon": 2967,
      "▁projenin": 2968,
      "▁teklifte": 2969,
      "▁icimi": 2970,
      "##lık": 2971,
      "▁degerinde": 2972,
      "##fa": 2973,
      "▁rehberim": 2974,
      "##ısına": 2975,
      "##tum": 2976,
      "▁yun": 2977,
      "##anan": 2978,
      "▁sok": 2979,
      "▁mode": 2980,
      "▁yuzle": 2981,
      "▁varlıgın": 2982,
      "##tırmak": 2983,
      "▁sorusturma": 2984,
      "▁elemanlar": 2985,
      "▁oglunun": 2986,
      "▁tasıt": 2987,
      "▁dunyada": 2988,
      "▁sopa": 2989,
      "▁tasarruflar": 2990,
      "▁asagıda": 2991,
      "▁kriz": 2992,
      "##80": 2993,
      "▁yeteri": 2994,
      "▁basbak": 2995,
      "▁onar": 2996,
      "▁sacma": 2997,
      "▁hizmetten": 2998,
      "▁ulasimi": 2999,
      "▁hayalleri": 3000,
      "▁yemeklerini": 3001,
      "▁koru": 3002,
      "▁vadesi": 3003,
      "▁cim": 3004,
      "##bul": 3005,
      "▁kumas": 3006,
      "▁teslim": 3007,
      "▁toplamaya": 3008,
      "▁temizlikte": 3009,
      "▁domates": 3010,
      "##sizdi": 3011,
      "▁uygulama": 3012,
      "▁raf": 3013,
      "▁karsılastırıldıgında": 3014,
      "▁zamankinden": 3015,
      "▁verdigimiz": 3016,
      "##imizden": 3017,
      "▁cumhur": 3018,
      "▁mintan": 3019,
      "▁zaferi": 3020,
      "##/8": 3021,
      "▁uzaga": 3022,
      "▁saman": 3023,
      "▁cumhuriyetci": 3024,
      "▁havadan": 3025,
      "▁mektuplar": 3026,
      "▁benim": 3027,
      "▁tur": 3028,
      "▁his": 3029,
      "▁vasıf": 3030,
      "▁asans": 3031,
      "▁genellikle": 3032,
      "▁ailesi": 3033,
      "▁oldukları": 3034,
      "▁kosesinden": 3035,
      "▁ekonomisinin": 3036,
      "▁pop": 3037,
      "▁anlamı": 3038,
      "▁gozumde": 3039,
      "##are": 3040,
      "▁bos": 3041,
      "##meden": 3042,
      "▁hat": 3043,
      "▁gunde": 3044,
      "##ice": 3045,
      "##unlu": 3046,
      "##kt": 3047,
      "▁eskiydi": 3048,
      "▁ilgisizlik": 3049,
      "▁konusmaya": 3050,
      "##lig": 3051,
      "▁soval": 3052,
      "▁varlıkların": 3053,
      "▁musterileri": 3054,
      "▁portfoy": 3055,
      "▁kanunla": 3056,
      "▁seslere": 3057,
      "▁havlu": 3058,
      "▁teb": 3059,
      "▁gazeteler": 3060,
      "▁fonun": 3061,
      "▁gulery": 3062,
      "▁suyla": 3063,
      "▁corba": 3064,
      "▁mukemmel": 3065,
      "##melere": 3066,
      "▁havuzu": 3067,
      "▁sınav": 3068,
      "▁cayır": 3069,
      "▁gugum": 3070,
      "▁yuzbası": 3071,
      "▁duyguların": 3072,
      "▁avantaj": 3073,
      "▁expr": 3074,
      "▁araplar": 3075,
      "▁varlıgını": 3076,
      "##alam": 3077,
      "##emem": 3078,
      "▁sirket": 3079,
      "▁konuma": 3080,
      "▁ederek": 3081,
      "▁insanların": 3082,
      "▁gre": 3083,
      "▁ad": 3084,
      "##maktan": 3085,
      "##abını": 3086,
      "▁vucuda": 3087,
      "▁uretiminde": 3088,
      "▁tumu": 3089,
      "▁ihtilaf": 3090,
      "##inlere": 3091,
      "▁temizligi": 3092,
      "▁sog": 3093,
      "▁hırsızlar": 3094,
      "▁org": 3095,
      "##goz": 3096,
      "##anma": 3097,
      "▁bilgilerini": 3098,
      "▁mum": 3099,
      "▁pencerenin": 3100,
      "▁atlanta'ya": 3101,
      "##olog": 3102,
      "▁hırsızlık": 3103,
      "▁koseye": 3104,
      "▁acik": 3105,
      "▁yt": 3106,
      "▁aynısını": 3107,
      "▁istasyonda": 3108,
      "▁sanatkar": 3109,
      "##asır": 3110,
      "▁sormak": 3111,
      "▁kims": 3112,
      "##iy": 3113,
      "▁ozellikle": 3114,
      "▁adında": 3115,
      "▁ilg": 3116,
      "##ikti": 3117,
      "▁tamamlanması": 3118,
      "▁havale": 3119,
      "▁donemi": 3120,
      "▁memnunum": 3121,
      "##ib": 3122,
      "▁pekala": 3123,
      "▁kime": 3124,
      "##mazlar": 3125,
      "▁sorusuna": 3126,
      "▁bulamac": 3127,
      "##arif": 3128,
      "▁kaldırımın": 3129,
      "▁onlerine": 3130,
      "▁varıs": 3131,
      "▁kalitesi": 3132,
      "▁deliye": 3133,
      "##eklen": 3134,
      "▁yenilen": 3135,
      "▁durmadan": 3136,
      "▁mikrop": 3137,
      "▁dansı": 3138,
      "▁banyo": 3139,
      "▁sonr": 3140,
      "▁sureci": 3141,
      "▁birbirini": 3142,
      "▁yasıyor": 3143,
      "▁ormanları": 3144,
      "▁soyledik": 3145,
      "##gag": 3146,
      "▁geyikleri": 3147,
      "▁mir": 3148,
      "▁uretiyor": 3149,
      "▁atıyor": 3150,
      "▁kurulunda": 3151,
      "▁oteden": 3152,
      "▁iy": 3153,
      "▁bilin": 3154,
      "▁ankara": 3155,
      "▁cizgi": 3156,
      "##tıgını": 3157,
      "▁pac": 3158,
      "##atur": 3159,
      "▁rakamları": 3160,
      "▁baskent": 3161,
      "▁birinde": 3162,
      "##bol": 3163,
      "▁unite": 3164,
      "▁sehri": 3165,
      "▁kargasa": 3166,
      "▁beyzbol": 3167,
      "▁tuketic": 3168,
      "▁katında": 3169,
      "##ektr": 3170,
      "▁dinler": 3171,
      "▁goruyorum": 3172,
      "▁gozlerimi": 3173,
      "▁iyims": 3174,
      "##kını": 3175,
      "##ilebilir": 3176,
      "▁calısıyor": 3177,
      "▁kokulu": 3178,
      "▁omuzlarına": 3179,
      "##estiler": 3180,
      "▁verimli": 3181,
      "##gım": 3182,
      "▁sırtı": 3183,
      "▁istirak": 3184,
      "▁vurgu": 3185,
      "▁sonraki": 3186,
      "▁mirası": 3187,
      "▁ai": 3188,
      "▁anlasmaları": 3189,
      "▁bıyıkları": 3190,
      "▁saglıyor": 3191,
      "▁pantolonunu": 3192,
      "▁gogsunu": 3193,
      "##unan": 3194,
      "##lanıyor": 3195,
      "##fet": 3196,
      "▁paylas": 3197,
      "▁siirler": 3198,
      "▁gorusu": 3199,
      "▁yapması": 3200,
      "▁polem": 3201,
      "▁tal": 3202,
      "▁corap": 3203,
      "▁yemegin": 3204,
      "▁arad": 3205,
      "▁tutuk": 3206,
      "▁teror": 3207,
      "▁valisi": 3208,
      "▁patlıcan": 3209,
      "▁tavrı": 3210,
      "▁yarad": 3211,
      "▁hattı": 3212,
      "▁ilgisizdi": 3213,
      "▁kapısında": 3214,
      "▁ayrık": 3215,
      "▁bakkal": 3216,
      "▁hazir": 3217,
      "▁temp": 3218,
      "##mi": 3219,
      "▁sı": 3220,
      "▁genelinde": 3221,
      "▁kampanyalardan": 3222,
      "##ift": 3223,
      "##ilen": 3224,
      "▁amerika": 3225,
      "▁iltif": 3226,
      "▁nesir": 3227,
      "##isin": 3228,
      "▁tesir": 3229,
      "##acagini": 3230,
      "▁tutma": 3231,
      "▁jose": 3232,
      "▁olus": 3233,
      "##yete": 3234,
      "▁kaybe": 3235,
      "▁7'den": 3236,
      "▁kenar": 3237,
      "▁yardımc": 3238,
      "▁simdiden": 3239,
      "##lumu": 3240,
      "▁parm": 3241,
      "▁geleni": 3242,
      "▁kambiyo": 3243,
      "▁haberler": 3244,
      "▁papaz": 3245,
      "▁alanlarında": 3246,
      "##tef": 3247,
      "▁katildim": 3248,
      "##lama": 3249,
      "##lıgından": 3250,
      "▁sif": 3251,
      "##ou": 3252,
      "▁kaba": 3253,
      "▁maas": 3254,
      "▁misafire": 3255,
      "▁etrafı": 3256,
      "##layabil": 3257,
      "▁olum": 3258,
      "▁kapanıs": 3259,
      "▁gazetesinin": 3260,
      "▁benzerlik": 3261,
      "▁derv": 3262,
      "▁miktar": 3263,
      "▁espri": 3264,
      "▁cevre": 3265,
      "▁cadde": 3266,
      "▁bulgur": 3267,
      "▁varil": 3268,
      "##lılar": 3269,
      "▁planı": 3270,
      "▁kampanyası": 3271,
      "▁odun": 3272,
      "▁birimini": 3273,
      "▁yeten": 3274,
      "▁yazarları": 3275,
      "##yıl": 3276,
      "▁portf": 3277,
      "▁1.": 3278,
      "▁huner": 3279,
      "▁soyun": 3280,
      "▁25": 3281,
      "▁sorunlarının": 3282,
      "▁noh": 3283,
      "▁kupon": 3284,
      "▁elimle": 3285,
      "▁digerine": 3286,
      "▁abon": 3287,
      "▁soyledim": 3288,
      "##ums": 3289,
      "▁cercevesinde": 3290,
      "▁dolma": 3291,
      "▁anladı": 3292,
      "▁kaldırım": 3293,
      "▁hastalar": 3294,
      "▁ensesine": 3295,
      "▁satıslardan": 3296,
      "▁oak": 3297,
      "##iyiz": 3298,
      "▁yelpaz": 3299,
      "▁6'dan": 3300,
      "▁boks": 3301,
      "▁ogretmen": 3302,
      "▁buyuk": 3303,
      "##ub": 3304,
      "▁daireleri": 3305,
      "##ebil": 3306,
      "▁sulara": 3307,
      "##verdi": 3308,
      "##iger": 3309,
      "▁karlar": 3310,
      "▁ula": 3311,
      "##tıyor": 3312,
      "▁karsılıgını": 3313,
      "▁isimizi": 3314,
      "▁acılıyor": 3315,
      "▁ilcesinde": 3316,
      "▁arzı": 3317,
      "▁tumuyle": 3318,
      "▁kim": 3319,
      "▁zarfın": 3320,
      "▁temiz": 3321,
      "▁esy": 3322,
      "▁ziyafet": 3323,
      "▁dogrusunu": 3324,
      "▁yengec": 3325,
      "▁oda": 3326,
      "##lesinde": 3327,
      "▁sen": 3328,
      "▁uzeri": 3329,
      "▁dahilinde": 3330,
      "##larınız": 3331,
      "▁degerlendiril": 3332,
      "▁9'da": 3333,
      "##'yu": 3334,
      "▁yakin": 3335,
      "▁ray": 3336,
      "▁dul": 3337,
      "▁titriyordu": 3338,
      "##msal": 3339,
      "▁philadelphia": 3340,
      "▁tavan": 3341,
      "##isler": 3342,
      "▁kapatıl": 3343,
      "▁mahkemesi": 3344,
      "##lerdir": 3345,
      "##uzel": 3346,
      "▁eczacı": 3347,
      "▁karab": 3348,
      "▁yanından": 3349,
      "▁hastası": 3350,
      "##esindeydi": 3351,
      "▁calık": 3352,
      "▁elektron": 3353,
      "▁yonu": 3354,
      "▁arif": 3355,
      "▁sabrı": 3356,
      "▁corbası": 3357,
      "##ayede": 3358,
      "▁basvuru": 3359,
      "▁ihracının": 3360,
      "▁urunlerde": 3361,
      "▁fikr": 3362,
      "▁arm": 3363,
      "▁sekilde": 3364,
      "▁mumu": 3365,
      "▁ense": 3366,
      "▁donen": 3367,
      "##masi": 3368,
      "▁etkisi": 3369,
      "▁havayı": 3370,
      "▁icaz": 3371,
      "##ımdan": 3372,
      "▁babamı": 3373,
      "##iliyor": 3374,
      "▁kadir": 3375,
      "##diye": 3376,
      "##alan": 3377,
      "▁yayın": 3378,
      "▁bahceyi": 3379,
      "▁orgut": 3380,
      "▁ortada": 3381,
      "##-b": 3382,
      "##ic": 3383,
      "▁yurt": 3384,
      "##detti": 3385,
      "##yoz": 3386,
      "▁kulag": 3387,
      "▁paydos": 3388,
      "##ırp": 3389,
      "▁gelistirme": 3390,
      "▁orn": 3391,
      "▁santral": 3392,
      "▁anac": 3393,
      "##esil": 3394,
      "##qu": 3395,
      "##dikler": 3396,
      "▁akrab": 3397,
      "▁fil": 3398,
      "##on": 3399,
      "▁temin": 3400,
      "▁tezk": 3401,
      "▁kurustan": 3402,
      "▁sum": 3403,
      "▁sirkete": 3404,
      "##abilir": 3405,
      "▁goruntusu": 3406,
      "##esiyle": 3407,
      "▁mater": 3408,
      "##larımla": 3409,
      "▁kusk": 3410,
      "##ukca": 3411,
      "▁uzere": 3412,
      "##ord": 3413,
      "##hti": 3414,
      "▁yana": 3415,
      "▁bırakıp": 3416,
      "▁ediyorlardı": 3417,
      "▁ayri": 3418,
      "▁pansiyonda": 3419,
      "##ami": 3420,
      "##ich": 3421,
      "▁1989": 3422,
      "▁dedig": 3423,
      "##gıcı": 3424,
      "##leye": 3425,
      "▁manasıyla": 3426,
      "▁kanaat": 3427,
      "##annem": 3428,
      "▁dizgin": 3429,
      "▁100": 3430,
      "▁nush": 3431,
      "▁genclere": 3432,
      "▁birahan": 3433,
      "▁nes": 3434,
      "▁sitesinden": 3435,
      "▁tadima": 3436,
      "▁zaaf": 3437,
      "▁gelmesini": 3438,
      "▁satısını": 3439,
      "▁baskı": 3440,
      "▁tercih": 3441,
      "▁katk": 3442,
      "▁havanın": 3443,
      "▁cagr": 3444,
      "##guye": 3445,
      "##iyorum": 3446,
      "▁vb": 3447,
      "▁arkadasa": 3448,
      "▁tespit": 3449,
      "▁yazıyor": 3450,
      "▁topragın": 3451,
      "##lamam": 3452,
      "▁yoluyla": 3453,
      "▁odasında": 3454,
      "##hwest": 3455,
      "▁kullanılıyor": 3456,
      "##kus": 3457,
      "▁parmakları": 3458,
      "▁girip": 3459,
      "▁analizi": 3460,
      "▁diye": 3461,
      "▁islemci": 3462,
      "▁buldular": 3463,
      "▁baca": 3464,
      "▁35": 3465,
      "▁onunden": 3466,
      "##ak": 3467,
      "▁1": 3468,
      "##dıgından": 3469,
      "▁ettik": 3470,
      "▁yakın": 3471,
      "▁dakik": 3472,
      "##miz": 3473,
      "▁yahut": 3474,
      "▁yuzunde": 3475,
      "▁kısıtlamasını": 3476,
      "▁kadını": 3477,
      "▁oncul": 3478,
      "▁camur": 3479,
      "▁varsa": 3480,
      "▁davalar": 3481,
      "##dıgın": 3482,
      "▁suratı": 3483,
      "▁alternatif": 3484,
      "▁sozune": 3485,
      "▁dostu": 3486,
      "▁gelisim": 3487,
      "▁vardi": 3488,
      "h": 3489,
      "▁bekar": 3490,
      "5": 3491,
      "▁yuzden": 3492,
      "##duguna": 3493,
      "##7'nin": 3494,
      "▁pl": 3495,
      "▁bagırsak": 3496,
      "▁sayfa": 3497,
      "▁id": 3498,
      "##acıkta": 3499,
      "▁yabancı": 3500,
      "▁bulur": 3501,
      "▁adamları": 3502,
      "▁dibine": 3503,
      "▁puan": 3504,
      "▁kotu": 3505,
      "##ons": 3506,
      "▁gruplar": 3507,
      "▁kork": 3508,
      "▁oylama": 3509,
      "▁onum": 3510,
      "▁hamlede": 3511,
      "▁nota": 3512,
      "##eyecegini": 3513,
      "▁muhtır": 3514,
      "▁seferinde": 3515,
      "▁'lı": 3516,
      "▁sirkette": 3517,
      "##baz": 3518,
      "▁yanı": 3519,
      "▁ap": 3520,
      "▁akım": 3521,
      "▁konumda": 3522,
      "▁tev": 3523,
      "▁send": 3524,
      "▁ihtiyacımız": 3525,
      "##ield": 3526,
      "▁esnasında": 3527,
      "##mb": 3528,
      "▁yetki": 3529,
      "▁ney": 3530,
      "▁kendimize": 3531,
      "▁stat": 3532,
      "▁dama": 3533,
      "▁tuyu": 3534,
      "##nin": 3535,
      "##00'den": 3536,
      "▁cıkardı": 3537,
      "##ımları": 3538,
      "▁yurumeye": 3539,
      "▁kızına": 3540,
      "▁sonuna": 3541,
      "▁kemal": 3542,
      "##ogramı": 3543,
      "▁iti": 3544,
      "▁civarı": 3545,
      "▁icini": 3546,
      "▁pap": 3547,
      "##labilir": 3548,
      "##umuza": 3549,
      "▁ogluna": 3550,
      "▁soyleyebilir": 3551,
      "##civert": 3552,
      "▁kun": 3553,
      "▁kitaba": 3554,
      "▁beyler": 3555,
      "▁tacirler": 3556,
      "##leyici": 3557,
      "▁askerlerle": 3558,
      "▁dak": 3559,
      "▁urunu": 3560,
      "▁lıgı": 3561,
      "▁ankar": 3562,
      "▁tokyo": 3563,
      "##on'un": 3564,
      "▁kaldırma": 3565,
      "▁konu": 3566,
      "▁ulasa": 3567,
      "##uyen": 3568,
      "##ette": 3569,
      "▁sartları": 3570,
      "▁parayla": 3571,
      "▁yaslarına": 3572,
      "▁iskem": 3573,
      "##lasmıstı": 3574,
      "▁yası": 3575,
      "▁cama": 3576,
      "▁yonuyle": 3577,
      "▁askı": 3578,
      "##iyorlar": 3579,
      "▁almalar": 3580,
      "##ikt": 3581,
      "▁bagımlılıgı": 3582,
      "▁agaclarının": 3583,
      "▁business": 3584,
      "##ser": 3585,
      "▁iyice": 3586,
      "##gundu": 3587,
      "##elek": 3588,
      "▁resmin": 3589,
      "▁otomotiv": 3590,
      "▁fez": 3591,
      "▁yaver": 3592,
      "##zer": 3593,
      "▁mens": 3594,
      "▁tehd": 3595,
      "▁sirk": 3596,
      "▁vs": 3597,
      "##iligi": 3598,
      "▁unut": 3599,
      "##ladı": 3600,
      "▁odev": 3601,
      "▁aksaklik": 3602,
      "▁yapamaz": 3603,
      "##jde": 3604,
      "##go": 3605,
      "▁gunlerden": 3606,
      "▁10": 3607,
      "▁hurmet": 3608,
      "▁halen": 3609,
      "▁dilleri": 3610,
      "##dirdi": 3611,
      "▁iliskileri": 3612,
      "▁yolun": 3613,
      "▁artan": 3614,
      "▁birinin": 3615,
      "▁onde": 3616,
      "▁maliyetlerini": 3617,
      "▁baska": 3618,
      "##ıyım": 3619,
      "##tık": 3620,
      "##der": 3621,
      "▁haziran": 3622,
      "▁yatır": 3623,
      "▁hasret": 3624,
      "▁elem": 3625,
      "##dız": 3626,
      "▁tulb": 3627,
      "▁firar": 3628,
      "▁bi": 3629,
      "▁amerikalılar": 3630,
      "▁onlemler": 3631,
      "▁gitmisti": 3632,
      "▁war": 3633,
      "▁baglilik": 3634,
      "▁hep": 3635,
      "##bur": 3636,
      "▁sel": 3637,
      "##landırdı": 3638,
      "▁ailesinden": 3639,
      "▁kırıs": 3640,
      "▁muz": 3641,
      "▁asker": 3642,
      "▁aydın": 3643,
      "▁mantık": 3644,
      "##ecilik": 3645,
      "##lasan": 3646,
      "▁operasyonlarını": 3647,
      "▁dilinin": 3648,
      "▁rıhtıma": 3649,
      "##6'sı": 3650,
      "##ciger": 3651,
      "##ına": 3652,
      "▁reorganizasyon": 3653,
      "▁durgun": 3654,
      "▁hav": 3655,
      "##.5": 3656,
      "▁hareketler": 3657,
      "▁bulabil": 3658,
      "##onel": 3659,
      "##.2": 3660,
      "▁balıkcılar": 3661,
      "##lerinizi": 3662,
      "▁gozume": 3663,
      "##ezi": 3664,
      "▁ve": 3665,
      "##digimi": 3666,
      "▁derdi": 3667,
      "▁gozalt": 3668,
      "▁altın": 3669,
      "▁bogurt": 3670,
      "▁polis": 3671,
      "▁bula": 3672,
      "▁olaylar": 3673,
      "▁cesaret": 3674,
      "▁segment": 3675,
      "▁kotuydu": 3676,
      "▁eglen": 3677,
      "▁hizmetleri": 3678,
      "▁hemen": 3679,
      "▁odak": 3680,
      "##ikatur": 3681,
      "▁alıcıları": 3682,
      "▁alttan": 3683,
      "▁apıs": 3684,
      "▁modeller": 3685,
      "▁vade": 3686,
      "##emiyordu": 3687,
      "##ıntı": 3688,
      "▁yon": 3689,
      "▁hey": 3690,
      "▁1.1": 3691,
      "▁sal": 3692,
      "▁sahiptir": 3693,
      "▁muhab": 3694,
      "▁misafiri": 3695,
      "▁soylendi": 3696,
      "▁teknoloji": 3697,
      "##eldir": 3698,
      "▁ver": 3699,
      "▁olmayan": 3700,
      "##gre": 3701,
      "▁bankası": 3702,
      "▁hatıraları": 3703,
      "▁bosalt": 3704,
      "##leyen": 3705,
      "▁mukemmeldi": 3706,
      "▁ruhundan": 3707,
      "##ya": 3708,
      "▁ilgilenmedi": 3709,
      "##uzluktan": 3710,
      "▁cekisme": 3711,
      "▁icer": 3712,
      "▁solda": 3713,
      "▁omrunun": 3714,
      "##ers": 3715,
      "▁hazırlanan": 3716,
      "##ıcılar": 3717,
      "##bil": 3718,
      "▁talip": 3719,
      "▁sicak": 3720,
      "▁yollar": 3721,
      "##suzdu": 3722,
      "▁malzemeleri": 3723,
      "##lilerden": 3724,
      "##luguna": 3725,
      "▁memurlar": 3726,
      "▁kaptan": 3727,
      "▁indirimi": 3728,
      "▁gectigini": 3729,
      "▁dezav": 3730,
      "▁aygıt": 3731,
      "▁co": 3732,
      "▁yasını": 3733,
      "▁ucmanın": 3734,
      "##'den": 3735,
      "##meyerek": 3736,
      "▁northwest": 3737,
      "▁salın": 3738,
      "▁skandal": 3739,
      "▁evlerde": 3740,
      "▁resmini": 3741,
      "##gut": 3742,
      "▁saka": 3743,
      "▁dest": 3744,
      "##mıstık": 3745,
      "▁elleri": 3746,
      "##ze": 3747,
      "▁isra": 3748,
      "▁bekliyordu": 3749,
      "▁ch": 3750,
      "▁yılki": 3751,
      "▁calısanların": 3752,
      "▁kimligi": 3753,
      "▁terorizm": 3754,
      "##az": 3755,
      "▁calisanlardan": 3756,
      "▁dalkav": 3757,
      "##elin": 3758,
      "▁yonetmen": 3759,
      "▁dayanagı": 3760,
      "▁yaklasımı": 3761,
      "▁yayım": 3762,
      "▁titizlik": 3763,
      "▁yureginde": 3764,
      "▁odadan": 3765,
      "▁dedi": 3766,
      "##anı": 3767,
      "##att": 3768,
      "▁sabahı": 3769,
      "▁sp": 3770,
      "▁planlıyor": 3771,
      "▁kapsa": 3772,
      "##dig": 3773,
      "##enn": 3774,
      "▁fan": 3775,
      "▁dusunuyordu": 3776,
      "▁konusu": 3777,
      "▁yusuf": 3778,
      "##onelik": 3779,
      "▁olc": 3780,
      "##kay": 3781,
      "##p": 3782,
      "▁ortalık": 3783,
      "▁gunahı": 3784,
      "▁eger": 3785,
      "▁ikam": 3786,
      "▁muallim": 3787,
      "▁olumunden": 3788,
      "▁olmasına": 3789,
      "##kiz": 3790,
      "▁eas": 3791,
      "▁tansiyon": 3792,
      "▁fab": 3793,
      "▁netic": 3794,
      "▁qu": 3795,
      "▁gozunun": 3796,
      "▁etmeyecegini": 3797,
      "▁gunlerinden": 3798,
      "▁fonksiyon": 3799,
      "▁temsilcisi": 3800,
      "##bar": 3801,
      "▁mır": 3802,
      "▁vurgun": 3803,
      "▁bilmiyor": 3804,
      "##lıların": 3805,
      "▁cin": 3806,
      "▁kredi": 3807,
      "▁piyasasını": 3808,
      "##ıldıgı": 3809,
      "▁kural": 3810,
      "▁harek": 3811,
      "▁luzum": 3812,
      "▁bolg": 3813,
      "▁kadınla": 3814,
      "▁milyarlar": 3815,
      "##'ne": 3816,
      "▁gorusmeyi": 3817,
      "##ıklıgı": 3818,
      "##landır": 3819,
      "##orn": 3820,
      "▁avcı": 3821,
      "▁ogretmenler": 3822,
      "##una": 3823,
      "▁aklın": 3824,
      "▁yaz": 3825,
      "▁havaalanı": 3826,
      "▁bagı": 3827,
      "▁olmasina": 3828,
      "##af": 3829,
      "▁city'den": 3830,
      "▁on": 3831,
      "▁isinden": 3832,
      "▁hizmetlerinin": 3833,
      "▁dayanıs": 3834,
      "▁hedef": 3835,
      "▁borca": 3836,
      "##estirdi": 3837,
      "▁korkusuyla": 3838,
      "▁iliskiye": 3839,
      "▁sask": 3840,
      "▁etmiyor": 3841,
      "▁oyuncak": 3842,
      "▁pasif": 3843,
      "▁kentin": 3844,
      "▁uyeligini": 3845,
      "▁degildi": 3846,
      "##ılıgına": 3847,
      "▁temer": 3848,
      "▁ipotek": 3849,
      "▁telif": 3850,
      "##rken": 3851,
      "▁sunumu": 3852,
      "▁nihai": 3853,
      "##anın": 3854,
      "##anlar": 3855,
      "▁konser": 3856,
      "▁doruk": 3857,
      "▁kuvvetli": 3858,
      "▁sozles": 3859,
      "▁cılgın": 3860,
      "▁aktivite": 3861,
      "##siniz": 3862,
      "▁tarifeleri": 3863,
      "▁programlar": 3864,
      "▁ortasında": 3865,
      "▁denges": 3866,
      "▁alana": 3867,
      "▁``": 3868,
      "▁sizler": 3869,
      "▁sesler": 3870,
      "▁sasır": 3871,
      "▁etiket": 3872,
      "▁salona": 3873,
      "▁azade": 3874,
      "▁lerin": 3875,
      "▁reklam": 3876,
      "▁tecru": 3877,
      "##liklerini": 3878,
      "▁mutfakta": 3879,
      "▁kurallarını": 3880,
      "▁nu": 3881,
      "▁secenekleri": 3882,
      "▁satımı": 3883,
      "##ası": 3884,
      "▁dısına": 3885,
      "▁kulak": 3886,
      "▁yetkili": 3887,
      "▁olmadi": 3888,
      "##landıgı": 3889,
      "▁qx": 3890,
      "##ars": 3891,
      "▁gazino": 3892,
      "▁ilgiliydi": 3893,
      "▁olabil": 3894,
      "##sek": 3895,
      "▁oy": 3896,
      "▁cocukların": 3897,
      "▁secim": 3898,
      "▁profesyon": 3899,
      "▁oyunun": 3900,
      "▁kısın": 3901,
      "▁kardeslik": 3902,
      "▁beraber": 3903,
      "▁gunler": 3904,
      "▁diego'ya": 3905,
      "##bat": 3906,
      "▁pır": 3907,
      "##meyi": 3908,
      "▁finansmanı": 3909,
      "▁muhend": 3910,
      "▁veriyorum": 3911,
      "▁tartısma": 3912,
      "##ellikle": 3913,
      "▁cabasına": 3914,
      "▁seydir": 3915,
      "▁bazı": 3916,
      "▁alaka": 3917,
      "##ip": 3918,
      "▁cins": 3919,
      "▁54": 3920,
      "▁ugras": 3921,
      "▁olanagı": 3922,
      "▁gozet": 3923,
      "▁kapısından": 3924,
      "▁yelk": 3925,
      "##ikat": 3926,
      "▁agr": 3927,
      "▁oranının": 3928,
      "▁sirketlerini": 3929,
      "▁dordu": 3930,
      "▁dolayi": 3931,
      "▁ab": 3932,
      "▁oldugunda": 3933,
      "▁hayır": 3934,
      "▁mav": 3935,
      "▁mudahal": 3936,
      "▁montreal'a": 3937,
      "▁yarattı": 3938,
      "▁talimat": 3939,
      "▁parktan": 3940,
      "##ber": 3941,
      "▁uzuntu": 3942,
      "▁vazgec": 3943,
      "▁menk": 3944,
      "▁3/4'e": 3945,
      "▁oluk": 3946,
      "▁yolunu": 3947,
      "##madıgı": 3948,
      "##ları": 3949,
      "▁parasını": 3950,
      "▁sozlesmesini": 3951,
      "▁endustrileri": 3952,
      "▁miralay": 3953,
      "##ann": 3954,
      "▁yasamadik": 3955,
      "▁bildigini": 3956,
      "▁siddetini": 3957,
      "▁saban": 3958,
      "##-": 3959,
      "▁in": 3960,
      "##luyla": 3961,
      "▁mevki": 3962,
      "▁tavuk": 3963,
      "##uldu": 3964,
      "▁oku": 3965,
      "▁adamla": 3966,
      "▁hasarı": 3967,
      "▁tersine": 3968,
      "▁fırında": 3969,
      "▁vakt": 3970,
      "##sınız": 3971,
      "##yas": 3972,
      "▁lan": 3973,
      "##rih": 3974,
      "▁otelin": 3975,
      "##ncu": 3976,
      "▁yavrum": 3977,
      "▁hastalıga": 3978,
      "▁gemiyi": 3979,
      "▁gurultu": 3980,
      "▁kaybeden": 3981,
      "##im": 3982,
      "##briy": 3983,
      "▁satımında": 3984,
      "▁sıkıya": 3985,
      "▁elbet": 3986,
      "▁ısın": 3987,
      "##lulugu": 3988,
      "▁goren": 3989,
      "▁dalgası": 3990,
      "▁burcu": 3991,
      "▁kesinlik": 3992,
      "▁sayede": 3993,
      "▁omru": 3994,
      "▁kapısını": 3995,
      "▁lezzetliydi": 3996,
      "▁kust": 3997,
      "▁etk": 3998,
      "##isti": 3999,
      "▁heyeti": 4000,
      "▁problemi": 4001,
      "▁sayi": 4002,
      "##ımızı": 4003,
      "##*": 4004,
      "▁uretim": 4005,
      "▁fare": 4006,
      "##larıyla": 4007,
      "▁kahveyi": 4008,
      "▁alıyor": 4009,
      "▁bonosu": 4010,
      "▁flor": 4011,
      "##leme": 4012,
      "▁yukarıya": 4013,
      "▁destegini": 4014,
      "▁anlatmak": 4015,
      "▁arzusu": 4016,
      "##umuzde": 4017,
      "▁nufuz": 4018,
      "▁kaliteli": 4019,
      "▁yardıma": 4020,
      "▁sakat": 4021,
      "##ebilecegini": 4022,
      "▁sanatı": 4023,
      "##icisi": 4024,
      "▁yıla": 4025,
      "▁ucrete": 4026,
      "▁capta": 4027,
      "▁uretimin": 4028,
      "▁dokundu": 4029,
      "##ansal": 4030,
      "▁rah": 4031,
      "▁telefonu": 4032,
      "##cıs": 4033,
      "▁malzemesi": 4034,
      "▁mukem": 4035,
      "▁zır": 4036,
      "▁acaba": 4037,
      "▁altına": 4038,
      "▁maymun": 4039,
      "##iste": 4040,
      "▁sayisi": 4041,
      "##ukluk": 4042,
      "##esidir": 4043,
      "▁iadesi": 4044,
      "▁teshir": 4045,
      "##miyorum": 4046,
      "▁arabanın": 4047,
      "▁buyumenin": 4048,
      "##fur": 4049,
      "▁34": 4050,
      "▁karıstırın": 4051,
      "▁bec": 4052,
      "▁dakikadan": 4053,
      "##teler": 4054,
      "##taj": 4055,
      "▁tet": 4056,
      "##use": 4057,
      "▁elmayı": 4058,
      "▁memuriyet": 4059,
      "▁neticeye": 4060,
      "##ikler": 4061,
      "▁evliligin": 4062,
      "▁er": 4063,
      "▁parcasını": 4064,
      "▁sorunları": 4065,
      "##ebilecek": 4066,
      "▁kullanılır": 4067,
      "##di": 4068,
      "▁kalabalik": 4069,
      "▁br": 4070,
      "##ster": 4071,
      "▁dısarıdan": 4072,
      "▁tahvillerinin": 4073,
      "▁arası": 4074,
      "▁oyuna": 4075,
      "▁restor": 4076,
      "##emiz": 4077,
      "▁cerr": 4078,
      "▁kaldırılması": 4079,
      "▁alan": 4080,
      "##0000": 4081,
      "▁dediler": 4082,
      "▁gencler": 4083,
      "▁yarıs": 4084,
      "▁bakıma": 4085,
      "##ekl": 4086,
      "▁getirdi": 4087,
      "▁listele": 4088,
      "▁26": 4089,
      "▁kırlangıc": 4090,
      "▁kir": 4091,
      "▁yukar": 4092,
      "▁yabanci": 4093,
      "▁faaliyet": 4094,
      "▁elinde": 4095,
      "▁almaya": 4096,
      "▁butu": 4097,
      "▁tursu": 4098,
      "▁jand": 4099,
      "▁ajans": 4100,
      "##2": 4101,
      "▁guzelligin": 4102,
      "##lestirdi": 4103,
      "▁yuzeyinde": 4104,
      "▁tutun": 4105,
      "▁makine": 4106,
      "▁gerisi": 4107,
      "▁portfoyu": 4108,
      "▁gars": 4109,
      "##eler": 4110,
      "▁sınavı": 4111,
      "▁festiv": 4112,
      "##a'da": 4113,
      "▁havasında": 4114,
      "▁tahmini": 4115,
      "▁yapıyorlar": 4116,
      "##alog": 4117,
      "▁basarıya": 4118,
      "▁kafasını": 4119,
      "▁olumsuz": 4120,
      "##usturdu": 4121,
      "▁ailesinin": 4122,
      "##amda": 4123,
      "##cemi": 4124,
      "▁cekim": 4125,
      "▁ipi": 4126,
      "▁capında": 4127,
      "##afet": 4128,
      "▁payını": 4129,
      "##dev": 4130,
      "▁davasını": 4131,
      "##tur": 4132,
      "▁duvarlarında": 4133,
      "▁ziraat": 4134,
      "▁eserin": 4135,
      "▁birincisi": 4136,
      "##net": 4137,
      "▁kullanarak": 4138,
      "y": 4139,
      "##eyif": 4140,
      "▁karsılıgında": 4141,
      "▁masaj": 4142,
      "##van": 4143,
      "▁tasarısını": 4144,
      "##likte": 4145,
      "▁bog": 4146,
      "▁acıyor": 4147,
      "##ısın": 4148,
      "##tigimiz": 4149,
      "▁gozlem": 4150,
      "▁soy": 4151,
      "▁cezasını": 4152,
      "▁armagan": 4153,
      "##ith": 4154,
      "▁katana": 4155,
      "▁kitapcı": 4156,
      "▁caddeyi": 4157,
      "▁yerlere": 4158,
      "▁sefi": 4159,
      "▁indirimlerden": 4160,
      "##ind": 4161,
      "▁musterilere": 4162,
      "##asıtasıyla": 4163,
      "▁hayatına": 4164,
      "▁muhtar": 4165,
      "▁eserleri": 4166,
      "▁havuzundan": 4167,
      "▁subv": 4168,
      "##kanlı": 4169,
      "##ılıgıyla": 4170,
      "▁darb": 4171,
      "▁birkac": 4172,
      "##acagımı": 4173,
      "▁anim": 4174,
      "▁kavur": 4175,
      "▁ısır": 4176,
      "##ess": 4177,
      "▁almadim": 4178,
      "▁programlarının": 4179,
      "##0'": 4180,
      "▁ihtiyat": 4181,
      "▁tenkit": 4182,
      "▁patates": 4183,
      "▁domatesleri": 4184,
      "▁nebze": 4185,
      "▁satmayı": 4186,
      "##unluk": 4187,
      "▁direkt": 4188,
      "▁de": 4189,
      "▁katılımcıların": 4190,
      "##30": 4191,
      "##'nu": 4192,
      "▁tamamladı": 4193,
      "##cının": 4194,
      "▁sesini": 4195,
      "▁iddialarını": 4196,
      "##eyim": 4197,
      "▁gir": 4198,
      "▁iflas": 4199,
      "▁duzine": 4200,
      "▁musik": 4201,
      "▁mesafeyi": 4202,
      "##etim": 4203,
      "▁tarifesi": 4204,
      "▁rul": 4205,
      "▁egr": 4206,
      "▁itibariyle": 4207,
      "▁kazanc": 4208,
      "##ılmak": 4209,
      "▁tenezz": 4210,
      "▁hamami": 4211,
      "▁halihazırda": 4212,
      "▁kızının": 4213,
      "▁olmasıdır": 4214,
      "▁karanlık": 4215,
      "▁cagrı": 4216,
      "▁ornegin": 4217,
      "▁tasıy": 4218,
      "▁fut": 4219,
      "▁gaza": 4220,
      "##acagız": 4221,
      "▁dilinden": 4222,
      "▁ihtiyac": 4223,
      "▁hamle": 4224,
      "▁mart": 4225,
      "▁yse": 4226,
      "▁kontrol": 4227,
      "▁yapr": 4228,
      "##obili": 4229,
      "▁j": 4230,
      "▁karanfil": 4231,
      "▁sentten": 4232,
      "▁marat": 4233,
      "▁hosgor": 4234,
      "▁agactan": 4235,
      "##dırım": 4236,
      "▁yapının": 4237,
      "▁kurtu": 4238,
      "▁oz": 4239,
      "▁piy": 4240,
      "▁mavisi": 4241,
      "▁yansıtıyor": 4242,
      "##kten": 4243,
      "x": 4244,
      "▁korkunc": 4245,
      "▁merrill": 4246,
      "▁davr": 4247,
      "##oyla": 4248,
      "▁kullanmaya": 4249,
      "▁bileti": 4250,
      "##ans": 4251,
      "▁hissedarları": 4252,
      "##indeyiz": 4253,
      "##endis": 4254,
      "▁eksi": 4255,
      "▁mam": 4256,
      "##hu": 4257,
      "▁ulkeleri": 4258,
      "##he": 4259,
      "▁stratejisi": 4260,
      "▁herkesin": 4261,
      "##mul": 4262,
      "▁kamuoy": 4263,
      "▁zat": 4264,
      "▁odayı": 4265,
      "▁sonra": 4266,
      "##ısı": 4267,
      "##.1": 4268,
      "▁duz": 4269,
      "▁gemiydi": 4270,
      "▁minnet": 4271,
      "##gının": 4272,
      "▁kalabalikti": 4273,
      "##ya'da": 4274,
      "##aydı": 4275,
      "=": 4276,
      "▁olarak": 4277,
      "▁tedar": 4278,
      "▁odamdan": 4279,
      "##tıkları": 4280,
      "▁gayrimen": 4281,
      "##gınız": 4282,
      "▁govdes": 4283,
      "▁olagand": 4284,
      "▁partilerin": 4285,
      "▁kupeler": 4286,
      "##meleri": 4287,
      "▁faizi": 4288,
      "▁don": 4289,
      "▁sizlere": 4290,
      "▁tavsiye": 4291,
      "▁kurnaz": 4292,
      "##layı": 4293,
      "▁yasamın": 4294,
      "▁psil": 4295,
      "▁cuz": 4296,
      "4": 4297,
      "▁ekip": 4298,
      "▁mahluk": 4299,
      "▁ibadet": 4300,
      "▁yuzum": 4301,
      "▁ilave": 4302,
      "▁si": 4303,
      "▁yasında": 4304,
      "▁umid": 4305,
      "▁konut": 4306,
      "▁arabalar": 4307,
      "▁dibe": 4308,
      "▁carpıs": 4309,
      "▁cakı": 4310,
      "▁yaptıgını": 4311,
      "##`": 4312,
      "▁magaza": 4313,
      "▁hacmine": 4314,
      "▁yazılımı": 4315,
      "##endek": 4316,
      "##atmak": 4317,
      "▁baglantılı": 4318,
      "▁ret": 4319,
      "▁gitar": 4320,
      "▁reddet": 4321,
      "▁anlamiyla": 4322,
      "▁isyan": 4323,
      "▁asansor": 4324,
      "▁toparlan": 4325,
      "##yp": 4326,
      "▁degilse": 4327,
      "▁calısmak": 4328,
      "##ime": 4329,
      "##ıslar": 4330,
      "▁saclarına": 4331,
      "▁burosunda": 4332,
      "▁if": 4333,
      "▁e": 4334,
      "▁perdesi": 4335,
      "▁ulkeler": 4336,
      "▁kıyıda": 4337,
      "▁kisiyi": 4338,
      "##eleri": 4339,
      "▁karları": 4340,
      "▁calısa": 4341,
      "▁3/8": 4342,
      "▁hukm": 4343,
      "▁ogrencileri": 4344,
      "▁islemlerine": 4345,
      "▁hemsire": 4346,
      "▁haftada": 4347,
      "##imi": 4348,
      "▁pasa": 4349,
      "##tın": 4350,
      "▁baglam": 4351,
      "▁epey": 4352,
      "▁hukum": 4353,
      "##so": 4354,
      "▁bakıyor": 4355,
      "▁ucus": 4356,
      "▁dukkanında": 4357,
      "▁havuzun": 4358,
      "▁yasadık": 4359,
      "▁endustrisi": 4360,
      "▁saglıgını": 4361,
      "▁romatizm": 4362,
      "▁acen": 4363,
      "▁9": 4364,
      "▁faz": 4365,
      "▁ked": 4366,
      "▁tahıl": 4367,
      "▁celiski": 4368,
      "##ilecek": 4369,
      "▁pur": 4370,
      "▁rezervasyonla": 4371,
      "##'nı": 4372,
      "▁zorluklarla": 4373,
      "▁calıstım": 4374,
      "▁yargıclar": 4375,
      "▁konuları": 4376,
      "▁beyle": 4377,
      "▁otoy": 4378,
      "##ft": 4379,
      "▁haklarını": 4380,
      "▁ucuslar": 4381,
      "▁amacıyla": 4382,
      "▁cag": 4383,
      "▁arabaya": 4384,
      "##bes": 4385,
      "▁agabeyim": 4386,
      "▁basladılar": 4387,
      "▁oldukca": 4388,
      "##giniz": 4389,
      "▁aradan": 4390,
      "▁kaplama": 4391,
      "▁camasırları": 4392,
      "▁arabasıyla": 4393,
      "▁yazarlık": 4394,
      "▁karlarının": 4395,
      "##lirken": 4396,
      "##zır": 4397,
      "▁gecm": 4398,
      "##dı": 4399,
      "▁ucagına": 4400,
      "▁almayı": 4401,
      "##duy": 4402,
      "##acasına": 4403,
      "▁aylar": 4404,
      "##yacaklar": 4405,
      "▁kimlik": 4406,
      "▁ho": 4407,
      "▁saraydan": 4408,
      "▁bogazına": 4409,
      "##oroz": 4410,
      "g": 4411,
      "▁telefonun": 4412,
      "▁ayakk": 4413,
      "▁sonuca": 4414,
      "▁polit": 4415,
      "▁stok": 4416,
      "▁meclis": 4417,
      "▁kılıc": 4418,
      "▁kapının": 4419,
      "▁far": 4420,
      "▁,": 4421,
      "▁cıkabilir": 4422,
      "▁safh": 4423,
      "▁ameliyat": 4424,
      "▁haklarına": 4425,
      "▁kayısı": 4426,
      "▁iskence": 4427,
      "▁filmleri": 4428,
      "▁aldık": 4429,
      "▁yitir": 4430,
      "##ama": 4431,
      "▁emeklilik": 4432,
      "▁salatası": 4433,
      "▁zer": 4434,
      "▁tanıtım": 4435,
      "▁yerine": 4436,
      "▁cicek": 4437,
      "▁avru": 4438,
      "##tileri": 4439,
      "▁prenses": 4440,
      "▁kıymet": 4441,
      "▁munak": 4442,
      "##elendi": 4443,
      "▁bitir": 4444,
      "▁kalma": 4445,
      "▁iskemle": 4446,
      "▁duran": 4447,
      "▁baslayacak": 4448,
      "##atti": 4449,
      "▁kelep": 4450,
      "##inlerin": 4451,
      "▁meydana": 4452,
      "▁yavas": 4453,
      "▁kimliklerini": 4454,
      "▁durumdan": 4455,
      "▁kafam": 4456,
      "▁sipar": 4457,
      "▁cıkmadı": 4458,
      "▁ragmen": 4459,
      "▁oyuncuların": 4460,
      "▁musa": 4461,
      "▁rakamların": 4462,
      "▁salt": 4463,
      "▁nakit": 4464,
      "▁300": 4465,
      "##masını": 4466,
      "##aller": 4467,
      "▁degisimin": 4468,
      "▁vardır": 4469,
      "▁portr": 4470,
      "▁hakem": 4471,
      "▁w": 4472,
      "▁israil": 4473,
      "##ıgını": 4474,
      "▁planlarını": 4475,
      "▁kisiden": 4476,
      "▁beklentileri": 4477,
      "▁sahipti": 4478,
      "▁temelinde": 4479,
      "▁yene": 4480,
      "▁agızlarına": 4481,
      "▁fasuly": 4482,
      "▁uzak": 4483,
      "▁cekiyor": 4484,
      "##akki": 4485,
      "▁gecis": 4486,
      "##ma": 4487,
      "▁fiyati": 4488,
      "▁yiyeceklerde": 4489,
      "▁yaban": 4490,
      "▁saglayacak": 4491,
      "▁net": 4492,
      "▁orani": 4493,
      "▁bakan": 4494,
      "##luga": 4495,
      "▁kakao": 4496,
      "##fen": 4497,
      "##iyatr": 4498,
      "##mıslar": 4499,
      "▁sonradan": 4500,
      "▁herk": 4501,
      "▁siper": 4502,
      "▁ablası": 4503,
      "▁gov": 4504,
      "▁babasını": 4505,
      "##lasır": 4506,
      "▁ekibine": 4507,
      "▁zararlar": 4508,
      "▁havaalanından": 4509,
      "##ligini": 4510,
      "##urarak": 4511,
      "▁endust": 4512,
      "▁lot": 4513,
      "▁fenalık": 4514,
      "▁zafer": 4515,
      "▁yorg": 4516,
      "▁tehlike": 4517,
      "▁onunla": 4518,
      "▁yiyecekler": 4519,
      "▁agzını": 4520,
      "##dog": 4521,
      "▁olmuyor": 4522,
      "▁yatırımları": 4523,
      "▁caz": 4524,
      "▁buyukel": 4525,
      "▁hayal": 4526,
      "##esyon": 4527,
      "##isi": 4528,
      "▁bey": 4529,
      "##izdi": 4530,
      "▁ithalat": 4531,
      "##desi": 4532,
      "▁hayv": 4533,
      "▁safhada": 4534,
      "▁erkegin": 4535,
      "##iyeye": 4536,
      "▁tipik": 4537,
      "▁iletisim": 4538,
      "▁sefalet": 4539,
      "▁hazine": 4540,
      "▁cd": 4541,
      "▁ogle": 4542,
      "▁vegas'a": 4543,
      "▁kurulunun": 4544,
      "▁mobilya": 4545,
      "▁komisyon": 4546,
      "▁konuk": 4547,
      "##lanarak": 4548,
      "##larının": 4549,
      "▁fik": 4550,
      "▁vilayet": 4551,
      "▁alabilecegini": 4552,
      "▁yazıyı": 4553,
      "▁izleme": 4554,
      "▁biter": 4555,
      "▁isminde": 4556,
      "##cılık": 4557,
      "##mam": 4558,
      "▁iskenc": 4559,
      "▁zamanla": 4560,
      "▁bulunmak": 4561,
      "▁dergisinde": 4562,
      "▁atol": 4563,
      "##ledik": 4564,
      "▁ingiliz": 4565,
      "▁daglar": 4566,
      "▁seytan": 4567,
      "▁ayna": 4568,
      "▁kalb": 4569,
      "▁memur": 4570,
      "▁ortamı": 4571,
      "▁gore": 4572,
      "▁cevapları": 4573,
      "▁gelmesi": 4574,
      "▁kaydet": 4575,
      "##eceginden": 4576,
      "▁hangisi": 4577,
      "▁asama": 4578,
      "▁rastlantı": 4579,
      "##ttı": 4580,
      "▁omrunde": 4581,
      "##cta": 4582,
      "▁mevcuttur": 4583,
      "▁fırsat": 4584,
      "▁istasyonu": 4585,
      "▁tuyleri": 4586,
      "▁borc": 4587,
      "▁ikin": 4588,
      "▁mor": 4589,
      "##lasın": 4590,
      "▁muhafaza": 4591,
      "▁odul": 4592,
      "##amp": 4593,
      "▁yerlesim": 4594,
      "▁tutarı": 4595,
      "##ici": 4596,
      "▁toplumlar": 4597,
      "▁barikat": 4598,
      "##larına": 4599,
      "▁begenmedim": 4600,
      "##gim": 4601,
      "▁surecinde": 4602,
      "##yuzlu": 4603,
      "▁duvarda": 4604,
      "▁yavr": 4605,
      "▁recete": 4606,
      "▁sanırım": 4607,
      "▁beklentilerimi": 4608,
      "▁kızların": 4609,
      "##eyr": 4610,
      "▁ciftlikleri": 4611,
      "▁bakanlıgı'na": 4612,
      "▁sebebini": 4613,
      "▁kuslar": 4614,
      "▁iceceklerden": 4615,
      "##bir": 4616,
      "▁telafi": 4617,
      "##gene": 4618,
      "##stık": 4619,
      "▁haksızlık": 4620,
      "▁kesinlikle": 4621,
      "▁iliskiler": 4622,
      "▁sebepleri": 4623,
      "▁universit": 4624,
      "▁strateji": 4625,
      "▁tecrube": 4626,
      "▁isletiyor": 4627,
      "▁televizyona": 4628,
      "▁kalitesinden": 4629,
      "##ıyorlardı": 4630,
      "▁doner": 4631,
      "##dırma": 4632,
      "##ihat": 4633,
      "▁fiyatın": 4634,
      "▁arkadasım": 4635,
      "▁odan": 4636,
      "▁yerlerinden": 4637,
      "▁dua": 4638,
      "▁halkalar": 4639,
      "▁hayvan": 4640,
      "▁kisilig": 4641,
      "▁hasılat": 4642,
      "▁resepsiyon": 4643,
      "▁torun": 4644,
      "▁cıt": 4645,
      "▁denizasır": 4646,
      "▁oncesine": 4647,
      "▁cozumler": 4648,
      "▁1985'te": 4649,
      "##org": 4650,
      "▁ısıkları": 4651,
      "▁yazmak": 4652,
      "##sunuz": 4653,
      "▁kasaba": 4654,
      "▁egitimi": 4655,
      "▁kuvveti": 4656,
      "▁arkadasını": 4657,
      "▁12'si": 4658,
      "▁gece": 4659,
      "##den": 4660,
      "##alif": 4661,
      "▁keman": 4662,
      "▁ydim": 4663,
      "▁isbir": 4664,
      "##'lik": 4665,
      "▁oyna": 4666,
      "▁cıkarmayı": 4667,
      "▁kurallar": 4668,
      "##lanan": 4669,
      "▁kullanmadim": 4670,
      "▁odaydi": 4671,
      "▁alab": 4672,
      "▁yaparlar": 4673,
      "▁hacminin": 4674,
      "▁he": 4675,
      "▁odalarında": 4676,
      "##ilir": 4677,
      "▁isimler": 4678,
      "▁olanaklarını": 4679,
      "▁fabrikada": 4680,
      "▁itir": 4681,
      "##irligi": 4682,
      "##ıgı": 4683,
      "##dıgında": 4684,
      "▁karsıdan": 4685,
      "▁kendilerinden": 4686,
      "▁guzeldi": 4687,
      "▁duman": 4688,
      "▁kalmadigim": 4689,
      "▁dinlenmek": 4690,
      "▁layık": 4691,
      "▁birles": 4692,
      "▁seattle": 4693,
      "▁bebegi": 4694,
      "▁sandalye": 4695,
      "##muyordu": 4696,
      "▁caddenin": 4697,
      "▁mavzer": 4698,
      "▁cezası": 4699,
      "▁kediyi": 4700,
      "▁1969'a": 4701,
      "▁toronto'ya": 4702,
      "##6'ya": 4703,
      "##e": 4704,
      "▁islemler": 4705,
      "▁yıllardır": 4706,
      "##elenen": 4707,
      "▁kot": 4708,
      "##aretle": 4709,
      "##emek": 4710,
      "▁sovyetlerin": 4711,
      "▁sapma": 4712,
      "▁operasyonları": 4713,
      "▁28": 4714,
      "▁defasında": 4715,
      "▁degisiklikleri": 4716,
      "##ket": 4717,
      "▁bela": 4718,
      "▁zulum": 4719,
      "▁karmasık": 4720,
      "▁vapura": 4721,
      "▁arkada": 4722,
      "▁sunları": 4723,
      "▁gittim": 4724,
      "▁sırayla": 4725,
      "##eticisi": 4726,
      "▁kez": 4727,
      "▁gorunmuyor": 4728,
      "▁becerik": 4729,
      "▁zeytinyagı": 4730,
      "▁doları'nda": 4731,
      "▁etmeye": 4732,
      "▁sarap": 4733,
      "▁nefese": 4734,
      "▁bankacı": 4735,
      "▁zih": 4736,
      "▁icra": 4737,
      "▁herkesten": 4738,
      "▁sandaly": 4739,
      "▁salınc": 4740,
      "▁kusagın": 4741,
      "▁bom": 4742,
      "▁bolum": 4743,
      "##lamur": 4744,
      "▁keleb": 4745,
      "▁zember": 4746,
      "▁kapatmak": 4747,
      "▁bakım": 4748,
      "▁birileri": 4749,
      "▁bilesik": 4750,
      "▁depart": 4751,
      "▁seylere": 4752,
      "▁ikisinin": 4753,
      "▁dahiliye": 4754,
      "▁masallar": 4755,
      "##egin": 4756,
      "##amaz": 4757,
      "##ilmez": 4758,
      "▁davranısını": 4759,
      "▁sanduk": 4760,
      "▁kararıyla": 4761,
      "##altı": 4762,
      "▁cıktıgını": 4763,
      "▁lutfen": 4764,
      "▁sapka": 4765,
      "▁diktator": 4766,
      "▁piyasasının": 4767,
      "▁cip": 4768,
      "▁secimi": 4769,
      "▁sabahın": 4770,
      "##otte": 4771,
      "▁tarafın": 4772,
      "▁edemiyor": 4773,
      "##bus": 4774,
      "▁korktu": 4775,
      "▁edip": 4776,
      "▁gozetim": 4777,
      "▁kalite": 4778,
      "▁tahammul": 4779,
      "▁isletme": 4780,
      "##lac": 4781,
      "##lıkların": 4782,
      "▁yoktu": 4783,
      "▁ih": 4784,
      "▁zul": 4785,
      "▁ayın": 4786,
      "▁ik": 4787,
      "▁ureticiler": 4788,
      "▁konaklama": 4789,
      "▁boylu": 4790,
      "▁onlarda": 4791,
      "▁sapı": 4792,
      "▁akt": 4793,
      "▁oturma": 4794,
      "▁goruldu": 4795,
      "▁dostum": 4796,
      "▁vergiler": 4797,
      "##alarındaki": 4798,
      "▁adamlarının": 4799,
      "▁ziyaret": 4800,
      "▁rahmet": 4801,
      "▁hediye": 4802,
      "▁onsu": 4803,
      "##akı": 4804,
      "▁cit": 4805,
      "▁te": 4806,
      "▁kaldıgı": 4807,
      "▁gav": 4808,
      "##acaklarını": 4809,
      "▁azaltma": 4810,
      "▁doların": 4811,
      "▁hiss": 4812,
      "##likten": 4813,
      "▁nitelikte": 4814,
      "##medi": 4815,
      "▁basbakanı": 4816,
      "##gunlukla": 4817,
      "▁oyn": 4818,
      "▁gozunu": 4819,
      "##fi": 4820,
      "▁kazık": 4821,
      "▁magazaları": 4822,
      "▁zincirinin": 4823,
      "▁za": 4824,
      "▁yorumunu": 4825,
      "▁destekli": 4826,
      "▁ekonomist": 4827,
      "▁resesyon": 4828,
      "##arlık": 4829,
      "▁nedenle": 4830,
      "▁yanını": 4831,
      "##lısı": 4832,
      "▁isciyi": 4833,
      "▁dukkanın": 4834,
      "▁danısmanlık": 4835,
      "▁ugur": 4836,
      "▁katlı": 4837,
      ";": 4838,
      "##na": 4839,
      "▁katından": 4840,
      "▁degerlendirmek": 4841,
      "##mamı": 4842,
      "▁yog": 4843,
      "▁ticareti": 4844,
      "▁pasap": 4845,
      "▁hakikat": 4846,
      "▁senden": 4847,
      "▁gunden": 4848,
      "▁hıckırık": 4849,
      "▁kısk": 4850,
      "▁ust": 4851,
      "▁hucre": 4852,
      "##amlı": 4853,
      "▁bug": 4854,
      "▁memnun": 4855,
      "▁idare": 4856,
      "##pa": 4857,
      "▁pay": 4858,
      "▁27": 4859,
      "##aliydi": 4860,
      "▁olumune": 4861,
      "▁ettikten": 4862,
      "▁agac": 4863,
      "##ginden": 4864,
      "▁talebini": 4865,
      "▁artısları": 4866,
      "##'n": 4867,
      "##isah": 4868,
      "▁miy": 4869,
      "##dadı": 4870,
      "##irmi": 4871,
      "##ligine": 4872,
      "▁havaya": 4873,
      "▁dusmek": 4874,
      "▁yukselisi": 4875,
      "##uge": 4876,
      "▁akıllı": 4877,
      "▁sırtını": 4878,
      "▁ayrılık": 4879,
      "▁yemin": 4880,
      "▁ortası": 4881,
      "▁duzenleyici": 4882,
      "▁mısır": 4883,
      "▁sorustur": 4884,
      "▁29": 4885,
      "##mıstım": 4886,
      "▁soylemek": 4887,
      "▁dallas": 4888,
      "##sık": 4889,
      "##ee": 4890,
      "▁kaydetti": 4891,
      "▁temerrut": 4892,
      "▁rub": 4893,
      "▁ucretlerin": 4894,
      "▁kısmının": 4895,
      "▁sola": 4896,
      "▁detay": 4897,
      "▁kayanın": 4898,
      "##yst": 4899,
      "▁durdur": 4900,
      "▁kisilerle": 4901,
      "▁kaldır": 4902,
      "##'da": 4903,
      "▁ast": 4904,
      "##ledi": 4905,
      "▁ramaz": 4906,
      "▁kapasitesine": 4907,
      "▁temel": 4908,
      "▁seviyede": 4909,
      "▁yurd": 4910,
      "▁lobi": 4911,
      "▁vergi": 4912,
      "##can": 4913,
      "▁verebilirim": 4914,
      "▁camlar": 4915,
      "▁guver": 4916,
      "##ro": 4917,
      "▁teklifi": 4918,
      "▁dr": 4919,
      "▁beton": 4920,
      "##mediklerini": 4921,
      "▁elektronik": 4922,
      "▁sarkılar": 4923,
      "▁askeri": 4924,
      "##medigini": 4925,
      "▁saldırı": 4926,
      "▁telas": 4927,
      "##nan": 4928,
      "▁viraj": 4929,
      "▁keresinde": 4930,
      "▁elini": 4931,
      "##evi": 4932,
      "▁islemlerinde": 4933,
      "▁yaslı": 4934,
      "▁birimleri": 4935,
      "##larımdan": 4936,
      "▁bahcesinde": 4937,
      "▁sayı": 4938,
      "▁bulas": 4939,
      "##saca": 4940,
      "▁sinemaya": 4941,
      "▁ogut": 4942,
      "▁kadrosu": 4943,
      "▁oyunlarının": 4944,
      "▁tatlilar": 4945,
      "▁temmuz'da": 4946,
      "▁icmek": 4947,
      "##lug": 4948,
      "▁belki": 4949,
      "▁yuvası": 4950,
      "▁ellerinin": 4951,
      "▁bahceden": 4952,
      "▁med": 4953,
      "▁sansur": 4954,
      "##lanması": 4955,
      "▁tepk": 4956,
      "▁dalgalanması": 4957,
      "▁birimin": 4958,
      "▁salvar": 4959,
      "▁kalmad": 4960,
      "▁kapalı": 4961,
      "▁biy": 4962,
      "▁odalardan": 4963,
      "▁davacı": 4964,
      "▁muhendislik": 4965,
      "▁gozluk": 4966,
      "▁yarısına": 4967,
      "▁sikintilardan": 4968,
      "▁atmayı": 4969,
      "##ılım": 4970,
      "##ıcıya": 4971,
      "##cagı": 4972,
      "▁senetleri": 4973,
      "▁igne": 4974,
      "▁kamyonu": 4975,
      "▁saglıklı": 4976,
      "▁uret": 4977,
      "▁calismasina": 4978,
      "▁tarafına": 4979,
      "▁yuzdelik": 4980,
      "▁oteye": 4981,
      "##anıs": 4982,
      "##irken": 4983,
      "▁yuzune": 4984,
      "▁sise": 4985,
      "▁3": 4986,
      "▁gozlerini": 4987,
      "▁secenek": 4988,
      "##ulacak": 4989,
      "▁pak": 4990,
      "▁kofte": 4991,
      "▁fonlarının": 4992,
      "▁olayların": 4993,
      "##ılmıs": 4994,
      "▁reper": 4995,
      "▁tehdidini": 4996,
      "▁tarl": 4997,
      "▁soba": 4998,
      "##i'nin": 4999,
      "▁bekleme": 5000,
      "##lıları": 5001,
      "▁100000": 5002,
      "▁ekonomik": 5003,
      "▁global": 5004,
      "▁belirtmek": 5005,
      "▁lezzetleri": 5006,
      "▁geliyor": 5007,
      "▁kuf": 5008,
      "▁yansı": 5009,
      "▁dalgalar": 5010,
      "▁lu": 5011,
      "##atch": 5012,
      "▁ızgar": 5013,
      "▁av": 5014,
      "▁koleksiyon": 5015,
      "▁santaj": 5016,
      "##ımcı": 5017,
      "##ısıyla": 5018,
      "##ındık": 5019,
      "▁uzaklarda": 5020,
      "▁kurallarına": 5021,
      "▁cıktım": 5022,
      "▁artısının": 5023,
      "▁altern": 5024,
      "▁3\\/4": 5025,
      "▁%2": 5026,
      "7": 5027,
      "▁bilirdi": 5028,
      "▁numaralı": 5029,
      "▁borsa": 5030,
      "▁azabı": 5031,
      "##inde": 5032,
      "▁dalı": 5033,
      "##k": 5034,
      "▁ek": 5035,
      "▁bro": 5036,
      "▁fedakarlık": 5037,
      "▁tarihli": 5038,
      "##ruk": 5039,
      "▁evin": 5040,
      "▁duskun": 5041,
      "▁ufaklık": 5042,
      "##isim": 5043,
      "##cuyu": 5044,
      "▁standart": 5045,
      "▁cevr": 5046,
      "▁38": 5047,
      "▁meclisi": 5048,
      "##lıkla": 5049,
      "▁onunde": 5050,
      "▁mekte": 5051,
      "▁gozlerinin": 5052,
      "▁alcak": 5053,
      "▁dairesine": 5054,
      "▁cıkmayı": 5055,
      "▁girisimleri": 5056,
      "▁cagırdı": 5057,
      "▁inanmak": 5058,
      "▁cekic": 5059,
      "▁orne": 5060,
      "##'te": 5061,
      "▁farklılık": 5062,
      "▁ayagı": 5063,
      "▁dyp": 5064,
      "▁kurmay": 5065,
      "##tmeye": 5066,
      "▁hosumuza": 5067,
      "▁masası": 5068,
      "▁dusuncesini": 5069,
      "▁biris": 5070,
      "##ledigini": 5071,
      "##lik": 5072,
      "▁depremle": 5073,
      "▁evvel": 5074,
      "▁tip": 5075,
      "▁yapildi": 5076,
      "▁duvardan": 5077,
      "▁vatandas": 5078,
      "▁hazret": 5079,
      "▁musterinin": 5080,
      "##li": 5081,
      "▁sevkiyat": 5082,
      "▁degerler": 5083,
      "▁demokrat": 5084,
      "▁ayrildik": 5085,
      "##iren": 5086,
      "##tikce": 5087,
      "▁ele": 5088,
      "▁cehre": 5089,
      "▁eyalet": 5090,
      "▁sehrine": 5091,
      "▁gerekiyor": 5092,
      "##usunden": 5093,
      "##emeyecegim": 5094,
      "##landırıldı": 5095,
      "▁24": 5096,
      "##erindeki": 5097,
      "▁birini": 5098,
      "▁lap": 5099,
      "▁donuyor": 5100,
      "▁sas": 5101,
      "▁etegi": 5102,
      "##len": 5103,
      "##cın": 5104,
      "##eceginin": 5105,
      "▁giriste": 5106,
      "▁zararı": 5107,
      "##vi": 5108,
      "▁kat": 5109,
      "▁treni": 5110,
      "▁anayasa": 5111,
      "▁mola": 5112,
      "##dur": 5113,
      "▁satımda": 5114,
      "▁buna": 5115,
      "▁taraf": 5116,
      "▁sonuclarından": 5117,
      "▁girmek": 5118,
      "n": 5119,
      "▁dav": 5120,
      "▁agırlık": 5121,
      "▁ogrenme": 5122,
      "##aca": 5123,
      "▁1986": 5124,
      "▁verim": 5125,
      "▁varması": 5126,
      "##danın": 5127,
      "▁kullanıl": 5128,
      "##-a": 5129,
      "##emiyorum": 5130,
      "▁ruhunun": 5131,
      "##agi": 5132,
      "##talık": 5133,
      "▁pantolon": 5134,
      "▁koyar": 5135,
      "##ırarak": 5136,
      "▁tesebbus": 5137,
      "▁yolculugun": 5138,
      "▁hur": 5139,
      "▁hucr": 5140,
      "▁beyazın": 5141,
      "##angoz": 5142,
      "▁getirileri": 5143,
      "##'t": 5144,
      "▁ac": 5145,
      "▁azalt": 5146,
      "▁kalmadik": 5147,
      "▁karısına": 5148,
      "▁ste": 5149,
      "##2'den": 5150,
      "▁kolayca": 5151,
      "▁elestir": 5152,
      "▁ciro": 5153,
      "▁yemekten": 5154,
      "▁cevresine": 5155,
      "▁duygularıyla": 5156,
      "▁gunlerde": 5157,
      "▁ortaydi": 5158,
      "▁maliye": 5159,
      "▁hastanın": 5160,
      "▁balıgı": 5161,
      "▁yapmayacagını": 5162,
      "▁edilemez": 5163,
      "▁konuyla": 5164,
      "▁gorec": 5165,
      "▁kaptır": 5166,
      "▁kıc": 5167,
      "▁eastern": 5168,
      "▁seyirci": 5169,
      "##kındaki": 5170,
      "▁deng": 5171,
      "▁siddetli": 5172,
      "▁guvenli": 5173,
      "▁seviyesinde": 5174,
      "▁anlamak": 5175,
      "▁cebine": 5176,
      "▁kultur": 5177,
      "▁garson": 5178,
      "▁direk": 5179,
      "▁katıl": 5180,
      "▁dini": 5181,
      "▁konsept": 5182,
      "▁ayaklarının": 5183,
      "##lali": 5184,
      "▁kurulusun": 5185,
      "▁bazda": 5186,
      "##alarım": 5187,
      "##macılar": 5188,
      "▁davranislari": 5189,
      "##nı": 5190,
      "▁mektep": 5191,
      "▁1.3": 5192,
      "▁bekler": 5193,
      "##astırma": 5194,
      "▁derdin": 5195,
      "##ye": 5196,
      "▁kazancını": 5197,
      "▁muhasebe": 5198,
      "##avv": 5199,
      "▁arabacı": 5200,
      "##ansız": 5201,
      "##arc": 5202,
      "▁tik": 5203,
      "▁dakikasında": 5204,
      "##ldi": 5205,
      "▁surecini": 5206,
      "▁cekici": 5207,
      "▁unu": 5208,
      "##fer": 5209,
      "▁goruluyor": 5210,
      "▁gelmeden": 5211,
      "▁durumla": 5212,
      "▁maliyeti": 5213,
      "▁kelimesinin": 5214,
      "▁gosterin": 5215,
      "▁guvence": 5216,
      "▁faiz": 5217,
      "▁ihracı": 5218,
      "##madı": 5219,
      "▁evi": 5220,
      "▁bakanlıgın": 5221,
      "##gunluk": 5222,
      "▁nas": 5223,
      "▁planın": 5224,
      "▁borcunu": 5225,
      "▁erkege": 5226,
      "▁ins": 5227,
      "##ruf": 5228,
      "▁kapan": 5229,
      "▁denetimi": 5230,
      "▁giyim": 5231,
      "▁kactı": 5232,
      "▁dola": 5233,
      "▁kardesim": 5234,
      "▁sozlerine": 5235,
      "▁politikası": 5236,
      "▁duyur": 5237,
      "▁ikaz": 5238,
      "▁kom": 5239,
      "▁parti": 5240,
      "##cesine": 5241,
      "▁yeryuzune": 5242,
      "▁tarafını": 5243,
      "▁tutar": 5244,
      "▁sup": 5245,
      "▁mufettis": 5246,
      "▁esyasını": 5247,
      "▁rıh": 5248,
      "▁bana": 5249,
      "▁3'ten": 5250,
      "▁teor": 5251,
      "▁anad": 5252,
      "▁nort": 5253,
      "▁mutlul": 5254,
      "▁tanr": 5255,
      "▁sohbet": 5256,
      "▁dusunceler": 5257,
      "▁antika": 5258,
      "▁seyle": 5259,
      "##leriniz": 5260,
      "▁kırk": 5261,
      "▁ugram": 5262,
      "▁temeller": 5263,
      "▁cocuklarını": 5264,
      "▁suyuna": 5265,
      "##attı": 5266,
      "▁nik": 5267,
      "▁deprem": 5268,
      "##itre": 5269,
      "▁sehit": 5270,
      "▁oyunc": 5271,
      "▁yi": 5272,
      "▁aktor": 5273,
      "▁sigarasını": 5274,
      "▁turlu": 5275,
      "▁zeyt": 5276,
      "▁yatırımcılar": 5277,
      "▁columbus": 5278,
      "▁egi": 5279,
      "▁ceketinin": 5280,
      "▁3\\/8": 5281,
      "▁top": 5282,
      "▁siir": 5283,
      "##cum": 5284,
      "▁bakalım": 5285,
      "##lerle": 5286,
      "$": 5287,
      "▁197": 5288,
      "▁hır": 5289,
      "##ılmaz": 5290,
      "##ılan": 5291,
      "▁yanisi": 5292,
      "▁2'ye": 5293,
      "▁getir": 5294,
      "▁ilgilenmediler": 5295,
      "##ale": 5296,
      "▁kisi": 5297,
      "▁ekm": 5298,
      "▁hınc": 5299,
      "▁toreni": 5300,
      "##eksiyon": 5301,
      "##pe": 5302,
      "▁damarı": 5303,
      "##anlara": 5304,
      "▁ipuc": 5305,
      "##uktu": 5306,
      "##ukla": 5307,
      "▁terk": 5308,
      "▁ittifak": 5309,
      "##otekn": 5310,
      "▁hadisenin": 5311,
      "▁mobil": 5312,
      "##30'dan": 5313,
      "▁boyun": 5314,
      "##ner": 5315,
      "▁supur": 5316,
      "▁iftir": 5317,
      "##uguna": 5318,
      "▁tepki": 5319,
      "▁gag": 5320,
      "##gimiz": 5321,
      "▁kayn": 5322,
      "▁istanbul'un": 5323,
      "v": 5324,
      "▁savun": 5325,
      "##edildi": 5326,
      "▁sisteminin": 5327,
      "##c": 5328,
      "▁deney": 5329,
      "▁ihtimalini": 5330,
      "▁versiyonu": 5331,
      "▁sektorde": 5332,
      "▁sahil": 5333,
      "▁yemegini": 5334,
      "▁cember": 5335,
      "▁gazoz": 5336,
      "##dana": 5337,
      "##mezse": 5338,
      "▁georg": 5339,
      "##par": 5340,
      "▁programında": 5341,
      "##ırmak": 5342,
      "##atını": 5343,
      "▁intih": 5344,
      "##ıldıktan": 5345,
      "##erans": 5346,
      "▁gunlerinde": 5347,
      "[PAD]": 5348,
      "##ingi": 5349,
      "▁mustesar": 5350,
      "▁arab": 5351,
      "▁yakinlar": 5352,
      "▁1.0": 5353,
      "▁boyu": 5354,
      "▁uyk": 5355,
      "▁karak": 5356,
      "##anlarda": 5357,
      "▁aga": 5358,
      "▁kira": 5359,
      "##cayı": 5360,
      "▁kulu": 5361,
      "##cilikle": 5362,
      "▁gerek": 5363,
      "▁bizimle": 5364,
      "▁baskaları": 5365,
      "▁muay": 5366,
      "##dukları": 5367,
      "▁ustunluk": 5368,
      "▁ticarete": 5369,
      "▁kolu": 5370,
      "▁kaleme": 5371,
      "##nun": 5372,
      "▁eder": 5373,
      "▁feragat": 5374,
      "##ssa": 5375,
      "##suz": 5376,
      "▁bilgisayarı": 5377,
      "▁parca": 5378,
      "##osun": 5379,
      "▁plana": 5380,
      "▁75": 5381,
      "▁ruyamda": 5382,
      "##hane": 5383,
      "▁oyku": 5384,
      "##dak": 5385,
      "▁tek": 5386,
      "##adıgı": 5387,
      "▁iltifat": 5388,
      "▁cıkarmaya": 5389,
      "▁ulus": 5390,
      "▁1970'": 5391,
      "▁yufka": 5392,
      "▁gru": 5393,
      "▁anlıslanabili": 5394,
      "▁havacılık": 5395,
      "▁sokaklara": 5396,
      "▁zah": 5397,
      "▁degerinin": 5398,
      "▁sezonu": 5399,
      "▁bulbul": 5400,
      "▁bazilari": 5401,
      "▁uslup": 5402,
      "▁yayınlar": 5403,
      "▁sayısını": 5404,
      "▁mahs": 5405,
      "##anya": 5406,
      "##aparki": 5407,
      "▁ulasım": 5408,
      "▁francisco": 5409,
      "▁ortaklık": 5410,
      "▁mute": 5411,
      "▁tohumları": 5412,
      "▁londra": 5413,
      "▁tesisi": 5414,
      "▁oranlarının": 5415,
      "▁sokaktan": 5416,
      "##ihan": 5417,
      "▁parka": 5418,
      "##bek": 5419,
      "▁serin": 5420,
      "▁ihtiyacimiz": 5421,
      "▁ihtiyaci": 5422,
      "▁edi": 5423,
      "##aseb": 5424,
      "▁guleryuzluydu": 5425,
      "▁suzgec": 5426,
      "▁anlar": 5427,
      "▁girisimler": 5428,
      "▁tavla": 5429,
      "##luler": 5430,
      "▁alkıs": 5431,
      "▁havuzlari": 5432,
      "##ev": 5433,
      "▁koku": 5434,
      "##madılar": 5435,
      "▁burun": 5436,
      "▁arkadası": 5437,
      "##iri": 5438,
      "▁ile": 5439,
      "▁birlesik": 5440,
      "▁amcam": 5441,
      "▁yagmur": 5442,
      "▁amacları": 5443,
      "##acagından": 5444,
      "▁gosterdigini": 5445,
      "▁bunları": 5446,
      "▁akısı": 5447,
      "▁ade": 5448,
      "▁degerlendirme": 5449,
      "▁yılının": 5450,
      "▁7.8": 5451,
      "▁talebinin": 5452,
      "##dugu": 5453,
      "▁eki": 5454,
      "▁tasları": 5455,
      "▁yapma": 5456,
      "▁sıc": 5457,
      "##isco": 5458,
      "##lilerin": 5459,
      "##uzlu": 5460,
      "▁aynen": 5461,
      "▁yukseldi": 5462,
      "▁gozlerinden": 5463,
      "▁ugradı": 5464,
      "##tas": 5465,
      "▁yerlerini": 5466,
      "▁secimin": 5467,
      "▁sirketleri": 5468,
      "##dıgı": 5469,
      "##ada": 5470,
      "▁arkadaslar": 5471,
      "##ıklar": 5472,
      "▁kızcagız": 5473,
      "▁adım": 5474,
      "▁vali": 5475,
      "▁etmey": 5476,
      "▁edilecek": 5477,
      "##abaz": 5478,
      "▁mih": 5479,
      "▁usa": 5480,
      "▁cep": 5481,
      "▁cinc": 5482,
      "##ekti": 5483,
      "▁biriktir": 5484,
      "▁fıs": 5485,
      "▁13": 5486,
      "▁carsıdan": 5487,
      "▁kup": 5488,
      "▁tampa'dan": 5489,
      "▁begendim": 5490,
      "##i": 5491,
      "▁aramız": 5492,
      "##usuyla": 5493,
      "▁sevda": 5494,
      "▁muayene": 5495,
      "▁buluyor": 5496,
      "▁arz": 5497,
      "▁dislerini": 5498,
      "##eginde": 5499,
      "▁kavram": 5500,
      "▁yapılmıs": 5501,
      "▁tatili": 5502,
      "▁aglamaya": 5503,
      "▁alakadar": 5504,
      "▁rahat": 5505,
      "##ult": 5506,
      "▁doku": 5507,
      "▁yoz": 5508,
      "##acaksın": 5509,
      "▁ayık": 5510,
      "▁defterleri": 5511,
      "▁abi": 5512,
      "▁ilgisini": 5513,
      "▁durumlar": 5514,
      "▁as": 5515,
      "##lardı": 5516,
      "▁zamanda": 5517,
      "▁end": 5518,
      "##ucul": 5519,
      "▁oranını": 5520,
      "&": 5521,
      "##cok": 5522,
      "▁sizden": 5523,
      "▁mana": 5524,
      "▁duygusunu": 5525,
      "▁kollarını": 5526,
      "▁oyunu": 5527,
      "▁elektrigi": 5528,
      "##sıyla": 5529,
      "▁askın": 5530,
      "▁devreye": 5531,
      "▁bombardım": 5532,
      "▁kalıyor": 5533,
      "##gınlık": 5534,
      "##d": 5535,
      "▁kalkıslı": 5536,
      "▁grev": 5537,
      "##duktan": 5538,
      "##lekler": 5539,
      "▁davranısları": 5540,
      "▁yukarıda": 5541,
      "▁em": 5542,
      "▁yemeklerde": 5543,
      "##edik": 5544,
      "▁mutlulugu": 5545,
      "##egine": 5546,
      "▁ekibinin": 5547,
      "▁torb": 5548,
      "▁kırılması": 5549,
      "▁surdurdu": 5550,
      "▁kargo": 5551,
      "▁takımın": 5552,
      "▁ruy": 5553,
      "▁ic": 5554,
      "##lım": 5555,
      "##lıgında": 5556,
      "##okul": 5557,
      "▁sınıfın": 5558,
      "▁tarihin": 5559,
      "▁iceriden": 5560,
      "##cılıg": 5561,
      "##itesi": 5562,
      "▁arasındaki": 5563,
      "▁gordugum": 5564,
      "▁kulah": 5565,
      "▁arasından": 5566,
      "▁mek": 5567,
      "##ark": 5568,
      "▁merkezli": 5569,
      "▁volatil": 5570,
      "▁cekmec": 5571,
      "▁hayatta": 5572,
      "##ay": 5573,
      "▁dayım": 5574,
      "▁uzmanların": 5575,
      "▁balkon": 5576,
      "▁oturup": 5577,
      "▁imtiyaz": 5578,
      "##lendir": 5579,
      "##oloj": 5580,
      "▁gundem": 5581,
      "▁cet": 5582,
      "▁dc": 5583,
      "▁murekk": 5584,
      "▁hastanede": 5585,
      "▁bankasının": 5586,
      "▁baglama": 5587,
      "▁devamı": 5588,
      "▁muhafazakar": 5589,
      "##uverdi": 5590,
      "▁corp.": 5591,
      "##stı": 5592,
      "▁evinin": 5593,
      "▁kararnam": 5594,
      "##etidir": 5595,
      "▁sozcukleri": 5596,
      "##a'ya": 5597,
      "▁yolcu": 5598,
      "▁asık": 5599,
      "##idi": 5600,
      "▁dolandırıcılık": 5601,
      "▁go": 5602,
      "▁yabancıların": 5603,
      "▁kamera": 5604,
      "▁seyahat": 5605,
      "▁sana": 5606,
      "##ors": 5607,
      "##ysa": 5608,
      "▁atları": 5609,
      "▁planlamam": 5610,
      "▁dahası": 5611,
      "▁konusuyor": 5612,
      "▁feder": 5613,
      "▁varlıklarının": 5614,
      "▁ri": 5615,
      "▁kred": 5616,
      "?": 5617,
      "▁hid": 5618,
      "▁asab": 5619,
      "▁tenis": 5620,
      "▁1'e": 5621,
      "▁bugday": 5622,
      "▁luz": 5623,
      "##ecektim": 5624,
      "▁olumu": 5625,
      "▁vermedi": 5626,
      "▁ısrar": 5627,
      "▁onu": 5628,
      "▁temb": 5629,
      "▁ciger": 5630,
      "▁merdivenlerden": 5631,
      "▁kategor": 5632,
      "##misti": 5633,
      "▁makineleri": 5634,
      "##tus": 5635,
      "▁kent": 5636,
      "▁dır": 5637,
      "▁halleri": 5638,
      "▁yesil": 5639,
      "▁gecirir": 5640,
      "##mine": 5641,
      "▁yanıyordu": 5642,
      "▁iktidar": 5643,
      "▁boru": 5644,
      "▁elime": 5645,
      "▁kırıklıgına": 5646,
      "▁gencin": 5647,
      "▁etmemek": 5648,
      "▁yapmadı": 5649,
      "▁yuregim": 5650,
      "▁gonder": 5651,
      "▁kısaca": 5652,
      "##ha": 5653,
      "▁lor": 5654,
      "▁kum": 5655,
      "▁phoeni": 5656,
      "▁nakar": 5657,
      "▁tımar": 5658,
      "▁tanıyor": 5659,
      "▁maruz": 5660,
      "…": 5661,
      "##ıl": 5662,
      "▁tahr": 5663,
      "▁muhtac": 5664,
      "▁eleman": 5665,
      "▁tedbiri": 5666,
      "▁yardım": 5667,
      "##ograf": 5668,
      "▁neti": 5669,
      "▁33": 5670,
      "▁cincinnati'den": 5671,
      "▁yans": 5672,
      "##elig": 5673,
      "▁gorunmek": 5674,
      "▁performansi": 5675,
      "▁1991'de": 5676,
      "▁ef": 5677,
      "▁yargıc": 5678,
      "▁ciftlerine": 5679,
      "▁yasamak": 5680,
      "▁magazada": 5681,
      "##lemek": 5682,
      "▁koskun": 5683,
      "▁kanunun": 5684,
      "▁konforluydu": 5685,
      "▁ipot": 5686,
      "##mesine": 5687,
      "▁yahudi": 5688,
      "▁ormanın": 5689,
      "▁efendim": 5690,
      "▁1987": 5691,
      "##avuz": 5692,
      "##lasmıs": 5693,
      "##tel": 5694,
      "##impiyat": 5695,
      "##r": 5696,
      "▁heyecanla": 5697,
      "▁gelmez": 5698,
      "##eland": 5699,
      "▁rus": 5700,
      "▁ilkbahar": 5701,
      "▁ilan": 5702,
      "▁kalmayı": 5703,
      "▁siiri": 5704,
      "▁halde": 5705,
      "##satı": 5706,
      "▁dl": 5707,
      "▁beklentimin": 5708,
      "▁bosu": 5709,
      "▁ce": 5710,
      "▁ucuslarını": 5711,
      "▁sonuclarını": 5712,
      "▁mutema": 5713,
      "▁tarihten": 5714,
      "▁sermaye": 5715,
      "▁goruyordu": 5716,
      "▁ucusunu": 5717,
      "▁yuksek": 5718,
      "▁sirketini": 5719,
      "▁milyon": 5720,
      "▁basladım": 5721,
      "▁ozellikleri": 5722,
      "##“": 5723,
      "▁istedig": 5724,
      "▁gıda": 5725,
      "##abilmek": 5726,
      "▁navl": 5727,
      "▁anlasılıyor": 5728,
      "▁annemi": 5729,
      "▁duygu": 5730,
      "##reti": 5731,
      "▁sekil": 5732,
      "▁$'": 5733,
      "▁gur": 5734,
      "▁calısma": 5735,
      "▁cizg": 5736,
      "##tanbul": 5737,
      "▁cas": 5738,
      "▁spekulasyon": 5739,
      "▁anlatım": 5740,
      "▁ak": 5741,
      "▁imkan": 5742,
      "##estiri": 5743,
      "▁topraga": 5744,
      "##ne": 5745,
      "##dos": 5746,
      "##ilerle": 5747,
      "##kır": 5748,
      "##.3": 5749,
      "##meldi": 5750,
      "▁memlekette": 5751,
      "▁erkek": 5752,
      "##lest": 5753,
      "▁hayat": 5754,
      "▁bagları": 5755,
      "▁y": 5756,
      "##akları": 5757,
      "▁uye": 5758,
      "▁sesinin": 5759,
      "▁kitapları": 5760,
      "▁digerleri": 5761,
      "##usudur": 5762,
      "▁zeki": 5763,
      "▁sov": 5764,
      "▁bon": 5765,
      "▁icerir": 5766,
      "▁kalem": 5767,
      "##tmis": 5768,
      "▁sendik": 5769,
      "##'nun": 5770,
      "▁ifadesini": 5771,
      "▁getirildi": 5772,
      "▁dikkatle": 5773,
      "▁guzelligi": 5774,
      "▁paya": 5775,
      "##wa": 5776,
      "▁sonuclara": 5777,
      "▁tuzu": 5778,
      "▁ihale": 5779,
      "##leleri": 5780,
      "▁kovustur": 5781,
      "▁ders": 5782,
      "▁onceki": 5783,
      "##les": 5784,
      "▁temsilciler": 5785,
      "▁ucaklar": 5786,
      "▁1992'de": 5787,
      "▁azalması": 5788,
      "▁sigor": 5789,
      "##ıktı": 5790,
      "##cal": 5791,
      "▁ay": 5792,
      "▁doga": 5793,
      "▁olmayacagını": 5794,
      "▁varlıkları": 5795,
      "l": 5796,
      "▁kısıtlamalar": 5797,
      "▁ceza": 5798,
      "##boy": 5799,
      "##ınca": 5800,
      "▁ucuslarla": 5801,
      "▁danısman": 5802,
      "▁odeme": 5803,
      "▁yaprak": 5804,
      "##emde": 5805,
      "▁faaliyetleri": 5806,
      "▁cicegi": 5807,
      "▁annesiyle": 5808,
      "▁pilav": 5809,
      "▁karısık": 5810,
      "▁national": 5811,
      "▁dekorasyonu": 5812,
      "▁evlilig": 5813,
      "▁mal": 5814,
      "##am": 5815,
      "▁ceyr": 5816,
      "▁cogunluk": 5817,
      "▁sofraya": 5818,
      "##ızda": 5819,
      "##ug": 5820,
      "▁nesesi": 5821,
      "##aldı": 5822,
      "▁dagdan": 5823,
      "##rat": 5824,
      "▁muhafaz": 5825,
      "▁zay": 5826,
      "▁yeg": 5827,
      "▁universitesi'nde": 5828,
      "▁parmagını": 5829,
      "▁miami'ye": 5830,
      "▁doktora": 5831,
      "▁mahsulu": 5832,
      "▁cıglık": 5833,
      "▁reasur": 5834,
      "▁delikanlının": 5835,
      "▁tavana": 5836,
      "▁canav": 5837,
      "##ıyoruz": 5838,
      "##emsiz": 5839,
      "##elen": 5840,
      "##eviz": 5841,
      "▁fatur": 5842,
      "▁analistler": 5843,
      "##inlik": 5844,
      "▁kendisine": 5845,
      "▁sab": 5846,
      "##yi": 5847,
      "▁ikiye": 5848,
      "▁kopuk": 5849,
      "▁icleri": 5850,
      "▁istah": 5851,
      "##sil": 5852,
      "##maca": 5853,
      "▁talih": 5854,
      "##acının": 5855,
      "▁ucagın": 5856,
      "##untu": 5857,
      "▁maliyetleri": 5858,
      "##iza": 5859,
      "▁imparatorluk": 5860,
      "▁mecliste": 5861,
      "▁sterlin": 5862,
      "▁gunese": 5863,
      "##ırt": 5864,
      "▁dudak": 5865,
      "▁guvenil": 5866,
      "##oksa": 5867,
      "▁uygar": 5868,
      "##ıb": 5869,
      "▁kayb": 5870,
      "-": 5871,
      "##eder": 5872,
      "▁kendilerine": 5873,
      "##aza": 5874,
      "▁finanse": 5875,
      "▁resimler": 5876,
      "▁insanog": 5877,
      "▁geliyordu": 5878,
      "##uslar": 5879,
      "▁fikirleri": 5880,
      "▁cocuklarına": 5881,
      "##kini": 5882,
      "▁saygıyla": 5883,
      "##usten": 5884,
      "▁detaylar": 5885,
      "▁aldılar": 5886,
      "##lesti": 5887,
      "▁koyuldu": 5888,
      "▁esvap": 5889,
      "▁tatil": 5890,
      "▁dizg": 5891,
      "##ecek": 5892,
      "+": 5893,
      "▁basrol": 5894,
      "##edeki": 5895,
      "▁keyifli": 5896,
      "▁kucucuk": 5897,
      "▁zorluk": 5898,
      "▁alet": 5899,
      "▁olanakları": 5900,
      "##eliginde": 5901,
      "▁cevaplar": 5902,
      "▁prot": 5903,
      "▁mevsim": 5904,
      "▁amer": 5905,
      "▁dekorasyon": 5906,
      "##lalı": 5907,
      "▁kız": 5908,
      "##adan": 5909,
      "▁taks": 5910,
      "▁meyvelerini": 5911,
      "▁sorununu": 5912,
      "▁turkiye": 5913,
      "▁yuzleri": 5914,
      "▁altı": 5915,
      "▁tehdid": 5916,
      "##lah": 5917,
      "▁takımları": 5918,
      "▁oper": 5919,
      "##ucunun": 5920,
      "##u": 5921,
      "▁endustrinin": 5922,
      "▁saate": 5923,
      "▁enflasyona": 5924,
      "▁gununu": 5925,
      "▁kord": 5926,
      "▁gu": 5927,
      "##daki": 5928,
      "▁etek": 5929,
      "▁ız": 5930,
      "▁rahatsızlık": 5931,
      "▁derslerinde": 5932,
      "##ıgında": 5933,
      "▁birinci": 5934,
      "*": 5935,
      "▁yıllarında": 5936,
      "▁temas": 5937,
      "##memiz": 5938,
      "▁calisirim": 5939,
      "▁olac": 5940,
      "▁incel": 5941,
      "##irleri": 5942,
      "▁basbakanlık": 5943,
      "▁penceresinden": 5944,
      "##'ı": 5945,
      "▁odulu": 5946,
      "▁buyukelci": 5947,
      "##tmek": 5948,
      "▁donemden": 5949,
      "▁artırmaya": 5950,
      "▁arada": 5951,
      "▁vatan": 5952,
      "▁kontak": 5953,
      "▁patron": 5954,
      "##ru": 5955,
      "▁partiye": 5956,
      "▁30-hisse": 5957,
      "##iyoruz": 5958,
      "▁bulasık": 5959,
      "##raber": 5960,
      "▁topr": 5961,
      "▁pic": 5962,
      "–": 5963,
      "▁harp": 5964,
      "##orth": 5965,
      "##uvar": 5966,
      "▁getirisini": 5967,
      "▁karsiligi": 5968,
      "##udur": 5969,
      "##nem": 5970,
      "##ıyordum": 5971,
      "▁sokakları": 5972,
      "##unu": 5973,
      "▁herhalde": 5974,
      "##biye": 5975,
      "▁ihlal": 5976,
      "▁bayramı": 5977,
      "▁toprakta": 5978,
      "##leri": 5979,
      "##eller": 5980,
      "▁agab": 5981,
      "▁planda": 5982,
      "##cek": 5983,
      "▁gelinceye": 5984,
      "▁chic": 5985,
      "▁cekmek": 5986,
      "▁hatir": 5987,
      "▁acıyı": 5988,
      "##ing": 5989,
      "▁cab": 5990,
      "▁fit": 5991,
      "▁azı": 5992,
      "##'u": 5993,
      "▁barınak": 5994,
      "▁yani": 5995,
      "▁ortalamaydi": 5996,
      "##ipler": 5997,
      "▁isle": 5998,
      "##lanta": 5999,
      "▁dolardır": 6000,
      "##ildi": 6001,
      "▁gomleg": 6002,
      "▁hibe": 6003,
      "▁cizgileri": 6004,
      "▁yaparım": 6005,
      "##ekt": 6006,
      "##me": 6007,
      "▁olmalıydı": 6008,
      "▁som": 6009,
      "▁tavada": 6010,
      "▁kapısı": 6011,
      "##yıp": 6012,
      "▁surum": 6013,
      "▁bekcisi": 6014,
      "▁hamam": 6015,
      "##ladıkları": 6016,
      "▁yegen": 6017,
      "##bas": 6018,
      "##eceg": 6019,
      "▁put": 6020,
      "##54": 6021,
      "##mayı": 6022,
      "▁eyaleti": 6023,
      "▁izleri": 6024,
      "▁ruyalar": 6025,
      "##tal": 6026,
      "▁dogasi": 6027,
      "▁sedir": 6028,
      "▁havayolları": 6029,
      "##muslar": 6030,
      "##eyin": 6031,
      "▁roz": 6032,
      "▁soyluyordu": 6033,
      "▁demokratlar": 6034,
      "▁hızı": 6035,
      "##akar": 6036,
      "##ımız": 6037,
      "▁duruma": 6038,
      "##tik": 6039,
      "##aket": 6040,
      "▁olusturuyor": 6041,
      "▁soyu": 6042,
      "▁tatlı": 6043,
      "##ıyla": 6044,
      "▁mucadelesi": 6045,
      "▁olmaktan": 6046,
      "##emezsiniz": 6047,
      "▁ipek": 6048,
      "##arda": 6049,
      "▁ozur": 6050,
      "▁gunlerin": 6051,
      "▁kerpic": 6052,
      "▁atat": 6053,
      "##olojik": 6054,
      "##gisi": 6055,
      "▁attılar": 6056,
      "▁olmak": 6057,
      "▁degn": 6058,
      "▁acıkladı": 6059,
      "##lerden": 6060,
      "▁kaldik": 6061,
      "▁dusmustu": 6062,
      "▁tuttum": 6063,
      "▁fir": 6064,
      "▁donem": 6065,
      "▁halef": 6066,
      "▁kavak": 6067,
      "##lesmis": 6068,
      "▁lezzeti": 6069,
      "##eyle": 6070,
      "▁sagda": 6071,
      "##eyen": 6072,
      "##dart": 6073,
      "##ediy": 6074,
      "▁hareketlerini": 6075,
      "▁satı": 6076,
      "▁ikmal": 6077,
      "##larıma": 6078,
      "##mistim": 6079,
      "▁ipotekleri": 6080,
      "##1'den": 6081,
      "▁yuk": 6082,
      "▁yasanın": 6083,
      "▁kule": 6084,
      "▁eglenc": 6085,
      "▁gelistirmeye": 6086,
      "▁manevra": 6087,
      "##enler": 6088,
      "##'ın": 6089,
      "▁onumuzde": 6090,
      "▁site": 6091,
      "▁kullanıldıgını": 6092,
      "##lastı": 6093,
      "▁cir": 6094,
      "▁musteriler": 6095,
      "▁icraat": 6096,
      "▁kagıt": 6097,
      "▁sorgu": 6098,
      "q": 6099,
      "▁etmek": 6100,
      "▁bankalar": 6101,
      "▁kod": 6102,
      "▁iliskinin": 6103,
      "##'in": 6104,
      "▁otomobili": 6105,
      "▁kapa": 6106,
      "▁airlines": 6107,
      "##ayık": 6108,
      "▁demiryolu": 6109,
      "▁kiler": 6110,
      "▁kıyısında": 6111,
      "▁yetisk": 6112,
      "▁miami'den": 6113,
      "▁yıldızlar": 6114,
      "▁yumus": 6115,
      "##dım": 6116,
      "##usun": 6117,
      "▁yasayıs": 6118,
      "▁han": 6119,
      "##asından": 6120,
      "##acık": 6121,
      "▁kızgınlık": 6122,
      "▁okumak": 6123,
      "▁bulacak": 6124,
      "##ulmaz": 6125,
      "▁kabın": 6126,
      "▁sorar": 6127,
      "##4'e": 6128,
      "▁nedir": 6129,
      "▁sac": 6130,
      "▁bilgilerin": 6131,
      "▁lacivert": 6132,
      "▁buyum": 6133,
      "##ıcılık": 6134,
      "▁cil": 6135,
      "##ehan": 6136,
      "▁gunduz": 6137,
      "▁isgali": 6138,
      "##madi": 6139,
      "▁kıl": 6140,
      "▁milletvekilleri": 6141,
      "▁ind": 6142,
      "▁kurumların": 6143,
      "▁nitelik": 6144,
      "##etle": 6145,
      "▁bık": 6146,
      "##rupalı": 6147,
      "▁atalarımızın": 6148,
      "[UNK]": 6149,
      "▁ucunu": 6150,
      "▁antren": 6151,
      "##enizin": 6152,
      "##irerek": 6153,
      "##51": 6154,
      "▁yonetici": 6155,
      "▁nal": 6156,
      "▁olacak": 6157,
      "▁bulmak": 6158,
      "▁55": 6159,
      "▁servet": 6160,
      "##ore": 6161,
      "▁kast": 6162,
      "▁fesi": 6163,
      "▁urk": 6164,
      "▁guzelim": 6165,
      "▁alınan": 6166,
      "##dem": 6167,
      "▁dallas'ta": 6168,
      "▁bang": 6169,
      "▁aletler": 6170,
      "▁umdugunu": 6171,
      "▁pırıl": 6172,
      "##dv": 6173,
      "▁tap": 6174,
      "▁planının": 6175,
      "▁resmen": 6176,
      "▁oranlarına": 6177,
      "▁vucu": 6178,
      "▁avucunun": 6179,
      "##atları": 6180,
      "##ecilerin": 6181,
      "##lat": 6182,
      "▁bıcagı": 6183,
      "▁philadelphia'ya": 6184,
      "▁heps": 6185,
      "▁mahkemenin": 6186,
      "▁kediye": 6187,
      "▁nev": 6188,
      "▁gorusmedim": 6189,
      "▁hissed": 6190,
      "##onto": 6191,
      "▁elbise": 6192,
      "▁alb": 6193,
      "▁okyan": 6194,
      "▁mani": 6195,
      "##0.": 6196,
      "▁olsunlar": 6197,
      "▁borsasında": 6198,
      "▁sayılı": 6199,
      "▁vermiyor": 6200,
      "▁deyisle": 6201,
      "##tac": 6202,
      "▁duydum": 6203,
      "▁tatilimiz": 6204,
      "▁sorumlulugunu": 6205,
      "▁sınırları": 6206,
      "▁tahminle": 6207,
      "##hakk": 6208,
      "▁d": 6209,
      "▁mud": 6210,
      "##artma": 6211,
      "▁meseleler": 6212,
      "▁senetlerini": 6213,
      "▁sigortacılar": 6214,
      "▁listeleyebilir": 6215,
      "▁oto": 6216,
      "##alarda": 6217,
      "##'nda": 6218,
      "▁bagın": 6219,
      "▁tut": 6220,
      "▁tezker": 6221,
      "▁buradan": 6222,
      "##kurmay": 6223,
      "▁lag": 6224,
      "▁prosedur": 6225,
      "▁henuz": 6226,
      "▁gulus": 6227,
      "▁kalab": 6228,
      "▁bazıları": 6229,
      "▁acılar": 6230,
      "▁bilgilendirme": 6231,
      "▁bulmustu": 6232,
      "▁patronun": 6233,
      "▁turistlerin": 6234,
      "▁duk": 6235,
      "##y's": 6236,
      "▁konsolos": 6237,
      "▁ite": 6238,
      "▁kasabada": 6239,
      "▁sattı": 6240,
      "▁kayıpları": 6241,
      "##erin": 6242,
      "▁kimse": 6243,
      "▁uyum": 6244,
      "##ırtılar": 6245,
      "▁lider": 6246,
      "▁duzeni": 6247,
      "▁ger": 6248,
      "▁prov": 6249,
      "##edigi": 6250,
      "▁havayollarında": 6251,
      "▁kendilerini": 6252,
      "▁guldu": 6253,
      "##mamız": 6254,
      "▁yatıs": 6255,
      "▁tir": 6256,
      "▁hazin": 6257,
      "▁46": 6258,
      "##uncu": 6259,
      "##ekk": 6260,
      "▁mekanizm": 6261,
      "▁tanrısı": 6262,
      "▁disi": 6263,
      "▁atar": 6264,
      "▁sehirler": 6265,
      "##acaklar": 6266,
      "▁cift-a": 6267,
      "▁soygun": 6268,
      "▁cıkıs": 6269,
      "▁bilgilerine": 6270,
      "▁acan": 6271,
      "▁yurtdısında": 6272,
      "##6'dan": 6273,
      "▁baslarında": 6274,
      "▁mikrofon": 6275,
      "▁bunlar": 6276,
      "▁1/2'den": 6277,
      "▁anah": 6278,
      "▁kurdu": 6279,
      "▁badan": 6280,
      "▁teklifleri": 6281,
      "▁labor": 6282,
      "##kkat": 6283,
      "▁broker": 6284,
      "▁kaya": 6285,
      "▁zihnini": 6286,
      "▁mehtap": 6287,
      "##enili": 6288,
      "▁paraya": 6289,
      "##akk": 6290,
      "▁hec": 6291,
      "▁yit": 6292,
      "##imen": 6293,
      "▁tuccar": 6294,
      "▁kanada": 6295,
      "▁bit": 6296,
      "▁gorun": 6297,
      "▁buy": 6298,
      "▁giy": 6299,
      "▁verici": 6300,
      "▁risk": 6301,
      "▁hakları": 6302,
      "▁calısanları": 6303,
      "▁gazi": 6304,
      "▁arkadasim": 6305,
      "##'d": 6306,
      "▁gos": 6307,
      "▁atı": 6308,
      "▁isler": 6309,
      "##igimi": 6310,
      "▁reisi": 6311,
      "▁": 6312,
      "▁duzgun": 6313,
      "▁insul": 6314,
      "▁vaka": 6315,
      "##eles": 6316,
      "▁yukseldigini": 6317,
      "▁ford": 6318,
      "##uf": 6319,
      "▁sanayicileri": 6320,
      "▁demis": 6321,
      "▁ulkenin": 6322,
      "▁yıgını": 6323,
      "##ıga": 6324,
      "▁vatandası": 6325,
      "▁gelmeyi": 6326,
      "▁alıskanlıgı": 6327,
      "▁beklenti": 6328,
      "▁eski": 6329,
      "##umk": 6330,
      "##indi": 6331,
      "▁alındı": 6332,
      "▁palto": 6333,
      "▁fotografta": 6334,
      "▁tasf": 6335,
      "▁dogrultusunda": 6336,
      "##b": 6337,
      "▁nimet": 6338,
      "▁nesne": 6339,
      "##tırma": 6340,
      "▁sic": 6341,
      "▁yataktan": 6342,
      "▁tedirgin": 6343,
      "▁ettiklerini": 6344,
      "▁ayva": 6345,
      "▁sınırlı": 6346,
      "▁iletisimi": 6347,
      "##vas": 6348,
      "▁bolgelerinde": 6349,
      "▁dusmus": 6350,
      "##iyim": 6351,
      "▁ustun": 6352,
      "##eceksiniz": 6353,
      "▁prob": 6354,
      "▁kelimesi": 6355,
      "▁ertel": 6356,
      "▁muduru": 6357,
      "▁heves": 6358,
      "##ekkur": 6359,
      "##ılıgın": 6360,
      "▁grupları": 6361,
      "##ıcının": 6362,
      "##ce": 6363,
      "▁bucuk": 6364,
      "▁agızları": 6365,
      "▁hekimi": 6366,
      "▁islemlerinin": 6367,
      "▁baltimore": 6368,
      "▁th": 6369,
      "▁biliyordu": 6370,
      "▁psik": 6371,
      "▁insaat": 6372,
      "##ly": 6373,
      "▁alayı": 6374,
      "▁turp": 6375,
      "##ıklarından": 6376,
      "▁ustanın": 6377,
      "▁guvercin": 6378,
      "▁yır": 6379,
      "##inler": 6380,
      "▁mil": 6381,
      "##desinde": 6382,
      "▁yepyeni": 6383,
      "##8'e": 6384,
      "▁agası": 6385,
      "▁sesiyle": 6386,
      "▁fery": 6387,
      "##'ten": 6388,
      "▁tasımaya": 6389,
      "▁olusturdu": 6390,
      "▁husus": 6391,
      "▁dusurdu": 6392,
      "▁babadan": 6393,
      "▁karısımı": 6394,
      "▁faizleri": 6395,
      "##uyoruz": 6396,
      "##iski": 6397,
      "▁62": 6398,
      "▁potansiyel": 6399,
      "▁maliyetlerinin": 6400,
      "▁cehr": 6401,
      "▁kuraklık": 6402,
      "##agından": 6403,
      "▁balık": 6404,
      "▁anım": 6405,
      "▁yasıyorum": 6406,
      "▁beydi": 6407,
      "▁insanlardan": 6408,
      "▁perdelerini": 6409,
      "▁hayatımda": 6410,
      "▁tesvik": 6411,
      "##olojisi": 6412,
      "##dince": 6413,
      "▁mutf": 6414,
      "▁calısmalar": 6415,
      "▁rec": 6416,
      "▁bulundugunu": 6417,
      "▁personel": 6418,
      "▁veririm": 6419,
      "▁sm": 6420,
      "▁fal": 6421,
      "▁moda": 6422,
      "▁dava": 6423,
      "▁degerlendir": 6424,
      "▁olmalı": 6425,
      "▁makaleye": 6426,
      "▁evla": 6427,
      "▁depremde": 6428,
      "▁korudu": 6429,
      "▁isten": 6430,
      "▁gorebilir": 6431,
      "▁alım-sat": 6432,
      "▁muracaat": 6433,
      "▁oldur": 6434,
      "▁yoldası": 6435,
      "▁hepiniz": 6436,
      "▁bacakları": 6437,
      "▁takım": 6438,
      "▁aldim": 6439,
      "▁tarafı": 6440,
      "▁guvertede": 6441,
      "▁bay": 6442,
      "▁uyeleri": 6443,
      "▁harcam": 6444,
      "▁armag": 6445,
      "▁kapasite": 6446,
      "▁arttır": 6447,
      "▁geyik": 6448,
      "▁demokrasi": 6449,
      "▁anlatmaya": 6450,
      "▁antr": 6451,
      "▁doviz": 6452,
      "▁konum": 6453,
      "▁yab": 6454,
      "▁aleyh": 6455,
      "▁akraba": 6456,
      "▁tekk": 6457,
      "▁fen": 6458,
      "##ımda": 6459,
      "▁birbirimizi": 6460,
      "##allas": 6461,
      "▁tercum": 6462,
      "▁zey": 6463,
      "▁cos": 6464,
      "▁duvarı": 6465,
      "▁8": 6466,
      "▁yapmıs": 6467,
      "▁yasadı": 6468,
      "▁orgu": 6469,
      "▁binalar": 6470,
      "▁asagılık": 6471,
      "▁ustesinden": 6472,
      "##ılıga": 6473,
      "##cak": 6474,
      "▁gibiydi": 6475,
      "▁karara": 6476,
      "▁gorus": 6477,
      "▁cocukluk": 6478,
      "▁icti": 6479,
      "▁fazlasını": 6480,
      "▁isminin": 6481,
      "##ates": 6482,
      "▁beden": 6483,
      "##.6": 6484,
      "▁hakkinda": 6485,
      "▁mudure": 6486,
      "▁guclu": 6487,
      "▁icindeki": 6488,
      "▁bakıcı": 6489,
      "▁manev": 6490,
      "▁nispeten": 6491,
      "▁suda": 6492,
      "▁gonderdi": 6493,
      "▁muzigi": 6494,
      "▁sanatın": 6495,
      "▁kalbini": 6496,
      "▁tartısmaların": 6497,
      "##ri": 6498,
      "▁okudu": 6499,
      "▁isimiz": 6500,
      "▁ihtimalle": 6501,
      "##ıllı": 6502,
      "▁lira": 6503,
      "▁haziran'da": 6504,
      "##lanmak": 6505,
      "##bin": 6506,
      "▁hel": 6507,
      "##burg": 6508,
      "##ılıyordu": 6509,
      "▁topladı": 6510,
      "▁rot": 6511,
      "▁bankacılık": 6512,
      "▁basımıza": 6513,
      "▁cuma": 6514,
      "##irin": 6515,
      "##lacagını": 6516,
      "▁bizleri": 6517,
      "##emon": 6518,
      "▁imal": 6519,
      "▁musterilerin": 6520,
      "▁sarmas": 6521,
      "▁mul": 6522,
      "▁transfer": 6523,
      "▁sonrasına": 6524,
      "▁pirz": 6525,
      "▁havalimanlarından": 6526,
      "▁baskanı": 6527,
      "▁yumusak": 6528,
      "▁milyona": 6529,
      "▁bura": 6530,
      "##essum": 6531,
      "##eff": 6532,
      "▁20.": 6533,
      "▁lyn": 6534,
      "##ısından": 6535,
      "▁olanlar": 6536,
      "##yasal": 6537,
      "##sir": 6538,
      "##uyorlar": 6539,
      "▁annesinin": 6540,
      "▁sonuc": 6541,
      "##lararası": 6542,
      "##kat": 6543,
      "▁dust": 6544,
      "▁cagında": 6545,
      "▁gordum": 6546,
      "▁telekom": 6547,
      "▁yadig": 6548,
      "##aff": 6549,
      "▁alamadim": 6550,
      "##omu": 6551,
      "▁gelip": 6552,
      "▁infil": 6553,
      "##imiz": 6554,
      "▁dunyasına": 6555,
      "▁gozyası": 6556,
      "▁kazancların": 6557,
      "▁tencerede": 6558,
      "▁barısı": 6559,
      "▁benziyordu": 6560,
      "▁ail": 6561,
      "▁a.b.d.": 6562,
      "▁cezalan": 6563,
      "▁mer": 6564,
      "▁yuksekti": 6565,
      "▁benden": 6566,
      "▁yagı": 6567,
      "▁ustumuze": 6568,
      "▁felce": 6569,
      "▁komutan": 6570,
      "▁kese": 6571,
      "▁cay": 6572,
      "##inci": 6573,
      "##eveyn": 6574,
      "▁yarısını": 6575,
      "##eyn": 6576,
      "##ayacak": 6577,
      "▁erdi": 6578,
      "▁seneden": 6579,
      "▁romant": 6580,
      "##ardan": 6581,
      "▁ozgu": 6582,
      "▁yerden": 6583,
      "▁mask": 6584,
      "▁engellemek": 6585,
      "##se": 6586,
      "##lıgım": 6587,
      "▁likor": 6588,
      "▁gercekl": 6589,
      "▁hind": 6590,
      "▁politikasını": 6591,
      "▁enistemiz": 6592,
      "▁ayaklarını": 6593,
      "▁biri": 6594,
      "▁hazır": 6595,
      "##sik": 6596,
      "▁gercekte": 6597,
      "▁feda": 6598,
      "▁hikayesini": 6599,
      "▁canlı": 6600,
      "▁lif": 6601,
      "▁havaalanı'ndan": 6602,
      "▁sanay": 6603,
      "▁hukumete": 6604,
      "▁seylerle": 6605,
      "▁kar": 6606,
      "▁angel": 6607,
      "##eren": 6608,
      "▁80": 6609,
      "▁mik": 6610,
      "▁raporda": 6611,
      "▁yenic": 6612,
      "▁emniyet": 6613,
      "▁cıktısı": 6614,
      "▁turklerin": 6615,
      "▁protokol": 6616,
      "##elerle": 6617,
      "▁yil": 6618,
      "##icinin": 6619,
      "▁puanlarim": 6620,
      "[SEP]": 6621,
      "▁musabak": 6622,
      "▁graf": 6623,
      "##mamıstı": 6624,
      "▁fey": 6625,
      "▁alarak": 6626,
      "▁diyet": 6627,
      "▁akciger": 6628,
      "▁manzar": 6629,
      "▁kurulunu": 6630,
      "▁turden": 6631,
      "▁yururluge": 6632,
      "▁neden": 6633,
      "▁41": 6634,
      "▁pesine": 6635,
      "##tansiy": 6636,
      "##antı": 6637,
      "##sızlıgını": 6638,
      "##larındaki": 6639,
      "▁olas": 6640,
      "##ınır": 6641,
      "##abi": 6642,
      "▁rehberi": 6643,
      "▁fuze": 6644,
      "▁barıs": 6645,
      "▁muhalif": 6646,
      "▁seans": 6647,
      "▁kuması": 6648,
      "▁yapıyı": 6649,
      "▁derecede": 6650,
      "##ısını": 6651,
      "##lılıgı": 6652,
      "▁mis": 6653,
      "▁onlardan": 6654,
      "▁kadınlar": 6655,
      "▁guzele": 6656,
      "▁hakk": 6657,
      "▁ulkelerde": 6658,
      "▁tedavi": 6659,
      "▁yetenek": 6660,
      "▁gavur": 6661,
      "▁kurulusların": 6662,
      "▁istanbul'da": 6663,
      "▁aram": 6664,
      "##illerin": 6665,
      "##madım": 6666,
      "▁hayvanları": 6667,
      "##aben": 6668,
      "▁sırası": 6669,
      "##ır": 6670,
      "▁pamuk": 6671,
      "▁va": 6672,
      "▁hukumet": 6673,
      "▁mat": 6674,
      "##nasında": 6675,
      "▁secimlerin": 6676,
      "▁girisim": 6677,
      "▁gonl": 6678,
      "▁aqu": 6679,
      "▁nasıl": 6680,
      "▁ortalıgı": 6681,
      "▁dolarda": 6682,
      "▁prim": 6683,
      "▁piyasaları": 6684,
      "▁yırt": 6685,
      "▁cocuga": 6686,
      "▁bulundugu": 6687,
      "▁renginde": 6688,
      "▁yıldız": 6689,
      "##ton": 6690,
      "▁pencere": 6691,
      "▁en": 6692,
      "##eldi": 6693,
      "▁nehri": 6694,
      "▁faci": 6695,
      "##acta": 6696,
      "▁ayrıntıları": 6697,
      "▁duvarlarına": 6698,
      "▁hanima": 6699,
      "▁lokasyon": 6700,
      "##reet": 6701,
      "##arası": 6702,
      "▁vak": 6703,
      "▁noktaya": 6704,
      "▁kampanyalarla": 6705,
      "▁tabi": 6706,
      "##zı": 6707,
      "▁odalar": 6708,
      "▁dunku": 6709,
      "##ımızda": 6710,
      "##iyordum": 6711,
      "##emiyor": 6712,
      "▁ondan": 6713,
      "▁mac": 6714,
      "▁kurs": 6715,
      "▁yerlerden": 6716,
      "▁ucusla": 6717,
      "▁pencereden": 6718,
      "▁macta": 6719,
      "▁mo": 6720,
      "▁alındıgında": 6721,
      "▁aras": 6722,
      "▁kardesimin": 6723,
      "▁kazası": 6724,
      "▁sinirleri": 6725,
      "▁leblebi": 6726,
      "▁anlatır": 6727,
      "▁haklar": 6728,
      "▁koruk": 6729,
      "##ine": 6730,
      "▁ob": 6731,
      "▁kesi": 6732,
      "▁komit": 6733,
      "▁44": 6734,
      "▁bakımdan": 6735,
      "▁toplu": 6736,
      "##emeye": 6737,
      "▁sirketlere": 6738,
      "▁ormanı": 6739,
      "▁burokras": 6740,
      "▁tuccarlar": 6741,
      "▁kalmak": 6742,
      "▁teh": 6743,
      "▁isleme": 6744,
      "##lestir": 6745,
      "▁ki": 6746,
      "##ter": 6747,
      "▁bilhassa": 6748,
      "▁gordug": 6749,
      "##mediler": 6750,
      "##ia": 6751,
      "▁komur": 6752,
      "##lisi": 6753,
      "▁aclık": 6754,
      "▁basvurusu": 6755,
      "▁tarihleri": 6756,
      "▁silahı": 6757,
      "▁mukaf": 6758,
      "▁opsiyonu": 6759,
      "▁universiteyi": 6760,
      "▁etrafta": 6761,
      "▁edit": 6762,
      "##mayla": 6763,
      "▁ayrım": 6764,
      "▁yonlendir": 6765,
      "▁yurudu": 6766,
      "##kine": 6767,
      "▁fiyatina": 6768,
      "##bak": 6769,
      "##ıg": 6770,
      "▁yankı": 6771,
      "▁dikis": 6772,
      "▁sidde": 6773,
      "▁istifa": 6774,
      "▁heyec": 6775,
      "▁mendil": 6776,
      "▁dilim": 6777,
      "▁benzin": 6778,
      "▁hisseler": 6779,
      "▁bakar": 6780,
      "▁olanları": 6781,
      "▁temizlikten": 6782,
      "▁kanser": 6783,
      "▁doneminden": 6784,
      "##ucuları": 6785,
      "▁havaalanının": 6786,
      "▁casus": 6787,
      "▁hepsini": 6788,
      "▁hatun": 6789,
      "▁nazır": 6790,
      "▁iht": 6791,
      "▁dant": 6792,
      "▁muzaker": 6793,
      "##eyi": 6794,
      "▁nerede": 6795,
      "##ciligi": 6796,
      "▁saunadan": 6797,
      "▁satıslar": 6798,
      "▁fin": 6799,
      "##kinin": 6800,
      "▁dah": 6801,
      "##kez": 6802,
      "▁birlesimi": 6803,
      "▁kilogram": 6804,
      "▁tiyatronun": 6805,
      "##yaları": 6806,
      "▁teknolojisinin": 6807,
      "▁ibret": 6808,
      "▁goc": 6809,
      "▁olanlara": 6810,
      "▁doneminde": 6811,
      "▁ont": 6812,
      "##al'ın": 6813,
      "▁dolarlık": 6814,
      "▁memphis": 6815,
      "##asız": 6816,
      "▁ilgisinden": 6817,
      "▁francisco'dan": 6818,
      "▁veto": 6819,
      "##erk": 6820,
      "▁gunlerinin": 6821,
      "##cagızı": 6822,
      "▁seyde": 6823,
      "▁apartmanın": 6824,
      "▁sektoru": 6825,
      "▁attım": 6826,
      "▁sahn": 6827,
      "##sti": 6828,
      "▁harc": 6829,
      "▁kırmızı": 6830,
      "▁rakı": 6831,
      "##anta": 6832,
      "##dirde": 6833,
      "##stım": 6834,
      "▁girisimi": 6835,
      "##anti": 6836,
      "▁gununde": 6837,
      "▁kadıncagız": 6838,
      "▁pencerelere": 6839,
      "▁depol": 6840,
      "##ırı": 6841,
      "▁ilgisi": 6842,
      "▁30": 6843,
      "▁yorgun": 6844,
      "▁artcı": 6845,
      "▁guleryuzlulerdi": 6846,
      "▁aqua": 6847,
      "▁hab": 6848,
      "##mekt": 6849,
      "▁yonlendirdi": 6850,
      "▁hoc": 6851,
      "##tasıyla": 6852,
      "##er": 6853,
      "▁muhabiri": 6854,
      "##mesi": 6855,
      "▁ustune": 6856,
      "##celi": 6857,
      "▁karlı": 6858,
      "▁isimleri": 6859,
      "▁partiyi": 6860,
      "▁bekci": 6861,
      "▁birkacı": 6862,
      "▁bilgisayarlarının": 6863,
      "▁tezgahın": 6864,
      "▁kasırgası": 6865,
      "##leriyle": 6866,
      "▁arazi": 6867,
      "▁ortalıkta": 6868,
      "▁alnına": 6869,
      "▁etkil": 6870,
      "▁medya": 6871,
      "▁kasla": 6872,
      "▁dongu": 6873,
      "▁kapılarını": 6874,
      "▁nic": 6875,
      "▁goster": 6876,
      "▁verg": 6877,
      "##-sat": 6878,
      "▁yap": 6879,
      "▁gidelim": 6880,
      "▁hissesine": 6881,
      "▁evde": 6882,
      "▁yarından": 6883,
      "▁her": 6884,
      "▁carsaf": 6885,
      "##unca": 6886,
      "▁misafirimiz": 6887,
      "▁dord": 6888,
      "▁masrafı": 6889,
      "▁zararları": 6890,
      "▁eh": 6891,
      "##ugune": 6892,
      "▁sirke": 6893,
      "▁vaz": 6894,
      "▁kılıf": 6895,
      "▁pik": 6896,
      "##biy": 6897,
      "▁izleyiciler": 6898,
      "▁jener": 6899,
      "▁ifa": 6900,
      "##.5'e": 6901,
      "▁durumları": 6902,
      "▁itfa": 6903,
      "▁hamal": 6904,
      "##asal": 6905,
      "##layacak": 6906,
      "##agın": 6907,
      "▁satıcılar": 6908,
      "##uzdu": 6909,
      "##tiv": 6910,
      "▁kasap": 6911,
      "▁dogdu": 6912,
      "▁eyalette": 6913,
      "▁mektebe": 6914,
      "##este": 6915,
      "▁adımlar": 6916,
      "##nal": 6917,
      "▁sıcr": 6918,
      "▁pırlanta": 6919,
      "▁galip": 6920,
      "##dır": 6921,
      "▁yıllık": 6922,
      "▁buro": 6923,
      "▁idrak": 6924,
      "▁fazilet": 6925,
      "▁hasar": 6926,
      "▁duygusal": 6927,
      "▁saha": 6928,
      "▁neredeyse": 6929,
      "▁aklına": 6930,
      "▁nih": 6931,
      "▁kazanclarını": 6932,
      "▁buldu": 6933,
      "##3'te": 6934,
      "▁soguktu": 6935,
      "##dıktan": 6936,
      "▁pazartesi": 6937,
      "▁hacı": 6938,
      "##fes": 6939,
      "▁nereler": 6940,
      "▁salonunda": 6941,
      "▁insa": 6942,
      "▁odenek": 6943,
      "▁canına": 6944,
      "▁devralma": 6945,
      "▁turkler": 6946,
      "▁hukumetinin": 6947,
      "▁pazarda": 6948,
      "##ims": 6949,
      "▁uygulamaya": 6950,
      "##din": 6951,
      "##v": 6952,
      "##giliz": 6953,
      "##ıgından": 6954,
      "▁bilgisayar-pr": 6955,
      "▁imalat": 6956,
      "▁ingilter": 6957,
      "▁hisseyle": 6958,
      "▁seher": 6959,
      "▁sarhos": 6960,
      "▁kabile": 6961,
      "▁internet": 6962,
      "▁ucuslarınız": 6963,
      "▁hazırlanısı": 6964,
      "##leg": 6965,
      "▁cerey": 6966,
      "▁reddetti": 6967,
      "▁prensesi": 6968,
      "▁iliskisini": 6969,
      "▁veda": 6970,
      "##iyle": 6971,
      "##lamayı": 6972,
      "▁diyor": 6973,
      "##00000": 6974,
      "▁persembe": 6975,
      "▁muzak": 6976,
      "##etini": 6977,
      "▁pu": 6978,
      "▁olumlu": 6979,
      "##urg": 6980,
      "▁kimligini": 6981,
      "▁kirec": 6982,
      "▁yazılı": 6983,
      "▁abla": 6984,
      "▁bakıs": 6985,
      "##aret": 6986,
      "##anlardan": 6987,
      "▁agaclardan": 6988,
      "▁etmiyorum": 6989,
      "##rut": 6990,
      "▁evlenme": 6991,
      "▁bunda": 6992,
      "▁ansiklop": 6993,
      "▁romanı": 6994,
      "▁rekabet": 6995,
      "▁okulda": 6996,
      "##gı": 6997,
      "##eger": 6998,
      "▁kabil": 6999,
      "▁aklından": 7000,
      "▁aracılıgıyla": 7001,
      "▁dusen": 7002,
      "##telik": 7003,
      "▁devri": 7004,
      "▁hastalık": 7005,
      "▁kendisiyle": 7006,
      "##iss": 7007,
      "▁uyandır": 7008,
      "▁pazarlık": 7009,
      "▁basladıgında": 7010,
      "▁?..": 7011,
      "##ited": 7012,
      "▁aquaparki": 7013,
      "▁halıları": 7014,
      "▁asagida": 7015,
      "##ceye": 7016,
      "▁alabilmek": 7017,
      "▁farz": 7018,
      "##9'a": 7019,
      "▁simdiye": 7020,
      "##lediler": 7021,
      "##retli": 7022,
      "▁musteri": 7023,
      "▁tumunu": 7024,
      "▁miktarda": 7025,
      "##ortusu": 7026,
      "▁tabanca": 7027,
      "▁50": 7028,
      "▁continental": 7029,
      "##casına": 7030,
      "▁kararsiz": 7031,
      "j": 7032,
      "##yince": 7033,
      "▁so": 7034,
      "▁prosed": 7035,
      "▁olacagına": 7036,
      "▁kentte": 7037,
      "▁kapandıktan": 7038,
      "▁cumleleri": 7039,
      "▁cesitlilik": 7040,
      "▁post": 7041,
      "##burgh": 7042,
      "▁cat": 7043,
      "▁olayları": 7044,
      "▁bakıyordu": 7045,
      "▁bis": 7046,
      "▁ehemm": 7047,
      "▁agz": 7048,
      "▁tug": 7049,
      "▁otelde": 7050,
      "▁kıp": 7051,
      "▁kaderi": 7052,
      "▁uzunt": 7053,
      "▁gozlerimden": 7054,
      "▁cesitliydi": 7055,
      "▁andır": 7056,
      "▁donmek": 7057,
      "▁kasımda": 7058,
      "▁yeryuzunun": 7059,
      "▁yuzu": 7060,
      "▁yukseliste": 7061,
      "▁pasta": 7062,
      "##elemek": 7063,
      "##anla": 7064,
      "▁ons": 7065,
      "▁mali": 7066,
      "▁arıyor": 7067,
      "##igim": 7068,
      "▁niyeti": 7069,
      "▁hukumleri": 7070,
      "▁deneyler": 7071,
      "▁yapti": 7072,
      "##ahat": 7073,
      "▁faturamin": 7074,
      "▁birbirlerini": 7075,
      "▁tartısmalar": 7076,
      "##adem": 7077,
      "##kart": 7078,
      "▁etmedi": 7079,
      "▁gosteren": 7080,
      "▁kaybedenleri": 7081,
      "##bi": 7082,
      "▁duzeyinde": 7083,
      "▁tokat": 7084,
      "▁olmaktadır": 7085,
      "##luy": 7086,
      "▁tatilimden": 7087,
      "▁yanlısı": 7088,
      "▁kestane": 7089,
      "##eg": 7090,
      "▁teli": 7091,
      "▁neyse": 7092,
      "▁$": 7093,
      "▁tam": 7094,
      "▁sın": 7095,
      "▁bib": 7096,
      "▁ozgurluk": 7097,
      "##chester": 7098,
      "▁cambaz": 7099,
      "▁memleket": 7100,
      "##mun": 7101,
      "▁boyuna": 7102,
      "▁yararlanmadim": 7103,
      "▁charl": 7104,
      "▁geminin": 7105,
      "##ılarak": 7106,
      "▁niz": 7107,
      "▁bırakma": 7108,
      "▁psikiyatri": 7109,
      "▁petr": 7110,
      "##andır": 7111,
      "▁yetersizdi": 7112,
      "▁verdigi": 7113,
      "▁getirisi": 7114,
      "▁siyasete": 7115,
      "##aset": 7116,
      "▁kokain": 7117,
      "▁yazma": 7118,
      "▁tari": 7119,
      "▁kazancı": 7120,
      "▁damat": 7121,
      "▁kazayla": 7122,
      "▁gevs": 7123,
      "##ılıgı": 7124,
      "▁dos": 7125,
      "▁ali": 7126,
      "▁iskar": 7127,
      "##alama": 7128,
      "▁muhtesem": 7129,
      "▁musav": 7130,
      "▁mevzu": 7131,
      "▁defa": 7132,
      "▁yasadıgı": 7133,
      "▁aldigim": 7134,
      "##ısının": 7135,
      "▁one": 7136,
      "▁aktiviteler": 7137,
      "▁oldugunu": 7138,
      "▁gidi": 7139,
      "▁getirilerin": 7140,
      "▁yapmıstı": 7141,
      "▁aksamları": 7142,
      "▁sınıf": 7143,
      "##imizde": 7144,
      "##lev": 7145,
      "▁sidd": 7146,
      "▁savcı": 7147,
      "▁ordek": 7148,
      "▁bulmaya": 7149,
      "▁hizmetlerini": 7150,
      "▁sıklıkla": 7151,
      "##ksiyon": 7152,
      "▁gozyasları": 7153,
      "▁yemis": 7154,
      "▁esliginde": 7155,
      "▁geldi": 7156,
      "▁karaltı": 7157,
      "▁bugun": 7158,
      "▁nisan": 7159,
      "▁arıyorum": 7160,
      "▁genc": 7161,
      "▁baslarda": 7162,
      "▁rotar": 7163,
      "▁10'": 7164,
      "▁dergisi": 7165,
      "##edil": 7166,
      "▁iddi": 7167,
      "▁mahkemesinde": 7168,
      "▁yapraklarını": 7169,
      "▁cevir": 7170,
      "▁bonolar": 7171,
      "##ci": 7172,
      "▁york'a": 7173,
      "▁odayi": 7174,
      "▁tenek": 7175,
      "▁ruyasında": 7176,
      "##indir": 7177,
      "▁sallantı": 7178,
      "▁guresci": 7179,
      "▁rej": 7180,
      "▁ark": 7181,
      "##en": 7182,
      "▁kendilerinin": 7183,
      "▁yarı": 7184,
      "▁yapacagını": 7185,
      "##how": 7186,
      "▁tum": 7187,
      "▁hizmeti": 7188,
      "▁maddes": 7189,
      "▁duvarları": 7190,
      "▁mektub": 7191,
      "▁onume": 7192,
      "▁l": 7193,
      "##bu": 7194,
      "▁istediklerini": 7195,
      "▁bıcakla": 7196,
      "▁oldugundan": 7197,
      "##la": 7198,
      "▁gormeye": 7199,
      "▁hicbirine": 7200,
      "▁yıg": 7201,
      "▁sahtek": 7202,
      "▁itim": 7203,
      "▁kokuları": 7204,
      "##j": 7205,
      "▁gunah": 7206,
      "▁fırladı": 7207,
      "▁maharetle": 7208,
      "##cılıgına": 7209,
      "▁kahvehan": 7210,
      "▁aklını": 7211,
      "##meye": 7212,
      "▁gelistiri": 7213,
      "##undeki": 7214,
      "▁sozlesme": 7215,
      "##cb": 7216,
      "▁krem": 7217,
      "▁kadro": 7218,
      "▁cekin": 7219,
      "##ana": 7220,
      "▁hardal": 7221,
      "▁ulasımını": 7222,
      "▁yenil": 7223,
      "▁bankaya": 7224,
      "▁nez": 7225,
      "##mısım": 7226,
      "▁yeterliydi": 7227,
      "▁tablolar": 7228,
      "▁programda": 7229,
      "▁ted": 7230,
      "##w": 7231,
      "▁kısıtlamaları": 7232,
      "▁kan": 7233,
      "▁kıymetleri": 7234,
      "##cag": 7235,
      "▁sahiplerinden": 7236,
      "▁mevc": 7237,
      "▁baskan": 7238,
      "▁tahviller": 7239,
      "▁oturak": 7240,
      "▁midir": 7241,
      "##lukte": 7242,
      "▁americ": 7243,
      "##iel": 7244,
      "▁kuralları": 7245,
      "▁aktarmasız": 7246,
      "▁gazeteye": 7247,
      "▁teskilat": 7248,
      "▁rezervasyon": 7249,
      "▁yetkilileri": 7250,
      "▁baskos": 7251,
      "▁kosar": 7252,
      "▁icecekler": 7253,
      "##engin": 7254,
      "▁kog": 7255,
      "▁anlamda": 7256,
      "▁parkı": 7257,
      "▁etmesi": 7258,
      "##yan": 7259,
      "##tigine": 7260,
      "▁vurguladı": 7261,
      "▁hangi": 7262,
      "▁sam": 7263,
      "▁istatist": 7264,
      "▁bekledigim": 7265,
      "▁japonların": 7266,
      "▁genislet": 7267,
      "▁yuzlerini": 7268,
      "▁colum": 7269,
      "▁birimiz": 7270,
      "▁gostergeleri": 7271,
      "▁kosullara": 7272,
      "▁toplantılarda": 7273,
      "▁spekulasyonlar": 7274,
      "▁cozul": 7275,
      "##ukle": 7276,
      "##ekul": 7277,
      "▁kaybına": 7278,
      "▁ogrenci": 7279,
      "▁slog": 7280,
      "▁glob": 7281,
      "▁camı": 7282,
      "▁gozlerine": 7283,
      "▁duyguları": 7284,
      "▁uzmanlar": 7285,
      "▁vat": 7286,
      "▁yasan": 7287,
      "##ebi": 7288,
      "▁merdiv": 7289,
      "▁lak": 7290,
      "▁sunum": 7291,
      "##suzlugun": 7292,
      "▁zorunda": 7293,
      "▁tanık": 7294,
      "▁uzan": 7295,
      "▁borsanın": 7296,
      "##manlar": 7297,
      "▁muhaliflerin": 7298,
      "##lum": 7299,
      "▁agzımı": 7300,
      "▁yurttas": 7301,
      "▁gonul": 7302,
      "▁kaset": 7303,
      "▁olamaz": 7304,
      "##ıyorsun": 7305,
      "##gn": 7306,
      "▁dahi": 7307,
      "▁finc": 7308,
      "▁st.": 7309,
      "##​": 7310,
      "▁gereksin": 7311,
      "##usuz": 7312,
      "##azım": 7313,
      "▁hissesi": 7314,
      "▁bende": 7315,
      "▁sırtına": 7316,
      "##ento": 7317,
      "▁ceker": 7318,
      "▁sebz": 7319,
      "▁analistleri": 7320,
      "▁ilke": 7321,
      "▁kapıcı": 7322,
      "▁pek": 7323,
      "▁margar": 7324,
      "▁!": 7325,
      "▁insanlar": 7326,
      "▁hayvanlara": 7327,
      "▁cıgırt": 7328,
      "▁baskanın": 7329,
      "▁camasır": 7330,
      "▁grubun": 7331,
      "▁etmekle": 7332,
      "##kaz": 7333,
      "▁orası": 7334,
      "▁oglu": 7335,
      "▁sist": 7336,
      "##.125": 7337,
      "▁lavan": 7338,
      "##'ye": 7339,
      "##nost": 7340,
      "▁yatırım": 7341,
      "▁cocukları": 7342,
      "▁hesap": 7343,
      "##tıklarını": 7344,
      "▁york'ta": 7345,
      "▁animator": 7346,
      "▁sebepler": 7347,
      "▁verdik": 7348,
      "▁kılav": 7349,
      "▁verme": 7350,
      "##dde": 7351,
      "▁yogunluk": 7352,
      "▁yuvar": 7353,
      "▁12'den": 7354,
      "▁bagımlı": 7355,
      "▁masasında": 7356,
      "##kilerin": 7357,
      "▁fırt": 7358,
      "▁bahan": 7359,
      "##iyet": 7360,
      "▁imkanlarindan": 7361,
      "▁calıstıgını": 7362,
      "▁fah": 7363,
      "▁karda": 7364,
      "▁konusmanın": 7365,
      "##yaz": 7366,
      "##luyordu": 7367,
      "▁duyuyorum": 7368,
      "▁komisyonlar": 7369,
      "▁gecesi": 7370,
      "▁bakmak": 7371,
      "▁depo": 7372,
      "▁diril": 7373,
      "##kk": 7374,
      "▁gulums": 7375,
      "##deri": 7376,
      "##mad": 7377,
      "▁yaslarda": 7378,
      "▁giz": 7379,
      "##agıyla": 7380,
      "▁melek": 7381,
      "▁bırakarak": 7382,
      "▁sozlesmesi": 7383,
      "▁ign": 7384,
      "▁girdi": 7385,
      "▁sonunda": 7386,
      "▁kumarbaz": 7387,
      "▁atıldı": 7388,
      "##acılara": 7389,
      "▁yuzyılın": 7390,
      "##por": 7391,
      "▁yo": 7392,
      "##atın": 7393,
      "▁varsay": 7394,
      "▁cıkmak": 7395,
      "▁suları": 7396,
      "▁kargas": 7397,
      "▁soylenti": 7398,
      "▁ulk": 7399,
      "▁ipe": 7400,
      "##ret": 7401,
      "▁sip": 7402,
      "▁gorusmek": 7403,
      "▁lokasyonu": 7404,
      "##ahlık": 7405,
      "▁misafirler": 7406,
      "▁kırlarda": 7407,
      "▁imparator": 7408,
      "▁taleb": 7409,
      "▁kabiliyet": 7410,
      "▁taklit": 7411,
      "▁tutku": 7412,
      "▁study": 7413,
      "▁defter": 7414,
      "▁sec": 7415,
      "##imdi": 7416,
      "▁istihbar": 7417,
      "▁klas": 7418,
      "▁insanla": 7419,
      "▁itibaren": 7420,
      "##suna": 7421,
      "##anlarla": 7422,
      "▁satma": 7423,
      "##ilmaz": 7424,
      "▁yaptır": 7425,
      "▁yetkilisi": 7426,
      "▁kentinde": 7427,
      "▁noktası": 7428,
      "▁etkinlik": 7429,
      "▁phoenix'e": 7430,
      "▁propag": 7431,
      "##acaktır": 7432,
      "▁kole": 7433,
      "▁tren": 7434,
      "▁hata": 7435,
      "▁dolara": 7436,
      "▁tatile": 7437,
      "▁beyefendi": 7438,
      "▁egilimleri": 7439,
      "▁islere": 7440,
      "▁lir": 7441,
      "▁bayiler": 7442,
      "▁toplantıda": 7443,
      "▁dr.": 7444,
      "▁ibar": 7445,
      "▁protesto": 7446,
      "▁ilgili": 7447,
      "▁sık": 7448,
      "▁muttef": 7449,
      "▁dukkan": 7450,
      "▁devrinin": 7451,
      "▁vazo": 7452,
      "▁birbirler": 7453,
      "##ona": 7454,
      "##iyor": 7455,
      "▁pozisyon": 7456,
      "▁otek": 7457,
      "##adaki": 7458,
      "##lak": 7459,
      "##rt": 7460,
      "▁babası": 7461,
      "▁ekmekle": 7462,
      "▁sirketlerinin": 7463,
      "▁beri": 7464,
      "▁hisselerini": 7465,
      "##lilig": 7466,
      "▁hissedarlar": 7467,
      "▁ucuslara": 7468,
      "▁general": 7469,
      "##000": 7470,
      "▁hukmu": 7471,
      "▁aclıktan": 7472,
      "▁muzisy": 7473,
      "▁tramvay": 7474,
      "▁unif": 7475,
      "▁saclarını": 7476,
      "▁mont": 7477,
      "▁sorumlulugu": 7478,
      "##el": 7479,
      "▁150": 7480,
      "▁oynat": 7481,
      "▁ayakta": 7482,
      "##acılar": 7483,
      "▁federal": 7484,
      "▁kaldim": 7485,
      "▁annesini": 7486,
      "##ut": 7487,
      "##tarak": 7488,
      "▁rakib": 7489,
      "##lugundan": 7490,
      "▁industri": 7491,
      "##adetin": 7492,
      "▁hafız": 7493,
      "▁yemeginden": 7494,
      "##osunda": 7495,
      "▁cenaze": 7496,
      "##ektedir": 7497,
      "▁tedavulde": 7498,
      "##turdu": 7499,
      "▁yonel": 7500,
      "▁dedikleri": 7501,
      "▁taham": 7502,
      "##lıgı": 7503,
      "##turu": 7504,
      "▁yapt": 7505,
      "▁guzeli": 7506,
      "▁daima": 7507,
      "▁sarayın": 7508,
      "▁istedim": 7509,
      "▁kadif": 7510,
      "##iran": 7511,
      "##etro": 7512,
      "▁sektorun": 7513,
      "▁gob": 7514,
      "▁ucuslarda": 7515,
      "▁sezlong": 7516,
      "▁albay": 7517,
      "##‘": 7518,
      "▁cıktı": 7519,
      "##gus": 7520,
      "▁kileri": 7521,
      "##dıgımı": 7522,
      "▁gib": 7523,
      "▁re": 7524,
      "##maktır": 7525,
      "▁vaziyeti": 7526,
      "##ıyordu": 7527,
      "▁ona": 7528,
      "▁ocagında": 7529,
      "▁agrıları": 7530,
      "▁eldiv": 7531,
      "##atlı": 7532,
      "▁gozlerinde": 7533,
      "▁dalları": 7534,
      "▁mim": 7535,
      "##iydi": 7536,
      "▁tarlaları": 7537,
      "▁numaraları": 7538,
      "##dugumuz": 7539,
      "▁yumr": 7540,
      "##emb": 7541,
      "▁cog": 7542,
      "▁domuz": 7543,
      "▁padisah": 7544,
      "▁ulkelerin": 7545,
      "▁arar": 7546,
      "▁fiyatların": 7547,
      "▁telaf": 7548,
      "▁kapasitesi": 7549,
      "##onik": 7550,
      "▁bar": 7551,
      "▁kilis": 7552,
      "▁reorgan": 7553,
      "▁eser": 7554,
      "▁hamlenin": 7555,
      "##malıydı": 7556,
      "##oları": 7557,
      "▁merc": 7558,
      "▁bulunuyordu": 7559,
      "▁potansiy": 7560,
      "▁ortalaması": 7561,
      "▁trene": 7562,
      "▁yıld": 7563,
      "##ınıyor": 7564,
      "▁tutuyor": 7565,
      "▁yontem": 7566,
      "##ıntılı": 7567,
      "▁ayaz": 7568,
      "▁sesin": 7569,
      "▁cıkmaz": 7570,
      "▁otele": 7571,
      "▁holding": 7572,
      "▁yatırımı": 7573,
      "▁mevduat": 7574,
      "▁puanlık": 7575,
      "▁partisinin": 7576,
      "▁gelirleri": 7577,
      "▁kurumu": 7578,
      "▁buyur": 7579,
      "##mazlık": 7580,
      "▁cevresi": 7581,
      "▁masayı": 7582,
      "##amayı": 7583,
      "▁organı": 7584,
      "▁biles": 7585,
      "▁tatilde": 7586,
      "▁sizinle": 7587,
      "▁duv": 7588,
      "##ant": 7589,
      "▁kaliteye": 7590,
      "▁ayrı": 7591,
      "▁topu": 7592,
      "▁minar": 7593,
      "▁trav": 7594,
      "▁menfaat": 7595,
      "##meti": 7596,
      "##cev": 7597,
      "▁yapım": 7598,
      "##katli": 7599,
      "▁sarkıları": 7600,
      "▁vazife": 7601,
      "▁ton": 7602,
      "##isy": 7603,
      "▁ıslah": 7604,
      "##ız": 7605,
      "▁kahkahalar": 7606,
      "▁par": 7607,
      "▁manz": 7608,
      "▁edilmistir": 7609,
      "##atil": 7610,
      "▁tempo": 7611,
      "▁cemaat": 7612,
      "▁bilmem": 7613,
      "▁fırtın": 7614,
      "▁dunya": 7615,
      "▁niyetinde": 7616,
      "▁!..": 7617,
      "##ida": 7618,
      "▁mon": 7619,
      "▁sakin": 7620,
      "▁etkilen": 7621,
      "▁klor": 7622,
      "▁get": 7623,
      "▁izini": 7624,
      "▁gelmisti": 7625,
      "##.m": 7626,
      "▁sektore": 7627,
      "▁yazının": 7628,
      "##tigi": 7629,
      "▁baskanının": 7630,
      "##'la": 7631,
      "▁suru": 7632,
      "▁yayıncılar": 7633,
      "▁fuz": 7634,
      "▁yamac": 7635,
      "▁havasını": 7636,
      "▁denizin": 7637,
      "##emenin": 7638,
      "▁annem": 7639,
      "##artesi": 7640,
      "##oru": 7641,
      "##ekom": 7642,
      "▁tuketici": 7643,
      "##unuz": 7644,
      "▁tutmak": 7645,
      "▁bolumlerinde": 7646,
      "▁ustunde": 7647,
      "##bs": 7648,
      "▁mahkemeye": 7649,
      "▁cıktık": 7650,
      "##tat": 7651,
      "▁guller": 7652,
      "▁gezin": 7653,
      "▁iskan": 7654,
      "▁endiseler": 7655,
      "▁sahipligi": 7656,
      "##ıntısı": 7657,
      "##amızda": 7658,
      "▁ilgil": 7659,
      "▁ikide": 7660,
      "▁geldiniz": 7661,
      "▁kesimi": 7662,
      "##lant": 7663,
      "##mas": 7664,
      "▁genelkurmay": 7665,
      "▁inanc": 7666,
      "▁faydalan": 7667,
      "##h": 7668,
      "▁mukemm": 7669,
      "▁toplantıya": 7670,
      "▁hocası": 7671,
      "▁gecer": 7672,
      "##gunu": 7673,
      "▁iftih": 7674,
      "▁maden": 7675,
      "▁sinirli": 7676,
      "▁ozlem": 7677,
      "▁gazete": 7678,
      "▁saatine": 7679,
      "▁dukkanı": 7680,
      "▁kızları": 7681,
      "▁oruc": 7682,
      "▁kovboy": 7683,
      "▁olmad": 7684,
      "▁tit": 7685,
      "▁ureticisinin": 7686,
      "▁kurulu'nun": 7687,
      "▁aklının": 7688,
      "▁cef": 7689,
      "▁balıkcı": 7690,
      "##umla": 7691,
      "▁mektu": 7692,
      "▁rengi": 7693,
      "##orc": 7694,
      "▁ny": 7695,
      "▁cekiyordu": 7696,
      "▁vucuduna": 7697,
      "▁sozunu": 7698,
      "##su": 7699,
      "▁gomlek": 7700,
      "▁kırm": 7701,
      "▁sebebiyle": 7702,
      "▁gelirlerinin": 7703,
      "▁bezi": 7704,
      "▁dumen": 7705,
      "▁bilegi": 7706,
      "▁laz": 7707,
      "▁saatte": 7708,
      "##anının": 7709,
      "▁meseleyi": 7710,
      "▁konumu": 7711,
      "▁karsilik": 7712,
      "##tiginde": 7713,
      "▁inc.": 7714,
      "▁bilgisayarlar": 7715,
      "▁helv": 7716,
      "▁memlek": 7717,
      "▁yazıları": 7718,
      "##lastik": 7719,
      "▁yaratmaya": 7720,
      "▁tuken": 7721,
      "##75": 7722,
      "##elerce": 7723,
      "▁seklinde": 7724,
      "▁paraları": 7725,
      "▁agrı": 7726,
      "▁oranlar": 7727,
      "▁kanep": 7728,
      "▁saunayi": 7729,
      "▁120": 7730,
      "▁kon": 7731,
      "▁madal": 7732,
      "##gırak": 7733,
      "▁dilerim": 7734,
      "##mıstır": 7735,
      "##le": 7736,
      "##kce": 7737,
      "##4'": 7738,
      "▁0.1": 7739,
      "▁ortamda": 7740,
      "▁havay": 7741,
      "▁faydalar": 7742,
      "▁muhakkak": 7743,
      "▁mutluluk": 7744,
      "##lesinin": 7745,
      "▁lodos": 7746,
      "▁yanıyor": 7747,
      "▁kesintisi": 7748,
      "▁bak": 7749,
      "▁nese": 7750,
      "▁dieg": 7751,
      "▁nok": 7752,
      "##11": 7753,
      "▁calmaya": 7754,
      "▁murekkep": 7755,
      "▁bozdu": 7756,
      "▁edinmek": 7757,
      "▁kısmen": 7758,
      "▁haz": 7759,
      "##man": 7760,
      "##cik": 7761,
      "▁subvansiyon": 7762,
      "▁istek": 7763,
      "##.4": 7764,
      "▁matba": 7765,
      "▁yanık": 7766,
      "▁rep": 7767,
      "▁icimden": 7768,
      "▁kullan": 7769,
      "▁tahrik": 7770,
      "▁birisine": 7771,
      "##larınızla": 7772,
      "▁hissini": 7773,
      "▁calısması": 7774,
      "▁ucundan": 7775,
      "##yap": 7776,
      "▁gurultuye": 7777,
      "▁kayak": 7778,
      "▁hızla": 7779,
      "▁giderek": 7780,
      "##ie": 7781,
      "▁7'de": 7782,
      "▁bulut": 7783,
      "▁esrar": 7784,
      "▁yasları": 7785,
      "▁gay": 7786,
      "▁mahkumu": 7787,
      "▁alın": 7788,
      "▁embriy": 7789,
      "▁yerinin": 7790,
      "▁/": 7791,
      "▁dikkatimi": 7792,
      "▁geldikleri": 7793,
      "▁basından": 7794,
      "##maya": 7795,
      "##9'un": 7796,
      "▁onlem": 7797,
      "▁okum": 7798,
      "▁senar": 7799,
      "▁bırakıyor": 7800,
      "▁evrenin": 7801,
      "##'tan": 7802,
      "▁surecin": 7803,
      "▁ogul": 7804,
      "▁patlıc": 7805,
      "▁yuksekten": 7806,
      "▁filozof": 7807,
      "▁ruz": 7808,
      "▁iceri": 7809,
      "▁but": 7810,
      "▁dedesinin": 7811,
      "▁orneklerini": 7812,
      "▁performans": 7813,
      "▁belirtti": 7814,
      "▁kaput": 7815,
      "##ciligin": 7816,
      "▁agustos'ta": 7817,
      "##emedi": 7818,
      "▁uygulamayı": 7819,
      "▁atıs": 7820,
      "▁uyku": 7821,
      "▁kazanarak": 7822,
      "▁oldugun": 7823,
      "##atik": 7824,
      "▁oncesinde": 7825,
      "▁tarife": 7826,
      "##ki": 7827,
      "▁kokuyordu": 7828,
      "▁alt": 7829,
      "▁istiyorum": 7830,
      "▁anla": 7831,
      "▁uyarı": 7832,
      "▁fizik": 7833,
      "##gumuz": 7834,
      "▁kata": 7835,
      "▁malzemeler": 7836,
      "▁verdigini": 7837,
      "##/32": 7838,
      "▁kararını": 7839,
      "##ıver": 7840,
      "▁oyla": 7841,
      "▁fes": 7842,
      "▁dogu": 7843,
      "▁yatırımcılara": 7844,
      "▁cenneti": 7845,
      "##usunun": 7846,
      "##45'ten": 7847,
      "▁gordu": 7848,
      "##eket": 7849,
      "▁cinayet": 7850,
      "▁olursa": 7851,
      "▁dilden": 7852,
      "##eh": 7853,
      "##tıl": 7854,
      "▁bastır": 7855,
      "▁kaldırmak": 7856,
      "▁vide": 7857,
      "##ele": 7858,
      "▁yasasında": 7859,
      "▁elestirmenler": 7860,
      "▁gec": 7861,
      "##abak": 7862,
      "▁poh": 7863,
      "▁magazalar": 7864,
      "▁donmus": 7865,
      "▁haksızlıgı": 7866,
      "▁hoca": 7867,
      "▁arkasından": 7868,
      "▁organizasyon": 7869,
      "▁az": 7870,
      "▁cırp": 7871,
      "▁sigortası": 7872,
      "▁gerekir": 7873,
      "▁butc": 7874,
      "▁hesaba": 7875,
      "▁eksikler": 7876,
      "▁senetlerine": 7877,
      "▁dukkanları": 7878,
      "▁davranıs": 7879,
      "▁ucusunuz": 7880,
      "▁aynada": 7881,
      "▁laik": 7882,
      "##ilini": 7883,
      "▁acıklık": 7884,
      "▁kongre": 7885,
      "##ılırsa": 7886,
      "▁yok": 7887,
      "##'ya": 7888,
      "▁temizlik": 7889,
      "▁atmaya": 7890,
      "##tanın": 7891,
      "▁cosk": 7892,
      "▁degistirdi": 7893,
      "▁atıp": 7894,
      "▁niyetine": 7895,
      "▁yonetime": 7896,
      "##indan": 7897,
      "▁peyn": 7898,
      "▁anlasmaz": 7899,
      "##lugunu": 7900,
      "▁kahkaha": 7901,
      "▁brit": 7902,
      "▁guleryuz": 7903,
      "▁stratej": 7904,
      "▁tv": 7905,
      "##imle": 7906,
      "##ayet": 7907,
      "▁fark": 7908,
      "##unc": 7909,
      "##larin": 7910,
      "▁vef": 7911,
      "▁lambaları": 7912,
      "##.7": 7913,
      "▁sorunlarını": 7914,
      "▁huy": 7915,
      "▁dokul": 7916,
      "##amul": 7917,
      "▁yasından": 7918,
      "▁sebebi": 7919,
      "▁dususu": 7920,
      "##div": 7921,
      "▁kaygı": 7922,
      "▁turb": 7923,
      "##edav": 7924,
      "▁gıc": 7925,
      "▁yatagına": 7926,
      "##cuk": 7927,
      "##yken": 7928,
      "▁tasv": 7929,
      "▁yonet": 7930,
      "▁pahali": 7931,
      "##cısı": 7932,
      "▁muhtemelen": 7933,
      "▁ogesi": 7934,
      "##isten": 7935,
      "▁artırmayı": 7936,
      "▁paranın": 7937,
      "##ali": 7938,
      "▁kravat": 7939,
      "▁big": 7940,
      "▁oturmus": 7941,
      "▁yonelik": 7942,
      "▁kasıgı": 7943,
      "▁gidil": 7944,
      "▁tadil": 7945,
      "▁mimarlık": 7946,
      "▁bekledi": 7947,
      "▁ogleden": 7948,
      "▁normaldi": 7949,
      "▁guzergah": 7950,
      "##unuzu": 7951,
      "▁misaf": 7952,
      "##ick": 7953,
      "▁bacagını": 7954,
      "▁otede": 7955,
      "▁kansas": 7956,
      "##'nin": 7957,
      "▁unlu": 7958,
      "▁babasıyla": 7959,
      "##_": 7960,
      "▁sakinleri": 7961,
      "▁haziranda": 7962,
      "▁yardimci": 7963,
      "▁iz": 7964,
      "▁yazık": 7965,
      "▁sıvı": 7966,
      "▁yolunda": 7967,
      "▁dayanır": 7968,
      "▁kıskanclık": 7969,
      "▁yerde": 7970,
      "▁alır": 7971,
      "##agımı": 7972,
      "▁degerlendiririm": 7973,
      "##cinin": 7974,
      "▁baslangıcı": 7975,
      "▁sıp": 7976,
      "▁perakendeciler": 7977,
      "##lal": 7978,
      "##azı": 7979,
      "▁anımsa": 7980,
      "▁fakir": 7981,
      "▁deh": 7982,
      "▁kamp": 7983,
      "▁depremi": 7984,
      "▁sundu": 7985,
      "##sın": 7986,
      "▁ti": 7987,
      "▁ekl": 7988,
      "▁dusunmeye": 7989,
      "##an'ın": 7990,
      "▁emn": 7991,
      "▁raporları": 7992,
      "▁oya": 7993,
      "▁gerekti": 7994,
      "▁yerlerine": 7995,
      "▁sarlat": 7996,
      "##yse": 7997,
      "▁sonbah": 7998,
      "▁merkez": 7999,
      "▁yiyeceklerin": 8000,
      "##ınızda": 8001,
      "▁kapat": 8002,
      "▁yazılmıs": 8003,
      "▁ortaokul": 8004,
      "##amıs": 8005,
      "▁kuralların": 8006,
      "▁paralar": 8007,
      "▁olmadıgını": 8008,
      "▁kuvvet": 8009,
      "▁topcu": 8010,
      "▁do": 8011,
      "▁disleri": 8012,
      "▁deligi": 8013,
      "##menin": 8014,
      "▁revizyon": 8015,
      "▁baglıdır": 8016,
      "##ait": 8017,
      "▁mı": 8018,
      "▁lis": 8019,
      "##ozof": 8020,
      "▁bagımsızlık": 8021,
      "▁ettiler": 8022,
      "▁hususta": 8023,
      "▁bono": 8024,
      "▁donemde": 8025,
      "▁lou": 8026,
      "▁umuyor": 8027,
      "▁basınc": 8028,
      "▁iki": 8029,
      "▁degil": 8030,
      "▁dolayı": 8031,
      "▁bakanı": 8032,
      "▁spons": 8033,
      "##ji": 8034,
      "▁bilgisayar": 8035,
      "##piyat": 8036,
      "▁ucagının": 8037,
      "##ede": 8038,
      "▁agız": 8039,
      "▁merkezleri": 8040,
      "▁pansiyon": 8041,
      "▁dist": 8042,
      "▁kımıl": 8043,
      "▁govde": 8044,
      "▁zinciri": 8045,
      "▁tarafından": 8046,
      "▁devre": 8047,
      "##san": 8048,
      "▁vadede": 8049,
      "▁kaldım": 8050,
      "▁birbirlerinin": 8051,
      "▁baskasın": 8052,
      "##cep": 8053,
      "▁'": 8054,
      "▁nuk": 8055,
      "▁suvar": 8056,
      "▁minimum": 8057,
      "▁civi": 8058,
      "▁ulkesinde": 8059,
      "▁arız": 8060,
      "▁kısm": 8061,
      "▁destekl": 8062,
      "##lanın": 8063,
      "▁pest": 8064,
      "##ıcı": 8065,
      "▁pazarı": 8066,
      "▁sonucunda": 8067,
      "▁tabii": 8068,
      "▁renkleri": 8069,
      "▁dakika": 8070,
      "##ack": 8071,
      "▁tahminler": 8072,
      "▁yapı": 8073,
      "▁enflasyon": 8074,
      "▁peygam": 8075,
      "▁zen": 8076,
      "▁cihaz": 8077,
      "▁hele": 8078,
      "▁degisikliklerini": 8079,
      "▁vap": 8080,
      "▁askına": 8081,
      "▁girisimde": 8082,
      "▁kasları": 8083,
      "▁aln": 8084,
      "▁aktivit": 8085,
      "▁cesitliligi": 8086,
      "▁yıcı": 8087,
      "▁kokt": 8088,
      "▁sahili": 8089,
      "▁reviz": 8090,
      "▁birtakım": 8091,
      "##inize": 8092,
      "▁sivr": 8093,
      "▁imkanlari": 8094,
      "▁4'ten": 8095,
      "▁isgucu": 8096,
      "▁asamasında": 8097,
      "▁kendimi": 8098,
      "▁b": 8099,
      "▁gosterg": 8100,
      "▁gecerli": 8101,
      "▁yak": 8102,
      "##agında": 8103,
      "▁hurriyet": 8104,
      "▁kesf": 8105,
      "▁odalarin": 8106,
      "##o'dan": 8107,
      "##ell": 8108,
      "▁parayı": 8109,
      "▁hong": 8110,
      "▁gogsunde": 8111,
      "▁tarak": 8112,
      "▁biridir": 8113,
      "▁hijy": 8114,
      "##imizda": 8115,
      "▁kesmek": 8116,
      "##iyon": 8117,
      "▁bulun": 8118,
      "##onlar": 8119,
      "▁inziv": 8120,
      "##lıgımız": 8121,
      "##inizde": 8122,
      "##iyak": 8123,
      "▁yukseltti": 8124,
      "▁sayısının": 8125,
      "▁aldat": 8126,
      "##klerini": 8127,
      "▁washington": 8128,
      "▁kasırga": 8129,
      "▁no": 8130,
      "##ar": 8131,
      "▁ed": 8132,
      "▁bayan": 8133,
      "▁cumartesi": 8134,
      "▁hepimizi": 8135,
      "▁hırsız": 8136,
      "##cılarının": 8137,
      "▁eksikligi": 8138,
      "▁yah": 8139,
      "▁uretici": 8140,
      "▁numara": 8141,
      "▁calısmaya": 8142,
      "▁patatesleri": 8143,
      "▁bakısı": 8144,
      "##andan": 8145,
      "▁gucluk": 8146,
      "##fih": 8147,
      "##atla": 8148,
      "##adına": 8149,
      "▁edilir": 8150,
      "▁yuks": 8151,
      "▁yeni": 8152,
      "▁pencereyi": 8153,
      "##gin": 8154,
      "▁otellerde": 8155,
      "▁hayatım": 8156,
      "▁bilirim": 8157,
      "▁reklamları": 8158,
      "▁sonuclar": 8159,
      "▁olanı": 8160,
      "▁anlıslanabi": 8161,
      "##ustan": 8162,
      "##lav": 8163,
      "▁neyin": 8164,
      "▁degis": 8165,
      "##lasman": 8166,
      "▁annec": 8167,
      "▁fiyatlara": 8168,
      "▁kaz": 8169,
      "▁davası": 8170,
      "▁tuketicilerin": 8171,
      "▁it": 8172,
      "▁gucle": 8173,
      "##hur": 8174,
      "##lemeyi": 8175,
      "▁sid": 8176,
      "▁kayıgın": 8177,
      "##cagını": 8178,
      "##malıdır": 8179,
      "▁operator": 8180,
      "▁toplantısında": 8181,
      "▁fabrika": 8182,
      "##niz": 8183,
      "▁rom": 8184,
      "▁hamuru": 8185,
      "▁memurları": 8186,
      "▁tar": 8187,
      "▁docent": 8188,
      "▁kuny": 8189,
      "▁azından": 8190,
      "▁aldıgı": 8191,
      "▁bekledigimden": 8192,
      "##ku": 8193,
      "▁icimde": 8194,
      "▁basbakan": 8195,
      "▁kurulu'nda": 8196,
      "▁cagır": 8197,
      "▁gosteriyor": 8198,
      "##mustum": 8199,
      "##organ": 8200,
      "##ugum": 8201,
      "▁bolun": 8202,
      "▁haklarının": 8203,
      "##ader": 8204,
      "▁tutarında": 8205,
      "▁philadel": 8206,
      "▁tasıma": 8207,
      "##lukten": 8208,
      "▁col": 8209,
      "▁nere": 8210,
      "▁gazetesi": 8211,
      "▁ezik": 8212,
      "▁havayol": 8213,
      "▁ertelen": 8214,
      "##ısır": 8215,
      "▁silk": 8216,
      "▁kas": 8217,
      "▁finan": 8218,
      "▁acıklanmadı": 8219,
      "▁calıyor": 8220,
      "▁dusunc": 8221,
      "▁tarihini": 8222,
      "▁calıs": 8223,
      "▁yuksel": 8224,
      "##cıların": 8225,
      "▁fiyatlarında": 8226,
      "##sel": 8227,
      "##veri": 8228,
      "▁satısları": 8229,
      "▁hakkını": 8230,
      "▁cıkmıstı": 8231,
      "▁sanal": 8232,
      "▁kesil": 8233,
      "▁roportajda": 8234,
      "##rap": 8235,
      "▁kurmak": 8236,
      "▁47": 8237,
      "▁asl": 8238,
      "▁okullarda": 8239,
      "▁teklifini": 8240,
      "▁listel": 8241,
      "▁adımlarla": 8242,
      "▁odanın": 8243,
      "▁sigar": 8244,
      "▁yad": 8245,
      "▁derde": 8246,
      "▁okuldan": 8247,
      "▁tuvalet": 8248,
      "▁ciz": 8249,
      "▁ını": 8250,
      "##at": 8251,
      "▁poz": 8252,
      "▁sevinc": 8253,
      "▁49": 8254,
      "##uc": 8255,
      "▁sogu": 8256,
      "▁kapılarında": 8257,
      "▁gelisimi": 8258,
      "▁le": 8259,
      "▁kons": 8260,
      "##esi'ne": 8261,
      "▁albumu": 8262,
      "▁kaslarını": 8263,
      "▁toplantılar": 8264,
      "▁kl": 8265,
      "▁sebep": 8266,
      "▁hicbiri": 8267,
      "▁olmustu": 8268,
      "▁romanc": 8269,
      "▁hile": 8270,
      "▁saray": 8271,
      "##alarına": 8272,
      "▁duygularının": 8273,
      "▁konustuk": 8274,
      "##lastırıyor": 8275,
      "▁dısarıda": 8276,
      "▁pen": 8277,
      "▁eylem": 8278,
      "##'i": 8279,
      "##ftadır": 8280,
      "##eki": 8281,
      "▁diyorum": 8282,
      "▁cogu": 8283,
      "▁degisiyor": 8284,
      "▁aleyhinde": 8285,
      "▁mad": 8286,
      "▁kendiliginden": 8287,
      "##esli": 8288,
      "▁sahipleri": 8289,
      "▁turn": 8290,
      "##ıverdi": 8291,
      "▁zehir": 8292,
      "▁radyoyu": 8293,
      "▁loh": 8294,
      "▁otorite": 8295,
      "▁muteahh": 8296,
      "▁asagıl": 8297,
      "▁sivrisin": 8298,
      "##memize": 8299,
      "##misler": 8300,
      "▁kaldıgını": 8301,
      "▁yaptirdi": 8302,
      "▁muam": 8303,
      "▁kesiti": 8304,
      "##enlerden": 8305,
      "▁meg": 8306,
      "▁irak": 8307,
      "▁cıg": 8308,
      "▁ucmak": 8309,
      "▁lezzetini": 8310,
      "▁begen": 8311,
      "▁altinda": 8312,
      "##op": 8313,
      "▁buny": 8314,
      "▁bankaları": 8315,
      "##anlı": 8316,
      "▁musunuz": 8317,
      "##yalar": 8318,
      "▁gar": 8319,
      "▁birisini": 8320,
      "▁yolda": 8321,
      "▁pil": 8322,
      "▁harikaydi": 8323,
      "##fab": 8324,
      "▁busbutun": 8325,
      "▁ahen": 8326,
      "▁franc": 8327,
      "##cılarla": 8328,
      "▁yanıl": 8329,
      "▁seviye": 8330,
      "3": 8331,
      "▁telefonda": 8332,
      "▁fiyatlari": 8333,
      "▁uzmanı": 8334,
      "▁kapsamında": 8335,
      "▁agzına": 8336,
      "▁klima": 8337,
      "▁karısının": 8338,
      "▁buldum": 8339,
      "▁cev": 8340,
      "##ah": 8341,
      "▁amaca": 8342,
      "##luge": 8343,
      "▁seyleri": 8344,
      "##9'dan": 8345,
      "▁konferans": 8346,
      "▁jap": 8347,
      "▁kufur": 8348,
      "▁duzenlemeleri": 8349,
      "▁dugum": 8350,
      "▁cız": 8351,
      "▁sektorunde": 8352,
      "##akat": 8353,
      "▁varacak": 8354,
      "##tor": 8355,
      "▁kamuya": 8356,
      "▁istin": 8357,
      "▁vatandaslar": 8358,
      "▁kahvaltida": 8359,
      "▁gormek": 8360,
      "##cegi": 8361,
      "▁gezinti": 8362,
      "▁peri": 8363,
      "▁cehen": 8364,
      "##eli": 8365,
      "▁yım": 8366,
      "▁1.5": 8367,
      "▁kesiminin": 8368,
      "##ikasyon": 8369,
      "▁leble": 8370,
      "##larak": 8371,
      "##.": 8372,
      "##tar": 8373,
      "▁istegi": 8374,
      "▁dik": 8375,
      "▁alacagını": 8376,
      "▁musiki": 8377,
      "##geleri": 8378,
      "▁7.9": 8379,
      "▁degismeden": 8380,
      "▁erk": 8381,
      "▁memnuniyeti": 8382,
      "▁firmanın": 8383,
      "▁sesi": 8384,
      "▁temizliginden": 8385,
      "▁men": 8386,
      "▁vermisti": 8387,
      "▁zayıf": 8388,
      "##ugu": 8389,
      "##urt": 8390,
      "▁odemesini": 8391,
      "▁yalancı": 8392,
      "▁yasamında": 8393,
      "▁onur": 8394,
      "▁verilmesi": 8395,
      "▁yuzunden": 8396,
      "##utun": 8397,
      "▁pazarın": 8398,
      "▁patlaması": 8399,
      "▁kaf": 8400,
      "▁hayret": 8401,
      "▁muht": 8402,
      "##makt": 8403,
      "▁beyef": 8404,
      "▁bekledigini": 8405,
      "##iver": 8406,
      "▁oynar": 8407,
      "▁riskleri": 8408,
      "##kam": 8409,
      "▁istihdam": 8410,
      "##askanı": 8411,
      "##raf": 8412,
      "▁koylerinde": 8413,
      "▁dersiniz": 8414,
      "▁birligini": 8415,
      "▁havalimanı'na": 8416,
      "▁da": 8417,
      "▁bayr": 8418,
      "▁tahvilin": 8419,
      "▁komuru": 8420,
      "▁boc": 8421,
      "▁baskenti": 8422,
      "▁calıstır": 8423,
      "▁yoneticilerin": 8424,
      "e": 8425,
      "▁zirveye": 8426,
      "▁ovgu": 8427,
      "▁yolculuk": 8428,
      "▁uyelerin": 8429,
      "▁vers": 8430,
      "##iden": 8431,
      "##iyetine": 8432,
      "▁vaj": 8433,
      "##esinde": 8434,
      "▁kıvr": 8435,
      "▁donemine": 8436,
      "▁gurultusu": 8437,
      "##tım": 8438,
      "▁dor": 8439,
      "▁oldugu": 8440,
      "▁yarısı": 8441,
      "##arı": 8442,
      "▁bunyesinde": 8443,
      "▁cleveland'dan": 8444,
      "##lamıstı": 8445,
      "▁dususun": 8446,
      "▁duzeyde": 8447,
      "▁kullandı": 8448,
      "▁gidiyordu": 8449,
      "▁konuya": 8450,
      "▁parmagı": 8451,
      "▁red": 8452,
      "▁kurumları": 8453,
      "▁pın": 8454,
      "##duz": 8455,
      "▁baskalarına": 8456,
      "##anet": 8457,
      "▁topragı": 8458,
      "▁gok": 8459,
      "▁tahvillerin": 8460,
      "▁parcacıklar": 8461,
      "▁gazeteciler": 8462,
      "▁ceo": 8463,
      "##yacagı": 8464,
      "▁getiri": 8465,
      "▁tesekkur": 8466,
      "▁girdik": 8467,
      "##6'da": 8468,
      "▁varlıklarını": 8469,
      "##isleri": 8470,
      "▁temsil": 8471,
      "##larımın": 8472,
      "▁beklenen": 8473,
      "▁salonda": 8474,
      "##rı": 8475,
      "##makla": 8476,
      "▁ro": 8477,
      "▁endustri": 8478,
      "▁konserv": 8479,
      "▁ayagında": 8480,
      "▁kaldık": 8481,
      "▁istif": 8482,
      "##ıntıları": 8483,
      "▁satranc": 8484,
      "▁kıt": 8485,
      "▁akıs": 8486,
      "▁sozlerini": 8487,
      "▁evrak": 8488,
      "##mekte": 8489,
      "##idin": 8490,
      "▁bagdas": 8491,
      "▁yasası": 8492,
      "▁kutuphane": 8493,
      "▁vasıta": 8494,
      "▁beklen": 8495,
      "▁kalkarak": 8496,
      "##ranc": 8497,
      "▁n": 8498,
      "▁key": 8499,
      "▁ilham": 8500,
      "▁iyiligini": 8501,
      "▁incelem": 8502,
      "▁hala": 8503,
      "▁kendimde": 8504,
      "##lileri": 8505,
      "▁memuru": 8506,
      "▁kendisinde": 8507,
      "▁tartısmaya": 8508,
      "▁tak": 8509,
      "##lamıslar": 8510,
      "▁olcut": 8511,
      "▁gubre": 8512,
      "▁konsol": 8513,
      "▁biz": 8514,
      "▁ustunden": 8515,
      "▁vuk": 8516,
      "▁kinden": 8517,
      "▁gorgu": 8518,
      "▁liralık": 8519,
      "▁havaalanı'nda": 8520,
      "▁inek": 8521,
      "▁rehber": 8522,
      "##erince": 8523,
      "▁verime": 8524,
      "▁5'te": 8525,
      "▁houston'dan": 8526,
      "▁esk": 8527,
      "▁toplan": 8528,
      "▁cesidi": 8529,
      "▁adada": 8530,
      "##tiy": 8531,
      "##ayla": 8532,
      "▁cesitleri": 8533,
      "▁hasır": 8534,
      "##seydi": 8535,
      "##ilm": 8536,
      "▁hatırı": 8537,
      "##uttu": 8538,
      "▁fist": 8539,
      "▁rakipler": 8540,
      "▁tedav": 8541,
      "▁basarili": 8542,
      "▁itaat": 8543,
      "▁kamıs": 8544,
      "##1'e": 8545,
      "▁cey": 8546,
      "▁yenilik": 8547,
      "##7": 8548,
      "▁yapımını": 8549,
      "▁oglen": 8550,
      "##sekiz": 8551,
      "▁geceleri": 8552,
      "▁parası": 8553,
      "▁donup": 8554,
[...]
