{
  "version": "1.0",
  "truncation": null,
  "padding": null,
  "added_tokens": [
    {
      "id": 671,
      "content": "[PAD]",
      "single_word": false,
      "lstrip": false,
      "rstrip": false,
      "normalized": false,
      "special": true
    },
    {
      "id": 1851,
      "content": "[UNK]",
      "single_word": false,
      "lstrip": false,
      "rstrip": false,
      "normalized": false,
      "special": true
    },
    {
      "id": 2082,
      "content": "[CLS]",
      "single_word": false,
      "lstrip": false,
      "rstrip": false,
      "normalized": false,
      "special": true
    },
    {
      "id": 2464,
      "content": "[SEP]",
      "single_word": false,
      "lstrip": false,
      "rstrip": false,
      "normalized": false,
      "special": true
    },
    {
      "id": 3169,
      "content": "[MASK]",
      "single_word": false,
      "lstrip": false,
      "rstrip": false,
      "normalized": false,
      "special": true
    }
  ],
  "normalizer": {
    "type": "Sequence",
    "normalizers": [
      {
        "type": "NFD"
      },
      {
        "type": "Lowercase"
      },
      {
        "type": "StripAccents"
      }
    ]
  },
  "pre_tokenizer": {
    "type": "Sequence",
    "pretokenizers": [
      {
        "type": "Metaspace",
        "replacement": "▁",
        "prepend_scheme": "always",
        "split": true
      }
    ]
  },
  "post_processor": {
    "type": "TemplateProcessing",
    "single": [
      {
        "SpecialToken": {
          "id": "[CLS]",
          "type_id": 0
        }
      },
      {
        "Sequence": {
          "id": "A",
          "type_id": 0
        }
      },
      {
        "SpecialToken": {
          "id": "[SEP]",
          "type_id": 0
        }
      }
    ],
    "pair": [
      {
        "SpecialToken": {
          "id": "[CLS]",
          "type_id": 0
        }
      },
      {
        "Sequence": {
          "id": "A",
          "type_id": 0
        }
      },
      {
        "SpecialToken": {
          "id": "[SEP]",
          "type_id": 0
        }
      },
      {
        "Sequence": {
          "id": "B",
          "type_id": 1
        }
      },
      {
        "SpecialToken": {
          "id": "[SEP]",
          "type_id": 1
        }
      }
    ],
    "special_tokens": {
      "[CLS]": {
        "id": "[CLS]",
        "ids": [
          2082
        ],
        "tokens": [
          "[CLS]"
        ]
      },
      "[SEP]": {
        "id": "[SEP]",
        "ids": [
          2464
        ],
        "tokens": [
          "[SEP]"
        ]
      }
    }
  },
  "decoder": {
    "type": "Metaspace",
    "replacement": "▁",
    "prepend_scheme": "always",
    "split": true
  },
  "model": {
    "type": "Unigram",
    "unk_id": 1851,
    "vocab": [
      [
        "er",
        -5.65513748265188
      ],
      [
        "ki",
        -4.243667018720036
      ],
      [
        "▁tatil",
        -7.439259249330476
      ],
      [
        "▁geri",
        -8.197555425993341
      ],
      [
        "l",
        -6.528768719985566
      ],
      [
        "▁bizim",
        -9.019844164095739
      ],
      [
        "son",
        -7.225840255471124
      ],
      [
        "▁ayrılı",
        -7.428865757157178
      ],
      [
        "▁ol",
        -6.906079594147441
      ],
      [
        "▁kesin",
        -6.101322210378779
      ],
      [
        "▁san",
        -8.491653599456079
      ],
      [
        "▁elli",
        -6.208347808831624
      ],
      [
        "▁otomobil",
        -8.077224789473089
      ],
      [
        "▁c",
        -7.381905891970467
      ],
      [
        "▁erkek",
        -8.467848247537201
      ],
      [
        "▁yasında",
        -8.582914753879415
      ],
      [
        "#",
        -10.352702672349787
      ],
      [
        "in",
        -5.669618850718858
      ],
      [
        "▁am",
        -5.947568370575268
      ],
      [
        "▁mo",
        -8.552495794731469
      ],
      [
        "▁rol",
        -8.855430596971221
      ],
      [
        "eden",
        -7.747627165628126
      ],
      [
        "▁birini",
        -6.202515730872842
      ],
      [
        "▁cıkıs",
        -9.160340497208216
      ],
      [
        "kan",
        -8.43418468809838
      ],
      [
        "▁havaalanı",
        -8.886154392665922
      ],
      [
        "▁kalktı",
        -7.886009822571879
      ],
      [
        "tu",
        -7.678101971105841
      ],
      [
        "▁doneminde",
        -9.12263161323021
      ],
      [
        "▁coban",
        -9.265715674233066
      ],
      [
        "▁23",
        -6.3598901647095225
      ],
      [
        "▁istifa",
        -8.472138977400014
      ],
      [
        "▁kasım",
        -7.275691703053962
      ],
      [
        "ev",
        -11.802702672349788
      ],
      [
        "mizde",
        -8.622695843962843
      ],
      [
        "▁kaldı",
        -6.8636168469083945
      ],
      [
        "▁baslar",
        -8.126756897964636
      ],
      [
        "▁hata",
        -8.83410348094778
      ],
      [
        "▁guzel",
        -9.058952223705235
      ],
      [
        "1",
        -11.802702672349785
      ],
      [
        "▁vere",
        -7.681478507949164
      ],
      [
        "ana",
        -3.4668823189684232
      ],
      [
        "▁hasar",
        -8.856531384659299
      ],
      [
        "en",
        -3.944717042641246
      ],
      [
        "▁28",
        -6.493645630951329
      ],
      [
        "▁zevk",
        -8.622983645978294
      ],
      [
        "▁ediyor",
        -5.628755451911132
      ],
      [
        "niz",
        -7.145322203916744
      ],
      [
        "▁sonrasın",
        -9.122403319718018
      ],
      [
        "yı",
        -5.85498566687482
      ],
      [
        "bu",
        -5.9800526379311565
      ],
      [
        "▁davet",
        -8.91308292544651
      ],
      [
        "▁baslamıs",
        -8.029725087251276
      ],
      [
        "▁yere",
        -7.686404501796405
      ],
      [
        "▁evlerin",
        -9.199453813382572
      ],
      [
        "▁sagla",
        -7.979843521615655
      ],
      [
        "▁ucuncu",
        -7.785762695445602
      ],
      [
        "cagı",
        -8.396600205422509
      ],
      [
        "▁hukuk",
        -8.524318613305887
      ],
      [
        "▁zaman",
        -7.1405633171011775
      ],
      [
        "▁yatak",
        -8.78523764552094
      ],
      [
        "▁vatandas",
        -9.08607246741277
      ],
      [
        "▁cumartesi",
        -7.848091800957634
      ],
      [
        "unla",
        -5.8430735334845965
      ],
      [
        "▁bilgisayar",
        -7.678940204098423
      ],
      [
        "▁fikir",
        -8.446856982747711
      ],
      [
        "f",
        -7.787995550812537
      ],
      [
        "▁ya",
        -4.634008824959308
      ],
      [
        "▁alaka",
        -8.632025905811432
      ],
      [
        "▁hat",
        -8.687669841003489
      ],
      [
        "nız",
        -8.70034607177369
      ],
      [
        "▁oranında",
        -9.195739326276371
      ],
      [
        "▁cene",
        -9.271421123292132
      ],
      [
        "▁dava",
        -7.332121610820996
      ],
      [
        "▁anı",
        -9.2178353225197
      ],
      [
        "▁bu",
        -7.374577612377099
      ],
      [
        "▁17",
        -6.060985725555577
      ],
      [
        "a",
        -6.2690303675714745
      ],
      [
        "▁tadi",
        -8.860675835723349
      ],
      [
        "▁gelmisti",
        -8.102380099240872
      ],
      [
        "ecek",
        -6.5325837334617605
      ],
      [
        "luk",
        -6.898963728357534
      ],
      [
        "▁hır",
        -9.184907560675674
      ],
      [
        "li",
        -7.09599677549015
      ],
      [
        "inden",
        -7.222574550029564
      ],
      [
        "▁da",
        -6.5733829391589484
      ],
      [
        "'ın",
        -5.001221876001728
      ],
      [
        "▁don",
        -7.469114158362451
      ],
      [
        "▁ucuslar",
        -6.356494866111883
      ],
      [
        "e",
        -3.073718075016716
      ],
      [
        "oni",
        -7.648805856565085
      ],
      [
        "um",
        -5.290460103933893
      ],
      [
        "me",
        -5.237865941647582
      ],
      [
        "▁olayı",
        -9.034557882047887
      ],
      [
        "▁konfor",
        -7.636349363592389
      ],
      [
        "m",
        -5.097901570734248
      ],
      [
        "ku",
        -6.584838249141784
      ],
      [
        "▁ba",
        -10.862362165488445
      ],
      [
        "▁ba",
        -3.487307104758375
      ],
      [
        "▁buyuk",
        -4.66891181327941
      ],
      [
        "▁oldugu",
        -6.395401728899352
      ],
      [
        "▁olur",
        -6.262222181576985
      ],
      [
        "▁boy",
        -8.683461792900893
      ],
      [
        "▁kadın",
        -7.277119523659077
      ],
      [
        "lari",
        -8.749640307518618
      ],
      [
        "ur",
        -7.785578488847238
      ],
      [
        "az",
        -7.193482929552111
      ],
      [
        "dır",
        -6.258060699112947
      ],
      [
        "▁biz",
        -3.7492545438091254
      ],
      [
        "▁cadde",
        -8.933130685948793
      ],
      [
        "▁iflas",
        -9.13379285006716
      ],
      [
        "▁kurtaj",
        -9.23799861158718
      ],
      [
        "ak",
        -3.6704506036336477
      ],
      [
        "ine",
        -6.129515774840357
      ],
      [
        "▁%",
        -8.548383901389244
      ],
      [
        "▁otele",
        -9.23541388016689
      ],
      [
        "▁cleveland'",
        -6.808563298588287
      ],
      [
        "▁kol",
        -7.542504396822477
      ],
      [
        "▁baskanı",
        -7.606118206640778
      ],
      [
        "▁gun",
        -6.126458840101926
      ],
      [
        "▁gecti",
        -6.806410008391679
      ],
      [
        "amaz",
        -7.154730621646129
      ],
      [
        "▁biri",
        -8.099877466714455
      ],
      [
        "▁alan",
        -8.11311449286366
      ],
      [
        "▁kagıt",
        -8.234968827262016
      ],
      [
        "▁her",
        -6.3741494462876895
      ],
      [
        "▁islemlerinde",
        -9.183038263071598
      ],
      [
        "▁alıyor",
        -7.369269360280152
      ],
      [
        "▁gecer",
        -7.885843349113296
      ],
      [
        "▁verdigim",
        -6.825897247210726
      ],
      [
        "▁degis",
        -7.759072499486727
      ],
      [
        "▁gerektigin",
        -8.812341622485341
      ],
      [
        "▁evi",
        -8.235996461980235
      ],
      [
        "▁anlasma",
        -7.656483921401472
      ],
      [
        "▁bulunan",
        -8.080547986951627
      ],
      [
        "▁kez",
        -7.60141011823315
      ],
      [
        "▁kulak",
        -8.580754324052668
      ],
      [
        "▁yuzlu",
        -6.844632981068912
      ],
      [
        "abilme",
        -9.12405870209222
      ],
      [
        "▁bakım",
        -8.61379327552558
      ],
      [
        "▁tavuk",
        -9.265557747159972
      ],
      [
        "▁hattı",
        -9.269458712702638
      ],
      [
        "▁yaptı",
        -6.50857064318469
      ],
      [
        "dı",
        -7.733586053078921
      ],
      [
        "▁davranıs",
        -8.819199283946354
      ],
      [
        "▁yen",
        -8.369360404086654
      ],
      [
        "▁devralma",
        -9.210749609254675
      ],
      [
        "▁carsamba",
        -5.641789510401653
      ],
      [
        "▁phoenix'de",
        -7.159244228942083
      ],
      [
        "azım",
        -7.399988481905939
      ],
      [
        "▁acı",
        -7.012028637456393
      ],
      [
        "▁alt",
        -7.545407850000282
      ],
      [
        "▁kotu",
        -6.126470262783285
      ],
      [
        "▁gec",
        -6.50595673707562
      ],
      [
        "▁degili",
        -4.9352643412096375
      ],
      [
        "▁masal",
        -9.208191325533729
      ],
      [
        "▁otel",
        -6.622368130732603
      ],
      [
        "b",
        -4.519809914103928
      ],
      [
        "▁hanım",
        -8.354042280073482
      ],
      [
        "asagı",
        -7.350576247561033
      ],
      [
        "▁salata",
        -9.23800295863112
      ],
      [
        "▁-",
        -9.780423386250764
      ],
      [
        "▁cincinnati'de",
        -7.52464228509177
      ],
      [
        "▁meclis",
        -9.247867467018368
      ],
      [
        "m",
        -5.082265988425475
      ],
      [
        "▁aktarma",
        -8.91314112494869
      ],
      [
        "▁olmus",
        -7.034365256963971
      ],
      [
        "▁onemli",
        -6.106789014357763
      ],
      [
        "▁magaza",
        -8.497822617858045
      ],
      [
        "▁yapı",
        -7.73280662891459
      ],
      [
        "▁muh",
        -8.550672618499698
      ],
      [
        "▁ay",
        -6.8422290870286915
      ],
      [
        "▁yıldız",
        -8.836922310040888
      ],
      [
        "'",
        -5.924417164270849
      ],
      [
        "▁olcude",
        -8.271058178134336
      ],
      [
        "▁arazi",
        -9.1343926466768
      ],
      [
        "luydu",
        -8.114134763824067
      ],
      [
        "neral",
        -7.315006539033988
      ],
      [
        "▁verdigi",
        -7.600508126963151
      ],
      [
        "▁belge",
        -8.894691988751632
      ],
      [
        "sıyla",
        -8.047100072457559
      ],
      [
        "de",
        -6.49762006697207
      ],
      [
        "▁alacak",
        -8.085246640754074
      ],
      [
        "▁sozcu",
        -7.692032276247822
      ],
      [
        "▁haziran'da",
        -7.464973295232909
      ],
      [
        "▁gelecek",
        -6.9285811879226005
      ],
      [
        "suz",
        -5.895638958251375
      ],
      [
        "▁merkez",
        -7.5478547937971845
      ],
      [
        "▁rakı",
        -9.01767299568164
      ],
      [
        "▁gelisme",
        -9.21942400719835
      ],
      [
        "▁gar",
        -7.642438974413053
      ],
      [
        "▁ar",
        -7.851411589191917
      ],
      [
        "▁uzakt",
        -8.094471119373498
      ],
      [
        "▁etki",
        -8.26608743862121
      ],
      [
        "▁gazeteci",
        -9.15312567022015
      ],
      [
        "tır",
        -6.376500413518692
      ],
      [
        "▁ikinci",
        -8.93327350076931
      ],
      [
        "▁etmek",
        -7.783772629237743
      ],
      [
        "▁inanc",
        -9.234973488437857
      ],
      [
        "▁il",
        -3.41811777620672
      ],
      [
        "ama",
        -3.6363263764093876
      ],
      [
        "▁kullanım",
        -9.163295464650268
      ],
      [
        "olası",
        -7.700383934840717
      ],
      [
        "▁men",
        -7.465012207054139
      ],
      [
        "▁olmak",
        -7.522140956449084
      ],
      [
        "▁ic",
        -7.079924071232348
      ],
      [
        "▁soy",
        -8.631646877190427
      ],
      [
        "▁bush",
        -7.373109476624779
      ],
      [
        "▁odayd",
        -7.567298808617518
      ],
      [
        "yıp",
        -8.031385962103549
      ],
      [
        "▁kalma",
        -8.973489972335344
      ],
      [
        "gı",
        -6.782836205683127
      ],
      [
        "▁canım",
        -9.287071415770304
      ],
      [
        "▁cocukları",
        -8.738952316531147
      ],
      [
        "▁senedi",
        -7.709291922409263
      ],
      [
        "▁kos",
        -7.703959811696123
      ],
      [
        "▁ekim",
        -7.416606871173696
      ],
      [
        "▁sebep",
        -8.374972217946818
      ],
      [
        "▁kitabı",
        -8.374970610995577
      ],
      [
        "▁cag",
        -8.908057307966487
      ],
      [
        "▁ikinci",
        -7.524091410205261
      ],
      [
        "w",
        -9.085591990217665
      ],
      [
        "▁sınav",
        -9.21095386715158
      ],
      [
        "▁yaki",
        -7.380181896103234
      ],
      [
        "liligi",
        -9.212015674739202
      ],
      [
        "▁hic",
        -9.242439273421196
      ],
      [
        "▁cal",
        -8.070071060742738
      ],
      [
        "▁basım",
        -8.687477042032693
      ],
      [
        "\"",
        -8.995647550879895
      ],
      [
        "▁yanı",
        -8.188237653188077
      ],
      [
        "▁dev",
        -8.794896336635407
      ],
      [
        "fede",
        -7.174599714292582
      ],
      [
        "▁tam",
        -6.196690295557846
      ],
      [
        "▁dus",
        -6.205217174489008
      ],
      [
        "tir",
        -7.867418083364435
      ],
      [
        "▁4",
        -4.732260125815868
      ],
      [
        "v",
        -7.387732354266287
      ],
      [
        "▁diego'",
        -7.16339760840913
      ],
      [
        "▁kimi",
        -5.800937397148719
      ],
      [
        "▁hangi",
        -5.347616636025412
      ],
      [
        "▁maliyet",
        -8.977127322943844
      ],
      [
        "▁soguk",
        -7.134653251528633
      ],
      [
        "▁sohbet",
        -9.062336192956653
      ],
      [
        "▁eskiy",
        -7.310315848648845
      ],
      [
        "w",
        -7.108910088912168
      ],
      [
        "▁calısan",
        -9.251257787614463
      ],
      [
        "▁13",
        -6.181566688398235
      ],
      [
        "9",
        -9.126871495337763
      ],
      [
        "ur",
        -7.048764238093534
      ],
      [
        "dar",
        -7.6194731209705875
      ],
      [
        "▁aradi",
        -7.001861803754911
      ],
      [
        "▁ogrenciler",
        -9.28769993217673
      ],
      [
        "egi",
        -8.28948402091234
      ],
      [
        "▁kendisini",
        -5.346153125872469
      ],
      [
        "▁oz",
        -8.316439431330068
      ],
      [
        "▁ve",
        -2.837416967995196
      ],
      [
        "i",
        -5.429547822392263
      ],
      [
        "▁kira",
        -8.872941948924229
      ],
      [
        "ba",
        -6.948143260865576
      ],
      [
        "▁a",
        -11.666990925470232
      ],
      [
        "▁suc",
        -8.417426485506745
      ],
      [
        "▁oglan",
        -9.265557684024104
      ],
      [
        "▁be",
        -7.50502265943056
      ],
      [
        "▁ise",
        -5.47635401040524
      ],
      [
        "▁gid",
        -7.611832682912434
      ],
      [
        "▁ofis",
        -8.340895257628542
      ],
      [
        "”",
        -9.78282532741986
      ],
      [
        "▁beri",
        -7.337470521257895
      ],
      [
        "▁dir",
        -4.563511654215546
      ],
      [
        "▁lezzet",
        -7.625560767531123
      ],
      [
        "▁mucadele",
        -8.459355579372614
      ],
      [
        "▁mah",
        -8.83167741761401
      ],
      [
        "▁derin",
        -6.915514199379652
      ],
      [
        "ve",
        -7.945983395405356
      ],
      [
        "▁hesap",
        -8.265573966747377
      ],
      [
        "▁sevgi",
        -8.346934925838607
      ],
      [
        "▁kullanmadi",
        -7.197998212044448
      ],
      [
        "▁kutu",
        -8.527365836920657
      ],
      [
        "▁kurulu",
        -8.24544565600847
      ],
      [
        "▁yalan",
        -9.158942080878802
      ],
      [
        "man",
        -7.351716089765118
      ],
      [
        "lıgı",
        -6.995295901641856
      ],
      [
        "▁birbirin",
        -5.481821565997513
      ],
      [
        "aklı",
        -7.776455973658887
      ],
      [
        "▁etrafı",
        -9.163358738725824
      ],
      [
        "▁esya",
        -8.3287867542646
      ],
      [
        "▁bol",
        -7.354352224522627
      ],
      [
        "▁perde",
        -8.582512824827326
      ],
      [
        "▁sinema",
        -9.04109762030821
      ],
      [
        "▁yagmur",
        -8.74916933788432
      ],
      [
        "▁bilgi",
        -6.763311157146803
      ],
      [
        "▁yaptirmadi",
        -7.762128105941826
      ],
      [
        "tı",
        -6.219190472415151
      ],
      [
        "o",
        -6.336011923027603
      ],
      [
        "▁francisco",
        -5.975874976284412
      ],
      [
        "aki",
        -9.842291196683833
      ],
      [
        "▁once",
        -4.914128521965577
      ],
      [
        "embe",
        -7.02583815393338
      ],
      [
        "▁alay",
        -9.147819001552866
      ],
      [
        "▁cogu",
        -8.352598496973737
      ],
      [
        "▁ticar",
        -7.098188015801196
      ],
      [
        "▁yemeklerde",
        -8.856546873486169
      ],
      [
        "m",
        -4.809409968019235
      ],
      [
        "$",
        -7.511459065044036
      ],
      [
        "▁cam",
        -8.278763033800436
      ],
      [
        "b",
        -2.3576107270349222
      ],
      [
        "▁bahar",
        -9.159373340377176
      ],
      [
        "▁ellerini",
        -9.031471357866398
      ],
      [
        "erhal",
        -6.774381132419854
      ],
      [
        "▁personelleri",
        -7.208005258337625
      ],
      [
        "▁a",
        -6.420591604824666
      ],
      [
        "▁parcası",
        -8.825598065570013
      ],
      [
        "▁yap",
        -6.782553246846852
      ],
      [
        "▁on",
        -6.089300112861576
      ],
      [
        "▁kampanya",
        -9.15410418039165
      ],
      [
        "▁erkek",
        -7.594686771321886
      ],
      [
        "▁boyu",
        -8.873816552440475
      ],
      [
        "▁hastalıgı",
        -9.143682261080059
      ],
      [
        "ye",
        -5.324100503247843
      ],
      [
        "▁hareket",
        -7.164801304845686
      ],
      [
        "▁orta",
        -6.966624453192289
      ],
      [
        "▁kamu",
        -8.541542003090594
      ],
      [
        "▁harcama",
        -8.749350912036025
      ],
      [
        "▁he",
        -5.386610336792378
      ],
      [
        "yen",
        -7.694928855735129
      ],
      [
        "re",
        -4.844554200876263
      ],
      [
        "▁elde",
        -7.701076702273233
      ],
      [
        "▁ol",
        -6.761876388059695
      ],
      [
        "▁ets",
        -7.27405506231093
      ],
      [
        "▁hak",
        -7.809851956941869
      ],
      [
        "su",
        -7.539574608610181
      ],
      [
        "▁eder",
        -6.751198219670858
      ],
      [
        "sına",
        -6.611219682934075
      ],
      [
        "dan",
        -6.950235826568244
      ],
      [
        "k",
        -3.4852700425120497
      ],
      [
        "▁",
        -3.32808512111051
      ],
      [
        "▁iste",
        -6.53043461090222
      ],
      [
        ".",
        -5.527872474634256
      ],
      [
        "▁washington'da",
        -6.720773090223807
      ],
      [
        "▁o",
        -7.754671360884916
      ],
      [
        "▁arkadas",
        -8.155976271253493
      ],
      [
        "▁kir",
        -8.86297855403824
      ],
      [
        "▁alet",
        -9.243211619057046
      ],
      [
        "'ni",
        -8.823781893772818
      ],
      [
        "ma",
        -5.906308248825251
      ],
      [
        "an",
        -5.292109909625391
      ],
      [
        "▁gerceklesti",
        -8.115347287884378
      ],
      [
        "▁iliski",
        -8.203711046579798
      ],
      [
        "▁allah",
        -7.02139811351398
      ],
      [
        "na",
        -4.888725468870101
      ],
      [
        "▁sal",
        -8.393101086989983
      ],
      [
        "▁kal",
        -7.293624176935178
      ],
      [
        "▁bulma",
        -8.412327871977615
      ],
      [
        "▁karsı",
        -6.153679112273401
      ],
      [
        "▁pazartesi",
        -6.0312539412866935
      ],
      [
        "h",
        -6.286180941560249
      ],
      [
        "▁ister",
        -7.609972804504164
      ],
      [
        "▁hepimiz",
        -6.275153793410539
      ],
      [
        "a",
        -3.0926384863008716
      ],
      [
        "▁kac",
        -8.79958666745722
      ],
      [
        "r",
        -5.602720111202849
      ],
      [
        "▁yuzunu",
        -8.862791845590593
      ],
      [
        "dur",
        -8.423067458290767
      ],
      [
        "▁veriyor",
        -6.931819827512155
      ],
      [
        "▁sahil",
        -9.071765578576338
      ],
      [
        "▁ozel",
        -6.385303417155286
      ],
      [
        "n",
        -3.2265408825251303
      ],
      [
        "▁dizi",
        -8.601982353946553
      ],
      [
        "▁cıkar",
        -8.738216480568562
      ],
      [
        "▁iste",
        -8.256703313041827
      ],
      [
        "▁onları",
        -4.32931003779788
      ],
      [
        "▁ki",
        -4.876365201347605
      ],
      [
        "tik",
        -8.101488020118623
      ],
      [
        "il",
        -7.217875703985481
      ],
      [
        "abilecegi",
        -9.282507851666002
      ],
      [
        "▁iceriyor",
        -7.979253797285124
      ],
      [
        "y",
        -6.016951674088136
      ],
      [
        "▁spor",
        -8.71630399978753
      ],
      [
        "▁22",
        -6.204600493789114
      ],
      [
        "▁yapıyor",
        -7.016683794331016
      ],
      [
        "▁il",
        -6.111403265351347
      ],
      [
        "▁vegas'",
        -7.070371768471581
      ],
      [
        "▁yoktu",
        -5.52949816062023
      ],
      [
        "▁alıcı",
        -8.684474939399191
      ],
      [
        "leme",
        -8.155318923096317
      ],
      [
        "▁bir",
        -4.897295998995685
      ],
      [
        "▁kız",
        -7.483363582770445
      ],
      [
        "▁sab",
        -7.521771325852227
      ],
      [
        "lik",
        -6.42033954787531
      ],
      [
        "▁ardı",
        -8.862584214285423
      ],
      [
        "▁tedbir",
        -9.21074917215959
      ],
      [
        "▁ekmegi",
        -9.265638365571784
      ],
      [
        "▁kullanıl",
        -7.66743683203091
      ],
      [
        "\"",
        -3.8868225721526475
      ],
      [
        "▁mesele",
        -8.511043627760682
      ],
      [
        "▁gitmek",
        -8.453567556185694
      ],
      [
        "▁sap",
        -8.658979174399223
      ],
      [
        "▁deney",
        -9.150857831772772
      ],
      [
        "▁yok",
        -6.0614869854364954
      ],
      [
        "▁bayram",
        -8.638452126817239
      ],
      [
        "▁avuc",
        -8.783412174295961
      ],
      [
        "ustu",
        -9.19108277506911
      ],
      [
        "▁ek",
        -7.435711031827421
      ],
      [
        "▁sa",
        -4.233276091639059
      ],
      [
        "de",
        -7.316563460623829
      ],
      [
        "▁sozlesme",
        -8.454506615895117
      ],
      [
        "tu",
        -4.465248438584364
      ],
      [
        "▁test",
        -8.376955025523408
      ],
      [
        "▁ala",
        -8.750052283880837
      ],
      [
        "(",
        -6.121810261614014
      ],
      [
        "▁philadelphia",
        -6.857279133527717
      ],
      [
        "▁soyle",
        -7.525610483728362
      ],
      [
        "▁meyve",
        -8.874292581455368
      ],
      [
        "▁etmisti",
        -7.888160327619882
      ],
      [
        "▁ucusu",
        -7.0541538316959
      ],
      [
        "yi",
        -6.010339211861245
      ],
      [
        "▁satısları",
        -8.480632835780895
      ],
      [
        "ız",
        -7.869825429200022
      ],
      [
        "t",
        -5.496963253063057
      ],
      [
        "▁olun",
        -8.104581203632797
      ],
      [
        "▁odamiz",
        -8.578578676601948
      ],
      [
        "▁gide",
        -5.832467812925172
      ],
      [
        "▁varsa",
        -7.7096685190147385
      ],
      [
        "▁cesit",
        -6.548089751462578
      ],
      [
        "▁sade",
        -4.929761959807005
      ],
      [
        "▁ona",
        -4.235995178139032
      ],
      [
        "ıkca",
        -7.569260549122384
      ],
      [
        "▁tarafında",
        -7.4076717897886155
      ],
      [
        "▁kap",
        -8.025308046372942
      ],
      [
        "▁kalitesi",
        -7.213801927656628
      ],
      [
        "z",
        -5.141607459896133
      ],
      [
        "▁fabrika",
        -8.329764194045104
      ],
      [
        "ildi",
        -7.359700515877719
      ],
      [
        "▁hukum",
        -8.973146115885012
      ],
      [
        "▁islerini",
        -9.149295327098976
      ],
      [
        "ha",
        -9.255242096426834
      ],
      [
        "▁tahmin",
        -7.58694290602434
      ],
      [
        "o",
        -7.574551781463574
      ],
      [
        "unuz",
        -9.205735051768928
      ],
      [
        "hic",
        -7.843634605618451
      ],
      [
        "▁icim",
        -9.222414434589481
      ],
      [
        "▁k",
        -7.3828837187317715
      ],
      [
        "temel",
        -7.572565365807591
      ],
      [
        "▁bir",
        -3.027951570239419
      ],
      [
        "▁not",
        -8.564389378324947
      ],
      [
        "▁talebi",
        -9.158816713539558
      ],
      [
        "▁bu",
        -7.798562956557147
      ],
      [
        "p",
        -7.046976921809187
      ],
      [
        "nızı",
        -8.903756956363756
      ],
      [
        "▁evde",
        -8.0770392836953
      ],
      [
        "▁al",
        -7.201820093021308
      ],
      [
        "▁yara",
        -8.341875383679113
      ],
      [
        "▁avrupa",
        -6.605347737836264
      ],
      [
        "▁ediliyor",
        -7.891656034002362
      ],
      [
        "▁artıs",
        -8.142356739838274
      ],
      [
        "8'",
        -9.049746342672833
      ],
      [
        "▁ters",
        -7.913455746945873
      ],
      [
        "az",
        -6.531221546471877
      ],
      [
        "▁giy",
        -8.090322855143496
      ],
      [
        "▁analist",
        -9.27747561469777
      ],
      [
        "▁eksik",
        -7.941174261744681
      ],
      [
        "ci",
        -6.386089862914961
      ],
      [
        "▁vapur",
        -8.818724275131956
      ],
      [
        "▁tam",
        -6.148869347248457
      ],
      [
        "▁lo",
        -7.002746196832698
      ],
      [
        "▁itiraz",
        -9.085595176457382
      ],
      [
        "▁yiyecek",
        -8.021940945521333
      ],
      [
        "▁tanı",
        -9.26708362717759
      ],
      [
        "▁hepsini",
        -5.598394737968925
      ],
      [
        "▁televizyon",
        -8.537826013257831
      ],
      [
        "▁gormek",
        -8.637371919417074
      ],
      [
        "▁bag",
        -7.999964485174748
      ],
      [
        "▁savcı",
        -8.992777740642273
      ],
      [
        "ımızda",
        -9.182448287531633
      ],
      [
        "▁sevk",
        -9.126819610075465
      ],
      [
        "▁dayan",
        -7.800904239688628
      ],
      [
        "▁yolculuk",
        -9.16009405151695
      ],
      [
        "ı",
        -5.376923376904363
      ],
      [
        "▁at",
        -7.630931679921087
      ],
      [
        "▁ihtiyacı",
        -9.031479520575639
      ],
      [
        "▁geciyor",
        -7.7239117338181345
      ],
      [
        "h",
        -6.9570335780874
      ],
      [
        "▁bil",
        -8.747672660345632
      ],
      [
        "▁kı",
        -8.062426366589069
      ],
      [
        "ve",
        -5.575675023950561
      ],
      [
        "c",
        -6.122502378245914
      ],
      [
        "▁dus",
        -6.979276280361036
      ],
      [
        "▁sonrası",
        -9.154638352462396
      ],
      [
        "na",
        -7.216566140508448
      ],
      [
        "▁personel",
        -6.611372239978121
      ],
      [
        "▁calıs",
        -7.654246976520353
      ],
      [
        "▁ithalat",
        -8.976449511073792
      ],
      [
        "▁hisseler",
        -8.870113576607809
      ],
      [
        "▁karsı",
        -7.837352174554885
      ],
      [
        "uktu",
        -7.340269009743899
      ],
      [
        "da",
        -6.702665342960288
      ],
      [
        "n",
        -3.6280928810905237
      ],
      [
        "▁oteldi",
        -7.456336970217005
      ],
      [
        "▁daha",
        -3.284001868858846
      ],
      [
        "▁gorur",
        -7.9204836149073845
      ],
      [
        "ki",
        -5.536838665843374
      ],
      [
        "▁olmaz",
        -7.167558397221924
      ],
      [
        "▁istanbul'da",
        -7.261859279922099
      ],
      [
        "▁kisiler",
        -8.929455178860358
      ],
      [
        "▁personeli",
        -8.32807808882326
      ],
      [
        "li",
        -6.3410175684442045
      ],
      [
        "▁kendim",
        -6.106222814598596
      ],
      [
        "▁artar",
        -6.100708116629359
      ],
      [
        "▁yakın",
        -6.512915943878811
      ],
      [
        "▁ayı",
        -8.239141008943818
      ],
      [
        "▁edin",
        -7.827983487209585
      ],
      [
        "▁bitki",
        -9.189945955655304
      ],
      [
        "▁seviyesinde",
        -8.831996283002724
      ],
      [
        "▁olsun",
        -6.552446083414008
      ],
      [
        "▁kısıtlama",
        -9.184433011539133
      ],
      [
        ".",
        -6.508779962973537
      ],
      [
        "v",
        -6.891160599133084
      ],
      [
        "d",
        -6.042528314637639
      ],
      [
        "ara",
        -6.535783394481455
      ],
      [
        "▁yanlıs",
        -9.23818051582698
      ],
      [
        "ce",
        -6.77264541615444
      ],
      [
        "▁uyku",
        -8.54333352259967
      ],
      [
        "▁6",
        -4.8583629380426645
      ],
      [
        "▁av",
        -8.441449128822853
      ],
      [
        "cu",
        -6.814902540670463
      ],
      [
        "▁sigorta",
        -8.276225633161324
      ],
      [
        "▁am",
        -9.172350447405933
      ],
      [
        "▁sonra",
        -7.334234802096416
      ],
      [
        "▁numara",
        -8.446855595452353
      ],
      [
        "▁gelir",
        -7.327376604923489
      ],
      [
        "▁guclu",
        -6.752463692405149
      ],
      [
        "▁he",
        -6.654513425121539
      ],
      [
        "▁birini",
        -9.248142955627236
      ],
      [
        "▁yavru",
        -9.0855921804185
      ],
      [
        "g",
        -7.059723691178884
      ],
      [
        "▁bit",
        -8.607984316353946
      ],
      [
        "▁bugun",
        -5.851725009106645
      ],
      [
        "▁biri",
        -4.369579569371211
      ],
      [
        "▁kara",
        -6.749813976540861
      ],
      [
        "ir",
        -7.963442746892628
      ],
      [
        "▁genis",
        -6.390623316225844
      ],
      [
        "▁sair",
        -8.801751691775642
      ],
      [
        "▁charlotte'de",
        -7.348968685556176
      ],
      [
        "kleri",
        -8.020281460525828
      ],
      [
        "▁usta",
        -8.880082466586032
      ],
      [
        "▁yapa",
        -6.727293164757388
      ],
      [
        "▁muh",
        -7.142172831036666
      ],
      [
        "butu",
        -9.366974893163306
      ],
      [
        "▁dı",
        -3.685551159034305
      ],
      [
        "i",
        -4.497627220629797
      ],
      [
        "iy",
        -7.061574036687148
      ],
      [
        "▁acı",
        -7.922015145697913
      ],
      [
        "▁cevap",
        -8.103315088366745
      ],
      [
        "▁etki",
        -7.7950353566217885
      ],
      [
        "lugunu",
        -8.51392372174918
      ],
      [
        "75",
        -6.51104329968174
      ],
      [
        "dan",
        -5.896843003039089
      ],
      [
        "▁temsil",
        -9.006376220962853
      ],
      [
        "▁otobus",
        -9.184439035211971
      ],
      [
        "▁ihracat",
        -9.067841809232995
      ],
      [
        "'le",
        -7.292157769793574
      ],
      [
        "▁mar",
        -7.509950904645063
      ],
      [
        "an",
        -7.668036448599424
      ],
      [
        "mesini",
        -8.931051181690192
      ],
      [
        "errill",
        -7.514621870958839
      ],
      [
        "ti",
        -7.495080239910468
      ],
      [
        "nden",
        -7.285725337564089
      ],
      [
        "▁dususle",
        -8.830459642248533
      ],
      [
        "▁abla",
        -8.979499007993308
      ],
      [
        "▁devri",
        -8.961495323919815
      ],
      [
        "▁sirketi",
        -8.102809066172542
      ],
      [
        "▁strateji",
        -8.7324643839157
      ],
      [
        "▁ihale",
        -8.995655666493128
      ],
      [
        "▁buldu",
        -6.981970595712374
      ],
      [
        "▁yen'",
        -7.446286463261055
      ],
      [
        "▁yarısı",
        -9.084894061056279
      ],
      [
        "▁",
        -1.6692032132785002
      ],
      [
        "▁artısı",
        -9.067251038364004
      ],
      [
        "▁temmuz",
        -7.413487010220329
      ],
      [
        "▁s",
        -7.344930797795903
      ],
      [
        "▁kahve",
        -7.6905355966778535
      ],
      [
        "▁onun",
        -8.154551951874273
      ],
      [
        "leri",
        -4.9355083543253935
      ],
      [
        "▁sahip",
        -7.24706871924641
      ],
      [
        "syon",
        -8.50772810440829
      ],
      [
        "▁boston",
        -5.570586973517923
      ],
      [
        "▁kim",
        -4.773235186824169
      ],
      [
        "h",
        -7.852661068051526
      ],
      [
        "▁ru",
        -8.910031687408365
      ],
      [
        "▁hukumetin",
        -9.138853450741616
      ],
      [
        "▁ne",
        -5.821288615264747
      ],
      [
        "v",
        -6.827833565912286
      ],
      [
        "▁ucretlerini",
        -9.124577973395168
      ],
      [
        "▁denver",
        -5.7868022311210385
      ],
      [
        "▁diyor",
        -6.068776859287384
      ],
      [
        "ktan",
        -7.714189021885968
      ],
      [
        "▁ga",
        -8.019525071834464
      ],
      [
        "▁durum",
        -7.742149563856661
      ],
      [
        "▁us",
        -7.919635127858362
      ],
      [
        "▁acık",
        -6.383565921314693
      ],
      [
        "imi",
        -7.9292203877402265
      ],
      [
        "▁ucuslarını",
        -7.160794388512329
      ],
      [
        "▁top",
        -8.151243240101465
      ],
      [
        "▁acık",
        -7.077738448004128
      ],
      [
        "ini",
        -6.190612021855556
      ],
      [
        "▁personeller",
        -7.096374009950666
      ],
      [
        "▁aylık",
        -8.39762086251526
      ],
      [
        "kca",
        -8.103862073496302
      ],
      [
        "▁biraz",
        -4.687763168436832
      ],
      [
        "▁pat",
        -8.827477309398573
      ],
      [
        "▁etmeye",
        -8.738117281661822
      ],
      [
        "▁y",
        -8.402677086191826
      ],
      [
        "ir",
        -7.249585255353833
      ],
      [
        "▁turkiye'de",
        -7.062093433298694
      ],
      [
        "▁isaret",
        -8.374978568237086
      ],
      [
        "▁dogru",
        -7.603731796977203
      ],
      [
        "el",
        -7.908226801642846
      ],
      [
        "▁acıldı",
        -7.865366941255549
      ],
      [
        "▁kesinti",
        -8.953543902099574
      ],
      [
        "▁takım",
        -8.211745448092689
      ],
      [
        "er",
        -6.002466897129618
      ],
      [
        "▁gitti",
        -6.593172881954199
      ],
      [
        ".",
        -7.376676688651361
      ],
      [
        "ler",
        -4.763157974297701
      ],
      [
        "sa",
        -7.17472110376118
      ],
      [
        "siz",
        -5.236444565992569
      ],
      [
        "▁once",
        -8.6329381293949
      ],
      [
        "▁re",
        -7.394714735641712
      ],
      [
        "1'de",
        -9.238969779361717
      ],
      [
        "▁tercih",
        -7.36917190534865
      ],
      [
        "▁dede",
        -8.831020101570598
      ],
      [
        "▁proje",
        -8.275990776937038
      ],
      [
        "▁almanya",
        -7.514640186405623
      ],
      [
        "maya",
        -7.542471100388417
      ],
      [
        "▁kere",
        -8.162841277947777
      ],
      [
        "▁40",
        -6.045535918803367
      ],
      [
        "▁resim",
        -8.579645970805329
      ],
      [
        "▁nisan",
        -8.995651994963048
      ],
      [
        "▁rekor",
        -9.265751245677356
      ],
      [
        "▁gecesi",
        -9.281635341152997
      ],
      [
        "▁yonetimi",
        -8.813402453615899
      ],
      [
        "▁ka",
        -6.481825642100741
      ],
      [
        "ir",
        -7.350414316749047
      ],
      [
        "kca",
        -6.111250826125482
      ],
      [
        "o",
        -6.6717490880592125
      ],
      [
        "▁tarla",
        -8.582925126425142
      ],
      [
        "▁uzerinde",
        -5.829535329669553
      ],
      [
        "▁bekliyor",
        -7.350871425835006
      ],
      [
        "den",
        -5.765485517110782
      ],
      [
        "▁rahat",
        -8.6530601689483
      ],
      [
        "▁korku",
        -8.494357416941966
      ],
      [
        "ser",
        -8.926342985778371
      ],
      [
        "▁mu",
        -7.494459165304268
      ],
      [
        "▁eli",
        -8.440624593069597
      ],
      [
        "▁bin",
        -9.282355484712383
      ],
      [
        "▁getiri",
        -8.112961287462271
      ],
      [
        "▁belirt",
        -7.683782046882066
      ],
      [
        "▁kurul",
        -9.161338155349183
      ],
      [
        "▁bak",
        -8.489035130311635
      ],
      [
        "l",
        -6.098948794144246
      ],
      [
        "▁yuzyıl",
        -8.85557757801475
      ],
      [
        "meyecek",
        -7.8799041323165335
      ],
      [
        "▁ara",
        -7.571122780289877
      ],
      [
        "▁finansman",
        -9.159340656623717
      ],
      [
        "▁198",
        -8.995493654897938
      ],
      [
        "▁maliyetleri",
        -9.061300422016528
      ],
      [
        "en",
        -5.3052406247657595
      ],
      [
        "▁polis",
        -8.386734132704479
      ],
      [
        "▁11",
        -5.81939966074291
      ],
      [
        "▁cekme",
        -9.171977629966499
      ],
      [
        "▁erken",
        -6.118897358076235
      ],
      [
        "[PAD]",
        0.0
      ],
      [
        "urekli",
        -6.170784925687602
      ],
      [
        "up",
        -6.664406222104445
      ],
      [
        "▁umut",
        -8.783554003428335
      ],
      [
        "▁kız",
        -7.460576718113989
      ],
      [
        "▁hemen",
        -5.2483253520340405
      ],
      [
        "▁ait",
        -5.924503288156106
      ],
      [
        "oz",
        -8.361401755385337
      ],
      [
        "'a",
        -4.911625731201662
      ],
      [
        "el",
        -7.298644566373646
      ],
      [
        "▁de",
        -7.4014055902578075
      ],
      [
        "▁garanti",
        -8.89352218003202
      ],
      [
        "▁fatura",
        -9.075329183572494
      ],
      [
        "▁yolu",
        -8.170510039055223
      ],
      [
        "yen",
        -6.952143961502724
      ],
      [
        "▁haric",
        -9.040704401237276
      ],
      [
        "▁iyi",
        -4.120328284265581
      ],
      [
        "▁onunde",
        -7.8837479742194985
      ],
      [
        "▁yaka",
        -8.63803920826303
      ],
      [
        "o",
        -4.578117168882934
      ],
      [
        "▁soyledi",
        -5.125086709333978
      ],
      [
        "▁memphis'",
        -6.943093293916075
      ],
      [
        "▁felaket",
        -9.109402358759219
      ],
      [
        "▁ana",
        -6.844882439670697
      ],
      [
        "▁barıs",
        -9.111732999283493
      ],
      [
        "▁hırsız",
        -9.18418650956751
      ],
      [
        "▁ler",
        -7.748374407484016
      ],
      [
        "▁mus",
        -5.417352690502484
      ],
      [
        "co",
        -7.273924532429266
      ],
      [
        "…",
        -11.802702672349788
      ],
      [
        "▁eve",
        -7.624905181929931
      ],
      [
        "▁endeksi",
        -8.015787291087785
      ],
      [
        "▁tepki",
        -8.783329837495078
      ],
      [
        "▁kırk",
        -6.011931561604349
      ],
      [
        "ta",
        -7.075810781638112
      ],
      [
        "▁kale",
        -8.82620580773412
      ],
      [
        "▁silah",
        -8.42233755282779
      ],
      [
        "▁olmadi",
        -7.105787802996739
      ],
      [
        "▁sec",
        -9.182176610237825
      ],
      [
        "ka",
        -4.814930333216153
      ],
      [
        "▁dolay",
        -4.747145240580062
      ],
      [
        "▁yok",
        -7.2599109513501
      ],
      [
        "in",
        -5.215628805993766
      ],
      [
        "ikti",
        -7.669503639374806
      ],
      [
        "ort",
        -8.967359289826806
      ],
      [
        "▁baslıyor",
        -7.795348747780091
      ],
      [
        "▁co",
        -9.039477571792052
      ],
      [
        "▁ticareti",
        -9.212177775265829
      ],
      [
        "▁et",
        -7.9998985641927645
      ],
      [
        "dan",
        -7.33257720045109
      ],
      [
        "▁havayollarını",
        -8.760225216901649
      ],
      [
        "▁mahkemesi",
        -9.147681174172533
      ],
      [
        "▁zaman",
        -6.186820020101037
      ],
      [
        "ar",
        -7.686561470588263
      ],
      [
        "▁pazar",
        -7.520817779904148
      ],
      [
        "▁dur",
        -7.089734177499263
      ],
      [
        "d",
        -5.726493155243758
      ],
      [
        "▁payı",
        -9.18770085620884
      ],
      [
        "▁gor",
        -8.11460911858006
      ],
      [
        "▁arz",
        -8.829906053414554
      ],
      [
        "▁olacak",
        -6.50020044976146
      ],
      [
        "▁kur",
        -7.8407291604853375
      ],
      [
        "nc",
        -6.268229403463583
      ],
      [
        "▁uzerin",
        -7.80555689592298
      ],
      [
        "▁borc",
        -7.838528102095567
      ],
      [
        "▁muke",
        -6.726077281485869
      ],
      [
        "▁cıktı",
        -6.204929595937625
      ],
      [
        "▁is",
        -6.739784994148765
      ],
      [
        "▁bel",
        -8.468287714222843
      ],
      [
        "▁olan",
        -6.090718399667774
      ],
      [
        "▁coktu",
        -8.086417080984273
      ],
      [
        "mız",
        -7.82228748749526
      ],
      [
        "▁ustun",
        -7.801889603744685
      ],
      [
        "▁on",
        -4.304254523933001
      ],
      [
        "▁sinir",
        -8.855946013306786
      ],
      [
        "lilik",
        -8.857019452816898
      ],
      [
        "▁herif",
        -9.017391010669245
      ],
      [
        "sa",
        -6.04095742548214
      ],
      [
        "▁ust",
        -7.1185545875493945
      ],
      [
        "?",
        -4.9897436379284725
      ],
      [
        "▁memnunu",
        -7.398164074736801
      ],
      [
        "▁ic",
        -7.936480249582097
      ],
      [
        "▁lı",
        -5.6759587977861035
      ],
      [
        "▁yirmi",
        -5.481367957249344
      ],
      [
        "se",
        -7.269141531746493
      ],
      [
        "▁hangi",
        -5.189675037624199
      ],
      [
        "cu",
        -6.2788825163436455
      ],
      [
        "▁sikayet",
        -8.749131116760296
      ],
      [
        "▁epey",
        -7.231327411727682
      ],
      [
        "▁re",
        -7.588088437267546
      ],
      [
        "▁haber",
        -7.612481008595935
      ],
      [
        "▁edebiyat",
        -8.637907765507716
      ],
      [
        "▁bay",
        -5.855742044162384
      ],
      [
        "lenme",
        -8.02115089096835
      ],
      [
        "▁kırmızı",
        -6.990133074696115
      ],
      [
        "▁ara",
        -7.916258681979784
      ],
      [
        "▁yakında",
        -7.032897940633355
      ],
      [
        "▁gerekiyor",
        -7.23860932086348
      ],
      [
        "▁sonuc",
        -8.265980780666341
      ],
      [
        "▁fiyatlarını",
        -8.638058726049113
      ],
      [
        "▁hazine",
        -8.276559903779194
      ],
      [
        "de",
        -5.956809009026433
      ],
      [
        "i",
        -4.732976630052781
      ],
      [
        "▁alısveris",
        -8.783321678300645
      ],
      [
        "likte",
        -8.990350068696134
      ],
      [
        "ı",
        -4.804327802810323
      ],
      [
        "▁guzel",
        -4.6868662279318345
      ],
      [
        "den",
        -7.475941032000357
      ],
      [
        "▁zorunda",
        -8.446868069743477
      ],
      [
        "▁etmek",
        -7.645963501459748
      ],
      [
        "ip",
        -7.360818963021514
      ],
      [
        "m",
        -3.7415001008522433
      ],
      [
        "▁rehberimiz",
        -9.211911054849484
      ],
      [
        "y",
        -6.026507368091297
      ],
      [
        "▁cık",
        -7.8984065736039835
      ],
      [
        "▁yuzluydu",
        -8.020553123755267
      ],
      [
        "▁al",
        -7.795260645787721
      ],
      [
        "▁cesaret",
        -9.210748642555433
      ],
      [
        "inin",
        -7.071514452756661
      ],
      [
        "▁b",
        -8.027158500472844
      ],
      [
        "▁urunler",
        -9.053855222411888
      ],
      [
        "▁demir",
        -8.551567581886852
      ],
      [
        "▁da",
        -8.294537207289686
      ],
      [
        "tim",
        -9.216208916835878
      ],
      [
        "mu",
        -8.007723877257241
      ],
      [
        "nda",
        -6.937044282333947
      ],
      [
        "▁dag",
        -8.278480691196823
      ],
      [
        "▁yuregi",
        -8.818723710077887
      ],
      [
        "mis",
        -5.723620343942099
      ],
      [
        "▁masraf",
        -9.017389190283186
      ],
      [
        "acagım",
        -7.856523502904178
      ],
      [
        "lak",
        -8.536831793113809
      ],
      [
        "u",
        -6.859988844358753
      ],
      [
        "▁francisco'",
        -5.077218351597256
      ],
      [
        "▁es",
        -7.572712008418513
      ],
      [
        "▁ne",
        -3.7234659756415116
      ],
      [
        "▁civarın",
        -8.973154027914003
      ],
      [
        "▁baslangıc",
        -8.836904435817466
      ],
      [
        "▁gelen",
        -6.419705948821233
      ],
      [
        "digini",
        -7.772685084993411
      ],
      [
        "cılık",
        -8.704831302828836
      ],
      [
        "▁dilim",
        -9.159717604418727
      ],
      [
        "▁hastane",
        -8.819567404694325
      ],
      [
        "▁kuvvet",
        -8.768978482491827
      ],
      [
        "▁basında",
        -7.645553648888792
      ],
      [
        "▁saf",
        -9.113248964914352
      ],
      [
        "▁pozisyon",
        -9.062336195022812
      ],
      [
        "ayet",
        -5.79797472285833
      ],
      [
        "▁gosteri",
        -8.721254632880846
      ],
      [
        "mesi",
        -6.687189361268551
      ],
      [
        "▁kus",
        -7.925498294022481
      ],
      [
        "▁yok",
        -5.673449594892746
      ],
      [
        "ell",
        -7.506926504393078
      ],
      [
        "let",
        -8.504943740707766
      ],
      [
        "▁iri",
        -7.579718212544988
      ],
      [
        "▁h",
        -7.308813907456981
      ],
      [
        "▁marka",
        -8.733052319547692
      ],
      [
        "▁hayatı",
        -8.850389889537873
      ],
      [
        "▁suru",
        -8.277375128331542
      ],
      [
        "▁3/",
        -6.233627537946334
      ],
      [
        "▁beyin",
        -9.097686004471385
      ],
      [
        "▁sert",
        -7.1477745182243595
      ],
      [
        "▁ogrenme",
        -9.115045651162538
      ],
      [
        "ila",
        -9.207290760679781
      ],
      [
        "d",
        -10.41573712684167
      ],
      [
        "ında",
        -4.740979246502958
      ],
      [
        "▁yiyecekler",
        -8.602773030143483
      ],
      [
        "▁kendileri",
        -6.4584490618068315
      ],
      [
        "▁las",
        -6.378821391878455
      ],
      [
        "▁yardım",
        -7.67788804795272
      ],
      [
        "▁kedi",
        -8.913213079029703
      ],
      [
        "l",
        -5.609165391903557
      ],
      [
        "▁kalmadi",
        -6.6624006496479655
      ],
      [
        "▁koru",
        -8.830454329298705
      ],
      [
        "nc",
        -7.8372263483892155
      ],
      [
        "▁nedeni",
        -8.353137697183765
      ],
      [
        "▁sıcak",
        -7.076087639789179
      ],
      [
        "▁mi",
        -8.345773107887435
      ],
      [
        "▁tesisi",
        -8.892809005174652
      ],
      [
        "▁geli",
        -6.90804634111799
      ],
      [
        "▁gayrimenkul",
        -9.109401514027187
      ],
      [
        "▁gorev",
        -7.534980193836744
      ],
      [
        "san",
        -7.988813588777788
      ],
      [
        "▁h",
        -8.007446907811186
      ],
      [
        "▁deger",
        -7.7698001211189425
      ],
      [
        "▁ici",
        -8.124470618740895
      ],
      [
        "▁gor",
        -8.117677505513907
      ],
      [
        "di",
        -7.125723558148611
      ],
      [
        "ayan",
        -7.568609367910031
      ],
      [
        "▁hacim",
        -8.76682422025193
      ],
      [
        "▁fonlar",
        -9.137914237806251
      ],
      [
        "ındaki",
        -6.302860002047394
      ],
      [
        "..",
        -11.199619583058196
      ],
      [
        "nız",
        -7.630489356036614
      ],
      [
        "di",
        -6.497453989946427
      ],
      [
        "▁kırı",
        -9.090335324780302
      ],
      [
        "▁cesitleri",
        -9.182209252663359
      ],
      [
        "▁faiz",
        -7.650555241183481
      ],
      [
        "lama",
        -7.3833637299530706
      ],
      [
        "▁veriyoru",
        -6.508495517619243
      ],
      [
        "lıklar",
        -8.714344771031648
      ],
      [
        "▁dusundu",
        -7.637187744243473
      ],
      [
        "▁kahvaltı",
        -9.1844327851353
      ],
      [
        "▁kopek",
        -8.637909878931506
      ],
      [
        "st",
        -7.453845982365774
      ],
      [
        "▁sey",
        -5.822913018313815
      ],
      [
        "u",
        -6.328937242903749
      ],
      [
        "▁kalbi",
        -8.83980161297753
      ],
      [
        "▁neler",
        -6.766985399399278
      ],
      [
        "▁gider",
        -7.519228868430322
      ],
      [
        "▁salı",
        -7.401487703396885
      ],
      [
        "▁newark'ta",
        -7.347640522526289
      ],
      [
        "▁...",
        -14.014958445102625
      ],
      [
        "yabilir",
        -8.09825652971741
      ],
      [
        "▁kapa",
        -6.90588531810034
      ],
      [
        ",",
        -11.259274920662083
      ],
      [
        "digi",
        -7.079380178567159
      ],
      [
        "▁kelime",
        -8.077225828714877
      ],
      [
        "▁onlar",
        -4.15628502075879
      ],
      [
        "▁ciddi",
        -7.1215799823785355
      ],
      [
        "▁yuzu",
        -8.181133079944036
      ],
      [
        "▁artı",
        -5.0609734598905
      ],
      [
        "▁bardak",
        -8.95391112203233
      ],
      [
        "▁hayal",
        -8.185078177551173
      ],
      [
        "▁ip",
        -8.706632675432822
      ],
      [
        "gimiz",
        -7.94985572875908
      ],
      [
        "▁miktar",
        -9.027674453574695
      ],
      [
        "▁ali",
        -6.635038331160915
      ],
      [
        "▁degerlendirme",
        -9.062979052130705
      ],
      [
        "▁corba",
        -8.699972484994362
      ],
      [
        "▁az",
        -6.513859532864736
      ],
      [
        "▁tu",
        -3.938386220041247
      ],
      [
        "▁uzerinde",
        -7.3314963027269355
      ],
      [
        "▁tele",
        -7.467022141174876
      ],
      [
        "▁hoca",
        -8.363479068783025
      ],
      [
        "ele",
        -12.03594578210268
      ],
      [
        "▁bogaz",
        -9.062349682467552
      ],
      [
        "▁eskid",
        -7.508059908398208
      ],
      [
        "▁indirim",
        -9.039623084291172
      ],
      [
        "▁dere",
        -9.26612688139749
      ],
      [
        "▁destekl",
        -7.789312649940847
      ],
      [
        "▁yuzme",
        -8.232460071784267
      ],
      [
        "▁sa",
        -7.007816283062303
      ],
      [
        "▁yasa",
        -7.897834886019572
      ],
      [
        "sem",
        -7.501318970127886
      ],
      [
        "▁merkezi",
        -8.115048985074644
      ],
      [
        "ti",
        -6.150825801268466
      ],
      [
        "lestirme",
        -8.974444778279391
      ],
      [
        "▁sayi",
        -9.228043084677
      ],
      [
        "▁guler",
        -6.443584868127253
      ],
      [
        "▁caba",
        -8.245535876940103
      ],
      [
        "▁ucusları",
        -5.711518916201767
      ],
      [
        "▁herkesin",
        -9.028016792228069
      ],
      [
        "▁butce",
        -8.699954479215332
      ],
      [
        "▁simdi",
        -4.839658505846722
      ],
      [
        "si",
        -6.416833395840142
      ],
      [
        "▁sa",
        -7.533453171507167
      ],
      [
        "▁yapılan",
        -7.5606945253166895
      ],
      [
        "▁ticarette",
        -9.027941098747165
      ],
      [
        "▁gosteriyor",
        -7.443828602836216
      ],
      [
        "▁v",
        -6.0393683046606
      ],
      [
        "▁oyku",
        -8.532692255263798
      ],
      [
        "meye",
        -7.783807652790883
      ],
      [
        "▁ısık",
        -8.455611935966083
      ],
      [
        "m",
        -3.07230917458263
      ],
      [
        "▁kitap",
        -8.051495251607811
      ],
      [
        "▁yer",
        -6.66756829839914
      ],
      [
        "▁siddet",
        -9.18443337766713
      ],
      [
        "▁on",
        -7.765378417422554
      ],
      [
        "▁kardes",
        -8.572188542629128
      ],
      [
        "▁ileri",
        -7.7160430465018335
      ],
      [
        "▁anlam",
        -7.836099849475839
      ],
      [
        "▁en",
        -8.199192244498683
      ],
      [
        "▁ac",
        -8.270182853301137
      ],
      [
        "▁muzik",
        -8.9131422226511
      ],
      [
        "ci",
        -6.558745201072433
      ],
      [
        "▁tak",
        -8.343329718399595
      ],
      [
        "m",
        -12.802702672349787
      ],
      [
        "onu",
        -9.0630222156713
      ],
      [
        "maz",
        -7.561133468680387
      ],
      [
        "udur",
        -7.374474651075438
      ],
      [
        "▁emeklilik",
        -9.21177305999101
      ],
      [
        "nde",
        -7.227258361320836
      ],
      [
        "▁rengi",
        -8.594250106508667
      ],
      [
        "ne",
        -8.86858130504411
      ],
      [
        "▁ucak",
        -7.490501482181309
      ],
      [
        "ı",
        -11.802702672349788
      ],
      [
        "▁yuzunde",
        -8.949419357125475
      ],
      [
        "▁yuz",
        -7.670978609104915
      ],
      [
        "▁30",
        -5.020739400265071
      ],
      [
        "oglu",
        -7.0545701178516715
      ],
      [
        "▁kuyu",
        -9.0883117169795
      ],
      [
        "z",
        -6.411032951003659
      ],
      [
        "▁198",
        -5.050423814575034
      ],
      [
        "▁insanlar",
        -7.419011471556064
      ],
      [
        "▁dolu",
        -6.890848667969417
      ],
      [
        "ser",
        -7.906497206498267
      ],
      [
        "▁gemi",
        -8.061384611622753
      ],
      [
        "medi",
        -7.563995473531286
      ],
      [
        "▁kardesim",
        -9.092843218399366
      ],
      [
        "▁mimar",
        -9.238008254436632
      ],
      [
        "▁boynun",
        -9.26971563553651
      ],
      [
        "gi",
        -6.922184583827161
      ],
      [
        "▁alt",
        -8.86716720641108
      ],
      [
        "▁satır",
        -9.242066504802045
      ],
      [
        "ir",
        -6.550091369772204
      ],
      [
        "▁pi",
        -8.143542494986246
      ],
      [
        "▁washington'",
        -7.460039270716376
      ],
      [
        "▁200",
        -6.130752197523192
      ],
      [
        "▁dur",
        -7.622895412905418
      ],
      [
        "▁ra",
        -6.318499422728735
      ],
      [
        "▁karsı",
        -7.046874465071466
      ],
      [
        "▁1",
        -3.6394827259864
      ],
      [
        "k",
        -3.6843136976939315
      ],
      [
        "▁dallas'",
        -6.042981517141733
      ],
      [
        "▁ustunde",
        -7.939129862079926
      ],
      [
        "lu",
        -7.234825701707616
      ],
      [
        "lıgın",
        -7.90553695991196
      ],
      [
        "▁geldi",
        -5.631918754780271
      ],
      [
        "▁al",
        -6.55541507051747
      ],
      [
        "▁yonetim",
        -7.740122413204883
      ],
      [
        "sını",
        -6.612111766417453
      ],
      [
        "▁f",
        -7.232885755547305
      ],
      [
        "▁uca",
        -7.794701260637389
      ],
      [
        "b",
        -6.477120954085562
      ],
      [
        "on",
        -7.300685884163319
      ],
      [
        "▁dur",
        -4.965681247810773
      ],
      [
        "▁hasan",
        -7.420746060243844
      ],
      [
        "▁gerceklestir",
        -8.107262171759585
      ],
      [
        "▁takımı",
        -8.882447346923122
      ],
      [
        "▁uzerinde",
        -7.319186190553947
      ],
      [
        "▁muzakere",
        -9.184432784421611
      ],
      [
        ")",
        -6.115128725042444
      ],
      [
        "ah",
        -10.102976726532598
      ],
      [
        "▁boya",
        -8.854947501114847
      ],
      [
        "▁yapım",
        -9.238698991299685
      ],
      [
        "▁yapar",
        -7.516474856185284
      ],
      [
        "▁tezgah",
        -8.684068912316118
      ],
      [
        "▁imza",
        -9.085630305411248
      ],
      [
        "▁hamle",
        -8.754227629658033
      ],
      [
        "▁kabul",
        -7.16351654772781
      ],
      [
        "▁",
        -2.181625321710664
      ],
      [
        "teki",
        -7.159472131224541
      ],
      [
        "mada",
        -6.606015577227643
      ],
      [
        "▁pencere",
        -8.05193571114983
      ],
      [
        "tif",
        -8.463309440413283
      ],
      [
        "▁philadelphia'",
        -5.874786174638694
      ],
      [
        "▁yasında",
        -7.252155777757523
      ],
      [
        "lerimiz",
        -8.610530193671096
      ],
      [
        "▁yeni",
        -8.717076329160431
      ],
      [
        "dı",
        -4.67498132125022
      ],
      [
        "imiz",
        -7.654294781691021
      ],
      [
        "▁alma",
        -7.655756629331163
      ],
      [
        "et",
        -6.8936994019445175
      ],
      [
        "▁kalite",
        -6.853378659999226
      ],
      [
        "▁bey",
        -6.831802248268732
      ],
      [
        "▁yapmaya",
        -9.105822414043931
      ],
      [
        "▁1989",
        -5.896581170332743
      ],
      [
        "▁dis",
        -8.141637654345313
      ],
      [
        "▁ac",
        -7.2482742931414235
      ],
      [
        "mek",
        -6.797041460366033
      ],
      [
        "▁paha",
        -7.543886575885301
      ],
      [
        "k",
        -4.1458064188567025
      ],
      [
        "▁sure",
        -7.720068407476733
      ],
      [
        "5'",
        -8.940602965195946
      ],
      [
        "▁giriste",
        -8.95705013391546
      ],
      [
        "ecegini",
        -8.76957127629441
      ],
      [
        "▁vardı",
        -5.652273649936847
      ],
      [
        "▁mevcut",
        -8.668443909164484
      ],
      [
        "▁beni",
        -4.178270586993837
      ],
      [
        "s",
        -4.562271145797527
      ],
      [
        "lara",
        -6.088226839202348
      ],
      [
        "▁nerede",
        -6.062949956164146
      ],
      [
        "▁hale",
        -8.01677737410305
      ],
      [
        "di",
        -7.14262696494567
      ],
      [
        "%",
        -4.152749503307038
      ],
      [
        "▁gorun",
        -7.339522011104732
      ],
      [
        "▁cogu",
        -7.4896437518538574
      ],
      [
        "mak",
        -6.563737770097835
      ],
      [
        "c",
        -4.853219729400437
      ],
      [
        "una",
        -7.9724090093514395
      ],
      [
        "▁cık",
        -7.133831259452897
      ],
      [
        "▁doku",
        -8.939675690947595
      ],
      [
        "▁sekilde",
        -6.9343255899499665
      ],
      [
        "▁baskaları",
        -8.996029422820882
      ],
      [
        "▁turk",
        -7.790444697342189
      ],
      [
        "n",
        -4.758362794379164
      ],
      [
        "▁japon",
        -8.749131083164222
      ],
      [
        "▁olacaktı",
        -7.686503783249895
      ],
      [
        "▁r",
        -7.150400225492848
      ],
      [
        "▁belediye",
        -8.818722760988077
      ],
      [
        "ima",
        -7.584234974254349
      ],
      [
        "▁bunda",
        -5.599372556045785
      ],
      [
        "▁ah",
        -8.750882367660655
      ],
      [
        "▁degistir",
        -8.001472205836322
      ],
      [
        "▁firs",
        -8.37524525068959
      ],
      [
        "▁asıl",
        -7.27937555355245
      ],
      [
        "or",
        -7.12212335956243
      ],
      [
        "dir",
        -6.65097430980568
      ],
      [
        "▁fer",
        -9.190351058698052
      ],
      [
        "kları",
        -7.756776993848302
      ],
      [
        "▁hizmet",
        -6.071682423280232
      ],
      [
        "z",
        -8.00771259404701
      ],
      [
        "▁city'de",
        -6.741889597489916
      ],
      [
        "▁s",
        -4.608337497691907
      ],
      [
        "▁gec",
        -6.6891732358273925
      ],
      [
        "4'",
        -8.969202812498201
      ],
      [
        "▁meydan",
        -8.205266388962869
      ],
      [
        "▁rakip",
        -9.265553761921598
      ],
      [
        "▁zar",
        -9.137433428574239
      ],
      [
        "kleri",
        -7.725966373827555
      ],
      [
        "▁sauna",
        -9.15960382936882
      ],
      [
        "▁paket",
        -8.855424707566847
      ],
      [
        "▁finans",
        -7.785608098361208
      ],
      [
        "▁karı",
        -8.566794796700648
      ],
      [
        "▁olagan",
        -7.907651024138542
      ],
      [
        "'un",
        -5.583121518991312
      ],
      [
        "▁2",
        -8.539880603223224
      ],
      [
        "▁olursa",
        -7.214387056847249
      ],
      [
        "▁telefonla",
        -8.632706371567007
      ],
      [
        "hazır",
        -7.439275110079495
      ],
      [
        "▁satıslar",
        -7.933660028012585
      ],
      [
        "at",
        -7.1794963879585305
      ],
      [
        "▁ogren",
        -7.9659007009808
      ],
      [
        "un",
        -5.755775350433605
      ],
      [
        "emez",
        -7.693083838934778
      ],
      [
        "▁gidis",
        -7.360809698899004
      ],
      [
        "▁yuzu",
        -6.6950737422931965
      ],
      [
        "▁gunes",
        -8.11647622381829
      ],
      [
        "▁kent",
        -8.589425667720203
      ],
      [
        "▁isletme",
        -7.971452508922108
      ],
      [
        "▁ucusların",
        -8.702387862060267
      ],
      [
        "▁yetersiz",
        -6.950387900474548
      ],
      [
        "▁ettigini",
        -8.805410393412142
      ],
      [
        "▁goster",
        -4.823268618043616
      ],
      [
        "bil",
        -8.307138058244057
      ],
      [
        "▁ucuyor",
        -7.312963302415817
      ],
      [
        "ttı",
        -7.736200414926599
      ],
      [
        "▁gelecek",
        -8.084386772029248
      ],
      [
        "▁hakk",
        -5.840372106910847
      ],
      [
        "▁ses",
        -7.752155795521833
      ],
      [
        "▁ro",
        -9.087549903530823
      ],
      [
        "▁sırada",
        -8.459219123407735
      ],
      [
        "▁temsilci",
        -8.792122335669896
      ],
      [
        "▁baz",
        -9.097686845543862
      ],
      [
        "▁yatırımcı",
        -8.659854685785973
      ],
      [
        "▁tedavi",
        -9.184433331884414
      ],
      [
        "▁kaliforniya",
        -7.302773057599721
      ],
      [
        "▁kapısını",
        -9.28950749455161
      ],
      [
        "▁kendini",
        -4.901080439319303
      ],
      [
        "▁dusunce",
        -8.265346741560183
      ],
      [
        "dan",
        -5.2178061436840375
      ],
      [
        "ver",
        -8.512918739612859
      ],
      [
        "▁bahce",
        -7.8280295936852164
      ],
      [
        "▁dile",
        -7.993158332510329
      ],
      [
        "h",
        -6.555355766760137
      ],
      [
        "▁koy",
        -7.809666880569189
      ],
      [
        "▁gorustu",
        -7.9020892297624155
      ],
      [
        "▁kul",
        -7.982523881793636
      ],
      [
        "▁piyasaları",
        -9.252746059594749
      ],
      [
        "▁baz",
        -4.579867385347588
      ],
      [
        "▁taraf",
        -5.733464205858842
      ],
      [
        "▁genel",
        -6.384596635128069
      ],
      [
        "▁fotograf",
        -8.484834293608444
      ],
      [
        "▁bizde",
        -5.95228552226769
      ],
      [
        "ırtı",
        -9.006532098705529
      ],
      [
        "▁ucmak",
        -7.885486952875112
      ],
      [
        "▁renk",
        -8.298197903871912
      ],
      [
        "▁sirket",
        -6.6657560514341645
      ],
      [
        "▁oyle",
        -5.64675409423086
      ],
      [
        "▁kesin",
        -7.804262474853327
      ],
      [
        "is",
        -7.463825349204963
      ],
      [
        "lıgını",
        -8.154613176088326
      ],
      [
        "▁14",
        -6.171359778606929
      ],
      [
        "▁idi",
        -7.607056053409531
      ],
      [
        "▁oyle",
        -7.302740800488347
      ],
      [
        "▁cıkan",
        -8.029926104916933
      ],
      [
        "▁suphe",
        -9.210749878452326
      ],
      [
        "▁w",
        -7.361478601160245
      ],
      [
        "▁ulas",
        -7.795040267685424
      ],
      [
        "▁ben",
        -2.9871799491523117
      ],
      [
        "▁dusun",
        -7.850245095663756
      ],
      [
        "▁avukatlar",
        -9.290076360776862
      ],
      [
        "▁air",
        -6.441528599237535
      ],
      [
        "e",
        -14.014858445102625
      ],
      [
        "▁alem",
        -9.051357663466767
      ],
      [
        "pa",
        -8.061339486445434
      ],
      [
        "▁sesi",
        -8.268319896631855
      ],
      [
        "▁petersburg'",
        -7.304040164310216
      ],
      [
        "lma",
        -8.741242430471948
      ],
      [
        "▁kalı",
        -9.201726529492724
      ],
      [
        "▁gece",
        -5.84717434541588
      ],
      [
        "▁d",
        -5.706696958748632
      ],
      [
        "▁otur",
        -7.588990628859042
      ],
      [
        "▁tesisin",
        -7.8586944245824375
      ],
      [
        "▁dur",
        -9.111472022848499
      ],
      [
        "▁olustur",
        -8.07896675734811
      ],
      [
        "▁kaba",
        -9.273666256085534
      ],
      [
        "amıyor",
        -7.748780262825657
      ],
      [
        "yin",
        -7.7743295831337464
      ],
      [
        "▁sise",
        -9.12958060839081
      ],
      [
        "▁demir",
        -7.6567206709357265
      ],
      [
        ".",
        -11.199601737652316
      ],
      [
        "imle",
        -6.450893072098282
      ],
      [
        "▁odeme",
        -8.121320862103763
      ],
      [
        "▁ov",
        -9.046789757699507
      ],
      [
        "▁donem",
        -8.23218817974308
      ],
      [
        "▁birim",
        -8.247772827388154
      ],
      [
        "▁g",
        -8.577436937545238
      ],
      [
        "▁dogu",
        -7.25157591248745
      ],
      [
        "▁gel",
        -7.453208717310507
      ],
      [
        "▁corp.",
        -6.479253463719356
      ],
      [
        "▁do",
        -7.848733775767458
      ],
      [
        "▁olanakları",
        -9.263079746913636
      ],
      [
        "d",
        -4.831539974861214
      ],
      [
        "met",
        -8.003927957192406
      ],
      [
        "▁dogru",
        -8.579498129888696
      ],
      [
        "▁oakland'da",
        -6.9603477511028204
      ],
      [
        "▁ust",
        -6.979559511536277
      ],
      [
        "le",
        -6.583884578116383
      ],
      [
        "▁hari",
        -7.328087744680283
      ],
      [
        "ve",
        -6.34156215292432
      ],
      [
        "▁ihtiyac",
        -8.107926473267032
      ],
      [
        "lamak",
        -8.361522919722969
      ],
      [
        "-",
        -5.222901331865919
      ],
      [
        "▁alamadi",
        -7.203692840512409
      ],
      [
        "▁yavas",
        -7.42590430231164
      ],
      [
        "▁onunde",
        -7.903428584640306
      ],
      [
        "lasma",
        -8.499340675195468
      ],
      [
        "ler",
        -4.863815379969876
      ],
      [
        "▁mes",
        -7.820418235783701
      ],
      [
        "▁sanat",
        -7.859077525108997
      ],
      [
        "▁fiyatları",
        -7.681682446469251
      ],
      [
        "▁mekan",
        -9.160400396420668
      ],
      [
        "▁ekmek",
        -8.276728176742061
      ],
      [
        "▁omru",
        -9.210798960761712
      ],
      [
        "▁dusman",
        -8.538874282637629
      ],
      [
        "r",
        -4.059466234863722
      ],
      [
        "▁az",
        -6.047843659493168
      ],
      [
        "▁hem",
        -7.1543483918530395
      ],
      [
        "▁odalari",
        -8.74331948037658
      ],
      [
        "▁kitaplar",
        -9.173931524117677
      ],
      [
        "▁kahvalti",
        -8.77533739796889
      ],
      [
        "m",
        -5.873443252499983
      ],
      [
        "iz",
        -6.512478652804723
      ],
      [
        "▁v",
        -7.559194923527462
      ],
      [
        "▁york",
        -5.743778545021385
      ],
      [
        "▁21",
        -6.150409216274106
      ],
      [
        "▁buluna",
        -7.6183772988797305
      ],
      [
        "ten",
        -6.553232975528684
      ],
      [
        "▁seviye",
        -8.73932064363613
      ],
      [
        "▁ucu",
        -5.928380103362834
      ],
      [
        "tı",
        -7.286754014926739
      ],
      [
        "▁laf",
        -8.570245014276505
      ],
      [
        "▁yanlıs",
        -7.167249857989958
      ],
      [
        "di",
        -3.9801705757324353
      ],
      [
        "▁bedel",
        -9.239291552950863
      ],
      [
        "▁kasıgı",
        -8.800896539829171
      ],
      [
        "▁yer",
        -7.128962358310176
      ],
      [
        "gın",
        -7.655061505047966
      ],
      [
        "lesme",
        -9.08983980381352
      ],
      [
        "▁de",
        -4.7753992930642415
      ],
      [
        "▁sessiz",
        -7.407287642389942
      ],
      [
        "a",
        -6.240650828353713
      ],
      [
        "▁cocuk",
        -6.9736045559350615
      ],
      [
        "nin",
        -5.555015513951929
      ],
      [
        "▁saglam",
        -7.5027649068518185
      ],
      [
        "▁sehir",
        -7.448332714366599
      ],
      [
        "▁yardımcısı",
        -8.693668710495817
      ],
      [
        "de",
        -5.3119117464301135
      ],
      [
        "kte",
        -7.35037593173012
      ],
      [
        "erken",
        -6.4253651959846225
      ],
      [
        "9'",
        -8.869565420437969
      ],
      [
        "▁sorunu",
        -8.221384715857418
      ],
      [
        "us",
        -7.129492147559895
      ],
      [
        "–",
        -12.802702672349787
      ],
      [
        "ıdır",
        -7.622500543399493
      ],
      [
        "▁pe",
        -8.332465678184999
      ],
      [
        "▁guzeldi",
        -4.630986174993107
      ],
      [
        "▁yon",
        -7.340045931705189
      ],
      [
        "▁yontem",
        -9.085879745698636
      ],
      [
        "▁orta",
        -6.335666513927516
      ],
      [
        "m",
        -6.995862214619031
      ],
      [
        "tur",
        -8.75190539394919
      ],
      [
        "▁arasında",
        -6.496088042795415
      ],
      [
        "▁8",
        -5.673436706926548
      ],
      [
        "e",
        -3.96344570609239
      ],
      [
        "▁faaliyet",
        -7.8828173986838665
      ],
      [
        "▁he",
        -8.274399093095273
      ],
      [
        "ydı",
        -7.499194122890556
      ],
      [
        "en",
        -3.774149274510564
      ],
      [
        "le",
        -5.4601027747989495
      ],
      [
        "siz",
        -9.096035924364287
      ],
      [
        "le",
        -5.4507944445883245
      ],
      [
        "▁bes",
        -4.200467720609225
      ],
      [
        "ndaki",
        -7.2802309745193075
      ],
      [
        "▁koca",
        -8.998415110348388
      ],
      [
        "▁aktarma",
        -6.126800701893155
      ],
      [
        "i",
        -4.217228476181476
      ],
      [
        "ı",
        -6.060610007727377
      ],
      [
        "▁havaalanında",
        -9.276282094751783
      ],
      [
        "▁icin",
        -8.2977333032575
      ],
      [
        "sal",
        -9.255149021009696
      ],
      [
        "ca",
        -4.628700976346801
      ],
      [
        "▁girme",
        -9.23274771015684
      ],
      [
        "et",
        -7.090292049428994
      ],
      [
        "▁tarife",
        -8.90331078122363
      ],
      [
        "▁gencler",
        -9.279488363856698
      ],
      [
        "▁sag",
        -8.159775245814801
      ],
      [
        "arası",
        -7.808924049151564
      ],
      [
        "▁gerekir",
        -7.705429791453389
      ],
      [
        "▁ucag",
        -8.484468683830647
      ],
      [
        "meyi",
        -8.718690274907857
      ],
      [
        "▁merak",
        -8.364172958438992
      ],
      [
        ";",
        -5.873728944142089
      ],
      [
        "sında",
        -6.670458369798463
      ],
      [
        "▁yi",
        -7.627729954608208
      ],
      [
        "ya",
        -3.9445221214366635
      ],
      [
        "▁yolunu",
        -9.081206370930854
      ],
      [
        "▁cıkmıs",
        -7.782554533359185
      ],
      [
        "▁maas",
        -9.100881546508331
      ],
      [
        "▁toprak",
        -8.205463138912982
      ],
      [
        "▁gogsu",
        -9.138283654046898
      ],
      [
        "sin",
        -6.340962197661855
      ],
      [
        "yor",
        -7.995124121418993
      ],
      [
        "▁verme",
        -8.094993601400304
      ],
      [
        "▁dusme",
        -9.1011428027729
      ],
      [
        "▁biliyor",
        -7.911963855297829
      ],
      [
        "mızı",
        -8.107002797545443
      ],
      [
        "▁insanın",
        -8.188735052740972
      ],
      [
        "▁cin",
        -7.22885038716025
      ],
      [
        "makta",
        -7.345754464848871
      ],
      [
        "▁ailesi",
        -8.915922646153582
      ],
      [
        "▁sahi",
        -9.041626564248634
      ],
      [
        "▁kadar",
        -8.75002736138481
      ],
      [
        "▁lu",
        -6.665428194656309
      ],
      [
        "▁yarı",
        -6.426040342926011
      ],
      [
        "—",
        -12.802702672349787
      ],
      [
        "sik",
        -7.354613352668875
      ],
      [
        "fi",
        -11.266950760798968
      ],
      [
        "de",
        -5.846327743756247
      ],
      [
        "siniz",
        -6.766674330877776
      ],
      [
        "mekte",
        -7.881639351950346
      ],
      [
        "▁kurban",
        -9.184685457130168
      ],
      [
        "▁piyasada",
        -9.075641606379179
      ],
      [
        "▁turku",
        -8.87925561994082
      ],
      [
        "▁tesekkur",
        -7.758877076392358
      ],
      [
        "▁gelmedi",
        -7.951684112083364
      ],
      [
        "egi",
        -6.7349244106122175
      ],
      [
        "▁far",
        -9.237470457815345
      ],
      [
        "▁indi",
        -7.774694128208652
      ],
      [
        "ar",
        -7.1936499272491
      ],
      [
        "▁lira",
        -8.051853214514368
      ],
      [
        "miyor",
        -7.178507051513511
      ],
      [
        "▁zor",
        -6.463347752302095
      ],
      [
        "▁borsa",
        -8.147457900007362
      ],
      [
        "aj",
        -8.49099087203826
      ],
      [
        "p",
        -6.6111150350837455
      ],
      [
        ",",
        -9.265553377849141
      ],
      [
        "▁sene",
        -7.6499458426001645
      ],
      [
        "▁belir",
        -7.01863760235201
      ],
      [
        "▁dost",
        -8.46748239616879
      ],
      [
        "ıyor",
        -5.643997863581515
      ],
      [
        "▁yavas",
        -6.867619120627829
      ],
      [
        "▁se",
        -8.004752904382748
      ],
      [
        "▁sık",
        -7.878130396083801
      ],
      [
        "te",
        -7.467968447315105
      ],
      [
        "▁seyin",
        -9.117802402083788
      ],
      [
        "▁bile",
        -4.691592204789792
      ],
      [
        "▁enerji",
        -8.637907774520585
      ],
      [
        "▁ugra",
        -9.085655235980976
      ],
      [
        "▁so",
        -8.875551046507395
      ],
      [
        "▁bo",
        -7.62776982190512
      ],
      [
        "sa",
        -7.160680658657614
      ],
      [
        "▁dondu",
        -7.290695514464782
      ],
      [
        "ki",
        -7.374134809775946
      ],
      [
        "▁sizin",
        -5.649030984391743
      ],
      [
        "▁yıl",
        -6.255535948261343
      ],
      [
        "▁motor",
        -8.837217332025979
      ],
      [
        "▁ti",
        -3.9155890831001203
      ],
      [
        "▁ku",
        -7.931067311392218
      ],
      [
        "▁yan",
        -6.841621921503299
      ],
      [
        "▁grubu",
        -8.485632841951134
      ],
      [
        "▁sen",
        -4.319077519014069
      ],
      [
        "▁bugun",
        -7.690856160753175
      ],
      [
        "il",
        -7.4285698011536105
      ],
      [
        "▁huzur",
        -9.062360409340307
      ],
      [
        "st",
        -7.170536047209313
      ],
      [
        "▁degillerdi",
        -5.210354841089645
      ],
      [
        "cak",
        -6.864813269639653
      ],
      [
        "▁meger",
        -8.017094335820264
      ],
      [
        "▁cap",
        -8.733144237327462
      ],
      [
        "▁cıkma",
        -8.902886974975571
      ],
      [
        "▁varan",
        -6.419116016399142
      ],
      [
        "ize",
        -8.695382764880215
      ],
      [
        "▁yasamadi",
        -7.979538720728433
      ],
      [
        "▁eyalet",
        -8.766081029022734
      ],
      [
        "▁olmadıgını",
        -8.513050283750847
      ],
      [
        "al",
        -7.273703626204867
      ],
      [
        "▁calısıyor",
        -7.337653964628107
      ],
      [
        "▁asker",
        -7.437648623430061
      ],
      [
        "▁seklin",
        -8.87513507591423
      ],
      [
        "ra",
        -4.169188514330974
      ],
      [
        "▁fazla",
        -5.48186363795423
      ],
      [
        "▁kucuktu",
        -6.894144608050934
      ],
      [
        "▁savası",
        -9.090028794669538
      ],
      [
        "▁agustos'ta",
        -7.1304178910254
      ],
      [
        "▁er",
        -8.169414204427131
      ],
      [
        "▁ince",
        -6.467898641546867
      ],
      [
        "lı",
        -4.179489208729116
      ],
      [
        "▁hakkında",
        -8.527259240576434
      ],
      [
        "▁m",
        -6.381337525489952
      ],
      [
        "▁k",
        -6.793351251023835
      ],
      [
        "▁ca",
        -8.064137103002135
      ],
      [
        "ledi",
        -7.8971608415441334
      ],
      [
        "mıs",
        -5.50871196069714
      ],
      [
        "▁lutfe",
        -5.273672835575321
      ],
      [
        "▁yapacak",
        -7.563194361098923
      ],
      [
        "larda",
        -6.625079208474298
      ],
      [
        "▁sanayi",
        -8.623052893184393
      ],
      [
        "yu",
        -7.242836502318115
      ],
      [
        "▁dedi",
        -5.147536252652197
      ],
      [
        "ga",
        -6.992695622390459
      ],
      [
        "a",
        -3.587729836288509
      ],
      [
        "ız",
        -7.001641147019307
      ],
      [
        "▁alanda",
        -9.243808387749793
      ],
      [
        "▁deneme",
        -8.836958739599474
      ],
      [
        "t",
        -6.226145392739567
      ],
      [
        "▁gelin",
        -9.039343277420384
      ],
      [
        "▁26",
        -6.241788422066687
      ],
      [
        "▁parmak",
        -8.822076356974026
      ],
      [
        "▁sonra",
        -4.483960125414106
      ],
      [
        "▁eg",
        -8.929253604051109
      ],
      [
        "▁nası",
        -7.632978901032291
      ],
      [
        "▁kıyı",
        -8.68984357944091
      ],
      [
        "liydi",
        -6.095838839311535
      ],
      [
        "▁yo",
        -5.081569992204334
      ],
      [
        "▁faturam",
        -8.395516010479902
      ],
      [
        "▁genel",
        -8.625343237638043
      ],
      [
        "▁ham",
        -8.594745056678725
      ],
      [
        "d",
        -2.461972935010672
      ],
      [
        "ze",
        -7.710205211172293
      ],
      [
        "▁odul",
        -9.159017616483176
      ],
      [
        "▁tur",
        -6.792881010240528
      ],
      [
        "ri",
        -7.143230932338277
      ],
      [
        "▁yaz",
        -7.906160392763469
      ],
      [
        "ken",
        -6.060788260110395
      ],
      [
        "▁firma",
        -8.284668514761584
      ],
      [
        "▁mulk",
        -9.206345531223525
      ],
      [
        "▁yerin",
        -7.944938570128121
      ],
      [
        "▁borcu",
        -9.221761599778555
      ],
      [
        "mde",
        -8.479789624774066
      ],
      [
        "▁buz",
        -9.00495569120236
      ],
      [
        "▁ankara",
        -7.380548858337815
      ],
      [
        "▁tehlike",
        -8.74913123487551
      ],
      [
        "▁guleryuzluydu",
        -7.543874085415274
      ],
      [
        "▁ilk",
        -6.030188554215659
      ],
      [
        "▁kampanyalar",
        -9.022739385613677
      ],
      [
        "▁erte",
        -7.655660382665401
      ],
      [
        "▁gelmis",
        -7.341935989440992
      ],
      [
        "▁orlando'",
        -6.981348912655068
      ],
      [
        "et",
        -7.3339266933904135
      ],
      [
        "acak",
        -6.006877031679005
      ],
      [
        "▁ot",
        -8.913591539383406
      ],
      [
        "acagı",
        -7.579074694701324
      ],
      [
        "▁ilac",
        -8.205627064438048
      ],
      [
        "▁3\\/",
        -6.515098788460735
      ],
      [
        "▁ulastı",
        -7.5370992592470465
      ],
      [
        "▁car",
        -8.178771182452952
      ],
      [
        "▁goruyor",
        -7.664053340645318
      ],
      [
        "maları",
        -7.916852918228409
      ],
      [
        "u",
        -5.292154325772746
      ],
      [
        "▁kongre",
        -8.766081313591656
      ],
      [
        "▁ki",
        -8.70913119721381
      ],
      [
        "ya",
        -5.19524558231185
      ],
      [
        "▁hizmeti",
        -7.680368071402715
      ],
      [
        "▁nerede",
        -7.3722393738330165
      ],
      [
        "▁personellerin",
        -8.789055907984848
      ],
      [
        "0'",
        -8.236534478047009
      ],
      [
        "▁",
        -4.452086336907837
      ],
      [
        "▁istanbul",
        -6.9167515459812785
      ],
      [
        "▁rolu",
        -9.246117151596103
      ],
      [
        "5",
        -4.119712900869135
      ],
      [
        "▁bilir",
        -7.671187875550568
      ],
      [
        "sizligi",
        -8.940442613533685
      ],
      [
        "▁dudakları",
        -9.184508762100858
      ],
      [
        "▁sorusturma",
        -9.184432852639185
      ],
      [
        "▁bunu",
        -4.07572431406977
      ],
      [
        "▁twa",
        -7.448518005463473
      ],
      [
        "▁es",
        -7.7496457909165235
      ],
      [
        "▁konusunda",
        -7.408570875291092
      ],
      [
        "▁derecede",
        -9.196860673201932
      ],
      [
        "gil",
        -7.604654609424276
      ],
      [
        "▁gosterge",
        -9.238060240613528
      ],
      [
        "ecegi",
        -7.881106460152883
      ],
      [
        "tti",
        -8.068161168248572
      ],
      [
        "▁eylem",
        -8.716161380094242
      ],
      [
        "▁ha",
        -7.961710782505898
      ],
      [
        "▁zayıf",
        -7.356978041362084
      ],
      [
        "▁o",
        -7.333281361165728
      ],
      [
        "▁kat",
        -8.046637744196342
      ],
      [
        "▁para",
        -6.391828780208307
      ],
      [
        "▁cocugu",
        -8.560560134201289
      ],
      [
        "c",
        -7.2183141205423
      ],
      [
        "▁yanında",
        -8.65270997824419
      ],
      [
        "maz",
        -7.054987964716516
      ],
      [
        "▁kes",
        -7.9754174227520505
      ],
      [
        "▁saglık",
        -8.41304073944503
      ],
      [
        "▁hisselerini",
        -9.27179638974372
      ],
      [
        "▁kurulus",
        -8.878754796596278
      ],
      [
        "▁fayda",
        -8.89352324865228
      ],
      [
        "▁ar",
        -7.45403532020468
      ],
      [
        "▁yasama",
        -9.02669774568979
      ],
      [
        "tan",
        -6.801378734189973
      ],
      [
        "lan",
        -7.701489567941591
      ],
      [
        "▁uygulama",
        -8.446858771174533
      ],
      [
        "▁gorusuldu",
        -5.6858929814905395
      ],
      [
        "mus",
        -8.945075204409722
      ],
      [
        "▁olacak",
        -7.742659423655229
      ],
      [
        "i",
        -5.1862327253366844
      ],
      [
        "▁continental",
        -6.636089344245021
      ],
      [
        "▁ucreti",
        -7.6937481226066655
      ],
      [
        "▁lynch",
        -7.514546062729352
      ],
      [
        "▁arastırma",
        -8.482698920007923
      ],
      [
        "▁eski",
        -5.743149156840834
      ],
      [
        "ı",
        -6.29015103576089
      ],
      [
        "▁yeme",
        -8.498486487362069
      ],
      [
        "▁amerika",
        -7.597198809842752
      ],
      [
        "da",
        -6.7086823028934255
      ],
      [
        "▁boyun",
        -8.973227801891834
      ],
      [
        "▁ayna",
        -8.772012932471348
      ],
      [
        "n",
        -2.4853475738798307
      ],
      [
        "ber",
        -6.673340093541525
      ],
      [
        "▁karıs",
        -9.052026800897522
      ],
      [
        "▁domates",
        -9.294125748215125
      ],
      [
        "▁kenar",
        -8.53889699064589
      ],
      [
        "▁ortasında",
        -9.096513056816823
      ],
      [
        "▁ulasımı",
        -8.245641228232966
      ],
      [
        "liginde",
        -9.127602257288933
      ],
      [
        "▁tesiste",
        -8.736878218116043
      ],
      [
        "▁dısında",
        -8.366528083720443
      ],
      [
        "a",
        -3.8394838638049187
      ],
      [
        "▁diy",
        -7.710908365679891
      ],
      [
        "▁yapma",
        -7.883864508205909
      ],
      [
        "▁durdu",
        -7.466819713427254
      ],
      [
        "▁ikisi",
        -8.90801684654011
      ],
      [
        "▁futbol",
        -8.973189336932444
      ],
      [
        "▁ge",
        -6.8116027363371705
      ],
      [
        "▁uye",
        -8.607398341888995
      ],
      [
        "▁ara",
        -7.473880150615125
      ],
      [
        "▁altın",
        -7.788058523667841
      ],
      [
        "▁olmasi",
        -8.209256969249356
      ],
      [
        "▁istanbul'u",
        -7.504583998545305
      ],
      [
        "▁damak",
        -8.923189488888688
      ],
      [
        "▁halde",
        -7.9212780825107245
      ],
      [
        "o",
        -7.846631717898696
      ],
      [
        "▁degildi",
        -2.1591214805820806
      ],
      [
        "gibi",
        -6.566016267340741
      ],
      [
        "▁bulun",
        -6.850638446731321
      ],
      [
        "▁ayında",
        -7.798937898634799
      ],
      [
        "▁memur",
        -8.434679523331665
      ],
      [
        "siniz",
        -5.458119837635438
      ],
      [
        "▁baltimore'de",
        -5.972450229599645
      ],
      [
        "erek",
        -6.4781876500695335
      ],
      [
        "▁darbe",
        -8.874817040324377
      ],
      [
        "▁cin",
        -9.161046873208308
      ],
      [
        "▁bile",
        -7.45829067570819
      ],
      [
        "▁ruh",
        -8.791549868999539
      ],
      [
        "▁ote",
        -8.702898349399744
      ],
      [
        "▁sesleri",
        -9.137137495180692
      ],
      [
        "▁kafa",
        -7.696498675686494
      ],
      [
        "▁anladı",
        -7.9845525830347155
      ],
      [
        "▁kole",
        -9.254304697662715
      ],
      [
        "▁dogum",
        -9.245881964703484
      ],
      [
        "b",
        -7.787526154383432
      ],
      [
        "da",
        -4.996774832265106
      ],
      [
        "▁elleri",
        -8.545256920295468
      ],
      [
        "▁bilme",
        -8.629309475141248
      ],
      [
        "▁sektor",
        -8.680257250515933
      ],
      [
        "▁b",
        -6.181687063550272
      ],
      [
        "em",
        -7.405984961836628
      ],
      [
        "▁yaptıgı",
        -7.892483926859915
      ],
      [
        "▁basta",
        -9.092386941057107
      ],
      [
        "▁pazartesi",
        -8.97442453118505
      ],
      [
        "▁konut",
        -8.79833904973201
      ],
      [
        "▁el",
        -7.037137643870452
      ],
      [
        "▁varlıgı",
        -9.043816604215179
      ],
      [
        "di",
        -10.231009713513307
      ],
      [
        "▁mahkeme",
        -8.10721007326411
      ],
      [
        "▁avukat",
        -8.539734276885845
      ],
      [
        "▁boston'",
        -6.104671276309122
      ],
      [
        "▁taksi",
        -8.910186564666272
      ],
      [
        "▁taze",
        -7.740657844534185
      ],
      [
        "▁ileri",
        -8.961572978147919
      ],
      [
        "▁te",
        -7.803869360887147
      ],
      [
        "▁ko",
        -7.437802104915978
      ],
      [
        "▁aile",
        -7.166158961289618
      ],
      [
        "mesini",
        -7.708997528672882
      ],
      [
        "▁kullanma",
        -9.256323471708193
      ],
      [
        "▁verim",
        -8.607822057907137
      ],
      [
        "o",
        -7.86482220142318
      ],
      [
        "▁kayıt",
        -9.017543126666531
      ],
      [
        "icin",
        -7.37606402349094
      ],
      [
        "lemek",
        -8.461011517180818
      ],
      [
        "nizi",
        -9.04258842201665
      ],
      [
        "▁idare",
        -8.363493500731108
      ],
      [
        "li",
        -7.25093721435945
      ],
      [
        "▁veya",
        -4.768733796629289
      ],
      [
        "at",
        -6.814759355266659
      ],
      [
        "▁aldi",
        -8.098343313502959
      ],
      [
        "▁yoneticileri",
        -8.96506247283475
      ],
      [
        "▁gider",
        -8.974676257960219
      ],
      [
        "▁yesil",
        -7.087950345497538
      ],
      [
        "▁mektup",
        -8.78332165715451
      ],
      [
        "▁miami'de",
        -7.424221993532768
      ],
      [
        "cısı",
        -9.184441425369188
      ],
      [
        "▁tesis",
        -6.616020582163001
      ],
      [
        "▁reklam",
        -7.889916414067815
      ],
      [
        "▁tut",
        -8.524278978569665
      ],
      [
        "▁kum",
        -8.380981464512121
      ],
      [
        "▁duy",
        -7.947449747263442
      ],
      [
        "tu",
        -7.344764118056694
      ],
      [
        "▁yapmak",
        -7.782968235270767
      ],
      [
        "▁su",
        -6.019620521653812
      ],
      [
        "▁gunlerde",
        -8.831400986102873
      ],
      [
        "▁sehrin",
        -8.618774669483278
      ],
      [
        "▁bi",
        -4.970497081628543
      ],
      [
        "e",
        -5.432312471123907
      ],
      [
        "▁his",
        -9.16259210813107
      ],
      [
        "▁restoran",
        -8.893521646008914
      ],
      [
        "▁um",
        -9.090623721839641
      ],
      [
        "▁yapil",
        -8.089569695231289
      ],
      [
        "▁sup",
        -7.39327325865813
      ],
      [
        "▁a",
        -7.758707966971643
      ],
      [
        "▁fe",
        -8.085017590892972
      ],
      [
        "▁gelen",
        -7.18416800202182
      ],
      [
        "▁adamı",
        -8.794112316599366
      ],
      [
        "▁du",
        -3.325300845033725
      ],
      [
        "▁calisanlar",
        -8.542772132300328
      ],
      [
        "▁uretim",
        -8.468395923912354
      ],
      [
        "▁icecekler",
        -8.867833813999916
      ],
      [
        "lıkla",
        -8.990837559406026
      ],
      [
        "kalan",
        -7.808471192159594
      ],
      [
        "▁he",
        -6.338240779722565
      ],
      [
        "▁ge",
        -8.062797351818144
      ],
      [
        "▁bunlarda",
        -6.246440461648687
      ],
      [
        "in",
        -6.278286602072059
      ],
      [
        "▁2",
        -4.210742886992677
      ],
      [
        "▁gormedi",
        -7.322160367317579
      ],
      [
        "▁takip",
        -8.511018959224621
      ],
      [
        "▁b",
        -6.642359555692694
      ],
      [
        "▁kor",
        -8.61770112132959
      ],
      [
        "on",
        -7.7850315464718
      ],
      [
        "▁birden",
        -5.965201419918159
      ],
      [
        "▁havayolu",
        -8.48483442699644
      ],
      [
        "▁var",
        -7.1543955785312185
      ],
      [
        "▁inc.",
        -6.659868159853871
      ],
      [
        "▁amca",
        -9.110473069480587
      ],
      [
        "yla",
        -6.345405882191227
      ],
      [
        "▁olması",
        -8.526793766343044
      ],
      [
        "▁gel",
        -6.9516563187098095
      ],
      [
        "la",
        -6.087479352776021
      ],
      [
        "▁asırı",
        -7.302981888880951
      ],
      [
        "▁aynı",
        -5.639034292821123
      ],
      [
        "ili",
        -6.820299547520811
      ],
      [
        "▁ustu",
        -8.269791036819706
      ],
      [
        "/",
        -9.08559172398254
      ],
      [
        "▁demek",
        -7.7193607297034
      ],
      [
        "▁girer",
        -8.08580220197018
      ],
      [
        "mızda",
        -9.236476505337485
      ],
      [
        "man",
        -6.537557066055139
      ],
      [
        "▁cocugun",
        -8.890360973708741
      ],
      [
        "▁gokyuzu",
        -9.294126168229958
      ],
      [
        "me",
        -6.409316492332664
      ],
      [
        "▁cagrı",
        -9.21081780500289
      ],
      [
        "▁konus",
        -7.162879927215088
      ],
      [
        "▁havada",
        -9.144015767280875
      ],
      [
        "▁abd",
        -5.830124321443024
      ],
      [
        "mamıs",
        -7.914135919214582
      ],
      [
        "▁eylul",
        -7.394419531915343
      ],
      [
        "▁burnu",
        -8.95272391169828
      ],
      [
        "lu",
        -7.066717717642606
      ],
      [
        "▁olan",
        -4.2921883242688
      ],
      [
        "▁hic",
        -4.7912109296688214
      ],
      [
        "▁persembe",
        -8.121091191049143
      ],
      [
        "t",
        -5.211446740624953
      ],
      [
        "▁isci",
        -8.600063799706039
      ],
      [
        "▁tamam",
        -8.837054819759194
      ],
      [
        "▁toronto'da",
        -7.249878365729787
      ],
      [
        "▁begenmedi",
        -7.132388073058136
      ],
      [
        "▁milyon",
        -3.278490722863072
      ],
      [
        "▁hep",
        -5.352880005653416
      ],
      [
        "h",
        -6.8306572091775175
      ],
      [
        "▁kok",
        -9.107472215666995
      ],
      [
        "▁rahat",
        -6.598936599412326
      ],
      [
        "▁fiyat",
        -6.61070342285689
      ],
      [
        "▁serbest",
        -7.7855544090868145
      ],
      [
        "▁puan",
        -6.262954799629098
      ],
      [
        "▁yarın",
        -7.948401929099037
      ],
      [
        "▁an",
        -7.159761114053557
      ],
      [
        "▁guven",
        -7.71859590223306
      ],
      [
        "▁bu",
        -3.2839112180953753
      ],
      [
        "▁bin",
        -4.672987243887961
      ],
      [
        "▁p",
        -7.133818923010829
      ],
      [
        "▁ticaret",
        -7.990683195482985
      ],
      [
        "▁bil",
        -7.473804743863046
      ],
      [
        "▁yedi",
        -7.992579213624683
      ],
      [
        "▁yakın",
        -8.623037748176728
      ],
      [
        "cisin",
        -8.720310916178637
      ],
      [
        "▁alın",
        -9.109537906635245
      ],
      [
        "▁mut",
        -6.86000198530958
      ],
      [
        "▁imkanlari",
        -8.33005427854583
      ],
      [
        "imizi",
        -8.788285433918693
      ],
      [
        "▁mis",
        -9.22401282547305
      ],
      [
        "▁yıla",
        -9.119364016889838
      ],
      [
        "e",
        -3.9469061176939926
      ],
      [
        "▁newark'",
        -7.495982024670114
      ],
      [
        "▁cek",
        -7.436743750063714
      ],
      [
        "▁oakland",
        -6.814299663000338
      ],
      [
        "sın",
        -6.317591010097858
      ],
      [
        "▁oncesi",
        -9.162022410540594
      ],
      [
        "uyordu",
        -7.550734935848448
      ],
      [
        "▁ka",
        -7.660450375569743
      ],
      [
        "kten",
        -7.8655769066434535
      ],
      [
        "▁sayfa",
        -8.933172457500548
      ],
      [
        "▁",
        -1.722964280954951
      ],
      [
        "▁ufak",
        -7.162718604082719
      ],
      [
        "▁bun",
        -4.95641735510991
      ],
      [
        "ın",
        -6.7312853396327315
      ],
      [
        "▁oysa",
        -7.627516959748585
      ],
      [
        "▁temmuz",
        -9.265563349881607
      ],
      [
        "▁sık",
        -6.294492815396526
      ],
      [
        "ciler",
        -8.080741300946546
      ],
      [
        "▁dır",
        -4.287573368195668
      ],
      [
        "ce",
        -4.295820816962568
      ],
      [
        "▁sat",
        -8.401317802739229
      ],
      [
        "▁duruyor",
        -7.461726621973796
      ],
      [
        "lerimi",
        -8.923182469167552
      ],
      [
        "▁sezon",
        -9.062383351642804
      ],
      [
        "▁aldı",
        -6.002072530117039
      ],
      [
        "▁dakika",
        -8.06049161488329
      ],
      [
        "▁veri",
        -8.496369476912108
      ],
      [
        "▁kal",
        -7.840914947774618
      ],
      [
        "▁fort",
        -6.84110215969744
      ],
      [
        "'ı",
        -6.960069597638902
      ],
      [
        "▁yap",
        -8.551017430370143
      ],
      [
        "▁terk",
        -8.925479396283999
      ],
      [
        "▁amacı",
        -9.059178680588767
      ],
      [
        "▁baltimore'",
        -5.751682625962839
      ],
      [
        "▁degerlendirir",
        -8.056085541481629
      ],
      [
        "la",
        -5.34346133651821
      ],
      [
        "ul",
        -7.27796594008921
      ],
      [
        "▁oyun",
        -7.9433345735129866
      ],
      [
        "lendirme",
        -8.65264321479412
      ],
      [
        "▁okuma",
        -8.953988810237421
      ],
      [
        "kar",
        -7.939901909319218
      ],
      [
        "▁evvel",
        -7.64205734534819
      ],
      [
        "▁yag",
        -8.821429509433102
      ],
      [
        "▁temmuz'da",
        -7.1520440770625395
      ],
      [
        "meger",
        -11.466125186009307
      ],
      [
        "▁herkes",
        -7.998984443599798
      ],
      [
        "▁ocak",
        -8.749251923508027
      ],
      [
        "▁sorun",
        -7.36548215135218
      ],
      [
        "▁kolay",
        -6.783379381522581
      ],
      [
        "▁erkekler",
        -9.173384697825504
      ],
      [
        "▁coktan",
        -7.3459526941433975
      ],
      [
        "▁keskin",
        -7.6564117203846145
      ],
      [
        "nik",
        -7.6851131128068655
      ],
      [
        "▁bo",
        -7.415771418175041
      ],
      [
        "▁urun",
        -8.664135397417573
      ],
      [
        "▁cogu",
        -6.224369063045475
      ],
      [
        "▁merkezin",
        -8.600576007573391
      ],
      [
        "veya",
        -7.07356391847621
      ],
      [
        "▁sayı",
        -7.898215512671116
      ],
      [
        "birli",
        -7.476480969195897
      ],
      [
        "▁siir",
        -8.266705564413718
      ],
      [
        "al",
        -6.09878474258122
      ],
      [
        "▁halk",
        -8.091570517722253
      ],
      [
        "▁etmedi",
        -7.691717767590749
      ],
      [
        "▁radyo",
        -8.855919137372886
      ],
      [
        "▁danısma",
        -8.951384659470335
      ],
      [
        "dugunu",
        -8.493669056327576
      ],
      [
        "▁kumas",
        -8.540755874889005
      ],
      [
        "▁5",
        -4.229060776087967
      ],
      [
        "▁mukemmeldi",
        -7.583878826501949
      ],
      [
        "▁seyi",
        -8.096808847356328
      ],
      [
        "▁camasır",
        -9.10940864001229
      ],
      [
        "▁onu",
        -3.8180555155698697
      ],
      [
        "▁etraf",
        -8.94604881667998
      ],
      [
        "▁otuz",
        -5.90962280616334
      ],
      [
        "▁girdi",
        -7.08717183924109
      ],
      [
        "ları",
        -4.844690583575208
      ],
      [
        "ır",
        -7.484614449917035
      ],
      [
        "yin",
        -5.784995693197711
      ],
      [
        "sı",
        -7.915339366721517
      ],
      [
        "▁karsısında",
        -8.188729380027178
      ],
      [
        "▁international",
        -7.146804557243788
      ],
      [
        "▁karsı",
        -4.835443352689402
      ],
      [
        "▁yılında",
        -7.961096711580863
      ],
      [
        "▁zamanı",
        -8.820859025978951
      ],
      [
        "e",
        -5.7488116152677025
      ],
      [
        "▁komisyonlar",
        -9.285042121196643
      ],
      [
        "▁olmadı",
        -7.96913798943342
      ],
      [
        "▁gunleri",
        -8.675447701639182
      ],
      [
        "he",
        -9.640744780901306
      ],
      [
        "n",
        -3.1048016047906435
      ],
      [
        "▁cocuklu",
        -6.314130727350257
      ],
      [
        "▁alan",
        -7.8129806096875125
      ],
      [
        "lu",
        -5.1210618574198765
      ],
      [
        "u",
        -5.3681920564335766
      ],
      [
        "iyl",
        -7.505604821556474
      ],
      [
        "▁neden",
        -7.877552953613556
      ],
      [
        "x",
        -6.823697608475182
      ],
      [
        "▁dısı",
        -8.62111842629671
      ],
      [
        "▁ed",
        -8.127001380216779
      ],
      [
        "r",
        -2.8894423049085054
      ],
      [
        "▁sonuclar",
        -9.019147457246484
      ],
      [
        "ladı",
        -7.227434632502908
      ],
      [
        "▁peynir",
        -8.593783877604954
      ],
      [
        "▁borsası",
        -8.192722778965702
      ],
      [
        "▁raporu",
        -9.1211419486369
      ],
      [
        "▁donemi",
        -8.980651194991985
      ],
      [
        "▁temizlik",
        -7.700960763927924
      ],
      [
        "tır",
        -7.811413125997816
      ],
      [
        "'ta",
        -6.857005206098159
      ],
      [
        "▁kapandı",
        -6.6820325098326245
      ],
      [
        "▁yapmıs",
        -8.092179687870397
      ],
      [
        "'te",
        -7.098752597832924
      ],
      [
        "▁etrafında",
        -9.043773002367267
      ],
      [
        "▁adım",
        -7.861245742399232
      ],
      [
        "uyor",
        -6.75352606803786
      ],
      [
        "▁sonucu",
        -8.765607258519017
      ],
      [
        "▁oldu",
        -5.100401895661068
      ],
      [
        "▁ucretleri",
        -8.860902634295035
      ],
      [
        "▁satıcı",
        -9.062833459125251
      ],
      [
        "▁ele",
        -8.096106548706768
      ],
      [
        "▁odedigim",
        -6.710237212953605
      ],
      [
        "▁yalnız",
        -5.438889735507824
      ],
      [
        "▁",
        -1.3922668288882338
      ],
      [
        "her",
        -6.241321517692774
      ],
      [
        "▁19",
        -8.967914711770463
      ],
      [
        "cılar",
        -7.815495264906796
      ],
      [
        "▁yalnız",
        -7.33281012201264
      ],
      [
        "▁dustu",
        -6.310464317595503
      ],
      [
        "▁hafta",
        -7.127924110267621
      ],
      [
        "▁sikinti",
        -8.472014094604882
      ],
      [
        "▁oku",
        -7.939666441270406
      ],
      [
        "▁ardın",
        -7.0154321903276164
      ],
      [
        "acagın",
        -9.132429627978341
      ],
      [
        "▁yuz",
        -5.128319349560085
      ],
      [
        "▁tarz",
        -9.065450012933399
      ],
      [
        "▁uc",
        -7.615544494796797
      ],
      [
        "▁tamam",
        -6.411602014418075
      ],
      [
        "▁adı",
        -8.046364198007076
      ],
      [
        "▁birinci",
        -6.187553792563394
      ],
      [
        "▁a",
        -7.785834184111777
      ],
      [
        "▁listesini",
        -9.065662281251212
      ],
      [
        "▁toplam",
        -7.90903655082087
      ],
      [
        "▁yetkilileri",
        -8.28543967364623
      ],
      [
        "▁altında",
        -7.4558875672301195
      ],
      [
        "el",
        -6.289521863593651
      ],
      [
        "▁tı",
        -3.8255906107362634
      ],
      [
        "min",
        -7.845175447019516
      ],
      [
        "▁azın",
        -8.837291010667059
      ],
      [
        "▁calısan",
        -7.885002160875033
      ],
      [
        "mi",
        -7.30149276445611
      ],
      [
        "▁eglence",
        -8.537826126345745
      ],
      [
        "▁yaz",
        -7.5325869044958385
      ],
      [
        "dıgını",
        -8.01507250801408
      ],
      [
        "▁artısla",
        -8.031311801177289
      ],
      [
        "▁esim",
        -8.991529220220112
      ],
      [
        "▁yazma",
        -9.237037384920898
      ],
      [
        "▁bilmiyoru",
        -7.529578978086748
      ],
      [
        "▁bakım",
        -7.325904814344627
      ],
      [
        "▁ekledi",
        -7.509081774730556
      ],
      [
        "▁gul",
        -8.342044191196123
      ],
      [
        "▁grup",
        -8.449334406127335
      ],
      [
        "▁yuksel",
        -6.724838392089302
      ],
      [
        "sı",
        -5.529005867144185
      ],
      [
        "▁gol",
        -8.426356280235495
      ],
      [
        "[UNK]",
        0.0
      ],
      [
        "▁bana",
        -9.271128453504495
      ],
      [
        "▁ver",
        -8.36919186281029
      ],
      [
        "te",
        -6.233763711407226
      ],
      [
        "co",
        -4.969231820816542
      ],
      [
        "▁sure",
        -7.178789539008516
      ],
      [
        "▁doktor",
        -7.971438688806279
      ],
      [
        "mesi",
        -8.294413202413121
      ],
      [
        "▁olum",
        -8.299929850489196
      ],
      [
        "▁olacagını",
        -8.623643767059166
      ],
      [
        "9",
        -4.905248477984598
      ],
      [
        "bi",
        -7.635688365991328
      ],
      [
        "▁temizligi",
        -7.382347171589046
      ],
      [
        "▁dusus",
        -7.918933733047734
      ],
      [
        "▁chicago'",
        -7.181589550952263
      ],
      [
        "▁sebebi",
        -9.017389117301413
      ],
      [
        "ası",
        -8.185098745747753
      ],
      [
        "▁piyasa",
        -7.1762711796026935
      ],
      [
        "▁zengin",
        -7.064123754243155
      ],
      [
        "▁pek",
        -4.940017877222246
      ],
      [
        "▁fena",
        -6.968289593173502
      ],
      [
        "▁egitim",
        -8.185930873672504
      ],
      [
        "▁yayın",
        -8.2352331869764
      ],
      [
        "▁j",
        -8.547251105878008
      ],
      [
        "▁olaylar",
        -9.075747575081042
      ],
      [
        "▁kili",
        -9.187647031602262
      ],
      [
        "▁dura",
        -7.947902083681182
      ],
      [
        "lar",
        -6.7808297554731105
      ],
      [
        "▁sozleri",
        -9.166235292570601
      ],
      [
        "idir",
        -7.352771152108955
      ],
      [
        "tma",
        -8.222326810981976
      ],
      [
        "▁anda",
        -7.445487225501691
      ],
      [
        "lanma",
        -7.827998949523362
      ],
      [
        "▁annesi",
        -8.849404168180289
      ],
      [
        "▁elektrik",
        -8.668443894159804
      ],
      [
        "▁du",
        -8.268975596198025
      ],
      [
        "▁sahne",
        -8.330202546375922
      ],
      [
        "▁boston'da",
        -4.97617369373813
      ],
      [
        "▁japonya",
        -7.214234858415907
      ],
      [
        "▁ofke",
        -9.21075176479673
      ],
      [
        "▁dısarıda",
        -9.25568136066655
      ],
      [
        "▁hijyen",
        -7.882009977537454
      ],
      [
        "▁simdi",
        -8.874314003853316
      ],
      [
        "ol",
        -8.347550928255544
      ],
      [
        "▁boru",
        -9.238359462749514
      ],
      [
        "▁ic",
        -6.5122645661677705
      ],
      [
        "um",
        -7.115616408515032
      ],
      [
        "▁beklenti",
        -8.590095686939982
      ],
      [
        "meli",
        -7.425467949112281
      ],
      [
        "▁hatır",
        -9.109652374073745
      ],
      [
        "▁dallas",
        -5.916838167734813
      ],
      [
        "▁bag",
        -6.93866948753516
      ],
      [
        "gu",
        -7.113623870682109
      ],
      [
        "▁ortalama",
        -8.06556311210861
      ],
      [
        "▁ta",
        -7.1726494071156495
      ],
      [
        "▁anlattı",
        -7.673383799591574
      ],
      [
        "uru",
        -8.076158537643845
      ],
      [
        "▁destek",
        -8.446688425930937
      ],
      [
        "cıları",
        -8.593255480501105
      ],
      [
        "▁birimi",
        -9.16504840086516
      ],
      [
        "▁bul",
        -6.836640547539096
      ],
      [
        "▁olmustu",
        -7.157892964479085
      ],
      [
        "▁ogrenci",
        -8.629378093715886
      ],
      [
        "ks",
        -7.172960641244545
      ],
      [
        "▁hayatın",
        -8.786398398762048
      ],
      [
        "▁kavram",
        -9.017966594200281
      ],
      [
        "▁h",
        -5.985551101189426
      ],
      [
        "gel",
        -7.946391005262723
      ],
      [
        "lardan",
        -6.997538778630256
      ],
      [
        "▁yardımcı",
        -8.54570144388573
      ],
      [
        "▁mar",
        -8.574495621443813
      ],
      [
        "▁olum",
        -7.395749054696527
      ],
      [
        "▁yerde",
        -7.602506590309549
      ],
      [
        "▁japon",
        -7.597509065116794
      ],
      [
        "la",
        -6.132318751279013
      ],
      [
        "▁hayvan",
        -8.524342310333296
      ],
      [
        "▁guvenlik",
        -8.823162211600193
      ],
      [
        "▁degisiklikler",
        -9.013508517624524
      ],
      [
        "▁yukse",
        -5.608932655277302
      ],
      [
        "▁kara",
        -8.255001555595197
      ],
      [
        "▁sirketleri",
        -8.944784139788265
      ],
      [
        "s",
        -4.747466569578413
      ],
      [
        "eger",
        -6.978820968666628
      ],
      [
        "dik",
        -7.789608405115656
      ],
      [
        "malıdır",
        -8.068200342471094
      ],
      [
        "▁ay",
        -7.579718843763761
      ],
      [
        "▁isler",
        -8.59175210763675
      ],
      [
        "▁kisi",
        -6.944181543002639
      ],
      [
        "▁daire",
        -8.593814207237493
      ],
      [
        "▁de",
        -2.1420817504035963
      ],
      [
        "nin",
        -6.24613966020171
      ],
      [
        "▁haberi",
        -8.99398259228536
      ],
      [
        "▁sanatcı",
        -9.099549655406939
      ],
      [
        "ask",
        -5.901277785160477
      ],
      [
        "▁hasta",
        -7.390891898070392
      ],
      [
        "caba",
        -7.273779888668228
      ],
      [
        "▁hu",
        -8.545835297934385
      ],
      [
        "lerdi",
        -7.43356269603673
      ],
      [
        "▁ab",
        -9.077533453578745
      ],
      [
        "▁turk",
        -6.290660515108477
      ],
      [
        "▁okul",
        -7.906019096850927
      ],
      [
        "▁olma",
        -7.310373102193487
      ],
      [
        "▁kat",
        -7.576448565158112
      ],
      [
        "▁yıgın",
        -9.238118675363424
      ],
      [
        "▁sigara",
        -8.434512082471137
      ],
      [
        "▁mustafa",
        -6.791076982860259
      ],
      [
        "tigini",
        -9.216531961604142
      ],
      [
        "kun",
        -6.934578789773962
      ],
      [
        "▁bur",
        -8.293896055311691
      ],
      [
        "▁dun",
        -7.8304750967130925
      ],
      [
        "▁ada",
        -9.099864902384759
      ],
      [
        "▁siz",
        -4.451945015214789
      ],
      [
        "6",
        -8.559305869979548
      ],
      [
        "▁basbakan",
        -8.913131679803719
      ],
      [
        "▁oy",
        -7.989776665821446
      ],
      [
        "▁konusuyor",
        -7.89689264280271
      ],
      [
        "▁ben",
        -8.273042604758025
      ],
      [
        "▁git",
        -7.190858593130086
      ],
      [
        "▁sans",
        -9.059369745767246
      ],
      [
        "▁muhte",
        -7.12216206327711
      ],
      [
        "▁hayır",
        -8.87430823098856
      ],
      [
        "▁icin",
        -5.611889001906072
      ],
      [
        "▁oteli",
        -8.47805518617881
      ],
      [
        "▁ipotek",
        -9.210748694491809
      ],
      [
        "▁bicim",
        -8.645191348819985
      ],
      [
        "▁deli",
        -7.735746243304163
      ],
      [
        "▁yetki",
        -9.158429331733831
      ],
      [
        "▁acıkladı",
        -7.466305672117121
      ],
      [
        "i",
        -5.174834601673012
      ],
      [
        "l",
        -5.464349539545049
      ],
      [
        "▁bekle",
        -8.096730535778454
      ],
      [
        "ıp",
        -5.680099940697676
      ],
      [
        "▁ikram",
        -9.294127688293191
      ],
      [
        "▁agır",
        -6.486111117241364
      ],
      [
        "meye",
        -6.748318156491168
      ],
      [
        "▁dus",
        -7.82404762062771
      ],
      [
        "▁ulke",
        -7.739514780959663
      ],
      [
        "ıyla",
        -7.6473105573084315
      ],
      [
        "▁rezervasyonu",
        -8.315691778718783
      ],
      [
        "do",
        -8.702041847669687
      ],
      [
        "u",
        -7.007500087809163
      ],
      [
        "▁do",
        -4.997386800813171
      ],
      [
        "▁yemegi",
        -8.220065552689796
      ],
      [
        "z",
        -6.443929881706166
      ],
      [
        "▁pers",
        -7.007837764036366
      ],
      [
        "▁pahali",
        -7.506694771480903
      ],
      [
        "en",
        -5.647916873321358
      ],
      [
        "▁bilim",
        -7.656489634009979
      ],
      [
        "um",
        -7.390982499019928
      ],
      [
        "▁saldırı",
        -9.133832217773474
      ],
      [
        "▁o",
        -7.858857258088566
      ],
      [
        "o",
        -5.593707150910101
      ],
      [
        "▁bazı",
        -7.170405847808098
      ],
      [
        "▁ana",
        -8.000417531046022
      ],
      [
        "▁yas",
        -7.570529837301062
      ],
      [
        "iz",
        -6.313497623855728
      ],
      [
        "▁tutar",
        -9.224611772342476
      ],
      [
        "▁kızı",
        -8.454136270198845
      ],
      [
        "▁dunya",
        -6.91586115397758
      ],
      [
        "nı",
        -6.710902618572601
      ],
      [
        "hangi",
        -6.3825269359489925
      ],
      [
        "▁ogle",
        -6.920594758086205
      ],
      [
        "▁12",
        -5.275039660619872
      ],
      [
        "n",
        -5.646770103360007
      ],
      [
        "▁icinde",
        -6.726608357952595
      ],
      [
        "ana",
        -8.509231256135466
      ],
      [
        "▁oglum",
        -8.962552255124358
      ],
      [
        "r",
        -6.5679732324376445
      ],
      [
        "sınız",
        -7.186867072256493
      ],
      [
        "▁biz",
        -8.453634900272267
      ],
      [
        "▁getir",
        -7.0758537302384745
      ],
      [
        "▁ok",
        -8.921083937890778
      ],
      [
        "▁inc",
        -6.89648595030143
      ],
      [
        "▁sirketin",
        -7.754069549801167
      ],
      [
        "yuzlu",
        -6.5380373275271255
      ],
      [
        "`",
        -5.172154642791867
      ],
      [
        ":",
        -5.1950716830752155
      ],
      [
        "▁havayolları",
        -7.47912357976236
      ],
      [
        "▁kazan",
        -8.50815677255867
      ],
      [
        "▁kalk",
        -7.625988064245402
      ],
      [
        "▁ne",
        -5.102818083154211
      ],
      [
        "▁anket",
        -7.9042904445470645
      ],
      [
        "▁ad",
        -7.814621286622342
      ],
      [
        "lug",
        -8.923326078959061
      ],
      [
        "▁rekabet",
        -8.622982401681806
      ],
      [
        "▁kendi",
        -3.6923164518459464
      ],
      [
        "▁hayatta",
        -9.157709245751938
      ],
      [
        "gini",
        -9.186838456984475
      ],
      [
        "▁otelin",
        -7.640042376732834
      ],
      [
        "▁edecek",
        -7.381241055847779
      ],
      [
        "▁z",
        -7.66657424129658
      ],
      [
        "▁toz",
        -9.178699791246125
      ],
      [
        "▁kıs",
        -8.098742064307743
      ],
      [
        "ici",
        -9.115702665645355
      ],
      [
        "▁bakın",
        -8.100605837091344
      ],
      [
        "cu",
        -5.83909274275951
      ],
      [
        "▁bazıları",
        -5.5918974405545265
      ],
      [
        "▁dow",
        -6.840496730669338
      ],
      [
        "▁koy",
        -7.522363718466497
      ],
      [
        "▁icin",
        -2.121748868097354
      ],
      [
        "▁tavsiye",
        -6.698472403062372
      ],
      [
        "lerde",
        -6.863545878713247
      ],
      [
        "▁lider",
        -8.862049597846612
      ],
      [
        "▁ihtimal",
        -9.039682115935378
      ],
      [
        "▁ucusun",
        -9.11245449990597
      ],
      [
        "dır",
        -7.491403339716459
      ],
      [
        "▁uz",
        -8.533549843238639
      ],
      [
        "ma",
        -7.392277917431474
      ],
      [
        "▁risk",
        -8.484846300123547
      ],
      [
        "▁az",
        -6.228579455277073
      ],
      [
        "t",
        -5.970918673445824
      ],
      [
        "▁to",
        -8.41944362619186
      ],
      [
        "deta",
        -6.817374011480661
      ],
      [
        "▁uzerin",
        -6.161937060409342
      ],
      [
        "▁hali",
        -8.592895421817962
      ],
      [
        "arı",
        -7.610035301300221
      ],
      [
        "z",
        -5.915182500026181
      ],
      [
        "iyle",
        -7.379445657613216
      ],
      [
        "sel",
        -5.723214982446909
      ],
      [
        "▁islem",
        -7.285386282186226
      ],
      [
        "▁ise",
        -7.834820324004646
      ],
      [
        "ro",
        -8.47556585567007
      ],
      [
        "ce",
        -6.800953309987892
      ],
      [
        "▁vakti",
        -8.749137172828377
      ],
      [
        "yan",
        -7.593532470531715
      ],
      [
        "▁ayır",
        -7.778536024236659
      ],
      [
        "▁sonun",
        -8.950814652171156
      ],
      [
        "iyordu",
        -6.860034495942726
      ],
      [
        "▁roman",
        -8.255412989351697
      ],
      [
        "▁misin",
        -4.5273534770033566
      ],
      [
        "▁aklım",
        -9.136951738122464
      ],
      [
        "[CLS]",
        0.0
      ],
      [
        "mayacak",
        -7.8906388322215175
      ],
      [
        "▁demis",
        -8.002527127695814
      ],
      [
        "7",
        -8.19067020562656
      ],
      [
        "▁bakan",
        -8.970274011211199
      ],
      [
        "ak",
        -5.6150221036885055
      ],
      [
        "▁dil",
        -7.628112871040733
      ],
      [
        "▁onda",
        -5.624473296084898
      ],
      [
        "▁jones",
        -6.852757218122895
      ],
      [
        "▁git",
        -7.996927158050616
      ],
      [
        "▁acık",
        -8.980336337872876
      ],
      [
        "▁tamam",
        -7.598141378379166
      ],
      [
        "▁korku",
        -7.618700463606465
      ],
      [
        "▁plaj",
        -8.800878258970215
      ],
      [
        "lerinde",
        -7.0125540810192755
      ],
      [
        "▁defter",
        -8.766081686830475
      ],
      [
        "&",
        -7.467592664439693
      ],
      [
        "▁niyet",
        -8.857873102557397
      ],
      [
        "ca",
        -6.366620566290579
      ],
      [
        "▁fa",
        -5.262360152298196
      ],
      [
        "▁calisanlari",
        -9.016020169656265
      ],
      [
        "!",
        -5.67393291373121
      ],
      [
        "▁yuzde",
        -8.576988223510455
      ],
      [
        "av",
        -8.448107418211123
      ],
      [
        "▁b",
        -7.700730180222658
      ],
      [
        "▁insanların",
        -8.248402358363808
      ],
      [
        "go",
        -8.668538823653332
      ],
      [
        "lar",
        -4.398521406909345
      ],
      [
        "▁kusur",
        -8.842689897335596
      ],
      [
        "masını",
        -7.563837571085156
      ],
      [
        "▁olcu",
        -8.617990357721734
      ],
      [
        "▁8'de",
        -9.113773307334963
      ],
      [
        "▁uygundu",
        -7.74601068098326
      ],
      [
        "▁rakamlar",
        -9.230466862278705
      ],
      [
        "▁etme",
        -7.854001394033202
      ],
      [
        "▁gelistirme",
        -9.085598370075532
      ],
      [
        "▁ulasım",
        -8.232089408051962
      ],
      [
        "▁dans",
        -9.173431351273113
      ],
      [
        "▁yaklasimi",
        -9.08559199033639
      ],
      [
        "t",
        -4.63770091598948
      ],
      [
        "▁on",
        -7.27312212383284
      ],
      [
        "▁yukarı",
        -7.710122915547684
      ],
      [
        "▁yemekleri",
        -7.096723136266368
      ],
      [
        "▁sosyal",
        -7.1118867177857235
      ],
      [
        "▁deniz",
        -6.797331955428738
      ],
      [
        "s",
        -3.5806418659215646
      ],
      [
        "▁engel",
        -8.484848421861013
      ],
      [
        "5'te",
        -9.265749919853066
      ],
      [
        "▁ver",
        -7.429340936125383
      ],
      [
        "▁babam",
        -8.089287571565864
      ],
      [
        "ınca",
        -6.707064326619587
      ],
      [
        "▁diger",
        -5.558160624346541
      ],
      [
        "sini",
        -6.422049472456263
      ],
      [
        "k",
        -5.799929012345389
      ],
      [
        "ken",
        -7.064849599501561
      ],
      [
        "yor",
        -8.85083639178367
      ],
      [
        "lar",
        -4.74025477615891
      ],
      [
        "▁yemekler",
        -6.93359594785308
      ],
      [
        "mus",
        -5.962186219204601
      ],
      [
        "▁calıstı",
        -7.749913342793946
      ],
      [
        "▁kadının",
        -9.023550078365309
      ],
      [
        "dıgı",
        -6.991658992121112
      ],
      [
        "▁sev",
        -9.025527456796661
      ],
      [
        "▁orta",
        -7.882389330582674
      ],
      [
        "▁haber",
        -7.719135992083562
      ],
      [
        "▁gidi",
        -7.3582983947074405
      ],
      [
        "▁fon",
        -8.581956163889341
      ],
      [
        "▁gordu",
        -6.562571279504344
      ],
      [
        "irlik",
        -5.69607855368877
      ],
      [
        "▁1",
        -7.993518439935904
      ],
      [
        "▁madde",
        -8.11217360715342
      ],
      [
        "▁yeter",
        -6.237835439460578
      ],
      [
        "'da",
        -5.362147093715915
      ],
      [
        "▁dusunmuyor",
        -7.991815649131459
      ],
      [
        "abı",
        -8.509677880361348
      ],
      [
        "iyor",
        -6.144043743031416
      ],
      [
        "▁baba",
        -7.799168934593108
      ],
      [
        "ebilir",
        -6.543855681370227
      ],
      [
        "▁soyle",
        -8.55094311778221
      ],
      [
        "▁al",
        -7.418703508785995
      ],
      [
        "▁har",
        -8.728657256896653
      ],
      [
        "▁sarkı",
        -8.499825444145902
      ],
      [
        "▁ozgu",
        -7.910446090844006
      ],
      [
        "▁9",
        -5.778083511879296
      ],
      [
        "▁yarı",
        -8.597992623125606
      ],
      [
        "▁kursun",
        -9.242619530196095
      ],
      [
        "▁agustos",
        -8.472013747169907
      ],
      [
        "▁cins",
        -9.003321145262774
      ],
      [
        "▁icecek",
        -9.231698099151709
      ],
      [
        "▁i",
        -7.695737983531465
      ],
      [
        "▁seker",
        -8.623584753417013
      ],
      [
        "▁karısı",
        -8.624253047491216
      ],
      [
        "rak",
        -8.714039705000882
      ],
      [
        "▁devrim",
        -9.127103162304369
      ],
      [
        "▁insan",
        -6.8622638329558905
      ],
      [
        "▁karar",
        -8.04310582923914
      ],
      [
        "▁rapor",
        -8.01496068513338
      ],
      [
        "▁arta",
        -7.700972469536119
      ],
      [
        "▁golge",
        -8.62390698678089
      ],
      [
        "▁siyasi",
        -7.443068292921874
      ],
      [
        "sal",
        -7.188944956305012
      ],
      [
        "▁don",
        -8.181765696691535
      ],
      [
        "▁verme",
        -8.415059544382386
      ],
      [
        "e",
        -3.054524576694324
      ],
      [
        "▁tut",
        -7.103699048508046
      ],
      [
        "▁yedi",
        -5.3484134847842775
      ],
      [
        "▁ucuz",
        -5.893741211174547
      ],
      [
        "za",
        -7.74459105300923
      ],
      [
        "mez",
        -7.157224312138854
      ],
      [
        "▁sordu",
        -7.266541797794853
      ],
      [
        "bilecegini",
        -8.831706823949759
      ],
      [
        "gunu",
        -7.634301236361402
      ],
      [
        "ce",
        -7.135173186590574
      ],
      [
        "▁sek",
        -8.962457730714776
      ],
      [
        "▁halka",
        -8.874906088511473
      ],
      [
        "gun",
        -8.239400959295148
      ],
      [
        "▁hi",
        -4.718511553182138
      ],
      [
        "u",
        -5.667635735831895
      ],
      [
        "te",
        -6.916883204630375
      ],
      [
        "dikleri",
        -8.85798360119302
      ],
      [
        "▁oldugum",
        -7.8136053884118395
      ],
      [
        "▁cok",
        -5.403467047528563
      ],
      [
        "▁lezzet",
        -7.069936590301006
      ],
      [
        "▁duvar",
        -7.931600776885059
      ],
      [
        "dur",
        -7.228951821457968
      ],
      [
        "▁alın",
        -7.543378375352004
      ],
      [
        "mizi",
        -8.244898374858636
      ],
      [
        "▁p",
        -7.117840679169713
      ],
      [
        "▁verdigi",
        -7.9448733685188415
      ],
      [
        "▁chicago'da",
        -7.039318880199267
      ],
      [
        "▁igne",
        -9.210750665628831
      ],
      [
        "▁bal",
        -8.362644227774968
      ],
      [
        "▁tas",
        -7.710801207594815
      ],
      [
        "▁ayakkabı",
        -8.699945525478503
      ],
      [
        "▁dol",
        -8.84690985508967
      ],
      [
        "▁31",
        -5.96134953511987
      ],
      [
        "▁milwaukee'de",
        -6.829858701426127
      ],
      [
        "=",
        -11.302702672349787
      ],
      [
        "▁kır",
        -8.221503937377351
      ],
      [
        "▁depo",
        -9.210818372296329
      ],
      [
        "▁tahta",
        -8.673677015011915
      ],
      [
        "▁nedenle",
        -9.001235761055657
      ],
      [
        "▁kotuy",
        -6.60561887171558
      ],
      [
        "▁insanı",
        -8.952969754496422
      ],
      [
        "i",
        -3.7820737249274696
      ],
      [
        "miz",
        -7.917580133211495
      ],
      [
        "▁yuz",
        -7.136694801828874
      ],
      [
        "n",
        -3.9923441943343114
      ],
      [
        "ki",
        -6.1632758550250095
      ],
      [
        "▁dısarı",
        -9.060571773354443
      ],
      [
        "▁parca",
        -7.962512392360006
      ],
      [
        "▁suyu",
        -8.41561817547532
      ],
      [
        "▁o",
        -7.286659504355699
      ],
      [
        "▁var",
        -4.31276931439489
      ],
      [
        "▁ne",
        -6.301448313353805
      ],
      [
        "▁yetkililer",
        -8.998035243273128
      ],
      [
        "▁dosya",
        -8.874358242984005
      ],
      [
        "ksiyon",
        -9.088675854786501
      ],
      [
        "▁farklı",
        -6.672202960391765
      ],
      [
        "▁yasa",
        -7.856462072441599
      ],
      [
        "▁defa",
        -7.987098674025844
      ],
      [
        "▁gun",
        -7.037441793609205
      ],
      [
        "▁teklif",
        -7.457344510435918
      ],
      [
        "▁ici",
        -7.0951664394874765
      ],
      [
        "▁ne",
        -8.069372765439216
      ],
      [
        "▁cocuklar",
        -7.46577111373702
      ],
      [
        "▁sev",
        -7.866848434354088
      ],
      [
        "“",
        -9.068411161210182
      ],
      [
        "▁verile",
        -7.651983172581052
      ],
      [
        "▁american",
        -6.195236345137257
      ],
      [
        "▁duz",
        -9.07021493067467
      ],
      [
        "tıp",
        -7.593361442092817
      ],
      [
        "▁em",
        -8.859925087137402
      ],
      [
        "▁mer",
        -8.468081829383555
      ],
      [
        "▁yeni",
        -4.876323234096239
      ],
      [
        "gını",
        -9.242083524455726
      ],
      [
        "▁nasıl",
        -5.461418423501822
      ],
      [
        "▁dolar",
        -6.143829847917046
      ],
      [
        "▁kar",
        -6.970041367467808
      ],
      [
        "▁yukselis",
        -8.975559006702222
      ],
      [
        "▁fırsat",
        -8.579507048277346
      ],
      [
        "▁normal",
        -7.42396388138581
      ],
      [
        "▁s",
        -7.798955791444568
      ],
      [
        "z",
        -4.5682277971428595
      ],
      [
        "ndan",
        -6.552049776741964
      ],
      [
        "gu",
        -7.100277774764232
      ],
      [
        "▁oneri",
        -8.996393301276411
      ],
      [
        "▁sınıfı",
        -8.333678580354036
      ],
      [
        "tor",
        -8.386399699785887
      ],
      [
        "▁kan",
        -7.829786021411613
      ],
      [
        "▁gelecek",
        -8.855433588300386
      ],
      [
        "▁gene",
        -6.8420526161527
      ],
      [
        "is",
        -9.889831758065933
      ],
      [
        "▁mana",
        -9.02503263843837
      ],
      [
        "▁fiyati",
        -8.410242649700916
      ],
      [
        "d",
        -2.8362636927302933
      ],
      [
        "▁kemal",
        -6.8028234289062155
      ],
      [
        "dizli",
        -7.581028338938804
      ],
      [
        "▁endise",
        -8.551525593210915
      ],
      [
        "▁ihtiyar",
        -9.13380734588878
      ],
      [
        "▁memnun",
        -4.596567443186686
      ],
      [
        "▁toplantı",
        -8.326142672340858
      ],
      [
        "▁gunlu",
        -6.629403783320777
      ],
      [
        "2",
        -8.544205719619661
      ],
      [
        "▁halkı",
        -9.132936447029078
      ],
      [
        "▁bir",
        -8.54817813440691
      ],
      [
        "▁24",
        -6.263247141229067
      ],
      [
        "▁mal",
        -7.737986657103645
      ],
      [
        "▁uy",
        -8.275846936832863
      ],
      [
        "▁sart",
        -8.918153384795348
      ],
      [
        "▁sar",
        -8.333490045175775
      ],
      [
        "▁nefes",
        -8.668450840739105
      ],
      [
        "▁yor",
        -7.783824389989787
      ],
      [
        "▁yanda",
        -8.817890646262013
      ],
      [
        "▁7",
        -4.986624988114711
      ],
      [
        "▁mev",
        -6.718102217582475
      ],
      [
        "▁can",
        -7.6556232845147845
      ],
      [
        "▁bırak",
        -7.387286025899165
      ],
      [
        "▁amac",
        -8.686474632285169
      ],
      [
        "▁lar",
        -7.76677043803274
      ],
      [
        "▁cay",
        -8.422484427262816
      ],
      [
        "▁maliyeti",
        -8.87562148079572
      ],
      [
        "ko",
        -8.463319096629075
      ],
      [
        "▁millet",
        -8.563894768740518
      ],
      [
        "▁par",
        -8.83932827654096
      ],
      [
        "▁emin",
        -7.908159108045561
      ],
      [
        "▁amerikan",
        -6.414354089131514
      ],
      [
        "▁boyle",
        -5.086562249009878
      ],
      [
        "▁a",
        -7.74721099109032
      ],
      [
        "▁uyeleri",
        -9.235986741625979
      ],
      [
        "▁washington",
        -5.68185472729504
      ],
      [
        "▁mus",
        -8.582383172236966
      ],
      [
        "mek",
        -7.388166812058659
      ],
      [
        "▁d",
        -9.995414436185875
      ],
      [
        "▁buyume",
        -8.553070569766422
      ],
      [
        "t",
        -5.498942757749235
      ],
      [
        "▁tahvil",
        -7.795623928567573
      ],
      [
        "ktan",
        -7.988419795118594
      ],
      [
        "▁petrol",
        -8.275989561185678
      ],
      [
        "▁konuda",
        -8.568080726202886
      ],
      [
        "▁sogu",
        -9.040630335923746
      ],
      [
        "▁hızl",
        -7.110195608273241
      ],
      [
        "▁ola",
        -3.676043512832142
      ],
      [
        "▁emir",
        -9.0180581764486
      ],
      [
        "▁calı",
        -8.806749097901312
      ],
      [
        "us",
        -7.9504447292016955
      ],
      [
        "▁hisse",
        -6.278953957760908
      ],
      [
        "▁dalga",
        -8.499007246155402
      ],
      [
        "▁dogu",
        -9.23340454882212
      ],
      [
        "ti",
        -6.971017253499957
      ],
      [
        "malı",
        -7.207067129353745
      ],
      [
        "d",
        -6.800628779599903
      ],
      [
        "suzluk",
        -8.913311963267702
      ],
      [
        "▁10'da",
        -9.039832816355691
      ],
      [
        "-",
        -6.464735180719356
      ],
      [
        "▁dusunuyor",
        -7.3435904066391675
      ],
      [
        "▁getirdi",
        -7.616702195727266
      ],
      [
        "er",
        -7.534676130534667
      ],
      [
        "▁?",
        -9.528807987385584
      ],
      [
        "ması",
        -6.3668761661085815
      ],
      [
        "tik",
        -7.299517765000672
      ],
      [
        "▁bu",
        -3.2396197333277525
      ],
      [
        "ilen",
        -7.616782409815674
      ],
      [
        "g",
        -12.03594578210268
      ],
      [
        "▁ates",
        -8.066229052883777
      ],
      [
        "▁anlamın",
        -8.863556453283985
      ],
      [
        "▁plani",
        -9.099471471329435
      ],
      [
        "▁b",
        -7.750653512732932
      ],
      [
        "ar",
        -7.457601627112156
      ],
      [
        "▁boyle",
        -6.396415066709907
      ],
      [
        "▁ısı",
        -8.913740096246077
      ],
      [
        "▁temel",
        -7.146028545686271
      ],
      [
        "▁gecme",
        -8.933251380471315
      ],
      [
        "▁ed",
        -7.170871244265318
      ],
      [
        "klarını",
        -7.831173798424999
      ],
      [
        ",",
        -11.199613634584775
      ],
      [
        "le",
        -7.2319893104787205
      ],
      [
        "sunu",
        -7.736077907063988
      ],
      [
        "i",
        -3.0732711944739446
      ],
      [
        "▁bura",
        -9.05998731247864
      ],
      [
        "▁elma",
        -8.947615157218255
      ],
      [
        "▁almıs",
        -7.89597101180678
      ],
      [
        "▁uzakta",
        -9.039793629141162
      ],
      [
        "▁agız",
        -8.733967393887792
      ],
      [
        "u",
        -2.3223596860280313
      ],
      [
        "p",
        -6.305688863920395
      ],
      [
        "▁kuru",
        -8.832781994742987
      ],
      [
        "▁demokrat",
        -7.9632840079401115
      ],
      [
        "▁zafer",
        -9.26555364668236
      ],
      [
        "tar",
        -8.63561850304078
      ],
      [
        "▁yumusa",
        -7.933969756894953
      ],
      [
        "▁kes",
        -8.444417085344742
      ],
      [
        "▁eve",
        -8.025529325030496
      ],
      [
        "▁hal",
        -8.006565396306218
      ],
      [
        "▁elektr",
        -7.754751256092048
      ],
      [
        "▁olanaklari",
        -8.34100200420973
      ],
      [
        "▁ilk",
        -5.410354367585089
      ],
      [
        "▁7",
        -9.027553459614918
      ],
      [
        "▁durumu",
        -8.310555595103924
      ],
      [
        "likt",
        -6.5852774385037165
      ],
      [
        "▁askı",
        -9.063361379718458
      ],
      [
        "▁c",
        -7.032797226781592
      ],
      [
        "▁ton",
        -8.910996998225183
      ],
      [
        "▁hos",
        -7.456506739129357
      ],
      [
        "▁kur",
        -7.597087760804626
      ],
      [
        "▁bel",
        -5.7176907548495475
      ],
      [
        "▁yabancı",
        -6.768015599588232
      ],
      [
        "▁d",
        -6.355214304135228
      ],
      [
        "▁mı",
        -3.073600583083265
      ],
      [
        "▁gunun",
        -9.065272960725503
      ],
      [
        "▁isleri",
        -9.074726898856774
      ],
      [
        "at",
        -6.347732643039963
      ],
      [
        "▁adını",
        -8.798439827280081
      ],
      [
        "▁yaptirdi",
        -7.4448016464697195
      ],
      [
        "ına",
        -6.233848239895892
      ],
      [
        "▁alabilir",
        -7.849201938218147
      ],
      [
        "▁izin",
        -8.214335941634506
      ],
      [
        "mustu",
        -6.781809022152461
      ],
      [
        "▁isim",
        -8.461692815124682
      ],
      [
        "▁",
        -5.331463034427626
      ],
      [
        "▁musteriler",
        -9.02979892345004
      ],
      [
        "dıgında",
        -9.063591437938921
      ],
      [
        "▁ziyaret",
        -8.459355520734828
      ],
      [
        "kın",
        -7.852901375229401
      ],
      [
        "yla",
        -6.609948332917523
      ],
      [
        "▁donemde",
        -8.723918542809393
      ],
      [
        "▁koylu",
        -9.090580075427102
      ],
      [
        "▁kalabalık",
        -9.265554251957175
      ],
      [
        "▁mum",
        -7.055709991310947
      ],
      [
        "▁john",
        -7.514258373914097
      ],
      [
        "dan",
        -5.735766773513523
      ],
      [
        "etli",
        -7.941603451585964
      ],
      [
        "▁united",
        -6.306874200536926
      ],
      [
        "▁eylul",
        -8.653059280096887
      ],
      [
        "▁ruya",
        -8.754009565700368
      ],
      [
        "▁paylas",
        -8.090472398469242
      ],
      [
        "▁ulus",
        -9.237796522204938
      ],
      [
        "▁ilgili",
        -5.426669002869345
      ],
      [
        "▁tek",
        -5.245257206535452
      ],
      [
        "▁ilgi",
        -7.462134112909516
      ],
      [
        "▁kısmı",
        -8.706536368173127
      ],
      [
        "▁cep",
        -8.880934783202896
      ],
      [
        "▁onun",
        -3.672885360996781
      ],
      [
        "▁kendisin",
        -5.410287165828488
      ],
      [
        "▁kaldır",
        -7.955063746663338
      ],
      [
        "▁degeri",
        -8.943663248258368
      ],
      [
        "▁ları",
        -7.663888550713381
      ],
      [
        "▁s",
        -6.7461485268836885
      ],
      [
        "▁senin",
        -5.127217236835529
      ],
      [
        "▁kendilerini",
        -5.975809907058947
      ],
      [
        "▁planı",
        -8.757401711072198
      ],
      [
        "▁merdiven",
        -8.818722663057233
      ],
      [
        "▁merkez",
        -7.8163861036709
      ],
      [
        "▁ata",
        -8.85437362422949
      ],
      [
        "▁konusma",
        -8.069276125370173
      ],
      [
        "▁yardimci",
        -8.195543634166544
      ],
      [
        "▁hikaye",
        -8.446855753042504
      ],
      [
        "▁sistemi",
        -8.544468458504348
      ],
      [
        "▁olurdu",
        -7.933540436429121
      ],
      [
        "▁genel",
        -5.426067388594888
      ],
      [
        "f",
        -11.199613634584775
      ],
      [
        "▁se",
        -4.925808727806685
      ],
      [
        "▁dukkan",
        -8.806607244915625
      ],
      [
        "▁posta",
        -8.889597557991685
      ],
      [
        "os",
        -8.534661803047825
      ],
      [
        "▁r",
        -8.677199341049654
      ],
      [
        "▁tiyatro",
        -8.591615727628685
      ],
      [
        "▁lezzet",
        -6.73402907811451
      ],
      [
        "▁sıkıntı",
        -8.5654911841611
      ],
      [
        "cılıgı",
        -9.00662331476514
      ],
      [
        "▁baz",
        -6.262548399340187
      ],
      [
        "▁sana",
        -5.075330108084433
      ],
      [
        "mistir",
        -7.126474716936368
      ],
      [
        "▁ekim",
        -8.916117434687447
      ],
      [
        "li",
        -6.000409179436919
      ],
      [
        "likle",
        -4.864519917768543
      ],
      [
        "'",
        -6.823662010822051
      ],
      [
        "▁it",
        -6.245885699482855
      ],
      [
        "maktadır",
        -6.597242818699089
      ],
      [
        "▁a",
        -7.219965941963332
      ],
      [
        "gr",
        -7.792940288498962
      ],
      [
        "▁sokag",
        -8.897442110994358
      ],
      [
        "[SEP]",
        0.0
      ],
      [
        "▁pa",
        -7.501568141458672
      ],
      [
        "▁farkında",
        -9.187949158211545
      ],
      [
        "▁temiz",
        -9.159794662936282
      ],
      [
        "▁muduru",
        -8.738733809442454
      ],
      [
        "▁olmadıgı",
        -8.119363727323169
      ],
      [
        "8",
        -8.812455732926335
      ],
      [
        "▁uygun",
        -5.704720861469475
      ],
      [
        "▁guc",
        -7.770527662216843
      ],
      [
        "▁ruzgar",
        -8.484834268536066
      ],
      [
        "▁degisiklik",
        -9.209046498805648
      ],
      [
        "mıyor",
        -7.710485636665227
      ],
      [
        "▁3",
        -4.285712194127713
      ],
      [
        "▁ayrı",
        -6.956422087289287
      ],
      [
        "dar",
        -8.898133881054466
      ],
      [
        "▁senetleri",
        -8.698775345021087
      ],
      [
        "nce",
        -6.808974596992565
      ],
      [
        "bil",
        -7.318263304722521
      ],
      [
        "meyi",
        -7.824923699009212
      ],
      [
        "▁boz",
        -8.959434886543468
      ],
      [
        "▁!",
        -9.53960140659185
      ],
      [
        "▁50",
        -5.71151570423236
      ],
      [
        "▁kadar",
        -2.999792704414248
      ],
      [
        "▁onde",
        -9.09086926493473
      ],
      [
        "yan",
        -7.229692074593493
      ],
      [
        "ların",
        -5.57554167277685
      ],
      [
        "▁odalar",
        -8.045463875664097
      ],
      [
        "▁havuz",
        -7.6780200073461575
      ],
      [
        "yle",
        -6.293244902715194
      ],
      [
        "'i",
        -6.721080804396392
      ],
      [
        "dıkları",
        -9.119238107486053
      ],
      [
        "ıs",
        -7.610157220135955
      ],
      [
        "▁g",
        -6.207197408240738
      ],
      [
        "▁t",
        -7.3373380922148375
      ],
      [
        "▁iceri",
        -8.033217702198717
      ],
      [
        "▁pasa",
        -9.13698261716613
      ],
      [
        "▁yatagı",
        -9.185600590493024
      ],
      [
        "▁temiz",
        -5.273886589404727
      ],
      [
        "lerin",
        -5.707843220726736
      ],
      [
        "▁gerek",
        -7.142499163139928
      ],
      [
        "▁yatırım",
        -7.530127100880072
      ],
      [
        "▁co",
        -6.664471490842452
      ],
      [
        "iyeti",
        -8.93949850243172
      ],
      [
        "▁bolum",
        -8.637596344155577
      ],
      [
        "▁bunda",
        -7.388617737186985
      ],
      [
        "▁tanık",
        -9.071953855956071
      ],
      [
        "▁ederi",
        -5.945113390437031
      ],
      [
        "▁deprem",
        -8.42406310105607
      ],
      [
        "▁`",
        -10.557597422589598
      ],
      [
        "▁masa",
        -7.397759907129085
      ],
      [
        "▁siyaset",
        -9.158792241528719
      ],
      [
        "▁sent",
        -8.411290079545218
      ],
      [
        "▁adamları",
        -8.87638357931822
      ],
      [
        "▁belirtti",
        -7.656579501550219
      ],
      [
        "▁kalka",
        -5.871008752191808
      ],
      [
        "▁yeter",
        -7.746002165592302
      ],
      [
        "▁tarihi",
        -8.61883344061435
      ],
      [
        "▁sonu",
        -9.065469111129305
      ],
      [
        "la",
        -6.888501391301384
      ],
      [
        "▁gec",
        -7.33005100813819
      ],
      [
        "un",
        -7.422220092128157
      ],
      [
        "ya",
        -7.426087363733705
      ],
      [
        "▁isini",
        -9.015428788060348
      ],
      [
        "▁oyuncu",
        -8.54778988902503
      ],
      [
        "▁acıklanma",
        -7.9636329276564535
      ],
      [
        "r",
        -11.302702672349785
      ],
      [
        "▁ev",
        -6.268454093143926
      ],
      [
        "▁zayif",
        -7.882957216461865
      ],
      [
        "▁once",
        -6.462100414457953
      ],
      [
        "▁batı",
        -7.598971603535954
      ],
      [
        "▁bina",
        -8.340845901065887
      ],
      [
        "▁gece",
        -6.863264170889395
      ],
      [
        "u",
        -12.802702672349787
      ],
      [
        "▁tutma",
        -9.184306323095008
      ],
      [
        "iydi",
        -7.457789464584331
      ],
      [
        "▁model",
        -9.017664508284946
      ],
      [
        "'la",
        -7.331809685617591
      ],
      [
        "▁sendika",
        -8.893522178753628
      ],
      [
        "▁kazancları",
        -9.163933940094221
      ],
      [
        "▁aksama",
        -9.177623701393125
      ],
      [
        "ip",
        -6.160296091166794
      ],
      [
        "▁say",
        -9.239905791714063
      ],
      [
        "▁duman",
        -8.783671386647182
      ],
      [
        "▁hasta",
        -8.569009583086018
      ],
      [
        "▁kullanıyor",
        -8.05088171917265
      ],
      [
        "luk",
        -7.22677111986672
      ],
      [
        "ık",
        -7.649392049490636
      ],
      [
        "▁deger",
        -7.509694612103102
      ],
      [
        "▁herkes",
        -4.990935261703555
      ],
      [
        "▁surec",
        -8.873901851171283
      ],
      [
        "▁as",
        -7.9774576896839235
      ],
      [
        "▁ihtiyacım",
        -7.589894257033215
      ],
      [
        "▁kıymetler",
        -7.986099482827888
      ],
      [
        "▁guven",
        -8.222528911226235
      ],
      [
        "▁goz",
        -7.0150202329835025
      ],
      [
        "▁koca",
        -6.796188033102825
      ],
      [
        "▁animasyon",
        -7.616965170293028
      ],
      [
        "▁sayı",
        -8.279922880890773
      ],
      [
        "▁aralık",
        -8.762239315818604
      ],
      [
        "▁bakıs",
        -8.580348910108683
      ],
      [
        "izm",
        -8.431971863508013
      ],
      [
        "▁kalp",
        -8.905332110715081
      ],
      [
        "un",
        -7.142804570356779
      ],
      [
        "▁deri",
        -8.942425034852205
      ],
      [
        "▁15",
        -5.317744224803343
      ],
      [
        "▁insaat",
        -8.499906909229288
      ],
      [
        "▁rakam",
        -9.209329415229782
      ],
      [
        "il",
        -7.745721552968387
      ],
      [
        "▁sol",
        -8.333792728192737
      ],
      [
        "▁babası",
        -8.585737984083444
      ],
      [
        "▁oturma",
        -9.14919728906775
      ],
      [
        "▁burada",
        -8.661928982701042
      ],
      [
        "larında",
        -6.674143457836384
      ],
      [
        "▁net",
        -8.314738329550316
      ],
      [
        "▁yuzd",
        -6.009199951643306
      ],
      [
        "cisi",
        -8.887302131218464
      ],
      [
        "▁olabilir",
        -5.960379009982212
      ],
      [
        "/",
        -5.9441551310848775
      ],
      [
        "▁ayak",
        -8.258062536200597
      ],
      [
        "▁duzenleme",
        -8.97687974030394
      ],
      [
        "ıldı",
        -7.746737387363932
      ],
      [
        "▁park",
        -8.220388583604716
      ],
      [
        "▁ekibi",
        -8.7324811902774
      ],
      [
        "ter",
        -9.051704528810191
      ],
      [
        "nca",
        -6.940399481638486
      ],
      [
        "a",
        -5.795873682798572
      ],
      [
        "▁kaybı",
        -9.185593045591085
      ],
      [
        "s",
        -6.602215826617403
      ],
      [
        "▁vurdu",
        -8.02598235857543
      ],
      [
        "l",
        -6.034649391891636
      ],
      [
        "▁hatıra",
        -9.088888907347892
      ],
      [
        "▁uretimi",
        -8.959423920618764
      ],
      [
        "▁musteri",
        -8.229587342747209
      ],
      [
        "▁koydu",
        -7.618250198583972
      ],
      [
        "g",
        -7.6374187773213595
      ],
      [
        "▁uc",
        -3.768878928525731
      ],
      [
        "▁savas",
        -8.11100076351308
      ],
      [
        "▁ekonomi",
        -7.6392337002473765
      ],
      [
        "larımız",
        -8.417945692957286
      ],
      [
        "▁mini",
        -7.586700161277121
      ],
      [
        "ı",
        -4.678390393587344
      ],
      [
        "▁h",
        -6.614432653222827
      ],
      [
        "▁dc'",
        -7.009056212200828
      ],
      [
        "▁parla",
        -7.874437419049213
      ],
      [
        "▁animasyonlar",
        -8.955462443971129
      ],
      [
        "'nun",
        -6.13987211651921
      ],
      [
        "▁s",
        -8.10290196795445
      ],
      [
        "g",
        -6.440338115441626
      ],
      [
        "lı",
        -6.632415496086012
      ],
      [
        "▁gir",
        -7.723323105834943
      ],
      [
        "o",
        -3.5207675806184566
      ],
      [
        "mez",
        -7.413283696883108
      ],
      [
        "k",
        -4.044470171830261
      ],
      [
        "▁almak",
        -7.6951945616006805
      ],
      [
        "ir",
        -6.8087927854478645
      ],
      [
        "▁bagım",
        -7.793375336438742
      ],
      [
        "si",
        -5.109432440690228
      ],
      [
        "▁yerinde",
        -8.234066027005106
      ],
      [
        "▁aday",
        -8.773495321008625
      ],
      [
        "lerle",
        -7.095149800028127
      ],
      [
        "▁altı",
        -4.934015652473771
      ],
      [
        "▁ad",
        -8.402222160411586
      ],
      [
        "▁art",
        -8.585595204104656
      ],
      [
        "▁muhendis",
        -9.085592075050975
      ],
      [
        "▁cocukların",
        -9.015880692107189
      ],
      [
        "▁francisco'da",
        -6.071724489525051
      ],
      [
        "ten",
        -7.17416489712672
      ],
      [
        "▁sarı",
        -7.01661507676498
      ],
      [
        "▁bolumu",
        -8.969645665038495
      ],
      [
        "dıgını",
        -7.531363838102516
      ],
      [
        "▁temel",
        -9.017611840157226
      ],
      [
        "ılması",
        -8.625834071590543
      ],
      [
        "▁verdi",
        -6.233296187174913
      ],
      [
        "umuz",
        -8.472502678846805
      ],
      [
        "atı",
        -8.84321093239329
      ],
      [
        "▁kalite",
        -7.652286019940347
      ],
      [
        "indek",
        -7.355951998381377
      ],
      [
        "▁lık",
        -7.543427626244069
      ],
      [
        "▁iliskiler",
        -9.242670438250721
      ],
      [
        "▁y",
        -5.777906907927925
      ],
      [
        "tan",
        -6.533111240677067
      ],
      [
        "sam",
        -8.055073151972252
      ],
      [
        "erine",
        -7.345133478854348
      ],
      [
        "▁zincir",
        -8.913129824191852
      ],
      [
        "▁ortam",
        -8.761000730433299
      ],
      [
        "e",
        -8.372618959769959
      ],
      [
        "▁sahibi",
        -8.139396208096773
      ],
      [
        "i",
        -3.4756304079147933
      ],
      [
        "▁varlıklar",
        -9.079354418257184
      ],
      [
        "i",
        -4.221177834337591
      ],
      [
        "▁ust",
        -8.93041255686945
      ],
      [
        "▁mac",
        -8.287300148765574
      ],
      [
        "elim",
        -7.397197964383144
      ],
      [
        "▁t",
        -7.581305128531039
      ],
      [
        "bi",
        -7.811665918709554
      ],
      [
        "▁city'",
        -6.654569013407105
      ],
      [
        "▁alım",
        -7.567475952384333
      ],
      [
        "miz",
        -7.61763875271955
      ],
      [
        "▁suyun",
        -9.261729461689125
      ],
      [
        "▁kac",
        -6.691152110947753
      ],
      [
        "▁milyar",
        -8.422338155477377
      ],
      [
        "▁kazandı",
        -7.2538733009845595
      ],
      [
        "dıgı",
        -8.483843502462488
      ],
      [
        "▁alır",
        -7.3049520385459825
      ],
      [
        "digi",
        -8.073231716186264
      ],
      [
        "cık",
        -8.447918136619485
      ],
      [
        "▁ser",
        -8.029933688174829
      ],
      [
        "▁ucu",
        -8.273504952277463
      ],
      [
        "▁ardında",
        -8.889814072370259
      ],
      [
        "bir",
        -3.7092891508635653
      ],
      [
        "lamaya",
        -9.072268912314314
      ],
      [
        "▁25",
        -5.692044772168898
      ],
      [
        "yle",
        -6.687487082009294
      ],
      [
        "s",
        -6.083064316595121
      ],
      [
        "em",
        -11.24164467511393
      ],
      [
        "lerinin",
        -6.831796431740629
      ],
      [
        "▁ajans",
        -9.133793207194465
      ],
      [
        "dikte",
        -9.257280798896604
      ],
      [
        "▁yıllar",
        -8.359085233484333
      ],
      [
        "▁ter",
        -7.516182088200093
      ],
      [
        "▁hukumet",
        -7.879232898213697
      ],
      [
        "▁gecmis",
        -7.749976290057055
      ],
      [
        "▁bardagı",
        -9.085682496538046
      ],
      [
        "▁efendi",
        -8.699941909725489
      ],
      [
        "▁ilan",
        -8.54004269662548
      ],
      [
        "nın",
        -5.461750361995479
      ],
      [
        "▁ve",
        -8.709763398517566
      ],
      [
        "abilir",
        -6.5038225141245505
      ],
      [
        "▁islemler",
        -8.770383183358028
      ],
      [
        "▁islemi",
        -9.247603682069592
      ],
      [
        "t",
        -4.499821088122294
      ],
      [
        "▁me",
        -7.563512412477667
      ],
      [
        "bu",
        -8.194196647069859
      ],
      [
        "▁fark",
        -8.00511627382875
      ],
      [
        "mus",
        -6.071573892666369
      ],
      [
        "▁menkul",
        -7.841289384308088
      ],
      [
        "0",
        -4.429548908795914
      ],
      [
        "ım",
        -6.7642264988981315
      ],
      [
        "▁butun",
        -5.3435263644264195
      ],
      [
        "▁tarihinde",
        -8.932022691006619
      ],
      [
        "p",
        -4.215807387704473
      ],
      [
        "▁sacları",
        -8.627744470031466
      ],
      [
        "sız",
        -5.176838559836356
      ],
      [
        "4",
        -12.802702672349787
      ],
      [
        "▁tas",
        -7.694382476535432
      ],
      [
        "▁anlat",
        -9.010201864040372
      ],
      [
        "▁yıl",
        -7.786142649619765
      ],
      [
        "ik",
        -7.5332381974153915
      ],
      [
        "agı",
        -8.284440782906383
      ],
      [
        "▁arası",
        -7.805190244867434
      ],
      [
        "▁un",
        -8.582780595311068
      ],
      [
        "▁bagı",
        -8.588811122004692
      ],
      [
        "▁za",
        -6.239605117564355
      ],
      [
        "▁bir",
        -4.513339230743959
      ],
      [
        "▁oda",
        -6.317397871292799
      ],
      [
        "▁yukseldi",
        -6.236371526360394
      ],
      [
        "▁kay",
        -8.239592915265249
      ],
      [
        "▁hac",
        -9.278887000994581
      ],
      [
        "inizi",
        -9.281791294497125
      ],
      [
        "▁yasadı",
        -8.008898561057688
      ],
      [
        "▁istemiyoru",
        -6.588760722246835
      ],
      [
        "▁kose",
        -8.493563151265906
      ],
      [
        "▁daya",
        -7.891355334680133
      ],
      [
        "▁dar",
        -7.407631563580619
      ],
      [
        "▁ac",
        -7.530147952764761
      ],
      [
        "▁kendin",
        -6.061141479550905
      ],
      [
        "▁sermaye",
        -8.176417982173167
      ],
      [
        "u",
        -6.042964596613031
      ],
      [
        "▁ucusunu",
        -9.154085831606945
      ],
      [
        "▁yılda",
        -8.427258153785319
      ],
      [
        "▁de",
        -7.194763187565277
      ],
      [
        "▁aklı",
        -8.767898760571974
      ],
      [
        "acaktı",
        -7.871454571865197
      ],
      [
        "▁yapıl",
        -7.961584390834188
      ],
      [
        "▁tuttu",
        -7.772318232298745
      ],
      [
        "▁iyi",
        -8.20724418318709
      ],
      [
        "▁etti",
        -5.244491546802552
      ],
      [
        "▁cok",
        -2.7145552025289366
      ],
      [
        "▁elinde",
        -7.596396381410533
      ],
      [
        "yıp",
        -6.838689337787059
      ],
      [
        "▁secim",
        -7.883933559949147
      ],
      [
        ".",
        -1.1587881497080552
      ],
      [
        "ligin",
        -8.2988173604871
      ],
      [
        "▁mas",
        -9.075369940654099
      ],
      [
        "▁finans",
        -8.836507130825979
      ],
      [
        "▁neredey",
        -6.709668161950811
      ],
      [
        "▁na",
        -7.717602681352165
      ],
      [
        "▁doları",
        -7.859032420018468
      ],
      [
        "▁din",
        -7.8470006875294285
      ],
      [
        "▁derece",
        -7.831622361792163
      ],
      [
        "sızlıg",
        -8.958453016416442
      ],
      [
        "▁ayn",
        -7.3538778886871885
      ],
      [
        "▁fil",
        -8.976824843978608
      ],
      [
        "▁saha",
        -8.666121821897075
      ],
      [
        "▁odun",
        -9.134039528022974
      ],
      [
        "▁ilgili",
        -9.252489540990508
      ],
      [
        "ba",
        -7.533499976206271
      ],
      [
        "▁seri",
        -8.612912582385272
      ],
      [
        "m",
        -2.9325309695287753
      ],
      [
        "25",
        -6.232172715619792
      ],
      [
        "▁veriri",
        -7.049008130012812
      ],
      [
        "asla",
        -7.040142036828939
      ],
      [
        "▁iki",
        -2.932821784785342
      ],
      [
        "▁houston'da",
        -7.452939634644913
      ],
      [
        "y",
        -6.357935357697259
      ],
      [
        "▁.",
        -7.7838188156415065
      ],
      [
        "▁bir",
        -1.2266873658587887
      ],
      [
        "▁kav",
        -8.674692255794678
      ],
      [
        "▁listele",
        -6.391265677579597
      ],
      [
        "abilecek",
        -7.923519396217422
      ],
      [
        "▁gunu",
        -6.386325631530474
      ],
      [
        "1",
        -8.619252375660643
      ],
      [
        "▁devlet",
        -7.47680539229308
      ],
      [
        "▁yaptıgı",
        -7.795755109608496
      ],
      [
        "▁as",
        -7.982114698353285
      ],
      [
        "▁sag",
        -6.620873429776334
      ],
      [
        "▁milyar",
        -3.833066983694204
      ],
      [
        "▁sonra",
        -9.079282947960452
      ],
      [
        "▁gitme",
        -9.219801632759763
      ],
      [
        "▁aracı",
        -8.615625299311198
      ],
      [
        "▁bekleniyor",
        -7.564287660181253
      ],
      [
        "▁bos",
        -6.940296137114259
      ],
      [
        "▁birbirlerin",
        -6.499373602294938
      ],
      [
        "▁genc",
        -6.307971916890873
      ],
      [
        "▁saki",
        -6.9048363226009215
      ],
      [
        "▁istedi",
        -7.261650360695219
      ],
      [
        "be",
        -7.177595662382104
      ],
      [
        "▁hava",
        -7.279715746937222
      ],
      [
        "▁ekonomi",
        -6.928583034001799
      ],
      [
        "mayı",
        -7.344291672410745
      ],
      [
        "▁yat",
        -8.874195036090168
      ],
      [
        "▁hepsi",
        -4.889312156628241
      ],
      [
        "de",
        -5.330256973534882
      ],
      [
        "e",
        -2.7482464078386
      ],
      [
        "▁zamanda",
        -8.033931852459514
      ],
      [
        "gen",
        -9.003035137492052
      ],
      [
        "▁kendisi",
        -5.0164946613251225
      ],
      [
        "▁sozu",
        -8.407804031540875
      ],
      [
        "cı",
        -6.737588271946104
      ],
      [
        "▁milli",
        -6.881432315056266
      ],
      [
        "▁hanim",
        -7.332585119457372
      ],
      [
        "▁te",
        -8.059775422487665
      ],
      [
        "an",
        -5.06177540095515
      ],
      [
        "+",
        -12.802702672349787
      ],
      [
        "▁anne",
        -8.114635424835758
      ],
      [
        "▁soru",
        -8.149343270652665
      ],
      [
        "e",
        -3.869636175119987
      ],
      [
        "▁teslim",
        -8.716071481015334
      ],
      [
        "nuz",
        -7.61580098631229
      ],
      [
        "▁sabah",
        -6.836555084669988
      ],
      [
        "y",
        -5.290836037947182
      ],
      [
        "▁sol",
        -7.196571706374
      ],
      [
        "im",
        -7.477502352604834
      ],
      [
        "uz",
        -7.57519734604935
      ],
      [
        "▁elbet",
        -6.771714475515565
      ],
      [
        "▁is",
        -6.318078973884656
      ],
      [
        "▁piyasası",
        -8.722191855975046
      ],
      [
        "c",
        -12.802702672349787
      ],
      [
        "ici",
        -6.495987299734033
      ],
      [
        "▁ders",
        -8.18408359555225
      ],
      [
        "▁inc",
        -9.039842413567404
      ],
      [
        "▁yolda",
        -8.54615821546534
      ],
      [
        "▁gecir",
        -8.071277663634248
      ],
      [
        "▁geliyor",
        -6.385021080408034
      ],
      [
        "▁gidiyor",
        -6.9630755822586865
      ],
      [
        "▁duydu",
        -7.80353155634772
      ],
      [
        "▁yatırımcıların",
        -9.28646667217327
      ],
      [
        "▁metre",
        -9.185653850094823
      ],
      [
        "▁bankası",
        -8.963209145391541
      ],
      [
        "▁aksam",
        -6.7858193303442835
      ],
      [
        "a",
        -3.3062409507640718
      ],
      [
        "▁sabahı",
        -7.624812523957997
      ],
      [
        "iba",
        -7.213093955656788
      ],
      [
        "▁tahvilleri",
        -8.686796253456492
      ],
      [
        "ım",
        -7.449483007409628
      ],
      [
        "h",
        -5.4678534886632635
      ],
      [
        "se",
        -6.764883317301188
      ],
      [
        "sine",
        -6.626909697637752
      ],
      [
        "c",
        -6.519041070915972
      ],
      [
        "▁da",
        -2.118767026704102
      ],
      [
        "▁diz",
        -8.668868158441061
      ],
      [
        "larımızı",
        -8.55026986935729
      ],
      [
        "v",
        -2.1317723992754427
      ],
      [
        "▁ma",
        -7.4685509881895
      ],
      [
        "▁koku",
        -8.692061535529657
      ],
      [
        "▁100",
        -5.485529480805205
      ],
      [
        "▁gen",
        -8.857819113147354
      ],
      [
        "inde",
        -6.338122227695626
      ],
      [
        "▁ayakta",
        -9.00063664773717
      ],
      [
        "▁1990",
        -6.375653588350021
      ],
      [
        "▁d",
        -7.0730603790691
      ],
      [
        "▁personelin",
        -8.756675878482962
      ],
      [
        "msal",
        -6.949099742190111
      ],
      [
        "▁sar",
        -7.8536912895821684
      ],
      [
        "▁etmis",
        -7.520405121739282
      ],
      [
        "▁yıl",
        -7.582847028736413
      ],
      [
        "▁kal",
        -7.207473066616684
      ],
      [
        "elik",
        -7.316834905725904
      ],
      [
        "▁delta",
        -6.501953201151294
      ],
      [
        "▁20",
        -5.2040630633608735
      ],
      [
        "▁tabi",
        -6.9795939395389155
      ],
      [
        "ile",
        -3.939922469606252
      ],
      [
        "%",
        -12.802702672349787
      ],
      [
        "▁goturdu",
        -8.070715740152039
      ],
      [
        "▁orman",
        -8.717476551341084
      ],
      [
        "diginde",
        -9.194615365993846
      ],
      [
        "▁sor",
        -7.836084355901741
      ],
      [
        "▁tar",
        -8.953175885591383
      ],
      [
        "▁arttı",
        -7.380759279484635
      ],
      [
        "3",
        -4.775100445387007
      ],
      [
        "arak",
        -6.338457073017426
      ],
      [
        "▁tasarruf",
        -8.893521615512956
      ],
      [
        "ıslı",
        -7.8403697437904505
      ],
      [
        "da",
        -7.051083083933658
      ],
      [
        "▁basarı",
        -7.325769248214998
      ],
      [
        "▁10",
        -4.109372079715847
      ],
      [
        "▁bildirdi",
        -7.647032170492996
      ],
      [
        "▁boy",
        -5.301293242611928
      ],
      [
        "▁satın",
        -7.396054974063144
      ],
      [
        "▁yapmadı",
        -8.09102929740633
      ],
      [
        "▁ilave",
        -8.953570676907452
      ],
      [
        "s",
        -6.500190502047274
      ],
      [
        "▁sirketler",
        -8.507983034193309
      ],
      [
        "s",
        -7.940678475384541
      ],
      [
        "▁beyle",
        -8.421985248177215
      ],
      [
        "▁ikinci",
        -5.434783497462611
      ],
      [
        "i",
        -5.477913994704318
      ],
      [
        "▁reddetti",
        -7.46853376070064
      ],
      [
        "▁ol",
        -7.786574060490411
      ],
      [
        "▁kalmıs",
        -7.98930061934699
      ],
      [
        "lık",
        -6.4765119369027495
      ],
      [
        "▁arka",
        -8.66727881524363
      ],
      [
        "▁pis",
        -7.760690282767634
      ],
      [
        "▁cevre",
        -8.110900204163372
      ],
      [
        "▁sayısı",
        -9.00905665866477
      ],
      [
        "landı",
        -7.888311092890624
      ],
      [
        "iz",
        -5.780786808737579
      ],
      [
        "▁fiyatlar",
        -8.383214391304797
      ],
      [
        "mal",
        -9.136524979822207
      ],
      [
        "▁iletisim",
        -9.039608923531553
      ],
      [
        "▁gunde",
        -8.585567963527751
      ],
      [
        "ki",
        -5.569871713591724
      ],
      [
        "▁yar",
        -8.913074169224824
      ],
      [
        "ydi",
        -6.387179693571637
      ],
      [
        "▁yatırımcılar",
        -8.248134419848348
      ],
      [
        "▁kontrol",
        -8.185933144044473
      ],
      [
        "'y",
        -6.385410508951509
      ],
      [
        "▁co.",
        -6.722681917663853
      ],
      [
        "▁oldugun",
        -8.646577600885145
      ],
      [
        "cı",
        -8.096876134676762
      ],
      [
        "▁or",
        -8.061175959116673
      ],
      [
        "▁hedef",
        -8.18593860443748
      ],
      [
        "▁sur",
        -7.981345808981284
      ],
      [
        "z",
        -12.24335423160404
      ],
      [
        "da",
        -6.760170719648695
      ],
      [
        "▁demek",
        -9.020925765712667
      ],
      [
        "am",
        -8.203053439865858
      ],
      [
        "▁gercek",
        -6.57263610703078
      ],
      [
        "▁agrı",
        -9.133908953145543
      ],
      [
        "or",
        -7.628499005959598
      ],
      [
        "anlar",
        -8.33356514688371
      ],
      [
        "▁komisyonu",
        -8.87767011445018
      ],
      [
        "▁co",
        -7.299272965955133
      ],
      [
        "▁gozleri",
        -7.673245106194443
      ],
      [
        "▁okudu",
        -8.070645457773207
      ],
      [
        "▁olanlar",
        -8.979131030449631
      ],
      [
        "gını",
        -7.6582248526115055
      ],
      [
        "▁ver",
        -6.636893771376158
      ],
      [
        "▁doga",
        -7.4195539208541
      ],
      [
        "▁gercek",
        -8.472016431798693
      ],
      [
        "p",
        -8.916280301211483
      ],
      [
        "2",
        -4.354190389322459
      ],
      [
        "▁philadelphia'da",
        -5.939655199290512
      ],
      [
        "▁27",
        -5.792169366662349
      ],
      [
        "▁anlat",
        -7.307904591395673
      ],
      [
        "▁kosulları",
        -8.884008805767216
      ],
      [
        "▁yanıt",
        -9.220194832855992
      ],
      [
        "▁bakıyor",
        -7.6522711076711545
      ],
      [
        "▁si",
        -7.789679622917591
      ],
      [
        "▁dokuz",
        -5.927416539257818
      ],
      [
        "yon",
        -8.749466343637714
      ],
      [
        "rak",
        -3.383613678221411
      ],
      [
        "▁bayan",
        -8.120614801603455
      ],
      [
        "▁butu",
        -6.262157153689966
      ],
      [
        "ı",
        -6.495236803388375
      ],
      [
        "mel",
        -6.5448932128044115
      ],
      [
        "▁kir",
        -7.895289163414693
      ],
      [
        "▁karayolu",
        -7.854941079164662
      ],
      [
        "ar",
        -6.810744505096578
      ],
      [
        "▁kokusu",
        -8.999723836130443
      ],
      [
        "▁adam",
        -6.7973032049191575
      ],
      [
        "▁b",
        -3.7367717215100527
      ],
      [
        "▁canı",
        -9.284916030567853
      ],
      [
        "▁toronto'",
        -7.503686101187043
      ],
      [
        "▁cuma",
        -6.5860505842514705
      ],
      [
        "▁servisi",
        -8.27805000675811
      ],
      [
        "▁asagıda",
        -9.079936920397598
      ],
      [
        "dir",
        -4.943700873807415
      ],
      [
        "▁da",
        -3.8220161579732874
      ],
      [
        "▁karısı",
        -7.840275909925566
      ],
      [
        "▁yanın",
        -9.146594453930314
      ],
      [
        "▁kuru",
        -6.828130241180895
      ],
      [
        "▁ce",
        -7.99436355648325
      ],
      [
        "▁belir",
        -9.00553335491078
      ],
      [
        "▁bas",
        -7.000258970503873
      ],
      [
        "ra",
        -6.794045770437571
      ],
      [
        "ki",
        -7.752685619992764
      ],
      [
        "▁olus",
        -7.870410008112699
      ],
      [
        "▁ede",
        -6.512867076807439
      ],
      [
        "▁oturdu",
        -7.951363958361007
      ],
      [
        "▁memleket",
        -8.879926289606606
      ],
      [
        "▁mola",
        -9.003402995144327
      ],
      [
        "▁tren",
        -8.716307073007833
      ],
      [
        "▁icinde",
        -7.1227718035844765
      ],
      [
        "▁sis",
        -9.262693680190074
      ],
      [
        "▁sovyet",
        -9.288850698743765
      ],
      [
        "▁degil",
        -2.538634238983531
      ],
      [
        "r",
        -5.636852872095091
      ],
      [
        "▁sa",
        -10.185553443214628
      ],
      [
        "▁yol",
        -6.7559456763970065
      ],
      [
        "sunda",
        -9.051796505880809
      ],
      [
        "▁rehber",
        -8.40974490307236
      ],
      [
        "▁aksamı",
        -8.6466799098704
      ],
      [
        "▁yılın",
        -8.243109969214476
      ],
      [
        "▁has",
        -8.681726710847554
      ],
      [
        "▁uc",
        -8.719926880762216
      ],
      [
        "ir",
        -7.590219563061299
      ],
      [
        "▁kavga",
        -8.914346802786797
      ],
      [
        "▁hicbiri",
        -6.194402383819175
      ],
      [
        "▁program",
        -8.058761814505687
      ],
      [
        "▁indianapolis'te",
        -7.084961476014257
      ],
      [
        "▁salt",
        -6.566705835229242
      ],
      [
        "▁milwaukee'",
        -7.0194406602758725
      ],
      [
        "▁benim",
        -4.0962344854904496
      ],
      [
        "sizdi",
        -7.374241481760511
      ],
      [
        "sinin",
        -7.254941450384607
      ],
      [
        "▁yasa",
        -7.432925370564925
      ],
      [
        "▁onumuzde",
        -6.664233613749562
      ],
      [
        "ne",
        -7.407806076747501
      ],
      [
        "▁potansiyel",
        -9.210748574717956
      ],
      [
        "p",
        -5.971301426427602
      ],
      [
        "▁uzman",
        -8.951201762821405
      ],
      [
        "ye",
        -4.548685384227771
      ],
      [
        "▁vade",
        -8.745680466121406
      ],
      [
        "▁pazar",
        -6.932343962904431
      ],
      [
        "▁kadın",
        -7.224328759221749
      ],
      [
        "▁gosterme",
        -9.178849973017444
      ],
      [
        "l",
        -5.477768339298198
      ],
      [
        "▁musa",
        -6.911637104660019
      ],
      [
        "▁di",
        -4.120192399565302
      ],
      [
        "▁annem",
        -7.911345904187881
      ],
      [
        "▁benzer",
        -7.000372126861872
      ],
      [
        "dir",
        -5.261977899536268
      ],
      [
        "▁bası",
        -8.222583663136248
      ],
      [
        "igi",
        -8.645844184935672
      ],
      [
        "▁gazete",
        -7.7155077417781435
      ],
      [
        "▁omuz",
        -9.06590787112773
      ],
      [
        "▁rezerv",
        -9.158727890611482
      ],
      [
        "de",
        -7.092772207721221
      ],
      [
        "▁tarafı",
        -8.780119560717411
      ],
      [
        "gin",
        -7.625208107598876
      ],
      [
        "gına",
        -9.034383569710904
      ],
      [
        ",",
        -7.003706735794483
      ],
      [
        "▁ydu",
        -5.652411369949245
      ],
      [
        "▁gucu",
        -8.751508144810568
      ],
      [
        "gal",
        -7.36865630030424
      ],
      [
        "kadar",
        -6.308773486617229
      ],
      [
        "tmek",
        -9.068028978378308
      ],
      [
        "▁arac",
        -8.799851043344582
      ],
      [
        "o",
        -12.802702672349787
      ],
      [
        "▁vardi",
        -6.354763873471127
      ],
      [
        "▁sona",
        -8.349367676310766
      ],
      [
        "▁orada",
        -6.679303596995425
      ],
      [
        "▁toplum",
        -8.346583990260957
      ],
      [
        "sıdır",
        -7.790365813978557
      ],
      [
        "▁met",
        -8.899037701603312
      ],
      [
        "▁gecer",
        -7.708042171527354
      ],
      [
        "▁saat",
        -6.480816392806072
      ],
      [
        "los",
        -6.97143086662715
      ],
      [
        "ten",
        -6.001337085484257
      ],
      [
        "ca",
        -6.822960096147538
      ],
      [
        "n",
        -5.575916566983606
      ],
      [
        "f",
        -7.405868900941825
      ],
      [
        "▁tekne",
        -8.750042761421096
      ],
      [
        "▁biri",
        -8.023017065902973
      ],
      [
        "cı",
        -6.208280676811853
      ],
      [
        "▁dun",
        -7.2359572802122605
      ],
      [
        "▁ic",
        -7.744892378702672
      ],
      [
        "▁kanun",
        -8.435196922470897
      ],
      [
        "▁hayat",
        -7.808658024613838
      ],
      [
        "▁dal",
        -7.977925928548868
      ],
      [
        "▁liste",
        -8.63574825313622
      ],
      [
        "ır",
        -6.178154728156481
      ],
      [
        "▁kriz",
        -9.075898134331435
      ],
      [
        "▁kart",
        -8.57538444118731
      ],
      [
        "▁sık",
        -8.93259984114122
      ],
      [
        "▁kurt",
        -9.24027110472299
      ],
      [
        "li",
        -3.8975063851607272
      ],
      [
        "unu",
        -6.939939349485027
      ],
      [
        "▁elini",
        -8.516581796678722
      ],
      [
        "cilerin",
        -9.239217403298406
      ],
      [
        "▁beraber",
        -6.830449956414693
      ],
      [
        "▁fiyatin",
        -8.780618017897794
      ],
      [
        "▁ayse",
        -7.48171924884963
      ],
      [
        "▁burada",
        -5.999819427533163
      ],
      [
        "▁bileti",
        -8.855048721761264
      ],
      [
        "▁29",
        -6.422469476374212
      ],
      [
        "le",
        -7.458790267317659
      ],
      [
        "lig",
        -8.169168671523698
      ],
      [
        "▁hakim",
        -8.987520347213144
      ],
      [
        "fa",
        -8.236962644876998
      ],
      [
        "▁la",
        -7.875123900253623
      ],
      [
        "▁baskan",
        -7.535966489800675
      ],
      [
        "▁ediyoru",
        -7.289634823385364
      ],
      [
        "▁ornek",
        -8.565425644575175
      ],
      [
        "▁cıkıyor",
        -7.668218371157288
      ],
      [
        "▁calısma",
        -7.814598973691669
      ],
      [
        "▁sınır",
        -8.3298947076584
      ],
      [
        "muz",
        -8.378158394651074
      ],
      [
        "lerden",
        -6.965940865704701
      ],
      [
        "erek",
        -4.620556824828748
      ],
      [
        "▁bebek",
        -9.18448139804936
      ],
      [
        "k",
        -4.834402831400872
      ],
      [
        "ama",
        -8.057542674885958
      ],
      [
        "▁bey",
        -6.191657274360547
      ],
      [
        "▁pantolon",
        -9.184432783644159
      ],
      [
        "▁politika",
        -7.941015329796584
      ],
      [
        "▁fiyatı",
        -8.239115862109752
      ],
      [
        "'n",
        -8.269611997524315
      ],
      [
        "▁kaldi",
        -5.312955628962697
      ],
      [
        "▁s",
        -6.730562792173902
      ],
      [
        "▁gu",
        -8.515050676381094
      ],
      [
        "▁pittsburgh'ta",
        -5.679230602104745
      ],
      [
        "▁seviyesin",
        -8.510794453093183
      ],
      [
        "▁mehmet",
        -6.732835907661538
      ],
      [
        "▁satısı",
        -8.899363847567406
      ],
      [
        "▁cop",
        -9.187476861219697
      ],
      [
        "v",
        -14.014958445102625
      ],
      [
        "▁ilgiliydi",
        -6.09892415350491
      ],
      [
        "▁harikayd",
        -7.845569420023782
      ],
      [
        "▁bunlar",
        -4.7085310956851325
      ],
      [
        "▁gozlerini",
        -8.289770890806162
      ],
      [
        "▁oyunu",
        -9.133136802551583
      ],
      [
        "▁asagı",
        -9.025879879562671
      ],
      [
        "▁burada",
        -6.054666224502334
      ],
      [
        "▁ydi",
        -4.345530577115908
      ],
      [
        "lere",
        -6.511187168128944
      ],
      [
        "▁ceyrek",
        -8.282990045152872
      ],
      [
        "▁orada",
        -5.86959198151261
      ],
      [
        "ip",
        -6.394888582471555
      ],
      [
        "▁uzere",
        -5.048386226996949
      ],
      [
        "▁insanları",
        -8.810371316056898
      ],
      [
        "▁kullan",
        -7.577518783158073
      ],
      [
        "▁iktidar",
        -9.133791777702369
      ],
      [
        "▁hak",
        -7.433022112221926
      ],
      [
        "1",
        -4.618758539404044
      ],
      [
        "muyor",
        -7.998022514967612
      ],
      [
        "▁baltimore",
        -7.055212171793511
      ],
      [
        "▁duzen",
        -8.510805999341338
      ],
      [
        "ı",
        -4.541321046145934
      ],
      [
        "▁sut",
        -8.57709855689544
      ],
      [
        "000",
        -5.453798378371451
      ],
      [
        "▁seni",
        -5.079941773321164
      ],
      [
        "▁actı",
        -6.946085594628516
      ],
      [
        "diklerini",
        -9.094904089610862
      ],
      [
        "z",
        -6.428989089571596
      ],
      [
        "▁tatlı",
        -7.188067111371172
      ],
      [
        "lerimizi",
        -8.510313146234449
      ],
      [
        "▁arzu",
        -9.210440052559866
      ],
      [
        "g",
        -7.286923133280997
      ],
      [
        "▁kopru",
        -8.836909175585768
      ],
      [
        "a",
        -12.802702672349763
      ],
      [
        "▁5",
        -9.017424572311805
      ],
      [
        "a",
        -2.9601516385060798
      ],
      [
        "▁der",
        -7.283134991011326
      ],
      [
        "▁portfoy",
        -9.237775600474485
      ],
      [
        "▁seattle'",
        -7.002052026715994
      ],
      [
        "▁yazar",
        -7.9801174766684895
      ],
      [
        "unun",
        -7.450536835102856
      ],
      [
        "▁pes",
        -9.226688501142554
      ],
      [
        "▁karar",
        -7.329213357436965
      ],
      [
        "▁si",
        -7.881488492099301
      ],
      [
        "n",
        -2.5272601907098036
      ],
      [
        "▁yolun",
        -9.197579212966085
      ],
      [
        "▁yumurta",
        -8.874295364588884
      ],
      [
        "az",
        -8.127170169749071
      ],
      [
        "oysa",
        -10.862622396443756
      ],
      [
        "▁performans",
        -7.782061420782874
      ],
      [
        "▁yasam",
        -8.042440661959901
      ],
      [
        "re",
        -7.287148064366534
      ],
      [
        "▁mesaj",
        -8.893718906242759
      ],
      [
        "bire",
        -6.803876773460233
      ],
      [
        "▁lezzeti",
        -8.776975677167293
      ],
      [
        "ıntı",
        -9.120986829331363
      ],
      [
        "b",
        -4.961966405561515
      ],
      [
        "▁ingiliz",
        -7.441867043161407
      ],
      [
        "tif",
        -7.057084189862653
      ],
      [
        "ını",
        -6.305788123081618
      ],
      [
        "▁yeri",
        -8.780285937916616
      ],
      [
        "▁hizmetleri",
        -8.65845828748498
      ],
      [
        "▁geliri",
        -9.11459552846001
      ],
      [
        "▁kotu",
        -9.042313902298677
      ],
      [
        "▁oranları",
        -8.746810424894322
      ],
      [
        "mıslar",
        -7.930022845837249
      ],
      [
        "▁sınıf",
        -7.86429784751094
      ],
      [
        "[MASK]",
        0.0
      ],
      [
        "▁dunyada",
        -8.803791541985877
      ],
      [
        "bası",
        -8.799278101600494
      ],
      [
        "▁o",
        -6.656188534955952
      ],
      [
        "tik",
        -7.853044933554709
      ],
      [
        "▁yargı",
        -9.139708322011861
      ],
      [
        "▁tuketici",
        -8.637907763237546
      ],
      [
        "▁in",
        -8.066435493824775
      ],
      [
        "▁tekrar",
        -5.767848238720847
      ],
      [
        "▁kup",
        -9.076191902652129
      ],
      [
        "'nde",
        -8.794718087696545
      ],
      [
        "▁ismi",
        -9.249987128533782
      ],
      [
        "▁erke",
        -6.2825486582366485
      ],
      [
        "▁kendimiz",
        -6.381187203357939
      ],
      [
        "▁yuk",
        -8.342007429441514
      ],
      [
        "ının",
        -6.9108990445384775
      ],
      [
        "▁st",
        -5.766618818790405
      ],
      [
        "kul",
        -7.445528430967017
      ],
      [
        "▁gulu",
        -9.186880366489566
      ],
      [
        "▁analistler",
        -8.17242682380744
      ],
      [
        "al",
        -6.233800419023781
      ],
      [
        "uk",
        -7.897456278568062
      ],
      [
        "▁mes",
        -9.00696301625283
      ],
      [
        "▁mu",
        -3.89386215236744
      ],
      [
        "▁per",
        -9.109518577263938
      ],
      [
        "▁basını",
        -8.258267193019861
      ],
      [
        "e",
        -1.5758668895254075
      ],
      [
        "▁nufus",
        -9.265553438012642
      ],
      [
        "6",
        -4.861426244991476
      ],
      [
        "▁karsiligi",
        -8.31890346440101
      ],
      [
        "▁sistem",
        -8.483220858325652
      ],
      [
        "▁siparis",
        -8.68406909603177
      ],
      [
        "▁ag",
        -8.75704493193146
      ],
      [
        "ma",
        -6.108077271086794
      ],
      [
        "▁listeley",
        -6.306110256609846
      ],
      [
        "▁yapılan",
        -6.930759230668282
      ],
      [
        "leri",
        -6.24116818408501
      ],
      [
        "▁cift",
        -8.526810223381293
      ],
      [
        "▁edile",
        -6.715375668639949
      ],
      [
        "▁19",
        -5.584042382710445
      ],
      [
        "▁enflasyon",
        -8.74913106885425
      ],
      [
        "▁o",
        -7.153300629920321
      ],
      [
        "▁pittsburgh",
        -6.185234751182306
      ],
      [
        "c",
        -7.5862404107172114
      ],
      [
        "▁gorunuyor",
        -7.4224956947497684
      ],
      [
        "ta",
        -6.309472583087412
      ],
      [
        "▁",
        -2.896334987865555
      ],
      [
        "▁attı",
        -7.323690295219331
      ],
      [
        "▁iliskileri",
        -9.264989118937086
      ],
      [
        "▁telefon",
        -7.870323223050649
      ],
      [
        "▁gel",
        -8.757612393217727
      ],
      [
        "▁pazarı",
        -9.275238901556913
      ],
      [
        "um",
        -7.856672001906384
      ],
      [
        "▁kalıyor",
        -8.113316475280968
      ],
      [
        "g",
        -7.6439142066785255
      ],
      [
        "misti",
        -6.5142912228694145
      ],
      [
        "▁kamyon",
        -8.874296221014012
      ],
      [
        "▁amerikalı",
        -9.104064839724339
      ],
      [
        "f",
        -6.105801925130544
      ],
      [
        "▁hakkı",
        -8.574097819955353
      ],
      [
        "▁aktivite",
        -8.510979166396105
      ],
      [
        "▁yapti",
        -7.384947789438916
[...]
