{
  "version": "1.0",
  "truncation": null,
  "padding": null,
  "added_tokens": [
    {
      "id": 6469,
      "content": "[PAD]",
      "single_word": false,
      "lstrip": false,
      "rstrip": false,
      "normalized": false,
      "special": true
    },
    {
      "id": 7580,
      "content": "[MASK]",
      "single_word": false,
      "lstrip": false,
      "rstrip": false,
      "normalized": false,
      "special": true
    },
    {
      "id": 7765,
      "content": "[UNK]",
      "single_word": false,
      "lstrip": false,
      "rstrip": false,
      "normalized": false,
      "special": true
    },
    {
      "id": 12790,
      "content": "[CLS]",
      "single_word": false,
      "lstrip": false,
      "rstrip": false,
      "normalized": false,
      "special": true
    },
    {
      "id": 13233,
      "content": "[SEP]",
      "single_word": false,
      "lstrip": false,
      "rstrip": false,
      "normalized": false,
      "special": true
    }
  ],
  "normalizer": {
    "type": "Sequence",
    "normalizers": [
      {
        "type": "NFD"
      },
      {
        "type": "Lowercase"
      },
      {
        "type": "StripAccents"
      }
    ]
  },
  "pre_tokenizer": {
    "type": "Sequence",
    "pretokenizers": [
      {
        "type": "Metaspace",
        "replacement": "▁",
        "prepend_scheme": "always",
        "split": true
      }
    ]
  },
  "post_processor": {
    "type": "TemplateProcessing",
    "single": [
      {
        "SpecialToken": {
          "id": "[CLS]",
          "type_id": 0
        }
      },
      {
        "Sequence": {
          "id": "A",
          "type_id": 0
        }
      },
      {
        "SpecialToken": {
          "id": "[SEP]",
          "type_id": 0
        }
      }
    ],
    "pair": [
      {
        "SpecialToken": {
          "id": "[CLS]",
          "type_id": 0
        }
      },
      {
        "Sequence": {
          "id": "A",
          "type_id": 0
        }
      },
      {
        "SpecialToken": {
          "id": "[SEP]",
          "type_id": 0
        }
      },
      {
        "Sequence": {
          "id": "B",
          "type_id": 1
        }
      },
      {
        "SpecialToken": {
          "id": "[SEP]",
          "type_id": 1
        }
      }
    ],
    "special_tokens": {
      "[CLS]": {
        "id": "[CLS]",
        "ids": [
          12790
        ],
        "tokens": [
          "[CLS]"
        ]
      },
      "[SEP]": {
        "id": "[SEP]",
        "ids": [
          13233
        ],
        "tokens": [
          "[SEP]"
        ]
      }
    }
  },
  "decoder": {
    "type": "Metaspace",
    "replacement": "▁",
    "prepend_scheme": "always",
    "split": true
  },
  "model": {
    "type": "BPE",
    "dropout": null,
    "unk_token": "[UNK]",
    "continuing_subword_prefix": null,
    "end_of_word_suffix": null,
    "fuse_unk": false,
    "byte_fallback": false,
    "ignore_merges": false,
    "vocab": {
      "iss": 0,
      "▁milyardan": 1,
      "▁agız": 2,
      "ildigi": 3,
      "▁davranısını": 4,
      "▁kahvenin": 5,
      "▁ilim": 6,
      "▁dilin": 7,
      "▁vesil": 8,
      "▁yuzyılın": 9,
      "▁sif": 10,
      "▁pekmez": 11,
      "▁sic": 12,
      "▁onayını": 13,
      "▁muzigin": 14,
      "▁chat": 15,
      "▁alamadim": 16,
      "▁durmamacasına": 17,
      "yip": 18,
      "▁cozumu": 19,
      "gisi": 20,
      "lerinde": 21,
      "▁hast": 22,
      "▁bilgiyi": 23,
      "40": 24,
      "ayıcı": 25,
      "▁yonel": 26,
      "kca": 27,
      "evizyon": 28,
      "▁mudahal": 29,
      "emezdi": 30,
      "▁sonradan": 31,
      "▁artırma": 32,
      "▁oynamaya": 33,
      "otek": 34,
      "▁kamuoyuna": 35,
      "▁ec": 36,
      "ilya": 37,
      "▁ha": 38,
      "▁serce": 39,
      "▁must": 40,
      "▁herkesi": 41,
      "▁aras": 42,
      "▁reddet": 43,
      "▁ucretle": 44,
      "imiza": 45,
      "▁miami'den": 46,
      "imiz": 47,
      "▁form": 48,
      "▁beklenen": 49,
      "▁valisi": 50,
      "▁uzeri": 51,
      "ektif": 52,
      "▁ticari": 53,
      "▁temerrut": 54,
      "▁gezin": 55,
      "ciler": 56,
      "▁dusmesine": 57,
      "anlık": 58,
      "tia": 59,
      "▁sırada": 60,
      "▁sarkı": 61,
      "▁ebeveyn": 62,
      "ılıgın": 63,
      "luler": 64,
      "▁abim": 65,
      "▁topragı": 66,
      "▁kaybına": 67,
      "0'de": 68,
      "▁kapıyı": 69,
      "▁fazilet": 70,
      "makıllı": 71,
      "▁taham": 72,
      "▁q": 73,
      "▁elimizde": 74,
      "tıs": 75,
      "▁toplamak": 76,
      "▁uzakta": 77,
      "▁olayı": 78,
      "▁dola": 79,
      "▁fedakarlık": 80,
      "▁fonlarını": 81,
      "iklerin": 82,
      "▁tanrısı": 83,
      "▁tedar": 84,
      "▁kanep": 85,
      "▁zorla": 86,
      "▁esn": 87,
      "istiri": 88,
      "dirde": 89,
      "▁burnu": 90,
      "▁halbuki": 91,
      "▁alakasi": 92,
      "▁gittim": 93,
      "▁siyasete": 94,
      "▁coz": 95,
      "▁cerey": 96,
      "▁pesinden": 97,
      "▁memuriyet": 98,
      "▁yeniden": 99,
      "▁otelde": 100,
      "▁gecmisi": 101,
      "▁gurultuye": 102,
      "▁artıs": 103,
      "▁angeles'e": 104,
      "azlık": 105,
      "▁yapımını": 106,
      "▁salın": 107,
      "▁buy": 108,
      "▁vaj": 109,
      "▁ureticilerinin": 110,
      "tıras": 111,
      "▁birlestir": 112,
      "amda": 113,
      "alarımı": 114,
      "▁ifsa": 115,
      "▁arasında": 116,
      "▁ozellikleri": 117,
      "▁standart": 118,
      ".6": 119,
      "▁yazarı": 120,
      "▁ulasımı": 121,
      "▁y": 122,
      "▁yapmadıgını": 123,
      "▁calısıyorlar": 124,
      "▁olustur": 125,
      "▁yur": 126,
      "▁kazanclara": 127,
      "cileri": 128,
      "ınca": 129,
      "▁bekledigimden": 130,
      "liligini": 131,
      "▁carsı": 132,
      "▁oturt": 133,
      "▁toplantıdan": 134,
      "adıgını": 135,
      "▁edebiyatı": 136,
      "▁heyec": 137,
      "▁manevra": 138,
      "▁dusurmek": 139,
      "▁gogus": 140,
      "▁aray": 141,
      "▁yanım": 142,
      "▁sayede": 143,
      "▁buc": 144,
      "estiri": 145,
      "siyi": 146,
      "▁bagısıklık": 147,
      "hut": 148,
      "▁sorusturma": 149,
      "▁u": 150,
      "▁1989'un": 151,
      "▁seviyelerinde": 152,
      "▁calık": 153,
      "eksu": 154,
      "sem": 155,
      "▁maclarda": 156,
      "▁cıkmam": 157,
      "▁yken": 158,
      "▁fig": 159,
      "▁isteyen": 160,
      "▁operasyonlarına": 161,
      "imler": 162,
      "▁once": 163,
      "▁indian": 164,
      "ık": 165,
      "▁2017": 166,
      "▁ayagın": 167,
      "lulerdi": 168,
      "▁odasindan": 169,
      "▁bilgisayarlarının": 170,
      "lararası": 171,
      "▁yılına": 172,
      "▁mar": 173,
      "yacaklar": 174,
      "▁bitir": 175,
      "▁ucuslarla": 176,
      "ımız": 177,
      "▁edemez": 178,
      "▁bilgisayar": 179,
      "lenmek": 180,
      "esini": 181,
      "▁dudakları": 182,
      "▁degerli": 183,
      "▁hisseyi": 184,
      "evi": 185,
      "▁soval": 186,
      "umun": 187,
      "▁tesp": 188,
      "▁ra": 189,
      "acakları": 190,
      "▁tavada": 191,
      "▁kokteyl": 192,
      "▁ruhundan": 193,
      "▁karısıklık": 194,
      "cin": 195,
      "lerle": 196,
      "▁katılıyor": 197,
      "▁karara": 198,
      "ikler": 199,
      "▁soylemeye": 200,
      "▁rıh": 201,
      "▁spons": 202,
      "▁kirliydi": 203,
      "▁pencereden": 204,
      "rne": 205,
      "▁kaydetti": 206,
      "▁sir": 207,
      "▁marif": 208,
      "▁adı": 209,
      "▁sonrasına": 210,
      "▁havalimanı": 211,
      "▁trafik": 212,
      "▁temizlikten": 213,
      "▁sonucların": 214,
      "larım": 215,
      "▁unsuru": 216,
      "isim": 217,
      "▁first": 218,
      "▁futbolcu": 219,
      "ımı": 220,
      "▁karabiber": 221,
      "▁kokuyordu": 222,
      "▁ameliyat": 223,
      "▁aldıktan": 224,
      "▁anlatmak": 225,
      "▁temel": 226,
      "lılar": 227,
      "▁kısmen": 228,
      "▁ydim": 229,
      "▁mih": 230,
      "▁tanın": 231,
      "▁patlıc": 232,
      "▁mektebe": 233,
      "▁hadisenin": 234,
      "ecekleri": 235,
      "▁mucadele": 236,
      "▁kaliteyi": 237,
      "▁traj": 238,
      "lugunda": 239,
      "▁gozler": 240,
      "▁yatag": 241,
      "▁seridi": 242,
      "layabil": 243,
      "▁perdesi": 244,
      "meleri": 245,
      "▁irf": 246,
      "▁boy": 247,
      "▁diline": 248,
      "▁sanıyorum": 249,
      "▁nabz": 250,
      "▁iplik": 251,
      "▁iyims": 252,
      "▁endeksleri": 253,
      "▁ora": 254,
      "ekon": 255,
      "▁parkta": 256,
      "▁tesisten": 257,
      "▁demokratik": 258,
      "dım": 259,
      "▁harikaydi": 260,
      "▁kenarları": 261,
      "landıgında": 262,
      "▁kirpik": 263,
      "▁gecer": 264,
      "▁macı": 265,
      "▁tum": 266,
      "ble": 267,
      "▁yonetiminin": 268,
      "▁indianapolis'ten": 269,
      "▁annem": 270,
      "telik": 271,
      "▁kasırga": 272,
      "▁duygusu": 273,
      "▁guzelim": 274,
      "az": 275,
      "ans": 276,
      "▁akl": 277,
      "▁nut": 278,
      "▁faydasını": 279,
      "▁kasabadan": 280,
      "▁hakkı": 281,
      "▁farkına": 282,
      "▁kahveci": 283,
      "▁mutla": 284,
      "▁rengini": 285,
      "▁boc": 286,
      "▁bahset": 287,
      "▁daglarda": 288,
      "▁yan": 289,
      "▁acıklam": 290,
      "▁sarmas": 291,
      "e'nin": 292,
      "okr": 293,
      "▁mat": 294,
      "ucc": 295,
      "▁perdelerini": 296,
      "▁baksana": 297,
      "▁ayının": 298,
      "▁baskanlıgı": 299,
      "▁oil": 300,
      "miyordu": 301,
      "▁bec": 302,
      "▁saniye": 303,
      "▁yukunu": 304,
      "▁berber": 305,
      "emden": 306,
      "▁doneminden": 307,
      "▁mani": 308,
      "menin": 309,
      "daydi": 310,
      "▁kep": 311,
      "▁yukselt": 312,
      "van": 313,
      "▁yetersizdi": 314,
      "▁odalarında": 315,
      "▁plaj": 316,
      "▁mektup": 317,
      "▁lezz": 318,
      "dadı": 319,
      "eydi": 320,
      "guye": 321,
      "▁yavr": 322,
      "▁degistiriyor": 323,
      "▁gayr": 324,
      "▁konusmaya": 325,
      "▁madde": 326,
      "meyerek": 327,
      "▁yapti": 328,
      "▁muhendisi": 329,
      "▁sivil": 330,
      "▁ray": 331,
      "▁dolardır": 332,
      "sagı": 333,
      "eci": 334,
      "▁planını": 335,
      "▁pur": 336,
      "▁yuzluydu": 337,
      "▁ariz": 338,
      "▁deligi": 339,
      "id": 340,
      "▁mısın": 341,
      "leti": 342,
      "taj": 343,
      "▁sapan": 344,
      "▁inceleme": 345,
      "anından": 346,
      "end": 347,
      "▁prot": 348,
      "▁birka": 349,
      "▁kilerin": 350,
      "▁mukav": 351,
      "itleri": 352,
      "tıp": 353,
      "ciligin": 354,
      "▁adında": 355,
      "▁arad": 356,
      "▁titizlik": 357,
      "▁dibinden": 358,
      "▁keresinde": 359,
      "▁koruy": 360,
      "▁bolumu": 361,
      "manız": 362,
      "ini": 363,
      "ustu": 364,
      "▁sozc": 365,
      "▁diego'ya": 366,
      "▁bilete": 367,
      "gın": 368,
      "▁kendimizi": 369,
      "mayalım": 370,
      "uvar": 371,
      "▁tırman": 372,
      "▁evrenin": 373,
      "▁mademki": 374,
      "▁acıyla": 375,
      "▁thom": 376,
      "▁ice": 377,
      "▁siy": 378,
      "▁rafin": 379,
      "▁yangın": 380,
      "▁muhabir": 381,
      "▁verebilirim": 382,
      "iyetle": 383,
      "▁kulag": 384,
      "▁cevaplar": 385,
      "ansız": 386,
      "▁tezker": 387,
      "orc": 388,
      "▁taks": 389,
      "▁italyan": 390,
      "”": 391,
      "▁abi": 392,
      "▁bon": 393,
      "▁vak": 394,
      "▁skandal": 395,
      "▁bilmek": 396,
      "▁bildir": 397,
      "▁yukselerek": 398,
      "emizin": 399,
      "tiy": 400,
      "▁koltuklar": 401,
      "▁dususu": 402,
      "▁endustrisi": 403,
      "▁cagında": 404,
      "▁dua": 405,
      "▁ceza": 406,
      "▁insanlardan": 407,
      "-hisse": 408,
      "▁evden": 409,
      "▁aslında": 410,
      "▁dip": 411,
      "▁islemciler": 412,
      "▁duvarların": 413,
      "▁pazarlık": 414,
      "masından": 415,
      "▁kumsal": 416,
      "onom": 417,
      "▁nehrin": 418,
      "▁bulasık": 419,
      "▁ortalık": 420,
      "▁alıcı": 421,
      "manlar": 422,
      "▁gelistirme": 423,
      "▁sevg": 424,
      "▁mahallede": 425,
      "▁merh": 426,
      "▁chicago'dan": 427,
      "▁rap": 428,
      "▁sekiz": 429,
      "'li": 430,
      "▁hayatımda": 431,
      "dıran": 432,
      "▁dostları": 433,
      "▁iskan": 434,
      "▁dururdu": 435,
      "▁tohumları": 436,
      "▁kim": 437,
      "▁goruyoruz": 438,
      "▁imkanları": 439,
      "▁saglam": 440,
      "izdi": 441,
      "▁yetkilileri": 442,
      "▁tut": 443,
      "▁hayal": 444,
      "▁yıcı": 445,
      "▁york'tan": 446,
      "▁dondum": 447,
      "▁hesaba": 448,
      "▁bildi": 449,
      "▁milletvek": 450,
      "▁veyahut": 451,
      "▁sim": 452,
      "▁duygular": 453,
      "▁magrur": 454,
      "▁bayanlar": 455,
      "▁uretimin": 456,
      "lendim": 457,
      "▁alısveris": 458,
      "abilmesi": 459,
      "▁tahminleri": 460,
      "duy": 461,
      "▁nesne": 462,
      "▁alabilecegini": 463,
      "oeni": 464,
      "arlandı": 465,
      "▁yırt": 466,
      "▁ayn": 467,
      "▁prob": 468,
      "▁reviz": 469,
      "▁koylerinde": 470,
      "alara": 471,
      "lanıyor": 472,
      "▁gunlerden": 473,
      "▁ihtiras": 474,
      "▁uykus": 475,
      "hane": 476,
      "▁kaybet": 477,
      "▁itibari": 478,
      "▁oldugumuzu": 479,
      "▁gelmeden": 480,
      "▁etmez": 481,
      "▁yaparlar": 482,
      "▁kk": 483,
      "isle": 484,
      "amızı": 485,
      "il": 486,
      "▁bulunan": 487,
      "▁organı": 488,
      "iya": 489,
      "▁yeryuzunun": 490,
      "▁koyun": 491,
      "▁genisleme": 492,
      "▁kulturu": 493,
      "▁edinmek": 494,
      "▁agırlıgında": 495,
      "80'": 496,
      "aylon": 497,
      "▁karsılas": 498,
      "▁ask": 499,
      "▁muamel": 500,
      "▁hain": 501,
      "▁mecliste": 502,
      "▁tanr": 503,
      "▁pazarlama": 504,
      "▁uzmanların": 505,
      "▁dc'ye": 506,
      "▁verecek": 507,
      "▁yatakta": 508,
      "▁dizlerine": 509,
      "▁calısması": 510,
      "liyor": 511,
      "▁kuması": 512,
      "00'": 513,
      "▁dısına": 514,
      "▁dusuktu": 515,
      "▁yaptıgını": 516,
      "▁girisimleri": 517,
      "anız": 518,
      "▁neyi": 519,
      "▁mc": 520,
      "▁saatler": 521,
      "▁eserleri": 522,
      "▁seyh": 523,
      "ku": 524,
      "ulmesi": 525,
      "▁esyaları": 526,
      "▁evla": 527,
      "▁mikrop": 528,
      "▁mood": 529,
      "▁mazhar": 530,
      "▁restoranlar": 531,
      "tıkları": 532,
      "gını": 533,
      "meme": 534,
      "▁toplantı": 535,
      "▁begenmedim": 536,
      "▁riskine": 537,
      "▁duygularla": 538,
      "▁krizinden": 539,
      "iyesini": 540,
      "▁olumlu": 541,
      "▁ob": 542,
      "▁dukkanları": 543,
      "▁yasaların": 544,
      "▁durumlar": 545,
      "▁istinaden": 546,
      "▁lazımdır": 547,
      "▁1.0": 548,
      "▁veririm": 549,
      "liler": 550,
      "▁babaları": 551,
      "▁dakikadan": 552,
      "▁mud": 553,
      "▁sonuca": 554,
      "otiv": 555,
      "▁alıskan": 556,
      "▁lod": 557,
      "▁zamanlama": 558,
      "suna": 559,
      "▁diger": 560,
      "▁hun": 561,
      "▁aklıma": 562,
      "ırp": 563,
      "▁sermayesini": 564,
      "▁sanduk": 565,
      "kk": 566,
      "etic": 567,
      "▁ilg": 568,
      "ısıyla": 569,
      "▁kose": 570,
      "▁kavga": 571,
      "▁birbirler": 572,
      "▁harcamaları": 573,
      "▁almıs": 574,
      "▁fırtın": 575,
      "▁silahlar": 576,
      "st": 577,
      "▁genislet": 578,
      "▁korkut": 579,
      "▁kog": 580,
      "ladıklarını": 581,
      "▁delta": 582,
      "▁bah": 583,
      "▁ziraat": 584,
      "▁durmak": 585,
      "▁laborat": 586,
      "▁buyume": 587,
      "▁etkin": 588,
      "▁gam": 589,
      "lag": 590,
      "'s": 591,
      "lugune": 592,
      "▁guver": 593,
      "▁kendiler": 594,
      "▁yarıda": 595,
      "▁zeytiny": 596,
      "memize": 597,
      "▁azalt": 598,
      "uyoruz": 599,
      "▁yedi": 600,
      "▁ugradı": 601,
      "▁kostur": 602,
      "▁tı": 603,
      "itraj": 604,
      "▁n": 605,
      "▁cap": 606,
      "▁cukur": 607,
      "edildi": 608,
      "asyonu": 609,
      "▁aniden": 610,
      "olo": 611,
      "▁tad": 612,
      "▁doktorlar": 613,
      "▁rop": 614,
      "▁duduk": 615,
      "▁acente": 616,
      "lerine": 617,
      "▁yolun": 618,
      "▁dr": 619,
      "▁askın": 620,
      "▁malzemeleri": 621,
      "▁sokakları": 622,
      "zası": 623,
      "▁bolgesine": 624,
      "lasan": 625,
      "▁turunu": 626,
      "▁sper": 627,
      "▁yumr": 628,
      "▁teslimat": 629,
      "▁adinaydi": 630,
      "mur": 631,
      "▁alımlar": 632,
      "▁yufka": 633,
      "▁ayrılık": 634,
      "▁uy": 635,
      "▁sınıfa": 636,
      "unlu": 637,
      "▁sanki": 638,
      "ıcı": 639,
      "dıgından": 640,
      "▁sanatın": 641,
      "▁feryat": 642,
      "tıyor": 643,
      "edigim": 644,
      "▁bulut": 645,
      "▁esi": 646,
      "▁tepk": 647,
      "▁sureci": 648,
      "▁sidd": 649,
      "'in": 650,
      "▁yasındaki": 651,
      "▁resimler": 652,
      "uste": 653,
      "eceklerini": 654,
      "tik": 655,
      "▁gel": 656,
      "▁yıllarında": 657,
      "▁ekonominin": 658,
      "▁edilmisti": 659,
      "▁sonraki": 660,
      "▁adlı": 661,
      "▁han": 662,
      "▁zinciri": 663,
      "ry": 664,
      "ımla": 665,
      "arlan": 666,
      "▁muddet": 667,
      "ph": 668,
      "▁sirketin": 669,
      "▁faaliyete": 670,
      "▁oyunun": 671,
      "▁ima": 672,
      "▁ulkesinde": 673,
      "▁guzergah": 674,
      "▁lan": 675,
      "▁suyuna": 676,
      "▁hıc": 677,
      "▁dilden": 678,
      "▁washington'a": 679,
      "▁enflasyonu": 680,
      "▁tuketic": 681,
      "▁kucucuk": 682,
      "astır": 683,
      "▁hikayesini": 684,
      "▁yukselmesini": 685,
      "▁senetlerinin": 686,
      "▁ehemm": 687,
      "▁verimli": 688,
      "▁hayata": 689,
      "▁sonuclarından": 690,
      "▁suvari": 691,
      "▁leri": 692,
      "anını": 693,
      "▁gucu": 694,
      "▁yıllarda": 695,
      "▁bitki": 696,
      "▁iyiden": 697,
      "asini": 698,
      "▁daha": 699,
      "erhal": 700,
      "..": 701,
      "▁sav": 702,
      "iydi": 703,
      "▁lif": 704,
      "▁muzigini": 705,
      "▁mimar": 706,
      "▁elimize": 707,
      "cih": 708,
      "te": 709,
      ".ceyr": 710,
      "inizde": 711,
      "▁mahkum": 712,
      "▁degillerdi": 713,
      "ladılar": 714,
      "0000": 715,
      "▁toplamda": 716,
      "▁insanları": 717,
      "enlerden": 718,
      "▁eline": 719,
      "ırdı": 720,
      "▁tesiste": 721,
      "▁parcacıklar": 722,
      "▁olagand": 723,
      "ksa": 724,
      "▁samim": 725,
      "▁heyetin": 726,
      "▁cumartesi": 727,
      "▁sikint": 728,
      "▁ahenk": 729,
      "▁temizligini": 730,
      "▁katilmadim": 731,
      "▁faturam": 732,
      "▁medeniyeti": 733,
      "▁hayatını": 734,
      "▁sauna": 735,
      "▁eksikligi": 736,
      "▁gorusuldu": 737,
      "ga": 738,
      "▁romat": 739,
      "nc": 740,
      "▁baltimore'ye": 741,
      "yabil": 742,
      "▁baslarını": 743,
      "▁bekledigini": 744,
      "▁kaptan": 745,
      "ludur": 746,
      "▁gunlerini": 747,
      "▁yemegi": 748,
      "▁cd": 749,
      "▁ism": 750,
      "eciler": 751,
      "▁pilot": 752,
      "▁kopr": 753,
      "▁oranlar": 754,
      "▁kazanıyor": 755,
      "▁sayfa": 756,
      "atlar": 757,
      "▁maliyetlerin": 758,
      "macılar": 759,
      "▁hipot": 760,
      "▁cek": 761,
      "▁atat": 762,
      "▁kazak": 763,
      "▁ların": 764,
      "▁ogrenci": 765,
      "▁tavırla": 766,
      "▁adımlar": 767,
      "▁ki": 768,
      "▁gaflet": 769,
      "▁kazanclarını": 770,
      "ef": 771,
      "▁avucuna": 772,
      "▁isine": 773,
      "▁kadında": 774,
      "▁yarıya": 775,
      "▁verdim": 776,
      "▁doları'nda": 777,
      "ılımı": 778,
      "▁borcunu": 779,
      "▁sozlesmenin": 780,
      "utun": 781,
      "▁destekle": 782,
      "▁alma": 783,
      "minin": 784,
      "▁yukumluluk": 785,
      "▁salı": 786,
      "▁serin": 787,
      "▁hamlede": 788,
      "▁sars": 789,
      "ttı": 790,
      "▁partiyi": 791,
      "egin": 792,
      "▁37": 793,
      "▁basbak": 794,
      "acılara": 795,
      "▁okuyucu": 796,
      "▁sanatcılar": 797,
      "lerimi": 798,
      "oh": 799,
      "yla": 800,
      "usunda": 801,
      "gının": 802,
      "▁bay": 803,
      "▁durgunluk": 804,
      "▁veto": 805,
      "▁sıf": 806,
      "▁telekomunikasyon": 807,
      "▁dusundu": 808,
      "▁idare": 809,
      "▁acıklaması": 810,
      "▁durdur": 811,
      "sas": 812,
      "▁muam": 813,
      "larlar": 814,
      "ama": 815,
      "▁deri": 816,
      "▁karsıla": 817,
      "▁baslıyor": 818,
      "▁ailenin": 819,
      "eren": 820,
      "▁kurumlar": 821,
      "rak": 822,
      "▁yasasında": 823,
      "▁gazeteciler": 824,
      "'n": 825,
      "▁denizden": 826,
      "▁co": 827,
      "▁diyorlar": 828,
      "▁girerken": 829,
      "aki": 830,
      "alma": 831,
      "▁genclik": 832,
      "larımızı": 833,
      "▁gerektigini": 834,
      "▁meydanı": 835,
      "rlik": 836,
      "▁elimde": 837,
      "inlere": 838,
      "ingi": 839,
      "▁kasları": 840,
      "sarı": 841,
      "▁altı": 842,
      "▁verir": 843,
      "▁gazel": 844,
      "▁ondan": 845,
      "▁tasavvur": 846,
      "▁bekleniyor": 847,
      "forlu": 848,
      "▁gerekiyordu": 849,
      "▁yonetici": 850,
      "▁oturuyor": 851,
      "▁gectigimiz": 852,
      "▁onder": 853,
      "▁tamamlan": 854,
      "▁cıktısı": 855,
      "▁dokundu": 856,
      "▁hanımı": 857,
      "▁haberim": 858,
      "uydu": 859,
      "▁listesine": 860,
      "▁hukumet": 861,
      "▁finansmanı": 862,
      "▁havl": 863,
      "▁hizmetin": 864,
      "▁sakal": 865,
      "lanarak": 866,
      "▁ihtiyac": 867,
      "▁gokyuz": 868,
      "▁ilgililerdi": 869,
      "▁iltif": 870,
      "▁sapkasını": 871,
      "▁avukatları": 872,
      "▁ezber": 873,
      "nci": 874,
      "aparki": 875,
      "▁saglık": 876,
      "lerdi": 877,
      "ırım": 878,
      "▁macın": 879,
      "▁otop": 880,
      "▁alemi": 881,
      "▁karlarının": 882,
      "▁hepsine": 883,
      "meden": 884,
      "▁ce": 885,
      "ılıgı": 886,
      "▁baskalarına": 887,
      "▁ger": 888,
      "▁icini": 889,
      "ılmıs": 890,
      "▁yemegin": 891,
      "▁tanıklık": 892,
      "▁faizini": 893,
      "▁hayatta": 894,
      "▁mulkiyeti": 895,
      "▁hastaları": 896,
      "▁tahkikat": 897,
      "saca": 898,
      "▁genellikle": 899,
      "dra": 900,
      "▁gelenler": 901,
      "▁rengine": 902,
      "cuyu": 903,
      "▁son": 904,
      "▁domates": 905,
      "▁mill": 906,
      "▁dunya": 907,
      "▁elektron": 908,
      "▁caresizlik": 909,
      "ılmıstır": 910,
      "▁derginin": 911,
      "▁havayollarıyla": 912,
      "▁parti": 913,
      "▁maddeler": 914,
      "oyla": 915,
      "▁konuk": 916,
      "▁inci": 917,
      "▁arabacı": 918,
      "▁sektore": 919,
      "culugu": 920,
      "▁yuzlerini": 921,
      "▁bakimsizdi": 922,
      "▁ey": 923,
      "▁ibar": 924,
      "▁mesaf": 925,
      "▁paha": 926,
      "▁ikl": 927,
      "▁orneklerini": 928,
      "▁12'si": 929,
      "▁ziyafet": 930,
      "▁civi": 931,
      "▁hak": 932,
      "sel": 933,
      "arın": 934,
      "▁insanlık": 935,
      "▁edecegim": 936,
      "▁yuz": 937,
      "▁bus": 938,
      "▁gercekl": 939,
      "▁atan": 940,
      "▁niyetinde": 941,
      "▁cag": 942,
      "▁belediy": 943,
      "mac": 944,
      "▁devral": 945,
      "▁yerlere": 946,
      "▁dik": 947,
      "▁boston": 948,
      "asıydı": 949,
      "▁kırmız": 950,
      "▁kalkıs": 951,
      "▁likor": 952,
      "▁cıkıs": 953,
      "▁sigortacılar": 954,
      "▁yapı": 955,
      "▁olmustu": 956,
      "impiyat": 957,
      "tiklerini": 958,
      "▁dov": 959,
      "▁gitmeye": 960,
      "lenir": 961,
      "▁tepeden": 962,
      "▁kitaplar": 963,
      "▁duv": 964,
      "▁hastalıgı": 965,
      "▁bahan": 966,
      "▁beyi": 967,
      "arson": 968,
      "▁almak": 969,
      "▁zengin": 970,
      "adın": 971,
      "▁tadını": 972,
      "ımdır": 973,
      "asın": 974,
      "▁kıymetler": 975,
      "▁temizligi": 976,
      "▁kalabal": 977,
      "▁yuzyılda": 978,
      "▁kese": 979,
      "▁bircog": 980,
      "lig": 981,
      "▁tahvil": 982,
      "▁buyumeye": 983,
      "▁hab": 984,
      "▁mir": 985,
      "▁grafik": 986,
      "▁las": 987,
      "▁mudure": 988,
      "▁aydınlık": 989,
      "▁esliginde": 990,
      "▁prof": 991,
      "▁caddeye": 992,
      "▁kısaltması": 993,
      "▁canı": 994,
      "▁ekib": 995,
      "▁ucusla": 996,
      "▁tuyu": 997,
      "▁tasıt": 998,
      "▁elinizde": 999,
      "▁taraf": 1000,
      "▁fark": 1001,
      "dıkca": 1002,
      "▁hukumeti": 1003,
      "▁tul": 1004,
      "▁tarihini": 1005,
      "▁kelimeyle": 1006,
      "▁olanaklarini": 1007,
      "▁islerinin": 1008,
      "ıh": 1009,
      "▁tehlikeye": 1010,
      "▁ekran": 1011,
      "▁ytl": 1012,
      "▁fr": 1013,
      "▁varır": 1014,
      "rt": 1015,
      "▁vardi": 1016,
      "amıyor": 1017,
      "▁icten": 1018,
      "mıstı": 1019,
      "▁calisanlardan": 1020,
      "▁boynuna": 1021,
      "kı": 1022,
      "▁kenti": 1023,
      "ak": 1024,
      "▁grupların": 1025,
      "osuna": 1026,
      "inaen": 1027,
      "▁mukemm": 1028,
      "▁sigor": 1029,
      "uk": 1030,
      "▁yadig": 1031,
      "lanıp": 1032,
      "▁ilgilen": 1033,
      "▁ilgilenmedi": 1034,
      "▁kullandıgını": 1035,
      "▁bilegi": 1036,
      "▁ozelliklerinden": 1037,
      "▁dır": 1038,
      "▁he": 1039,
      "▁diken": 1040,
      "▁inc.": 1041,
      "▁sorunla": 1042,
      "▁hayır": 1043,
      "unt": 1044,
      "▁havlu": 1045,
      "▁kayalar": 1046,
      "bardım": 1047,
      "eyecegini": 1048,
      "▁akr": 1049,
      "▁philadelphia'ya": 1050,
      "▁ihsan": 1051,
      "larının": 1052,
      "▁levazım": 1053,
      "▁guzeldi": 1054,
      "▁kutu": 1055,
      "▁tepsi": 1056,
      "▁yoklugunda": 1057,
      "▁isgucu": 1058,
      "▁alac": 1059,
      "▁ozur": 1060,
      "2'de": 1061,
      "▁defa": 1062,
      "abaz": 1063,
      "▁canak": 1064,
      "▁kusu": 1065,
      "yetli": 1066,
      "▁danısmanlık": 1067,
      "▁olm": 1068,
      "▁bilimleri": 1069,
      "▁gerisi": 1070,
      "▁sez": 1071,
      "▁yuzume": 1072,
      "▁koltuk": 1073,
      "▁fiyatlandır": 1074,
      "▁vurusu": 1075,
      "▁gorunmek": 1076,
      "▁dergisinde": 1077,
      "acagını": 1078,
      "▁benim": 1079,
      "anıs": 1080,
      ".": 1081,
      "▁milliyetci": 1082,
      "inde": 1083,
      "▁etkinlik": 1084,
      "▁os": 1085,
      "▁sırayla": 1086,
      "▁uyeleri": 1087,
      "▁aracların": 1088,
      "▁milwa": 1089,
      "▁verebilir": 1090,
      "▁hosg": 1091,
      "▁kurdu": 1092,
      "▁superdi": 1093,
      "▁tezgahı": 1094,
      "▁katildim": 1095,
      "▁karsılıgını": 1096,
      "alif": 1097,
      "bap": 1098,
      "▁cakmak": 1099,
      "▁savasının": 1100,
      "▁kral": 1101,
      "▁uzaktan": 1102,
      "z": 1103,
      "▁18": 1104,
      "▁birisi": 1105,
      "▁?..": 1106,
      "▁okudu": 1107,
      "▁zur": 1108,
      "▁terliklerini": 1109,
      "▁avuc": 1110,
      "▁ticarete": 1111,
      "▁kariyer": 1112,
      "▁kor": 1113,
      "▁baskent": 1114,
      "▁bu": 1115,
      "▁yarısını": 1116,
      "▁inti": 1117,
      "▁dest": 1118,
      "layıcı": 1119,
      "▁vasıtasıyla": 1120,
      "▁bazıları": 1121,
      "gunuz": 1122,
      "▁gazetesi": 1123,
      "▁biber": 1124,
      "▁yukselisle": 1125,
      "▁uyuz": 1126,
      "▁akar": 1127,
      "▁cagır": 1128,
      "▁kente": 1129,
      "00000": 1130,
      "▁kitapların": 1131,
      "▁dosyada": 1132,
      "▁hissettim": 1133,
      "izik": 1134,
      "▁6": 1135,
      "▁kalkıyor": 1136,
      "▁ustesinden": 1137,
      "▁gonder": 1138,
      "▁denizci": 1139,
      "anların": 1140,
      "▁vic": 1141,
      "▁verenler": 1142,
      "▁aktar": 1143,
      "▁dedesinin": 1144,
      "▁attım": 1145,
      "ipler": 1146,
      "▁ucakla": 1147,
      "▁cenaz": 1148,
      "▁asist": 1149,
      "leriyle": 1150,
      "▁aktiv": 1151,
      "▁bekliyor": 1152,
      "▁zaman": 1153,
      "it": 1154,
      "leyin": 1155,
      "innati": 1156,
      "▁bolgenin": 1157,
      "▁dukkanı": 1158,
      "▁mekte": 1159,
      "▁armut": 1160,
      "▁boyn": 1161,
      "▁oyuncuları": 1162,
      "dalı": 1163,
      "▁yontem": 1164,
      "▁golun": 1165,
      "▁kendisini": 1166,
      "larınız": 1167,
      "▁iceride": 1168,
      "▁iddi": 1169,
      "edir": 1170,
      "▁kaftan": 1171,
      "▁romatizm": 1172,
      "ikt": 1173,
      "▁ruz": 1174,
      "▁seyrediyordu": 1175,
      "▁kors": 1176,
      "lardan": 1177,
      "itlik": 1178,
      "▁catma": 1179,
      "▁kabin": 1180,
      "▁partiler": 1181,
      "oglanı": 1182,
      "▁bagladı": 1183,
      "▁kulagına": 1184,
      "▁anlayislari": 1185,
      "▁mektubu": 1186,
      "▁tif": 1187,
      "▁h": 1188,
      "cakti": 1189,
      "▁yılki": 1190,
      "larımda": 1191,
      "▁kentte": 1192,
      "▁sozcu": 1193,
      "▁diplomasi": 1194,
      "▁tipik": 1195,
      "▁ocagın": 1196,
      "he": 1197,
      "acaat": 1198,
      "▁degisimin": 1199,
      "▁miami'ye": 1200,
      "dadır": 1201,
      "▁mırıldan": 1202,
      "▁ustelik": 1203,
      "otuz": 1204,
      "▁cocukluk": 1205,
      "▁ulusal": 1206,
      "▁nehri": 1207,
      "▁gonderdi": 1208,
      "aj": 1209,
      "▁sabahın": 1210,
      "meyecek": 1211,
      "▁dey": 1212,
      "cılık": 1213,
      "▁ayrıl": 1214,
      "ington": 1215,
      "▁toront": 1216,
      "▁huv": 1217,
      "▁kattan": 1218,
      "▁kına": 1219,
      "▁sayısını": 1220,
      "▁``": 1221,
      "lo": 1222,
      "▁kahvaltida": 1223,
      "▁yara": 1224,
      "▁cezasına": 1225,
      "▁bugday": 1226,
      "▁verdigi": 1227,
      "▁lok": 1228,
      "ımızda": 1229,
      "▁sık": 1230,
      "▁ga": 1231,
      "ıcak": 1232,
      "▁loca": 1233,
      "▁komp": 1234,
      "▁ornegi": 1235,
      "▁bankası": 1236,
      "▁dusmesi": 1237,
      "▁vekili": 1238,
      "▁sitem": 1239,
      "▁canta": 1240,
      "▁agaclar": 1241,
      "▁gitmis": 1242,
      "▁kelimesi": 1243,
      "▁tug": 1244,
      "▁isciyi": 1245,
      "larındaki": 1246,
      "▁busbutun": 1247,
      "eceksiniz": 1248,
      "▁donusum": 1249,
      "▁tasar": 1250,
      "▁kime": 1251,
      "▁veriyor": 1252,
      "▁baklava": 1253,
      "▁omrunde": 1254,
      "▁milletvekilleri": 1255,
      "▁etmiyorum": 1256,
      "▁bagın": 1257,
      "miyorum": 1258,
      "▁azaltmak": 1259,
      "▁konserve": 1260,
      "▁mumkun": 1261,
      "lasyon": 1262,
      "ilige": 1263,
      "▁muzisy": 1264,
      "muyor": 1265,
      "'i": 1266,
      "▁ortamda": 1267,
      "▁ilerleme": 1268,
      ",": 1269,
      "▁dillere": 1270,
      "▁hususunda": 1271,
      "▁fır": 1272,
      "ektir": 1273,
      "▁sahs": 1274,
      "▁yiyecekler": 1275,
      "lasman": 1276,
      "▁kimseyi": 1277,
      "▁ayagında": 1278,
      "▁cemaat": 1279,
      "▁cocuklu": 1280,
      "▁seylerden": 1281,
      "▁ens": 1282,
      "▁milyarlar": 1283,
      "▁ayrılır": 1284,
      "▁seyler": 1285,
      "tı": 1286,
      "▁ets": 1287,
      "▁telef": 1288,
      "▁cocugu": 1289,
      "▁isgal": 1290,
      "inler": 1291,
      "▁emrini": 1292,
      "▁olmayı": 1293,
      "▁zap": 1294,
      "▁ettim": 1295,
      "islik": 1296,
      "▁giderler": 1297,
      "▁olumunden": 1298,
      "▁kacak": 1299,
      "▁kasa": 1300,
      "▁ellerine": 1301,
      "▁imalat": 1302,
      "iyetine": 1303,
      "acaklar": 1304,
      "▁icine": 1305,
      "▁kopru": 1306,
      "asındaki": 1307,
      "▁ispan": 1308,
      "▁dukk": 1309,
      "▁harit": 1310,
      "▁seydi": 1311,
      "▁band": 1312,
      "▁planın": 1313,
      "ydım": 1314,
      "▁hiss": 1315,
      "▁sirketlerinin": 1316,
      "▁gozluk": 1317,
      "▁muamele": 1318,
      "▁oldugunun": 1319,
      "▁mektupta": 1320,
      "▁viraj": 1321,
      "▁sehit": 1322,
      "▁sunu": 1323,
      "▁bahis": 1324,
      "▁cenaze": 1325,
      "▁tuzu": 1326,
      "▁kopuk": 1327,
      "ununun": 1328,
      "▁silahlarını": 1329,
      "▁bayragı": 1330,
      "lerindeki": 1331,
      "▁kasırgası": 1332,
      "▁adamdı": 1333,
      "▁ilan": 1334,
      "▁ellerinde": 1335,
      "8'e": 1336,
      "▁6'dan": 1337,
      "▁viz": 1338,
      "▁konu": 1339,
      "▁seyinden": 1340,
      "▁la": 1341,
      "▁tatil": 1342,
      "▁deh": 1343,
      "▁nikah": 1344,
      "▁gecekondu": 1345,
      "▁siyasal": 1346,
      "▁birimler": 1347,
      "▁olarak": 1348,
      "cinin": 1349,
      "▁krav": 1350,
      "▁agı": 1351,
      "▁alması": 1352,
      "▁vergiler": 1353,
      "▁ogleye": 1354,
      "▁coluk": 1355,
      "▁ceyrege": 1356,
      "▁bıy": 1357,
      "dıklarını": 1358,
      "▁15": 1359,
      "▁mo": 1360,
      "▁apartman": 1361,
      "▁arazi": 1362,
      "▁kaybe": 1363,
      "▁doneme": 1364,
      "▁perde": 1365,
      "▁camur": 1366,
      "lasıyor": 1367,
      "▁seviy": 1368,
      "▁”": 1369,
      "▁askerlerle": 1370,
      "▁piyasalarında": 1371,
      "'ta": 1372,
      "▁pazartesi": 1373,
      "▁seyir": 1374,
      "▁firmaları": 1375,
      "▁gozum": 1376,
      "▁aktarmalı": 1377,
      "▁teyp": 1378,
      "ily": 1379,
      "rarak": 1380,
      "▁degistirmek": 1381,
      "▁toplantısı": 1382,
      "-sat": 1383,
      "▁etegi": 1384,
      "▁celiski": 1385,
      "▁belir": 1386,
      "alarım": 1387,
      "▁edec": 1388,
      "▁cagırdı": 1389,
      "▁yeg": 1390,
      "▁reh": 1391,
      "▁un": 1392,
      "▁bitirdi": 1393,
      "▁olar": 1394,
      "▁basında": 1395,
      "larda": 1396,
      "umuza": 1397,
      "▁okuma": 1398,
      "▁gercegi": 1399,
      "▁dedigi": 1400,
      "ıla": 1401,
      "▁ihale": 1402,
      "▁urunlerin": 1403,
      "▁revize": 1404,
      "ukca": 1405,
      "▁bekci": 1406,
      "▁terorizm": 1407,
      "▁senedine": 1408,
      "▁oda": 1409,
      "▁gunes": 1410,
      "▁dol": 1411,
      "▁aracılıgıyla": 1412,
      "▁tutumu": 1413,
      "▁hedeflere": 1414,
      "irim": 1415,
      "▁sanatı": 1416,
      "lasarak": 1417,
      "▁noktasına": 1418,
      "un": 1419,
      "▁mayıs": 1420,
      "attan": 1421,
      "izligi": 1422,
      "▁ay": 1423,
      "▁aldır": 1424,
      "letti": 1425,
      "▁baglam": 1426,
      "lar": 1427,
      "lıklar": 1428,
      "▁kamera": 1429,
      "▁bomba": 1430,
      "▁bakla": 1431,
      "▁faal": 1432,
      "▁insul": 1433,
      "▁hesapların": 1434,
      "u": 1435,
      "▁fazlasına": 1436,
      "▁kalitesine": 1437,
      "▁omuz": 1438,
      "▁termin": 1439,
      "lasabilir": 1440,
      "▁bucak": 1441,
      "▁yalancı": 1442,
      "▁kaf": 1443,
      "sızlıga": 1444,
      "▁sebeplerini": 1445,
      "▁ikti": 1446,
      "▁unut": 1447,
      "▁antikor": 1448,
      "▁hastanede": 1449,
      "▁bono": 1450,
      "▁teklifte": 1451,
      "▁davaya": 1452,
      "▁francisco'ya": 1453,
      "▁olacaktı": 1454,
      "▁aga": 1455,
      "▁yonetm": 1456,
      "▁pazarlam": 1457,
      "▁yud": 1458,
      "▁sacma": 1459,
      "misti": 1460,
      "omu": 1461,
      "▁tapın": 1462,
      "▁merkezine": 1463,
      "▁hijyen": 1464,
      "▁siparisi": 1465,
      "▁muhallebi": 1466,
      "▁sitesinden": 1467,
      "▁balayi": 1468,
      "▁olduktan": 1469,
      "▁kullanmadim": 1470,
      "▁urk": 1471,
      "▁kasabada": 1472,
      "▁saygıyla": 1473,
      "andır": 1474,
      "lamasına": 1475,
      "▁ogretim": 1476,
      "▁kamıs": 1477,
      "▁meyv": 1478,
      "▁yaptim": 1479,
      "▁gercege": 1480,
      "▁calıyor": 1481,
      "▁kulu": 1482,
      "▁teknolojisinin": 1483,
      "▁500": 1484,
      "▁cagrı": 1485,
      "▁meydanda": 1486,
      "▁yapan": 1487,
      "▁biy": 1488,
      "mb": 1489,
      "▁hızlıca": 1490,
      "▁karsılastır": 1491,
      "▁tazmin": 1492,
      "▁aksamın": 1493,
      "enli": 1494,
      "▁dep": 1495,
      "▁yakıs": 1496,
      "▁tehlik": 1497,
      "ıc": 1498,
      "▁duzey": 1499,
      "▁dine": 1500,
      "▁istedi": 1501,
      "▁etrafta": 1502,
      "hangi": 1503,
      "▁yapmıstı": 1504,
      "▁bekl": 1505,
      "▁tası": 1506,
      "▁analizciler": 1507,
      "▁uzattı": 1508,
      "▁gulus": 1509,
      "▁karagoz": 1510,
      "kli": 1511,
      "▁teori": 1512,
      "elektr": 1513,
      "▁atlan": 1514,
      "▁keyif": 1515,
      "▁orman": 1516,
      "▁fiyatların": 1517,
      "emb": 1518,
      "▁cıkarları": 1519,
      "▁kullanım": 1520,
      "▁dorduncu": 1521,
      "▁telefona": 1522,
      "▁tahminlerinin": 1523,
      "emiyorum": 1524,
      "▁kadın": 1525,
      "madi": 1526,
      "▁evini": 1527,
      "▁war": 1528,
      "▁tabir": 1529,
      "leriniz": 1530,
      "▁istasyonda": 1531,
      "▁bulten": 1532,
      "lamanın": 1533,
      "trilyon": 1534,
      "kum": 1535,
      "▁ur": 1536,
      "▁oakland'a": 1537,
      "▁epey": 1538,
      "▁munasebet": 1539,
      "▁sulara": 1540,
      "▁icinden": 1541,
      "▁mesele": 1542,
      "&": 1543,
      "▁kravat": 1544,
      "emenin": 1545,
      "istel": 1546,
      "etlerini": 1547,
      "ograf": 1548,
      "mislerdir": 1549,
      "▁nuf": 1550,
      "▁masrafı": 1551,
      "▁sub": 1552,
      "▁ayakkab": 1553,
      "▁lisansını": 1554,
      "▁oyuncak": 1555,
      "▁hisseler": 1556,
      "▁geleceg": 1557,
      "▁sayı": 1558,
      "amiza": 1559,
      "▁hijyenik": 1560,
      "▁tır": 1561,
      "▁129": 1562,
      "▁oyununa": 1563,
      "▁hastaya": 1564,
      "▁borclarını": 1565,
      "▁sened": 1566,
      "▁oyuncu": 1567,
      "▁karsil": 1568,
      "ranc": 1569,
      "▁ucuslar": 1570,
      "▁edil": 1571,
      "▁faydası": 1572,
      "▁kuram": 1573,
      "▁baslayacak": 1574,
      "▁sehrine": 1575,
      "▁sektorunde": 1576,
      "lamıyor": 1577,
      "▁tecrub": 1578,
      "▁fiya": 1579,
      "▁iyisini": 1580,
      "'ı": 1581,
      "▁otomobili": 1582,
      "▁faaliyette": 1583,
      "samba": 1584,
      "▁=": 1585,
      "ru": 1586,
      "rol": 1587,
      "▁ziyan": 1588,
      "yı": 1589,
      "▁hazırlanan": 1590,
      "p": 1591,
      "▁ibm": 1592,
      "▁cuv": 1593,
      "▁bugunun": 1594,
      "▁tugla": 1595,
      "▁valilik": 1596,
      "▁diego'dan": 1597,
      "▁musteri": 1598,
      "▁ogrenciler": 1599,
      "▁esv": 1600,
      "▁gizem": 1601,
      "▁nese": 1602,
      "▁aki": 1603,
      "esemdi": 1604,
      "▁star": 1605,
      "elerce": 1606,
      "▁etrafa": 1607,
      "oloji": 1608,
      "rik": 1609,
      "▁vatand": 1610,
      "▁insanın": 1611,
      "▁vazgec": 1612,
      "▁dagdan": 1613,
      "▁gunahı": 1614,
      "▁hazırlıklar": 1615,
      "▁alcak": 1616,
      "bs": 1617,
      "▁arkadaslarını": 1618,
      "▁segment": 1619,
      "▁olcude": 1620,
      "▁tavuk": 1621,
      "▁ekonomistler": 1622,
      "▁bitiyor": 1623,
      "▁doc": 1624,
      "▁prop": 1625,
      "▁dokun": 1626,
      "▁dama": 1627,
      "▁big": 1628,
      "min": 1629,
      "ian": 1630,
      "▁baz": 1631,
      "▁gencin": 1632,
      "abet": 1633,
      "▁partisinin": 1634,
      "▁bors": 1635,
      ".8": 1636,
      "▁maharetle": 1637,
      "▁odalarin": 1638,
      "▁gosteren": 1639,
      "▁1989": 1640,
      "▁haberler": 1641,
      "▁odedigim": 1642,
      "ikasyon": 1643,
      "▁hatları": 1644,
      "▁pencereyi": 1645,
      "▁darbukasını": 1646,
      "ganlık": 1647,
      "▁birinc": 1648,
      "▁herhal": 1649,
      "▁iltifat": 1650,
      "▁asamasında": 1651,
      "▁edilmesi": 1652,
      "izdir": 1653,
      "▁rom": 1654,
      "kuz": 1655,
      "abilecek": 1656,
      "▁sehir": 1657,
      "▁zamanda": 1658,
      "▁hocam": 1659,
      "▁sahibi": 1660,
      "acagini": 1661,
      "▁sayıya": 1662,
      "▁sapk": 1663,
      "▁avantaj": 1664,
      "▁kıvır": 1665,
      "▁boks": 1666,
      "▁imkanı": 1667,
      "▁kup": 1668,
      "▁anac": 1669,
      "eye": 1670,
      "unc": 1671,
      "▁aram": 1672,
      "▁bulgu": 1673,
      "▁devletler": 1674,
      "▁bazılarının": 1675,
      "▁kalkın": 1676,
      "▁yapımı": 1677,
      "yol": 1678,
      "▁olus": 1679,
      "uyu": 1680,
      "▁vide": 1681,
      "▁degilsiniz": 1682,
      "▁yolculuk": 1683,
      "▁intik": 1684,
      "etti": 1685,
      "ydi": 1686,
      "▁iade": 1687,
      "isiyle": 1688,
      "▁bakım": 1689,
      "▁elestiri": 1690,
      "sey": 1691,
      "▁fi": 1692,
      "▁uzunluk": 1693,
      "▁uyeligini": 1694,
      "▁binada": 1695,
      "▁ofkesini": 1696,
      "ıgından": 1697,
      "arc": 1698,
      "malarına": 1699,
      "▁avru": 1700,
      "iyeri": 1701,
      "▁tasavv": 1702,
      "▁artist": 1703,
      "▁yukseliste": 1704,
      "▁profesyon": 1705,
      "▁edilen": 1706,
      "▁maliye": 1707,
      "▁cuzdan": 1708,
      "▁anay": 1709,
      "▁hamur": 1710,
      "▁201": 1711,
      "▁litre": 1712,
      "▁derd": 1713,
      "▁gosterileri": 1714,
      "▁km": 1715,
      "▁oranlarına": 1716,
      "▁sınırlı": 1717,
      "▁talebini": 1718,
      "▁tabak": 1719,
      "ebilirdi": 1720,
      "tigimiz": 1721,
      "▁stratej": 1722,
      "▁simgesi": 1723,
      "▁tiyatr": 1724,
      "uga": 1725,
      "▁mer": 1726,
      "▁bicmek": 1727,
      "▁zevkimize": 1728,
      "▁alanında": 1729,
      "▁kenar": 1730,
      "▁goruldu": 1731,
      "▁1988'in": 1732,
      "▁kaybetti": 1733,
      "ruf": 1734,
      "gil": 1735,
      "▁denizi": 1736,
      "ay": 1737,
      "uler": 1738,
      "▁kı": 1739,
      "▁isimler": 1740,
      "aklar": 1741,
      "▁journ": 1742,
      "▁kans": 1743,
      "▁komisyonu'na": 1744,
      "▁%70'": 1745,
      "▁loc": 1746,
      "▁12.5": 1747,
      "▁katk": 1748,
      "kiler": 1749,
      "▁tarifeler": 1750,
      "▁kapan": 1751,
      "▁tung": 1752,
      "▁cifti": 1753,
      "▁vatanın": 1754,
      "▁soguktan": 1755,
      "▁duruyor": 1756,
      "ici": 1757,
      "▁com": 1758,
      "▁iddialarını": 1759,
      "▁sesinin": 1760,
      "▁faturalar": 1761,
      "lantılı": 1762,
      "eda": 1763,
      "cunun": 1764,
      "▁iskele": 1765,
      "▁ecz": 1766,
      "▁televizyona": 1767,
      "uguna": 1768,
      "▁kalkarak": 1769,
      "cesi": 1770,
      "▁uzlasma": 1771,
      "imizle": 1772,
      "▁imkanlarindan": 1773,
      "atmak": 1774,
      "▁gerisinde": 1775,
      "▁pas": 1776,
      "▁atın": 1777,
      "▁cıplak": 1778,
      "▁suda": 1779,
      "▁raporun": 1780,
      "▁basladıgında": 1781,
      "▁yararlan": 1782,
      "▁til": 1783,
      "▁kambiy": 1784,
      "▁ogrencisi": 1785,
      "▁basları": 1786,
      "▁kelimesinin": 1787,
      "▁okuy": 1788,
      "▁gazoz": 1789,
      "▁kendilerine": 1790,
      "▁bunlar": 1791,
      "▁continental": 1792,
      "▁anlama": 1793,
      "▁ekonomist": 1794,
      "eler": 1795,
      "▁gitmeyi": 1796,
      "▁agacının": 1797,
      "▁89": 1798,
      "onu": 1799,
      "▁renklerin": 1800,
      "▁laz": 1801,
      "▁katılım": 1802,
      "▁rezalet": 1803,
      "▁cocukları": 1804,
      "▁dalgalanması": 1805,
      "isah": 1806,
      "▁kalemi": 1807,
      "iyer": 1808,
      "magını": 1809,
      "▁oksuz": 1810,
      "▁fırtına": 1811,
      "▁gunese": 1812,
      "▁kalem": 1813,
      "▁ihan": 1814,
      "umda": 1815,
      "▁sını": 1816,
      "▁degerlerine": 1817,
      "▁karbon": 1818,
      "umuz": 1819,
      "▁veya": 1820,
      "▁gorunmuyor": 1821,
      "ern": 1822,
      "▁onunla": 1823,
      "▁sefer": 1824,
      "ıver": 1825,
      "▁oranları": 1826,
      "▁lodos": 1827,
      "▁gosterdigini": 1828,
      "▁gideri": 1829,
      "▁gitmek": 1830,
      "▁gelgelelim": 1831,
      "▁genelinde": 1832,
      "suzlugun": 1833,
      "▁bilezik": 1834,
      "▁isler": 1835,
      "▁yanıtını": 1836,
      "▁hayvanı": 1837,
      "▁reklamların": 1838,
      "▁saldırgan": 1839,
      "▁akrab": 1840,
      "▁annemin": 1841,
      "▁yuzle": 1842,
      "▁minimum": 1843,
      "diye": 1844,
      "▁muhafaza": 1845,
      "por": 1846,
      "▁baslat": 1847,
      "▁yazıları": 1848,
      "▁yuvası": 1849,
      "▁kimseye": 1850,
      "▁merk": 1851,
      "zen": 1852,
      "bia": 1853,
      "▁bakanlar": 1854,
      "▁197": 1855,
      "▁mute": 1856,
      "▁cezbet": 1857,
      "▁vol": 1858,
      "▁got": 1859,
      "ev": 1860,
      "▁poz": 1861,
      "▁berab": 1862,
      "▁hacminde": 1863,
      "ından": 1864,
      "▁ev": 1865,
      "▁cıv": 1866,
      "▁dersiniz": 1867,
      "erleri": 1868,
      "▁simdiye": 1869,
      "▁altmıs": 1870,
      "▁secimde": 1871,
      "ekom": 1872,
      "os": 1873,
      "bere": 1874,
      "▁guverte": 1875,
      "▁yazık": 1876,
      "▁kitabın": 1877,
      "▁dayanıs": 1878,
      "▁midir": 1879,
      "▁eglenc": 1880,
      "▁amacı": 1881,
      "cel": 1882,
      "dedir": 1883,
      "▁irti": 1884,
      "▁meger": 1885,
      "asıdır": 1886,
      "▁faaliyetlerini": 1887,
      "▁otede": 1888,
      "ate": 1889,
      "▁astı": 1890,
      "▁pro": 1891,
      "▁ink": 1892,
      "▁maliyetler": 1893,
      "▁telefonu": 1894,
      "▁aralık": 1895,
      "obili": 1896,
      "▁gerektir": 1897,
      "▁dug": 1898,
      "▁burokrat": 1899,
      "ne": 1900,
      "▁pilotlar": 1901,
      "edigi": 1902,
      "▁fa": 1903,
      "▁belleg": 1904,
      "▁geldikleri": 1905,
      "▁reklamcılık": 1906,
      "▁yasaları": 1907,
      "▁kararı": 1908,
      "▁mutlul": 1909,
      "usunu": 1910,
      "lendirmek": 1911,
      "alli": 1912,
      "▁fidan": 1913,
      "▁diren": 1914,
      "▁deliye": 1915,
      "▁tem": 1916,
      "▁ozen": 1917,
      "▁tavana": 1918,
      "▁olusan": 1919,
      "ek": 1920,
      "▁disleri": 1921,
      "▁komutan": 1922,
      "▁tercih": 1923,
      "▁destegini": 1924,
      "▁aracılar": 1925,
      "▁adımı": 1926,
      "▁mini": 1927,
      "lidir": 1928,
      "▁yonetime": 1929,
      "▁maske": 1930,
      "▁itim": 1931,
      "▁`": 1932,
      "▁muayene": 1933,
      "▁arada": 1934,
      "▁vapur": 1935,
      "5": 1936,
      "▁kendinizi": 1937,
      "oks": 1938,
      "▁past": 1939,
      "▁zaten": 1940,
      "▁otomotiv": 1941,
      "▁cevresi": 1942,
      "tern": 1943,
      "▁dc'den": 1944,
      "▁35": 1945,
      "arif": 1946,
      "▁filmleri": 1947,
      "dart": 1948,
      "▁hale": 1949,
      "▁alımı": 1950,
      "▁basın": 1951,
      "▁alabil": 1952,
      "umuzde": 1953,
      "▁ilgili": 1954,
      "▁mantık": 1955,
      "▁egi": 1956,
      "gi": 1957,
      "▁yse": 1958,
      "▁sis": 1959,
      "dukten": 1960,
      "▁operasyonları": 1961,
      "ors": 1962,
      "▁onlar": 1963,
      "cag": 1964,
      "'sine": 1965,
      "▁iflas": 1966,
      "▁pah": 1967,
      "▁daima": 1968,
      "vek": 1969,
      "goz": 1970,
      "▁telekom": 1971,
      "▁atmos": 1972,
      "▁ceo": 1973,
      "▁diplomat": 1974,
      "▁ogr": 1975,
      "alarıyla": 1976,
      "▁eve": 1977,
      "▁masaya": 1978,
      "▁piyas": 1979,
      "▁sanık": 1980,
      "▁yılından": 1981,
      "▁polisler": 1982,
      "▁minnet": 1983,
      "▁muc": 1984,
      "▁agustos": 1985,
      "re": 1986,
      "ash": 1987,
      "▁yılını": 1988,
      "▁eller": 1989,
      "▁ama": 1990,
      "diler": 1991,
      "▁degerleri": 1992,
      ".ceyrek": 1993,
      "▁yazıyor": 1994,
      "▁pasif": 1995,
      "▁ikilik": 1996,
      "▁doviz": 1997,
      "▁helv": 1998,
      "▁aldıgı": 1999,
      "▁yorg": 2000,
      "6'da": 2001,
      "▁acıkca": 2002,
      "▁toprakları": 2003,
      "▁yetistir": 2004,
      "▁sadakat": 2005,
      "▁universitesi'nde": 2006,
      "▁yemeni": 2007,
      "sef": 2008,
      "▁olmuyor": 2009,
      "▁akım": 2010,
      "uklar": 2011,
      "▁ilke": 2012,
      "▁varan": 2013,
      "▁farkı": 2014,
      "▁canav": 2015,
      "▁kahveden": 2016,
      "▁kırılması": 2017,
      "▁muhakk": 2018,
      "▁karayolu": 2019,
      "▁ruzgarı": 2020,
      "▁anlar": 2021,
      "memisti": 2022,
      "▁eksikleri": 2023,
      "▁rakibini": 2024,
      "▁gidecek": 2025,
      "ayede": 2026,
      "▁mahkeme": 2027,
      "▁ticareti": 2028,
      "▁olun": 2029,
      "erk": 2030,
      "rupalı": 2031,
      "▁yiyecekleri": 2032,
      "rı": 2033,
      "makta": 2034,
      "▁anlarda": 2035,
      "▁kab": 2036,
      "tım": 2037,
      "ton": 2038,
      "▁hikay": 2039,
      "▁gozyasları": 2040,
      "ene": 2041,
      "asina": 2042,
      "▁dum": 2043,
      "▁shearson": 2044,
      "▁fabrikası": 2045,
      "art": 2046,
      "▁mig": 2047,
      "▁elleri": 2048,
      "uncu": 2049,
      "▁kavun": 2050,
      "▁pır": 2051,
      "▁wh": 2052,
      "▁seyrediyor": 2053,
      "▁ıslah": 2054,
      "agının": 2055,
      "▁dısı": 2056,
      "▁kızcagız": 2057,
      "▁bric": 2058,
      "▁munasebetsizlik": 2059,
      "▁ulus": 2060,
      "▁mız": 2061,
      "den": 2062,
      "▁jur": 2063,
      "▁yatırımların": 2064,
      "lin": 2065,
      "▁cantasında": 2066,
      "adetin": 2067,
      "▁ogrencileri": 2068,
      "▁zaf": 2069,
      "hti": 2070,
      "▁tahl": 2071,
      "▁rehber": 2072,
      "▁gunune": 2073,
      "▁testere": 2074,
      "▁dedig": 2075,
      "sık": 2076,
      "▁kak": 2077,
      "▁gorevden": 2078,
      "▁bazi": 2079,
      "uttu": 2080,
      "▁lam": 2081,
      "▁yavrum": 2082,
      "umsal": 2083,
      "ları": 2084,
      "ya'da": 2085,
      "▁bardaklar": 2086,
      "▁sofraya": 2087,
      "▁insaf": 2088,
      "▁sorustur": 2089,
      "▁ceviz": 2090,
      "▁insanlıga": 2091,
      "kın": 2092,
      "▁hisseye": 2093,
      "▁pozisyon": 2094,
      "▁hem": 2095,
      "▁gonullu": 2096,
      "askanı": 2097,
      "▁kapat": 2098,
      "▁sozlerini": 2099,
      "▁kırıklıgına": 2100,
      "eceginden": 2101,
      "▁hataları": 2102,
      "eliyor": 2103,
      "untu": 2104,
      "memesi": 2105,
      "▁ca": 2106,
      "ebilmek": 2107,
      "▁meb": 2108,
      "▁cıkma": 2109,
      "must": 2110,
      "▁calıstıgını": 2111,
      "▁konforu": 2112,
      "enlerin": 2113,
      "▁oturma": 2114,
      "▁oteli": 2115,
      "▁yureginde": 2116,
      "▁som": 2117,
      "▁aygıt": 2118,
      "▁iddia": 2119,
      "▁ettikleri": 2120,
      "▁financi": 2121,
      "▁tabl": 2122,
      "▁personelinin": 2123,
      "▁aclıktan": 2124,
      "▁bib": 2125,
      "▁kayıgın": 2126,
      "'ten": 2127,
      "▁varlıgına": 2128,
      "ari": 2129,
      "▁yaratmaya": 2130,
      "▁konular": 2131,
      "▁beyaz": 2132,
      "▁diz": 2133,
      "▁nimet": 2134,
      "▁duran": 2135,
      "▁test": 2136,
      "▁kızının": 2137,
      "▁ceyreginde": 2138,
      "imore": 2139,
      "▁biriminin": 2140,
      "▁paylar": 2141,
      "▁salonun": 2142,
      "▁subat": 2143,
      "▁dram": 2144,
      "ıyor": 2145,
      "▁alanlarda": 2146,
      "▁rob": 2147,
      "▁zamana": 2148,
      "▁goturdu": 2149,
      "▁garaj": 2150,
      "▁hakkinda": 2151,
      "▁edilmedi": 2152,
      "suzluk": 2153,
      "butun": 2154,
      "▁harca": 2155,
      "kan": 2156,
      "▁fiyatın": 2157,
      "▁islet": 2158,
      "▁sakat": 2159,
      "%": 2160,
      "▁birbirlerini": 2161,
      "ver": 2162,
      "▁gormez": 2163,
      "ye": 2164,
      "▁getirilerin": 2165,
      "ısım": 2166,
      "▁damg": 2167,
      "▁houston'a": 2168,
      "fer": 2169,
      "▁kısın": 2170,
      "▁yonetim": 2171,
      "dugumuz": 2172,
      "▁beraber": 2173,
      "▁degerlendirme": 2174,
      "▁me": 2175,
      "▁kurmaya": 2176,
      "▁1.9": 2177,
      "▁bozuk": 2178,
      "▁kisiye": 2179,
      "ustum": 2180,
      "▁kıy": 2181,
      "▁id": 2182,
      "▁org": 2183,
      "▁tesise": 2184,
      "▁yapmad": 2185,
      "▁afrik": 2186,
      "alık": 2187,
      "▁aday": 2188,
      "acta": 2189,
      "▁toplumlar": 2190,
      "▁adımlarla": 2191,
      "▁detroit": 2192,
      "▁hasıl": 2193,
      "urken": 2194,
      "▁dahilinde": 2195,
      "▁ispir": 2196,
      "▁mektebi": 2197,
      "tara": 2198,
      "▁sozunu": 2199,
      "lasır": 2200,
      "▁belirten": 2201,
      "▁havalimanı'nda": 2202,
      "▁ısıklar": 2203,
      "▁indianapolis": 2204,
      "esiz": 2205,
      "▁ny": 2206,
      "▁kad": 2207,
      "▁mukem": 2208,
      "▁arkaya": 2209,
      "▁sevmeye": 2210,
      "mektir": 2211,
      "▁alnının": 2212,
      "▁sonucu": 2213,
      "▁atlanta'dan": 2214,
      "▁stop": 2215,
      "▁yoldan": 2216,
      "▁esek": 2217,
      "ladıgı": 2218,
      "▁acılım": 2219,
      "▁stokları": 2220,
      "▁iktisat": 2221,
      "ystems": 2222,
      "▁turlerini": 2223,
      "▁fonların": 2224,
      "▁sınız": 2225,
      "▁icim": 2226,
      "▁gemiyi": 2227,
      "▁yukse": 2228,
      "▁gozuyle": 2229,
      "▁ahkam": 2230,
      "▁futbol": 2231,
      "▁sevgil": 2232,
      "▁lirayı": 2233,
      "emle": 2234,
      "▁postacı": 2235,
      "▁patent": 2236,
      "▁cet": 2237,
      "▁kolayını": 2238,
      "dırdı": 2239,
      "▁var": 2240,
      "▁evlerin": 2241,
      "▁olumsuzluk": 2242,
      "▁hadise": 2243,
      "▁milyara": 2244,
      "kını": 2245,
      "▁alt": 2246,
      "▁konseyi": 2247,
      "▁lider": 2248,
      "luydu": 2249,
      "▁dusunuyorum": 2250,
      "▁sorar": 2251,
      "▁sofra": 2252,
      "▁ibaret": 2253,
      "ield": 2254,
      "▁donemin": 2255,
      "otlar": 2256,
      "▁karmasası": 2257,
      "▁yansıt": 2258,
      "adım": 2259,
      "beye": 2260,
      "▁kacındı": 2261,
      "▁balo": 2262,
      "▁ruhu": 2263,
      "▁derde": 2264,
      "ayan": 2265,
      "▁ciddi": 2266,
      "ka": 2267,
      "dem": 2268,
      "▁gormedim": 2269,
      "▁saatte": 2270,
      "▁tabancayı": 2271,
      "aseb": 2272,
      "▁aldıgını": 2273,
      "▁tukur": 2274,
      "▁pencereye": 2275,
      "▁anladı": 2276,
      "▁boynunu": 2277,
      "alet": 2278,
      "▁adını": 2279,
      "▁charl": 2280,
      "▁gazeteleri": 2281,
      "▁kalmaz": 2282,
      "▁bilet": 2283,
      "kot": 2284,
      "ılap": 2285,
      "▁acıyor": 2286,
      "iye": 2287,
      "▁neye": 2288,
      "acıklar": 2289,
      "▁fir": 2290,
      "▁dibine": 2291,
      "▁depremin": 2292,
      "▁tıras": 2293,
      "▁toplumun": 2294,
      "▁amca": 2295,
      "▁basmak": 2296,
      "▁uzerine": 2297,
      "▁icermektedir": 2298,
      "▁lazım": 2299,
      "▁tatmin": 2300,
      "▁kod": 2301,
      "▁bitis": 2302,
      "▁biridir": 2303,
      "▁yazarları": 2304,
      "▁karısı": 2305,
      "▁amerikalılar": 2306,
      "giniz": 2307,
      "▁sezlong": 2308,
      "ogramı": 2309,
      "▁yumuk": 2310,
      "▁birim": 2311,
      "sulu": 2312,
      "ach": 2313,
      "▁bocek": 2314,
      "3'te": 2315,
      "ust": 2316,
      "▁kola": 2317,
      "undaki": 2318,
      "▁yem": 2319,
      "▁bakır": 2320,
      "▁malı": 2321,
      "▁tahmininde": 2322,
      "▁400": 2323,
      "melerini": 2324,
      "▁personel": 2325,
      "emm": 2326,
      "etler": 2327,
      "▁iliskilerin": 2328,
      "▁kisiyi": 2329,
      "▁giydi": 2330,
      "▁cehen": 2331,
      "▁burn": 2332,
      "ulatif": 2333,
      "▁cinc": 2334,
      "▁kurulan": 2335,
      "▁kullanmayı": 2336,
      "▁dolar": 2337,
      "etleri": 2338,
      "▁fransız": 2339,
      "▁mısınız": 2340,
      "▁yılın": 2341,
      "iller": 2342,
      "yle": 2343,
      "ibi": 2344,
      "chell": 2345,
      "ogretim": 2346,
      "▁sahipligi": 2347,
      "▁basar": 2348,
      "▁oncesi": 2349,
      "▁pa": 2350,
      "ısma": 2351,
      "▁kolon": 2352,
      "▁yetkililer": 2353,
      "▁sosyete": 2354,
      "▁agzından": 2355,
      "▁ziyaret": 2356,
      "▁kavur": 2357,
      "mazlar": 2358,
      "▁yanları": 2359,
      "▁hiz": 2360,
      "▁omz": 2361,
      "▁vakt": 2362,
      "▁hissedarları": 2363,
      "usuz": 2364,
      "▁bil": 2365,
      "▁gunun": 2366,
      "▁gunler": 2367,
      "▁sahibinin": 2368,
      "▁ogrenme": 2369,
      "▁dolardan": 2370,
      "▁teslim": 2371,
      "▁tutarında": 2372,
      "kik": 2373,
      "▁binanın": 2374,
      "▁oakland'dan": 2375,
      "▁bakımından": 2376,
      "▁olusturmak": 2377,
      "▁birkac": 2378,
      "▁vadeli": 2379,
      "▁tarihli": 2380,
      "▁kırık": 2381,
      "▁cesmenin": 2382,
      "▁haksızlıgı": 2383,
      "▁makal": 2384,
      "▁dusmek": 2385,
      "▁kendisi": 2386,
      "▁bilgisayarı": 2387,
      "lendir": 2388,
      "▁yadigar": 2389,
      "▁uzaklas": 2390,
      "▁zavall": 2391,
      "ese": 2392,
      "▁telefonda": 2393,
      "▁misiniz": 2394,
      "▁sokaklarında": 2395,
      "▁merhamet": 2396,
      "▁butun": 2397,
      "▁kira": 2398,
      "▁fiyatları": 2399,
      "▁birligini": 2400,
      "▁oranın": 2401,
      "ilen": 2402,
      "▁pittsburgh": 2403,
      "▁ayaklarını": 2404,
      "elerin": 2405,
      "▁angel": 2406,
      "▁artısları": 2407,
      "▁yal": 2408,
      "▁askıya": 2409,
      "▁pırıltı": 2410,
      "▁ıs": 2411,
      "▁mobil": 2412,
      "▁satısa": 2413,
      "amız": 2414,
      "▁memphis'ten": 2415,
      "▁petrol": 2416,
      "▁icimde": 2417,
      "▁isg": 2418,
      "▁ugras": 2419,
      "egine": 2420,
      "▁vermez": 2421,
      "▁og": 2422,
      "▁get": 2423,
      "▁ısıgını": 2424,
      "▁etrafını": 2425,
      "▁hakkında": 2426,
      "▁cıkmıstı": 2427,
      "▁adet": 2428,
      "▁ortalıgı": 2429,
      "palı": 2430,
      "▁sorumluluk": 2431,
      "▁kalite": 2432,
      "▁aca": 2433,
      "dıgınız": 2434,
      "asyona": 2435,
      "lıc": 2436,
      "▁yolunda": 2437,
      "elerle": 2438,
      "▁sigortası": 2439,
      "▁sunnet": 2440,
      "▁yer": 2441,
      "▁klim": 2442,
      "▁kurk": 2443,
      "▁cıkıyordu": 2444,
      "▁kot": 2445,
      "igine": 2446,
      "▁roz": 2447,
      "▁halini": 2448,
      "▁karsiligini": 2449,
      "▁bilesik": 2450,
      "▁oldugunu": 2451,
      "▁radyo": 2452,
      "▁93": 2453,
      "layalım": 2454,
      "▁zorluk": 2455,
      "▁etmiyor": 2456,
      "enc": 2457,
      "▁pir": 2458,
      "▁s": 2459,
      "▁sekl": 2460,
      "▁asag": 2461,
      "▁sahnenin": 2462,
      "▁pay": 2463,
      "▁disi": 2464,
      "▁varmak": 2465,
      "▁dagları": 2466,
      "▁mam": 2467,
      "▁pantolon": 2468,
      "▁allah": 2469,
      "und": 2470,
      "▁vali": 2471,
      "▁belirtmek": 2472,
      "gimiz": 2473,
      "▁hacmi": 2474,
      "irler": 2475,
      "▁eti": 2476,
      "▁ihtimal": 2477,
      "tigine": 2478,
      "tar": 2479,
      "yıf": 2480,
      "▁kalbine": 2481,
      "meti": 2482,
      "ch": 2483,
      "5'": 2484,
      "▁diyor": 2485,
      "▁zab": 2486,
      "▁havuzun": 2487,
      "lardı": 2488,
      "▁kimliklerini": 2489,
      "▁yuklen": 2490,
      "bek": 2491,
      "lının": 2492,
      "▁iftir": 2493,
      "▁yollarını": 2494,
      "▁eyl": 2495,
      "▁uyku": 2496,
      "▁hepsinden": 2497,
      "▁renkli": 2498,
      "▁kolt": 2499,
      "▁yazılımı": 2500,
      "▁cagrısı": 2501,
      "▁jul": 2502,
      "▁kazancların": 2503,
      "▁tomurcuk": 2504,
      "▁evvela": 2505,
      "▁kapatma": 2506,
      "asının": 2507,
      "▁katından": 2508,
      "▁ettiginde": 2509,
      "▁york'ta": 2510,
      "▁dem": 2511,
      "▁ucus": 2512,
      "▁sistemi": 2513,
      "gul": 2514,
      "▁onerisi": 2515,
      "▁zat": 2516,
      "▁iyilik": 2517,
      "▁pitts": 2518,
      "▁hizmet": 2519,
      "▁kuvvetleri": 2520,
      "▁ozlem": 2521,
      "▁ozgurluk": 2522,
      "estr": 2523,
      "▁ucretleri": 2524,
      "▁teseb": 2525,
      "▁20": 2526,
      "▁kopek": 2527,
      "▁1.6": 2528,
      "▁mol": 2529,
      "▁dongu": 2530,
      "▁kurtardı": 2531,
      "▁kalan": 2532,
      "luy": 2533,
      "▁dedim": 2534,
      "▁restorani": 2535,
      "▁farz": 2536,
      "▁jurnal": 2537,
      "▁ro": 2538,
      "▁rej": 2539,
      "▁karsıladı": 2540,
      "▁yurdun": 2541,
      "sek": 2542,
      "5'de": 2543,
      "▁surum": 2544,
      "▁santr": 2545,
      "▁odemesi": 2546,
      "lerisi": 2547,
      "yo": 2548,
      "▁nedenini": 2549,
      "▁avlu": 2550,
      "▁hacmine": 2551,
      "tlu": 2552,
      "▁lez": 2553,
      "▁konaklama": 2554,
      "▁hattının": 2555,
      "malık": 2556,
      "▁portakal": 2557,
      "alamaya": 2558,
      "▁vakit": 2559,
      "▁carptı": 2560,
      "▁pros": 2561,
      "acı": 2562,
      "▁talip": 2563,
      "▁kakao": 2564,
      "▁medya": 2565,
      "▁kotu": 2566,
      "gesi": 2567,
      "▁ayd": 2568,
      "qu": 2569,
      "▁insanoglu": 2570,
      "1": 2571,
      "▁tamamladı": 2572,
      "▁sair": 2573,
      "▁'lik": 2574,
      "▁kalenin": 2575,
      "▁dalına": 2576,
      "▁tetkik": 2577,
      "▁hafifce": 2578,
      "▁vakfı": 2579,
      "emizi": 2580,
      "4'ten": 2581,
      "ilerin": 2582,
      "ehir": 2583,
      "ock": 2584,
      "▁hisselerinin": 2585,
      "▁akla": 2586,
      "ki": 2587,
      "▁uzmanları": 2588,
      "▁sarkılar": 2589,
      "lerken": 2590,
      "nlıs": 2591,
      "▁hakikaten": 2592,
      "▁secime": 2593,
      "▁kemer": 2594,
      "▁isminin": 2595,
      "▁isareti": 2596,
      "▁etsin": 2597,
      "▁elmas": 2598,
      "▁hav": 2599,
      "▁sosyal": 2600,
      "▁hizmetleri": 2601,
      "▁tarafindan": 2602,
      "▁kupası": 2603,
      "ılda": 2604,
      "▁depol": 2605,
      "▁ade": 2606,
      "▁berbat": 2607,
      "▁buyumesi": 2608,
      "ormal": 2609,
      "▁memnuniyetini": 2610,
      "▁kendilerinin": 2611,
      "▁dakikasında": 2612,
      "▁paranın": 2613,
      "▁yede": 2614,
      "▁gectikten": 2615,
      "aması": 2616,
      "▁celik": 2617,
      "og": 2618,
      "▁danıs": 2619,
      "hwest": 2620,
      "▁destek": 2621,
      "▁manevr": 2622,
      "▁cevresine": 2623,
      "gıl": 2624,
      "mli": 2625,
      "▁nashville'den": 2626,
      "af": 2627,
      "▁iht": 2628,
      "▁temer": 2629,
      "▁sehrinde": 2630,
      "▁tanıt": 2631,
      "▁haftaya": 2632,
      "▁vız": 2633,
      "▁otellerin": 2634,
      "▁deyip": 2635,
      "▁ten": 2636,
      "▁baslık": 2637,
      "eller": 2638,
      "graf": 2639,
      "kır": 2640,
      "▁asistan": 2641,
      "▁muhat": 2642,
      "▁uzerinde": 2643,
      "iyenin": 2644,
      "ger": 2645,
      "▁yazılı": 2646,
      "▁seviyede": 2647,
      "▁gozlerinin": 2648,
      "▁kullanılır": 2649,
      "▁imk": 2650,
      "▁oteldi": 2651,
      "era": 2652,
      "▁dalgalanma": 2653,
      "▁kuyum": 2654,
      "iyeli": 2655,
      "▁gram": 2656,
      "▁hos": 2657,
      "▁orlando'ya": 2658,
      "▁cor": 2659,
      "▁sertif": 2660,
      "▁basa": 2661,
      "▁tadil": 2662,
      "▁rapor": 2663,
      "▁ekibinin": 2664,
      "▁ben": 2665,
      "▁talepte": 2666,
      "▁tulumb": 2667,
      "▁etmeyi": 2668,
      "▁arap": 2669,
      "▁evet": 2670,
      "▁ihracları": 2671,
      "west": 2672,
      "larınla": 2673,
      "▁donemde": 2674,
      "▁omru": 2675,
      "'nden": 2676,
      "mı": 2677,
      "▁inis": 2678,
      "▁meyhan": 2679,
      "0'den": 2680,
      "▁sifa": 2681,
      "▁dil": 2682,
      "▁geminin": 2683,
      "▁mesela": 2684,
      "▁ailesinin": 2685,
      "▁kapıda": 2686,
      "▁ai": 2687,
      "▁sovyetler": 2688,
      "eklen": 2689,
      "mesiyle": 2690,
      "amet": 2691,
      "annem": 2692,
      "▁bankasının": 2693,
      "▁kırmızı": 2694,
      "leyip": 2695,
      "▁eglence": 2696,
      "▁mıdır": 2697,
      "▁ucakları": 2698,
      "▁ates": 2699,
      "▁yazarlık": 2700,
      "ındır": 2701,
      "itler": 2702,
      "▁kurus": 2703,
      "▁duvar": 2704,
      "son": 2705,
      "tak": 2706,
      "yanın": 2707,
      "▁sikayet": 2708,
      "▁odayı": 2709,
      "aza": 2710,
      "dıgını": 2711,
      "zir": 2712,
      "dam": 2713,
      "▁televizyon": 2714,
      "▁bom": 2715,
      "▁limuzin": 2716,
      "▁dogrul": 2717,
      "▁grupları": 2718,
      "▁gogsunun": 2719,
      "ebilirim": 2720,
      "acak": 2721,
      "▁teskil": 2722,
      "▁bedeli": 2723,
      "▁masasının": 2724,
      "▁dieg": 2725,
      "▁katır": 2726,
      "metli": 2727,
      "▁2.6": 2728,
      "▁ankar": 2729,
      "▁malz": 2730,
      "kten": 2731,
      "▁gozunden": 2732,
      "▁biter": 2733,
      "▁masada": 2734,
      "▁yuzme": 2735,
      "▁ide": 2736,
      "▁atoly": 2737,
      "▁meyve": 2738,
      "sarken": 2739,
      "▁ulu": 2740,
      "▁uzerinden": 2741,
      "teye": 2742,
      "▁acılıyor": 2743,
      "▁yıld": 2744,
      "▁yıldız": 2745,
      "▁tarafında": 2746,
      "▁cicekleri": 2747,
      "▁gunesin": 2748,
      "▁kosesinde": 2749,
      "▁sondaj": 2750,
      "teci": 2751,
      "▁korfez": 2752,
      "▁bilgi": 2753,
      "▁amc": 2754,
      "erdi": 2755,
      "▁barikat": 2756,
      "e": 2757,
      "ud": 2758,
      "▁baglilik": 2759,
      "▁kullanarak": 2760,
      "▁haft": 2761,
      "▁kıyas": 2762,
      "▁bakısı": 2763,
      "▁soylemek": 2764,
      "▁haberin": 2765,
      "▁yeni": 2766,
      "▁sidde": 2767,
      "▁cadde": 2768,
      "▁organizasyon": 2769,
      "▁dallarında": 2770,
      "sarak": 2771,
      "▁sorusu": 2772,
      "▁yonden": 2773,
      "tigini": 2774,
      "ark": 2775,
      "▁ilaclar": 2776,
      "▁davranıs": 2777,
      "▁malum": 2778,
      "▁kalkıp": 2779,
      "▁hastalıga": 2780,
      "ili": 2781,
      "▁yemeye": 2782,
      "ılıklar": 2783,
      "lamalar": 2784,
      "▁mufett": 2785,
      "▁ayaklarının": 2786,
      "▁suretle": 2787,
      "-f": 2788,
      "▁vad": 2789,
      "▁gecip": 2790,
      "igini": 2791,
      "▁bilek": 2792,
      "▁hakika": 2793,
      "▁egz": 2794,
      "▁tereddut": 2795,
      "▁tahkik": 2796,
      "▁yazmak": 2797,
      "▁sablon": 2798,
      "aden": 2799,
      "▁gitgide": 2800,
      "▁icerde": 2801,
      "▁gozlerinde": 2802,
      "▁yatagı": 2803,
      "odr": 2804,
      "▁yıldızlar": 2805,
      "▁cikiyordu": 2806,
      "▁yıldan": 2807,
      "▁masalı": 2808,
      "▁muhit": 2809,
      "▁corp": 2810,
      "▁tesis": 2811,
      "▁bilgileri": 2812,
      "▁tarafın": 2813,
      "▁sıkıntıya": 2814,
      "▁maliyetlerini": 2815,
      "▁nokta": 2816,
      "▁ortak": 2817,
      "eli": 2818,
      "▁her": 2819,
      "kili": 2820,
      "/4": 2821,
      "▁hikaye": 2822,
      "▁tovbe": 2823,
      "▁ilgiliydiler": 2824,
      "lıp": 2825,
      "▁gorduler": 2826,
      "▁hazırlıkları": 2827,
      "▁beklenenden": 2828,
      "▁kafam": 2829,
      "▁ideoloj": 2830,
      "▁ot": 2831,
      "▁yanı": 2832,
      "eme": 2833,
      "keti": 2834,
      "ıv": 2835,
      "▁kag": 2836,
      "bank": 2837,
      "metler": 2838,
      "▁govde": 2839,
      "▁mustesar": 2840,
      "▁sorunların": 2841,
      "▁halihazırda": 2842,
      "▁hurr": 2843,
      "leri": 2844,
      "▁oncesine": 2845,
      "▁sartları": 2846,
      "▁oyu": 2847,
      "▁dava": 2848,
      "▁kırlarda": 2849,
      "▁hardal": 2850,
      "▁lyn": 2851,
      "▁fonlar": 2852,
      "▁olanak": 2853,
      "▁kisiden": 2854,
      "sul": 2855,
      "▁haftada": 2856,
      "▁indirimi": 2857,
      "▁dolarına": 2858,
      "▁calgı": 2859,
      "▁gozlem": 2860,
      "▁hit": 2861,
      "▁care": 2862,
      "▁talebe": 2863,
      "▁ilet": 2864,
      "▁konumu": 2865,
      "▁kızım": 2866,
      "▁multeci": 2867,
      "▁insanların": 2868,
      "▁panc": 2869,
      "dugumdan": 2870,
      "▁santaj": 2871,
      "▁benzerlik": 2872,
      "▁yukselen": 2873,
      "▁agır": 2874,
      "▁komplek": 2875,
      "yonluk": 2876,
      "▁cozmek": 2877,
      "emedik": 2878,
      "▁organ": 2879,
      "▁deneyler": 2880,
      "zet": 2881,
      "▁hisselerine": 2882,
      "▁eden": 2883,
      "▁agr": 2884,
      "▁mecbur": 2885,
      "▁topcu": 2886,
      "▁danısmanı": 2887,
      "▁ogrencilerin": 2888,
      "▁isletmesi": 2889,
      "▁tasarısını": 2890,
      "▁ucusun": 2891,
      "▁gazeteci": 2892,
      "▁300": 2893,
      "▁yaslarında": 2894,
      "▁sponsor": 2895,
      "malarını": 2896,
      "▁ibadet": 2897,
      "ebe": 2898,
      "dun": 2899,
      "+": 2900,
      "▁cıktı": 2901,
      "▁ileride": 2902,
      "▁isbası": 2903,
      "▁dısarıda": 2904,
      "▁izah": 2905,
      "▁gozumde": 2906,
      "▁sus": 2907,
      "▁hatta": 2908,
      "leyen": 2909,
      "▁kazanım": 2910,
      "▁damlac": 2911,
      "▁katil": 2912,
      "abi": 2913,
      "▁temiz": 2914,
      "▁sup": 2915,
      "▁louis'e": 2916,
      "▁anladım": 2917,
      "sti": 2918,
      "▁insanlarla": 2919,
      "▁navl": 2920,
      "▁cocugum": 2921,
      "▁hokk": 2922,
      "▁cırp": 2923,
      "▁ge": 2924,
      "▁etut": 2925,
      "▁ciftlikleri": 2926,
      "▁olmasi": 2927,
      "ıldıktan": 2928,
      "▁giren": 2929,
      "▁teyit": 2930,
      "▁yargıc": 2931,
      "emiydi": 2932,
      "lanan": 2933,
      "▁getirdi": 2934,
      "ing": 2935,
      "▁skan": 2936,
      "ırda": 2937,
      "▁ucmanın": 2938,
      "▁hınc": 2939,
      "tusu": 2940,
      "▁adamla": 2941,
      "▁camasırları": 2942,
      "▁hizmetine": 2943,
      "▁iyiligini": 2944,
      "▁olurlar": 2945,
      "kal": 2946,
      "▁oper": 2947,
      "▁kadına": 2948,
      "▁ucuza": 2949,
      "▁pab": 2950,
      "▁muhalle": 2951,
      "osu": 2952,
      "▁em": 2953,
      "▁hayvanları": 2954,
      "▁yurd": 2955,
      "▁namus": 2956,
      "▁twa": 2957,
      "▁ızdır": 2958,
      "'lik": 2959,
      "▁haftalık": 2960,
      "▁koltugun": 2961,
      "▁kurulusları": 2962,
      "▁sipahi": 2963,
      "▁calısıyor": 2964,
      "▁israil": 2965,
      "▁emper": 2966,
      "▁cıkarlarını": 2967,
      "▁hakim": 2968,
      "▁sayf": 2969,
      "▁fonun": 2970,
      "▁sonu": 2971,
      "▁kayıp": 2972,
      "▁gercekleri": 2973,
      "▁sanay": 2974,
      "x": 2975,
      "▁etkilen": 2976,
      "islerden": 2977,
      "▁kuny": 2978,
      "▁acıp": 2979,
      "'ndaki": 2980,
      "▁istanbul'a": 2981,
      "ıza": 2982,
      "lumu": 2983,
      "▁koruk": 2984,
      "▁adımda": 2985,
      "▁yarım": 2986,
      "ucu": 2987,
      "▁calısmaya": 2988,
      "▁guclerin": 2989,
      "▁baskaları": 2990,
      "▁fırın": 2991,
      "▁fırsatını": 2992,
      "▁yurttas": 2993,
      "nız": 2994,
      "tr": 2995,
      "▁hangi": 2996,
      "▁balta": 2997,
      "giliz": 2998,
      "▁cirkin": 2999,
      "▁gelme": 3000,
      "rih": 3001,
      "▁dilber": 3002,
      "▁sevkiyat": 3003,
      "anmak": 3004,
      "▁makarn": 3005,
      "▁kilometre": 3006,
      "▁yarattı": 3007,
      "▁olmadı": 3008,
      "amaya": 3009,
      "imin": 3010,
      "▁yaradılıs": 3011,
      "▁evvel": 3012,
      "▁koru": 3013,
      "▁sinirleri": 3014,
      "▁temizliginden": 3015,
      "iyor": 3016,
      "▁istah": 3017,
      "▁ablası": 3018,
      "ci": 3019,
      "▁mezun": 3020,
      "▁secen": 3021,
      "▁endisesi": 3022,
      "atla": 3023,
      "▁getiri": 3024,
      "red": 3025,
      "▁bolgeyi": 3026,
      "▁hastalar": 3027,
      "▁otobus": 3028,
      "▁ekliyor": 3029,
      "▁satır": 3030,
      "▁fuz": 3031,
      "▁protesto": 3032,
      "▁mim": 3033,
      "▁arkas": 3034,
      "▁kısmı": 3035,
      "▁gerceklik": 3036,
      "▁huzun": 3037,
      "astırma": 3038,
      "▁temelinde": 3039,
      "urarak": 3040,
      "lari": 3041,
      "▁motiv": 3042,
      "▁gelecegi": 3043,
      "lem": 3044,
      "mos": 3045,
      "▁oak": 3046,
      "▁tekk": 3047,
      "▁cıgırt": 3048,
      "mun": 3049,
      "▁karmasık": 3050,
      "sizce": 3051,
      "▁gencleri": 3052,
      "▁hik": 3053,
      "▁oyunc": 3054,
      "j": 3055,
      "▁risk": 3056,
      "▁ac": 3057,
      "▁orada": 3058,
      "▁dern": 3059,
      "▁fis": 3060,
      "▁81": 3061,
      "amac": 3062,
      "▁tartısmaya": 3063,
      "▁gob": 3064,
      "▁konumda": 3065,
      "yumda": 3066,
      "▁alacagını": 3067,
      "▁yazılar": 3068,
      "isine": 3069,
      "▁klasik": 3070,
      "▁magdur": 3071,
      "▁gokyuzune": 3072,
      "▁bulacak": 3073,
      "▁rol": 3074,
      "jyen": 3075,
      "▁calisirim": 3076,
      "▁donustu": 3077,
      "▁gostergeleri": 3078,
      "▁carsıya": 3079,
      "ur": 3080,
      "edeki": 3081,
      "▁sandal": 3082,
      "▁puani": 3083,
      "▁oranında": 3084,
      "▁masraflar": 3085,
      "▁basak": 3086,
      "▁fac": 3087,
      "▁kay": 3088,
      "uyen": 3089,
      "imci": 3090,
      "▁bisiklet": 3091,
      "▁st": 3092,
      "▁oyunlar": 3093,
      "▁avaz": 3094,
      "agıyla": 3095,
      "lamada": 3096,
      "▁malzeme": 3097,
      "▁kinden": 3098,
      "▁bilgisini": 3099,
      "▁sınıfta": 3100,
      "▁cocukların": 3101,
      "▁buklum": 3102,
      "▁elimi": 3103,
      "▁turistlerin": 3104,
      "▁kimin": 3105,
      "▁tufek": 3106,
      "▁fl": 3107,
      "erin": 3108,
      "▁duvarın": 3109,
      "mes": 3110,
      "▁iktidar": 3111,
      "▁yaptıgı": 3112,
      "▁misafir": 3113,
      "▁nesesi": 3114,
      "▁raporları": 3115,
      "▁kısıtlamasını": 3116,
      "▁kiraz": 3117,
      "abor": 3118,
      "▁obur": 3119,
      "▁ep": 3120,
      "amın": 3121,
      "▁milwaukee": 3122,
      "▁ormanları": 3123,
      "▁girdi": 3124,
      "▁sola": 3125,
      "▁fık": 3126,
      "▁dostluk": 3127,
      "▁pemb": 3128,
      "▁aklın": 3129,
      "▁sozlesmeler": 3130,
      "▁usa": 3131,
      "▁dergisi": 3132,
      "▁tutacak": 3133,
      "▁prosed": 3134,
      "▁nort": 3135,
      "▁tuccar": 3136,
      "▁varlıklar": 3137,
      "▁istatist": 3138,
      "▁yasanın": 3139,
      "▁bolum": 3140,
      "▁yanıt": 3141,
      "▁kadınlardan": 3142,
      "▁eger": 3143,
      "▁bagırdı": 3144,
      "▁kuralların": 3145,
      "kam": 3146,
      "▁gozune": 3147,
      "▁koptu": 3148,
      "culer": 3149,
      "▁dedem": 3150,
      "▁dans": 3151,
      "▁binalar": 3152,
      "▁deftere": 3153,
      "ehan": 3154,
      "▁ciro": 3155,
      "▁sh": 3156,
      "▁tarihinden": 3157,
      "▁bula": 3158,
      "acaktır": 3159,
      "▁teminat": 3160,
      "#": 3161,
      "▁jones": 3162,
      "▁baslamıs": 3163,
      "▁sifir": 3164,
      "▁taktik": 3165,
      "▁koken": 3166,
      "▁yiy": 3167,
      "▁ihtimali": 3168,
      "agoz": 3169,
      "▁artısının": 3170,
      "▁seyahate": 3171,
      "▁salata": 3172,
      "deri": 3173,
      "▁dizginleri": 3174,
      "agu": 3175,
      "▁komisyonları": 3176,
      "▁acel": 3177,
      "▁deterj": 3178,
      "▁orij": 3179,
      "▁dusuncelerini": 3180,
      "▁yurur": 3181,
      "▁izleme": 3182,
      "▁baskasın": 3183,
      "sızca": 3184,
      "▁ugra": 3185,
      "▁sinyal": 3186,
      "esyon": 3187,
      "▁milli": 3188,
      "▁yanaklarını": 3189,
      "▁uzakti": 3190,
      "▁mecmu": 3191,
      "▁gayri": 3192,
      "▁tekrar": 3193,
      "▁pansiyon": 3194,
      "▁kanto": 3195,
      "▁ajansın": 3196,
      "▁toz": 3197,
      "▁asır": 3198,
      "▁ulasa": 3199,
      "▁sirketlerinden": 3200,
      "iyeti": 3201,
      "▁kaldırılması": 3202,
      "▁acil": 3203,
      "▁konforluydu": 3204,
      "emek": 3205,
      "▁verimlilik": 3206,
      "dayım": 3207,
      "▁sers": 3208,
      "▁rakamı": 3209,
      "isindan": 3210,
      "rek": 3211,
      "ımın": 3212,
      "▁yatırımcıları": 3213,
      "▁rezerve": 3214,
      "▁ici": 3215,
      "▁emlak": 3216,
      "▁rota": 3217,
      "▁otorite": 3218,
      "meler": 3219,
      "abz": 3220,
      "▁filmin": 3221,
      "▁ayakkabılar": 3222,
      "tes": 3223,
      "▁gomlegini": 3224,
      "▁degistirdi": 3225,
      "ıgın": 3226,
      "yas": 3227,
      "▁muhal": 3228,
      "▁ayrıntıları": 3229,
      "kulu": 3230,
      "▁gercekten": 3231,
      "▁sektorde": 3232,
      "▁karnını": 3233,
      "▁olsa": 3234,
      "▁cabasına": 3235,
      "▁edi": 3236,
      "▁islemlere": 3237,
      "▁hissesinin": 3238,
      "▁ekipleri": 3239,
      "tas": 3240,
      "▁fal": 3241,
      "▁yahut": 3242,
      "▁ani": 3243,
      "▁kamuoy": 3244,
      "▁'": 3245,
      "▁durmadan": 3246,
      "ıntısı": 3247,
      "▁kısalt": 3248,
      "▁tartı": 3249,
      "▁kalbi": 3250,
      "rib": 3251,
      "▁rut": 3252,
      "▁nob": 3253,
      "▁yardımıyla": 3254,
      "▁olmustur": 3255,
      "'nde": 3256,
      "▁puf": 3257,
      "▁soba": 3258,
      "▁oykusu": 3259,
      "▁tunel": 3260,
      "▁avize": 3261,
      "atsız": 3262,
      "▁boyunda": 3263,
      "hanesi": 3264,
      "▁degisimi": 3265,
      "▁dust": 3266,
      "▁odamiz": 3267,
      "lardaki": 3268,
      "▁hayran": 3269,
      "▁bankacılıgı": 3270,
      "▁soyluyorlar": 3271,
      "▁gorebilir": 3272,
      "▁ula": 3273,
      "▁yasanan": 3274,
      "▁sol": 3275,
      "▁inkılap": 3276,
      "▁ilgisizdi": 3277,
      "▁soldan": 3278,
      "▁arıtma": 3279,
      "▁ban": 3280,
      "▁bankalar": 3281,
      "▁eyaletler": 3282,
      "▁hukumetinin": 3283,
      "▁ag": 3284,
      "▁paralarını": 3285,
      "asinda": 3286,
      "▁layık": 3287,
      "ster": 3288,
      "▁opec": 3289,
      "▁basınc": 3290,
      "▁dayanısma": 3291,
      "▁ila": 3292,
      "▁personelinden": 3293,
      "▁tastan": 3294,
      "-k": 3295,
      "imi": 3296,
      "▁esitlik": 3297,
      "▁hayatı": 3298,
      "▁itir": 3299,
      "kiz": 3300,
      "▁suru": 3301,
      "▁sunum": 3302,
      "▁cark": 3303,
      "▁ney": 3304,
      "ital": 3305,
      "▁basbakan": 3306,
      "▁gunumuzde": 3307,
      "▁cezası": 3308,
      "adde": 3309,
      "▁sayisi": 3310,
      "▁mesgul": 3311,
      "▁parası": 3312,
      "▁kristal": 3313,
      "▁pantolonunu": 3314,
      "▁bilgilerine": 3315,
      "inizi": 3316,
      "▁basvur": 3317,
      "▁600": 3318,
      "yaz": 3319,
      "▁hikayeler": 3320,
      "30": 3321,
      "▁mevcut": 3322,
      "esap": 3323,
      "▁gelmesi": 3324,
      "ligi": 3325,
      "esine": 3326,
      "▁verin": 3327,
      "isinda": 3328,
      "▁dusunceler": 3329,
      "▁ozgur": 3330,
      "▁calismalar": 3331,
      "▁konuları": 3332,
      "▁hakikat": 3333,
      "▁cab": 3334,
      "▁veremem": 3335,
      "▁kader": 3336,
      "▁36": 3337,
      "▁cıkarmaya": 3338,
      "▁gunlerinde": 3339,
      "ininin": 3340,
      "▁muhim": 3341,
      "▁sıkıstır": 3342,
      "▁ayrılan": 3343,
      "▁apartmana": 3344,
      "lılık": 3345,
      "▁kong": 3346,
      "▁ceb": 3347,
      "▁ustunu": 3348,
      "▁kampanya": 3349,
      "▁kayıpları": 3350,
      "ciyi": 3351,
      "▁kambiyo": 3352,
      "▁kez": 3353,
      "▁daktilo": 3354,
      "tıran": 3355,
      "sekiz": 3356,
      "▁devleti": 3357,
      "▁yapacagı": 3358,
      "uru": 3359,
      "▁hamil": 3360,
      "▁esyayı": 3361,
      "ilmeye": 3362,
      "▁miras": 3363,
      "▁yild": 3364,
      "▁kullanmaya": 3365,
      "▁bakar": 3366,
      "▁soyle": 3367,
      "▁elinin": 3368,
      "▁kam": 3369,
      "lesen": 3370,
      "isinin": 3371,
      "▁senedinin": 3372,
      "▁musam": 3373,
      "▁sebz": 3374,
      "edil": 3375,
      "▁olgunluk": 3376,
      "alik": 3377,
      "▁nedeniyle": 3378,
      "▁olasılıkla": 3379,
      "lanmıstır": 3380,
      "al": 3381,
      "▁yavrusu": 3382,
      "▁georg": 3383,
      "▁burokras": 3384,
      "▁kadif": 3385,
      "▁sarkının": 3386,
      "lenmesini": 3387,
      "▁kop": 3388,
      "▁americ": 3389,
      "erik": 3390,
      "▁olmadıgını": 3391,
      "▁duygusunun": 3392,
      "▁dususle": 3393,
      "▁senaryo": 3394,
      "▁istin": 3395,
      "▁kooperatif": 3396,
      "▁yay": 3397,
      "▁gazeteye": 3398,
      "▁uykuda": 3399,
      "▁haket": 3400,
      "▁kampanyası": 3401,
      "▁karn": 3402,
      "▁gelirler": 3403,
      "▁kendime": 3404,
      "▁dizi": 3405,
      "▁gozlerimin": 3406,
      "eg": 3407,
      "▁haberde": 3408,
      "aja": 3409,
      "▁kalitesi": 3410,
      "▁devir": 3411,
      "▁baltimore'den": 3412,
      "▁fena": 3413,
      "cısı": 3414,
      "▁dede": 3415,
      "▁temmuz": 3416,
      "landırıyor": 3417,
      "▁artıyor": 3418,
      "▁kosk": 3419,
      "lusu": 3420,
      "▁1/4'e": 3421,
      "▁bob": 3422,
      "▁lav": 3423,
      "▁olduklarını": 3424,
      "ab": 3425,
      "mini": 3426,
      "▁feo": 3427,
      "▁kızın": 3428,
      "▁devi": 3429,
      "▁ikamet": 3430,
      "▁alınan": 3431,
      "▁dosya": 3432,
      "▁olcusu": 3433,
      "orth": 3434,
      "▁notu": 3435,
      "▁muhabiri": 3436,
      "▁tursu": 3437,
      "▁aqua": 3438,
      "▁super": 3439,
      "▁calmaya": 3440,
      "▁kaynaklandıgını": 3441,
      "▁psil": 3442,
      "▁bahc": 3443,
      "▁kıvr": 3444,
      "▁ormanın": 3445,
      "▁teblig": 3446,
      "ecekti": 3447,
      "▁konusmalar": 3448,
      "▁kilisesi": 3449,
      "▁gay": 3450,
      "▁ebeveynler": 3451,
      "biy": 3452,
      "▁iy": 3453,
      "▁hanımlar": 3454,
      "uzlu": 3455,
      "gusu": 3456,
      "▁perdeler": 3457,
      "▁tarl": 3458,
      "▁gold": 3459,
      "▁karsın": 3460,
      "antı": 3461,
      "▁secimlerde": 3462,
      "▁tip": 3463,
      "▁isci": 3464,
      "▁10'dan": 3465,
      "▁okulu": 3466,
      "▁gecme": 3467,
      "▁kendim": 3468,
      "▁tun": 3469,
      "▁dl": 3470,
      "▁nus": 3471,
      "▁havuzu": 3472,
      "▁kamyon": 3473,
      "lastı": 3474,
      "▁fikirleri": 3475,
      "▁buhar": 3476,
      "▁musaade": 3477,
      "▁sirke": 3478,
      "larıma": 3479,
      "▁anahtarı": 3480,
      "▁saniyede": 3481,
      "▁fikrini": 3482,
      "▁destan": 3483,
      "ıklarından": 3484,
      "▁sesleri": 3485,
      "▁cuzdanı": 3486,
      "istir": 3487,
      "▁hepimizi": 3488,
      "aya": 3489,
      "▁duruyordu": 3490,
      "▁hazırlık": 3491,
      "▁balik": 3492,
      "▁islerde": 3493,
      "▁topladı": 3494,
      "ncu": 3495,
      "▁ayakk": 3496,
      "▁vatan": 3497,
      "▁sacak": 3498,
      "neti": 3499,
      "▁bilgisayarlarda": 3500,
      "sında": 3501,
      "▁satısları": 3502,
      "▁boston'dan": 3503,
      "▁isteklerimizi": 3504,
      "▁getirisi": 3505,
      "▁kulagını": 3506,
      "▁jam": 3507,
      "▁maymun": 3508,
      "▁1990'da": 3509,
      "▁yonet": 3510,
      "▁harekete": 3511,
      "▁yemeklerin": 3512,
      "ilar": 3513,
      "▁heyeti": 3514,
      "▁gibidir": 3515,
      "▁miyim": 3516,
      "▁destekler": 3517,
      "▁takiben": 3518,
      "ısının": 3519,
      "▁emin": 3520,
      "▁tor": 3521,
      "▁cumhurb": 3522,
      "?": 3523,
      "cayı": 3524,
      "▁sorunları": 3525,
      "cuk": 3526,
      "ildim": 3527,
      "▁miz": 3528,
      "th": 3529,
      "▁saglıgına": 3530,
      "▁american": 3531,
      "▁i": 3532,
      "bi": 3533,
      "▁mutfagın": 3534,
      "▁urun": 3535,
      "meyi": 3536,
      "▁onayladı": 3537,
      "▁ustun": 3538,
      "▁kalorifer": 3539,
      "lerinize": 3540,
      "▁sarayın": 3541,
      "eder": 3542,
      "▁sirketinden": 3543,
      "▁universitesi": 3544,
      "▁umit": 3545,
      "▁sporcu": 3546,
      "_": 3547,
      "▁kar": 3548,
      "▁temas": 3549,
      "▁tabaklar": 3550,
      "▁saglıyor": 3551,
      "▁gelmisti": 3552,
      "▁bagdas": 3553,
      "▁sekerleme": 3554,
      "▁otob": 3555,
      "▁gonlum": 3556,
      "▁olmak": 3557,
      "▁brok": 3558,
      "▁cıkar": 3559,
      "▁isbir": 3560,
      "bre": 3561,
      "aladıgını": 3562,
      "▁demec": 3563,
      "▁tam": 3564,
      "▁sanayicileri": 3565,
      "▁dalga": 3566,
      "▁veda": 3567,
      "▁cumhurbaskanı": 3568,
      "▁nev": 3569,
      "▁riski": 3570,
      "iginin": 3571,
      "▁nez": 3572,
      "▁peni": 3573,
      "▁ası": 3574,
      "▁amma": 3575,
      "▁rezerv": 3576,
      "madik": 3577,
      "ktan": 3578,
      "dir": 3579,
      "▁1969'un": 3580,
      "▁tiyatro": 3581,
      "▁karakter": 3582,
      "▁iskeleye": 3583,
      "▁bitkiler": 3584,
      "▁tecavuz": 3585,
      "iyatr": 3586,
      "▁bıyık": 3587,
      "▁degilim": 3588,
      "▁bahsederim": 3589,
      "▁bahs": 3590,
      "enizi": 3591,
      "▁bakı": 3592,
      "▁olmanın": 3593,
      "▁sual": 3594,
      "▁doksan": 3595,
      "▁sahnede": 3596,
      "▁artan": 3597,
      "▁pac": 3598,
      "▁guzelligini": 3599,
      "▁kurmay": 3600,
      "▁varlıgını": 3601,
      "▁hakkındaki": 3602,
      "▁guleryuzlu": 3603,
      "▁expr": 3604,
      "▁bulamac": 3605,
      "▁ediyor": 3606,
      "uslar": 3607,
      "sa": 3608,
      "nın": 3609,
      "yacak": 3610,
      "baz": 3611,
      "abilecegini": 3612,
      "indir": 3613,
      "gunluk": 3614,
      "ine": 3615,
      "▁davran": 3616,
      "madıgı": 3617,
      "▁klor": 3618,
      "▁haber": 3619,
      "tiler": 3620,
      "▁asama": 3621,
      "▁altına": 3622,
      "▁ogrencilere": 3623,
      "▁44": 3624,
      "tam": 3625,
      "▁artısa": 3626,
      "▁havayı": 3627,
      "▁amiri": 3628,
      "\"": 3629,
      "▁yuklu": 3630,
      "▁yalnız": 3631,
      "▁yazarlarının": 3632,
      "▁endiselen": 3633,
      "▁sınavı": 3634,
      "▁intikam": 3635,
      "▁oyn": 3636,
      "▁kentin": 3637,
      "▁planlıyor": 3638,
      "▁camları": 3639,
      "▁ham": 3640,
      "▁okumak": 3641,
      "ilecegi": 3642,
      "▁hurmet": 3643,
      "▁temet": 3644,
      "ıga": 3645,
      "▁girmek": 3646,
      "▁toh": 3647,
      "ht": 3648,
      "gıc": 3649,
      "▁tavan": 3650,
      "▁m": 3651,
      "yken": 3652,
      "tti": 3653,
      "▁gerekir": 3654,
      "▁kapasitesine": 3655,
      "▁teskilat": 3656,
      "▁kosullarına": 3657,
      "▁onlarda": 3658,
      "▁kurulusun": 3659,
      "uyorum": 3660,
      "▁resesyon": 3661,
      "▁soylen": 3662,
      "lanması": 3663,
      "▁politik": 3664,
      "▁verileri": 3665,
      "▁3.5": 3666,
      "▁konusunda": 3667,
      "▁misafirimize": 3668,
      "▁ankete": 3669,
      "lamıstır": 3670,
      "▁rolunu": 3671,
      "▁show": 3672,
      "▁onlemek": 3673,
      "▁serb": 3674,
      "▁universiteyi": 3675,
      "▁gunlerde": 3676,
      "▁universiteye": 3677,
      "▁hastalıkların": 3678,
      "▁taleplerinin": 3679,
      "▁ig": 3680,
      "▁ve": 3681,
      "▁aglamaya": 3682,
      "▁yıllardır": 3683,
      "a'nın": 3684,
      "▁kasım": 3685,
      "▁mode": 3686,
      "▁isley": 3687,
      "iyim": 3688,
      "▁zır": 3689,
      "▁kapmak": 3690,
      "▁kuralları": 3691,
      "▁lezzet": 3692,
      "▁seyiyle": 3693,
      "▁oruc": 3694,
      "▁sikinti": 3695,
      "8'in": 3696,
      "▁hareketiyle": 3697,
      "▁adayları": 3698,
      "▁sineye": 3699,
      "▁isini": 3700,
      "▁lokant": 3701,
      "anın": 3702,
      "▁oldur": 3703,
      "▁surece": 3704,
      "▁getirileri": 3705,
      "▁varlık": 3706,
      "▁egitim": 3707,
      "▁hissini": 3708,
      "▁sukur": 3709,
      "▁zapt": 3710,
      "▁devamı": 3711,
      "▁inanmak": 3712,
      "tıga": 3713,
      "dde": 3714,
      "▁ısıgın": 3715,
      "▁yanında": 3716,
      "▁edilecegini": 3717,
      "▁sırrı": 3718,
      "▁yururluge": 3719,
      "▁istiyorum": 3720,
      "▁oturup": 3721,
      "▁konsep": 3722,
      "▁york'a": 3723,
      "▁oyk": 3724,
      "▁avucunun": 3725,
      "▁havayollarının": 3726,
      "▁cokusunden": 3727,
      "▁yalnızlık": 3728,
      "▁delikan": 3729,
      "casına": 3730,
      "▁denem": 3731,
      "▁sergisi": 3732,
      "▁budak": 3733,
      "▁elleriyle": 3734,
      "▁gerekiyor": 3735,
      "▁salkım": 3736,
      "▁uyandır": 3737,
      "▁edenler": 3738,
      "▁ydi": 3739,
      "▁sayın": 3740,
      "▁bol": 3741,
      "▁ipek": 3742,
      "▁yunan": 3743,
      "▁ver": 3744,
      "▁efsane": 3745,
      "ındık": 3746,
      "om": 3747,
      "▁krizi": 3748,
      "gag": 3749,
      "▁ucan": 3750,
      "amaları": 3751,
      "▁bin": 3752,
      "▁cesitler": 3753,
      "▁yav": 3754,
      "▁hangisi": 3755,
      "▁gucuyle": 3756,
      "masın": 3757,
      "▁gobek": 3758,
      "▁kahvelerin": 3759,
      "▁bilin": 3760,
      "aray": 3761,
      "▁ailesini": 3762,
      "▁kurtu": 3763,
      "elin": 3764,
      "▁calısan": 3765,
      "▁tedarik": 3766,
      "▁sac": 3767,
      "larımın": 3768,
      "ebilecegini": 3769,
      "▁ilgil": 3770,
      "▁andan": 3771,
      "uc": 3772,
      "▁acmayı": 3773,
      "▁guvenc": 3774,
      "▁faaliyet": 3775,
      "▁dom": 3776,
      "▁kavgası": 3777,
      "▁sertifikaları": 3778,
      "alım": 3779,
      "▁dilinden": 3780,
      "▁tasın": 3781,
      "ızı": 3782,
      "▁surecek": 3783,
      "▁iflah": 3784,
      "▁hikayesi": 3785,
      "▁mukelle": 3786,
      "lanma": 3787,
      "▁duskun": 3788,
      "▁anlatır": 3789,
      "▁ciftciler": 3790,
      "▁sp": 3791,
      "▁avrupa": 3792,
      "acıkta": 3793,
      "▁bok": 3794,
      "▁ruyamda": 3795,
      "ece": 3796,
      "▁mıyım": 3797,
      "▁yıllardan": 3798,
      "mamıstı": 3799,
      "▁burjuv": 3800,
      "uzluydu": 3801,
      "1'e": 3802,
      "▁ayrildik": 3803,
      "▁reorganizasyon": 3804,
      "▁asıl": 3805,
      "▁vurmak": 3806,
      "lub": 3807,
      "▁maliyeti": 3808,
      "yız": 3809,
      "▁istis": 3810,
      "▁oyunları": 3811,
      "▁tuhaf": 3812,
      "dası": 3813,
      "▁satıcıları": 3814,
      "▁yazılım": 3815,
      "▁poyraz": 3816,
      "▁liraya": 3817,
      "temelen": 3818,
      "▁sozune": 3819,
      "▁gelirlerinin": 3820,
      "▁ucu": 3821,
      "▁dere": 3822,
      "▁rezervasyonlar": 3823,
      "▁eczan": 3824,
      "▁davranmaya": 3825,
      "▁peygam": 3826,
      "▁savasın": 3827,
      "▁beklenti": 3828,
      "▁kaldırımın": 3829,
      "▁tuketicilerin": 3830,
      "▁yıg": 3831,
      "▁dinlenmek": 3832,
      "▁uykudan": 3833,
      "▁onemsiz": 3834,
      "▁teyzemin": 3835,
      "acık": 3836,
      "▁degerlerin": 3837,
      "▁kisi": 3838,
      "▁beyz": 3839,
      "▁gorusme": 3840,
      "▁taz": 3841,
      "▁devrinin": 3842,
      "lant": 3843,
      "▁ikisi": 3844,
      "tek": 3845,
      "▁umid": 3846,
      "▁duydum": 3847,
      "▁leblebi": 3848,
      "▁geldigini": 3849,
      "▁guleryuz": 3850,
      "▁veterin": 3851,
      "▁hacmin": 3852,
      "n": 3853,
      "▁ticaret": 3854,
      "▁ahbap": 3855,
      "▁cih": 3856,
      "lıgıyla": 3857,
      "▁tutk": 3858,
      "▁toplumsal": 3859,
      "▁sarı": 3860,
      "bus": 3861,
      "▁talim": 3862,
      "iyat": 3863,
      "▁hub": 3864,
      "▁harf": 3865,
      "▁yayıncılar": 3866,
      "▁kalabalıgı": 3867,
      "▁kesif": 3868,
      "▁satırları": 3869,
      "▁baban": 3870,
      "▁edin": 3871,
      "▁karsıt": 3872,
      "▁cez": 3873,
      "uyordum": 3874,
      "▁kalit": 3875,
      "▁kıymetleri": 3876,
      "lamıstı": 3877,
      "memiz": 3878,
      "▁ikinc": 3879,
      "▁koltugunda": 3880,
      "▁itiraz": 3881,
      "saydı": 3882,
      "▁ele": 3883,
      "▁aydın": 3884,
      "▁kade": 3885,
      "▁parmaklarını": 3886,
      "▁toplan": 3887,
      "▁pırıl": 3888,
      "▁sayısının": 3889,
      "▁hijy": 3890,
      "talık": 3891,
      "▁mens": 3892,
      "▁1987'de": 3893,
      "▁analistleri": 3894,
      "▁kafamı": 3895,
      "▁kork": 3896,
      "andan": 3897,
      "▁muhtar": 3898,
      "▁cıktım": 3899,
      "▁baglar": 3900,
      "▁olmalıdır": 3901,
      "▁dolaptan": 3902,
      "▁yuksel": 3903,
      "▁etkil": 3904,
      "anc": 3905,
      "▁metni": 3906,
      "▁derslerine": 3907,
      "izden": 3908,
      "▁teshis": 3909,
      "▁yolsuzluk": 3910,
      "▁kabil": 3911,
      "▁seylerin": 3912,
      "larıyla": 3913,
      "▁enistemiz": 3914,
      "▁kavram": 3915,
      "▁oturdu": 3916,
      "▁odaya": 3917,
      "▁gorunuse": 3918,
      "▁seslerini": 3919,
      "arlar": 3920,
      "▁tasıyor": 3921,
      "▁getirmis": 3922,
      "larına": 3923,
      "▁hisse": 3924,
      "▁sanal": 3925,
      "▁birbirinden": 3926,
      "▁tecrube": 3927,
      "▁calısanların": 3928,
      "▁tesisti": 3929,
      "▁veriyorum": 3930,
      "▁sırf": 3931,
      "leye": 3932,
      "5.": 3933,
      "▁yuva": 3934,
      "▁okumaya": 3935,
      "ıt": 3936,
      "▁siirde": 3937,
      "▁cer": 3938,
      "▁nasihat": 3939,
      "▁yemeginden": 3940,
      "▁vapura": 3941,
      "▁ırmak": 3942,
      "irin": 3943,
      "▁kısı": 3944,
      "▁tasarımı": 3945,
      "▁ucusunuz": 3946,
      "▁1980": 3947,
      "▁atıp": 3948,
      "ag": 3949,
      "▁tımar": 3950,
      "▁yıgını": 3951,
      "▁oynamak": 3952,
      "▁gazet": 3953,
      "larımı": 3954,
      "▁bankacılık": 3955,
      "mar": 3956,
      "▁ual": 3957,
      "ts": 3958,
      "▁seyr": 3959,
      "▁tarafına": 3960,
      "▁yerlerde": 3961,
      "▁kaybol": 3962,
      "▁riskleri": 3963,
      "▁esvap": 3964,
      "▁aklını": 3965,
      "▁yayını": 3966,
      "med": 3967,
      "ukla": 3968,
      "▁arkadasım": 3969,
      "▁bagı": 3970,
      "langıc": 3971,
      "akat": 3972,
      "▁bicimde": 3973,
      "▁okum": 3974,
      "▁ekmegini": 3975,
      "▁baslı": 3976,
      "▁annesinin": 3977,
      "▁bolumunde": 3978,
      "gımız": 3979,
      "▁esir": 3980,
      ".m": 3981,
      "▁yapildi": 3982,
      "▁orgut": 3983,
      "▁aksiy": 3984,
      "▁sefere": 3985,
      "ukee": 3986,
      "▁kurnaz": 3987,
      "▁baska": 3988,
      "▁devrimci": 3989,
      "▁basvurusu": 3990,
      "▁yatagın": 3991,
      "▁bis": 3992,
      "▁degisikliklerini": 3993,
      "▁korkular": 3994,
      "▁indirim": 3995,
      "▁gitti": 3996,
      "▁tanım": 3997,
      "▁animasyonlar": 3998,
      "▁raporunu": 3999,
      "▁kurtulus": 4000,
      "▁bıc": 4001,
      "▁fedakar": 4002,
      "▁olcut": 4003,
      "▁ulasimi": 4004,
      "▁annemi": 4005,
      "▁kahram": 4006,
      "▁kadar": 4007,
      "kce": 4008,
      "▁yapmakla": 4009,
      "ij": 4010,
      "ginde": 4011,
      "▁artısın": 4012,
      "▁vermeye": 4013,
      "▁hatası": 4014,
      "asır": 4015,
      "▁zarfın": 4016,
      "▁ayrık": 4017,
      "▁beygir": 4018,
      "iti": 4019,
      "▁sivr": 4020,
      "▁odamın": 4021,
      "masız": 4022,
      "▁on": 4023,
      "▁kahval": 4024,
      "▁cars": 4025,
      "ahi": 4026,
      "▁kategorisi": 4027,
      "▁geciyor": 4028,
      "▁sozcugu": 4029,
      "▁dizay": 4030,
      "▁orayı": 4031,
      "▁kisilig": 4032,
      "▁mesrut": 4033,
      "lamak": 4034,
      "▁minimini": 4035,
      "▁eserler": 4036,
      "▁kaybeden": 4037,
      "msiz": 4038,
      "▁gugum": 4039,
      "▁yt": 4040,
      "atı": 4041,
      "▁suyunu": 4042,
      "enler": 4043,
      "h": 4044,
      "▁ustunden": 4045,
      "lendi": 4046,
      "▁redd": 4047,
      "▁atlanta'ya": 4048,
      "▁ydım": 4049,
      "y's": 4050,
      "▁potansiy": 4051,
      "▁gelistiri": 4052,
      "▁bizle": 4053,
      "▁araya": 4054,
      "▁otellerden": 4055,
      "▁mis": 4056,
      "land": 4057,
      "▁miy": 4058,
      "p'nin": 4059,
      "▁buyumesini": 4060,
      "▁kule": 4061,
      "▁bayan": 4062,
      "▁sehirde": 4063,
      "▁tv": 4064,
      "▁talimat": 4065,
      "▁kaldim": 4066,
      "▁mavisi": 4067,
      "▁bor": 4068,
      "▁oyunu": 4069,
      "ett": 4070,
      "▁gok": 4071,
      "▁sozlerden": 4072,
      "▁pembe": 4073,
      "▁cift-a": 4074,
      "▁dahili": 4075,
      "▁port": 4076,
      "▁istiyordu": 4077,
      "▁iyiye": 4078,
      "▁columb": 4079,
      "elek": 4080,
      "▁ardına": 4081,
      "ekte": 4082,
      "4'e": 4083,
      "gısını": 4084,
      "▁pr": 4085,
      "▁parmaklarıyla": 4086,
      "▁yokusu": 4087,
      "▁birkacı": 4088,
      "▁piyano": 4089,
      "▁guvence": 4090,
      "▁ureticisi": 4091,
      "▁ısı": 4092,
      "▁kirem": 4093,
      "▁ardında": 4094,
      "ind": 4095,
      "▁uzlas": 4096,
      "▁denli": 4097,
      "▁gecede": 4098,
      "▁kitapları": 4099,
      "▁piyaz": 4100,
      "▁sandıgı": 4101,
      "▁gruba": 4102,
      "▁hatıraların": 4103,
      "▁ad": 4104,
      "▁hamla": 4105,
      "▁washington'dan": 4106,
      "eligini": 4107,
      "▁dokum": 4108,
      "▁prensip": 4109,
      "▁karnı": 4110,
      "▁guzelligine": 4111,
      "▁tiyatronun": 4112,
      "▁isletiyor": 4113,
      "▁tezgah": 4114,
      "▁sunlar": 4115,
      "▁sokaklarda": 4116,
      "▁depart": 4117,
      "▁mutema": 4118,
      "▁hazırlanısı": 4119,
      "▁itaat": 4120,
      "▁calısanları": 4121,
      "esem": 4122,
      "▁juri": 4123,
      "▁pav": 4124,
      "▁prenses": 4125,
      "▁ibret": 4126,
      "dogu": 4127,
      "ildik": 4128,
      "ecegimiz": 4129,
      "gah": 4130,
      "▁cogunlugu": 4131,
      "▁lah": 4132,
      "▁1991": 4133,
      "▁unlu": 4134,
      "▁raporlar": 4135,
      "▁merkezleri": 4136,
      "suz": 4137,
      "▁islev": 4138,
      "▁gencliginde": 4139,
      "▁yavasca": 4140,
      "▁varıyor": 4141,
      "▁isletmeler": 4142,
      "▁puanlarim": 4143,
      "▁agustos'ta": 4144,
      "yacag": 4145,
      "▁mesru": 4146,
      "▁kargasa": 4147,
      "▁dukkan": 4148,
      "▁fuar": 4149,
      "▁koyluler": 4150,
      "gıcı": 4151,
      "▁duzelt": 4152,
      "layınca": 4153,
      "▁bilgisayarlar": 4154,
      "▁turkler": 4155,
      "▁gor": 4156,
      "▁nereler": 4157,
      "'unu": 4158,
      "▁sokagın": 4159,
      "▁yogun": 4160,
      "lerimizin": 4161,
      "▁tokyo": 4162,
      "…": 4163,
      "▁rehberden": 4164,
      "▁urunlerde": 4165,
      "▁anımsa": 4166,
      "▁tahminle": 4167,
      "▁yont": 4168,
      "▁uretici": 4169,
      "▁cıkarma": 4170,
      "▁geldiler": 4171,
      "▁meseleyi": 4172,
      "▁baskanlıgında": 4173,
      "▁denizini": 4174,
      "▁artırmak": 4175,
      "emez": 4176,
      "▁direnc": 4177,
      "▁kast": 4178,
      "▁niyet": 4179,
      "▁alfab": 4180,
      "▁ayr": 4181,
      "▁tarihleri": 4182,
      "▁konserv": 4183,
      "▁siyas": 4184,
      "yuz": 4185,
      "iyeye": 4186,
      "ibe": 4187,
      "▁bahceye": 4188,
      "▁duzeyinde": 4189,
      "kah": 4190,
      "▁mor": 4191,
      "ess": 4192,
      "▁beklentilerimi": 4193,
      "▁muduru": 4194,
      "▁yanlis": 4195,
      "▁anlasmayı": 4196,
      "▁kalmamıs": 4197,
      "▁degerlendiririm": 4198,
      "▁orgu": 4199,
      "▁birdenbire": 4200,
      "▁indir": 4201,
      "mayla": 4202,
      "arlı": 4203,
      "▁turdan": 4204,
      "▁kenarı": 4205,
      "▁cevapları": 4206,
      "▁hasılat": 4207,
      "▁kapasitesi": 4208,
      "▁ap": 4209,
      "▁ib": 4210,
      "▁kusagın": 4211,
      "etci": 4212,
      "▁olmaz": 4213,
      "▁dereceye": 4214,
      "inlerin": 4215,
      "▁pom": 4216,
      "meldi": 4217,
      "▁gırtlag": 4218,
      "▁konum": 4219,
      "▁gazete": 4220,
      "▁bedelle": 4221,
      "▁sozluk": 4222,
      "▁hamuru": 4223,
      "▁muy": 4224,
      "▁ph": 4225,
      "icisi": 4226,
      "▁kadro": 4227,
      "dirme": 4228,
      "'de": 4229,
      "▁sevis": 4230,
      "liginden": 4231,
      "▁aldılar": 4232,
      "▁olmayacagını": 4233,
      "▁ongordu": 4234,
      "imle": 4235,
      "▁ka": 4236,
      "ester": 4237,
      "▁cares": 4238,
      "▁dow": 4239,
      "▁dallarını": 4240,
      "▁olcumu": 4241,
      "▁ekibi": 4242,
      "▁ucusuna": 4243,
      "▁milyonluk": 4244,
      "▁egzersiz": 4245,
      "▁65": 4246,
      "▁yuregini": 4247,
      "▁alıcıları": 4248,
      "▁otomobile": 4249,
      "▁genc": 4250,
      "▁luzum": 4251,
      "▁bunlara": 4252,
      "azı": 4253,
      "▁cleveland'a": 4254,
      "agını": 4255,
      "masında": 4256,
      "▁titr": 4257,
      "ısın": 4258,
      "▁dedikodu": 4259,
      "▁beyler": 4260,
      "▁rez": 4261,
      "▁kut": 4262,
      "▁muzigi": 4263,
      "▁arab": 4264,
      "▁sırasında": 4265,
      "▁mily": 4266,
      "▁hisset": 4267,
      "▁burosunda": 4268,
      "▁alay": 4269,
      "▁birinin": 4270,
      "cum": 4271,
      "▁arkadaslarıyla": 4272,
      "dını": 4273,
      "maca": 4274,
      "▁fikri": 4275,
      "dılar": 4276,
      "▁kurbanı": 4277,
      "▁partilerin": 4278,
      "▁gizlemek": 4279,
      "▁donmustu": 4280,
      "▁beklendigini": 4281,
      "essum": 4282,
      "▁karak": 4283,
      "▁birbirinin": 4284,
      "▁idaresi": 4285,
      "▁arastırmacı": 4286,
      "▁tuvaletler": 4287,
      "▁mcb": 4288,
      "▁ince": 4289,
      "▁kapısına": 4290,
      "tmıs": 4291,
      "▁ithalat": 4292,
      "co": 4293,
      "▁gelis": 4294,
      "▁hangileri": 4295,
      "tır": 4296,
      "▁16": 4297,
      "▁yaptir": 4298,
      "▁agab": 4299,
      "▁14": 4300,
      "▁sınır": 4301,
      "▁hul": 4302,
      "ginden": 4303,
      "▁kullandim": 4304,
      "▁gurultusu": 4305,
      "▁dumana": 4306,
      "▁endust": 4307,
      "▁liman": 4308,
      "ea": 4309,
      "▁iste": 4310,
      "▁satıcısı": 4311,
      "▁ov": 4312,
      "▁buyum": 4313,
      "▁olayları": 4314,
      "ıtı": 4315,
      "▁eas": 4316,
      "▁kitaplara": 4317,
      "–": 4318,
      "▁basarı": 4319,
      "▁denizin": 4320,
      "▁kayıplar": 4321,
      "▁yog": 4322,
      "▁sabaha": 4323,
      "▁cocuklardan": 4324,
      "▁cogal": 4325,
      "▁kalacak": 4326,
      "ville": 4327,
      "fil": 4328,
      "diyen": 4329,
      "▁tutum": 4330,
      "48": 4331,
      "▁ısıl": 4332,
      "arım": 4333,
      "▁tartısmalar": 4334,
      "▁degisiklikleri": 4335,
      "▁yakinlarima": 4336,
      "▁yelk": 4337,
      "▁kurde": 4338,
      "▁anlasmaz": 4339,
      "▁kolu": 4340,
      "▁cami": 4341,
      "▁tasları": 4342,
      "▁aynısını": 4343,
      "makla": 4344,
      "▁huner": 4345,
      "▁agrıları": 4346,
      "▁sehr": 4347,
      "▁doz": 4348,
      "ının": 4349,
      "ustos": 4350,
      "▁dagıt": 4351,
      "▁baskalarının": 4352,
      "▁nam": 4353,
      "▁tac": 4354,
      "imum": 4355,
      "▁onay": 4356,
      "▁saglar": 4357,
      "▁testi": 4358,
      "eyr": 4359,
      "▁atıs": 4360,
      "▁acenteye": 4361,
      "▁fiz": 4362,
      "▁canına": 4363,
      "▁sayet": 4364,
      "▁seyahat": 4365,
      "tigim": 4366,
      "▁guvenligini": 4367,
      "cagı": 4368,
      "mad": 4369,
      "▁hesaptan": 4370,
      "▁bag": 4371,
      "▁mater": 4372,
      "▁konumundan": 4373,
      "▁odama": 4374,
      "▁murekkep": 4375,
      "▁sekreter": 4376,
      "▁sovyetlerin": 4377,
      "lemeye": 4378,
      "▁camı": 4379,
      "▁eb": 4380,
      "kurmay": 4381,
      "▁muhtemelen": 4382,
      "▁kalmıstı": 4383,
      "▁masasına": 4384,
      "▁gelirin": 4385,
      "▁kundur": 4386,
      "ayı": 4387,
      "▁in": 4388,
      "▁boncuk": 4389,
      "▁kepenk": 4390,
      "▁garsonlar": 4391,
      "▁iki": 4392,
      "ost": 4393,
      "▁sakaya": 4394,
      "▁cem": 4395,
      "met": 4396,
      "▁misafire": 4397,
      "▁tarafa": 4398,
      "▁yasay": 4399,
      "▁j": 4400,
      "▁cogunu": 4401,
      "▁paralar": 4402,
      "▁cenesine": 4403,
      "▁calisanlari": 4404,
      "unden": 4405,
      "▁gelisimi": 4406,
      "▁caddenin": 4407,
      "▁borcu": 4408,
      "▁hayrete": 4409,
      "▁ogeleri": 4410,
      "▁isletmelere": 4411,
      "▁giysiler": 4412,
      "▁verecegini": 4413,
      "▁damarı": 4414,
      "ortusu": 4415,
      "▁seylere": 4416,
      "▁biyotekn": 4417,
      "akk": 4418,
      "▁levh": 4419,
      "▁pam": 4420,
      "▁zabit": 4421,
      "▁vergisi": 4422,
      "▁kaygı": 4423,
      "▁bunda": 4424,
      "▁hijyenikti": 4425,
      "▁altında": 4426,
      "▁konularda": 4427,
      "▁setin": 4428,
      "▁nik": 4429,
      ".2": 4430,
      "▁materyalizm": 4431,
      "▁istemis": 4432,
      "▁kapısından": 4433,
      "▁dolabın": 4434,
      "▁sayısı": 4435,
      "▁kırdı": 4436,
      "▁goruyordu": 4437,
      "▁nin": 4438,
      "▁adamlarının": 4439,
      "▁kirec": 4440,
      "▁ihtiyacim": 4441,
      "kanlıgı": 4442,
      "▁kalk": 4443,
      "▁niyetine": 4444,
      "▁yaratır": 4445,
      "lugunun": 4446,
      "ilme": 4447,
      "tem": 4448,
      "▁becer": 4449,
      "▁yene": 4450,
      "▁californ": 4451,
      "▁atıl": 4452,
      "▁ayında": 4453,
      "▁geb": 4454,
      "▁bununla": 4455,
      "▁kayda": 4456,
      "▁ir": 4457,
      "▁seytan": 4458,
      "▁damak": 4459,
      "▁gorunum": 4460,
      "▁yoksul": 4461,
      "▁p": 4462,
      "ec": 4463,
      "urduk": 4464,
      "▁odem": 4465,
      "▁kurgu": 4466,
      "▁trav": 4467,
      "▁yaklastıgını": 4468,
      "▁agacların": 4469,
      "asıl": 4470,
      "▁lu": 4471,
      "▁kelep": 4472,
      "▁sinirlerini": 4473,
      "▁ıslık": 4474,
      "▁veg": 4475,
      "▁olimpiyat": 4476,
      "▁sebepler": 4477,
      "▁yasından": 4478,
      "▁phoenix'e": 4479,
      "▁trafigi": 4480,
      "▁hasta": 4481,
      "▁gunesi": 4482,
      "▁peynirleri": 4483,
      "▁kasaba": 4484,
      "▁birde": 4485,
      "▁kotums": 4486,
      "▁menf": 4487,
      "▁bolgesi": 4488,
      "cil": 4489,
      "▁roportajda": 4490,
      "▁musteriler": 4491,
      "▁yılların": 4492,
      "▁nav": 4493,
      "▁taahhut": 4494,
      "▁gidisat": 4495,
      "▁ruy": 4496,
      "▁istedigi": 4497,
      "▁komuru": 4498,
      "▁seviyesine": 4499,
      "di": 4500,
      "▁yasa": 4501,
      "acagına": 4502,
      "▁75": 4503,
      "▁city'den": 4504,
      "▁inek": 4505,
      "▁nedeni": 4506,
      "▁yetk": 4507,
      "▁rahmet": 4508,
      "▁babadan": 4509,
      "alan": 4510,
      "▁havaalanı'na": 4511,
      "▁digerlerine": 4512,
      "▁onayına": 4513,
      "▁istanbul": 4514,
      "▁varlıgı": 4515,
      "islari": 4516,
      "▁united": 4517,
      "▁karsilama": 4518,
      "▁gond": 4519,
      "▁fazlasını": 4520,
      "▁esyalar": 4521,
      "▁sınav": 4522,
      "▁bık": 4523,
      "afeti": 4524,
      "▁kızgınlık": 4525,
      "▁cosku": 4526,
      "▁fısıltı": 4527,
      "mki": 4528,
      "▁tahmini": 4529,
      "▁calıstır": 4530,
      "▁odam": 4531,
      "▁hok": 4532,
      "▁piyanonun": 4533,
      "$": 4534,
      "raz": 4535,
      "▁yapmaktan": 4536,
      "▁olsaydı": 4537,
      "arken": 4538,
      "▁haps": 4539,
      "das": 4540,
      "iran": 4541,
      "▁kaynaklarına": 4542,
      "▁bagır": 4543,
      "reti": 4544,
      "uslu": 4545,
      "▁hev": 4546,
      "▁acen": 4547,
      "imden": 4548,
      "cılıgı": 4549,
      "▁parayla": 4550,
      "▁havaalanı'nda": 4551,
      "lanmadı": 4552,
      "▁canlanma": 4553,
      "▁1.1": 4554,
      "▁bankacılar": 4555,
      "▁hizmetlerini": 4556,
      "yıl": 4557,
      "▁gemiydi": 4558,
      "▁partisi": 4559,
      "▁arkadasına": 4560,
      "eceg": 4561,
      "▁ihalesinde": 4562,
      "▁durup": 4563,
      "▁gokyuzunu": 4564,
      "▁usul": 4565,
      "▁kin": 4566,
      "▁kazananlar": 4567,
      "7'de": 4568,
      "▁sov": 4569,
      "lanabilir": 4570,
      "dırım": 4571,
      "▁kapsamında": 4572,
      "▁yasında": 4573,
      "▁vilayet": 4574,
      "meni": 4575,
      "▁yuzey": 4576,
      "▁donemi": 4577,
      "ums": 4578,
      "▁aylarda": 4579,
      "ekti": 4580,
      "▁yasıyorum": 4581,
      "▁kalır": 4582,
      "▁kredileri": 4583,
      "▁pozisyonu": 4584,
      "▁turlar": 4585,
      "▁iceri": 4586,
      "▁av": 4587,
      "mul": 4588,
      "▁geregini": 4589,
      "iyetin": 4590,
      "▁danısmanları": 4591,
      "▁o": 4592,
      "urn": 4593,
      "▁odamdan": 4594,
      "▁oranda": 4595,
      "muslar": 4596,
      "▁devlet": 4597,
      "abında": 4598,
      "▁masal": 4599,
      "alle": 4600,
      "▁tatlilar": 4601,
      "iza": 4602,
      "▁jandar": 4603,
      "▁teneff": 4604,
      "▁sandaly": 4605,
      "▁hatir": 4606,
      "▁urunleri": 4607,
      "▁vap": 4608,
      "▁mekan": 4609,
      "▁hemsir": 4610,
      "▁birles": 4611,
      "▁duyar": 4612,
      "▁acele": 4613,
      "▁kahraman": 4614,
      "▁arkadasa": 4615,
      "▁demektir": 4616,
      "▁kırlangıc": 4617,
      "raber": 4618,
      "▁hani": 4619,
      "cagız": 4620,
      "osunun": 4621,
      "▁degerinin": 4622,
      "▁gogu": 4623,
      "▁oz": 4624,
      "rar": 4625,
      "▁renkte": 4626,
      "ez": 4627,
      "▁sofor": 4628,
      "▁mevc": 4629,
      "▁ab": 4630,
      "rin": 4631,
      "▁likidit": 4632,
      "▁48": 4633,
      "ız": 4634,
      "▁sozcuk": 4635,
      "▁ampul": 4636,
      "▁tit": 4637,
      "izm": 4638,
      "▁sayg": 4639,
      "▁cit": 4640,
      "▁terbiye": 4641,
      "▁idrak": 4642,
      "aca": 4643,
      "sman": 4644,
      "▁temmuzda": 4645,
      "dasını": 4646,
      "ana": 4647,
      "▁cagın": 4648,
      "▁hazırladı": 4649,
      "▁agzını": 4650,
      "▁kosu": 4651,
      "▁orne": 4652,
      "▁yegen": 4653,
      "manlık": 4654,
      "▁kendis": 4655,
      "▁belli": 4656,
      "▁kalitesinden": 4657,
      "▁konusuyor": 4658,
      "▁muz": 4659,
      "▁konustu": 4660,
      "▁lambaları": 4661,
      "allah": 4662,
      "▁renklerde": 4663,
      "▁tipini": 4664,
      "▁yardımcısı": 4665,
      "▁basit": 4666,
      "▁verip": 4667,
      "▁sabahtan": 4668,
      "▁indirimlerden": 4669,
      "▁kullanıyor": 4670,
      "elt": 4671,
      "rlikte": 4672,
      "alarına": 4673,
      "▁68": 4674,
      "arak": 4675,
      "▁arkasında": 4676,
      "eyn": 4677,
      "▁biri": 4678,
      "enlere": 4679,
      "ro": 4680,
      "▁ucuslarınız": 4681,
      "▁teklifleri": 4682,
      "▁dilinin": 4683,
      "▁ekol": 4684,
      "▁selef": 4685,
      "▁lideri": 4686,
      "▁ceyrek": 4687,
      "▁zevk": 4688,
      "▁sıp": 4689,
      "▁kilit": 4690,
      "▁egem": 4691,
      "▁acılıs": 4692,
      "▁albumu": 4693,
      "lanmıs": 4694,
      "▁iyilestir": 4695,
      "▁california": 4696,
      "▁mantıklı": 4697,
      "▁korf": 4698,
      "▁korkuya": 4699,
      "▁dam": 4700,
      "biri": 4701,
      "▁trend": 4702,
      "▁kıyıya": 4703,
      "▁docent": 4704,
      "▁iz": 4705,
      "▁adr": 4706,
      "▁unsur": 4707,
      "▁babama": 4708,
      "▁kalıyor": 4709,
      "▁arac": 4710,
      "▁seksen": 4711,
      "▁sure": 4712,
      "▁soguk": 4713,
      "▁basarili": 4714,
      "▁mucade": 4715,
      "▁eliyle": 4716,
      "▁burnundan": 4717,
      "▁uretimi": 4718,
      "▁defne": 4719,
      "emeyecegim": 4720,
      "uya": 4721,
      "▁4": 4722,
      "▁seg": 4723,
      "▁birlikte": 4724,
      "▁yaratıc": 4725,
      "▁gonl": 4726,
      "▁azal": 4727,
      "▁ikam": 4728,
      "danın": 4729,
      "▁ciftci": 4730,
      "kar": 4731,
      "stık": 4732,
      "▁memlekette": 4733,
      "▁kom": 4734,
      "▁penceresinden": 4735,
      "▁demeye": 4736,
      "oseksu": 4737,
      "unu": 4738,
      "▁hizmetlerinden": 4739,
      "▁kaldırım": 4740,
      "▁charlotte": 4741,
      "▁olanagı": 4742,
      "malıydı": 4743,
      "▁aff": 4744,
      "▁jener": 4745,
      "▁isteklerini": 4746,
      "▁hedefi": 4747,
      "▁yapıyı": 4748,
      "▁yapılan": 4749,
      "▁tenc": 4750,
      "▁icra": 4751,
      "▁mahluk": 4752,
      "▁bıraktı": 4753,
      "▁kacın": 4754,
      "▁motor": 4755,
      "▁zil": 4756,
      "▁kusuru": 4757,
      "▁hip": 4758,
      "▁simdi": 4759,
      "▁potansiyel": 4760,
      "obil": 4761,
      "▁yasları": 4762,
      "cusu": 4763,
      "▁urunlerinin": 4764,
      "emedim": 4765,
      "meyle": 4766,
      "▁arb": 4767,
      "▁seyle": 4768,
      "▁dibe": 4769,
      "▁size": 4770,
      "▁kotuydu": 4771,
      "▁servet": 4772,
      "▁sorumlulugunu": 4773,
      "▁alımının": 4774,
      "▁memurlar": 4775,
      "▁yakin": 4776,
      "▁minn": 4777,
      "▁edep": 4778,
      "itti": 4779,
      "yacagı": 4780,
      "ersiz": 4781,
      "ılıg": 4782,
      "▁surec": 4783,
      "elik": 4784,
      "▁palto": 4785,
      "▁ozenle": 4786,
      "▁dogal": 4787,
      "▁ordusunun": 4788,
      "aga": 4789,
      "▁buro": 4790,
      "sal": 4791,
      "mamak": 4792,
      "▁bul": 4793,
      "▁dogum": 4794,
      "▁contin": 4795,
      "sk": 4796,
      "a'da": 4797,
      "▁manzarasi": 4798,
      "▁tap": 4799,
      "▁savas": 4800,
      "▁kısaca": 4801,
      "▁petr": 4802,
      "kon": 4803,
      "▁nar": 4804,
      "▁kapıları": 4805,
      "▁teh": 4806,
      "▁ku": 4807,
      "▁matem": 4808,
      "▁cleveland": 4809,
      "▁toplumunun": 4810,
      "▁vermesini": 4811,
      "▁balıkcı": 4812,
      "▁kullanılıyor": 4813,
      "▁fabrikada": 4814,
      "▁fiyatlari": 4815,
      "▁gordugunu": 4816,
      "▁beb": 4817,
      "▁murekk": 4818,
      "tef": 4819,
      "▁25": 4820,
      "▁sehirler": 4821,
      "▁ayık": 4822,
      "▁ataturk": 4823,
      "▁subesi": 4824,
      "▁kibr": 4825,
      "▁toplantılar": 4826,
      "▁seh": 4827,
      "▁gecesi": 4828,
      "▁varil": 4829,
      "▁dusuncesini": 4830,
      "▁oncesinde": 4831,
      "uttur": 4832,
      "▁gucleri": 4833,
      "▁fıkra": 4834,
      "▁gucunu": 4835,
      "▁islerini": 4836,
      "▁52": 4837,
      "vir": 4838,
      "▁davasında": 4839,
      "▁feslegen": 4840,
      "▁sonbaharı": 4841,
      "▁husus": 4842,
      "▁87": 4843,
      "▁sorunlarını": 4844,
      "▁1,": 4845,
      "▁fiyata": 4846,
      "▁kursu": 4847,
      "▁nice": 4848,
      "b": 4849,
      "▁hamle": 4850,
      "▁dusundum": 4851,
      "▁dilek": 4852,
      "▁gidelim": 4853,
      "esli": 4854,
      "▁ilkbah": 4855,
      "▁herifin": 4856,
      "▁cıp": 4857,
      "▁cocuklarına": 4858,
      "lanmaya": 4859,
      "ıktan": 4860,
      "▁uykusuna": 4861,
      "▁sistemine": 4862,
      "tere": 4863,
      "lasa": 4864,
      "dıgım": 4865,
      "▁gelisim": 4866,
      "▁notları": 4867,
      "▁almıstı": 4868,
      "▁hayaller": 4869,
      "▁numaralı": 4870,
      "▁oglum": 4871,
      "umuzun": 4872,
      "▁charlotte'ye": 4873,
      "▁olmaması": 4874,
      "▁gezeg": 4875,
      "▁kulagında": 4876,
      "▁haklarına": 4877,
      "'yu": 4878,
      "▁listeleyin": 4879,
      "▁but": 4880,
      "san": 4881,
      "▁iri": 4882,
      "▁kurulus": 4883,
      "▁kilom": 4884,
      "ıslı": 4885,
      "▁sıra": 4886,
      "▁duzen": 4887,
      "▁doları'ndan": 4888,
      "▁avuk": 4889,
      "▁oluyor": 4890,
      "▁gıc": 4891,
      "▁olcum": 4892,
      "▁ortamında": 4893,
      "▁pirinc": 4894,
      "inizin": 4895,
      "▁85": 4896,
      "▁atesi": 4897,
      "▁yapıt": 4898,
      "▁aletler": 4899,
      "35": 4900,
      "▁hocası": 4901,
      "ellikle": 4902,
      "▁fikir": 4903,
      "▁ifadesini": 4904,
      "▁hizmeti": 4905,
      "▁denver": 4906,
      "dı": 4907,
      "▁yapacak": 4908,
      "▁evlilig": 4909,
      "▁fisk": 4910,
      "▁aksine": 4911,
      "abı": 4912,
      "usup": 4913,
      "▁manz": 4914,
      "agın": 4915,
      "▁pahaliydi": 4916,
      "▁turban": 4917,
      "▁portfoyu": 4918,
      "▁ucretler": 4919,
      "allı": 4920,
      "mezdi": 4921,
      "liyorum": 4922,
      "5$": 4923,
      "▁kimyasal": 4924,
      "armak": 4925,
      "iyorum": 4926,
      "▁ortada": 4927,
      "▁okul": 4928,
      "▁sabahı": 4929,
      "▁teknoloj": 4930,
      "▁sosyalizm": 4931,
      "▁ısık": 4932,
      "▁adamakıllı": 4933,
      "eyi": 4934,
      "▁ortalamasından": 4935,
      "▁donup": 4936,
      "▁ordek": 4937,
      "▁suclamaları": 4938,
      "▁verilmesi": 4939,
      "▁kaymakam": 4940,
      "▁koseye": 4941,
      "▁alıyor": 4942,
      "isi": 4943,
      "▁and": 4944,
      "▁huzur": 4945,
      "▁kokuları": 4946,
      "▁dallas'ta": 4947,
      "ard": 4948,
      "▁bankaların": 4949,
      "gel": 4950,
      "'d": 4951,
      "▁patronun": 4952,
      "▁iftih": 4953,
      "▁oyna": 4954,
      "▁bakıyor": 4955,
      "dikten": 4956,
      "▁kala": 4957,
      "▁kisilerle": 4958,
      "▁kazanın": 4959,
      "▁muthis": 4960,
      "▁baskasına": 4961,
      "▁donem": 4962,
      "▁ortalam": 4963,
      "▁etmesi": 4964,
      "▁ars": 4965,
      "▁etmenin": 4966,
      "▁duman": 4967,
      "▁reding": 4968,
      "▁lisede": 4969,
      "▁maddenin": 4970,
      "▁gelecekte": 4971,
      "▁baglıdır": 4972,
      "▁ayrıca": 4973,
      "▁kadr": 4974,
      "▁ucusunda": 4975,
      "ok": 4976,
      "▁tavır": 4977,
      "▁kıvılc": 4978,
      "▁davada": 4979,
      "ain": 4980,
      "▁kullanıldıgını": 4981,
      "▁dolara": 4982,
      "▁salah": 4983,
      "▁pet": 4984,
      "▁yuk": 4985,
      "ecektir": 4986,
      "▁almanlar": 4987,
      "isleri": 4988,
      "▁guler": 4989,
      "▁sahis": 4990,
      "ıcının": 4991,
      "▁elb": 4992,
      "▁kendimize": 4993,
      "emiz": 4994,
      "hisse": 4995,
      "ela": 4996,
      "▁darbe": 4997,
      "eceginin": 4998,
      "▁1988": 4999,
      "ustur": 5000,
      "▁fiyatlarının": 5001,
      "▁fabrik": 5002,
      "▁katana": 5003,
      "▁muzaker": 5004,
      "desinin": 5005,
      "▁kalemleri": 5006,
      "▁gunden": 5007,
      "▁guzellik": 5008,
      "leleri": 5009,
      "▁faaliyetlerden": 5010,
      "▁alanın": 5011,
      "idi": 5012,
      "medigini": 5013,
      "▁annenin": 5014,
      "eyecek": 5015,
      "mma": 5016,
      "▁muda": 5017,
      "▁baskenti": 5018,
      "▁sirketlerin": 5019,
      "etiyle": 5020,
      "ilet": 5021,
      "▁alnı": 5022,
      "▁evde": 5023,
      "▁penc": 5024,
      "▁hotel": 5025,
      "▁yuruyordu": 5026,
      "ram": 5027,
      "ilmis": 5028,
      "acısı": 5029,
      "▁gune": 5030,
      "ırarak": 5031,
      "▁gozlerine": 5032,
      "▁benz": 5033,
      "▁7.8": 5034,
      "▁kampanyalar": 5035,
      "▁hur": 5036,
      "▁mevzu": 5037,
      "trily": 5038,
      "▁toprakta": 5039,
      "madıgını": 5040,
      "yarak": 5041,
      "▁adama": 5042,
      "▁borsası'nda": 5043,
      "ligiyle": 5044,
      "▁keleb": 5045,
      "▁opsiyonu": 5046,
      "▁rok": 5047,
      "▁insandan": 5048,
      "▁moda": 5049,
      "▁oturmus": 5050,
      "▁kazada": 5051,
      "▁ri": 5052,
      "alarındaki": 5053,
      "▁lık": 5054,
      "▁bina": 5055,
      "▁portf": 5056,
      "▁universitede": 5057,
      "▁digerleri": 5058,
      "go": 5059,
      "▁sm": 5060,
      "▁kuzu": 5061,
      "▁bulunmaktadır": 5062,
      "elige": 5063,
      "▁suik": 5064,
      "▁ankara": 5065,
      "▁izm": 5066,
      "▁peri": 5067,
      "etik": 5068,
      "▁hareketi": 5069,
      "▁kısıtlamaları": 5070,
      "▁faaliyetinde": 5071,
      "▁dikkatini": 5072,
      "▁ontar": 5073,
      "▁kuyruk": 5074,
      "▁beton": 5075,
      "▁gitar": 5076,
      "ciden": 5077,
      "▁guzele": 5078,
      "▁kayıt": 5079,
      "▁uygulama": 5080,
      "▁dinlen": 5081,
      "ıl": 5082,
      "biye": 5083,
      "▁muht": 5084,
      "▁tarafını": 5085,
      "▁avans": 5086,
      "▁cumhuriyeti": 5087,
      "ilerdi": 5088,
      "▁cimento": 5089,
      "alisyon": 5090,
      "▁hisseyle": 5091,
      "▁alın": 5092,
      "▁yasamadik": 5093,
      "▁matemat": 5094,
      "▁gozlerden": 5095,
      "▁lokanta": 5096,
      "▁kalb": 5097,
      "▁72": 5098,
      "▁odalardan": 5099,
      "▁bankacı": 5100,
      "▁ucreti": 5101,
      "▁uygulamaları": 5102,
      "▁salınc": 5103,
      "▁gelenek": 5104,
      "▁eyleme": 5105,
      "▁gidip": 5106,
      "▁birimiz": 5107,
      "aleti": 5108,
      "lesinde": 5109,
      "▁kanunla": 5110,
      "▁hukumleri": 5111,
      "▁sikintim": 5112,
      "inal": 5113,
      "alı": 5114,
      "▁cıkıp": 5115,
      "▁nereye": 5116,
      "▁hızla": 5117,
      "▁oldug": 5118,
      "▁kafası": 5119,
      "ebilirsiniz": 5120,
      "▁dediler": 5121,
      "▁eziyet": 5122,
      "▁soygun": 5123,
      "▁izni": 5124,
      "▁sarh": 5125,
      "▁gordugu": 5126,
      "▁sakınca": 5127,
      "kinin": 5128,
      "▁yemin": 5129,
      "▁tik": 5130,
      "▁ardından": 5131,
      "▁ann": 5132,
      "▁pant": 5133,
      "▁okullar": 5134,
      "jik": 5135,
      "▁dunyasından": 5136,
      "▁borclanma": 5137,
      "▁bord": 5138,
      "▁armagan": 5139,
      "tanı": 5140,
      "esik": 5141,
      "▁aklimizda": 5142,
      "▁yana": 5143,
      "▁kapadı": 5144,
      "iness": 5145,
      "▁gemilere": 5146,
      "ustr": 5147,
      "▁buh": 5148,
      "▁gununu": 5149,
      "arı": 5150,
      "▁hicbirinin": 5151,
      "▁isk": 5152,
      "naya": 5153,
      "▁hakem": 5154,
      "▁iyilerini": 5155,
      "▁sevda": 5156,
      "▁por": 5157,
      "▁fiyatlardan": 5158,
      "indan": 5159,
      "▁hob": 5160,
      "ceye": 5161,
      "▁doldur": 5162,
      "▁cizgi": 5163,
      "▁ilcesinde": 5164,
      "▁piyasasını": 5165,
      "▁faiz": 5166,
      "of": 5167,
      "izlik": 5168,
      "latma": 5169,
      "▁halkın": 5170,
      "▁toronto": 5171,
      "▁4'ten": 5172,
      "lıgında": 5173,
      "otif": 5174,
      "▁yururlukte": 5175,
      "▁felc": 5176,
      "▁b.": 5177,
      "▁sizi": 5178,
      "▁yak": 5179,
      "▁gozunu": 5180,
      "▁komisyonlar": 5181,
      "pu": 5182,
      "lk": 5183,
      "▁arkadaslar": 5184,
      "▁22": 5185,
      "▁dedik": 5186,
      "▁bankaları": 5187,
      "▁savcılar": 5188,
      "maya": 5189,
      "lerimin": 5190,
      "▁programda": 5191,
      "▁fiyatlar": 5192,
      "aren": 5193,
      "▁kumas": 5194,
      "od": 5195,
      "ırı": 5196,
      "▁ruyalar": 5197,
      "▁arbitraj": 5198,
      "▁tasların": 5199,
      "▁ket": 5200,
      "tılı": 5201,
      "▁cikis": 5202,
      "lenmis": 5203,
      "▁nef": 5204,
      "▁kalkıslı": 5205,
      "ata": 5206,
      "iliyor": 5207,
      "▁bagları": 5208,
      "▁kultur": 5209,
      "dum": 5210,
      "▁yukum": 5211,
      "vert": 5212,
      "ıdır": 5213,
      "▁komut": 5214,
      "▁guncel": 5215,
      "▁burbank": 5216,
      "kilere": 5217,
      "▁tohumu": 5218,
      "ustral": 5219,
      "sacak": 5220,
      "anının": 5221,
      "▁49": 5222,
      "▁141": 5223,
      "▁dr.": 5224,
      "▁evlerini": 5225,
      "▁oteye": 5226,
      "▁kurallar": 5227,
      "▁anlatmaya": 5228,
      "ısır": 5229,
      "▁hazir": 5230,
      "▁hafta": 5231,
      "▁mahkemesi": 5232,
      "atti": 5233,
      "tali": 5234,
      "▁kanadı": 5235,
      "bası": 5236,
      "▁sadakati": 5237,
      "▁fasul": 5238,
      "lıgımı": 5239,
      "▁tanı": 5240,
      "▁koyuldu": 5241,
      "ansal": 5242,
      "▁bırakıyor": 5243,
      "▁zih": 5244,
      "alam": 5245,
      "xpr": 5246,
      "▁donanım": 5247,
      "▁halkla": 5248,
      "▁adi": 5249,
      "ordu": 5250,
      "▁edip": 5251,
      "▁bekliyordu": 5252,
      "izler": 5253,
      "▁sen": 5254,
      "▁ız": 5255,
      "▁satısı": 5256,
      "isler": 5257,
      "▁ozellestirme": 5258,
      "▁mudur": 5259,
      "▁im": 5260,
      "ecik": 5261,
      "▁ihr": 5262,
      "ord": 5263,
      "erate": 5264,
      "maması": 5265,
      "▁amerikalı": 5266,
      "av": 5267,
      "▁kusk": 5268,
      "i'nin": 5269,
      "▁tedbirler": 5270,
      "mayan": 5271,
      "▁bun": 5272,
      "yeni": 5273,
      "▁baslarında": 5274,
      "▁ilgisizlik": 5275,
      "▁bayragını": 5276,
      "▁alanda": 5277,
      "ersey": 5278,
      "▁romant": 5279,
      "▁tim": 5280,
      "▁yatırımcının": 5281,
      "▁iyisi": 5282,
      "▁nokt": 5283,
      "▁oburleri": 5284,
      "▁baslangıcta": 5285,
      "▁basıma": 5286,
      "▁nis": 5287,
      "▁dehs": 5288,
      "▁yon": 5289,
      "▁burun": 5290,
      "ilerle": 5291,
      "yım": 5292,
      "lerin": 5293,
      "▁kosullarda": 5294,
      "▁may": 5295,
      "esizdi": 5296,
      "mine": 5297,
      "▁kayın": 5298,
      "▁kızdır": 5299,
      "▁bilmez": 5300,
      "▁duzenlemeleri": 5301,
      "▁fonlarına": 5302,
      "dikce": 5303,
      "▁kap": 5304,
      "▁yuvarlak": 5305,
      "▁dost": 5306,
      "▁th": 5307,
      "▁pop": 5308,
      "▁yabancilara": 5309,
      "▁felce": 5310,
      "▁toren": 5311,
      "▁neh": 5312,
      "▁islemler": 5313,
      "lerimle": 5314,
      "▁kanalı": 5315,
      "▁fer": 5316,
      "masına": 5317,
      "▁icti": 5318,
      "ilmedi": 5319,
      "liligi": 5320,
      "▁bildirim": 5321,
      "▁tacirler": 5322,
      "▁millet": 5323,
      "▁metr": 5324,
      "▁ahmet": 5325,
      "▁zararları": 5326,
      "▁bardagın": 5327,
      "▁polisi": 5328,
      "▁diyalog": 5329,
      "▁cevrede": 5330,
      "▁kem": 5331,
      "▁buyumenin": 5332,
      "uvarı": 5333,
      "▁muhendis": 5334,
      "▁ucusların": 5335,
      "▁louis": 5336,
      "▁kafes": 5337,
      "▁muzakere": 5338,
      "▁donmeye": 5339,
      "▁istan": 5340,
      "▁bulutlar": 5341,
      "▁mahkemeler": 5342,
      "hiz": 5343,
      "imini": 5344,
      "▁koylulerin": 5345,
      "▁balgam": 5346,
      "ann": 5347,
      "▁ralli": 5348,
      "emize": 5349,
      "ndaki": 5350,
      "▁odenmesi": 5351,
      ".5'e": 5352,
      "ade": 5353,
      "3": 5354,
      "▁tesekkurler": 5355,
      "la": 5356,
      "▁tavr": 5357,
      "▁tez": 5358,
      "▁tabur": 5359,
      "▁satı": 5360,
      "▁end": 5361,
      "▁ormanı": 5362,
      "▁mahp": 5363,
      "▁boylece": 5364,
      "geleri": 5365,
      "▁neyin": 5366,
      "▁dedi": 5367,
      "▁cıkmaya": 5368,
      "▁dekorasyon": 5369,
      "▁aleyhine": 5370,
      "▁altın": 5371,
      "▁bilimi": 5372,
      "▁ort": 5373,
      "gur": 5374,
      "▁binası": 5375,
      "▁yaptım": 5376,
      "eligi": 5377,
      "▁ustlen": 5378,
      "▁dirsek": 5379,
      "▁des": 5380,
      "▁adına": 5381,
      "▁sevinc": 5382,
      "▁beni": 5383,
      "▁delikten": 5384,
      "emon": 5385,
      "▁bogazici": 5386,
      "▁bolgede": 5387,
      "▁kuyr": 5388,
      "▁arttır": 5389,
      "▁yuruyus": 5390,
      "▁adamdan": 5391,
      "▁tarlada": 5392,
      "▁tartısma": 5393,
      "▁boyun": 5394,
      "kez": 5395,
      "▁cig": 5396,
      "uyorlardı": 5397,
      "`": 5398,
      "▁dekoru": 5399,
      "▁cunku": 5400,
      "oloj": 5401,
      "hazırda": 5402,
      "▁kaynakları": 5403,
      "▁kitaptan": 5404,
      "▁unvanını": 5405,
      "▁begenmedik": 5406,
      "▁keten": 5407,
      "▁beyn": 5408,
      "medi": 5409,
      "▁binbası": 5410,
      "emiyordu": 5411,
      "▁delik": 5412,
      "▁secimlerin": 5413,
      "lıgı": 5414,
      "▁odun": 5415,
      "▁dallas'tan": 5416,
      "atik": 5417,
      "▁surdu": 5418,
      "▁cog": 5419,
      "▁oluk": 5420,
      "▁yasamaya": 5421,
      "▁tamamını": 5422,
      "▁istik": 5423,
      "▁merakla": 5424,
      "mus": 5425,
      "▁oyle": 5426,
      "ber": 5427,
      "▁sin": 5428,
      "▁artısla": 5429,
      "▁lutfen": 5430,
      "▁medeniyet": 5431,
      "▁lavan": 5432,
      "▁alır": 5433,
      "▁kopruler": 5434,
      "▁bic": 5435,
      "stu": 5436,
      "ukle": 5437,
      "▁iskenc": 5438,
      "▁ızgar": 5439,
      "▁kanun": 5440,
      "▁salona": 5441,
      "▁esde": 5442,
      "▁karaltı": 5443,
      "▁muammayı": 5444,
      "▁altındaki": 5445,
      "▁programı": 5446,
      "▁sular": 5447,
      "▁birbir": 5448,
      "▁odeme": 5449,
      "▁gecim": 5450,
      "▁bilim": 5451,
      "isti": 5452,
      "ktu": 5453,
      "▁mizah": 5454,
      "▁biletlerini": 5455,
      "▁kızı": 5456,
      "unuzun": 5457,
      "▁gun": 5458,
      "ug": 5459,
      "▁lise": 5460,
      "▁yukarıda": 5461,
      "▁yetkisi": 5462,
      "unuyor": 5463,
      "▁keske": 5464,
      "▁zul": 5465,
      "amadı": 5466,
      "▁anda": 5467,
      "ısını": 5468,
      "▁uydur": 5469,
      "▁gorunce": 5470,
      "▁felaket": 5471,
      "▁uretiminin": 5472,
      "▁did": 5473,
      "▁amcam": 5474,
      "▁inisleri": 5475,
      "ond": 5476,
      "▁etmisti": 5477,
      "sap": 5478,
      "memis": 5479,
      "▁nobet": 5480,
      "▁kullandı": 5481,
      "▁yandan": 5482,
      "▁anlattım": 5483,
      "▁teknede": 5484,
      "▁hastalık": 5485,
      "▁adım": 5486,
      "sis": 5487,
      "▁hediye": 5488,
      "▁merte": 5489,
      "▁avantajı": 5490,
      "▁dibinde": 5491,
      "▁hın": 5492,
      "▁bunları": 5493,
      "▁bayi": 5494,
      "▁kileri": 5495,
      "▁hicbir": 5496,
      "medim": 5497,
      "▁parcayı": 5498,
      "▁bosu": 5499,
      "▁aldat": 5500,
      "▁sonuclara": 5501,
      "lıg": 5502,
      "len": 5503,
      "ırtı": 5504,
      "▁yaptık": 5505,
      "▁uzat": 5506,
      "▁kurulunda": 5507,
      "▁yukselise": 5508,
      "▁ciftligi": 5509,
      "▁kadıncagız": 5510,
      "▁katılımcıların": 5511,
      "▁k": 5512,
      "yasal": 5513,
      "▁elli": 5514,
      "▁jet": 5515,
      "▁konsantr": 5516,
      "bon": 5517,
      "cuh": 5518,
      "▁bilgim": 5519,
      "▁isleminin": 5520,
      "▁verdigimiz": 5521,
      "uldeki": 5522,
      "▁kredisi": 5523,
      "wa": 5524,
      "▁eglenceli": 5525,
      "▁uns": 5526,
      "▁montaj": 5527,
      "danoz": 5528,
      "▁buluyor": 5529,
      "lemeler": 5530,
      "▁zorluklarla": 5531,
      "tıklarını": 5532,
      "▁fabrika": 5533,
      "▁butceye": 5534,
      "▁noktası": 5535,
      "▁ajans": 5536,
      "▁temizlik": 5537,
      "▁pencer": 5538,
      "uklu": 5539,
      "▁olabilecegini": 5540,
      "▁muster": 5541,
      "▁gidiyor": 5542,
      "▁ogretmeni": 5543,
      "▁oncu": 5544,
      "ansiyon": 5545,
      "▁kahveler": 5546,
      "▁olas": 5547,
      "▁yolları": 5548,
      "▁anlatım": 5549,
      "dar": 5550,
      "ılabil": 5551,
      "sik": 5552,
      "▁oburu": 5553,
      "▁tuken": 5554,
      "▁ilcesine": 5555,
      "▁ulastırma": 5556,
      "▁sert": 5557,
      "▁evren": 5558,
      "▁stand": 5559,
      "▁krem": 5560,
      "▁tramv": 5561,
      "▁gununde": 5562,
      "▁yasamı": 5563,
      "▁projeleri": 5564,
      "▁kapıs": 5565,
      "▁yut": 5566,
      "▁der": 5567,
      "▁1\\": 5568,
      "▁diyet": 5569,
      "▁hastanın": 5570,
      "'u": 5571,
      "▁olaya": 5572,
      "▁duvarlarında": 5573,
      "▁huy": 5574,
      "▁dord": 5575,
      "▁kovustur": 5576,
      "cuya": 5577,
      "▁ikisinin": 5578,
      "▁dinin": 5579,
      "▁she": 5580,
      "▁tehdidi": 5581,
      "ika": 5582,
      "ladıgını": 5583,
      "▁edilm": 5584,
      "▁diy": 5585,
      "acaktı": 5586,
      "▁bebek": 5587,
      "leyici": 5588,
      "▁car": 5589,
      "▁arkasına": 5590,
      "▁bany": 5591,
      "▁animasyon": 5592,
      "▁muhaseb": 5593,
      "▁elden": 5594,
      "▁topu": 5595,
      "ektr": 5596,
      "▁arabası": 5597,
      "▁emekliye": 5598,
      "mız": 5599,
      "▁paya": 5600,
      "▁deneyimi": 5601,
      "lere": 5602,
      "▁harman": 5603,
      "▁yonlerden": 5604,
      "▁kumarhane": 5605,
      "▁suz": 5606,
      "▁montreal": 5607,
      "▁bagımlılıgı": 5608,
      "▁dovus": 5609,
      "▁muhafazak": 5610,
      "▁pasaj": 5611,
      "▁mahs": 5612,
      "▁sahada": 5613,
      "▁zer": 5614,
      "me": 5615,
      "▁$'a": 5616,
      "▁de": 5617,
      "▁ekonomisinin": 5618,
      "▁kaynak": 5619,
      "▁bedel": 5620,
      "▁pahalıya": 5621,
      "lacak": 5622,
      "▁kalf": 5623,
      "▁ifa": 5624,
      "▁kain": 5625,
      "ırıl": 5626,
      "▁saga": 5627,
      "▁hi": 5628,
      "lılıgı": 5629,
      "▁kalıp": 5630,
      "▁yasant": 5631,
      "▁gururunu": 5632,
      "▁diril": 5633,
      "▁ihtilal": 5634,
      "▁kazanmaya": 5635,
      "▁kalabalık": 5636,
      "▁degerlendirmeye": 5637,
      "▁pınar": 5638,
      "▁olanaklari": 5639,
      "lıga": 5640,
      "▁zev": 5641,
      "▁naz": 5642,
      "▁uygulan": 5643,
      "▁mit": 5644,
      "▁muhendislik": 5645,
      "▁tesekkur": 5646,
      "gınız": 5647,
      "▁ekip": 5648,
      "▁emirleri": 5649,
      "▁annemden": 5650,
      "▁rehberim": 5651,
      "▁cikol": 5652,
      "▁altıda": 5653,
      "t": 5654,
      "nak": 5655,
      "▁kirp": 5656,
      "afor": 5657,
      "▁buna": 5658,
      "▁kırım": 5659,
      "▁babasından": 5660,
      "unce": 5661,
      "asıtasıyla": 5662,
      "▁mask": 5663,
      "lama": 5664,
      "beri": 5665,
      "▁kalmad": 5666,
      "vi": 5667,
      "▁satırlar": 5668,
      "0.": 5669,
      "▁minneapolis": 5670,
      "▁1990": 5671,
      "▁dibi": 5672,
      "eliler": 5673,
      "▁saatinde": 5674,
      "▁hou": 5675,
      "ucunun": 5676,
      "▁yasamının": 5677,
      "▁brons": 5678,
      "ım": 5679,
      "▁agacları": 5680,
      "▁kalab": 5681,
      "▁havalarda": 5682,
      "▁etmeyecegini": 5683,
      "▁havaalanının": 5684,
      "▁yavasti": 5685,
      "▁muslum": 5686,
      "▁kurumun": 5687,
      "/8'e": 5688,
      "▁faturami": 5689,
      "▁yanıma": 5690,
      "▁yaglı": 5691,
      "sızın": 5692,
      "leyicisi": 5693,
      "▁anı": 5694,
      "▁erkeklerin": 5695,
      "▁ucret": 5696,
      "▁musterileri": 5697,
      "▁dikkate": 5698,
      "▁bulundugunu": 5699,
      "araj": 5700,
      "▁telafi": 5701,
      "▁yaver": 5702,
      "▁oglan": 5703,
      "▁resmini": 5704,
      "▁benimle": 5705,
      "▁siz": 5706,
      "▁1.4": 5707,
      "▁koleksiyon": 5708,
      "ick": 5709,
      "so": 5710,
      "▁tehdid": 5711,
      "▁bakıcı": 5712,
      "▁yarından": 5713,
      "▁kollarını": 5714,
      "▁yudum": 5715,
      "▁sırtında": 5716,
      "▁pit": 5717,
      "▁kayısı": 5718,
      "▁universiteden": 5719,
      "manı": 5720,
      "▁emekli": 5721,
      "▁pen": 5722,
      "eveyn": 5723,
      "▁sorusuna": 5724,
      "▁deme": 5725,
      "acagından": 5726,
      "▁derecelendirme": 5727,
      "▁acaktı": 5728,
      "▁ucmak": 5729,
      "▁yonetimin": 5730,
      "ekul": 5731,
      "▁zafer": 5732,
      "▁51": 5733,
      "▁stratejiler": 5734,
      "▁olacagı": 5735,
      "▁video": 5736,
      "▁fenerleri": 5737,
      "mayı": 5738,
      "▁gumruk": 5739,
      "▁analistler": 5740,
      "▁maliyetinin": 5741,
      "sak": 5742,
      "▁okulları": 5743,
      "▁st.": 5744,
      "▁giz": 5745,
      "▁daya": 5746,
      "▁onunde": 5747,
      "al'ın": 5748,
      "▁indianapolis'e": 5749,
      "▁key": 5750,
      "▁hızını": 5751,
      "▁guresci": 5752,
      "▁fırsatta": 5753,
      "▁kafasını": 5754,
      "klerini": 5755,
      "▁sini": 5756,
      "▁cir": 5757,
      "nun": 5758,
      "tasıyla": 5759,
      "eyebilir": 5760,
      "▁koalisyon": 5761,
      "enuz": 5762,
      "▁andır": 5763,
      "▁hayattan": 5764,
      "▁istiyoruz": 5765,
      "▁otuz": 5766,
      "▁kalmadı": 5767,
      "▁calısmak": 5768,
      "▁yengec": 5769,
      "▁yedek": 5770,
      "▁degeri": 5771,
      "▁azap": 5772,
      "unuz": 5773,
      "▁satıcı": 5774,
      "▁kahveye": 5775,
      "'e": 5776,
      "▁bilgisayarın": 5777,
      "▁direnis": 5778,
      "aklı": 5779,
      "▁bush": 5780,
      "▁normaldi": 5781,
      "▁temizlikte": 5782,
      "ittir": 5783,
      "▁degildir": 5784,
      "tırmak": 5785,
      "▁ortalıkta": 5786,
      "▁dergileri": 5787,
      "▁cos": 5788,
      "▁ceph": 5789,
      "▁cember": 5790,
      "▁tersan": 5791,
      "ayacak": 5792,
      "▁ayda": 5793,
      "▁gurult": 5794,
      "tc": 5795,
      "▁mav": 5796,
      "▁gavur": 5797,
      "▁kayanın": 5798,
      "▁ruhunun": 5799,
      "▁anında": 5800,
      "iyorlardi": 5801,
      "▁gorunen": 5802,
      "▁intih": 5803,
      "▁fıstık": 5804,
      "▁kitaplarını": 5805,
      "▁ayrım": 5806,
      "▁bahseder": 5807,
      "▁dosyayı": 5808,
      "▁sanız": 5809,
      "elle": 5810,
      "▁taklit": 5811,
      "▁niteligi": 5812,
      "isyon": 5813,
      "▁yuksekti": 5814,
      "▁yap": 5815,
      "▁salıncaga": 5816,
      "▁tenis": 5817,
      "▁yapragı": 5818,
      "▁yapıyordu": 5819,
      "▁yuzyıllar": 5820,
      "▁kadınların": 5821,
      "▁mutlu": 5822,
      "▁merkezli": 5823,
      "▁fakult": 5824,
      "▁planı": 5825,
      "▁istihbar": 5826,
      "▁demiri": 5827,
      "▁ayagını": 5828,
      "▁sarımsak": 5829,
      "▁lokasyon": 5830,
      "mem": 5831,
      "▁birco": 5832,
      "▁yemeklerde": 5833,
      "▁sokaktan": 5834,
      "▁yn": 5835,
      "▁nitelik": 5836,
      "▁kullanılan": 5837,
      "▁belirt": 5838,
      "▁gozden": 5839,
      "yerek": 5840,
      "fet": 5841,
      "mamıs": 5842,
      "▁corbayı": 5843,
      "▁sırtından": 5844,
      "▁kosulları": 5845,
      "abilecegine": 5846,
      "cılıg": 5847,
      "▁annesiyle": 5848,
      "▁hac": 5849,
      "▁askı": 5850,
      "▁kabuk": 5851,
      "▁8": 5852,
      "sen": 5853,
      "▁aradilar": 5854,
      "▁pilak": 5855,
      "▁fakir": 5856,
      "▁koye": 5857,
      "▁surucu": 5858,
      "▁koylu": 5859,
      "le": 5860,
      "haneyi": 5861,
      "likte": 5862,
      "▁bitmek": 5863,
      "▁kahvede": 5864,
      "lasın": 5865,
      "▁olgun": 5866,
      "▁huseyin": 5867,
      "▁kapsamına": 5868,
      "umde": 5869,
      "▁serbet": 5870,
      "ley": 5871,
      "▁ongoru": 5872,
      "▁zan": 5873,
      "▁aylarında": 5874,
      "▁dunyası": 5875,
      "▁islemlerine": 5876,
      "▁dogrudan": 5877,
      "▁soyun": 5878,
      "▁kıl": 5879,
      "▁geldig": 5880,
      "▁donmek": 5881,
      "mik": 5882,
      "▁takımı": 5883,
      "▁arkadan": 5884,
      "likle": 5885,
      "▁tıpkı": 5886,
      "▁kart": 5887,
      "isin": 5888,
      "toru": 5889,
      "▁lezzetsizdi": 5890,
      "▁bat": 5891,
      ".4": 5892,
      "▁tov": 5893,
      "▁tatili": 5894,
      "▁yardimci": 5895,
      "▁kayg": 5896,
      "ile": 5897,
      "▁sıgır": 5898,
      "▁yapacagını": 5899,
      "▁kredinin": 5900,
      "ıllı": 5901,
      "etsiz": 5902,
      "▁devasa": 5903,
      "▁mul": 5904,
      "▁devletin": 5905,
      "lantı": 5906,
      "▁%2": 5907,
      "▁yaptıg": 5908,
      "lesini": 5909,
      "eciye": 5910,
      "▁trilyon": 5911,
      "▁temettu": 5912,
      "kilerden": 5913,
      "▁maddeye": 5914,
      "▁hanimdi": 5915,
      "▁bakalım": 5916,
      "egini": 5917,
      "▁fasulyesi": 5918,
      "▁reis": 5919,
      "▁eserin": 5920,
      "▁ite": 5921,
      "▁hazret": 5922,
      "▁etrafı": 5923,
      "d": 5924,
      "▁koyunun": 5925,
      "▁hizmetler": 5926,
      "▁zirveye": 5927,
      "▁mus": 5928,
      "▁vir": 5929,
      "ucular": 5930,
      "enizin": 5931,
      "▁gav": 5932,
      "▁mujde": 5933,
      "▁konuda": 5934,
      "▁gecin": 5935,
      "adar": 5936,
      "▁ciftlerine": 5937,
      "slı": 5938,
      "elim": 5939,
      "▁secenegi": 5940,
      "▁eksik": 5941,
      "▁camasır": 5942,
      "▁seattle'den": 5943,
      "▁lezzetleri": 5944,
      "▁tasv": 5945,
      "layın": 5946,
      "▁bitmis": 5947,
      "enin": 5948,
      "▁vucud": 5949,
      "▁uyum": 5950,
      "▁tekl": 5951,
      "▁demis": 5952,
      "▁param": 5953,
      "▁yuzleri": 5954,
      "artma": 5955,
      "▁cıkmıs": 5956,
      "▁yanık": 5957,
      "▁saatine": 5958,
      "▁elini": 5959,
      "▁hayatımız": 5960,
      "▁surdurdu": 5961,
      "lop": 5962,
      "▁hane": 5963,
      "▁depremden": 5964,
      "ıyı": 5965,
      "▁benziyordu": 5966,
      "▁yola": 5967,
      "▁bekledi": 5968,
      "▁yemege": 5969,
      "▁riske": 5970,
      "ayi": 5971,
      "▁dunyasına": 5972,
      "eginin": 5973,
      "▁niz": 5974,
      "▁deyim": 5975,
      "▁dolma": 5976,
      "▁ilham": 5977,
      "anla": 5978,
      "utmak": 5979,
      "▁vardı": 5980,
      "▁aran": 5981,
      "▁yuregi": 5982,
      "emsiz": 5983,
      "▁gorul": 5984,
      "▁eksikti": 5985,
      "▁soylemis": 5986,
      "ıgının": 5987,
      "▁eder": 5988,
      "abiliyor": 5989,
      "▁geregi": 5990,
      "▁kurtulur": 5991,
      "erb": 5992,
      "▁fen": 5993,
      "▁havaliman": 5994,
      "▁bucagından": 5995,
      "▁getirilerinin": 5996,
      "▁hissedarlar": 5997,
      "▁ustu": 5998,
      "▁yatırım": 5999,
      "umuzu": 6000,
      "▁faydalar": 6001,
      "▁alısver": 6002,
      "▁seftali": 6003,
      "▁fitn": 6004,
      "▁ceylan": 6005,
      "agım": 6006,
      "▁gezi": 6007,
      "cın": 6008,
      "▁burnunu": 6009,
      "▁gazetenin": 6010,
      "olojik": 6011,
      "▁enflasyona": 6012,
      "ılgan": 6013,
      "▁dalgın": 6014,
      "▁vesik": 6015,
      "▁suların": 6016,
      "▁elem": 6017,
      "▁egilimleri": 6018,
      "▁tr": 6019,
      "ınızı": 6020,
      "▁koskun": 6021,
      "▁gostermeye": 6022,
      "likten": 6023,
      "▁gorev": 6024,
      "0": 6025,
      "▁dusmanı": 6026,
      "°": 6027,
      "▁aylar": 6028,
      "▁topar": 6029,
      "▁katilmak": 6030,
      "▁cın": 6031,
      "▁grubuna": 6032,
      "▁aktif": 6033,
      "’": 6034,
      "▁kucuk": 6035,
      "▁muhafız": 6036,
      "▁sekil": 6037,
      "▁karsi": 6038,
      "mektedir": 6039,
      "usunden": 6040,
      "▁surdurmek": 6041,
      "cog": 6042,
      "▁rahatsızlık": 6043,
      "siyle": 6044,
      "iyi": 6045,
      "▁dilleri": 6046,
      "▁numarasını": 6047,
      "▁sat": 6048,
      "▁olume": 6049,
      "▁olayda": 6050,
      "▁kulakları": 6051,
      "▁zem": 6052,
      "▁dolasır": 6053,
      "▁sizinle": 6054,
      "armıs": 6055,
      "▁teker": 6056,
      "tigi": 6057,
      "day": 6058,
      "▁fonu": 6059,
      "▁seyleri": 6060,
      "▁guldu": 6061,
      "akki": 6062,
      "▁takımının": 6063,
      "▁hucre": 6064,
      "▁eksi": 6065,
      "▁kendimden": 6066,
      "▁sessiz": 6067,
      "▁sesi": 6068,
      "urg": 6069,
      "▁gecit": 6070,
      "▁olc": 6071,
      "▁bahceden": 6072,
      "▁romanı": 6073,
      "▁karları": 6074,
      "▁tahvilleri": 6075,
      "▁istifade": 6076,
      "stır": 6077,
      "▁hadis": 6078,
      "lası": 6079,
      "▁kutuk": 6080,
      "▁bakarak": 6081,
      "▁hıckır": 6082,
      "▁es": 6083,
      "▁milyondan": 6084,
      "▁birligi": 6085,
      "▁hosgor": 6086,
      ".0": 6087,
      "mi": 6088,
      "▁hafız": 6089,
      "▁doy": 6090,
      "aralı": 6091,
      "▁faaliyetlerinin": 6092,
      "▁tuh": 6093,
      "▁bunu": 6094,
      "▁taleb": 6095,
      "mamı": 6096,
      "▁gunlerin": 6097,
      "▁ucuslara": 6098,
      "▁yazıya": 6099,
      "▁dısisleri": 6100,
      "▁kib": 6101,
      "▁ok": 6102,
      "▁fazl": 6103,
      "▁oldum": 6104,
      "attı": 6105,
      "▁zamanında": 6106,
      "▁donen": 6107,
      "▁piyan": 6108,
      "▁baskanının": 6109,
      "usa": 6110,
      "▁internet": 6111,
      "▁isy": 6112,
      "▁jand": 6113,
      "acagım": 6114,
      "ıldım": 6115,
      "▁viski": 6116,
      "▁kıvıl": 6117,
      "▁vadesi": 6118,
      "▁azından": 6119,
      "▁casusluk": 6120,
      "▁hocalık": 6121,
      "▁hasar": 6122,
      "avuz": 6123,
      "odu": 6124,
      "▁kızar": 6125,
      "▁cagdas": 6126,
      "▁badem": 6127,
      "▁efsan": 6128,
      "▁kul": 6129,
      "▁ilk": 6130,
      "aguar": 6131,
      "▁korun": 6132,
      "▁liradan": 6133,
      "▁saksı": 6134,
      "▁ogrendi": 6135,
      "ografi": 6136,
      "▁hey": 6137,
      "▁oldu": 6138,
      "▁yır": 6139,
      "igim": 6140,
      "diginin": 6141,
      "\\/8'e": 6142,
      "▁havalimanlarından": 6143,
      "▁atar": 6144,
      "▁haberdar": 6145,
      "▁uykuya": 6146,
      "▁havanın": 6147,
      "ligim": 6148,
      "▁baklav": 6149,
      "▁musait": 6150,
      "duk": 6151,
      "ayıp": 6152,
      "▁felsefe": 6153,
      "isten": 6154,
      "▁banka": 6155,
      "▁bakın": 6156,
      "▁cesaretini": 6157,
      "▁pavyon": 6158,
      "lesine": 6159,
      "▁sevgili": 6160,
      "▁go": 6161,
      "▁servisleri": 6162,
      "tugunu": 6163,
      "▁borsası": 6164,
      "▁eczacı": 6165,
      "▁davanın": 6166,
      "30'dan": 6167,
      "▁parasını": 6168,
      "cuları": 6169,
      "sıyla": 6170,
      "'ye": 6171,
      "medig": 6172,
      "▁kavak": 6173,
      "▁olmadan": 6174,
      "▁list": 6175,
      "▁gecik": 6176,
      "▁bakımı": 6177,
      "▁hastaneye": 6178,
      "▁dondu": 6179,
      "▁tebrik": 6180,
      "▁lunapark": 6181,
      "▁toplulugu": 6182,
      "▁meyveleri": 6183,
      "▁yerlesim": 6184,
      "▁hasarı": 6185,
      "▁sanayi": 6186,
      "▁kalitede": 6187,
      "l": 6188,
      "▁kıp": 6189,
      "▁arkadaslık": 6190,
      "endi": 6191,
      "▁taksi": 6192,
      "▁amel": 6193,
      "▁otomobiller": 6194,
      "▁hukumete": 6195,
      "▁iyimser": 6196,
      "▁aktiviteleri": 6197,
      "▁ipin": 6198,
      "▁lond": 6199,
      "▁tarihi": 6200,
      "▁fırladı": 6201,
      "leyi": 6202,
      "ugunda": 6203,
      "▁ayak": 6204,
      "▁domuz": 6205,
      "bar": 6206,
      "▁halkalar": 6207,
      "▁sıcagı": 6208,
      "usunun": 6209,
      "▁gorme": 6210,
      "▁sunumu": 6211,
      "cisi": 6212,
      "▁tarlayı": 6213,
      "▁istiyor": 6214,
      "▁sınırlarını": 6215,
      "ılması": 6216,
      "▁krok": 6217,
      "▁secim": 6218,
      "▁itimat": 6219,
      "54": 6220,
      "▁simsek": 6221,
      "▁tım": 6222,
      "▁ulk": 6223,
      "lamasını": 6224,
      "▁kompartım": 6225,
      "▁musterilere": 6226,
      "▁restor": 6227,
      "▁antik": 6228,
      "▁gorusmedik": 6229,
      "to": 6230,
      "▁ipuc": 6231,
      "▁telas": 6232,
      "▁gunesten": 6233,
      "▁tarlaları": 6234,
      "usu": 6235,
      "mis": 6236,
      "▁ihtiyat": 6237,
      "alar": 6238,
      "▁taban": 6239,
      "▁miktarda": 6240,
      "▁kada": 6241,
      "▁karaya": 6242,
      "▁garanti": 6243,
      "▁ovgu": 6244,
      "▁uc": 6245,
      "▁cıkarmak": 6246,
      "▁degisiklik": 6247,
      "▁sut": 6248,
      "▁kanser": 6249,
      "▁alıcılar": 6250,
      "▁sınıf": 6251,
      "▁kalmaya": 6252,
      "▁olmaktan": 6253,
      "▁kurallara": 6254,
      "▁gorduk": 6255,
      "▁marul": 6256,
      "keli": 6257,
      "▁karısına": 6258,
      "▁kasabaya": 6259,
      "▁kullanımını": 6260,
      "▁kurek": 6261,
      "▁kargo": 6262,
      "▁gecirdik": 6263,
      "▁konusmak": 6264,
      "anti": 6265,
      "cik": 6266,
      "▁silk": 6267,
      "lıgımız": 6268,
      "▁abd": 6269,
      "ınıyor": 6270,
      "▁ken": 6271,
      "gunlukla": 6272,
      "▁oynar": 6273,
      "iki": 6274,
      "▁gormezden": 6275,
      "▁cabası": 6276,
      "▁sinek": 6277,
      "▁tl": 6278,
      "▁heves": 6279,
      "cılı": 6280,
      "yince": 6281,
      "nu": 6282,
      "▁yılı": 6283,
      "▁bugunden": 6284,
      "▁cat": 6285,
      "▁moder": 6286,
      "▁hemen": 6287,
      "▁komunist": 6288,
      "▁parkın": 6289,
      "▁fat": 6290,
      "▁cav": 6291,
      "▁edebilecegini": 6292,
      "▁arka": 6293,
      "dıgına": 6294,
      "▁yıllara": 6295,
      "▁130": 6296,
      "▁2.": 6297,
      "lıcı": 6298,
      "▁meydan": 6299,
      "▁olumune": 6300,
      "▁patlaması": 6301,
      "▁geldim": 6302,
      "gage": 6303,
      "▁tulum": 6304,
      "▁acik": 6305,
      "▁petersburg": 6306,
      "▁bunca": 6307,
      "▁edecekti": 6308,
      "▁sapı": 6309,
      "▁tın": 6310,
      "▁duzeyine": 6311,
      "va": 6312,
      "▁istanbul'un": 6313,
      "▁baskanı": 6314,
      "▁donuyor": 6315,
      "▁getiriyor": 6316,
      "▁26": 6317,
      "▁bilmec": 6318,
      "▁yorumlara": 6319,
      "▁...": 6320,
      "▁tarifesini": 6321,
      "▁olcek": 6322,
      "▁bulgur": 6323,
      "anlardan": 6324,
      "▁gasp": 6325,
      "▁70": 6326,
      "▁yangından": 6327,
      "▁depreminin": 6328,
      "▁parca": 6329,
      "▁bi": 6330,
      "▁menek": 6331,
      "▁yelpaze": 6332,
      "▁rady": 6333,
      "▁nok": 6334,
      "▁corp.": 6335,
      "ilmisti": 6336,
      "▁cebinden": 6337,
      "▁hekim": 6338,
      "▁pik": 6339,
      "▁tari": 6340,
      "▁kurtarma": 6341,
      "▁gokyuzunde": 6342,
      "afet": 6343,
      "▁memnuniyeti": 6344,
      "▁nazaran": 6345,
      "▁kendinin": 6346,
      "▁oya": 6347,
      "akları": 6348,
      "▁firmalar": 6349,
      "▁tahminini": 6350,
      "em": 6351,
      "eligine": 6352,
      "▁newark": 6353,
      "liyordu": 6354,
      "▁reklamları": 6355,
      "▁sonra": 6356,
      "▁bulunmak": 6357,
      "▁misafirleri": 6358,
      "▁li": 6359,
      "▁dilenci": 6360,
      "▁yasamında": 6361,
      "▁ogrenc": 6362,
      "▁fındık": 6363,
      "▁iyilerdi": 6364,
      "▁colde": 6365,
      "▁gordu": 6366,
      ".625": 6367,
      "▁meseleler": 6368,
      "adet": 6369,
      "▁satısının": 6370,
      "▁alındı": 6371,
      "▁ayrıntılarıyla": 6372,
      "▁'l": 6373,
      "▁orijinal": 6374,
      "▁yerine": 6375,
      "▁tesaduf": 6376,
      "▁sıkıntısı": 6377,
      "▁maruz": 6378,
      "▁uygarlık": 6379,
      "▁borsacılara": 6380,
      "▁kisisi": 6381,
      "▁kavg": 6382,
      "▁cambaz": 6383,
      "▁kahkaha": 6384,
      "▁odada": 6385,
      "ladi": 6386,
      "kse": 6387,
      "mıyordu": 6388,
      "▁araclar": 6389,
      "▁yeryuz": 6390,
      "▁bı": 6391,
      "var": 6392,
      "▁lezzeti": 6393,
      "egen": 6394,
      "▁uyelig": 6395,
      "▁si": 6396,
      "▁sermaye": 6397,
      "▁poy": 6398,
      "▁dedesi": 6399,
      "ucuları": 6400,
      "▁yatıs": 6401,
      "▁derdi": 6402,
      "▁lamb": 6403,
      "▁cıkacagını": 6404,
      "▁rakipleri": 6405,
      "▁kararsiz": 6406,
      "▁demokrat": 6407,
      "▁paranin": 6408,
      "▁dolas": 6409,
      "etini": 6410,
      "▁sorunlarına": 6411,
      "burgh": 6412,
      "▁yuksek": 6413,
      "▁zenginlik": 6414,
      "▁milyona": 6415,
      "▁basarısı": 6416,
      "▁mevsim": 6417,
      "▁rahip": 6418,
      "▁mez": 6419,
      "tu": 6420,
      "ıda": 6421,
      "rını": 6422,
      "uldu": 6423,
      "▁konusmanın": 6424,
      "isiniz": 6425,
      "taki": 6426,
      "▁peters": 6427,
      "▁vil": 6428,
      "▁halk": 6429,
      "▁bakıma": 6430,
      "▁deneme": 6431,
      "at": 6432,
      "▁kutup": 6433,
      "▁jo": 6434,
      "6'ya": 6435,
      "▁buf": 6436,
      "▁otom": 6437,
      "▁stil": 6438,
      "▁modern": 6439,
      "adel": 6440,
      "▁dogrusunu": 6441,
      "▁newark'tan": 6442,
      "▁turb": 6443,
      "▁tatilimiz": 6444,
      "deki": 6445,
      "▁ogretmenleri": 6446,
      "6'sı": 6447,
      "rken": 6448,
      "▁zarar": 6449,
      "▁kanıt": 6450,
      "tih": 6451,
      "▁ulkelerin": 6452,
      "▁yetki": 6453,
      "▁isciler": 6454,
      "▁davar": 6455,
      "onun": 6456,
      "▁kapı": 6457,
      "▁francisco'dan": 6458,
      "unde": 6459,
      "▁yıl": 6460,
      "▁siir": 6461,
      "▁asfalt": 6462,
      "▁bogazına": 6463,
      "liginin": 6464,
      "▁caydan": 6465,
      "▁digerine": 6466,
      "▁gosterg": 6467,
      "▁hacet": 6468,
      "[PAD]": 6469,
      "▁carsaf": 6470,
      "▁helik": 6471,
      "▁tezgahın": 6472,
      "▁ofise": 6473,
      "▁rit": 6474,
      "▁sistemini": 6475,
      "▁ener": 6476,
      "▁evleri": 6477,
      "▁geyik": 6478,
      "▁arkadasını": 6479,
      "▁parayı": 6480,
      "▁biyoloji": 6481,
      "anı": 6482,
      "▁belirsiz": 6483,
      "▁mavi": 6484,
      "madım": 6485,
      "▁acıklık": 6486,
      "▁milyonlarca": 6487,
      "▁alan": 6488,
      "fes": 6489,
      "▁bilg": 6490,
      "raf": 6491,
      "▁1988'de": 6492,
      "▁guvertede": 6493,
      "ekk": 6494,
      "▁mizac": 6495,
      "▁alıskanlıgı": 6496,
      "▁bolgesinde": 6497,
      "▁annesi": 6498,
      "lıgıma": 6499,
      "▁sız": 6500,
      "▁long": 6501,
      "ilendir": 6502,
      "asından": 6503,
      "5'e": 6504,
      "▁adımlarını": 6505,
      "▁ilginc": 6506,
      "nem": 6507,
      "▁philadelphia": 6508,
      "▁tacir": 6509,
      "▁planda": 6510,
      "bay": 6511,
      "▁haricinde": 6512,
      "ment": 6513,
      "▁coktan": 6514,
      "▁dolandır": 6515,
      "▁yaptır": 6516,
      "▁macer": 6517,
      "han": 6518,
      "mec": 6519,
      "▁tesh": 6520,
      "▁rum": 6521,
      "ilmesine": 6522,
      "▁kulub": 6523,
      "▁populer": 6524,
      "ikli": 6525,
      "▁pahalı": 6526,
      "▁imkan": 6527,
      "▁halbu": 6528,
      "▁icr": 6529,
      "▁tamir": 6530,
      "▁munaseb": 6531,
      "▁basyaz": 6532,
      "▁hoca": 6533,
      "▁kil": 6534,
      "▁kabugu": 6535,
      "▁nobetci": 6536,
      "▁cıkmayı": 6537,
      "▁konak": 6538,
      "▁birbirleri": 6539,
      "▁cekmec": 6540,
      "▁yoz": 6541,
      "▁bizleri": 6542,
      "▁rahatlıgı": 6543,
      "▁ses": 6544,
      "▁seviyelerde": 6545,
      "▁basını": 6546,
      "▁teli": 6547,
      "lest": 6548,
      "▁tep": 6549,
      "▁re": 6550,
      "▁bizimle": 6551,
      "▁bicimi": 6552,
      "▁yurudu": 6553,
      "▁misaf": 6554,
      "▁salonu": 6555,
      "iyede": 6556,
      "▁sallantı": 6557,
      "▁anlasmanın": 6558,
      "'y": 6559,
      "▁hayv": 6560,
      "emis": 6561,
      "▁giyim": 6562,
      "▁disk": 6563,
      "luyor": 6564,
      "yn": 6565,
      "gut": 6566,
      "▁onlugu": 6567,
      "esil": 6568,
      "▁kalanlar": 6569,
      "▁aykırı": 6570,
      "▁mal": 6571,
      "▁yasamını": 6572,
      "▁tutuk": 6573,
      "▁kapital": 6574,
      "▁makineler": 6575,
      "▁tucc": 6576,
      "▁meblag": 6577,
      "ut": 6578,
      "▁bagrı": 6579,
      "▁egitmen": 6580,
      "▁kagıdı": 6581,
      "▁surecin": 6582,
      "▁salatası": 6583,
      "▁dortte": 6584,
      "alıyor": 6585,
      "▁koprunun": 6586,
      "▁karsımıza": 6587,
      "▁musluman": 6588,
      "▁yatagına": 6589,
      "muz": 6590,
      "▁cizgileri": 6591,
      "▁sesler": 6592,
      "▁otobusun": 6593,
      "lekler": 6594,
      "'nun": 6595,
      "▁divan": 6596,
      "▁gazeteyi": 6597,
      "irmi": 6598,
      "▁l": 6599,
      "▁yonlendirdi": 6600,
      "▁kararsizim": 6601,
      "▁sayesinde": 6602,
      "lanın": 6603,
      "▁gormus": 6604,
      "▁sevgilisini": 6605,
      "onik": 6606,
      "▁dususe": 6607,
      "▁aktiviteler": 6608,
      "▁soyleyebilir": 6609,
      "▁misafirimizle": 6610,
      "▁oglunu": 6611,
      "▁cidd": 6612,
      "▁paketi": 6613,
      "▁alanlarında": 6614,
      "▁geliyordu": 6615,
      "▁nicin": 6616,
      "▁evr": 6617,
      "▁dusunmek": 6618,
      "lay": 6619,
      "▁filik": 6620,
      "▁dıs": 6621,
      "▁karısını": 6622,
      "▁yazısı": 6623,
      "▁hayvanlar": 6624,
      "▁meze": 6625,
      "▁kesil": 6626,
      "▁cik": 6627,
      "▁toreni": 6628,
      "atch": 6629,
      "▁kanunu": 6630,
      "okol": 6631,
      "▁etmektedir": 6632,
      "▁tedbir": 6633,
      "▁mermi": 6634,
      "▁haziran": 6635,
      "jon": 6636,
      "▁gorusmeleri": 6637,
      "▁dısa": 6638,
      "▁damla": 6639,
      "▁cekic": 6640,
      "▁agrısı": 6641,
      "▁evine": 6642,
      "▁bilgilendir": 6643,
      "▁sirketlerini": 6644,
      "▁avluya": 6645,
      "▁tuketici": 6646,
      "▁yasamına": 6647,
      "▁mec": 6648,
      "▁karanfil": 6649,
      "▁girince": 6650,
      "▁nesn": 6651,
      "sinde": 6652,
      "▁olmadıgına": 6653,
      "izli": 6654,
      "▁ucretini": 6655,
      "arda": 6656,
      "▁annesine": 6657,
      "▁tezk": 6658,
      "ılıyor": 6659,
      "▁bagırsak": 6660,
      "▁kutlama": 6661,
      "▁dis": 6662,
      "▁butce": 6663,
      "▁anlamıyla": 6664,
      "▁usulca": 6665,
      "▁refah": 6666,
      "▁kazık": 6667,
      "▁v": 6668,
      "▁suruleri": 6669,
      "sınız": 6670,
      "▁kurulunun": 6671,
      "▁tarife": 6672,
      "▁bulas": 6673,
      "▁ciddiye": 6674,
      "▁disinden": 6675,
      "▁galibiyet": 6676,
      "umk": 6677,
      "reet": 6678,
      "▁miralay": 6679,
      "▁silahı": 6680,
      "turu": 6681,
      "emizde": 6682,
      "▁cizgisini": 6683,
      "▁fert": 6684,
      "eksiyon": 6685,
      "▁deg": 6686,
      "▁filan": 6687,
      "▁bolumunun": 6688,
      "▁yaklasık": 6689,
      "uzdu": 6690,
      "▁korku": 6691,
      "▁surecinde": 6692,
      "▁motorun": 6693,
      "▁tey": 6694,
      "ıtma": 6695,
      "▁pot": 6696,
      "lam": 6697,
      "▁trene": 6698,
      "apark": 6699,
      "▁sizlere": 6700,
      "▁a.b.d.": 6701,
      "▁buyukelci": 6702,
      "▁send": 6703,
      "▁1.8": 6704,
      "erek": 6705,
      "▁sirket": 6706,
      "▁aleyh": 6707,
      "▁yazıyı": 6708,
      "▁olamaz": 6709,
      "▁personellerden": 6710,
      "▁milliyet": 6711,
      "▁tuccarlar": 6712,
      "lirken": 6713,
      "5'te": 6714,
      "▁tabiat": 6715,
      "▁baskal": 6716,
      "▁kazancını": 6717,
      "per": 6718,
      "ems": 6719,
      "▁sit": 6720,
      "▁gum": 6721,
      "▁oynuyor": 6722,
      "▁...\"": 6723,
      "▁teklif": 6724,
      "▁yetkilisi": 6725,
      "▁cozum": 6726,
      "ksan": 6727,
      "▁kofte": 6728,
      "▁kapas": 6729,
      "▁gelince": 6730,
      "▁ulkesi": 6731,
      "▁yavas": 6732,
      "▁7.9": 6733,
      "kip": 6734,
      "▁kavramı": 6735,
      "▁yitir": 6736,
      "▁turuna": 6737,
      "▁ekonomisi": 6738,
      "▁mahkemenin": 6739,
      "▁tefer": 6740,
      "▁fersah": 6741,
      "▁tencere": 6742,
      "▁dudak": 6743,
      "akende": 6744,
      "▁ucmam": 6745,
      "▁karam": 6746,
      "▁dusuyor": 6747,
      "▁duyul": 6748,
      "▁oyuncuların": 6749,
      "▁kef": 6750,
      "▁cihan": 6751,
      "▁birin": 6752,
      "mistik": 6753,
      "ik": 6754,
      "▁cevr": 6755,
      "▁curuk": 6756,
      "▁a.": 6757,
      "▁par": 6758,
      "▁gerektigine": 6759,
      "▁yukselmesine": 6760,
      "▁kilim": 6761,
      "▁pis": 6762,
      "▁satıcılar": 6763,
      "▁ortalama": 6764,
      "▁sahit": 6765,
      "▁kırm": 6766,
      "▁sehrinden": 6767,
      "▁olmadigini": 6768,
      "ifi": 6769,
      "▁yorgunluktan": 6770,
      "cagızı": 6771,
      "▁sozunde": 6772,
      "dırıyor": 6773,
      "▁evrende": 6774,
      "▁tepe": 6775,
      "enn": 6776,
      "▁senet": 6777,
      "▁marj": 6778,
      "▁city'e": 6779,
      "▁soylesi": 6780,
      "▁kemik": 6781,
      "ner": 6782,
      "▁kapsam": 6783,
      "▁suistim": 6784,
      "▁tatlı": 6785,
      "▁degerlendirmek": 6786,
      "▁donanımı": 6787,
      "▁arz": 6788,
      "▁fab": 6789,
      "▁basta": 6790,
      "▁atmosfer": 6791,
      "▁kaybedenleri": 6792,
      "▁gormedi": 6793,
      "▁olac": 6794,
      "▁kopar": 6795,
      "batı": 6796,
      "▁45": 6797,
      "▁sarsıntı": 6798,
      "atur": 6799,
      "▁suclamalar": 6800,
      "▁paz": 6801,
      "gimde": 6802,
      "▁ayrica": 6803,
      "ong": 6804,
      "▁yazdı": 6805,
      "▁demokratlar": 6806,
      "umlu": 6807,
      "▁columbus": 6808,
      "▁yanisira": 6809,
      "▁bonosu": 6810,
      "tarı": 6811,
      "2'den": 6812,
      "▁tablosu": 6813,
      "▁almadim": 6814,
      "▁iscilerin": 6815,
      "▁atmak": 6816,
      "y": 6817,
      "▁agzımı": 6818,
      "▁uyustur": 6819,
      "▁cama": 6820,
      "ediye": 6821,
      "▁gelmek": 6822,
      "▁adliye": 6823,
      "iyordu": 6824,
      "▁gazetecilik": 6825,
      "▁gerec": 6826,
      "▁tasır": 6827,
      "ou": 6828,
      "asını": 6829,
      "▁charlotte'den": 6830,
      "▁financial": 6831,
      "▁kalkan": 6832,
      "dv": 6833,
      "▁hele": 6834,
      "▁tarif": 6835,
      "▁genel": 6836,
      "ımıza": 6837,
      "▁pound": 6838,
      "dokuz": 6839,
      "arlıgı": 6840,
      "▁kız": 6841,
      "▁suredir": 6842,
      "▁evime": 6843,
      "▁basbakanı": 6844,
      "▁ram": 6845,
      "▁kılıc": 6846,
      "eti": 6847,
      "▁gorevlileri": 6848,
      "▁telesk": 6849,
      "▁tehd": 6850,
      "▁temsilcileri": 6851,
      "▁yataga": 6852,
      "▁kilogram": 6853,
      "▁cenneti": 6854,
      "or": 6855,
      "▁ilgilenmediler": 6856,
      "nd": 6857,
      "ettir": 6858,
      "▁yaparak": 6859,
      "▁sobanın": 6860,
      "▁kararını": 6861,
      "▁makine": 6862,
      "▁gosterdi": 6863,
      "▁hedef": 6864,
      "▁dagın": 6865,
      "▁getir": 6866,
      "▁karla": 6867,
      "▁abla": 6868,
      "azla": 6869,
      "▁duygusunu": 6870,
      "ati": 6871,
      "lug": 6872,
      "ex": 6873,
      "▁stres": 6874,
      "ısık": 6875,
      "acagı": 6876,
      "▁nush": 6877,
      "▁balt": 6878,
      "50'": 6879,
      "▁sirk": 6880,
      "▁komun": 6881,
      "alt": 6882,
      "iy": 6883,
      "▁ihtiyacını": 6884,
      "▁fırının": 6885,
      "▁sas": 6886,
      "▁degerini": 6887,
      "▁duserek": 6888,
      "▁diyorum": 6889,
      "▁%6": 6890,
      "izma": 6891,
      "▁sevdi": 6892,
      "▁hayli": 6893,
      "ediyor": 6894,
      "▁sebeb": 6895,
      "ssa": 6896,
      "▁fin": 6897,
      "▁hediy": 6898,
      "▁haksızlık": 6899,
      "▁kendisiyle": 6900,
      "▁reklamı": 6901,
      "▁zor": 6902,
      "▁vurguladı": 6903,
      "▁ulkemiz": 6904,
      "unca": 6905,
      "95": 6906,
      "▁surgun": 6907,
      "osunda": 6908,
      "▁pamuk": 6909,
      "▁izleri": 6910,
      "agına": 6911,
      "▁evladı": 6912,
      "▁orgutun": 6913,
      "▁tavaf": 6914,
      "▁pesin": 6915,
      "▁plani": 6916,
      "▁gelin": 6917,
      "▁oluyordu": 6918,
      "▁subvansiyon": 6919,
      "▁emr": 6920,
      "▁5.5": 6921,
      "▁sırası": 6922,
      "▁doldurdu": 6923,
      "▁kerv": 6924,
      "▁koop": 6925,
      "▁mimarlık": 6926,
      "▁halli": 6927,
      "▁an": 6928,
      "▁taze": 6929,
      "br": 6930,
      "arlık": 6931,
      "▁baslarda": 6932,
      "▁yuf": 6933,
      "sunuz": 6934,
      "▁ilce": 6935,
      "▁bayramı": 6936,
      "▁genclerin": 6937,
      "▁gelistirmek": 6938,
      "▁evlen": 6939,
      "▁satılan": 6940,
      "sına": 6941,
      "▁kendileri": 6942,
      "▁yıla": 6943,
      "▁soyledim": 6944,
      "▁burcu": 6945,
      "cul": 6946,
      "▁beyefendi": 6947,
      "▁dısarıdan": 6948,
      "▁derhal": 6949,
      "maların": 6950,
      "▁fabr": 6951,
      "lerim": 6952,
      "▁finc": 6953,
      "▁menfaat": 6954,
      "lugunde": 6955,
      "▁belki": 6956,
      "▁dusunmedigini": 6957,
      "▁kirlilik": 6958,
      "▁tesisin": 6959,
      "▁heyecan": 6960,
      "o'dan": 6961,
      "▁7'den": 6962,
      "▁kendine": 6963,
      "▁2'den": 6964,
      "▁niteliginde": 6965,
      "▁geldi": 6966,
      "res": 6967,
      "▁romancının": 6968,
      "▁kartal": 6969,
      "▁haykır": 6970,
      "▁ustunluk": 6971,
      "▁sıcr": 6972,
      "▁pervane": 6973,
      "▁tasvir": 6974,
      "▁34": 6975,
      "▁edelim": 6976,
      "▁cesi": 6977,
      "▁benden": 6978,
      "iginde": 6979,
      "▁gozlerini": 6980,
      "▁aileler": 6981,
      "▁epe": 6982,
      "urcuk": 6983,
      "▁yansıttıgını": 6984,
      "▁soluc": 6985,
      "▁%4": 6986,
      "▁ambal": 6987,
      "▁mevzuatı": 6988,
      "▁bardagı": 6989,
      "ific": 6990,
      "▁sogu": 6991,
      "▁makaleye": 6992,
      "▁bekley": 6993,
      "▁kocası": 6994,
      "▁destekli": 6995,
      "▁30-hisse": 6996,
      "▁ertesi": 6997,
      "▁ist": 6998,
      "akar": 6999,
      "▁olabilir": 7000,
      "demli": 7001,
      "▁corba": 7002,
      "▁plat": 7003,
      "vr": 7004,
      "▁tarzı": 7005,
      "▁talihsizlik": 7006,
      "▁bar": 7007,
      "▁otor": 7008,
      "▁subay": 7009,
      "▁aleyhinde": 7010,
      "▁bulur": 7011,
      "▁fas": 7012,
      "▁faaliyetleri": 7013,
      "▁toronto'dan": 7014,
      "▁sonrası": 7015,
      "▁hakaret": 7016,
      "▁kon": 7017,
      "▁airlines": 7018,
      "ogret": 7019,
      "▁halkı": 7020,
      "▁huzursuzluk": 7021,
      "▁kazanmak": 7022,
      "▁cıngırak": 7023,
      "▁mart": 7024,
      "▁cas": 7025,
      "▁kere": 7026,
      "ayacagını": 7027,
      "▁yavaslama": 7028,
      "▁piyango": 7029,
      "▁ını": 7030,
      "▁katkı": 7031,
      "9'da": 7032,
      "▁dokul": 7033,
      "mayacagını": 7034,
      "▁seviyeye": 7035,
      "▁trans": 7036,
      "▁omuzlarını": 7037,
      "▁derler": 7038,
      "▁chp": 7039,
      "▁iceriden": 7040,
      "▁seans": 7041,
      "▁gost": 7042,
      "dıgımı": 7043,
      "▁savur": 7044,
      "▁pazar": 7045,
      "izasyon": 7046,
      "▁tasf": 7047,
      "ucuk": 7048,
      "▁anlasması": 7049,
      "▁piyasasının": 7050,
      "▁kaba": 7051,
      "▁isimleri": 7052,
      "▁one": 7053,
      "▁bed": 7054,
      "▁basladım": 7055,
      "oc": 7056,
      "▁oldugunda": 7057,
      "sana": 7058,
      "▁fol": 7059,
      "▁catısma": 7060,
      "▁tamamıyla": 7061,
      "▁tacirleri": 7062,
      "▁idman": 7063,
      "▁barut": 7064,
      "deydi": 7065,
      "▁kusku": 7066,
      "artesi": 7067,
      "mediler": 7068,
      "▁birinden": 7069,
      "▁tehdidini": 7070,
      "▁balıgı": 7071,
      "▁bos": 7072,
      "▁oksuruk": 7073,
      "▁acıklamayı": 7074,
      "▁dogrult": 7075,
      "▁ar": 7076,
      "▁refakat": 7077,
      "▁bulmus": 7078,
      ".25": 7079,
      "lıgın": 7080,
      "▁ihtimalle": 7081,
      "▁yasın": 7082,
      "▁temp": 7083,
      "▁aktarmasız": 7084,
      "▁nac": 7085,
      "▁onemi": 7086,
      "dil": 7087,
      "▁mars": 7088,
      "▁tadima": 7089,
      "▁bulama": 7090,
      "cagım": 7091,
      "▁muayen": 7092,
      "▁fiyatlarını": 7093,
      "ai": 7094,
      "▁sevk": 7095,
      "▁psikiyatri": 7096,
      "▁parlak": 7097,
      "ecileri": 7098,
      "uar": 7099,
      "▁odemesini": 7100,
      "▁heykel": 7101,
      "amay": 7102,
      "▁ayından": 7103,
      "▁tanıtım": 7104,
      "▁sur": 7105,
      "▁ait": 7106,
      "▁--": 7107,
      "▁dekorasyonu": 7108,
      "eticiler": 7109,
      "▁koku": 7110,
      "▁mur": 7111,
      "▁sebek": 7112,
      "▁gayet": 7113,
      "▁muhtesem": 7114,
      "▁detaylar": 7115,
      "▁cicekler": 7116,
      "▁arası": 7117,
      "▁etraf": 7118,
      "▁omr": 7119,
      "▁tampa": 7120,
      "lenecek": 7121,
      "▁saglama": 7122,
      "olojisi": 7123,
      "▁hind": 7124,
      "▁yonetiminde": 7125,
      "▁musun": 7126,
      "▁muv": 7127,
      "▁espr": 7128,
      "istim": 7129,
      "▁ekstra": 7130,
      "▁pap": 7131,
      "▁reak": 7132,
      "▁7'de": 7133,
      "▁bırakma": 7134,
      "▁kullan": 7135,
      "kunu": 7136,
      "▁rub": 7137,
      "▁insanog": 7138,
      "eyle": 7139,
      "▁senedi": 7140,
      "▁isletim": 7141,
      "▁azınlık": 7142,
      "▁olsunlar": 7143,
      "▁angeles": 7144,
      "▁ayaklarıyla": 7145,
      "▁sahtek": 7146,
      "▁yenilen": 7147,
      "▁sogugu": 7148,
      "anları": 7149,
      "▁beye": 7150,
      "muyorum": 7151,
      "▁yapıs": 7152,
      "name": 7153,
      "perv": 7154,
      "▁zarf": 7155,
      "liydi": 7156,
      "▁dinam": 7157,
      "▁uykusu": 7158,
      "▁girdim": 7159,
      "ekli": 7160,
      "▁genelde": 7161,
      "ızın": 7162,
      "▁kelimeler": 7163,
      "▁beklet": 7164,
      "man": 7165,
      "elerim": 7166,
      "▁arabalar": 7167,
      "▁umud": 7168,
      "isimi": 7169,
      "▁anlat": 7170,
      "▁onemini": 7171,
      "▁adıyla": 7172,
      "▁ode": 7173,
      "desinde": 7174,
      "▁koymus": 7175,
      "▁gunluk": 7176,
      "▁seylerle": 7177,
      "▁tutam": 7178,
      "▁gelisimini": 7179,
      "▁karsıl": 7180,
      "▁vardır": 7181,
      "▁kapagı": 7182,
      "ılma": 7183,
      "▁baraj": 7184,
      "'t": 7185,
      "▁gostermek": 7186,
      "idin": 7187,
      "▁turkiye'nin": 7188,
      "▁frank": 7189,
      "▁birtak": 7190,
      "osk": 7191,
      "arki": 7192,
      "▁kazandıgını": 7193,
      "▁hisseden": 7194,
      "▁teknolojisi": 7195,
      "▁supur": 7196,
      "madan": 7197,
      "ret": 7198,
      "▁soktu": 7199,
      "▁ikin": 7200,
      "▁parmak": 7201,
      "ısına": 7202,
      "▁sabır": 7203,
      "▁havaalanından": 7204,
      "▁darb": 7205,
      "▁yapmayı": 7206,
      "▁kilidi": 7207,
      "▁memleketin": 7208,
      "▁muzik": 7209,
      "▁sesini": 7210,
      "▁versin": 7211,
      "▁.\"": 7212,
      "▁borc": 7213,
      "▁gecelik": 7214,
      "▁kek": 7215,
      "▁sureli": 7216,
      "▁odenek": 7217,
      "et": 7218,
      "▁domatesleri": 7219,
      "▁zararlar": 7220,
      "▁akt": 7221,
      "▁mutemadiyen": 7222,
      "▁yumurta": 7223,
      "▁olay": 7224,
      "onra": 7225,
      "▁listeleyebilir": 7226,
      "▁atmayı": 7227,
      "legin": 7228,
      "acaksın": 7229,
      "▁pesine": 7230,
      "▁bildirdi": 7231,
      "ding": 7232,
      "▁planlamam": 7233,
      "▁yetenek": 7234,
      "▁laik": 7235,
      "▁genetik": 7236,
      "▁boynuz": 7237,
      "▁uzerindeki": 7238,
      "▁yazmaya": 7239,
      "ısı": 7240,
      "▁baslayan": 7241,
      "▁ailelerin": 7242,
      "▁rakib": 7243,
      "▁askeri": 7244,
      "▁ef": 7245,
      "▁sebebi": 7246,
      "▁kuyu": 7247,
      "lanmayı": 7248,
      "▁kombin": 7249,
      "▁almasını": 7250,
      "ayeti": 7251,
      "▁biletleri": 7252,
      "▁gelsin": 7253,
      "▁vucu": 7254,
      "▁milyonu": 7255,
      "▁bire": 7256,
      "siv": 7257,
      "▁ilkbahar": 7258,
      "▁butu": 7259,
      "on": 7260,
      "▁arkadasları": 7261,
      "emeyi": 7262,
      "an'ın": 7263,
      "▁for": 7264,
      "▁oldugun": 7265,
      "▁acım": 7266,
      "▁eks": 7267,
      "▁oldukca": 7268,
      "▁basla": 7269,
      "alıga": 7270,
      "eyen": 7271,
      "▁1'den": 7272,
      "▁nakit": 7273,
      "▁gozda": 7274,
      "▁kusun": 7275,
      "▁isliyor": 7276,
      "▁haftanın": 7277,
      "▁esrar": 7278,
      "▁kontratı": 7279,
      "▁yapması": 7280,
      "eysel": 7281,
      "▁istirak": 7282,
      "▁metrik": 7283,
      "▁karton": 7284,
      "lbu": 7285,
      "iyle": 7286,
      "▁burokrasi": 7287,
      "egimiz": 7288,
      "▁gozalt": 7289,
      "▁tutt": 7290,
      "▁fut": 7291,
      "▁burokr": 7292,
      "▁ahır": 7293,
      "▁etmistir": 7294,
      "▁ter": 7295,
      "▁mot": 7296,
      "▁liber": 7297,
      "▁espri": 7298,
      "▁yaslarına": 7299,
      "▁kaps": 7300,
      "▁borca": 7301,
      "use": 7302,
      "seksen": 7303,
      "▁kardesim": 7304,
      "▁bahar": 7305,
      "▁buz": 7306,
      "▁degiller": 7307,
      "▁topuk": 7308,
      "▁ayva": 7309,
      "tom": 7310,
      "▁suclar": 7311,
      "▁gazetelerde": 7312,
      "▁saatleri": 7313,
      "▁bulundu": 7314,
      "▁mukemmeldi": 7315,
      "eliginde": 7316,
      "▁yanıl": 7317,
      "▁yarıs": 7318,
      "▁tramvay": 7319,
      "▁nazar": 7320,
      "▁muhafazakarlar": 7321,
      "▁bileti": 7322,
      "▁boldu": 7323,
      "▁paket": 7324,
      "▁disip": 7325,
      "▁rıza": 7326,
      "▁oranının": 7327,
      "esti": 7328,
      "▁etiket": 7329,
      "▁rah": 7330,
      "tugu": 7331,
      "▁kirli": 7332,
      "▁sokakta": 7333,
      "▁bakıslarını": 7334,
      "▁varlıklarının": 7335,
      "aları": 7336,
      "▁basımıza": 7337,
      "▁gorus": 7338,
      "▁hacminin": 7339,
      "▁dusen": 7340,
      "▁tepesinde": 7341,
      "gene": 7342,
      "▁egr": 7343,
      "▁bir": 7344,
      "acılıgı": 7345,
      "▁onların": 7346,
      "▁tekne": 7347,
      "luguna": 7348,
      "▁il": 7349,
      "▁bastır": 7350,
      "▁dusurdu": 7351,
      "▁inkar": 7352,
      "▁yasal": 7353,
      "▁huc": 7354,
      "▁sacları": 7355,
      "▁data": 7356,
      "umuze": 7357,
      "▁sacların": 7358,
      "▁kıymet": 7359,
      "gam": 7360,
      "▁kullanmadik": 7361,
      "▁neticesinde": 7362,
      "/4'e": 7363,
      "▁icimden": 7364,
      "▁endeks": 7365,
      "yst": 7366,
      "itmek": 7367,
      "▁ikram": 7368,
      "mafi": 7369,
      ".85": 7370,
      "▁ucuyor": 7371,
      "▁koyden": 7372,
      "▁bahcıvan": 7373,
      "▁uyeye": 7374,
      "75": 7375,
      "▁hesapları": 7376,
      "liyat": 7377,
      "▁havaalanı": 7378,
      "▁eksiklik": 7379,
      "▁ipotekler": 7380,
      "▁soz": 7381,
      "▁bakısları": 7382,
      "▁mahsulu": 7383,
      "▁dikkat": 7384,
      "ikten": 7385,
      "tluk": 7386,
      "▁bira": 7387,
      "▁icimi": 7388,
      "▁mucadelenin": 7389,
      "lan": 7390,
      "▁falan": 7391,
      "▁seklinde": 7392,
      "▁olanlara": 7393,
      "emem": 7394,
      "ite": 7395,
      "▁sonbahar": 7396,
      "▁kiralam": 7397,
      "▁yuzdelik": 7398,
      "▁dordu": 7399,
      "▁cehr": 7400,
      "ere": 7401,
      "▁olup": 7402,
      "ırıp": 7403,
      "▁fez": 7404,
      "▁yılda": 7405,
      "▁olursa": 7406,
      "▁kablo": 7407,
      "▁dusmanları": 7408,
      "▁duygularını": 7409,
      "iyatri": 7410,
      "▁isgali": 7411,
      "▁manasıyla": 7412,
      "▁kumarbaz": 7413,
      "lt": 7414,
      "▁patatesleri": 7415,
      "▁cıkarır": 7416,
      "▁kesilmis": 7417,
      "▁cene": 7418,
      "▁gercekte": 7419,
      "▁alacaklılar": 7420,
      "▁oranlarının": 7421,
      "▁ahen": 7422,
      "ilmesini": 7423,
      "▁sularda": 7424,
      "▁sor": 7425,
      "▁dervis": 7426,
      "▁toplantıya": 7427,
      "▁doktor": 7428,
      "▁verme": 7429,
      "▁yurtdısına": 7430,
      "▁filozof": 7431,
      "▁gorgu": 7432,
      "▁haz": 7433,
      "▁bayagi": 7434,
      "▁guzelligi": 7435,
      "▁markaları": 7436,
      "▁dair": 7437,
      "▁araplar": 7438,
      "▁kitap": 7439,
      "▁ya": 7440,
      "▁ruzg": 7441,
      "▁maliyetlerinin": 7442,
      "▁dereden": 7443,
      "▁kestane": 7444,
      "lamasının": 7445,
      "▁secimleri": 7446,
      "ni": 7447,
      "ısıklı": 7448,
      "▁yılb": 7449,
      "▁yuregim": 7450,
      "ılmaya": 7451,
      "▁kapılarını": 7452,
      "ladıkları": 7453,
      "▁dosy": 7454,
      "abıyla": 7455,
      "▁degil": 7456,
      "▁tatli": 7457,
      "▁bicimine": 7458,
      "▁kasıgı": 7459,
      "▁pazarlarda": 7460,
      "▁telgraf": 7461,
      "▁gelmez": 7462,
      "▁sezonu": 7463,
      "tus": 7464,
      "▁kokulu": 7465,
      "▁noktasında": 7466,
      "uston": 7467,
      "▁boyle": 7468,
      "▁sıtma": 7469,
      "▁kan": 7470,
      "▁ekim": 7471,
      "▁iceriye": 7472,
      "▁neyse": 7473,
      "▁meclisi": 7474,
      "▁kapılarında": 7475,
      "▁120": 7476,
      "gınlık": 7477,
      "▁faydalan": 7478,
      "▁birbirleriyle": 7479,
      "tarak": 7480,
      "eyim": 7481,
      "▁ihmal": 7482,
      "▁yetkililerin": 7483,
      "dikleri": 7484,
      "▁halkını": 7485,
      "▁yenilik": 7486,
      "▁kayıtları": 7487,
      "▁isti": 7488,
      "▁makb": 7489,
      "▁alb": 7490,
      "ergah": 7491,
      "▁kodu": 7492,
      "▁kalmadik": 7493,
      "▁bilir": 7494,
      "▁yazının": 7495,
      "▁spekulasyonlar": 7496,
      "▁set": 7497,
      "▁fatur": 7498,
      "▁etti": 7499,
      "▁sozlerine": 7500,
      "▁hizmetlerinin": 7501,
      "▁sahiplerinden": 7502,
      "▁hızlı": 7503,
      "oker": 7504,
      "▁adamları": 7505,
      "anıklıgı": 7506,
      "masıyla": 7507,
      "▁enst": 7508,
      "▁ucagının": 7509,
      "lor": 7510,
      "uv": 7511,
      "▁yetenegine": 7512,
      "▁pacific": 7513,
      "esinin": 7514,
      "▁hucreleri": 7515,
      "hanede": 7516,
      "▁sermayeyi": 7517,
      "▁haval": 7518,
      "▁seneye": 7519,
      "dıktan": 7520,
      "▁talep": 7521,
      "▁norm": 7522,
      "▁keci": 7523,
      "▁santral": 7524,
      "▁numar": 7525,
      "ren": 7526,
      "▁olduk": 7527,
      "▁gelmistir": 7528,
      "▁sallan": 7529,
      "▁ıyla": 7530,
      "▁hayret": 7531,
      "▁koridor": 7532,
      "▁renginde": 7533,
      "▁yasadık": 7534,
      "▁1985": 7535,
      "▁adeta": 7536,
      "▁mevduat": 7537,
      "▁ı": 7538,
      "▁enerj": 7539,
      "oludur": 7540,
      "▁beklent": 7541,
      "▁ata": 7542,
      "▁ikinci": 7543,
      "hayet": 7544,
      "▁cereyan": 7545,
      "yse": 7546,
      "▁yasaya": 7547,
      "▁polis": 7548,
      "▁havay": 7549,
      "▁caddeyi": 7550,
      "▁guney": 7551,
      "▁aqu": 7552,
      "▁sum": 7553,
      "▁lun": 7554,
      "ima": 7555,
      "▁yatırımcılara": 7556,
      "▁ailesine": 7557,
      "▁intern": 7558,
      "▁birine": 7559,
      "▁hisselerin": 7560,
      "▁seviyesinde": 7561,
      "▁38": 7562,
      "▁uste": 7563,
      "▁istegi": 7564,
      "yiz": 7565,
      "▁phil": 7566,
      "▁yuv": 7567,
      "ektedir": 7568,
      "▁sıcak": 7569,
      "▁bankalarının": 7570,
      "▁dansı": 7571,
      "sı": 7572,
      "▁sayi": 7573,
      "1'de": 7574,
      "tası": 7575,
      "ilini": 7576,
      "▁1970'": 7577,
      "▁galib": 7578,
      "▁istiklal": 7579,
      "[MASK]": 7580,
      "▁havayollarını": 7581,
      "▁tarihinde": 7582,
      "▁turkiye'de": 7583,
      "▁seneden": 7584,
      "▁bazda": 7585,
      "▁yanına": 7586,
      "▁suresini": 7587,
      "▁aynen": 7588,
      "▁kamu": 7589,
      "▁karsılıgı": 7590,
      "▁gas": 7591,
      "▁vs": 7592,
      "▁ın": 7593,
      "uktu": 7594,
      "▁terbiy": 7595,
      "▁eylemi": 7596,
      "▁boyutta": 7597,
      "'le": 7598,
      "▁1'de": 7599,
      "larıdır": 7600,
      "▁helikopter": 7601,
      "▁soyadı": 7602,
      "etro": 7603,
      "▁yig": 7604,
      "kındaki": 7605,
      "▁devlete": 7606,
      "▁okulunda": 7607,
      "▁parcalar": 7608,
      "▁sal": 7609,
      "piyat": 7610,
      "sun": 7611,
      "▁dayalı": 7612,
      "▁konsept": 7613,
      "sin": 7614,
      "▁isyan": 7615,
      "▁sagduy": 7616,
      "▁nem": 7617,
      "▁day": 7618,
      "orleri": 7619,
      "irdi": 7620,
      "▁ellerinin": 7621,
      "▁havuzlar": 7622,
      "▁gozlerim": 7623,
      "▁hakkını": 7624,
      "▁tumunu": 7625,
      "▁elestirmenler": 7626,
      "▁ydu": 7627,
      "▁odalari": 7628,
      "▁sacmalık": 7629,
      "ilmaz": 7630,
      "▁agızları": 7631,
      "▁kardesleri": 7632,
      "▁erkek": 7633,
      "▁gunku": 7634,
      "ebiliyor": 7635,
      "ması": 7636,
      "lukte": 7637,
      "ozof": 7638,
      "▁fiyatını": 7639,
      "▁ismi": 7640,
      "▁sahn": 7641,
      "ri": 7642,
      "▁dos": 7643,
      "asi": 7644,
      "▁ortalaması": 7645,
      "▁sirketinin": 7646,
      "iyorlar": 7647,
      "▁biliyor": 7648,
      "▁sasır": 7649,
      "▁iadesi": 7650,
      "▁limon": 7651,
      "▁kapatıl": 7652,
      "▁yonunde": 7653,
      "▁takımını": 7654,
      "▁per": 7655,
      "▁onur": 7656,
      "▁dususten": 7657,
      "▁dalgalar": 7658,
      "alarla": 7659,
      "▁kenarda": 7660,
      "▁kalpak": 7661,
      "▁geldigi": 7662,
      "▁tutar": 7663,
      "▁kitapta": 7664,
      "▁…": 7665,
      "▁mezar": 7666,
      "▁onerileri": 7667,
      "▁idareye": 7668,
      "kleri": 7669,
      "gara": 7670,
      "▁vet": 7671,
      "olis": 7672,
      "▁iliskiye": 7673,
      "ugu": 7674,
      "▁yerini": 7675,
      "▁yahudi": 7676,
      "▁telaf": 7677,
      "▁feder": 7678,
      "memistir": 7679,
      "▁askerleri": 7680,
      "▁aklınız": 7681,
      "▁illa": 7682,
      "▁memur": 7683,
      "▁saman": 7684,
      "▁hissediyor": 7685,
      "▁satmak": 7686,
      "▁bakanlıgı'nın": 7687,
      "▁musterilerini": 7688,
      "oyu": 7689,
      "▁iliskisi": 7690,
      "▁girisimci": 7691,
      "cegi": 7692,
      "▁gelmedi": 7693,
      "cek": 7694,
      "▁alkol": 7695,
      "▁yasadı": 7696,
      "▁olur": 7697,
      "▁sigorta": 7698,
      "▁kendilerini": 7699,
      "▁rehberi": 7700,
      "▁barın": 7701,
      "▁hosgoru": 7702,
      "▁teknolojisini": 7703,
      "▁aln": 7704,
      "▁nu": 7705,
      "▁kocak": 7706,
      "▁kagıtları": 7707,
      "▁cincinnati": 7708,
      "▁lar": 7709,
      "▁harek": 7710,
      "emiyor": 7711,
      "▁maf": 7712,
      "unuza": 7713,
      "emi": 7714,
      "▁bilimsel": 7715,
      "▁otesi": 7716,
      "▁bilgilerin": 7717,
      "▁arzusu": 7718,
      "▁sofrasında": 7719,
      "▁goruluyor": 7720,
      "ence": 7721,
      "▁boh": 7722,
      "▁kulak": 7723,
      "▁senden": 7724,
      "ert": 7725,
      "▁sigort": 7726,
      "▁kaderi": 7727,
      "▁mintan": 7728,
      "▁sınıfları": 7729,
      "▁alım-satım": 7730,
      "▁gumus": 7731,
      "▁umutlarını": 7732,
      "erlik": 7733,
      "▁vermektedir": 7734,
      "▁araz": 7735,
      "▁dalgalan": 7736,
      "▁ho": 7737,
      "4'de": 7738,
      "▁faizi": 7739,
      "a": 7740,
      "▁bilmem": 7741,
      "▁zaferi": 7742,
      "▁cont": 7743,
      "▁kagı": 7744,
      "▁hepsini": 7745,
      "▁takım": 7746,
      "desi": 7747,
      "▁1992": 7748,
      "ısından": 7749,
      "▁havada": 7750,
      "ulacak": 7751,
      "▁hatt": 7752,
      "▁cır": 7753,
      "▁ablam": 7754,
      "▁ugultu": 7755,
      "digine": 7756,
      "▁oteller": 7757,
      "imen": 7758,
      "ıyla": 7759,
      "omosyon": 7760,
      "00'den": 7761,
      "▁hareketler": 7762,
      "tiz": 7763,
      "▁basrol": 7764,
      "[UNK]": 7765,
      "▁uzun": 7766,
      "▁duruma": 7767,
      "▁ile": 7768,
      "ake": 7769,
      "▁kahvaltisi": 7770,
      "▁beklemek": 7771,
      "▁kavanoz": 7772,
      "▁rakip": 7773,
      "'nu": 7774,
      "▁olmazsa": 7775,
      "▁kupon": 7776,
      "dana": 7777,
      "ıldıgını": 7778,
      "▁radyoyu": 7779,
      "▁hesap": 7780,
      "▁ster": 7781,
      "▁muf": 7782,
      "▁bence": 7783,
      "▁bog": 7784,
      "▁vur": 7785,
      "▁degildim": 7786,
      "▁vatandas": 7787,
      "▁bulbul": 7788,
      "▁karsilik": 7789,
      "▁mab": 7790,
      "isli": 7791,
      "ork": 7792,
      "abını": 7793,
      "▁bahsetti": 7794,
      "▁olacagına": 7795,
      "▁rıhtıma": 7796,
      "▁/": 7797,
      "▁guzeli": 7798,
      "▁kaya": 7799,
      "▁yardımı": 7800,
      "▁parmagını": 7801,
      "▁urunun": 7802,
      "cegini": 7803,
      "▁kabiliyet": 7804,
      "▁yapılacak": 7805,
      "▁iskemle": 7806,
      "lukten": 7807,
      "▁memnunuz": 7808,
      "▁yolunu": 7809,
      "▁yargıclar": 7810,
      "▁sicakti": 7811,
      "▁gorevl": 7812,
      "▁edebiyatın": 7813,
      "▁hepimiz": 7814,
      "▁faturamin": 7815,
      "▁devrimi": 7816,
      "▁sorunlarının": 7817,
      "▁boyunca": 7818,
      "▁bebegi": 7819,
      "▁kesint": 7820,
      "gini": 7821,
      "▁hıy": 7822,
      "▁rul": 7823,
      "▁magazaların": 7824,
      "▁gorevleri": 7825,
      "▁gelisme": 7826,
      "▁dyp": 7827,
      "▁mesafeyi": 7828,
      "▁ic": 7829,
      "amayacag": 7830,
      "▁sozlesmesini": 7831,
      "▁batı": 7832,
      "▁mobilya": 7833,
      "▁bur": 7834,
      "bab": 7835,
      "ayıf": 7836,
      "pan": 7837,
      "▁kapandı": 7838,
      "▁ascı": 7839,
      "bilecegini": 7840,
      "▁engelliler": 7841,
      "▁itibar": 7842,
      "▁aramaya": 7843,
      "▁sokaklar": 7844,
      "'ndan": 7845,
      "▁mekteb": 7846,
      "▁1.5": 7847,
      "▁durumuna": 7848,
      "▁bonoları": 7849,
      "ugunun": 7850,
      "▁nefes": 7851,
      "▁havayolları": 7852,
      "▁ekledi": 7853,
      "larımdan": 7854,
      "▁kenarında": 7855,
      "ın": 7856,
      "▁met": 7857,
      "▁carp": 7858,
      "▁direkt": 7859,
      "inin": 7860,
      "edef": 7861,
      "▁evlat": 7862,
      "▁yetkililere": 7863,
      "ır": 7864,
      "▁57": 7865,
      "acaklarını": 7866,
      "▁memnunduk": 7867,
      "▁transfer": 7868,
      "▁anlas": 7869,
      "▁yapar": 7870,
      "▁ail": 7871,
      "▁durusma": 7872,
      "▁terey": 7873,
      "▁istikamet": 7874,
      "▁salep": 7875,
      "▁kacta": 7876,
      "asa": 7877,
      "▁muhac": 7878,
      "▁ayna": 7879,
      "▁top": 7880,
      "▁taksit": 7881,
      "▁odalar": 7882,
      "▁gelistirmeye": 7883,
      "▁malzemesi": 7884,
      "suzdu": 7885,
      "▁gelmis": 7886,
      "▁dolap": 7887,
      "▁nufusu": 7888,
      "▁gidiyoruz": 7889,
      "-p": 7890,
      "▁zırh": 7891,
      "▁kum": 7892,
      "▁odası": 7893,
      "▁sıkı": 7894,
      "elleri": 7895,
      "▁varlıklarını": 7896,
      "▁suları": 7897,
      "▁ucları": 7898,
      "▁kadayıf": 7899,
      "▁dunyaya": 7900,
      "▁eg": 7901,
      "▁vererek": 7902,
      "▁dikis": 7903,
      "▁cıkınca": 7904,
      "▁yapabil": 7905,
      "▁degerlendir": 7906,
      "▁ner": 7907,
      "dın": 7908,
      "▁baglant": 7909,
      "▁“": 7910,
      "▁mudafa": 7911,
      "irk": 7912,
      "▁jon": 7913,
      "emmel": 7914,
      "▁sirketini": 7915,
      "▁al": 7916,
      "▁cam": 7917,
      "▁yuc": 7918,
      "▁parayi": 7919,
      "▁girer": 7920,
      "▁nakliye": 7921,
      "angi": 7922,
      "▁havale": 7923,
      "▁kapılar": 7924,
      "▁yorumu": 7925,
      "▁konuyu": 7926,
      "phia": 7927,
      "essus": 7928,
      "inize": 7929,
      "▁geldiginde": 7930,
      "▁arpa": 7931,
      "▁29": 7932,
      "▁sunuyor": 7933,
      "▁haline": 7934,
      "▁tesisler": 7935,
      "▁oto": 7936,
      "▁kafil": 7937,
      "▁vergiyi": 7938,
      "▁anasının": 7939,
      "3.2": 7940,
      "▁icme": 7941,
      "▁yaln": 7942,
      "iret": 7943,
      "▁akciger": 7944,
      "▁acmıs": 7945,
      "▁pittsburgh'a": 7946,
      "mıyorum": 7947,
      "▁yah": 7948,
      "▁kaleci": 7949,
      "acıya": 7950,
      "luk": 7951,
      "▁sefalet": 7952,
      "▁ulkeden": 7953,
      "▁cıkısı": 7954,
      "▁obj": 7955,
      "▁muttef": 7956,
      "▁oturumda": 7957,
      "▁kupeler": 7958,
      "▁satımında": 7959,
      "▁zek": 7960,
      "▁cekim": 7961,
      "▁arkadasımla": 7962,
      "▁ticaretinin": 7963,
      "▁padisah": 7964,
      "▁herhalde": 7965,
      "▁halka": 7966,
      "▁bunal": 7967,
      "▁ret": 7968,
      "zır": 7969,
      "▁ci": 7970,
      "▁zum": 7971,
      "▁dusmanın": 7972,
      "▁geriledi": 7973,
      "▁sayıda": 7974,
      "uzu": 7975,
      "▁hepsi": 7976,
      "▁iliskinin": 7977,
      "▁direksiyon": 7978,
      "▁yayın": 7979,
      "▁kiralama": 7980,
      "▁problemleri": 7981,
      "'na": 7982,
      "ala": 7983,
      "▁sonuclar": 7984,
      "▁ayni": 7985,
      "▁emegi": 7986,
      "yıp": 7987,
      "▁yapıldı": 7988,
      "dev": 7989,
      "▁denizinden": 7990,
      "▁isle": 7991,
      "liye": 7992,
      "▁tasımacılıgı": 7993,
      "unda": 7994,
      "▁birini": 7995,
      "▁sembol": 7996,
      "▁atıf": 7997,
      "▁degirmen": 7998,
      "▁46": 7999,
      "▁ayagına": 8000,
      "▁kisiligi": 8001,
      "eyip": 8002,
      "▁uyu": 8003,
      "▁asla": 8004,
      "▁gaf": 8005,
      "dırma": 8006,
      "▁no": 8007,
      "▁ureticiler": 8008,
      "urdu": 8009,
      "▁zamanların": 8010,
      "ugune": 8011,
      "lamur": 8012,
      "iyorsun": 8013,
      "azım": 8014,
      "ob": 8015,
      "▁bitti": 8016,
      "▁yemekte": 8017,
      "▁kasırg": 8018,
      "▁saclarını": 8019,
      "▁goren": 8020,
      "▁karsılıklı": 8021,
      "▁sinema": 8022,
      "▁gozun": 8023,
      "▁teraz": 8024,
      "burg": 8025,
      "▁atılım": 8026,
      "▁31": 8027,
      "altı": 8028,
      "▁dersi": 8029,
      "▁uzerindeydi": 8030,
      "▁pazara": 8031,
      "ihan": 8032,
      "▁dusunur": 8033,
      "▁tatbik": 8034,
      "▁teknik": 8035,
      "▁suyun": 8036,
      "pa": 8037,
      "▁karsılık": 8038,
      "▁listesi": 8039,
      "▁urunu": 8040,
      "▁zira": 8041,
      "▁maden": 8042,
      "▁ogut": 8043,
      "▁c": 8044,
      "▁kıskanclık": 8045,
      "larımızdan": 8046,
      "lemesi": 8047,
      "mustum": 8048,
      "▁carda": 8049,
      "▁sektor": 8050,
      "asına": 8051,
      "​": 8052,
      "▁pec": 8053,
      "▁tuvalet": 8054,
      "▁tab": 8055,
      "▁tahvilin": 8056,
      "▁cur": 8057,
      "am": 8058,
      "▁kıyı": 8059,
      "▁bad": 8060,
      "lanmıstı": 8061,
      "▁sukun": 8062,
      "▁isin": 8063,
      "▁utan": 8064,
      "▁yildiz": 8065,
      "▁kesimi": 8066,
      "▁atolye": 8067,
      "▁cografya": 8068,
      "▁oldugundan": 8069,
      "elere": 8070,
      "▁olabilirdi": 8071,
      "katli": 8072,
      "int": 8073,
      "▁ulkelerde": 8074,
      "▁kacır": 8075,
      "▁kerp": 8076,
      "▁tuccarı": 8077,
      "▁oranla": 8078,
      "▁fıs": 8079,
      "ane": 8080,
      "lerime": 8081,
      "▁eskiydi": 8082,
      "kinden": 8083,
      "▁kktc": 8084,
      "▁dalgası": 8085,
      "▁kitleye": 8086,
      "▁cizgiler": 8087,
      "▁lak": 8088,
      "lenme": 8089,
      "▁grubunun": 8090,
      "▁muhtesemdi": 8091,
      "▁karsı": 8092,
      "▁baskasının": 8093,
      "▁tutarı": 8094,
      "usturdu": 8095,
      "▁yusuf": 8096,
      "▁demiryolu": 8097,
      "‘": 8098,
      "/2": 8099,
      "▁panik": 8100,
      "▁sorun": 8101,
      "▁nedenlerden": 8102,
      "usuyla": 8103,
      "▁gorevini": 8104,
      "5'i": 8105,
      "eb": 8106,
      "▁davranmak": 8107,
      "▁rekabeti": 8108,
      "▁gerekcesiyle": 8109,
      "▁kabile": 8110,
      "▁yapım": 8111,
      "▁op": 8112,
      "ulmustu": 8113,
      "▁yonleriyle": 8114,
      "'sini": 8115,
      "ligin": 8116,
      "▁his": 8117,
      "2'ye": 8118,
      "▁hot": 8119,
      "bert": 8120,
      "▁camek": 8121,
      "▁yone": 8122,
      "▁artırmayı": 8123,
      "▁basladılar": 8124,
      "▁tarım": 8125,
      "▁sıhh": 8126,
      "▁terfi": 8127,
      "▁gelecekteki": 8128,
      "uluyor": 8129,
      "ullu": 8130,
      "▁kıskanc": 8131,
      "▁sıcaklık": 8132,
      "▁olumle": 8133,
      "adıgı": 8134,
      "div": 8135,
      "men": 8136,
      "ıcısı": 8137,
      "▁tedavulde": 8138,
      "▁mers": 8139,
      "▁vucuduna": 8140,
      "▁talih": 8141,
      "▁duzel": 8142,
      "▁vucuda": 8143,
      "▁recel": 8144,
      "▁kisilere": 8145,
      "▁nasip": 8146,
      "▁diye": 8147,
      "▁tane": 8148,
      "▁yıllık": 8149,
      "▁biraz": 8150,
      "▁geriye": 8151,
      "▁studyo": 8152,
      "▁derinlik": 8153,
      "▁koyu": 8154,
      "▁otek": 8155,
      "▁surdugunu": 8156,
      "alandır": 8157,
      "▁vakası": 8158,
      "▁geril": 8159,
      "yayı": 8160,
      "ilir": 8161,
      "derek": 8162,
      "▁aydan": 8163,
      "▁etkisini": 8164,
      "▁mesleg": 8165,
      "rada": 8166,
      "▁far": 8167,
      "▁sikay": 8168,
      "▁gecmiste": 8169,
      "▁soy": 8170,
      "▁ihtiyacı": 8171,
      "▁ucagına": 8172,
      "ank": 8173,
      "▁onumuze": 8174,
      "▁vegas'a": 8175,
      "▁cesedi": 8176,
      "▁yuzeyinde": 8177,
      "▁saglamak": 8178,
      "▁hibe": 8179,
      "▁incelem": 8180,
      "▁40": 8181,
      "ledi": 8182,
      "▁etmek": 8183,
      "tıgına": 8184,
      "▁alab": 8185,
      "▁okyan": 8186,
      "▁sagda": 8187,
      "▁cum": 8188,
      "fi": 8189,
      "▁tahvillerin": 8190,
      "▁ayag": 8191,
      "▁!..": 8192,
      "▁bagıs": 8193,
      "kt": 8194,
      "▁donan": 8195,
      "▁ortami": 8196,
      "▁kiz": 8197,
      "▁slog": 8198,
      "▁artık": 8199,
      "▁hanimla": 8200,
      "▁duy": 8201,
      "▁okur": 8202,
      "vet": 8203,
      "▁delikanlı": 8204,
      "▁yardımc": 8205,
      "▁arkadasimla": 8206,
      "▁gorustuk": 8207,
      "▁ilgisinden": 8208,
      "▁yapr": 8209,
      "anlar": 8210,
      "▁bireysel": 8211,
      "▁kazasından": 8212,
      "▁olmas": 8213,
      "▁newark'a": 8214,
      "▁odanın": 8215,
      "▁durur": 8216,
      "▁gununden": 8217,
      "▁acıklıyor": 8218,
      "▁tahsis": 8219,
      "ly": 8220,
      "lip": 8221,
      "miz": 8222,
      "▁mutfaga": 8223,
      "▁kentinde": 8224,
      "▁projede": 8225,
      "▁sıvı": 8226,
      "▁politikaları": 8227,
      "▁haberleri": 8228,
      "▁anlıs": 8229,
      "▁sek": 8230,
      "▁ihal": 8231,
      "▁rakamları": 8232,
      "▁tekstil": 8233,
      "▁rekor": 8234,
      "▁alındıgında": 8235,
      "▁kazanclar": 8236,
      "▁cincinnati'den": 8237,
      "▁sandıg": 8238,
      "▁dusunmeye": 8239,
      "▁tıg": 8240,
      "▁yapmıs": 8241,
      "▁ital": 8242,
      "organ": 8243,
      "▁heg": 8244,
      "ilikleri": 8245,
      "▁bakmak": 8246,
      "▁ilgiyle": 8247,
      "lup": 8248,
      "▁haric": 8249,
      "▁gogsunde": 8250,
      "▁dayı": 8251,
      "▁satın": 8252,
      "▁yasına": 8253,
      "▁derste": 8254,
      "▁hop": 8255,
      "▁saraydan": 8256,
      "▁belg": 8257,
      "las": 8258,
      "sizdi": 8259,
      "lamiyorum": 8260,
      "▁ayrılmak": 8261,
      "▁aklı": 8262,
      "▁montreal'a": 8263,
      "▁federal": 8264,
      "abil": 8265,
      "▁bahcı": 8266,
      "▁yapın": 8267,
      "▁iliskiler": 8268,
      "▁ipotege": 8269,
      "ndeki": 8270,
      "▁kilis": 8271,
      "▁isaretler": 8272,
      "▁global": 8273,
      "up": 8274,
      "▁goruntu": 8275,
      "▁isabet": 8276,
      "▁karsısında": 8277,
      "▁miktarı": 8278,
      "▁bekar": 8279,
      "▁sorunun": 8280,
      "▁istim": 8281,
      "isk": 8282,
      "▁askere": 8283,
      "▁yat": 8284,
      "▁ziyade": 8285,
      "landırdı": 8286,
      "boy": 8287,
      "▁sınırları": 8288,
      "ucusu": 8289,
      "▁veri": 8290,
      "▁ithalatı": 8291,
      "▁dus": 8292,
      "▁ahlak": 8293,
      "▁ilc": 8294,
      "▁business": 8295,
      "'": 8296,
      "otu": 8297,
      "▁verdi": 8298,
      "▁rep": 8299,
      "▁belirtil": 8300,
      "▁bircogu": 8301,
      "▁katında": 8302,
      "▁etmemek": 8303,
      "asız": 8304,
      "▁aldigim": 8305,
      "maktır": 8306,
      "▁solda": 8307,
      "▁arkasını": 8308,
      "▁dar": 8309,
      "▁ceker": 8310,
      "▁kadınlarla": 8311,
      "▁28": 8312,
      "▁plan": 8313,
      "bat": 8314,
      "▁kagıda": 8315,
      "▁bolgelerinde": 8316,
      "▁ulkeye": 8317,
      "▁koltukta": 8318,
      "▁mektuplar": 8319,
      "▁asın": 8320,
      "▁olusturuyor": 8321,
      "▁madem": 8322,
      "and": 8323,
      "▁lek": 8324,
      "▁aklının": 8325,
      "▁yuzunu": 8326,
      "ahlık": 8327,
      "▁ucusunun": 8328,
      "▁gelmiyor": 8329,
      "▁ortalamaydi": 8330,
      "▁tereyagı": 8331,
      "▁isterseniz": 8332,
      "▁calar": 8333,
      "madı": 8334,
      "▁ressam": 8335,
      "▁ulas": 8336,
      "▁operasyon": 8337,
      "▁istedigini": 8338,
      "▁yaptirmadim": 8339,
      "▁duvarı": 8340,
      "▁perakende": 8341,
      "▁kr": 8342,
      "▁yorgan": 8343,
      "▁tencereyi": 8344,
      "ass": 8345,
      "▁yalan": 8346,
      "▁onundeki": 8347,
      "▁arastır": 8348,
      "▁sapka": 8349,
      "▁ron": 8350,
      "▁puanlık": 8351,
      "▁nasıl": 8352,
      "▁lisan": 8353,
      "▁gorunus": 8354,
      "▁bahtiyar": 8355,
      "▁buradan": 8356,
      "▁piyasaların": 8357,
      "ilig": 8358,
      "▁yasan": 8359,
      "▁rehberimiz": 8360,
      "▁rakı": 8361,
      "▁yolculugun": 8362,
      "▁hemsire": 8363,
      "▁suclam": 8364,
      "▁teshir": 8365,
      "▁aslı": 8366,
      "▁uygu": 8367,
      "▁degi": 8368,
      "▁so": 8369,
      "▁liralık": 8370,
      "▁atalarımızın": 8371,
      "▁ydı": 8372,
      "▁inancı": 8373,
      "▁sebepleri": 8374,
      "▁gorevine": 8375,
      "▁tahakkuk": 8376,
      "▁basarılı": 8377,
      "▁alar": 8378,
      "▁jaguar": 8379,
      "▁kartel": 8380,
      "▁brosur": 8381,
      "▁ciz": 8382,
      "▁iktid": 8383,
      "▁muamelesi": 8384,
      "▁fincanını": 8385,
      "▁iletisim": 8386,
      "▁ucuslarda": 8387,
      "ig": 8388,
      "▁vis": 8389,
      "▁soylemedi": 8390,
      "▁ilgilendi": 8391,
      "▁yagm": 8392,
      "▁gosterisi": 8393,
      "▁zeka": 8394,
      "yuzlu": 8395,
      "▁ısrar": 8396,
      "kat": 8397,
      "▁tedavul": 8398,
      "▁cesitliydi": 8399,
      "▁kulturune": 8400,
      "▁universit": 8401,
      "▁kerem": 8402,
      "▁belirsizlik": 8403,
      "▁toparlanma": 8404,
      "lesme": 8405,
      "arası": 8406,
      "▁doları": 8407,
      "▁vucut": 8408,
      "▁alana": 8409,
      "▁zamanla": 8410,
      "▁bufe": 8411,
      "▁birlesme": 8412,
      "aket": 8413,
      "▁kalıb": 8414,
      "ali": 8415,
      "▁astr": 8416,
      "▁gan": 8417,
      "▁devrim": 8418,
      "▁hareketle": 8419,
      "▁kayıpların": 8420,
      "lıgından": 8421,
      "▁hizmetinden": 8422,
      "▁asagı": 8423,
      "▁kaldırdı": 8424,
      "▁ak": 8425,
      "▁sezlon": 8426,
      "▁anım": 8427,
      "▁yunus": 8428,
      "▁ucurt": 8429,
      "unun": 8430,
      "▁luks": 8431,
      "▁uretim": 8432,
      "lastırmak": 8433,
      "ant": 8434,
      "liy": 8435,
      "ıklıgı": 8436,
      "▁ilkeleri": 8437,
      "melerde": 8438,
      "▁dilde": 8439,
      "▁oyuncusu": 8440,
      "▁bav": 8441,
      "▁golg": 8442,
      "akti": 8443,
      "mıyoruz": 8444,
      "▁tahkim": 8445,
      "▁maddeleri": 8446,
      "ep": 8447,
      "▁kalktı": 8448,
      "▁kadav": 8449,
      "cilikle": 8450,
      "ize": 8451,
      "▁artıslar": 8452,
      "gen": 8453,
      "▁odayi": 8454,
      "acasına": 8455,
      "mıs": 8456,
      "▁golge": 8457,
      "▁verime": 8458,
      "▁anket": 8459,
      "imize": 8460,
      "▁ihtilaf": 8461,
      "▁balık": 8462,
      "▁hal": 8463,
      "▁;": 8464,
      "▁cekirde": 8465,
      "ed": 8466,
      "ıldı": 8467,
      "alarımız": 8468,
      "▁kucagına": 8469,
      "▁hile": 8470,
      "▁basamak": 8471,
      "▁teknenin": 8472,
      "urdum": 8473,
      "ca": 8474,
      "layacak": 8475,
      "▁icindir": 8476,
      "▁spor": 8477,
      "▁if": 8478,
      "teki": 8479,
      "▁unvan": 8480,
      "iyorsunuz": 8481,
      "▁yasayan": 8482,
      "▁duyg": 8483,
      "▁uluslar": 8484,
      "▁oturu": 8485,
      "▁misin": 8486,
      "▁kent": 8487,
      "▁gali": 8488,
      "oksa": 8489,
      "▁oc": 8490,
      "▁piyasası": 8491,
      "macı": 8492,
      "▁kume": 8493,
      "▁artısı": 8494,
      "narak": 8495,
      "lerinizi": 8496,
      "▁pak": 8497,
      "umla": 8498,
      "▁onlemler": 8499,
      "▁peynir": 8500,
      "▁onumuzde": 8501,
      "▁kutuphane": 8502,
      "▁sigarasını": 8503,
      "▁istemiyor": 8504,
      "▁zember": 8505,
      "▁onune": 8506,
      "duguna": 8507,
      "▁esyalarını": 8508,
      "erler": 8509,
      "▁babasının": 8510,
      "▁kabahat": 8511,
      "▁dogur": 8512,
      "▁kata": 8513,
      "▁derken": 8514,
      "▁elbise": 8515,
      "▁hatıra": 8516,
      "▁demokras": 8517,
      "▁karyol": 8518,
      "▁general": 8519,
      "▁kudret": 8520,
      "▁nedenler": 8521,
      "▁katılımcı": 8522,
      "r": 8523,
      "ıg": 8524,
      "lige": 8525,
      "▁kole": 8526,
      "▁kayna": 8527,
      "▁tasımaya": 8528,
      "▁atesten": 8529,
      "ardan": 8530,
      "▁oldugumuz": 8531,
      "▁bolun": 8532,
      "▁tahammul": 8533,
      "istler": 8534,
      "inlik": 8535,
      "▁gecis": 8536,
      "itr": 8537,
      "▁hayalet": 8538,
      "▁edilebilir": 8539,
      "▁bahtiy": 8540,
      "▁yarısının": 8541,
      "▁malzem": 8542,
      "▁bayr": 8543,
      "▁talebinin": 8544,
      "erdeki": 8545,
      "▁ederdi": 8546,
      "▁sozun": 8547,
      "▁1.2": 8548,
      "ciligi": 8549,
      "▁dili": 8550,
      "▁erkeklere": 8551,
      "▁kaka": 8552,
      "▁cabalarını": 8553,
      "▁agızlarına": 8554,
      "▁kaldır": 8555,
      "▁gemiler": 8556,
      "▁savcılık": 8557,
      "▁gunleri": 8558,
      "▁istif": 8559,
      "▁kazası": 8560,
      "▁uzman": 8561,
      "mesini": 8562,
      "▁sırtına": 8563,
      "tt": 8564,
      "▁tartısmayı": 8565,
      "are": 8566,
      "▁fotografta": 8567,
      "▁5'te": 8568,
      "▁katal": 8569,
      "▁fazlası": 8570,
      "▁dusecegini": 8571,
      "▁otomobil": 8572,
      "▁imal": 8573,
      "▁televizyonda": 8574,
      "▁samimiyet": 8575,
      "▁kokuyor": 8576,
      "▁isi": 8577,
      "▁programın": 8578,
      "▁odasının": 8579,
      "▁konusunu": 8580,
      "▁yargı": 8581,
      "▁nisp": 8582,
      "▁capta": 8583,
      "dirdi": 8584,
      "lugunu": 8585,
      "uldugunu": 8586,
      "▁dal": 8587,
      "▁kredi": 8588,
      "daydı": 8589,
      "▁gerek": 8590,
      "▁bircok": 8591,
      "00": 8592,
      "sizligi": 8593,
      "kin": 8594,
      "'nda": 8595,
      "▁sozlesmesi": 8596,
      "▁indi": 8597,
      "▁sahıs": 8598,
      "▁deng": 8599,
      "▁kapının": 8600,
      "▁di": 8601,
      "▁denilen": 8602,
      "▁tasarruflar": 8603,
      "▁yuzmek": 8604,
      "iden": 8605,
      "▁cocuklarını": 8606,
      "▁aklına": 8607,
      "ılım": 8608,
      "▁kullanımı": 8609,
      "▁damga": 8610,
      "er": 8611,
      "▁bır": 8612,
      "▁yiyor": 8613,
      "▁orası": 8614,
      "for": 8615,
      "edav": 8616,
      "▁cevabını": 8617,
      "▁temyiz": 8618,
      "▁gecenin": 8619,
      "▁yerlerden": 8620,
      "▁kodunu": 8621,
      "▁mahkemede": 8622,
      "▁reasur": 8623,
      "▁80'": 8624,
      "asıyla": 8625,
      "▁biletin": 8626,
      "▁vermis": 8627,
      "atesi": 8628,
      "ustuk": 8629,
      "▁geceyi": 8630,
      "▁dayım": 8631,
      "▁gru": 8632,
      "▁isimlerini": 8633,
      "ip": 8634,
      "lek": 8635,
      "▁harcama": 8636,
      "▁br": 8637,
      "▁konferans": 8638,
      "▁basketbol": 8639,
      "▁artır": 8640,
      "mustu": 8641,
      "▁hep": 8642,
      "▁post": 8643,
      "irleri": 8644,
      "▁utanc": 8645,
      "isinde": 8646,
      "uyorlar": 8647,
      "▁yerlerini": 8648,
      "leyiciler": 8649,
      "▁yazarlar": 8650,
      "uklugu": 8651,
      "ilisi": 8652,
      "▁siddete": 8653,
      "▁yararı": 8654,
      "▁parktan": 8655,
      "ul": 8656,
      "▁3": 8657,
      "mamız": 8658,
      "▁aklından": 8659,
      "▁mucadelesi": 8660,
      "▁panige": 8661,
      "▁iletisimi": 8662,
      "acag": 8663,
      "▁yaptı": 8664,
      "lıgım": 8665,
      "▁oglak": 8666,
      "▁kralic": 8667,
      "eyaz": 8668,
      "osun": 8669,
      "v": 8670,
      "▁servisten": 8671,
      "▁oglen": 8672,
      "▁pu": 8673,
      "uma": 8674,
      "ıyordu": 8675,
      "▁kaldıgı": 8676,
      "▁arabasıyla": 8677,
      "▁tulb": 8678,
      "▁derecede": 8679,
      "▁hanımef": 8680,
      "▁ihtim": 8681,
      "ast": 8682,
      "▁kactı": 8683,
      "▁dinle": 8684,
      "gulu": 8685,
      "▁alıp": 8686,
      "▁gib": 8687,
      "bu": 8688,
      "▁ayakkabılarını": 8689,
      "▁kimsenin": 8690,
      "▁bankanın": 8691,
      "▁projeyi": 8692,
      "▁etmeye": 8693,
      "▁serveti": 8694,
      "▁azalarak": 8695,
      "▁erik": 8696,
      "▁fare": 8697,
      "▁..": 8698,
      "▁iyice": 8699,
      "▁dinliyor": 8700,
      "ecektim": 8701,
      "▁onar": 8702,
      "▁omur": 8703,
      "kti": 8704,
      "▁azalması": 8705,
      "▁seker": 8706,
      "▁gidebilir": 8707,
      "ikat": 8708,
      "ise": 8709,
      "▁sozcukleri": 8710,
      "▁dondur": 8711,
      "▁kuvvetin": 8712,
      "▁yetersizligi": 8713,
      "undeki": 8714,
      "▁isleri": 8715,
      "▁dev": 8716,
      "▁itiraf": 8717,
      "▁doneminin": 8718,
      "▁inan": 8719,
      "ecegini": 8720,
      "lanmasını": 8721,
      "alay": 8722,
      "▁muh": 8723,
      "abilirdi": 8724,
      "▁kuv": 8725,
      "▁kategor": 8726,
[...]
