{
  "version": "1.0",
  "truncation": null,
  "padding": null,
  "added_tokens": [
    {
      "id": 369,
      "content": "[CLS]",
      "single_word": false,
      "lstrip": false,
      "rstrip": false,
      "normalized": false,
      "special": true
    },
    {
      "id": 1098,
      "content": "[UNK]",
      "single_word": false,
      "lstrip": false,
      "rstrip": false,
      "normalized": false,
      "special": true
    },
    {
      "id": 1578,
      "content": "[MASK]",
      "single_word": false,
      "lstrip": false,
      "rstrip": false,
      "normalized": false,
      "special": true
    },
    {
      "id": 3109,
      "content": "[SEP]",
      "single_word": false,
      "lstrip": false,
      "rstrip": false,
      "normalized": false,
      "special": true
    },
    {
      "id": 3948,
      "content": "[PAD]",
      "single_word": false,
      "lstrip": false,
      "rstrip": false,
      "normalized": false,
      "special": true
    }
  ],
  "normalizer": {
    "type": "Sequence",
    "normalizers": [
      {
        "type": "NFD"
      },
      {
        "type": "Lowercase"
      },
      {
        "type": "StripAccents"
      }
    ]
  },
  "pre_tokenizer": {
    "type": "Sequence",
    "pretokenizers": [
      {
        "type": "Metaspace",
        "replacement": "▁",
        "prepend_scheme": "always",
        "split": true
      }
    ]
  },
  "post_processor": {
    "type": "TemplateProcessing",
    "single": [
      {
        "SpecialToken": {
          "id": "[CLS]",
          "type_id": 0
        }
      },
      {
        "Sequence": {
          "id": "A",
          "type_id": 0
        }
      },
      {
        "SpecialToken": {
          "id": "[SEP]",
          "type_id": 0
        }
      }
    ],
    "pair": [
      {
        "SpecialToken": {
          "id": "[CLS]",
          "type_id": 0
        }
      },
      {
        "Sequence": {
          "id": "A",
          "type_id": 0
        }
      },
      {
        "SpecialToken": {
          "id": "[SEP]",
          "type_id": 0
        }
      },
      {
        "Sequence": {
          "id": "B",
          "type_id": 1
        }
      },
      {
        "SpecialToken": {
          "id": "[SEP]",
          "type_id": 1
        }
      }
    ],
    "special_tokens": {
      "[CLS]": {
        "id": "[CLS]",
        "ids": [
          369
        ],
        "tokens": [
          "[CLS]"
        ]
      },
      "[SEP]": {
        "id": "[SEP]",
        "ids": [
          3109
        ],
        "tokens": [
          "[SEP]"
        ]
      }
    }
  },
  "decoder": {
    "type": "Metaspace",
    "replacement": "▁",
    "prepend_scheme": "always",
    "split": true
  },
  "model": {
    "type": "Unigram",
    "unk_id": 1098,
    "vocab": [
      [
        "▁40",
        -6.045535918803367
      ],
      [
        "di",
        -7.14262696494567
      ],
      [
        "▁yuzu",
        -6.6950737422931965
      ],
      [
        "▁tesisti",
        -5.963622784872383
      ],
      [
        "▁talep",
        -8.276022183180846
      ],
      [
        "▁kahvaltı",
        -9.1844327851353
      ],
      [
        "▁bul",
        -8.341553095667713
      ],
      [
        "o",
        -4.578117168882934
      ],
      [
        "▁giris",
        -9.031881478239544
      ],
      [
        "niye",
        -7.497200092075518
      ],
      [
        "▁elbet",
        -6.771714475515565
      ],
      [
        "▁ar",
        -7.454035320204681
      ],
      [
        "▁olanakları",
        -9.263079746913636
      ],
      [
        "▁la",
        -7.875123900253623
      ],
      [
        "ında",
        -4.740979246502958
      ],
      [
        "▁24",
        -6.263247141229067
      ],
      [
        "▁abla",
        -8.97949900799331
      ],
      [
        "4",
        -12.802702672349787
      ],
      [
        "▁sordu",
        -7.266541797794853
      ],
      [
        "o",
        -6.671749088059212
      ],
      [
        "taki",
        -7.874113274632397
      ],
      [
        "▁kar",
        -6.970041367467808
      ],
      [
        "▁gunes",
        -8.11647622381829
      ],
      [
        "▁turk",
        -6.290660515108477
      ],
      [
        "▁sahi",
        -9.041626564248634
      ],
      [
        "▁firması",
        -9.049522595719365
      ],
      [
        "▁mas",
        -9.075369940654099
      ],
      [
        "lı",
        -7.171771498975273
      ],
      [
        "▁ekibi",
        -8.7324811902774
      ],
      [
        "▁s",
        -6.746148526883689
      ],
      [
        "▁ozgu",
        -7.910446090844006
      ],
      [
        "▁yapa",
        -6.727293164757388
      ],
      [
        "▁arkadasları",
        -8.772332826518928
      ],
      [
        "her",
        -6.241321517692774
      ],
      [
        "▁$'",
        -8.386597056400266
      ],
      [
        "h",
        -5.467853488663266
      ],
      [
        "mus",
        -6.071573892666369
      ],
      [
        "▁iki",
        -2.932821784785342
      ],
      [
        "▁boyut",
        -9.032890394942108
      ],
      [
        "▁arastırma",
        -8.482698920007923
      ],
      [
        "'",
        -5.92441716427085
      ],
      [
        "tir",
        -7.867418083364435
      ],
      [
        "▁verir",
        -7.688987814120938
      ],
      [
        "nc",
        -7.837226348389215
      ],
      [
        "▁kara",
        -8.255001555595197
      ],
      [
        "sa",
        -8.865208249174383
      ],
      [
        "yle",
        -6.293244902715194
      ],
      [
        "▁yurt",
        -8.766030307606563
      ],
      [
        "▁bir",
        -4.513339230743959
      ],
      [
        "▁mutl",
        -7.186288115784883
      ],
      [
        "▁cizgi",
        -8.732465193732569
      ],
      [
        "se",
        -6.764883317301188
      ],
      [
        "▁yapılan",
        -6.930759230668282
      ],
      [
        "▁pittsburgh'",
        -6.070359094696599
      ],
      [
        "▁senedi",
        -7.709291922409263
      ],
      [
        "▁yapıl",
        -7.961584390834188
      ],
      [
        "▁saglık",
        -8.41304073944503
      ],
      [
        "▁d",
        -7.195383266702848
      ],
      [
        "cilik",
        -8.734773727919228
      ],
      [
        "▁verim",
        -8.607822057907137
      ],
      [
        "d",
        -5.726493155243758
      ],
      [
        "▁kopek",
        -8.637909878931506
      ],
      [
        "▁reddetti",
        -7.46853376070064
      ],
      [
        "▁gelen",
        -6.419705948821233
      ],
      [
        "▁yakın",
        -6.512915943878811
      ],
      [
        "ta",
        -6.309472583087412
      ],
      [
        "▁yaslı",
        -7.252695010591861
      ],
      [
        "rak",
        -3.383613678221411
      ],
      [
        "▁diz",
        -8.668868158441061
      ],
      [
        "ınız",
        -9.087629797045327
      ],
      [
        "▁veriri",
        -7.049008130012812
      ],
      [
        "▁basta",
        -9.092386941057107
      ],
      [
        "▁takdir",
        -9.212115447084518
      ],
      [
        "▁bagı",
        -8.588811122004694
      ],
      [
        "▁degis",
        -9.157009511689571
      ],
      [
        "▁soyluyor",
        -6.710289316645186
      ],
      [
        "▁model",
        -9.017664508284946
      ],
      [
        "▁herkes",
        -4.990935261703555
      ],
      [
        "▁gezi",
        -9.01778224351924
      ],
      [
        "▁icecek",
        -9.23169809915171
      ],
      [
        "▁si",
        -7.78967962291759
      ],
      [
        "dı",
        -7.733586053078921
      ],
      [
        "▁ediyor",
        -5.628755451911132
      ],
      [
        "inden",
        -7.222574550029564
      ],
      [
        "▁olacak",
        -6.50020044976146
      ],
      [
        "a",
        -12.802702672349763
      ],
      [
        "niz",
        -7.145322203916744
      ],
      [
        "digi",
        -8.073231716186262
      ],
      [
        "▁dakika",
        -8.06049161488329
      ],
      [
        "▁ter",
        -7.516182088200092
      ],
      [
        "▁ailesi",
        -8.915922646153582
      ],
      [
        "mizde",
        -8.622695843962843
      ],
      [
        "▁tekne",
        -8.750042761421096
      ],
      [
        "▁bir",
        -1.2266873658587887
      ],
      [
        "j",
        -7.860234300391138
      ],
      [
        "▁soru",
        -8.149343270652665
      ],
      [
        "▁buyu",
        -9.081270761185637
      ],
      [
        "▁guven",
        -7.71859590223306
      ],
      [
        "▁zar",
        -9.137433428574239
      ],
      [
        "▁baba",
        -7.799168934593108
      ],
      [
        "▁kucuk",
        -5.342268000351475
      ],
      [
        "▁temel",
        -9.017611840157226
      ],
      [
        "▁kart",
        -8.575384441187312
      ],
      [
        "▁gormedi",
        -7.322160367317578
      ],
      [
        "▁isini",
        -9.015428788060348
      ],
      [
        "g",
        -3.2365275863870604
      ],
      [
        "▁uzerinde",
        -7.331496302726933
      ],
      [
        "▁kent",
        -8.589425667720203
      ],
      [
        "▁elma",
        -8.947615157218253
      ],
      [
        "sını",
        -6.612111766417453
      ],
      [
        "▁dıs",
        -7.331994759868498
      ],
      [
        "▁bizi",
        -5.03747525827567
      ],
      [
        "▁yolculuk",
        -9.16009405151695
      ],
      [
        "▁sozleri",
        -9.166235292570601
      ],
      [
        "▁olsun",
        -6.552446083414008
      ],
      [
        "▁koruma",
        -8.988260463018294
      ],
      [
        "▁tablo",
        -9.210748604836454
      ],
      [
        "▁kalkı",
        -7.267763976070212
      ],
      [
        "▁karsılık",
        -9.072485158383774
      ],
      [
        "a",
        -3.0926384863008716
      ],
      [
        "t",
        -4.499821088122294
      ],
      [
        "▁tarafı",
        -8.780119560717411
      ],
      [
        "▁united",
        -6.306874200536926
      ],
      [
        "▁ihrac",
        -8.778295245671867
      ],
      [
        "p",
        -4.215807387704473
      ],
      [
        "kin",
        -5.764318754693728
      ],
      [
        "ma",
        -7.210875628337654
      ],
      [
        "y",
        -9.699613634584775
      ],
      [
        "▁ual",
        -7.316169850430925
      ],
      [
        "cu",
        -6.814902540670463
      ],
      [
        "▁coktu",
        -8.086417080984273
      ],
      [
        "▁oneri",
        -8.996393301276411
      ],
      [
        "▁guclu",
        -6.752463692405149
      ],
      [
        "▁al",
        -6.55541507051747
      ],
      [
        "nun",
        -7.261526598545303
      ],
      [
        "▁mar",
        -8.574495621443813
      ],
      [
        "▁eylul",
        -8.653059280096887
      ],
      [
        "▁ayse",
        -7.48171924884963
      ],
      [
        "ur",
        -7.048764238093533
      ],
      [
        "▁ali",
        -6.635038331160915
      ],
      [
        "di",
        -3.980170575732436
      ],
      [
        "tro",
        -8.950281523617125
      ],
      [
        "▁tahvil",
        -7.795623928567573
      ],
      [
        "▁depo",
        -9.210818372296329
      ],
      [
        "ha",
        -7.7880496633528065
      ],
      [
        "▁irak",
        -7.164062279679685
      ],
      [
        "▁amca",
        -9.110473069480587
      ],
      [
        "e",
        -6.0226497054236
      ],
      [
        "▁ajans",
        -9.133793207194465
      ],
      [
        "▁alt",
        -8.86716720641108
      ],
      [
        "▁bazıları",
        -5.5918974405545265
      ],
      [
        "▁bardak",
        -8.95391112203233
      ],
      [
        "▁sert",
        -7.1477745182243595
      ],
      [
        "▁yasıyor",
        -7.764116766987493
      ],
      [
        "▁20",
        -5.2040630633608735
      ],
      [
        "▁y",
        -8.402677086191826
      ],
      [
        "▁kisiler",
        -8.929455178860358
      ],
      [
        "▁bilmiyoru",
        -7.529578978086748
      ],
      [
        "▁orta",
        -6.9666244531922885
      ],
      [
        "ka",
        -7.788155254108853
      ],
      [
        "▁hafta",
        -7.127924110267621
      ],
      [
        "il",
        -7.3927092007068795
      ],
      [
        "▁marka",
        -8.733052319547692
      ],
      [
        "▁ki",
        -4.876365201347605
      ],
      [
        "▁art",
        -8.585595204104656
      ],
      [
        "ta",
        -6.083388384710772
      ],
      [
        "▁yuzyıl",
        -8.85557757801475
      ],
      [
        "acaktı",
        -7.871454571865197
      ],
      [
        "▁sorun",
        -7.365482151352181
      ],
      [
        "▁basım",
        -8.687477042032693
      ],
      [
        "iydi",
        -7.457789464584331
      ],
      [
        "▁gosterme",
        -9.178849973017444
      ],
      [
        "▁gercek",
        -6.57263610703078
      ],
      [
        "▁baska",
        -5.710209961965257
      ],
      [
        "▁gibi",
        -2.7839934559607933
      ],
      [
        "▁",
        -1.6692032132785002
      ],
      [
        "d",
        -10.41573712684167
      ],
      [
        "▁oyku",
        -8.532692255263798
      ],
      [
        "▁calısma",
        -7.814598973691669
      ],
      [
        "▁kol",
        -7.542504396822477
      ],
      [
        "▁ayak",
        -8.258062536200597
      ],
      [
        "▁rezervasyon",
        -8.278978072325732
      ],
      [
        "▁ro",
        -9.087549903530823
      ],
      [
        "▁arttı",
        -7.380759279484635
      ],
      [
        "▁bil",
        -7.473804743863046
      ],
      [
        "sının",
        -7.421904056470311
      ],
      [
        "▁toren",
        -9.03980624377634
      ],
      [
        "is",
        -7.463825349204963
      ],
      [
        "▁dallas'ta",
        -5.831611737310719
      ],
      [
        "b",
        -7.787526154383434
      ],
      [
        "▁bile",
        -7.45829067570819
      ],
      [
        "ask",
        -5.901277785160477
      ],
      [
        "az",
        -9.366784984524482
      ],
      [
        "▁gercek",
        -8.472016431798693
      ],
      [
        "diginde",
        -9.194615365993846
      ],
      [
        "▁calıstı",
        -7.749913342793946
      ],
      [
        "cılık",
        -8.704831302828836
      ],
      [
        "▁meclis",
        -9.247867467018368
      ],
      [
        "▁kelime",
        -8.077225828714877
      ],
      [
        "▁iliski",
        -8.203711046579798
      ],
      [
        "▁etmedi",
        -7.691717767590749
      ],
      [
        "▁1/",
        -5.763313856350588
      ],
      [
        "▁te",
        -7.3416709354174285
      ],
      [
        "▁erkek",
        -7.594686771321886
      ],
      [
        "▁babam",
        -8.089287571565864
      ],
      [
        "▁cam",
        -8.278763033800436
      ],
      [
        "lestirme",
        -8.974444778279391
      ],
      [
        "▁insan",
        -6.862263832955891
      ],
      [
        "▁muh",
        -8.5506726184997
      ],
      [
        "▁heyecan",
        -8.637908473776024
      ],
      [
        "▁muduru",
        -8.738733809442454
      ],
      [
        "▁oldu",
        -5.100401895661068
      ],
      [
        "▁yemek",
        -7.144561514732587
      ],
      [
        "▁alay",
        -9.147819001552866
      ],
      [
        "▁ise",
        -7.560214555404128
      ],
      [
        "-",
        -7.788471677106863
      ],
      [
        "▁yuz",
        -7.670978609104915
      ],
      [
        "ların",
        -5.57554167277685
      ],
      [
        "▁eskid",
        -7.508059908398208
      ],
      [
        "▁sayı",
        -8.279922880890773
      ],
      [
        "▁hasta",
        -7.390891898070392
      ],
      [
        "s",
        -6.602215826617404
      ],
      [
        "▁yuzunu",
        -8.862791845590593
      ],
      [
        "▁akıl",
        -8.87442206750665
      ],
      [
        "▁caba",
        -8.245535876940103
      ],
      [
        "▁es",
        -7.572712008418513
      ],
      [
        "▁sure",
        -7.288915882318461
      ],
      [
        "▁dusman",
        -8.538874282637629
      ],
      [
        "▁sıcak",
        -7.076087639789179
      ],
      [
        "ar",
        -7.686561470588263
      ],
      [
        "▁kullanıyor",
        -8.05088171917265
      ],
      [
        "▁cogu",
        -8.352598496973737
      ],
      [
        "▁kon",
        -8.183048400573213
      ],
      [
        "ser",
        -7.906497206498267
      ],
      [
        "▁salı",
        -7.401487703396885
      ],
      [
        "ilen",
        -7.616782409815674
      ],
      [
        "▁vatandas",
        -9.08607246741277
      ],
      [
        "▁devralma",
        -9.210749609254675
      ],
      [
        "▁ogrenme",
        -9.115045651162538
      ],
      [
        "▁has",
        -8.681726710847553
      ],
      [
        "▁finans",
        -8.836507130825979
      ],
      [
        "▁bunda",
        -7.388617737186985
      ],
      [
        "▁annesi",
        -8.849404168180289
      ],
      [
        "▁yarısı",
        -9.084894061056279
      ],
      [
        "▁baskı",
        -8.13315041536341
      ],
      [
        "▁gidi",
        -7.35829839470744
      ],
      [
        "▁bulundu",
        -7.433411646634533
      ],
      [
        "dugunu",
        -8.493669056327576
      ],
      [
        "or",
        -7.122123359562429
      ],
      [
        "bası",
        -8.799278101600494
      ],
      [
        "▁kavram",
        -9.017966594200281
      ],
      [
        "▁dort",
        -4.533641774591931
      ],
      [
        "p",
        -6.611115035083745
      ],
      [
        "▁muhte",
        -7.12216206327711
      ],
      [
        "▁memnunu",
        -7.398164074736801
      ],
      [
        "▁co",
        -9.039477571792052
      ],
      [
        "▁vapur",
        -8.818724275131956
      ],
      [
        "▁m",
        -6.381337525489952
      ],
      [
        "▁asl",
        -6.096723680153653
      ],
      [
        "ana",
        -8.509231256135466
      ],
      [
        "▁der",
        -9.056053649695603
      ],
      [
        "sam",
        -8.055073151972252
      ],
      [
        "▁lar",
        -7.76677043803274
      ],
      [
        "▁kultur",
        -8.911520757976831
      ],
      [
        "▁aktarma",
        -6.126800701893156
      ],
      [
        "▁vakti",
        -8.749137172828377
      ],
      [
        "▁varan",
        -6.419116016399142
      ],
      [
        "▁belir",
        -7.018637602352009
      ],
      [
        "▁yuzluydu",
        -8.020553123755267
      ],
      [
        "▁degeri",
        -8.943663248258368
      ],
      [
        "▁guzel",
        -9.058952223705235
      ],
      [
        "▁asker",
        -8.139723555661249
      ],
      [
        "ki",
        -6.163275855025011
      ],
      [
        "▁gide",
        -5.832467812925173
      ],
      [
        "on",
        -7.7850315464718
      ],
      [
        "▁hakkı",
        -8.574097819955353
      ],
      [
        "▁ucusu",
        -7.0541538316959
      ],
      [
        "▁yeme",
        -8.498486487362069
      ],
      [
        "▁pasa",
        -9.13698261716613
      ],
      [
        "ne",
        -7.407806076747501
      ],
      [
        "▁ucu",
        -5.928380103362834
      ],
      [
        "=",
        -11.302702672349787
      ],
      [
        "▁benzer",
        -7.000372126861872
      ],
      [
        "▁ulus",
        -9.237796522204938
      ],
      [
        "▁kalitesi",
        -7.213801927656628
      ],
      [
        "▁getir",
        -7.0758537302384745
      ],
      [
        "▁merak",
        -8.364172958438992
      ],
      [
        "▁kendisini",
        -5.346153125872469
      ],
      [
        "la",
        -6.087479352776021
      ],
      [
        "▁odun",
        -9.134039528022974
      ],
      [
        "▁arka",
        -7.664821247900204
      ],
      [
        "▁dur",
        -7.089734177499264
      ],
      [
        "▁hizmeti",
        -7.680368071402715
      ],
      [
        "▁musteri",
        -8.229587342747209
      ],
      [
        "▁golge",
        -8.62390698678089
      ],
      [
        "▁adam",
        -6.7973032049191575
      ],
      [
        "▁borsa",
        -8.147457900007362
      ],
      [
        "▁dev",
        -8.794896336635407
      ],
      [
        "inin",
        -7.071514452756662
      ],
      [
        "ler",
        -7.897378461101891
      ],
      [
        "▁verdi",
        -6.233296187174913
      ],
      [
        "min",
        -7.845175447019517
      ],
      [
        "▁bana",
        -9.271128453504495
      ],
      [
        "▁genis",
        -6.390623316225844
      ],
      [
        "cu",
        -6.278882516343646
      ],
      [
        "lari",
        -8.749640307518618
      ],
      [
        "s",
        -6.083064316595122
      ],
      [
        "▁doga",
        -8.512802293658149
      ],
      [
        "▁hem",
        -7.1543483918530395
      ],
      [
        "▁milyar",
        -3.833066983694204
      ],
      [
        "▁edile",
        -6.715375668639949
      ],
      [
        "▁mu",
        -7.494459165304267
      ],
      [
        "el",
        -7.908226801642846
      ],
      [
        "▁milyon",
        -3.278490722863072
      ],
      [
        "unla",
        -5.8430735334845965
      ],
      [
        "tı",
        -6.219190472415152
      ],
      [
        "kleri",
        -8.020281460525826
      ],
      [
        "▁masal",
        -9.208191325533729
      ],
      [
        "▁yardım",
        -7.67788804795272
      ],
      [
        "dıgı",
        -6.964264673334472
      ],
      [
        "▁sar",
        -8.333490045175774
      ],
      [
        "▁yılı",
        -8.627485732605695
      ],
      [
        "i",
        -5.429547822392264
      ],
      [
        "▁gunlu",
        -6.629403783320777
      ],
      [
        "▁gorun",
        -7.339522011104732
      ],
      [
        "▁hanim",
        -7.33258511945737
      ],
      [
        "▁kuvvet",
        -8.768978482491827
      ],
      [
        "▁b",
        -7.179027993401228
      ],
      [
        "▁kampanyalar",
        -9.022739385613677
      ],
      [
        "etli",
        -7.941603451585964
      ],
      [
        "▁biraz",
        -4.687763168436832
      ],
      [
        "▁yanda",
        -8.817890646262013
      ],
      [
        "▁temizligi",
        -7.382347171589046
      ],
      [
        "za",
        -7.74459105300923
      ],
      [
        "▁gelin",
        -9.039343277420384
      ],
      [
        "m",
        -3.7415001008522433
      ],
      [
        "▁yaprak",
        -8.99593070320676
      ],
      [
        "▁ba",
        -10.862362165488445
      ],
      [
        "▁yaz",
        -7.906160392763469
      ],
      [
        "ı",
        -4.678390393587344
      ],
      [
        "l",
        -6.098948794144248
      ],
      [
        "▁yana",
        -7.77216474041248
      ],
      [
        "▁12",
        -5.275039660619872
      ],
      [
        "u",
        -5.667635735831895
      ],
      [
        "d",
        -6.8006287795999025
      ],
      [
        "▁konut",
        -8.79833904973201
      ],
      [
        "▁cek",
        -7.436743750063714
      ],
      [
        "▁hastalık",
        -8.66015406303146
      ],
      [
        "ine",
        -6.049563716949281
      ],
      [
        "▁nasıl",
        -5.461418423501822
      ],
      [
        "▁meyve",
        -8.874292581455368
      ],
      [
        "▁kur",
        -7.840729160485338
      ],
      [
        "▁yara",
        -8.341875383679113
      ],
      [
        "▁mesaj",
        -8.893718906242759
      ],
      [
        "p",
        -8.916280301211483
      ],
      [
        "bir",
        -3.7092891508635653
      ],
      [
        "'n",
        -8.269611997524315
      ],
      [
        "▁artısı",
        -9.067251038364004
      ],
      [
        "▁fatura",
        -9.075329183572494
      ],
      [
        "▁konfor",
        -7.636349363592389
      ],
      [
        "fi",
        -11.26695076079897
      ],
      [
        "▁ucu",
        -8.273504952277463
      ],
      [
        "▁yogu",
        -7.678901440425427
      ],
      [
        "▁katı",
        -9.025078251646804
      ],
      [
        "el",
        -7.298644566373646
      ],
      [
        "sunda",
        -9.051796505880809
      ],
      [
        "▁hat",
        -8.687669841003489
      ],
      [
        "▁27",
        -5.792169366662349
      ],
      [
        "▁bizim",
        -9.019844164095739
      ],
      [
        "[CLS]",
        0.0
      ],
      [
        "▁onu",
        -3.8180555155698697
      ],
      [
        "▁bedel",
        -9.239291552950863
      ],
      [
        "e",
        -3.073718075016717
      ],
      [
        "▁devletin",
        -9.082807184417193
      ],
      [
        "in",
        -5.215628805993766
      ],
      [
        "▁din",
        -7.8470006875294285
      ],
      [
        "▁ne",
        -5.821288615264746
      ],
      [
        "▁icinde",
        -6.726608357952595
      ],
      [
        "▁git",
        -7.190858593130086
      ],
      [
        "▁continental",
        -6.636089344245021
      ],
      [
        "▁puan",
        -6.262954799629098
      ],
      [
        "▁ekonomi",
        -6.9285830340017975
      ],
      [
        "▁garanti",
        -8.89352218003202
      ],
      [
        "la",
        -5.34346133651821
      ],
      [
        "tır",
        -6.376500413518691
      ],
      [
        "▁kapandı",
        -6.6820325098326245
      ],
      [
        "▁var",
        -4.31276931439489
      ],
      [
        "indek",
        -7.355951998381377
      ],
      [
        "▁mus",
        -5.417352690502484
      ],
      [
        "25",
        -6.232172715619792
      ],
      [
        "▁cumartesi",
        -7.848091800957634
      ],
      [
        "▁bırak",
        -7.387286025899164
      ],
      [
        "▁rapor",
        -8.01496068513338
      ],
      [
        "▁belediye",
        -8.818722760988077
      ],
      [
        "▁d",
        -8.848063258133957
      ],
      [
        "▁dusus",
        -7.918933733047734
      ],
      [
        "▁edildi",
        -7.138390582234377
      ],
      [
        "▁kup",
        -9.076191902652127
      ],
      [
        "▁edebiyat",
        -8.637907765507716
      ],
      [
        "▁ad",
        -7.814621286622341
      ],
      [
        "▁kili",
        -9.187647031602262
      ],
      [
        "yabilir",
        -8.09825652971741
      ],
      [
        "▁d",
        -6.35521430413523
      ],
      [
        ".",
        -11.199601737652316
      ],
      [
        "meyecek",
        -7.879904132316533
      ],
      [
        "▁bilgisayar",
        -7.678940204098423
      ],
      [
        "▁tanık",
        -9.071953855956071
      ],
      [
        "iz",
        -6.512478652804723
      ],
      [
        "▁li",
        -5.934253238643644
      ],
      [
        "▁parla",
        -7.874437419049213
      ],
      [
        "▁televizyon",
        -8.537826013257831
      ],
      [
        "▁ne",
        -6.301448313353807
      ],
      [
        "▁eksik",
        -7.941174261744681
      ],
      [
        "tif",
        -8.463309440413283
      ],
      [
        "▁parasını",
        -9.097808276294653
      ],
      [
        "▁misafirimiz",
        -8.43509539450272
      ],
      [
        "▁kucuktu",
        -6.894144608050934
      ],
      [
        "▁asagı",
        -9.025879879562671
      ],
      [
        "lu",
        -7.234825701707615
      ],
      [
        "ku",
        -6.584838249141784
      ],
      [
        "ra",
        -4.169188514330974
      ],
      [
        "▁anlattı",
        -7.673383799591574
      ],
      [
        "▁`",
        -10.557597422589598
      ],
      [
        "▁kesinti",
        -8.953543902099575
      ],
      [
        "▁da",
        -8.294537207289686
      ],
      [
        "▁ocak",
        -8.749251923508027
      ],
      [
        "am",
        -8.203053439865862
      ],
      [
        "▁baltimore'de",
        -5.972450229599645
      ],
      [
        "▁avukat",
        -8.539734276885845
      ],
      [
        "dik",
        -9.037590371616012
      ],
      [
        "▁tarz",
        -9.065450012933399
      ],
      [
        "li",
        -7.25093721435945
      ],
      [
        "▁verdigim",
        -6.825897247210726
      ],
      [
        "ili",
        -6.820299547520811
      ],
      [
        "▁isim",
        -8.461692815124682
      ],
      [
        "▁bel",
        -8.468287714222843
      ],
      [
        "▁acısın",
        -8.682677598869876
      ],
      [
        "▁otelin",
        -7.640042376732834
      ],
      [
        "▁etme",
        -7.854001394033202
      ],
      [
        "h",
        -6.8306572091775175
      ],
      [
        "l",
        -8.749613634584774
      ],
      [
        "▁kesin",
        -7.804262474853328
      ],
      [
        "▁sehir",
        -7.448332714366599
      ],
      [
        "▁daire",
        -8.593814207237493
      ],
      [
        "▁f",
        -7.232885755547305
      ],
      [
        "▁mana",
        -9.025032638438368
      ],
      [
        "▁batı",
        -9.063861306609182
      ],
      [
        "▁bina",
        -8.340845901065887
      ],
      [
        "▁w",
        -7.361478601160245
      ],
      [
        "?",
        -4.9897436379284725
      ],
      [
        "▁pers",
        -7.007837764036366
      ],
      [
        "▁sure",
        -7.720068407476733
      ],
      [
        "▁bayan",
        -8.120614801603455
      ],
      [
        "▁verile",
        -7.651983172581052
      ],
      [
        "▁soz",
        -7.394628475674323
      ],
      [
        "'a",
        -4.911625731201662
      ],
      [
        "lerinin",
        -6.831796431740629
      ],
      [
        "en",
        -3.944717042641246
      ],
      [
        "▁mevcut",
        -8.668443909164484
      ],
      [
        "▁karar",
        -7.329213357436965
      ],
      [
        "▁hasan",
        -7.420746060243845
      ],
      [
        "siniz",
        -5.458119837635438
      ],
      [
        "elim",
        -7.397197964383144
      ],
      [
        "likt",
        -6.58527743850372
      ],
      [
        "te",
        -6.916883204630374
      ],
      [
        "o",
        -3.5207675806184575
      ],
      [
        "▁uz",
        -8.533549843238639
      ],
      [
        "▁gunler",
        -9.04711883896144
      ],
      [
        "va",
        -7.352631288082245
      ],
      [
        "oni",
        -7.648805856565081
      ],
      [
        "▁muhendis",
        -9.085592075050975
      ],
      [
        "▁normaldi",
        -7.730121706499893
      ],
      [
        "▁pay",
        -7.5652383678100135
      ],
      [
        "▁denver'de",
        -5.235049417651073
      ],
      [
        "liligi",
        -9.2120156747392
      ],
      [
        "▁!",
        -9.53960140659185
      ],
      [
        "m",
        -3.07230917458263
      ],
      [
        "▁eskiy",
        -7.310315848648845
      ],
      [
        "zu",
        -8.859242285504228
      ],
      [
        "lik",
        -6.42033954787531
      ],
      [
        "s",
        -6.500190502047275
      ],
      [
        "▁git",
        -7.996927158050616
      ],
      [
        "im",
        -6.740811679588673
      ],
      [
        "▁verin",
        -7.900957508189855
      ],
      [
        "▁getiri",
        -8.112961287462271
      ],
      [
        "u",
        -2.3223596860280313
      ],
      [
        "zat",
        -7.044131657787526
      ],
      [
        "▁un",
        -8.582780595311068
      ],
      [
        "'ni",
        -8.823781893772818
      ],
      [
        "▁a",
        -6.420591604824666
      ],
      [
        "▁pi",
        -8.143542494986246
      ],
      [
        "▁mucadele",
        -8.459355579372614
      ],
      [
        "▁olmak",
        -7.689329724089977
      ],
      [
        "lar",
        -6.7808297554731105
      ],
      [
        "sız",
        -5.176838559836356
      ],
      [
        "▁c",
        -7.381905891970467
      ],
      [
        "ten",
        -6.553232975528684
      ],
      [
        "▁r",
        -7.150400225492847
      ],
      [
        "▁zor",
        -6.463347752302095
      ],
      [
        "▁paha",
        -7.5438865758853
      ],
      [
        "▁sent",
        -8.411290079545218
      ],
      [
        "▁cicek",
        -8.484888681888703
      ],
      [
        "▁gozlerini",
        -8.289770890806162
      ],
      [
        "▁usta",
        -8.880082466586032
      ],
      [
        "▁cadde",
        -8.933130685948793
      ],
      [
        "▁personeli",
        -8.32807808882326
      ],
      [
        "▁dol",
        -8.84690985508967
      ],
      [
        "ar",
        -7.4576016271121555
      ],
      [
        "ecegi",
        -7.881106460152883
      ],
      [
        "▁tek",
        -5.245257206535452
      ],
      [
        "nız",
        -8.70034607177369
      ],
      [
        "▁duy",
        -7.947449747263441
      ],
      [
        "▁takip",
        -8.511018959224621
      ],
      [
        "▁yıllar",
        -7.3342302490251665
      ],
      [
        "di",
        -10.231009713513307
      ],
      [
        "sizlik",
        -8.037337177046904
      ],
      [
        "▁kazanc",
        -7.968953080490237
      ],
      [
        "ri",
        -7.143230932338278
      ],
      [
        "▁goruyor",
        -7.664053340645318
      ],
      [
        "▁siddet",
        -9.18443337766713
      ],
      [
        "▁bir",
        -4.897295998995685
      ],
      [
        "▁gar",
        -7.642438974413052
      ],
      [
        "▁aileler",
        -7.369626967330246
      ],
      [
        "▁isletme",
        -7.971452508922108
      ],
      [
        "▁iki",
        -8.372528240217115
      ],
      [
        "li",
        -3.8975063851607272
      ],
      [
        "▁araya",
        -9.230000712502807
      ],
      [
        "▁hali",
        -8.592895421817964
      ],
      [
        "▁kurtaj",
        -9.23799861158718
      ],
      [
        "4",
        -4.477827337596428
      ],
      [
        "er",
        -7.534676130534668
      ],
      [
        "▁teklif",
        -7.457344510435918
      ],
      [
        "d",
        -4.831539974861214
      ],
      [
        "ız",
        -7.001641147019307
      ],
      [
        "▁deri",
        -8.942425034852205
      ],
      [
        "ma",
        -5.906308248825251
      ],
      [
        "3",
        -4.775100445387008
      ],
      [
        "▁duygu",
        -8.433161883742422
      ],
      [
        "▁doku",
        -8.939675690947594
      ],
      [
        "▁na",
        -7.717602681352166
      ],
      [
        "▁olmadi",
        -7.105787802996739
      ],
      [
        "▁olayı",
        -9.034557882047887
      ],
      [
        "▁belir",
        -9.005533354910778
      ],
      [
        "▁ki",
        -1.7493755316426949
      ],
      [
        "ı",
        -6.290151035760891
      ],
      [
        "▁haber",
        -7.719135992083562
      ],
      [
        "▁kıs",
        -8.098742064307743
      ],
      [
        "▁koltuk",
        -8.699981815427783
      ],
      [
        "▁san",
        -7.909273683451964
      ],
      [
        "▁sikinti",
        -8.472014094604882
      ],
      [
        "▁ikisi",
        -8.90801684654011
      ],
      [
        "▁ticarette",
        -9.027941098747165
      ],
      [
        "▁dolay",
        -4.747145240580062
      ],
      [
        "▁para",
        -6.391828780208307
      ],
      [
        "▁kalbi",
        -8.83980161297753
      ],
      [
        "mek",
        -6.797041460366033
      ],
      [
        "cıları",
        -8.593255480501103
      ],
      [
        "▁etkile",
        -7.939068860976237
      ],
      [
        "son",
        -7.225840255471124
      ],
      [
        "sem",
        -7.501318970127886
      ],
      [
        "larını",
        -5.7073107403909535
      ],
      [
        "▁evvel",
        -7.64205734534819
      ],
      [
        "▁ici",
        -8.124470618740895
      ],
      [
        "▁dahil",
        -8.176631249437747
      ],
      [
        "veya",
        -7.073563918476212
      ],
      [
        "▁fer",
        -9.19035105869805
      ],
      [
        "▁konumu",
        -6.633105556090941
      ],
      [
        "▁bir",
        -3.027951570239419
      ],
      [
        "5'te",
        -9.265749919853068
      ],
      [
        "▁koy",
        -7.522363718466498
      ],
      [
        "8",
        -4.026505519976443
      ],
      [
        "▁hangi",
        -5.347616636025412
      ],
      [
        "▁pis",
        -7.760690282767634
      ],
      [
        "▁agır",
        -6.486111117241364
      ],
      [
        "ayet",
        -5.79797472285833
      ],
      [
        "la",
        -6.132318751279013
      ],
      [
        "▁bakım",
        -7.325904814344627
      ],
      [
        "yor",
        -8.85083639178367
      ],
      [
        "▁bak",
        -6.543143194421092
      ],
      [
        "▁sen",
        -4.319077519014068
      ],
      [
        "kca",
        -8.103862073496302
      ],
      [
        "▁otel",
        -6.622368130732603
      ],
      [
        "▁rengi",
        -8.594250106508667
      ],
      [
        "enler",
        -8.3800947992044
      ],
      [
        "▁",
        -2.181625321710664
      ],
      [
        "ma",
        -6.108077271086794
      ],
      [
        "▁yılda",
        -8.427258153785319
      ],
      [
        "ort",
        -8.967359289826806
      ],
      [
        "dizli",
        -7.581028338938804
      ],
      [
        "▁tedavi",
        -9.184433331884414
      ],
      [
        "▁gunah",
        -9.167884300883571
      ],
      [
        "▁ed",
        -8.127001380216779
      ],
      [
        "sal",
        -9.255149021009696
      ],
      [
        "▁hatıra",
        -9.08888890734789
      ],
      [
        "▁keskin",
        -7.6564117203846145
      ],
      [
        "▁aldi",
        -8.098343313502959
      ],
      [
        "oglu",
        -7.0545701178516715
      ],
      [
        "▁sana",
        -5.075330108084433
      ],
      [
        "▁siyah",
        -6.836355013505865
      ],
      [
        "maya",
        -7.542471100388417
      ],
      [
        "▁gordu",
        -6.562571279504344
      ],
      [
        "▁bankası",
        -8.963209145391541
      ],
      [
        "▁insanı",
        -8.952969754496422
      ],
      [
        "ikti",
        -7.669503639374806
      ],
      [
        "▁kullan",
        -7.577518783158073
      ],
      [
        "`",
        -5.172154642791867
      ],
      [
        "▁sac",
        -8.805421454736628
      ],
      [
        "an",
        -5.6678966629267915
      ],
      [
        "kca",
        -6.111250826125482
      ],
      [
        "▁toronto'",
        -7.503686101187043
      ],
      [
        "▁yukselis",
        -8.975559006702222
      ],
      [
        "▁orman",
        -8.717476551341084
      ],
      [
        "▁devam",
        -7.062153173456201
      ],
      [
        "yil",
        -7.5783932716631615
      ],
      [
        "▁ait",
        -5.924503288156106
      ],
      [
        "▁ekim",
        -7.416606871173696
      ],
      [
        "▁demir",
        -8.551567581886854
      ],
      [
        "▁kasıgı",
        -8.800896539829171
      ],
      [
        "▁masraf",
        -9.017389190283186
      ],
      [
        "ra",
        -6.794045770437571
      ],
      [
        "'de",
        -5.602924589034716
      ],
      [
        "▁is",
        -6.318078973884656
      ],
      [
        "▁derecede",
        -9.196860673201932
      ],
      [
        "▁koca",
        -6.796188033102825
      ],
      [
        "sa",
        -6.040957425482141
      ],
      [
        "len",
        -7.481382416262916
      ],
      [
        "▁ayır",
        -7.778536024236658
      ],
      [
        "e",
        -1.5758668895254093
      ],
      [
        "▁degillerdi",
        -5.210354841089645
      ],
      [
        "▁herkes",
        -7.998984443599798
      ],
      [
        "▁mes",
        -7.820418235783702
      ],
      [
        "▁gece",
        -5.84717434541588
      ],
      [
        "▁siyaset",
        -9.158792241528719
      ],
      [
        "azım",
        -7.399988481905939
      ],
      [
        "▁b",
        -6.181687063550272
      ],
      [
        "▁ustun",
        -7.801889603744685
      ],
      [
        "▁karısı",
        -7.840275909925566
      ],
      [
        "eden",
        -7.747627165628126
      ],
      [
        "▁kimse",
        -5.611770680556417
      ],
      [
        "ligin",
        -8.2988173604871
      ],
      [
        "▁deprem",
        -8.42406310105607
      ],
      [
        "▁ucusların",
        -8.702387862060267
      ],
      [
        "▁30",
        -5.020739400265071
      ],
      [
        "▁yaptirdi",
        -7.4448016464697195
      ],
      [
        "▁kuyu",
        -9.0883117169795
      ],
      [
        "▁gelmedi",
        -7.951684112083364
      ],
      [
        "▁babası",
        -8.585737984083446
      ],
      [
        "▁satısı",
        -8.899363847567406
      ],
      [
        "▁corba",
        -8.699972484994362
      ],
      [
        "▁acıklama",
        -8.701599473841725
      ],
      [
        "▁dolu",
        -6.890848667969417
      ],
      [
        "▁sinema",
        -9.04109762030821
      ],
      [
        "ı",
        -6.495236803388375
      ],
      [
        "▁bas",
        -7.000258970503874
      ],
      [
        "▁kap",
        -8.025308046372942
      ],
      [
        "▁mut",
        -6.860001985309579
      ],
      [
        "▁olagan",
        -7.907651024138542
      ],
      [
        "▁mi",
        -3.4668702953631687
      ],
      [
        "▁devlet",
        -7.476805392293081
      ],
      [
        "▁balık",
        -8.792124661479129
      ],
      [
        "lardan",
        -6.997538778630257
      ],
      [
        "▁cevre",
        -8.110900204163372
      ],
      [
        "▁sol",
        -8.333792728192737
      ],
      [
        "▁tarihi",
        -8.618833440614349
      ],
      [
        "▁guleryuzluydu",
        -7.543874085415274
      ],
      [
        "▁mev",
        -6.718102217582475
      ],
      [
        "up",
        -6.6607683440219585
      ],
      [
        "x",
        -6.823697608475182
      ],
      [
        "ıp",
        -5.680099940697676
      ],
      [
        "'i",
        -6.721080804396391
      ],
      [
        "▁ot",
        -7.384762552971315
      ],
      [
        "▁oyle",
        -5.64675409423086
      ],
      [
        "tıgını",
        -9.09063400979564
      ],
      [
        "▁kendimi",
        -5.7344618553965745
      ],
      [
        "ya",
        -3.9445221214366635
      ],
      [
        "u",
        -12.802702672349787
      ],
      [
        "▁lezzet",
        -7.625560767531123
      ],
      [
        "▁ise",
        -5.47635401040524
      ],
      [
        "ır",
        -6.17815472815648
      ],
      [
        "mis",
        -5.723620343942099
      ],
      [
        "▁bul",
        -6.836640547539096
      ],
      [
        "▁otur",
        -7.588990628859042
      ],
      [
        "▁zafer",
        -9.26555364668236
      ],
      [
        "▁zayıf",
        -7.356978041362084
      ],
      [
        "▁ustu",
        -8.269791036819706
      ],
      [
        "ila",
        -9.207290760679783
      ],
      [
        "▁etmiyor",
        -7.937139060596527
      ],
      [
        "▁ca",
        -8.064137103002135
      ],
      [
        "de",
        -5.3119117464301135
      ],
      [
        "▁yaz",
        -7.532586904495839
      ],
      [
        "▁neler",
        -6.766985399399278
      ],
      [
        "00",
        -5.835146209538178
      ],
      [
        "▁hizmetleri",
        -8.65845828748498
      ],
      [
        "egi",
        -8.28948402091234
      ],
      [
        "▁icki",
        -8.879908843297532
      ],
      [
        "▁sayfa",
        -8.933172457500547
      ],
      [
        "▁ilce",
        -9.240968897800993
      ],
      [
        "▁alan",
        -8.113114492863659
      ],
      [
        "▁siparis",
        -8.68406909603177
      ],
      [
        "mın",
        -8.820821025929872
      ],
      [
        "▁5",
        -9.017424572311805
      ],
      [
        "▁gibiydi",
        -8.085841885192059
      ],
      [
        "▁ziyaret",
        -8.459355520734828
      ],
      [
        "▁basa",
        -8.559708125819055
      ],
      [
        "'daki",
        -6.583525614428688
      ],
      [
        "▁dustu",
        -6.310464317595503
      ],
      [
        "▁sair",
        -8.801751691775642
      ],
      [
        "▁dans",
        -9.173431351273113
      ],
      [
        "▁198",
        -8.995493654897938
      ],
      [
        "▁benim",
        -8.792945027508585
      ],
      [
        "▁bulun",
        -6.850638446731321
      ],
      [
        "lerle",
        -7.095149800028126
      ],
      [
        "▁tartısma",
        -8.637907839573327
      ],
      [
        "▁herif",
        -9.017391010669245
      ],
      [
        "▁vur",
        -8.739445912834631
      ],
      [
        "▁bulunuyor",
        -7.8053680244053245
      ],
      [
        "▁ucretlerini",
        -9.124577973395168
      ],
      [
        "▁kapısını",
        -9.28950749455161
      ],
      [
        "lama",
        -7.3833637299530706
      ],
      [
        "▁liste",
        -8.63574825313622
      ],
      [
        "▁indianapolis'te",
        -7.084961476014257
      ],
      [
        "lerinde",
        -7.0125540810192755
      ],
      [
        "▁charlotte'de",
        -7.348968685556176
      ],
      [
        "lamaya",
        -9.072268912314314
      ],
      [
        "▁don",
        -7.469114158362452
      ],
      [
        "▁kitaplar",
        -9.173931524117677
      ],
      [
        "▁tı",
        -3.8255906107362634
      ],
      [
        "▁dedi",
        -5.147536252652197
      ],
      [
        "▁giy",
        -8.669004449972785
      ],
      [
        "▁ayakkabı",
        -8.699945525478503
      ],
      [
        "▁ge",
        -6.8116027363371705
      ],
      [
        "▁havuzlar",
        -8.931045614448788
      ],
      [
        "▁yıl",
        -7.786142649619766
      ],
      [
        "▁me",
        -7.563512412477667
      ],
      [
        "▁olan",
        -5.550474496869134
      ],
      [
        "▁kafa",
        -7.696498675686494
      ],
      [
        "ır",
        -7.484614449917035
      ],
      [
        "se",
        -7.269141531746493
      ],
      [
        "▁memphis'",
        -6.943093293916075
      ],
      [
        "▁sab",
        -7.521771325852229
      ],
      [
        "▁girisim",
        -8.38944478979354
      ],
      [
        "▁birisi",
        -5.941560191445756
      ],
      [
        "▁hacim",
        -8.76682422025193
      ],
      [
        "▁konu",
        -7.154934334090527
      ],
      [
        "6",
        -4.861426244991476
      ],
      [
        "▁odalari",
        -8.74331948037658
      ],
      [
        "▁hayatı",
        -8.850389889537873
      ],
      [
        "▁500",
        -6.435639842843321
      ],
      [
        "r",
        -6.567973232437646
      ],
      [
        "▁arkasında",
        -8.797761477412537
      ],
      [
        "▁tabak",
        -9.133873003259662
      ],
      [
        "▁soyledi",
        -5.125086709333979
      ],
      [
        "ye",
        -5.324100503247843
      ],
      [
        "▁zamanlar",
        -8.488756391374462
      ],
      [
        "▁gerekir",
        -7.705429791453389
      ],
      [
        "▁kursun",
        -9.242619530196095
      ],
      [
        "ıyla",
        -7.6473105573084315
      ],
      [
        "de",
        -5.846327743756247
      ],
      [
        "▁il",
        -3.4181177762067216
      ],
      [
        "▁sigara",
        -8.434512082471137
      ],
      [
        "d",
        -2.461972935010672
      ],
      [
        "▁bahar",
        -9.159373340377176
      ],
      [
        "▁3.",
        -5.926069570258965
      ],
      [
        "▁yas",
        -7.570529837301063
      ],
      [
        "ık",
        -7.649392049490636
      ],
      [
        "▁av",
        -8.441449128822853
      ],
      [
        "▁hukumetin",
        -9.138853450741616
      ],
      [
        "▁ham",
        -8.594745056678725
      ],
      [
        "▁deli",
        -7.735746243304163
      ],
      [
        "▁birden",
        -5.965201419918158
      ],
      [
        "▁bebek",
        -9.18448139804936
      ],
      [
        "ca",
        -6.822960096147539
      ],
      [
        "▁temmuz",
        -9.265563349881607
      ],
      [
        "yla",
        -6.609948332917524
      ],
      [
        "▁tercih",
        -7.36917190534865
      ],
      [
        "▁bo",
        -7.62776982190512
      ],
      [
        "ell",
        -7.506926504393078
      ],
      [
        "yen",
        -7.694928855735129
      ],
      [
        "m",
        -2.932530969528777
      ],
      [
        "▁faaliyet",
        -7.882817398683867
      ],
      [
        "▁kanun",
        -8.435196922470897
      ],
      [
        "▁borc",
        -7.838528102095567
      ],
      [
        "oz",
        -8.361401755385337
      ],
      [
        "▁hikaye",
        -8.446855753042504
      ],
      [
        "-",
        -5.222901331865919
      ],
      [
        "▁magaza",
        -8.497822617858045
      ],
      [
        "▁ilgi",
        -7.462134112909516
      ],
      [
        "▁ısık",
        -8.455611935966083
      ],
      [
        "▁amerikalı",
        -9.104064839724339
      ],
      [
        "▁proje",
        -8.275990776937038
      ],
      [
        "▁salt",
        -6.566705835229242
      ],
      [
        "▁genc",
        -6.307971916890873
      ],
      [
        "▁hasta",
        -8.569009583086018
      ],
      [
        "#",
        -10.352702672349787
      ],
      [
        "(",
        -6.121810261614014
      ],
      [
        "▁sergi",
        -9.239132232997182
      ],
      [
        "erek",
        -4.620556824828748
      ],
      [
        "▁su",
        -6.385416699652202
      ],
      [
        "▁isti",
        -8.27823488638959
      ],
      [
        "▁motor",
        -8.837217332025979
      ],
      [
        "tma",
        -8.222326810981976
      ],
      [
        "▁istiyoru",
        -5.162981875868706
      ],
      [
        "▁temiz",
        -6.874429970102587
      ],
      [
        "m",
        -5.873443252499982
      ],
      [
        "▁it",
        -6.245885699482854
      ],
      [
        "▁aldı",
        -6.002072530117038
      ],
      [
        "▁hukum",
        -8.973146115885012
      ],
      [
        "▁k",
        -7.382883718731771
      ],
      [
        "▁ede",
        -6.512867076807439
      ],
      [
        "▁oglu",
        -9.13382480001572
      ],
      [
        "▁28",
        -6.493645630951329
      ],
      [
        "▁madde",
        -8.11217360715342
      ],
      [
        "5",
        -8.380825255681302
      ],
      [
        "sini",
        -6.422049472456263
      ],
      [
        "y",
        -6.016951674088136
      ],
      [
        "t",
        -4.637700915989482
      ],
      [
        "gı",
        -7.172346951128746
      ],
      [
        "▁7",
        -4.986624988114711
      ],
      [
        "▁ufak",
        -7.162718604082719
      ],
      [
        "▁yonetim",
        -7.740122413204883
      ],
      [
        "▁olması",
        -7.576339787469357
      ],
      [
        "ar",
        -7.1936499272491
      ],
      [
        "▁meger",
        -8.017094335820266
      ],
      [
        "▁on",
        -6.089300112861576
      ],
      [
        "ması",
        -7.544787054276138
      ],
      [
        "▁tiyatro",
        -8.591615727628685
      ],
      [
        "▁gemi",
        -8.061384611622753
      ],
      [
        "▁toprak",
        -8.205463138912982
      ],
      [
        "1",
        -8.619252375660643
      ],
      [
        "▁gozunu",
        -9.202732486948053
      ],
      [
        "inizi",
        -9.281791294497124
      ],
      [
        "▁yabancı",
        -6.768015599588232
      ],
      [
        "az",
        -7.193482929552111
      ],
      [
        "▁istanbul'da",
        -7.261859279922099
      ],
      [
        "▁doviz",
        -9.210751911163774
      ],
      [
        "n",
        -5.575916566983606
      ],
      [
        "▁baslangıc",
        -8.836904435817466
      ],
      [
        "▁dus",
        -6.205217174489007
      ],
      [
        "▁endeks",
        -8.584934316768742
      ],
      [
        "▁gecme",
        -8.933251380471315
      ],
      [
        "▁co.",
        -6.722681917663853
      ],
      [
        "▁cocuk",
        -6.9736045559350615
      ],
      [
        "▁sacları",
        -8.627744470031466
      ],
      [
        "▁yapan",
        -8.084981832738222
      ],
      [
        "▁neyi",
        -6.48632542834872
      ],
      [
        "▁tuz",
        -8.459507100340915
      ],
      [
        "4'",
        -8.969202812498201
      ],
      [
        "▁olacak",
        -7.742659423655229
      ],
      [
        "▁turkiye'",
        -7.012378740847429
      ],
      [
        "▁sal",
        -8.393101086989983
      ],
      [
        "maları",
        -7.916852918228408
      ],
      [
        "z",
        -6.4439298817061665
      ],
      [
        "▁sef",
        -8.91831401496718
      ],
      [
        "ne",
        -8.868581305044112
      ],
      [
        "ne",
        -7.295935539686148
      ],
      [
        "▁deger",
        -7.7698001211189425
      ],
      [
        "▁hayal",
        -8.185078177551173
      ],
      [
        "▁anda",
        -7.445487225501691
      ],
      [
        "ıkca",
        -7.569260549122383
      ],
      [
        "▁gelen",
        -7.18416800202182
      ],
      [
        "sızlık",
        -8.414054230940573
      ],
      [
        "▁hareket",
        -7.164801304845686
      ],
      [
        "t",
        -5.827538301864367
      ],
      [
        "leri",
        -4.9355083543253935
      ],
      [
        "▁bası",
        -8.222583663136248
      ],
      [
        "w",
        -9.085591990217663
      ],
      [
        ".",
        -5.527872474634257
      ],
      [
        "▁annem",
        -7.911345904187881
      ],
      [
        "▁imkan",
        -8.78287956579701
      ],
      [
        "▁olmustu",
        -7.157892964479085
      ],
      [
        "▁telefon",
        -7.870323223050649
      ],
      [
        "▁daha",
        -3.284001868858846
      ],
      [
        "yin",
        -7.774329583133746
      ],
      [
        "lerin",
        -5.707843220726737
      ],
      [
        "▁plaj",
        -8.800878258970215
      ],
      [
        "ine",
        -6.129515774840357
      ],
      [
        "cısı",
        -9.184441425369188
      ],
      [
        "6'",
        -8.843249426150999
      ],
      [
        "▁alı",
        -7.238867173783138
      ],
      [
        "▁hattı",
        -9.269458712702638
      ],
      [
        "▁kullanıl",
        -7.66743683203091
      ],
      [
        "▁ısıgı",
        -8.908168469344686
      ],
      [
        "▁es",
        -7.7496457909165235
      ],
      [
        "▁sol",
        -7.196571706374
      ],
      [
        "▁ucreti",
        -7.693748122606665
      ],
      [
        "it",
        -7.6795142957907006
      ],
      [
        "▁dıs",
        -9.271508054704853
      ],
      [
        "mıslar",
        -7.930022845837249
      ],
      [
        "emez",
        -7.693083838934779
      ],
      [
        "mak",
        -6.577628642714442
      ],
      [
        "▁te",
        -8.059775422487665
      ],
      [
        "▁sey",
        -5.822913018313815
      ],
      [
        "▁kal",
        -7.207473066616684
      ],
      [
        "amaz",
        -7.154730621646129
      ],
      [
        "▁cocugu",
        -8.560560134201289
      ],
      [
        "▁evin",
        -8.013427352907907
      ],
      [
        "▁ele",
        -8.096106548706768
      ],
      [
        "▁igne",
        -9.210750665628831
      ],
      [
        "c",
        -4.254761954954864
      ],
      [
        "▁as",
        -7.9774576896839235
      ],
      [
        "▁spor",
        -8.71630399978753
      ],
      [
        "▁animasyonlar",
        -8.955462443971129
      ],
      [
        "▁fena",
        -6.968289593173502
      ],
      [
        "▁sıra",
        -7.35237072222525
      ],
      [
        "▁sonra",
        -9.079282947960452
      ],
      [
        "ip",
        -6.394888582471555
      ],
      [
        "▁yatak",
        -8.78523764552094
      ],
      [
        "▁gorusuldu",
        -5.6858929814905395
      ],
      [
        "▁endustri",
        -8.363474897029285
      ],
      [
        "▁sosyal",
        -7.1118867177857235
      ],
      [
        "▁al",
        -7.2018200930213085
      ],
      [
        "▁kus",
        -7.925498294022481
      ],
      [
        "▁elinde",
        -7.596396381410533
      ],
      [
        "mde",
        -8.479789624774064
      ],
      [
        "me",
        -6.392256311081204
      ],
      [
        "nuz",
        -7.61580098631229
      ],
      [
        "acak",
        -6.6799422779351065
      ],
      [
        "digi",
        -7.079380178567159
      ],
      [
        "ecegini",
        -8.76957127629441
      ],
      [
        "▁dur",
        -9.111472022848497
      ],
      [
        "▁islemlerinde",
        -9.183038263071598
      ],
      [
        "lıgı",
        -6.995295901641856
      ],
      [
        "▁yabancı",
        -9.276438495875407
      ],
      [
        "▁yıl",
        -7.582847028736413
      ],
      [
        "▁kayıt",
        -9.017543126666531
      ],
      [
        "o",
        -7.864822201423179
      ],
      [
        "▁yapıl",
        -8.025125184558425
      ],
      [
        "▁kira",
        -8.872941948924229
      ],
      [
        "ıslı",
        -7.8403697437904505
      ],
      [
        "▁anlat",
        -9.010201864040372
      ],
      [
        "▁kalem",
        -8.524333435687119
      ],
      [
        "bil",
        -7.318263304722521
      ],
      [
        "▁farklı",
        -6.672202960391765
      ],
      [
        "▁parcası",
        -8.825598065570013
      ],
      [
        "▁delta",
        -6.501953201151294
      ],
      [
        "▁yapmıs",
        -8.092179687870397
      ],
      [
        "▁geri",
        -8.197555425993341
      ],
      [
        "▁korku",
        -8.494357416941966
      ],
      [
        "▁beni",
        -8.629850291371724
      ],
      [
        "▁yapım",
        -9.238698991299685
      ],
      [
        "▁havayolu",
        -8.48483442699644
      ],
      [
        "da",
        -6.7086823028934255
      ],
      [
        "mesini",
        -8.93105118169019
      ],
      [
        "▁en",
        -3.9608485800670623
      ],
      [
        "▁yalnız",
        -7.33281012201264
      ],
      [
        "larındaki",
        -7.912385637745995
      ],
      [
        "▁radyo",
        -8.855919137372886
      ],
      [
        "sinin",
        -7.2549414503846075
      ],
      [
        "likle",
        -4.864519917768543
      ],
      [
        "▁cogu",
        -7.4896437518538574
      ],
      [
        "syon",
        -8.50772810440829
      ],
      [
        "▁olacaktı",
        -7.686503783249895
      ],
      [
        "▁ruya",
        -8.754009565700368
      ],
      [
        "▁calısan",
        -9.251257787614463
      ],
      [
        "▁yan",
        -8.025256445727319
      ],
      [
        "▁duvar",
        -7.931600776885059
      ],
      [
        "▁guven",
        -8.222528911226235
      ],
      [
        "▁gorur",
        -7.9204836149073845
      ],
      [
        "▁dusundu",
        -7.637187744243473
      ],
      [
        "et",
        -7.333926693390413
      ],
      [
        "▁gorun",
        -8.065971049868306
      ],
      [
        "▁yana",
        -8.105534684202944
      ],
      [
        "neral",
        -7.315006539033988
      ],
      [
        "▁gencler",
        -9.279488363856698
      ],
      [
        "▁musa",
        -6.911637104660019
      ],
      [
        "▁lutfe",
        -5.273672835575321
      ],
      [
        "▁saka",
        -8.804596605610993
      ],
      [
        "on",
        -7.300685884163319
      ],
      [
        "dar",
        -7.6194731209705875
      ],
      [
        "▁insanlar",
        -7.419011471556064
      ],
      [
        "▁san",
        -8.491653599456079
      ],
      [
        "▁butun",
        -5.3435263644264195
      ],
      [
        "sına",
        -6.611219682934075
      ],
      [
        "da",
        -4.996774832265106
      ],
      [
        "ydı",
        -7.499194122890556
      ],
      [
        "▁miami'de",
        -7.424221993532768
      ],
      [
        "▁konusuyor",
        -7.89689264280271
      ],
      [
        "▁hic",
        -9.242439273421196
      ],
      [
        "abilecegi",
        -9.282507851666004
      ],
      [
        "▁kısıtlama",
        -9.184433011539133
      ],
      [
        "▁gerek",
        -8.018635155101109
      ],
      [
        "▁guzel",
        -4.6868662279318345
      ],
      [
        "▁kasaba",
        -8.624268152781902
      ],
      [
        "▁sırada",
        -8.459219123407735
      ],
      [
        "lma",
        -8.741242430471948
      ],
      [
        "▁cat",
        -9.04158148824779
      ],
      [
        "▁198",
        -5.050423814575034
      ],
      [
        "iy",
        -7.061574036687148
      ],
      [
        "▁ticar",
        -7.098188015801196
      ],
      [
        "▁yakında",
        -7.032897940633355
      ],
      [
        "un",
        -5.755775350433606
      ],
      [
        "▁vucudu",
        -8.943730504657225
      ],
      [
        "▁cagrı",
        -9.21081780500289
      ],
      [
        "▁demek",
        -7.7193607297034
      ],
      [
        "▁toplantı",
        -8.326142672340858
      ],
      [
        "▁gecti",
        -6.806410008391679
      ],
      [
        "▁gecmis",
        -7.749976290057055
      ],
      [
        "▁agzı",
        -9.224906671889105
      ],
      [
        "v",
        -2.1317723992754445
      ],
      [
        "ecek",
        -7.6413390715306155
      ],
      [
        "▁saha",
        -8.666121821897075
      ],
      [
        "▁alıcı",
        -8.684474939399191
      ],
      [
        "▁varlıklar",
        -9.079354418257184
      ],
      [
        "se",
        -6.282812172293341
      ],
      [
        "▁yiyecek",
        -8.021940945521333
      ],
      [
        "misti",
        -6.5142912228694145
      ],
      [
        "▁sur",
        -7.981345808981285
      ],
      [
        "ti",
        -7.495080239910468
      ],
      [
        "er",
        -5.65513748265188
      ],
      [
        "▁basladı",
        -5.979293379661058
      ],
      [
        "▁taksi",
        -8.910186564666272
      ],
      [
        "▁devri",
        -8.961495323919815
      ],
      [
        "▁temiz",
        -9.159794662936282
      ],
      [
        "▁buldu",
        -6.981970595712374
      ],
      [
        "▁per",
        -9.109518577263938
      ],
      [
        "▁dusuk",
        -6.218404771614379
      ],
      [
        "▁mum",
        -7.055709991310947
      ],
      [
        "▁onay",
        -8.90065117348464
      ],
      [
        "▁temmuz",
        -7.413487010220329
      ],
      [
        "'",
        -6.823662010822051
      ],
      [
        "5",
        -12.802702672349787
      ],
      [
        "▁s",
        -7.344930797795903
      ],
      [
        "▁yarın",
        -7.948401929099037
      ],
      [
        "k",
        -3.6843136976939315
      ],
      [
        "▁p",
        -7.133818923010828
      ],
      [
        "▁sis",
        -9.262693680190074
      ],
      [
        "▁kaynak",
        -8.224967396196647
      ],
      [
        "ustu",
        -9.19108277506911
      ],
      [
        "▁tanı",
        -9.26708362717759
      ],
      [
        "▁kas",
        -8.154356497786436
      ],
      [
        "▁gerekiyor",
        -7.23860932086348
      ],
      [
        "ma",
        -7.0916904523040865
      ],
      [
        "▁misafir",
        -8.340342401888913
      ],
      [
        "▁temiz",
        -5.273886589404727
      ],
      [
        "▁air",
        -6.441528599237535
      ],
      [
        "▁mehmet",
        -6.7328359076615385
      ],
      [
        "▁temsil",
        -9.006376220962853
      ],
      [
        "▁zorunda",
        -8.446868069743477
      ],
      [
        "g",
        -7.059723691178884
      ],
      [
        "▁ka",
        -7.193509995414806
      ],
      [
        "▁oldugum",
        -7.8136053884118395
      ],
      [
        "teki",
        -7.159472131224541
      ],
      [
        "▁gecmis",
        -8.966971508353096
      ],
      [
        "▁boz",
        -8.959434886543468
      ],
      [
        "▁h",
        -5.985551101189426
      ],
      [
        "ve",
        -7.945983395405356
      ],
      [
        "▁taze",
        -7.740657844534185
      ],
      [
        "9",
        -4.905248477984598
      ],
      [
        "▁lake",
        -6.5667646715333206
      ],
      [
        "▁bayram",
        -8.638452126817239
      ],
      [
        "lugu",
        -7.674978099217801
      ],
      [
        "▁simdi",
        -4.839658505846723
      ],
      [
        "tu",
        -4.465248438584364
      ],
      [
        "▁i",
        -7.695737983531465
      ],
      [
        "▁temizlik",
        -7.700960763927924
      ],
      [
        "▁aksamı",
        -8.6466799098704
      ],
      [
        "▁alabilir",
        -7.849201938218147
      ],
      [
        "▁cal",
        -8.070071060742738
      ],
      [
        "▁kalı",
        -9.201726529492726
      ],
      [
        "▁donemde",
        -8.723918542809393
      ],
      [
        "▁ba",
        -7.720623336708646
      ],
      [
        "tik",
        -8.101488020118623
      ],
      [
        "▁hırsız",
        -9.18418650956751
      ],
      [
        "▁az",
        -6.047843659493168
      ],
      [
        "▁yuz",
        -5.128319349560085
      ],
      [
        "si",
        -5.109432440690228
      ],
      [
        "▁kal",
        -7.8409149477746185
      ],
      [
        "i",
        -3.0732711944739446
      ],
      [
        "▁kazandı",
        -7.2538733009845595
      ],
      [
        "tmek",
        -9.068028978378308
      ],
      [
        "▁havayolları",
        -7.47912357976236
      ],
      [
        "▁teklifi",
        -8.566254542680781
      ],
      [
        "yor",
        -7.995124121418993
      ],
      [
        "▁resim",
        -8.579645970805329
      ],
      [
        "▁kendileri",
        -6.4584490618068315
      ],
      [
        "icin",
        -5.8969885216171365
      ],
      [
        "▁cıkardı",
        -7.331309746760414
      ],
      [
        "en",
        -5.3052406247657595
      ],
      [
        "ar",
        -6.810744505096577
      ],
      [
        "▁hepsi",
        -4.889312156628241
      ],
      [
        "▁yanıt",
        -9.220194832855992
      ],
      [
        "▁baskaları",
        -8.996029422820882
      ],
      [
        "▁acık",
        -6.383565921314693
      ],
      [
        "▁co",
        -7.299272965955132
      ],
      [
        "l",
        -11.802702672349783
      ],
      [
        "▁acık",
        -7.077738448004128
      ],
      [
        "▁boston",
        -5.570586973517922
      ],
      [
        "▁dogu",
        -7.251575912487449
      ],
      [
        "▁lezzetleri",
        -8.992709993633838
      ],
      [
        "▁goz",
        -7.0150202329835025
      ],
      [
        "o",
        -7.574551781463574
      ],
      [
        "en",
        -5.647916873321357
      ],
      [
        "▁belge",
        -8.894691988751632
      ],
      [
        "▁altı",
        -4.934015652473771
      ],
      [
        "▁sag",
        -6.620873429776334
      ],
      [
        "▁ekmegi",
        -9.265638365571784
      ],
      [
        "▁manzara",
        -8.565413595026554
      ],
      [
        "mektedir",
        -6.655502536831175
      ],
      [
        "[UNK]",
        0.0
      ],
      [
        "▁potansiyel",
        -9.210748574717956
      ],
      [
        "ındaki",
        -6.302860002047394
      ],
      [
        "irlik",
        -5.69607855368877
      ],
      [
        "▁beyle",
        -8.421985248177215
      ],
      [
        "▁makale",
        -9.261680381952793
      ],
      [
        "▁neden",
        -7.877552953613557
      ],
      [
        "▁street",
        -6.9744101989031275
      ],
      [
        "▁yuzu",
        -8.181133079944036
      ],
      [
        "▁ihtimal",
        -9.039682115935378
      ],
      [
        "den",
        -5.765485517110782
      ],
      [
        "▁miami'",
        -7.018428454809469
      ],
      [
        "▁merkezin",
        -8.600576007573391
      ],
      [
        "un",
        -7.1428045703567795
      ],
      [
        "▁gec",
        -6.6891732358273925
      ],
      [
        "▁seyi",
        -8.096808847356328
      ],
      [
        "un",
        -7.422220092128157
      ],
      [
        "▁gorunuyor",
        -7.4224956947497684
      ],
      [
        "yen",
        -6.952143961502724
      ],
      [
        "▁a",
        -7.747210991090319
      ],
      [
        "▁fikir",
        -8.446856982747711
      ],
      [
        "um",
        -7.115616408515032
      ],
      [
        "z",
        -4.5682277971428595
      ],
      [
        "▁pat",
        -8.827477309398573
      ],
      [
        "▁las",
        -6.378821391878455
      ],
      [
        "▁etki",
        -7.7950353566217885
      ],
      [
        "▁sehrin",
        -8.618774669483278
      ],
      [
        "l",
        -6.528768719985566
      ],
      [
        "▁cıktı",
        -6.204929595937625
      ],
      [
        "▁er",
        -8.169414204427131
      ],
      [
        "▁millet",
        -8.563894768740518
      ],
      [
        "1",
        -4.618758539404044
      ],
      [
        "▁sesi",
        -8.268319896631855
      ],
      [
        "▁borsası",
        -8.192722778965702
      ],
      [
        "▁aralık",
        -8.762239315818604
      ],
      [
        "▁bekliyor",
        -7.350871425835006
      ],
      [
        "▁altında",
        -7.4558875672301195
      ],
      [
        "▁diego'",
        -7.16339760840913
      ],
      [
        "kte",
        -7.35037593173012
      ],
      [
        "ele",
        -12.035945782102672
      ],
      [
        ".",
        -7.3766766886513615
      ],
      [
        "▁be",
        -7.50502265943056
      ],
      [
        "▁gecer",
        -7.885843349113295
      ],
      [
        "▁boru",
        -9.238359462749514
      ],
      [
        "▁faturam",
        -8.395516010479902
      ],
      [
        "▁kadınlar",
        -8.271179134368275
      ],
      [
        "▁icim",
        -9.222414434589481
      ],
      [
        "ah",
        -10.1029767265326
      ],
      [
        "nda",
        -6.9370442823339475
      ],
      [
        "▁bo",
        -7.415771418175041
      ],
      [
        "▁cesit",
        -6.548089751462578
      ],
      [
        "▁saf",
        -9.113248964914352
      ],
      [
        "▁yemekleri",
        -7.096723136266368
      ],
      [
        "us",
        -7.950444729201696
      ],
      [
        "▁yon",
        -7.340045931705189
      ],
      [
        "▁girdi",
        -7.08717183924109
      ],
      [
        "▁operasyon",
        -8.551524648652535
      ],
      [
        "▁kenar",
        -8.53889699064589
      ],
      [
        "▁cıkarma",
        -8.813071291405155
      ],
      [
        "▁takım",
        -8.211745448092689
      ],
      [
        "▁yardımcısı",
        -8.693668710495817
      ],
      [
        "▁bogaz",
        -9.062349682467552
      ],
      [
        "▁tedbir",
        -9.21074917215959
      ],
      [
        "▁kalite",
        -6.853378659999226
      ],
      [
        "iz",
        -6.313497623855728
      ],
      [
        "u",
        -5.368192056433578
      ],
      [
        "▁b",
        -7.700730180222658
      ],
      [
        "▁otuz",
        -5.90962280616334
      ],
      [
        "▁yıllarda",
        -8.77114918050395
      ],
      [
        "▁yak",
        -8.12052216939461
      ],
      [
        "▁savcı",
        -8.992777740642275
      ],
      [
        "az",
        -6.531221546471877
      ],
      [
        "kalan",
        -7.808471192159594
      ],
      [
        "▁kalın",
        -7.857673845133262
      ],
      [
        "▁kutu",
        -8.527365836920657
      ],
      [
        "&",
        -7.467592664439693
      ],
      [
        "f",
        -7.787995550812539
      ],
      [
        "lug",
        -8.923326078959061
      ],
      [
        "▁satım",
        -8.208283820323697
      ],
      [
        "mızı",
        -8.10700279754544
      ],
      [
        "▁ederi",
        -5.945113390437031
      ],
      [
        "yacak",
        -7.885185747428374
      ],
      [
        "▁canlı",
        -9.246052834912973
      ],
      [
        "▁deneme",
        -8.836958739599474
      ],
      [
        "▁23",
        -6.3598901647095225
      ],
      [
        "dan",
        -6.950235826568245
      ],
      [
        "um",
        -7.390982499019929
      ],
      [
        "▁etmem",
        -7.137361802486287
      ],
      [
        "▁ka",
        -6.481825642100741
      ],
      [
        "▁degisim",
        -8.91459490589699
      ],
      [
        "▁gec",
        -7.33005100813819
      ],
      [
        "▁duzenleme",
        -8.97687974030394
      ],
      [
        "▁sıkı",
        -7.181068180507191
      ],
      [
        "h",
        -6.555355766760138
      ],
      [
        "v",
        -7.387732354266288
      ],
      [
        "▁detay",
        -9.237804491029996
      ],
      [
        "▁verme",
        -8.094993601400304
      ],
      [
        "▁kor",
        -8.61770112132959
      ],
      [
        "▁di",
        -4.275857339641559
      ],
      [
        "▁yakın",
        -8.623037748176728
      ],
      [
        "bi",
        -7.635688365991328
      ],
      [
        "▁h",
        -7.308813907456983
      ],
      [
        "▁durum",
        -7.742149563856661
      ],
      [
        "ce",
        -7.710866603726851
      ],
      [
        "gen",
        -9.003035137492052
      ],
      [
        "▁tarafta",
        -9.249338606428145
      ],
      [
        "▁al",
        -7.795260645787722
      ],
      [
        "▁suyu",
        -8.41561817547532
      ],
      [
        "▁doları'n",
        -8.481726758834391
      ],
      [
        "if",
        -7.625474469729989
      ],
      [
        "▁ki",
        -8.70913119721381
      ],
      [
        "p",
        -6.305688863920394
      ],
      [
        "▁petrol",
        -8.275989561185678
      ],
      [
        "▁ucusun",
        -9.112454499905972
      ],
      [
        "▁yonetici",
        -9.199350525844205
      ],
      [
        "▁begenmedi",
        -7.132388073058135
      ],
      [
        "ımız",
        -8.153705349671718
      ],
      [
        "▁gelmisti",
        -8.102380099240872
      ],
      [
        "▁ab",
        -9.077533453578743
      ],
      [
        "▁alamadi",
        -7.203692840512409
      ],
      [
        "▁ip",
        -8.706632675432822
      ],
      [
        "den",
        -7.475941032000357
      ],
      [
        "▁on",
        -4.304254523933001
      ],
      [
        "▁uy",
        -8.275846936832863
      ],
      [
        "nc",
        -6.268229403463583
      ],
      [
        "ks",
        -7.172960641244547
      ],
      [
        "z",
        -8.007712594047012
      ],
      [
        "▁altın",
        -7.788058523667842
      ],
      [
        ",",
        -11.259274920662085
      ],
      [
        "gal",
        -7.36865630030424
      ],
      [
        "▁sahip",
        -7.24706871924641
      ],
      [
        "▁etti",
        -5.244491546802552
      ],
      [
        "▁uygundu",
        -7.74601068098326
      ],
      [
        "▁phoenix'de",
        -7.159244228942083
      ],
      [
        "lerimi",
        -8.923182469167552
      ],
      [
        "den",
        -5.2988320881581235
      ],
      [
        "▁bin",
        -4.672987243887961
      ],
      [
        "▁icecekler",
        -8.867833813999916
      ],
      [
        "▁geciyor",
        -7.7239117338181345
      ],
      [
        "▁ogrenciler",
        -9.28769993217673
      ],
      [
        "▁cincinnati'de",
        -7.52464228509177
      ],
      [
        "▁dunya",
        -6.9158611539775805
      ],
      [
        "▁yok",
        -7.2599109513501
      ],
      [
        "▁car",
        -8.178771182452952
      ],
      [
        "▁emeklilik",
        -9.21177305999101
      ],
      [
        "▁olması",
        -8.526793766343046
      ],
      [
        "▁at",
        -7.2943490731859235
      ],
      [
        "▁sonra",
        -7.334234802096419
      ],
      [
        "▁artısla",
        -8.031311801177289
      ],
      [
        "olumlu",
        -7.868335060996275
      ],
      [
        "▁oteldi",
        -7.456336970217005
      ],
      [
        "s",
        -11.802702672349788
      ],
      [
        "▁kırı",
        -9.090335324780302
      ],
      [
        "elik",
        -7.316834905725905
      ],
      [
        "lemeye",
        -9.174259126096127
      ],
      [
        "▁yuru",
        -7.795307954809513
      ],
      [
        "▁",
        -1.722964280954951
      ],
      [
        "75",
        -6.51104329968174
      ],
      [
        "▁kadının",
        -9.023550078365309
      ],
      [
        "a",
        -3.8394838638049187
      ],
      [
        "▁cesitleri",
        -9.182209252663359
      ],
      [
        "ser",
        -8.926342985778371
      ],
      [
        "it",
        -6.001738549891658
      ],
      [
        "c",
        -4.853219729400437
      ],
      [
        "▁bacak",
        -9.135354618318635
      ],
      [
        "dıklarını",
        -9.073656286791635
      ],
      [
        "▁sermaye",
        -8.176417982173168
      ],
      [
        "▁sure",
        -7.178789539008516
      ],
      [
        "▁engel",
        -8.484848421861015
      ],
      [
        "▁personellerin",
        -8.789055907984848
      ],
      [
        "n",
        -3.992344194334313
      ],
      [
        "▁ilk",
        -6.030188554215659
      ],
      [
        "▁icinde",
        -7.1227718035844765
      ],
      [
        "▁guvenlik",
        -8.823162211600193
      ],
      [
        "▁seker",
        -8.623584753417013
      ],
      [
        "▁mukemmeldi",
        -7.583878826501949
      ],
      [
        "▁sevgi",
        -8.346934925838607
      ],
      [
        "▁kızın",
        -9.21799640948624
      ],
      [
        "▁film",
        -8.14115901478138
      ],
      [
        "▁tepe",
        -8.497979153807183
      ],
      [
        "▁dunyada",
        -8.803791541985877
      ],
      [
        "ce",
        -5.493483117133953
      ],
      [
        "▁kedi",
        -8.913213079029703
      ],
      [
        "▁anlama",
        -8.536668339387866
      ],
      [
        "▁yag",
        -8.821429509433102
      ],
      [
        "▁seyin",
        -9.117802402083788
      ],
      [
        "▁sessiz",
        -7.407287642389942
      ],
      [
        "▁girme",
        -9.23274771015684
      ],
      [
        "nız",
        -7.630489356036614
      ],
      [
        "▁personel",
        -6.611372239978121
      ],
      [
        "▁ediyordu",
        -7.4330149530419485
      ],
      [
        "▁elbise",
        -8.622984016105395
      ],
      [
        "ini",
        -6.190612021855556
      ],
      [
        "los",
        -6.9714308666271485
      ],
      [
        "fede",
        -7.174599714292586
      ],
      [
        "▁tutar",
        -9.224611772342476
      ],
      [
        "▁oldugun",
        -8.646577600885147
      ],
      [
        "landırma",
        -8.855843285745568
      ],
      [
        "▁gid",
        -7.611832682912436
      ],
      [
        "▁ayagı",
        -9.111350820429129
      ],
      [
        "sinde",
        -6.726026165697694
      ],
      [
        "▁on",
        -7.273122123832839
      ],
      [
        "meye",
        -6.748318156491168
      ],
      [
        "▁sozler",
        -8.8941013953589
      ],
      [
        "▁arası",
        -7.805190244867434
      ],
      [
        "▁olu",
        -7.273312295580439
      ],
      [
        "▁iddia",
        -7.889909561561604
      ],
      [
        "▁rehber",
        -8.40974490307236
      ],
      [
        "▁8",
        -5.673436706926549
      ],
      [
        "im",
        -7.477502352604834
      ],
      [
        "▁tatil",
        -7.439259249330476
      ],
      [
        "▁hepsini",
        -5.598394737968925
      ],
      [
        "n",
        -3.4238264918027923
      ],
      [
        "▁he",
        -5.38661033679238
      ],
      [
        "▁tut",
        -7.103699048508046
      ],
      [
        "b",
        -6.913023110279972
      ],
      [
        "▁kullanmadi",
        -7.197998212044448
      ],
      [
        "▁bakın",
        -8.100605837091344
      ],
      [
        "▁19",
        -8.967914711770463
      ],
      [
        "st",
        -7.453845982365774
      ],
      [
        "ciler",
        -8.080741300946546
      ],
      [
        "▁yasında",
        -8.582914753879415
      ],
      [
        "▁il",
        -8.271673643391694
      ],
      [
        "▁indi",
        -7.774694128208652
      ],
      [
        "▁esim",
        -8.991529220220112
      ],
      [
        "▁boston'da",
        -4.97617369373813
      ],
      [
        "▁soguk",
        -7.134653251528633
      ],
      [
        "▁ardın",
        -7.0154321903276164
      ],
      [
        "▁dc'de",
        -7.184565798167016
      ],
      [
        "ması",
        -7.70062480546779
      ],
      [
        "ye",
        -4.130045537692629
      ],
      [
        "▁onda",
        -5.624473296084898
      ],
      [
        "yle",
        -6.049537958767083
      ],
      [
        "▁tabi",
        -6.9795939395389155
      ],
      [
        "▁pes",
        -9.226688501142554
      ],
      [
        "a",
        -2.9601516385060815
      ],
      [
        "▁sonu",
        -5.939231458545545
      ],
      [
        "an",
        -5.292109909625392
      ],
      [
        "▁dunya",
        -7.463708335568586
      ],
      [
        "kten",
        -8.562354603792354
      ],
      [
        "▁kotu",
        -9.042313902298677
      ],
      [
        "udur",
        -7.374474651075438
      ],
      [
        "▁kuru",
        -6.828130241180895
      ],
      [
        "▁gorev",
        -7.534980193836744
      ],
      [
        "▁ce",
        -7.99436355648325
      ],
      [
        "▁endise",
        -8.551525593210915
      ],
      [
        "▁kurul",
        -9.161338155349183
      ],
      [
        "▁yok",
        -5.673449594892746
      ],
      [
        "altı",
        -9.102506942421773
      ],
      [
        "gr",
        -7.792940288498962
      ],
      [
        "▁olmak",
        -7.522140956449084
      ],
      [
        "▁kaybı",
        -9.185593045591085
      ],
      [
        "▁reklam",
        -7.889916414067815
      ],
      [
        "o",
        -5.5937071509101
      ],
      [
        "▁gazeteci",
        -9.153125670220152
      ],
      [
        "▁kos",
        -7.703959811696123
      ],
      [
        "l",
        -5.477768339298198
      ],
      [
        "▁yesil",
        -7.087950345497538
      ],
      [
        "▁programı",
        -8.582144385607688
      ],
      [
        "ın",
        -5.88751614650083
      ],
      [
        "▁bush",
        -7.373109476624779
      ],
      [
        "▁havayollarını",
        -8.760225216901649
      ],
      [
        "▁fazlayd",
        -7.995316240946607
      ],
      [
        "▁yo",
        -5.081569992204334
      ],
      [
        "bu",
        -8.194196647069859
      ],
      [
        "malıdır",
        -8.068200342471094
      ],
      [
        "▁arkadaslar",
        -8.696521361325377
      ],
      [
        "▁denver",
        -5.7868022311210385
      ],
      [
        "▁hizmette",
        -9.251893916818261
      ],
      [
        "▁adım",
        -7.861245742399232
      ],
      [
        "▁sup",
        -7.39327325865813
      ],
      [
        "▁1",
        -3.6394827259864
      ],
      [
        "▁hakları",
        -9.053160017244126
      ],
      [
        "▁otele",
        -9.23541388016689
      ],
      [
        "▁amerika",
        -7.597198809842749
      ],
      [
        "▁guzeldi",
        -4.630986174993107
      ],
      [
        "▁eve",
        -8.025529325030496
      ],
      [
        "▁hakk",
        -5.840372106910847
      ],
      [
        "i",
        -3.4756304079147933
      ],
      [
        "▁yen'",
        -7.446286463261055
      ],
      [
        "▁bun",
        -4.95641735510991
      ],
      [
        "i",
        -4.221177834337591
      ],
      [
        "▁olabilir",
        -5.960379009982213
      ],
      [
        "▁demis",
        -8.002527127695814
      ],
      [
        "▁b",
        -7.750653512732932
      ],
      [
        "▁cıkmıs",
        -7.782554533359185
      ],
      [
        "▁ahmet",
        -7.443061242354157
      ],
      [
        "▁harikayd",
        -7.845569420023782
      ],
      [
        "▁soyle",
        -8.550943117782213
      ],
      [
        "do",
        -8.702041847669687
      ],
      [
        "▁yuzme",
        -8.232460071784267
      ],
      [
        "▁kalıyor",
        -8.113316475280968
      ],
      [
        "ksiyon",
        -9.088675854786501
      ],
      [
        "▁zamanlarda",
        -8.832286087749498
      ],
      [
        "▁ac",
        -7.530147952764761
      ],
      [
        "▁fayda",
        -8.89352324865228
      ],
      [
        "▁sirketler",
        -8.507983034193309
      ],
      [
        "▁sat",
        -8.009129313709888
      ],
      [
        "▁ileri",
        -7.7160430465018335
      ],
      [
        "ecek",
        -6.5325837334617605
      ],
      [
        "ki",
        -5.536838665843374
      ],
      [
        "▁sozcu",
        -7.692032276247822
      ],
      [
        "ni",
        -6.180299696242456
      ],
      [
        "ladı",
        -7.227434632502908
      ],
      [
        ",",
        -11.199613634584775
      ],
      [
        "▁sa",
        -4.233276091639059
      ],
      [
        "▁on",
        -7.765378417422554
      ],
      [
        "▁duzen",
        -8.510805999341338
      ],
      [
        "▁bu",
        -3.2839112180953753
      ],
      [
        "▁ısı",
        -8.913740096246077
      ],
      [
        "▁odamiz",
        -8.578578676601948
      ],
      [
        "▁goster",
        -4.823268618043617
      ],
      [
        "▁aile",
        -7.166158961289619
      ],
      [
        "▁duydu",
        -7.8035315563477194
      ],
      [
        "ey",
        -7.83845539439784
      ],
      [
        "▁icer",
        -7.454114929617575
      ],
      [
        "▁yapil",
        -8.089569695231287
      ],
      [
        "▁ah",
        -8.750882367660655
      ],
      [
        "te",
        -6.233763711407226
      ],
      [
        "▁milyar",
        -8.422338155477378
      ],
      [
        "▁abd",
        -9.15323872140351
      ],
      [
        "▁cekme",
        -9.171977629966499
      ],
      [
        "▁isleri",
        -9.074726898856774
      ],
      [
        "r",
        -4.059466234863722
      ],
      [
        "▁o",
        -7.153300629920322
      ],
      [
        "ndaki",
        -7.280230974519307
      ],
      [
        "gunu",
        -7.634301236361402
      ],
      [
        "▁ardı",
        -8.862584214285423
      ],
      [
        "▁seklin",
        -8.87513507591423
      ],
      [
        "▁sık",
        -7.878130396083801
      ],
      [
        "ım",
        -7.449483007409628
      ],
      [
        "▁bes",
        -4.200467720609225
      ],
      [
        "▁gok",
        -8.933303167239398
      ],
      [
        "sal",
        -7.188944956305012
      ],
      [
        "▁pantolon",
        -9.184432783644159
      ],
      [
        "▁ek",
        -7.435711031827421
      ],
      [
        "▁ceyrekte",
        -8.824752563014453
      ],
      [
        "▁o",
        -6.656188534955952
      ],
      [
        "▁isci",
        -8.600063799706039
      ],
      [
        "▁piyasada",
        -9.075641606379179
      ],
      [
        "▁sonucları",
        -8.80301411662335
      ],
      [
        "▁yiyecekler",
        -8.602773030143483
      ],
      [
        "▁bugun",
        -7.690856160753175
      ],
      [
        "▁alem",
        -9.051357663466767
      ],
      [
        "▁yerini",
        -8.713919929322206
      ],
      [
        "acak",
        -6.006877031679005
      ],
      [
        "ol",
        -8.347550928255544
      ],
      [
        "dan",
        -5.896843003039089
      ],
      [
        "▁dogru",
        -8.579498129888698
      ],
      [
        "▁yuregi",
        -8.818723710077887
      ],
      [
        "▁oluyor",
        -6.667390764780481
      ],
      [
        "▁normal",
        -7.42396388138581
      ],
      [
        "▁asırı",
        -7.302981888880951
      ],
      [
        "▁karsı",
        -6.153679112273401
      ],
      [
        "▁defter",
        -8.766081686830475
      ],
      [
        "▁sayi",
        -9.228043084677
      ],
      [
        "at",
        -6.814759355266659
      ],
      [
        "▁dc'",
        -7.009056212200828
      ],
      [
        "▁gelecek",
        -8.855433588300386
      ],
      [
        "▁cin",
        -9.161046873208308
      ],
      [
        "iyle",
        -7.379445657613217
      ],
      [
        "▁lık",
        -7.543427626244069
      ],
      [
        "▁tepki",
        -8.783329837495078
      ],
      [
        "▁ekmek",
        -8.276728176742061
      ],
      [
        "▁ulus",
        -7.084374921034155
      ],
      [
        "lasma",
        -8.499340675195468
      ],
      [
        "▁sabahı",
        -7.624812523957997
      ],
      [
        "▁satıs",
        -7.570200307478788
      ],
      [
        "▁s",
        -4.608337497691907
      ],
      [
        "▁tesiste",
        -8.736878218116043
      ],
      [
        "▁baltimore",
        -7.055212171793511
      ],
      [
        "▁satıslar",
        -7.933660028012585
      ],
      [
        "▁ogrenci",
        -8.629378093715886
      ],
      [
        "”",
        -9.78282532741986
      ],
      [
        "▁ru",
        -8.910031687408365
      ],
      [
        "lig",
        -8.1691686715237
      ],
      [
        "ev",
        -11.802702672349788
      ],
      [
        "▁yıgın",
        -9.238118675363424
      ],
      [
        "nca",
        -6.940399481638487
      ],
      [
        "▁c",
        -6.576893166464727
      ],
      [
        "▁analistler",
        -8.17242682380744
      ],
      [
        "li",
        -7.324711775814479
      ],
      [
        "▁almıs",
        -7.89597101180678
      ],
      [
        "▁sevk",
        -9.126819610075465
      ],
      [
        "s",
        -5.438952982141783
      ],
      [
        "▁halinde",
        -8.348599016715998
      ],
      [
        "iz",
        -8.018400537826322
      ],
      [
        "diklerini",
        -9.094904089610862
      ],
      [
        "▁bu",
        -7.798562956557148
      ],
      [
        "ı",
        -5.39340979290086
      ],
      [
        "▁ola",
        -3.676043512832142
      ],
      [
        "▁gerek",
        -8.390566962961785
      ],
      [
        "▁birini",
        -6.202515730872842
      ],
      [
        "s",
        -4.562271145797526
      ],
      [
        "▁ciddi",
        -7.1215799823785355
      ],
      [
        "▁vegas'",
        -7.070371768471581
      ],
      [
        "me",
        -5.237865941647582
      ],
      [
        "baz",
        -7.624916523494468
      ],
      [
        "▁getirdi",
        -7.616702195727266
      ],
      [
        "▁san",
        -6.097867166250173
      ],
      [
        "▁hale",
        -8.01677737410305
      ],
      [
        "▁bak",
        -8.489035130311635
      ],
      [
        "▁ic",
        -7.936480249582097
      ],
      [
        "▁si",
        -7.881488492099302
      ],
      [
        "▁v",
        -7.559194923527462
      ],
      [
        "▁dogru",
        -6.1605310263063116
      ],
      [
        "▁yaka",
        -8.63803920826303
      ],
      [
        "▁ayrılı",
        -7.428865757157178
      ],
      [
        "ger",
        -10.10842729998905
      ],
      [
        "▁bakıyor",
        -7.6522711076711545
      ],
      [
        "▁olmaya",
        -9.101696348222628
      ],
      [
        "▁mar",
        -7.509950904645063
      ],
      [
        "▁agrı",
        -9.133908953145543
      ],
      [
        "▁elini",
        -8.516581796678722
      ],
      [
        "▁yapmadı",
        -8.09102929740633
      ],
      [
        "ler",
        -4.863815379969876
      ],
      [
        "▁tası",
        -8.93250373004894
      ],
      [
        "el",
        -6.2895218635936505
      ],
      [
        "▁agustos'ta",
        -7.1304178910254
      ],
      [
        "▁18",
        -6.1993401006974596
      ],
      [
        "▁ortasında",
        -9.096513056816823
      ],
      [
        "▁arada",
        -7.993075594990381
      ],
      [
        "▁doları",
        -7.859032420018468
      ],
      [
        "tim",
        -9.216208916835878
      ],
      [
        "de",
        -5.956809009026433
      ],
      [
        "▁kadar",
        -8.75002736138481
      ],
      [
        "acagı",
        -7.579074694701324
      ],
      [
        "unuz",
        -9.205735051768928
      ],
      [
        "uyor",
        -6.75352606803786
      ],
      [
        "▁sorunu",
        -8.221384715857418
      ],
      [
        "▁kalkıyor",
        -7.630511019979586
      ],
      [
        "kun",
        -6.934578789773962
      ],
      [
        "mistir",
        -7.126474716936368
      ],
      [
        "▁fark",
        -8.00511627382875
      ],
      [
        "▁ve",
        -8.709763398517566
      ],
      [
        "▁kendisin",
        -5.410287165828488
      ],
      [
        "v",
        -6.891160599133084
      ],
      [
        "▁yoneticileri",
        -8.96506247283475
      ],
      [
        "daki",
        -5.750857753661019
      ],
      [
        "▁american",
        -6.195236345137257
      ],
      [
        "▁alım",
        -7.567475952384333
      ],
      [
        "▁f",
        -9.39758159374616
      ],
      [
        "▁z",
        -7.666574241296581
      ],
      [
        "▁olun",
        -8.104581203632797
      ],
      [
        "▁adamları",
        -8.87638357931822
      ],
      [
        "cı",
        -6.737588271946104
      ],
      [
        "▁musteriler",
        -9.02979892345004
      ],
      [
        "▁gerek",
        -8.14400758023053
      ],
      [
        "sel",
        -5.723214982446909
      ],
      [
        "▁yeni",
        -4.876323234096239
      ],
      [
        "▁lira",
        -8.051853214514368
      ],
      [
        "▁3",
        -4.285712194127713
      ],
      [
        "▁listele",
        -6.391265677579597
      ],
      [
        "▁ucuslar",
        -6.356494866111884
      ],
      [
        "e",
        -3.96344570609239
      ],
      [
        "▁o",
        -7.858857258088568
      ],
      [
        "▁ulke",
        -7.739514780959662
      ],
      [
        "mesi",
        -6.687189361268551
      ],
      [
        "▁city'de",
        -6.741889597489916
      ],
      [
        "▁temsilci",
        -8.792122335669898
      ],
      [
        "inda",
        -7.030220148536347
      ],
      [
        "▁otomobil",
        -8.077224789473089
      ],
      [
        "▁ilgili",
        -5.426669002869345
      ],
      [
        "siniz",
        -6.766674330877776
      ],
      [
        "▁ediliyor",
        -7.891656034002362
      ],
      [
        "▁sozu",
        -8.407804031540875
      ],
      [
        "▁har",
        -8.728657256896653
      ],
      [
        "/",
        -11.259274920622131
      ],
      [
        "meye",
        -7.783807652790883
      ],
      [
        "kadar",
        -6.308773486617229
      ],
      [
        "alı",
        -7.639942686466608
      ],
      [
        "oysa",
        -10.862622396443758
      ],
      [
        "▁turkiye",
        -6.205906336432703
      ],
      [
        "▁kokusu",
        -8.999723836130443
      ],
      [
        "▁hemen",
        -5.2483253520340405
      ],
      [
        "i",
        -5.477913994704318
      ],
      [
        "an",
        -7.668036448599424
      ],
      [
        "▁belirt",
        -7.683782046882066
      ],
      [
        "▁ilave",
        -8.953570676907452
      ],
      [
        "dur",
        -8.423067458290767
      ],
      [
        "[MASK]",
        0.0
      ],
      [
        "▁destekl",
        -7.789312649940847
      ],
      [
        "▁yanı",
        -8.188237653188077
      ],
      [
        "▁olmaya",
        -6.933581909972633
      ],
      [
        "▁giriste",
        -8.95705013391546
      ],
      [
        "▁iletisim",
        -9.039608923531553
      ],
      [
        "▁iceri",
        -8.033217702198717
      ],
      [
        "▁14",
        -6.171359778606929
      ],
      [
        "dan",
        -7.33257720045109
      ],
      [
        "▁karsı",
        -7.837352174554885
      ],
      [
        "us",
        -7.129492147559894
      ],
      [
        "▁sok",
        -8.961720428179198
      ],
      [
        "▁bura",
        -9.05998731247864
      ],
      [
        "cu",
        -5.83909274275951
      ],
      [
        "▁ogren",
        -7.9659007009808
      ],
      [
        "▁dis",
        -8.141637654345313
      ],
      [
        "b",
        -4.519809914103928
      ],
      [
        "ah",
        -7.906874148587282
      ],
      [
        "▁fort",
        -6.84110215969744
      ],
      [
        "▁top",
        -8.151243240101465
      ],
      [
        "▁hır",
        -9.184907560675674
      ],
      [
        "'da",
        -5.362147093715914
      ],
      [
        "▁tarla",
        -8.582925126425142
      ],
      [
        "v",
        -6.827833565912286
      ],
      [
        "lerimizi",
        -8.510313146234449
      ],
      [
        "▁bey",
        -6.831802248268732
      ],
      [
        "▁gecirdi",
        -7.6939253071302485
      ],
      [
        "suzluk",
        -8.913311963267702
      ],
      [
        "▁boyun",
        -8.973227801891834
      ],
      [
        "▁cay",
        -8.422484427262816
      ],
      [
        "▁adamın",
        -8.757063545815678
      ],
      [
        "l",
        -5.218757669442792
      ],
      [
        "▁ucretin",
        -8.691135842608755
      ],
      [
        "▁cocuklu",
        -6.314130727350257
      ],
      [
        "▁icin",
        -8.2977333032575
      ],
      [
        "▁deniz",
        -6.797331955428738
      ],
      [
        "▁bizde",
        -5.95228552226769
      ],
      [
        "▁arasında",
        -5.810899486861808
      ],
      [
        "▁sebebi",
        -9.017389117301413
      ],
      [
        "▁boy",
        -5.301293242611928
      ],
      [
        "cılar",
        -7.815495264906796
      ],
      [
        "▁kriz",
        -9.075898134331435
      ],
      [
        "c",
        -12.802702672349787
      ],
      [
        "▁dallas",
        -5.916838167734813
      ],
      [
        "makta",
        -7.345754464848871
      ],
      [
        "▁cogu",
        -6.224369063045475
      ],
      [
        "%",
        -4.152749503307038
      ],
      [
        "er",
        -6.002466897129618
      ],
      [
        "yan",
        -7.229692074593494
      ],
      [
        "nı",
        -6.710902618572601
      ],
      [
        "▁10'da",
        -9.039832816355691
      ],
      [
        "▁acıklanma",
        -7.963632927656453
      ],
      [
        "amadı",
        -7.507309214303723
      ],
      [
        "▁koydu",
        -7.618250198583973
      ],
      [
        "▁abd",
        -5.830124321443024
      ],
      [
        "▁hukumet",
        -7.879232898213697
      ],
      [
        "▁a",
        -11.666990925470234
      ],
      [
        "▁yetersiz",
        -6.950387900474548
      ],
      [
        "▁chicago'da",
        -7.039318880199267
      ],
      [
        "em",
        -11.241644675113925
      ],
      [
        "▁ba",
        -3.487307104758375
      ],
      [
        "▁nerede",
        -6.062949956164146
      ],
      [
        "▁numara",
        -7.740614440063101
      ],
      [
        "▁bicim",
        -8.645191348819985
      ],
      [
        "▁ihracat",
        -9.067841809232995
      ],
      [
        "▁esya",
        -8.3287867542646
      ],
      [
        "likte",
        -8.990350068696134
      ],
      [
        "▁cak",
        -8.789478667596335
      ],
      [
        "cı",
        -8.096876134676762
      ],
      [
        "▁hal",
        -8.006565396306218
      ],
      [
        "ka",
        -7.172019659695892
      ],
      [
        "▁'",
        -10.790149558202552
      ],
      [
        "▁ayn",
        -7.35387788868719
      ],
      [
        "▁sek",
        -8.962457730714776
      ],
      [
        "dir",
        -4.943700873807415
      ],
      [
        "c",
        -6.519041070915972
      ],
      [
        "▁olaylar",
        -9.075747575081042
      ],
      [
        "ir",
        -7.350414316749047
      ],
      [
        "▁hanım",
        -8.354042280073482
      ],
      [
        "e",
        -14.014958445102625
      ],
      [
        "▁ikinci",
        -5.434783497462611
      ],
      [
        "▁inc",
        -9.039842413567403
      ],
      [
        "▁cift",
        -7.316286050378702
      ],
      [
        "sınız",
        -7.186867072256493
      ],
      [
        "▁itiraz",
        -9.085595176457382
      ],
      [
        "▁camasır",
        -9.10940864001229
      ],
      [
        "luk",
        -7.226771119866721
      ],
      [
        "c",
        -7.2183141205423
      ],
      [
        "▁yere",
        -7.686404501796405
      ],
      [
        "▁gider",
        -7.519228868430322
      ],
      [
        "▁dilim",
        -9.159717604418727
      ],
      [
        "▁alısveris",
        -8.783321678300645
      ],
      [
        "▁koru",
        -8.830454329298705
      ],
      [
        "ta",
        -7.075810781638112
      ],
      [
        "▁dokuz",
        -5.927416539257818
      ],
      [
        "uz",
        -7.57519734604935
      ],
      [
        "▁ol",
        -7.786574060490411
      ],
      [
        "▁sonuclar",
        -9.019147457246486
      ],
      [
        "▁bilme",
        -8.629309475141248
      ],
      [
        "▁yen",
        -8.369360404086654
      ],
      [
        "▁kurt",
        -9.24027110472299
      ],
      [
        "▁geri",
        -5.740966921982887
      ],
      [
        "aki",
        -9.842291196683835
      ],
      [
        "▁oluyordu",
        -8.038549691026162
      ],
      [
        "▁muzik",
        -8.9131422226511
      ],
      [
        "sa",
        -7.17472110376118
      ],
      [
        "▁dir",
        -4.563511654215546
      ],
      [
        "▁ataturk",
        -7.278120223726106
      ],
      [
        "▁h",
        -6.614432653222827
      ],
      [
        "▁kaldı",
        -6.863616846908395
      ],
      [
        "sız",
        -9.210903841713929
      ],
      [
        "larda",
        -6.625079208474298
      ],
      [
        "▁geri",
        -7.1435128391119385
      ],
      [
        "▁anı",
        -9.2178353225197
      ],
      [
        "▁giy",
        -8.090322855143496
      ],
      [
        "▁ellerini",
        -9.031471357866398
      ],
      [
        "▁bitki",
        -9.189945955655304
      ],
      [
        "▁baskan",
        -7.535966489800675
      ],
      [
        "▁bil",
        -8.747672660345632
      ],
      [
        "▁degildi",
        -2.1591214805820806
      ],
      [
        "yle",
        -6.687487082009293
      ],
      [
        "dir",
        -5.261977899536268
      ],
      [
        "ımı",
        -8.200450069658823
      ],
      [
        "▁turkiye'de",
        -7.062093433298694
      ],
      [
        "▁",
        -5.678204919388431
      ],
      [
        "▁olus",
        -7.870410008112698
      ],
      [
        "sunu",
        -7.736077907063988
      ],
      [
        "▁ve",
        -2.837416967995198
      ],
      [
        "lilik",
        -8.857019452816896
      ],
      [
        "▁cocukları",
        -8.738952316531147
      ],
      [
        "▁ust",
        -8.93041255686945
      ],
      [
        "▁kurulu",
        -8.24544565600847
      ],
      [
        "▁hali",
        -7.3462464573427555
      ],
      [
        "▁kes",
        -7.9754174227520505
      ],
      [
        "▁hakkı",
        -6.866394034265104
      ],
      [
        "▁yorum",
        -7.490398971489916
      ],
      [
        "▁sık",
        -8.93259984114122
      ],
      [
        "▁yuzlu",
        -6.844632981068912
      ],
      [
        "▁de",
        -7.3610422359890055
      ],
      [
        "▁anayasa",
        -9.039623996894203
      ],
      [
        "2",
        -8.544205719619663
      ],
      [
        "▁olan",
        -4.2921883242688
      ],
      [
        "ca",
        -6.899445365206607
      ],
      [
        "iyeti",
        -8.93949850243172
      ],
      [
        "▁cıkan",
        -8.029926104916933
      ],
      [
        "s",
        -7.9406784753845425
      ],
      [
        "▁yer",
        -6.667568298399141
      ],
      [
        "▁damak",
        -8.923189488888688
      ],
      [
        "▁edebilir",
        -7.9759416652216935
      ],
      [
        "▁fil",
        -8.976824843978608
      ],
      [
        "u",
        -4.295690201514403
      ],
      [
        "▁dost",
        -8.46748239616879
      ],
      [
        "z",
        -12.24335423160404
      ],
      [
        "▁terk",
        -8.925479396283999
      ],
      [
        "▁kardes",
        -8.572188542629128
      ],
      [
        "deta",
        -6.817374011480661
      ],
      [
        "▁yıllık",
        -6.374732067768213
      ],
      [
        "▁gucu",
        -8.751508144810568
      ],
      [
        "mek",
        -7.388166812058659
      ],
      [
        "!",
        -5.67393291373121
      ],
      [
        "▁olcude",
        -8.271058178134336
      ],
      [
        "▁lo",
        -7.002746196832695
      ],
      [
        "gun",
        -8.239400959295148
      ],
      [
        ";",
        -5.873728944142089
      ],
      [
        "dır",
        -7.491403339716459
      ],
      [
        "▁in",
        -8.066435493824777
      ],
      [
        "7",
        -8.19067020562656
      ],
      [
        "cı",
        -6.208280676811853
      ],
      [
        "▁sık",
        -6.294492815396526
      ],
      [
        "▁faiz",
        -7.650555241183481
      ],
      [
        "▁sirketin",
        -7.754069549801167
      ],
      [
        "▁nakit",
        -8.749154776807558
      ],
      [
        "▁13",
        -6.181566688398235
      ],
      [
        "▁pozisyon",
        -9.062336195022812
      ],
      [
        "▁ucuslarını",
        -7.160794388512329
      ],
      [
        "▁mi",
        -8.345773107887435
      ],
      [
        "▁sigorta",
        -8.276225633161324
      ],
      [
        "▁sart",
        -8.918153384795348
      ],
      [
        "▁sofra",
        -8.766082596799706
      ],
      [
        "▁de",
        -2.1420817504035963
      ],
      [
        "▁acı",
        -7.012028637456393
      ],
      [
        "ince",
        -6.116245953076076
      ],
      [
        "▁chicago'",
        -7.181589550952263
      ],
      [
        "▁baltimore'",
        -5.751682625962839
      ],
      [
        "▁-",
        -9.780423386250764
      ],
      [
        "▁yolun",
        -9.197579212966087
      ],
      [
        "▁konusu",
        -8.558032382416304
      ],
      [
        "▁ortalama",
        -8.06556311210861
      ],
      [
        "▁gercekte",
        -5.957249809190558
      ],
      [
        "mayacak",
        -7.8906388322215175
      ],
      [
        "m",
        -12.802702672349787
      ],
      [
        "▁kırk",
        -6.011931561604349
      ],
      [
        "▁o",
        -7.2866595043557
      ],
      [
        "mizi",
        -8.244898374858636
      ],
      [
        "▁ucag",
        -8.484468683830647
      ],
      [
        "-",
        -6.464735180719357
      ],
      [
        "▁federa",
        -7.491109708664908
      ],
      [
        "▁bilim",
        -7.656489634009978
      ],
      [
        "et",
        -6.8936994019445175
      ],
      [
        "▁sabah",
        -6.836555084669988
      ],
      [
        "▁kimse",
        -7.678943387388964
      ],
      [
        "▁elde",
        -7.701076702273233
      ],
      [
        "▁baskanı",
        -7.606118206640778
      ],
      [
        "▁am",
        -5.9475683705752695
      ],
      [
        "▁l",
        -8.210971820502298
      ],
      [
        "▁kabul",
        -7.16351654772781
      ],
      [
        "▁si",
        -7.274225509181576
      ],
      [
        "▁kotuy",
        -6.60561887171558
      ],
      [
        "dar",
        -8.898133881054466
      ],
      [
        "▁uretimi",
        -8.959423920618764
      ],
      [
        "▁derece",
        -7.831622361792163
      ],
      [
        "▁numara",
        -8.446855595452353
      ],
      [
        "▁sor",
        -7.836084355901741
      ],
      [
        "▁hisseleri",
        -7.931710495568722
      ],
      [
        "▁seviye",
        -8.73932064363613
      ],
      [
        "▁attı",
        -7.323690295219331
      ],
      [
        "▁ne",
        -3.7234659756415116
      ],
      [
        "▁mustafa",
        -6.791076982860259
      ],
      [
        "lenme",
        -8.021150890968352
      ],
      [
        "▁topu",
        -8.939995510434105
      ],
      [
        "▁ydı",
        -4.64779151718307
      ],
      [
        "▁han",
        -9.027694436290492
      ],
      [
        "▁ordu",
        -8.46060733999651
      ],
      [
        "▁kurum",
        -9.177153494269744
      ],
      [
        "▁gun",
        -7.037441793609205
      ],
      [
        "▁gunu",
        -6.386325631530474
      ],
      [
        "t",
        -5.211446740624953
      ],
      [
        "ca",
        -4.628700976346801
      ],
      [
        "n",
        -5.745614067840431
      ],
      [
        "▁zarar",
        -8.130412808164333
      ],
      [
        "▁sekilde",
        -6.9343255899499665
      ],
      [
        "▁sec",
        -9.182176610237825
      ],
      [
        "▁fiyatlarını",
        -8.638058726049113
      ],
      [
        "'yi",
        -6.905114978370966
      ],
      [
        "▁olay",
        -8.46349931846309
      ],
      [
        "▁twa",
        -7.448518005463473
      ],
      [
        "▁ses",
        -7.752155795521833
      ],
      [
        "ha",
        -9.255242096426835
      ],
      [
        "▁ed",
        -8.426117456985327
      ],
      [
        "▁gunde",
        -8.585567963527751
      ],
      [
        "▁washington'da",
        -6.7207730902238065
      ],
      [
        "ik",
        -6.229394633051656
      ],
      [
        "▁ogle",
        -6.920594758086205
      ],
      [
        "▁sona",
        -8.349367676310766
      ],
      [
        "▁tam",
        -6.196690295557846
      ],
      [
        "▁vade",
        -8.745680466121406
      ],
      [
        "▁sikayet",
        -8.749131116760296
      ],
      [
        "ya",
        -7.426087363733705
      ],
      [
        "▁zaman",
        -7.1405633171011775
      ],
      [
        "▁olmadıgını",
        -8.513050283750847
      ],
      [
        "ya",
        -6.624486546172474
      ],
      [
        "▁ihtiyac",
        -8.107926473267032
      ],
      [
        "▁200",
        -6.130752197523191
      ],
      [
        "nden",
        -7.28572533756409
      ],
      [
        "▁",
        -5.331463034427627
      ],
      [
        "lerdi",
        -7.43356269603673
      ],
      [
        "▁bagım",
        -7.793375336438742
      ],
      [
        "▁hakkında",
        -8.527259240576434
      ],
      [
        "asagı",
        -7.350576247561033
      ],
      [
        "▁yerinde",
        -8.234066027005106
      ],
      [
        "lak",
        -8.536831793113809
      ],
      [
        "▁sınır",
        -8.3298947076584
      ],
      [
        "▁karı",
        -8.566794796700648
      ],
      [
        "errill",
        -7.514621870958839
      ],
      [
        "▁oysa",
        -7.627516959748586
      ],
      [
        "▁vardı",
        -5.652273649936847
      ],
      [
        "▁alın",
        -9.109537906635245
      ],
      [
        "▁hastalıgı",
        -9.143682261080059
      ],
      [
        "▁bira",
        -9.157952877464899
      ],
      [
        "▁mesele",
        -8.511043627760682
      ],
      [
        "▁uc",
        -3.768878928525731
      ],
      [
        "▁aktivite",
        -8.510979166396105
      ],
      [
        "▁di",
        -4.120192399565302
      ],
      [
        "▁insanların",
        -8.248402358363808
      ],
      [
        "▁bunun",
        -4.410861678317182
      ],
      [
        "▁kontrol",
        -8.185933144044473
      ],
      [
        "▁odedigim",
        -6.710237212953605
      ],
      [
        "▁dususle",
        -8.830459642248533
      ],
      [
        "yon",
        -8.749466343637714
      ],
      [
        "▁neredey",
        -6.709668161950811
      ],
      [
        "▁ici",
        -7.0951664394874765
      ],
      [
        "ligi",
        -7.2752044193087695
      ],
      [
        "▁sohbet",
        -9.062336192956653
      ],
      [
        "▁amac",
        -8.686474632285169
      ],
      [
        "▁begendi",
        -6.880585119097507
      ],
      [
        "▁17",
        -6.060985725555577
      ],
      [
        "▁yukse",
        -5.608932655277302
      ],
      [
        "▁verdigi",
        -7.9448733685188415
      ],
      [
        "▁mahkemesi",
        -9.147681174172533
      ],
      [
        "▁ma",
        -7.477458687759428
      ],
      [
        "▁haber",
        -7.612481008595935
      ],
      [
        "▁yapıyor",
        -7.016683794331016
      ],
      [
        "y",
        -5.290836037947181
      ],
      [
        "e",
        -5.432312471123907
      ],
      [
        "▁dava",
        -7.332121610820996
      ],
      [
        "gim",
        -7.898860368697099
      ],
      [
        "▁ne",
        -8.069372765439216
      ],
      [
        "▁gorusme",
        -8.391619475805019
      ],
      [
        "▁yasama",
        -9.026697745689788
      ],
      [
        "▁yılın",
        -8.243109969214476
      ],
      [
        "▁kemal",
        -6.8028234289062155
      ],
      [
        "▁hizmet",
        -6.071682423280232
      ],
      [
        "▁yapılan",
        -7.5606945253166895
      ],
      [
        "▁var",
        -6.823044519766965
      ],
      [
        "▁kredi",
        -7.582446703674739
      ],
      [
        "▁po",
        -8.203727834327825
      ],
      [
        "ko",
        -8.463319096629075
      ],
      [
        "▁olmadıgı",
        -8.119363727323169
      ],
      [
        "▁oglum",
        -8.96255225512436
      ],
      [
        "▁huzur",
        -9.06236040934031
      ],
      [
        "▁az",
        -6.228579455277073
      ],
      [
        "▁uzerin",
        -7.80555689592298
      ],
      [
        "▁okulu",
        -9.205439544105115
      ],
      [
        "▁6",
        -4.8583629380426645
      ],
      [
        "▁konus",
        -7.162879927215088
      ],
      [
        "▁sonu",
        -9.065469111129305
      ],
      [
        "▁ismi",
        -9.249987128533782
      ],
      [
        "t",
        -5.496963253063058
      ],
      [
        "lerinden",
        -7.1941704024461055
      ],
      [
        "unlu",
        -7.590970635454275
      ],
      [
        "▁kongre",
        -8.766081313591656
      ],
      [
        "▁soyle",
        -6.131883733396973
      ],
      [
        "▁ilgili",
        -9.252489540990508
      ],
      [
        "▁fazla",
        -5.6164715170281285
      ],
      [
        ".",
        -1.1587881497080552
      ],
      [
        "▁eden",
        -7.458773784158193
      ],
      [
        "▁takımı",
        -8.882447346923122
      ],
      [
        "▁paket",
        -8.855424707566847
      ],
      [
        "▁yuzunde",
        -8.949419357125475
      ],
      [
        "ebilir",
        -6.543855681370227
      ],
      [
        "ici",
        -9.115702665645355
      ],
      [
        "▁yanın",
        -9.146594453930314
      ],
      [
        "▁kazancları",
        -9.163933940094221
      ],
      [
        "p",
        -7.046976921809188
      ],
      [
        "▁ugra",
        -9.085655235980976
      ],
      [
        "un",
        -6.072576881132511
      ],
      [
        "▁ornek",
        -8.565425644575175
      ],
      [
        "ligini",
        -8.108001076095718
      ],
      [
        "iyor",
        -6.144043743031416
      ],
      [
        "▁yatırım",
        -7.530127100880072
      ],
      [
        "▁yasa",
        -7.432925370564925
      ],
      [
        "▁azın",
        -8.837291010667059
      ],
      [
        "lendirme",
        -8.65264321479412
      ],
      [
        "r",
        -5.602720111202849
      ],
      [
        "▁oturma",
        -9.14919728906775
      ],
      [
        "▁allah",
        -7.021398113513979
      ],
      [
        "▁1990",
        -6.375653588350021
      ],
      [
        "masını",
        -7.563837571085157
      ],
      [
        "▁kalktı",
        -7.886009822571879
      ],
      [
        "▁alacak",
        -8.085246640754074
      ],
      [
        "▁kendin",
        -6.061141479550905
      ],
      [
        "▁calıs",
        -7.654246976520353
      ],
      [
        "▁goturdu",
        -8.070715740152039
      ],
      [
        "▁kagıt",
        -8.234968827262016
      ],
      [
        "▁yeni",
        -5.517189378335924
      ],
      [
        "▁ara",
        -7.571122780289877
      ],
      [
        "▁dur",
        -7.622895412905418
      ],
      [
        "▁gece",
        -6.863264170889395
      ],
      [
        "▁merkez",
        -7.8163861036709
      ],
      [
        "▁ek",
        -8.142906777961526
      ],
      [
        "▁hacmi",
        -8.487353283681596
      ],
      [
        "i",
        -5.174834601673013
      ],
      [
        "tır",
        -7.811413125997815
      ],
      [
        "▁sev",
        -9.025527456796661
      ],
      [
        "re",
        -7.287148064366534
      ],
      [
        "ara",
        -6.535783394481454
      ],
      [
        "▁yor",
        -7.783824389989787
      ],
      [
        "▁oldu",
        -6.112446232460001
      ],
      [
        "▁dur",
        -4.965681247810773
      ],
      [
        "dan",
        -5.217806143684038
      ],
      [
        "▁can",
        -7.6556232845147845
      ],
      [
        "l",
        -5.609165391903557
      ],
      [
        "z",
        -6.428989089571596
      ],
      [
        "▁biri",
        -8.099877466714455
      ],
      [
        "▁co",
        -6.664471490842452
      ],
      [
        "mıs",
        -5.38282181775203
      ],
      [
        "▁insanın",
        -8.188735052740972
      ],
      [
        "▁finansman",
        -9.159340656623717
      ],
      [
        "ve",
        -6.34156215292432
      ],
      [
        "▁ifade",
        -7.6066869482229675
      ],
      [
        "▁kale",
        -8.82620580773412
      ],
      [
        "ir",
        -6.550091369772204
      ],
      [
        "lere",
        -6.511187168128944
      ],
      [
        "▁yuk",
        -8.342007429441512
      ],
      [
        "▁at",
        -7.630931679921087
      ],
      [
        "bi",
        -7.811665918709554
      ],
      [
        "▁her",
        -6.3741494462876895
      ],
      [
        "e",
        -3.9469061176939926
      ],
      [
        "▁yuzde",
        -8.576988223510455
      ],
      [
        "▁b",
        -6.642359555692695
      ],
      [
        "▁dusunuyor",
        -7.3435904066391675
      ],
      [
        "ledi",
        -7.8971608415441334
      ],
      [
        "▁vatan",
        -9.085421037887544
      ],
      [
        "▁merkezi",
        -8.115048985074644
      ],
      [
        "▁cin",
        -7.228850387160251
      ],
      [
        "▁city'",
        -6.654569013407107
      ],
      [
        "▁kur",
        -7.597087760804626
      ],
      [
        "▁renk",
        -8.298197903871912
      ],
      [
        "▁oyle",
        -7.302740800488347
      ],
      [
        "larımızı",
        -8.55026986935729
      ],
      [
        "▁o",
        -3.956108734297758
      ],
      [
        "▁omuz",
        -9.06590787112773
      ],
      [
        "▁onunde",
        -7.8837479742194985
      ],
      [
        "▁kalk",
        -7.625988064245401
      ],
      [
        "▁evlerin",
        -9.199453813382572
      ],
      [
        "▁yanlıs",
        -7.167249857989958
      ],
      [
        "▁",
        -3.1693413067501917
      ],
      [
        "dir",
        -7.546151632261554
      ],
      [
        "▁uygun",
        -5.704720861469475
      ],
      [
        "▁gu",
        -8.515050676381094
      ],
      [
        "▁atlanta'",
        -5.708273604410998
      ],
      [
        "▁piyasaları",
        -9.252746059594749
      ],
      [
        "ınca",
        -6.707064326619587
      ],
      [
        "▁fotograf",
        -8.484834293608444
      ],
      [
        "▁ha",
        -6.191038393458962
      ],
      [
        "meyi",
        -7.824923699009212
      ],
      [
        "fa",
        -8.236962644877
      ],
      [
        "▁pahali",
        -7.506694771480903
      ],
      [
        "leme",
        -8.155318923096317
      ],
      [
        "▁saldırı",
        -9.133832217773474
      ],
      [
        "▁ok",
        -8.921083937890778
      ],
      [
        "▁tesekkurler",
        -8.49352664196633
      ],
      [
        "cık",
        -8.447918136619485
      ],
      [
        "ecegini",
        -8.103579295941818
      ],
      [
        "▁yazma",
        -9.237037384920898
      ],
      [
        "▁mola",
        -9.003402995144327
      ],
      [
        "▁kisi",
        -6.944181543002639
      ],
      [
        "i",
        -11.302702672349787
      ],
      [
        ")",
        -6.115128725042444
      ],
      [
        "▁gel",
        -7.453208717310506
      ],
      [
        "▁ucretleri",
        -8.860902634295035
      ],
      [
        "▁ileri",
        -8.961572978147919
      ],
      [
        "▁kalmıs",
        -7.98930061934699
      ],
      [
        "▁yel",
        -9.135974466177721
      ],
      [
        "▁istek",
        -9.216298002661855
      ],
      [
        "iz",
        -5.780786808737579
      ],
      [
        "luk",
        -6.898963728357534
      ],
      [
        "▁ma",
        -7.4685509881895
      ],
      [
        "▁d",
        -5.706696958748632
      ],
      [
        "▁2",
        -8.539880603223224
      ],
      [
        "▁sanat",
        -7.859077525108997
      ],
      [
        "▁birini",
        -9.248142955627236
      ],
      [
        "hane",
        -8.004994073016917
      ],
      [
        "▁b",
        -3.7367717215100518
      ],
      [
        "miyor",
        -7.178507051513511
      ],
      [
        "▁bunlarda",
        -6.246440461648687
      ],
      [
        "▁bel",
        -5.7176907548495475
      ],
      [
        "0'",
        -8.236534478047009
      ],
      [
        "▁ara",
        -7.916258681979784
      ],
      [
        "▁amerikan",
        -6.414354089131514
      ],
      [
        "▁urun",
        -8.664135397417574
      ],
      [
        "▁22",
        -6.204600493789115
      ],
      [
        "▁ihtiyacım",
        -7.589894257033215
      ],
      [
        "▁doktor",
        -7.971438688806279
      ],
      [
        "▁bu",
        -3.2396197333277525
      ],
      [
        "leri",
        -6.24116818408501
      ],
      [
        "▁milleti",
        -9.213845293279821
      ],
      [
        "lemek",
        -8.461011517180818
      ],
      [
        "▁orada",
        -8.67104502065992
      ],
      [
        "▁teslim",
        -8.716071481015334
      ],
      [
        "lar",
        -4.398521406909345
      ],
      [
        "▁sev",
        -7.866848434354088
      ],
      [
        "▁donemi",
        -8.980651194991985
      ],
      [
        "▁avrupa",
        -6.605347737836264
      ],
      [
        "gını",
        -9.242083524455726
      ],
      [
        "▁salata",
        -9.23800295863112
      ],
      [
        "▁af",
        -8.942413080341769
      ],
      [
        "▁verme",
        -8.415059544382386
      ],
      [
        "▁elleri",
        -8.545256920295468
      ],
      [
        "▁tesekkur",
        -7.758877076392358
      ],
      [
        "▁sahipleri",
        -9.058236797704081
      ],
      [
        "▁arzu",
        -9.210440052559864
      ],
      [
        "▁simdi",
        -8.874314003853316
      ],
      [
        "▁bit",
        -8.607984316353946
      ],
      [
        "ıp",
        -6.25876414179405
      ],
      [
        "▁oldugunu",
        -6.686900478286046
      ],
      [
        "▁civarı",
        -9.063760726658103
      ],
      [
        "▁sap",
        -8.658979174399223
      ],
      [
        "c",
        -7.586240410717211
      ],
      [
        "▁islemi",
        -9.24760368206959
      ],
      [
        "▁f",
        -7.125022763756138
      ],
      [
        "▁neden",
        -5.802656505533223
      ],
      [
        "▁fiyatin",
        -8.780618017897796
      ],
      [
        ",",
        -7.003706735794483
      ],
      [
        "▁konum",
        -7.8079916830080265
      ],
      [
        "▁sauna",
        -9.15960382936882
      ],
      [
        "▁arasında",
        -6.496088042795415
      ],
      [
        "▁kesin",
        -6.101322210378779
      ],
      [
        "▁asker",
        -7.437648623430061
      ],
      [
        "▁icme",
        -8.828505971542032
      ],
      [
        "e",
        -5.7488116152677025
      ],
      [
        "▁kac",
        -6.691152110947753
      ],
      [
        "mi",
        -7.30149276445611
      ],
      [
        "lar",
        -4.74025477615891
      ],
      [
        "larımız",
        -8.417945692957286
      ],
      [
        "▁karsı",
        -7.046874465071466
      ],
      [
        "▁veriyoru",
        -6.508495517619243
      ],
      [
        "sıdır",
        -7.790365813978556
      ],
      [
        "▁bilgi",
        -6.763311157146803
      ],
      [
        "▁muh",
        -7.142172831036666
      ],
      [
        "▁arz",
        -8.829906053414554
      ],
      [
        "▁hos",
        -7.456506739129357
      ],
      [
        "lanma",
        -7.827998949523362
      ],
      [
        "▁do",
        -7.848733775767458
      ],
      [
        "▁dosya",
        -8.874358242984005
      ],
      [
        "▁kızı",
        -8.454136270198845
      ],
      [
        "yuzlu",
        -6.5380373275271255
      ],
      [
        "▁kuru",
        -8.832781994742987
      ],
      [
        "▁bolumu",
        -8.969645665038495
      ],
      [
        "et",
        -7.090292049428994
      ],
      [
        "▁dır",
        -4.287573368195668
      ],
      [
        "al",
        -7.273703626204868
      ],
      [
        "▁se",
        -4.925808727806685
      ],
      [
        "▁muke",
        -6.726077281485869
      ],
      [
        "▁basını",
        -8.258267193019861
      ],
      [
        "butu",
        -9.366974893163306
      ],
      [
        "▁gelis",
        -7.892636775431976
      ],
      [
        "▁dusunce",
        -8.265346741560183
      ],
      [
        "▁du",
        -3.325300845033725
      ],
      [
        "▁hayır",
        -8.874308230988559
      ],
      [
        "▁sonun",
        -8.950814652171156
      ],
      [
        "▁5",
        -4.229060776087967
      ],
      [
        "▁eli",
        -8.440624593069595
      ],
      [
        "ne",
        -6.372458135960013
      ],
      [
        "▁adet",
        -7.972189129014149
      ],
      [
        "▁parti",
        -8.052703654897645
      ],
      [
        "acagım",
        -7.856523502904178
      ],
      [
        "▁airlines",
        -6.471406306871525
      ],
      [
        "▁kısa",
        -6.218398683040187
      ],
      [
        "▁adi",
        -7.605460096006958
      ],
      [
        "▁tam",
        -6.148869347248457
      ],
      [
        "▁dun",
        -7.235957280212261
      ],
      [
        "▁pazar",
        -6.932343962904431
      ],
      [
        "mıyor",
        -7.710485636665227
      ],
      [
        "▁gunun",
        -9.065272960725503
      ],
      [
        "er",
        -11.017488162037896
      ],
      [
        "▁kamu",
        -8.541542003090594
      ],
      [
        "mada",
        -6.606015577227643
      ],
      [
        "▁ulastı",
        -7.5370992592470465
      ],
      [
        "▁dudakları",
        -9.184508762100858
      ],
      [
        "▁istemiyoru",
        -6.588760722246835
      ],
      [
        "o",
        -7.846631717898697
      ],
      [
        "▁erte",
        -7.655660382665401
      ],
      [
        "▁oranları",
        -8.746810424894322
      ],
      [
        "▁jones",
        -6.852757218122895
      ],
      [
        "lıklar",
        -8.714344771031648
      ],
      [
        "▁g",
        -5.746819020120408
      ],
      [
        "▁newark'",
        -7.495982024670114
      ],
      [
        "▁to",
        -8.41944362619186
      ],
      [
        "▁sayısı",
        -9.00905665866477
      ],
      [
        "nu",
        -7.5723461327454995
      ],
      [
        "▁kullanım",
        -9.163295464650268
      ],
      [
        "tar",
        -8.635618503040778
      ],
      [
        "lı",
        -4.179489208729116
      ],
      [
        "▁gelmis",
        -7.341935989440993
      ],
      [
        "▁y",
        -5.777906907927925
      ],
      [
        "▁kararı",
        -8.427773930696665
      ],
      [
        "▁re",
        -7.588088437267547
      ],
      [
        "le",
        -7.2319893104787205
      ],
      [
        "m",
        -6.995862214619031
      ],
      [
        "▁ucmak",
        -7.885486952875112
      ],
      [
        "▁%",
        -8.548383901389244
      ],
      [
        "▁beklenti",
        -8.590095686939982
      ],
      [
        "lara",
        -6.492230528566789
      ],
      [
        "▁hamle",
        -8.754227629658033
      ],
      [
        "▁eylul",
        -7.394419531915343
      ],
      [
        "▁kor",
        -7.96351678493376
      ],
      [
        "▁uyku",
        -8.54333352259967
      ],
      [
        "ce",
        -6.800953309987891
      ],
      [
        "abilme",
        -9.12405870209222
      ],
      [
        "▁bugday",
        -9.294125743189296
      ],
      [
        "▁kaliforniya",
        -7.302773057599721
      ],
      [
        "▁polis",
        -8.386734132704479
      ],
      [
        "embe",
        -7.02583815393338
      ],
      [
        "▁dogu",
        -9.23340454882212
      ],
      [
        "▁dısı",
        -8.62111842629671
      ],
      [
        "▁tahta",
        -8.673677015011915
      ],
      [
        "▁sayı",
        -7.898215512671116
      ],
      [
        "▁ak",
        -7.629095523578279
      ],
      [
        "▁olmasi",
        -8.209256969249356
      ],
      [
        "▁j",
        -8.547251105878008
      ],
      [
        "▁almanya",
        -7.514640186405623
      ],
      [
        "gin",
        -7.625208107598876
      ],
      [
        "ı",
        -4.541321046145934
      ],
      [
        "▁hepimiz",
        -6.275153793410539
      ],
      [
        "▁etmeye",
        -8.738117281661822
      ],
      [
        "▁cık",
        -7.133831259452897
      ],
      [
        "▁kavga",
        -8.914346802786797
      ],
      [
        "lıkta",
        -8.357058629980248
      ],
      [
        "k",
        -5.799929012345389
      ],
      [
        "▁tarihinde",
        -8.932022691006619
      ],
      [
        "▁olur",
        -6.262222181576985
      ],
      [
        "▁inc",
        -6.89648595030143
      ],
      [
        "▁gelecek",
        -6.9285811879226005
      ],
      [
        "onu",
        -9.0630222156713
      ],
      [
        "▁yaptıgı",
        -7.892483926859915
      ],
      [
        "▁inanc",
        -9.23497348843786
      ],
      [
        "liginde",
        -9.127602257288933
      ],
      [
        "arası",
        -7.808924049151564
      ],
      [
        "▁ilk",
        -5.410354367585089
      ],
      [
        "▁fikri",
        -8.74914002288116
      ],
      [
        "im",
        -6.088596818661389
      ],
      [
        "gimiz",
        -7.94985572875908
      ],
      [
        "▁senetleri",
        -8.698775345021087
      ],
      [
        "unu",
        -6.939939349485027
      ],
      [
        "▁birinci",
        -6.187553792563394
      ],
      [
        "▁domates",
        -9.294125748215125
      ],
      [
        "▁cesitli",
        -7.121866095170666
      ],
      [
        "w",
        -7.108910088912167
      ],
      [
        "▁francisco'da",
        -6.071724489525051
      ],
      [
        "▁bildirdi",
        -7.647032170492996
      ],
      [
        "de",
        -5.330256973534882
      ],
      [
        "▁olan",
        -6.090718399667774
      ],
      [
        "▁sistem",
        -8.483220858325652
      ],
      [
        "▁etme",
        -7.77969284402397
      ],
      [
        "▁sa",
        -10.185553443214634
      ],
      [
        "o",
        -6.336011923027605
      ],
      [
        "▁ettigini",
        -8.805410393412142
      ],
      [
        "▁yaklası",
        -6.011748996053887
      ],
      [
        "▁oyunu",
        -9.133136802551583
      ],
      [
        "meyi",
        -8.718690274907857
      ],
      [
        "▁olcu",
        -8.617990357721734
      ],
      [
        "▁ipotek",
        -9.210748694491809
      ],
      [
        "▁fiyati",
        -8.410242649700916
      ],
      [
        "▁dallas'",
        -6.042981517141733
      ],
      [
        "▁washington'",
        -7.460039270716376
      ],
      [
        "▁sendika",
        -8.893522178753628
      ],
      [
        "gun",
        -7.101013711484714
      ],
      [
        "▁philadelphia",
        -6.857279133527717
      ],
      [
        "mıstı",
        -6.02665893932749
      ],
      [
        "▁davranıs",
        -8.819199283946354
      ],
      [
        "k",
        -4.527687995047776
      ],
      [
        "▁onun",
        -3.672885360996781
      ],
      [
        "▁kırmızı",
        -6.990133074696115
      ],
      [
        "av",
        -8.448107418211123
      ],
      [
        "▁yavas",
        -7.42590430231164
      ],
      [
        "▁beri",
        -7.337470521257895
      ],
      [
        "ma",
        -7.392277917431474
      ],
      [
        "▁biz",
        -3.7492545438091254
      ],
      [
        "▁defa",
        -7.987098674025844
      ],
      [
        "ba",
        -7.53349997620627
      ],
      [
        "▁demek",
        -9.020925765712667
      ],
      [
        "▁fon",
        -8.581956163889341
      ],
      [
        "▁ofke",
        -9.21075176479673
      ],
      [
        "▁elli",
        -6.208347808831624
      ],
      [
        "▁dikkat",
        -7.782061587226196
      ],
      [
        "▁lezzeti",
        -8.776975677167293
      ],
      [
        "▁hangisi",
        -5.9097176655688965
      ],
      [
        "▁okudu",
        -8.070645457773207
      ],
      [
        "▁amerika",
        -7.067182645708146
      ],
      [
        "▁dısarıda",
        -9.25568136066655
      ],
      [
        "▁acı",
        -7.922015145697913
      ],
      [
        "▁gul",
        -8.342044191196123
      ],
      [
        "▁calisanlar",
        -8.542772132300328
      ],
      [
        "▁le",
        -7.315492742156232
      ],
      [
        "▁pittsburgh",
        -6.185234751182306
      ],
      [
        "▁havuzu",
        -7.566038865777999
      ],
      [
        "▁uc",
        -8.719926880762216
      ],
      [
        "▁4",
        -8.582810380796616
      ],
      [
        "▁mer",
        -8.468081829383555
      ],
      [
        "▁ber",
        -5.3562904798937145
      ],
      [
        "▁hakim",
        -8.987520347213144
      ],
      [
        "▁izin",
        -8.214335941634506
      ],
      [
        "▁cumle",
        -8.766097323063068
      ],
      [
        "▁ad",
        -8.402222160411586
      ],
      [
        "▁alan",
        -7.8129806096875125
      ],
      [
        "▁philadelphia'",
        -5.874786174638694
      ],
      [
        "▁anlamın",
        -8.863556453283985
      ],
      [
        "le",
        -6.583884578116384
      ],
      [
        "dıgında",
        -9.063591437938921
      ],
      [
        "▁erken",
        -6.118897358076235
      ],
      [
        "z",
        -5.915182500026182
      ],
      [
        "▁ol",
        -7.219257272428693
      ],
      [
        "▁urunleri",
        -8.422207921197213
      ],
      [
        "▁kazan",
        -8.50815677255867
      ],
      [
        "▁coktan",
        -7.3459526941433975
      ],
      [
        "ler",
        -4.763157974297702
      ],
      [
        "lastı",
        -7.701908133047341
      ],
      [
        "n",
        -2.5272601907098036
      ],
      [
        "▁dayan",
        -7.800904239688628
      ],
      [
        "izm",
        -8.431971863508013
      ],
      [
        "▁bakıs",
        -8.580348910108683
      ],
      [
        "▁sirketleri",
        -8.944784139788265
      ],
      [
        "ir",
        -6.8087927854478645
      ],
      [
        "▁masa",
        -7.397759907129086
      ],
      [
        "▁mail",
        -9.11281025715771
      ],
      [
        "ız",
        -7.869825429200022
      ],
      [
        "▁piyasa",
        -7.1762711796026935
      ],
      [
        "▁buluna",
        -7.6183772988797305
      ],
      [
        "▁yar",
        -8.913074169224824
      ],
      [
        "da",
        -7.051083083933658
      ],
      [
        "▁tamam",
        -8.837054819759194
      ],
      [
        "▁kat",
        -7.576448565158112
      ],
      [
        "ının",
        -6.9108990445384775
      ],
      [
        "dıgı",
        -8.483843502462488
      ],
      [
        "▁ilac",
        -8.205627064438048
      ],
      [
        "▁memur",
        -8.434679523331665
      ],
      [
        "▁fa",
        -5.262360152298198
      ],
      [
        "▁ayna",
        -8.772012932471348
      ],
      [
        "lıgını",
        -8.154613176088326
      ],
      [
        "▁sa",
        -8.49148507856639
      ],
      [
        "nin",
        -6.246139660201711
      ],
      [
        "f",
        -11.199613634584775
      ],
      [
        "▁yukseldi",
        -6.236371526360394
      ],
      [
        "▁",
        -3.9743344454347813
      ],
      [
        "000",
        -5.453798378371451
      ],
      [
        "▁hisseler",
        -8.870113576607809
      ],
      [
        "▁yay",
        -8.541311291651535
      ],
      [
        "yıp",
        -8.031385962103549
      ],
      [
        "'ta",
        -6.857005206098159
      ],
      [
        "▁canım",
        -9.287071415770304
      ],
      [
        "▁seattle'",
        -7.002052026715994
      ],
      [
        "▁zincir",
        -8.913129824191852
      ],
      [
        "maktadır",
        -6.597242818699089
      ],
      [
        "▁s",
        -6.137580433212939
      ],
      [
        "ıldı",
        -7.746737387363932
      ],
      [
        "▁gelistirme",
        -9.085598370075532
      ],
      [
        "▁orada",
        -6.679303596995425
      ],
      [
        "▁cil",
        -8.849318911459761
      ],
      [
        "▁orta",
        -6.335666513927517
      ],
      [
        "▁ucus",
        -6.149947001144268
      ],
      [
        "▁oldugunu",
        -6.704109688205046
      ],
      [
        "▁birbirin",
        -5.481821565997513
      ],
      [
        "uz",
        -5.845518768715537
      ],
      [
        "▁doneminde",
        -9.12263161323021
      ],
      [
        "▁onemli",
        -6.106789014357763
      ],
      [
        "▁yasında",
        -7.252155777757523
      ],
      [
        "▁hamam",
        -8.638402986855425
      ],
      [
        "a",
        -5.795873682798572
      ],
      [
        "uz",
        -5.382296718853555
      ],
      [
        "▁eser",
        -8.639708969978894
      ],
      [
        "▁ediyoru",
        -7.289634823385363
      ],
      [
        "ı",
        -5.376923376904363
      ],
      [
        "▁degisiklikler",
        -9.013508517624524
      ],
      [
        "a",
        -6.240650828353713
      ],
      [
        "▁aradi",
        -7.001861803754912
      ],
      [
        "▁oranı",
        -8.443049682938604
      ],
      [
        "▁icin",
        -5.611889001906072
      ],
      [
        "abı",
        -8.509677880361348
      ],
      [
        "▁kendisi",
        -5.0164946613251225
      ],
      [
        "▁nokta",
        -8.08612300786979
      ],
      [
        "▁guzelligi",
        -9.289974550853318
      ],
      [
        "iyl",
        -7.505604821556474
      ],
      [
        "landı",
        -7.888311092890623
      ],
      [
        "co",
        -4.969231820816542
      ],
      [
        "▁tu",
        -3.938386220041247
      ],
      [
        "▁kulak",
        -8.580754324052666
      ],
      [
        "▁firma",
        -8.284668514761584
      ],
      [
        "▁oturdu",
        -7.951363958361008
      ],
      [
        "▁tahviller",
        -8.452885463521051
      ],
      [
        "▁yasamadi",
        -7.979538720728433
      ],
      [
        "▁gelisme",
        -9.21942400719835
      ],
      [
        "▁toplam",
        -7.90903655082087
      ],
      [
        "▁arka",
        -8.66727881524363
      ],
      [
        "▁kahvalti",
        -8.77533739796889
      ],
      [
        "u",
        -5.292154325772746
      ],
      [
        "uyordu",
        -7.550734935848448
      ],
      [
        "▁beni",
        -4.178270586993837
      ],
      [
        "▁fiyatı",
        -8.239115862109752
      ],
      [
        "▁calı",
        -8.806749097901314
      ],
      [
        "▁aksam",
        -6.7858193303442835
      ],
      [
        "▁degili",
        -4.9352643412096375
      ],
      [
        "▁yavas",
        -6.867619120627829
      ],
      [
        "gi",
        -8.001043011311552
      ],
      [
        "▁birim",
        -8.247772827388154
      ],
      [
        "▁test",
        -8.376955025523408
      ],
      [
        "▁dizi",
        -8.601982353946553
      ],
      [
        "▁ocagı",
        -9.063786813803986
      ],
      [
        "▁am",
        -9.172350447405934
      ],
      [
        "dıgını",
        -7.531363838102516
      ],
      [
        "▁pek",
        -4.940017877222247
      ],
      [
        "▁de",
        -4.775399293064243
      ],
      [
        "ana",
        -3.4668823189684232
      ],
      [
        "▁elektr",
        -7.754751256092044
      ],
      [
        "▁odul",
        -9.159017616483176
      ],
      [
        "▁etmekte",
        -8.105778819205495
      ],
      [
        "▁ayakları",
        -9.047130128147183
      ],
      [
        "▁21",
        -6.150409216274106
      ],
      [
        "▁haberi",
        -8.99398259228536
      ],
      [
        "▁ucusları",
        -5.711518916201767
      ],
      [
        "ydi",
        -6.387179693571637
      ],
      [
        "▁satısları",
        -8.480632835780895
      ],
      [
        "nın",
        -7.96767785060956
      ],
      [
        "▁el",
        -7.0371376438704525
      ],
      [
        "9",
        -12.802702672349787
      ],
      [
        "▁zengin",
        -7.064123754243155
      ],
      [
        "▁ben",
        -8.273042604758025
      ],
      [
        "▁alet",
        -9.243211619057046
      ],
      [
        "lu",
        -7.066717717642606
      ],
      [
        "▁alın",
        -7.543378375352004
      ],
      [
        "▁philadelphia'da",
        -5.939655199290513
      ],
      [
        "▁ir",
        -9.209648438836341
      ],
      [
        "ys",
        -8.72269297189334
      ],
      [
        "▁problem",
        -8.307905751166999
      ],
      [
        "▁bolge",
        -7.963039993558449
      ],
      [
        "▁du",
        -8.268975596198025
      ],
      [
        "▁orada",
        -5.86959198151261
      ],
      [
        "▁gider",
        -8.974676257960219
      ],
      [
        "▁tesisi",
        -8.89280900517465
      ],
      [
        "/",
        -5.9441551310848775
      ],
      [
        "▁dogru",
        -7.603731796977203
      ],
      [
        "▁yapti",
        -7.384947789438916
      ],
      [
        "ic",
        -7.409719644704607
      ],
      [
        "▁sinir",
        -8.855946013306786
      ],
      [
        "▁dar",
        -7.407631563580619
      ],
      [
        "▁herkesin",
        -9.028016792228069
      ],
      [
        "acagın",
        -9.132429627978343
      ],
      [
        "ge",
        -7.202674406118215
      ],
      [
        "▁uzerinde",
        -5.829535329669553
      ],
      [
        "nın",
        -5.461750361995479
      ],
      [
        "kar",
        -7.939901909319218
      ],
      [
        "▁alır",
        -7.3049520385459825
      ],
      [
        "▁yeri",
        -8.780285937916616
      ],
      [
        "▁icin",
        -2.121748868097354
      ],
      [
        "de",
        -7.092772207721221
      ],
      [
        "▁buray",
        -9.053483205473087
      ],
      [
        "▁cok",
        -5.403467047528563
      ],
      [
        "▁konustu",
        -7.3231066383999215
      ],
      [
        "▁ruzgar",
        -8.484834268536066
      ],
      [
        "um",
        -7.856672001906384
      ],
      [
        "▁hic",
        -4.7912109296688214
      ],
      [
        "anlar",
        -8.333565146883712
      ],
      [
        "▁sebep",
        -8.374972217946818
      ],
      [
        "▁sokag",
        -8.897442110994358
      ],
      [
        "▁mac",
        -8.287300148765574
      ],
      [
        "▁toplum",
        -8.346583990260957
      ],
      [
        "▁kimi",
        -5.800937397148718
      ],
      [
        "▁kir",
        -7.895289163414693
      ],
      [
        "gel",
        -7.946391005262725
      ],
      [
        "▁gel",
        -6.9516563187098095
      ],
      [
        "▁eski",
        -5.743149156840834
      ],
      [
        "▁asıl",
        -7.27937555355245
      ],
      [
        "▁vere",
        -7.681478507949162
      ],
      [
        "▁ko",
        -7.437802104915977
      ],
      [
        "eyim",
        -7.678473325730465
      ],
      [
        "ilmesi",
        -8.90626305055217
      ],
      [
        "▁anlat",
        -7.3079045913956735
      ],
      [
        "▁varlık",
        -9.268297286554713
      ],
      [
        "▁biri",
        -4.369579569371211
      ],
      [
        "inde",
        -6.338122227695626
      ],
      [
        "▁hoca",
        -8.363479068783025
      ],
      [
        "obur",
        -7.910016614482133
      ],
      [
        "▁koy",
        -7.809666880569189
      ],
      [
        "▁st",
        -5.766618818790404
      ],
      [
        "▁olmus",
        -7.034365256963971
      ],
      [
        "▁makine",
        -8.186034436311516
      ],
      [
        "▁oldugu",
        -7.969981728919599
      ],
      [
        "▁gitti",
        -6.593172881954199
      ],
      [
        "la",
        -6.888501391301385
      ],
      [
        "▁yemegi",
        -8.220065552689796
      ],
      [
        "m",
        -4.809409968019237
      ],
      [
        "▁gulu",
        -9.186880366489566
      ],
      [
        "gerek",
        -11.72316589082021
      ],
      [
        "▁cevap",
        -8.103315088366745
      ],
      [
        "▁da",
        -2.118767026704102
      ],
      [
        "▁halkı",
        -9.132936447029078
      ],
      [
        "▁sekiz",
        -5.578203547897827
      ],
      [
        "▁denver'",
        -5.707216023458171
      ],
      [
        "▁yardimci",
        -8.195543634166544
      ],
      [
        "sızlıg",
        -8.958453016416444
      ],
      [
        "▁bilir",
        -7.671187875550568
      ],
      [
        "▁artıs",
        -8.142356739838274
      ],
      [
        "▁mimar",
        -9.238008254436632
      ],
      [
        "▁arama",
        -9.221876468262682
      ],
      [
        "an",
        -5.06177540095515
      ],
      [
        "▁gecir",
        -8.071277663634248
      ],
      [
        "'nde",
        -8.794718087696545
      ],
      [
        "de",
        -7.316563460623831
      ],
      [
        "▁tamam",
        -6.411602014418075
      ],
      [
        "pa",
        -8.061339486445434
      ],
      [
        "ile",
        -3.939922469606252
      ],
      [
        "▁parca",
        -7.962512392360006
      ],
      [
        "▁gosteri",
        -8.721254632880846
      ],
      [
        "▁gel",
        -8.757612393217729
      ],
      [
        "uk",
        -7.897456278568062
      ],
      [
        "▁mart",
        -9.084919573599995
      ],
      [
        "▁ya",
        -4.634008824959309
      ],
      [
        "▁kaza",
        -8.317303856917505
      ],
      [
        "▁za",
        -6.239605117564355
      ],
      [
        "ki",
        -5.5698717135917235
      ],
      [
        "b",
        -6.477120954085562
      ],
      [
        "▁uyeleri",
        -9.235986741625979
      ],
      [
        ",",
        -2.0671440808479016
      ],
      [
        "▁dı",
        -3.685551159034305
      ],
      [
        "al",
        -6.098784742581221
      ],
      [
        "t",
        -5.498942757749235
      ],
      [
        "▁alaka",
        -8.632025905811432
      ],
      [
        "gın",
        -7.655061505047966
      ],
      [
        "▁ac",
        -7.2482742931414235
      ],
      [
        "sa",
        -7.160680658657613
      ],
      [
        "▁yayın",
        -8.2352331869764
      ],
      [
        "▁diger",
        -5.558160624346541
      ],
      [
        "▁talebi",
        -9.158816713539558
      ],
      [
        "co",
        -7.273924532429267
      ],
      [
        "▁kurulus",
        -8.878754796596278
      ],
      [
        "▁v",
        -6.039368304660602
      ],
      [
        "ki",
        -7.752685619992764
      ],
      [
        "▁merkez",
        -7.5478547937971845
      ],
      [
        "▁laf",
        -8.570245014276505
      ],
      [
        "▁basarı",
        -8.225202892042724
      ],
      [
        "▁uzun",
        -5.543953467048654
      ],
      [
        "▁parmak",
        -8.822076356974025
      ],
      [
        "▁yumurta",
        -8.874295364588884
      ],
      [
        "erine",
        -7.345133478854348
      ],
      [
        "lugunu",
        -8.51392372174918
      ],
      [
        "di",
        -7.844100953751683
      ],
      [
        "y",
        -6.0265073680912975
      ],
      [
        "▁h",
        -8.00744690781119
      ],
      [
        "▁konuda",
        -8.568080726202886
      ],
      [
        "▁geliyor",
        -6.385021080408034
      ],
      [
        "lık",
        -6.4765119369027495
      ],
      [
        "▁bekleniyor",
        -7.564287660181253
      ],
      [
        "▁rahat",
        -8.6530601689483
      ],
      [
        "▁ellerinde",
        -8.939095309159832
      ],
      [
        "▁uca",
        -7.794701260637387
      ],
      [
        "tor",
        -8.386399699785887
      ],
      [
        "is",
        -9.889831758065935
      ],
      [
        "lu",
        -5.1210618574198765
      ],
      [
        "▁efendi",
        -8.699941909725489
      ],
      [
        "ak",
        -5.826425994507126
      ],
      [
        "▁burada",
        -5.999819427533163
      ],
      [
        "▁komisyonlar",
        -9.285042121196643
      ],
      [
        "▁calısan",
        -7.885002160875034
      ],
      [
        "▁istifa",
        -8.472138977400014
      ],
      [
        "▁limon",
        -9.294130344662912
      ],
      [
        "▁hesap",
        -8.265573966747375
      ],
      [
        "▁onunde",
        -7.903428584640306
      ],
      [
        "▁ceza",
        -8.167622138186484
      ],
      [
        "v",
        -14.014858445102625
      ],
      [
        "e",
        -3.054524576694323
      ],
      [
        "sı",
        -7.915339366721516
      ],
      [
        "▁ayı",
        -8.239141008943818
      ],
      [
        "▁soyle",
        -7.525610483728362
      ],
      [
        "▁dun",
        -7.8304750967130925
      ],
      [
        "▁ediyorlar",
        -7.9180526081523075
      ],
      [
        "▁ucuyor",
        -7.312963302415817
      ],
      [
        "▁deger",
        -7.509694612103102
      ],
      [
        "▁ada",
        -9.099864902384759
      ],
      [
        "▁fonlar",
        -9.137914237806251
      ],
      [
        "luydu",
        -8.114134763824067
      ],
      [
        "go",
        -8.668538823653332
      ],
      [
        "▁dag",
        -8.278480691196823
      ],
      [
        "▁g",
        -8.577436937545238
      ],
      [
        "ayım",
        -7.717619501136943
      ],
      [
        "▁yirmi",
        -5.481367957249344
      ],
      [
        "▁komisyonu",
        -8.87767011445018
      ],
      [
        "▁kaldi",
        -5.312955628962696
      ],
      [
        "▁basında",
        -7.645553648888793
      ],
      [
        "mekte",
        -7.881639351950346
      ],
      [
        "▁29",
        -6.422469476374212
      ],
      [
        "▁dusunme",
        -9.062843001250087
      ],
      [
        "▁omru",
        -9.210798960761714
      ],
      [
        "▁2",
        -4.210742886992677
      ],
      [
        "▁rekor",
        -9.265751245677357
      ],
      [
        "▁gayrimenkul",
        -9.109401514027187
      ],
      [
        "▁saglam",
        -7.5027649068518185
      ],
      [
        "a",
        -3.3062409507640718
      ],
      [
        "▁fabrika",
        -8.329764194045104
      ],
      [
        "▁yasadı",
        -8.008898561057688
      ],
      [
        "▁petersburg'",
        -7.304040164310214
      ],
      [
        "▁guc",
        -7.770527662216842
      ],
      [
        "▁burada",
        -6.054666224502334
      ],
      [
        "▁olmadı",
        -7.96913798943342
      ],
      [
        "▁tele",
        -7.467022141174876
      ],
      [
        "▁sorusturma",
        -9.184432852639185
      ],
      [
        "▁miyi",
        -5.363435652349282
      ],
      [
        "▁duzey",
        -8.57980709713756
      ],
      [
        "▁ruh",
        -8.791549868999539
      ],
      [
        "al",
        -6.233800419023781
      ],
      [
        "muyor",
        -7.998022514967612
      ],
      [
        "▁ola",
        -3.6807569053633458
      ],
      [
        "▁acık",
        -8.980336337872876
      ],
      [
        "▁alma",
        -7.6557566293311625
      ],
      [
        "▁kır",
        -8.221503937377351
      ],
      [
        "▁uzman",
        -8.951201762821405
      ],
      [
        "▁anca",
        -5.244266919710401
      ],
      [
        "▁yan",
        -6.841621921503299
      ],
      [
        "ı",
        -9.759274920622127
      ],
      [
        "▁sistemi",
        -8.544468458504346
      ],
      [
        "▁idi",
        -7.607056053409531
      ],
      [
        "▁gurultu",
        -8.953537624706769
      ],
      [
        "▁kahve",
        -7.6905355966778535
      ],
      [
        "os",
        -8.534661803047825
      ],
      [
        "▁siyasi",
        -7.443068292921874
      ],
      [
        "▁kav",
        -8.674692255794678
      ],
      [
        "▁sizin",
        -5.649030984391743
      ],
      [
        "▁hayvan",
        -8.524342310333296
      ],
      [
        "▁iyiydi",
        -4.822868892125619
      ],
      [
        "▁avuc",
        -8.783412174295961
      ],
      [
        "5'",
        -8.940602965195946
      ],
      [
        "▁iliskileri",
        -9.264989118937086
      ],
      [
        "▁lezzet",
        -7.069936590301006
      ],
      [
        "▁rezervasyonu",
        -8.315691778718783
      ],
      [
        "▁bileti",
        -8.855048721761264
      ],
      [
        "▁civarın",
        -8.973154027914003
      ],
      [
        "▁hak",
        -7.809851956941869
      ],
      [
        "▁de",
        -7.194763187565277
      ],
      [
        "imi",
        -7.929220387740227
      ],
      [
        "▁yapılaca",
        -7.377845495875994
      ],
      [
        "in",
        -6.278286602072059
      ],
      [
        "2'de",
        -9.207310170182124
      ],
      [
        "▁satır",
        -9.242066504802047
      ],
      [
        "▁mes",
        -9.00696301625283
      ],
      [
        "▁ust",
        -7.1185545875493945
      ],
      [
        "ını",
        -6.305788123081618
      ],
      [
        "▁sah",
        -8.72781811966113
      ],
      [
        "▁cıkıyor",
        -7.668218371157288
      ],
      [
        "ı",
        -4.804327802810323
      ],
      [
        "▁ilan",
        -8.540042696625482
      ],
      [
        "▁milli",
        -6.881432315056266
      ],
      [
        "imle",
        -6.45089307209828
      ],
      [
        "▁degerlendirir",
        -8.056085541481627
      ],
      [
        "▁kes",
        -8.444417085344742
      ],
      [
        "evi",
        -8.729177513745036
      ],
      [
        "▁yapmak",
        -7.782968235270767
      ],
      [
        "▁sizi",
        -5.685998760825111
      ],
      [
        "▁istanbul",
        -6.9167515459812785
      ],
      [
        "▁washington",
        -5.68185472729504
      ],
      [
        "▁ayakta",
        -9.00063664773717
      ],
      [
        "la",
        -6.800277714581961
      ],
      [
        "▁seyahat",
        -8.265578217177891
      ],
      [
        "▁hijyen",
        -7.882009977537454
      ],
      [
        "▁",
        -1.3922668288882356
      ],
      [
        "caba",
        -7.273779888668228
      ],
      [
        "…",
        -11.802702672349788
      ],
      [
        "▁yedi",
        -7.992579213624683
      ],
      [
        "▁kasım",
        -7.275691703053961
      ],
      [
        "mesi",
        -8.294413202413121
      ],
      [
        "▁bay",
        -5.855742044162384
      ],
      [
        "▁al",
        -7.418703508785995
      ],
      [
        "▁dondu",
        -7.290695514464782
      ],
      [
        "▁listesini",
        -9.065662281251212
      ],
      [
        "\"",
        -3.8868225721526475
      ],
      [
        "ıyor",
        -5.6439978635815145
      ],
      [
        "1'de",
        -9.238969779361716
      ],
      [
        "▁ti",
        -3.9155890831001203
      ],
      [
        "ici",
        -6.4959872997340335
      ],
      [
        "ti",
        -6.150825801268467
      ],
      [
        "▁yapılacak",
        -8.07005447656604
      ],
      [
        "lerimiz",
        -8.610530193671096
      ],
      [
        "▁varsa",
        -7.7096685190147385
      ],
      [
        "▁s",
        -7.798955791444568
      ],
      [
        "▁savası",
        -9.09002879466954
      ],
      [
        "meli",
        -7.425467949112281
      ],
      [
        "kan",
        -8.43418468809838
      ],
      [
        "▁gidis",
        -7.360809698899004
      ],
      [
        "▁ay",
        -6.8422290870286915
      ],
      [
        "▁planı",
        -8.757401711072198
      ],
      [
        "▁tutma",
        -9.184306323095008
      ],
      [
        "un",
        -6.350571138778809
      ],
      [
        "▁fiyatları",
        -7.681682446469251
      ],
      [
        "▁kac",
        -8.799586667457218
      ],
      [
        "▁",
        -3.32808512111051
      ],
      [
        "'in",
        -4.753110462176871
      ],
      [
        "ım",
        -6.7642264988981315
      ],
      [
        "▁ic",
        -6.5122645661677705
      ],
      [
        "▁pencere",
        -8.05193571114983
      ],
      [
        "▁acıldı",
        -7.865366941255549
      ],
      [
        "▁suru",
        -8.277375128331542
      ],
      [
        "▁ucak",
        -7.490501482181309
      ],
      [
        "▁nihayet",
        -7.402796899532941
      ],
      [
        "ize",
        -8.695382764880215
      ],
      [
        "▁sınav",
        -9.21095386715158
      ],
      [
        "▁yazar",
        -7.9801174766684895
      ],
      [
        "▁arazi",
        -9.1343926466768
      ],
      [
        "▁ta",
        -7.172649407115649
      ],
      [
        "▁15",
        -5.317744224803343
      ],
      [
        "▁tak",
        -8.343329718399595
      ],
      [
        "▁sarı",
        -7.01661507676498
      ],
      [
        "▁yanlıs",
        -9.23818051582698
      ],
      [
        "▁finans",
        -7.785608098361208
      ],
      [
        "he",
        -8.388424268692685
      ],
      [
        "▁odayd",
        -7.567298808617519
      ],
      [
        "▁yolcu",
        -8.952845001367452
      ],
      [
        "▁genel",
        -6.384596635128069
      ],
      [
        "▁dogum",
        -9.245881964703484
      ],
      [
        "▁artı",
        -5.060973459890498
      ],
      [
        "▁once",
        -8.6329381293949
      ],
      [
        "ildi",
        -7.359700515877719
      ],
      [
        "kın",
        -7.852901375229401
      ],
      [
        "▁cıkma",
        -8.902886974975571
      ],
      [
        "▁istedi",
        -7.261650360695219
      ],
      [
        "▁milyon",
        -8.035241405750813
      ],
      [
        "▁istanbul'u",
        -7.504583998545305
      ],
      [
        "klarını",
        -7.831173798424999
      ],
      [
        "kları",
        -7.756776993848302
      ],
      [
        "▁hatır",
        -9.109652374073745
      ],
      [
        "▁en",
        -8.199192244498683
      ],
      [
        "▁kadar",
        -2.999792704414248
      ],
      [
        "▁gol",
        -8.426356280235495
      ],
      [
        "▁newark'ta",
        -7.347640522526289
      ],
      [
        "ip",
        -7.360818963021514
      ],
      [
        "▁yasa",
        -7.897834886019571
      ],
      [
        "▁di",
        -7.813253928516719
      ],
      [
        "▁.",
        -7.7838188156415065
      ],
      [
        "il",
        -7.217875703985481
      ],
      [
        "▁degisiklik",
        -9.209046498805648
      ],
      [
        "▁iste",
        -6.53043461090222
      ],
      [
        "▁hava",
        -7.279715746937222
      ],
      [
        "gı",
        -6.782836205683127
      ],
      [
        "ti",
        -6.971017253499957
      ],
      [
        "▁ustunde",
        -7.939129862079925
      ],
      [
        "▁savunma",
        -8.732502421362335
      ],
      [
        "▁halka",
        -8.874906088511473
      ],
      [
        "▁onları",
        -4.32931003779788
      ],
      [
        "▁tamam",
        -7.598141378379166
      ],
      [
        "▁nedeni",
        -8.353137697183765
      ],
      [
        "▁eder",
        -6.751198219670858
      ],
      [
        "▁kısmı",
        -8.706536368173127
      ],
      [
        "imizi",
        -8.788285433918691
      ],
      [
        "▁",
        -2.896334987865555
      ],
      [
        "▁olma",
        -7.310373102193487
      ],
      [
        "▁sade",
        -4.929761959807005
      ],
      [
        "▁ofis",
        -8.340895257628542
      ],
      [
        "▁kosulları",
        -8.884008805767216
      ],
      [
        "▁nufus",
        -9.265553438012642
      ],
      [
        "▁kalite",
        -7.652286019940348
      ],
      [
        "cisi",
        -8.887302131218464
      ],
      [
        "icin",
        -7.37606402349094
      ],
      [
        "▁yi",
        -7.627729954608208
      ],
      [
        "▁bıraktı",
        -7.373737174799423
      ],
      [
        "▁aksama",
        -9.177623701393125
      ],
      [
        "▁seviyesin",
        -8.510794453093183
      ],
      [
        "gını",
        -7.6582248526115055
      ],
      [
        "▁ideal",
        -7.7004281276149165
      ],
      [
        "▁ortak",
        -7.387445134374163
      ],
      [
        "▁uzerinde",
        -7.319186190553947
      ],
      [
        "r",
        -11.302702672349785
      ],
      [
        "ya",
        -7.250905186197104
      ],
      [
        "▁par",
        -8.839328276540963
      ],
      [
        "ecegim",
        -7.839826375890536
      ],
      [
        "▁dısarı",
        -9.060571773354443
      ],
      [
        "▁sahibi",
        -8.139396208096773
      ],
      [
        "▁suphe",
        -9.210749878452324
      ],
      [
        "▁iste",
        -8.256703313041827
      ],
      [
        "▁ev",
        -6.268454093143926
      ],
      [
        "▁tekrar",
        -5.767848238720847
      ],
      [
        "to",
        -8.00604332669735
      ],
      [
        "▁maas",
        -9.100881546508331
      ],
      [
        "▁yatagı",
        -9.185600590493024
      ],
      [
        "5",
        -4.119712900869135
      ],
      [
        "▁kul",
        -7.982523881793636
      ],
      [
        "▁york",
        -5.743778545021385
      ],
      [
        "yin",
        -5.784995693197711
      ],
      [
        "cek",
        -7.480578017205566
      ],
      [
        "▁",
        -2.794952726960484
      ],
      [
        "▁demokrat",
        -7.9632840079401115
      ],
      [
        "▁soyler",
        -7.623592392997051
      ],
      [
        "▁olustur",
        -8.078966757348109
      ],
      [
        "▁artırma",
        -9.158907289596371
      ],
      [
        "y",
        -6.70597099330554
      ],
      [
        "▁perde",
        -8.582512824827326
      ],
      [
        "▁etmis",
        -7.520405121739282
      ],
      [
        "▁kara",
        -6.749813976540861
      ],
      [
        "▁sektor",
        -8.680257250515933
      ],
      [
        "sizligi",
        -8.940442613533685
      ],
      [
        "na",
        -4.888725468870101
      ],
      [
        "larla",
        -7.059081848741102
      ],
      [
        "cak",
        -6.864813269639653
      ],
      [
        "▁o",
        -7.754671360884916
      ],
      [
        "▁etrafı",
        -9.163358738725824
      ],
      [
        "▁ince",
        -6.467898641546867
      ],
      [
        "▁durdu",
        -7.466819713427254
      ],
      [
        "▁butu",
        -6.262157153689966
      ],
      [
        "▁hissesi",
        -8.980195309066087
      ],
      [
        "▁arta",
        -7.700972469536119
      ],
      [
        "ı",
        -11.802702672349788
      ],
      [
        "▁bardagı",
        -9.085682496538046
      ],
      [
        "▁ekonomi",
        -7.6392337002473765
      ],
      [
        "nde",
        -7.227258361320836
      ],
      [
        "▁sahne",
        -8.330202546375924
      ],
      [
        "mayı",
        -7.344291672410745
      ],
      [
        "▁adı",
        -8.046364198007078
      ],
      [
        "le",
        -7.45879026731766
      ],
      [
        "lerden",
        -6.965940865704701
      ],
      [
        "▁surec",
        -8.873901851171283
      ],
      [
        "▁edecek",
        -7.381241055847779
      ],
      [
        "▁biz",
        -8.453634900272267
      ],
      [
        "ttı",
        -7.736200414926599
      ],
      [
        "▁ola",
        -7.060701390497842
      ],
      [
        "▁insanları",
        -8.810371316056898
      ],
      [
        "▁basbakan",
        -8.913131679803719
      ],
      [
        "▁kız",
        -7.483363582770445
      ],
      [
        "su",
        -6.247401928226876
      ],
      [
        "▁kendi",
        -3.6923164518459464
      ],
      [
        "▁met",
        -8.899037701603312
      ],
      [
        "▁rehberimiz",
        -9.211911054849484
      ],
      [
        "▁olurdu",
        -7.933540436429121
      ],
      [
        "▁program",
        -8.058761814505687
      ],
      [
        "▁avukatlar",
        -9.290076360776862
      ],
      [
        "digini",
        -7.772685084993411
      ],
      [
        "▁ara",
        -7.473880150615125
      ],
      [
        "▁cap",
        -8.73314423732746
      ],
      [
        "▁kodu",
        -8.804257076415656
      ],
      [
        "▁havaalanında",
        -9.276282094751783
      ],
      [
        "▁yatırımcı",
        -8.659854685785973
      ],
      [
        "han",
        -7.122411458933094
      ],
      [
        "/",
        -9.08559172398254
      ],
      [
        "▁donus",
        -8.003070654400167
      ],
      [
        "sine",
        -6.626909697637752
      ],
      [
        "▁gerceklestir",
        -8.107262171759585
      ],
      [
        "▁odeme",
        -8.121320862103763
      ],
      [
        "▁ekim",
        -8.916117434687447
      ],
      [
        "sun",
        -6.166589246026901
      ],
      [
        "d",
        -2.836263692730295
      ],
      [
        "▁dolar",
        -6.143829847917047
      ],
      [
        "yla",
        -6.345405882191227
      ],
      [
        "▁c",
        -7.032797226781592
      ],
      [
        "▁mal",
        -7.7379866571036455
      ],
      [
        "▁p",
        -7.117840679169713
      ],
      [
        "▁nefes",
        -8.668450840739105
      ],
      [
        "'y",
        -6.385410508951507
      ],
      [
        "▁tavsiye",
        -6.698472403062372
      ],
      [
        "▁devrim",
        -9.127103162304369
      ],
      [
        "▁yetki",
        -9.158429331733831
      ],
      [
        "▁ticareti",
        -9.212177775265829
      ],
      [
        "ıyordu",
        -6.870825835946239
      ],
      [
        "▁havaalanı",
        -8.886154392665922
      ],
      [
        "ir",
        -7.96344274689263
      ],
      [
        "▁actı",
        -6.946085594628517
      ],
      [
        "▁lezzet",
        -6.73402907811451
      ],
      [
        "bu",
        -5.9800526379311565
      ],
      [
        "▁isin",
        -8.211382441958726
      ],
      [
        "▁ar",
        -7.851411589191917
      ],
      [
        "▁gitmek",
        -8.453567556185694
      ],
      [
        "dıgını",
        -8.015072508014082
      ],
      [
        "▁t",
        -7.3373380922148375
      ],
      [
        "▁hat",
        -6.71359374354625
      ],
      [
        "▁ilgisi",
        -8.57262154260231
      ],
      [
        "▁don",
        -8.181765696691535
      ],
      [
        "▁girer",
        -8.08580220197018
      ],
      [
        "▁cıkıs",
        -9.160340497208216
      ],
      [
        "▁olma",
        -7.981081580014522
      ],
      [
        "▁aylık",
        -8.39762086251526
      ],
      [
        "▁pilot",
        -8.668445408882885
      ],
      [
        "▁1989",
        -5.896581170332743
      ],
      [
        "▁serbest",
        -7.7855544090868145
      ],
      [
        "▁degerlendirme",
        -9.062979052130705
      ],
      [
        "▁tası",
        -8.060932185527967
      ],
      [
        "ra",
        -6.797631536129478
      ],
      [
        "▁karın",
        -9.273357737506823
      ],
      [
        "re",
        -7.115838760587909
      ],
      [
        "c",
        -6.639970635471811
      ],
      [
        "▁her",
        -3.2176437841680947
      ],
      [
        "▁karıs",
        -9.052026800897522
      ],
      [
        "▁portfoy",
        -9.237775600474485
      ],
      [
        "▁kere",
        -8.162841277947777
      ],
      [
        "▁kitabı",
        -8.374970610995577
      ],
      [
        "▁peynir",
        -8.593783877604954
      ],
      [
        "▁yeter",
        -7.746002165592302
      ],
      [
        "▁kumas",
        -8.540755874889005
      ],
      [
        "▁ları",
        -7.663888550713381
      ],
      [
        "▁an",
        -7.159761114053556
      ],
      [
        "▁so",
        -8.875551046507393
      ],
      [
        "▁yoktu",
        -5.52949816062023
      ],
      [
        "▁sezon",
        -9.062383351642804
      ],
      [
        "▁cep",
        -8.880934783202896
      ],
      [
        "f",
        -7.405868900941825
      ],
      [
        "▁baslıyor",
        -7.795348747780091
      ],
      [
        "▁halin",
        -8.154148747865134
      ],
      [
        "▁ayrı",
        -5.277052753790272
      ],
      [
        "▁hep",
        -5.352880005653416
      ],
      [
        "▁sır",
        -8.584438899317977
      ],
      [
        "▁pazartesi",
        -6.0312539412866935
      ],
      [
        "▁h",
        -9.964554393764933
      ],
      [
        "▁karsı",
        -4.835443352689402
      ],
      [
        "▁japon",
        -8.749131083164222
      ],
      [
        "▁25",
        -5.692044772168898
      ],
      [
        "▁zor",
        -8.99651906870806
      ],
      [
        "▁ser",
        -8.229373400952682
      ],
      [
        "▁fiyatlar",
        -8.383214391304799
      ],
      [
        "▁iliskiler",
        -9.242670438250721
      ],
      [
        "▁ihracı",
        -9.266988184310371
      ],
      [
        "▁erke",
        -6.2825486582366485
      ],
      [
        "▁odalar",
        -8.045463875664097
      ],
      [
        "▁aynı",
        -5.639034292821123
      ],
      [
        "o",
        -2.8956488792173367
      ],
      [
        "▁do",
        -4.997386800813171
      ],
      [
        "▁menkul",
        -7.841289384308088
      ],
      [
        "lendi",
        -8.07182083660439
      ],
      [
        "▁elektrik",
        -8.668443894159804
      ],
      [
        "▁bunda",
        -5.599372556045785
      ],
      [
        "▁yatırımcıların",
        -9.28646667217327
      ],
      [
        "▁cins",
        -9.003321145262774
      ],
      [
        "em",
        -7.405984961836628
      ],
      [
        "▁veya",
        -4.768733796629291
      ],
      [
        "▁tesvik",
        -8.874290861386388
      ],
      [
        "▁yemekler",
        -6.93359594785308
      ],
      [
        "▁francisco",
        -5.975874976284412
      ],
      [
        "▁etmek",
        -7.783772629237743
      ],
      [
        "▁duz",
        -9.07021493067467
      ],
      [
        "▁mah",
        -8.83167741761401
      ],
      [
        "urekli",
        -6.170784925687602
      ],
      [
        "▁hızla",
        -6.8654287322603
      ],
      [
        "▁gunduz",
        -9.085638105435436
      ],
      [
        "▁coban",
        -9.265715674233066
      ],
      [
        "ası",
        -8.185098745747753
      ],
      [
        "na",
        -7.216566140508448
      ],
      [
        "▁...",
        -14.014958445102625
      ],
      [
        "▁ben",
        -2.9871799491523117
      ],
      [
        "lıkla",
        -8.990837559406026
      ],
      [
        "▁urunler",
        -9.053855222411888
      ],
      [
        "▁atı",
        -8.872659317806308
      ],
      [
        "▁gokyuzu",
        -9.294126168229958
      ],
      [
        "▁yap",
        -6.782553246846852
      ],
      [
        "–",
        -12.802702672349787
      ],
      [
        "▁dukkan",
        -8.806607244915625
      ],
      [
        "▁dow",
        -6.840496730669338
      ],
      [
        "▁ucusunu",
        -9.154085831606945
      ],
      [
        "▁bakım",
        -8.61379327552558
      ],
      [
        "u",
        -7.007500087809162
      ],
      [
        "▁sorunları",
        -8.647062666023192
      ],
      [
        "▁yuz",
        -7.136694801828872
      ],
      [
        "▁dalga",
        -8.499007246155402
      ],
      [
        "▁iceriyor",
        -7.979253797285124
      ],
      [
        "▁sefer",
        -8.186258640111436
      ],
      [
        "ver",
        -8.51291873961286
      ],
      [
        "▁eyalet",
        -8.766081029022734
      ],
      [
        "▁100",
        -5.485529480805205
      ],
      [
        "▁birbirlerin",
        -6.499373602294938
      ],
      [
        "hic",
        -7.843634605618451
      ],
      [
        "▁tur",
        -6.792881010240528
      ],
      [
        "▁futbol",
        -8.973189336932444
      ],
      [
        "▁kitap",
        -8.051495251607811
      ],
      [
        "muz",
        -8.378158394651074
      ],
      [
        "▁ydu",
        -5.652411369949245
      ],
      [
        "e",
        -8.372618959769959
      ],
      [
        "▁uzakt",
        -8.0944711193735
      ],
      [
        "eger",
        -6.978820968666629
      ],
      [
        "'ın",
        -5.001221876001728
      ],
      [
        "▁eylem",
        -8.716161380094242
      ],
      [
        "mus",
        -8.945075204409722
      ],
      [
        "▁iyi",
        -4.120328284265581
      ],
      [
        "▁uzak",
        -7.406265993146311
      ],
      [
        "▁ol",
        -6.906079594147441
      ],
      [
        "▁buyume",
        -8.553070569766422
      ],
      [
        "▁kaya",
        -8.662980651186254
      ],
      [
        "▁uzakta",
        -9.039793629141162
      ],
      [
        "▁ver",
        -8.36919186281029
      ],
      [
        "sı",
        -7.564398924190956
      ],
      [
        "▁atlanta",
        -6.37556200506916
      ],
      [
        "sıyla",
        -8.047100072457559
      ],
      [
        "▁cok",
        -2.7145552025289366
      ],
      [
        "▁kendimiz",
        -6.381187203357939
      ],
      [
        "▁nisan",
        -8.995651994963048
      ],
      [
        "▁iflas",
        -9.13379285006716
      ],
      [
        "▁yardımcı",
        -8.54570144388573
      ],
      [
        "t",
        -6.226145392739567
      ],
      [
        "▁kosullar",
        -9.279926245917807
      ],
      [
        "▁yumusa",
        -7.933969756894953
      ],
      [
        "▁tarafında",
        -7.407671789788618
      ],
      [
        "il",
        -5.6348745551728765
      ],
      [
        "▁dostu",
        -8.845356561914421
      ],
      [
        "▁pa",
        -7.501568141458672
      ],
      [
        "▁baslamıstı",
        -8.061027006083195
      ],
      [
        "▁rakı",
        -9.01767299568164
      ],
      [
        "bire",
        -6.8038767734602335
      ],
      [
        "▁cop",
        -9.187476861219697
      ],
      [
        "gil",
        -7.604654609424278
      ],
      [
        "▁us",
        -7.919635127858362
      ],
      [
        "aj",
        -8.49099087203826
      ],
      [
        "▁komsu",
        -8.90364356457802
      ],
      [
        "▁genel",
        -8.625343237638043
      ],
      [
        "▁yap",
        -8.551017430370143
      ],
      [
        "▁kopru",
        -8.836909175585768
      ],
      [
        "▁co",
        -6.63193344196444
      ],
      [
        "▁t",
        -7.5813051285310395
      ],
      [
        "▁11",
        -5.819399660742911
      ],
      [
        "▁bicimde",
        -9.09785315767755
      ],
      [
        "▁rakamlar",
        -9.230466862278705
      ],
      [
        "▁butce",
        -8.699954479215332
      ],
      [
        "▁plan",
        -7.695685576597129
      ],
      [
        "▁vermek",
        -8.004792800352853
      ],
      [
        "▁siir",
        -8.266705564413718
      ],
      [
        "▁sahil",
        -9.071765578576338
      ],
      [
        "▁sonrası",
        -9.154638352462396
      ],
      [
        "▁bin",
        -9.282355484712383
      ],
      [
        "▁mahkeme",
        -8.10721007326411
      ],
      [
        "▁bulma",
        -8.412327871977615
      ],
      [
        "▁ala",
        -8.750052283880837
      ],
      [
        "tik",
        -7.299517765000672
      ],
      [
        "▁superdi",
        -7.7621238866055835
      ],
      [
        "▁gec",
        -6.5059567370756195
      ],
      [
        "lık",
        -6.299756592094877
      ],
      [
        "▁su",
        -6.019620521653812
      ],
      [
        "mız",
        -7.822287487495261
      ],
      [
        "ıdır",
        -7.622500543399493
      ],
      [
        "▁tarife",
        -8.90331078122363
      ],
      [
        "▁vade",
        -6.44966854364282
      ],
      [
        "▁sozlesme",
        -8.454506615895117
      ],
      [
        "▁elestiri",
        -9.039609102592463
      ],
      [
        "▁tas",
        -7.694382476535431
      ],
      [
        "▁ceyrek",
        -8.282990045152872
      ],
      [
        "i",
        -5.1862327253366844
      ],
      [
        "ton",
        -7.029534064245779
      ],
      [
        "▁h",
        -7.309976688735785
      ],
      [
        "▁boy",
        -8.683461792900893
      ],
      [
        "▁?",
        -9.528807987385584
      ],
      [
        "ları",
        -4.844690583575208
      ],
      [
        "is",
        -7.767266252364115
      ],
      [
        "siz",
        -5.236444565992569
      ],
      [
        "miz",
        -7.917580133211495
      ],
      [
        "▁personeller",
        -7.096374009950666
      ],
      [
        "▁gonul",
        -8.749132885440622
      ],
      [
        "▁secim",
        -7.883933559949147
      ],
      [
        "'te",
        -7.098752597832924
      ],
      [
        "ro",
        -8.47556585567007
      ],
      [
        "▁s",
        -8.10290196795445
      ],
      [
        "▁mahalle",
        -8.668446623289116
      ],
      [
        "▁oda",
        -6.317397871292799
      ],
      [
        "sik",
        -7.354613352668875
      ],
      [
        "▁haric",
        -9.040704401237276
      ],
      [
        "▁tarih",
        -7.922161836148918
      ],
      [
        "let",
        -8.504943740707766
      ],
      [
        "▁vardi",
        -6.354763873471127
      ],
      [
        "▁maliyetleri",
        -9.061300422016528
      ],
      [
        "▁yapma",
        -7.8838645082059085
      ],
      [
        "▁oldugu",
        -6.555164051062155
      ],
      [
        "▁ot",
        -8.913591539383406
      ],
      [
        "▁ters",
        -7.913455746945873
      ],
      [
        "▁oz",
        -8.316439431330068
      ],
      [
        "▁isaret",
        -8.374978568237085
      ],
      [
        "▁kendim",
        -6.106222814598597
      ],
      [
        "suz",
        -5.895638958251375
      ],
      [
        "▁hata",
        -8.834103480947778
      ],
      [
        "ıcı",
        -6.9044637210078434
      ],
      [
        "▁net",
        -8.314738329550316
      ],
      [
        "▁icra",
        -9.090053854868614
      ],
      [
        "egi",
        -6.734924410612219
      ],
      [
        "li",
        -7.09599677549015
      ],
      [
        "▁anket",
        -7.9042904445470645
      ],
      [
        "▁bilet",
        -8.235814383997521
      ],
      [
        "▁biliyor",
        -7.911963855297829
      ],
      [
        "tıp",
        -7.593361442092817
      ],
      [
        "▁strateji",
        -8.7324643839157
      ],
      [
        "▁sokak",
        -8.408729054455513
      ],
      [
        "▁cıkar",
        -6.722952053682724
      ],
      [
        "▁care",
        -9.03991760179906
      ],
      [
        "▁amacı",
        -9.059178680588765
      ],
      [
        "▁sagla",
        -7.979843521615656
      ],
      [
        "▁kalabalık",
        -9.265554251957175
      ],
      [
        "▁he",
        -6.654513425121539
      ],
      [
        "▁bar",
        -8.1792259419285
      ],
      [
        "n",
        -4.758362794379163
      ],
      [
        "▁inc.",
        -6.659868159853871
      ],
      [
        "9'",
        -8.86956542043797
      ],
      [
        "▁sanatcı",
        -9.099549655406939
      ],
      [
        "▁cleveland'",
        -6.808563298588288
      ],
      [
        "meger",
        -11.46612518600931
      ],
      [
        "▁baslar",
        -8.126756897964636
      ],
      [
        "▁oran",
        -7.933939014813128
      ],
      [
        "▁yemeklerinde",
        -9.146838272013724
      ],
      [
        "▁restoran",
        -8.893521646008914
      ],
      [
        "▁bos",
        -6.940296137114258
      ],
      [
        "b",
        -2.357610727034924
      ],
      [
        "u",
        -6.859988844358753
      ],
      [
        "▁hal",
        -5.532686542076543
      ],
      [
        "▁gid",
        -7.391979576078856
      ],
      [
        "medi",
        -7.563995473531286
      ],
      [
        "f",
        -6.105801925130544
      ],
      [
        "▁taraf",
        -8.000227355650443
      ],
      [
        "▁sanayi",
        -8.623052893184393
      ],
      [
        "▁once",
        -4.36331637109668
      ],
      [
        "cılıgı",
        -9.00662331476514
      ],
      [
        "▁ust",
        -6.979559511536277
      ],
      [
        "▁yontem",
        -9.085879745698636
      ],
      [
        "▁felaket",
        -9.109402358759219
      ],
      [
        "sında",
        -6.670458369798462
      ],
      [
        "▁york'ta",
        -6.531463418408721
      ],
      [
        "birli",
        -7.476480969195897
      ],
      [
        "▁konusunda",
        -7.408570875291092
      ],
      [
        "▁once",
        -6.462100414457955
      ],
      [
        "tur",
        -8.75190539394919
      ],
      [
        "▁ister",
        -7.609972804504163
      ],
      [
        "▁a",
        -7.758707966971644
      ],
      [
        "▁4",
        -4.732260125815868
      ],
      [
        "'e",
        -5.751907559199848
      ],
      [
        "me",
        -6.409316492332664
      ],
      [
        "st",
        -7.170536047209315
      ],
      [
        "▁gelir",
        -7.089933717529591
      ],
      [
        "▁tek",
        -8.42117825429368
      ],
      [
        "maz",
        -7.054987964716516
      ],
      [
        "g",
        -7.6374187773213595
      ],
      [
        "▁da",
        -6.4410868306485405
      ],
      [
        "e",
        -2.7482464078386
      ],
      [
        "▁ne",
        -5.102818083154211
      ],
      [
        "▁burnu",
        -8.952723911698282
      ],
      [
        "▁tasarruf",
        -8.893521615512956
      ],
      [
        "ce",
        -4.295820816962568
      ],
      [
        "▁ay",
        -7.579718843763761
      ],
      [
        "▁kız",
        -7.460576718113989
      ],
      [
        "▁memnun",
        -4.596567443186686
      ],
      [
        "g",
        -6.440338115441626
      ],
      [
        "▁kendilerini",
        -5.975809907058947
      ],
      [
        "'le",
        -7.292157769793574
      ],
      [
        "k",
        -4.834402831400872
      ],
      [
        "▁seviyesinde",
        -8.831996283002724
      ],
      [
        "nin",
        -5.555015513951929
      ],
      [
        "▁edin",
        -7.827983487209585
      ],
      [
        "e",
        -3.869636175119987
      ],
      [
        "▁dolar",
        -6.984154267666
      ],
      [
        "▁sans",
        -9.059369745767246
      ],
      [
        "▁sirketi",
        -8.102809066172542
      ],
      [
        "▁politika",
        -7.941015329796584
      ],
      [
        "▁class",
        -8.234958184505507
      ],
      [
        "▁yagmur",
        -8.74916933788432
      ],
      [
        "▁fe",
        -8.085017590892972
      ],
      [
        "▁john",
        -7.514258373914097
      ],
      [
        "hangi",
        -6.3825269359489925
      ],
      [
        "▁yarı",
        -6.426040342926011
      ],
      [
        "▁eg",
        -8.92925360405111
      ],
      [
        "▁soy",
        -8.631646877190427
      ],
      [
        "▁yetkililer",
        -8.998035243273128
      ],
      [
        "▁hi",
        -4.718511553182136
      ],
      [
        "ak",
        -3.6704506036336477
      ],
      [
        "dik",
        -7.789608405115655
      ],
      [
        "▁hafif",
        -6.809063717921929
      ],
      [
        "▁k",
        -6.793351251023834
      ],
      [
        "▁belli",
        -6.726103501182789
      ],
      [
        "▁benim",
        -4.0962344854904496
      ],
      [
        "▁gir",
        -7.723323105834943
      ],
      [
        "▁cuma",
        -6.5860505842514705
      ],
      [
        "▁oakland",
        -6.814299663000338
      ],
      [
        "ip",
        -6.160296091166794
      ],
      [
        "ı",
        -6.060610007727377
      ],
      [
        "▁epey",
        -7.231327411727682
      ],
      [
        "▁yedi",
        -5.3484134847842775
      ],
      [
        "▁tesisin",
        -7.8586944245824375
      ],
      [
        "dıgı",
        -6.991658992121112
      ],
      [
        "dır",
        -6.552896859402911
      ],
      [
        "▁ikinci",
        -8.93327350076931
      ],
      [
        "[SEP]",
        0.0
      ],
      [
        "▁gelecek",
        -8.084386772029248
      ],
      [
        "▁etrafında",
        -9.043773002367267
      ],
      [
        "▁yeni",
        -8.717076329160431
      ],
      [
        "▁isler",
        -8.59175210763675
      ],
      [
        "l",
        -5.464349539545049
      ],
      [
        "▁digerleri",
        -8.855424816702525
      ],
      [
        "▁hari",
        -7.328087744680283
      ],
      [
        "▁batı",
        -7.598971603535954
      ],
      [
        "▁dal",
        -7.977925928548869
      ],
      [
        "uru",
        -8.076158537643845
      ],
      [
        "u",
        -6.328937242903749
      ],
      [
        "▁idare",
        -8.363493500731108
      ],
      [
        "▁mali",
        -6.772915828245193
      ],
      [
        "▁alıyor",
        -7.369269360280152
      ],
      [
        "ıs",
        -7.610157220135955
      ],
      [
        "▁ha",
        -7.961710782505898
      ],
      [
        "▁donus",
        -7.078200277547077
      ],
      [
        "▁havuz",
        -7.6780200073461575
      ],
      [
        "mamıs",
        -7.914135919214582
      ],
      [
        "▁derin",
        -6.915514199379652
      ],
      [
        "▁zevk",
        -8.622983645978294
      ],
      [
        "▁saygı",
        -8.801427615591557
      ],
      [
        "▁francisco'",
        -5.077218351597256
      ],
      [
        "▁asagıda",
        -9.079936920397598
      ],
      [
        "▁kaldır",
        -7.955063746663338
      ],
      [
        "▁bazı",
        -7.170405847808098
      ],
      [
        "▁ulasımı",
        -8.245641228232966
      ],
      [
        "▁ikinci",
        -7.524091410205261
      ],
      [
        "▁halkın",
        -9.183263264632577
      ],
      [
        "ul",
        -7.27796594008921
      ],
      [
        "p",
        -5.971301426427602
      ],
      [
        "▁d",
        -9.995414436185875
      ],
      [
        "a",
        -3.7940049793668464
      ],
      [
        "▁personelin",
        -8.756675878482962
      ],
      [
        "▁umut",
        -8.783554003428335
      ],
      [
        "ir",
        -7.249585255353831
      ],
      [
        "▁r",
        -8.677199341049654
      ],
      [
        "▁hazır",
        -7.172212386869996
      ],
      [
        "▁adını",
        -8.798439827280081
      ],
      [
        "▁31",
        -5.96134953511987
      ],
      [
        "▁yaptirmadi",
        -7.762128105941826
      ],
      [
        "▁tuttu",
        -7.772318232298745
      ],
      [
        "y",
        -6.357935357697259
      ],
      [
        "▁varlıgı",
        -9.043816604215179
      ],
      [
        "▁kendini",
        -4.901080439319303
      ],
      [
        "▁gelme",
        -8.814004116180826
      ],
      [
        "sın",
        -6.317591010097858
      ],
      [
        "▁kaldırım",
        -9.294128223749448
      ],
      [
        "▁iyi",
        -6.2541029760791815
      ],
      [
        "▁telefonla",
        -8.632706371567007
      ],
      [
        "▁alanda",
        -9.243808387749793
      ],
      [
        "▁kat",
        -8.046637744196342
      ],
      [
        "▁onun",
        -8.154551951874273
      ],
      [
        "▁karsiladi",
        -8.020423771836255
      ],
      [
        "▁boya",
        -8.854947501114847
      ],
      [
        "abilir",
        -6.5038225141245505
      ],
      [
        "▁analist",
        -9.27747561469777
      ],
      [
        "umuz",
        -8.472502678846805
      ],
      [
        "en",
        -3.7741492745105623
      ],
      [
        "▁etmisti",
        -7.888160327619882
      ],
      [
        "mesini",
        -7.708997528672882
      ],
      [
        "▁hazine",
        -8.276559903779194
      ],
      [
        "▁oku",
        -7.939666441270406
      ],
      [
        "ken",
        -6.060788260110396
      ],
      [
        "kul",
        -7.445528430967017
      ],
      [
        "liydi",
        -6.095838839311535
      ],
      [
        "ma",
        -7.597842975260152
      ],
      [
        "ka",
        -4.814930333216153
      ],
      [
        "▁dusun",
        -7.850245095663757
      ],
      [
        "f",
        -7.4132971476116705
      ],
      [
        "▁sonrasın",
        -9.122403319718018
      ],
      [
        ",",
        -9.265553377849141
      ],
      [
        "▁misin",
        -4.5273534770033566
      ],
      [
        "▁bunları",
        -4.754133212558791
      ],
      [
        "▁anlam",
        -7.83609984947584
      ],
      [
        "▁et",
        -7.9998985641927645
      ],
      [
        "▁onde",
        -9.09086926493473
      ],
      [
        "mdan",
        -8.669704766428659
      ],
      [
        "▁niyet",
        -8.857873102557397
      ],
      [
        "▁etkisi",
        -8.785245417895831
      ],
      [
        "gini",
        -9.186838456984475
      ],
      [
        "▁canı",
        -9.284916030567853
      ],
      [
        "▁emin",
        -7.908159108045561
      ],
      [
        "▁sene",
        -7.6499458426001645
      ],
      [
        "▁kıyı",
        -8.689843579440907
      ],
      [
        "7",
        -4.751300342131521
      ],
      [
        "▁yetkilileri",
        -8.28543967364623
      ],
      [
        "layan",
        -7.365818020276719
      ],
      [
        "▁sıkıntı",
        -8.5654911841611
      ],
      [
        "▁3",
        -8.728364210287182
      ],
      [
        "▁odada",
        -8.788045813207678
      ],
      [
        "▁hayatta",
        -9.157709245751938
      ],
      [
        "▁ver",
        -7.429340936125383
      ],
      [
        "r",
        -5.63685287209509
      ],
      [
        "▁ler",
        -7.748374407484016
      ],
      [
        "▁servisi",
        -8.27805000675811
      ],
      [
        "una",
        -7.9724090093514395
      ],
      [
        "▁turk",
        -7.790444697342189
      ],
      [
        "▁yukarı",
        -7.710122915547684
      ],
      [
        "▁verildi",
        -8.037608345094874
      ],
      [
        "▁oncesi",
        -9.162022410540594
      ],
      [
        "abilecek",
        -7.923519396217422
      ],
      [
        "ten",
        -7.17416489712672
      ],
      [
        "▁erkekler",
        -9.173384697825504
      ],
      [
        "▁gerek",
        -7.142499163139929
      ],
      [
        "gin",
        -8.399156128310608
      ],
      [
        "▁yerler",
        -8.807253805326116
      ],
      [
        "▁turku",
        -8.87925561994082
      ],
      [
        "h",
        -6.286180941560249
      ],
      [
        "▁olanlar",
        -8.979131030449631
      ],
      [
        "▁cık",
        -7.8984065736039835
      ],
      [
        "▁insaat",
        -8.499906909229288
      ],
      [
        "▁otobus",
        -9.184439035211971
      ],
      [
        "k",
        -3.485270042512048
      ],
      [
        "cilerin",
        -9.239217403298406
      ],
      [
        "▁payı",
        -9.18770085620884
      ],
      [
        "▁orta",
        -7.882389330582674
      ],
      [
        "▁ona",
        -4.235995178139032
      ],
      [
        "▁lu",
[...]
