{
  "version": "1.0",
  "truncation": null,
  "padding": null,
  "added_tokens": [
    {
      "id": 4887,
      "content": "[SEP]",
      "single_word": false,
      "lstrip": false,
      "rstrip": false,
      "normalized": false,
      "special": true
    },
    {
      "id": 8100,
      "content": "[UNK]",
      "single_word": false,
      "lstrip": false,
      "rstrip": false,
      "normalized": false,
      "special": true
    },
    {
      "id": 10212,
      "content": "[MASK]",
      "single_word": false,
      "lstrip": false,
      "rstrip": false,
      "normalized": false,
      "special": true
    },
    {
      "id": 13232,
      "content": "[PAD]",
      "single_word": false,
      "lstrip": false,
      "rstrip": false,
      "normalized": false,
      "special": true
    },
    {
      "id": 13421,
      "content": "[CLS]",
      "single_word": false,
      "lstrip": false,
      "rstrip": false,
      "normalized": false,
      "special": true
    }
  ],
  "normalizer": {
    "type": "Sequence",
    "normalizers": [
      {
        "type": "NFD"
      },
      {
        "type": "Lowercase"
      },
      {
        "type": "StripAccents"
      }
    ]
  },
  "pre_tokenizer": {
    "type": "Sequence",
    "pretokenizers": [
      {
        "type": "Metaspace",
        "replacement": "▁",
        "prepend_scheme": "always",
        "split": true
      }
    ]
  },
  "post_processor": {
    "type": "TemplateProcessing",
    "single": [
      {
        "SpecialToken": {
          "id": "[CLS]",
          "type_id": 0
        }
      },
      {
        "Sequence": {
          "id": "A",
          "type_id": 0
        }
      },
      {
        "SpecialToken": {
          "id": "[SEP]",
          "type_id": 0
        }
      }
    ],
    "pair": [
      {
        "SpecialToken": {
          "id": "[CLS]",
          "type_id": 0
        }
      },
      {
        "Sequence": {
          "id": "A",
          "type_id": 0
        }
      },
      {
        "SpecialToken": {
          "id": "[SEP]",
          "type_id": 0
        }
      },
      {
        "Sequence": {
          "id": "B",
          "type_id": 1
        }
      },
      {
        "SpecialToken": {
          "id": "[SEP]",
          "type_id": 1
        }
      }
    ],
    "special_tokens": {
      "[CLS]": {
        "id": "[CLS]",
        "ids": [
          13421
        ],
        "tokens": [
          "[CLS]"
        ]
      },
      "[SEP]": {
        "id": "[SEP]",
        "ids": [
          4887
        ],
        "tokens": [
          "[SEP]"
        ]
      }
    }
  },
  "decoder": {
    "type": "Metaspace",
    "replacement": "▁",
    "prepend_scheme": "always",
    "split": true
  },
  "model": {
    "type": "BPE",
    "dropout": null,
    "unk_token": "[UNK]",
    "continuing_subword_prefix": null,
    "end_of_word_suffix": null,
    "fuse_unk": false,
    "byte_fallback": false,
    "ignore_merges": false,
    "vocab": {
      "▁dolardı": 0,
      "▁havuzdan": 1,
      "▁%6": 2,
      "▁deleg": 3,
      "▁aldı": 4,
      "▁bolumlerinde": 5,
      "3'te": 6,
      "▁dolusu": 7,
      "▁bahcede": 8,
      "▁borsasında": 9,
      "▁tacirler": 10,
      "▁ceviz": 11,
      "▁broker": 12,
      "▁hele": 13,
      "▁sch": 14,
      "▁yapmıs": 15,
      "dir": 16,
      "▁iceride": 17,
      "▁calısıyordu": 18,
      "▁piyango": 19,
      "ster": 20,
      "▁isler": 21,
      "9'da": 22,
      "▁duygularının": 23,
      "▁aglamaya": 24,
      "egi": 25,
      "izasyon": 26,
      "cesine": 27,
      "▁ihtiyaci": 28,
      "▁ruzgarı": 29,
      "▁yolcul": 30,
      "▁emek": 31,
      "▁gelecek": 32,
      "▁tepki": 33,
      "▁gelirler": 34,
      "▁general": 35,
      "▁tex": 36,
      "▁boynuna": 37,
      "'ni": 38,
      "▁kısmının": 39,
      "▁hek": 40,
      "▁ilgiliydiler": 41,
      "▁tv": 42,
      "▁columbus": 43,
      "▁dansı": 44,
      "▁ocak": 45,
      "▁agaca": 46,
      "▁reklamı": 47,
      "▁dekor": 48,
      "iginde": 49,
      "▁yapılması": 50,
      "▁ankara": 51,
      "▁kestane": 52,
      "▁hafif": 53,
      "orth": 54,
      "ktadır": 55,
      "▁vef": 56,
      "▁karargah": 57,
      "▁onsu": 58,
      "▁samdan": 59,
      "▁genc": 60,
      "▁ahsap": 61,
      "ırtıları": 62,
      "▁meyhan": 63,
      "▁iki": 64,
      "▁gogsunu": 65,
      "▁degerlerin": 66,
      "▁aksiy": 67,
      "▁sınırlarını": 68,
      "▁32": 69,
      "▁piyasaları": 70,
      "▁ispir": 71,
      "sızın": 72,
      "metler": 73,
      "▁pec": 74,
      "oludur": 75,
      "▁zapt": 76,
      "▁sif": 77,
      "acılıgı": 78,
      "▁sogugu": 79,
      "▁kazak": 80,
      "▁yuzdelik": 81,
      "▁yılb": 82,
      "▁yonetimin": 83,
      "▁iklim": 84,
      "▁olduguna": 85,
      "ap": 86,
      "ane": 87,
      "▁ilk": 88,
      "▁subay": 89,
      "▁om": 90,
      "▁etkileri": 91,
      "▁dugum": 92,
      "▁liraya": 93,
      "▁guvencesi": 94,
      "ısa": 95,
      "▁boynuz": 96,
      "▁karyol": 97,
      "▁verin": 98,
      "▁bassav": 99,
      "s": 100,
      "▁tartıs": 101,
      "▁oluyordu": 102,
      "▁sadakati": 103,
      "alardan": 104,
      "▁hesabı": 105,
      "▁sevgilisini": 106,
      "0'de": 107,
      "▁dalı": 108,
      "▁newark'tan": 109,
      "rupalı": 110,
      "▁hamlenin": 111,
      "▁oyunc": 112,
      "▁chp": 113,
      "▁on": 114,
      "▁aklım": 115,
      "▁beklen": 116,
      "▁atıp": 117,
      "▁city": 118,
      "ule": 119,
      "▁gar": 120,
      "itliydi": 121,
      "▁dayak": 122,
      "▁ilave": 123,
      "▁kulturel": 124,
      "▁hastaneye": 125,
      "▁kurulu'nun": 126,
      "▁numarası": 127,
      "▁bırakıp": 128,
      "▁olumden": 129,
      "▁cizgiler": 130,
      "▁merakla": 131,
      "ban": 132,
      "▁cizm": 133,
      "▁beklentilerimi": 134,
      "▁beyni": 135,
      "▁siparis": 136,
      "▁degisimin": 137,
      "▁gosterge": 138,
      "▁kars": 139,
      "▁atıs": 140,
      "▁acıklık": 141,
      "▁uzunt": 142,
      "▁tabur": 143,
      "raber": 144,
      "cuyu": 145,
      "▁olursa": 146,
      "mel": 147,
      "ene": 148,
      "▁ha": 149,
      "umuzu": 150,
      "▁pu": 151,
      "m": 152,
      "▁hazırlık": 153,
      "▁pop": 154,
      "kse": 155,
      "▁soyluyor": 156,
      "ga": 157,
      "▁car": 158,
      "▁kalkar": 159,
      "▁satranc": 160,
      "▁sahnenin": 161,
      "▁yoksul": 162,
      "▁mekte": 163,
      "▁neye": 164,
      "ıyorlar": 165,
      "▁birlikte": 166,
      "▁berbat": 167,
      "▁bahcı": 168,
      "0.1": 169,
      "▁kaynak": 170,
      "tenin": 171,
      "ıp": 172,
      "▁karsil": 173,
      "▁islemlerinde": 174,
      "▁esrar": 175,
      "▁sisteminin": 176,
      "▁suclamalar": 177,
      "▁gecirmek": 178,
      "▁minimini": 179,
      "▁kendine": 180,
      "▁merk": 181,
      "▁tanr": 182,
      "▁tef": 183,
      "▁kızları": 184,
      "▁belediy": 185,
      "▁cent": 186,
      "▁barda": 187,
      "isco": 188,
      "▁kentte": 189,
      "▁gorur": 190,
      "▁vasıta": 191,
      "▁adım": 192,
      "lt": 193,
      "▁mıdır": 194,
      "▁korkusuyla": 195,
      "ans": 196,
      "▁olabilirdi": 197,
      "uzluydu": 198,
      "▁kasır": 199,
      "▁ogesi": 200,
      "▁sinem": 201,
      "ıklık": 202,
      "▁kısıtlamasını": 203,
      "▁konsantr": 204,
      "▁bana": 205,
      "▁haklarının": 206,
      "▁gorul": 207,
      "▁mesel": 208,
      "▁bulutu": 209,
      "▁sistemleri": 210,
      "▁iskele": 211,
      "ekon": 212,
      "▁taraftan": 213,
      "erlik": 214,
      "ligim": 215,
      "▁yasına": 216,
      "▁kaput": 217,
      "▁katından": 218,
      "dukten": 219,
      "larının": 220,
      "▁dakika": 221,
      "▁rengini": 222,
      "▁sermayeyi": 223,
      "▁kayıp": 224,
      "▁yaparım": 225,
      "▁sogut": 226,
      "▁toplantılarında": 227,
      "▁kralic": 228,
      "▁uzaga": 229,
      "▁tabanca": 230,
      "▁gidebilir": 231,
      "▁saha": 232,
      "▁dususler": 233,
      "▁odeme": 234,
      "tik": 235,
      "▁cılgın": 236,
      "▁faaliyetlerini": 237,
      "▁-": 238,
      "▁coc": 239,
      "▁unut": 240,
      "▁talebin": 241,
      "▁muhendis": 242,
      "▁kasabadan": 243,
      "▁yorumlara": 244,
      "▁uretime": 245,
      "▁konusuyor": 246,
      "sız": 247,
      "▁akıllı": 248,
      "▁sebeb": 249,
      "▁calısır": 250,
      "▁genetik": 251,
      "▁bulun": 252,
      "cut": 253,
      "▁verg": 254,
      "mekt": 255,
      "▁agabeyim": 256,
      "larak": 257,
      "vert": 258,
      "▁basmak": 259,
      "tur": 260,
      "▁cebinde": 261,
      "▁kilometre": 262,
      "▁ortasına": 263,
      "▁iyi": 264,
      "▁agırlık": 265,
      "▁gozda": 266,
      "▁temet": 267,
      "▁onları": 268,
      "▁yumurta": 269,
      "▁projeler": 270,
      "uzel": 271,
      "▁sahil": 272,
      "▁depremle": 273,
      "leyicisi": 274,
      "▁hayır": 275,
      "▁guver": 276,
      "▁sporcu": 277,
      "▁tac": 278,
      "afeti": 279,
      "ılıgında": 280,
      "▁yavrusu": 281,
      "▁hattının": 282,
      "▁pencere": 283,
      "▁bilhassa": 284,
      "▁biris": 285,
      "▁urun": 286,
      "isti": 287,
      "▁bilmec": 288,
      "▁kablo": 289,
      "▁cebine": 290,
      "▁buradan": 291,
      "▁yapmaya": 292,
      "ılıklar": 293,
      "usune": 294,
      "▁hanim": 295,
      "▁oyunlarının": 296,
      "▁butun": 297,
      "▁kırmızı": 298,
      "▁kın": 299,
      "▁mantıklı": 300,
      "▁telekom": 301,
      "▁400": 302,
      "uyorlar": 303,
      "andan": 304,
      "▁senenin": 305,
      "▁sorusturma": 306,
      "zası": 307,
      "▁haline": 308,
      "▁koseye": 309,
      "▁vak": 310,
      "▁ipotekleri": 311,
      "▁hacminde": 312,
      "tem": 313,
      "▁alımlar": 314,
      "▁savur": 315,
      "elig": 316,
      "akını": 317,
      "▁harcama": 318,
      "▁havasını": 319,
      "▁sozunde": 320,
      "▁cig": 321,
      "emeyi": 322,
      "▁demokr": 323,
      "ina": 324,
      "▁dekorasyon": 325,
      "▁surecin": 326,
      "emizi": 327,
      "▁ettikleri": 328,
      "ay": 329,
      "macalar": 330,
      "▁isgucu": 331,
      "▁havada": 332,
      "▁partilerin": 333,
      "▁lavan": 334,
      "mu": 335,
      "▁rengine": 336,
      "▁destekli": 337,
      "▁bucak": 338,
      "▁isi": 339,
      "▁mır": 340,
      "iyeli": 341,
      "▁lideri": 342,
      "▁okullarda": 343,
      "▁hatıraların": 344,
      "▁ser": 345,
      "▁rıht": 346,
      "5": 347,
      "goz": 348,
      "▁aldıktan": 349,
      "▁uvey": 350,
      "▁aktr": 351,
      "des": 352,
      "usunun": 353,
      "▁norma": 354,
      "▁adımı": 355,
      "▁corba": 356,
      "▁hiz": 357,
      "▁mucevher": 358,
      "rken": 359,
      "ız": 360,
      "▁anasının": 361,
      "pa": 362,
      "ese": 363,
      "▁sahan": 364,
      "▁kararıyla": 365,
      "▁hastane": 366,
      "▁muhendislik": 367,
      "▁ucunda": 368,
      "▁tırnak": 369,
      "▁cıg": 370,
      "▁cirkin": 371,
      "▁pesin": 372,
      "ende": 373,
      "▁eder": 374,
      "▁sermayesini": 375,
      "▁heyet": 376,
      "▁baskos": 377,
      "imli": 378,
      "▁verir": 379,
      "▁treni": 380,
      "bes": 381,
      "▁doksan": 382,
      "▁tasım": 383,
      "▁hayatını": 384,
      "▁uretimini": 385,
      "▁degisimi": 386,
      "▁bagları": 387,
      "▁magara": 388,
      "▁beyin": 389,
      "▁gelismeler": 390,
      "nost": 391,
      "▁secimlerin": 392,
      "▁olabilecegine": 393,
      "▁konum": 394,
      "▁sampiyon": 395,
      "am": 396,
      "uk": 397,
      "▁koy": 398,
      "▁personeline": 399,
      "▁sube": 400,
      "▁yed": 401,
      "iyete": 402,
      "▁indianapolis'e": 403,
      "▁nehrin": 404,
      "▁komite": 405,
      "▁bolg": 406,
      "▁miktarı": 407,
      "▁sıkıntıları": 408,
      "kca": 409,
      "esik": 410,
      "▁verim": 411,
      "▁must": 412,
      "▁acıklamasının": 413,
      "kanlıgı": 414,
      "▁lub": 415,
      "▁birik": 416,
      "mil": 417,
      "▁engelliler": 418,
      "▁asır": 419,
      "▁muzakere": 420,
      "▁kansas": 421,
      "▁oyunda": 422,
      "▁bush": 423,
      "▁dusunuyor": 424,
      "▁bos": 425,
      "▁edin": 426,
      "▁18": 427,
      "▁olmamak": 428,
      "▁ice": 429,
      "urlu": 430,
      "▁delikanlı": 431,
      "unda": 432,
      "▁eserleri": 433,
      "▁kapan": 434,
      "▁kızım": 435,
      "▁bitti": 436,
      "▁bakısı": 437,
      "▁birbiriyle": 438,
      "▁yurtdısında": 439,
      "▁reklamcılar": 440,
      "iyorsunuz": 441,
      "▁kulak": 442,
      "x": 443,
      "▁parki": 444,
      "▁suyun": 445,
      "▁amcam": 446,
      "▁anlamak": 447,
      "▁rum": 448,
      "▁nik": 449,
      "▁bosal": 450,
      "▁mudur": 451,
      "▁500": 452,
      "▁maliyetleri": 453,
      "graf": 454,
      "▁bostan": 455,
      "▁secimde": 456,
      "▁maddeye": 457,
      "▁tipik": 458,
      "▁yazıyı": 459,
      "▁kelebek": 460,
      "▁“": 461,
      "2'ye": 462,
      "▁ceph": 463,
      "▁acisindan": 464,
      "▁havayollarıyla": 465,
      "eceginin": 466,
      "ith": 467,
      "toru": 468,
      "▁dedesi": 469,
      "amac": 470,
      "▁dususe": 471,
      "▁ikilik": 472,
      "▁mich": 473,
      "▁etsin": 474,
      "▁muhakk": 475,
      "▁beklentimin": 476,
      "▁harp": 477,
      "▁ızdır": 478,
      "▁nedenleri": 479,
      "▁kapitalist": 480,
      "co": 481,
      "▁budak": 482,
      "▁hakika": 483,
      "ologlar": 484,
      "▁gecip": 485,
      "▁tel": 486,
      "▁noktaları": 487,
      "▁,": 488,
      "▁etmekten": 489,
      "cta": 490,
      "▁sure": 491,
      "▁kalmadim": 492,
      "▁indi": 493,
      "▁kazanclara": 494,
      "▁macları": 495,
      "▁ruyamda": 496,
      "▁kendinde": 497,
      "▁toren": 498,
      "▁yuzleri": 499,
      "▁mik": 500,
      "▁yemekte": 501,
      "lamıs": 502,
      "▁pervan": 503,
      "▁gazeteleri": 504,
      "▁resmen": 505,
      "yol": 506,
      "▁cidd": 507,
      "san": 508,
      "▁mahallede": 509,
      "▁yaslarına": 510,
      "mıstı": 511,
      "▁hizmetlerini": 512,
      "▁men": 513,
      "▁firmaları": 514,
      "'i": 515,
      "▁gonullu": 516,
      "▁giyim": 517,
      "▁cıkarma": 518,
      "▁edinmek": 519,
      "duy": 520,
      "▁mektuplar": 521,
      "▁yetisk": 522,
      "▁cinsel": 523,
      "▁opec": 524,
      "luydu": 525,
      "▁batak": 526,
      "▁armagan": 527,
      "emmel": 528,
      "▁delta": 529,
      "asal": 530,
      "▁kesil": 531,
      "▁ark": 532,
      "▁4": 533,
      "▁nuf": 534,
      "▁muhaseb": 535,
      "▁gozuk": 536,
      "▁atesten": 537,
      "▁bogazici'nde": 538,
      "▁iliskin": 539,
      "▁sirket": 540,
      "▁buyugu": 541,
      "utmak": 542,
      "▁mekana": 543,
      "▁zor": 544,
      "▁bili": 545,
      "▁depreminin": 546,
      "▁merak": 547,
      "▁sevgili": 548,
      "▁hava": 549,
      "anma": 550,
      "▁diplomasi": 551,
      "▁gormez": 552,
      "▁yiyeceklerden": 553,
      "▁temp": 554,
      "osunda": 555,
      "▁sattı": 556,
      "▁yadig": 557,
      "▁beyle": 558,
      "iyatri": 559,
      "enlerden": 560,
      "▁yır": 561,
      "▁temmuz": 562,
      "▁kazaz": 563,
      "▁ayın": 564,
      "mas": 565,
      "eden": 566,
      "▁ahbap": 567,
      "▁toronto'dan": 568,
      "isinden": 569,
      "▁stand": 570,
      "▁dair": 571,
      "▁oynama": 572,
      "▁haber": 573,
      "▁tamamlan": 574,
      "▁sizinle": 575,
      "▁yuzumu": 576,
      "yabil": 577,
      "▁gerek": 578,
      "▁tecavuz": 579,
      "ozof": 580,
      "▁mısınız": 581,
      "▁kartel": 582,
      "▁fitn": 583,
      "acıları": 584,
      "▁ornek": 585,
      "▁demek": 586,
      "acasına": 587,
      "elektr": 588,
      "▁fiyatının": 589,
      "▁kalmak": 590,
      "▁veda": 591,
      "▁internetten": 592,
      "▁yurum": 593,
      "itlik": 594,
      "ılap": 595,
      "ikatur": 596,
      "▁bolgelerinde": 597,
      "▁ni": 598,
      "▁kendisinin": 599,
      "▁sonuc": 600,
      "▁bankaların": 601,
      "▁oyk": 602,
      "▁bet": 603,
      "▁saniye": 604,
      "liginde": 605,
      "▁west": 606,
      "▁sayfa": 607,
      "kanlı": 608,
      "▁fut": 609,
      "dırdı": 610,
      "ımıza": 611,
      "▁dow": 612,
      "▁niyetine": 613,
      "▁gelin": 614,
      "labil": 615,
      "▁sub": 616,
      "▁olu": 617,
      "▁1992'de": 618,
      "▁altını": 619,
      "▁prov": 620,
      "▁kalanlar": 621,
      "naya": 622,
      "▁televizyona": 623,
      "▁gond": 624,
      "▁bisiklet": 625,
      "ruf": 626,
      "▁midir": 627,
      "ligine": 628,
      "▁gerceklesti": 629,
      "▁yuzum": 630,
      "▁guclerini": 631,
      "anıs": 632,
      "▁duzen": 633,
      "▁fiyatlardan": 634,
      "ayıf": 635,
      "okol": 636,
      "▁gonlu": 637,
      "bac": 638,
      "▁durumda": 639,
      "▁dile": 640,
      "▁sevg": 641,
      "▁yengec": 642,
      "▁gelmeye": 643,
      "lamalar": 644,
      "▁kaldırılması": 645,
      "▁odanin": 646,
      "▁haberleri": 647,
      "▁sal": 648,
      "▁feder": 649,
      "▁nohut": 650,
      "▁bayramı": 651,
      "▁alabilir": 652,
      "▁ink": 653,
      "▁hareketler": 654,
      "ukluk": 655,
      "▁yıcı": 656,
      "-k": 657,
      "▁listele": 658,
      "▁sohbet": 659,
      "ibin": 660,
      "▁oldur": 661,
      "vetli": 662,
      "▁gununu": 663,
      "▁acıyla": 664,
      "▁esas": 665,
      "kam": 666,
      "▁sesinden": 667,
      "▁600": 668,
      "▁alayı": 669,
      "▁balgam": 670,
      "bah": 671,
      "▁islemin": 672,
      "▁cıktıgını": 673,
      "▁parmagını": 674,
      "irmen": 675,
      "haneye": 676,
      "▁annec": 677,
      "▁anlıslanabili": 678,
      "yen": 679,
      "▁yusuf": 680,
      "mada": 681,
      "▁tarihini": 682,
      "▁titizlik": 683,
      "▁acılar": 684,
      "ırarak": 685,
      "▁ettigi": 686,
      "▁personelin": 687,
      "▁yası": 688,
      "tla": 689,
      "dadır": 690,
      "dırarak": 691,
      "er'in": 692,
      ",": 693,
      "▁tahv": 694,
      "▁a.b.": 695,
      "▁deligi": 696,
      "▁sezonu": 697,
      "▁his": 698,
      "▁munaseb": 699,
      "▁gelmistir": 700,
      "▁karmas": 701,
      "▁boyutta": 702,
      "▁baca": 703,
      "▁nah": 704,
      "ide": 705,
      "▁kurtul": 706,
      "▁bazda": 707,
      "▁kardeslik": 708,
      "▁kapsamı": 709,
      "▁lıgın": 710,
      "▁oglan": 711,
      "▁sartlar": 712,
      "▁korsan": 713,
      "▁kısa": 714,
      "▁laf": 715,
      "▁komut": 716,
      "estir": 717,
      "▁metre": 718,
      "▁kararsizim": 719,
      "▁evinin": 720,
      "▁rul": 721,
      "▁alarak": 722,
      "▁cereyan": 723,
      "▁rekabetin": 724,
      "▁dolasmaya": 725,
      "▁teneff": 726,
      "▁tesiri": 727,
      "▁yanıyor": 728,
      "▁okurlar": 729,
      "▁sterlin": 730,
      "▁is": 731,
      "▁hayatta": 732,
      "▁tanrı": 733,
      "▁yumur": 734,
      "larıyla": 735,
      "▁oyuncular": 736,
      "▁avans": 737,
      "▁acele": 738,
      "▁endiselen": 739,
      "▁gazeteci": 740,
      "▁maddeler": 741,
      "▁mater": 742,
      "▁koru": 743,
      "▁gorusmek": 744,
      "▁basak": 745,
      "▁kuvvetler": 746,
      "▁bitirmek": 747,
      "▁vucut": 748,
      "▁italyan": 749,
      "▁inc.": 750,
      "avuldeki": 751,
      "▁bakıma": 752,
      "fa": 753,
      "▁yildiz": 754,
      "▁belirt": 755,
      "▁isteklerini": 756,
      "▁bayagi": 757,
      "▁pasap": 758,
      "▁mevki": 759,
      "▁izini": 760,
      "▁eserin": 761,
      "▁malzemesi": 762,
      "luy": 763,
      "▁bakı": 764,
      "▁fiyati": 765,
      "▁yılının": 766,
      "▁tutul": 767,
      "▁onune": 768,
      "▁konularında": 769,
      "likte": 770,
      "▁vegas'a": 771,
      "edir": 772,
      "▁kaslarını": 773,
      "▁gosterir": 774,
      "▁beyzbol": 775,
      "madık": 776,
      "▁zayıf": 777,
      "▁isaretleri": 778,
      "▁damat": 779,
      "▁durumları": 780,
      "▁epey": 781,
      "▁zincir": 782,
      "▁okulda": 783,
      "▁yılını": 784,
      "▁tasıt": 785,
      "▁devamı": 786,
      "▁5'te": 787,
      "▁nefese": 788,
      "misler": 789,
      "lılıgını": 790,
      "emde": 791,
      "▁yatıs": 792,
      "▁talebi": 793,
      "▁john": 794,
      "▁bitim": 795,
      "▁esi": 796,
      "▁baslarına": 797,
      "organ": 798,
      "▁vis": 799,
      "onik": 800,
      "▁sayesinde": 801,
      "▁cevresinde": 802,
      "▁balon": 803,
      "▁tazmin": 804,
      "▁atom": 805,
      "▁dinlemek": 806,
      "▁sıralar": 807,
      "ılmıs": 808,
      "iyel": 809,
      "▁macı": 810,
      "▁odası": 811,
      "▁saatlerini": 812,
      "▁bilgisayarlar": 813,
      "▁cizgileri": 814,
      "malık": 815,
      "▁uzmanları": 816,
      "▁inanıyor": 817,
      "▁ellerimi": 818,
      "▁listesine": 819,
      "▁renklerin": 820,
      "ada": 821,
      "▁girisimi": 822,
      "ugunde": 823,
      "▁9'da": 824,
      "▁hepsini": 825,
      "gen": 826,
      "est": 827,
      "▁konserv": 828,
      "▁menek": 829,
      "▁alttan": 830,
      "ecektim": 831,
      "eye": 832,
      "▁bakanı": 833,
      "▁hucum": 834,
      "esi'ne": 835,
      "▁boslukta": 836,
      "tir": 837,
      "siy": 838,
      "▁mah": 839,
      "▁gercegi": 840,
      "▁am": 841,
      "▁dusunceler": 842,
      "▁bogaz": 843,
      "▁antika": 844,
      "▁kayıtları": 845,
      "▁muzak": 846,
      "▁imalat": 847,
      "▁alman": 848,
      "▁yuregi": 849,
      "to": 850,
      "ental": 851,
      "▁universitesi": 852,
      "▁ur": 853,
      "▁tasımaya": 854,
      "▁cıkmıs": 855,
      "▁parc": 856,
      "▁mutemadiyen": 857,
      "▁yeni": 858,
      "lıgına": 859,
      "30'da": 860,
      "esidir": 861,
      "amadım": 862,
      "▁altıda": 863,
      "▁yatırımcılar": 864,
      "▁mintan": 865,
      "▁partiler": 866,
      "▁bankalarının": 867,
      "▁yapabil": 868,
      "▁seyin": 869,
      "▁cıgır": 870,
      "▁genclerin": 871,
      "▁haksızlıgı": 872,
      "▁kızgın": 873,
      "elikle": 874,
      "endir": 875,
      "▁kaldıgını": 876,
      "▁muesses": 877,
      "▁80": 878,
      "▁alab": 879,
      "▁toparlan": 880,
      "▁koyde": 881,
      "▁bagımlılık": 882,
      "▁parav": 883,
      "▁elim": 884,
      "agon": 885,
      "ru": 886,
      "lım": 887,
      "▁gucunu": 888,
      "▁sahile": 889,
      "▁yıgın": 890,
      "▁bezi": 891,
      "▁mac": 892,
      "▁oynat": 893,
      "▁yeteri": 894,
      "ola": 895,
      "▁mak": 896,
      "▁nis": 897,
      "▁islet": 898,
      "▁goster": 899,
      "▁dalga": 900,
      "▁insanlarla": 901,
      "▁cezve": 902,
      "▁suyunu": 903,
      "▁pir": 904,
      "mayı": 905,
      "manın": 906,
      "▁kriz": 907,
      "lgelelim": 908,
      "phis": 909,
      "▁1980'": 910,
      "lenmesini": 911,
      "▁yazım": 912,
      "▁koms": 913,
      "▁teyit": 914,
      "▁istik": 915,
      "▁olusan": 916,
      "▁komuru": 917,
      "▁dolarda": 918,
      "▁ma": 919,
      "digimi": 920,
      "▁yoklugunda": 921,
      "▁fazlaydi": 922,
      "ırlı": 923,
      "anması": 924,
      "▁seniz": 925,
      "▁kentin": 926,
      "▁ulus": 927,
      "▁sis": 928,
      "▁stud": 929,
      "▁ikisin": 930,
      "▁deprem": 931,
      "▁avuk": 932,
      "nem": 933,
      "▁ton": 934,
      "▁yus": 935,
      "▁kokain": 936,
      "▁denizasır": 937,
      "izma": 938,
      "anlarda": 939,
      "▁degistirmek": 940,
      "▁istedi": 941,
      "▁olma": 942,
      "▁kuzey": 943,
      "di": 944,
      "▁kul": 945,
      "urlar": 946,
      "▁teması": 947,
      "▁topladı": 948,
      "▁firmasının": 949,
      "▁fab": 950,
      "▁sofrasında": 951,
      "▁gunluk": 952,
      "▁kazanmaya": 953,
      "lerini": 954,
      "▁iade": 955,
      "▁kl": 956,
      ".6": 957,
      "ugu": 958,
      "lıgıma": 959,
      "▁br": 960,
      "▁anti": 961,
      "▁telefonu": 962,
      "▁motiv": 963,
      "▁pat": 964,
      "▁telefonuma": 965,
      "▁ofisleri": 966,
      "▁haziran'da": 967,
      "▁cicegi": 968,
      "▁kredisi": 969,
      "▁ev": 970,
      "▁zamandan": 971,
      "▁cıkmayı": 972,
      "▁cin": 973,
      "b.": 974,
      "▁katında": 975,
      "▁anah": 976,
      "▁agustos'ta": 977,
      "lılar": 978,
      "▁donen": 979,
      "▁baglant": 980,
      "lukla": 981,
      "▁dondu": 982,
      "▁liste": 983,
      "att": 984,
      "▁`": 985,
      "yonluk": 986,
      "▁fis": 987,
      "▁anac": 988,
      "▁perdeler": 989,
      "edikten": 990,
      "▁dusus": 991,
      "▁dul": 992,
      "▁dine": 993,
      "▁fot": 994,
      "▁ifa": 995,
      "▁seher": 996,
      "▁gruba": 997,
      "▁kon": 998,
      "▁yeterli": 999,
      "teki": 1000,
      "▁tarihe": 1001,
      "▁vaziyeti": 1002,
      "temelen": 1003,
      "▁elbiselerini": 1004,
      "▁acıklaması": 1005,
      "ilikleri": 1006,
      "ader": 1007,
      "▁davranıs": 1008,
      "25": 1009,
      "▁uzattı": 1010,
      "▁tahl": 1011,
      "▁koymus": 1012,
      "▁cinsiyet": 1013,
      "▁olmasın": 1014,
      "▁pasifik": 1015,
      "▁tıkır": 1016,
      "▁toplantısında": 1017,
      "ersah": 1018,
      "▁takdir": 1019,
      "▁utu": 1020,
      "▁kemik": 1021,
      "▁anlatmaya": 1022,
      "▁cıl": 1023,
      "▁acıkca": 1024,
      "cular": 1025,
      "▁sahilde": 1026,
      "zir": 1027,
      "▁calısıyorlar": 1028,
      "abilecegine": 1029,
      "dıgında": 1030,
      "▁fren": 1031,
      "▁gubre": 1032,
      "▁od": 1033,
      "▁piyan": 1034,
      "ew": 1035,
      "▁savası": 1036,
      "▁gaz": 1037,
      "▁bolgede": 1038,
      "▁kemer": 1039,
      "▁inkar": 1040,
      "▁binanın": 1041,
      "▁dama": 1042,
      "▁pacific": 1043,
      "agat": 1044,
      "▁gosterebilir": 1045,
      "▁biliyorsun": 1046,
      "▁kepenk": 1047,
      "▁philadel": 1048,
      "▁akla": 1049,
      "▁bakalım": 1050,
      "▁renginde": 1051,
      "▁tok": 1052,
      "▁ap": 1053,
      "▁gov": 1054,
      "▁kıyas": 1055,
      "lenir": 1056,
      "▁felsefe": 1057,
      "▁ihtim": 1058,
      "sev": 1059,
      "▁kadınların": 1060,
      "▁goruldu": 1061,
      "▁parayla": 1062,
      "▁romanı": 1063,
      "▁kole": 1064,
      "▁franch": 1065,
      "▁tasımacılıgı": 1066,
      "▁safhada": 1067,
      "▁rolunu": 1068,
      "▁hastalıga": 1069,
      "▁izledi": 1070,
      "▁askerlerle": 1071,
      "▁mum": 1072,
      "▁kendime": 1073,
      "▁varol": 1074,
      "▁hır": 1075,
      "▁etmesine": 1076,
      "▁ayının": 1077,
      "▁inancı": 1078,
      "▁yanık": 1079,
      "▁brit": 1080,
      "▁tokyo": 1081,
      "▁sozles": 1082,
      "▁kun": 1083,
      "▁odaydi": 1084,
      "▁kredi": 1085,
      "▁akıl": 1086,
      "▁cisim": 1087,
      "▁meselesi": 1088,
      "▁davanın": 1089,
      "▁cek": 1090,
      "▁soylen": 1091,
      "▁kumarhane": 1092,
      "▁ler": 1093,
      "▁tavrını": 1094,
      "▁yuzyıl": 1095,
      "ilm": 1096,
      "▁urunlerini": 1097,
      "▁49": 1098,
      "▁tuccar": 1099,
      "▁bereket": 1100,
      "▁dinler": 1101,
      "isindan": 1102,
      "rını": 1103,
      "▁desteklemek": 1104,
      "▁gidis": 1105,
      "▁nisan": 1106,
      "▁tasfiye": 1107,
      "▁zul": 1108,
      "kiz": 1109,
      "etsiz": 1110,
      "▁merrill": 1111,
      "abaz": 1112,
      "▁volatil": 1113,
      "▁sokaklar": 1114,
      "▁ciger": 1115,
      "▁boylece": 1116,
      "▁fac": 1117,
      "▁durusma": 1118,
      "▁helik": 1119,
      "▁lık": 1120,
      "▁soyluyorlar": 1121,
      "▁isareti": 1122,
      "▁dum": 1123,
      "▁hisselerini": 1124,
      "▁faturamin": 1125,
      "▁detaylar": 1126,
      "larin": 1127,
      "▁tarafın": 1128,
      "▁tahmin": 1129,
      "▁geldiler": 1130,
      "▁docent": 1131,
      "▁gecirdim": 1132,
      "meliyim": 1133,
      "▁fincan": 1134,
      "▁ifadesini": 1135,
      "lob": 1136,
      "▁ymis": 1137,
      "▁kırıklıgına": 1138,
      "▁miralay": 1139,
      "▁veremem": 1140,
      "▁sordum": 1141,
      "ılmaz": 1142,
      "esap": 1143,
      "▁sureli": 1144,
      "▁american": 1145,
      "▁salt": 1146,
      "▁faaliyete": 1147,
      "ogret": 1148,
      "▁kuk": 1149,
      "▁kopr": 1150,
      "▁kisilig": 1151,
      "eme": 1152,
      "ızı": 1153,
      "▁yayla": 1154,
      "▁dedek": 1155,
      "▁kirliydi": 1156,
      "▁birisini": 1157,
      "▁seref": 1158,
      "▁tuyleri": 1159,
      "▁hapse": 1160,
      "▁rekor": 1161,
      "▁pros": 1162,
      "seniz": 1163,
      "▁yarısının": 1164,
      "▁mallar": 1165,
      "▁mantar": 1166,
      "▁sente": 1167,
      "▁dagları": 1168,
      "▁cıkmaz": 1169,
      "▁calar": 1170,
      "▁gorduk": 1171,
      "▁altından": 1172,
      "▁aklımdan": 1173,
      "duklarını": 1174,
      "ncu": 1175,
      "▁nashville": 1176,
      "▁tip": 1177,
      "▁alıs": 1178,
      "tık": 1179,
      "▁hızla": 1180,
      "▁cog": 1181,
      "▁ortası": 1182,
      "▁yasıyor": 1183,
      "▁kubb": 1184,
      "iyorlardi": 1185,
      "▁2.7": 1186,
      "▁bomba": 1187,
      "kiler": 1188,
      "▁milyonu": 1189,
      "umb": 1190,
      "▁binlerce": 1191,
      "yak": 1192,
      "leyip": 1193,
      "alandır": 1194,
      "▁zey": 1195,
      "lunun": 1196,
      "▁becerik": 1197,
      "▁gon": 1198,
      "digini": 1199,
      "▁merkezinden": 1200,
      "▁dede": 1201,
      "▁kotuluk": 1202,
      "▁keder": 1203,
      "▁sahiptir": 1204,
      "f": 1205,
      "▁cesitleri": 1206,
      "▁erkegi": 1207,
      "edik": 1208,
      "▁koken": 1209,
      "▁yuksekten": 1210,
      "▁ucuncu": 1211,
      "▁durumlar": 1212,
      "▁onemli": 1213,
      "▁kollarını": 1214,
      "labilir": 1215,
      "yle": 1216,
      "▁kimi": 1217,
      "▁ornegin": 1218,
      "▁yandan": 1219,
      "ıtı": 1220,
      "▁burnundan": 1221,
      "▁dogr": 1222,
      "▁daima": 1223,
      "▁hasılat": 1224,
      "▁sad": 1225,
      "▁dieg": 1226,
      "▁yarad": 1227,
      "▁kaynaklandıgını": 1228,
      "▁isim": 1229,
      "▁ilgilenmedi": 1230,
      "▁mi": 1231,
      "▁degist": 1232,
      "▁aynada": 1233,
      "▁kasab": 1234,
      "▁dinlenmek": 1235,
      "▁ruh": 1236,
      "edig": 1237,
      "usup": 1238,
      "canla": 1239,
      "▁boyle": 1240,
      "▁bık": 1241,
      "▁yakinlarima": 1242,
      "▁oakland'a": 1243,
      "▁ardından": 1244,
      "▁dib": 1245,
      "▁kontrolunu": 1246,
      "▁oynar": 1247,
      "▁uz": 1248,
      "▁hij": 1249,
      "▁nag": 1250,
      "siniz": 1251,
      "▁olmaktan": 1252,
      "▁cıktı": 1253,
      "▁neyin": 1254,
      "▁hazret": 1255,
      "▁ustunluk": 1256,
      "▁cel": 1257,
      "▁havasında": 1258,
      "▁oldugun": 1259,
      "▁hacet": 1260,
      "▁mandır": 1261,
      "▁sayısının": 1262,
      "▁kayanın": 1263,
      "▁hayvanlar": 1264,
      "ran": 1265,
      "msiz": 1266,
      "▁kalf": 1267,
      "lerek": 1268,
      "lendirmek": 1269,
      "▁savun": 1270,
      "▁istil": 1271,
      "▁hakk": 1272,
      "▁balik": 1273,
      "▁tarzı": 1274,
      "asi": 1275,
      "▁suresi": 1276,
      "▁bicimde": 1277,
      "▁kıyısında": 1278,
      "▁kadir": 1279,
      "▁anahtarı": 1280,
      "tema": 1281,
      "irleri": 1282,
      "▁kalabalikti": 1283,
      "oroz": 1284,
      "▁protokol": 1285,
      "▁tetik": 1286,
      "▁almanya": 1287,
      "▁gecekon": 1288,
      "▁neti": 1289,
      "gr": 1290,
      "▁nerede": 1291,
      "stık": 1292,
      "▁muzigi": 1293,
      "▁kasık": 1294,
      "▁isimler": 1295,
      "▁baskent": 1296,
      "▁sapkası": 1297,
      "▁bardagı": 1298,
      "▁tehdit": 1299,
      "▁gurultuye": 1300,
      "lanarak": 1301,
      "lıydı": 1302,
      "▁baslayacagını": 1303,
      "▁ulkemiz": 1304,
      "▁kalacagını": 1305,
      "▁olmayacagını": 1306,
      "▁cumhuriyeti": 1307,
      "▁yayım": 1308,
      "▁pisirin": 1309,
      "▁ilgisizdi": 1310,
      "▁reformu": 1311,
      "▁planlarını": 1312,
      "▁oldugumuz": 1313,
      "▁tanım": 1314,
      "▁sanıyorum": 1315,
      "▁atı": 1316,
      "▁babadan": 1317,
      "▁muayene": 1318,
      "▁sosyalizm": 1319,
      "▁hızı": 1320,
      "lıklarını": 1321,
      "▁duskunlugu": 1322,
      "▁beyi": 1323,
      "▁yiyeceklerde": 1324,
      "▁bilez": 1325,
      "▁maas": 1326,
      "dası": 1327,
      "kan": 1328,
      "▁ekmek": 1329,
      "▁basın": 1330,
      "▁kupeler": 1331,
      "▁gununden": 1332,
      "▁surucu": 1333,
      "usa": 1334,
      "▁donemi": 1335,
      "▁vatandaslar": 1336,
      "▁payı": 1337,
      "▁oteli": 1338,
      "▁persembe": 1339,
      "▁kaldı": 1340,
      "osuna": 1341,
      "▁hazırlıklar": 1342,
      "▁bitmek": 1343,
      "larınla": 1344,
      "▁doktorun": 1345,
      "▁yukselen": 1346,
      "▁sadece": 1347,
      "i": 1348,
      "▁satısı": 1349,
      "▁lezzetsizdi": 1350,
      "inc": 1351,
      "▁yiy": 1352,
      "▁orgutu": 1353,
      "▁bogurt": 1354,
      "▁hisselerde": 1355,
      "▁yemekleri": 1356,
      "▁sırada": 1357,
      "▁odami": 1358,
      "▁calık": 1359,
      "▁sahs": 1360,
      "▁taleplerinin": 1361,
      "▁pound": 1362,
      "▁eline": 1363,
      "▁sekreter": 1364,
      "sim": 1365,
      "yince": 1366,
      "▁piyasa": 1367,
      "▁bog": 1368,
      "▁catlak": 1369,
      "zır": 1370,
      "▁kok": 1371,
      "▁ını": 1372,
      "▁istan": 1373,
      "antı": 1374,
      "▁kahv": 1375,
      "▁aynı": 1376,
      "oker": 1377,
      "dırım": 1378,
      "▁girince": 1379,
      "▁a.": 1380,
      "▁odasında": 1381,
      "▁avrupa": 1382,
      "▁edebiyat": 1383,
      "unuzu": 1384,
      "▁nebze": 1385,
      "▁katildim": 1386,
      "etim": 1387,
      "▁milyarlar": 1388,
      "ılmasına": 1389,
      "▁basında": 1390,
      "tia": 1391,
      "▁hadis": 1392,
      "▁gazetesi": 1393,
      "▁uzlas": 1394,
      "olu": 1395,
      "▁topar": 1396,
      "▁doktu": 1397,
      "▁dirsek": 1398,
      "▁fiili": 1399,
      "▁tamamlanması": 1400,
      "imen": 1401,
      "▁ozellik": 1402,
      "maların": 1403,
      "dıgına": 1404,
      "▁karnını": 1405,
      "▁mektub": 1406,
      "▁genclere": 1407,
      "▁tom": 1408,
      "▁saglıgını": 1409,
      "▁sokakta": 1410,
      "▁kuyum": 1411,
      "utun": 1412,
      "▁vez": 1413,
      "▁1000": 1414,
      "▁tor": 1415,
      "▁ilet": 1416,
      "▁36": 1417,
      "▁keb": 1418,
      "▁kompleksi": 1419,
      "▁hic": 1420,
      "▁yetistir": 1421,
      "▁kilim": 1422,
      "▁kisisel": 1423,
      "▁onlarda": 1424,
      "▁tık": 1425,
      "ıgın": 1426,
      "▁gozlerle": 1427,
      "▁fonu": 1428,
      "▁alanı": 1429,
      "▁destan": 1430,
      "▁kulakları": 1431,
      "▁gorusmelerin": 1432,
      "▁kagıd": 1433,
      "onel": 1434,
      "▁gecer": 1435,
      "▁dısında": 1436,
      "▁itiraf": 1437,
      "▁sirketlerinden": 1438,
      "▁hip": 1439,
      "deydi": 1440,
      "sunuz": 1441,
      "▁carda": 1442,
      "▁engellemek": 1443,
      "ic": 1444,
      "▁sureligine": 1445,
      "▁yay": 1446,
      "za": 1447,
      "cok": 1448,
      "ezler": 1449,
      "▁onum": 1450,
      "▁vuk": 1451,
      "▁ulu": 1452,
      "▁onar": 1453,
      "▁moder": 1454,
      "▁tartısmaların": 1455,
      "▁gorevleri": 1456,
      "▁dolayı": 1457,
      "▁yazının": 1458,
      "▁mobilyalar": 1459,
      "▁konusmasını": 1460,
      "▁tepsi": 1461,
      "▁perdelerini": 1462,
      "▁halkı": 1463,
      "▁sorgu": 1464,
      "▁ucusun": 1465,
      "▁fol": 1466,
      "▁makinist": 1467,
      "▁gonder": 1468,
      ";": 1469,
      "▁tarihte": 1470,
      "▁istikrar": 1471,
      "ki": 1472,
      "▁rekabeti": 1473,
      "▁temiz": 1474,
      "allı": 1475,
      "▁lik": 1476,
      "▁gunumuzde": 1477,
      "▁ipotege": 1478,
      "▁icer": 1479,
      "▁etmektedir": 1480,
      "▁denen": 1481,
      "▁miydi": 1482,
      "▁dusunmek": 1483,
      "▁satıcılar": 1484,
      "▁hizmetin": 1485,
      "▁ile": 1486,
      "▁dakikadan": 1487,
      "ydım": 1488,
      "▁tehlik": 1489,
      "▁muf": 1490,
      "▁nedenler": 1491,
      "▁boks": 1492,
      "▁iskence": 1493,
      "▁sekil": 1494,
      "eysel": 1495,
      "lalı": 1496,
      "▁kala": 1497,
      "▁neh": 1498,
      "anet": 1499,
      "cısı": 1500,
      "este": 1501,
      "uklu": 1502,
      "ladi": 1503,
      "▁ter": 1504,
      "▁kategor": 1505,
      "anya": 1506,
      "▁bakımı": 1507,
      "▁ph": 1508,
      "▁kata": 1509,
      "▁curuk": 1510,
      "▁yud": 1511,
      "▁dukkanı": 1512,
      "▁boyn": 1513,
      "agının": 1514,
      "▁sonundan": 1515,
      "si": 1516,
      "▁degistir": 1517,
      "▁gorunce": 1518,
      "▁baslayacak": 1519,
      "▁bilet": 1520,
      "▁mens": 1521,
      "▁girip": 1522,
      "▁duzene": 1523,
      "▁namus": 1524,
      "ield": 1525,
      "▁medeniyeti": 1526,
      "ilmez": 1527,
      "▁pan": 1528,
      "▁gaflet": 1529,
      "mey": 1530,
      "▁gas": 1531,
      "▁yabancilara": 1532,
      "▁istemez": 1533,
      "▁incelem": 1534,
      "mazdı": 1535,
      "▁tavsiy": 1536,
      "▁zamankinden": 1537,
      "▁irtibat": 1538,
      "▁puan": 1539,
      "▁ayakk": 1540,
      "▁hukumeti": 1541,
      "▁biles": 1542,
      "▁ilim": 1543,
      "▁meyv": 1544,
      "asının": 1545,
      "laya": 1546,
      "bas": 1547,
      "▁sayisi": 1548,
      "▁yerinin": 1549,
      "▁ka": 1550,
      "▁acıdan": 1551,
      "▁unsuru": 1552,
      "▁kop": 1553,
      "e": 1554,
      "▁kısmı": 1555,
      "▁daga": 1556,
      "▁erkekleri": 1557,
      "▁gittikce": 1558,
      "▁cikiyordu": 1559,
      "abilirdi": 1560,
      "▁yuzden": 1561,
      "ret": 1562,
      "▁gorev": 1563,
      "eff": 1564,
      "▁sual": 1565,
      "▁elci": 1566,
      "▁patiska": 1567,
      "▁amacı": 1568,
      "geler": 1569,
      "▁siyasi": 1570,
      "▁surat": 1571,
      "ose": 1572,
      "▁ayakları": 1573,
      "▁yap": 1574,
      "▁degillerdi": 1575,
      "amayacagını": 1576,
      "▁topluma": 1577,
      "lıca": 1578,
      "▁cocuklu": 1579,
      "arken": 1580,
      "▁anlatıyor": 1581,
      "▁hisselerine": 1582,
      "▁ilginc": 1583,
      "▁odulu": 1584,
      "▁ucusla": 1585,
      "▁kitap": 1586,
      "▁olumunden": 1587,
      "▁avantajı": 1588,
      "▁alıskanlık": 1589,
      "▁soyler": 1590,
      "▁basvuru": 1591,
      "icinin": 1592,
      "▁vek": 1593,
      "▁geldim": 1594,
      "▁dayanıs": 1595,
      "▁tep": 1596,
      "▁ince": 1597,
      "▁anlıslanabilirlik": 1598,
      "imore": 1599,
      "kal": 1600,
      "▁hulya": 1601,
      "irgin": 1602,
      "an": 1603,
      "dog": 1604,
      "▁otede": 1605,
      "▁atlet": 1606,
      "▁bera": 1607,
      "▁mukellef": 1608,
      "▁surer": 1609,
      "▁malın": 1610,
      "▁gordug": 1611,
      "▁bolgenin": 1612,
      "▁egilimleri": 1613,
      "▁masasında": 1614,
      "emizde": 1615,
      "▁gecmek": 1616,
      "▁mim": 1617,
      "▁baglan": 1618,
      "▁islerini": 1619,
      "▁teshis": 1620,
      "▁sarf": 1621,
      "▁makin": 1622,
      "▁ekonomisi": 1623,
      "▁ucusların": 1624,
      "a'da": 1625,
      "▁busbutun": 1626,
      "▁olmuyor": 1627,
      "▁ikinc": 1628,
      "▁oturuyordu": 1629,
      "▁inc": 1630,
      "▁kızını": 1631,
      "tigini": 1632,
      "▁ogretmen": 1633,
      "▁teslimat": 1634,
      "▁ahmet": 1635,
      "5'ini": 1636,
      "▁kardesinin": 1637,
      "▁meyvelerini": 1638,
      "▁sanık": 1639,
      "ıyla": 1640,
      "ee": 1641,
      "lamadı": 1642,
      "aman": 1643,
      "▁anda": 1644,
      "▁yakında": 1645,
      "▁vaka": 1646,
      "▁odaları": 1647,
      "▁cemaat": 1648,
      "▁kam": 1649,
      "▁tek": 1650,
      "▁diyerek": 1651,
      "▁benzet": 1652,
      "▁bahis": 1653,
      "▁her": 1654,
      "▁hizmet": 1655,
      "ilim": 1656,
      "▁karton": 1657,
      "▁oranının": 1658,
      "▁yazılı": 1659,
      "▁istegi": 1660,
      "vir": 1661,
      "▁emirleri": 1662,
      "▁zemin": 1663,
      "▁alım-sat": 1664,
      "trily": 1665,
      "▁itibari": 1666,
      "▁otesi": 1667,
      "▁kalıp": 1668,
      "▁ulkelerden": 1669,
      "biy": 1670,
      "▁tev": 1671,
      "▁kursu": 1672,
      "siyon": 1673,
      "ter": 1674,
      "▁hatta": 1675,
      "▁sehri": 1676,
      "cıdır": 1677,
      "▁birahan": 1678,
      "▁siv": 1679,
      "▁detroit": 1680,
      "▁sakak": 1681,
      "▁bagı": 1682,
      "▁konusmak": 1683,
      "▁secimin": 1684,
      "macı": 1685,
      "▁kuslar": 1686,
      "▁kadınlardan": 1687,
      "alad": 1688,
      "▁continental": 1689,
      "▁ettim": 1690,
      "▁tak": 1691,
      "gmen": 1692,
      "▁telefonla": 1693,
      "▁ber": 1694,
      "▁agrı": 1695,
      "ukee": 1696,
      "▁ex": 1697,
      "▁maliyetinin": 1698,
      "▁atmayı": 1699,
      "▁sukun": 1700,
      "ecek": 1701,
      "▁gayret": 1702,
      "▁cope": 1703,
      "gis": 1704,
      "▁seneden": 1705,
      "▁maden": 1706,
      "▁kez": 1707,
      "▁senet": 1708,
      "▁rit": 1709,
      "▁sekline": 1710,
      "▁louis": 1711,
      "▁yanı": 1712,
      "▁vb": 1713,
      "▁yut": 1714,
      "▁sakaya": 1715,
      "▁odunc": 1716,
      "asyonu": 1717,
      "▁mucadele": 1718,
      "▁kardesimin": 1719,
      "▁nar": 1720,
      "▁baslangıc": 1721,
      "▁seyle": 1722,
      "▁okur": 1723,
      "▁komun": 1724,
      "▁cocuklarının": 1725,
      "▁istiyordu": 1726,
      "ark": 1727,
      "▁rakipler": 1728,
      "▁yardım": 1729,
      "▁karsiligi": 1730,
      "▁diregi": 1731,
      "▁fed": 1732,
      "▁bogazici": 1733,
      "▁etmek": 1734,
      "▁teseb": 1735,
      "eveyn": 1736,
      "▁bilimin": 1737,
      "ıyoruz": 1738,
      "▁isimlerini": 1739,
      "▁hosuma": 1740,
      "ich": 1741,
      "▁rivayet": 1742,
      "▁okula": 1743,
      "▁kord": 1744,
      "▁zarf": 1745,
      "▁takipsizlik": 1746,
      "▁kisiyle": 1747,
      "kin": 1748,
      "▁kayg": 1749,
      "▁kadın": 1750,
      "mez": 1751,
      "▁atar": 1752,
      "▁kemal": 1753,
      "▁kuralları": 1754,
      "iza": 1755,
      "▁rıhtım": 1756,
      "▁cumhurb": 1757,
      "▁cad": 1758,
      "▁ailesini": 1759,
      "sil": 1760,
      "diklerini": 1761,
      "▁cim": 1762,
      "kındaki": 1763,
      "atıl": 1764,
      "amayacag": 1765,
      "▁verileri": 1766,
      "▁cizgi": 1767,
      "▁kuvveti": 1768,
      "▁gelisimi": 1769,
      "▁gorustuk": 1770,
      "▁ont": 1771,
      "▁yagm": 1772,
      "▁yoluyla": 1773,
      "▁marj": 1774,
      "▁serp": 1775,
      "▁soyledik": 1776,
      "▁golf": 1777,
      "▁temizdi": 1778,
      "▁halkalar": 1779,
      "▁bankaları": 1780,
      "▁muhtac": 1781,
      "▁kisiden": 1782,
      "/3": 1783,
      "▁sahipligi": 1784,
      "tigi": 1785,
      "▁taks": 1786,
      "▁dı": 1787,
      "▁dev": 1788,
      "▁araclar": 1789,
      "▁kampanyası": 1790,
      "gus": 1791,
      "▁kisilere": 1792,
      "▁uzan": 1793,
      "dirdi": 1794,
      "▁agac": 1795,
      "▁herkese": 1796,
      "▁gayri": 1797,
      "▁faci": 1798,
      "'ne": 1799,
      "kuz": 1800,
      "▁dusuncenin": 1801,
      "▁gormek": 1802,
      "▁pazar": 1803,
      "▁perdeleri": 1804,
      "▁nere": 1805,
      "piyon": 1806,
      "▁ahkam": 1807,
      "ogretim": 1808,
      "▁kavram": 1809,
      "re": 1810,
      "▁angel": 1811,
      "▁net": 1812,
      "▁cadır": 1813,
      "▁gelgelelim": 1814,
      "▁hicbir": 1815,
      "▁onemini": 1816,
      "▁al": 1817,
      "ska": 1818,
      "▁sız": 1819,
      "▁koyun": 1820,
      "▁dusmus": 1821,
      "▁kons": 1822,
      "▁niye": 1823,
      "▁fasulyesi": 1824,
      "▁turnuv": 1825,
      "▁ozellikle": 1826,
      "▁istasyon": 1827,
      "▁frans": 1828,
      "rah": 1829,
      "▁islerine": 1830,
      "▁istikamet": 1831,
      "▁traf": 1832,
      "▁suruleri": 1833,
      "▁topraktan": 1834,
      "▁mahkeme": 1835,
      "▁sarhos": 1836,
      "▁sırtından": 1837,
      "▁sebepleri": 1838,
      "▁pozisyon": 1839,
      "yum": 1840,
      "▁aksam": 1841,
      "▁daire": 1842,
      "igini": 1843,
      "esinden": 1844,
      "▁birlestir": 1845,
      "essus": 1846,
      "▁belirterek": 1847,
      "▁kumsali": 1848,
      "▁ise": 1849,
      "▁yabanci": 1850,
      "▁kızgınlık": 1851,
      "▁samar": 1852,
      "▁likidit": 1853,
      "▁paranin": 1854,
      "▁muhafaz": 1855,
      "▁binalar": 1856,
      "▁odemesini": 1857,
      "las": 1858,
      "▁reklamların": 1859,
      "▁sonucu": 1860,
      "▁pers": 1861,
      "▁finan": 1862,
      "▁francisco'ya": 1863,
      "▁bufe": 1864,
      "u'nun": 1865,
      "▁cekici": 1866,
      "cayı": 1867,
      "▁cevabı": 1868,
      "▁satımı": 1869,
      "▁mevdu": 1870,
      "▁geriye": 1871,
      "ebilecegini": 1872,
      "▁alcak": 1873,
      "▁mesele": 1874,
      "▁surec": 1875,
      "▁kendimde": 1876,
      "▁kapılarını": 1877,
      "lanmaya": 1878,
      "ist": 1879,
      "▁kuvv": 1880,
      "ogramı": 1881,
      "▁yargıclar": 1882,
      "fi": 1883,
      "▁minn": 1884,
      "▁isra": 1885,
      "▁tahr": 1886,
      "iret": 1887,
      "▁hid": 1888,
      "lıyordu": 1889,
      "okr": 1890,
      "▁yansıtıyor": 1891,
      "▁menk": 1892,
      "▁giderek": 1893,
      "▁yanıt": 1894,
      "minde": 1895,
      "▁tahta": 1896,
      "▁ruy": 1897,
      "▁donup": 1898,
      "▁tavrı": 1899,
      "▁''": 1900,
      "▁vardiy": 1901,
      "uydu": 1902,
      "lanmadı": 1903,
      "▁ucretine": 1904,
      "▁efendim": 1905,
      "▁uzerinden": 1906,
      "▁41": 1907,
      "▁ucakları": 1908,
      "▁oya": 1909,
      "suz": 1910,
      "▁harman": 1911,
      "▁cayı": 1912,
      "▁filmin": 1913,
      "▁biliyorum": 1914,
      "▁cizg": 1915,
      "lk": 1916,
      "▁birkac": 1917,
      "▁tutam": 1918,
      "▁bisik": 1919,
      "cuya": 1920,
      "▁espri": 1921,
      "▁verdi": 1922,
      "▁pom": 1923,
      "▁olabilecegini": 1924,
      "agın": 1925,
      "▁gelmek": 1926,
      "▁and": 1927,
      "▁ek": 1928,
      "▁tehdid": 1929,
      "ester": 1930,
      "ehir": 1931,
      "atın": 1932,
      "lıkların": 1933,
      "▁ilmin": 1934,
      "▁yasa": 1935,
      "▁polit": 1936,
      "▁yaratıc": 1937,
      "▁gelis": 1938,
      "▁reper": 1939,
      "▁lafa": 1940,
      "lacagını": 1941,
      "▁war": 1942,
      "▁olayların": 1943,
      "▁soylemis": 1944,
      "▁paul": 1945,
      "▁yeryuzunun": 1946,
      "▁vesa": 1947,
      "▁karısımı": 1948,
      "▁duvarlara": 1949,
      "▁maddelerin": 1950,
      "-a": 1951,
      "▁gercegin": 1952,
      "▁ayrılıp": 1953,
      "▁guler": 1954,
      "▁yas": 1955,
      "paz": 1956,
      "▁1988'de": 1957,
      "uklar": 1958,
      "▁hitap": 1959,
      "▁yurut": 1960,
      "▁odedi": 1961,
      "▁ucundan": 1962,
      "abında": 1963,
      "dugumu": 1964,
      "▁mayın": 1965,
      "▁kıyafet": 1966,
      "▁yıllarında": 1967,
      "ilmistir": 1968,
      "gimi": 1969,
      "▁ateste": 1970,
      "▁deli": 1971,
      "▁alındı": 1972,
      "▁mevz": 1973,
      "▁yuruyordu": 1974,
      "ab": 1975,
      "▁tekrar": 1976,
      "▁kaynaklarına": 1977,
      "esi": 1978,
      "▁endustrileri": 1979,
      "▁moral": 1980,
      "▁hemsir": 1981,
      "uler": 1982,
      "▁houston": 1983,
      "▁dalgalanması": 1984,
      "▁keyf": 1985,
      "▁ondan": 1986,
      "▁nasıl": 1987,
      "▁mahluk": 1988,
      "▁sahipler": 1989,
      "▁fiyatından": 1990,
      "▁komunistler": 1991,
      "▁westchester": 1992,
      "▁yırt": 1993,
      "▁bankacılar": 1994,
      "asti": 1995,
      "▁nikah": 1996,
      "▁peyniri": 1997,
      "▁eyl": 1998,
      "▁teli": 1999,
      "all": 2000,
      "▁alınması": 2001,
      "▁panik": 2002,
      "▁tarafından": 2003,
      "▁finanse": 2004,
      "▁sogan": 2005,
      "▁ayıp": 2006,
      "▁halt": 2007,
      "▁orgu": 2008,
      "landı": 2009,
      "inal": 2010,
      "og": 2011,
      "memistir": 2012,
      "▁incir": 2013,
      "▁okuldan": 2014,
      "6'ya": 2015,
      "▁dusurmek": 2016,
      "▁endeksleri": 2017,
      "▁pencereleri": 2018,
      "▁ciftlik": 2019,
      "▁patent": 2020,
      "▁kongr": 2021,
      "▁dusunmuyor": 2022,
      "▁ablam": 2023,
      "uf": 2024,
      "alma": 2025,
      "▁kactı": 2026,
      "▁satısın": 2027,
      "ikr": 2028,
      "▁ogrendi": 2029,
      "▁ragmen": 2030,
      "▁nezaret": 2031,
      "▁sıh": 2032,
      "▁str": 2033,
      "▁getirileri": 2034,
      "▁vurgun": 2035,
      "opter": 2036,
      "▁geril": 2037,
      "▁kab": 2038,
      "▁karsıl": 2039,
      "▁taslar": 2040,
      "▁cocugum": 2041,
      "▁yerler": 2042,
      "▁degisime": 2043,
      "▁merdivenin": 2044,
      "▁imkanlar": 2045,
      "▁kaldıgı": 2046,
      "▁sirk": 2047,
      "▁biraz": 2048,
      "▁gomleg": 2049,
      "muyor": 2050,
      "▁ilisk": 2051,
      "▁bulgur": 2052,
      "▁balıgı": 2053,
      "▁kıy": 2054,
      "uh": 2055,
      "▁aksamın": 2056,
      "gil": 2057,
      "tali": 2058,
      "▁yt": 2059,
      "▁satmayı": 2060,
      "▁orn": 2061,
      "▁katkıda": 2062,
      "▁rej": 2063,
      "▁suren": 2064,
      "▁kıyamet": 2065,
      "▁cekiyordu": 2066,
      "mine": 2067,
      "omu": 2068,
      "▁merkezli": 2069,
      "▁siddetle": 2070,
      "▁6": 2071,
      "biye": 2072,
      "▁yukumluluk": 2073,
      "▁balıkcı": 2074,
      "▁edemez": 2075,
      "▁hucre": 2076,
      "▁kenarına": 2077,
      "tıkca": 2078,
      "sizce": 2079,
      "hw": 2080,
      "▁parcası": 2081,
      "▁hes": 2082,
      "▁37": 2083,
      "lattı": 2084,
      "▁minder": 2085,
      "▁saunayi": 2086,
      "aydi": 2087,
      "'lik": 2088,
      "▁kerv": 2089,
      "▁bilimi": 2090,
      "▁seviyelerde": 2091,
      "▁git": 2092,
      "▁masalı": 2093,
      "▁ent": 2094,
      "▁hepsinin": 2095,
      "▁dr.": 2096,
      "▁turkuler": 2097,
      "sey": 2098,
      "'sine": 2099,
      "▁karanfil": 2100,
      "▁ols": 2101,
      "▁new": 2102,
      "▁borsada": 2103,
      "▁burnunu": 2104,
      "lali": 2105,
      "▁alkıs": 2106,
      "▁mıs": 2107,
      "mek": 2108,
      "▁egilimi": 2109,
      "▁bulundu": 2110,
      "▁iktis": 2111,
      "▁filan": 2112,
      "ografi": 2113,
      "if": 2114,
      "▁evlilik": 2115,
      "▁magazalar": 2116,
      "dugumuz": 2117,
      "▁kapılarında": 2118,
      "▁almayı": 2119,
      "▁parca": 2120,
      "▁aletler": 2121,
      "▁kasar": 2122,
      "▁site": 2123,
      "ktır": 2124,
      "▁dilden": 2125,
      "▁endustri": 2126,
      "▁inek": 2127,
      "▁oynad": 2128,
      "▁istemedi": 2129,
      "▁model": 2130,
      "gar": 2131,
      "▁100'e": 2132,
      "▁oda": 2133,
      "▁lond": 2134,
      "▁derslerinde": 2135,
      "▁zavallının": 2136,
      "▁etrafında": 2137,
      "▁riskine": 2138,
      "▁hıckır": 2139,
      "▁diyen": 2140,
      "ayan": 2141,
      "▁kanıt": 2142,
      "▁direksiyon": 2143,
      "▁san": 2144,
      "▁sokaklarında": 2145,
      "▁siyaset": 2146,
      "nin": 2147,
      "▁kesin": 2148,
      "▁ulkeye": 2149,
      "▁yok": 2150,
      "mıl": 2151,
      "▁laborat": 2152,
      "bak": 2153,
      "▁saatte": 2154,
      "▁hizli": 2155,
      "bab": 2156,
      "▁titriyordu": 2157,
      "▁oakland'dan": 2158,
      "▁yanakları": 2159,
      "▁sozlerini": 2160,
      "▁gecelerde": 2161,
      "▁tet": 2162,
      "▁cocuga": 2163,
      "▁kahvaltisi": 2164,
      "▁toplantı": 2165,
      "▁kaya": 2166,
      "▁ediyordu": 2167,
      "▁refah": 2168,
      "▁elestiri": 2169,
      "ige": 2170,
      "▁ucaklar": 2171,
      "▁suc": 2172,
      "▁birtakım": 2173,
      "▁teskil": 2174,
      "▁sorunların": 2175,
      "atch": 2176,
      "▁yavaslama": 2177,
      "▁tepeden": 2178,
      "00000": 2179,
      "▁olmadıgına": 2180,
      "▁kızlarla": 2181,
      "▁tanıgı": 2182,
      "▁yapılacak": 2183,
      "▁planladıgını": 2184,
      "▁temer": 2185,
      "▁3\\/8": 2186,
      "omatik": 2187,
      "dil": 2188,
      "▁araplar": 2189,
      "lıgından": 2190,
      "▁otelden": 2191,
      "acagına": 2192,
      "▁olanaklari": 2193,
      "▁bask": 2194,
      "▁hissediyor": 2195,
      "▁rota": 2196,
      "▁yatagı": 2197,
      "▁ornekler": 2198,
      "▁ahlak": 2199,
      "▁esyalar": 2200,
      "abele": 2201,
      "▁sikayet": 2202,
      "stra": 2203,
      "▁bekler": 2204,
      "▁gorunuse": 2205,
      "▁beden": 2206,
      "▁lezz": 2207,
      "▁aklının": 2208,
      "▁kullanmak": 2209,
      "▁oneririm": 2210,
      "▁konularda": 2211,
      "▁begendik": 2212,
      "▁beyden": 2213,
      "▁yemis": 2214,
      "▁goruntusu": 2215,
      "▁okumak": 2216,
      "▁pot": 2217,
      "▁ziyan": 2218,
      "▁iddialar": 2219,
      "▁bere": 2220,
      "▁tadı": 2221,
      "▁pak": 2222,
      "▁10": 2223,
      "▁banka": 2224,
      "▁ikti": 2225,
      "▁yapıt": 2226,
      "▁ai": 2227,
      "▁katılımcı": 2228,
      "▁sirketinden": 2229,
      "▁taraf": 2230,
      "▁direk": 2231,
      "▁yelpaz": 2232,
      "▁muc": 2233,
      "▁partn": 2234,
      "▁ipotek": 2235,
      "▁asist": 2236,
      "▁etleri": 2237,
      "av": 2238,
      "▁inan": 2239,
      "▁dususle": 2240,
      "▁alıcıları": 2241,
      "▁sınıfa": 2242,
      "▁etek": 2243,
      "iler": 2244,
      "lama": 2245,
      "'ın": 2246,
      "▁#": 2247,
      "esemdi": 2248,
      "▁alım-satım": 2249,
      "▁olmay": 2250,
      "▁eksik": 2251,
      "▁anayas": 2252,
      "▁hi": 2253,
      "▁tarifeleri": 2254,
      "▁dostlar": 2255,
      "su": 2256,
      "▁ihal": 2257,
      "▁yurd": 2258,
      "▁musluman": 2259,
      "▁vurgu": 2260,
      "▁did": 2261,
      "▁cal": 2262,
      "rlik": 2263,
      "▁kizim": 2264,
      "▁spekulasyonlar": 2265,
      "agu": 2266,
      "▁aln": 2267,
      "mıyordu": 2268,
      "▁zinc": 2269,
      "▁teklifini": 2270,
      "ach": 2271,
      "▁birimin": 2272,
      "▁namına": 2273,
      "acısı": 2274,
      "▁duygularını": 2275,
      "ha": 2276,
      "▁ordunun": 2277,
      "▁buhar": 2278,
      "▁evladı": 2279,
      "▁annesini": 2280,
      "▁sanırım": 2281,
      "▁cantasında": 2282,
      "eyecek": 2283,
      "▁pasaport": 2284,
      "edikleri": 2285,
      "▁acil": 2286,
      "▁ugr": 2287,
      "▁misafirimize": 2288,
      "▁francisco'dan": 2289,
      "▁caddeye": 2290,
      "irin": 2291,
      "▁jur": 2292,
      "▁tuk": 2293,
      "▁pet": 2294,
      "yayı": 2295,
      "▁dist": 2296,
      "lugunu": 2297,
      "▁yuklen": 2298,
      "▁kapıda": 2299,
      "▁salona": 2300,
      "gımız": 2301,
      "▁ipotekler": 2302,
      "▁dam": 2303,
      "esem": 2304,
      "▁oksuruk": 2305,
      "▁sirkette": 2306,
      "▁dayanık": 2307,
      "▁anlamını": 2308,
      "▁imalatcısı": 2309,
      "yst": 2310,
      "▁sini": 2311,
      "yası": 2312,
      "▁aracılı": 2313,
      "▁ekib": 2314,
      "▁geciyordu": 2315,
      "▁yonlerden": 2316,
      "▁minibar": 2317,
      "lugunda": 2318,
      "▁kostek": 2319,
      "cag": 2320,
      "▁akıs": 2321,
      "leniyor": 2322,
      "reet": 2323,
      "▁ozur": 2324,
      "▁bildirim": 2325,
      "cilikten": 2326,
      "▁sendika": 2327,
      "▁dub": 2328,
      "▁maliyeti": 2329,
      "/8'e": 2330,
      "cın": 2331,
      "▁yasaya": 2332,
      "▁dolasır": 2333,
      "▁oncu": 2334,
      "usudur": 2335,
      "▁bankanın": 2336,
      "▁adına": 2337,
      "▁kusu": 2338,
      "▁romanc": 2339,
      "▁ti": 2340,
      "▁memnun": 2341,
      "▁degilse": 2342,
      "▁kediyi": 2343,
      "▁kacırmak": 2344,
      "▁asker": 2345,
      "▁emper": 2346,
      "on": 2347,
      "▁yuks": 2348,
      "osunu": 2349,
      "isten": 2350,
      "▁varil": 2351,
      "▁hesaba": 2352,
      "ılımı": 2353,
      "▁beklenenden": 2354,
      "lıyor": 2355,
      "▁hissine": 2356,
      "maz": 2357,
      "▁$": 2358,
      "etti": 2359,
      "ıma": 2360,
      "▁goren": 2361,
      "▁feryat": 2362,
      "▁gorevine": 2363,
      "▁yemeklerin": 2364,
      "▁almalar": 2365,
      "▁kadrosu": 2366,
      "sa": 2367,
      "▁doviz": 2368,
      "ildigi": 2369,
      "▁televizyonu": 2370,
      "▁kofte": 2371,
      "be": 2372,
      "▁otesinde": 2373,
      "▁istihbar": 2374,
      "saca": 2375,
      "abilir": 2376,
      "▁gecen": 2377,
      "▁elektron": 2378,
      "areti": 2379,
      "elt": 2380,
      "gor": 2381,
      "▁dili": 2382,
      "lamam": 2383,
      "▁ıskarta": 2384,
      "▁baslarında": 2385,
      "▁hatıra": 2386,
      "tmi": 2387,
      "▁karab": 2388,
      "▁benzer": 2389,
      "ıklıgı": 2390,
      "▁fikirler": 2391,
      "▁issizlik": 2392,
      "▁volta": 2393,
      "ılıgın": 2394,
      "▁albumu": 2395,
      "▁diego'dan": 2396,
      "medim": 2397,
      "▁akrab": 2398,
      "▁derginin": 2399,
      "▁gurultusu": 2400,
      "▁artıs": 2401,
      "▁kabın": 2402,
      "▁ayagında": 2403,
      "▁list": 2404,
      "▁sorunlarının": 2405,
      "▁nad": 2406,
      "▁za": 2407,
      "▁maksat": 2408,
      "▁corb": 2409,
      "▁kucuktu": 2410,
      "▁bilgilerini": 2411,
      "sıyor": 2412,
      "se": 2413,
      "▁babasına": 2414,
      "▁sirketlere": 2415,
      "asa": 2416,
      "▁konusmayı": 2417,
      "▁cesedi": 2418,
      "acılık": 2419,
      "▁ikisini": 2420,
      "▁kılık": 2421,
      "▁mil": 2422,
      "inan": 2423,
      "▁konferans": 2424,
      "otif": 2425,
      "▁kırık": 2426,
      "▁brok": 2427,
      "▁suphe": 2428,
      "uldugunu": 2429,
      "▁mas": 2430,
      "▁yanl": 2431,
      "ıla": 2432,
      "▁genel": 2433,
      "▁lezzetleri": 2434,
      "▁ogretim": 2435,
      "dugunu": 2436,
      "amba": 2437,
      "▁plak": 2438,
      "sis": 2439,
      "▁gozunun": 2440,
      "▁teg": 2441,
      "▁deter": 2442,
      "▁dedikleri": 2443,
      "▁olmakla": 2444,
      "etik": 2445,
      "▁endustrisinin": 2446,
      "▁tahvillerin": 2447,
      "▁resmi": 2448,
      "▁israil": 2449,
      "▁okyan": 2450,
      "▁onunuz": 2451,
      "eksel": 2452,
      "▁sevgi": 2453,
      "▁guresci": 2454,
      "likler": 2455,
      "▁cesme": 2456,
      "▁ihalesi": 2457,
      "cik": 2458,
      "▁ortaklıgı": 2459,
      "▁ogl": 2460,
      "▁sıkıntısını": 2461,
      "▁ugul": 2462,
      "iyat": 2463,
      "▁ayrılır": 2464,
      "▁kayaların": 2465,
      "▁actı": 2466,
      "▁tem": 2467,
      "eren": 2468,
      "▁papaz": 2469,
      "aden": 2470,
      "▁minimum": 2471,
      "▁ogretmeni": 2472,
      "▁seker": 2473,
      "sinin": 2474,
      "▁personellerden": 2475,
      "obili": 2476,
      "8'in": 2477,
      "▁otobusun": 2478,
      "dal": 2479,
      "▁sınıfın": 2480,
      "ımızı": 2481,
      "▁kendilig": 2482,
      "denin": 2483,
      "▁burum": 2484,
      "▁subat": 2485,
      "▁olayda": 2486,
      "ılıgıyla": 2487,
      "▁belirtildi": 2488,
      "▁agzından": 2489,
      "▁tohumları": 2490,
      "▁olası": 2491,
      "▁izni": 2492,
      "▁terzi": 2493,
      "itten": 2494,
      "▁ekip": 2495,
      "ftadır": 2496,
      "▁cogunun": 2497,
      "▁itfa": 2498,
      "▁ortalam": 2499,
      "▁bildir": 2500,
      "▁eylemi": 2501,
      "bat": 2502,
      "▁gozlu": 2503,
      "▁nizam": 2504,
      "ecegimiz": 2505,
      "dukları": 2506,
      "▁teblig": 2507,
      "▁yıllık": 2508,
      "▁etk": 2509,
      "▁sevkiyat": 2510,
      "▁dikis": 2511,
      "▁oyle": 2512,
      "▁58": 2513,
      "otekn": 2514,
      "acagim": 2515,
      "▁dekoru": 2516,
      "▁projeleri": 2517,
      "▁seylere": 2518,
      "▁koltuklar": 2519,
      "▁onunla": 2520,
      "▁sıcaklık": 2521,
      "▁2.4": 2522,
      "▁elle": 2523,
      "4'e": 2524,
      "memis": 2525,
      "▁yoktur": 2526,
      "▁bonoları": 2527,
      "▁madem": 2528,
      "▁portf": 2529,
      "▁saka": 2530,
      "▁yuzbası": 2531,
      "▁gazoz": 2532,
      "▁mukav": 2533,
      "▁idar": 2534,
      "wa": 2535,
      "▁dusuncesini": 2536,
      "▁izn": 2537,
      "▁randev": 2538,
      "▁sıgın": 2539,
      "▁kırlangıc": 2540,
      "▁th": 2541,
      "-p": 2542,
      "neti": 2543,
      "▁yatagına": 2544,
      "▁yarattı": 2545,
      "▁sipar": 2546,
      "masına": 2547,
      "▁cekilm": 2548,
      "▁balıklar": 2549,
      "ikalar": 2550,
      "▁hotel": 2551,
      "▁baslayan": 2552,
      "▁muhafazakar": 2553,
      "ortu": 2554,
      "▁olume": 2555,
      "▁mulkiyet": 2556,
      "lerimle": 2557,
      "▁yargıcı": 2558,
      "lerinde": 2559,
      "▁kası": 2560,
      "▁dahiliye": 2561,
      "▁mes": 2562,
      "▁gerceklik": 2563,
      "▁yetmis": 2564,
      "umandan": 2565,
      "▁57": 2566,
      "▁serisi": 2567,
      "▁bire": 2568,
      "▁inis": 2569,
      "▁hosg": 2570,
      "▁evimizde": 2571,
      "▁hafiflet": 2572,
      "▁han": 2573,
      "▁hayatın": 2574,
      "▁guzelim": 2575,
      "▁ayaklarının": 2576,
      "▁gag": 2577,
      "lup": 2578,
      "▁yıldızı": 2579,
      "▁edi": 2580,
      "▁verildi": 2581,
      "▁muttef": 2582,
      "ılacak": 2583,
      "▁diktator": 2584,
      "▁nabz": 2585,
      "▁asam": 2586,
      "▁kazancını": 2587,
      "▁bono": 2588,
      "▁fener": 2589,
      "▁islemci": 2590,
      "ant": 2591,
      "▁sorunu": 2592,
      "▁geldi": 2593,
      "-pr": 2594,
      "▁duzenlem": 2595,
      "▁77": 2596,
      "dırıyor": 2597,
      "▁yasayıs": 2598,
      "ligi": 2599,
      "ot": 2600,
      "agı": 2601,
      "▁kultur": 2602,
      "aduf": 2603,
      "▁kahvehan": 2604,
      "▁gay": 2605,
      "▁yaslar": 2606,
      "▁havalimanı'na": 2607,
      "▁ucusuna": 2608,
      "▁ayrılmak": 2609,
      "▁suruk": 2610,
      "▁emperyalizm": 2611,
      "▁yapacagını": 2612,
      "▁erkegin": 2613,
      "g": 2614,
      "▁ustlen": 2615,
      "amadı": 2616,
      "▁taahh": 2617,
      "▁turde": 2618,
      "▁kendilerine": 2619,
      "\\/": 2620,
      "▁esnaf": 2621,
      "▁columbia": 2622,
      "▁mevduat": 2623,
      "▁guzeli": 2624,
      "▁adamla": 2625,
      "▁lynch": 2626,
      "▁y": 2627,
      "▁dep": 2628,
      "▁adama": 2629,
      "▁gezegen": 2630,
      "▁yasları": 2631,
      "▁s": 2632,
      "▁hazırladı": 2633,
      "tım": 2634,
      "▁cd": 2635,
      "▁koylerde": 2636,
      "▁havaalanı'na": 2637,
      "▁62": 2638,
      "▁huzun": 2639,
      "▁mend": 2640,
      "▁palas": 2641,
      "▁camı": 2642,
      "▁kredilerin": 2643,
      "▁mısır": 2644,
      "ılmıstı": 2645,
      "ırda": 2646,
      "▁sıralarda": 2647,
      "▁destek": 2648,
      "▁yalı": 2649,
      "▁ortamı": 2650,
      "▁tefer": 2651,
      "▁psikiyatri": 2652,
      "▁denizasırı": 2653,
      "▁teor": 2654,
      "emle": 2655,
      "▁2.5": 2656,
      "▁vaat": 2657,
      "elige": 2658,
      "▁katlı": 2659,
      "etleri": 2660,
      "▁ayrılık": 2661,
      "▁sorununun": 2662,
      "▁toplantıda": 2663,
      "▁elestirmen": 2664,
      "▁yapacak": 2665,
      "▁dalgalar": 2666,
      "▁ozgur": 2667,
      "▁kalitede": 2668,
      "▁tesir": 2669,
      "45'ten": 2670,
      "▁hosgoru": 2671,
      "▁temsilcisi": 2672,
      "lerimin": 2673,
      "▁donemine": 2674,
      "▁elma": 2675,
      "▁yabanc": 2676,
      "ezz": 2677,
      "▁sirketlerden": 2678,
      "ugunda": 2679,
      "▁durumlarda": 2680,
      "▁havaalan": 2681,
      "▁marangoz": 2682,
      "▁malz": 2683,
      "▁acıl": 2684,
      "▁itibariyle": 2685,
      "atil": 2686,
      "imler": 2687,
      "▁mavisi": 2688,
      "▁kral": 2689,
      "▁ucagının": 2690,
      "eginiz": 2691,
      "▁zav": 2692,
      "▁yaptir": 2693,
      "▁tuketici": 2694,
      "▁yıllarca": 2695,
      "▁yasamında": 2696,
      "illi": 2697,
      "▁kapali": 2698,
      "▁patatesleri": 2699,
      "▁deneyler": 2700,
      "▁bolumde": 2701,
      "▁surdurdu": 2702,
      "▁varlıkları": 2703,
      "▁mukemm": 2704,
      "▁hizmetinden": 2705,
      "malarına": 2706,
      "▁piyasasının": 2707,
      "▁etegi": 2708,
      "olo": 2709,
      "dandır": 2710,
      "▁omru": 2711,
      "ıldıktan": 2712,
      "▁bahtiyar": 2713,
      "▁kuralların": 2714,
      "eceg": 2715,
      "▁musterinin": 2716,
      "▁gecirir": 2717,
      "▁rahatti": 2718,
      "▁par": 2719,
      "▁herhal": 2720,
      "lanabilir": 2721,
      "ekk": 2722,
      "dikce": 2723,
      "▁sistemine": 2724,
      "yete": 2725,
      "▁bilgisini": 2726,
      "ebilir": 2727,
      "▁degisiklikler": 2728,
      "st": 2729,
      "▁yalan": 2730,
      "lıcı": 2731,
      "▁birilerini": 2732,
      "lerindeki": 2733,
      "▁kalsın": 2734,
      "pe": 2735,
      "▁insanog": 2736,
      "▁yur": 2737,
      "▁islemlere": 2738,
      "arya": 2739,
      "▁edemey": 2740,
      "lıg": 2741,
      "▁kontrol": 2742,
      "lerimi": 2743,
      "▁idare": 2744,
      "▁sh": 2745,
      "ımı": 2746,
      "▁zorunda": 2747,
      "sek": 2748,
      "▁yasama": 2749,
      "ibi": 2750,
      "▁birbirimizi": 2751,
      "▁delikanl": 2752,
      "tılı": 2753,
      "▁basarili": 2754,
      "lamanın": 2755,
      "▁devrim": 2756,
      "▁pittsburgh": 2757,
      "▁tarh": 2758,
      "▁cocugunun": 2759,
      "▁patronu": 2760,
      "▁peyn": 2761,
      "ınızı": 2762,
      "▁harf": 2763,
      "▁bugunden": 2764,
      "▁madam": 2765,
      "▁yemeni": 2766,
      "▁baba": 2767,
      "▁kutup": 2768,
      "ork": 2769,
      "▁hostes": 2770,
      "▁sıkınt": 2771,
      "adel": 2772,
      "unlu": 2773,
      "kli": 2774,
      "▁denizciler": 2775,
      "▁ata": 2776,
      "▁zavall": 2777,
      "▁altındaki": 2778,
      "▁tuttum": 2779,
      "▁sarkı": 2780,
      "▁alnının": 2781,
      "▁hokk": 2782,
      "▁merhal": 2783,
      "▁degis": 2784,
      "▁yoluna": 2785,
      "lıdır": 2786,
      "▁golgesi": 2787,
      "▁muhabir": 2788,
      "▁uzer": 2789,
      "▁golg": 2790,
      "ıcının": 2791,
      "▁aktarmasız": 2792,
      "▁olmadı": 2793,
      "▁bilgil": 2794,
      "▁gelirin": 2795,
      "▁segment": 2796,
      "ıgı": 2797,
      "▁1980'lerin": 2798,
      "▁afrik": 2799,
      "▁kakao": 2800,
      "▁cerceveyi": 2801,
      "memiz": 2802,
      "▁ibar": 2803,
      "▁partinin": 2804,
      "eyh": 2805,
      "tuk": 2806,
      "▁ayrıntıları": 2807,
      "▁amc": 2808,
      "▁gizem": 2809,
      "▁kılıc": 2810,
      "aslı": 2811,
      "▁derecelen": 2812,
      "/4": 2813,
      "▁beygir": 2814,
      "▁muzaker": 2815,
      "erdeki": 2816,
      "▁g": 2817,
      "▁yukse": 2818,
      "ing": 2819,
      "▁po": 2820,
      "▁planı": 2821,
      "▁turdan": 2822,
      "▁yıllarda": 2823,
      "▁avru": 2824,
      "ukla": 2825,
      "▁onumuzde": 2826,
      "▁eylul": 2827,
      "▁bic": 2828,
      "▁tavır": 2829,
      "▁gosteren": 2830,
      "▁oldular": 2831,
      "ılmıstır": 2832,
      "▁kuyruk": 2833,
      "▁11": 2834,
      "▁ingiltere": 2835,
      "▁sasırtıcı": 2836,
      "▁seviyesinde": 2837,
      "▁aza": 2838,
      "▁sansur": 2839,
      "▁oldugumu": 2840,
      "▁zar": 2841,
      "▁islemini": 2842,
      "emi": 2843,
      "uluyor": 2844,
      "▁secimler": 2845,
      "▁hab": 2846,
      "indan": 2847,
      "▁emisyon": 2848,
      "▁yazısı": 2849,
      "▁rak": 2850,
      "amad": 2851,
      "▁bonolar": 2852,
      "▁fazla": 2853,
      "ligiyle": 2854,
      "esinin": 2855,
      "▁kahvenin": 2856,
      "▁elleriyle": 2857,
      "esen": 2858,
      "▁katına": 2859,
      "aat": 2860,
      "▁eyleme": 2861,
      "▁gelistiri": 2862,
      "▁derslerine": 2863,
      "▁aldigim": 2864,
      "iyetle": 2865,
      "▁durumuna": 2866,
      "iyeye": 2867,
      "▁hizmetler": 2868,
      "▁ucusa": 2869,
      "ılt": 2870,
      "▁valisi": 2871,
      "uzluk": 2872,
      "liydi": 2873,
      "ıgım": 2874,
      "lek": 2875,
      "8'de": 2876,
      "▁dudakları": 2877,
      "▁avucuna": 2878,
      "lege": 2879,
      "asıyla": 2880,
      "▁bırakıyor": 2881,
      "▁yenic": 2882,
      "▁korumak": 2883,
      "▁misafirleri": 2884,
      "▁gurur": 2885,
      "maları": 2886,
      "▁turlar": 2887,
      "▁sacları": 2888,
      "▁$'dan": 2889,
      "▁cıkıs": 2890,
      "▁garant": 2891,
      "adet": 2892,
      "▁degerlendir": 2893,
      "▁artır": 2894,
      "▁kazanclarını": 2895,
      "▁tırn": 2896,
      "▁sıv": 2897,
      "▁evden": 2898,
      "▁48": 2899,
      "▁zihninde": 2900,
      "▁temmuzda": 2901,
      "lac": 2902,
      "▁tepsiye": 2903,
      "▁icerde": 2904,
      "▁ucuslarını": 2905,
      "▁ciddiye": 2906,
      "sali": 2907,
      "▁sip": 2908,
      "▁fizik": 2909,
      "▁damar": 2910,
      "otiv": 2911,
      "▁ihtiyacımız": 2912,
      "▁dumanı": 2913,
      "▁dc'den": 2914,
      "▁sırayla": 2915,
      "▁luks": 2916,
      "▁peki": 2917,
      "ımdan": 2918,
      "▁tabir": 2919,
      "▁bugun": 2920,
      "▁uyarı": 2921,
      "▁hayali": 2922,
      "▁mekteb": 2923,
      "▁oran": 2924,
      "▁var": 2925,
      "▁toplum": 2926,
      "▁phoeni": 2927,
      "▁tasarı": 2928,
      "▁mutfagın": 2929,
      "▁yunus": 2930,
      "▁karmasık": 2931,
      "▁kararın": 2932,
      "▁gazeteciler": 2933,
      "ikat": 2934,
      "▁pekmez": 2935,
      "azlık": 2936,
      "▁egemen": 2937,
      "▁kurulunda": 2938,
      "▁bası": 2939,
      "▁charl": 2940,
      "▁gerci": 2941,
      "▁av": 2942,
      "lu": 2943,
      "▁cagrı": 2944,
      "▁yepyeni": 2945,
      "ınt": 2946,
      "▁nedenlerden": 2947,
      "▁teraz": 2948,
      "▁bolgeyi": 2949,
      "▁cap": 2950,
      "▁yataklar": 2951,
      "▁anladım": 2952,
      "▁sozlesmeler": 2953,
      "▁hın": 2954,
      "▁amaca": 2955,
      "▁birey": 2956,
      "▁planda": 2957,
      "▁teyze": 2958,
      "ununun": 2959,
      "▁dayalı": 2960,
      "▁ailelerin": 2961,
      "▁kale": 2962,
      "▁taf": 2963,
      "kta": 2964,
      "malıydı": 2965,
      "▁sidde": 2966,
      "▁tohum": 2967,
      "▁mendil": 2968,
      "▁tasa": 2969,
      "▁getirdi": 2970,
      "▁karam": 2971,
      "▁sid": 2972,
      "▁odasi": 2973,
      "▁zuh": 2974,
      "00'": 2975,
      "egiyle": 2976,
      "▁teknolojiye": 2977,
      "amul": 2978,
      "▁huseyin": 2979,
      "▁anı": 2980,
      "▁bakısları": 2981,
      "▁polon": 2982,
      "▁ucusu": 2983,
      "ete": 2984,
      "mini": 2985,
      "▁okumaya": 2986,
      "meye": 2987,
      "▁olagand": 2988,
      "▁butc": 2989,
      "▁guleryuzluydu": 2990,
      "▁goreve": 2991,
      "desine": 2992,
      "▁sovyet": 2993,
      "▁bulunur": 2994,
      "▁dakikasında": 2995,
      "▁fırında": 2996,
      "▁sor": 2997,
      "sıyla": 2998,
      "▁dayanısma": 2999,
      "▁gorunusu": 3000,
      "▁parcaya": 3001,
      "▁basımda": 3002,
      "▁altinda": 3003,
      "▁inter": 3004,
      "fer": 3005,
      "ize": 3006,
      "lilerden": 3007,
      "▁nazaran": 3008,
      "▁kadınları": 3009,
      "▁savunu": 3010,
      "▁81": 3011,
      "ener": 3012,
      "adem": 3013,
      "▁cıkmak": 3014,
      "malar": 3015,
      "▁biz": 3016,
      "oc": 3017,
      "▁masanın": 3018,
      "▁boy": 3019,
      "▁cıkarmaya": 3020,
      "▁agzının": 3021,
      "inn": 3022,
      "▁agustos": 3023,
      "▁ekstra": 3024,
      "fur": 3025,
      "madılar": 3026,
      "aca": 3027,
      "▁birlik": 3028,
      "▁yalnızlık": 3029,
      "▁fenerleri": 3030,
      "▁caddeyi": 3031,
      "▁kend": 3032,
      "▁ra": 3033,
      "▁acık": 3034,
      "lisi": 3035,
      "▁avukatlar": 3036,
      "p": 3037,
      "▁senato": 3038,
      "▁ruya": 3039,
      "yeni": 3040,
      "▁gitar": 3041,
      "▁dogrusunu": 3042,
      "rlikte": 3043,
      "▁kadınlar": 3044,
      "▁vefat": 3045,
      "▁kus": 3046,
      "▁haftalık": 3047,
      "▁varlıga": 3048,
      "larında": 3049,
      "▁curut": 3050,
      "▁kullanıyor": 3051,
      "sk": 3052,
      "▁muteahh": 3053,
      "▁oynadıgını": 3054,
      "▁alakaliydi": 3055,
      "▁hizmetlerinden": 3056,
      "▁emlak": 3057,
      "▁olurdu": 3058,
      "▁avlu": 3059,
      "▁hakkinda": 3060,
      "▁birbirler": 3061,
      "▁dizginleri": 3062,
      "ern": 3063,
      "arlıgı": 3064,
      "▁muhend": 3065,
      "▁kalbine": 3066,
      "▁ucusunu": 3067,
      "▁tasavv": 3068,
      "▁yokusu": 3069,
      "▁kanıtları": 3070,
      "▁koc": 3071,
      "▁kokusunu": 3072,
      "▁olabilir": 3073,
      "▁lutfen": 3074,
      "▁tamamladı": 3075,
      "▁suz": 3076,
      "▁musteriler": 3077,
      "▁tozu": 3078,
      "▁giderler": 3079,
      "▁yakası": 3080,
      "▁saclarına": 3081,
      "▁rus": 3082,
      "▁acıklanmadı": 3083,
      "▁anlıs": 3084,
      "▁1.": 3085,
      "▁nus": 3086,
      "▁hissettim": 3087,
      "▁tasar": 3088,
      "▁benden": 3089,
      "▁risk": 3090,
      "▁olusturmak": 3091,
      "▁hınc": 3092,
      "▁barısı": 3093,
      "ebilecegi": 3094,
      "▁musterilere": 3095,
      "orn": 3096,
      "▁kolayca": 3097,
      "ınca": 3098,
      "▁listenin": 3099,
      "▁hukuka": 3100,
      "▁burcu": 3101,
      "▁tesvik": 3102,
      "▁tavsiye": 3103,
      "▁sayısı": 3104,
      "▁hekim": 3105,
      "▁borclanma": 3106,
      "▁ıskar": 3107,
      "▁ceb": 3108,
      "'ye": 3109,
      "▁anne": 3110,
      "ville": 3111,
      "▁fuz": 3112,
      "▁hukuku": 3113,
      "▁1992": 3114,
      "dasını": 3115,
      "▁parcaları": 3116,
      "▁genislet": 3117,
      "eligine": 3118,
      "emiz": 3119,
      "▁sandıg": 3120,
      "▁degerlerine": 3121,
      "▁uyelerin": 3122,
      "▁sozlerine": 3123,
      "▁ulkesi": 3124,
      "▁phil": 3125,
      "▁cey": 3126,
      "▁yemegine": 3127,
      "▁mahkemesinde": 3128,
      "▁zah": 3129,
      "▁oranı": 3130,
      "▁cerey": 3131,
      "▁nazik": 3132,
      "▁hak": 3133,
      "▁istihbarat": 3134,
      "▁tetkik": 3135,
      "▁avrupalı": 3136,
      "▁benz": 3137,
      "iyenin": 3138,
      "ebilirsiniz": 3139,
      "▁muhabiri": 3140,
      "▁1.7": 3141,
      "▁akl": 3142,
      "▁hong": 3143,
      "▁ode": 3144,
      "▁trib": 3145,
      "'a": 3146,
      "▁alacaklılara": 3147,
      "▁aradan": 3148,
      "▁anlattı": 3149,
      "▁degildi": 3150,
      "▁evine": 3151,
      "▁ormanları": 3152,
      "▁ısıkları": 3153,
      "al": 3154,
      "▁gosteri": 3155,
      "▁newark": 3156,
      "gunuz": 3157,
      "▁donuste": 3158,
      "▁bolumune": 3159,
      "uza": 3160,
      "▁aynanın": 3161,
      "▁kartal": 3162,
      "▁dizustu": 3163,
      "▁balkon": 3164,
      "▁cm": 3165,
      "kt": 3166,
      "▁pahal": 3167,
      "kes": 3168,
      "▁orland": 3169,
      "▁yo": 3170,
      "▁1991'de": 3171,
      "▁ant": 3172,
      "▁kafayı": 3173,
      "cev": 3174,
      "▁ısıgında": 3175,
      "ranc": 3176,
      "▁arar": 3177,
      "▁loc": 3178,
      "▁secil": 3179,
      "▁artırma": 3180,
      "▁saglar": 3181,
      "▁kalmadigim": 3182,
      "urdum": 3183,
      "ıklarından": 3184,
      "▁airlines'in": 3185,
      "▁soylemeye": 3186,
      "▁1989": 3187,
      "▁gruplar": 3188,
      "_": 3189,
      "mi": 3190,
      "▁ortalık": 3191,
      "▁yanisira": 3192,
      "▁ureticisi": 3193,
      "▁telerate": 3194,
      "▁dairesine": 3195,
      "▁inanmak": 3196,
      "▁cumhurbaskanı": 3197,
      "▁oyunun": 3198,
      "▁sers": 3199,
      "▁uzaklarda": 3200,
      "▁den": 3201,
      "▁yirmi": 3202,
      "▁onayını": 3203,
      "▁obj": 3204,
      "▁pik": 3205,
      "▁tımar": 3206,
      "▁anlasması": 3207,
      "▁canavar": 3208,
      "▁cıkmadı": 3209,
      "▁yerel": 3210,
      "▁klima": 3211,
      "▁suda": 3212,
      "▁futbolcu": 3213,
      "▁mikrofon": 3214,
      "▁dosyada": 3215,
      "9'dan": 3216,
      "▁planimiz": 3217,
      "▁kapıya": 3218,
      "▁vic": 3219,
      "▁japonların": 3220,
      "yap": 3221,
      "ası": 3222,
      "▁gizlemek": 3223,
      "▁aral": 3224,
      "▁deneyim": 3225,
      "▁kesinlik": 3226,
      "elde": 3227,
      "▁tezgahı": 3228,
      "▁elbise": 3229,
      "▁kitaplarda": 3230,
      "▁gozlerimin": 3231,
      "▁washington'dan": 3232,
      "▁entr": 3233,
      "▁milyondan": 3234,
      "▁duvara": 3235,
      "ehan": 3236,
      "▁kat": 3237,
      "asır": 3238,
      "▁isletmeleri": 3239,
      "du": 3240,
      "ıverdi": 3241,
      "▁kestir": 3242,
      "▁panc": 3243,
      "▁sefere": 3244,
      "kat": 3245,
      "▁tatb": 3246,
      "▁prosedur": 3247,
      "ai": 3248,
      "▁asklar": 3249,
      "▁kosul": 3250,
      "▁sonbaharı": 3251,
      "▁toronto": 3252,
      "▁gitmis": 3253,
      "▁gelenler": 3254,
      "▁menkul": 3255,
      "▁onlerinde": 3256,
      "▁washington": 3257,
      "ehr": 3258,
      "▁dısarıdan": 3259,
      "▁at": 3260,
      "ilmesi": 3261,
      "▁saglık": 3262,
      "ansız": 3263,
      "edildi": 3264,
      "▁reh": 3265,
      "▁cul": 3266,
      "mb": 3267,
      "gini": 3268,
      "▁pey": 3269,
      "▁zir": 3270,
      "▁gomlegi": 3271,
      "▁ters": 3272,
      "▁sair": 3273,
      "indi": 3274,
      "▁...\"": 3275,
      "▁kuyu": 3276,
      "▁kediye": 3277,
      "atlı": 3278,
      "▁bak": 3279,
      "▁oldu": 3280,
      "anları": 3281,
      "▁oyuncu": 3282,
      "▁saskın": 3283,
      "▁gan": 3284,
      "▁direkt": 3285,
      "uston": 3286,
      "▁yasamının": 3287,
      "▁rehberi": 3288,
      "ili": 3289,
      "lantılı": 3290,
      "▁yon": 3291,
      "▁din": 3292,
      "▁iyisi": 3293,
      "▁ihmal": 3294,
      "▁mı": 3295,
      "▁tahminini": 3296,
      "▁incel": 3297,
      "▁ucusta": 3298,
      "▁3/8": 3299,
      "▁baslamıs": 3300,
      "▁dor": 3301,
      "oları": 3302,
      "▁bulabil": 3303,
      "▁otele": 3304,
      "ieg": 3305,
      "▁uretimin": 3306,
      "▁malzem": 3307,
      "▁orij": 3308,
      "▁tufek": 3309,
      "▁uygundu": 3310,
      "▁cor": 3311,
      "▁pac": 3312,
      "▁haksızlık": 3313,
      "▁yaslarda": 3314,
      "▁plaj": 3315,
      "▁ekmekle": 3316,
      "▁eda": 3317,
      "▁secimleri": 3318,
      "anan": 3319,
      "▁gunah": 3320,
      "▁istif": 3321,
      "anda": 3322,
      "▁sorunum": 3323,
      "▁acente": 3324,
      "▁onceki": 3325,
      "▁azalarak": 3326,
      "ham": 3327,
      "▁dagıtım": 3328,
      "eligi": 3329,
      "▁iri": 3330,
      "▁cesmenin": 3331,
      "▁itibar": 3332,
      "▁irade": 3333,
      "▁limon": 3334,
      "▁ayrıntı": 3335,
      "?": 3336,
      "▁yuzyılın": 3337,
      "▁icme": 3338,
      "gu": 3339,
      "▁yukarı": 3340,
      "▁ardında": 3341,
      "▁gerektiriyor": 3342,
      "▁er": 3343,
      "▁vadeli": 3344,
      "ılık": 3345,
      "gun": 3346,
      "▁almak": 3347,
      "asindan": 3348,
      "▁ayna": 3349,
      "yip": 3350,
      "▁hemen": 3351,
      "▁baskanlıgında": 3352,
      "▁yurdu": 3353,
      "erh": 3354,
      "▁isbası": 3355,
      "▁satıs": 3356,
      "▁yiyeceklerin": 3357,
      "▁sekerleme": 3358,
      "▁basarılar": 3359,
      "cılıgı": 3360,
      "▁seyler": 3361,
      "▁urunler": 3362,
      "iklik": 3363,
      "$": 3364,
      "▁komitesi": 3365,
      "suzlugun": 3366,
      "▁patlıcan": 3367,
      "▁tasla": 3368,
      "▁aracılıgıyla": 3369,
      "▁apartmanın": 3370,
      "egimizi": 3371,
      "▁tavsiyesi": 3372,
      "▁ne": 3373,
      "▁ihtiyacım": 3374,
      "▁hırsız": 3375,
      "▁gormezden": 3376,
      "cılık": 3377,
      "y's": 3378,
      "▁kullanmayı": 3379,
      "▁hocam": 3380,
      "ip": 3381,
      "lav": 3382,
      "▁teknik": 3383,
      "▁tespit": 3384,
      "▁zem": 3385,
      "▁hasan": 3386,
      "usuna": 3387,
      "▁kod": 3388,
      "▁yanına": 3389,
      "mayacagını": 3390,
      "▁saglayacak": 3391,
      "▁im": 3392,
      "▁cos": 3393,
      "▁yavasti": 3394,
      "▁yalancı": 3395,
      "▁muduru": 3396,
      "▁kırlarda": 3397,
      "▁beceri": 3398,
      "▁vazife": 3399,
      "▁diken": 3400,
      "▁baglantılı": 3401,
      "▁kullanı": 3402,
      "▁rengi": 3403,
      "▁ormanı": 3404,
      "▁deplasman": 3405,
      "▁vermedi": 3406,
      "▁dediler": 3407,
      "▁olg": 3408,
      "▁otomobiller": 3409,
      "▁aras": 3410,
      "▁nereler": 3411,
      "▁etmiyordu": 3412,
      "▁ucretler": 3413,
      "iv": 3414,
      "▁elinde": 3415,
      "uldeki": 3416,
      "lanmak": 3417,
      "▁kambiy": 3418,
      "ıldı": 3419,
      "▁amacla": 3420,
      "▁kazanım": 3421,
      "▁kem": 3422,
      "▁corbayı": 3423,
      "lerine": 3424,
      "▁yaparak": 3425,
      "▁omz": 3426,
      "ici": 3427,
      "▁iltifat": 3428,
      "▁soylediler": 3429,
      "▁senaryo": 3430,
      "▁formul": 3431,
      "lerimizin": 3432,
      "▁mon": 3433,
      "▁sonlarında": 3434,
      "ey": 3435,
      "aset": 3436,
      "▁butce": 3437,
      "▁alkol": 3438,
      "▁baslamıstı": 3439,
      "▁ucusları": 3440,
      "▁196": 3441,
      "▁yazı": 3442,
      "▁uykusu": 3443,
      "▁vermis": 3444,
      "▁cid": 3445,
      "▁oglu": 3446,
      "▁adeta": 3447,
      "uktu": 3448,
      "▁jandarma": 3449,
      "▁bardagın": 3450,
      "▁redde": 3451,
      "▁sokaga": 3452,
      "▁resep": 3453,
      "▁baskanlık": 3454,
      "▁sivrisin": 3455,
      "▁bis": 3456,
      "▁cakıl": 3457,
      "▁odamdan": 3458,
      "▁1988'in": 3459,
      "▁mcb": 3460,
      "▁dolardır": 3461,
      "▁sınırlı": 3462,
      "▁endustrisi": 3463,
      "umla": 3464,
      "yo": 3465,
      "ince": 3466,
      "▁toplumu": 3467,
      "▁munak": 3468,
      "▁sonrasına": 3469,
      "▁dusmesine": 3470,
      "▁wh": 3471,
      "▁bankası'nın": 3472,
      "▁kokusu": 3473,
      "lendirdi": 3474,
      "▁hoca": 3475,
      "▁aran": 3476,
      "▁fırtın": 3477,
      "▁verenler": 3478,
      "dana": 3479,
      "▁zamana": 3480,
      "▁emrini": 3481,
      "▁merkezine": 3482,
      "▁cozumler": 3483,
      "▁saglıgına": 3484,
      "agan": 3485,
      "▁keresinde": 3486,
      "▁ordu": 3487,
      "▁gir": 3488,
      "masından": 3489,
      "▁temsilcileri": 3490,
      "▁tezk": 3491,
      "▁kova": 3492,
      "uc": 3493,
      "▁mukemmeldi": 3494,
      "mıs": 3495,
      "▁tesisten": 3496,
      "ilmesine": 3497,
      "▁shearson": 3498,
      "'ndan": 3499,
      "▁duduk": 3500,
      "▁unu": 3501,
      "▁konumunu": 3502,
      "▁ce": 3503,
      "▁ait": 3504,
      "▁anim": 3505,
      "▁dunyaya": 3506,
      "▁ayrım": 3507,
      "ektir": 3508,
      "▁kazası": 3509,
      "▁inanclar": 3510,
      "▁kahvalti": 3511,
      "▁kapsam": 3512,
      "▁cezalan": 3513,
      "▁berber": 3514,
      "▁ucus": 3515,
      "urg": 3516,
      "▁kag": 3517,
      "▁ikmal": 3518,
      "umlu": 3519,
      "▁bura": 3520,
      "cıya": 3521,
      "▁yeri": 3522,
      "▁odadan": 3523,
      "▁sekl": 3524,
      "▁olayın": 3525,
      "▁leblebi": 3526,
      "form": 3527,
      "chell": 3528,
      "▁sebze": 3529,
      "▁icten": 3530,
      "▁kanep": 3531,
      "▁hanımı": 3532,
      "▁askerin": 3533,
      "▁alakadar": 3534,
      "dugum": 3535,
      "▁ceo": 3536,
      "▁tercihimiz": 3537,
      "yerek": 3538,
      "▁sorunlar": 3539,
      "5'i": 3540,
      "▁digerine": 3541,
      "▁mutfag": 3542,
      "erindeki": 3543,
      "▁okka": 3544,
      "▁cob": 3545,
      "▁gokyuzunde": 3546,
      "▁toplantılar": 3547,
      "▁gazetecilik": 3548,
      "▁herhangi": 3549,
      "▁kafa": 3550,
      "▁ithalatı": 3551,
      "▁etti": 3552,
      "▁gorevden": 3553,
      "▁vali": 3554,
      "▁imk": 3555,
      "▁esvap": 3556,
      "▁alın": 3557,
      "eger": 3558,
      "▁mutlul": 3559,
      "▁halden": 3560,
      "▁mucadeleyi": 3561,
      "▁sicak": 3562,
      "▁beyazın": 3563,
      "▁garsonlar": 3564,
      "▁konseyi": 3565,
      "▁karakol": 3566,
      "▁verdigimiz": 3567,
      "▁geldigi": 3568,
      "▁gelme": 3569,
      "▁turlari": 3570,
      "▁arabaya": 3571,
      "▁karsıdan": 3572,
      "▁havlu": 3573,
      "▁saatinde": 3574,
      "▁guzergah": 3575,
      "▁gol": 3576,
      "▁orayı": 3577,
      "▁degerlendirmeye": 3578,
      "▁hafız": 3579,
      "ısında": 3580,
      "ledigi": 3581,
      "amp": 3582,
      "▁soruları": 3583,
      "lugune": 3584,
      "▁bulunmaktadır": 3585,
      "in": 3586,
      "afet": 3587,
      "▁philadelphia": 3588,
      "▁gozlemcileri": 3589,
      "maktadır": 3590,
      "▁vergisi": 3591,
      "▁anlıyor": 3592,
      "▁muht": 3593,
      "▁ısıl": 3594,
      "▁gozlerini": 3595,
      "▁fr": 3596,
      "okul": 3597,
      "=": 3598,
      "▁demokratlar": 3599,
      "dadı": 3600,
      "▁operasyonu": 3601,
      "▁cins": 3602,
      "▁birligi": 3603,
      "▁fırca": 3604,
      "▁gazetesinin": 3605,
      "▁fil": 3606,
      "▁cak": 3607,
      "▁burokrat": 3608,
      "▁gorevi": 3609,
      "▁tampa'dan": 3610,
      "▁hasıl": 3611,
      "▁evlilig": 3612,
      "atin": 3613,
      "▁muhal": 3614,
      "ılıyordu": 3615,
      "▁sabaha": 3616,
      "▁mad": 3617,
      "evizyon": 3618,
      "▁elmayı": 3619,
      "▁dayan": 3620,
      "▁salkım": 3621,
      "▁hicbirinin": 3622,
      "▁yururlukte": 3623,
      "▁avucunun": 3624,
      "lendim": 3625,
      "▁milyonlarca": 3626,
      "▁kontratı": 3627,
      "▁ansiklop": 3628,
      "▁seydir": 3629,
      "70'": 3630,
      "▁uykusuna": 3631,
      "▁gormedi": 3632,
      "amlı": 3633,
      "elerden": 3634,
      "▁yuzunun": 3635,
      "▁ucagına": 3636,
      "▁1'e": 3637,
      "▁kalmaya": 3638,
      "▁seviyesinin": 3639,
      "▁ıs": 3640,
      "1'e": 3641,
      "▁enflasyona": 3642,
      "▁kadıncagız": 3643,
      "▁zam": 3644,
      "▁mesleg": 3645,
      "▁kira": 3646,
      "7'nin": 3647,
      "▁yasındaki": 3648,
      "▁rok": 3649,
      "▁pırlanta": 3650,
      "▁falan": 3651,
      "▁alanın": 3652,
      "ecileri": 3653,
      "▁salonuna": 3654,
      "▁sarısı": 3655,
      "▁cleveland'a": 3656,
      "er": 3657,
      "geleri": 3658,
      "ipler": 3659,
      "▁yoldası": 3660,
      "▁manzar": 3661,
      "▁komplo": 3662,
      "alın": 3663,
      "▁cana": 3664,
      "▁toplumlar": 3665,
      "▁gazetecileri": 3666,
      "▁sanayicileri": 3667,
      "▁riskini": 3668,
      "▁hayvanların": 3669,
      "▁mizac": 3670,
      "▁manası": 3671,
      "▁cıkacagını": 3672,
      "▁bahcesi": 3673,
      "▁yapabilir": 3674,
      "▁tasv": 3675,
      ".ceyrek": 3676,
      "▁mutla": 3677,
      "lıgının": 3678,
      "▁yollarda": 3679,
      "▁gunlerde": 3680,
      "▁filozof": 3681,
      "cılarla": 3682,
      "▁sonbah": 3683,
      "▁davalarda": 3684,
      "oksa": 3685,
      "▁asama": 3686,
      "▁sorunlarını": 3687,
      "▁kapısını": 3688,
      "▁yazarlarının": 3689,
      "▁kesilmis": 3690,
      "▁yolda": 3691,
      "▁haziran": 3692,
      "▁gunleri": 3693,
      "▁cum": 3694,
      "▁olanlar": 3695,
      "▁kulub": 3696,
      "▁doktorların": 3697,
      "▁odasından": 3698,
      "▁muamele": 3699,
      "▁degildir": 3700,
      "▁miktar": 3701,
      "▁mekanizm": 3702,
      "▁beta": 3703,
      "▁elde": 3704,
      "▁yaktı": 3705,
      "▁atıl": 3706,
      "▁ogrenmek": 3707,
      "▁ceyrege": 3708,
      "▁iyilik": 3709,
      "▁fery": 3710,
      "▁sozune": 3711,
      "urcuk": 3712,
      "▁mek": 3713,
      "memek": 3714,
      "lerimize": 3715,
      "▁tuh": 3716,
      "irk": 3717,
      "▁dusunmedigini": 3718,
      "▁alar": 3719,
      "ladıgı": 3720,
      "▁yatırımcıları": 3721,
      "▁memnuniyeti": 3722,
      "eliyor": 3723,
      "▁satıcı": 3724,
      "▁bede": 3725,
      "mma": 3726,
      "▁masal": 3727,
      "▁cocuklarına": 3728,
      "emeyecek": 3729,
      "▁istirak": 3730,
      "▁dille": 3731,
      "eksiyon": 3732,
      "▁tasların": 3733,
      "palı": 3734,
      "▁cumhuriyetcilerin": 3735,
      "▁parcayı": 3736,
      "batı": 3737,
      "▁taahhut": 3738,
      "▁kurtar": 3739,
      "ulmus": 3740,
      "▁kadar": 3741,
      "rar": 3742,
      "▁cen": 3743,
      "▁bakar": 3744,
      "▁oyu": 3745,
      "ırıl": 3746,
      "▁ressam": 3747,
      "▁mufet": 3748,
      "▁etkin": 3749,
      "▁merh": 3750,
      "▁fiy": 3751,
      "ıyor": 3752,
      "tti": 3753,
      "▁surpriz": 3754,
      "▁azade": 3755,
      "▁partiyi": 3756,
      "▁mikr": 3757,
      "▁ispan": 3758,
      "▁ertel": 3759,
      "▁huzursuzluk": 3760,
      "▁yuzle": 3761,
      "▁halk": 3762,
      "▁dusurdu": 3763,
      "▁kurtulmak": 3764,
      "▁kalemi": 3765,
      "▁gazetelerin": 3766,
      "▁ucretlerini": 3767,
      "▁alfab": 3768,
      "▁oneri": 3769,
      "▁insanlardan": 3770,
      "▁nort": 3771,
      "cıyı": 3772,
      "▁ciftci": 3773,
      "▁iskan": 3774,
      "▁ucuslar": 3775,
      "▁amacıyla": 3776,
      "▁uzeri": 3777,
      "▁sektorunde": 3778,
      "▁1987": 3779,
      "▁hel": 3780,
      "ustan": 3781,
      "▁magazası": 3782,
      "▁kilit": 3783,
      "▁kazanmak": 3784,
      "▁kirec": 3785,
      "▁kızın": 3786,
      "▁iclerinde": 3787,
      "▁gecmis": 3788,
      "lemeler": 3789,
      "▁kut": 3790,
      "chester": 3791,
      "▁izin": 3792,
      "ez": 3793,
      "▁aqu": 3794,
      "kika": 3795,
      "▁adr": 3796,
      "▁oak": 3797,
      "▁demeye": 3798,
      "▁sunnet": 3799,
      "▁bekledigimden": 3800,
      "▁suikast": 3801,
      "▁vad": 3802,
      "leriniz": 3803,
      "▁ucurt": 3804,
      "▁sozcuk": 3805,
      "▁davasını": 3806,
      "▁varlıkların": 3807,
      "▁durup": 3808,
      "▁ihtimal": 3809,
      "▁acım": 3810,
      "▁insanlık": 3811,
      "▁fas": 3812,
      "▁cezasına": 3813,
      "ser": 3814,
      "▁hepimiz": 3815,
      "▁yasamın": 3816,
      "▁yetkililerinin": 3817,
      "▁um": 3818,
      "▁hisseleri": 3819,
      "ıldım": 3820,
      "▁duygu": 3821,
      "▁he": 3822,
      "eland": 3823,
      "▁beklenti": 3824,
      "▁yukunu": 3825,
      "▁parti": 3826,
      "▁ulastırma": 3827,
      "lıkları": 3828,
      "▁gerektigine": 3829,
      "▁pın": 3830,
      "▁ilerleme": 3831,
      "▁dalg": 3832,
      "▁satıslardan": 3833,
      "▁yiyor": 3834,
      "▁bug": 3835,
      "iginin": 3836,
      "▁bilgisay": 3837,
      "▁yerli": 3838,
      "▁yasan": 3839,
      "▁radyo": 3840,
      "▁arasında": 3841,
      "▁dokmek": 3842,
      "lın": 3843,
      "ılabil": 3844,
      "▁yav": 3845,
      "▁cocug": 3846,
      "irerek": 3847,
      "▁sehre": 3848,
      "▁kahyası": 3849,
      "▁babası": 3850,
      "▁hec": 3851,
      "▁ster": 3852,
      "▁kurk": 3853,
      "▁cifti": 3854,
      "▁kurulusunun": 3855,
      "▁kazasında": 3856,
      "▁gormem": 3857,
      "▁gerekti": 3858,
      "▁0.": 3859,
      "▁icindir": 3860,
      "▁bırakmıs": 3861,
      "▁atları": 3862,
      "▁muhalif": 3863,
      "▁donusu": 3864,
      "▁boynunda": 3865,
      "▁65": 3866,
      "▁alınan": 3867,
      "▁montreal'a": 3868,
      "nın": 3869,
      "▁yumurt": 3870,
      "▁izlemek": 3871,
      "▁nut": 3872,
      "▁asab": 3873,
      "▁kahvelerin": 3874,
      "▁gold": 3875,
      "▁kaymak": 3876,
      "▁toprakları": 3877,
      "▁sairleri": 3878,
      "▁hijyenikti": 3879,
      "▁hızlıca": 3880,
      "▁kendisinde": 3881,
      "▁yavrum": 3882,
      "▁ihracat": 3883,
      "▁kavgası": 3884,
      "ecegine": 3885,
      "▁eliyle": 3886,
      "▁hipot": 3887,
      "▁mesaj": 3888,
      "ume": 3889,
      "▁mus": 3890,
      "▁derg": 3891,
      "atla": 3892,
      "▁kokuları": 3893,
      "ılma": 3894,
      "▁kaldırdı": 3895,
      "▁oil": 3896,
      "▁faaliyetlerine": 3897,
      "▁eksi": 3898,
      "▁kazancı": 3899,
      "▁meger": 3900,
      "▁ic": 3901,
      "▁kabul": 3902,
      "▁anlay": 3903,
      "▁sular": 3904,
      "▁yonunde": 3905,
      "0'den": 3906,
      "▁olmustu": 3907,
      "▁randevu": 3908,
      "▁kupe": 3909,
      "▁donuyor": 3910,
      "▁gotur": 3911,
      "▁hasta": 3912,
      "▁tiyatroya": 3913,
      "leyicileri": 3914,
      "▁artısı": 3915,
      "▁esyasını": 3916,
      "▁huv": 3917,
      "▁rast": 3918,
      "▁grev": 3919,
      "▁askerler": 3920,
      "▁isgali": 3921,
      "▁kasket": 3922,
      "▁katilmak": 3923,
      "▁izliyor": 3924,
      "▁pazarının": 3925,
      "▁kel": 3926,
      "▁beraber": 3927,
      "▁annesinin": 3928,
      "▁sigor": 3929,
      "▁dısarıya": 3930,
      "▁acmak": 3931,
      "▁geldiniz": 3932,
      "liyordu": 3933,
      "▁suzgec": 3934,
      "▁tay": 3935,
      "▁zorla": 3936,
      "ıslar": 3937,
      "▁ko": 3938,
      "▁kurumsal": 3939,
      "▁ekibinin": 3940,
      "ibaren": 3941,
      "▁dergi": 3942,
      "anın": 3943,
      "▁misin": 3944,
      "▁yiyecekler": 3945,
      "▁=": 3946,
      "▁vermek": 3947,
      "▁gosterin": 3948,
      "▁milliyetci": 3949,
      "▁egzersiz": 3950,
      "▁financi": 3951,
      "▁elinizde": 3952,
      "▁bitirdi": 3953,
      "▁anlasmaları": 3954,
      "▁esnasında": 3955,
      "▁menfaat": 3956,
      "ceye": 3957,
      "▁kararları": 3958,
      "▁vol": 3959,
      "▁en": 3960,
      "▁vadesi": 3961,
      "▁amacları": 3962,
      "▁zay": 3963,
      "▁muhendisi": 3964,
      "▁ısır": 3965,
      "▁hatirlamiyorum": 3966,
      "▁ettir": 3967,
      "▁leri": 3968,
      "▁kan": 3969,
      "▁olumune": 3970,
      "▁aylarında": 3971,
      "▁ırk": 3972,
      "▁tuccarı": 3973,
      "▁tiyatr": 3974,
      "▁ahen": 3975,
      "▁beklentileri": 3976,
      "▁tuyu": 3977,
      "sun": 3978,
      "▁cıkısı": 3979,
      "▁konuları": 3980,
      "▁duvarlar": 3981,
      "ral": 3982,
      "▁garson": 3983,
      "▁rakamlar": 3984,
      "elendir": 3985,
      "▁son": 3986,
      "▁vah": 3987,
      "acıların": 3988,
      "▁hastalıkların": 3989,
      "iyede": 3990,
      "▁bilgi": 3991,
      "▁kırıklıgı": 3992,
      "▁cocuk": 3993,
      "▁ikamet": 3994,
      "▁seneye": 3995,
      "▁kıc": 3996,
      "▁vardır": 3997,
      "▁iktidara": 3998,
      "▁atlan": 3999,
      "▁izah": 4000,
      "▁burokrasi": 4001,
      "mesinin": 4002,
      "ugum": 4003,
      "▁donan": 4004,
      "sekiz": 4005,
      "▁cagında": 4006,
      "▁kelimelere": 4007,
      "▁kokulu": 4008,
      "▁aleyhinde": 4009,
      "▁dilinden": 4010,
      "▁karanlık": 4011,
      "▁dusundu": 4012,
      "▁iste": 4013,
      "otu": 4014,
      "▁dram": 4015,
      "liginden": 4016,
      "▁atıf": 4017,
      "▁yurttas": 4018,
      "▁ilkbah": 4019,
      "▁yakalama": 4020,
      "ege": 4021,
      "▁for": 4022,
      "▁eastern": 4023,
      "▁odenek": 4024,
      "▁edilm": 4025,
      "▁aks": 4026,
      "▁sozlesmesini": 4027,
      "▁hocamız": 4028,
      "▁kimseler": 4029,
      "uculuk": 4030,
      "▁ansik": 4031,
      "▁hediyesi": 4032,
      "ash": 4033,
      "akki": 4034,
      "▁olagan": 4035,
      "▁ruhunun": 4036,
      "▁muharr": 4037,
      "▁ebe": 4038,
      "duk": 4039,
      "▁bırakmak": 4040,
      "▁efsanesi": 4041,
      "▁kapak": 4042,
      "▁acaba": 4043,
      "▁bolun": 4044,
      "▁yararlan": 4045,
      "unuzun": 4046,
      "ucuk": 4047,
      "▁ves": 4048,
      "▁55": 4049,
      "ell": 4050,
      "▁sut": 4051,
      "▁cırak": 4052,
      "▁bolgeleri": 4053,
      "▁dairesi": 4054,
      "▁eziyet": 4055,
      "▁devasa": 4056,
      "▁oldugunda": 4057,
      "▁ifadeler": 4058,
      "anlara": 4059,
      "▁dibinden": 4060,
      "alif": 4061,
      "▁vucudun": 4062,
      "▁kaybeden": 4063,
      "▁aksamları": 4064,
      "ımcı": 4065,
      "▁gencliginde": 4066,
      "▁caz": 4067,
      "▁3/4": 4068,
      "▁prensesi": 4069,
      "▁gazetesinde": 4070,
      "▁fa": 4071,
      "▁kural": 4072,
      "▁beg": 4073,
      "▁pit": 4074,
      "meyen": 4075,
      "▁systems": 4076,
      "▁evvela": 4077,
      "▁isbir": 4078,
      "▁gerekcesiyle": 4079,
      "▁sahaya": 4080,
      "uslu": 4081,
      "▁isini": 4082,
      "▁gelmesi": 4083,
      "▁may": 4084,
      "▁pant": 4085,
      "enli": 4086,
      "▁3.6": 4087,
      "▁yemeye": 4088,
      "duktan": 4089,
      "▁dalkav": 4090,
      "▁kitapcı": 4091,
      "bia": 4092,
      "▁sed": 4093,
      "▁ihtiyacı": 4094,
      "▁odu": 4095,
      "ustur": 4096,
      "▁buldu": 4097,
      "▁kafesi": 4098,
      "▁bankacı": 4099,
      "▁heyetin": 4100,
      "▁veren": 4101,
      "arak": 4102,
      "▁gorusme": 4103,
      "▁araclara": 4104,
      "▁bul": 4105,
      "▁yetkilisi": 4106,
      "▁izlenim": 4107,
      "▁temettu": 4108,
      "▁oturt": 4109,
      "▁felsefesi": 4110,
      "▁yuzuk": 4111,
      "▁vot": 4112,
      "▁bitis": 4113,
      "▁cesidi": 4114,
      "▁umur": 4115,
      "▁yasal": 4116,
      "▁mab": 4117,
      "▁dalgalan": 4118,
      "▁binayı": 4119,
      "dos": 4120,
      "iz": 4121,
      "▁kalor": 4122,
      "▁sorustur": 4123,
      "umk": 4124,
      "▁cikista": 4125,
      "▁gecirdik": 4126,
      "▁puanlama": 4127,
      "▁cesitliligi": 4128,
      "stı": 4129,
      "▁gelmiyor": 4130,
      "▁gozuyle": 4131,
      "▁klas": 4132,
      "▁icin": 4133,
      "▁et": 4134,
      "ormal": 4135,
      "▁mode": 4136,
      "ilir": 4137,
      "▁ların": 4138,
      "▁yarı": 4139,
      "▁yatırımcılara": 4140,
      "hti": 4141,
      "▁abdul": 4142,
      "onelik": 4143,
      "▁islere": 4144,
      "▁zer": 4145,
      "▁degismedi": 4146,
      "▁poyraz": 4147,
      "▁taklit": 4148,
      "▁avrupa'da": 4149,
      "▁'": 4150,
      "▁espr": 4151,
      "▁vurdu": 4152,
      "▁elimden": 4153,
      "▁sigortası": 4154,
      "▁1.8": 4155,
      "indeki": 4156,
      "▁hizmette": 4157,
      "metik": 4158,
      "▁sahn": 4159,
      "▁yoneticiler": 4160,
      "▁ır": 4161,
      "▁oturdu": 4162,
      "▁saadet": 4163,
      "▁yapmaları": 4164,
      "oca": 4165,
      "▁sera": 4166,
      "▁birer": 4167,
      "▁sahnede": 4168,
      "▁kalab": 4169,
      "latma": 4170,
      "▁emel": 4171,
      "▁denizden": 4172,
      "▁tehlike": 4173,
      "▁kafamda": 4174,
      "▁hazin": 4175,
      "▁goruluyor": 4176,
      "▁sozde": 4177,
      "▁animasyon": 4178,
      "▁cıkarıyor": 4179,
      "▁soruyor": 4180,
      "▁azaldı": 4181,
      "▁7.8": 4182,
      "▁bolge": 4183,
      "▁gittik": 4184,
      "▁ankete": 4185,
      "▁kadif": 4186,
      "▁yaptılar": 4187,
      "ord": 4188,
      "cıs": 4189,
      "▁tatile": 4190,
      "▁gugum": 4191,
      "▁sevinc": 4192,
      "itmek": 4193,
      "▁mecliste": 4194,
      "▁berab": 4195,
      "▁hekimi": 4196,
      "▁arasına": 4197,
      "▁sektorun": 4198,
      "▁koruy": 4199,
      "▁ticaretinde": 4200,
      "▁kendini": 4201,
      "▁laz": 4202,
      "▁peters": 4203,
      "eket": 4204,
      "cık": 4205,
      "▁sıf": 4206,
      "▁ceyrekte": 4207,
      "▁grup": 4208,
      "▁yız": 4209,
      "▁kork": 4210,
      "▁bırakarak": 4211,
      "▁isti": 4212,
      "usu": 4213,
      "egimi": 4214,
      "▁boston'a": 4215,
      "ıc": 4216,
      "▁pozisyonu": 4217,
      "▁americ": 4218,
      "gının": 4219,
      "▁kov": 4220,
      "▁fakult": 4221,
      "▁bitkiler": 4222,
      "▁mal": 4223,
      "▁tahminlerinin": 4224,
      "▁indianapolis": 4225,
      "▁kusagının": 4226,
      "▁sokaklara": 4227,
      "▁tayin": 4228,
      "▁muhit": 4229,
      "▁ortak": 4230,
      "▁olduk": 4231,
      "▁secen": 4232,
      "‘": 4233,
      "▁sınavı": 4234,
      "altı": 4235,
      "▁haft": 4236,
      "sini": 4237,
      "▁suya": 4238,
      "▁kada": 4239,
      "▁avantaj": 4240,
      "▁karsiladi": 4241,
      "▁psilyum": 4242,
      "osyon": 4243,
      "ginde": 4244,
      "▁cekiyor": 4245,
      "▁agr": 4246,
      "▁poh": 4247,
      "emeyecegim": 4248,
      "▁arkad": 4249,
      "▁kucuk": 4250,
      "▁otopark": 4251,
      "▁havalimanından": 4252,
      "▁fiyatlandır": 4253,
      "▁mutfakta": 4254,
      "teler": 4255,
      "▁avcı": 4256,
      "▁proje": 4257,
      "▁aracların": 4258,
      "▁tavan": 4259,
      "▁diye": 4260,
      "▁olsun": 4261,
      "▁sokakları": 4262,
      "fes": 4263,
      "uzluktan": 4264,
      ".2": 4265,
      "▁mud": 4266,
      "emedim": 4267,
      "ıyorum": 4268,
      "▁elestir": 4269,
      "▁maliyetlerinin": 4270,
      "▁tarihten": 4271,
      "▁fenalık": 4272,
      "raf": 4273,
      "▁sindir": 4274,
      "▁guzeldi": 4275,
      "▁yukar": 4276,
      "▁ort": 4277,
      "igine": 4278,
      "▁nesil": 4279,
      "▁gitmeyi": 4280,
      "▁yataga": 4281,
      "▁fiyatın": 4282,
      "▁yabancı": 4283,
      "▁sesle": 4284,
      "▁tarlaları": 4285,
      "▁koyu": 4286,
      "▁tedavuldeki": 4287,
      "▁soylemek": 4288,
      "▁kred": 4289,
      "▁ankar": 4290,
      "▁edilir": 4291,
      "▁istifaya": 4292,
      "▁uns": 4293,
      "▁karakter": 4294,
      "▁kahkaha": 4295,
      "▁degerler": 4296,
      "alari": 4297,
      "▁yargıc": 4298,
      "ıs": 4299,
      "hiss": 4300,
      "▁gurbet": 4301,
      "▁onayı": 4302,
      "istal": 4303,
      "▁sebepler": 4304,
      "▁isimleri": 4305,
      "▁ozunde": 4306,
      "ort": 4307,
      "▁nor": 4308,
      "al'ın": 4309,
      "▁tug": 4310,
      "armak": 4311,
      "▁ticaretinin": 4312,
      "▁satmaya": 4313,
      "▁nal": 4314,
      "▁yaz": 4315,
      "▁halini": 4316,
      "▁yolculuk": 4317,
      "▁simgesi": 4318,
      "▁siddetli": 4319,
      "▁yumr": 4320,
      "▁gunlerinden": 4321,
      "▁satıyor": 4322,
      "isinda": 4323,
      "▁usak": 4324,
      "▁kasabanın": 4325,
      "▁babamın": 4326,
      "▁hakikaten": 4327,
      "▁pamuk": 4328,
      "enti": 4329,
      "▁teknolojisini": 4330,
      "tigim": 4331,
      "melidir": 4332,
      "luler": 4333,
      "itti": 4334,
      "guye": 4335,
      "▁oturu": 4336,
      "▁yes": 4337,
      "▁yıgını": 4338,
      "▁kendisi": 4339,
      "▁yazılar": 4340,
      "▁kısıtlamalar": 4341,
      "ısma": 4342,
      "gi": 4343,
      "▁cenaz": 4344,
      "▁ing": 4345,
      "▁haftalarda": 4346,
      "'yu": 4347,
      "▁rut": 4348,
      "▁sıcr": 4349,
      "▁kafes": 4350,
      "▁yasamadim": 4351,
      "▁soyun": 4352,
      "▁yurutme": 4353,
      "▁konusunu": 4354,
      "▁hırs": 4355,
      "kilerden": 4356,
      "▁oncesi": 4357,
      "▁iht": 4358,
      "▁dolay": 4359,
      "▁oldukları": 4360,
      "▁sıg": 4361,
      "▁mahkemesinin": 4362,
      "lerdeki": 4363,
      "▁kitaplarını": 4364,
      "▁donemin": 4365,
      "▁icine": 4366,
      "▁olusu": 4367,
      "▁yuruyus": 4368,
      "▁gecekondu": 4369,
      "▁salın": 4370,
      "alara": 4371,
      "larıdır": 4372,
      "▁gonlunu": 4373,
      "▁kayna": 4374,
      "▁geyikleri": 4375,
      "▁konuyu": 4376,
      "▁kirpik": 4377,
      "▁baglılık": 4378,
      ".625": 4379,
      "▁skan": 4380,
      "▁seslerini": 4381,
      "▁klini": 4382,
      "▁kapatma": 4383,
      "ific": 4384,
      "▁ileri": 4385,
      "▁dunyasından": 4386,
      "▁nimet": 4387,
      "dart": 4388,
      "▁sayı": 4389,
      "▁nihayet": 4390,
      "▁gun": 4391,
      "▁tarafı": 4392,
      "▁bre": 4393,
      "▁ilgililerdi": 4394,
      "▁tarafa": 4395,
      "▁duzine": 4396,
      "▁yede": 4397,
      "▁paylar": 4398,
      "asında": 4399,
      "▁jap": 4400,
      "▁evde": 4401,
      "▁kelime": 4402,
      "ational": 4403,
      "▁deme": 4404,
      "▁bilgisayarı": 4405,
      "▁ayrica": 4406,
      "▁dereden": 4407,
      "esiyle": 4408,
      "▁iddia": 4409,
      "▁gez": 4410,
      "▁ucak": 4411,
      "▁memnunum": 4412,
      "▁toplantının": 4413,
      "▁patron": 4414,
      "▁caresizlik": 4415,
      "▁cagdas": 4416,
      "dol": 4417,
      "▁alanına": 4418,
      "▁merkeze": 4419,
      "▁pos": 4420,
      "▁sop": 4421,
      "▁cıglık": 4422,
      "▁odenmesi": 4423,
      "▁islemi": 4424,
      "▁gece": 4425,
      "lul": 4426,
      "mafi": 4427,
      "▁tavana": 4428,
      "▁kullandim": 4429,
      "▁dagın": 4430,
      "▁notu": 4431,
      "▁kabus": 4432,
      "▁uyu": 4433,
      "▁3'ten": 4434,
      "▁yaprakları": 4435,
      "eles": 4436,
      "izmi": 4437,
      "▁denize": 4438,
      "▁performanstan": 4439,
      "▁magaz": 4440,
      "▁sm": 4441,
      "ınır": 4442,
      "▁haberler": 4443,
      "leleri": 4444,
      "anların": 4445,
      "▁nasihat": 4446,
      "▁hareketin": 4447,
      "▁lod": 4448,
      "▁kapının": 4449,
      "▁cami": 4450,
      "▁bagımsız": 4451,
      "▁cub": 4452,
      "▁dususun": 4453,
      "▁sıkıntısı": 4454,
      "▁mehtap": 4455,
      "yıp": 4456,
      "▁bayır": 4457,
      "▁yerde": 4458,
      "▁ih": 4459,
      "▁ontar": 4460,
      "▁alıyor": 4461,
      "▁hin": 4462,
      "▁sivrisinek": 4463,
      "ldi": 4464,
      "▁sonraki": 4465,
      "▁isaret": 4466,
      "ahh": 4467,
      "▁patlıc": 4468,
      "▁kucucuk": 4469,
      "▁baskanlıgı": 4470,
      "ildigini": 4471,
      "▁buro": 4472,
      "▁slog": 4473,
      "▁gre": 4474,
      "cisi": 4475,
      "▁mekan": 4476,
      "▁yetersizligi": 4477,
      "▁dilek": 4478,
      "▁tuccarlar": 4479,
      "▁bagın": 4480,
      "▁karısını": 4481,
      "▁alan": 4482,
      "▁turunu": 4483,
      "▁hazine": 4484,
      "ırmak": 4485,
      "ayıp": 4486,
      "▁dugmeleri": 4487,
      "▁kagıt": 4488,
      "▁bakanlıgı'nın": 4489,
      "iliginden": 4490,
      "▁listeleyin": 4491,
      "unuz": 4492,
      "▁pis": 4493,
      "▁yillardir": 4494,
      "▁st.": 4495,
      "▁onlardan": 4496,
      "atesi": 4497,
      "▁degerlendiririm": 4498,
      "▁seattle'ye": 4499,
      "▁sas": 4500,
      "▁ilgilenmediler": 4501,
      "▁merdivenlerden": 4502,
      "▁bilgisayar": 4503,
      "▁havalarda": 4504,
      "▁saldırgan": 4505,
      "▁olanakları": 4506,
      "▁layık": 4507,
      "▁senede": 4508,
      "▁bulunuyor": 4509,
      "▁hicbirini": 4510,
      "▁edebil": 4511,
      "kurmay": 4512,
      "▁kalmamıs": 4513,
      "▁ucuslarla": 4514,
      "▁d": 4515,
      "▁a": 4516,
      "▁soluk": 4517,
      "▁elimi": 4518,
      "▁ekibine": 4519,
      "▁butceye": 4520,
      "▁misyon": 4521,
      "liginin": 4522,
      "▁millet": 4523,
      "▁kardesim": 4524,
      "▁iliskilerini": 4525,
      "▁vazo": 4526,
      "▁muzigini": 4527,
      "unikasyon": 4528,
      "ssa": 4529,
      "▁pav": 4530,
      "▁amca": 4531,
      "▁ikaz": 4532,
      "▁mig": 4533,
      "oglu": 4534,
      "▁tezgahın": 4535,
      "▁saglıklı": 4536,
      "▁kaybederek": 4537,
      "▁kerem": 4538,
      "▁isyan": 4539,
      "iyorum": 4540,
      "▁markaları": 4541,
      "▁capında": 4542,
      "▁biyoloji": 4543,
      "▁derece": 4544,
      "▁.\"": 4545,
      "▁ederdi": 4546,
      "▁izley": 4547,
      "▁asci": 4548,
      "▁nesne": 4549,
      "▁kullanmadim": 4550,
      "▁ekmegi": 4551,
      "▁ro": 4552,
      "▁ciro": 4553,
      "▁vur": 4554,
      "▁acel": 4555,
      "▁uyelik": 4556,
      "▁damarı": 4557,
      "▁elden": 4558,
      "anının": 4559,
      "atur": 4560,
      "▁cephe": 4561,
      "▁tahkim": 4562,
      "▁parlam": 4563,
      "▁kimseye": 4564,
      "▁yarıs": 4565,
      "imlerin": 4566,
      "▁azdi": 4567,
      "de": 4568,
      "▁panel": 4569,
      "▁duydu": 4570,
      "▁dayanır": 4571,
      "▁hakikat": 4572,
      "▁operasyonları": 4573,
      "▁torba": 4574,
      "mayacak": 4575,
      "iligine": 4576,
      "▁sona": 4577,
      "kart": 4578,
      "▁bitiyor": 4579,
      "▁olcusu": 4580,
      "▁piyasada": 4581,
      "▁medy": 4582,
      "▁gazino": 4583,
      "▁yahut": 4584,
      "▁karsıla": 4585,
      "▁bilimleri": 4586,
      "ması": 4587,
      "▁sım": 4588,
      "▁beyn": 4589,
      "▁degisim": 4590,
      "dugunde": 4591,
      "▁sık": 4592,
      "▁bilg": 4593,
      "▁boyunda": 4594,
      "▁birbirimize": 4595,
      "▁salata": 4596,
      "▁kapısına": 4597,
      "▁teknoloj": 4598,
      "▁yıldan": 4599,
      "▁sıgır": 4600,
      "▁felsef": 4601,
      "▁parlak": 4602,
      "▁can": 4603,
      "▁anneme": 4604,
      "▁ısık": 4605,
      "▁kongre": 4606,
      "▁cocuklar": 4607,
      "inceye": 4608,
      "▁ozgurluk": 4609,
      "dikler": 4610,
      "▁kayd": 4611,
      "▁ufakti": 4612,
      "▁iktisat": 4613,
      "▁gerceklestir": 4614,
      "▁;": 4615,
      "▁soguktu": 4616,
      "▁markanın": 4617,
      "▁dog": 4618,
      "▁universit": 4619,
      "meyecegini": 4620,
      "ebiliyor": 4621,
      "▁izleri": 4622,
      "iligini": 4623,
      "▁modeli": 4624,
      "▁ortadan": 4625,
      "▁kesiminin": 4626,
      "▁olsa": 4627,
      "▁muthis": 4628,
      "▁klim": 4629,
      "▁bahs": 4630,
      "aylon": 4631,
      "▁aksama": 4632,
      "ılıg": 4633,
      "▁seylerle": 4634,
      "kti": 4635,
      "▁yamac": 4636,
      "▁meydana": 4637,
      "▁camasır": 4638,
      "▁kontr": 4639,
      "▁buk": 4640,
      "keti": 4641,
      "▁unif": 4642,
      "ursuz": 4643,
      "▁sektore": 4644,
      "▁kım": 4645,
      "▁bayan": 4646,
      "arındaki": 4647,
      "▁da": 4648,
      "▁ceketinin": 4649,
      "▁kaps": 4650,
      "▁tukuruk": 4651,
      "▁mef": 4652,
      "▁maliyet": 4653,
      "anından": 4654,
      "▁operasyon": 4655,
      "▁peygam": 4656,
      "▁pudra": 4657,
      "▁darbuk": 4658,
      "sinde": 4659,
      "▁depr": 4660,
      "elli": 4661,
      "irip": 4662,
      "▁hot": 4663,
      "▁/": 4664,
      "▁dugmesini": 4665,
      "▁yaglı": 4666,
      "▁sıkıstır": 4667,
      "▁ayrık": 4668,
      "▁terbiy": 4669,
      "▁bakla": 4670,
      "▁universitelerin": 4671,
      "▁talimat": 4672,
      "z": 4673,
      "▁caddenin": 4674,
      "▁hedefi": 4675,
      "ameti": 4676,
      "▁zirv": 4677,
      "▁memphis": 4678,
      "▁tif": 4679,
      "▁buyume": 4680,
      "▁aklına": 4681,
      "▁kavak": 4682,
      "▁kaydetti": 4683,
      "▁grafik": 4684,
      "malı": 4685,
      "▁rehberim": 4686,
      "▁yumusak": 4687,
      "▁diego'ya": 4688,
      "▁agzı": 4689,
      "eniz": 4690,
      "▁muddet": 4691,
      "▁yıllardır": 4692,
      "ımızdan": 4693,
      "▁alıskanlıgı": 4694,
      "▁kak": 4695,
      "▁edebiyatın": 4696,
      "▁mask": 4697,
      "▁ora": 4698,
      "ziv": 4699,
      "▁edemiyor": 4700,
      "panya": 4701,
      "▁dusman": 4702,
      "▁seksen": 4703,
      "/8": 4704,
      "eci": 4705,
      "uz": 4706,
      "▁renkli": 4707,
      "me": 4708,
      "▁revize": 4709,
      "▁kurumu": 4710,
      "dıgımı": 4711,
      "▁faizini": 4712,
      "▁mevzuatı": 4713,
      "▁suyu": 4714,
      "▁damlac": 4715,
      "▁konular": 4716,
      "▁yaka": 4717,
      "▁cık": 4718,
      "ladık": 4719,
      "tator": 4720,
      "lamalarını": 4721,
      "▁duvarlarına": 4722,
      "▁stan": 4723,
      "▁tavr": 4724,
      "umde": 4725,
      "6's": 4726,
      "▁gazetenin": 4727,
      "▁soguk": 4728,
      "▁a.b.d.": 4729,
      "▁kontrolu": 4730,
      "▁azı": 4731,
      "olojisi": 4732,
      "▁get": 4733,
      "▁birbirine": 4734,
      "▁yontemi": 4735,
      "alama": 4736,
      "▁kısmını": 4737,
      "▁cıgırt": 4738,
      "▁cesitlendirme": 4739,
      "▁engelleri": 4740,
      "▁yn": 4741,
      "▁kaka": 4742,
      "▁toz": 4743,
      "▁guncel": 4744,
      "▁2.6": 4745,
      "▁pırıltı": 4746,
      "▁sonraları": 4747,
      "▁68": 4748,
      "▁fen": 4749,
      "▁verime": 4750,
      "▁aleyh": 4751,
      "▁gecmiste": 4752,
      "30": 4753,
      "▁85": 4754,
      "▁burbank": 4755,
      "▁gozalt": 4756,
      "estirdi": 4757,
      "▁yukseltti": 4758,
      "▁kullanıl": 4759,
      "▁yakasına": 4760,
      "▁tarihin": 4761,
      "madik": 4762,
      "inlerini": 4763,
      "▁pic": 4764,
      "▁saat": 4765,
      "▁bulma": 4766,
      "▁margar": 4767,
      "▁kısıt": 4768,
      "▁bar": 4769,
      "▁tebessum": 4770,
      "▁heg": 4771,
      "▁ramazan": 4772,
      "▁ihracatı": 4773,
      "▁karmasası": 4774,
      "▁kendileri": 4775,
      "▁nes": 4776,
      "▁varacak": 4777,
      "▁1\\/4": 4778,
      "▁konustu": 4779,
      "yken": 4780,
      "▁ralli": 4781,
      "cagım": 4782,
      "ılıs": 4783,
      "▁orman": 4784,
      "▁konusu": 4785,
      "▁de": 4786,
      "▁hast": 4787,
      "▁25": 4788,
      "▁tar": 4789,
      "▁kurtarma": 4790,
      "▁ibm": 4791,
      "▁data": 4792,
      "▁olmadigini": 4793,
      "▁sp": 4794,
      "ciden": 4795,
      "▁kil": 4796,
      "▁benim": 4797,
      "eleriyle": 4798,
      "▁kelep": 4799,
      "▁uykuya": 4800,
      "▁egitimi": 4801,
      "▁yanlıs": 4802,
      "▁ayrılan": 4803,
      "ozit": 4804,
      "ısır": 4805,
      "▁figur": 4806,
      "akta": 4807,
      "meger": 4808,
      "memesi": 4809,
      "dıgımız": 4810,
      "▁altern": 4811,
      "▁hane": 4812,
      "▁sorunlarına": 4813,
      "▁sinirlerini": 4814,
      "madıgı": 4815,
      "▁dır": 4816,
      "▁cer": 4817,
      "▁murekk": 4818,
      "▁duyuyor": 4819,
      "▁gozler": 4820,
      "▁buyum": 4821,
      "▁vade": 4822,
      "▁guzellik": 4823,
      "▁kunda": 4824,
      "▁kahve": 4825,
      "'nı": 4826,
      "kı": 4827,
      "▁nitelikte": 4828,
      "hur": 4829,
      "larımıza": 4830,
      "▁isimiz": 4831,
      "▁apartmana": 4832,
      "▁semt": 4833,
      "▁tekn": 4834,
      "▁bankalar": 4835,
      "▁etkinlik": 4836,
      "▁ormanın": 4837,
      "▁arama": 4838,
      "lanab": 4839,
      "▁dola": 4840,
      "anlar": 4841,
      "▁edildi": 4842,
      "emedik": 4843,
      "▁salı": 4844,
      "▁alaka": 4845,
      "▁esliginde": 4846,
      "tiz": 4847,
      "uzdu": 4848,
      "▁aleyhine": 4849,
      "▁korkudan": 4850,
      "▁kaldırma": 4851,
      "▁yerleri": 4852,
      "▁satırları": 4853,
      "eceginden": 4854,
      "arını": 4855,
      "▁denetimi": 4856,
      "ucunun": 4857,
      "▁gelir": 4858,
      "▁dergileri": 4859,
      "▁esnada": 4860,
      "▁ilcesine": 4861,
      "▁agabey": 4862,
      "▁meze": 4863,
      "▁duvarlarında": 4864,
      "lulugunu": 4865,
      "lanta": 4866,
      "▁konak": 4867,
      "▁yurtdisinda": 4868,
      "▁york": 4869,
      "ota": 4870,
      "▁turklerin": 4871,
      "▁konuyla": 4872,
      "eo": 4873,
      "▁cakı": 4874,
      "▁madal": 4875,
      "▁noktada": 4876,
      "▁alanlar": 4877,
      "ırak": 4878,
      "ask": 4879,
      "▁sektor": 4880,
      "▁fit": 4881,
      "▁kanser": 4882,
      "▁deg": 4883,
      "▁hubub": 4884,
      "▁sıkıya": 4885,
      "▁kader": 4886,
      "[SEP]": 4887,
      "▁fay": 4888,
      "▁jam": 4889,
      "▁ellerim": 4890,
      "▁dolabın": 4891,
      "iki": 4892,
      "▁kktc": 4893,
      "▁eseri": 4894,
      "alıyor": 4895,
      "▁fonlarına": 4896,
      "▁acıyor": 4897,
      "▁omuzlarını": 4898,
      "▁traktor": 4899,
      "dız": 4900,
      "mayan": 4901,
      "▁epeyce": 4902,
      "▁sonuclara": 4903,
      "▁cabalarını": 4904,
      "▁ister": 4905,
      "▁ustun": 4906,
      "▁!..": 4907,
      "▁almadim": 4908,
      "▁sar": 4909,
      "▁kuması": 4910,
      "a'ya": 4911,
      "ogram": 4912,
      "▁halbuki": 4913,
      "▁kalmayı": 4914,
      "▁ner": 4915,
      "ebilmek": 4916,
      "▁baskalarının": 4917,
      "▁bulundur": 4918,
      "▁tur": 4919,
      "▁sır": 4920,
      "ama": 4921,
      "▁lara": 4922,
      "▁arkamdan": 4923,
      "gı": 4924,
      "'d": 4925,
      "▁hade": 4926,
      "▁babasının": 4927,
      "guna": 4928,
      "▁satan": 4929,
      "▁seyh": 4930,
      "▁siiri": 4931,
      "▁iyims": 4932,
      "▁karsılas": 4933,
      "▁bord": 4934,
      "▁olacagını": 4935,
      "▁tarihleri": 4936,
      "ordu": 4937,
      "▁bazıları": 4938,
      "▁rady": 4939,
      "▁ulkeyi": 4940,
      "cagızı": 4941,
      "▁destekley": 4942,
      "▁si": 4943,
      "▁cuma": 4944,
      "▁performans": 4945,
      "48": 4946,
      "▁faydası": 4947,
      "masın": 4948,
      "daki": 4949,
      "▁tenc": 4950,
      "lıp": 4951,
      "amay": 4952,
      "▁bahcenin": 4953,
      "▁perakende": 4954,
      "▁prim": 4955,
      "ginden": 4956,
      "▁acıklıyor": 4957,
      "▁boyu": 4958,
      "acıya": 4959,
      "▁versin": 4960,
      "iyorlardı": 4961,
      "cilikle": 4962,
      "▁tul": 4963,
      "arl": 4964,
      "▁derhal": 4965,
      "▁delikanlının": 4966,
      "▁satı": 4967,
      "int": 4968,
      "landır": 4969,
      "madigim": 4970,
      "▁aniden": 4971,
      "▁sark": 4972,
      "erli": 4973,
      "▁dakikada": 4974,
      "yag": 4975,
      "▁daglara": 4976,
      "▁dogruya": 4977,
      "▁istiyor": 4978,
      ".3": 4979,
      "▁yapmadıgını": 4980,
      "▁birbirinin": 4981,
      "▁tamir": 4982,
      "▁az": 4983,
      "▁kısı": 4984,
      "▁komutan": 4985,
      "▁kendimiz": 4986,
      "▁rastlantı": 4987,
      "▁1991": 4988,
      "▁milletvek": 4989,
      "▁fonlarını": 4990,
      "▁oks": 4991,
      "▁ifadesi": 4992,
      "▁cocukların": 4993,
      "▁surdu": 4994,
      "▁durdu": 4995,
      "▁il": 4996,
      "▁ileriye": 4997,
      "▁ailesinin": 4998,
      "'e": 4999,
      "▁piyasalarını": 5000,
      "▁oranda": 5001,
      "▁denli": 5002,
      "▁tı": 5003,
      "▁dilleri": 5004,
      "▁bacaklarını": 5005,
      "▁kasa": 5006,
      "▁mustaf": 5007,
      "▁gelmez": 5008,
      "▁golgesinde": 5009,
      "▁dusundugunu": 5010,
      "▁ayakta": 5011,
      "▁las": 5012,
      "▁dallarında": 5013,
      "▁siir": 5014,
      "▁sok": 5015,
      "mekle": 5016,
      "▁aksak": 5017,
      "▁calısmaya": 5018,
      "▁zorunlu": 5019,
      "▁uyardı": 5020,
      "▁sanatın": 5021,
      "▁turistlerin": 5022,
      "▁aranmak": 5023,
      "▁kurumların": 5024,
      "▁tahtası": 5025,
      "▁yerinde": 5026,
      "▁varmıs": 5027,
      "▁soyadı": 5028,
      "▁bekcisi": 5029,
      "▁etkili": 5030,
      "mur": 5031,
      "▁kaldım": 5032,
      "▁nav": 5033,
      "▁koku": 5034,
      "▁mutfagi": 5035,
      "▁ustumuze": 5036,
      "▁ortasında": 5037,
      "▁getirilerinin": 5038,
      "▁bankasının": 5039,
      "akları": 5040,
      "▁mıyım": 5041,
      "▁insanı": 5042,
      "▁vatan": 5043,
      "▁anım": 5044,
      "ti": 5045,
      "▁yemekler": 5046,
      "▁tehd": 5047,
      "▁balıkları": 5048,
      "▁or": 5049,
      "▁ihtiyacimiz": 5050,
      "▁yag": 5051,
      "alarındaki": 5052,
      "esini": 5053,
      "▁makinesi": 5054,
      "▁disleri": 5055,
      "▁riskleri": 5056,
      "▁mut": 5057,
      "lardi": 5058,
      "▁cevaplar": 5059,
      "ledigim": 5060,
      "ahlık": 5061,
      "▁camları": 5062,
      "▁end": 5063,
      "▁digeri": 5064,
      "▁yudum": 5065,
      "ibine": 5066,
      "▁urunlerde": 5067,
      "▁dilde": 5068,
      "—": 5069,
      "lbu": 5070,
      "▁keyfini": 5071,
      "▁alana": 5072,
      "▁hepsi": 5073,
      "▁antikor": 5074,
      "sarı": 5075,
      "▁yapmayı": 5076,
      "▁karsiligini": 5077,
      "▁sandal": 5078,
      "▁ticarette": 5079,
      "▁yıl": 5080,
      "▁icecekler": 5081,
      "▁birbirleri": 5082,
      "▁kodunu": 5083,
      "▁civarında": 5084,
      "tus": 5085,
      "mis": 5086,
      "▁mart": 5087,
      "retli": 5088,
      "dut": 5089,
      "▁calisanlardan": 5090,
      "▁elimizde": 5091,
      "▁haykır": 5092,
      "▁yukarıda": 5093,
      "▁almıs": 5094,
      "▁yedir": 5095,
      "▁bıcagı": 5096,
      "lıları": 5097,
      "▁dususu": 5098,
      "▁acak": 5099,
      "▁serin": 5100,
      "sagı": 5101,
      "▁viraj": 5102,
      "▁uzun": 5103,
      "▁sagda": 5104,
      "▁ver": 5105,
      "▁kaleci": 5106,
      "▁sorun": 5107,
      "▁magdur": 5108,
      "▁diyet": 5109,
      "▁cocuklardan": 5110,
      "▁soyu": 5111,
      "▁gideri": 5112,
      "▁yerden": 5113,
      "▁niyet": 5114,
      "▁kendin": 5115,
      "▁luzum": 5116,
      "▁uyeleri": 5117,
      "▁bulgu": 5118,
      "et": 5119,
      "ton": 5120,
      "▁bagımlılıgı": 5121,
      "▁secmek": 5122,
      "▁ulusal": 5123,
      "▁ceviri": 5124,
      "75": 5125,
      "▁kızların": 5126,
      "▁gitmeli": 5127,
      "sıp": 5128,
      "▁ucu": 5129,
      "ısına": 5130,
      "eyle": 5131,
      "▁donemden": 5132,
      "▁sah": 5133,
      "▁lez": 5134,
      "mazlar": 5135,
      "▁fıstık": 5136,
      "▁kitaptan": 5137,
      "▁zamanla": 5138,
      "▁erkek": 5139,
      "▁yanlısı": 5140,
      "▁attım": 5141,
      "▁sırtı": 5142,
      "▁kapısında": 5143,
      "lev": 5144,
      "▁uzaklas": 5145,
      "▁ulkenin": 5146,
      "▁kulturune": 5147,
      "▁elimde": 5148,
      "▁yukselmesini": 5149,
      "lasabilir": 5150,
      "lanabi": 5151,
      "▁cifte": 5152,
      "▁havayı": 5153,
      "▁tis": 5154,
      "▁arap": 5155,
      "▁kadını": 5156,
      "▁yurumek": 5157,
      "▁organı": 5158,
      "▁yerine": 5159,
      "▁fındık": 5160,
      "▁isada": 5161,
      "▁litre": 5162,
      "▁mortgage": 5163,
      "▁elbis": 5164,
      "esyon": 5165,
      "elerin": 5166,
      "▁yaptıgını": 5167,
      "▁kayı": 5168,
      "ona": 5169,
      "▁se": 5170,
      "ur": 5171,
      "▁nakliye": 5172,
      "▁oturumda": 5173,
      "▁bile": 5174,
      "▁siparisleri": 5175,
      "▁dilim": 5176,
      "▁sınırı": 5177,
      "▁degerlendirmek": 5178,
      "▁yeng": 5179,
      "▁kaldırımda": 5180,
      "▁chic": 5181,
      "end": 5182,
      "▁calı": 5183,
      "▁gorusler": 5184,
      "▁kumarbaz": 5185,
      "▁sert": 5186,
      "▁glob": 5187,
      "▁tatildi": 5188,
      "emm": 5189,
      "▁lı": 5190,
      "▁planın": 5191,
      "uklugu": 5192,
      "▁gittim": 5193,
      "▁tuf": 5194,
      "▁selef": 5195,
      "▁hanım": 5196,
      "▁vardı": 5197,
      "▁bizleri": 5198,
      "▁arıtma": 5199,
      "▁mor": 5200,
      "▁boynu": 5201,
      "▁atolye": 5202,
      "ilik": 5203,
      "eh": 5204,
      "▁ses": 5205,
      "▁cemiyet": 5206,
      "▁secenegi": 5207,
      "▁damg": 5208,
      "▁konsolos": 5209,
      "▁birbirlerinin": 5210,
      "▁amac": 5211,
      "▁koca": 5212,
      "▁kinden": 5213,
      "lit": 5214,
      "▁halkına": 5215,
      "▁plajda": 5216,
      "▁horm": 5217,
      "▁mufett": 5218,
      "▁sandalye": 5219,
      "▁tung": 5220,
      "▁nazır": 5221,
      "▁yetenekleri": 5222,
      "▁saraydan": 5223,
      "▁genelkurmay": 5224,
      "angi": 5225,
      "▁sevimli": 5226,
      "lin": 5227,
      "▁tabak": 5228,
      "lanır": 5229,
      "mamız": 5230,
      "▁adamakıllı": 5231,
      "▁ekonomisini": 5232,
      "▁telaf": 5233,
      "▁yetersiz": 5234,
      "▁sayfaları": 5235,
      "▁kalitesi": 5236,
      "▁viski": 5237,
      "▁pay": 5238,
      "▁aktiv": 5239,
      "▁vasıtasıyla": 5240,
      "▁onay": 5241,
      "▁olanak": 5242,
      "▁mektebe": 5243,
      "gim": 5244,
      "▁corp.": 5245,
      "meyin": 5246,
      "▁yapılıyor": 5247,
      "agına": 5248,
      "▁ama": 5249,
      "▁japonlar": 5250,
      "▁deftere": 5251,
      "▁getirmek": 5252,
      "▁1986": 5253,
      "'nin": 5254,
      "▁yasam": 5255,
      "▁mada": 5256,
      "▁20": 5257,
      "▁listesini": 5258,
      "8'den": 5259,
      "▁payını": 5260,
      "▁gorunen": 5261,
      "▁yurek": 5262,
      "▁yılına": 5263,
      "▁sart": 5264,
      "▁bizlere": 5265,
      "▁ar": 5266,
      "▁bat": 5267,
      "▁ayrıntılarıyla": 5268,
      "▁kilidi": 5269,
      "uruz": 5270,
      "▁ydi": 5271,
      "astırma": 5272,
      "▁bunca": 5273,
      "▁degisiklikleri": 5274,
      "▁hep": 5275,
      "▁gonderdi": 5276,
      "▁gazetelerde": 5277,
      "▁filmleri": 5278,
      "layabil": 5279,
      "40": 5280,
      "alamak": 5281,
      "▁ipuc": 5282,
      "▁keyif": 5283,
      "▁misafirimizle": 5284,
      "▁santim": 5285,
      "▁agrıları": 5286,
      "▁yedi": 5287,
      "ebilirdi": 5288,
      "'nu": 5289,
      "▁yarıda": 5290,
      "▁bilgiyi": 5291,
      "▁spekul": 5292,
      "▁asagıl": 5293,
      "masıdır": 5294,
      "▁ailelere": 5295,
      "ilebilir": 5296,
      "▁sanat": 5297,
      "▁eh": 5298,
      "▁sukur": 5299,
      "▁yapmak": 5300,
      "ake": 5301,
      "▁ola": 5302,
      "▁asa": 5303,
      "▁ikide": 5304,
      "▁saglıgı": 5305,
      "▁musterilerin": 5306,
      "▁baskasına": 5307,
      "▁turku": 5308,
      "larımızda": 5309,
      "▁agzım": 5310,
      "▁cerr": 5311,
      "layacagını": 5312,
      "▁ehemm": 5313,
      "▁iscileri": 5314,
      "▁bakmak": 5315,
      "▁ley": 5316,
      "▁planlar": 5317,
      "▁kisiligi": 5318,
      "▁kendinin": 5319,
      "▁atıyor": 5320,
      "▁raporlar": 5321,
      "layarak": 5322,
      "name": 5323,
      "▁salatası": 5324,
      "▁kristal": 5325,
      "▁gosterileri": 5326,
      "▁arkadasa": 5327,
      "▁sifir": 5328,
      "▁130": 5329,
      "maya": 5330,
      "▁hangileri": 5331,
      "▁fırın": 5332,
      "eliler": 5333,
      "▁hukumleri": 5334,
      "▁gozlerine": 5335,
      "iyeden": 5336,
      "▁naf": 5337,
      "▁evrenin": 5338,
      "▁bahset": 5339,
      "acaksın": 5340,
      "▁rolu": 5341,
      "▁maf": 5342,
      "▁kapısı": 5343,
      "▁vatanın": 5344,
      "▁baskan": 5345,
      "▁baslangıcı": 5346,
      "lanmasını": 5347,
      "▁gelistir": 5348,
      "▁basrol": 5349,
      "▁edici": 5350,
      "▁memnuniyetini": 5351,
      "gınız": 5352,
      "▁onayladı": 5353,
      "▁coktan": 5354,
      "▁mermi": 5355,
      "▁tuzu": 5356,
      "▁kin": 5357,
      "▁ihtimalini": 5358,
      "▁federal": 5359,
      "▁komunist": 5360,
      "▁imkan": 5361,
      "▁artan": 5362,
      "imle": 5363,
      "▁farkında": 5364,
      "▁kuy": 5365,
      "▁gazi": 5366,
      "▁artısla": 5367,
      "▁saldır": 5368,
      "ult": 5369,
      "▁seh": 5370,
      "▁zorun": 5371,
      "esizdi": 5372,
      "▁hız": 5373,
      "-sat": 5374,
      "▁yaptim": 5375,
      "▁rom": 5376,
      "▁uretim": 5377,
      "▁borc": 5378,
      "▁razı": 5379,
      "sizlik": 5380,
      "▁askerleri": 5381,
      "▁baskanının": 5382,
      "tikten": 5383,
      "illerin": 5384,
      "eyr": 5385,
      "▁nobet": 5386,
      "cum": 5387,
      "gin": 5388,
      "▁kokuyordu": 5389,
      "ve": 5390,
      "abilecegini": 5391,
      "▁yonet": 5392,
      "▁gormus": 5393,
      "▁ideoloj": 5394,
      "▁karsısına": 5395,
      "▁yureginde": 5396,
      "▁gosterdi": 5397,
      "▁kazada": 5398,
      "▁koltugun": 5399,
      "latır": 5400,
      "▁mutluluk": 5401,
      "▁lezzet": 5402,
      "▁defterleri": 5403,
      "▁eroin": 5404,
      "▁odamiz": 5405,
      "▁199": 5406,
      "▁hayatına": 5407,
      "▁bahceler": 5408,
      "▁kahval": 5409,
      "ilecek": 5410,
      "▁tamamı": 5411,
      "▁binbası": 5412,
      "▁gayrimenkul": 5413,
      "▁refakat": 5414,
      "uye": 5415,
      "mesin": 5416,
      "▁beye": 5417,
      "medik": 5418,
      "dak": 5419,
      "▁sel": 5420,
      "▁norm": 5421,
      "▁tuy": 5422,
      "▁olcekli": 5423,
      "▁bilim": 5424,
      "▁yasası": 5425,
      "digim": 5426,
      "▁yiyecek": 5427,
      "▁12": 5428,
      "▁katk": 5429,
      "▁baltimore'ye": 5430,
      "imizin": 5431,
      "elek": 5432,
      "▁vermesini": 5433,
      "▁hassas": 5434,
      "▁alacak": 5435,
      "eb": 5436,
      "▁faturami": 5437,
      "5'lik": 5438,
      "▁masrafı": 5439,
      "dugu": 5440,
      "▁planlıyor": 5441,
      "▁hul": 5442,
      "▁oruc": 5443,
      "enn": 5444,
      "▁hayatımızın": 5445,
      "▁meteor": 5446,
      "▁yeryuz": 5447,
      "anc": 5448,
      "eyip": 5449,
      "▁recep": 5450,
      "avuz": 5451,
      "▁bulutlar": 5452,
      "▁ustelik": 5453,
      "▁ulkede": 5454,
      "▁aleminde": 5455,
      "eceksin": 5456,
      "press": 5457,
      "▁cekmis": 5458,
      "'te": 5459,
      "ılması": 5460,
      "▁vegas": 5461,
      "tesi": 5462,
      "▁aramıza": 5463,
      "▁mustes": 5464,
      "▁ucuyor": 5465,
      "▁anket": 5466,
      "▁istem": 5467,
      "▁fare": 5468,
      "ika": 5469,
      "▁temelde": 5470,
      "▁satıslarda": 5471,
      "▁kulup": 5472,
      "▁ta": 5473,
      "sir": 5474,
      "▁ogrenciler": 5475,
      "ugunu": 5476,
      "▁yukseldi": 5477,
      "▁spor": 5478,
      "▁duvarda": 5479,
      "how": 5480,
      "ılar": 5481,
      "▁kud": 5482,
      "nız": 5483,
      "▁duzenleme": 5484,
      "▁ogrenim": 5485,
      "ce": 5486,
      "▁guvenini": 5487,
      "imci": 5488,
      "▁yıldız": 5489,
      "▁150": 5490,
      "▁yasayı": 5491,
      "▁duzel": 5492,
      "▁gostermeye": 5493,
      "▁tasdik": 5494,
      "▁seattle'den": 5495,
      "rem": 5496,
      "▁dayı": 5497,
      "▁sinc": 5498,
      "▁tum": 5499,
      "▁avukat": 5500,
      "▁adlı": 5501,
      "▁masraf": 5502,
      "▁labor": 5503,
      "ulup": 5504,
      "▁.'": 5505,
      "▁amiri": 5506,
      "▁gor": 5507,
      "▁arkadaslar": 5508,
      "▁kızar": 5509,
      "▁muhur": 5510,
      "▁bayiler": 5511,
      "▁yans": 5512,
      "tugunu": 5513,
      "▁duruma": 5514,
      "▁ilkokul": 5515,
      "▁mev": 5516,
      "▁edecegim": 5517,
      "▁kesiti": 5518,
      "▁andan": 5519,
      "▁7": 5520,
      "sti": 5521,
      "▁gectigini": 5522,
      "dıgından": 5523,
      "▁baskal": 5524,
      "▁yoz": 5525,
      "▁konut": 5526,
      "▁aklı": 5527,
      "▁satısa": 5528,
      "▁subv": 5529,
      "▁lap": 5530,
      "▁tatli": 5531,
      "▁ucları": 5532,
      "▁gelisme": 5533,
      "▁masallar": 5534,
      "▁sizi": 5535,
      "▁civ": 5536,
      "▁toplamda": 5537,
      "▁medeniyet": 5538,
      "▁oturum": 5539,
      "▁sokagı": 5540,
      "▁dinle": 5541,
      "▁oteden": 5542,
      "▁olculere": 5543,
      "▁allah": 5544,
      "abeti": 5545,
      "▁felce": 5546,
      ".000": 5547,
      "▁verdim": 5548,
      "▁calisanlarin": 5549,
      "esindeki": 5550,
      "oy": 5551,
      "▁nadir": 5552,
      "▁yazıları": 5553,
      "▁kullanıldıgını": 5554,
      "▁karsıs": 5555,
      "▁makineler": 5556,
      "lendigini": 5557,
      "▁temizlikte": 5558,
      "▁alabilmek": 5559,
      "▁aracı": 5560,
      "1": 5561,
      "ya'da": 5562,
      "▁bilgilendirilmek": 5563,
      "▁uykuda": 5564,
      "▁zum": 5565,
      "ultu": 5566,
      "▁ikisinin": 5567,
      "▁gorec": 5568,
      "▁insaat": 5569,
      "larımla": 5570,
      "cih": 5571,
      "▁becer": 5572,
      "oru": 5573,
      "▁varmak": 5574,
      "▁maydanoz": 5575,
      "▁editoru": 5576,
      "▁alacaklılar": 5577,
      "▁alev": 5578,
      "▁kuzu": 5579,
      "▁dolaptan": 5580,
      "▁kariyer": 5581,
      "▁sozler": 5582,
      "ıldıgı": 5583,
      "▁gaf": 5584,
      "▁mont": 5585,
      "▁dinam": 5586,
      "lanmayı": 5587,
      "▁kaldırıma": 5588,
      "▁?..": 5589,
      "▁orne": 5590,
      "burg": 5591,
      "ela": 5592,
      "mistir": 5593,
      "▁hik": 5594,
      "▁ardı": 5595,
      "▁icecek": 5596,
      "▁hus": 5597,
      "▁dil": 5598,
      "▁buzdol": 5599,
      "emden": 5600,
      "▁geleceg": 5601,
      "▁durum": 5602,
      "▁danıs": 5603,
      "▁mood": 5604,
      "▁havaalanlarını": 5605,
      "▁dun": 5606,
      "▁yemeklerini": 5607,
      "▁aklından": 5608,
      "▁inkılap": 5609,
      "▁lir": 5610,
      "▁davet": 5611,
      "o'dan": 5612,
      "▁ingil": 5613,
      "▁teskilat": 5614,
      "▁koprunun": 5615,
      "▁ala": 5616,
      "▁kullanımını": 5617,
      "let": 5618,
      "▁kisilerle": 5619,
      "uguna": 5620,
      "▁muhab": 5621,
      "▁barikat": 5622,
      "▁duran": 5623,
      "▁aktor": 5624,
      "ıyorlardı": 5625,
      "ice": 5626,
      "▁valilik": 5627,
      "▁uzmanların": 5628,
      "▁alet": 5629,
      "uzlu": 5630,
      "▁spons": 5631,
      "rt": 5632,
      "suzlugunu": 5633,
      "▁listede": 5634,
      "der": 5635,
      "▁adam": 5636,
      "amam": 5637,
      "▁doner": 5638,
      "▁sacak": 5639,
      "▁kaybet": 5640,
      "▁tenkit": 5641,
      "0-": 5642,
      "yaları": 5643,
      "▁disiplin": 5644,
      "▁fiyatların": 5645,
      "▁kıymetleriyle": 5646,
      "ucusu": 5647,
      "▁istiyoruz": 5648,
      "dırmak": 5649,
      "▁tane": 5650,
      "▁asıl": 5651,
      "ıgını": 5652,
      "▁yaptır": 5653,
      "▁kalmaz": 5654,
      "▁renklerde": 5655,
      "asini": 5656,
      "▁boston'dan": 5657,
      "▁karısıklık": 5658,
      "diye": 5659,
      "yalizm": 5660,
      "rat": 5661,
      "▁tesiste": 5662,
      "▁tahmini": 5663,
      "▁sokagın": 5664,
      "▁girisi": 5665,
      "▁gibidir": 5666,
      "▁zamanı": 5667,
      "▁konfor": 5668,
      "▁isgal": 5669,
      "lıklı": 5670,
      "▁zaman": 5671,
      "▁dortluk": 5672,
      "▁geldik": 5673,
      "▁uzerinde": 5674,
      "▁memlekete": 5675,
      "▁usulca": 5676,
      "▁isliyor": 5677,
      "ileb": 5678,
      "▁strate": 5679,
      "▁rıh": 5680,
      "▁doktorlar": 5681,
      "▁zab": 5682,
      "kce": 5683,
      "agımı": 5684,
      "▁uyelerini": 5685,
      "/32": 5686,
      "▁esy": 5687,
      "▁kad": 5688,
      "icisi": 5689,
      "▁ipi": 5690,
      "▁govdes": 5691,
      "▁bakim": 5692,
      "▁fat": 5693,
      "alıga": 5694,
      "▁birbirleriyle": 5695,
      "▁birlesimi": 5696,
      "usuz": 5697,
      "▁mahs": 5698,
      "▁kavus": 5699,
      "▁ihan": 5700,
      "dır": 5701,
      "▁ind": 5702,
      "▁lt": 5703,
      "▁iz": 5704,
      "▁istanbul": 5705,
      "▁problemi": 5706,
      "▁yetenegi": 5707,
      "gında": 5708,
      "▁talihsizlik": 5709,
      "res": 5710,
      "▁kaliteyi": 5711,
      "▁0": 5712,
      "▁sehr": 5713,
      "▁os": 5714,
      "▁sunu": 5715,
      "▁sosyal": 5716,
      "liligini": 5717,
      "▁bulbul": 5718,
      "▁merhaba": 5719,
      "giniz": 5720,
      "▁bicim": 5721,
      "▁bastan": 5722,
      "gn": 5723,
      "▁maliyetler": 5724,
      "▁isabet": 5725,
      "▁borek": 5726,
      "▁sek": 5727,
      "▁istinaden": 5728,
      "▁politikası": 5729,
      "eldir": 5730,
      "▁ekmegini": 5731,
      "'s": 5732,
      "▁kurmaya": 5733,
      "▁pansiyonda": 5734,
      "ıg": 5735,
      "▁aydınlık": 5736,
      "▁but": 5737,
      "▁kasırga": 5738,
      "▁cet": 5739,
      "har": 5740,
      "▁yazarların": 5741,
      "▁mazhar": 5742,
      "▁recete": 5743,
      "▁huc": 5744,
      "▁icini": 5745,
      "▁tatlı": 5746,
      "▁sade": 5747,
      "▁%3": 5748,
      "▁selam": 5749,
      "▁buh": 5750,
      "▁yapraklar": 5751,
      "▁pantolon": 5752,
      "alet": 5753,
      "▁duygusunu": 5754,
      "▁aralık'ta": 5755,
      "larla": 5756,
      "▁lak": 5757,
      "▁pah": 5758,
      "▁sevgil": 5759,
      "▁cinayet": 5760,
      "dugune": 5761,
      "▁sofra": 5762,
      "▁karı": 5763,
      "▁dedik": 5764,
      "▁dusmeye": 5765,
      "▁tesekkurler": 5766,
      "▁elektrik": 5767,
      "▁muhim": 5768,
      "▁gorevl": 5769,
      "▁insanla": 5770,
      "▁tahvillerinin": 5771,
      "ceklerini": 5772,
      "ansiyon": 5773,
      "▁olmustur": 5774,
      "▁yonelik": 5775,
      "▁darı": 5776,
      "▁hocası": 5777,
      "▁blogu": 5778,
      "▁dısına": 5779,
      "▁kadavra": 5780,
      "▁kendisiyle": 5781,
      "▁bahceden": 5782,
      "▁icleri": 5783,
      "▁calismasi": 5784,
      "▁dest": 5785,
      "sap": 5786,
      "▁yetersizdi": 5787,
      "▁infil": 5788,
      "▁sacların": 5789,
      "▁krizi": 5790,
      "▁kilom": 5791,
      "lge": 5792,
      "alli": 5793,
      "▁osmanlı": 5794,
      "▁ilaclar": 5795,
      "▁kolt": 5796,
      "▁iskeleye": 5797,
      "urduk": 5798,
      "eyn": 5799,
      "▁kaybol": 5800,
      "leme": 5801,
      "▁memleketin": 5802,
      "ıydı": 5803,
      "eratif": 5804,
      "▁bekledigim": 5805,
      "gan": 5806,
      "▁sayın": 5807,
      "▁ayaklarıyla": 5808,
      "▁kontak": 5809,
      "▁gayrimen": 5810,
      "▁du": 5811,
      "▁dahi": 5812,
      "▁sendromu": 5813,
      "▁milyardan": 5814,
      "▁vizyon": 5815,
      "▁caddesi": 5816,
      "▁alamet": 5817,
      "▁miz": 5818,
      "▁kapıları": 5819,
      "▁indirimi": 5820,
      "oseksu": 5821,
      "yalar": 5822,
      "▁atıldı": 5823,
      "▁ogren": 5824,
      "▁odam": 5825,
      "▁olabil": 5826,
      "unce": 5827,
      "ıgından": 5828,
      "▁bulten": 5829,
      "▁ulkeden": 5830,
      "▁ov": 5831,
      "▁sıcak": 5832,
      "▁agı": 5833,
      "▁mutfaga": 5834,
      "aclı": 5835,
      "▁yerlerini": 5836,
      "ls": 5837,
      "▁buraya": 5838,
      "▁sat": 5839,
      "lon": 5840,
      "ed": 5841,
      "▁glas": 5842,
      "▁birisine": 5843,
      "▁dısarıda": 5844,
      "med": 5845,
      "▁sucu": 5846,
      "▁rub": 5847,
      "lamıslar": 5848,
      "▁keskin": 5849,
      "▁sektorde": 5850,
      "▁yuvarlak": 5851,
      "istler": 5852,
      "atını": 5853,
      "tıcı": 5854,
      "must": 5855,
      "▁gazel": 5856,
      "dde": 5857,
      "▁strateji": 5858,
      "▁bakkal": 5859,
      "zet": 5860,
      "▁kısalt": 5861,
      "▁fisk": 5862,
      "▁bunlar": 5863,
      "gide": 5864,
      "ilar": 5865,
      "▁birde": 5866,
      "▁kerp": 5867,
      "hut": 5868,
      "▁do": 5869,
      "▁hizm": 5870,
      "▁anay": 5871,
      "bs": 5872,
      "▁acen": 5873,
      "cagını": 5874,
      "▁yemegini": 5875,
      "▁hazırlanısı": 5876,
      "▁sayet": 5877,
      "▁sened": 5878,
      "▁resim": 5879,
      "▁delikan": 5880,
      "imini": 5881,
      "▁davranmak": 5882,
      "▁dususunu": 5883,
      "▁basarı": 5884,
      "▁geride": 5885,
      "sat": 5886,
      "▁biber": 5887,
      "▁malını": 5888,
      "▁tadını": 5889,
      "▁antr": 5890,
      "liligi": 5891,
      "etli": 5892,
      "▁ucretleri": 5893,
      "▁ogretmenim": 5894,
      "▁ed": 5895,
      "▁istikbal": 5896,
      "▁buyumenin": 5897,
      "▁masaj": 5898,
      "▁piyasasında": 5899,
      "▁c": 5900,
      "undaki": 5901,
      "▁yasad": 5902,
      "▁tadimiza": 5903,
      "▁pence": 5904,
      "▁metaller": 5905,
      "▁oper": 5906,
      "▁gencin": 5907,
      "cılarının": 5908,
      "▁sorar": 5909,
      "▁pasta": 5910,
      "▁piyanonun": 5911,
      "▁yuzlerini": 5912,
      "▁fırtına": 5913,
      "etci": 5914,
      "▁cumhuriyet": 5915,
      "▁hadise": 5916,
      "▁olun": 5917,
      "ıza": 5918,
      "▁tarafına": 5919,
      "▁atmak": 5920,
      "▁macında": 5921,
      "▁enerji": 5922,
      "▁enflasyonu": 5923,
      "▁degistiriyor": 5924,
      "▁ampul": 5925,
      "▁gorme": 5926,
      "▁93": 5927,
      "▁protesto": 5928,
      "▁sebeplerden": 5929,
      "▁birbirlerine": 5930,
      "memi": 5931,
      "▁gecir": 5932,
      "▁kanunu": 5933,
      "▁hamle": 5934,
      "▁mevsim": 5935,
      "dayım": 5936,
      "emin": 5937,
      "ediy": 5938,
      "▁kına": 5939,
      "▁hizmetine": 5940,
      "▁60": 5941,
      "▁reklam": 5942,
      "▁impar": 5943,
      "▁durumunu": 5944,
      "▁dogdu": 5945,
      "▁kazayla": 5946,
      "▁kavramının": 5947,
      "▁kafese": 5948,
      "▁lokanta": 5949,
      "beri": 5950,
      "▁sehirde": 5951,
      "▁sıc": 5952,
      "▁begendim": 5953,
      "▁oranlarının": 5954,
      "▁dusunuyoruz": 5955,
      "▁artarak": 5956,
      "liklerini": 5957,
      "larlar": 5958,
      "▁yuf": 5959,
      "▁bayragı": 5960,
      "▁olay": 5961,
      "maması": 5962,
      "uvar": 5963,
      "▁onemi": 5964,
      "▁geregini": 5965,
      "▁kamuya": 5966,
      "▁hayatım": 5967,
      "▁nan": 5968,
      "miyorum": 5969,
      "miyor": 5970,
      "▁merdiven": 5971,
      "▁herif": 5972,
      "cegini": 5973,
      "▁ense": 5974,
      "▁kalabalıgı": 5975,
      "▁3.ceyrek": 5976,
      "endinin": 5977,
      "▁hareketleri": 5978,
      "▁dedemin": 5979,
      "▁un": 5980,
      "▁met": 5981,
      "▁bolumunu": 5982,
      "▁sonucunu": 5983,
      "hanede": 5984,
      "▁yumruk": 5985,
      "▁buradaki": 5986,
      "ick": 5987,
      "▁kapat": 5988,
      "▁fast": 5989,
      "▁aska": 5990,
      "▁kadınlara": 5991,
      "▁aktarma": 5992,
      "meni": 5993,
      "lem": 5994,
      "ında": 5995,
      "ınıza": 5996,
      "▁tehlikeye": 5997,
      "▁tempo": 5998,
      "rib": 5999,
      "▁basket": 6000,
      "ızda": 6001,
      "ent": 6002,
      "▁gunde": 6003,
      "▁zeytin": 6004,
      "▁karıstır": 6005,
      "ston": 6006,
      "▁rev": 6007,
      "▁kadına": 6008,
      "umdan": 6009,
      "ft": 6010,
      "▁otellerin": 6011,
      "▁tribun": 6012,
      "▁dedikodu": 6013,
      "lamur": 6014,
      "▁tespih": 6015,
      "▁dersiniz": 6016,
      "▁keleb": 6017,
      "▁dardi": 6018,
      "indeydi": 6019,
      "▁hayrete": 6020,
      "▁tartısmayı": 6021,
      "▁derdi": 6022,
      "▁turden": 6023,
      "▁istedigim": 6024,
      "▁enstit": 6025,
      "▁sehirler": 6026,
      "▁ruba": 6027,
      "nc": 6028,
      "▁duzeyi": 6029,
      "dıgınız": 6030,
      "▁restor": 6031,
      "iligi": 6032,
      "edil": 6033,
      "▁arkadasını": 6034,
      "yal": 6035,
      "▁ogeleri": 6036,
      "cının": 6037,
      "▁ard": 6038,
      "estr": 6039,
      "ly": 6040,
      "sızlık": 6041,
      "▁yılki": 6042,
      "▁satmak": 6043,
      "▁etrafımda": 6044,
      "sal": 6045,
      "▁muzigin": 6046,
      "yınca": 6047,
      "▁yonden": 6048,
      "▁baskasının": 6049,
      "▁buyur": 6050,
      "▁akım": 6051,
      "▁demiri": 6052,
      "▁sahipleri": 6053,
      "▁guleryuzlulerdi": 6054,
      "▁)": 6055,
      "▁aydınlat": 6056,
      "▁memuriyet": 6057,
      "▁yangın": 6058,
      "▁yumuk": 6059,
      "▁profesoru": 6060,
      "▁personelinden": 6061,
      "▁tanıt": 6062,
      "cuh": 6063,
      "▁seklinde": 6064,
      "▁raporda": 6065,
      "▁istanbul'un": 6066,
      "▁hissed": 6067,
      "▁trav": 6068,
      "▁donmus": 6069,
      "▁soylemedi": 6070,
      "▁hamam": 6071,
      "▁cas": 6072,
      "meti": 6073,
      "iller": 6074,
      "▁basları": 6075,
      "▁vekili": 6076,
      "▁mufettis": 6077,
      "ırt": 6078,
      "▁havayollarını": 6079,
      "▁no": 6080,
      "▁sunum": 6081,
      "ka": 6082,
      "▁oyn": 6083,
      "▁pazarda": 6084,
      "▁buyumesini": 6085,
      "▁odada": 6086,
      "▁santimetre": 6087,
      "usunu": 6088,
      "▁dayanagı": 6089,
      "cı": 6090,
      "ciyi": 6091,
      "iyoruz": 6092,
      "madıgını": 6093,
      "▁0.2": 6094,
      "▁sutu": 6095,
      "ranı": 6096,
      "▁maddesi": 6097,
      "▁colde": 6098,
      "▁arkas": 6099,
      "▁otelin": 6100,
      "ortusu": 6101,
      "umuze": 6102,
      "▁soluc": 6103,
      "▁tahakkuk": 6104,
      "▁guclerin": 6105,
      "▁oyley": 6106,
      "▁havayolunun": 6107,
      "unan": 6108,
      "▁musik": 6109,
      "3.2": 6110,
      "▁kenarı": 6111,
      "▁fonların": 6112,
      "▁ropor": 6113,
      "▁arastırmacılar": 6114,
      "▁secimlerde": 6115,
      "▁halli": 6116,
      "▁arttıgını": 6117,
      "▁ihtis": 6118,
      "beye": 6119,
      "▁atlanta": 6120,
      "kler": 6121,
      "▁akın": 6122,
      "▁mutfaktan": 6123,
      "▁sizlere": 6124,
      "▁ekonomisinin": 6125,
      "das": 6126,
      "▁propag": 6127,
      "▁cicek": 6128,
      "anıyla": 6129,
      "▁sabahları": 6130,
      "▁cabayı": 6131,
      "▁orada": 6132,
      "▁agzını": 6133,
      "suzluk": 6134,
      "▁bıyıkları": 6135,
      "ının": 6136,
      "kor": 6137,
      "▁bıy": 6138,
      "▁isciler": 6139,
      "▁enst": 6140,
      "▁bakanlıgı": 6141,
      "▁ciddiyet": 6142,
      "kileri": 6143,
      "▁dordu": 6144,
      "▁gozume": 6145,
      "▁degilsiniz": 6146,
      "▁saldırı": 6147,
      "▁birinde": 6148,
      "▁ozen": 6149,
      "asındaki": 6150,
      "yım": 6151,
      "▁ann": 6152,
      "▁fist": 6153,
      "▁ef": 6154,
      "▁sırt": 6155,
      "dıkca": 6156,
      "▁aldır": 6157,
      "▁tasın": 6158,
      "aydı": 6159,
      "▁buyukel": 6160,
      "▁ın": 6161,
      "▁bilgim": 6162,
      "▁kıs": 6163,
      "eti": 6164,
      "▁yılı": 6165,
      "▁cenesine": 6166,
      "▁hakkın": 6167,
      "▁kayb": 6168,
      "pan": 6169,
      "▁kulliyat": 6170,
      "▁ism": 6171,
      "▁endise": 6172,
      "▁agzında": 6173,
      "▁muh": 6174,
      "▁korid": 6175,
      "▁ruhu": 6176,
      "▁topr": 6177,
      "▁ihtiras": 6178,
      "▁vas": 6179,
      "▁eden": 6180,
      "▁yelek": 6181,
      "askanı": 6182,
      "▁parka": 6183,
      "▁hos": 6184,
      "▁hangisi": 6185,
      "ou": 6186,
      "▁lambaları": 6187,
      "▁2.": 6188,
      "▁kimisi": 6189,
      "▁olasılıgı": 6190,
      "▁istatistik": 6191,
      "▁kızcagız": 6192,
      "▁edilemez": 6193,
      "▁3": 6194,
      "▁ayakkabı": 6195,
      "aff": 6196,
      "▁okulu": 6197,
      "▁mini": 6198,
      "lantı": 6199,
      "▁sakınca": 6200,
      "▁toparlanma": 6201,
      "▁piz": 6202,
      "▁ekonominin": 6203,
      "ilmedi": 6204,
      "▁suresini": 6205,
      "acak": 6206,
      "▁zih": 6207,
      "▁iliskisini": 6208,
      "alım": 6209,
      "▁got": 6210,
      "gul": 6211,
      "▁baslattı": 6212,
      "▁alması": 6213,
      "enleri": 6214,
      "ukce": 6215,
      "▁kalabalık": 6216,
      "▁yaralan": 6217,
      "▁adalet": 6218,
      "▁aramızda": 6219,
      "3'e": 6220,
      "▁dumana": 6221,
      "▁daya": 6222,
      "enik": 6223,
      "▁basınc": 6224,
      "▁dunyasına": 6225,
      "adın": 6226,
      "▁mucev": 6227,
      "▁salıncak": 6228,
      "▁nisp": 6229,
      "▁oc": 6230,
      "▁sebep": 6231,
      "▁karsıtı": 6232,
      "▁yapt": 6233,
      "alisyon": 6234,
      "▁mısın": 6235,
      "▁aldat": 6236,
      "▁ilcesinde": 6237,
      "▁o": 6238,
      "▁ucreti": 6239,
      "▁hamlede": 6240,
      "lukten": 6241,
      "▁havl": 6242,
      "▁ileride": 6243,
      "▁noktasına": 6244,
      "▁yazın": 6245,
      "▁hikay": 6246,
      "▁lamb": 6247,
      "▁olması": 6248,
      "▁giydi": 6249,
      "▁gidiyorum": 6250,
      "▁degi": 6251,
      "'nde": 6252,
      "▁katalog": 6253,
      "ciger": 6254,
      "erin": 6255,
      "▁hal": 6256,
      "▁hareket": 6257,
      "▁sehrine": 6258,
      "lasma": 6259,
      "▁tereddut": 6260,
      "▁insanlara": 6261,
      "▁cih": 6262,
      "▁roportajda": 6263,
      "▁birincisi": 6264,
      "inle": 6265,
      "▁personeli": 6266,
      "cunun": 6267,
      "▁buyut": 6268,
      "stu": 6269,
      "▁krizinden": 6270,
      "▁cesi": 6271,
      "tigine": 6272,
      "▁helv": 6273,
      "▁fin": 6274,
      "▁burun": 6275,
      "▁ayrıca": 6276,
      "▁baslama": 6277,
      "▁tahammul": 6278,
      "tas": 6279,
      "▁sermaye": 6280,
      "▁yapardı": 6281,
      "▁lav": 6282,
      "omosyon": 6283,
      "etini": 6284,
      "▁rez": 6285,
      "▁gozleriyle": 6286,
      "▁gozet": 6287,
      "▁15": 6288,
      "▁yerdi": 6289,
      "aen": 6290,
      "liyorum": 6291,
      "tc": 6292,
      "▁kanada": 6293,
      "▁finansmanı": 6294,
      "▁sahis": 6295,
      "▁bahc": 6296,
      "▁artıyor": 6297,
      "▁kurulun": 6298,
      "▁borclarını": 6299,
      "katli": 6300,
      "▁gemiler": 6301,
      "▁beklenen": 6302,
      "▁manzarasi": 6303,
      "ıya": 6304,
      "▁keci": 6305,
      "▁sorunla": 6306,
      "▁arkadas": 6307,
      "▁ittifak": 6308,
      "▁rakamları": 6309,
      "▁33": 6310,
      "▁anlar": 6311,
      "▁ri": 6312,
      "▁illet": 6313,
      "▁savundu": 6314,
      "▁degn": 6315,
      "▁artcı": 6316,
      "▁kabil": 6317,
      "ef": 6318,
      "▁na": 6319,
      "▁kosesine": 6320,
      "▁yapılan": 6321,
      "'den": 6322,
      "ındır": 6323,
      "ad": 6324,
      "▁daha": 6325,
      "▁sanal": 6326,
      "​": 6327,
      "▁sirketine": 6328,
      "iyla": 6329,
      "▁hub": 6330,
      "▁igne": 6331,
      "▁yanıl": 6332,
      "▁daireleri": 6333,
      "▁canlı": 6334,
      "▁arayısı": 6335,
      "▁sayılır": 6336,
      "▁tahminle": 6337,
      "▁hikaye": 6338,
      "▁maliyetlerin": 6339,
      "▁cogunu": 6340,
      "▁agab": 6341,
      "ırım": 6342,
      "asından": 6343,
      "lilik": 6344,
      "▁muhafaza": 6345,
      "▁lut": 6346,
      "▁kulu": 6347,
      "lılara": 6348,
      "▁brosur": 6349,
      "ish": 6350,
      "▁abi": 6351,
      "▁daktil": 6352,
      "▁kredinin": 6353,
      ".25": 6354,
      "▁gec": 6355,
      "▁bizden": 6356,
      "▁bakımdan": 6357,
      "▁ail": 6358,
      "mustu": 6359,
      "▁yurtd": 6360,
      "▁evlere": 6361,
      "▁insanoglu": 6362,
      "▁karara": 6363,
      "mıyorum": 6364,
      "▁pazarlarda": 6365,
      "▁pansiyon": 6366,
      "▁i": 6367,
      "▁senar": 6368,
      "▁ekonomistler": 6369,
      "▁12'den": 6370,
      "▁astar": 6371,
      "▁tabancayı": 6372,
      "▁odalarin": 6373,
      "▁kıvr": 6374,
      "▁silah": 6375,
      "layı": 6376,
      "▁ki": 6377,
      "▁yemek": 6378,
      "#": 6379,
      "▁donus": 6380,
      "▁kır": 6381,
      "onom": 6382,
      "lendi": 6383,
      "▁zat": 6384,
      "▁oglak": 6385,
      "▁cokusunden": 6386,
      "▁seyirciler": 6387,
      "▁suyunun": 6388,
      "ima": 6389,
      "▁99": 6390,
      "▁istasyonu": 6391,
      "▁cagır": 6392,
      "▁yıla": 6393,
      "tin": 6394,
      "▁co": 6395,
      "▁soyledi": 6396,
      "▁el": 6397,
      "▁halbu": 6398,
      "▁musunuz": 6399,
      "▁boylu": 6400,
      "▁sın": 6401,
      "▁iceceklerden": 6402,
      "larda": 6403,
      "ulması": 6404,
      "▁bez": 6405,
      "▁yemekten": 6406,
      "▁dallas'tan": 6407,
      "ilerin": 6408,
      "▁satıslarının": 6409,
      "culer": 6410,
      "▁gunlere": 6411,
      "eginde": 6412,
      "▁karıstırın": 6413,
      "ikleri": 6414,
      "▁guzelligini": 6415,
      "▁cagrısı": 6416,
      "▁havası": 6417,
      "▁dava": 6418,
      "▁hayv": 6419,
      "ley": 6420,
      "▁hay": 6421,
      "▁yumus": 6422,
      "▁agzımı": 6423,
      "▁cıkarlarını": 6424,
      "▁babanın": 6425,
      "▁hur": 6426,
      "▁eli": 6427,
      "▁bulan": 6428,
      "▁59": 6429,
      "▁cene": 6430,
      "▁mahalle": 6431,
      "▁birimleri": 6432,
      "apolis": 6433,
      "araya": 6434,
      "▁fotograflar": 6435,
      "ak": 6436,
      "▁mimar": 6437,
      "▁onur": 6438,
      "▁herkesin": 6439,
      "▁ogrenci": 6440,
      "▁etmey": 6441,
      "ıltı": 6442,
      "▁isletmelere": 6443,
      "ble": 6444,
      "▁hizmetlerinin": 6445,
      "▁hareketinin": 6446,
      "▁dos": 6447,
      "▁torbaya": 6448,
      "▁yapı": 6449,
      "▁kof": 6450,
      "▁fırc": 6451,
      "▁kacındı": 6452,
      "▁kutuk": 6453,
      "▁zeytiny": 6454,
      "▁yerlerinde": 6455,
      "ısını": 6456,
      "▁koltuguna": 6457,
      "▁olgun": 6458,
      "▁krok": 6459,
      "i'nin": 6460,
      "▁lirayı": 6461,
      "▁kit": 6462,
      "▁kampanyalar": 6463,
      "▁te": 6464,
      "▁tedarik": 6465,
      "▁ick": 6466,
      "manız": 6467,
      "ahan": 6468,
      "▁bolumu": 6469,
      "▁bebegi": 6470,
      "▁sorunun": 6471,
      "▁asık": 6472,
      "▁konf": 6473,
      "egine": 6474,
      "▁kavga": 6475,
      "▁parmaklarını": 6476,
      "▁bilegini": 6477,
      "▁muamelesi": 6478,
      "▁1985": 6479,
      "▁yardımına": 6480,
      "▁doları": 6481,
      "▁dunyanın": 6482,
      "▁caminin": 6483,
      "▁ticari": 6484,
      "▁kamuoy": 6485,
      "▁degerleri": 6486,
      "▁sıhh": 6487,
      "lah": 6488,
      "cul": 6489,
      "isy": 6490,
      "▁soyledim": 6491,
      "▁atalarımızın": 6492,
      "op": 6493,
      "▁tenek": 6494,
      "▁kıvıl": 6495,
      "45": 6496,
      "▁oldugum": 6497,
      "▁kasaba": 6498,
      "▁vererek": 6499,
      "▁turs": 6500,
      "▁gelen": 6501,
      "▁apart": 6502,
      "▁tutuk": 6503,
      "▁yıg": 6504,
      "▁46": 6505,
      "▁dere": 6506,
      "▁mumu": 6507,
      "▁dukkanları": 6508,
      "▁misali": 6509,
      "va": 6510,
      "▁onunde": 6511,
      "▁biri": 6512,
      "▁sozcu": 6513,
      "▁katkı": 6514,
      "▁fal": 6515,
      "▁sacı": 6516,
      "▁otorite": 6517,
      "▁salonunda": 6518,
      "▁hayaller": 6519,
      "▁isit": 6520,
      "▁1990'": 6521,
      "▁stat": 6522,
      "▁hayalet": 6523,
      "'ı": 6524,
      "ulacak": 6525,
      "▁satıslar": 6526,
      "▁iltif": 6527,
      "▁gecimini": 6528,
      "▁dol": 6529,
      "▁teklifi": 6530,
      "▁gormedim": 6531,
      "▁evin": 6532,
      "ilmesini": 6533,
      "ıcısı": 6534,
      "▁gercekte": 6535,
      "▁kopuk": 6536,
      "▁havayolları'nın": 6537,
      "▁sıcagı": 6538,
      "▁kravat": 6539,
      "▁hap": 6540,
      "▁bakıcı": 6541,
      "▁ayık": 6542,
      "▁islerde": 6543,
      "ucu": 6544,
      "▁doları'nda": 6545,
      "▁ortalaması": 6546,
      "▁fonun": 6547,
      "▁sirketinin": 6548,
      "▁hoslan": 6549,
      "▁guzelligin": 6550,
      "▁bany": 6551,
      "▁durak": 6552,
      "suzlugu": 6553,
      "ia": 6554,
      "▁ertelen": 6555,
      "▁tadima": 6556,
      "▁buf": 6557,
      "▁sizin": 6558,
      "ladılar": 6559,
      "▁fiyata": 6560,
      "▁topragın": 6561,
      "inin": 6562,
      "for": 6563,
      "ardan": 6564,
      "muslar": 6565,
      "▁alanında": 6566,
      "▁nedenlerle": 6567,
      "▁prensip": 6568,
      "▁basvur": 6569,
      "▁ali": 6570,
      "▁fazl": 6571,
      "▁dovus": 6572,
      "▁bekl": 6573,
      "▁olcum": 6574,
      "endi": 6575,
      "▁etmeli": 6576,
      "▁icimi": 6577,
      "▁kalabal": 6578,
      "▁cakmak": 6579,
      "▁gunune": 6580,
      "▁surgun": 6581,
      "ettir": 6582,
      "▁mikro": 6583,
      "▁kagıdı": 6584,
      "bek": 6585,
      "ifer": 6586,
      "▁yemeklerden": 6587,
      "▁olcu": 6588,
      "▁gorevlisi": 6589,
      "lan": 6590,
      "▁siparisini": 6591,
      "nak": 6592,
      "▁kıraat": 6593,
      "▁olmus": 6594,
      "▁atların": 6595,
      "▁telefona": 6596,
      "orma": 6597,
      "▁sahip": 6598,
      "▁fasul": 6599,
      "▁ideal": 6600,
      "▁futbol": 6601,
      "yoz": 6602,
      "▁kemanla": 6603,
      "▁telefonun": 6604,
      "▁yatır": 6605,
      "▁tezker": 6606,
      "▁gucle": 6607,
      "ayık": 6608,
      "▁van": 6609,
      "▁suk": 6610,
      "▁direnc": 6611,
      "▁ucte": 6612,
      "▁aldıgı": 6613,
      "iyatr": 6614,
      "▁duk": 6615,
      "▁yılan": 6616,
      "▁sonradan": 6617,
      "▁kaz": 6618,
      "▁yukselerek": 6619,
      "▁tanıklık": 6620,
      "▁kendinize": 6621,
      "emsiz": 6622,
      "▁yatagında": 6623,
      "tili": 6624,
      "▁dukkan": 6625,
      "▁basının": 6626,
      "▁geldig": 6627,
      "▁orijinal": 6628,
      "▁maliye": 6629,
      "▁degisti": 6630,
      "▁yansı": 6631,
      "▁doruk": 6632,
      "▁onem": 6633,
      "▁ucretini": 6634,
      "▁arazi": 6635,
      "▁bah": 6636,
      "▁patates": 6637,
      "▁yuregini": 6638,
      "▁kararına": 6639,
      "▁sene": 6640,
      "lanıp": 6641,
      "masıyla": 6642,
      "▁yolları": 6643,
      "▁depol": 6644,
      "lılıg": 6645,
      "mız": 6646,
      "▁degilim": 6647,
      "lesinin": 6648,
      "▁faturam": 6649,
      "ilya": 6650,
      "▁basbakan": 6651,
      "▁metni": 6652,
      "amıza": 6653,
      "▁dogrultusunda": 6654,
      "▁editor": 6655,
      "▁yan": 6656,
      "▁bahan": 6657,
      "▁operator": 6658,
      "▁avize": 6659,
      "▁redd": 6660,
      "▁ydım": 6661,
      "▁gitti": 6662,
      "▁dini": 6663,
      "▁uygun": 6664,
      "▁yenilg": 6665,
      "▁kabin": 6666,
      "▁camasırları": 6667,
      "▁ustalık": 6668,
      "▁birbir": 6669,
      "▁hastaları": 6670,
      "ver": 6671,
      "▁yard": 6672,
      "▁sıvı": 6673,
      "▁has": 6674,
      "▁postacı": 6675,
      "▁reasurans": 6676,
      "dur": 6677,
      "▁nereye": 6678,
      "enler": 6679,
      "▁enerj": 6680,
      "▁beni": 6681,
      "▁okuz": 6682,
      "ku": 6683,
      "▁pazarlam": 6684,
      "arlar": 6685,
      "a": 6686,
      "▁senat": 6687,
      "▁kazanarak": 6688,
      "▁tanesi": 6689,
      "▁business": 6690,
      "arılı": 6691,
      "ıver": 6692,
      "▁gulu": 6693,
      "▁romat": 6694,
      "ence": 6695,
      "▁vazgec": 6696,
      "▁kıyaslandıgında": 6697,
      "▁heyeti": 6698,
      "cuları": 6699,
      "cilerinin": 6700,
      "▁otellerden": 6701,
      "▁be": 6702,
      "▁jand": 6703,
      "▁genelinde": 6704,
      "▁donanım": 6705,
      "diler": 6706,
      "▁hissede": 6707,
      "▁alnında": 6708,
      "▁abd": 6709,
      "▁faal": 6710,
      "yıf": 6711,
      "▁ric": 6712,
      "▁akr": 6713,
      "▁saygısız": 6714,
      "▁analist": 6715,
      "▁olayı": 6716,
      "ami": 6717,
      "▁sarımsak": 6718,
      "▁yenil": 6719,
      "▁hain": 6720,
      "hn": 6721,
      "tıras": 6722,
      "▁ilgisini": 6723,
      "▁kurumları": 6724,
      "▁tarihine": 6725,
      "▁gokyuzu": 6726,
      "▁havay": 6727,
      "▁sunuyor": 6728,
      "▁derecede": 6729,
      "▁hakkı": 6730,
      "▁tahminleri": 6731,
      "▁tank": 6732,
      "▁topuk": 6733,
      "▁olmak": 6734,
      "▁cok": 6735,
      "▁akar": 6736,
      "▁yuzyılda": 6737,
      "▁kurulunu": 6738,
      "▁nakliy": 6739,
      "▁arkadaslarından": 6740,
      "+": 6741,
      "atır": 6742,
      "tır": 6743,
      "imlari": 6744,
      "▁turkiye": 6745,
      "▁numaralı": 6746,
      "▁3.3": 6747,
      "▁saun": 6748,
      "▁milwa": 6749,
      "▁minibus": 6750,
      "▁sogu": 6751,
      "▁taz": 6752,
      "▁meydan": 6753,
      "▁reak": 6754,
      "▁sesinin": 6755,
      "▁bilgisayarlarının": 6756,
      "▁isinde": 6757,
      "▁arkasında": 6758,
      "▁jo": 6759,
      "ludur": 6760,
      "6'da": 6761,
      "▁manzum": 6762,
      "▁klasik": 6763,
      "▁kisisi": 6764,
      "▁cıkmam": 6765,
      "▁ilacı": 6766,
      "▁tuketiciler": 6767,
      "▁mademki": 6768,
      "▁yild": 6769,
      "▁artırmaya": 6770,
      "▁boston": 6771,
      "▁soldan": 6772,
      "▁neticesinde": 6773,
      "▁yurdun": 6774,
      "▁hıc": 6775,
      "▁indirimlerden": 6776,
      "▁chat": 6777,
      "▁iliskilerinde": 6778,
      "▁olarak": 6779,
      "▁dallas'ta": 6780,
      "▁del": 6781,
      "▁sicakti": 6782,
      "▁veya": 6783,
      "▁sozcugu": 6784,
      "▁cam": 6785,
      "▁sıkıntıya": 6786,
      "▁ekonomik": 6787,
      "▁mizah": 6788,
      "dandı": 6789,
      "ıh": 6790,
      "miyordu": 6791,
      "▁birkacı": 6792,
      "ilerle": 6793,
      "▁kalp": 6794,
      "▁yemeklerde": 6795,
      "▁gezeg": 6796,
      "5$": 6797,
      "▁bildi": 6798,
      "▁5'ten": 6799,
      "▁ulasımını": 6800,
      "acaktır": 6801,
      "alarıyla": 6802,
      "por": 6803,
      "▁acmıs": 6804,
      "▁yavas": 6805,
      "acının": 6806,
      "ate": 6807,
      "▁geliri": 6808,
      "▁ascı": 6809,
      "▁dunku": 6810,
      "▁cabası": 6811,
      "▁mat": 6812,
      "▁atat": 6813,
      "▁odaya": 6814,
      "▁farz": 6815,
      "▁aygıt": 6816,
      "▁uyum": 6817,
      "lasmıstı": 6818,
      "ij": 6819,
      "▁islem": 6820,
      "▁rakipleri": 6821,
      "cb": 6822,
      "▁hob": 6823,
      "▁duyguların": 6824,
      "tırmak": 6825,
      "▁iyiligini": 6826,
      "▁amerikalıların": 6827,
      "▁telef": 6828,
      "▁sit": 6829,
      "▁zekası": 6830,
      "▁oturan": 6831,
      "▁miy": 6832,
      "▁dısar": 6833,
      "cil": 6834,
      "▁kaldik": 6835,
      "▁turizm": 6836,
      "mam": 6837,
      "▁ederim": 6838,
      "▁yapıyor": 6839,
      "ındık": 6840,
      "melere": 6841,
      "▁hamuru": 6842,
      "▁hediy": 6843,
      "▁kosk": 6844,
      "vil": 6845,
      "▁kahkah": 6846,
      "itre": 6847,
      "rne": 6848,
      "▁dolandırıcılık": 6849,
      "el": 6850,
      "▁materyalizm": 6851,
      "▁sus": 6852,
      "▁cesaret": 6853,
      "▁di": 6854,
      "isim": 6855,
      "▁kararı": 6856,
      "▁aqua": 6857,
      "▁gozyas": 6858,
      "▁karsıma": 6859,
      "▁had": 6860,
      "▁yapamaz": 6861,
      "▁oncelikle": 6862,
      "▁soyleyebilir": 6863,
      "▁serveti": 6864,
      "▁sepet": 6865,
      "▁huzur": 6866,
      "▁asırı": 6867,
      "▁verilmesi": 6868,
      "▁vapurun": 6869,
      "▁nufuz": 6870,
      "▁basla": 6871,
      "▁kıvılcım": 6872,
      "▁toplu": 6873,
      "▁uyar": 6874,
      "▁aquaparki": 6875,
      "▁yana": 6876,
      "alarına": 6877,
      "▁she": 6878,
      "▁duygusal": 6879,
      "urt": 6880,
      "▁leble": 6881,
      "▁kurallarına": 6882,
      "▁dalgın": 6883,
      "▁karsilama": 6884,
      "▁georg": 6885,
      "▁guven": 6886,
      "umuz": 6887,
      "▁say": 6888,
      "lıgım": 6889,
      "▁pasaj": 6890,
      "dıklarını": 6891,
      "▁munasebet": 6892,
      "emli": 6893,
      "uncu": 6894,
      "▁ofk": 6895,
      "▁ihtiyat": 6896,
      "teye": 6897,
      "▁kısmet": 6898,
      "▁lokma": 6899,
      "▁balık": 6900,
      "▁first": 6901,
      "▁sıfır": 6902,
      "uverdi": 6903,
      "▁konsol": 6904,
      "▁senden": 6905,
      "ari": 6906,
      "▁beach": 6907,
      "abını": 6908,
      "▁top": 6909,
      "▁satıslarını": 6910,
      "▁dolayi": 6911,
      "▁oteller": 6912,
      "▁tekerlek": 6913,
      "▁kızının": 6914,
      "▁uzakti": 6915,
      "▁arabasına": 6916,
      "▁cıkması": 6917,
      "▁tazminat": 6918,
      "esti": 6919,
      "▁bayragını": 6920,
      "▁boru": 6921,
      "elim": 6922,
      "▁lanet": 6923,
      "▁mecl": 6924,
      "▁ureticilerinin": 6925,
      "▁yetkililer": 6926,
      "cileri": 6927,
      "▁elektr": 6928,
      "cılı": 6929,
      "▁cambaz": 6930,
      "ers": 6931,
      "ıgının": 6932,
      "unden": 6933,
      "▁kibr": 6934,
      "▁halihazırda": 6935,
      "▁cogun": 6936,
      "▁alımına": 6937,
      "medi": 6938,
      "▁musabak": 6939,
      "▁besin": 6940,
      "'u": 6941,
      "a'nın": 6942,
      "▁sef": 6943,
      "▁kosullar": 6944,
      "tiklerini": 6945,
      "▁konumu": 6946,
      "▁biliyoruz": 6947,
      "▁giden": 6948,
      "▁7.9": 6949,
      "▁seg": 6950,
      "▁hissesine": 6951,
      "▁sev": 6952,
      "▁karp": 6953,
      "▁astr": 6954,
      "▁varlıgın": 6955,
      "▁erkeklere": 6956,
      "▁adinaydi": 6957,
      "▁ozel": 6958,
      "layacak": 6959,
      "▁197": 6960,
      "▁%1": 6961,
      "▁kullandı": 6962,
      "▁oburune": 6963,
      "▁aclıktan": 6964,
      "▁otoy": 6965,
      "inde": 6966,
      "▁gelmedi": 6967,
      "▁as": 6968,
      "▁simdiye": 6969,
      "▁seans": 6970,
      "▁yatırımları": 6971,
      "▁sarmas": 6972,
      "▁rahip": 6973,
      "▁kumastan": 6974,
      "alog": 6975,
      "▁gerekiyordu": 6976,
      "▁tencere": 6977,
      "oloj": 6978,
      "▁nu": 6979,
      "▁3\\/4": 6980,
      "▁temel": 6981,
      "lular": 6982,
      "▁lu": 6983,
      "▁yat": 6984,
      "▁195": 6985,
      "▁ikin": 6986,
      "▁tit": 6987,
      "▁savunma": 6988,
      "ekler": 6989,
      "▁dav": 6990,
      "▁corp": 6991,
      "gırak": 6992,
      "ıntıları": 6993,
      "▁merte": 6994,
      "▁suph": 6995,
      "▁milletinin": 6996,
      "luk": 6997,
      "▁odalarında": 6998,
      "▁akımı": 6999,
      "▁iceriye": 7000,
      "▁plastik": 7001,
      "▁guvertede": 7002,
      "▁feo": 7003,
      "▁sonuclarının": 7004,
      "▁yanisi": 7005,
      "▁durumunda": 7006,
      "▁ebeveynler": 7007,
      "arif": 7008,
      "ited": 7009,
      "▁masrafları": 7010,
      "▁cogunlugu": 7011,
      "▁karsılık": 7012,
      "▁haziranda": 7013,
      "▁bircok": 7014,
      "▁ruzg": 7015,
      "▁ikna": 7016,
      "▁dc": 7017,
      "▁apıs": 7018,
      "▁gidecek": 7019,
      "▁ikinci": 7020,
      "magını": 7021,
      "ıgında": 7022,
      "lerisi": 7023,
      "▁dizay": 7024,
      "▁cezası": 7025,
      "▁newark'a": 7026,
      "▁cincinnati": 7027,
      "▁vapur": 7028,
      "▁islerin": 7029,
      "imdi": 7030,
      "▁faizleri": 7031,
      "▁carptı": 7032,
      "▁birinc": 7033,
      "▁cikolat": 7034,
      "▁firma": 7035,
      "▁yararlı": 7036,
      "▁olanaklarını": 7037,
      "tanın": 7038,
      "▁uzerindeydi": 7039,
      "ırlar": 7040,
      "▁gecenin": 7041,
      "▁altı": 7042,
      "lardaki": 7043,
      "▁romatizm": 7044,
      "▁tesaduf": 7045,
      "▁usul": 7046,
      "▁hacim": 7047,
      "▁saygıyla": 7048,
      "▁kapı": 7049,
      "▁feslegen": 7050,
      "▁kaymakam": 7051,
      "iski": 7052,
      "imizle": 7053,
      "iyorsun": 7054,
      "▁davranısları": 7055,
      "luluk": 7056,
      "▁koalisyon": 7057,
      "tmek": 7058,
      "▁ayak": 7059,
      "etro": 7060,
      "▁kesmek": 7061,
      "▁olanı": 7062,
      "▁delikten": 7063,
      "▁koseyi": 7064,
      "80": 7065,
      "▁1\\/8": 7066,
      "▁mehmet": 7067,
      "▁halleri": 7068,
      "▁musteri": 7069,
      "▁kilise": 7070,
      "▁bizler": 7071,
      "desi": 7072,
      "▁yurudu": 7073,
      "meniz": 7074,
      "▁civarı": 7075,
      "abet": 7076,
      "sında": 7077,
      "▁north": 7078,
      "lı": 7079,
      "▁darb": 7080,
      "umda": 7081,
      "▁yasaların": 7082,
      "▁varsay": 7083,
      "▁mahsus": 7084,
      "▁hastalıgı": 7085,
      "▁konunun": 7086,
      "▁leh": 7087,
      "▁bedel": 7088,
      "▁beyaz": 7089,
      "▁acısından": 7090,
      "▁urk": 7091,
      "▁devrimi": 7092,
      "▁10'dan": 7093,
      "sam": 7094,
      "▁onc": 7095,
      "▁guvence": 7096,
      "▁onun": 7097,
      "▁yen": 7098,
      "niz": 7099,
      "▁kuvvetli": 7100,
      "▁bilgiye": 7101,
      "▁iscilerin": 7102,
      "▁zember": 7103,
      "▁odalar": 7104,
      "▁cincinnati'den": 7105,
      "▁eczan": 7106,
      "▁hibe": 7107,
      "▁yonetim": 7108,
      "▁tutun": 7109,
      "▁tavırla": 7110,
      "▁dokundu": 7111,
      "slı": 7112,
      "▁onculuk": 7113,
      "▁ucmak": 7114,
      "elleri": 7115,
      "luye": 7116,
      "eledi": 7117,
      "▁koruması": 7118,
      "▁ellerini": 7119,
      "▁vermez": 7120,
      "▁sozunu": 7121,
      "▁boyutu": 7122,
      "bir": 7123,
      "▁yapr": 7124,
      "▁hareketle": 7125,
      "▁ceyr": 7126,
      "ge": 7127,
      "▁kisilerin": 7128,
      "▁sevin": 7129,
      "▁yapıldıgını": 7130,
      "▁yeraltı": 7131,
      "▁iftir": 7132,
      "▁artısları": 7133,
      "▁portakal": 7134,
      "▁%70'": 7135,
      "▁post": 7136,
      "▁duruyordu": 7137,
      "cagıza": 7138,
      "akat": 7139,
      "▁stratejisi": 7140,
      "▁calıs": 7141,
      "▁havayolları": 7142,
      "▁yeme": 7143,
      "▁eklen": 7144,
      "amaya": 7145,
      "▁veril": 7146,
      "nla": 7147,
      "▁geriledi": 7148,
      "▁istim": 7149,
      "▁artı": 7150,
      "▁kostur": 7151,
      "▁pirinc": 7152,
      "▁basbakanı": 7153,
      "▁elemanlar": 7154,
      "▁azaltma": 7155,
      "▁yansıttıgını": 7156,
      "▁eski": 7157,
      "▁zabit": 7158,
      "`": 7159,
      "▁gom": 7160,
      "▁bırak": 7161,
      "▁goruyoruz": 7162,
      "▁ibret": 7163,
      "▁lev": 7164,
      "▁gunahı": 7165,
      "▁sefi": 7166,
      "▁dayım": 7167,
      "▁baglı": 7168,
      "▁dustugunu": 7169,
      "▁domatesleri": 7170,
      "▁renkleri": 7171,
      "meyle": 7172,
      "▁aydan": 7173,
      "▁aylık": 7174,
      "umun": 7175,
      "gısını": 7176,
      "▁nazar": 7177,
      "▁sitem": 7178,
      "▁baksana": 7179,
      "▁kalabalıgın": 7180,
      "▁cografy": 7181,
      "lanmıstı": 7182,
      "▁farklılık": 7183,
      "artesi": 7184,
      "▁tahminler": 7185,
      "▁bilanc": 7186,
      "unde": 7187,
      "▁fersah": 7188,
      "▁cevabını": 7189,
      "▁bahcesinde": 7190,
      "▁19": 7191,
      "ttı": 7192,
      "▁yalnızca": 7193,
      "▁kampanya": 7194,
      "▁surpr": 7195,
      "inti": 7196,
      "▁cıkardı": 7197,
      "▁asagılık": 7198,
      "telik": 7199,
      "▁ert": 7200,
      "ner": 7201,
      "▁korkut": 7202,
      "▁meydanı": 7203,
      "▁ib": 7204,
      "▁reis": 7205,
      "dip": 7206,
      "mıstır": 7207,
      "▁nane": 7208,
      "▁tursu": 7209,
      "▁yun": 7210,
      "▁pad": 7211,
      "▁med": 7212,
      "▁olacaktı": 7213,
      "▁vermektedir": 7214,
      "▁bahsediyor": 7215,
      "malıyız": 7216,
      "▁padisah": 7217,
      "▁verici": 7218,
      "▁sahtek": 7219,
      "▁topraga": 7220,
      "▁lin": 7221,
      "tim": 7222,
      "▁fotograf": 7223,
      "▁masaya": 7224,
      "▁kazancları": 7225,
      "▁suik": 7226,
      "▁ens": 7227,
      "▁gitmek": 7228,
      "▁altında": 7229,
      "▁ytl": 7230,
      "ıstır": 7231,
      "atı": 7232,
      "▁nice": 7233,
      "▁ırmak": 7234,
      "▁varlıgı": 7235,
      "gumuz": 7236,
      "▁yukselisle": 7237,
      "larımda": 7238,
      "▁yatırımcıların": 7239,
      "▁bodrum": 7240,
      "maca": 7241,
      "▁hosumuza": 7242,
      "▁coktu": 7243,
      "mul": 7244,
      "▁isletme": 7245,
      "▁telgraf": 7246,
      "▁hastanın": 7247,
      "ekt": 7248,
      "▁piyasasını": 7249,
      "▁garanti": 7250,
      "▁cıktısı": 7251,
      "▁arkadaslarıyla": 7252,
      "▁tanıtım": 7253,
      "▁kr": 7254,
      "▁sirketten": 7255,
      "ganlık": 7256,
      "▁yardımcıs": 7257,
      "▁sarayın": 7258,
      "▁analizi": 7259,
      "ahat": 7260,
      "arda": 7261,
      "▁dern": 7262,
      "▁ayagını": 7263,
      "elerim": 7264,
      "imleri": 7265,
      "▁taksim": 7266,
      "ılmak": 7267,
      "▁iskonto": 7268,
      "▁gerekir": 7269,
      "▁sizden": 7270,
      "▁ramaz": 7271,
      "▁yazma": 7272,
      "▁haberdar": 7273,
      "▁pasif": 7274,
      "▁teknenin": 7275,
      "▁cebinden": 7276,
      "yor": 7277,
      "eciye": 7278,
      "aması": 7279,
      "▁belirtmek": 7280,
      "artım": 7281,
      "▁performansı": 7282,
      "▁kadında": 7283,
      "▁keman": 7284,
      "ir": 7285,
      "cagı": 7286,
      "▁ulasımı": 7287,
      "▁finc": 7288,
      "atları": 7289,
      "▁mimarlık": 7290,
      "▁olmadıgını": 7291,
      "▁reorgan": 7292,
      "▁programına": 7293,
      "▁cesitli": 7294,
      "▁ceyreginde": 7295,
      "▁kara": 7296,
      "alam": 7297,
      "▁musterilerini": 7298,
      "5'e": 7299,
      "▁u": 7300,
      "mistim": 7301,
      "▁gorusu": 7302,
      "larından": 7303,
      "▁ucuna": 7304,
      "▁soru": 7305,
      "▁donemde": 7306,
      "▁izleme": 7307,
      "lanacak": 7308,
      "▁rahatsızlık": 7309,
      "▁aslına": 7310,
      "▁kiler": 7311,
      "▁derec": 7312,
      "▁kosullarda": 7313,
      "ustr": 7314,
      "arında": 7315,
      "▁dallas'a": 7316,
      "▁turlu": 7317,
      "▁okullar": 7318,
      "▁haket": 7319,
      "▁cizgisini": 7320,
      "'nda": 7321,
      "▁yaslarında": 7322,
      "▁temeller": 7323,
      "ımın": 7324,
      "▁arkadan": 7325,
      "▁cekmec": 7326,
      "▁doldur": 7327,
      "▁unvan": 7328,
      "▁ulasimi": 7329,
      "▁kurum": 7330,
      "▁marka": 7331,
      "▁damla": 7332,
      "▁bahar": 7333,
      "▁1.9": 7334,
      "▁degirmen": 7335,
      "▁vermisti": 7336,
      "aket": 7337,
      "▁kitapların": 7338,
      "▁tasarrufu": 7339,
      "▁kurulunun": 7340,
      "▁yanda": 7341,
      "▁goz": 7342,
      "agoz": 7343,
      "▁iftih": 7344,
      "ler": 7345,
      "▁iy": 7346,
      "▁keh": 7347,
      "▁diler": 7348,
      "00": 7349,
      "▁kısın": 7350,
      "▁ihtiy": 7351,
      "▁gru": 7352,
      "ıyı": 7353,
      "▁dl": 7354,
      "▁klor": 7355,
      "▁yerlesim": 7356,
      "▁universiteden": 7357,
      "imde": 7358,
      "anta": 7359,
      "▁belki": 7360,
      "▁akrep": 7361,
      "▁ziyaret": 7362,
      "▁reng": 7363,
      "▁kuyr": 7364,
      "▁basbakanlık": 7365,
      "▁sizler": 7366,
      "▁havalimanı": 7367,
      "bilir": 7368,
      "lig": 7369,
      "tane": 7370,
      "▁kanunlar": 7371,
      "▁nicin": 7372,
      "▁demiryol": 7373,
      "▁kasla": 7374,
      "sak": 7375,
      "▁hakaret": 7376,
      "▁ederek": 7377,
      "▁rap": 7378,
      "lugundan": 7379,
      "▁sofr": 7380,
      "izlik": 7381,
      "kırı": 7382,
      "▁mar": 7383,
      "▁tabi": 7384,
      "▁ihtilal": 7385,
      "▁olmasına": 7386,
      "ida": 7387,
      "▁korkusu": 7388,
      "▁memuru": 7389,
      "▁adamların": 7390,
      "▁ve": 7391,
      "▁basımıza": 7392,
      "▁destegini": 7393,
      "▁anlatım": 7394,
      "▁ortalamasından": 7395,
      "lant": 7396,
      "▁milletten": 7397,
      "ım": 7398,
      "▁duser": 7399,
      "▁arkadasları": 7400,
      "akar": 7401,
      "▁bankası": 7402,
      "qu": 7403,
      "▁final": 7404,
      "izde": 7405,
      "▁cember": 7406,
      "ini": 7407,
      "▁reklamları": 7408,
      "▁hayatı": 7409,
      "▁pahali": 7410,
      "uyu": 7411,
      "▁yadigar": 7412,
      "▁varsa": 7413,
      "▁gozle": 7414,
      "mus": 7415,
      "▁buz": 7416,
      "▁kal": 7417,
      "▁askı": 7418,
      "▁gelistirme": 7419,
      "▁ihrac": 7420,
      "5'ten": 7421,
      "id": 7422,
      "▁sıkıntı": 7423,
      "▁:": 7424,
      "▁fiz": 7425,
      "▁ucunu": 7426,
      "ılıgına": 7427,
      "▁bahceleri": 7428,
      "emedi": 7429,
      "layalım": 7430,
      "▁dorduncu": 7431,
      "▁deney": 7432,
      "▁edilmisti": 7433,
      "▁aksi": 7434,
      "kus": 7435,
      "▁dak": 7436,
      "cilerin": 7437,
      "▁cesitler": 7438,
      "▁etkisiyle": 7439,
      "▁sistemin": 7440,
      "▁sonucların": 7441,
      "▁uyk": 7442,
      "▁temizlik": 7443,
      "▁takımı": 7444,
      "▁bırakır": 7445,
      "▁icat": 7446,
      "▁34": 7447,
      "▁reisi": 7448,
      "▁mahkumu": 7449,
      "▁zararı": 7450,
      "▁hıckırık": 7451,
      "▁doların": 7452,
      "▁otelde": 7453,
      "▁seninle": 7454,
      "▁pencereye": 7455,
      "▁biliyor": 7456,
      "▁ticaret": 7457,
      "madı": 7458,
      "▁calısanlar": 7459,
      "▁kasıgı": 7460,
      "▁arastırmada": 7461,
      "larınızla": 7462,
      "▁veterin": 7463,
      "▁basladılar": 7464,
      "▁cif": 7465,
      "▁menf": 7466,
      "msal": 7467,
      "▁baskısı": 7468,
      "▁kalkın": 7469,
      "ılgan": 7470,
      "ileri": 7471,
      "▁olumsuzluk": 7472,
      "▁kapıyı": 7473,
      "▁kaybedenleri": 7474,
      "▁etmeye": 7475,
      "stır": 7476,
      "▁surecini": 7477,
      "▁izlen": 7478,
      "▁gole": 7479,
      "ilecegi": 7480,
      "▁anlatır": 7481,
      "▁pl": 7482,
      "emir": 7483,
      "▁muhac": 7484,
      "▁eyaleti": 7485,
      "▁prens": 7486,
      "▁umut": 7487,
      "▁yesil": 7488,
      "▁bekleme": 7489,
      "▁talebinin": 7490,
      "▁heykel": 7491,
      "▁sirketler": 7492,
      "▁mız": 7493,
      "▁isinin": 7494,
      "▁gem": 7495,
      "▁&": 7496,
      "▁ihtimalle": 7497,
      "▁eklem": 7498,
      "▁hareketini": 7499,
      ".7": 7500,
      "iyeleri": 7501,
      "▁ustune": 7502,
      "bol": 7503,
      "▁bagladı": 7504,
      "▁bulasık": 7505,
      "▁babaları": 7506,
      "▁kendimize": 7507,
      "▁kati": 7508,
      "▁sinema": 7509,
      "▁oku": 7510,
      "▁cıkınca": 7511,
      "▁dagıt": 7512,
      "meden": 7513,
      "▁acıklamayı": 7514,
      "▁yankı": 7515,
      "▁calisirim": 7516,
      "imizda": 7517,
      "▁potansiy": 7518,
      "▁almıstı": 7519,
      "▁ciftciler": 7520,
      "▁qx": 7521,
      "lıktan": 7522,
      "▁adımlar": 7523,
      "▁limuzin": 7524,
      "dik": 7525,
      "▁kenara": 7526,
      "▁hayata": 7527,
      "erik": 7528,
      "aldı": 7529,
      "istel": 7530,
      "▁beklentim": 7531,
      "meyi": 7532,
      "▁arz": 7533,
      "▁surum": 7534,
      "▁taze": 7535,
      "inda": 7536,
      "ı": 7537,
      "▁bıcakla": 7538,
      "▁onumuz": 7539,
      "▁harca": 7540,
      "▁perdeden": 7541,
      "▁buyukelci": 7542,
      "▁kucagına": 7543,
      "ılmasını": 7544,
      "▁esitlik": 7545,
      "ken": 7546,
      "▁vil": 7547,
      "▁aktiviteleri": 7548,
      "▁zevkimize": 7549,
      "▁kahvesi": 7550,
      "▁tasarısı": 7551,
      "usunden": 7552,
      "alarında": 7553,
      "▁cekildi": 7554,
      "▁fez": 7555,
      "▁takdim": 7556,
      "▁sıkı": 7557,
      "lastik": 7558,
      "enili": 7559,
      "▁bazi": 7560,
      "▁kas": 7561,
      "▁sms": 7562,
      "▁banyo": 7563,
      "kine": 7564,
      "ebiliriz": 7565,
      "▁seyahat": 7566,
      "▁lahana": 7567,
      "▁hakkında": 7568,
      "▁levh": 7569,
      "▁agacların": 7570,
      "▁muhakkak": 7571,
      "makt": 7572,
      "▁ku": 7573,
      "▁basit": 7574,
      "▁esyalarını": 7575,
      "▁niyeti": 7576,
      "lest": 7577,
      "▁opsiyonu": 7578,
      "▁paydos": 7579,
      "▁tuttu": 7580,
      "▁kılav": 7581,
      "▁bahsetti": 7582,
      "▁ucretlerin": 7583,
      "▁mey": 7584,
      "▁bilgiler": 7585,
      "▁les": 7586,
      "▁olanaklarini": 7587,
      "▁tadina": 7588,
      "istir": 7589,
      "▁sevdi": 7590,
      "▁arkadaslarına": 7591,
      "uyla": 7592,
      "▁boyut": 7593,
      "▁ruyasında": 7594,
      "▁raf": 7595,
      "▁bunlara": 7596,
      "▁tasarruf": 7597,
      "▁kacır": 7598,
      "▁yorgan": 7599,
      "im": 7600,
      "▁gali": 7601,
      "▁degiller": 7602,
      "oeni": 7603,
      "▁pilavı": 7604,
      "▁baslar": 7605,
      "▁fon": 7606,
      "▁kahveler": 7607,
      "▁300": 7608,
      "▁sabahı": 7609,
      "▁mamafi": 7610,
      "▁belirtiyor": 7611,
      "▁ıcı": 7612,
      "▁getirmeye": 7613,
      "▁mide": 7614,
      ":": 7615,
      "esine": 7616,
      "ihan": 7617,
      "▁yarat": 7618,
      "▁sayılı": 7619,
      "▁sıtma": 7620,
      "4": 7621,
      "▁bulus": 7622,
      "▁verdik": 7623,
      "▁almanlar": 7624,
      "▁analizciler": 7625,
      "▁avukatı": 7626,
      "▁harcamaları": 7627,
      "▁yakıt": 7628,
      "▁cıkmaya": 7629,
      "▁sınav": 7630,
      "▁trak": 7631,
      "▁gozunu": 7632,
      "▁8'den": 7633,
      "deri": 7634,
      "▁askeri": 7635,
      "▁hit": 7636,
      "▁ozelligi": 7637,
      "▁calısanı": 7638,
      "ht": 7639,
      "▁yara": 7640,
      "▁havadan": 7641,
      "▁calısanların": 7642,
      "▁sebebiyle": 7643,
      "iklerin": 7644,
      "▁kimligini": 7645,
      "▁diren": 7646,
      "▁harmanı": 7647,
      "briy": 7648,
      "▁gozum": 7649,
      "▁karsılastırıldıgında": 7650,
      "lasının": 7651,
      "▁deyip": 7652,
      "istim": 7653,
      "▁defasında": 7654,
      "leyi": 7655,
      "▁pisti": 7656,
      "▁clas": 7657,
      "▁odamın": 7658,
      "lanıyor": 7659,
      "▁tren": 7660,
      "▁gerilim": 7661,
      "▁yum": 7662,
      "▁org": 7663,
      "▁yandı": 7664,
      "▁politikaya": 7665,
      "▁ofke": 7666,
      "▁erkege": 7667,
      "▁simsek": 7668,
      "▁ye": 7669,
      "mamıstı": 7670,
      "▁erken": 7671,
      "▁ugras": 7672,
      "▁onlemek": 7673,
      "▁kostu": 7674,
      "▁.)": 7675,
      "▁guclu": 7676,
      "▁kalan": 7677,
      "▁ucmam": 7678,
      "▁gectigimiz": 7679,
      "acılar": 7680,
      "▁istis": 7681,
      "▁columb": 7682,
      "▁revizyon": 7683,
      "▁ger": 7684,
      "lamıstır": 7685,
      "▁pırıl": 7686,
      "▁birinci": 7687,
      "▁sofor": 7688,
      "▁guzellikleri": 7689,
      "▁tic": 7690,
      "leri": 7691,
      "▁kıta": 7692,
      "bilecegini": 7693,
      "▁saf": 7694,
      "▁yapıların": 7695,
      "▁ruhundan": 7696,
      "▁22": 7697,
      "makıllı": 7698,
      "▁ik": 7699,
      "▁marif": 7700,
      "▁yog": 7701,
      "▁sezlong": 7702,
      "▁sahib": 7703,
      "br": 7704,
      "▁7'de": 7705,
      "▁aktivite": 7706,
      "andev": 7707,
      "▁masasının": 7708,
      "▁umdugunu": 7709,
      "▁skandal": 7710,
      "▁tın": 7711,
      "▁pitts": 7712,
      "▁badan": 7713,
      "▁doz": 7714,
      "▁secmen": 7715,
      "▁ihracı": 7716,
      "▁ceza": 7717,
      "▁yanak": 7718,
      "▁yıllara": 7719,
      "▁neler": 7720,
      "▁karısı": 7721,
      "▁takımının": 7722,
      "▁merdiv": 7723,
      "▁olag": 7724,
      "leriyle": 7725,
      "11": 7726,
      "▁stad": 7727,
      "▁topa": 7728,
      "▁stratejiler": 7729,
      "ciler": 7730,
      "▁birisi": 7731,
      "▁ucusunuz": 7732,
      "▁gozunde": 7733,
      "▁ocagı": 7734,
      "▁nakit": 7735,
      "▁sper": 7736,
      "▁yapıyorlar": 7737,
      "cek": 7738,
      "▁cocukları": 7739,
      "▁liradan": 7740,
      "▁giysiler": 7741,
      "▁yoneticisi": 7742,
      "▁zeka": 7743,
      "▁gorusmeyi": 7744,
      "ystems": 7745,
      "▁iyiles": 7746,
      "▁beklemeye": 7747,
      "▁kesildi": 7748,
      "▁kapasit": 7749,
      "iyeler": 7750,
      "▁tekl": 7751,
      "▁fir": 7752,
      "▁bilek": 7753,
      "acagı": 7754,
      "▁ep": 7755,
      "▁kendi": 7756,
      "▁yal": 7757,
      "▁olmayı": 7758,
      "▁bag": 7759,
      "▁yunan": 7760,
      "▁anlama": 7761,
      "▁havaalanının": 7762,
      "▁deh": 7763,
      "▁toh": 7764,
      "▁egz": 7765,
      "▁istediklerini": 7766,
      "▁dem": 7767,
      "▁yapısı": 7768,
      "▁karbon": 7769,
      "▁tuhaf": 7770,
      "▁sırrı": 7771,
      "▁cogunlukla": 7772,
      "liyat": 7773,
      "lesti": 7774,
      "▁hind": 7775,
      "ıklar": 7776,
      "desini": 7777,
      "▁telesk": 7778,
      "▁bıyık": 7779,
      "▁savcılar": 7780,
      "▁alakasi": 7781,
      "▁teb": 7782,
      "▁hok": 7783,
      "igi": 7784,
      "▁yapacagı": 7785,
      "▁ad": 7786,
      "▁kapasitesine": 7787,
      "▁rezerv": 7788,
      "▁muhaliflerin": 7789,
      "pr": 7790,
      "lamak": 7791,
      "▁soyley": 7792,
      "▁ellerine": 7793,
      "▁cihazlar": 7794,
      "▁yogurt": 7795,
      "▁silk": 7796,
      "ustugunu": 7797,
      "▁tarif": 7798,
      "▁gereginden": 7799,
      "▁celik": 7800,
      "▁korkunc": 7801,
      "▁asın": 7802,
      "▁gormuyor": 7803,
      "▁alama": 7804,
      "esi'nde": 7805,
      "▁gen": 7806,
      "talık": 7807,
      "▁birim": 7808,
      "▁itibaren": 7809,
      "amız": 7810,
      "▁isletmeler": 7811,
      "▁mucadelenin": 7812,
      "▁ordusu": 7813,
      "▁cevapları": 7814,
      "▁elime": 7815,
      "▁oykuler": 7816,
      "▁profesyonel": 7817,
      "umuzde": 7818,
      "izlerdi": 7819,
      "▁sirketlerine": 7820,
      "▁kusk": 7821,
      "▁bab": 7822,
      "tıp": 7823,
      "uv": 7824,
      "▁baz": 7825,
      "▁asagıda": 7826,
      "▁parası": 7827,
      "etic": 7828,
      "rih": 7829,
      "elerde": 7830,
      "meli": 7831,
      "ktu": 7832,
      "▁yaptık": 7833,
      "▁sirketlerin": 7834,
      "▁bekleniyor": 7835,
      "▁oncesinde": 7836,
      "▁duyg": 7837,
      "▁biriktir": 7838,
      "▁gozlerinden": 7839,
      "▁bileti": 7840,
      "▁oncelik": 7841,
      "▁gost": 7842,
      "▁gonlum": 7843,
      "▁yeter": 7844,
      "▁1/2'den": 7845,
      "is": 7846,
      "gıt": 7847,
      "▁yuz": 7848,
      "▁nota": 7849,
      "▁yatırımcının": 7850,
      "ors": 7851,
      "▁kazanın": 7852,
      "▁olacagına": 7853,
      "▁nedenle": 7854,
      "▁durdur": 7855,
      "onu": 7856,
      "▁rot": 7857,
      "dım": 7858,
      "▁macın": 7859,
      "▁iliskiye": 7860,
      "▁pus": 7861,
      "▁con": 7862,
      "▁dizisi": 7863,
      "▁artık": 7864,
      "▁calısıyor": 7865,
      "as": 7866,
      "lasarak": 7867,
      "▁uzuntu": 7868,
      "\\": 7869,
      "luga": 7870,
      "▁serviste": 7871,
      "▁sayi": 7872,
      "lenmek": 7873,
      "hakk": 7874,
      "▁kirem": 7875,
      "▁yaslı": 7876,
      "▁sureci": 7877,
      "▁wall": 7878,
      "▁gunesten": 7879,
      "▁show": 7880,
      "anını": 7881,
      "▁satıcıları": 7882,
      "▁derken": 7883,
      "dılar": 7884,
      "▁heyecanı": 7885,
      "▁gorun": 7886,
      "uyle": 7887,
      "asinda": 7888,
      "lıkla": 7889,
      "▁sans": 7890,
      "▁restoran": 7891,
      "▁kap": 7892,
      "lugun": 7893,
      "▁ted": 7894,
      "▁goruslerini": 7895,
      "▁tepe": 7896,
      "▁ust": 7897,
      "▁76": 7898,
      "▁form": 7899,
      "lamıyor": 7900,
      "▁tunel": 7901,
      "▁istey": 7902,
      "▁seattle": 7903,
      "▁omer": 7904,
      "▁dedim": 7905,
      "▁isy": 7906,
      "▁efsan": 7907,
      "▁ey": 7908,
      "▁yapmadim": 7909,
      "▁cumleleri": 7910,
      "▁veto": 7911,
      "▁havuc": 7912,
      "▁doktoru": 7913,
      "▁misaf": 7914,
      "ayede": 7915,
      "▁kahveyi": 7916,
      "gene": 7917,
      "gın": 7918,
      "adar": 7919,
      "▁babama": 7920,
      "▁kosulları": 7921,
      "▁yasamaya": 7922,
      "cu": 7923,
      "▁satılan": 7924,
      "sık": 7925,
      "▁kampanyalardan": 7926,
      "hane": 7927,
      "aver": 7928,
      "▁dans": 7929,
      "▁iceri": 7930,
      "▁hanımef": 7931,
      "▁sıkıs": 7932,
      "▁hafıza": 7933,
      "▁havacılık": 7934,
      "▁re": 7935,
      "elir": 7936,
      "▁saray": 7937,
      "rin": 7938,
      "istirdi": 7939,
      "▁ogrenme": 7940,
      "▁sıy": 7941,
      "▁lim": 7942,
      "▁yarısı": 7943,
      "▁dusuyor": 7944,
      "mun": 7945,
      "dev": 7946,
      "▁miras": 7947,
      "▁cir": 7948,
      "▁gam": 7949,
      "▁isley": 7950,
      "kulu": 7951,
      "mec": 7952,
      "▁pencerenin": 7953,
      "▁tov": 7954,
      "kır": 7955,
      "▁lezzetliydi": 7956,
      "▁tasıyor": 7957,
      "▁tarihlerinde": 7958,
      "▁icti": 7959,
      "gre": 7960,
      "▁luz": 7961,
      "▁huner": 7962,
      "▁liberal": 7963,
      "▁mahz": 7964,
      "▁artırmayı": 7965,
      "▁rezervasyonlardan": 7966,
      "▁gozun": 7967,
      "▁takip": 7968,
      "▁sanatcı": 7969,
      "▁bunun": 7970,
      "▁kamuoyuna": 7971,
      "▁carsıda": 7972,
      "io": 7973,
      "y": 7974,
      "adıgı": 7975,
      "▁basketbol": 7976,
      "▁pro": 7977,
      "▁baskanları": 7978,
      "lerden": 7979,
      "▁vasatti": 7980,
      "▁set": 7981,
      "ysa": 7982,
      "lesmis": 7983,
      "tıktan": 7984,
      "▁kiralama": 7985,
      "▁tutmaya": 7986,
      "▁idaresi": 7987,
      "▁polisler": 7988,
      "▁merkezlerini": 7989,
      "▁alıcılar": 7990,
      "▁polis": 7991,
      "▁cinsten": 7992,
      "▁adi": 7993,
      "▁denilen": 7994,
      "▁tesv": 7995,
      "▁iktidarı": 7996,
      "▁milletin": 7997,
      "▁arkadası": 7998,
      "▁iyiydi": 7999,
      "▁neredeyse": 8000,
      "…": 8001,
      "▁evimize": 8002,
      "▁endustriler": 8003,
      "▁islevi": 8004,
      "▁sabun": 8005,
      "tar": 8006,
      "▁milletvekili": 8007,
      "'daki": 8008,
      "..": 8009,
      "▁gokyuzunu": 8010,
      "digimden": 8011,
      "▁puanlarim": 8012,
      "▁imam": 8013,
      "▁ortalıgı": 8014,
      "▁ureticileri": 8015,
      "▁tasarısını": 8016,
      "▁karlı": 8017,
      "▁isleminin": 8018,
      "▁secime": 8019,
      "▁kusuru": 8020,
      "▁yah": 8021,
      "▁sevda": 8022,
      "▁evi": 8023,
      "ikten": 8024,
      "▁patr": 8025,
      "▁uzerine": 8026,
      "hi": 8027,
      "▁mustafa": 8028,
      "var": 8029,
      "▁gecikme": 8030,
      "▁imzaladı": 8031,
      "▁sergi": 8032,
      "▁karının": 8033,
      "▁elli": 8034,
      "▁yasanan": 8035,
      "une": 8036,
      "▁gurultu": 8037,
      "▁mark": 8038,
      "etle": 8039,
      "0'dan": 8040,
      "narak": 8041,
      "▁istemiyorum": 8042,
      "▁evini": 8043,
      "ucul": 8044,
      "▁bahtiy": 8045,
      "▁hangi": 8046,
      "usturdu": 8047,
      "▁pazarına": 8048,
      "▁kelimelerle": 8049,
      "▁oldug": 8050,
      "▁baktı": 8051,
      "▁kapital": 8052,
      "▁biriyle": 8053,
      "▁salat": 8054,
      "▁karlar": 8055,
      "arım": 8056,
      "▁poy": 8057,
      "▁oglum": 8058,
      "▁tipi": 8059,
      "▁kanun": 8060,
      "▁suclar": 8061,
      "vr": 8062,
      "erleri": 8063,
      "▁donuk": 8064,
      "▁cezbet": 8065,
      "▁yapraklarını": 8066,
      "▁masraflar": 8067,
      "▁sozlerden": 8068,
      "▁parmakları": 8069,
      "▁verebilir": 8070,
      "▁kutu": 8071,
      "▁yarar": 8072,
      "▁televizyon": 8073,
      "▁profesor": 8074,
      "▁2'ye": 8075,
      "▁carte": 8076,
      "▁hastalıktan": 8077,
      "▁carsı": 8078,
      "▁pencereden": 8079,
      "▁okun": 8080,
      "▁yagmurun": 8081,
      "lanması": 8082,
      "▁erdi": 8083,
      "▁sekli": 8084,
      "▁kokuyor": 8085,
      "▁sorusuna": 8086,
      "▁uretic": 8087,
      "▁kesti": 8088,
      "gimde": 8089,
      "▁konsept": 8090,
      "▁kendimi": 8091,
      "▁samimiyet": 8092,
      "▁ajansın": 8093,
      "▁gey": 8094,
      "▁vapura": 8095,
      "▁uygulan": 8096,
      "▁sozun": 8097,
      "▁kullanılan": 8098,
      "▁mesa": 8099,
      "[UNK]": 8100,
      "▁sesiyle": 8101,
      "muyordu": 8102,
      "▁sivil": 8103,
      "▁ulkeleri": 8104,
      "abilmesi": 8105,
      "nlıs": 8106,
      "▁kahveye": 8107,
      "▁goc": 8108,
      "▁bakısta": 8109,
      "▁devre": 8110,
      "▁gelistirmek": 8111,
      "cel": 8112,
      "▁henuz": 8113,
      "▁karsi": 8114,
      "▁ign": 8115,
      "▁tarz": 8116,
      "▁seyahate": 8117,
      "▁kendiler": 8118,
      "▁cagın": 8119,
      "▁teslim": 8120,
      "▁muzisy": 8121,
      "cilik": 8122,
      "ayacagını": 8123,
      "veri": 8124,
      "▁bilmek": 8125,
      "▁toprakta": 8126,
      "▁haklarına": 8127,
      "▁ask": 8128,
      "▁bulacak": 8129,
      "▁kurtarmak": 8130,
      "▁aktif": 8131,
      "▁seyiyle": 8132,
      "▁giy": 8133,
      "mar": 8134,
      "▁arıyor": 8135,
      "▁avuc": 8136,
      "ınızda": 8137,
      "▁parmak": 8138,
      "▁universitede": 8139,
      "▁beyan": 8140,
      "▁lazımdır": 8141,
      "▁cunku": 8142,
      "▁kayıt": 8143,
      "▁oluyor": 8144,
      "▁yuksel": 8145,
      "▁dedig": 8146,
      "▁gerisi": 8147,
      "▁ogr": 8148,
      "ar": 8149,
      "▁seyr": 8150,
      "▁utan": 8151,
      "▁isv": 8152,
      "▁pınar": 8153,
      "▁haf": 8154,
      "▁koyden": 8155,
      "▁duman": 8156,
      "▁yenilen": 8157,
      "▁kalkıyor": 8158,
      "ktur": 8159,
      "elemek": 8160,
      "▁burn": 8161,
      "▁vatandas": 8162,
      "▁aga": 8163,
      "aleti": 8164,
      "▁cuh": 8165,
      "latmak": 8166,
      "▁serv": 8167,
      "▁demet": 8168,
      "▁suratı": 8169,
      "▁27": 8170,
      "▁tartı": 8171,
      "▁polem": 8172,
      "▁kahkahalar": 8173,
      "▁iktidar": 8174,
      "▁jon": 8175,
      "▁paraya": 8176,
      "▁ucmanın": 8177,
      "▁ulası": 8178,
      "▁zihn": 8179,
      "▁bitki": 8180,
      "▁hasret": 8181,
      "gah": 8182,
      "▁hurr": 8183,
      "▁uygu": 8184,
      "▁prof": 8185,
      "▁zengin": 8186,
      "▁haval": 8187,
      "▁universiteyi": 8188,
      "▁dudak": 8189,
      "▁hesaptan": 8190,
      "edigim": 8191,
      "▁bıcak": 8192,
      "▁stratej": 8193,
      "▁adamı": 8194,
      "▁gununde": 8195,
      "▁secim": 8196,
      "▁baktım": 8197,
      "▁parktan": 8198,
      "▁yazınız": 8199,
      "▁guz": 8200,
      "▁kapattı": 8201,
      "▁direktoru": 8202,
      "isel": 8203,
      "▁varlıklar": 8204,
      "▁reklamlar": 8205,
      "▁gorunuyordu": 8206,
      "▁engel": 8207,
      "▁ofise": 8208,
      "▁atın": 8209,
      "▁tim": 8210,
      "▁minar": 8211,
      "una": 8212,
      "▁hayatımda": 8213,
      "▁seylerin": 8214,
      "▁kapas": 8215,
      "▁tabagına": 8216,
      "▁bır": 8217,
      "▁seviyelerinde": 8218,
      "▁yonetimi": 8219,
      "▁tesisi": 8220,
      "▁acent": 8221,
      "▁fuar": 8222,
      "▁enf": 8223,
      "yuzlu": 8224,
      "▁k": 8225,
      "▁twa": 8226,
      "▁sultan": 8227,
      "▁mudahale": 8228,
      "▁guller": 8229,
      "iyetinde": 8230,
      "▁kotuye": 8231,
      "▁sosyalist": 8232,
      "▁adamının": 8233,
      "▁tedavul": 8234,
      "▁urunlerin": 8235,
      "▁mutlulugu": 8236,
      "▁gidiyordu": 8237,
      "▁tucc": 8238,
      "▁kafil": 8239,
      "▁bes": 8240,
      "▁ulkelerde": 8241,
      "▁oncul": 8242,
      "▁etmekte": 8243,
      "▁yapmayacagını": 8244,
      "'de": 8245,
      "bardım": 8246,
      "▁kondu": 8247,
      "▁sigorta": 8248,
      ".4": 8249,
      "▁tesekkur": 8250,
      "▁muhtesem": 8251,
      "layınca": 8252,
      "▁golge": 8253,
      "▁kızlar": 8254,
      "▁oynamak": 8255,
      "▁agaclar": 8256,
      "▁yarısına": 8257,
      "▁kırk": 8258,
      ".125": 8259,
      "▁kavur": 8260,
      "▁makb": 8261,
      "▁detayları": 8262,
      "angoz": 8263,
      "▁merkezi": 8264,
      ".ceyr": 8265,
      "00'den": 8266,
      "▁komis": 8267,
      "▁etkisi": 8268,
      "▁3.1": 8269,
      "lerdir": 8270,
      "▁asagıya": 8271,
      "▁w": 8272,
      "▁ibraz": 8273,
      "▁kızına": 8274,
      "afor": 8275,
      "▁saatlerinde": 8276,
      "▁lid": 8277,
      "▁tedav": 8278,
      "▁ettiginde": 8279,
      "▁kurnaz": 8280,
      "▁lou": 8281,
      "ıklı": 8282,
      "▁dım": 8283,
      "▁sahıs": 8284,
      "▁varıncaya": 8285,
      "▁dısı": 8286,
      "▁ceh": 8287,
      "▁hastalar": 8288,
      "▁yili": 8289,
      "acagımı": 8290,
      "ırı": 8291,
      "▁9'dan": 8292,
      "▁ag": 8293,
      "indedir": 8294,
      "▁acılım": 8295,
      "▁testere": 8296,
      "tıgına": 8297,
      "▁sag": 8298,
      "▁soya": 8299,
      "▁surece": 8300,
      "▁bro": 8301,
      "▁prob": 8302,
      "lamasına": 8303,
      "▁acısıyla": 8304,
      "▁fotografta": 8305,
      "▁topraklar": 8306,
      "▁hayvanlara": 8307,
      "▁idam": 8308,
      "▁seni": 8309,
      "▁magazaları": 8310,
      "▁bakimsizdi": 8311,
      "oglanı": 8312,
      "asına": 8313,
      "▁duvarın": 8314,
      "mezdi": 8315,
      "▁ikiye": 8316,
      "▁sinir": 8317,
      "▁edec": 8318,
      "ındı": 8319,
      "▁alma": 8320,
      "bre": 8321,
      "▁bulabilir": 8322,
      "▁sabahında": 8323,
      "ass": 8324,
      "▁yatırımcı": 8325,
      "▁olustur": 8326,
      "▁ital": 8327,
      "2'den": 8328,
      "ust": 8329,
      "▁magazaların": 8330,
      "ulmaz": 8331,
      "▁kıymetleri": 8332,
      "▁demokras": 8333,
      "▁duvarları": 8334,
      "▁kaliteye": 8335,
      "'un": 8336,
      "▁mutema": 8337,
      "▁veyahut": 8338,
      "▁belir": 8339,
      "▁hareketi": 8340,
      "▁olmadan": 8341,
      "'ya": 8342,
      "▁kurus": 8343,
      "▁ayına": 8344,
      "▁guvensizlik": 8345,
      "▁vakti": 8346,
      "▁fiyatlarının": 8347,
      "▁telefonda": 8348,
      "▁sikintimiz": 8349,
      "▁dort": 8350,
      "▁bakanlar": 8351,
      "▁cik": 8352,
      "▁aslı": 8353,
      "-f": 8354,
      "ıllı": 8355,
      "lak": 8356,
      "etin": 8357,
      "fet": 8358,
      "▁dusunuyordu": 8359,
      "ilig": 8360,
      "▁sil": 8361,
      "ug": 8362,
      "▁ig": 8363,
      "▁havlular": 8364,
      "▁tencereyi": 8365,
      "▁boynunu": 8366,
      "▁kaset": 8367,
      "▁gulery": 8368,
      "▁vitr": 8369,
      "▁icmek": 8370,
      "▁gogsune": 8371,
      "▁cihazı": 8372,
      "▁lisans": 8373,
      "endek": 8374,
      "▁fer": 8375,
      "▁cleveland'dan": 8376,
      "▁mahk": 8377,
      "▁yavr": 8378,
      "▁cıktılar": 8379,
      "▁jener": 8380,
      "▁uretiminde": 8381,
      "▁hayatının": 8382,
      "▁pusul": 8383,
      "▁fazlası": 8384,
      "▁elleri": 8385,
      "▁gib": 8386,
      "▁islemlerini": 8387,
      "▁listeler": 8388,
      "▁olmalıydı": 8389,
      "ladım": 8390,
      "▁koyluler": 8391,
      "▁uygarlık": 8392,
      "▁lot": 8393,
      "aben": 8394,
      ".85": 8395,
      "sızca": 8396,
      "vec": 8397,
      "▁sars": 8398,
      "▁n": 8399,
      "▁yararı": 8400,
      "▁pantol": 8401,
      "▁insaf": 8402,
      "izligi": 8403,
      "▁5": 8404,
      "▁kor": 8405,
      "acı": 8406,
      "ood": 8407,
      "▁arız": 8408,
      "ebilecek": 8409,
      "▁alanını": 8410,
      "▁bagımlı": 8411,
      "▁seytan": 8412,
      "ill": 8413,
      "▁grub": 8414,
      "▁karıs": 8415,
      "▁olanlara": 8416,
      "▁tasır": 8417,
      "▁hacmi": 8418,
      "▁istiklal": 8419,
      "▁gecerli": 8420,
      "▁ureticisinin": 8421,
      "ugun": 8422,
      "▁kalitesine": 8423,
      "▁aynısını": 8424,
      "▁hizmetten": 8425,
      "dat": 8426,
      "▁casus": 8427,
      "▁mahkem": 8428,
      "hanesi": 8429,
      "▁dolu": 8430,
      "▁city'e": 8431,
      "▁arasındaki": 8432,
      "lardır": 8433,
      "unca": 8434,
      "lasyon": 8435,
      "▁pisir": 8436,
      "▁ithalat": 8437,
      "ayı": 8438,
      "▁konusur": 8439,
      "▁gorevlileri": 8440,
      "▁kazandı": 8441,
      "▁yig": 8442,
      "bay": 8443,
      "▁yazarın": 8444,
      "▁seyrediyordu": 8445,
      "▁sesler": 8446,
      "▁dengesi": 8447,
      "dıktan": 8448,
      "▁arabanın": 8449,
      "▁devrinde": 8450,
      "▁anlatmak": 8451,
      "▁pen": 8452,
      "ilmek": 8453,
      "▁cuzdan": 8454,
      "▁birimini": 8455,
      "'deki": 8456,
      "▁kıt": 8457,
      "▁ihti": 8458,
      "▁endis": 8459,
      "▁cumle": 8460,
      "▁olacagı": 8461,
      "▁gorusmeleri": 8462,
      "▁istiyorlar": 8463,
      "▁mesela": 8464,
      "▁don": 8465,
      "'dan": 8466,
      "o": 8467,
      "▁mektup": 8468,
      "▁yapmanın": 8469,
      "▁ogrencilere": 8470,
      "▁malları": 8471,
      "▁kurtaj": 8472,
      "▁paylasım": 8473,
      "▁battan": 8474,
      "▁bolgeye": 8475,
      "▁oraya": 8476,
      "▁chicago'ya": 8477,
      "6'dan": 8478,
      "▁koruk": 8479,
      "misti": 8480,
      "▁kazanc": 8481,
      "onto": 8482,
      "cıların": 8483,
      "▁annemle": 8484,
      "▁isp": 8485,
      "▁mobil": 8486,
      "ekul": 8487,
      "▁sabrı": 8488,
      "▁aramaya": 8489,
      "▁cesitliydi": 8490,
      "▁tut": 8491,
      "▁saatlere": 8492,
      "tusu": 8493,
      "ems": 8494,
      "▁tacirleri": 8495,
      "▁projesi": 8496,
      "▁turkc": 8497,
      "▁ickiye": 8498,
      "▁koyn": 8499,
      "▁130.": 8500,
      "isme": 8501,
      "▁meht": 8502,
      "▁surun": 8503,
      "▁national": 8504,
      "iliyor": 8505,
      "ıt": 8506,
      "andı": 8507,
      "▁kelimeler": 8508,
      "▁hapis": 8509,
      "lasmıs": 8510,
      "▁koptu": 8511,
      "▁fatura": 8512,
      "▁mulakat": 8513,
      "▁erkekler": 8514,
      "iskiyi": 8515,
      "▁ozlem": 8516,
      "malıdır": 8517,
      "▁analiz": 8518,
      "▁sakal": 8519,
      "▁sıcram": 8520,
      "▁korun": 8521,
      "▁zavallı": 8522,
      "▁devam": 8523,
      "▁tramv": 8524,
      "tay": 8525,
      "ulmustur": 8526,
      "▁olaylara": 8527,
      "▁cekmeye": 8528,
      "irmi": 8529,
      "7'den": 8530,
      "iyet": 8531,
      "▁gogsu": 8532,
      "len": 8533,
      "▁ref": 8534,
      "▁gokyuzune": 8535,
      "▁kaynakları": 8536,
      "▁calıstım": 8537,
      "▁oylama": 8538,
      "▁pa": 8539,
      "▁havuz": 8540,
      "▁ecz": 8541,
      "▁genclik": 8542,
      "▁devreye": 8543,
      "▁atmosfer": 8544,
      "▁serit": 8545,
      "▁sansı": 8546,
      "▁saunadan": 8547,
      "▁kurulu": 8548,
      "▁gunlerinde": 8549,
      "▁gerec": 8550,
      "jyen": 8551,
      "dim": 8552,
      "▁vakit": 8553,
      "▁calıstıklarını": 8554,
      "kik": 8555,
      "▁divan": 8556,
      "▁bomb": 8557,
      "▁tedavulde": 8558,
      "▁kacta": 8559,
      "▁yukum": 8560,
      "ubet": 8561,
      "▁islemlerin": 8562,
      "▁gelirlerinin": 8563,
      "▁tarlayı": 8564,
      "▁burada": 8565,
      "▁zaferi": 8566,
      "alamaya": 8567,
      "▁onlugu": 8568,
      "▁35": 8569,
      "▁borsanın": 8570,
      "▁sanduk": 8571,
      "▁gucluk": 8572,
      "▁arası": 8573,
      "▁ihtilaf": 8574,
      "▁yapmadı": 8575,
      "▁man": 8576,
      "min": 8577,
      "▁20.": 8578,
      "▁cuk": 8579,
      "▁sarkının": 8580,
      "▁liseyi": 8581,
      "dını": 8582,
      "▁yapti": 8583,
      "▁milyonluk": 8584,
      "say": 8585,
      "▁nedeniyle": 8586,
      "▁urunleri": 8587,
      "▁yitir": 8588,
      "memize": 8589,
      "day": 8590,
      ".875": 8591,
      "nal": 8592,
      "▁lıgı": 8593,
      "▁boz": 8594,
      "▁gazeteyi": 8595,
      "▁cikis": 8596,
      "▁chicago": 8597,
      "▁kiz": 8598,
      "u": 8599,
      "▁durumu": 8600,
      "▁fuze": 8601,
      "▁manastır": 8602,
      "▁seyir": 8603,
      "▁uluslar": 8604,
      "▁aramak": 8605,
      "▁neyi": 8606,
      "▁biridir": 8607,
      "▁balıkcılık": 8608,
      "▁cehalet": 8609,
      "▁genelde": 8610,
      "sik": 8611,
      "▁rezerve": 8612,
      "▁aklınız": 8613,
      "yar": 8614,
      "▁nin": 8615,
      "▁mahkemede": 8616,
      "▁hamla": 8617,
      "▁animasyonlari": 8618,
      "▁planının": 8619,
      "▁cat": 8620,
      "▁konuya": 8621,
      "▁yuzunden": 8622,
      "▁burda": 8623,
      "▁kırm": 8624,
      "▁sahada": 8625,
      "▁der": 8626,
      "▁cav": 8627,
      "▁film": 8628,
      "▁so": 8629,
      "zer": 8630,
      "▁meblag": 8631,
      "▁tedbirler": 8632,
      "lasması": 8633,
      "▁kaliteli": 8634,
      "▁50'": 8635,
      "▁baltimore'den": 8636,
      "ısıyla": 8637,
      "▁oturak": 8638,
      "▁acı": 8639,
      "umuza": 8640,
      "▁sıklıkla": 8641,
      "iyordu": 8642,
      "amayı": 8643,
      "▁b": 8644,
      "▁ucagı": 8645,
      "▁girisimleri": 8646,
      "▁bel": 8647,
      "▁manasıyla": 8648,
      "kip": 8649,
      "▁tuccarları": 8650,
      "▁ustunu": 8651,
      "▁sırasında": 8652,
      "tmeye": 8653,
      "▁bosalt": 8654,
      "▁penc": 8655,
      "▁esn": 8656,
      "▁yolcu": 8657,
      "/8'den": 8658,
      "▁iler": 8659,
      "ilme": 8660,
      "allas": 8661,
      "▁otomobilin": 8662,
      "▁bu": 8663,
      "andır": 8664,
      "▁kitab": 8665,
      "▁indianapolis'ten": 8666,
      "▁taht": 8667,
      "▁ugruna": 8668,
      "▁hediye": 8669,
      "▁endeksinin": 8670,
      "▁fiyatlarını": 8671,
      "ınıyor": 8672,
      "▁dukkanlar": 8673,
      "▁luk": 8674,
      "▁mektu": 8675,
      "▁yonu": 8676,
      "▁gerileme": 8677,
      "▁dogrul": 8678,
      "▁onumuzdeki": 8679,
      "▁gorunus": 8680,
      "▁anketi": 8681,
      "▁aklıma": 8682,
      "▁cayır": 8683,
      "real": 8684,
      "▁yuku": 8685,
      "▁aykırı": 8686,
      "▁geri": 8687,
      "▁muhasebe": 8688,
      "▁sevgisini": 8689,
      "8'e": 8690,
      "▁karagoz": 8691,
      "▁eser": 8692,
      "▁gozyasları": 8693,
      "▁agız": 8694,
      "siz": 8695,
      "ie": 8696,
      "ndeki": 8697,
      "esk": 8698,
      "'nun": 8699,
      "▁arttı": 8700,
      "▁gider": 8701,
      "▁takiben": 8702,
      "▁sırf": 8703,
      "▁dogum": 8704,
      "▁resepsiyon": 8705,
      "▁gerisinde": 8706,
      "▁yazar": 8707,
      "▁kapatıl": 8708,
      "▁otoyol": 8709,
      "▁bolugu": 8710,
      "lerde": 8711,
      "▁acıklamada": 8712,
      "▁dis": 8713,
      "▁birinin": 8714,
      "▁okulları": 8715,
      "▁temsil": 8716,
      "eciler": 8717,
      "▁donemlerinde": 8718,
      "▁kisiyi": 8719,
      "ock": 8720,
      "▁santral": 8721,
      "asta": 8722,
      "▁sinemaya": 8723,
      "▁adamcagız": 8724,
      "▁zann": 8725,
      "▁secenekler": 8726,
      "▁yonetiminde": 8727,
      "▁goturdu": 8728,
      "▁savunmak": 8729,
      "▁sekeri": 8730,
      "▁sagduy": 8731,
      "▁elmas": 8732,
      "ekli": 8733,
      "▁odev": 8734,
[...]
