{
  "version": "1.0",
  "truncation": null,
  "padding": null,
  "added_tokens": [
    {
      "id": 773,
      "content": "[SEP]",
      "single_word": false,
      "lstrip": false,
      "rstrip": false,
      "normalized": false,
      "special": true
    },
    {
      "id": 1204,
      "content": "[MASK]",
      "single_word": false,
      "lstrip": false,
      "rstrip": false,
      "normalized": false,
      "special": true
    },
    {
      "id": 1992,
      "content": "[PAD]",
      "single_word": false,
      "lstrip": false,
      "rstrip": false,
      "normalized": false,
      "special": true
    },
    {
      "id": 3184,
      "content": "[CLS]",
      "single_word": false,
      "lstrip": false,
      "rstrip": false,
      "normalized": false,
      "special": true
    },
    {
      "id": 4013,
      "content": "[UNK]",
      "single_word": false,
      "lstrip": false,
      "rstrip": false,
      "normalized": false,
      "special": true
    }
  ],
  "normalizer": {
    "type": "Sequence",
    "normalizers": [
      {
        "type": "NFD"
      },
      {
        "type": "Lowercase"
      },
      {
        "type": "StripAccents"
      }
    ]
  },
  "pre_tokenizer": {
    "type": "Sequence",
    "pretokenizers": [
      {
        "type": "Metaspace",
        "replacement": "▁",
        "prepend_scheme": "always",
        "split": true
      }
    ]
  },
  "post_processor": {
    "type": "TemplateProcessing",
    "single": [
      {
        "SpecialToken": {
          "id": "[CLS]",
          "type_id": 0
        }
      },
      {
        "Sequence": {
          "id": "A",
          "type_id": 0
        }
      },
      {
        "SpecialToken": {
          "id": "[SEP]",
          "type_id": 0
        }
      }
    ],
    "pair": [
      {
        "SpecialToken": {
          "id": "[CLS]",
          "type_id": 0
        }
      },
      {
        "Sequence": {
          "id": "A",
          "type_id": 0
        }
      },
      {
        "SpecialToken": {
          "id": "[SEP]",
          "type_id": 0
        }
      },
      {
        "Sequence": {
          "id": "B",
          "type_id": 1
        }
      },
      {
        "SpecialToken": {
          "id": "[SEP]",
          "type_id": 1
        }
      }
    ],
    "special_tokens": {
      "[CLS]": {
        "id": "[CLS]",
        "ids": [
          3184
        ],
        "tokens": [
          "[CLS]"
        ]
      },
      "[SEP]": {
        "id": "[SEP]",
        "ids": [
          773
        ],
        "tokens": [
          "[SEP]"
        ]
      }
    }
  },
  "decoder": {
    "type": "Metaspace",
    "replacement": "▁",
    "prepend_scheme": "always",
    "split": true
  },
  "model": {
    "type": "BPE",
    "dropout": null,
    "unk_token": "[UNK]",
    "continuing_subword_prefix": null,
    "end_of_word_suffix": null,
    "fuse_unk": false,
    "byte_fallback": false,
    "ignore_merges": false,
    "vocab": {
      "▁makaleye": 0,
      "▁donemde": 1,
      "ısında": 2,
      "hangi": 3,
      "atın": 4,
      "t": 5,
      "luydu": 6,
      "▁araba": 7,
      "gur": 8,
      "▁cumhurb": 9,
      "▁cum": 10,
      "uye": 11,
      "▁yalan": 12,
      "lıgında": 13,
      "▁alan": 14,
      "▁yil": 15,
      "▁ipot": 16,
      "uh": 17,
      "qu": 18,
      "▁tu": 19,
      "▁raf": 20,
      "▁kurs": 21,
      "▁dikkat": 22,
      "▁bıcak": 23,
      "lıgına": 24,
      "▁dir": 25,
      "ken": 26,
      "▁olas": 27,
      "▁kası": 28,
      "▁al": 29,
      "▁bekle": 30,
      "▁dev": 31,
      "▁beydi": 32,
      "▁halkı": 33,
      "eviz": 34,
      "▁kongre": 35,
      "▁tatil": 36,
      "▁&": 37,
      "▁havaalanı": 38,
      "cıları": 39,
      "▁yaklasık": 40,
      "yal": 41,
      "▁insanın": 42,
      "▁davran": 43,
      "yet": 44,
      "▁alamadim": 45,
      "andı": 46,
      "▁mi": 47,
      "'d": 48,
      "▁prens": 49,
      "elim": 50,
      "▁odalari": 51,
      "adel": 52,
      "▁ucuyor": 53,
      "▁anket": 54,
      "▁atlanta": 55,
      "▁mode": 56,
      "▁tasım": 57,
      "▁fiyatlarını": 58,
      "▁basbak": 59,
      "▁..\"": 60,
      "iyi": 61,
      "▁coz": 62,
      "▁seyleri": 63,
      "▁urun": 64,
      "▁guzel": 65,
      "▁cocuklara": 66,
      "▁ceyrek": 67,
      "▁mik": 68,
      "▁once": 69,
      "▁istem": 70,
      "▁madde": 71,
      "ed": 72,
      "▁onlar": 73,
      "▁sahip": 74,
      "▁sec": 75,
      "▁gidiyor": 76,
      "▁ulkenin": 77,
      "▁devr": 78,
      "▁soyluyor": 79,
      "▁tul": 80,
      "▁rehber": 81,
      "▁dogru": 82,
      "▁insanlar": 83,
      "dıg": 84,
      "▁ayrıl": 85,
      "▁elestiri": 86,
      "▁katilmak": 87,
      "rne": 88,
      "▁tek": 89,
      "▁air": 90,
      "▁istik": 91,
      "sel": 92,
      "▁kazan": 93,
      "▁esn": 94,
      "se": 95,
      "▁niyet": 96,
      "▁imal": 97,
      "▁hukum": 98,
      "▁hus": 99,
      "▁tal": 100,
      "irim": 101,
      "▁yasam": 102,
      "▁sebep": 103,
      "▁oysa": 104,
      "isim": 105,
      "▁zor": 106,
      "▁toplant": 107,
      "▁um": 108,
      "gı": 109,
      "▁hakim": 110,
      "▁personel": 111,
      "▁dergi": 112,
      "digim": 113,
      "▁aktarma": 114,
      "ilim": 115,
      "▁sog": 116,
      "▁ceh": 117,
      "▁sofr": 118,
      "unu": 119,
      "▁kendi": 120,
      "▁radyo": 121,
      "▁merdiven": 122,
      "anıs": 123,
      "umuzde": 124,
      "ilen": 125,
      "uz": 126,
      "▁cop": 127,
      "▁otelden": 128,
      "eyaz": 129,
      "▁tahv": 130,
      "larda": 131,
      "▁bon": 132,
      "▁sikinti": 133,
      "▁cocukların": 134,
      "▁dog": 135,
      "▁sozc": 136,
      "larak": 137,
      "▁bekl": 138,
      "▁pazar": 139,
      "▁tavsiye": 140,
      "▁parca": 141,
      "d": 142,
      "▁ortadan": 143,
      "a": 144,
      "▁mot": 145,
      "▁red": 146,
      "▁kadın": 147,
      "ah": 148,
      "ac": 149,
      "▁hanimla": 150,
      "duz": 151,
      "onun": 152,
      "▁cihaz": 153,
      "▁dukkan": 154,
      "▁cak": 155,
      "▁meydana": 156,
      "▁fark": 157,
      "▁nakit": 158,
      "▁zaf": 159,
      "▁eyalet": 160,
      "▁per": 161,
      "▁olc": 162,
      "▁kır": 163,
      "nak": 164,
      "ası": 165,
      "▁has": 166,
      "▁orman": 167,
      "▁konum": 168,
      "sun": 169,
      "▁kart": 170,
      "pr": 171,
      "alarla": 172,
      "▁end": 173,
      "ıklar": 174,
      "▁beni": 175,
      "▁olacak": 176,
      "liyor": 177,
      "▁ekonomi": 178,
      "▁t": 179,
      "ısı": 180,
      "▁lezzet": 181,
      "▁hemen": 182,
      "▁edil": 183,
      "▁tesisi": 184,
      "▁odamiz": 185,
      "▁nedeniyle": 186,
      "▁beklent": 187,
      "▁yuzunden": 188,
      "▁alaka": 189,
      "▁yumurta": 190,
      "aseb": 191,
      "elen": 192,
      "tırmak": 193,
      "miyorum": 194,
      "▁uye": 195,
      "▁degeri": 196,
      "▁altından": 197,
      "orta": 198,
      ",": 199,
      "▁odam": 200,
      "▁arasına": 201,
      "▁ayak": 202,
      "▁had": 203,
      "▁etkisi": 204,
      "▁sorunu": 205,
      "lerimi": 206,
      "amaları": 207,
      "obil": 208,
      "▁duk": 209,
      "▁cozum": 210,
      "▁beye": 211,
      "▁garanti": 212,
      "+": 213,
      "▁hit": 214,
      "ıkları": 215,
      "ola": 216,
      "▁tut": 217,
      "em": 218,
      "larından": 219,
      "▁mektup": 220,
      "▁yuzunu": 221,
      "▁tem": 222,
      "▁gi": 223,
      "▁lob": 224,
      "▁dagıt": 225,
      "▁`": 226,
      "▁bis": 227,
      "▁ez": 228,
      "ti": 229,
      "▁ziy": 230,
      "ktu": 231,
      "▁hoc": 232,
      "all": 233,
      "dıgını": 234,
      "tır": 235,
      "tay": 236,
      "▁kims": 237,
      "▁sep": 238,
      "▁der": 239,
      "▁vucud": 240,
      "▁metr": 241,
      "▁bug": 242,
      "▁saldır": 243,
      "▁acik": 244,
      "▁elbis": 245,
      "yıl": 246,
      "6": 247,
      "▁yemek": 248,
      "▁gelmis": 249,
      "▁goster": 250,
      "▁ucaga": 251,
      "'nun": 252,
      "▁aktivit": 253,
      "▁olmus": 254,
      "cev": 255,
      "▁endust": 256,
      "▁tarihinde": 257,
      "dim": 258,
      "kil": 259,
      "stım": 260,
      "▁bek": 261,
      "'ye": 262,
      "ef": 263,
      "etli": 264,
      "▁aynı": 265,
      "▁agz": 266,
      "ash": 267,
      "▁guven": 268,
      "▁onune": 269,
      "▁fot": 270,
      "▁must": 271,
      "▁bircok": 272,
      "▁muzak": 273,
      "▁agustos": 274,
      "▁hastal": 275,
      "gal": 276,
      "▁sozlesme": 277,
      "'dan": 278,
      "▁yatırımcı": 279,
      "▁tehdit": 280,
      "▁oglan": 281,
      "▁seyi": 282,
      "dum": 283,
      "gu": 284,
      "▁ov": 285,
      "▁meydan": 286,
      "leket": 287,
      "▁merk": 288,
      "▁ince": 289,
      "anlar": 290,
      "diye": 291,
      "▁mekte": 292,
      "▁kis": 293,
      "lerimizi": 294,
      "amın": 295,
      "▁g": 296,
      "lerle": 297,
      "▁paket": 298,
      "▁ey": 299,
      "kat": 300,
      "alardan": 301,
      "dık": 302,
      "▁dısında": 303,
      "▁calı": 304,
      "▁bagım": 305,
      "▁kac": 306,
      "▁buyuk": 307,
      "▁gunah": 308,
      "▁detay": 309,
      "▁temizdi": 310,
      "ogram": 311,
      "▁bardak": 312,
      "▁analist": 313,
      "▁neden": 314,
      "▁kadar": 315,
      "00'": 316,
      "▁dı": 317,
      "asır": 318,
      "anından": 319,
      "ladı": 320,
      "▁eglence": 321,
      "▁dip": 322,
      "iss": 323,
      "ide": 324,
      "▁kahv": 325,
      "isini": 326,
      "ian": 327,
      "▁,": 328,
      "▁borsası": 329,
      "elerden": 330,
      "▁icki": 331,
      "▁test": 332,
      "▁tanı": 333,
      "ttı": 334,
      "▁basında": 335,
      "▁yuksek": 336,
      "▁seyler": 337,
      "ıp": 338,
      "mma": 339,
      "▁cumartesi": 340,
      "▁...\"": 341,
      "▁milyardan": 342,
      "lerimiz": 343,
      "▁clas": 344,
      "▁denver'den": 345,
      "▁ker": 346,
      "ket": 347,
      "▁insanı": 348,
      "▁an": 349,
      "▁gayr": 350,
      "▁okul": 351,
      "eli": 352,
      "▁simdi": 353,
      "▁kararı": 354,
      "▁kah": 355,
      "ap": 356,
      "▁198": 357,
      "tıktan": 358,
      "▁hamle": 359,
      "egini": 360,
      "▁satısı": 361,
      "▁amerikan": 362,
      "agı": 363,
      "ot": 364,
      "▁surec": 365,
      "▁yiyecekler": 366,
      "▁kalitesi": 367,
      "▁nokt": 368,
      "▁aln": 369,
      "adde": 370,
      "uru": 371,
      "▁hukuk": 372,
      "0'dan": 373,
      "▁otomobil": 374,
      "emiz": 375,
      "iki": 376,
      "▁gozlem": 377,
      "▁yine": 378,
      "ak": 379,
      "eler": 380,
      "▁herif": 381,
      "▁ucretin": 382,
      "▁dert": 383,
      "▁oner": 384,
      "▁dost": 385,
      "cısı": 386,
      "amak": 387,
      "▁insan": 388,
      "▁vat": 389,
      "of": 390,
      "▁anne": 391,
      "▁yıldız": 392,
      "erken": 393,
      "▁fir": 394,
      "▁yolculuk": 395,
      "▁sonucları": 396,
      "li": 397,
      "▁ver": 398,
      "abilir": 399,
      "▁prot": 400,
      "▁kalem": 401,
      "lig": 402,
      "la": 403,
      "▁ya": 404,
      "▁otele": 405,
      "▁ceyr": 406,
      "▁dustu": 407,
      "▁gunu": 408,
      "▁haber": 409,
      "▁herkesin": 410,
      "meler": 411,
      "▁sonuc": 412,
      "▁calısma": 413,
      "imen": 414,
      "iniz": 415,
      "▁imz": 416,
      "▁sol": 417,
      "ili": 418,
      "▁hafta": 419,
      "▁kes": 420,
      "▁ugr": 421,
      "▁kuvv": 422,
      ">": 423,
      "▁butu": 424,
      "▁fut": 425,
      "▁kural": 426,
      "▁kapsam": 427,
      "▁zev": 428,
      "r": 429,
      "▁but": 430,
      "▁not": 431,
      "▁gun": 432,
      "lara": 433,
      "izli": 434,
      "▁sair": 435,
      "▁genc": 436,
      "▁bolg": 437,
      "▁salı": 438,
      "▁sirk": 439,
      "▁cekti": 440,
      "▁dayan": 441,
      "▁oranı": 442,
      "lamıs": 443,
      "▁savası": 444,
      "▁toz": 445,
      "▁profes": 446,
      "▁edi": 447,
      "▁olanlar": 448,
      "▁takdir": 449,
      "▁bicim": 450,
      "▁po": 451,
      "▁aylık": 452,
      "”": 453,
      "▁yapı": 454,
      "▁ettim": 455,
      "▁olabilirdi": 456,
      "uluyor": 457,
      "rada": 458,
      "▁disi": 459,
      "stı": 460,
      "eklen": 461,
      "ildi": 462,
      "▁kurulus": 463,
      "▁zaten": 464,
      "▁hisse": 465,
      "elik": 466,
      "alarına": 467,
      "▁sorustur": 468,
      "enler": 469,
      "▁sorumluluk": 470,
      "▁ilisk": 471,
      "lar": 472,
      "erlik": 473,
      "▁artıs": 474,
      "▁manzar": 475,
      "'den": 476,
      "mis": 477,
      "▁seviye": 478,
      "ij": 479,
      "duk": 480,
      "▁durum": 481,
      "teri": 482,
      "▁iddi": 483,
      "▁yukseldi": 484,
      "▁zevk": 485,
      "▁s": 486,
      "4": 487,
      "ır": 488,
      "madik": 489,
      "▁fabrik": 490,
      "▁ucrete": 491,
      "▁kolt": 492,
      "ka": 493,
      "▁personeller": 494,
      "▁st": 495,
      "▁bası": 496,
      "▁ticaret": 497,
      "▁turkiye": 498,
      "▁banka": 499,
      "▁bun": 500,
      "ci": 501,
      "▁baskı": 502,
      "▁yeme": 503,
      "▁hal": 504,
      "▁reh": 505,
      "▁konuyu": 506,
      "ok": 507,
      "▁ref": 508,
      "▁yıld": 509,
      "▁am": 510,
      "▁ile": 511,
      "▁el": 512,
      "tı": 513,
      "▁depr": 514,
      "ılık": 515,
      "▁kamyon": 516,
      "▁ilave": 517,
      "▁katılım": 518,
      "▁koy": 519,
      "eki": 520,
      "sin": 521,
      "▁yurtd": 522,
      "▁talep": 523,
      "arak": 524,
      "▁sekl": 525,
      "▁buraya": 526,
      "▁ip": 527,
      "▁ortam": 528,
      "▁icin": 529,
      "bası": 530,
      "▁bulut": 531,
      "▁hacmi": 532,
      "▁derec": 533,
      "esine": 534,
      "▁dedi": 535,
      "▁ayd": 536,
      "▁gal": 537,
      "▁ilgil": 538,
      "▁oyunun": 539,
      "daki": 540,
      "▁denize": 541,
      "▁ucretleri": 542,
      "▁e": 543,
      "▁vet": 544,
      "lugun": 545,
      "▁fik": 546,
      "▁tarla": 547,
      "▁civarı": 548,
      "▁gorusuldu": 549,
      "▁dar": 550,
      "▁yuzu": 551,
      "▁ogretmen": 552,
      "▁tesvik": 553,
      "▁mat": 554,
      "▁karı": 555,
      "liginin": 556,
      "lam": 557,
      "▁yolu": 558,
      "ydi": 559,
      "ina": 560,
      "angi": 561,
      "ilm": 562,
      "▁bit": 563,
      "▁beb": 564,
      "▁ici": 565,
      "▁ten": 566,
      "▁ask": 567,
      "▁eger": 568,
      "▁ıs": 569,
      "▁sof": 570,
      "▁risk": 571,
      "dam": 572,
      "▁yaban": 573,
      "eb": 574,
      "▁im": 575,
      "yle": 576,
      "▁mezar": 577,
      "▁cevr": 578,
      "▁meyve": 579,
      "igim": 580,
      "▁getiri": 581,
      "larının": 582,
      "▁ne": 583,
      ";": 584,
      "▁sı": 585,
      "▁havaal": 586,
      "▁haftada": 587,
      "van": 588,
      "▁sınıf": 589,
      "evizyon": 590,
      "ıgını": 591,
      "▁fon": 592,
      "▁dedim": 593,
      "mı": 594,
      "ivers": 595,
      "▁insana": 596,
      "▁yıllarda": 597,
      "▁dostu": 598,
      "iler": 599,
      "oloj": 600,
      "▁veril": 601,
      "'n": 602,
      "malar": 603,
      "▁kend": 604,
      "▁kam": 605,
      "▁hatta": 606,
      "▁it": 607,
      "ugu": 608,
      "▁2": 609,
      "▁yab": 610,
      "oksa": 611,
      "▁sonra": 612,
      "▁parc": 613,
      "▁dolayi": 614,
      "▁kagıt": 615,
      "▁turku": 616,
      "alarını": 617,
      "▁pal": 618,
      "alı": 619,
      "▁mucade": 620,
      "ekli": 621,
      "cilerin": 622,
      "▁film": 623,
      "▁gormek": 624,
      "▁siy": 625,
      "▁dusunce": 626,
      "▁yardimci": 627,
      "▁re": 628,
      "▁koyun": 629,
      "▁cesit": 630,
      "▁za": 631,
      "▁tiyatro": 632,
      "elig": 633,
      "▁firması": 634,
      "adar": 635,
      "▁yolcul": 636,
      "▁traf": 637,
      "erin": 638,
      "makta": 639,
      "▁tahvilleri": 640,
      "▁sef": 641,
      "▁acent": 642,
      "▁ilgilendi": 643,
      "▁spor": 644,
      "▁tekrar": 645,
      "tr": 646,
      "▁ihr": 647,
      "▁odalar": 648,
      "lestir": 649,
      "▁ekim": 650,
      "▁kıymet": 651,
      "▁cif": 652,
      "gini": 653,
      "▁!": 654,
      "▁mec": 655,
      "▁tip": 656,
      "ess": 657,
      "▁merak": 658,
      "▁japon": 659,
      "▁paranın": 660,
      "▁gordum": 661,
      "▁adı": 662,
      "▁defter": 663,
      "▁personellerinden": 664,
      "▁tarih": 665,
      "▁nuf": 666,
      "madıgını": 667,
      "▁piyas": 668,
      "um": 669,
      "▁belirt": 670,
      "▁sonuclar": 671,
      "andır": 672,
      "▁proj": 673,
      "▁kanun": 674,
      "siz": 675,
      "▁eglen": 676,
      "▁isci": 677,
      "emem": 678,
      "▁soyle": 679,
      "$": 680,
      "▁sır": 681,
      "9": 682,
      "▁hayv": 683,
      "▁dekor": 684,
      "▁donem": 685,
      "ind": 686,
      "▁civarında": 687,
      "▁gond": 688,
      "▁muduru": 689,
      "▁kapıyı": 690,
      "▁tekn": 691,
      "ba": 692,
      "eket": 693,
      "▁yılın": 694,
      "▁cent": 695,
      "▁dallas'a": 696,
      "tarak": 697,
      "▁diz": 698,
      "amı": 699,
      "▁etmek": 700,
      "▁duman": 701,
      "mistir": 702,
      "▁at": 703,
      "▁kez": 704,
      "▁gid": 705,
      "▁bahce": 706,
      "▁bah": 707,
      "nc": 708,
      "▁dik": 709,
      "▁vapur": 710,
      "▁kampanyalar": 711,
      "▁karsısında": 712,
      "ıf": 713,
      "tık": 714,
      "mel": 715,
      "▁perde": 716,
      "▁persembe": 717,
      "'ın": 718,
      "let": 719,
      "▁dunyada": 720,
      "▁hastalık": 721,
      "ane": 722,
      "likle": 723,
      "▁ucuz": 724,
      "cul": 725,
      "▁mu": 726,
      "ızın": 727,
      "▁kaf": 728,
      "▁kayb": 729,
      "▁ucu": 730,
      "▁tesis": 731,
      "▁nedenlerden": 732,
      "▁davet": 733,
      "larıyla": 734,
      "▁huk": 735,
      "allas": 736,
      "agından": 737,
      "▁hisseleri": 738,
      "▁reklam": 739,
      "alarının": 740,
      "▁co": 741,
      "▁girisim": 742,
      "cıların": 743,
      "▁kap": 744,
      "ete": 745,
      "diginde": 746,
      "▁sist": 747,
      "▁merh": 748,
      "▁lezz": 749,
      "▁sut": 750,
      "ruk": 751,
      "▁cen": 752,
      "len": 753,
      "▁zira": 754,
      "▁deger": 755,
      "▁\"": 756,
      "inci": 757,
      "▁tuk": 758,
      "▁yahut": 759,
      "▁gitmek": 760,
      "ver": 761,
      "erh": 762,
      "elerle": 763,
      "▁yalnız": 764,
      "▁hayatı": 765,
      "ecegim": 766,
      "▁meger": 767,
      "▁dogum": 768,
      "▁avuk": 769,
      "▁bey": 770,
      "▁soru": 771,
      "▁mesaf": 772,
      "[SEP]": 773,
      "▁mer": 774,
      "▁bat": 775,
      "1": 776,
      "▁ur": 777,
      "▁tercih": 778,
      "masını": 779,
      "▁zamanlar": 780,
      "▁ok": 781,
      "▁lez": 782,
      "lıgı": 783,
      "▁ef": 784,
      "▁peyn": 785,
      "▁zeytin": 786,
      "laya": 787,
      "▁icer": 788,
      "▁sınıfı": 789,
      "▁cuma": 790,
      "▁konusunda": 791,
      "▁matem": 792,
      "▁doları'na": 793,
      "medim": 794,
      "▁benz": 795,
      "▁problem": 796,
      "▁guvenlik": 797,
      "▁kırık": 798,
      "▁kuvvet": 799,
      "al": 800,
      "etr": 801,
      "▁aktar": 802,
      "`": 803,
      "▁havuz": 804,
      "▁imk": 805,
      "▁fazl": 806,
      "▁tok": 807,
      "▁bilgisayar": 808,
      "▁uygul": 809,
      "'ta": 810,
      "▁alır": 811,
      "▁he": 812,
      "▁adamı": 813,
      "▁denver'e": 814,
      "▁temsil": 815,
      "ika": 816,
      "aydı": 817,
      "▁nedir": 818,
      "▁hay": 819,
      "lıyor": 820,
      "▁olu": 821,
      "▁kısm": 822,
      "lug": 823,
      "▁gercek": 824,
      "lan": 825,
      "▁fakat": 826,
      "▁sent": 827,
      "▁saatlerde": 828,
      "ıda": 829,
      "▁lok": 830,
      "ec": 831,
      "ens": 832,
      "▁lid": 833,
      "▁sefer": 834,
      "▁kavram": 835,
      "▁ruz": 836,
      "▁anlattı": 837,
      "amam": 838,
      "▁ba": 839,
      "anının": 840,
      "▁yont": 841,
      "iski": 842,
      "▁baslangıc": 843,
      "yuzlu": 844,
      "▁v": 845,
      "▁ilgilendiler": 846,
      "kur": 847,
      "uk": 848,
      "▁yonet": 849,
      "▁seyin": 850,
      "de": 851,
      "eyr": 852,
      "▁kavg": 853,
      "ede": 854,
      "ilendir": 855,
      "▁dusus": 856,
      "▁hac": 857,
      "ebilir": 858,
      "▁ark": 859,
      "▁begenmedim": 860,
      "▁du": 861,
      "▁biri": 862,
      "▁beyle": 863,
      "ılıyor": 864,
      "adem": 865,
      "kah": 866,
      "lerinin": 867,
      "tu": 868,
      "▁etme": 869,
      "▁kisinin": 870,
      "bul": 871,
      "iv": 872,
      "▁fer": 873,
      "▁col": 874,
      "▁gok": 875,
      "▁etmeye": 876,
      "▁yardımcı": 877,
      "▁hedef": 878,
      "ise": 879,
      "▁eli": 880,
      "3": 881,
      "▁rakam": 882,
      "▁idar": 883,
      "▁calis": 884,
      "aları": 885,
      "le": 886,
      "▁beklen": 887,
      "▁hali": 888,
      "▁fırsat": 889,
      "▁kalp": 890,
      "hal": 891,
      "ar": 892,
      "▁rak": 893,
      "an": 894,
      "▁odada": 895,
      "▁islet": 896,
      "▁gidis": 897,
      "▁sınır": 898,
      "▁tane": 899,
      "ruf": 900,
      "enuz": 901,
      "▁mı": 902,
      "ayet": 903,
      "▁ist": 904,
      "esinde": 905,
      "▁bel": 906,
      "▁azdi": 907,
      "▁enf": 908,
      "erans": 909,
      "▁geyik": 910,
      "▁portf": 911,
      "▁cag": 912,
      "ılması": 913,
      "▁yargıc": 914,
      "▁ucak": 915,
      "▁bi": 916,
      "▁ilgiliydi": 917,
      "▁isletme": 918,
      "▁komisyonu": 919,
      "ısıyla": 920,
      "▁digerleri": 921,
      "▁philadel": 922,
      "▁hala": 923,
      "aket": 924,
      "iger": 925,
      "(": 926,
      "ulu": 927,
      "..": 928,
      "ladım": 929,
      "▁tey": 930,
      "▁yuv": 931,
      "▁di": 932,
      "▁havuzu": 933,
      "gar": 934,
      "▁gibi": 935,
      "▁say": 936,
      "cok": 937,
      "ına": 938,
      "▁af": 939,
      "medi": 940,
      "ku": 941,
      "▁vucu": 942,
      "yum": 943,
      "elir": 944,
      "▁istedi": 945,
      "▁damak": 946,
      "usu": 947,
      "▁karayol": 948,
      "▁basından": 949,
      "egine": 950,
      "▁halde": 951,
      "▁doneminde": 952,
      "▁islemler": 953,
      "▁unu": 954,
      "▁rezervasyon": 955,
      "0'da": 956,
      "▁lu": 957,
      "▁tren": 958,
      "isinden": 959,
      "ersiz": 960,
      "▁istiyor": 961,
      "▁oyun": 962,
      "arda": 963,
      "▁bilmek": 964,
      "han": 965,
      "▁gon": 966,
      "g": 967,
      "uma": 968,
      "▁yerinde": 969,
      "lı": 970,
      "▁kız": 971,
      "▁kay": 972,
      "▁dısarı": 973,
      "siye": 974,
      "▁yan": 975,
      "▁se": 976,
      "▁balık": 977,
      "▁parayı": 978,
      "▁gogs": 979,
      "▁ucretlerini": 980,
      "k": 981,
      "▁sez": 982,
      "▁futbol": 983,
      "▁zih": 984,
      "▁rakip": 985,
      "▁durumunda": 986,
      "▁lik": 987,
      "▁teklif": 988,
      "anları": 989,
      "▁guzeldi": 990,
      "ent": 991,
      "ımda": 992,
      "▁dak": 993,
      "▁yerinden": 994,
      "ici": 995,
      "▁sap": 996,
      "▁sorunları": 997,
      "ay": 998,
      "▁ihtiy": 999,
      "ru": 1000,
      "▁indirim": 1001,
      "▁bir": 1002,
      "▁hizmet": 1003,
      "atlar": 1004,
      "▁ogle": 1005,
      "ize": 1006,
      "cegini": 1007,
      "▁bilg": 1008,
      "iligini": 1009,
      "▁sorun": 1010,
      "▁si": 1011,
      "▁soz": 1012,
      "uy": 1013,
      "▁operasyon": 1014,
      "▁il": 1015,
      "ılı": 1016,
      "▁tel": 1017,
      "▁dava": 1018,
      "ilig": 1019,
      "▁ucusun": 1020,
      "onelik": 1021,
      "▁pas": 1022,
      "▁coc": 1023,
      "▁oakland": 1024,
      "▁ekip": 1025,
      "lanıyor": 1026,
      "▁yetkili": 1027,
      "▁yog": 1028,
      "▁uyum": 1029,
      "▁agac": 1030,
      "▁alb": 1031,
      "▁aileler": 1032,
      "/": 1033,
      "▁onc": 1034,
      "▁ol": 1035,
      "▁ben": 1036,
      "▁yal": 1037,
      "▁konut": 1038,
      "ene": 1039,
      "▁otelin": 1040,
      "▁emir": 1041,
      "muyor": 1042,
      "▁rapor": 1043,
      "▁duygu": 1044,
      "▁sona": 1045,
      "▁bu": 1046,
      "▁em": 1047,
      "▁oldu": 1048,
      "su": 1049,
      "▁olanakları": 1050,
      "▁geri": 1051,
      "▁hat": 1052,
      "▁olur": 1053,
      "▁yonelik": 1054,
      "▁uc": 1055,
      "▁onun": 1056,
      "▁konak": 1057,
      "▁yuksel": 1058,
      "iye": 1059,
      "end": 1060,
      "▁gelis": 1061,
      "▁arttı": 1062,
      "erli": 1063,
      "▁gayrimen": 1064,
      "gil": 1065,
      "▁mul": 1066,
      "▁inanc": 1067,
      "▁saglık": 1068,
      "▁ortaya": 1069,
      "aba": 1070,
      "luga": 1071,
      "ucc": 1072,
      "▁kapandı": 1073,
      "▁katil": 1074,
      "ege": 1075,
      "▁fazla": 1076,
      "▁rekabet": 1077,
      "▁duz": 1078,
      "u": 1079,
      "▁tahvil": 1080,
      "▁yık": 1081,
      "▁aleyh": 1082,
      "▁kalite": 1083,
      "▁guv": 1084,
      "▁gitti": 1085,
      "itesi": 1086,
      "oh": 1087,
      "▁menkul": 1088,
      "h": 1089,
      "▁kullanmadim": 1090,
      "▁piy": 1091,
      "▁mez": 1092,
      "'nde": 1093,
      "▁zar": 1094,
      "▁yerini": 1095,
      "▁zir": 1096,
      "▁olum": 1097,
      "▁piyasada": 1098,
      "▁egitim": 1099,
      "▁olduguna": 1100,
      "▁dısı": 1101,
      "▁rehberimiz": 1102,
      "▁hem": 1103,
      "erleri": 1104,
      "▁phil": 1105,
      "▁sebeb": 1106,
      "▁doları'ndan": 1107,
      "▁": 1108,
      "▁yapmak": 1109,
      "▁tur": 1110,
      "une": 1111,
      "lerinde": 1112,
      "▁toplum": 1113,
      "▁uy": 1114,
      "▁tepki": 1115,
      "▁cor": 1116,
      "▁mac": 1117,
      "▁havayolu": 1118,
      "▁kısı": 1119,
      "▁puan": 1120,
      "▁izin": 1121,
      "ılıg": 1122,
      "▁yel": 1123,
      "lıgını": 1124,
      "▁dep": 1125,
      "▁sonrasında": 1126,
      "▁sacları": 1127,
      "▁isi": 1128,
      "▁kotu": 1129,
      "▁suy": 1130,
      "▁koltuk": 1131,
      "cut": 1132,
      "▁rej": 1133,
      "ska": 1134,
      "▁kad": 1135,
      "▁kayı": 1136,
      "▁arab": 1137,
      "oj": 1138,
      "abilecegini": 1139,
      "tin": 1140,
      "▁artık": 1141,
      "▁arada": 1142,
      "▁gayet": 1143,
      "▁or": 1144,
      "▁havayollarını": 1145,
      "▁degil": 1146,
      "▁10'dan": 1147,
      "▁son": 1148,
      "▁elden": 1149,
      "udur": 1150,
      "lo": 1151,
      "gi": 1152,
      "cılık": 1153,
      "▁rez": 1154,
      "ara": 1155,
      "n": 1156,
      "▁dus": 1157,
      "ni": 1158,
      "▁sistemi": 1159,
      "▁istihdam": 1160,
      "▁tehd": 1161,
      "▁ailelere": 1162,
      "▁azalt": 1163,
      "az": 1164,
      "lere": 1165,
      "▁atlanta'dan": 1166,
      "ınlık": 1167,
      "▁odan": 1168,
      "▁kat": 1169,
      "lıc": 1170,
      "▁ila": 1171,
      "▁kagı": 1172,
      "ig": 1173,
      "ısır": 1174,
      "▁firma": 1175,
      "▁agız": 1176,
      "▁h": 1177,
      "▁sonbah": 1178,
      "▁ulk": 1179,
      "▁ala": 1180,
      "enek": 1181,
      "▁sahipleri": 1182,
      "▁etki": 1183,
      "▁bono": 1184,
      "▁fas": 1185,
      "ustos": 1186,
      "▁$": 1187,
      "▁yuzune": 1188,
      "▁fiyati": 1189,
      "uyle": 1190,
      "▁hissesi": 1191,
      "▁hazır": 1192,
      "▁acıkladı": 1193,
      "▁pay": 1194,
      "urg": 1195,
      "▁harek": 1196,
      "▁acisindan": 1197,
      "p": 1198,
      "▁bacak": 1199,
      "attı": 1200,
      "afet": 1201,
      "du": 1202,
      "ugun": 1203,
      "[MASK]": 1204,
      "ro": 1205,
      "sunuz": 1206,
      "asyon": 1207,
      "asını": 1208,
      "ator": 1209,
      "▁sahn": 1210,
      "▁degisim": 1211,
      "▁fil": 1212,
      "lul": 1213,
      "▁kadınlar": 1214,
      "dig": 1215,
      "ing": 1216,
      "▁seviyesine": 1217,
      "may": 1218,
      "▁huzur": 1219,
      "▁bilet": 1220,
      "▁bulmak": 1221,
      "▁gar": 1222,
      "usunda": 1223,
      "za": 1224,
      "▁maliyeti": 1225,
      "▁.)": 1226,
      "▁soy": 1227,
      "onu": 1228,
      "▁yolda": 1229,
      "▁hol": 1230,
      "▁kulub": 1231,
      "▁muda": 1232,
      "mustur": 1233,
      "▁bahc": 1234,
      "a'nın": 1235,
      "▁port": 1236,
      "▁ders": 1237,
      "▁yemeklerinden": 1238,
      "▁basını": 1239,
      "▁kisilik": 1240,
      "▁kisi": 1241,
      "ıla": 1242,
      "sizlik": 1243,
      "▁sa": 1244,
      "▁teslim": 1245,
      "isten": 1246,
      "▁yuks": 1247,
      "▁eksik": 1248,
      "uzel": 1249,
      "▁kontrol": 1250,
      "uler": 1251,
      "▁kul": 1252,
      "▁bakan": 1253,
      "tif": 1254,
      "▁kriz": 1255,
      "▁herkes": 1256,
      "anların": 1257,
      "ol": 1258,
      "▁ruy": 1259,
      "esinden": 1260,
      "▁boston": 1261,
      "▁ev": 1262,
      "▁ifade": 1263,
      "▁duy": 1264,
      "▁kampan": 1265,
      "▁ediyor": 1266,
      "lav": 1267,
      "▁may": 1268,
      "▁huz": 1269,
      "▁sesleri": 1270,
      "▁tep": 1271,
      "▁ancak": 1272,
      "▁haz": 1273,
      "▁pan": 1274,
      "▁oyn": 1275,
      "▁lut": 1276,
      "▁uzerinde": 1277,
      "▁yuk": 1278,
      "om": 1279,
      "00": 1280,
      "▁aile": 1281,
      "▁sekil": 1282,
      "ger": 1283,
      "▁muz": 1284,
      "▁ilgili": 1285,
      "▁yaz": 1286,
      "▁(": 1287,
      "▁balt": 1288,
      "▁memur": 1289,
      "▁piyasanın": 1290,
      "▁ruh": 1291,
      "▁olcu": 1292,
      "▁olan": 1293,
      "▁1": 1294,
      "'ten": 1295,
      "gesi": 1296,
      "▁sigara": 1297,
      "▁yo": 1298,
      "aj": 1299,
      "umun": 1300,
      "isinde": 1301,
      "irdi": 1302,
      "▁tesisti": 1303,
      "cak": 1304,
      "eder": 1305,
      "lisi": 1306,
      "▁ab": 1307,
      "▁sorum": 1308,
      "▁karsılık": 1309,
      "▁dusuk": 1310,
      "▁evde": 1311,
      "eg": 1312,
      "▁ph": 1313,
      "mıyor": 1314,
      "▁fiyatı": 1315,
      "▁gunler": 1316,
      "▁toprak": 1317,
      "▁icecek": 1318,
      "alle": 1319,
      "▁karıs": 1320,
      "▁asagı": 1321,
      "▁takip": 1322,
      "▁ordu": 1323,
      "ibi": 1324,
      "▁yaklasimi": 1325,
      "▁sin": 1326,
      "digi": 1327,
      "▁degistir": 1328,
      "▁day": 1329,
      "▁ele": 1330,
      "lıkları": 1331,
      "mesi": 1332,
      "f": 1333,
      "▁olcude": 1334,
      "▁listeleyin": 1335,
      "men": 1336,
      "▁mur": 1337,
      "▁sac": 1338,
      "▁kabul": 1339,
      "ıyorlar": 1340,
      "ıcılar": 1341,
      "▁satıslar": 1342,
      "▁kalmadim": 1343,
      "ecegini": 1344,
      "▁fiyatları": 1345,
      "▁seviyesinden": 1346,
      "▁mutf": 1347,
      "▁istasyon": 1348,
      "▁dunya": 1349,
      "▁su": 1350,
      "▁sanat": 1351,
      "ızı": 1352,
      "▁sip": 1353,
      "▁zinc": 1354,
      "▁kodu": 1355,
      "enk": 1356,
      "▁kalabalık": 1357,
      "▁gucu": 1358,
      "▁paraya": 1359,
      "dek": 1360,
      "▁oteli": 1361,
      "imizde": 1362,
      "▁alama": 1363,
      "▁halka": 1364,
      "▁okum": 1365,
      "▁guzellik": 1366,
      "▁veririm": 1367,
      "▁masal": 1368,
      "▁grub": 1369,
      "“": 1370,
      "lek": 1371,
      "▁od": 1372,
      "▁insanların": 1373,
      "landı": 1374,
      "▁hav": 1375,
      "atlı": 1376,
      "▁tor": 1377,
      "be": 1378,
      "atik": 1379,
      "▁uzer": 1380,
      "ımızı": 1381,
      "ayan": 1382,
      "▁geriye": 1383,
      "▁yuzden": 1384,
      "▁endustri": 1385,
      "lay": 1386,
      "dil": 1387,
      "▁kahvalt": 1388,
      "▁cesaret": 1389,
      "lin": 1390,
      "▁--": 1391,
      "▁ilk": 1392,
      "igi": 1393,
      "eyin": 1394,
      "inden": 1395,
      "▁garson": 1396,
      "▁sade": 1397,
      "▁lutfen": 1398,
      "▁kan": 1399,
      "▁ihtiyacım": 1400,
      "▁..": 1401,
      "▁dugun": 1402,
      "▁yumur": 1403,
      "▁toplantı": 1404,
      "▁anlamda": 1405,
      "▁erken": 1406,
      "▁araya": 1407,
      "den": 1408,
      "▁suru": 1409,
      "ch": 1410,
      "▁elinde": 1411,
      "▁gec": 1412,
      "▁yarı": 1413,
      "kac": 1414,
      "tik": 1415,
      "▁yeri": 1416,
      "alama": 1417,
      "5'": 1418,
      "us": 1419,
      "▁ins": 1420,
      "aların": 1421,
      "wa": 1422,
      "indan": 1423,
      "▁farkında": 1424,
      "iy": 1425,
      "▁birim": 1426,
      "sen": 1427,
      "▁finans": 1428,
      "ya": 1429,
      "ts": 1430,
      "▁mus": 1431,
      "▁ic": 1432,
      "▁sirketler": 1433,
      "▁herhangi": 1434,
      "▁hesap": 1435,
      "etici": 1436,
      "isler": 1437,
      "▁yuzde": 1438,
      "ga": 1439,
      "egi": 1440,
      "​": 1441,
      "▁kredi": 1442,
      "▁cab": 1443,
      "ud": 1444,
      "▁12": 1445,
      "ugunu": 1446,
      "▁a": 1447,
      "▁urunleri": 1448,
      "▁hacim": 1449,
      "▁senetleri": 1450,
      "▁6'dan": 1451,
      "▁basa": 1452,
      "zir": 1453,
      "e": 1454,
      "▁karab": 1455,
      "▁han": 1456,
      "▁kitab": 1457,
      "ayol": 1458,
      "isk": 1459,
      "▁fay": 1460,
      "▁sirket": 1461,
      "▁har": 1462,
      "▁vakit": 1463,
      "▁karn": 1464,
      "agın": 1465,
      "▁sipar": 1466,
      "▁oyuncu": 1467,
      "▁oldugu": 1468,
      "▁kasab": 1469,
      "▁bekliyor": 1470,
      "▁havayollarında": 1471,
      "▁kullan": 1472,
      "▁sıcak": 1473,
      "▁personelleri": 1474,
      "▁hak": 1475,
      "▁tır": 1476,
      "▁yeni": 1477,
      "aset": 1478,
      "▁buf": 1479,
      "isyon": 1480,
      "▁kendis": 1481,
      "8": 1482,
      "manın": 1483,
      "azla": 1484,
      "▁ah": 1485,
      "ha": 1486,
      "uf": 1487,
      "mıstır": 1488,
      "▁dususle": 1489,
      "▁onemli": 1490,
      "mayı": 1491,
      "▁8": 1492,
      "▁felaket": 1493,
      "geleri": 1494,
      "abet": 1495,
      "▁gey": 1496,
      "▁key": 1497,
      "▁:": 1498,
      "▁bır": 1499,
      "▁ceb": 1500,
      "▁r": 1501,
      "▁muhal": 1502,
      "ce": 1503,
      "▁mir": 1504,
      "y": 1505,
      "▁olanaklari": 1506,
      "sak": 1507,
      "▁buyum": 1508,
      "▁ucusu": 1509,
      "ekler": 1510,
      "▁gorus": 1511,
      "▁deneme": 1512,
      "▁tav": 1513,
      "▁magaz": 1514,
      "istler": 1515,
      "▁sezon": 1516,
      "▁gay": 1517,
      "et": 1518,
      "▁hukumet": 1519,
      "▁karsi": 1520,
      "▁yar": 1521,
      "▁umut": 1522,
      "▁eg": 1523,
      "▁ves": 1524,
      "▁bede": 1525,
      "▁renk": 1526,
      "▁cevre": 1527,
      "ınt": 1528,
      "ıs": 1529,
      "▁telef": 1530,
      "▁sp": 1531,
      "▁gelecek": 1532,
      "▁kitabı": 1533,
      "▁ekibi": 1534,
      ")": 1535,
      "▁roman": 1536,
      "▁hizm": 1537,
      "▁ail": 1538,
      "▁eks": 1539,
      "▁ban": 1540,
      "▁so": 1541,
      "raz": 1542,
      "ıcı": 1543,
      "mayan": 1544,
      "▁suya": 1545,
      "▁esk": 1546,
      "▁nisan": 1547,
      "▁vermek": 1548,
      "▁veriyorum": 1549,
      "▁le": 1550,
      "▁sub": 1551,
      "▁dahi": 1552,
      "larla": 1553,
      "▁sınav": 1554,
      "layacak": 1555,
      "▁oglen": 1556,
      "▁l": 1557,
      "sızlık": 1558,
      "ye": 1559,
      "arında": 1560,
      "▁alısveris": 1561,
      "▁er": 1562,
      "▁gunluk": 1563,
      "▁ilac": 1564,
      "▁y": 1565,
      "▁ki": 1566,
      "▁kotuydu": 1567,
      "agında": 1568,
      "im": 1569,
      "cı": 1570,
      "eceg": 1571,
      "mes": 1572,
      "▁yoneticileri": 1573,
      "aga": 1574,
      "▁muh": 1575,
      "adıgını": 1576,
      "▁kuc": 1577,
      "ıgına": 1578,
      "▁olay": 1579,
      "uklu": 1580,
      "▁imkanlari": 1581,
      "edik": 1582,
      "▁av": 1583,
      "kun": 1584,
      "▁muhab": 1585,
      "raf": 1586,
      "▁en": 1587,
      "adan": 1588,
      "▁faaliyet": 1589,
      "▁insanlara": 1590,
      "▁pat": 1591,
      "▁yav": 1592,
      "ydı": 1593,
      "–": 1594,
      "abı": 1595,
      "▁kit": 1596,
      "0'": 1597,
      "5": 1598,
      "emez": 1599,
      "sız": 1600,
      "▁aj": 1601,
      "▁zek": 1602,
      "▁uzerine": 1603,
      "▁in": 1604,
      "larım": 1605,
      "▁rap": 1606,
      "ımızın": 1607,
      "acagını": 1608,
      "gul": 1609,
      "aliydi": 1610,
      "▁acık": 1611,
      "eh": 1612,
      "ast": 1613,
      "▁etmem": 1614,
      "▁deniz": 1615,
      "▁halbu": 1616,
      "▁boyun": 1617,
      "▁wash": 1618,
      "▁baba": 1619,
      "unde": 1620,
      "nam": 1621,
      "▁kot": 1622,
      "alık": 1623,
      "▁ulasım": 1624,
      "mekten": 1625,
      "▁ofk": 1626,
      "▁bunu": 1627,
      "▁buc": 1628,
      "▁tamam": 1629,
      "▁akl": 1630,
      "er": 1631,
      "unda": 1632,
      "▁tah": 1633,
      "rak": 1634,
      "▁servis": 1635,
      "▁takım": 1636,
      "▁anlas": 1637,
      "stu": 1638,
      "▁haval": 1639,
      "▁hangi": 1640,
      "lerin": 1641,
      "▁telefonla": 1642,
      "edigim": 1643,
      "▁anim": 1644,
      "gisi": 1645,
      "▁karar": 1646,
      "▁dil": 1647,
      "▁giriste": 1648,
      "hane": 1649,
      "▁dunyanın": 1650,
      "aya": 1651,
      "▁olmaya": 1652,
      "▁tez": 1653,
      "▁burokr": 1654,
      "anc": 1655,
      "▁seyahat": 1656,
      "ksa": 1657,
      "▁heyec": 1658,
      "tir": 1659,
      "▁avukat": 1660,
      "▁yagmur": 1661,
      "▁de": 1662,
      "▁hasta": 1663,
      "▁is": 1664,
      "▁calisanlar": 1665,
      "▁olma": 1666,
      "▁uzun": 1667,
      "ic": 1668,
      "▁icecekler": 1669,
      "▁ide": 1670,
      "asyonu": 1671,
      "▁ikisi": 1672,
      "▁saat": 1673,
      "asında": 1674,
      "kon": 1675,
      "▁sos": 1676,
      "▁bez": 1677,
      "▁mahkem": 1678,
      "lacak": 1679,
      "▁fiyatina": 1680,
      "atif": 1681,
      "oz": 1682,
      "▁lim": 1683,
      "egin": 1684,
      "▁bar": 1685,
      "▁birtak": 1686,
      "▁insaat": 1687,
      "▁fa": 1688,
      "▁rom": 1689,
      "▁gog": 1690,
      "▁yard": 1691,
      "▁kel": 1692,
      "maz": 1693,
      "▁fin": 1694,
      "▁isk": 1695,
      "cu": 1696,
      "ele": 1697,
      "▁f": 1698,
      "▁omuz": 1699,
      "les": 1700,
      "▁bolum": 1701,
      "▁yapmaya": 1702,
      "izi": 1703,
      "▁ileri": 1704,
      "gum": 1705,
      "▁basla": 1706,
      "▁bos": 1707,
      "lıga": 1708,
      "▁arz": 1709,
      "▁sart": 1710,
      "atır": 1711,
      "leyi": 1712,
      "▁tasarruf": 1713,
      "▁kons": 1714,
      "▁sig": 1715,
      "▁etmis": 1716,
      "▁ozgur": 1717,
      "▁haberi": 1718,
      "▁cek": 1719,
      "▁kapının": 1720,
      "elerde": 1721,
      "sik": 1722,
      "▁-": 1723,
      "▁istemiyorum": 1724,
      "▁goze": 1725,
      "z": 1726,
      "▁giy": 1727,
      "▁hanim": 1728,
      "og": 1729,
      "gin": 1730,
      "▁dun": 1731,
      "▁hava": 1732,
      "askanı": 1733,
      "erik": 1734,
      "▁kisiler": 1735,
      "▁yet": 1736,
      "acı": 1737,
      "▁doldur": 1738,
      "▁odadan": 1739,
      "▁vakt": 1740,
      "▁ch": 1741,
      "▁sene": 1742,
      "yo": 1743,
      "'a": 1744,
      "bar": 1745,
      "▁ikti": 1746,
      "▁misaf": 1747,
      "▁washington": 1748,
      "etin": 1749,
      "▁seyir": 1750,
      "▁ihtiyac": 1751,
      "tigi": 1752,
      "elerin": 1753,
      "▁memnun": 1754,
      "eyen": 1755,
      "▁sah": 1756,
      "▁ucuslar": 1757,
      "▁ann": 1758,
      "▁uz": 1759,
      "▁cocuklar": 1760,
      "▁tat": 1761,
      "unuz": 1762,
      "b": 1763,
      "▁polis": 1764,
      "▁sırada": 1765,
      "▁seh": 1766,
      "▁car": 1767,
      "▁yasında": 1768,
      "ant": 1769,
      "▁buy": 1770,
      "▁lak": 1771,
      "▁yana": 1772,
      "ont": 1773,
      "▁kısa": 1774,
      "▁oc": 1775,
      "▁zorunda": 1776,
      "ton": 1777,
      "ustur": 1778,
      "ou": 1779,
      "▁ekmek": 1780,
      "anma": 1781,
      "▁reform": 1782,
      "mer": 1783,
      "▁piyasası": 1784,
      "▁anlamına": 1785,
      "▁ayrıca": 1786,
      "ki": 1787,
      "▁fab": 1788,
      "—": 1789,
      "mıstı": 1790,
      "▁hayatın": 1791,
      "akat": 1792,
      "sı": 1793,
      "▁ilgilen": 1794,
      "tak": 1795,
      "kt": 1796,
      "▁arastır": 1797,
      "▁ac": 1798,
      "▁lezzeti": 1799,
      "yas": 1800,
      "▁yonetim": 1801,
      "▁isin": 1802,
      "▁dis": 1803,
      "lendir": 1804,
      "▁tekl": 1805,
      "ecekler": 1806,
      "▁kalkan": 1807,
      "▁top": 1808,
      "▁devlet": 1809,
      "gın": 1810,
      "▁.": 1811,
      "ograf": 1812,
      "menin": 1813,
      "▁yerden": 1814,
      "▁benim": 1815,
      "▁ısrar": 1816,
      "▁yemekler": 1817,
      "▁ho": 1818,
      "▁birlik": 1819,
      "alan": 1820,
      "▁sandal": 1821,
      "▁kosul": 1822,
      "ılım": 1823,
      "▁dair": 1824,
      "▁ardı": 1825,
      "▁arası": 1826,
      "gıc": 1827,
      "▁malz": 1828,
      "imiz": 1829,
      "▁sekilde": 1830,
      "▁akıl": 1831,
      "▁otel": 1832,
      "▁getir": 1833,
      "inda": 1834,
      "▁begendim": 1835,
      "▁basarı": 1836,
      "asa": 1837,
      "▁aktiv": 1838,
      "▁dakik": 1839,
      "tıg": 1840,
      "ıntı": 1841,
      "iligi": 1842,
      "▁temin": 1843,
      "landır": 1844,
      "▁sadece": 1845,
      "▁olustur": 1846,
      "▁havada": 1847,
      "▁biraz": 1848,
      "▁dans": 1849,
      "di": 1850,
      "gru": 1851,
      "▁sel": 1852,
      "▁ozellikle": 1853,
      "▁elektrik": 1854,
      "▁yazı": 1855,
      "▁istih": 1856,
      "ort": 1857,
      "▁gosterin": 1858,
      "▁zamanı": 1859,
      "▁yemekleri": 1860,
      "▁musteri": 1861,
      "▁icinde": 1862,
      "mam": 1863,
      "una": 1864,
      "▁sup": 1865,
      "▁kara": 1866,
      "▁payı": 1867,
      "▁evine": 1868,
      "▁piyasaya": 1869,
      "esini": 1870,
      "▁ham": 1871,
      "▁komp": 1872,
      "▁herh": 1873,
      "▁sırt": 1874,
      "af": 1875,
      "▁din": 1876,
      "ov": 1877,
      "▁model": 1878,
      "istel": 1879,
      "▁tutun": 1880,
      "▁dusunc": 1881,
      "▁bors": 1882,
      "▁alay": 1883,
      "erv": 1884,
      "▁icerisinde": 1885,
      "taj": 1886,
      "kul": 1887,
      "man": 1888,
      "▁silah": 1889,
      "isiyle": 1890,
      "▁dede": 1891,
      "ey": 1892,
      "▁havalim": 1893,
      "ates": 1894,
      "▁veya": 1895,
      "▁kimsenin": 1896,
      "▁soh": 1897,
      "▁prof": 1898,
      "ligin": 1899,
      "▁ucuslarının": 1900,
      "lerde": 1901,
      "▁ede": 1902,
      "▁dum": 1903,
      "▁ogr": 1904,
      "▁ik": 1905,
      "▁adım": 1906,
      "▁stok": 1907,
      "▁cumle": 1908,
      "co": 1909,
      "▁istek": 1910,
      "▁zaman": 1911,
      "dug": 1912,
      "▁kup": 1913,
      "▁eve": 1914,
      "▁duv": 1915,
      "▁dakika": 1916,
      "▁uretim": 1917,
      "sa": 1918,
      "▁san": 1919,
      "▁etk": 1920,
      "eden": 1921,
      "iste": 1922,
      "w": 1923,
      "▁kardes": 1924,
      "ileri": 1925,
      "▁sını": 1926,
      "ıma": 1927,
      "ars": 1928,
      "▁lira": 1929,
      "▁iste": 1930,
      "▁inan": 1931,
      "▁pir": 1932,
      "▁dolay": 1933,
      "▁aktivite": 1934,
      "▁parti": 1935,
      "▁dunyaya": 1936,
      "▁dukk": 1937,
      "▁dur": 1938,
      "hu": 1939,
      "▁karayolu": 1940,
      "lum": 1941,
      "▁ziyaret": 1942,
      "ag": 1943,
      "▁yemegi": 1944,
      "▁gelir": 1945,
      "▁ha": 1946,
      "imin": 1947,
      "▁yaln": 1948,
      "▁gozler": 1949,
      "▁cap": 1950,
      "▁dusman": 1951,
      "▁taz": 1952,
      "▁misafir": 1953,
      "lantı": 1954,
      "▁genelde": 1955,
      "▁etraf": 1956,
      "▁cicek": 1957,
      "ade": 1958,
      "▁``": 1959,
      "▁sahibi": 1960,
      "▁dusur": 1961,
      "▁istif": 1962,
      "▁belki": 1963,
      "gah": 1964,
      "▁animasyon": 1965,
      "▁sistem": 1966,
      "▁kitap": 1967,
      "cag": 1968,
      "▁hissed": 1969,
      "▁diyor": 1970,
      "▁degis": 1971,
      "▁k": 1972,
      "til": 1973,
      "mekt": 1974,
      "asının": 1975,
      "▁yaklas": 1976,
      "▁aracı": 1977,
      "▁aksama": 1978,
      "meyi": 1979,
      "▁personeli": 1980,
      "▁satısları": 1981,
      "▁ortalama": 1982,
      "ima": 1983,
      "▁hayvan": 1984,
      "ıc": 1985,
      "lamak": 1986,
      "▁denizi": 1987,
      "▁altın": 1988,
      "madim": 1989,
      "ek": 1990,
      "▁ederim": 1991,
      "[PAD]": 1992,
      "▁piyasa": 1993,
      "▁secim": 1994,
      "▁ed": 1995,
      "▁oyunu": 1996,
      "▁efendi": 1997,
      "▁aklı": 1998,
      "▁ingil": 1999,
      "▁tasar": 2000,
      "uyorlar": 2001,
      "lemek": 2002,
      "▁azal": 2003,
      "▁yanıt": 2004,
      "▁cog": 2005,
      "c": 2006,
      "▁yolcu": 2007,
      "▁ogleden": 2008,
      "form": 2009,
      "▁yılı": 2010,
      "▁endise": 2011,
      "ra": 2012,
      "▁bayram": 2013,
      "edig": 2014,
      "ediye": 2015,
      "ask": 2016,
      "sat": 2017,
      "ırım": 2018,
      "ran": 2019,
      "▁ayrı": 2020,
      "▁eskiydi": 2021,
      "▁dug": 2022,
      "▁cel": 2023,
      "▁araz": 2024,
      "masız": 2025,
      "ster": 2026,
      "▁hele": 2027,
      "▁ilav": 2028,
      "▁sak": 2029,
      "▁gunleri": 2030,
      "▁elini": 2031,
      "▁bildir": 2032,
      "▁mevcut": 2033,
      "▁satıs": 2034,
      "▁hap": 2035,
      "▁alacak": 2036,
      "▁alt": 2037,
      "▁kenar": 2038,
      "▁gorusme": 2039,
      "ıya": 2040,
      "▁belir": 2041,
      "mıs": 2042,
      "ların": 2043,
      "▁mun": 2044,
      "▁hapis": 2045,
      "cileri": 2046,
      "mıslar": 2047,
      "▁yoksa": 2048,
      "anın": 2049,
      "▁tac": 2050,
      "ark": 2051,
      "▁seb": 2052,
      "▁sinem": 2053,
      "▁faturam": 2054,
      "▁deg": 2055,
      "agına": 2056,
      "▁dah": 2057,
      "mad": 2058,
      "cılıg": 2059,
      "▁yemeklerden": 2060,
      "▁ise": 2061,
      "meye": 2062,
      "▁ulasımı": 2063,
      "ıl": 2064,
      "emedi": 2065,
      "▁kral": 2066,
      "▁neler": 2067,
      "▁rek": 2068,
      "eticiler": 2069,
      "▁yatırımcılar": 2070,
      "▁$'dan": 2071,
      "▁diger": 2072,
      "▁tas": 2073,
      "ımız": 2074,
      "▁gul": 2075,
      "▁incel": 2076,
      "▁cumhuriyet": 2077,
      "dıktan": 2078,
      "▁rahat": 2079,
      "inde": 2080,
      "▁hazine": 2081,
      "anti": 2082,
      "▁res": 2083,
      "▁pant": 2084,
      "▁gider": 2085,
      "▁yıl": 2086,
      "siy": 2087,
      "▁esya": 2088,
      "▁defa": 2089,
      "▁aktarmasız": 2090,
      "▁kafa": 2091,
      "▁lezzetleri": 2092,
      "▁cic": 2093,
      "▁baktı": 2094,
      "laması": 2095,
      "tan": 2096,
      "▁ula": 2097,
      "imden": 2098,
      "▁ozel": 2099,
      "▁acıl": 2100,
      "ebil": 2101,
      "▁pek": 2102,
      ".": 2103,
      "▁yatırım": 2104,
      "▁gorun": 2105,
      "mız": 2106,
      "▁karak": 2107,
      "▁cocugu": 2108,
      "▁7": 2109,
      "erdi": 2110,
      "▁kalab": 2111,
      "amaya": 2112,
      "▁siyaset": 2113,
      "▁havaalanından": 2114,
      "isi": 2115,
      "▁gu": 2116,
      "0": 2117,
      "eydi": 2118,
      "▁hukumeti": 2119,
      "edir": 2120,
      "▁gordu": 2121,
      "▁sayf": 2122,
      "▁nam": 2123,
      "▁yerine": 2124,
      "uldu": 2125,
      "▁otur": 2126,
      "▁kaldim": 2127,
      "▁satın": 2128,
      "▁kucuk": 2129,
      "▁mo": 2130,
      "▁olabilir": 2131,
      "▁vucut": 2132,
      "▁muhend": 2133,
      "▁c": 2134,
      "▁yapmayı": 2135,
      "ıga": 2136,
      "do": 2137,
      "▁dudak": 2138,
      "ırdı": 2139,
      "enin": 2140,
      "▁onu": 2141,
      "▁naz": 2142,
      "▁odaya": 2143,
      "uyu": 2144,
      "▁penc": 2145,
      "▁isler": 2146,
      "▁endek": 2147,
      "aca": 2148,
      "▁tavuk": 2149,
      "▁tak": 2150,
      "'s": 2151,
      "▁''": 2152,
      "▁ogrenmek": 2153,
      "▁alıs": 2154,
      "▁tec": 2155,
      "▁zamanlarda": 2156,
      "▁tabak": 2157,
      "▁erk": 2158,
      "▁ucusları": 2159,
      "cek": 2160,
      "lerim": 2161,
      "lendi": 2162,
      "▁ekl": 2163,
      "leme": 2164,
      "uya": 2165,
      "▁kazanc": 2166,
      "▁acı": 2167,
      "▁kayıt": 2168,
      "▁pittsburgh": 2169,
      "▁koc": 2170,
      "▁havayolları": 2171,
      "▁mek": 2172,
      "eleri": 2173,
      "▁dallas": 2174,
      "▁ticarette": 2175,
      "ıza": 2176,
      "▁sab": 2177,
      "ali": 2178,
      "▁kaldı": 2179,
      "▁ekm": 2180,
      "▁demokr": 2181,
      "▁cumhur": 2182,
      "evi": 2183,
      "l": 2184,
      "▁mill": 2185,
      "▁par": 2186,
      "kler": 2187,
      "ısına": 2188,
      "▁temiz": 2189,
      "▁bes": 2190,
      "▁mesaj": 2191,
      "▁darb": 2192,
      "▁dag": 2193,
      "eyn": 2194,
      "▁boston'a": 2195,
      "▁tum": 2196,
      "ırtı": 2197,
      "▁ikinci": 2198,
      "▁kelim": 2199,
      "▁basv": 2200,
      "▁huc": 2201,
      "▁vadeli": 2202,
      "iyon": 2203,
      "▁oak": 2204,
      "▁iki": 2205,
      "▁ogret": 2206,
      "▁gecti": 2207,
      "▁rol": 2208,
      "▁mimar": 2209,
      "ime": 2210,
      "▁herk": 2211,
      "▁gir": 2212,
      "par": 2213,
      "▁havayol": 2214,
      "▁sıkıntı": 2215,
      "▁tab": 2216,
      "▁ekonom": 2217,
      "aki": 2218,
      "eyi": 2219,
      "yuz": 2220,
      "▁tartısma": 2221,
      "▁sal": 2222,
      "▁ona": 2223,
      "▁hız": 2224,
      "dikleri": 2225,
      "▁cal": 2226,
      "▁anlay": 2227,
      "▁mar": 2228,
      "si": 2229,
      "▁francisco'ya": 2230,
      "▁m": 2231,
      "▁pittsburgh'tan": 2232,
      "▁haric": 2233,
      "estiri": 2234,
      "▁goz": 2235,
      "‘": 2236,
      "▁new": 2237,
      "▁lam": 2238,
      "▁carsaf": 2239,
      "▁bayan": 2240,
      "yor": 2241,
      "▁bulun": 2242,
      "▁hicbir": 2243,
      "emey": 2244,
      "▁mem": 2245,
      "eri": 2246,
      "▁edebiyat": 2247,
      "▁sif": 2248,
      "▁masa": 2249,
      "▁duvar": 2250,
      "▁belediye": 2251,
      "amet": 2252,
      "▁altında": 2253,
      "▁dalg": 2254,
      "▁anla": 2255,
      "▁us": 2256,
      "ligini": 2257,
      "▁tenc": 2258,
      "▁eder": 2259,
      "▁yarıs": 2260,
      "▁saatlerinde": 2261,
      "▁soyley": 2262,
      "lit": 2263,
      "▁personelin": 2264,
      "▁kok": 2265,
      "▁10": 2266,
      "ısının": 2267,
      "▁uretimi": 2268,
      "▁guc": 2269,
      "▁ihtiyacı": 2270,
      "▁bur": 2271,
      "▁cad": 2272,
      "▁potansiy": 2273,
      "▁cık": 2274,
      "▁gecir": 2275,
      "▁boz": 2276,
      "gel": 2277,
      "/8": 2278,
      "▁oyle": 2279,
      "▁baskanı": 2280,
      "amaz": 2281,
      "▁bor": 2282,
      "▁bina": 2283,
      "▁ih": 2284,
      "onra": 2285,
      "▁mesel": 2286,
      "cun": 2287,
      "▁cıg": 2288,
      "biy": 2289,
      "▁alanda": 2290,
      "▁sabahı": 2291,
      "▁basladı": 2292,
      "etic": 2293,
      "ob": 2294,
      "▁derece": 2295,
      "▁butun": 2296,
      "day": 2297,
      "▁kelime": 2298,
      "▁numara": 2299,
      "▁yorum": 2300,
      "▁oda": 2301,
      "▁bin": 2302,
      "▁direk": 2303,
      "▁orn": 2304,
      "▁vad": 2305,
      "▁/": 2306,
      "ın": 2307,
      "ahat": 2308,
      "▁toplan": 2309,
      "▁gunlerde": 2310,
      "meden": 2311,
      "▁?..": 2312,
      "▁salon": 2313,
      "▁la": 2314,
      "ınc": 2315,
      "▁ser": 2316,
      "▁daha": 2317,
      "▁tuz": 2318,
      "▁bogaz": 2319,
      "▁yaprak": 2320,
      "▁degisiklik": 2321,
      "ıyla": 2322,
      "fen": 2323,
      "▁arkad": 2324,
      "▁kav": 2325,
      "▁fel": 2326,
      "ve": 2327,
      "▁fen": 2328,
      "▁bugune": 2329,
      "▁dort": 2330,
      "▁sıra": 2331,
      "▁fabr": 2332,
      "▁yatırımcıların": 2333,
      "ad": 2334,
      "▁danıs": 2335,
      "▁tezgah": 2336,
      "ren": 2337,
      "acak": 2338,
      "▁gorev": 2339,
      "atı": 2340,
      "▁hik": 2341,
      "ibar": 2342,
      "eyim": 2343,
      "▁git": 2344,
      "▁tay": 2345,
      "=": 2346,
      "▁sul": 2347,
      "mur": 2348,
      "▁tarafından": 2349,
      "▁delik": 2350,
      "ber": 2351,
      "▁kuz": 2352,
      "▁baltimore": 2353,
      "▁hanimdi": 2354,
      "▁ailesi": 2355,
      "▁evi": 2356,
      "unc": 2357,
      "fer": 2358,
      "▁baltimore'ye": 2359,
      "▁yolunu": 2360,
      "edi": 2361,
      "▁politika": 2362,
      "…": 2363,
      "▁ayakta": 2364,
      "▁cem": 2365,
      "▁bahs": 2366,
      "▁burada": 2367,
      "yi": 2368,
      "▁ilgi": 2369,
      "▁hanım": 2370,
      "▁op": 2371,
      "▁nelerdir": 2372,
      "▁ad": 2373,
      "▁gosteri": 2374,
      "▁basbakan": 2375,
      "ince": 2376,
      "▁cocuk": 2377,
      "▁babası": 2378,
      "gim": 2379,
      "▁cocuklu": 2380,
      "▁ucreti": 2381,
      "▁univers": 2382,
      "▁tucc": 2383,
      "mamıs": 2384,
      "▁art": 2385,
      "tal": 2386,
      "▁istiyorum": 2387,
      "▁ardından": 2388,
      "okr": 2389,
      "lıg": 2390,
      "▁sayg": 2391,
      "▁ciz": 2392,
      "ayi": 2393,
      "▁pu": 2394,
      "larına": 2395,
      "miyor": 2396,
      "▁yaptı": 2397,
      "▁4": 2398,
      "yon": 2399,
      "nun": 2400,
      "▁kov": 2401,
      "▁hes": 2402,
      "▁analiz": 2403,
      "▁merkeze": 2404,
      "ers": 2405,
      "▁bana": 2406,
      "estir": 2407,
      "▁verim": 2408,
      "▁fatur": 2409,
      "▁gaz": 2410,
      "▁kos": 2411,
      "uluk": 2412,
      "▁bırak": 2413,
      "▁yiyecek": 2414,
      "▁asagıda": 2415,
      "▁sor": 2416,
      "ama": 2417,
      "dal": 2418,
      "5'ten": 2419,
      "▁ir": 2420,
      "▁dem": 2421,
      "medigini": 2422,
      "▁birligi": 2423,
      "▁sayıda": 2424,
      "▁ogren": 2425,
      "yen": 2426,
      "▁koylu": 2427,
      "!": 2428,
      "▁endis": 2429,
      "▁sehr": 2430,
      "od": 2431,
      "▁kıl": 2432,
      "▁delikan": 2433,
      "detti": 2434,
      "▁pr": 2435,
      "▁durus": 2436,
      "▁calıs": 2437,
      "ımıza": 2438,
      "2": 2439,
      "▁olsun": 2440,
      "▁gercekl": 2441,
      "▁eylem": 2442,
      "▁ulas": 2443,
      "▁konus": 2444,
      "▁gozden": 2445,
      "▁geldi": 2446,
      "▁doları": 2447,
      "ban": 2448,
      "▁ig": 2449,
      "indi": 2450,
      "▁vade": 2451,
      "ley": 2452,
      "▁olması": 2453,
      "▁kalit": 2454,
      "▁temizlik": 2455,
      "▁uzerinden": 2456,
      "▁yerler": 2457,
      "▁sorunun": 2458,
      "▁cer": 2459,
      "▁adamın": 2460,
      "▁esy": 2461,
      "▁guleryuzlu": 2462,
      "▁ceyrekte": 2463,
      "▁sis": 2464,
      "dik": 2465,
      "alma": 2466,
      "▁genis": 2467,
      "larında": 2468,
      "▁dom": 2469,
      "dıgında": 2470,
      "▁hamam": 2471,
      "▁gorunuyor": 2472,
      "▁kurtaj": 2473,
      "▁kr": 2474,
      "emek": 2475,
      "▁misafirimiz": 2476,
      "▁hayır": 2477,
      "inti": 2478,
      "▁mev": 2479,
      "av": 2480,
      "▁bil": 2481,
      "▁dolar": 2482,
      "▁men": 2483,
      "▁pos": 2484,
      "▁gozleri": 2485,
      "iyorlar": 2486,
      "dırım": 2487,
      "▁sıkınt": 2488,
      "▁bıraktı": 2489,
      "▁idare": 2490,
      "▁kahvalti": 2491,
      "na": 2492,
      "▁mevzu": 2493,
      "▁kim": 2494,
      "ub": 2495,
      "embe": 2496,
      "▁cıkar": 2497,
      "ph": 2498,
      "▁…": 2499,
      "▁derecede": 2500,
      "dugunu": 2501,
      "▁imkan": 2502,
      "▁bag": 2503,
      "▁gom": 2504,
      "ını": 2505,
      "tluk": 2506,
      "mesini": 2507,
      "▁laf": 2508,
      "▁yılının": 2509,
      "cının": 2510,
      "masının": 2511,
      "▁konf": 2512,
      "▁kopek": 2513,
      "▁tam": 2514,
      "▁mak": 2515,
      "▁degerlendir": 2516,
      "▁sik": 2517,
      "mi": 2518,
      "\\": 2519,
      "kel": 2520,
      "▁patlıc": 2521,
      "▁saf": 2522,
      "▁sok": 2523,
      "▁tan": 2524,
      "▁imkanlar": 2525,
      "▁kor": 2526,
      "▁anay": 2527,
      "'": 2528,
      "if": 2529,
      "ati": 2530,
      "▁eylul": 2531,
      "▁devralma": 2532,
      "▁dib": 2533,
      "▁tahta": 2534,
      "idi": 2535,
      "▁kapas": 2536,
      "asından": 2537,
      "▁konumu": 2538,
      "▁pantol": 2539,
      "st": 2540,
      "uyorum": 2541,
      "▁buyume": 2542,
      "re": 2543,
      "inin": 2544,
      "▁mevz": 2545,
      "▁basın": 2546,
      "▁ustune": 2547,
      "▁mevdu": 2548,
      "▁hizmetten": 2549,
      "amba": 2550,
      "▁boyle": 2551,
      "izasyon": 2552,
      "eni": 2553,
      "▁bog": 2554,
      "▁kahve": 2555,
      "▁cesitleri": 2556,
      "▁seklinde": 2557,
      "lanır": 2558,
      "unden": 2559,
      "▁sirketin": 2560,
      "▁kalk": 2561,
      "#": 2562,
      "▁sozu": 2563,
      "▁=": 2564,
      "▁yerde": 2565,
      "▁durumda": 2566,
      "▁kil": 2567,
      "lk": 2568,
      "▁seye": 2569,
      "iber": 2570,
      "▁haft": 2571,
      "▁sozcusu": 2572,
      "sınız": 2573,
      "labilir": 2574,
      "cılar": 2575,
      "aat": 2576,
      "▁5'ten": 2577,
      "▁istifa": 2578,
      "edef": 2579,
      "umda": 2580,
      "lim": 2581,
      "acılık": 2582,
      "▁cin": 2583,
      ":": 2584,
      "▁francisco": 2585,
      "▁itiraz": 2586,
      "lerine": 2587,
      "'de": 2588,
      "ecek": 2589,
      "▁domates": 2590,
      "▁bile": 2591,
      "▁bilgis": 2592,
      "mustu": 2593,
      "liginden": 2594,
      "ılıgı": 2595,
      "▁anlama": 2596,
      "▁akt": 2597,
      "▁nes": 2598,
      "▁sayı": 2599,
      "▁siir": 2600,
      "▁pitts": 2601,
      "iyeti": 2602,
      "▁beklenti": 2603,
      "▁soyledi": 2604,
      "▁dilim": 2605,
      "hur": 2606,
      "▁ek": 2607,
      "▁kısıt": 2608,
      "lge": 2609,
      "ımızda": 2610,
      "▁ger": 2611,
      "▁restor": 2612,
      "ite": 2613,
      "▁potansiyel": 2614,
      "▁fikr": 2615,
      "▁amc": 2616,
      "▁islerini": 2617,
      "emi": 2618,
      "▁ton": 2619,
      "▁egit": 2620,
      "▁kı": 2621,
      "▁ilan": 2622,
      "▁alma": 2623,
      "▁toh": 2624,
      "▁ortal": 2625,
      "▁kayn": 2626,
      "'nın": 2627,
      "▁elb": 2628,
      "▁bo": 2629,
      "▁etti": 2630,
      "imize": 2631,
      "iyet": 2632,
      "▁*": 2633,
      "udu": 2634,
      "▁ucus": 2635,
      "▁alın": 2636,
      "▁devletin": 2637,
      "▁ana": 2638,
      "▁donus": 2639,
      "▁yılında": 2640,
      "▁bask": 2641,
      "▁acıklam": 2642,
      "▁demir": 2643,
      "▁un": 2644,
      "▁otob": 2645,
      "sim": 2646,
      "▁!..": 2647,
      "▁mektu": 2648,
      "▁yani": 2649,
      "▁diy": 2650,
      "▁iflas": 2651,
      "▁hab": 2652,
      "▁19": 2653,
      "iden": 2654,
      "ucu": 2655,
      "▁halinde": 2656,
      "▁kade": 2657,
      "leri": 2658,
      "▁evin": 2659,
      "▁kucuktu": 2660,
      "▁suc": 2661,
      "▁var": 2662,
      "▁tarz": 2663,
      "gili": 2664,
      "▁bank": 2665,
      "ilmesi": 2666,
      "ında": 2667,
      "'nin": 2668,
      "▁alak": 2669,
      "kin": 2670,
      "▁hur": 2671,
      "endi": 2672,
      "▁kir": 2673,
      "▁ayr": 2674,
      "astır": 2675,
      "esiyle": 2676,
      "▁yor": 2677,
      "ee": 2678,
      "▁kaynak": 2679,
      "irler": 2680,
      "▁9": 2681,
      "▁isim": 2682,
      "▁yiy": 2683,
      "▁send": 2684,
      "▁terk": 2685,
      "▁enerji": 2686,
      "▁fak": 2687,
      "▁tesekkur": 2688,
      "▁miktar": 2689,
      "maktan": 2690,
      "▁vaz": 2691,
      "ada": 2692,
      "▁cunku": 2693,
      "▁kol": 2694,
      "▁bunun": 2695,
      "▁rad": 2696,
      "▁mikr": 2697,
      "ayı": 2698,
      "hut": 2699,
      "luk": 2700,
      "▁bul": 2701,
      "dir": 2702,
      "▁tarif": 2703,
      "▁gunduz": 2704,
      "▁oyunc": 2705,
      "▁girdi": 2706,
      "esi": 2707,
      "▁bilgi": 2708,
      "ıyor": 2709,
      "▁zincir": 2710,
      "masından": 2711,
      "▁sayısı": 2712,
      "ındaki": 2713,
      "▁bulundu": 2714,
      "▁arasında": 2715,
      "umuz": 2716,
      "ly": 2717,
      "▁eser": 2718,
      "▁hizmeti": 2719,
      "▁biz": 2720,
      "▁doviz": 2721,
      "iz": 2722,
      "stır": 2723,
      "▁grubu": 2724,
      "▁ar": 2725,
      "▁yurt": 2726,
      "v": 2727,
      "▁kokusu": 2728,
      "▁listele": 2729,
      "▁iler": 2730,
      "▁varlık": 2731,
      "▁sonuna": 2732,
      "up": 2733,
      "▁acısından": 2734,
      "▁tahmin": 2735,
      "▁dest": 2736,
      "▁odeme": 2737,
      "▁uret": 2738,
      "der": 2739,
      "▁nit": 2740,
      "il": 2741,
      "▁ustunde": 2742,
      "ji": 2743,
      "▁kamu": 2744,
      "▁adamları": 2745,
      "bilir": 2746,
      "▁i": 2747,
      "▁fikir": 2748,
      "▁man": 2749,
      "▁lis": 2750,
      "▁olmalı": 2751,
      "ıy": 2752,
      "'e": 2753,
      "it": 2754,
      "lak": 2755,
      "▁boston'dan": 2756,
      "▁adam": 2757,
      "▁bilim": 2758,
      "ansiyon": 2759,
      "▁degisiklikler": 2760,
      "▁yas": 2761,
      "▁dig": 2762,
      "▁yag": 2763,
      "▁haline": 2764,
      "ten": 2765,
      "as": 2766,
      "▁get": 2767,
      "▁prob": 2768,
      "▁temmuz": 2769,
      "ikler": 2770,
      "▁adina": 2771,
      "▁ipotek": 2772,
      "lilik": 2773,
      "▁kurt": 2774,
      "▁kurulu": 2775,
      "▁olacagını": 2776,
      "▁3": 2777,
      "▁bicimde": 2778,
      "▁emeklilik": 2779,
      "\"": 2780,
      "bil": 2781,
      "▁sordu": 2782,
      "go": 2783,
      "orm": 2784,
      "▁parasını": 2785,
      "▁tedbir": 2786,
      "▁senet": 2787,
      "▁sendika": 2788,
      "eginde": 2789,
      "▁kampanyalardan": 2790,
      "▁kop": 2791,
      "ledi": 2792,
      "’": 2793,
      "dı": 2794,
      "▁gidi": 2795,
      "ıdır": 2796,
      "▁kasıgı": 2797,
      "▁ilet": 2798,
      "gan": 2799,
      "▁evden": 2800,
      "▁yazar": 2801,
      "enleri": 2802,
      "▁dahil": 2803,
      "▁kontr": 2804,
      "▁strate": 2805,
      "'in": 2806,
      "▁den": 2807,
      "▁gunes": 2808,
      "arlar": 2809,
      "▁temel": 2810,
      "▁nokta": 2811,
      "▁kuy": 2812,
      "▁savas": 2813,
      "▁devam": 2814,
      "onom": 2815,
      "▁dizi": 2816,
      "▁yılda": 2817,
      "▁baz": 2818,
      "▁anlat": 2819,
      "▁organ": 2820,
      "gıt": 2821,
      "▁ib": 2822,
      "▁gunun": 2823,
      "▁ayında": 2824,
      "izm": 2825,
      "▁pencer": 2826,
      "▁mahkemesi": 2827,
      "▁sın": 2828,
      "uydu": 2829,
      "▁az": 2830,
      "▁suyu": 2831,
      "▁mim": 2832,
      "▁fiyata": 2833,
      "▁tar": 2834,
      "▁ord": 2835,
      "▁oyku": 2836,
      "▁rakamlar": 2837,
      "eti": 2838,
      "▁geliri": 2839,
      "me": 2840,
      "▁avuc": 2841,
      "▁abd": 2842,
      "anıt": 2843,
      "lıklar": 2844,
      "tig": 2845,
      "▁meslek": 2846,
      "▁uzak": 2847,
      "▁hakkı": 2848,
      "▁gunden": 2849,
      "etti": 2850,
      "▁pit": 2851,
      "agını": 2852,
      "▁lir": 2853,
      "▁alk": 2854,
      "▁islemlerinde": 2855,
      "pan": 2856,
      "▁annemin": 2857,
      "▁ka": 2858,
      "▁birkac": 2859,
      "q": 2860,
      "▁iyiydi": 2861,
      "ardı": 2862,
      "▁diye": 2863,
      "▁cun": 2864,
      "▁gob": 2865,
      "▁ucmak": 2866,
      "tigini": 2867,
      "denin": 2868,
      "▁mey": 2869,
      "ler": 2870,
      "isti": 2871,
      "esinin": 2872,
      "or": 2873,
      "▁cev": 2874,
      "ıcak": 2875,
      "kal": 2876,
      "▁alısver": 2877,
      "▁barıs": 2878,
      "▁ediyorum": 2879,
      "▁her": 2880,
      "bol": 2881,
      "▁edecek": 2882,
      "▁teknoloj": 2883,
      "mal": 2884,
      "▁bebek": 2885,
      "inlik": 2886,
      "▁hayata": 2887,
      "▁form": 2888,
      "▁ters": 2889,
      "▁cok": 2890,
      "alt": 2891,
      "▁nef": 2892,
      "▁veri": 2893,
      "agının": 2894,
      "▁plani": 2895,
      "lemeye": 2896,
      "▁parcası": 2897,
      "▁yapıyor": 2898,
      "▁ren": 2899,
      "▁fotograf": 2900,
      "▁icra": 2901,
      "ayacagını": 2902,
      "enlerin": 2903,
      "▁mahkeme": 2904,
      "itr": 2905,
      "▁tesp": 2906,
      "▁bic": 2907,
      "▁$'a": 2908,
      "inc": 2909,
      "ının": 2910,
      "onel": 2911,
      "▁met": 2912,
      "▁gerekiyor": 2913,
      "▁sarkı": 2914,
      "emli": 2915,
      "larını": 2916,
      "eyh": 2917,
      "▁giris": 2918,
      "▁sehrin": 2919,
      "unun": 2920,
      "▁kalb": 2921,
      "▁muhaf": 2922,
      "▁olursa": 2923,
      "▁animasyonlar": 2924,
      "▁fayda": 2925,
      "▁resim": 2926,
      "▁bay": 2927,
      "▁seyden": 2928,
      "▁ortak": 2929,
      "▁ediyordu": 2930,
      "8'de": 2931,
      "manlar": 2932,
      "ligi": 2933,
      "▁bugun": 2934,
      "he": 2935,
      "▁ener": 2936,
      "▁yoktu": 2937,
      "▁ola": 2938,
      "yan": 2939,
      "▁cizgi": 2940,
      "▁ettigini": 2941,
      "ıg": 2942,
      "▁civ": 2943,
      "▁ihrac": 2944,
      "▁ankete": 2945,
      "▁;": 2946,
      "▁aksamı": 2947,
      "▁borsa": 2948,
      "▁temizligi": 2949,
      "▁erkek": 2950,
      "lac": 2951,
      "▁sonunda": 2952,
      "eda": 2953,
      "▁milyar": 2954,
      "mesine": 2955,
      "▁pers": 2956,
      "▁merkezine": 2957,
      "▁burn": 2958,
      "▁isaret": 2959,
      "▁barda": 2960,
      "oc": 2961,
      "gre": 2962,
      "▁yanına": 2963,
      "▁plan": 2964,
      "▁“": 2965,
      "▁havayollarının": 2966,
      "▁arkasından": 2967,
      "▁bileti": 2968,
      "▁mut": 2969,
      "gunu": 2970,
      "ektr": 2971,
      "▁basta": 2972,
      "▁polit": 2973,
      "▁hisseye": 2974,
      "▁dortluk": 2975,
      "ından": 2976,
      "▁tad": 2977,
      "▁bunlar": 2978,
      "▁iceri": 2979,
      "uzlu": 2980,
      "▁olm": 2981,
      "▁yardımcısı": 2982,
      "▁numar": 2983,
      "aydi": 2984,
      "▁politik": 2985,
      "lanmıs": 2986,
      "▁cogu": 2987,
      "ut": 2988,
      "▁ihal": 2989,
      "▁ulke": 2990,
      "ecilik": 2991,
      "▁emek": 2992,
      "▁buz": 2993,
      "▁arastırma": 2994,
      "▁mola": 2995,
      "▁bakıs": 2996,
      "▁sonucu": 2997,
      "▁piyan": 2998,
      "uc": 2999,
      "▁sermaye": 3000,
      "▁pilot": 3001,
      "▁mag": 3002,
      "▁p": 3003,
      "▁rekor": 3004,
      "▁tesekkurler": 3005,
      "eldi": 3006,
      "kar": 3007,
      "▁sans": 3008,
      "▁corba": 3009,
      "ir": 3010,
      "lik": 3011,
      "▁yuzme": 3012,
      "▁unut": 3013,
      "▁yon": 3014,
      "'y": 3015,
      "▁beyin": 3016,
      "▁inc": 3017,
      "▁olarak": 3018,
      "▁yonetici": 3019,
      "ans": 3020,
      "leriyle": 3021,
      "▁hasar": 3022,
      "▁uygulama": 3023,
      "▁merkez": 3024,
      "▁kadının": 3025,
      "▁fiyat": 3026,
      "▁dal": 3027,
      "▁oy": 3028,
      "▁yeter": 3029,
      "imdi": 3030,
      "▁tavır": 3031,
      "▁siz": 3032,
      "eye": 3033,
      "▁paz": 3034,
      "▁yemeklerin": 3035,
      "at": 3036,
      "tıl": 3037,
      "▁anda": 3038,
      "▁cercev": 3039,
      "▁ber": 3040,
      "▁yeniden": 3041,
      "dugu": 3042,
      "meger": 3043,
      "▁cevap": 3044,
      "▁dolarlık": 3045,
      "isindan": 3046,
      "edav": 3047,
      "▁yanl": 3048,
      "▁mil": 3049,
      "masına": 3050,
      "▁olanak": 3051,
      "▁odun": 3052,
      "▁makine": 3053,
      "▁hakk": 3054,
      "adı": 3055,
      "ı": 3056,
      "▁onay": 3057,
      "ter": 3058,
      "▁hareket": 3059,
      "daydi": 3060,
      "▁gel": 3061,
      "▁yen": 3062,
      "gr": 3063,
      "▁boyn": 3064,
      "▁ayn": 3065,
      "burgh": 3066,
      "dım": 3067,
      "▁annem": 3068,
      "▁oldugunu": 3069,
      "▁deprem": 3070,
      "uv": 3071,
      "▁begen": 3072,
      "▁kısmı": 3073,
      "▁mudur": 3074,
      "▁yarat": 3075,
      "▁gayrimenkul": 3076,
      "▁degildi": 3077,
      "▁topr": 3078,
      "▁bolumu": 3079,
      "ile": 3080,
      "▁ken": 3081,
      "▁ter": 3082,
      "▁maliyet": 3083,
      "arı": 3084,
      "mey": 3085,
      "usunu": 3086,
      "▁mahk": 3087,
      "▁fran": 3088,
      "▁1.": 3089,
      "larımız": 3090,
      "▁dengesi": 3091,
      "▁teknoloji": 3092,
      "ram": 3093,
      "▁ısık": 3094,
      "▁agır": 3095,
      "▁makal": 3096,
      "▁as": 3097,
      "▁atlan": 3098,
      "ev": 3099,
      "▁sonrası": 3100,
      "▁teor": 3101,
      "sın": 3102,
      "▁programı": 3103,
      "▁boyu": 3104,
      "dıgın": 3105,
      "▁hey": 3106,
      "ldi": 3107,
      "acılar": 3108,
      "iyor": 3109,
      "▁harc": 3110,
      "▁ted": 3111,
      "▁olmad": 3112,
      "▁gars": 3113,
      "ikat": 3114,
      "▁kas": 3115,
      "elli": 3116,
      "▁boyut": 3117,
      "▁altına": 3118,
      "▁gerc": 3119,
      "▁kom": 3120,
      "cih": 3121,
      "mas": 3122,
      "tlu": 3123,
      "▁artısla": 3124,
      "▁ode": 3125,
      "▁ceza": 3126,
      "▁eden": 3127,
      "▁uzman": 3128,
      "▁orta": 3129,
      "▁list": 3130,
      "▁oglum": 3131,
      "ılır": 3132,
      "'da": 3133,
      "▁.\"": 3134,
      "▁kultur": 3135,
      "▁kumas": 3136,
      "lastır": 3137,
      "▁sovyet": 3138,
      "▁zarar": 3139,
      "▁tehlik": 3140,
      "▁cıktı": 3141,
      "▁komisyon": 3142,
      "▁ellerinde": 3143,
      "ate": 3144,
      "▁enflasyon": 3145,
      "▁bakanı": 3146,
      "▁ogl": 3147,
      "▁yardım": 3148,
      "uzluydu": 3149,
      "aklı": 3150,
      "rı": 3151,
      "yla": 3152,
      "▁vur": 3153,
      "undan": 3154,
      "▁olsa": 3155,
      "lu": 3156,
      "usunun": 3157,
      "igini": 3158,
      "▁part": 3159,
      "ine": 3160,
      "▁sinir": 3161,
      "dak": 3162,
      "▁gozlerini": 3163,
      "kan": 3164,
      "sal": 3165,
      "imizin": 3166,
      "and": 3167,
      "sizdi": 3168,
      "▁hastan": 3169,
      "▁pazartesi": 3170,
      "▁paran": 3171,
      "yası": 3172,
      "sef": 3173,
      "▁sonu": 3174,
      "lıgın": 3175,
      "▁pol": 3176,
      "▁beyaz": 3177,
      "▁sir": 3178,
      "▁faiz": 3179,
      "▁toplam": 3180,
      "liligi": 3181,
      "ıklık": 3182,
      "▁#": 3183,
      "[CLS]": 3184,
      "▁kaliteye": 3185,
      "▁ay": 3186,
      "reti": 3187,
      "▁dıs": 3188,
      "ımı": 3189,
      "▁philadelphia": 3190,
      "▁satır": 3191,
      "uguna": 3192,
      "▁cit": 3193,
      "▁yol": 3194,
      "lerini": 3195,
      "▁grup": 3196,
      "ıh": 3197,
      "ecegine": 3198,
      "layan": 3199,
      "▁gen": 3200,
      "uyla": 3201,
      "luluk": 3202,
      "▁elektr": 3203,
      "op": 3204,
      "▁ithal": 3205,
      "*": 3206,
      "▁%": 3207,
      "larımı": 3208,
      "iyordu": 3209,
      "▁zorluk": 3210,
      "▁guler": 3211,
      "▁ayakk": 3212,
      "▁teh": 3213,
      "▁cars": 3214,
      "▁bıy": 3215,
      "ata": 3216,
      "▁gecesi": 3217,
      "madı": 3218,
      "land": 3219,
      "oru": 3220,
      "erler": 3221,
      "▁199": 3222,
      "urdu": 3223,
      "▁uf": 3224,
      "▁sil": 3225,
      "dur": 3226,
      "tiv": 3227,
      "▁masraf": 3228,
      "▁park": 3229,
      "ur": 3230,
      "▁goc": 3231,
      "▁sav": 3232,
      "▁sozcu": 3233,
      "▁vardi": 3234,
      "te": 3235,
      "▁cat": 3236,
      "▁yapım": 3237,
      "▁kumar": 3238,
      "areti": 3239,
      "▁onceki": 3240,
      "▁sektor": 3241,
      "▁bazi": 3242,
      "est": 3243,
      "▁cift": 3244,
      "lugunu": 3245,
      "larımızı": 3246,
      "maları": 3247,
      "osu": 3248,
      "▁karsiligini": 3249,
      "▁dov": 3250,
      "lamaya": 3251,
      "▁muhafaz": 3252,
      "▁rah": 3253,
      "▁amerik": 3254,
      "▁tahviller": 3255,
      "▁gru": 3256,
      "▁faal": 3257,
      "%": 3258,
      "ust": 3259,
      "▁rezervasyonu": 3260,
      "▁insanları": 3261,
      "▁fabrika": 3262,
      "▁atlanta'ya": 3263,
      "▁artısı": 3264,
      "j": 3265,
      "▁bas": 3266,
      "▁yem": 3267,
      "isine": 3268,
      "▁ucuslarını": 3269,
      "▁makin": 3270,
      "▁tarihi": 3271,
      "▁ofis": 3272,
      "tıgını": 3273,
      "▁mas": 3274,
      "▁kon": 3275,
      "eger": 3276,
      "▁yarın": 3277,
      "▁hizmetleri": 3278,
      "▁fiyatlar": 3279,
      "▁sık": 3280,
      "ıt": 3281,
      "▁destek": 3282,
      "ume": 3283,
      "▁artır": 3284,
      "▁manz": 3285,
      "tıgı": 3286,
      "ma": 3287,
      "ım": 3288,
      "▁ust": 3289,
      "▁ilg": 3290,
      "▁mart": 3291,
      "▁savun": 3292,
      "ekti": 3293,
      "▁nis": 3294,
      "uktu": 3295,
      "▁sikayet": 3296,
      "▁dav": 3297,
      "ması": 3298,
      "abil": 3299,
      "▁perform": 3300,
      "alet": 3301,
      "misti": 3302,
      "in": 3303,
      "▁endeks": 3304,
      "▁katkıda": 3305,
      "▁listel": 3306,
      "▁gune": 3307,
      "▁gosterdi": 3308,
      "rar": 3309,
      "liginde": 3310,
      "int": 3311,
      "▁sozles": 3312,
      "▁es": 3313,
      "on": 3314,
      "▁ara": 3315,
      "▁birbir": 3316,
      "▁mis": 3317,
      "▁henuz": 3318,
      "▁anlam": 3319,
      "▁tartıs": 3320,
      "▁sanayi": 3321,
      "▁onem": 3322,
      "▁endeksi": 3323,
      "ende": 3324,
      "ımın": 3325,
      "▁kıs": 3326,
      "▁uyku": 3327,
      "ları": 3328,
      "▁gazeteci": 3329,
      "▁sonr": 3330,
      "bi": 3331,
      "burg": 3332,
      "▁str": 3333,
      "▁itibar": 3334,
      "tur": 3335,
      "▁cir": 3336,
      "emin": 3337,
      "▁gecen": 3338,
      "▁sermay": 3339,
      "▁kar": 3340,
      "▁aqu": 3341,
      "▁basına": 3342,
      "▁demek": 3343,
      "ip": 3344,
      "liydi": 3345,
      "mus": 3346,
      "▁sat": 3347,
      "ediyor": 3348,
      "▁satım": 3349,
      "▁gemi": 3350,
      "▁saati": 3351,
      "artesi": 3352,
      "dan": 3353,
      "▁muam": 3354,
      "asıyla": 3355,
      "▁sirketleri": 3356,
      "▁sigorta": 3357,
      "▁elem": 3358,
      "▁sokak": 3359,
      "▁gelen": 3360,
      "▁petr": 3361,
      "aması": 3362,
      "▁insa": 3363,
      "▁yakın": 3364,
      "000": 3365,
      "▁yer": 3366,
      "dıgı": 3367,
      "▁mah": 3368,
      "▁j": 3369,
      "▁net": 3370,
      "div": 3371,
      "▁manzarasi": 3372,
      "▁yur": 3373,
      "▁poz": 3374,
      "▁icine": 3375,
      "?": 3376,
      "▁geliyor": 3377,
      "▁sirketi": 3378,
      "▁bol": 3379,
      "▁beg": 3380,
      "▁tr": 3381,
      "lasyon": 3382,
      "dar": 3383,
      "▁taleb": 3384,
      "▁sid": 3385,
      "&": 3386,
      "ekkur": 3387,
      "▁almak": 3388,
      "▁kıy": 3389,
      "eticisi": 3390,
      "▁doktor": 3391,
      "uslar": 3392,
      "▁ucret": 3393,
      "imde": 3394,
      "▁baslan": 3395,
      "▁tası": 3396,
      "▁kurum": 3397,
      "▁soyl": 3398,
      "edigini": 3399,
      "▁genel": 3400,
      "digini": 3401,
      "▁dol": 3402,
      "▁cil": 3403,
      "usuna": 3404,
      "ılan": 3405,
      "▁merkezi": 3406,
      "▁sen": 3407,
      "gun": 3408,
      "meleri": 3409,
      "▁listesini": 3410,
      "▁kal": 3411,
      "lem": 3412,
      "alarda": 3413,
      "▁muc": 3414,
      "▁sim": 3415,
      "▁hos": 3416,
      "bak": 3417,
      "▁korku": 3418,
      "▁tes": 3419,
      "hi": 3420,
      "▁yok": 3421,
      "▁go": 3422,
      ".5": 3423,
      "▁eski": 3424,
      "izlik": 3425,
      "▁devir": 3426,
      "m": 3427,
      "▁sun": 3428,
      "▁ilgisi": 3429,
      "ırak": 3430,
      "arlan": 3431,
      "ciler": 3432,
      "ustu": 3433,
      "asın": 3434,
      "▁anal": 3435,
      "▁dey": 3436,
      "▁tic": 3437,
      "▁sur": 3438,
      "▁yum": 3439,
      "muz": 3440,
      "urlu": 3441,
      "ore": 3442,
      "▁edildi": 3443,
      "▁yasa": 3444,
      "▁kuf": 3445,
      "da": 3446,
      "▁komut": 3447,
      "elere": 3448,
      "i": 3449,
      "▁endustr": 3450,
      "▁guz": 3451,
      "▁iy": 3452,
      "▁gazete": 3453,
      "▁vuc": 3454,
      "▁'": 3455,
      "▁gerektigini": 3456,
      "▁bab": 3457,
      "es": 3458,
      "▁para": 3459,
      "▁tiyatr": 3460,
      "▁ayakkabı": 3461,
      "▁veriyor": 3462,
      "▁franc": 3463,
      "▁id": 3464,
      "lige": 3465,
      "▁odasına": 3466,
      "▁kapı": 3467,
      "▁ucusların": 3468,
      "▁oranında": 3469,
      "▁dok": 3470,
      "▁yanı": 3471,
      "madan": 3472,
      "ıgın": 3473,
      "gunluk": 3474,
      "▁aralık": 3475,
      "▁elde": 3476,
      "▁uygun": 3477,
      "▁uretici": 3478,
      "ısız": 3479,
      "▁amac": 3480,
      "▁fr": 3481,
      "▁ocak": 3482,
      "▁bakım": 3483,
      "▁direktor": 3484,
      "▁cep": 3485,
      "un": 3486,
      "▁konuda": 3487,
      "'un": 3488,
      "▁b": 3489,
      "▁far": 3490,
      "▁komsu": 3491,
      "▁sag": 3492,
      "▁yetersizdi": 3493,
      "▁kere": 3494,
      "▁azından": 3495,
      "makt": 3496,
      "▁performans": 3497,
      "izdi": 3498,
      "▁orne": 3499,
      "bet": 3500,
      "▁rezerv": 3501,
      "▁dolara": 3502,
      "▁8'den": 3503,
      "▁tarafı": 3504,
      "mini": 3505,
      "▁class": 3506,
      "etleri": 3507,
      "▁5": 3508,
      "▁basar": 3509,
      "▁kulak": 3510,
      "▁nasıl": 3511,
      "must": 3512,
      "▁oper": 3513,
      "▁gunde": 3514,
      "▁kem": 3515,
      "▁etrafında": 3516,
      "▁vatand": 3517,
      "▁merdiv": 3518,
      "tor": 3519,
      "lbu": 3520,
      "▁hic": 3521,
      "ıyordu": 3522,
      "▁orada": 3523,
      "▁sure": 3524,
      "▁yuz": 3525,
      "▁yıla": 3526,
      "▁dogr": 3527,
      "'ndan": 3528,
      "▁6": 3529,
      "lerdi": 3530,
      "▁pla": 3531,
      "▁cocukları": 3532,
      "▁hisseler": 3533,
      "▁sohbet": 3534,
      "▁duzen": 3535,
      "▁kimi": 3536,
      "sam": 3537,
      "▁gem": 3538,
      "▁d": 3539,
      "▁masanın": 3540,
      "ia": 3541,
      "▁ul": 3542,
      "▁vardır": 3543,
      "▁iht": 3544,
      "ıyorum": 3545,
      "▁mark": 3546,
      "▁ayda": 3547,
      "▁icinden": 3548,
      "ez": 3549,
      "▁kab": 3550,
      "alarım": 3551,
      "ana": 3552,
      "▁yere": 3553,
      "maktadır": 3554,
      "is": 3555,
      "▁hast": 3556,
      "▁indir": 3557,
      "▁bak": 3558,
      "▁mail": 3559,
      "min": 3560,
      "etim": 3561,
      "▁internet": 3562,
      "ding": 3563,
      "▁oteldi": 3564,
      "▁suk": 3565,
      "ulmus": 3566,
      "asi": 3567,
      "ırt": 3568,
      "san": 3569,
      "▁vak": 3570,
      "'nda": 3571,
      "iklik": 3572,
      "asıl": 3573,
      "▁mucadele": 3574,
      "ul": 3575,
      "ılmıs": 3576,
      "▁tuketici": 3577,
      "▁akr": 3578,
      "tih": 3579,
      "lardı": 3580,
      "▁sov": 3581,
      "▁carsamba": 3582,
      "▁vap": 3583,
      "ib": 3584,
      "▁bilgisay": 3585,
      "lanı": 3586,
      "▁to": 3587,
      "▁teklifi": 3588,
      "▁simdiye": 3589,
      "iyorum": 3590,
      "▁nefes": 3591,
      "▁gozu": 3592,
      "aret": 3593,
      "masın": 3594,
      "urt": 3595,
      "▁senedi": 3596,
      "ilmis": 3597,
      "ht": 3598,
      "▁gos": 3599,
      "imci": 3600,
      "▁yonetimi": 3601,
      "▁baska": 3602,
      "ecegi": 3603,
      "▁vergi": 3604,
      "▁program": 3605,
      "▁yıllık": 3606,
      "lat": 3607,
      "▁sekret": 3608,
      "▁yap": 3609,
      "uyordu": 3610,
      "▁duny": 3611,
      "▁konu": 3612,
      "met": 3613,
      "ıyı": 3614,
      "▁kimse": 3615,
      "▁bardagı": 3616,
      "tun": 3617,
      "▁gulery": 3618,
      "▁verdi": 3619,
      "▁sam": 3620,
      "▁personellerin": 3621,
      "det": 3622,
      "▁bolge": 3623,
      "▁seker": 3624,
      "▁br": 3625,
      "▁anlasma": 3626,
      "▁kahval": 3627,
      "▁plaji": 3628,
      "▁sozleri": 3629,
      "mak": 3630,
      "▁yay": 3631,
      "▁televizyon": 3632,
      "▁ornek": 3633,
      "▁konusu": 3634,
      "malı": 3635,
      "▁ma": 3636,
      "▁banyo": 3637,
      "urk": 3638,
      "isinin": 3639,
      "▁amma": 3640,
      "▁mide": 3641,
      "el": 3642,
      "▁durumu": 3643,
      "ern": 3644,
      "▁arkadaslar": 3645,
      "ıldı": 3646,
      "▁sus": 3647,
      "ız": 3648,
      "▁denver": 3649,
      "▁ag": 3650,
      "▁rengi": 3651,
      "▁hukumetin": 3652,
      "uyor": 3653,
      "▁onunde": 3654,
      "art": 3655,
      "▁.'": 3656,
      "▁hizmete": 3657,
      "lıktan": 3658,
      "▁parmak": 3659,
      "▁millet": 3660,
      "▁ates": 3661,
      "ork": 3662,
      "▁mecl": 3663,
      "▁?": 3664,
      "▁memleket": 3665,
      "▁varan": 3666,
      "▁mobil": 3667,
      "▁duzey": 3668,
      "▁iliski": 3669,
      "idir": 3670,
      "enc": 3671,
      "▁olac": 3672,
      "▁bize": 3673,
      "vek": 3674,
      "imizi": 3675,
      "▁yemeklerde": 3676,
      "▁olduk": 3677,
      "▁yak": 3678,
      "▁kus": 3679,
      "▁olmasi": 3680,
      "▁ornegin": 3681,
      "▁kum": 3682,
      "▁cih": 3683,
      "▁attı": 3684,
      "▁itibariyle": 3685,
      "▁gazet": 3686,
      "▁do": 3687,
      "istir": 3688,
      "▁iyi": 3689,
      "▁turk": 3690,
      "suzluk": 3691,
      "ısından": 3692,
      "▁hayal": 3693,
      "▁uyk": 3694,
      "▁kosulları": 3695,
      "'t": 3696,
      "umu": 3697,
      "ari": 3698,
      "▁cocugun": 3699,
      "s": 3700,
      "▁ge": 3701,
      "▁york": 3702,
      "▁cadde": 3703,
      "▁gokyuz": 3704,
      "▁ko": 3705,
      "maya": 3706,
      "erk": 3707,
      "x": 3708,
      "ellikle": 3709,
      "▁cay": 3710,
      "suz": 3711,
      "lastı": 3712,
      "▁pozisyon": 3713,
      "▁korum": 3714,
      "▁borc": 3715,
      "▁ada": 3716,
      "▁kusur": 3717,
      "▁personellerden": 3718,
      "uga": 3719,
      "▁nedenle": 3720,
      "ug": 3721,
      "▁gerek": 3722,
      "cisi": 3723,
      "las": 3724,
      "lari": 3725,
      "▁bal": 3726,
      "▁dolardan": 3727,
      "▁analistler": 3728,
      "▁kayıp": 3729,
      "siniz": 3730,
      "▁faz": 3731,
      "▁sırasında": 3732,
      "net": 3733,
      "anı": 3734,
      "▁muk": 3735,
      "lugu": 3736,
      "▁n": 3737,
      "▁oz": 3738,
      "▁duyg": 3739,
      "▁med": 3740,
      "▁kars": 3741,
      "▁edeb": 3742,
      "▁o": 3743,
      "▁asag": 3744,
      "▁hayat": 3745,
      "▁zamanda": 3746,
      "▁mes": 3747,
      "▁planı": 3748,
      "▁yetk": 3749,
      "▁tesisten": 3750,
      "mek": 3751,
      "ıstır": 3752,
      "▁ozellik": 3753,
      "▁ces": 3754,
      "▁cam": 3755,
      "-": 3756,
      "ne": 3757,
      "▁davranıs": 3758,
      "▁bugday": 3759,
      "▁yetkilileri": 3760,
      "▁mal": 3761,
      "▁”": 3762,
      "▁hır": 3763,
      "bu": 3764,
      "▁yaptir": 3765,
      "manı": 3766,
      "o": 3767,
      "_": 3768,
      "isin": 3769,
      "▁savunma": 3770,
      "'tan": 3771,
      "os": 3772,
      "ikti": 3773,
      "dır": 3774,
      "ık": 3775,
      "ilik": 3776,
      "▁dam": 3777,
      "▁halbuki": 3778,
      "lardan": 3779,
      "▁oranları": 3780,
      "eral": 3781,
      "sur": 3782,
      "▁dusun": 3783,
      "▁z": 3784,
      "▁gonul": 3785,
      "esti": 3786,
      "ult": 3787,
      "▁ta": 3788,
      "ısını": 3789,
      "ayla": 3790,
      "anlık": 3791,
      "▁gece": 3792,
      "▁mulk": 3793,
      "▁harekete": 3794,
      "▁tesisin": 3795,
      "▁burası": 3796,
      "am": 3797,
      "▁bankası": 3798,
      "▁dusunuyor": 3799,
      "7": 3800,
      "amız": 3801,
      "▁arac": 3802,
      "ih": 3803,
      "▁yayın": 3804,
      "▁petrol": 3805,
      "arın": 3806,
      "en": 3807,
      "▁evet": 3808,
      "ta": 3809,
      "▁num": 3810,
      "iyle": 3811,
      "tıs": 3812,
      "▁sesi": 3813,
      "▁motor": 3814,
      "▁ec": 3815,
      "▁zam": 3816,
      "▁universit": 3817,
      "siyon": 3818,
      "▁min": 3819,
      "▁portfoy": 3820,
      "▁taraf": 3821,
      "▁aday": 3822,
      "▁gecm": 3823,
      "▁cez": 3824,
      "▁te": 3825,
      "▁tedav": 3826,
      "tiler": 3827,
      "▁ustu": 3828,
      "▁ap": 3829,
      "ere": 3830,
      "▁alıcı": 3831,
      "▁kaldır": 3832,
      "▁sark": 3833,
      "▁eline": 3834,
      "▁om": 3835,
      "▁halk": 3836,
      "▁hakkında": 3837,
      "iyatr": 3838,
      "▁kadını": 3839,
      "lık": 3840,
      "▁muzik": 3841,
      "ıgı": 3842,
      "▁telefon": 3843,
      "emiyor": 3844,
      "▁caba": 3845,
      "▁kork": 3846,
      "▁og": 3847,
      "▁gore": 3848,
      "▁sev": 3849,
      "ab": 3850,
      "▁iz": 3851,
      "▁ot": 3852,
      "▁islem": 3853,
      "eci": 3854,
      "mektedir": 3855,
      "liye": 3856,
      "▁hoca": 3857,
      "▁butce": 3858,
      "ini": 3859,
      "nd": 3860,
      "▁sevk": 3861,
      "alım": 3862,
      "▁sabah": 3863,
      "▁ak": 3864,
      "tar": 3865,
      "ardan": 3866,
      "▁don": 3867,
      "ret": 3868,
      "ep": 3869,
      "iyat": 3870,
      "▁def": 3871,
      "phia": 3872,
      "lılık": 3873,
      "ist": 3874,
      "▁mily": 3875,
      "▁first": 3876,
      "▁sem": 3877,
      "▁teb": 3878,
      "▁kızı": 3879,
      "▁nak": 3880,
      "▁oluyor": 3881,
      "o'ya": 3882,
      "▁org": 3883,
      "▁fır": 3884,
      "▁kıv": 3885,
      "▁birtakım": 3886,
      "▁sigort": 3887,
      "▁yat": 3888,
      "▁arkadas": 3889,
      "lıkla": 3890,
      "▁ort": 3891,
      "ligine": 3892,
      "▁esim": 3893,
      "▁et": 3894,
      "▁serv": 3895,
      "▁konumunu": 3896,
      "acag": 3897,
      "mem": 3898,
      "▁adet": 3899,
      "anda": 3900,
      "▁milyon": 3901,
      "▁ureticisi": 3902,
      "▁yapar": 3903,
      "▁baskan": 3904,
      "▁topu": 3905,
      "▁dos": 3906,
      "▁sehir": 3907,
      "nız": 3908,
      "▁sevg": 3909,
      "▁yandan": 3910,
      "▁amer": 3911,
      "▁olmadi": 3912,
      "▁hizmetinden": 3913,
      "▁yıllar": 3914,
      "rken": 3915,
      "▁katk": 3916,
      "yalar": 3917,
      "▁...": 3918,
      "▁asker": 3919,
      "sil": 3920,
      "▁gr": 3921,
      "▁koku": 3922,
      "▁kurul": 3923,
      "▁yuzyıl": 3924,
      "▁ihtim": 3925,
      "▁engel": 3926,
      "▁kaldik": 3927,
      "°": 3928,
      "kk": 3929,
      "lerden": 3930,
      "▁kut": 3931,
      "asına": 3932,
      "'ya": 3933,
      "▁kaldırım": 3934,
      "ri": 3935,
      "▁vardı": 3936,
      "▁ama": 3937,
      "▁ve": 3938,
      "▁giden": 3939,
      "▁kıymetler": 3940,
      "▁heyecan": 3941,
      "▁annesi": 3942,
      "▁milletvek": 3943,
      "▁ruzgar": 3944,
      "lerinden": 3945,
      "▁if": 3946,
      "ca": 3947,
      "▁gez": 3948,
      "▁arasındaki": 3949,
      "▁oran": 3950,
      "▁ellerini": 3951,
      "▁deney": 3952,
      "zet": 3953,
      "alar": 3954,
      "▁aldı": 3955,
      "▁buldu": 3956,
      "▁hiss": 3957,
      "iydi": 3958,
      "▁cins": 3959,
      "isle": 3960,
      "isco": 3961,
      "ik": 3962,
      "▁yapti": 3963,
      "▁elleri": 3964,
      "▁pil": 3965,
      "▁otobus": 3966,
      "▁kur": 3967,
      "▁aksam": 3968,
      "▁sevgi": 3969,
      "ston": 3970,
      "▁cik": 3971,
      "▁u": 3972,
      "▁babam": 3973,
      "▁alım": 3974,
      "bir": 3975,
      "▁ister": 3976,
      "▁kent": 3977,
      "▁inter": 3978,
      "▁gur": 3979,
      "iri": 3980,
      "▁zey": 3981,
      "▁icme": 3982,
      "▁actı": 3983,
      "▁isini": 3984,
      "▁city": 3985,
      "tansiy": 3986,
      "▁patates": 3987,
      "▁bakanlıgı": 3988,
      "▁olmadıgını": 3989,
      "▁milyondan": 3990,
      "▁ayı": 3991,
      "▁birer": 3992,
      "▁isleri": 3993,
      "oyu": 3994,
      "cilik": 3995,
      "bah": 3996,
      "deki": 3997,
      "erek": 3998,
      "▁otelde": 3999,
      "▁seviy": 4000,
      "▁hep": 4001,
      "▁yola": 4002,
      "ge": 4003,
      "▁)": 4004,
      "oy": 4005,
      "▁on": 4006,
      "▁ucusa": 4007,
      "▁kaz": 4008,
      "▁iletisim": 4009,
      "▁limon": 4010,
      "lon": 4011,
      "▁kahkah": 4012,
      "[UNK]": 4013,
      "▁hatır": 4014,
      "lama": 4015,
      "id": 4016,
      "eyle": 4017,
      "atur": 4018,
      "isleri": 4019,
      "ınız": 4020,
      "▁bl": 4021,
      "▁camasır": 4022,
      "▁birles": 4023,
      "imi": 4024,
      "▁sey": 4025,
      "▁olmak": 4026,
      "akları": 4027,
      "▁hikay": 4028,
      "▁otom": 4029,
      "ncak": 4030,
      "'na": 4031,
      "▁malzem": 4032,
      "▁hale": 4033,
      "▁yanında": 4034,
      "mez": 4035,
      "apon": 4036,
      "des": 4037,
      "▁ses": 4038,
      "▁amerikalı": 4039,
      "▁of": 4040,
      "▁gol": 4041,
      "lıkta": 4042,
      "▁peynir": 4043,
      "▁karsı": 4044,
      "ekl": 4045,
      "ington": 4046,
      "▁yatak": 4047,
      "▁kuv": 4048,
      "imore": 4049,
      "▁karsıl": 4050,
      "▁sek": 4051,
      "▁w": 4052,
      "▁ard": 4053,
      "▁gor": 4054,
      "▁nok": 4055,
      "▁ikram": 4056,
      "▁can": 4057,
      "to": 4058,
      "leg": 4059,
      "▁maz": 4060,
      "▁gum": 4061,
      "▁mahalle": 4062,
      "▁bisik": 4063,
      "▁oldug": 4064,
      "▁sar": 4065,
      "yacak": 4066,
      "▁yapıl": 4067,
      "▁ortasında": 4068,
      "ımdan": 4069,
      "▁ogrenci": 4070,
      "▁servisi": 4071,
      "▁bizim": 4072,
      "eme": 4073,
      "▁nedeni": 4074,
      "asındaki": 4075,
      "andan": 4076,
      "▁elbise": 4077,
      "▁dor": 4078,
      "▁tesv": 4079,
      "▁olmaz": 4080,
      "▁bazı": 4081,
      "▁da": 4082,
      "▁boy": 4083,
      "vr": 4084,
      "▁ajans": 4085,
      "▁danısman": 4086,
      "▁gelistir": 4087,
      "▁elinden": 4088,
      "▁edin": 4089,
      "▁haf": 4090,
      "▁iddia": 4091,
      "▁itir": 4092,
      "▁aradi": 4093,
      "▁adını": 4094,
      "▁dek": 4095
    },
    "merges": [
      [
        "▁k",
        "op"
      ],
      [
        "▁ada",
        "m"
      ],
      [
        "me",
        "leri"
      ],
      [
        "lul",
        "uk"
      ],
      [
        "▁bay",
        "ram"
      ],
      [
        "▁yan",
        "ı"
      ],
      [
        "▁k",
        "ısı"
      ],
      [
        "ıg",
        "ını"
      ],
      [
        "▁az",
        "al"
      ],
      [
        "▁kıymet",
        "ler"
      ],
      [
        "▁tu",
        "r"
      ],
      [
        "▁sip",
        "ar"
      ],
      [
        "m",
        "iyor"
      ],
      [
        "di",
        "gi"
      ],
      [
        "▁dıs",
        "arı"
      ],
      [
        "▁",
        "za"
      ],
      [
        "▁d",
        "eg"
      ],
      [
        "▁gay",
        "et"
      ],
      [
        "et",
        "e"
      ],
      [
        "▁ka",
        "til"
      ],
      [
        "▁",
        "dı"
      ],
      [
        "0'",
        "dan"
      ],
      [
        "▁cez",
        "a"
      ],
      [
        "▁c",
        "il"
      ],
      [
        "am",
        "ın"
      ],
      [
        "▁bir",
        "ligi"
      ],
      [
        "▁bır",
        "ak"
      ],
      [
        "▁icin",
        "de"
      ],
      [
        "c",
        "ı"
      ],
      [
        "▁b",
        "o"
      ],
      [
        "▁o",
        "t"
      ],
      [
        "▁kal",
        "p"
      ],
      [
        "▁l",
        "ist"
      ],
      [
        "▁un",
        "ut"
      ],
      [
        "ik",
        "a"
      ],
      [
        "▁adam",
        "ı"
      ],
      [
        "▁kap",
        "andı"
      ],
      [
        "ak",
        "et"
      ],
      [
        "▁mu",
        "h"
      ],
      [
        "▁cal",
        "ıs"
      ],
      [
        "eti",
        "c"
      ],
      [
        "▁alt",
        "ında"
      ],
      [
        "▁c",
        "ev"
      ],
      [
        "▁m",
        "u"
      ],
      [
        "es",
        "i"
      ],
      [
        "▁b",
        "ırak"
      ],
      [
        "▁do",
        "v"
      ],
      [
        "▁sal",
        "ı"
      ],
      [
        "▁ceyrek",
        "te"
      ],
      [
        "▁an",
        "lama"
      ],
      [
        "▁bir",
        "cok"
      ],
      [
        "asın",
        "a"
      ],
      [
        "ac",
        "ı"
      ],
      [
        "▁sey",
        "leri"
      ],
      [
        "d",
        "ig"
      ],
      [
        "▁meydan",
        "a"
      ],
      [
        "u",
        "du"
      ],
      [
        "la",
        "t"
      ],
      [
        "▁hiss",
        "ed"
      ],
      [
        "▁of",
        "k"
      ],
      [
        "▁egit",
        "im"
      ],
      [
        "▁den",
        "gesi"
      ],
      [
        "▁b",
        "l"
      ],
      [
        "▁ol",
        "dug"
      ],
      [
        "an",
        "c"
      ],
      [
        "▁anla",
        "t"
      ],
      [
        "▁soh",
        "bet"
      ],
      [
        "▁olu",
        "yor"
      ],
      [
        "ı",
        "la"
      ],
      [
        "▁dıs",
        "ı"
      ],
      [
        "▁hayat",
        "ın"
      ],
      [
        "▁",
        ","
      ],
      [
        "▁b",
        "an"
      ],
      [
        "▁par",
        "anın"
      ],
      [
        "▁s",
        "id"
      ],
      [
        "▁tekn",
        "oloj"
      ],
      [
        "ad",
        "ar"
      ],
      [
        "▁yap",
        "mak"
      ],
      [
        "▁y",
        "ag"
      ],
      [
        "▁v",
        "es"
      ],
      [
        "▁",
        "/"
      ],
      [
        "d",
        "ık"
      ],
      [
        "▁og",
        "lan"
      ],
      [
        "▁ka",
        "c"
      ],
      [
        "imiz",
        "de"
      ],
      [
        "▁ya",
        "y"
      ],
      [
        "em",
        "li"
      ],
      [
        "ist",
        "i"
      ],
      [
        "▁dig",
        "erleri"
      ],
      [
        "▁fran",
        "c"
      ],
      [
        "'de",
        "n"
      ],
      [
        "▁a",
        "z"
      ],
      [
        "▁a",
        "r"
      ],
      [
        "c",
        "ut"
      ],
      [
        "▁e",
        "y"
      ],
      [
        "▁s",
        "up"
      ],
      [
        "▁ek",
        "im"
      ],
      [
        "▁or",
        "d"
      ],
      [
        "▁or",
        "anı"
      ],
      [
        "▁an",
        "cak"
      ],
      [
        "d",
        "aki"
      ],
      [
        "▁kad",
        "ını"
      ],
      [
        "▁kosul",
        "ları"
      ],
      [
        "t",
        "ay"
      ],
      [
        "▁bo",
        "ston"
      ],
      [
        "c",
        "o"
      ],
      [
        "▁",
        "p"
      ],
      [
        "k",
        "ar"
      ],
      [
        "▁kon",
        "um"
      ],
      [
        "▁",
        "9"
      ],
      [
        "siy",
        "on"
      ],
      [
        "▁faz",
        "l"
      ],
      [
        "▁yonetici",
        "leri"
      ],
      [
        "▁ot",
        "eldi"
      ],
      [
        "▁is",
        "leri"
      ],
      [
        "'n",
        "ın"
      ],
      [
        "▁s",
        "aat"
      ],
      [
        "m",
        "enin"
      ],
      [
        "▁yan",
        "l"
      ],
      [
        "▁g",
        "uler"
      ],
      [
        "▁do",
        "lay"
      ],
      [
        "b",
        "a"
      ],
      [
        "▁bask",
        "anı"
      ],
      [
        "m",
        "is"
      ],
      [
        "▁ih",
        "r"
      ],
      [
        "lı",
        "k"
      ],
      [
        "i",
        "c"
      ],
      [
        "▁bo",
        "y"
      ],
      [
        "▁sim",
        "diye"
      ],
      [
        "▁doları",
        "'ndan"
      ],
      [
        "▁kal",
        "k"
      ],
      [
        "▁!",
        ".."
      ],
      [
        "▁par",
        "c"
      ],
      [
        "▁i",
        "lk"
      ],
      [
        "▁ucus",
        "a"
      ],
      [
        "d",
        "il"
      ],
      [
        "ik",
        "at"
      ],
      [
        "e",
        "t"
      ],
      [
        "▁g",
        "u"
      ],
      [
        "▁is",
        "let"
      ],
      [
        "▁bak",
        "ım"
      ],
      [
        "▁oda",
        "dan"
      ],
      [
        "▁merk",
        "ez"
      ],
      [
        "▁r",
        "uh"
      ],
      [
        "m",
        "e"
      ],
      [
        "em",
        "ey"
      ],
      [
        "▁ar",
        "tık"
      ],
      [
        "▁bil",
        "et"
      ],
      [
        "n",
        "i"
      ],
      [
        "▁h",
        "erh"
      ],
      [
        "▁gos",
        "ter"
      ],
      [
        "▁c",
        "um"
      ],
      [
        "▁hast",
        "al"
      ],
      [
        "▁kur",
        "ulu"
      ],
      [
        "anın",
        "ın"
      ],
      [
        "▁cumhur",
        "iyet"
      ],
      [
        "▁ha",
        "f"
      ],
      [
        "i",
        "h"
      ],
      [
        "▁kı",
        "v"
      ],
      [
        "▁ot",
        "el"
      ],
      [
        "▁yan",
        "ına"
      ],
      [
        "▁sa",
        "l"
      ],
      [
        "lık",
        "ta"
      ],
      [
        "▁z",
        "ek"
      ],
      [
        "sı",
        "z"
      ],
      [
        "l",
        "iye"
      ],
      [
        "▁uc",
        "ret"
      ],
      [
        "▁tas",
        "ı"
      ],
      [
        "imiz",
        "e"
      ],
      [
        "id",
        "ir"
      ],
      [
        "t",
        "igi"
      ],
      [
        "ır",
        "tı"
      ],
      [
        "a",
        "ta"
      ],
      [
        "▁",
        "&"
      ],
      [
        "▁cer",
        "cev"
      ],
      [
        "▁ak",
        "lı"
      ],
      [
        "▁bir",
        "bir"
      ],
      [
        "▁g",
        "it"
      ],
      [
        "▁",
        "el"
      ],
      [
        "▁cic",
        "ek"
      ],
      [
        "▁al",
        "ıcı"
      ],
      [
        "ed",
        "igim"
      ],
      [
        "▁mem",
        "ur"
      ],
      [
        "▁sa",
        "p"
      ],
      [
        "n",
        "d"
      ],
      [
        "▁1",
        "."
      ],
      [
        "▁s",
        "av"
      ],
      [
        "lama",
        "ya"
      ],
      [
        "▁do",
        "lar"
      ],
      [
        "lu",
        "k"
      ],
      [
        "▁ogr",
        "en"
      ],
      [
        "s",
        "ı"
      ],
      [
        "▁aktar",
        "masız"
      ],
      [
        "cı",
        "lık"
      ],
      [
        "▁mi",
        "s"
      ],
      [
        "▁kam",
        "yon"
      ],
      [
        "ik",
        "ti"
      ],
      [
        "▁t",
        "am"
      ],
      [
        "▁h",
        "ay"
      ],
      [
        "▁gun",
        "u"
      ],
      [
        "lik",
        "le"
      ],
      [
        "▁mal",
        "z"
      ],
      [
        "▁end",
        "ust"
      ],
      [
        "▁bis",
        "ik"
      ],
      [
        "▁",
        "k"
      ],
      [
        "▁ic",
        "inden"
      ],
      [
        "▁s",
        "ay"
      ],
      [
        "▁mes",
        "el"
      ],
      [
        "m",
        "ı"
      ],
      [
        "▁sac",
        "ları"
      ],
      [
        "a",
        "li"
      ],
      [
        "▁d",
        "av"
      ],
      [
        "▁ac",
        "isindan"
      ],
      [
        "lug",
        "a"
      ],
      [
        "▁",
        "ken"
      ],
      [
        "eg",
        "inde"
      ],
      [
        "▁t",
        "ey"
      ],
      [
        "▁hav",
        "ada"
      ],
      [
        "▁u",
        "n"
      ],
      [
        "ad",
        "ıgını"
      ],
      [
        "▁mudur",
        "u"
      ],
      [
        "▁co",
        "g"
      ],
      [
        "▁hukum",
        "eti"
      ],
      [
        "im",
        "di"
      ],
      [
        "▁bab",
        "a"
      ],
      [
        "▁an",
        "da"
      ],
      [
        "▁yemek",
        "lerde"
      ],
      [
        "▁s",
        "iy"
      ],
      [
        "▁yan",
        "dan"
      ],
      [
        "▁ser",
        "may"
      ],
      [
        "asyon",
        "u"
      ],
      [
        "▁alan",
        "da"
      ],
      [
        "▁d",
        "ay"
      ],
      [
        "▁k",
        "ayı"
      ],
      [
        "▁et",
        "mem"
      ],
      [
        "▁ucus",
        "ların"
      ],
      [
        "▁kahv",
        "e"
      ],
      [
        "ab",
        "et"
      ],
      [
        "▁sok",
        "ak"
      ],
      [
        "ar",
        "s"
      ],
      [
        "▁gu",
        "m"
      ],
      [
        "▁r",
        "ol"
      ],
      [
        "▁v",
        "az"
      ],
      [
        "▁ulas",
        "ım"
      ],
      [
        "▁emek",
        "lilik"
      ],
      [
        "▁is",
        "te"
      ],
      [
        "▁hab",
        "eri"
      ],
      [
        "▁ilg",
        "isi"
      ],
      [
        "▁m",
        "ide"
      ],
      [
        "ma",
        "lar"
      ],
      [
        "▁yer",
        "ine"
      ],
      [
        "▁al",
        "eyh"
      ],
      [
        "▁k",
        "am"
      ],
      [
        "▁d",
        "iy"
      ],
      [
        "i",
        "ka"
      ],
      [
        "▁ka",
        "rı"
      ],
      [
        "▁hast",
        "alık"
      ],
      [
        "ig",
        "i"
      ],
      [
        "ı",
        "f"
      ],
      [
        "ler",
        "de"
      ],
      [
        "al",
        "le"
      ],
      [
        "▁c",
        "el"
      ],
      [
        "▁sen",
        "edi"
      ],
      [
        "▁k",
        "os"
      ],
      [
        "▁begen",
        "medim"
      ],
      [
        "▁ko",
        "c"
      ],
      [
        "ed",
        "i"
      ],
      [
        "▁sor",
        "du"
      ],
      [
        "e",
        "st"
      ],
      [
        "▁har",
        "c"
      ],
      [
        "▁p",
        "er"
      ],
      [
        "▁on",
        "c"
      ],
      [
        "▁bu",
        "r"
      ],
      [
        "▁bask",
        "a"
      ],
      [
        "in",
        "de"
      ],
      [
        "r",
        "ken"
      ],
      [
        "e",
        "dir"
      ],
      [
        "is",
        "in"
      ],
      [
        "▁yıl",
        "ında"
      ],
      [
        "▁mahk",
        "em"
      ],
      [
        "▁kap",
        "ının"
      ],
      [
        "▁yap",
        "tir"
      ],
      [
        "▁bar",
        "da"
      ],
      [
        "is",
        "s"
      ],
      [
        "▁gec",
        "m"
      ],
      [
        "l",
        "on"
      ],
      [
        "du",
        "g"
      ],
      [
        "▁b",
        "iz"
      ],
      [
        "'",
        "tan"
      ],
      [
        "▁guler",
        "yuzlu"
      ],
      [
        "s",
        "ur"
      ],
      [
        "▁",
        "#"
      ],
      [
        "▁say",
        "ısı"
      ],
      [
        "▁a",
        "y"
      ],
      [
        "▁r",
        "uz"
      ],
      [
        "▁baz",
        "i"
      ],
      [
        "iz",
        "li"
      ],
      [
        "▁il",
        "gili"
      ],
      [
        "▁",
        "ha"
      ],
      [
        "sa",
        "l"
      ],
      [
        "ap",
        "on"
      ],
      [
        "▁hiss",
        "eye"
      ],
      [
        "▁ol",
        "c"
      ],
      [
        "▁fark",
        "ında"
      ],
      [
        "▁cocuk",
        "ları"
      ],
      [
        "▁ort",
        "ak"
      ],
      [
        "m",
        "ur"
      ],
      [
        "▁denver",
        "'den"
      ],
      [
        "a",
        "c"
      ],
      [
        "▁kum",
        "ar"
      ],
      [
        "▁hav",
        "uz"
      ],
      [
        "l",
        "emek"
      ],
      [
        "▁cev",
        "re"
      ],
      [
        "▁bank",
        "ası"
      ],
      [
        "▁genel",
        "de"
      ],
      [
        "s",
        "an"
      ],
      [
        "ıl",
        "ır"
      ],
      [
        "▁de",
        "st"
      ],
      [
        "▁h",
        "ic"
      ],
      [
        "▁kalit",
        "esi"
      ],
      [
        "ım",
        "ı"
      ],
      [
        "▁s",
        "eb"
      ],
      [
        "▁un",
        "ivers"
      ],
      [
        "ız",
        "ı"
      ],
      [
        "▁uc",
        "ak"
      ],
      [
        "ımız",
        "da"
      ],
      [
        "an",
        "ın"
      ],
      [
        "▁sav",
        "ası"
      ],
      [
        "ur",
        "du"
      ],
      [
        "▁bask",
        "an"
      ],
      [
        "d",
        "ıgı"
      ],
      [
        "ev",
        "i"
      ],
      [
        "▁ver",
        "iyor"
      ],
      [
        "▁s",
        "ep"
      ],
      [
        "▁eglen",
        "ce"
      ],
      [
        "▁islet",
        "me"
      ],
      [
        "▁kul",
        "ub"
      ],
      [
        "n",
        "a"
      ],
      [
        "▁m",
        "erk"
      ],
      [
        "l",
        "ug"
      ],
      [
        "▁yemek",
        "leri"
      ],
      [
        "▁bas",
        "k"
      ],
      [
        "ım",
        "da"
      ],
      [
        "▁v",
        "at"
      ],
      [
        "ın",
        "c"
      ],
      [
        "▁seh",
        "ir"
      ],
      [
        "ler",
        "e"
      ],
      [
        "▁a",
        "l"
      ],
      [
        "▁h",
        "ab"
      ],
      [
        "▁art",
        "ıs"
      ],
      [
        "ay",
        "et"
      ],
      [
        "▁gi",
        "d"
      ],
      [
        "▁",
        "lu"
      ],
      [
        "den",
        "in"
      ],
      [
        "▁",
        "”"
      ],
      [
        "▁s",
        "ab"
      ],
      [
        "in",
        "e"
      ],
      [
        "▁buy",
        "um"
      ],
      [
        "▁h",
        "ad"
      ],
      [
        "▁il",
        "isk"
      ],
      [
        "▁ho",
        "s"
      ],
      [
        "▁ha",
        "p"
      ],
      [
        "▁tep",
        "ki"
      ],
      [
        "▁u",
        "s"
      ],
      [
        "▁b",
        "ek"
      ],
      [
        "ler",
        "le"
      ],
      [
        "▁r",
        "ap"
      ],
      [
        "▁sig",
        "ort"
      ],
      [
        "▁yuz",
        "den"
      ],
      [
        "▁havayol",
        "larının"
      ],
      [
        "lıg",
        "a"
      ],
      [
        "▁gun",
        "luk"
      ],
      [
        "▁az",
        "ından"
      ],
      [
        "▁es",
        "y"
      ],
      [
        "▁gaz",
        "et"
      ],
      [
        "▁anket",
        "e"
      ],
      [
        "el",
        "i"
      ],
      [
        "▁",
        "ve"
      ],
      [
        "eli",
        "r"
      ],
      [
        "▁r",
        "en"
      ],
      [
        "▁rehber",
        "imiz"
      ],
      [
        "▁if",
        "ade"
      ],
      [
        "▁",
        "ya"
      ],
      [
        "▁b",
        "uy"
      ],
      [
        "e",
        "si"
      ],
      [
        "▁ken",
        "di"
      ],
      [
        "▁bas",
        "lan"
      ],
      [
        "▁f",
        "azla"
      ],
      [
        "b",
        "u"
      ],
      [
        "▁z",
        "am"
      ],
      [
        "▁cif",
        "t"
      ],
      [
        "▁dur",
        "umu"
      ],
      [
        "▁t",
        "eh"
      ],
      [
        "▁anal",
        "ist"
      ],
      [
        "▁it",
        "hal"
      ],
      [
        "▁kit",
        "abı"
      ],
      [
        "▁ay",
        "n"
      ],
      [
        "ların",
        "ı"
      ],
      [
        "▁in",
        "san"
      ],
      [
        "▁piyas",
        "ası"
      ],
      [
        "▁olm",
        "ad"
      ],
      [
        "▁ucus",
        "u"
      ],
      [
        "▁ic",
        "me"
      ],
      [
        "▁og",
        "len"
      ],
      [
        "▁",
        "it"
      ],
      [
        "ci",
        "h"
      ],
      [
        "ma",
        "dik"
      ],
      [
        "▁top",
        "lum"
      ],
      [
        "▁yolcu",
        "luk"
      ],
      [
        "▁oldug",
        "u"
      ],
      [
        "▁z",
        "ey"
      ],
      [
        "▁olu",
        "r"
      ],
      [
        "▁kaf",
        "a"
      ],
      [
        "ad",
        "an"
      ],
      [
        "t",
        "ar"
      ],
      [
        "m",
        "eger"
      ],
      [
        "t",
        "or"
      ],
      [
        "on",
        "t"
      ],
      [
        "l",
        "edi"
      ],
      [
        "▁b",
        "ır"
      ],
      [
        "▁yon",
        "etim"
      ],
      [
        "meler",
        "i"
      ],
      [
        "▁kus",
        "ur"
      ],
      [
        "k",
        "ur"
      ],
      [
        "l",
        "estir"
      ],
      [
        "▁am",
        "c"
      ],
      [
        "em",
        "em"
      ],
      [
        "▁p",
        "ol"
      ],
      [
        "h",
        "al"
      ],
      [
        "▁say",
        "g"
      ],
      [
        "▁neler",
        "dir"
      ],
      [
        "enler",
        "i"
      ],
      [
        "▁",
        "."
      ],
      [
        "▁sev",
        "k"
      ],
      [
        "▁gok",
        "yuz"
      ],
      [
        "▁sey",
        "ahat"
      ],
      [
        "▁mek",
        "tu"
      ],
      [
        "▁bir",
        "lik"
      ],
      [
        "▁",
        "mi"
      ],
      [
        "y",
        "di"
      ],
      [
        "un",
        "un"
      ],
      [
        "e",
        "li"
      ],
      [
        "en",
        "e"
      ],
      [
        "▁ur",
        "etici"
      ],
      [
        "k",
        "an"
      ],
      [
        "▁y",
        "em"
      ],
      [
        "in",
        "da"
      ],
      [
        "▁olanak",
        "ları"
      ],
      [
        "'n",
        "de"
      ],
      [
        "er",
        "li"
      ],
      [
        "▁car",
        "s"
      ],
      [
        "▁dov",
        "iz"
      ],
      [
        "ama",
        "m"
      ],
      [
        "▁oran",
        "ında"
      ],
      [
        "▁i",
        "yi"
      ],
      [
        "le",
        "g"
      ],
      [
        "▁",
        "n"
      ],
      [
        "am",
        "aya"
      ],
      [
        "▁t",
        "av"
      ],
      [
        "▁da",
        "r"
      ],
      [
        "▁piyas",
        "anın"
      ],
      [
        "▁ver",
        "irim"
      ],
      [
        "▁deniz",
        "e"
      ],
      [
        "alar",
        "la"
      ],
      [
        "▁ba",
        "na"
      ],
      [
        "▁y",
        "ılı"
      ],
      [
        "▁far",
        "k"
      ],
      [
        "▁s",
        "ub"
      ],
      [
        "▁ha",
        "k"
      ],
      [
        "▁n",
        "ef"
      ],
      [
        "ul",
        "t"
      ],
      [
        "ka",
        "t"
      ],
      [
        "▁sav",
        "un"
      ],
      [
        "▁elb",
        "is"
      ],
      [
        "▁ala",
        "k"
      ],
      [
        "▁p",
        "la"
      ],
      [
        "d",
        "uk"
      ],
      [
        "▁sat",
        "ısı"
      ],
      [
        "▁mahkem",
        "esi"
      ],
      [
        "ıyor",
        "du"
      ],
      [
        "se",
        "f"
      ],
      [
        "▁hiss",
        "eler"
      ],
      [
        "es",
        "t"
      ],
      [
        "▁f",
        "as"
      ],
      [
        "▁il",
        "gil"
      ],
      [
        "▁a",
        "mma"
      ],
      [
        "e",
        "re"
      ],
      [
        "▁po",
        "lit"
      ],
      [
        "▁t",
        "ay"
      ],
      [
        "▁g",
        "ir"
      ],
      [
        "▁soz",
        "c"
      ],
      [
        "▁eg",
        "it"
      ],
      [
        "▁etti",
        "gini"
      ],
      [
        "lug",
        "u"
      ],
      [
        "▁c",
        "it"
      ],
      [
        "▁",
        "ef"
      ],
      [
        "▁a",
        "ile"
      ],
      [
        "▁y",
        "er"
      ],
      [
        "t",
        "r"
      ],
      [
        "▁kal",
        "b"
      ],
      [
        "▁ail",
        "esi"
      ],
      [
        "▁soz",
        "les"
      ],
      [
        "a",
        "rı"
      ],
      [
        "▁r",
        "e"
      ],
      [
        "▁or",
        "man"
      ],
      [
        "▁gi",
        "y"
      ],
      [
        "▁",
        "al"
      ],
      [
        "▁hay",
        "at"
      ],
      [
        "▁al",
        "ma"
      ],
      [
        "▁guven",
        "lik"
      ],
      [
        "s",
        "t"
      ],
      [
        "▁ol",
        "anlar"
      ],
      [
        "▁bi",
        "le"
      ],
      [
        "▁yonet",
        "ici"
      ],
      [
        "▁bak",
        "tı"
      ],
      [
        "ag",
        "ı"
      ],
      [
        "▁on",
        "em"
      ],
      [
        "▁k",
        "av"
      ],
      [
        "▁sek",
        "ret"
      ],
      [
        "▁s",
        "ar"
      ],
      [
        "▁gay",
        "r"
      ],
      [
        "▁s",
        "or"
      ],
      [
        "▁m",
        "et"
      ],
      [
        "▁tes",
        "v"
      ],
      [
        "▁kar",
        "n"
      ],
      [
        "▁b",
        "ag"
      ],
      [
        "▁ter",
        "s"
      ],
      [
        "ma",
        "sı"
      ],
      [
        "▁di",
        "r"
      ],
      [
        "▁fa",
        "al"
      ],
      [
        "▁bu",
        "l"
      ],
      [
        "'d",
        "a"
      ],
      [
        "lerin",
        "in"
      ],
      [
        "▁yal",
        "n"
      ],
      [
        "s",
        "ız"
      ],
      [
        "▁k",
        "ay"
      ],
      [
        "▁b",
        "ina"
      ],
      [
        "e",
        "c"
      ],
      [
        "▁a",
        "t"
      ],
      [
        "▁ek",
        "m"
      ],
      [
        "▁dus",
        "un"
      ],
      [
        "▁c",
        "eyr"
      ],
      [
        "▁d",
        "ar"
      ],
      [
        "▁cog",
        "u"
      ],
      [
        "▁d",
        "or"
      ],
      [
        "ım",
        "dan"
      ],
      [
        "▁end",
        "is"
      ],
      [
        "g",
        "ar"
      ],
      [
        "an",
        "ıs"
      ],
      [
        "▁m",
        "obil"
      ],
      [
        "▁ted",
        "bir"
      ],
      [
        "▁ya",
        "g"
      ],
      [
        "m",
        "ız"
      ],
      [
        "▁on",
        "er"
      ],
      [
        "▁yuks",
        "eldi"
      ],
      [
        "▁oy",
        "unu"
      ],
      [
        "t",
        "e"
      ],
      [
        "de",
        "t"
      ],
      [
        "▁endek",
        "si"
      ],
      [
        "▁",
        "b"
      ],
      [
        "a",
        "rak"
      ],
      [
        "t",
        "ıgını"
      ],
      [
        "▁sır",
        "asında"
      ],
      [
        "▁son",
        "uc"
      ],
      [
        "▁ih",
        "t"
      ],
      [
        "o",
        "z"
      ],
      [
        "▁hat",
        "ır"
      ],
      [
        "o",
        "r"
      ],
      [
        "l",
        "ılık"
      ],
      [
        "os",
        "u"
      ],
      [
        "▁petr",
        "ol"
      ],
      [
        "y",
        "as"
      ],
      [
        "▁yuk",
        "s"
      ],
      [
        "ı",
        "k"
      ],
      [
        "▁c",
        "al"
      ],
      [
        "ama",
        "z"
      ],
      [
        "▁?",
        ".."
      ],
      [
        "▁muh",
        "al"
      ],
      [
        "i",
        "ki"
      ],
      [
        "b",
        "ası"
      ],
      [
        "▁h",
        "as"
      ],
      [
        "iy",
        "on"
      ],
      [
        "▁insan",
        "lara"
      ],
      [
        "▁",
        "in"
      ],
      [
        "er",
        "ik"
      ],
      [
        "l",
        "ay"
      ],
      [
        "y",
        "i"
      ],
      [
        "▁animasyon",
        "lar"
      ],
      [
        "ta",
        "y"
      ],
      [
        "▁g",
        "id"
      ],
      [
        "▁bic",
        "im"
      ],
      [
        "▁",
        "ul"
      ],
      [
        "▁ev",
        "de"
      ],
      [
        "▁kurul",
        "us"
      ],
      [
        "▁bil",
        "e"
      ],
      [
        "▁def",
        "a"
      ],
      [
        "▁",
        "s"
      ],
      [
        "▁coc",
        "ugun"
      ],
      [
        "iler",
        "i"
      ],
      [
        "▁r",
        "af"
      ],
      [
        "▁kal",
        "dırım"
      ],
      [
        "▁havaal",
        "anından"
      ],
      [
        "▁ed",
        "eb"
      ],
      [
        ".",
        "."
      ],
      [
        "▁yuks",
        "el"
      ],
      [
        "c",
        "ag"
      ],
      [
        "'",
        "den"
      ],
      [
        "is",
        "inin"
      ],
      [
        "▁b",
        "os"
      ],
      [
        "▁p",
        "ers"
      ],
      [
        "▁b",
        "ayan"
      ],
      [
        "▁ak",
        "tiv"
      ],
      [
        "▁g",
        "et"
      ],
      [
        "▁yag",
        "mur"
      ],
      [
        "mekt",
        "en"
      ],
      [
        "n",
        "ız"
      ],
      [
        "▁s",
        "ez"
      ],
      [
        "▁must",
        "eri"
      ],
      [
        "▁muz",
        "ak"
      ],
      [
        "▁hizmet",
        "inden"
      ],
      [
        "▁b",
        "ey"
      ],
      [
        "▁s",
        "ec"
      ],
      [
        "▁us",
        "t"
      ],
      [
        "'n",
        "da"
      ],
      [
        "▁yap",
        "ım"
      ],
      [
        "▁endust",
        "ri"
      ],
      [
        "▁do",
        "r"
      ],
      [
        "est",
        "ir"
      ],
      [
        "g",
        "r"
      ],
      [
        "ı",
        "lan"
      ],
      [
        "▁ol",
        "mus"
      ],
      [
        "▁ayak",
        "k"
      ],
      [
        "ek",
        "l"
      ],
      [
        "k",
        "t"
      ],
      [
        "ac",
        "ag"
      ],
      [
        "t",
        "ı"
      ],
      [
        "t",
        "tı"
      ],
      [
        "▁h",
        "es"
      ],
      [
        "▁uc",
        "us"
      ],
      [
        "▁kon",
        "s"
      ],
      [
        "▁listel",
        "e"
      ],
      [
        "la",
        "rı"
      ],
      [
        "s",
        "iyon"
      ],
      [
        "▁personel",
        "i"
      ],
      [
        "las",
        "yon"
      ],
      [
        "▁m",
        "ay"
      ],
      [
        "▁p",
        "aket"
      ],
      [
        "▁n",
        "asıl"
      ],
      [
        "▁s",
        "is"
      ],
      [
        "▁donem",
        "inde"
      ],
      [
        "q",
        "u"
      ],
      [
        "▁",
        "ih"
      ],
      [
        "di",
        "g"
      ],
      [
        "must",
        "u"
      ],
      [
        "c",
        "ul"
      ],
      [
        "▁uc",
        "uz"
      ],
      [
        "m",
        "esini"
      ],
      [
        "▁",
        "on"
      ],
      [
        "in",
        "dan"
      ],
      [
        "▁cars",
        "amba"
      ],
      [
        "▁ko",
        "du"
      ],
      [
        "▁havaal",
        "anı"
      ],
      [
        "▁in",
        "anc"
      ],
      [
        "ib",
        "i"
      ],
      [
        "▁kar",
        "s"
      ],
      [
        "i",
        "m"
      ],
      [
        "▁oz",
        "el"
      ],
      [
        "▁iht",
        "im"
      ],
      [
        "m",
        "edigini"
      ],
      [
        "▁bi",
        "l"
      ],
      [
        "▁civ",
        "arı"
      ],
      [
        "▁d",
        "is"
      ],
      [
        "▁s",
        "uyu"
      ],
      [
        "▁ev",
        "e"
      ],
      [
        "▁al",
        "a"
      ],
      [
        "ma",
        "z"
      ],
      [
        "▁tes",
        "isti"
      ],
      [
        "▁uy",
        "ku"
      ],
      [
        "ay",
        "ol"
      ],
      [
        "▁",
        "cok"
      ],
      [
        "▁f",
        "a"
      ],
      [
        "▁dev",
        "am"
      ],
      [
        "▁ek",
        "ibi"
      ],
      [
        "or",
        "e"
      ],
      [
        "▁y",
        "uz"
      ],
      [
        "uz",
        "el"
      ],
      [
        "d",
        "al"
      ],
      [
        "▁",
        "`"
      ],
      [
        "▁s",
        "ip"
      ],
      [
        "▁fatur",
        "am"
      ],
      [
        "▁ol",
        "du"
      ],
      [
        "▁i",
        "z"
      ],
      [
        "▁i",
        "r"
      ],
      [
        "▁f",
        "az"
      ],
      [
        "▁t",
        "ren"
      ],
      [
        "▁sur",
        "e"
      ],
      [
        "▁..",
        "\""
      ],
      [
        "▁",
        "un"
      ],
      [
        "g",
        "e"
      ],
      [
        "▁soyl",
        "edi"
      ],
      [
        "▁sın",
        "ır"
      ],
      [
        "ade",
        "m"
      ],
      [
        "la",
        "stı"
      ],
      [
        "▁",
        "h"
      ],
      [
        "▁ne",
        "ler"
      ],
      [
        "et",
        "in"
      ],
      [
        "▁oldu",
        "gunu"
      ],
      [
        "▁yer",
        "inde"
      ],
      [
        "t",
        "o"
      ],
      [
        "▁satıs",
        "ları"
      ],
      [
        "lar",
        "i"
      ],
      [
        "la",
        "rak"
      ],
      [
        "▁p",
        "il"
      ],
      [
        "▁ha",
        "n"
      ],
      [
        "▁da",
        "l"
      ],
      [
        "▁ya",
        "na"
      ],
      [
        "▁as",
        "agı"
      ],
      [
        "▁or",
        "g"
      ],
      [
        "▁d",
        "ip"
      ],
      [
        "▁ar",
        "k"
      ],
      [
        "i",
        "j"
      ],
      [
        "mı",
        "s"
      ],
      [
        "▁bir",
        "i"
      ],
      [
        "d",
        "iye"
      ],
      [
        "t",
        "ur"
      ],
      [
        "▁dol",
        "ar"
      ],
      [
        "▁co",
        "gu"
      ],
      [
        "▁kı",
        "z"
      ],
      [
        "▁g",
        "ay"
      ],
      [
        "▁zam",
        "anı"
      ],
      [
        "▁d",
        "iger"
      ],
      [
        "li",
        "t"
      ],
      [
        "b",
        "ir"
      ],
      [
        "▁org",
        "an"
      ],
      [
        "▁s",
        "ı"
      ],
      [
        "▁haf",
        "ta"
      ],
      [
        "▁gul",
        "er"
      ],
      [
        "i",
        "leri"
      ],
      [
        "▁misaf",
        "ir"
      ],
      [
        "▁gi",
        "t"
      ],
      [
        "ek",
        "ti"
      ],
      [
        "dı",
        "r"
      ],
      [
        "▁herk",
        "es"
      ],
      [
        "▁ha",
        "lbu"
      ],
      [
        "▁k",
        "ol"
      ],
      [
        "▁d",
        "ugun"
      ],
      [
        "alar",
        "da"
      ],
      [
        "▁i",
        "d"
      ],
      [
        "▁l",
        "ir"
      ],
      [
        "t",
        "an"
      ],
      [
        "▁g",
        "iy"
      ],
      [
        "ı",
        "ya"
      ],
      [
        "▁sist",
        "emi"
      ],
      [
        "▁sa",
        "c"
      ],
      [
        "▁ka",
        "f"
      ],
      [
        "▁sınıf",
        "ı"
      ],
      [
        "y",
        "um"
      ],
      [
        "▁gel",
        "mis"
      ],
      [
        "▁gel",
        "ecek"
      ],
      [
        "▁ya",
        "v"
      ],
      [
        "▁d",
        "ı"
      ],
      [
        "▁civ",
        "arında"
      ],
      [
        "▁goz",
        "lem"
      ],
      [
        "▁atlan",
        "ta"
      ],
      [
        "gı",
        "t"
      ],
      [
        "g",
        "ı"
      ],
      [
        "gun",
        "u"
      ],
      [
        "ya",
        "cak"
      ],
      [
        "▁s",
        "af"
      ],
      [
        "▁yar",
        "d"
      ],
      [
        "▁yap",
        "ar"
      ],
      [
        "o",
        "y"
      ],
      [
        "▁tab",
        "ak"
      ],
      [
        "▁",
        "edi"
      ],
      [
        "▁olm",
        "adıgını"
      ],
      [
        "▁b",
        "elir"
      ],
      [
        "y",
        "a"
      ],
      [
        "ist",
        "ler"
      ],
      [
        "▁c",
        "ir"
      ],
      [
        "▁di",
        "l"
      ],
      [
        "▁gec",
        "ti"
      ],
      [
        "▁t",
        "ar"
      ],
      [
        "du",
        "gu"
      ],
      [
        "▁t",
        "or"
      ],
      [
        "us",
        "tur"
      ],
      [
        "mek",
        "t"
      ],
      [
        "▁dog",
        "r"
      ],
      [
        "▁h",
        "a"
      ],
      [
        "la",
        "stır"
      ],
      [
        "▁hay",
        "ır"
      ],
      [
        "▁git",
        "mek"
      ],
      [
        "▁ham",
        "am"
      ],
      [
        "m",
        "alı"
      ],
      [
        "▁",
        "oy"
      ],
      [
        "u",
        "lu"
      ],
      [
        "makt",
        "a"
      ],
      [
        "ev",
        "iz"
      ],
      [
        "▁h",
        "az"
      ],
      [
        "▁sek",
        "er"
      ],
      [
        "▁sey",
        "in"
      ],
      [
        "am",
        "ba"
      ],
      [
        "▁h",
        "o"
      ],
      [
        "is",
        "ine"
      ],
      [
        "▁to",
        "z"
      ],
      [
        "▁b",
        "ak"
      ],
      [
        "▁di",
        "p"
      ],
      [
        "ar",
        "ında"
      ],
      [
        "▁n",
        "ak"
      ],
      [
        "▁var",
        "lık"
      ],
      [
        "▁bab",
        "am"
      ],
      [
        "▁r",
        "ahat"
      ],
      [
        "▁gid",
        "is"
      ],
      [
        "▁s",
        "o"
      ],
      [
        "en",
        "t"
      ],
      [
        "v",
        "r"
      ],
      [
        "▁amerik",
        "alı"
      ],
      [
        "on",
        "om"
      ],
      [
        "is",
        "ki"
      ],
      [
        "i",
        "gi"
      ],
      [
        "▁pr",
        "ogram"
      ],
      [
        "ı",
        "n"
      ],
      [
        "▁kab",
        "ul"
      ],
      [
        "'n",
        "dan"
      ],
      [
        "▁ki",
        "mi"
      ],
      [
        "▁kan",
        "un"
      ],
      [
        "o",
        "l"
      ],
      [
        "▁olm",
        "a"
      ],
      [
        "▁par",
        "aya"
      ],
      [
        "▁s",
        "ur"
      ],
      [
        "▁ol",
        "dugu"
      ],
      [
        "▁bun",
        "lar"
      ],
      [
        "m",
        "in"
      ],
      [
        "▁vucu",
        "d"
      ],
      [
        "g",
        "eleri"
      ],
      [
        "▁ba",
        "ska"
      ],
      [
        "▁d",
        "o"
      ],
      [
        "▁ogren",
        "ci"
      ],
      [
        "▁sonuc",
        "ları"
      ],
      [
        "▁k",
        "ar"
      ],
      [
        "▁k",
        "or"
      ],
      [
        "g",
        "o"
      ],
      [
        "▁h",
        "an"
      ],
      [
        "▁gel",
        "en"
      ],
      [
        "▁toplan",
        "t"
      ],
      [
        "▁ort",
        "aya"
      ],
      [
        "▁bilgisay",
        "ar"
      ],
      [
        "▁rez",
        "erv"
      ],
      [
        "▁ha",
        "s"
      ],
      [
        "imiz",
        "in"
      ],
      [
        "▁kel",
        "im"
      ],
      [
        "di",
        "v"
      ],
      [
        "uz",
        "lu"
      ],
      [
        "▁d",
        "ur"
      ],
      [
        "▁s",
        "an"
      ],
      [
        "em",
        "e"
      ],
      [
        "ıs",
        "ı"
      ],
      [
        "▁t",
        "r"
      ],
      [
        "g",
        "ur"
      ],
      [
        "an",
        "dı"
      ],
      [
        "b",
        "et"
      ],
      [
        "▁yaln",
        "ız"
      ],
      [
        "▁b",
        "eydi"
      ],
      [
        "▁t",
        "ers"
      ],
      [
        "▁y",
        "ık"
      ],
      [
        "us",
        "lar"
      ],
      [
        "▁do",
        "l"
      ],
      [
        "▁guzel",
        "lik"
      ],
      [
        "▁kap",
        "sam"
      ],
      [
        "▁mal",
        "iyeti"
      ],
      [
        "▁is",
        "ler"
      ],
      [
        "▁but",
        "ce"
      ],
      [
        "ma",
        "y"
      ],
      [
        "▁k",
        "uc"
      ],
      [
        "▁sen",
        "d"
      ],
      [
        "z",
        "a"
      ],
      [
        "▁m",
        "adde"
      ],
      [
        "▁6",
        "'dan"
      ],
      [
        "a",
        "cı"
      ],
      [
        "▁sekil",
        "de"
      ],
      [
        "g",
        "an"
      ],
      [
        "c",
        "ak"
      ],
      [
        "ist",
        "ir"
      ],
      [
        "▁hap",
        "is"
      ],
      [
        "▁bor",
        "c"
      ],
      [
        "▁dol",
        "arı"
      ],
      [
        "▁fiyat",
        "i"
      ],
      [
        "▁do",
        "gru"
      ],
      [
        "▁i",
        "y"
      ],
      [
        "d",
        "ir"
      ],
      [
        "▁h",
        "at"
      ],
      [
        "lig",
        "ini"
      ],
      [
        "▁em",
        "ir"
      ],
      [
        "d",
        "ug"
      ],
      [
        "▁aksam",
        "a"
      ],
      [
        "▁",
        "iyi"
      ],
      [
        "lar",
        "a"
      ],
      [
        "a",
        "de"
      ],
      [
        "an",
        "ları"
      ],
      [
        "'",
        "e"
      ],
      [
        "▁b",
        "eye"
      ],
      [
        "▁tartıs",
        "ma"
      ],
      [
        "▁di",
        "k"
      ],
      [
        "▁go",
        "z"
      ],
      [
        "▁go",
        "r"
      ],
      [
        "lan",
        "tı"
      ],
      [
        "▁il",
        "gi"
      ],
      [
        "um",
        "e"
      ],
      [
        "▁deg",
        "er"
      ],
      [
        "ac",
        "ak"
      ],
      [
        "▁bors",
        "a"
      ],
      [
        "es",
        "tir"
      ],
      [
        "▁zinc",
        "ir"
      ],
      [
        "▁kullan",
        "madim"
      ],
      [
        "▁k",
        "r"
      ],
      [
        "▁",
        "“"
      ],
      [
        "▁kit",
        "ap"
      ],
      [
        "▁y",
        "alan"
      ],
      [
        "▁sey",
        "ir"
      ],
      [
        "▁ins",
        "anın"
      ],
      [
        "▁b",
        "og"
      ],
      [
        "▁anlam",
        "ına"
      ],
      [
        "n",
        "am"
      ],
      [
        "▁ol",
        "sa"
      ],
      [
        "▁bir",
        "az"
      ],
      [
        "▁y",
        "il"
      ],
      [
        "it",
        "esi"
      ],
      [
        "▁el",
        "ini"
      ],
      [
        "▁mat",
        "em"
      ],
      [
        "▁dil",
        "im"
      ],
      [
        "ıl",
        "ım"
      ],
      [
        "▁g",
        "erek"
      ],
      [
        "▁boy",
        "u"
      ],
      [
        "▁kı",
        "y"
      ],
      [
        "▁bu",
        "tun"
      ],
      [
        "▁tek",
        "l"
      ],
      [
        "▁ihtiy",
        "ac"
      ],
      [
        "▁cev",
        "ap"
      ],
      [
        "ur",
        "k"
      ],
      [
        "▁kal",
        "dır"
      ],
      [
        "▁da",
        "ha"
      ],
      [
        "▁b",
        "er"
      ],
      [
        "▁t",
        "e"
      ],
      [
        "ıyor",
        "um"
      ],
      [
        "▁ar",
        "ttı"
      ],
      [
        "acı",
        "lar"
      ],
      [
        "▁san",
        "dal"
      ],
      [
        "▁ag",
        "ustos"
      ],
      [
        "s",
        "ik"
      ],
      [
        "may",
        "ı"
      ],
      [
        "▁he",
        "m"
      ],
      [
        "▁k",
        "ere"
      ],
      [
        "▁m",
        "ar"
      ],
      [
        "▁s",
        "uya"
      ],
      [
        "yo",
        "r"
      ],
      [
        "eda",
        "v"
      ],
      [
        "▁ayak",
        "ta"
      ],
      [
        "▁ucus",
        "lar"
      ],
      [
        "ab",
        "a"
      ],
      [
        "▁duny",
        "ada"
      ],
      [
        "▁dogr",
        "u"
      ],
      [
        "alar",
        "dan"
      ],
      [
        "▁t",
        "ip"
      ],
      [
        "▁d",
        "eger"
      ],
      [
        "▁gen",
        "is"
      ],
      [
        "▁bel",
        "ki"
      ],
      [
        "▁gec",
        "esi"
      ],
      [
        "ı",
        "s"
      ],
      [
        "▁$",
        "'a"
      ],
      [
        "▁baltimore",
        "'ye"
      ],
      [
        "▁ode",
        "me"
      ],
      [
        "▁rek",
        "lam"
      ],
      [
        "ler",
        "iyle"
      ],
      [
        "oy",
        "u"
      ],
      [
        "a",
        "larını"
      ],
      [
        "i",
        "ger"
      ],
      [
        "l",
        "as"
      ],
      [
        "▁k",
        "is"
      ],
      [
        "▁ak",
        "tar"
      ],
      [
        "▁bur",
        "okr"
      ],
      [
        "▁ar",
        "ac"
      ],
      [
        "▁de",
        "mek"
      ],
      [
        "▁kisi",
        "ler"
      ],
      [
        "▁z",
        "or"
      ],
      [
        "is",
        "leri"
      ],
      [
        "▁so",
        "g"
      ],
      [
        "▁ogle",
        "den"
      ],
      [
        "▁v",
        "et"
      ],
      [
        "▁u",
        "m"
      ],
      [
        "l",
        "i"
      ],
      [
        "▁ya",
        "hut"
      ],
      [
        "ci",
        "leri"
      ],
      [
        "▁og",
        "lum"
      ],
      [
        "▁faal",
        "iyet"
      ],
      [
        "▁yap",
        "ı"
      ],
      [
        "▁yap",
        "tı"
      ],
      [
        "or",
        "k"
      ],
      [
        "▁",
        "mus"
      ],
      [
        "▁oyun",
        "cu"
      ],
      [
        "▁guz",
        "el"
      ],
      [
        "us",
        "tu"
      ],
      [
        "s",
        "im"
      ],
      [
        "▁d",
        "ort"
      ],
      [
        "ay",
        "ı"
      ],
      [
        "▁b",
        "asına"
      ],
      [
        "▁kıy",
        "met"
      ],
      [
        "ıl",
        "ıg"
      ],
      [
        "▁den",
        "iz"
      ],
      [
        "▁zaman",
        "lar"
      ],
      [
        "'",
        "da"
      ],
      [
        "▁r",
        "uy"
      ],
      [
        "um",
        "da"
      ],
      [
        "▁h",
        "atır"
      ],
      [
        "▁par",
        "a"
      ],
      [
        "u",
        "g"
      ],
      [
        "▁halbu",
        "ki"
      ],
      [
        "▁bek",
        "le"
      ],
      [
        "▁co",
        "z"
      ],
      [
        "ıs",
        "ının"
      ],
      [
        "▁guzel",
        "di"
      ],
      [
        "u",
        "b"
      ],
      [
        "▁an",
        "im"
      ],
      [
        "▁temiz",
        "lik"
      ],
      [
        "l",
        "es"
      ],
      [
        "o",
        "t"
      ],
      [
        "u",
        "muz"
      ],
      [
        "▁merkez",
        "ine"
      ],
      [
        "▁",
        "mes"
      ],
      [
        "d",
        "et"
      ],
      [
        "▁p",
        "lan"
      ],
      [
        "l",
        "anı"
      ],
      [
        "▁yar",
        "at"
      ],
      [
        "▁amer",
        "ik"
      ],
      [
        "ır",
        "ak"
      ],
      [
        "▁o",
        "r"
      ],
      [
        "▁c",
        "ay"
      ],
      [
        "ler",
        "in"
      ],
      [
        "an",
        "dan"
      ],
      [
        "▁ucret",
        "lerini"
      ],
      [
        "▁mem",
        "leket"
      ],
      [
        "s",
        "ka"
      ],
      [
        "▁id",
        "di"
      ],
      [
        "▁tarih",
        "i"
      ],
      [
        "▁g",
        "ar"
      ],
      [
        "▁s",
        "t"
      ],
      [
        "▁bu",
        "rada"
      ],
      [
        "▁bi",
        "n"
      ],
      [
        "il",
        "i"
      ],
      [
        "▁la",
        "f"
      ],
      [
        "▁ic",
        "i"
      ],
      [
        "▁y",
        "ork"
      ],
      [
        "u",
        "s"
      ],
      [
        "▁m",
        "ez"
      ],
      [
        "▁ola",
        "cak"
      ],
      [
        "▁at",
        "es"
      ],
      [
        "st",
        "on"
      ],
      [
        "▁m",
        "ec"
      ],
      [
        "in",
        "in"
      ],
      [
        "o",
        "u"
      ],
      [
        "▁y",
        "um"
      ],
      [
        "▁azal",
        "t"
      ],
      [
        "s",
        "ak"
      ],
      [
        "▁savun",
        "ma"
      ],
      [
        "▁makal",
        "eye"
      ],
      [
        "▁kayı",
        "p"
      ],
      [
        "▁yol",
        "a"
      ],
      [
        "▁top",
        "u"
      ],
      [
        "l",
        "arı"
      ],
      [
        "▁k",
        "ı"
      ],
      [
        "▁el",
        "de"
      ],
      [
        "▁m",
        "ola"
      ],
      [
        "sın",
        "ız"
      ],
      [
        "▁ulas",
        "ımı"
      ],
      [
        "▁od",
        "asına"
      ],
      [
        "▁art",
        "ısı"
      ],
      [
        "▁-",
        "-"
      ],
      [
        "▁t",
        "enc"
      ],
      [
        "e",
        "di"
      ],
      [
        "▁yanı",
        "t"
      ],
      [
        "▁hav",
        "ayol"
      ],
      [
        "▁t",
        "ut"
      ],
      [
        "du",
        "r"
      ],
      [
        "ı",
        "h"
      ],
      [
        "iz",
        "e"
      ],
      [
        "▁b",
        "ask"
      ],
      [
        "ur",
        "lu"
      ],
      [
        "▁m",
        "is"
      ],
      [
        "co",
        "k"
      ],
      [
        "▁yon",
        "et"
      ],
      [
        "er",
        "di"
      ],
      [
        "▁s",
        "iz"
      ],
      [
        "▁r",
        "ef"
      ],
      [
        "▁yar",
        "gıc"
      ],
      [
        "▁yuz",
        "u"
      ],
      [
        "▁n",
        "eler"
      ],
      [
        "v",
        "an"
      ],
      [
        "▁b",
        "ol"
      ],
      [
        "▁kal",
        "dim"
      ],
      [
        "▁hic",
        "bir"
      ],
      [
        "▁perform",
        "ans"
      ],
      [
        "▁fiyat",
        "a"
      ],
      [
        "▁p",
        "oz"
      ],
      [
        "▁t",
        "o"
      ],
      [
        "▁ara",
        "stır"
      ],
      [
        "▁il",
        "a"
      ],
      [
        "am",
        "ası"
      ],
      [
        "▁gel",
        "istir"
      ],
      [
        "▁to",
        "p"
      ],
      [
        "la",
        "cak"
      ],
      [
        "▁soz",
        "leri"
      ],
      [
        "▁",
        "ne"
      ],
      [
        "▁piy",
        "as"
      ],
      [
        "▁ba",
        "sa"
      ],
      [
        "▁k",
        "af"
      ],
      [
        "t",
        "ır"
      ],
      [
        "▁t",
        "ur"
      ],
      [
        "▁ust",
        "unde"
      ],
      [
        "▁ist",
        "ek"
      ],
      [
        "▁du",
        "stu"
      ],
      [
        "▁yemek",
        "ler"
      ],
      [
        "▁islem",
        "ler"
      ],
      [
        "▁gru",
        "b"
      ],
      [
        "▁d",
        "iz"
      ],
      [
        "▁o",
        "f"
      ],
      [
        "▁ciz",
        "gi"
      ],
      [
        "▁hav",
        "al"
      ],
      [
        "▁ay",
        "ında"
      ],
      [
        "▁res",
        "im"
      ],
      [
        "▁personel",
        "lerin"
      ],
      [
        "▁bog",
        "az"
      ],
      [
        "▁yer",
        "inden"
      ],
      [
        "▁sav",
        "as"
      ],
      [
        "▁t",
        "iyatr"
      ],
      [
        "▁ag",
        "ız"
      ],
      [
        "a",
        "dı"
      ],
      [
        "▁g",
        "r"
      ],
      [
        "▁dusun",
        "uyor"
      ],
      [
        "▁b",
        "uf"
      ],
      [
        "lig",
        "e"
      ],
      [
        "el",
        "li"
      ],
      [
        "▁n",
        "uf"
      ],
      [
        "ek",
        "li"
      ],
      [
        "▁s",
        "ok"
      ],
      [
        "▁lezzet",
        "leri"
      ],
      [
        "▁",
        "ib"
      ],
      [
        "mey",
        "i"
      ],
      [
        "▁edi",
        "l"
      ],
      [
        "ey",
        "e"
      ],
      [
        "▁a",
        "lama"
      ],
      [
        "▁k",
        "ut"
      ],
      [
        "▁",
        "ki"
      ],
      [
        "▁yonet",
        "imi"
      ],
      [
        "e",
        "de"
      ],
      [
        "ast",
        "ır"
      ],
      [
        "▁b",
        "uz"
      ],
      [
        "▁g",
        "ez"
      ],
      [
        "in",
        "c"
      ],
      [
        "n",
        "ak"
      ],
      [
        "uy",
        "du"
      ],
      [
        "▁sın",
        "av"
      ],
      [
        "▁g",
        "ec"
      ],
      [
        "da",
        "r"
      ],
      [
        "▁insan",
        "ları"
      ],
      [
        "▁i",
        "t"
      ],
      [
        "▁otel",
        "de"
      ],
      [
        "▁k",
        "o"
      ],
      [
        "0",
        "0"
      ],
      [
        "ed",
        "ik"
      ],
      [
        "▁tar",
        "z"
      ],
      [
        "lık",
        "ları"
      ],
      [
        "▁el",
        "e"
      ],
      [
        "▁d",
        "ok"
      ],
      [
        "▁yet",
        "k"
      ],
      [
        "▁p",
        "ark"
      ],
      [
        "▁c",
        "eb"
      ],
      [
        "▁al",
        "mak"
      ],
      [
        "d",
        "ay"
      ],
      [
        "▁otob",
        "us"
      ],
      [
        "ul",
        "er"
      ],
      [
        "ey",
        "le"
      ],
      [
        "▁mily",
        "ar"
      ],
      [
        "a",
        "gı"
      ],
      [
        "e",
        "leri"
      ],
      [
        "▁c",
        "ic"
      ],
      [
        "▁sat",
        "ım"
      ],
      [
        "▁vap",
        "ur"
      ],
      [
        "▁ko",
        "p"
      ],
      [
        "'",
        "ye"
      ],
      [
        "a",
        "ları"
      ],
      [
        "▁ekonom",
        "i"
      ],
      [
        "▁k",
        "ur"
      ],
      [
        "▁s",
        "ek"
      ],
      [
        "▁oda",
        "m"
      ],
      [
        "gi",
        "li"
      ],
      [
        "▁c",
        "ep"
      ],
      [
        "er",
        "leri"
      ],
      [
        "m",
        "em"
      ],
      [
        "▁m",
        "ı"
      ],
      [
        "▁d",
        "est"
      ],
      [
        "▁i",
        "ci"
      ],
      [
        "▁kar",
        "ab"
      ],
      [
        "s",
        "ın"
      ],
      [
        "▁y",
        "el"
      ],
      [
        "▁gun",
        "de"
      ],
      [
        "▁go",
        "l"
      ],
      [
        "▁ol",
        "duk"
      ],
      [
        "▁sin",
        "ir"
      ],
      [
        "l",
        "y"
      ],
      [
        "▁den",
        "ver"
      ],
      [
        "▁s",
        "uy"
      ],
      [
        "▁se",
        "f"
      ],
      [
        "▁faz",
        "la"
      ],
      [
        "▁si",
        "p"
      ],
      [
        "tı",
        "r"
      ],
      [
        "▁p",
        "it"
      ],
      [
        "▁program",
        "ı"
      ],
      [
        "l",
        "a"
      ],
      [
        "▁de",
        "de"
      ],
      [
        "▁halk",
        "ı"
      ],
      [
        "▁c",
        "ab"
      ],
      [
        "▁onun",
        "de"
      ],
      [
        "▁b",
        "or"
      ],
      [
        "▁d",
        "ek"
      ],
      [
        "▁yer",
        "ler"
      ],
      [
        "▁men",
        "kul"
      ],
      [
        "▁so",
        "v"
      ],
      [
        "ul",
        "mus"
      ],
      [
        "▁kas",
        "ab"
      ],
      [
        "▁doları",
        "'na"
      ],
      [
        "▁olur",
        "sa"
      ],
      [
        "▁alama",
        "dim"
      ],
      [
        "▁fabr",
        "ik"
      ],
      [
        "▁tam",
        "am"
      ],
      [
        "▁fab",
        "r"
      ],
      [
        "b",
        "ol"
      ],
      [
        "▁o",
        "da"
      ],
      [
        "▁ort",
        "asında"
      ],
      [
        "▁h",
        "ır"
      ],
      [
        "lu",
        "m"
      ],
      [
        "▁o",
        "lac"
      ],
      [
        "▁c",
        "ad"
      ],
      [
        "▁p",
        "art"
      ],
      [
        "▁do",
        "st"
      ],
      [
        "▁d",
        "uy"
      ],
      [
        "ıs",
        "ız"
      ],
      [
        "▁et",
        "raf"
      ],
      [
        "▁davran",
        "ıs"
      ],
      [
        "m",
        "er"
      ],
      [
        "'",
        "dan"
      ],
      [
        "▁s",
        "ır"
      ],
      [
        "▁yan",
        "ında"
      ],
      [
        "▁",
        "di"
      ],
      [
        "o",
        "ksa"
      ],
      [
        "▁",
        "zir"
      ],
      [
        "as",
        "et"
      ],
      [
        "▁yetk",
        "ili"
      ],
      [
        "iz",
        "asyon"
      ],
      [
        "u",
        "v"
      ],
      [
        "▁",
        "m"
      ],
      [
        "man",
        "ın"
      ],
      [
        "▁ne",
        "den"
      ],
      [
        "e",
        "f"
      ],
      [
        "▁rom",
        "an"
      ],
      [
        "▁k",
        "oc"
      ],
      [
        "lerin",
        "de"
      ],
      [
        "en",
        "c"
      ],
      [
        "▁",
        "erken"
      ],
      [
        "'n",
        "in"
      ],
      [
        "▁an",
        "las"
      ],
      [
        "▁b",
        "en"
      ],
      [
        "▁b",
        "uc"
      ],
      [
        "▁otel",
        "e"
      ],
      [
        "▁is",
        "ter"
      ],
      [
        "▁durum",
        "unda"
      ],
      [
        "▁ger",
        "cek"
      ],
      [
        "uy",
        "la"
      ],
      [
        "ob",
        "il"
      ],
      [
        "▁z",
        "af"
      ],
      [
        "▁misafir",
        "imiz"
      ],
      [
        "▁kendi",
        "s"
      ],
      [
        "han",
        "e"
      ],
      [
        "iyor",
        "du"
      ],
      [
        "l",
        "an"
      ],
      [
        "le",
        "r"
      ],
      [
        "▁bil",
        "dir"
      ],
      [
        "▁rad",
        "yo"
      ],
      [
        "▁gidi",
        "yor"
      ],
      [
        "▁ag",
        "ır"
      ],
      [
        "on",
        "ra"
      ],
      [
        "ok",
        "r"
      ],
      [
        "▁itibar",
        "iyle"
      ],
      [
        "y",
        "ası"
      ],
      [
        "▁sek",
        "il"
      ],
      [
        "▁m",
        "o"
      ],
      [
        "▁ya",
        "ban"
      ],
      [
        "m",
        "uyor"
      ],
      [
        "▁kars",
        "ısında"
      ],
      [
        "▁y",
        "asında"
      ],
      [
        "▁gun",
        "e"
      ],
      [
        "el",
        "ik"
      ],
      [
        "▁kıs",
        "m"
      ],
      [
        "▁ulk",
        "enin"
      ],
      [
        "▁ko",
        "k"
      ],
      [
        "la",
        "dı"
      ],
      [
        "ul",
        "du"
      ],
      [
        "▁tarih",
        "inde"
      ],
      [
        "▁m",
        "ur"
      ],
      [
        "▁oy",
        "sa"
      ],
      [
        "▁y",
        "ıla"
      ],
      [
        "▁de",
        "f"
      ],
      [
        "▁ak",
        "r"
      ],
      [
        "▁y",
        "uk"
      ],
      [
        "▁bi",
        "c"
      ],
      [
        "is",
        "inde"
      ],
      [
        "m",
        "asına"
      ],
      [
        "▁onun",
        "e"
      ],
      [
        "▁duny",
        "aya"
      ],
      [
        "l",
        "uydu"
      ],
      [
        "▁",
        "j"
      ],
      [
        "▁ag",
        "ac"
      ],
      [
        "▁p",
        "al"
      ],
      [
        "▁uret",
        "imi"
      ],
      [
        "lam",
        "ak"
      ],
      [
        "est",
        "i"
      ],
      [
        "▁r",
        "om"
      ],
      [
        "me",
        "den"
      ],
      [
        "▁i",
        "st"
      ],
      [
        "▁hey",
        "ec"
      ],
      [
        "▁endust",
        "r"
      ],
      [
        "▁si",
        "k"
      ],
      [
        "▁c",
        "adde"
      ],
      [
        "▁yaklas",
        "ık"
      ],
      [
        "lıg",
        "ın"
      ],
      [
        "▁ulk",
        "e"
      ],
      [
        "▁f",
        "ran"
      ],
      [
        "h",
        "i"
      ],
      [
        "'",
        "t"
      ],
      [
        "l",
        "at"
      ],
      [
        "▁par",
        "asını"
      ],
      [
        "iy",
        "i"
      ],
      [
        "▁m",
        "an"
      ],
      [
        "▁koy",
        "un"
      ],
      [
        "ede",
        "f"
      ],
      [
        "▁o",
        "l"
      ],
      [
        "un",
        "a"
      ],
      [
        "b",
        "ar"
      ],
      [
        "'y",
        "e"
      ],
      [
        "ız",
        "ın"
      ],
      [
        "a",
        "k"
      ],
      [
        "uc",
        "c"
      ],
      [
        "▁kot",
        "uydu"
      ],
      [
        "▁yay",
        "ın"
      ],
      [
        "ıl",
        "ı"
      ],
      [
        "▁lu",
        "t"
      ],
      [
        "▁has",
        "tan"
      ],
      [
        "▁tek",
        "n"
      ],
      [
        "▁ucus",
        "larının"
      ],
      [
        "▁zey",
        "tin"
      ],
      [
        "▁bank",
        "a"
      ],
      [
        "▁u",
        "y"
      ],
      [
        "▁tem",
        "el"
      ],
      [
        "▁s",
        "ag"
      ],
      [
        "ıy",
        "a"
      ],
      [
        "▁o",
        "p"
      ],
      [
        "▁sın",
        "ıf"
      ],
      [
        "▁ka",
        "n"
      ],
      [
        "al",
        "ama"
      ],
      [
        "▁in",
        "ce"
      ],
      [
        "▁g",
        "enc"
      ],
      [
        "▁a",
        "det"
      ],
      [
        "or",
        "ta"
      ],
      [
        "▁tar",
        "af"
      ],
      [
        "▁il",
        "iski"
      ],
      [
        "▁den",
        "ey"
      ],
      [
        "▁yol",
        "u"
      ],
      [
        "▁dem",
        "ir"
      ],
      [
        "ıs",
        "ır"
      ],
      [
        "▁kontr",
        "ol"
      ],
      [
        "'n",
        "un"
      ],
      [
        "▁den",
        "eme"
      ],
      [
        "eler",
        "den"
      ],
      [
        "▁ilgil",
        "iydi"
      ],
      [
        "▁kur",
        "taj"
      ],
      [
        "▁ya",
        "z"
      ],
      [
        "▁e",
        "de"
      ],
      [
        "▁g",
        "o"
      ],
      [
        "es",
        "ini"
      ],
      [
        "▁",
        "as"
      ],
      [
        "▁sik",
        "ayet"
      ],
      [
        "ir",
        "ler"
      ],
      [
        "▁ver",
        "im"
      ],
      [
        "▁d",
        "ag"
      ],
      [
        "▁kampan",
        "yalar"
      ],
      [
        "▁rezerv",
        "asyon"
      ],
      [
        "a",
        "lan"
      ],
      [
        "m",
        "eler"
      ],
      [
        "▁t",
        "oz"
      ],
      [
        "▁po",
        "z"
      ],
      [
        "▁sa",
        "de"
      ],
      [
        "▁g",
        "ur"
      ],
      [
        "▁zir",
        "a"
      ],
      [
        "▁personel",
        "lerden"
      ],
      [
        "▁",
        "i"
      ],
      [
        "▁deg",
        "il"
      ],
      [
        "kt",
        "u"
      ],
      [
        "ar",
        "lan"
      ],
      [
        "ıl",
        "dı"
      ],
      [
        "▁sag",
        "lık"
      ],
      [
        "▁sor",
        "un"
      ],
      [
        "▁kim",
        "i"
      ],
      [
        "▁ac",
        "ısından"
      ],
      [
        "o",
        "re"
      ],
      [
        "▁arkadas",
        "lar"
      ],
      [
        "▁personel",
        "lerinden"
      ],
      [
        "▁",
        "ma"
      ],
      [
        "▁ev",
        "in"
      ],
      [
        "l",
        "uk"
      ],
      [
        "▁lez",
        "z"
      ],
      [
        "▁el",
        "lerinde"
      ],
      [
        "▁cih",
        "az"
      ],
      [
        "ların",
        "ın"
      ],
      [
        "▁yuz",
        "unu"
      ],
      [
        "sız",
        "lık"
      ],
      [
        "▁ıs",
        "rar"
      ],
      [
        "▁b",
        "il"
      ],
      [
        "▁gerc",
        "ekl"
      ],
      [
        "▁h",
        "am"
      ],
      [
        "▁bors",
        "ası"
      ],
      [
        "t",
        "ik"
      ],
      [
        "▁tal",
        "eb"
      ],
      [
        "▁g",
        "uv"
      ],
      [
        "▁du",
        "k"
      ],
      [
        "▁el",
        "estiri"
      ],
      [
        "ı",
        "dır"
      ],
      [
        "lan",
        "ır"
      ],
      [
        "s",
        "uz"
      ],
      [
        "▁h",
        "os"
      ],
      [
        "e",
        "ger"
      ],
      [
        "▁",
        "es"
      ],
      [
        "m",
        "us"
      ],
      [
        "▁o",
        "rne"
      ],
      [
        "v",
        "ek"
      ],
      [
        "▁tal",
        "ep"
      ],
      [
        "▁le",
        "z"
      ],
      [
        "▁piyas",
        "a"
      ],
      [
        "▁",
        "d"
      ],
      [
        "▁s",
        "os"
      ],
      [
        "▁sını",
        "f"
      ],
      [
        "da",
        "l"
      ],
      [
        "▁h",
        "ey"
      ],
      [
        "▁an",
        "la"
      ],
      [
        "m",
        "ıyor"
      ],
      [
        "▁o",
        "dan"
      ],
      [
        "▁m",
        "ir"
      ],
      [
        "m",
        "uz"
      ],
      [
        "▁k",
        "ız"
      ],
      [
        "▁dav",
        "a"
      ],
      [
        "▁mo",
        "de"
      ],
      [
        "▁muh",
        "end"
      ],
      [
        "▁neden",
        "lerden"
      ],
      [
        "et",
        "leri"
      ],
      [
        "▁s",
        "ey"
      ],
      [
        "▁v",
        "ar"
      ],
      [
        "c",
        "iler"
      ],
      [
        "▁l",
        "ez"
      ],
      [
        "m",
        "ıs"
      ],
      [
        "▁man",
        "z"
      ],
      [
        "r",
        "i"
      ],
      [
        "g",
        "re"
      ],
      [
        "▁b",
        "ede"
      ],
      [
        "▁hal",
        "de"
      ],
      [
        "ma",
        "sın"
      ],
      [
        "▁e",
        "f"
      ],
      [
        "▁g",
        "ru"
      ],
      [
        "▁r",
        "isk"
      ],
      [
        "▁a",
        "la"
      ],
      [
        "▁",
        "te"
      ],
      [
        "▁karayol",
        "u"
      ],
      [
        "▁d",
        "anıs"
      ],
      [
        "▁ka",
        "rar"
      ],
      [
        "'t",
        "en"
      ],
      [
        "▁olma",
        "lı"
      ],
      [
        "▁ist",
        "ik"
      ],
      [
        "▁ort",
        "al"
      ],
      [
        "uy",
        "e"
      ],
      [
        "▁ka",
        "b"
      ],
      [
        "▁mev",
        "cut"
      ],
      [
        "di",
        "r"
      ],
      [
        "▁telefon",
        "la"
      ],
      [
        "▁gor",
        "du"
      ],
      [
        "lı",
        "gı"
      ],
      [
        "tı",
        "l"
      ],
      [
        "▁imk",
        "anlar"
      ],
      [
        "▁sozles",
        "me"
      ],
      [
        "▁et",
        "k"
      ],
      [
        "asın",
        "ı"
      ],
      [
        "u",
        "yor"
      ],
      [
        "▁uz",
        "ak"
      ],
      [
        "ra",
        "z"
      ],
      [
        "▁c",
        "ez"
      ],
      [
        "an",
        "s"
      ],
      [
        "ra",
        "r"
      ],
      [
        "ol",
        "oj"
      ],
      [
        "▁mah",
        "k"
      ],
      [
        "▁mil",
        "let"
      ],
      [
        "▁gor",
        "mek"
      ],
      [
        "as",
        "eb"
      ],
      [
        "▁der",
        "ec"
      ],
      [
        "dıg",
        "ı"
      ],
      [
        "▁deg",
        "istir"
      ],
      [
        "la",
        "k"
      ],
      [
        "suz",
        "luk"
      ],
      [
        "l",
        "u"
      ],
      [
        "▁it",
        "ibar"
      ],
      [
        "p",
        "h"
      ],
      [
        "uy",
        "le"
      ],
      [
        "▁g",
        "irdi"
      ],
      [
        "▁der",
        "gi"
      ],
      [
        "asın",
        "da"
      ],
      [
        "▁dah",
        "il"
      ],
      [
        "d",
        "ar"
      ],
      [
        "▁kon",
        "uyu"
      ],
      [
        "▁sir",
        "k"
      ],
      [
        "▁ka",
        "s"
      ],
      [
        "▁lir",
        "a"
      ],
      [
        "mı",
        "z"
      ],
      [
        "▁bar",
        "ıs"
      ],
      [
        "▁mu",
        "am"
      ],
      [
        "i",
        "g"
      ],
      [
        "d",
        "igim"
      ],
      [
        "▁al",
        "acak"
      ],
      [
        "ası",
        "yla"
      ],
      [
        "▁ail",
        "e"
      ],
      [
        "▁c",
        "es"
      ],
      [
        "▁ba",
        "k"
      ],
      [
        "▁sef",
        "er"
      ],
      [
        "▁b",
        "ut"
      ],
      [
        "▁ha",
        "m"
      ],
      [
        "s",
        "en"
      ],
      [
        "▁kul",
        "ak"
      ],
      [
        "i",
        "b"
      ],
      [
        "et",
        "i"
      ],
      [
        "▁de",
        "p"
      ],
      [
        "▁t",
        "ır"
      ],
      [
        "si",
        "k"
      ],
      [
        "h",
        "a"
      ],
      [
        "▁yıl",
        "lar"
      ],
      [
        "▁yaz",
        "ar"
      ],
      [
        "c",
        "ev"
      ],
      [
        "▁h",
        "ik"
      ],
      [
        "▁par",
        "mak"
      ],
      [
        "▁oyun",
        "c"
      ],
      [
        "▁p",
        "h"
      ],
      [
        "a",
        "ya"
      ],
      [
        "▁y",
        "al"
      ],
      [
        "i",
        "len"
      ],
      [
        "▁s",
        "ik"
      ],
      [
        "▁an",
        "lam"
      ],
      [
        "ag",
        "ın"
      ],
      [
        "▁se",
        "k"
      ],
      [
        "m",
        "en"
      ],
      [
        "▁deg",
        "eri"
      ],
      [
        "▁kar",
        "arı"
      ],
      [
        "▁mot",
        "or"
      ],
      [
        "ta",
        "rak"
      ],
      [
        "t",
        "ak"
      ],
      [
        "ha",
        "ne"
      ],
      [
        "z",
        "ir"
      ],
      [
        "▁istif",
        "a"
      ],
      [
        "▁ticaret",
        "te"
      ],
      [
        "▁h",
        "enuz"
      ],
      [
        "▁sı",
        "cak"
      ],
      [
        "▁am",
        "ma"
      ],
      [
        "▁b",
        "ur"
      ],
      [
        "▁dolar",
        "dan"
      ],
      [
        "▁hal",
        "e"
      ],
      [
        "▁k",
        "uy"
      ],
      [
        "i",
        "s"
      ],
      [
        "▁t",
        "ac"
      ],
      [
        "i",
        "ler"
      ],
      [
        "▁pit",
        "ts"
      ],
      [
        "▁ver",
        "iyorum"
      ],
      [
        "▁ko",
        "n"
      ],
      [
        "▁n",
        "um"
      ],
      [
        "▁hizmet",
        "e"
      ],
      [
        "m",
        "asından"
      ],
      [
        "▁ger",
        "c"
      ],
      [
        "ah",
        "at"
      ],
      [
        "▁d",
        "ik"
      ],
      [
        "▁uc",
        "mak"
      ],
      [
        "▁gor",
        "us"
      ],
      [
        "▁saat",
        "i"
      ],
      [
        "▁ak",
        "l"
      ],
      [
        "▁ban",
        "k"
      ],
      [
        "▁",
        "ger"
      ],
      [
        "y",
        "et"
      ],
      [
        "▁",
        "um"
      ],
      [
        "e",
        "k"
      ],
      [
        "▁sez",
        "on"
      ],
      [
        "▁ar",
        "asına"
      ],
      [
        "h",
        "an"
      ],
      [
        "▁k",
        "ır"
      ],
      [
        "▁kars",
        "ılık"
      ],
      [
        "▁ek",
        "onom"
      ],
      [
        "▁ac",
        "ik"
      ],
      [
        "er",
        "k"
      ],
      [
        "l",
        "ek"
      ],
      [
        "▁kor",
        "k"
      ],
      [
        "▁s",
        "im"
      ],
      [
        "▁boston",
        "'a"
      ],
      [
        "▁bulun",
        "du"
      ],
      [
        "▁pers",
        "onel"
      ],
      [
        "▁",
        "y"
      ],
      [
        "▁tes",
        "t"
      ],
      [
        "▁al",
        "ay"
      ],
      [
        "▁univers",
        "it"
      ],
      [
        "l",
        "ilik"
      ],
      [
        "▁oper",
        "asyon"
      ],
      [
        "er",
        "ken"
      ],
      [
        "▁",
        "a"
      ],
      [
        "▁f",
        "ay"
      ],
      [
        "d",
        "i"
      ],
      [
        "a",
        "n"
      ],
      [
        "em",
        "in"
      ],
      [
        "▁w",
        "ash"
      ],
      [
        "'",
        "ta"
      ],
      [
        "0",
        "'"
      ],
      [
        "▁kaz",
        "an"
      ],
      [
        "▁il",
        "g"
      ],
      [
        "▁ham",
        "le"
      ],
      [
        "ig",
        "ini"
      ],
      [
        "c",
        "isi"
      ],
      [
        "un",
        "u"
      ],
      [
        "▁siy",
        "aset"
      ],
      [
        "▁k",
        "ac"
      ],
      [
        "▁turk",
        "iye"
      ],
      [
        "▁uz",
        "er"
      ],
      [
        "▁ka",
        "h"
      ],
      [
        "iv",
        "ers"
      ],
      [
        "▁par",
        "ayı"
      ],
      [
        "g",
        "im"
      ],
      [
        "▁yiy",
        "ecek"
      ],
      [
        "▁sey",
        "i"
      ],
      [
        "▁ar",
        "ada"
      ],
      [
        "▁kap",
        "ıyı"
      ],
      [
        "▁edeb",
        "iyat"
      ],
      [
        "▁de",
        "k"
      ],
      [
        "▁yardım",
        "cısı"
      ],
      [
        "▁s",
        "eh"
      ],
      [
        "ı",
        "m"
      ],
      [
        "▁dus",
        "uk"
      ],
      [
        "s",
        "e"
      ],
      [
        "iy",
        "at"
      ],
      [
        "▁is",
        "lerini"
      ],
      [
        "im",
        "den"
      ],
      [
        "▁adam",
        "ları"
      ],
      [
        "▁kap",
        "ı"
      ],
      [
        "▁tasar",
        "ruf"
      ],
      [
        "▁",
        "("
      ],
      [
        "▁m",
        "ek"
      ],
      [
        "▁da",
        "gıt"
      ],
      [
        "▁kur",
        "ul"
      ],
      [
        "▁olma",
        "dıgını"
      ],
      [
        "▁kom",
        "su"
      ],
      [
        "▁ya",
        "l"
      ],
      [
        "ad",
        "de"
      ],
      [
        "▁bil",
        "im"
      ],
      [
        "▁l",
        "a"
      ],
      [
        "est",
        "iri"
      ],
      [
        "▁fir",
        "ması"
      ],
      [
        "▁sev",
        "gi"
      ],
      [
        "▁s",
        "ak"
      ],
      [
        "k",
        "en"
      ],
      [
        "t",
        "if"
      ],
      [
        "▁her",
        "k"
      ],
      [
        "r",
        "a"
      ],
      [
        "▁tahvil",
        "leri"
      ],
      [
        "▁in",
        "an"
      ],
      [
        "▁r",
        "ah"
      ],
      [
        "▁kar",
        "a"
      ],
      [
        "d",
        "ıgını"
      ],
      [
        "▁kav",
        "ram"
      ],
      [
        "▁fiyat",
        "ina"
      ],
      [
        "▁ogren",
        "mek"
      ],
      [
        "▁m",
        "etr"
      ],
      [
        "r",
        "az"
      ],
      [
        "▁",
        "…"
      ],
      [
        "▁yar",
        "dım"
      ],
      [
        "▁b",
        "el"
      ],
      [
        "▁ya",
        "p"
      ],
      [
        "ı",
        "cı"
      ],
      [
        "▁a",
        "f"
      ],
      [
        "t",
        "er"
      ],
      [
        "n",
        "cak"
      ],
      [
        "m",
        "aya"
      ],
      [
        "ları",
        "yla"
      ],
      [
        "▁ol",
        "sun"
      ],
      [
        "s",
        "il"
      ],
      [
        "▁de",
        "tay"
      ],
      [
        "la",
        "ya"
      ],
      [
        "z",
        "et"
      ],
      [
        "▁paz",
        "ar"
      ],
      [
        "▁gir",
        "isim"
      ],
      [
        "▁parc",
        "ası"
      ],
      [
        "▁az",
        "alt"
      ],
      [
        "▁du",
        "n"
      ],
      [
        "▁t",
        "ul"
      ],
      [
        "▁imkanlar",
        "i"
      ],
      [
        "b",
        "an"
      ],
      [
        "▁h",
        "av"
      ],
      [
        "▁ver",
        "mek"
      ],
      [
        "▁bo",
        "l"
      ],
      [
        "ug",
        "una"
      ],
      [
        "▁dus",
        "man"
      ],
      [
        "eler",
        "e"
      ],
      [
        "▁is",
        "i"
      ],
      [
        "▁y",
        "on"
      ],
      [
        "▁ka",
        "lk"
      ],
      [
        "▁c",
        "o"
      ],
      [
        "▁ta",
        "raf"
      ],
      [
        "▁g",
        "ok"
      ],
      [
        "▁ist",
        "iyorum"
      ],
      [
        "▁b",
        "eklen"
      ],
      [
        "▁ko",
        "s"
      ],
      [
        "id",
        "i"
      ],
      [
        "a",
        "g"
      ],
      [
        "▁",
        "at"
      ],
      [
        "k",
        "sa"
      ],
      [
        "▁",
        "or"
      ],
      [
        "▁ha",
        "d"
      ],
      [
        "▁bar",
        "dak"
      ],
      [
        "▁potansiy",
        "el"
      ],
      [
        "uyor",
        "um"
      ],
      [
        "ler",
        "di"
      ],
      [
        "ladı",
        "m"
      ],
      [
        "▁da",
        "hi"
      ],
      [
        "n",
        "e"
      ],
      [
        "a",
        "b"
      ],
      [
        "u",
        "m"
      ],
      [
        "r",
        "an"
      ],
      [
        "▁ol",
        "maz"
      ],
      [
        "eler",
        "le"
      ],
      [
        "asın",
        "dan"
      ],
      [
        "▁eder",
        "im"
      ],
      [
        "▁a",
        "il"
      ],
      [
        "▁bask",
        "ı"
      ],
      [
        "▁ozel",
        "lik"
      ],
      [
        "is",
        "inden"
      ],
      [
        "is",
        "iyle"
      ],
      [
        "▁y",
        "emek"
      ],
      [
        "in",
        "di"
      ],
      [
        "▁gars",
        "on"
      ],
      [
        "i",
        "v"
      ],
      [
        "ed",
        "en"
      ],
      [
        "ır",
        "dı"
      ],
      [
        "ad",
        "e"
      ],
      [
        "ag",
        "ını"
      ],
      [
        "▁yas",
        "a"
      ],
      [
        "▁cum",
        "le"
      ],
      [
        "▁bas",
        "a"
      ],
      [
        "▁mev",
        "du"
      ],
      [
        "on",
        "elik"
      ],
      [
        "▁c",
        "an"
      ],
      [
        "al",
        "ık"
      ],
      [
        "▁s",
        "em"
      ],
      [
        "ey",
        "n"
      ],
      [
        "▁k",
        "ul"
      ],
      [
        "a",
        "s"
      ],
      [
        "▁so",
        "yle"
      ],
      [
        "▁al",
        "ım"
      ],
      [
        "▁yaz",
        "ı"
      ],
      [
        "▁seviy",
        "esine"
      ],
      [
        "la",
        "n"
      ],
      [
        "▁f",
        "ab"
      ],
      [
        "▁yer",
        "den"
      ],
      [
        "▁karsı",
        "lık"
      ],
      [
        "al",
        "i"
      ],
      [
        "▁ayrı",
        "l"
      ],
      [
        "▁cesit",
        "leri"
      ],
      [
        "en",
        "uz"
      ],
      [
        "▁tem",
        "muz"
      ],
      [
        "▁francisco",
        "'ya"
      ],
      [
        "▁arastır",
        "ma"
      ],
      [
        "▁bak",
        "ıs"
      ],
      [
        "▁ins",
        "anı"
      ],
      [
        "▁a",
        "da"
      ],
      [
        "▁s",
        "ın"
      ],
      [
        "▁s",
        "if"
      ],
      [
        "al",
        "ma"
      ],
      [
        "▁du",
        "sun"
      ],
      [
        "▁ak",
        "t"
      ],
      [
        "▁d",
        "em"
      ],
      [
        "▁r",
        "ad"
      ],
      [
        "ıc",
        "ak"
      ],
      [
        "▁s",
        "og"
      ],
      [
        "▁herh",
        "angi"
      ],
      [
        "h",
        "t"
      ],
      [
        "u",
        "yle"
      ],
      [
        "▁pol",
        "is"
      ],
      [
        "ag",
        "ında"
      ],
      [
        "▁tem",
        "in"
      ],
      [
        "▁mag",
        "az"
      ],
      [
        "▁t",
        "ed"
      ],
      [
        "▁sin",
        "em"
      ],
      [
        "▁v",
        "ur"
      ],
      [
        "mıs",
        "lar"
      ],
      [
        "▁pant",
        "ol"
      ],
      [
        "▁s",
        "er"
      ],
      [
        "b",
        "urg"
      ],
      [
        "as",
        "i"
      ],
      [
        "▁ban",
        "yo"
      ],
      [
        "▁olabilir",
        "di"
      ],
      [
        "▁kr",
        "al"
      ],
      [
        "▁e",
        "k"
      ],
      [
        "▁c",
        "at"
      ],
      [
        "▁fot",
        "ograf"
      ],
      [
        "ug",
        "unu"
      ],
      [
        "m",
        "istir"
      ],
      [
        "▁k",
        "ey"
      ],
      [
        "▁$",
        "'dan"
      ],
      [
        "▁kuc",
        "uktu"
      ],
      [
        "▁bun",
        "u"
      ],
      [
        "g",
        "ın"
      ],
      [
        "▁d",
        "og"
      ],
      [
        "d",
        "a"
      ],
      [
        "is",
        "ler"
      ],
      [
        "▁u",
        "gr"
      ],
      [
        "▁ses",
        "leri"
      ],
      [
        "h",
        "u"
      ],
      [
        "▁m",
        "ag"
      ],
      [
        "▁ust",
        "u"
      ],
      [
        "▁sa",
        "k"
      ],
      [
        "▁mus",
        "t"
      ],
      [
        "m",
        "adıgını"
      ],
      [
        "ad",
        "ı"
      ],
      [
        "el",
        "likle"
      ],
      [
        "▁b",
        "oz"
      ],
      [
        "ci",
        "ler"
      ],
      [
        "▁d",
        "er"
      ],
      [
        "k",
        "il"
      ],
      [
        "en",
        "di"
      ],
      [
        "▁inter",
        "net"
      ],
      [
        "d",
        "o"
      ],
      [
        "▁on",
        "un"
      ],
      [
        "g",
        "er"
      ],
      [
        "▁g",
        "ucu"
      ],
      [
        "ac",
        "agını"
      ],
      [
        "▁re",
        "j"
      ],
      [
        "▁konus",
        "unda"
      ],
      [
        "▁on",
        "une"
      ],
      [
        "▁gen",
        "c"
      ],
      [
        "▁so",
        "z"
      ],
      [
        "▁so",
        "r"
      ],
      [
        "▁lezz",
        "eti"
      ],
      [
        "▁mik",
        "tar"
      ],
      [
        "▁or",
        "an"
      ],
      [
        "l",
        "am"
      ],
      [
        "▁basbak",
        "an"
      ],
      [
        "▁go",
        "c"
      ],
      [
        "▁gel",
        "ir"
      ],
      [
        "lıg",
        "ı"
      ],
      [
        "▁uy",
        "gul"
      ],
      [
        "eceg",
        "ine"
      ],
      [
        "▁goster",
        "in"
      ],
      [
        "▁esk",
        "iydi"
      ],
      [
        "▁du",
        "s"
      ],
      [
        "▁sah",
        "ip"
      ],
      [
        "▁fel",
        "aket"
      ],
      [
        "▁ur",
        "un"
      ],
      [
        "▁bic",
        "imde"
      ],
      [
        "▁yan",
        "ıt"
      ],
      [
        "e",
        "n"
      ],
      [
        "▁k",
        "om"
      ],
      [
        "▁sen",
        "et"
      ],
      [
        "▁kıs",
        "ıt"
      ],
      [
        "▁has",
        "ar"
      ],
      [
        "ıyor",
        "lar"
      ],
      [
        "on",
        "el"
      ],
      [
        "ı",
        "yla"
      ],
      [
        "▁kal",
        "it"
      ],
      [
        "t",
        "ıg"
      ],
      [
        "ed",
        "e"
      ],
      [
        "▁kır",
        "ık"
      ],
      [
        "el",
        "en"
      ],
      [
        "u",
        "z"
      ],
      [
        "▁kars",
        "iligini"
      ],
      [
        "u",
        "r"
      ],
      [
        "l",
        "ey"
      ],
      [
        "▁haz",
        "ine"
      ],
      [
        "▁ada",
        "y"
      ],
      [
        "▁bah",
        "ce"
      ],
      [
        "er",
        "n"
      ],
      [
        "us",
        "unda"
      ],
      [
        "▁delik",
        "an"
      ],
      [
        "▁oda",
        "ya"
      ],
      [
        "▁",
        "man"
      ],
      [
        "▁cor",
        "ba"
      ],
      [
        "r",
        "uk"
      ],
      [
        "▁b",
        "asın"
      ],
      [
        "▁mektu",
        "p"
      ],
      [
        "d",
        "an"
      ],
      [
        "o",
        "'ya"
      ],
      [
        "a",
        "h"
      ],
      [
        "▁o",
        "rada"
      ],
      [
        "▁ha",
        "y"
      ],
      [
        "▁kom",
        "isyon"
      ],
      [
        "▁fut",
        "bol"
      ],
      [
        "us",
        "unun"
      ],
      [
        "ler",
        "i"
      ],
      [
        "lem",
        "ek"
      ],
      [
        "lig",
        "in"
      ],
      [
        "▁hal",
        "k"
      ],
      [
        "▁ur",
        "eticisi"
      ],
      [
        "▁bas",
        "ladı"
      ],
      [
        "▁aj",
        "ans"
      ],
      [
        "▁",
        "u"
      ],
      [
        "en",
        "de"
      ],
      [
        "▁el",
        "b"
      ],
      [
        "lam",
        "aya"
      ],
      [
        "▁f",
        "ot"
      ],
      [
        "▁mer",
        "k"
      ],
      [
        "ey",
        "in"
      ],
      [
        "▁go",
        "ster"
      ],
      [
        "acag",
        "ını"
      ],
      [
        "▁y",
        "et"
      ],
      [
        "▁bolg",
        "e"
      ],
      [
        "er",
        "al"
      ],
      [
        "▁de",
        "n"
      ],
      [
        "me",
        "ye"
      ],
      [
        "as",
        "yon"
      ],
      [
        "t",
        "ıs"
      ],
      [
        "tan",
        "siy"
      ],
      [
        "▁zor",
        "luk"
      ],
      [
        "it",
        "r"
      ],
      [
        "▁k",
        "ars"
      ],
      [
        "▁a",
        "p"
      ],
      [
        "l",
        "iydi"
      ],
      [
        "▁yar",
        "ın"
      ],
      [
        "▁ba",
        "b"
      ],
      [
        "im",
        "i"
      ],
      [
        "▁il",
        "et"
      ],
      [
        "at",
        "i"
      ],
      [
        "en",
        "leri"
      ],
      [
        "la",
        "s"
      ],
      [
        "▁seb",
        "eb"
      ],
      [
        "▁m",
        "ey"
      ],
      [
        "▁etraf",
        "ında"
      ],
      [
        "▁yol",
        "cul"
      ],
      [
        "▁n",
        "it"
      ],
      [
        "u",
        "d"
      ],
      [
        "eti",
        "cisi"
      ],
      [
        "▁orta",
        "lama"
      ],
      [
        "▁seb",
        "ep"
      ],
      [
        "▁bul",
        "du"
      ],
      [
        "l",
        "iligi"
      ],
      [
        "l",
        "ge"
      ],
      [
        "▁kalab",
        "alık"
      ],
      [
        "mak",
        "tan"
      ],
      [
        "▁bakan",
        "lıgı"
      ],
      [
        "▁tu",
        "k"
      ],
      [
        "▁ces",
        "it"
      ],
      [
        "▁taraf",
        "ı"
      ],
      [
        "▁kon",
        "u"
      ],
      [
        "▁sır",
        "a"
      ],
      [
        "▁sek",
        "tor"
      ],
      [
        "▁b",
        "ıcak"
      ],
      [
        "▁se",
        "b"
      ],
      [
        "▁f",
        "ar"
      ],
      [
        "▁hal",
        "bu"
      ],
      [
        "▁an",
        "ket"
      ],
      [
        "a",
        "v"
      ],
      [
        "▁fa",
        "iz"
      ],
      [
        "an",
        "dır"
      ],
      [
        "▁ins",
        "a"
      ],
      [
        "all",
        "as"
      ],
      [
        "▁denver",
        "'e"
      ],
      [
        "▁h",
        "angi"
      ],
      [
        "▁l",
        "u"
      ],
      [
        "▁pr",
        "oj"
      ],
      [
        "▁k",
        "im"
      ],
      [
        "▁h",
        "ol"
      ],
      [
        "s",
        "el"
      ],
      [
        "at",
        "es"
      ],
      [
        "▁der",
        "t"
      ],
      [
        "▁ilgil",
        "endi"
      ],
      [
        "▁t",
        "ak"
      ],
      [
        "lık",
        "tan"
      ],
      [
        "ların",
        "da"
      ],
      [
        "r",
        "u"
      ],
      [
        "▁butu",
        "n"
      ],
      [
        "▁z",
        "ih"
      ],
      [
        "▁s",
        "ol"
      ],
      [
        "▁ta",
        "k"
      ],
      [
        "▁ik",
        "inci"
      ],
      [
        "▁vad",
        "eli"
      ],
      [
        "▁oy",
        "n"
      ],
      [
        "▁baz",
        "ı"
      ],
      [
        "▁m",
        "ed"
      ],
      [
        "ama",
        "sı"
      ],
      [
        "ıg",
        "a"
      ],
      [
        "▁g",
        "unu"
      ],
      [
        "▁son",
        "ra"
      ],
      [
        "ı",
        "gı"
      ],
      [
        "▁ar",
        "aya"
      ],
      [
        "m",
        "el"
      ],
      [
        "▁s",
        "ırt"
      ],
      [
        "e",
        "b"
      ],
      [
        "▁o",
        "c"
      ],
      [
        "ımız",
        "a"
      ],
      [
        "▁bil",
        "mek"
      ],
      [
        "▁gun",
        "duz"
      ],
      [
        "▁k",
        "oy"
      ],
      [
        "el",
        "e"
      ],
      [
        "dı",
        "gın"
      ],
      [
        "▁danıs",
        "man"
      ],
      [
        "▁yet",
        "er"
      ],
      [
        "▁h",
        "iss"
      ],
      [
        "▁ev",
        "ine"
      ],
      [
        "▁cocuk",
        "ların"
      ],
      [
        "▁gelir",
        "i"
      ],
      [
        "▁gid",
        "er"
      ],
      [
        "▁ken",
        "ar"
      ],
      [
        "i",
        "yor"
      ],
      [
        "▁gos",
        "teri"
      ],
      [
        "▁olma",
        "ya"
      ],
      [
        "▁kon",
        "umu"
      ],
      [
        "▁d",
        "ol"
      ],
      [
        "it",
        "e"
      ],
      [
        "▁e",
        "ve"
      ],
      [
        "▁anlas",
        "ma"
      ],
      [
        "▁c",
        "iz"
      ],
      [
        "▁fiyat",
        "lar"
      ],
      [
        "t",
        "en"
      ],
      [
        "▁yuz",
        "yıl"
      ],
      [
        "▁s",
        "us"
      ],
      [
        "ı",
        "y"
      ],
      [
        "▁otel",
        "in"
      ],
      [
        "er",
        "in"
      ],
      [
        "la",
        "c"
      ],
      [
        "▁artıs",
        "la"
      ],
      [
        "e",
        "s"
      ],
      [
        "il",
        "ik"
      ],
      [
        "▁g",
        "os"
      ],
      [
        "▁m",
        "ik"
      ],
      [
        "▁deniz",
        "i"
      ],
      [
        "lıg",
        "ına"
      ],
      [
        "as",
        "a"
      ],
      [
        "▁oldu",
        "k"
      ],
      [
        "lar",
        "ım"
      ],
      [
        "▁fak",
        "at"
      ],
      [
        "l",
        "et"
      ],
      [
        "▁gon",
        "d"
      ],
      [
        "er",
        "s"
      ],
      [
        "▁ann",
        "em"
      ],
      [
        "▁havayol",
        "larında"
      ],
      [
        "▁",
        "tu"
      ],
      [
        "▁cam",
        "asır"
      ],
      [
        "▁ist",
        "iyor"
      ],
      [
        "▁f",
        "r"
      ],
      [
        "▁g",
        "ey"
      ],
      [
        "▁b",
        "al"
      ],
      [
        "▁in",
        "dir"
      ],
      [
        "▁a",
        "k"
      ],
      [
        "▁il",
        "av"
      ],
      [
        "▁ne",
        "w"
      ],
      [
        "g",
        "ini"
      ],
      [
        "▁d",
        "us"
      ],
      [
        "ar",
        "et"
      ],
      [
        "▁biz",
        "e"
      ],
      [
        "ey",
        "h"
      ],
      [
        "▁yetkili",
        "leri"
      ],
      [
        "▁gec",
        "e"
      ],
      [
        "▁y",
        "ay"
      ],
      [
        "▁sor",
        "unun"
      ],
      [
        "▁et",
        "me"
      ],
      [
        "▁yer",
        "i"
      ],
      [
        "▁c",
        "ok"
      ],
      [
        "▁or",
        "t"
      ],
      [
        "▁balt",
        "imore"
      ],
      [
        "▁it",
        "ir"
      ],
      [
        "▁k",
        "ent"
      ],
      [
        "▁kars",
        "i"
      ],
      [
        "▁uc",
        "uyor"
      ],
      [
        "'",
        "ın"
      ],
      [
        "v",
        "er"
      ],
      [
        "▁d",
        "uz"
      ],
      [
        "▁",
        "kac"
      ],
      [
        "▁t",
        "em"
      ],
      [
        "y",
        "or"
      ],
      [
        "▁tes",
        "ekkur"
      ],
      [
        "de",
        "k"
      ],
      [
        "▁cin",
        "s"
      ],
      [
        "▁yap",
        "rak"
      ],
      [
        "▁se",
        "c"
      ],
      [
        "▁d",
        "ıs"
      ],
      [
        "▁duny",
        "anın"
      ],
      [
        "▁yıl",
        "d"
      ],
      [
        "a",
        "bilir"
      ],
      [
        "▁y",
        "iy"
      ],
      [
        "▁so",
        "y"
      ],
      [
        "▁h",
        "ar"
      ],
      [
        "▁hay",
        "van"
      ],
      [
        "▁prof",
        "es"
      ],
      [
        "▁m",
        "im"
      ],
      [
        "▁ver",
        "il"
      ],
      [
        "▁gerek",
        "tigini"
      ],
      [
        "▁is",
        "tih"
      ],
      [
        "▁kar",
        "ayol"
      ],
      [
        "em",
        "edi"
      ],
      [
        "▁ta",
        "mam"
      ],
      [
        "ek",
        "tr"
      ],
      [
        "▁r",
        "es"
      ],
      [
        "▁huk",
        "um"
      ],
      [
        "▁c",
        "ek"
      ],
      [
        "▁ces",
        "aret"
      ],
      [
        "▁",
        "se"
      ],
      [
        "▁se",
        "h"
      ],
      [
        "▁insan",
        "lar"
      ],
      [
        "▁yem",
        "egi"
      ],
      [
        "u",
        "y"
      ],
      [
        "▁bel",
        "ir"
      ],
      [
        "lık",
        "lar"
      ],
      [
        "▁sa",
        "n"
      ],
      [
        "▁eks",
        "ik"
      ],
      [
        "▁t",
        "er"
      ],
      [
        "k",
        "el"
      ],
      [
        "▁sat",
        "ır"
      ],
      [
        "or",
        "m"
      ],
      [
        "▁bi",
        "raz"
      ],
      [
        "▁s",
        "ap"
      ],
      [
        "▁tav",
        "siye"
      ],
      [
        "ey",
        "im"
      ],
      [
        "▁h",
        "uc"
      ],
      [
        "▁toplan",
        "tı"
      ],
      [
        "▁yolcul",
        "uk"
      ],
      [
        "t",
        "ık"
      ],
      [
        "i",
        "yi"
      ],
      [
        "▁dav",
        "ran"
      ],
      [
        "eceg",
        "i"
      ],
      [
        "▁dun",
        "y"
      ],
      [
        "d",
        "u"
      ],
      [
        "sin",
        "iz"
      ],
      [
        "▁on",
        "ay"
      ],
      [
        "▁s",
        "uc"
      ],
      [
        "i",
        "den"
      ],
      [
        "▁",
        "g"
      ],
      [
        "▁k",
        "em"
      ],
      [
        "▁s",
        "en"
      ],
      [
        "▁tekl",
        "if"
      ],
      [
        "▁kr",
        "edi"
      ],
      [
        "ar",
        "lar"
      ],
      [
        "▁mem",
        "nun"
      ],
      [
        "▁so",
        "l"
      ],
      [
        "▁anla",
        "ttı"
      ],
      [
        "▁",
        "mak"
      ],
      [
        "k",
        "k"
      ],
      [
        "▁yap",
        "mayı"
      ],
      [
        "▁b",
        "in"
      ],
      [
        "▁i",
        "la"
      ],
      [
        "▁",
        "bi"
      ],
      [
        "ib",
        "ar"
      ],
      [
        "e",
        "h"
      ],
      [
        "l",
        "av"
      ],
      [
        "im",
        "a"
      ],
      [
        "▁",
        "4"
      ],
      [
        "▁b",
        "ul"
      ],
      [
        "at",
        "a"
      ],
      [
        "▁yon",
        "t"
      ],
      [
        "▁m",
        "ak"
      ],
      [
        "erli",
        "k"
      ],
      [
        "▁hakk",
        "ı"
      ],
      [
        "▁kı",
        "sı"
      ],
      [
        "er",
        "h"
      ],
      [
        "▁ne",
        "dir"
      ],
      [
        "▁buy",
        "ume"
      ],
      [
        "▁hoc",
        "a"
      ],
      [
        "▁ben",
        "im"
      ],
      [
        "ru",
        "f"
      ],
      [
        "▁top",
        "r"
      ],
      [
        "▁sayı",
        "da"
      ],
      [
        "▁d",
        "en"
      ],
      [
        "▁mas",
        "raf"
      ],
      [
        "▁o",
        "ak"
      ],
      [
        "▁mevz",
        "u"
      ],
      [
        "▁alıs",
        "ver"
      ],
      [
        "'d",
        "an"
      ],
      [
        "▁f",
        "iyat"
      ],
      [
        "g",
        "ıc"
      ],
      [
        "▁h",
        "izm"
      ],
      [
        "▁yuz",
        "de"
      ],
      [
        "larımız",
        "ı"
      ],
      [
        "▁gun",
        "un"
      ],
      [
        "▁k",
        "er"
      ],
      [
        "▁mik",
        "r"
      ],
      [
        "▁p",
        "lanı"
      ],
      [
        "▁kaz",
        "anc"
      ],
      [
        "▁oldug",
        "una"
      ],
      [
        "t",
        "il"
      ],
      [
        "▁kad",
        "ının"
      ],
      [
        "▁po",
        "tansiy"
      ],
      [
        "▁ist",
        "e"
      ],
      [
        "d",
        "ing"
      ],
      [
        "▁acık",
        "lam"
      ],
      [
        "▁tem",
        "sil"
      ],
      [
        "▁var",
        "di"
      ],
      [
        "▁erk",
        "ek"
      ],
      [
        "▁soyl",
        "ey"
      ],
      [
        "▁is",
        "t"
      ],
      [
        "▁ac",
        "ıl"
      ],
      [
        "▁gog",
        "s"
      ],
      [
        "▁dal",
        "g"
      ],
      [
        "▁ka",
        "m"
      ],
      [
        "ı",
        "lı"
      ],
      [
        "ların",
        "dan"
      ],
      [
        "▁bırak",
        "tı"
      ],
      [
        "▁guler",
        "y"
      ],
      [
        "▁dor",
        "tluk"
      ],
      [
        "▁d",
        "ers"
      ],
      [
        "am",
        "a"
      ],
      [
        "▁listel",
        "eyin"
      ],
      [
        "▁ol",
        "uyor"
      ],
      [
        "▁iz",
        "in"
      ],
      [
        "▁b",
        "on"
      ],
      [
        "u",
        "ru"
      ],
      [
        "▁y",
        "ab"
      ],
      [
        "▁g",
        "elir"
      ],
      [
        "▁is",
        "ci"
      ],
      [
        "am",
        "az"
      ],
      [
        "▁endek",
        "s"
      ],
      [
        "▁kar",
        "si"
      ],
      [
        "o",
        "f"
      ],
      [
        "lan",
        "ıyor"
      ],
      [
        "▁",
        "\""
      ],
      [
        "▁sa",
        "b"
      ],
      [
        "▁y",
        "ine"
      ],
      [
        "▁ceyr",
        "ek"
      ],
      [
        "ık",
        "lar"
      ],
      [
        "▁",
        "erk"
      ],
      [
        "▁nef",
        "es"
      ],
      [
        "▁p",
        "as"
      ],
      [
        "▁h",
        "e"
      ],
      [
        "▁",
        "alt"
      ],
      [
        "▁m",
        "em"
      ],
      [
        "▁oy",
        "un"
      ],
      [
        "▁e",
        "s"
      ],
      [
        "gi",
        "l"
      ],
      [
        "▁ola",
        "rak"
      ],
      [
        "▁dir",
        "ek"
      ],
      [
        "▁s",
        "e"
      ],
      [
        "ag",
        "ına"
      ],
      [
        "▁ta",
        "n"
      ],
      [
        "▁v",
        "ucu"
      ],
      [
        "li",
        "k"
      ],
      [
        "▁on",
        "emli"
      ],
      [
        "▁hat",
        "ta"
      ],
      [
        "▁hayat",
        "a"
      ],
      [
        "▁",
        "am"
      ],
      [
        "▁b",
        "un"
      ],
      [
        "▁ev",
        "i"
      ],
      [
        "lig",
        "inin"
      ],
      [
        "▁",
        "7"
      ],
      [
        "▁",
        "emek"
      ],
      [
        "▁nak",
        "it"
      ],
      [
        "m",
        "esi"
      ],
      [
        "▁mes",
        "aj"
      ],
      [
        "▁f",
        "ut"
      ],
      [
        "▁i",
        "de"
      ],
      [
        "▁soy",
        "ley"
      ],
      [
        "▁havayol",
        "ları"
      ],
      [
        "▁islem",
        "lerinde"
      ],
      [
        "d",
        "ır"
      ],
      [
        "▁d",
        "e"
      ],
      [
        "▁dav",
        "et"
      ],
      [
        "▁.",
        "'"
      ],
      [
        "▁ak",
        "sam"
      ],
      [
        "▁ıs",
        "ık"
      ],
      [
        "▁tes",
        "lim"
      ],
      [
        "▁1",
        "0'dan"
      ],
      [
        "▁m",
        "er"
      ],
      [
        "▁oldug",
        "unu"
      ],
      [
        "as",
        "t"
      ],
      [
        "▁an",
        "n"
      ],
      [
        "c",
        "egini"
      ],
      [
        "▁hav",
        "a"
      ],
      [
        "▁",
        "ir"
      ],
      [
        "il",
        "igi"
      ],
      [
        "▁o",
        "larak"
      ],
      [
        "▁s",
        "il"
      ],
      [
        "▁el",
        "em"
      ],
      [
        "▁gey",
        "ik"
      ],
      [
        "▁ilet",
        "isim"
      ],
      [
        "l",
        "eyi"
      ],
      [
        "▁istem",
        "iyorum"
      ],
      [
        "s",
        "ef"
      ],
      [
        "▁bil",
        "eti"
      ],
      [
        "▁im",
        "z"
      ],
      [
        "i",
        "yle"
      ],
      [
        "▁sim",
        "di"
      ],
      [
        "▁su",
        "p"
      ],
      [
        "um",
        "uz"
      ],
      [
        "▁",
        "ince"
      ],
      [
        "▁yap",
        "ıyor"
      ],
      [
        "▁l",
        "am"
      ],
      [
        "▁olm",
        "asi"
      ],
      [
        "s",
        "al"
      ],
      [
        "ec",
        "i"
      ],
      [
        "▁a",
        "n"
      ],
      [
        "▁kısı",
        "t"
      ],
      [
        "▁cek",
        "ti"
      ],
      [
        "ay",
        "la"
      ],
      [
        "▁cum",
        "artesi"
      ],
      [
        "▁gid",
        "en"
      ],
      [
        "▁mucade",
        "le"
      ],
      [
        "▁num",
        "ar"
      ],
      [
        "00",
        "0"
      ],
      [
        "at",
        "lı"
      ],
      [
        "▁s",
        "ev"
      ],
      [
        "r",
        "am"
      ],
      [
        "▁",
        "eg"
      ],
      [
        "▁m",
        "ust"
      ],
      [
        "▁al",
        "an"
      ],
      [
        "a",
        "yi"
      ],
      [
        "▁huk",
        "uk"
      ],
      [
        "▁d",
        "il"
      ],
      [
        "▁sal",
        "on"
      ],
      [
        "▁sor",
        "um"
      ],
      [
        "▁teknoloj",
        "i"
      ],
      [
        "anı",
        "t"
      ],
      [
        "▁hava",
        "al"
      ],
      [
        "▁in",
        "c"
      ],
      [
        "▁t",
        "uz"
      ],
      [
        "t",
        "eri"
      ],
      [
        "g",
        "il"
      ],
      [
        "▁yıl",
        "ının"
      ],
      [
        "▁pitts",
        "burgh"
      ],
      [
        "▁an",
        "al"
      ],
      [
        "m",
        "al"
      ],
      [
        "▁e",
        "c"
      ],
      [
        "▁od",
        "un"
      ],
      [
        "▁m",
        "uh"
      ],
      [
        "de",
        "n"
      ],
      [
        "▁ya",
        "t"
      ],
      [
        "▁penc",
        "er"
      ],
      [
        "l",
        "eket"
      ],
      [
        "▁s",
        "ist"
      ],
      [
        "▁kam",
        "pan"
      ],
      [
        "▁cun",
        "ku"
      ],
      [
        "▁g",
        "em"
      ],
      [
        "▁s",
        "tr"
      ],
      [
        "st",
        "u"
      ],
      [
        "en",
        "k"
      ],
      [
        "an",
        "ma"
      ],
      [
        "c",
        "un"
      ],
      [
        "▁c",
        "am"
      ],
      [
        "▁or",
        "ta"
      ],
      [
        "▁sev",
        "iye"
      ],
      [
        "▁d",
        "ev"
      ],
      [
        "▁",
        "ge"
      ],
      [
        "an",
        "gi"
      ],
      [
        "▁ortal",
        "ama"
      ],
      [
        "m",
        "asının"
      ],
      [
        "ler",
        "imiz"
      ],
      [
        "▁h",
        "af"
      ],
      [
        "c",
        "h"
      ],
      [
        "▁",
        "v"
      ],
      [
        "▁i",
        "f"
      ],
      [
        "▁ek",
        "ip"
      ],
      [
        "eli",
        "k"
      ],
      [
        "iy",
        "et"
      ],
      [
        "▁di",
        "ger"
      ],
      [
        "▁on",
        "unde"
      ],
      [
        "▁neden",
        "le"
      ],
      [
        "ta",
        "k"
      ],
      [
        "▁ar",
        "asında"
      ],
      [
        "lug",
        "unu"
      ],
      [
        "▁b",
        "oy"
      ],
      [
        "ti",
        "k"
      ],
      [
        "▁k",
        "uf"
      ],
      [
        "u",
        "t"
      ],
      [
        "▁yab",
        "an"
      ],
      [
        "ak",
        "ları"
      ],
      [
        "▁g",
        "og"
      ],
      [
        "▁k",
        "us"
      ],
      [
        "a",
        "cag"
      ],
      [
        "an",
        "d"
      ],
      [
        "▁sev",
        "g"
      ],
      [
        "▁sa",
        "ir"
      ],
      [
        "▁sa",
        "h"
      ],
      [
        "▁hizm",
        "et"
      ],
      [
        "▁ac",
        "ı"
      ],
      [
        "▁ha",
        "kk"
      ],
      [
        "i",
        "z"
      ],
      [
        "▁av",
        "uc"
      ],
      [
        "i",
        "r"
      ],
      [
        "▁dak",
        "ik"
      ],
      [
        "▁ab",
        "d"
      ],
      [
        "▁ac",
        "tı"
      ],
      [
        "▁g",
        "er"
      ],
      [
        "▁y",
        "ar"
      ],
      [
        "▁kit",
        "ab"
      ],
      [
        "sı",
        "n"
      ],
      [
        "y",
        "o"
      ],
      [
        "▁k",
        "uz"
      ],
      [
        "▁i",
        "ht"
      ],
      [
        "m",
        "ası"
      ],
      [
        "es",
        "s"
      ],
      [
        "▁ka",
        "d"
      ],
      [
        "▁k",
        "ıs"
      ],
      [
        "▁s",
        "ut"
      ],
      [
        "▁orne",
        "gin"
      ],
      [
        "▁ko",
        "m"
      ],
      [
        "▁tar",
        "if"
      ],
      [
        "▁eve",
        "t"
      ],
      [
        "▁yas",
        "am"
      ],
      [
        "▁uy",
        "e"
      ],
      [
        "▁bor",
        "s"
      ],
      [
        "s",
        "in"
      ],
      [
        "▁sey",
        "ler"
      ],
      [
        "▁",
        "id"
      ],
      [
        "▁bul",
        "ut"
      ],
      [
        "▁is",
        "aret"
      ],
      [
        "▁yap",
        "ıl"
      ],
      [
        "▁t",
        "oh"
      ],
      [
        "▁h",
        "ur"
      ],
      [
        "▁ta",
        "v"
      ],
      [
        "ir",
        "im"
      ],
      [
        "▁t",
        "en"
      ],
      [
        "'",
        "de"
      ],
      [
        "▁bir",
        "tak"
      ],
      [
        "▁barda",
        "gı"
      ],
      [
        "im",
        "ci"
      ],
      [
        "▁icecek",
        "ler"
      ],
      [
        "▁",
        "et"
      ],
      [
        "▁a",
        "b"
      ],
      [
        "▁aksam",
        "ı"
      ],
      [
        "y",
        "an"
      ],
      [
        "▁d",
        "isi"
      ],
      [
        "▁ard",
        "ından"
      ],
      [
        "lar",
        "ı"
      ],
      [
        "on",
        "un"
      ],
      [
        "▁kahv",
        "al"
      ],
      [
        "g",
        "isi"
      ],
      [
        "▁da",
        "k"
      ],
      [
        "▁ol",
        "m"
      ],
      [
        "▁de",
        "gil"
      ],
      [
        "i",
        "d"
      ],
      [
        "im",
        "iz"
      ],
      [
        "▁um",
        "ut"
      ],
      [
        "a",
        "m"
      ],
      [
        "▁sah",
        "n"
      ],
      [
        "un",
        "den"
      ],
      [
        "▁bug",
        "une"
      ],
      [
        "▁boston",
        "'dan"
      ],
      [
        "▁sehr",
        "in"
      ],
      [
        "k",
        "al"
      ],
      [
        "o",
        "p"
      ],
      [
        "▁c",
        "ik"
      ],
      [
        "us",
        "t"
      ],
      [
        "lar",
        "da"
      ],
      [
        "▁a",
        "rada"
      ],
      [
        "▁n",
        "iyet"
      ],
      [
        "makt",
        "an"
      ],
      [
        "▁sade",
        "ce"
      ],
      [
        "m",
        "anın"
      ],
      [
        "▁oda",
        "lar"
      ],
      [
        "▁str",
        "ate"
      ],
      [
        "▁mer",
        "h"
      ],
      [
        "em",
        "i"
      ],
      [
        "▁l",
        "id"
      ],
[...]
