{
  "version": "1.0",
  "truncation": null,
  "padding": null,
  "added_tokens": [
    {
      "id": 360,
      "content": "[SEP]",
      "single_word": false,
      "lstrip": false,
      "rstrip": false,
      "normalized": false,
      "special": true
    },
    {
      "id": 1575,
      "content": "[CLS]",
      "single_word": false,
      "lstrip": false,
      "rstrip": false,
      "normalized": false,
      "special": true
    },
    {
      "id": 6150,
      "content": "[UNK]",
      "single_word": false,
      "lstrip": false,
      "rstrip": false,
      "normalized": false,
      "special": true
    },
    {
      "id": 6768,
      "content": "[MASK]",
      "single_word": false,
      "lstrip": false,
      "rstrip": false,
      "normalized": false,
      "special": true
    },
    {
      "id": 7166,
      "content": "[PAD]",
      "single_word": false,
      "lstrip": false,
      "rstrip": false,
      "normalized": false,
      "special": true
    }
  ],
  "normalizer": {
    "type": "Sequence",
    "normalizers": [
      {
        "type": "NFD"
      },
      {
        "type": "Lowercase"
      },
      {
        "type": "StripAccents"
      }
    ]
  },
  "pre_tokenizer": {
    "type": "Sequence",
    "pretokenizers": [
      {
        "type": "Metaspace",
        "replacement": "▁",
        "prepend_scheme": "always",
        "split": true
      }
    ]
  },
  "post_processor": {
    "type": "TemplateProcessing",
    "single": [
      {
        "SpecialToken": {
          "id": "[CLS]",
          "type_id": 0
        }
      },
      {
        "Sequence": {
          "id": "A",
          "type_id": 0
        }
      },
      {
        "SpecialToken": {
          "id": "[SEP]",
          "type_id": 0
        }
      }
    ],
    "pair": [
      {
        "SpecialToken": {
          "id": "[CLS]",
          "type_id": 0
        }
      },
      {
        "Sequence": {
          "id": "A",
          "type_id": 0
        }
      },
      {
        "SpecialToken": {
          "id": "[SEP]",
          "type_id": 0
        }
      },
      {
        "Sequence": {
          "id": "B",
          "type_id": 1
        }
      },
      {
        "SpecialToken": {
          "id": "[SEP]",
          "type_id": 1
        }
      }
    ],
    "special_tokens": {
      "[CLS]": {
        "id": "[CLS]",
        "ids": [
          1575
        ],
        "tokens": [
          "[CLS]"
        ]
      },
      "[SEP]": {
        "id": "[SEP]",
        "ids": [
          360
        ],
        "tokens": [
          "[SEP]"
        ]
      }
    }
  },
  "decoder": {
    "type": "Metaspace",
    "replacement": "▁",
    "prepend_scheme": "always",
    "split": true
  },
  "model": {
    "type": "BPE",
    "dropout": null,
    "unk_token": "[UNK]",
    "continuing_subword_prefix": null,
    "end_of_word_suffix": null,
    "fuse_unk": false,
    "byte_fallback": false,
    "ignore_merges": false,
    "vocab": {
      "▁araba": 0,
      "▁ekledi": 1,
      "▁yil": 2,
      "▁yasası": 3,
      "uh": 4,
      "▁yaptıgını": 5,
      "lıdır": 6,
      "▁donemin": 7,
      "▁vakıf": 8,
      "▁degillerdi": 9,
      "▁tahsil": 10,
      "▁universitesi": 11,
      "▁kurs": 12,
      "▁bıcak": 13,
      "ule": 14,
      "▁mevsim": 15,
      "▁olas": 16,
      "ken": 17,
      "▁al": 18,
      "▁dev": 19,
      "▁halkı": 20,
      "▁kongre": 21,
      "▁kıraat": 22,
      "▁&": 23,
      "▁parkı": 24,
      "▁yalnızlık": 25,
      "▁mi": 26,
      "elim": 27,
      "adel": 28,
      "▁munaseb": 29,
      "▁mutlaka": 30,
      "iyi": 31,
      "erindeki": 32,
      "▁iyice": 33,
      "▁istem": 34,
      "eginin": 35,
      "▁ulkenin": 36,
      "▁tul": 37,
      "▁tek": 38,
      "sel": 39,
      "▁subat": 40,
      "▁kazan": 41,
      "▁salınc": 42,
      "▁hukum": 43,
      "▁arama": 44,
      "isim": 45,
      "tikten": 46,
      "▁ucretini": 47,
      "digim": 48,
      "ımla": 49,
      "▁erkegi": 50,
      "unu": 51,
      "▁uzuntu": 52,
      "▁gelisme": 53,
      "▁feda": 54,
      "▁sikinti": 55,
      "▁koyden": 56,
      "graf": 57,
      "▁sozc": 58,
      "▁bekl": 59,
      "▁pazar": 60,
      "▁23": 61,
      "d": 62,
      "▁ortadan": 63,
      "▁atesi": 64,
      "duz": 65,
      "▁amel": 66,
      "▁cak": 67,
      "▁meydana": 68,
      "▁fark": 69,
      "▁per": 70,
      "▁ayni": 71,
      "▁ismini": 72,
      "▁kart": 73,
      "pr": 74,
      "labil": 75,
      "▁basarısız": 76,
      "▁cesi": 77,
      "▁dagdan": 78,
      "▁tesisi": 79,
      "▁oldugundan": 80,
      "▁%1": 81,
      "▁nedeniyle": 82,
      "▁gozlerle": 83,
      "▁gorusu": 84,
      "▁lig": 85,
      "▁altından": 86,
      "▁donemi": 87,
      "tılı": 88,
      "agım": 89,
      "▁arasına": 90,
      "▁ayak": 91,
      "▁oglunun": 92,
      "▁etkisi": 93,
      "edikten": 94,
      "▁birinde": 95,
      "▁dunyası": 96,
      "▁cozum": 97,
      "▁beye": 98,
      "▁garanti": 99,
      "▁fazlaydi": 100,
      "▁hit": 101,
      "▁acıklanmadı": 102,
      "▁tut": 103,
      "piyon": 104,
      "▁bakıyor": 105,
      "▁ez": 106,
      "▁yerel": 107,
      "tay": 108,
      "▁der": 109,
      "▁saldır": 110,
      "▁acik": 111,
      "▁elbis": 112,
      "▁yazık": 113,
      "desi": 114,
      "6": 115,
      "tum": 116,
      "inizde": 117,
      "▁intih": 118,
      "▁karsısına": 119,
      "▁degiller": 120,
      "dim": 121,
      "lıgının": 122,
      "▁aynı": 123,
      "ash": 124,
      "ost": 125,
      "lıların": 126,
      "lamalar": 127,
      "▁meselesi": 128,
      "▁onune": 129,
      "▁must": 130,
      "▁bircok": 131,
      "mazlık": 132,
      "▁hastal": 133,
      "gal": 134,
      "'dan": 135,
      "▁dısisleri": 136,
      "▁ov": 137,
      "▁meydan": 138,
      "▁ai": 139,
      "▁cocukluk": 140,
      "▁guver": 141,
      "diye": 142,
      "▁kis": 143,
      "▁9'dan": 144,
      "lerimizi": 145,
      "▁caz": 146,
      "▁kapsamında": 147,
      "urken": 148,
      "▁belg": 149,
      "▁his": 150,
      "▁kupon": 151,
      "▁bagım": 152,
      "▁kac": 153,
      "ogram": 154,
      "▁leble": 155,
      "▁oteller": 156,
      "▁kadar": 157,
      "00'": 158,
      "▁dı": 159,
      "anından": 160,
      "▁dip": 161,
      "▁avru": 162,
      "likte": 163,
      "▁test": 164,
      "▁yalı": 165,
      "▁kahram": 166,
      "▁gotur": 167,
      "▁pilotlar": 168,
      "ıp": 169,
      "araj": 170,
      "eli": 171,
      "▁cekir": 172,
      "agı": 173,
      "▁konsol": 174,
      "▁bahcı": 175,
      "▁yasak": 176,
      "▁itiraf": 177,
      "▁yiyecekler": 178,
      "her": 179,
      "adde": 180,
      "emiz": 181,
      "▁cekic": 182,
      "cısı": 183,
      "▁insan": 184,
      "▁yarısı": 185,
      "erken": 186,
      "tanbul": 187,
      "▁yolculuk": 188,
      "▁memlekette": 189,
      "▁rot": 190,
      "▁ya": 191,
      "▁haber": 192,
      "▁konuya": 193,
      "▁cıkıs": 194,
      "▁kod": 195,
      "▁birbirler": 196,
      "▁imz": 197,
      "▁sayısını": 198,
      "▁ulastı": 199,
      "▁hafta": 200,
      "▁kuvv": 201,
      "▁fut": 202,
      ">": 203,
      "▁kapsam": 204,
      "▁yaptıgı": 205,
      "ifti": 206,
      "▁zev": 207,
      "r": 208,
      "▁kuzey": 209,
      "▁gun": 210,
      "▁onunla": 211,
      "lara": 212,
      "▁kıymetleri": 213,
      "▁genc": 214,
      "▁hazir": 215,
      "▁evr": 216,
      "▁cekti": 217,
      "▁ediyorlar": 218,
      "▁oranı": 219,
      "▁heps": 220,
      "▁toz": 221,
      "▁olanlar": 222,
      "▁yoldan": 223,
      "▁oksur": 224,
      "▁konusur": 225,
      "▁aylık": 226,
      "▁yapı": 227,
      "▁gorgu": 228,
      "uluyor": 229,
      "rada": 230,
      "eklen": 231,
      "▁tazmin": 232,
      "alarına": 233,
      "▁nobet": 234,
      "▁manzar": 235,
      "duk": 236,
      "ums": 237,
      "▁ucrete": 238,
      "▁st": 239,
      "▁turkiye": 240,
      "▁baskı": 241,
      "▁komplek": 242,
      "tı": 243,
      "▁kayıplar": 244,
      "▁yurtd": 245,
      "eki": 246,
      "▁yurum": 247,
      "▁iskonto": 248,
      "▁katına": 249,
      "▁hacmi": 250,
      "▁mahkum": 251,
      "▁terbiy": 252,
      "▁kl": 253,
      "▁gal": 254,
      "daki": 255,
      "▁tarla": 256,
      "▁fik": 257,
      "▁kosede": 258,
      "▁karı": 259,
      "'nden": 260,
      "ina": 261,
      "angi": 262,
      "▁beb": 263,
      "▁yatır": 264,
      "▁lirayı": 265,
      "▁risk": 266,
      "yle": 267,
      "▁dunyayı": 268,
      "igim": 269,
      "▁getiri": 270,
      "▁katır": 271,
      "▁ihtiyar": 272,
      "▁ureticileri": 273,
      ";": 274,
      "▁arb": 275,
      "▁sı": 276,
      "▁dedim": 277,
      "▁dostu": 278,
      "▁kend": 279,
      "▁kam": 280,
      "▁parc": 281,
      "apolis": 282,
      "amadı": 283,
      "▁gormek": 284,
      "▁siy": 285,
      "▁yardimci": 286,
      "▁za": 287,
      "▁firması": 288,
      "makta": 289,
      "▁ihr": 290,
      "▁ekim": 291,
      "▁kıymet": 292,
      "▁ofisi": 293,
      "▁!": 294,
      "vas": 295,
      "▁konusmaya": 296,
      "▁merak": 297,
      "▁paranın": 298,
      "▁adı": 299,
      "▁defter": 300,
      "▁personellerinden": 301,
      "▁tarih": 302,
      "▁parcasını": 303,
      "▁sırtını": 304,
      "▁vers": 305,
      "▁isciler": 306,
      "andır": 307,
      "▁benimle": 308,
      "▁kanun": 309,
      "▁tahminlerinin": 310,
      "▁soyle": 311,
      "$": 312,
      "▁sır": 313,
      "▁ert": 314,
      "ind": 315,
      "▁enstit": 316,
      "▁istegi": 317,
      "▁gomlek": 318,
      "▁suik": 319,
      "▁tasarım": 320,
      "edeki": 321,
      "amı": 322,
      "▁zeytiny": 323,
      "nc": 324,
      "▁milli": 325,
      "▁uluslararası": 326,
      "▁kampanyalar": 327,
      "elleri": 328,
      "▁karsısında": 329,
      "lenmek": 330,
      "▁reddetti": 331,
      "▁persembe": 332,
      "misler": 333,
      "▁ucuz": 334,
      "ızın": 335,
      "▁yaptirmadim": 336,
      "▁ice": 337,
      "▁baslık": 338,
      "▁orgut": 339,
      "allas": 340,
      "▁dusunmuyor": 341,
      "▁kap": 342,
      "▁tatmin": 343,
      "▁yabanci": 344,
      "deydi": 345,
      "▁subay": 346,
      "▁sist": 347,
      "1'e": 348,
      "ruk": 349,
      "▁bilgiye": 350,
      "▁muslum": 351,
      "▁cen": 352,
      "▁deger": 353,
      "▁bolgede": 354,
      "▁dogum": 355,
      "ecegim": 356,
      "▁mallar": 357,
      "▁memnunuz": 358,
      "▁yaptirdi": 359,
      "[SEP]": 360,
      "ikt": 361,
      "▁zamanlar": 362,
      "▁ok": 363,
      "▁lez": 364,
      "ırmak": 365,
      "▁icer": 366,
      "▁sınıfı": 367,
      "▁plana": 368,
      "▁doları'na": 369,
      "medim": 370,
      "▁kırık": 371,
      "▁teseb": 372,
      "pe": 373,
      "▁kuvvet": 374,
      "etr": 375,
      "▁tok": 376,
      "▁sıf": 377,
      "ahh": 378,
      "▁alır": 379,
      "▁adamı": 380,
      "kleri": 381,
      "▁olumu": 382,
      "▁hay": 383,
      "ıklarını": 384,
      "▁olu": 385,
      "▁palt": 386,
      "asindan": 387,
      "ec": 388,
      "▁tabiat": 389,
      "▁lid": 390,
      "▁davul": 391,
      "iyordum": 392,
      "anının": 393,
      "▁sutu": 394,
      "▁ilgilendiler": 395,
      "mesinin": 396,
      "lup": 397,
      "▁seyin": 398,
      "ilendir": 399,
      "▁dusus": 400,
      "▁hac": 401,
      "▁koymak": 402,
      "▁du": 403,
      "▁biri": 404,
      "kah": 405,
      "lerinin": 406,
      "tu": 407,
      "▁kisinin": 408,
      "bul": 409,
      "▁pop": 410,
      "▁gerceklesti": 411,
      "ediklerini": 412,
      "▁ons": 413,
      "▁etmeye": 414,
      "▁hedef": 415,
      ".9": 416,
      "▁ideal": 417,
      "3": 418,
      "▁idar": 419,
      "▁calis": 420,
      "aları": 421,
      "▁ekonomisi": 422,
      "▁karsıma": 423,
      "▁lev": 424,
      "▁rak": 425,
      "▁phoeni": 426,
      "▁islet": 427,
      "▁degirmen": 428,
      "▁kisisel": 429,
      "▁deve": 430,
      "▁destekl": 431,
      "▁newark": 432,
      "▁cag": 433,
      "▁yargıc": 434,
      "▁sevinc": 435,
      "▁yataklar": 436,
      "▁gununden": 437,
      "▁digerleri": 438,
      "ulu": 439,
      "iger": 440,
      "ladım": 441,
      "▁havuzu": 442,
      "cok": 443,
      "ına": 444,
      "medi": 445,
      "▁vucu": 446,
      "elir": 447,
      "▁istedi": 448,
      "▁cekmek": 449,
      "▁basından": 450,
      "egine": 451,
      "▁doneminde": 452,
      "▁islemler": 453,
      "▁onceden": 454,
      "▁unu": 455,
      "ahi": 456,
      "siye": 457,
      "▁se": 458,
      "▁ucretlerini": 459,
      "▁havuzlari": 460,
      "▁peki": 461,
      "▁deri": 462,
      "▁dagı": 463,
      "▁durumunda": 464,
      "▁lik": 465,
      "▁adama": 466,
      "▁akla": 467,
      "paz": 468,
      "▁sabaha": 469,
      "▁sorunları": 470,
      "▁ihtiy": 471,
      "▁tedavulde": 472,
      "▁alabilir": 473,
      "sis": 474,
      "▁bir": 475,
      "▁17": 476,
      "cegini": 477,
      "▁borcunu": 478,
      "iligini": 479,
      "▁soz": 480,
      "▁odanın": 481,
      "▁finc": 482,
      "▁los": 483,
      "▁tel": 484,
      "ılı": 485,
      "adır": 486,
      "ıldıgında": 487,
      "▁taahh": 488,
      "▁ucusun": 489,
      "▁pas": 490,
      "lanıyor": 491,
      "▁yakıt": 492,
      "▁odanin": 493,
      "▁giysi": 494,
      "dip": 495,
      "▁verg": 496,
      "▁yal": 497,
      "▁bu": 498,
      "▁gozunu": 499,
      "su": 500,
      "▁yonunde": 501,
      "▁degi": 502,
      "▁konak": 503,
      "▁yuksel": 504,
      "▁gelis": 505,
      "erli": 506,
      "▁restoran": 507,
      "▁mul": 508,
      "▁katil": 509,
      "ence": 510,
      "▁rekabet": 511,
      "▁duz": 512,
      "▁arabaya": 513,
      "▁tahvil": 514,
      "▁zehir": 515,
      "▁golg": 516,
      "▁kalite": 517,
      "▁guv": 518,
      "itesi": 519,
      "▁menkul": 520,
      "▁piy": 521,
      "▁kapasit": 522,
      "▁bolgenin": 523,
      "vi": 524,
      "▁alıcılar": 525,
      "▁olum": 526,
      "▁dısı": 527,
      "▁havayı": 528,
      "▁seref": 529,
      "erleri": 530,
      "▁doları'ndan": 531,
      "▁yapmak": 532,
      "▁tur": 533,
      "▁set": 534,
      "dıgımı": 535,
      "▁tepki": 536,
      "▁bolumunu": 537,
      "▁mac": 538,
      "▁kısı": 539,
      "▁soylediler": 540,
      "▁hatun": 541,
      "▁puan": 542,
      "▁izin": 543,
      "▁noktaya": 544,
      "lesi": 545,
      "cut": 546,
      "▁rej": 547,
      "lag": 548,
      "▁kayı": 549,
      "▁kosk": 550,
      "▁arab": 551,
      "tin": 552,
      "▁artık": 553,
      "▁gayet": 554,
      "▁elden": 555,
      "udur": 556,
      "lo": 557,
      "ni": 558,
      "▁mamafi": 559,
      "▁asans": 560,
      "▁yagı": 561,
      "▁atlanta'dan": 562,
      "▁fıs": 563,
      "ınlık": 564,
      "▁kat": 565,
      "▁isleme": 566,
      "ısır": 567,
      "▁firma": 568,
      "▁agız": 569,
      "gis": 570,
      "▁hazır": 571,
      "▁acıkladı": 572,
      "▁mahall": 573,
      "p": 574,
      "ro": 575,
      "ator": 576,
      "i'nin": 577,
      "▁girer": 578,
      "▁vermeyi": 579,
      "leyici": 580,
      "▁seviyesine": 581,
      "ing": 582,
      "▁kapıya": 583,
      "▁soy": 584,
      "▁hol": 585,
      "▁muda": 586,
      "▁sınıfın": 587,
      "▁kurus": 588,
      "▁port": 589,
      "odu": 590,
      "▁protokol": 591,
      "uzin": 592,
      "▁mermer": 593,
      "▁yuks": 594,
      "▁kimyasal": 595,
      "▁ink": 596,
      "▁konfor": 597,
      "▁kalitesini": 598,
      "▁kavanoz": 599,
      "▁usta": 600,
      "▁normaldi": 601,
      "▁politikası": 602,
      "▁kusku": 603,
      "▁sesleri": 604,
      "▁hucum": 605,
      "▁tep": 606,
      "▁tarafında": 607,
      "▁cav": 608,
      "om": 609,
      "▁aile": 610,
      "▁yaz": 611,
      "▁memur": 612,
      "▁piyasanın": 613,
      "▁analizciler": 614,
      "ibaren": 615,
      "▁parki": 616,
      "▁parcaları": 617,
      "▁hasret": 618,
      "temelen": 619,
      "▁fiyatı": 620,
      "▁kaybetti": 621,
      "▁sezlong": 622,
      "▁davayı": 623,
      "▁tanıt": 624,
      "▁asagı": 625,
      "▁yaklasimi": 626,
      "ibi": 627,
      "▁sin": 628,
      "▁hissedar": 629,
      "▁borcun": 630,
      "lıkları": 631,
      "mesi": 632,
      "▁aslında": 633,
      "/4'e": 634,
      "▁pis": 635,
      "men": 636,
      "▁korkusu": 637,
      "uza": 638,
      "▁soguk": 639,
      "tem": 640,
      "iren": 641,
      "▁olgu": 642,
      "tigine": 643,
      "▁yurek": 644,
      "ecegini": 645,
      "▁istasyon": 646,
      "▁kalabalık": 647,
      "▁oteli": 648,
      "▁planlıyor": 649,
      "▁grub": 650,
      "“": 651,
      "lek": 652,
      "ettim": 653,
      "▁cant": 654,
      "▁endustri": 655,
      "▁cesaret": 656,
      "lin": 657,
      "▁kilo": 658,
      "▁sade": 659,
      "▁ucuza": 660,
      "▁kib": 661,
      "▁toplantı": 662,
      "den": 663,
      "▁suru": 664,
      "▁business": 665,
      "▁sonundan": 666,
      "▁ucusunu": 667,
      "▁memleketin": 668,
      "▁ihtiyat": 669,
      "5'": 670,
      "us": 671,
      "wa": 672,
      "iy": 673,
      "▁yapıt": 674,
      "▁havası": 675,
      "▁herhangi": 676,
      "▁falan": 677,
      "▁hesap": 678,
      "egi": 679,
      "​": 680,
      "ugunu": 681,
      "▁a": 682,
      "▁senetleri": 683,
      "▁kitab": 684,
      "ayol": 685,
      "▁vakit": 686,
      "ose": 687,
      "▁karn": 688,
      "umuzu": 689,
      "agın": 690,
      "▁sebeplerden": 691,
      "▁sipar": 692,
      "▁hak": 693,
      "▁yeni": 694,
      "▁buf": 695,
      "alif": 696,
      "▁animasyonlari": 697,
      "▁maddes": 698,
      "▁gerdan": 699,
      "mıstır": 700,
      "▁onemli": 701,
      "lemesi": 702,
      "geleri": 703,
      "▁oyuna": 704,
      "madi": 705,
      "▁bır": 706,
      "sak": 707,
      "▁tet": 708,
      "▁olmuyor": 709,
      "y": 710,
      "▁olanaklari": 711,
      "orn": 712,
      "▁serg": 713,
      "▁buyum": 714,
      "▁atılım": 715,
      "▁kazanclar": 716,
      "▁baskanlıgı": 717,
      "▁37": 718,
      "▁edebilir": 719,
      "▁gorus": 720,
      "istler": 721,
      "▁tav": 722,
      "iliyor": 723,
      "▁birbirine": 724,
      "▁hosg": 725,
      "▁ote": 726,
      "▁otlar": 727,
      "▁atese": 728,
      "▁yuzuk": 729,
      "ınt": 730,
      "▁telef": 731,
      "sek": 732,
      "▁sp": 733,
      "▁roman": 734,
      "▁masaj": 735,
      "▁hazin": 736,
      "▁cikista": 737,
      "▁nisan": 738,
      "ulan": 739,
      "▁cevabı": 740,
      "ustuk": 741,
      "va": 742,
      "▁fonların": 743,
      "▁alısveris": 744,
      "▁ilac": 745,
      "▁y": 746,
      "▁ki": 747,
      "▁canlı": 748,
      "▁goruntu": 749,
      "▁benzin": 750,
      "▁imkanlari": 751,
      "▁miktarı": 752,
      "▁gereken": 753,
      "▁idaresi": 754,
      "▁mekan": 755,
      "▁insanlara": 756,
      "▁kahkaha": 757,
      "▁pat": 758,
      "▁yardımı": 759,
      "ydı": 760,
      "▁toplumun": 761,
      "▁kit": 762,
      "5": 763,
      "▁zek": 764,
      "kuz": 765,
      "▁adeta": 766,
      "▁birden": 767,
      "▁sessiz": 768,
      "▁in": 769,
      "larım": 770,
      "ımızın": 771,
      "▁kazanmak": 772,
      "▁istir": 773,
      "▁dısına": 774,
      "▁memuru": 775,
      "▁kosesinde": 776,
      "▁acık": 777,
      "▁baskanın": 778,
      "▁inek": 779,
      "ast": 780,
      "▁wash": 781,
      "▁ekib": 782,
      "alık": 783,
      "▁muhafazakar": 784,
      "mekten": 785,
      "er": 786,
      "rak": 787,
      "▁telefonla": 788,
      "▁parayi": 789,
      "edigim": 790,
      "gisi": 791,
      "▁karar": 792,
      "▁mantık": 793,
      "▁meh": 794,
      "istan": 795,
      "masında": 796,
      "tir": 797,
      "▁yagmur": 798,
      "▁onumuz": 799,
      "▁hasta": 800,
      "▁gozune": 801,
      "▁olma": 802,
      "umuze": 803,
      "▁kans": 804,
      "▁ide": 805,
      "▁kurk": 806,
      "▁suyun": 807,
      "▁ikisi": 808,
      "▁kızın": 809,
      "kon": 810,
      "▁mahkem": 811,
      "▁fiyatina": 812,
      "▁arm": 813,
      "▁kaptan": 814,
      "▁bunlardan": 815,
      "mayacak": 816,
      "▁birtak": 817,
      "▁insaat": 818,
      "▁fa": 819,
      "▁gog": 820,
      "▁ulu": 821,
      "egen": 822,
      "▁kel": 823,
      "maz": 824,
      "▁fin": 825,
      "▁isk": 826,
      "▁ruya": 827,
      "cu": 828,
      "larımıza": 829,
      "▁yapmaya": 830,
      "▁basla": 831,
      "gum": 832,
      "▁sonucların": 833,
      "▁hizmette": 834,
      "▁yildizli": 835,
      "▁sart": 836,
      "▁yiyecekleri": 837,
      "tern": 838,
      "ultu": 839,
      "elemek": 840,
      "▁disinda": 841,
      "▁yuzluydu": 842,
      "▁zem": 843,
      "▁dusmanı": 844,
      "sik": 845,
      "▁ucunu": 846,
      "▁ster": 847,
      "og": 848,
      "estr": 849,
      "gin": 850,
      "▁dun": 851,
      "▁hava": 852,
      "▁buny": 853,
      "▁muhafaza": 854,
      "say": 855,
      "'a": 856,
      "▁binanın": 857,
      "▁memnun": 858,
      "▁ann": 859,
      "▁tat": 860,
      "unuz": 861,
      "▁geride": 862,
      "b": 863,
      "▁sırada": 864,
      "▁fan": 865,
      "▁car": 866,
      "▁soluk": 867,
      "ant": 868,
      "▁derg": 869,
      "▁muay": 870,
      "ont": 871,
      "▁liraya": 872,
      "ustur": 873,
      "▁arabayı": 874,
      "▁burosu": 875,
      "mer": 876,
      "▁mutlu": 877,
      "▁kenarında": 878,
      "▁dususu": 879,
      "▁anlamına": 880,
      "▁bekleniyor": 881,
      "ki": 882,
      "cılıgı": 883,
      "▁hayatın": 884,
      "akat": 885,
      "▁arastır": 886,
      "▁lezzeti": 887,
      "▁dis": 888,
      "▁cırp": 889,
      "▁kalkan": 890,
      "▁gali": 891,
      "▁tutar": 892,
      "9'da": 893,
      "menin": 894,
      "▁yabanc": 895,
      "▁por": 896,
      "▁vermis": 897,
      "▁resep": 898,
      "▁kosul": 899,
      "yım": 900,
      "▁ardı": 901,
      "▁otesinde": 902,
      "sini": 903,
      "gıc": 904,
      "▁malz": 905,
      "▁kizim": 906,
      "▁dakik": 907,
      "▁mutfak": 908,
      "▁sesle": 909,
      "ıntı": 910,
      "▁temin": 911,
      "▁lamb": 912,
      "▁biraz": 913,
      "lasıyor": 914,
      "▁ozellikle": 915,
      "▁ulasılamadı": 916,
      "▁piyasaya": 917,
      "▁bahseder": 918,
      "esini": 919,
      "▁olmayı": 920,
      "af": 921,
      "▁gerekse": 922,
      "istel": 923,
      "▁zarf": 924,
      "▁usak": 925,
      "umde": 926,
      "erv": 927,
      "▁dede": 928,
      "▁normal": 929,
      "▁urunu": 930,
      "▁soh": 931,
      "ligin": 932,
      "▁senetlerinin": 933,
      "▁evlat": 934,
      "▁kisilerin": 935,
      "▁ik": 936,
      "▁cumle": 937,
      "▁istek": 938,
      "▁hediy": 939,
      "▁kayd": 940,
      "eden": 941,
      "▁mamafih": 942,
      "iste": 943,
      "▁sını": 944,
      "ıma": 945,
      "▁iste": 946,
      "▁dunyaya": 947,
      "▁aktivite": 948,
      "▁ziyaret": 949,
      "ag": 950,
      "▁sultan": 951,
      "▁cıkarmak": 952,
      "▁istanbul": 953,
      "samba": 954,
      "▁esv": 955,
      "ıyordum": 956,
      "▁gozler": 957,
      "▁taz": 958,
      "▁muhaseb": 959,
      "▁damla": 960,
      "▁genelde": 961,
      "▁cicek": 962,
      "ade": 963,
      "▁``": 964,
      "ezi": 965,
      "▁kolay": 966,
      "ecekleri": 967,
      "▁kitap": 968,
      "▁diyor": 969,
      "▁degis": 970,
      "▁puandan": 971,
      "▁islemlerin": 972,
      "▁hayvan": 973,
      "▁ortalama": 974,
      "▁sened": 975,
      "▁denizi": 976,
      "madim": 977,
      "▁piyasa": 978,
      "▁teklifini": 979,
      "▁birik": 980,
      "7'de": 981,
      "▁efendi": 982,
      "▁oden": 983,
      "▁kurumlar": 984,
      "lemek": 985,
      "▁zemin": 986,
      "▁karan": 987,
      "▁yanıt": 988,
      "c": 989,
      "▁yolcu": 990,
      "▁ogleden": 991,
      "▁yılı": 992,
      "oroz": 993,
      "▁dalgalan": 994,
      "ra": 995,
      "edig": 996,
      "▁kimseye": 997,
      "unluk": 998,
      "9'un": 999,
      "ask": 1000,
      "▁ayrı": 1001,
      "ell": 1002,
      "▁eskiydi": 1003,
      "▁yasay": 1004,
      "dıgından": 1005,
      "ster": 1006,
      "▁sak": 1007,
      "▁gereksin": 1008,
      "▁mevcut": 1009,
      "▁bildir": 1010,
      "uzları": 1011,
      "▁balta": 1012,
      "mıs": 1013,
      "▁olaydan": 1014,
      "▁hapis": 1015,
      "ark": 1016,
      "▁seb": 1017,
      "▁gecenin": 1018,
      "landıgını": 1019,
      "▁toren": 1020,
      "▁derde": 1021,
      "▁yemeklerden": 1022,
      "▁ulasımı": 1023,
      "▁rek": 1024,
      "▁tutul": 1025,
      "▁$'dan": 1026,
      "▁gul": 1027,
      "▁tas": 1028,
      "▁cumhuriyet": 1029,
      "▁gider": 1030,
      "▁ilim": 1031,
      "▁koru": 1032,
      "siy": 1033,
      "imizden": 1034,
      "▁sise": 1035,
      "▁defa": 1036,
      "▁aktarmasız": 1037,
      "osuna": 1038,
      "▁borsada": 1039,
      "▁cic": 1040,
      "mac": 1041,
      "leleri": 1042,
      "laması": 1043,
      "▁ula": 1044,
      "▁odul": 1045,
      "lelim": 1046,
      "▁deneyim": 1047,
      "mız": 1048,
      "▁karak": 1049,
      "▁cocugu": 1050,
      "▁kalab": 1051,
      "▁siyaset": 1052,
      "▁gordu": 1053,
      "▁nam": 1054,
      "▁deng": 1055,
      "▁kılıc": 1056,
      "▁mademki": 1057,
      "▁muhend": 1058,
      "▁basvur": 1059,
      "okul": 1060,
      "▁tavuk": 1061,
      "▁endek": 1062,
      "▁tak": 1063,
      "▁''": 1064,
      "▁alıs": 1065,
      "▁kopr": 1066,
      "cek": 1067,
      "▁sayfa": 1068,
      "▁ekl": 1069,
      "leme": 1070,
      "uya": 1071,
      "▁kazanc": 1072,
      "▁pittsburgh": 1073,
      "▁havayolları": 1074,
      "▁mek": 1075,
      "▁dallas": 1076,
      "ıza": 1077,
      "▁karsilama": 1078,
      "▁ihmal": 1079,
      "▁ikiye": 1080,
      "evi": 1081,
      "▁par": 1082,
      "▁mesaj": 1083,
      "▁darb": 1084,
      "▁beyefendi": 1085,
      "▁dag": 1086,
      "eyn": 1087,
      "▁verdik": 1088,
      "▁kelim": 1089,
      "▁topraga": 1090,
      "▁getirdi": 1091,
      "▁hakkinda": 1092,
      "▁kisiye": 1093,
      "▁haklar": 1094,
      "▁mimar": 1095,
      "ime": 1096,
      "▁ihale": 1097,
      "eyi": 1098,
      "atli": 1099,
      "▁ocagın": 1100,
      "▁ona": 1101,
      "▁boru": 1102,
      "▁tahvili": 1103,
      "▁mar": 1104,
      "lanacak": 1105,
      "▁m": 1106,
      "▁aldılar": 1107,
      "▁haric": 1108,
      "▁lam": 1109,
      "▁bayan": 1110,
      "yor": 1111,
      "▁kadr": 1112,
      "▁yerleri": 1113,
      "▁laborat": 1114,
      "eri": 1115,
      "▁ettig": 1116,
      "▁cikol": 1117,
      "▁geciyor": 1118,
      "▁duvar": 1119,
      "▁anla": 1120,
      "▁cub": 1121,
      "▁tacirler": 1122,
      "▁kacak": 1123,
      "▁ayının": 1124,
      "▁kuralları": 1125,
      "larındaki": 1126,
      "▁soyley": 1127,
      "lit": 1128,
      "▁saatlerinde": 1129,
      "▁bicimi": 1130,
      "▁kazancı": 1131,
      "▁bur": 1132,
      "▁cad": 1133,
      "▁potansiy": 1134,
      "▁boz": 1135,
      "gel": 1136,
      "▁seni": 1137,
      "iyesi": 1138,
      "▁konuları": 1139,
      "▁espr": 1140,
      "cun": 1141,
      "▁sabahı": 1142,
      "day": 1143,
      "▁numara": 1144,
      "▁uygulamaları": 1145,
      "▁ısıgı": 1146,
      "▁pey": 1147,
      "▁toplan": 1148,
      "ınc": 1149,
      "▁alıskan": 1150,
      "▁tuz": 1151,
      "▁oku": 1152,
      "▁kimseyi": 1153,
      "▁fel": 1154,
      "▁isten": 1155,
      "▁semt": 1156,
      "▁dort": 1157,
      "▁sıra": 1158,
      "▁tarihe": 1159,
      "▁yatırımcıların": 1160,
      "eyebilir": 1161,
      "▁tezgah": 1162,
      "ibar": 1163,
      "▁vicdan": 1164,
      "▁adi": 1165,
      "=": 1166,
      "▁tarafından": 1167,
      "▁kuz": 1168,
      "ber": 1169,
      "▁plaj": 1170,
      "▁telefonu": 1171,
      "▁evi": 1172,
      "▁ydi": 1173,
      "lılıgı": 1174,
      "▁kıyafet": 1175,
      "▁1988": 1176,
      "son": 1177,
      "▁basbakan": 1178,
      "▁yelpaz": 1179,
      "▁kalktı": 1180,
      "▁tucc": 1181,
      "▁tasa": 1182,
      "▁istiyorum": 1183,
      "▁kalmadı": 1184,
      "▁ardından": 1185,
      "▁yapmaktan": 1186,
      "ayi": 1187,
      "▁fatura": 1188,
      "▁pu": 1189,
      "▁kısım": 1190,
      "iledi": 1191,
      "mekle": 1192,
      "▁4": 1193,
      "yon": 1194,
      "▁q": 1195,
      "▁hekim": 1196,
      "▁kov": 1197,
      "▁kabuk": 1198,
      "▁analiz": 1199,
      "▁merkeze": 1200,
      "▁bana": 1201,
      "yı": 1202,
      "▁gaz": 1203,
      "▁kos": 1204,
      "uluk": 1205,
      "▁daire": 1206,
      "▁sor": 1207,
      "▁birligi": 1208,
      "▁ir": 1209,
      "▁sayıda": 1210,
      "▁evler": 1211,
      "!": 1212,
      "▁duzel": 1213,
      "▁sehr": 1214,
      "▁taraftan": 1215,
      "▁kıl": 1216,
      "anan": 1217,
      "▁calıs": 1218,
      "ımıza": 1219,
      "▁konuyla": 1220,
      "▁soruları": 1221,
      "▁koyde": 1222,
      "▁balkon": 1223,
      "ban": 1224,
      "▁oldukca": 1225,
      "▁tenis": 1226,
      "▁dogal": 1227,
      "▁40": 1228,
      "▁agrı": 1229,
      "▁turist": 1230,
      "▁ozellikleri": 1231,
      "▁esy": 1232,
      "dik": 1233,
      "alma": 1234,
      "▁genis": 1235,
      "▁arap": 1236,
      "▁tef": 1237,
      "emek": 1238,
      "▁gormez": 1239,
      "inti": 1240,
      "▁arkadasım": 1241,
      "▁bisiklet": 1242,
      "lamadı": 1243,
      "▁ucusunun": 1244,
      "tek": 1245,
      "▁gercekles": 1246,
      "▁kahvalti": 1247,
      "▁kim": 1248,
      "ırlar": 1249,
      "larınız": 1250,
      "▁gom": 1251,
      "▁telaf": 1252,
      "islari": 1253,
      "▁depart": 1254,
      "ation": 1255,
      "▁patlıc": 1256,
      "▁bera": 1257,
      "▁kor": 1258,
      "▁alıyor": 1259,
      "ati": 1260,
      "▁prop": 1261,
      "▁kilis": 1262,
      "▁konumu": 1263,
      "▁buyume": 1264,
      "uyorum": 1265,
      "re": 1266,
      "▁etek": 1267,
      "▁basın": 1268,
      "▁mevdu": 1269,
      "▁be": 1270,
      "▁ima": 1271,
      "▁boyle": 1272,
      "▁eb": 1273,
      "izasyon": 1274,
      "▁bog": 1275,
      "▁kahve": 1276,
      "▁14": 1277,
      "▁seklinde": 1278,
      "▁sirketin": 1279,
      "▁orland": 1280,
      "▁kalmaya": 1281,
      "▁sozu": 1282,
      "labilir": 1283,
      "inn": 1284,
      "esil": 1285,
      "umda": 1286,
      "acılık": 1287,
      "▁cin": 1288,
      "▁airlines": 1289,
      "▁merkezinde": 1290,
      "'de": 1291,
      "▁olurdu": 1292,
      "kinden": 1293,
      "liginden": 1294,
      "ılıgı": 1295,
      "▁anlama": 1296,
      "▁uygar": 1297,
      "▁pitts": 1298,
      "▁soyledi": 1299,
      "▁ger": 1300,
      "▁potansiyel": 1301,
      "ınır": 1302,
      "▁ton": 1303,
      "▁rıht": 1304,
      "▁tv": 1305,
      "▁taslar": 1306,
      "▁egit": 1307,
      "▁kı": 1308,
      "'nın": 1309,
      "▁bo": 1310,
      "▁saman": 1311,
      "▁zamana": 1312,
      "▁*": 1313,
      "▁ucus": 1314,
      "▁kale": 1315,
      "▁kurban": 1316,
      "▁ana": 1317,
      "▁yılında": 1318,
      "▁demir": 1319,
      "▁otob": 1320,
      "▁huy": 1321,
      "▁yarısından": 1322,
      "sim": 1323,
      "▁tuhaf": 1324,
      "▁!..": 1325,
      "-sat": 1326,
      "▁yolun": 1327,
      "▁krizi": 1328,
      "imleri": 1329,
      "▁doktorun": 1330,
      "▁evin": 1331,
      "▁kucuktu": 1332,
      "ikleri": 1333,
      "hiss": 1334,
      "▁bank": 1335,
      "'nin": 1336,
      "▁div": 1337,
      "▁bulur": 1338,
      "▁sakin": 1339,
      "▁vadede": 1340,
      "▁ayr": 1341,
      "▁yıldan": 1342,
      "▁kaynak": 1343,
      "▁tabanc": 1344,
      "▁tuccarlar": 1345,
      "▁isim": 1346,
      "oloji": 1347,
      "▁sozler": 1348,
      "▁denet": 1349,
      "cılıgın": 1350,
      "orma": 1351,
      "ada": 1352,
      "▁gunku": 1353,
      "▁gunduz": 1354,
      "▁gittik": 1355,
      "▁bilgi": 1356,
      "ındaki": 1357,
      "gının": 1358,
      "ıcısı": 1359,
      "▁doviz": 1360,
      "▁grubu": 1361,
      "▁ar": 1362,
      "v": 1363,
      "▁kokusu": 1364,
      "▁konustu": 1365,
      "imle": 1366,
      "▁iler": 1367,
      "▁kurumsal": 1368,
      "▁baskent": 1369,
      "5'te": 1370,
      "▁uret": 1371,
      "▁kılav": 1372,
      "▁rezerve": 1373,
      "▁zihn": 1374,
      "tıp": 1375,
      "▁yazarın": 1376,
      "lak": 1377,
      "▁adam": 1378,
      "ansiyon": 1379,
      "▁haline": 1380,
      "▁noktada": 1381,
      "▁motiv": 1382,
      "gundu": 1383,
      "▁kurt": 1384,
      "▁pazarın": 1385,
      "▁sofra": 1386,
      "▁olacagını": 1387,
      "▁viz": 1388,
      "▁bicimde": 1389,
      "▁tedbir": 1390,
      "▁sordu": 1391,
      "ırken": 1392,
      "▁sendika": 1393,
      "ıdır": 1394,
      "▁yansıt": 1395,
      "▁dahil": 1396,
      "ited": 1397,
      "▁gurult": 1398,
      "▁cos": 1399,
      "▁kuy": 1400,
      "mayın": 1401,
      "▁savas": 1402,
      "gıt": 1403,
      "▁yılda": 1404,
      "bab": 1405,
      "▁yanımda": 1406,
      "▁mahkemesi": 1407,
      "▁elimden": 1408,
      "▁oyku": 1409,
      "▁gıda": 1410,
      "lıklar": 1411,
      "▁bulbul": 1412,
      "mul": 1413,
      "▁hakkı": 1414,
      "▁gunden": 1415,
      "etti": 1416,
      "▁20": 1417,
      "pan": 1418,
      "▁ucmak": 1419,
      "ler": 1420,
      "esinin": 1421,
      "▁video": 1422,
      "▁oldugun": 1423,
      "ıcak": 1424,
      "olu": 1425,
      "▁alısver": 1426,
      "▁aklıma": 1427,
      "iyete": 1428,
      "▁tadı": 1429,
      "mal": 1430,
      ".4": 1431,
      "▁federal": 1432,
      "▁bebek": 1433,
      "▁ters": 1434,
      "▁halef": 1435,
      "agının": 1436,
      "use": 1437,
      "▁cet": 1438,
      "▁lider": 1439,
      "▁askeri": 1440,
      "▁jo": 1441,
      "▁herkesi": 1442,
      "▁yapıyor": 1443,
      "ayacagını": 1444,
      "enlerin": 1445,
      "▁kalıyor": 1446,
      "▁zirv": 1447,
      "▁gerekiyor": 1448,
      "▁yaslı": 1449,
      "▁kıvıl": 1450,
      "▁cayır": 1451,
      "▁aleyhine": 1452,
      "▁yokus": 1453,
      "▁catı": 1454,
      "▁yoktu": 1455,
      "▁ro": 1456,
      "▁esnaf": 1457,
      "▁bilgisi": 1458,
      "▁ettigini": 1459,
      "▁bolgesi": 1460,
      "▁civ": 1461,
      "▁ankete": 1462,
      "▁temizligi": 1463,
      "▁iceriye": 1464,
      "▁burn": 1465,
      "▁isinin": 1466,
      "eda": 1467,
      "ustugunu": 1468,
      "▁isaret": 1469,
      "▁arkasından": 1470,
      "▁itaat": 1471,
      "▁gecit": 1472,
      "▁mut": 1473,
      "▁basta": 1474,
      "▁birbirlerine": 1475,
      "▁polit": 1476,
      "ından": 1477,
      "lip": 1478,
      "▁anti": 1479,
      "▁doktoru": 1480,
      "▁ambar": 1481,
      "▁okullar": 1482,
      "▁politik": 1483,
      "▁lakırtı": 1484,
      "▁gencler": 1485,
      "ecilik": 1486,
      "▁sauna": 1487,
      "▁arastırma": 1488,
      "uc": 1489,
      "▁sınıfta": 1490,
      "▁mag": 1491,
      "kar": 1492,
      "lik": 1493,
      "▁calısması": 1494,
      "▁inc": 1495,
      "▁olarak": 1496,
      "▁torb": 1497,
      "▁iyil": 1498,
      "▁ogul": 1499,
      "▁tavır": 1500,
      "▁41": 1501,
      "▁cercev": 1502,
      "▁askerler": 1503,
      "▁havuzun": 1504,
      "dugu": 1505,
      "▁cevap": 1506,
      "isindan": 1507,
      "▁yanl": 1508,
      "▁mil": 1509,
      "masına": 1510,
      "▁odun": 1511,
      "▁prenses": 1512,
      "ter": 1513,
      "▁yanlıs": 1514,
      "▁hareket": 1515,
      "▁magaza": 1516,
      "gr": 1517,
      "digimi": 1518,
      "▁ortalıgı": 1519,
      "▁seydi": 1520,
      "burgh": 1521,
      "dım": 1522,
      "▁tabl": 1523,
      "▁oldugunu": 1524,
      "▁havuzlar": 1525,
      "▁kısmı": 1526,
      "▁mudur": 1527,
      "▁gayrimenkul": 1528,
      "▁degildi": 1529,
      "▁kuslar": 1530,
      "▁ter": 1531,
      "▁tutam": 1532,
      "usunu": 1533,
      "▁mahk": 1534,
      "▁fran": 1535,
      "▁plat": 1536,
      "ital": 1537,
      "▁piyasaları": 1538,
      "sem": 1539,
      "▁bilgilerini": 1540,
      "agon": 1541,
      "▁boyu": 1542,
      "dıgın": 1543,
      "▁hey": 1544,
      "iyor": 1545,
      "▁sabahın": 1546,
      "▁babamın": 1547,
      "▁yollarda": 1548,
      "mas": 1549,
      "▁eden": 1550,
      "▁fener": 1551,
      "▁dilek": 1552,
      "▁kumas": 1553,
      "▁damar": 1554,
      "▁teraz": 1555,
      "▁cıktı": 1556,
      "▁juri": 1557,
      "eligini": 1558,
      "▁calısanları": 1559,
      "yla": 1560,
      "▁spekulasyon": 1561,
      "▁arkasında": 1562,
      "ilisi": 1563,
      "▁part": 1564,
      "ine": 1565,
      "▁krav": 1566,
      "▁charlotte": 1567,
      "▁ayaklarını": 1568,
      "imizin": 1569,
      "▁hastan": 1570,
      "sizdi": 1571,
      "▁yerlerde": 1572,
      "▁badem": 1573,
      "▁#": 1574,
      "[CLS]": 1575,
      "ımı": 1576,
      "▁turden": 1577,
      "▁cevir": 1578,
      "ecegine": 1579,
      "uyla": 1580,
      "▁elektr": 1581,
      "op": 1582,
      "▁ithal": 1583,
      "▁vek": 1584,
      "mos": 1585,
      "▁yeryuz": 1586,
      "▁guler": 1587,
      "acık": 1588,
      "▁doy": 1589,
      "▁cıglık": 1590,
      "ata": 1591,
      "erler": 1592,
      "oru": 1593,
      "▁okula": 1594,
      "▁birini": 1595,
      "▁uf": 1596,
      "bur": 1597,
      "▁delikanlı": 1598,
      "▁pittsburgh'a": 1599,
      "▁faaliyeti": 1600,
      "yse": 1601,
      "te": 1602,
      "▁past": 1603,
      "▁bogazici": 1604,
      "▁onceki": 1605,
      "lamam": 1606,
      "est": 1607,
      "▁zil": 1608,
      "▁hek": 1609,
      "ilerdi": 1610,
      "▁basladılar": 1611,
      "▁rah": 1612,
      "▁faal": 1613,
      "▁piyasayı": 1614,
      "▁mukemmeldi": 1615,
      "▁rop": 1616,
      "▁atlanta'ya": 1617,
      "j": 1618,
      "isine": 1619,
      "▁makin": 1620,
      "▁ofis": 1621,
      "raber": 1622,
      "eger": 1623,
      "▁ucaklar": 1624,
      "▁hizmetleri": 1625,
      "▁havalimanı": 1626,
      "▁cezası": 1627,
      "ma": 1628,
      "▁ilg": 1629,
      "umuza": 1630,
      "▁amacıyla": 1631,
      "▁alanı": 1632,
      "▁bulmaya": 1633,
      "uktu": 1634,
      "▁intik": 1635,
      "▁koz": 1636,
      "▁dav": 1637,
      "abil": 1638,
      "▁icr": 1639,
      "turu": 1640,
      "cog": 1641,
      "misti": 1642,
      "lanmadı": 1643,
      "▁gune": 1644,
      "▁agzı": 1645,
      "▁pahali": 1646,
      "▁baslangıcı": 1647,
      "▁cesitli": 1648,
      "▁okuy": 1649,
      "▁ara": 1650,
      "▁birbir": 1651,
      "▁sebze": 1652,
      "▁endeksi": 1653,
      "▁fed": 1654,
      "aklar": 1655,
      "▁kar": 1656,
      "▁bakır": 1657,
      "impiyat": 1658,
      "ip": 1659,
      "▁biy": 1660,
      "▁gemi": 1661,
      "▁sat": 1662,
      "▁200": 1663,
      "artesi": 1664,
      "▁vucudu": 1665,
      "dirme": 1666,
      "▁elem": 1667,
      "▁hisselerinin": 1668,
      "▁cehen": 1669,
      "▁yakın": 1670,
      "75": 1671,
      "▁skan": 1672,
      "▁pır": 1673,
      "dıgı": 1674,
      "▁net": 1675,
      "▁oranlar": 1676,
      "▁neyse": 1677,
      "▁yerles": 1678,
      "▁geliyor": 1679,
      "▁edebil": 1680,
      "▁sid": 1681,
      "▁beg": 1682,
      "▁amacı": 1683,
      "&": 1684,
      "▁bankaları": 1685,
      "▁ye": 1686,
      "▁almak": 1687,
      "uslar": 1688,
      "▁ucret": 1689,
      "imde": 1690,
      "▁imam": 1691,
      "▁husus": 1692,
      "▁stat": 1693,
      "edigini": 1694,
      "▁soyl": 1695,
      "▁genel": 1696,
      "▁cont": 1697,
      "▁oldugum": 1698,
      "ılan": 1699,
      "▁merkezi": 1700,
      "gun": 1701,
      "▁igne": 1702,
      "▁kendimiz": 1703,
      "▁kesinti": 1704,
      "alarda": 1705,
      "bak": 1706,
      "hi": 1707,
      "▁sanırım": 1708,
      "▁isletmeler": 1709,
      "▁yerin": 1710,
      "▁ızdır": 1711,
      "asın": 1712,
      "▁edildi": 1713,
      "urlu": 1714,
      "ore": 1715,
      "▁kuf": 1716,
      "▁ign": 1717,
      "▁guclu": 1718,
      "▁gunumuzde": 1719,
      "▁devreye": 1720,
      "▁para": 1721,
      "▁tiyatr": 1722,
      "▁talih": 1723,
      "lige": 1724,
      "▁memphis": 1725,
      "▁odasına": 1726,
      "▁cın": 1727,
      "▁cuk": 1728,
      "▁ozlem": 1729,
      "'daki": 1730,
      "▁uygun": 1731,
      "▁surucu": 1732,
      "▁ceviz": 1733,
      "▁bakım": 1734,
      "▁trans": 1735,
      "▁kendini": 1736,
      "▁ayın": 1737,
      "▁azından": 1738,
      "otte": 1739,
      "▁muster": 1740,
      "bet": 1741,
      "▁orne": 1742,
      "▁rezerv": 1743,
      "▁kıt": 1744,
      "meldi": 1745,
      "▁8'den": 1746,
      "ıcının": 1747,
      "cuları": 1748,
      "vet": 1749,
      "▁yasamı": 1750,
      "▁lafı": 1751,
      "▁nasıl": 1752,
      "▁oper": 1753,
      "▁gunde": 1754,
      "▁kem": 1755,
      "▁satısa": 1756,
      "▁hic": 1757,
      "inleri": 1758,
      "lıgından": 1759,
      "▁ucundan": 1760,
      "geler": 1761,
      "▁agırlık": 1762,
      "▁neredeyse": 1763,
      "▁dusundu": 1764,
      "▁kimi": 1765,
      "sam": 1766,
      "▁cuz": 1767,
      "▁d": 1768,
      "▁ul": 1769,
      "rut": 1770,
      "▁eleman": 1771,
      "▁vic": 1772,
      "▁agr": 1773,
      "alarım": 1774,
      "ana": 1775,
      "▁acısı": 1776,
      "▁suk": 1777,
      "asi": 1778,
      "▁for": 1779,
      "iklik": 1780,
      "▁sıfır": 1781,
      "▁keyif": 1782,
      "▁houston": 1783,
      "▁gecirmek": 1784,
      "ib": 1785,
      "▁yetkilisi": 1786,
      "tmek": 1787,
      "telik": 1788,
      "ilmis": 1789,
      "ecegi": 1790,
      "▁vergi": 1791,
      "iyer": 1792,
      "▁yıllık": 1793,
      "lat": 1794,
      "▁berab": 1795,
      "▁100": 1796,
      "▁cıkmak": 1797,
      "▁tanesi": 1798,
      "▁gulery": 1799,
      "stık": 1800,
      "▁basvuru": 1801,
      "▁verdi": 1802,
      "▁bolge": 1803,
      "▁br": 1804,
      "▁stand": 1805,
      "▁salonu": 1806,
      "irleri": 1807,
      "▁plaji": 1808,
      "▁televizyon": 1809,
      "▁bekledigini": 1810,
      "▁konusu": 1811,
      "lıgıyla": 1812,
      "▁ma": 1813,
      "▁mide": 1814,
      "ern": 1815,
      "▁durumu": 1816,
      "apark": 1817,
      "▁kırıklıgı": 1818,
      "▁redd": 1819,
      "▁kagıdı": 1820,
      "uyor": 1821,
      "▁.'": 1822,
      "▁hizmete": 1823,
      "▁parmak": 1824,
      "ılıga": 1825,
      "mu": 1826,
      "▁benzer": 1827,
      "▁millet": 1828,
      "▁mecl": 1829,
      "▁?": 1830,
      "▁memleket": 1831,
      "▁18": 1832,
      "▁cip": 1833,
      "▁duzey": 1834,
      "▁olac": 1835,
      "▁yemeklerde": 1836,
      "imizi": 1837,
      "sir": 1838,
      "▁olduk": 1839,
      "rını": 1840,
      "▁uyusturucu": 1841,
      "▁kus": 1842,
      "▁itibariyle": 1843,
      "▁do": 1844,
      "▁hayal": 1845,
      "▁uzay": 1846,
      "▁katkı": 1847,
      "▁cocugun": 1848,
      "ıb": 1849,
      "▁dondu": 1850,
      "▁one": 1851,
      "s": 1852,
      "maya": 1853,
      "▁efsan": 1854,
      "kez": 1855,
      "▁salonda": 1856,
      "suz": 1857,
      "▁pozisyon": 1858,
      "yosu": 1859,
      "▁ada": 1860,
      ".6": 1861,
      "▁phoenix": 1862,
      "aklık": 1863,
      "▁nedenle": 1864,
      "lari": 1865,
      "▁kayıp": 1866,
      "▁sırasında": 1867,
      "▁ocagı": 1868,
      "net": 1869,
      "▁muk": 1870,
      "▁egilim": 1871,
      "▁hijyen": 1872,
      "▁oz": 1873,
      "▁edeb": 1874,
      "▁o": 1875,
      "▁hayat": 1876,
      "▁13": 1877,
      "▁yetk": 1878,
      "▁tesisten": 1879,
      "mek": 1880,
      "▁ozellik": 1881,
      "▁bulas": 1882,
      "▁gorevlisi": 1883,
      "ne": 1884,
      "▁yetkilileri": 1885,
      "eveyn": 1886,
      "▁fal": 1887,
      "bu": 1888,
      "manı": 1889,
      "▁davası": 1890,
      "ikti": 1891,
      "dır": 1892,
      "cagım": 1893,
      "▁oranları": 1894,
      "esti": 1895,
      "▁bilinc": 1896,
      "culuk": 1897,
      "▁ta": 1898,
      "▁harekete": 1899,
      "likten": 1900,
      "▁ankar": 1901,
      "▁tesisin": 1902,
      "▁kayak": 1903,
      "▁asla": 1904,
      "7": 1905,
      "amız": 1906,
      "▁yayın": 1907,
      "▁muamel": 1908,
      "▁petrol": 1909,
      "▁surdur": 1910,
      "iyle": 1911,
      "▁annesinin": 1912,
      "▁ec": 1913,
      "▁oturum": 1914,
      "▁uzere": 1915,
      "dugum": 1916,
      "▁taraf": 1917,
      "▁aday": 1918,
      "▁te": 1919,
      "▁ayrım": 1920,
      "▁ustu": 1921,
      "▁ap": 1922,
      "▁eline": 1923,
      "▁halk": 1924,
      "▁vermedi": 1925,
      "iyatr": 1926,
      "▁telefon": 1927,
      "▁pencerenin": 1928,
      "▁tecru": 1929,
      "▁bom": 1930,
      "▁ortagı": 1931,
      "▁sevk": 1932,
      "▁kırk": 1933,
      "▁ak": 1934,
      "▁zafer": 1935,
      "ardan": 1936,
      "▁kaygı": 1937,
      "iyat": 1938,
      "▁muhasebe": 1939,
      "▁mily": 1940,
      "▁sem": 1941,
      "▁cogun": 1942,
      "▁nak": 1943,
      "▁tuh": 1944,
      "▁sozlesmesi": 1945,
      "▁bilimin": 1946,
      "▁org": 1947,
      "▁ingiliz": 1948,
      "▁ortaklık": 1949,
      "larımın": 1950,
      "▁sigort": 1951,
      "▁saga": 1952,
      "▁gorur": 1953,
      "▁esim": 1954,
      "▁oyk": 1955,
      "▁kenarına": 1956,
      "ehir": 1957,
      "▁olaylara": 1958,
      "▁topragı": 1959,
      "▁milyon": 1960,
      "ırda": 1961,
      "▁baskan": 1962,
      "▁karanlık": 1963,
      "▁milwaukee": 1964,
      "tıkları": 1965,
      "yalar": 1966,
      "▁asker": 1967,
      "▁koku": 1968,
      "▁kurul": 1969,
      "▁1988'de": 1970,
      "▁ır": 1971,
      "alam": 1972,
      "▁pak": 1973,
      "▁pasa": 1974,
      "▁kaldik": 1975,
      "gıl": 1976,
      "lerden": 1977,
      "▁kut": 1978,
      "asına": 1979,
      "▁temp": 1980,
      "medig": 1981,
      "▁milletvek": 1982,
      "▁giden": 1983,
      "▁kıymetler": 1984,
      "▁kosullar": 1985,
      "▁otomobiller": 1986,
      "▁iklim": 1987,
      "itler": 1988,
      "lerinden": 1989,
      "▁ozgurluk": 1990,
      "▁oran": 1991,
      "▁ellerini": 1992,
      "alar": 1993,
      "▁aldı": 1994,
      "reet": 1995,
      "▁cins": 1996,
      "isco": 1997,
      "▁babam": 1998,
      "bir": 1999,
      "leyiciler": 2000,
      "▁inter": 2001,
      "▁gur": 2002,
      "▁actı": 2003,
      "▁tazminat": 2004,
      "▁celik": 2005,
      "▁patates": 2006,
      "tansiy": 2007,
      "▁evvel": 2008,
      "▁ilgilenmedi": 2009,
      "ınca": 2010,
      "▁cebinden": 2011,
      "▁sinyal": 2012,
      "▁hep": 2013,
      "▁yola": 2014,
      "▁seks": 2015,
      "▁dısarıdan": 2016,
      "▁ucusa": 2017,
      "▁kaz": 2018,
      "▁oradan": 2019,
      "▁yumruk": 2020,
      "▁muhalefet": 2021,
      "imi": 2022,
      "▁kalmıs": 2023,
      "akları": 2024,
      "▁dizgin": 2025,
      "apon": 2026,
      "▁grupları": 2027,
      "25": 2028,
      "▁ses": 2029,
      "▁prov": 2030,
      "▁okulun": 2031,
      "▁gol": 2032,
      "mıyorum": 2033,
      "yol": 2034,
      "▁yatak": 2035,
      "imore": 2036,
      "▁yumus": 2037,
      "yip": 2038,
      "▁sek": 2039,
      "▁yaklasım": 2040,
      "▁nok": 2041,
      "▁hasıl": 2042,
      "▁yapacagını": 2043,
      "▁oldug": 2044,
      "▁sar": 2045,
      "yacak": 2046,
      "▁yapıl": 2047,
      "fı": 2048,
      "▁ogrenci": 2049,
      "▁planın": 2050,
      "▁olmaz": 2051,
      "▁sanatcılar": 2052,
      "▁da": 2053,
      "vr": 2054,
      "▁karsıtı": 2055,
      "▁yolunda": 2056,
      "▁satısların": 2057,
      "▁olayda": 2058,
      "gec": 2059,
      "melidir": 2060,
      "▁dek": 2061,
      "▁sebebi": 2062,
      "ıltı": 2063,
      "▁yonde": 2064,
      "legi": 2065,
      "t": 2066,
      "ental": 2067,
      "gur": 2068,
      "▁fuz": 2069,
      "▁cumhurb": 2070,
      "uye": 2071,
      "lıgında": 2072,
      "▁alan": 2073,
      "eksiyon": 2074,
      "▁karsiladi": 2075,
      "▁ipot": 2076,
      "qu": 2077,
      "▁raf": 2078,
      "▁kutuk": 2079,
      "▁dikkat": 2080,
      "lıgına": 2081,
      "▁dir": 2082,
      "▁arbitraj": 2083,
      "▁oyna": 2084,
      "cıları": 2085,
      "yal": 2086,
      "▁olmasını": 2087,
      "▁beyef": 2088,
      "yet": 2089,
      "▁profesor": 2090,
      "▁ufuk": 2091,
      "▁karab": 2092,
      "▁tasım": 2093,
      "ındı": 2094,
      "▁ucuyor": 2095,
      "▁basbak": 2096,
      "▁coz": 2097,
      "▁soyledik": 2098,
      "▁urun": 2099,
      "▁guzel": 2100,
      "▁evini": 2101,
      "▁odalarin": 2102,
      "▁madde": 2103,
      "dıg": 2104,
      "▁katilmak": 2105,
      "rne": 2106,
      "▁istik": 2107,
      "▁otuz": 2108,
      "eginden": 2109,
      "▁kec": 2110,
      "▁niyet": 2111,
      "▁yetki": 2112,
      "▁tal": 2113,
      "▁talim": 2114,
      "▁sebep": 2115,
      "▁oysa": 2116,
      "▁toplant": 2117,
      "▁iliskin": 2118,
      "▁personel": 2119,
      "ilim": 2120,
      "▁merdiven": 2121,
      "▁havlu": 2122,
      "eleriyle": 2123,
      "▁karısının": 2124,
      "▁olar": 2125,
      "▁selam": 2126,
      "ilen": 2127,
      "▁otelden": 2128,
      "▁beri": 2129,
      "acılara": 2130,
      "▁tahv": 2131,
      "larda": 2132,
      "▁cocukların": 2133,
      "▁dog": 2134,
      "emde": 2135,
      "teki": 2136,
      "▁parca": 2137,
      "▁kadın": 2138,
      "▁musterilere": 2139,
      "▁coluk": 2140,
      "▁degilim": 2141,
      "▁cihaz": 2142,
      "▁verdigini": 2143,
      "▁zaf": 2144,
      "lukte": 2145,
      "▁kapısında": 2146,
      "▁has": 2147,
      "▁bilimi": 2148,
      "▁gerekir": 2149,
      "▁zahmet": 2150,
      "▁end": 2151,
      "▁beni": 2152,
      "▁ekonomi": 2153,
      "▁bira": 2154,
      "▁lezzet": 2155,
      "▁mudahal": 2156,
      "▁hemen": 2157,
      "▁kategor": 2158,
      "▁yuzunden": 2159,
      "▁alaka": 2160,
      "▁yumurta": 2161,
      "▁clev": 2162,
      "▁hissediyor": 2163,
      "tırmak": 2164,
      "▁icimi": 2165,
      ",": 2166,
      "▁sahiptir": 2167,
      "▁zay": 2168,
      "▁had": 2169,
      "▁kagıtları": 2170,
      "▁aldıgı": 2171,
      "▁mit": 2172,
      "ıkları": 2173,
      "▁durak": 2174,
      "▁yuzunu": 2175,
      "▁`": 2176,
      "▁hırsız": 2177,
      "ktu": 2178,
      "▁hoc": 2179,
      "▁tı": 2180,
      "fi": 2181,
      "dıgını": 2182,
      "tır": 2183,
      "▁sandaly": 2184,
      "▁sep": 2185,
      "▁pro": 2186,
      "▁rec": 2187,
      "▁vucud": 2188,
      "▁metr": 2189,
      "▁programını": 2190,
      "▁bakıyordu": 2191,
      "▁beyn": 2192,
      "aren": 2193,
      "▁yemek": 2194,
      "▁gelmis": 2195,
      "dın": 2196,
      "▁denizde": 2197,
      "mustum": 2198,
      "▁endust": 2199,
      "stım": 2200,
      "▁bek": 2201,
      "ef": 2202,
      "ncu": 2203,
      "▁kesi": 2204,
      "▁farklılık": 2205,
      "▁ilc": 2206,
      "▁hukmu": 2207,
      "▁sıkıntısı": 2208,
      "▁agustos": 2209,
      "▁ortaydi": 2210,
      "▁sozlesme": 2211,
      "▁yatırımcı": 2212,
      "▁oglan": 2213,
      "gu": 2214,
      "▁alet": 2215,
      "amın": 2216,
      "▁g": 2217,
      "lerle": 2218,
      "▁ustun": 2219,
      "/2": 2220,
      "ımızdan": 2221,
      "▁malı": 2222,
      "dık": 2223,
      "▁li": 2224,
      "▁ero": 2225,
      "▁baslarında": 2226,
      "▁patr": 2227,
      "▁analist": 2228,
      "▁varil": 2229,
      "▁guney": 2230,
      "▁depremden": 2231,
      "▁veren": 2232,
      "▁eglence": 2233,
      "ladı": 2234,
      "▁leblebi": 2235,
      "▁yalnızca": 2236,
      "iss": 2237,
      "▁zayıf": 2238,
      "▁bazen": 2239,
      "▁muhat": 2240,
      "▁,": 2241,
      "▁borsası": 2242,
      "ttı": 2243,
      "▁kendiniz": 2244,
      "▁suyunu": 2245,
      "▁hucre": 2246,
      "mma": 2247,
      "▁ker": 2248,
      "▁tık": 2249,
      "▁yetkisi": 2250,
      "▁an": 2251,
      "▁okul": 2252,
      "▁simdi": 2253,
      "▁sevin": 2254,
      "ap": 2255,
      "▁barın": 2256,
      "▁etrafı": 2257,
      "egini": 2258,
      "▁satısı": 2259,
      "▁amerikan": 2260,
      "▁surec": 2261,
      "▁buk": 2262,
      "lal": 2263,
      "▁otomobil": 2264,
      "▁yazılım": 2265,
      "iki": 2266,
      "lamaları": 2267,
      "▁onunden": 2268,
      "ilmesini": 2269,
      "▁tesir": 2270,
      "▁tablo": 2271,
      "ak": 2272,
      "▁kanadı": 2273,
      "▁oner": 2274,
      "▁ucretin": 2275,
      "amak": 2276,
      "▁sonucları": 2277,
      "▁yıldız": 2278,
      "li": 2279,
      "▁muht": 2280,
      "lig": 2281,
      "▁animator": 2282,
      "la": 2283,
      "▁otele": 2284,
      "▁olabil": 2285,
      "▁calısma": 2286,
      "imen": 2287,
      "▁aktif": 2288,
      "iniz": 2289,
      "kiler": 2290,
      "▁baltimore'den": 2291,
      "▁fasulye": 2292,
      "ukee": 2293,
      "▁geleni": 2294,
      "lasma": 2295,
      "▁karsılıgında": 2296,
      "▁but": 2297,
      "▁hel": 2298,
      "▁dayan": 2299,
      "▁mıs": 2300,
      "lenen": 2301,
      "▁profes": 2302,
      "▁boynuna": 2303,
      "▁takdir": 2304,
      "▁po": 2305,
      "ınızı": 2306,
      "”": 2307,
      "▁indian": 2308,
      "▁prosed": 2309,
      "▁kurulus": 2310,
      "▁pesinde": 2311,
      "▁zaten": 2312,
      "▁hisse": 2313,
      "▁konusma": 2314,
      "▁tarzı": 2315,
      "'den": 2316,
      "mis": 2317,
      "▁tepeden": 2318,
      "▁iddi": 2319,
      "▁yukseldi": 2320,
      "▁zevk": 2321,
      "4": 2322,
      "ır": 2323,
      "▁bası": 2324,
      "▁hurr": 2325,
      "ci": 2326,
      "▁chat": 2327,
      "▁yeme": 2328,
      "▁konuyu": 2329,
      "emiyorum": 2330,
      "▁baslar": 2331,
      "ok": 2332,
      "▁donemlerde": 2333,
      "imler": 2334,
      "▁katıl": 2335,
      "▁el": 2336,
      "▁depr": 2337,
      "▁ilave": 2338,
      "▁katılım": 2339,
      "▁talep": 2340,
      "eo": 2341,
      "▁bulut": 2342,
      "▁orani": 2343,
      "▁calıstı": 2344,
      "▁geceler": 2345,
      "▁oyunun": 2346,
      "▁vet": 2347,
      "▁ticaretinde": 2348,
      "▁civarı": 2349,
      "▁tesvik": 2350,
      "▁varlıgı": 2351,
      "liginin": 2352,
      "lam": 2353,
      "▁hakikat": 2354,
      "▁eti": 2355,
      "ydi": 2356,
      "▁ant": 2357,
      "ımları": 2358,
      "▁kacır": 2359,
      "▁ob": 2360,
      "▁kesif": 2361,
      "▁aram": 2362,
      "▁omur": 2363,
      "▁ıs": 2364,
      "▁sof": 2365,
      "▁islere": 2366,
      "▁yaban": 2367,
      "eb": 2368,
      "▁mezar": 2369,
      "ıcılık": 2370,
      "▁musteriler": 2371,
      "▁ne": 2372,
      "bin": 2373,
      "▁anlamı": 2374,
      "▁haftada": 2375,
      "▁sınıf": 2376,
      "evizyon": 2377,
      "ıgını": 2378,
      "▁fon": 2379,
      "mı": 2380,
      "▁insana": 2381,
      "▁kuvvetleri": 2382,
      "▁veril": 2383,
      "▁sistemini": 2384,
      "'n": 2385,
      "malar": 2386,
      "▁suph": 2387,
      "ugu": 2388,
      "▁2": 2389,
      "▁rus": 2390,
      "▁kagıt": 2391,
      "▁pal": 2392,
      "▁mucade": 2393,
      "▁konusmayı": 2394,
      "ekt": 2395,
      "cilerin": 2396,
      "▁dusunce": 2397,
      "▁re": 2398,
      "▁cesit": 2399,
      "▁tiyatro": 2400,
      "adar": 2401,
      "▁yolcul": 2402,
      "▁cekildi": 2403,
      "▁gurur": 2404,
      "▁sef": 2405,
      "▁bankaların": 2406,
      "▁spor": 2407,
      "tr": 2408,
      "etini": 2409,
      "▁doktorlar": 2410,
      "▁haberdar": 2411,
      "▁direktoru": 2412,
      "estirdi": 2413,
      "madıgını": 2414,
      "lamıstı": 2415,
      "▁piyas": 2416,
      "▁inc.": 2417,
      "▁etmiyor": 2418,
      "▁belirt": 2419,
      "▁sonuclar": 2420,
      "▁ortalaması": 2421,
      "emedim": 2422,
      "▁armag": 2423,
      "▁hayv": 2424,
      "▁dekor": 2425,
      "▁civarında": 2426,
      "▁kapıyı": 2427,
      "▁harcam": 2428,
      "▁tekn": 2429,
      "▁yılın": 2430,
      "▁cent": 2431,
      "▁etmek": 2432,
      "▁mater": 2433,
      "▁duman": 2434,
      "▁tedavi": 2435,
      "▁kez": 2436,
      "▁herhalde": 2437,
      "▁bahce": 2438,
      "ugunda": 2439,
      "▁yararlan": 2440,
      "tık": 2441,
      "iyim": 2442,
      "▁perde": 2443,
      "▁dunyada": 2444,
      "'ın": 2445,
      "onya": 2446,
      "ane": 2447,
      "cul": 2448,
      "▁yud": 2449,
      "▁kaf": 2450,
      "▁iceriyor": 2451,
      "▁ilgililerdi": 2452,
      "▁miras": 2453,
      "▁hırs": 2454,
      "▁davet": 2455,
      "▁saniye": 2456,
      "▁plak": 2457,
      "▁hisseleri": 2458,
      "▁reklam": 2459,
      "luge": 2460,
      "▁co": 2461,
      "▁girisim": 2462,
      "▁kalan": 2463,
      "▁charl": 2464,
      "▁bilgiler": 2465,
      "▁lezz": 2466,
      "irgin": 2467,
      "▁yeterli": 2468,
      "▁deli": 2469,
      "inci": 2470,
      "▁\"": 2471,
      "▁kapısının": 2472,
      "▁acen": 2473,
      "▁durusma": 2474,
      "▁halen": 2475,
      "▁tuk": 2476,
      "▁gitmek": 2477,
      "erh": 2478,
      "▁hayatı": 2479,
      "▁yalnız": 2480,
      "▁dogrudan": 2481,
      "▁avuk": 2482,
      "▁mesaf": 2483,
      "itraj": 2484,
      "▁ayna": 2485,
      "▁ti": 2486,
      "▁bat": 2487,
      "▁vegas": 2488,
      "▁corb": 2489,
      "gmen": 2490,
      "▁aylarda": 2491,
      "▁konusunda": 2492,
      "▁problem": 2493,
      "▁guvenlik": 2494,
      "uvar": 2495,
      "▁havuz": 2496,
      "▁fazl": 2497,
      "▁saz": 2498,
      "▁sifir": 2499,
      "▁denver'e": 2500,
      "mamız": 2501,
      "▁ortalık": 2502,
      "▁bakın": 2503,
      "▁kısm": 2504,
      "▁hazırlan": 2505,
      "▁sefer": 2506,
      "▁olabilecegini": 2507,
      "▁ruz": 2508,
      "▁takımı": 2509,
      "▁ba": 2510,
      "▁yont": 2511,
      "▁gorunce": 2512,
      "▁baslangıc": 2513,
      "▁benden": 2514,
      "eceklerini": 2515,
      "▁v": 2516,
      "▁kavg": 2517,
      "▁post": 2518,
      "▁ark": 2519,
      "amıyor": 2520,
      "▁kendilerine": 2521,
      "adem": 2522,
      "▁faktor": 2523,
      "▁duzine": 2524,
      "▁saun": 2525,
      "▁gok": 2526,
      "ise": 2527,
      "goz": 2528,
      "▁eli": 2529,
      "▁ondan": 2530,
      "le": 2531,
      "▁kalp": 2532,
      "hal": 2533,
      "▁dibinde": 2534,
      "▁dumanı": 2535,
      "▁karabiber": 2536,
      "▁odada": 2537,
      "▁sınır": 2538,
      "▁mı": 2539,
      "▁geyik": 2540,
      "▁enf": 2541,
      "erans": 2542,
      "ılması": 2543,
      "tia": 2544,
      "lendirmek": 2545,
      "▁bi": 2546,
      "▁isletme": 2547,
      "ısıyla": 2548,
      "▁hala": 2549,
      "▁isine": 2550,
      "▁miktarda": 2551,
      "▁keyf": 2552,
      "▁di": 2553,
      "▁cocuga": 2554,
      "gar": 2555,
      "▁say": 2556,
      "▁24": 2557,
      "ladıgını": 2558,
      "sinin": 2559,
      "yacag": 2560,
      "▁harcama": 2561,
      "0'da": 2562,
      "▁lu": 2563,
      "▁tren": 2564,
      "malıdır": 2565,
      "▁oyun": 2566,
      "▁bilmek": 2567,
      "▁farklı": 2568,
      "▁olmadı": 2569,
      "▁dikkate": 2570,
      "lı": 2571,
      "▁argum": 2572,
      "▁kay": 2573,
      "▁bagr": 2574,
      "▁dısarı": 2575,
      "▁yan": 2576,
      "▁balık": 2577,
      "▁gogs": 2578,
      "▁kıyas": 2579,
      "k": 2580,
      "▁sez": 2581,
      "ard": 2582,
      "ent": 2583,
      "▁saldırı": 2584,
      "usa": 2585,
      "▁mavi": 2586,
      "ay": 2587,
      "▁sahis": 2588,
      "▁yılından": 2589,
      "▁ogle": 2590,
      "ize": 2591,
      "▁yatırımcının": 2592,
      "▁sapka": 2593,
      "▁si": 2594,
      "▁ekonominin": 2595,
      "▁coc": 2596,
      "▁ekip": 2597,
      "▁oakland": 2598,
      "▁yetkili": 2599,
      "▁okulda": 2600,
      "▁uyum": 2601,
      "arip": 2602,
      "▁ol": 2603,
      "▁konut": 2604,
      "▁hesaba": 2605,
      "▁girmek": 2606,
      "muyor": 2607,
      "▁havaya": 2608,
      "▁em": 2609,
      "▁sekiz": 2610,
      "atını": 2611,
      "▁genclik": 2612,
      "klerini": 2613,
      "iye": 2614,
      "▁arttı": 2615,
      "▁dokuz": 2616,
      "▁aktiviteler": 2617,
      "▁borsası'nda": 2618,
      "▁ozen": 2619,
      "gil": 2620,
      "▁geril": 2621,
      "▁saglık": 2622,
      "▁ortaya": 2623,
      "aba": 2624,
      "luga": 2625,
      "▁ataturk": 2626,
      "▁orgu": 2627,
      "u": 2628,
      "beri": 2629,
      "▁gitti": 2630,
      "h": 2631,
      "'nde": 2632,
      "▁kurek": 2633,
      "▁olduguna": 2634,
      "▁rica": 2635,
      "▁firmaları": 2636,
      "▁sebeb": 2637,
      "▁uzakta": 2638,
      "▁harik": 2639,
      "▁ettik": 2640,
      "▁umit": 2641,
      "▁uy": 2642,
      "▁kafasına": 2643,
      "▁yel": 2644,
      "▁okumak": 2645,
      "lıgını": 2646,
      "▁kotu": 2647,
      "▁suy": 2648,
      "▁camur": 2649,
      "▁bekledi": 2650,
      "▁fig": 2651,
      "oj": 2652,
      "▁arada": 2653,
      "▁or": 2654,
      ".8": 2655,
      "▁teker": 2656,
      "▁marj": 2657,
      "▁kanaat": 2658,
      "▁kredileri": 2659,
      "▁ailelere": 2660,
      "▁elli": 2661,
      "lıc": 2662,
      "▁temizliginden": 2663,
      "ig": 2664,
      "▁calısmaları": 2665,
      "▁fiyatını": 2666,
      "▁h": 2667,
      "▁olmayan": 2668,
      "▁evren": 2669,
      "enek": 2670,
      "▁ala": 2671,
      "▁sahipleri": 2672,
      "▁etki": 2673,
      "▁bono": 2674,
      "▁fas": 2675,
      "▁kongr": 2676,
      "▁tarihte": 2677,
      "▁acisindan": 2678,
      "▁bacak": 2679,
      "lası": 2680,
      "du": 2681,
      "ugun": 2682,
      "▁sahn": 2683,
      "▁islemlerde": 2684,
      "▁kızlar": 2685,
      "aduf": 2686,
      "osyon": 2687,
      "▁kala": 2688,
      "▁12'den": 2689,
      "lul": 2690,
      "▁huzur": 2691,
      "▁oteden": 2692,
      "▁terbiye": 2693,
      "▁idi": 2694,
      "za": 2695,
      "lastik": 2696,
      "onu": 2697,
      "▁iscileri": 2698,
      "▁ders": 2699,
      "▁kisilik": 2700,
      "▁banyosu": 2701,
      "▁dosy": 2702,
      "▁nesil": 2703,
      "▁cogunlugu": 2704,
      "▁teslim": 2705,
      "▁odası": 2706,
      "uzel": 2707,
      "▁a.m": 2708,
      "▁kontrol": 2709,
      "▁esir": 2710,
      "▁kapasitesi": 2711,
      "▁herkes": 2712,
      "anların": 2713,
      "▁talebi": 2714,
      "▁ev": 2715,
      "▁siv": 2716,
      "▁ifade": 2717,
      "▁duy": 2718,
      "lav": 2719,
      "▁may": 2720,
      "▁lut": 2721,
      "▁uzerinde": 2722,
      "▁yapılanma": 2723,
      "▁yuk": 2724,
      "ger": 2725,
      "▁muz": 2726,
      "▁(": 2727,
      "▁kurulusu": 2728,
      "lgelelim": 2729,
      "▁balt": 2730,
      "▁olan": 2731,
      "▁1": 2732,
      "'ten": 2733,
      "▁yo": 2734,
      "▁gurultu": 2735,
      "umun": 2736,
      "eder": 2737,
      "lisi": 2738,
      "▁sorum": 2739,
      "▁karsılık": 2740,
      "▁nih": 2741,
      "▁dusuk": 2742,
      "▁birisi": 2743,
      "▁kaya": 2744,
      "alle": 2745,
      "▁karıs": 2746,
      "▁sogut": 2747,
      "▁suları": 2748,
      "▁day": 2749,
      "▁hayalet": 2750,
      "f": 2751,
      "▁komun": 2752,
      "▁listeleyin": 2753,
      "▁kabul": 2754,
      "▁yasındaki": 2755,
      "▁uzakti": 2756,
      "▁yili": 2757,
      "▁ogretmeni": 2758,
      "rik": 2759,
      "sine": 2760,
      "▁seviyesinden": 2761,
      "▁kalmadim": 2762,
      "ieg": 2763,
      "▁asırı": 2764,
      "▁apart": 2765,
      "▁pap": 2766,
      "▁zinc": 2767,
      "▁kodu": 2768,
      "erhal": 2769,
      "enk": 2770,
      "▁safh": 2771,
      "▁yoktur": 2772,
      "imizde": 2773,
      "▁alama": 2774,
      "▁okum": 2775,
      "bal": 2776,
      "▁tir": 2777,
      "▁pros": 2778,
      "▁anlasmayı": 2779,
      "▁od": 2780,
      "landı": 2781,
      "acaklarını": 2782,
      "atlı": 2783,
      "▁tor": 2784,
      "▁odayı": 2785,
      "▁urunler": 2786,
      "ayan": 2787,
      "▁geriye": 2788,
      "lay": 2789,
      "dil": 2790,
      "▁kavga": 2791,
      "▁ilk": 2792,
      "uar": 2793,
      "igi": 2794,
      "▁tadima": 2795,
      "▁isver": 2796,
      "▁teyz": 2797,
      "▁ihtiyacım": 2798,
      "▁..": 2799,
      "▁dugun": 2800,
      "ugunun": 2801,
      "▁yumur": 2802,
      "▁klim": 2803,
      "▁anlamda": 2804,
      "▁erken": 2805,
      "▁kullanıyor": 2806,
      "▁manev": 2807,
      "oks": 2808,
      "▁gec": 2809,
      "▁tasımacılıgı": 2810,
      "▁yarı": 2811,
      "kac": 2812,
      "▁yeri": 2813,
      "alama": 2814,
      "▁gerektir": 2815,
      "▁gobek": 2816,
      "indan": 2817,
      "▁farkında": 2818,
      "▁birim": 2819,
      "▁kub": 2820,
      "sen": 2821,
      "tıklarını": 2822,
      "ya": 2823,
      "▁onların": 2824,
      "▁indi": 2825,
      "ıldıgını": 2826,
      "isler": 2827,
      "▁tasf": 2828,
      "▁yuzde": 2829,
      "▁kredi": 2830,
      "▁buldum": 2831,
      "▁aks": 2832,
      "ill": 2833,
      "▁tanrı": 2834,
      "altı": 2835,
      "▁agzını": 2836,
      "▁yerlerden": 2837,
      "▁zul": 2838,
      "nci": 2839,
      "▁yapmadı": 2840,
      "▁geregi": 2841,
      "▁gelistirme": 2842,
      "▁havayollarında": 2843,
      "▁personelleri": 2844,
      "▁kalacak": 2845,
      "aset": 2846,
      "▁gelecekte": 2847,
      "▁alakasi": 2848,
      "▁giz": 2849,
      "anet": 2850,
      "manın": 2851,
      "uf": 2852,
      "▁dususle": 2853,
      "▁esi": 2854,
      "▁sıc": 2855,
      "▁8": 2856,
      "▁iptal": 2857,
      "abet": 2858,
      "zer": 2859,
      "▁key": 2860,
      "▁yavru": 2861,
      "▁mir": 2862,
      "▁versiyon": 2863,
      "▁deneme": 2864,
      "▁alım-sat": 2865,
      "▁gay": 2866,
      "▁ucunda": 2867,
      "et": 2868,
      "olis": 2869,
      "▁yar": 2870,
      "▁umut": 2871,
      "ational": 2872,
      "▁renk": 2873,
      "▁cevre": 2874,
      "▁varmak": 2875,
      "ıs": 2876,
      "▁omz": 2877,
      "▁so": 2878,
      "mayan": 2879,
      "▁suya": 2880,
      "▁esk": 2881,
      "▁uzmanlar": 2882,
      "▁sub": 2883,
      "▁sınav": 2884,
      "▁degildir": 2885,
      "ye": 2886,
      "▁inis": 2887,
      "arında": 2888,
      "▁gunluk": 2889,
      "▁icimden": 2890,
      "agında": 2891,
      "▁holding": 2892,
      "▁olay": 2893,
      "uklu": 2894,
      "adan": 2895,
      "▁faaliyet": 2896,
      "▁sonlarında": 2897,
      "▁kapıdan": 2898,
      "▁sonraki": 2899,
      "▁cakmak": 2900,
      "6'dan": 2901,
      "▁rap": 2902,
      "ilmek": 2903,
      "▁gelisim": 2904,
      "acagını": 2905,
      "▁islemi": 2906,
      "gul": 2907,
      "aliydi": 2908,
      "▁lokma": 2909,
      "▁boyun": 2910,
      "▁baba": 2911,
      "umus": 2912,
      ".2": 2913,
      "▁bunu": 2914,
      "▁tamam": 2915,
      "suzluk": 2916,
      "▁tah": 2917,
      "▁servis": 2918,
      "▁takım": 2919,
      "▁anlas": 2920,
      "▁degisimi": 2921,
      "lerin": 2922,
      "hane": 2923,
      "▁giriste": 2924,
      "▁olmaya": 2925,
      "▁muhabbet": 2926,
      "ksa": 2927,
      "▁calisanlari": 2928,
      "dukca": 2929,
      "▁de": 2930,
      "ic": 2931,
      "▁kentin": 2932,
      "▁rolu": 2933,
      "▁meg": 2934,
      "lacak": 2935,
      "ukluk": 2936,
      "egin": 2937,
      "baz": 2938,
      "▁bar": 2939,
      "▁ailenin": 2940,
      "▁hayatta": 2941,
      "▁agzına": 2942,
      "▁ata": 2943,
      "▁guzelligi": 2944,
      "les": 2945,
      "▁bolum": 2946,
      "▁gitmeyi": 2947,
      "izi": 2948,
      "▁bos": 2949,
      "oeni": 2950,
      "▁yapılacak": 2951,
      "▁imkanı": 2952,
      "dıgım": 2953,
      "▁-": 2954,
      "▁goze": 2955,
      "▁dusunur": 2956,
      "z": 2957,
      "▁giy": 2958,
      "▁hanim": 2959,
      "▁pus": 2960,
      "▁yet": 2961,
      "▁altern": 2962,
      "▁yanından": 2963,
      "▁acmak": 2964,
      "▁bayr": 2965,
      "▁sene": 2966,
      "▁washington": 2967,
      "▁seyir": 2968,
      "▁misin": 2969,
      "▁sehri": 2970,
      "elerin": 2971,
      "▁yudum": 2972,
      "▁biliyor": 2973,
      "▁seh": 2974,
      "ai": 2975,
      "▁yasında": 2976,
      "▁duruyor": 2977,
      "▁rev": 2978,
      "▁duruma": 2979,
      "▁buy": 2980,
      "▁mel": 2981,
      "▁tahk": 2982,
      "layarak": 2983,
      "▁lak": 2984,
      "▁iktis": 2985,
      "70'": 2986,
      "▁yana": 2987,
      "▁kısa": 2988,
      "anma": 2989,
      "▁piyasası": 2990,
      "▁sonradan": 2991,
      "anlardan": 2992,
      "▁duruyordu": 2993,
      "▁ut": 2994,
      "tak": 2995,
      "kt": 2996,
      "▁yiyeceklerin": 2997,
      "▁yonetim": 2998,
      "▁bus": 2999,
      "ecekler": 3000,
      "▁gelmek": 3001,
      "var": 3002,
      "▁devlet": 3003,
      "▁.": 3004,
      "▁yollar": 3005,
      ".1": 3006,
      "tırma": 3007,
      "▁meb": 3008,
      "▁planını": 3009,
      "alan": 3010,
      "eliydi": 3011,
      "▁hedefleri": 3012,
      "▁kaydetti": 3013,
      "▁kanser": 3014,
      "▁rakamları": 3015,
      "▁dogrusu": 3016,
      "▁medya": 3017,
      "▁begendim": 3018,
      "▁osman": 3019,
      "asa": 3020,
      "▁sureci": 3021,
      "isah": 3022,
      "landır": 3023,
      "aguar": 3024,
      "▁havada": 3025,
      "▁dans": 3026,
      "▁ugra": 3027,
      "ort": 3028,
      "▁gosterin": 3029,
      "▁musteri": 3030,
      "▁kitapları": 3031,
      "lamasını": 3032,
      "▁sup": 3033,
      "▁kara": 3034,
      "▁payı": 3035,
      "▁ederek": 3036,
      "▁herh": 3037,
      "orth": 3038,
      "▁sayesinde": 3039,
      "▁tev": 3040,
      "umuzun": 3041,
      "▁oldular": 3042,
      "▁silah": 3043,
      "▁toront": 3044,
      "ates": 3045,
      "▁sekreter": 3046,
      "▁duskun": 3047,
      "▁ucuslarının": 3048,
      "▁huzun": 3049,
      "▁ayından": 3050,
      "▁dum": 3051,
      "▁spot": 3052,
      "▁adım": 3053,
      "co": 3054,
      "▁zaman": 3055,
      "dug": 3056,
      "▁seviyesinde": 3057,
      "lerimize": 3058,
      "w": 3059,
      "▁kardes": 3060,
      "▁cemiyet": 3061,
      "▁muhtemelen": 3062,
      "ars": 3063,
      "igine": 3064,
      "ladık": 3065,
      "▁boyunca": 3066,
      "▁agaclar": 3067,
      "▁sponsor": 3068,
      "dılar": 3069,
      "aleti": 3070,
      "▁parti": 3071,
      "▁herkese": 3072,
      "▁meden": 3073,
      "kları": 3074,
      "▁ulusal": 3075,
      "▁gelenek": 3076,
      "▁1.5": 3077,
      "▁sosyal": 3078,
      "▁ha": 3079,
      "▁hukumdar": 3080,
      "▁esnada": 3081,
      "sul": 3082,
      "▁dusur": 3083,
      "▁digeri": 3084,
      "▁3.": 3085,
      "cag": 3086,
      "▁mad": 3087,
      "mekt": 3088,
      "asının": 3089,
      "▁ayır": 3090,
      "liler": 3091,
      "▁yaklas": 3092,
      "▁aracı": 3093,
      "▁kendisine": 3094,
      "ima": 3095,
      "ıc": 3096,
      "lamak": 3097,
      "anla": 3098,
      "ek": 3099,
      "mızı": 3100,
      "▁ederim": 3101,
      "▁secim": 3102,
      "▁ed": 3103,
      "▁oyunu": 3104,
      "▁kilit": 3105,
      "▁ogrenc": 3106,
      "uyorlar": 3107,
      "▁fit": 3108,
      "▁pl": 3109,
      "▁cog": 3110,
      "▁efend": 3111,
      "▁endise": 3112,
      "form": 3113,
      "dası": 3114,
      "dev": 3115,
      "▁otede": 3116,
      "landıgında": 3117,
      "ırım": 3118,
      "▁sansı": 3119,
      "▁dug": 3120,
      "▁coban": 3121,
      "▁ilav": 3122,
      "▁hızla": 3123,
      "▁elini": 3124,
      "lanması": 3125,
      "▁entar": 3126,
      "▁alacak": 3127,
      "▁satıs": 3128,
      "▁senaryo": 3129,
      "▁alt": 3130,
      "▁degerini": 3131,
      "▁cikis": 3132,
      "▁belir": 3133,
      "mine": 3134,
      "amiza": 3135,
      "ların": 3136,
      "▁sinem": 3137,
      "▁cesidi": 3138,
      "▁faturam": 3139,
      "▁dah": 3140,
      "▁sorusturma": 3141,
      "▁neler": 3142,
      "▁yatırımcılar": 3143,
      "ımız": 3144,
      "▁incel": 3145,
      "▁rahat": 3146,
      "▁ipotege": 3147,
      "▁yıl": 3148,
      "▁gelin": 3149,
      "▁genellikle": 3150,
      "lıyordu": 3151,
      "▁dısar": 3152,
      "tan": 3153,
      "▁muhar": 3154,
      "▁bostan": 3155,
      "▁acıl": 3156,
      "ebil": 3157,
      ".": 3158,
      "▁yatırım": 3159,
      "▁gorun": 3160,
      "▁spekul": 3161,
      "▁egz": 3162,
      "0": 3163,
      "eydi": 3164,
      "▁hukumeti": 3165,
      "edir": 3166,
      "▁sayf": 3167,
      "▁moral": 3168,
      "▁mukem": 3169,
      "uldu": 3170,
      "▁mo": 3171,
      "▁kaldim": 3172,
      "▁satın": 3173,
      "00'e": 3174,
      "▁kendisi": 3175,
      "ıga": 3176,
      "ırdı": 3177,
      "ızda": 3178,
      "▁komitesi": 3179,
      "▁ayagı": 3180,
      "▁cleveland": 3181,
      "air": 3182,
      "▁bizde": 3183,
      "▁tec": 3184,
      "▁corp.": 3185,
      "▁erk": 3186,
      "▁yes": 3187,
      "▁santr": 3188,
      "▁bastan": 3189,
      "▁koc": 3190,
      "▁sab": 3191,
      "▁sakat": 3192,
      "▁kaldı": 3193,
      "▁jon": 3194,
      "l": 3195,
      "▁bes": 3196,
      "▁tum": 3197,
      "ırtı": 3198,
      "▁aramızda": 3199,
      "▁basv": 3200,
      "▁evlilik": 3201,
      "▁vadeli": 3202,
      "iyon": 3203,
      "▁oak": 3204,
      "▁rady": 3205,
      "▁yogurt": 3206,
      "etik": 3207,
      "▁rol": 3208,
      "▁yargı": 3209,
      "▁utanc": 3210,
      "▁surekli": 3211,
      "▁gir": 3212,
      "▁sıkıntı": 3213,
      "▁tab": 3214,
      "▁delta": 3215,
      "aki": 3216,
      "▁sal": 3217,
      "▁stan": 3218,
      "▁konusmak": 3219,
      "▁hız": 3220,
      "▁anlay": 3221,
      "▁francisco'ya": 3222,
      "▁lezzetli": 3223,
      "▁goz": 3224,
      "‘": 3225,
      "▁taraftar": 3226,
      "▁koseye": 3227,
      "▁sert": 3228,
      "▁bulun": 3229,
      "emey": 3230,
      "▁sif": 3231,
      "▁yetkililerine": 3232,
      "▁duzeni": 3233,
      "▁chp": 3234,
      "▁belediye": 3235,
      "amet": 3236,
      "▁milyara": 3237,
      "▁tenc": 3238,
      "▁bankanın": 3239,
      "▁eder": 3240,
      "▁yarıs": 3241,
      "▁paraları": 3242,
      "▁karargah": 3243,
      "onto": 3244,
      "ıyoruz": 3245,
      "▁personelin": 3246,
      "▁kok": 3247,
      "▁10": 3248,
      "ısının": 3249,
      "▁uretimi": 3250,
      "▁guc": 3251,
      "▁bulus": 3252,
      "▁cık": 3253,
      "▁gecir": 3254,
      "/8": 3255,
      "▁nakliye": 3256,
      "▁kuyruk": 3257,
      "▁cıg": 3258,
      "▁ticari": 3259,
      "▁basladı": 3260,
      "ıv": 3261,
      "ob": 3262,
      "▁cerey": 3263,
      "▁memnunum": 3264,
      "▁kelime": 3265,
      "▁hepsinin": 3266,
      "▁bilgileri": 3267,
      "▁oda": 3268,
      "▁kazandı": 3269,
      "▁edilen": 3270,
      "▁edit": 3271,
      "▁saka": 3272,
      "▁vad": 3273,
      "▁/": 3274,
      "ın": 3275,
      "▁?..": 3276,
      "▁salon": 3277,
      "▁bogaz": 3278,
      "fen": 3279,
      "▁dalı": 3280,
      "elerinin": 3281,
      "▁uslu": 3282,
      "▁gucunu": 3283,
      "ve": 3284,
      "ulur": 3285,
      "▁bugune": 3286,
      "▁fabr": 3287,
      "▁sehirde": 3288,
      "acak": 3289,
      "▁hik": 3290,
      "atı": 3291,
      "▁kesin": 3292,
      "▁acıklama": 3293,
      "lattı": 3294,
      "▁tay": 3295,
      "mur": 3296,
      "▁hanimdi": 3297,
      "▁ailesi": 3298,
      "▁suren": 3299,
      "fer": 3300,
      "▁yolunu": 3301,
      "▁duygularını": 3302,
      "▁ayakta": 3303,
      "▁cem": 3304,
      "▁kızım": 3305,
      "▁alanlar": 3306,
      "yi": 3307,
      "nin": 3308,
      "▁yemis": 3309,
      "indeydi": 3310,
      "▁issizlik": 3311,
      "▁faturami": 3312,
      "▁ucreti": 3313,
      "▁art": 3314,
      "▁bitir": 3315,
      "▁yapma": 3316,
      "▁makam": 3317,
      "▁kontrolu": 3318,
      "miyor": 3319,
      "▁serisi": 3320,
      "▁sola": 3321,
      "▁kurtar": 3322,
      "▁hij": 3323,
      "unca": 3324,
      "▁hes": 3325,
      "▁aracları": 3326,
      "▁fatur": 3327,
      "▁kardesi": 3328,
      "▁united": 3329,
      "▁asagıda": 3330,
      "▁etrafını": 3331,
      "tis": 3332,
      "ama": 3333,
      "dal": 3334,
      "dem": 3335,
      "▁dem": 3336,
      "▁ogren": 3337,
      "od": 3338,
      "▁ora": 3339,
      "▁korid": 3340,
      "▁calısmaya": 3341,
      "▁gercekl": 3342,
      "▁cagr": 3343,
      "▁ulas": 3344,
      "▁konus": 3345,
      "▁gozden": 3346,
      "alara": 3347,
      "▁sabır": 3348,
      "▁saatlerini": 3349,
      "▁vade": 3350,
      "ley": 3351,
      "▁uzerinden": 3352,
      "▁0": 3353,
      "▁seyinden": 3354,
      "▁sorunun": 3355,
      "▁altını": 3356,
      "▁hucr": 3357,
      "▁adamın": 3358,
      "▁gecik": 3359,
      "▁gide": 3360,
      "▁sis": 3361,
      "▁yuruy": 3362,
      "dıgında": 3363,
      "▁kr": 3364,
      "▁misafirimiz": 3365,
      "▁iyiye": 3366,
      "▁mev": 3367,
      "▁dolar": 3368,
      "▁meyv": 3369,
      "▁cekici": 3370,
      "▁gozleri": 3371,
      "iyorlar": 3372,
      "dırım": 3373,
      "▁tatlilar": 3374,
      "▁idare": 3375,
      "▁cıkar": 3376,
      "ph": 3377,
      "▁imkan": 3378,
      "dugunu": 3379,
      "▁dislerini": 3380,
      "▁devleti": 3381,
      "tluk": 3382,
      "mesini": 3383,
      "masının": 3384,
      "▁sorunlar": 3385,
      "▁konf": 3386,
      "▁tam": 3387,
      "▁daima": 3388,
      "▁saf": 3389,
      "▁kadına": 3390,
      "▁american": 3391,
      "▁uyelerinin": 3392,
      "'": 3393,
      "▁eylul": 3394,
      "▁yang": 3395,
      "▁hangisi": 3396,
      "▁dib": 3397,
      "▁anlasmaya": 3398,
      "▁pasif": 3399,
      "▁pantol": 3400,
      "▁yasıyor": 3401,
      "▁oncesi": 3402,
      "▁mevz": 3403,
      "▁yedi": 3404,
      "▁ustune": 3405,
      "▁tanıs": 3406,
      "eni": 3407,
      "▁nevi": 3408,
      "lanır": 3409,
      "▁hesabı": 3410,
      "▁odalardan": 3411,
      "▁=": 3412,
      "▁yig": 3413,
      "▁kil": 3414,
      "sınız": 3415,
      "▁sozcusu": 3416,
      "▁katı": 3417,
      "▁istifa": 3418,
      "▁iceriden": 3419,
      "lim": 3420,
      "▁satıslarının": 3421,
      "lerine": 3422,
      "▁iktid": 3423,
      "mustu": 3424,
      "▁sayı": 3425,
      "▁siir": 3426,
      "▁yonu": 3427,
      "3'e": 3428,
      "▁beklenti": 3429,
      "kı": 3430,
      "▁dilim": 3431,
      "lge": 3432,
      "ımızda": 3433,
      "▁kalma": 3434,
      "▁500": 3435,
      "emi": 3436,
      "dadır": 3437,
      "▁elbet": 3438,
      "▁25": 3439,
      "▁arkada": 3440,
      "▁sohret": 3441,
      "ızlı": 3442,
      "▁1/2": 3443,
      "imize": 3444,
      "▁avukatı": 3445,
      "▁val": 3446,
      "▁calismas": 3447,
      "▁tahvillerin": 3448,
      "▁devletin": 3449,
      "▁hattı": 3450,
      "▁bask": 3451,
      "▁kasım": 3452,
      "▁un": 3453,
      "▁pantolon": 3454,
      "▁diy": 3455,
      "▁cıkardı": 3456,
      "▁rakı": 3457,
      "▁tesaduf": 3458,
      "▁kade": 3459,
      "leri": 3460,
      "sas": 3461,
      "▁ga": 3462,
      "▁suc": 3463,
      "▁yarad": 3464,
      "▁halkla": 3465,
      "▁sesiyle": 3466,
      "▁olmasa": 3467,
      "▁karsın": 3468,
      "ısın": 3469,
      "endi": 3470,
      "astır": 3471,
      "▁sehre": 3472,
      "irler": 3473,
      "▁9": 3474,
      "▁iyilik": 3475,
      "▁kerv": 3476,
      "▁sayisi": 3477,
      "olog": 3478,
      "▁denge": 3479,
      "▁fak": 3480,
      "▁tesekkur": 3481,
      "▁cunku": 3482,
      "ayı": 3483,
      "ukca": 3484,
      "▁tarif": 3485,
      "▁yavas": 3486,
      "▁oyunc": 3487,
      "esi": 3488,
      "▁zincir": 3489,
      "ıyor": 3490,
      "▁oncelik": 3491,
      "ılmak": 3492,
      "uste": 3493,
      "▁ihracı": 3494,
      "▁eser": 3495,
      "▁oldur": 3496,
      "stır": 3497,
      "▁yurt": 3498,
      "▁komite": 3499,
      "▁sonuna": 3500,
      "▁sirketinin": 3501,
      "▁lı": 3502,
      "cılara": 3503,
      "▁kadro": 3504,
      "▁heyeti": 3505,
      "▁olasılık": 3506,
      "▁carte": 3507,
      "il": 3508,
      "satı": 3509,
      "▁ekonomist": 3510,
      "▁i": 3511,
      "▁fikir": 3512,
      "▁yaka": 3513,
      "▁man": 3514,
      "▁enist": 3515,
      "ıy": 3516,
      "▁alana": 3517,
      "it": 3518,
      "▁degisiklikler": 3519,
      "ıydı": 3520,
      "▁yas": 3521,
      "▁viski": 3522,
      "▁ipotek": 3523,
      "▁yag": 3524,
      "ten": 3525,
      "▁temmuz": 3526,
      "▁adina": 3527,
      "▁istey": 3528,
      "▁vatandas": 3529,
      "▁baskanlık": 3530,
      "▁3": 3531,
      "go": 3532,
      "bil": 3533,
      "inizin": 3534,
      "▁vide": 3535,
      "gan": 3536,
      "’": 3537,
      "ledi": 3538,
      "▁kasıgı": 3539,
      "▁animasyonu": 3540,
      "'in": 3541,
      "anoz": 3542,
      "▁yarar": 3543,
      "▁dizi": 3544,
      "▁fis": 3545,
      "▁baz": 3546,
      "▁daglar": 3547,
      "▁market": 3548,
      "▁cekilm": 3549,
      "izm": 3550,
      "▁kravat": 3551,
      "uydu": 3552,
      "▁jur": 3553,
      "▁artarak": 3554,
      "▁agzından": 3555,
      "▁tar": 3556,
      "▁ord": 3557,
      "▁sertif": 3558,
      "▁rakamlar": 3559,
      "▁lar": 3560,
      "me": 3561,
      "▁yuksekti": 3562,
      "sizligi": 3563,
      "▁halı": 3564,
      "▁edilmesi": 3565,
      "▁pit": 3566,
      "▁alk": 3567,
      "▁annemin": 3568,
      "▁kalabal": 3569,
      "ardı": 3570,
      "▁diye": 3571,
      "▁cadır": 3572,
      "▁hamal": 3573,
      "kal": 3574,
      "▁mini": 3575,
      "bol": 3576,
      "▁edecek": 3577,
      "▁erkekler": 3578,
      "inlik": 3579,
      "▁hayata": 3580,
      "▁mesafe": 3581,
      "alt": 3582,
      "▁olacaktır": 3583,
      "▁veri": 3584,
      "▁uluslar": 3585,
      "▁plani": 3586,
      "▁gormedim": 3587,
      "▁gerekcesiyle": 3588,
      "▁capında": 3589,
      "▁kalitesinden": 3590,
      "▁del": 3591,
      "▁saatleri": 3592,
      "▁mahkeme": 3593,
      "▁tesp": 3594,
      "onel": 3595,
      "larını": 3596,
      "▁giris": 3597,
      "▁sehrin": 3598,
      "▁hayran": 3599,
      "unun": 3600,
      "▁kalb": 3601,
      "▁muhaf": 3602,
      "▁som": 3603,
      "▁resim": 3604,
      "ılıgını": 3605,
      "▁ediyordu": 3606,
      "lerimizin": 3607,
      "▁tutum": 3608,
      "▁cizgi": 3609,
      "ıg": 3610,
      "▁oglu": 3611,
      "▁ihrac": 3612,
      "▁borsa": 3613,
      "lac": 3614,
      "▁milyar": 3615,
      "▁pers": 3616,
      "eland": 3617,
      "oc": 3618,
      "▁gundeme": 3619,
      "▁yanına": 3620,
      "▁isimiz": 3621,
      "▁havayollarının": 3622,
      "lanmak": 3623,
      "▁bileti": 3624,
      "▁mahkemede": 3625,
      "kinin": 3626,
      "▁yapılandır": 3627,
      "ebilecegini": 3628,
      "meli": 3629,
      "▁tad": 3630,
      "▁evlerin": 3631,
      "▁mucev": 3632,
      "▁anah": 3633,
      "▁yakin": 3634,
      "▁asl": 3635,
      "▁kred": 3636,
      "▁yardımcısı": 3637,
      "tas": 3638,
      "▁gonlum": 3639,
      "▁kendiler": 3640,
      "▁bakıs": 3641,
      "▁sermaye": 3642,
      "▁p": 3643,
      "▁egzersiz": 3644,
      "osun": 3645,
      "▁unut": 3646,
      "▁yonetici": 3647,
      "▁skandal": 3648,
      "▁hasar": 3649,
      "▁merkez": 3650,
      "uzu": 3651,
      "▁fiyat": 3652,
      "lendirme": 3653,
      "▁oy": 3654,
      "▁yeter": 3655,
      "▁menf": 3656,
      "▁istedig": 3657,
      "▁paz": 3658,
      "ond": 3659,
      "at": 3660,
      "lant": 3661,
      "▁demet": 3662,
      "▁dolarlık": 3663,
      "▁tarafına": 3664,
      "igin": 3665,
      "daydi": 3666,
      "▁yen": 3667,
      "▁ayn": 3668,
      "uv": 3669,
      "▁begen": 3670,
      "▁adına": 3671,
      "▁ars": 3672,
      "▁ekonomik": 3673,
      "▁bolumu": 3674,
      "iyeler": 3675,
      "eligi": 3676,
      "▁ken": 3677,
      "▁dengesi": 3678,
      "▁pul": 3679,
      "larımız": 3680,
      "ram": 3681,
      "▁agır": 3682,
      "▁teor": 3683,
      "sın": 3684,
      "irmi": 3685,
      "ldi": 3686,
      "▁harc": 3687,
      "▁ekipman": 3688,
      "▁ted": 3689,
      "▁cıkarmaya": 3690,
      "▁boyut": 3691,
      "▁altına": 3692,
      "▁kırmızı": 3693,
      "▁gerc": 3694,
      "▁kom": 3695,
      "▁artısla": 3696,
      "▁yapmıs": 3697,
      "istiri": 3698,
      "▁alev": 3699,
      "▁orta": 3700,
      "▁list": 3701,
      "ılır": 3702,
      "'da": 3703,
      "▁sovyet": 3704,
      "▁tehlik": 3705,
      "ate": 3706,
      "rı": 3707,
      "▁icecekleri": 3708,
      "▁olsa": 3709,
      "▁gozlerini": 3710,
      "▁sarap": 3711,
      "▁kelimesi": 3712,
      "▁nefret": 3713,
      "lıgın": 3714,
      "reti": 3715,
      "▁philadelphia": 3716,
      "▁satır": 3717,
      "▁cit": 3718,
      "▁yol": 3719,
      "▁kedi": 3720,
      "dıgımız": 3721,
      "▁enerj": 3722,
      "▁transfer": 3723,
      "▁seattle": 3724,
      "▁kuram": 3725,
      "▁teh": 3726,
      "▁gosterir": 3727,
      "▁vir": 3728,
      "▁kansas": 3729,
      "tiv": 3730,
      "▁sapk": 3731,
      "▁tamamı": 3732,
      "▁park": 3733,
      "▁goc": 3734,
      "▁sozcu": 3735,
      "▁cat": 3736,
      "cular": 3737,
      "daydı": 3738,
      "▁kuyu": 3739,
      "▁sektor": 3740,
      "ayıf": 3741,
      "▁karsiligini": 3742,
      "lamaya": 3743,
      "▁muhafaz": 3744,
      "▁amerik": 3745,
      "▁tahviller": 3746,
      "▁gru": 3747,
      "▁rezervasyonu": 3748,
      "▁bas": 3749,
      "bat": 3750,
      "▁duvarı": 3751,
      "tıgını": 3752,
      "abaz": 3753,
      "▁acıgı": 3754,
      "▁yarın": 3755,
      "▁fiyatlar": 3756,
      "▁gozluk": 3757,
      "▁kalkıp": 3758,
      "▁artır": 3759,
      "▁ayakları": 3760,
      "▁yesil": 3761,
      "▁ust": 3762,
      "▁geldim": 3763,
      "ım": 3764,
      "▁mart": 3765,
      "▁bayrak": 3766,
      "▁yuklen": 3767,
      "ılmaya": 3768,
      "in": 3769,
      "lın": 3770,
      "ıyorsun": 3771,
      "▁katkıda": 3772,
      "maca": 3773,
      "▁fırc": 3774,
      "forlu": 3775,
      "rar": 3776,
      "liginde": 3777,
      "▁aileye": 3778,
      "▁kimlik": 3779,
      "on": 3780,
      "▁yururluge": 3781,
      "ecekti": 3782,
      "▁sanayi": 3783,
      "▁yukarı": 3784,
      "▁tartıs": 3785,
      "▁onem": 3786,
      "ımın": 3787,
      "▁kıs": 3788,
      "▁general": 3789,
      "burg": 3790,
      "▁cir": 3791,
      "emin": 3792,
      "▁aqu": 3793,
      "▁basına": 3794,
      "liydi": 3795,
      "▁satım": 3796,
      "▁saati": 3797,
      "▁kost": 3798,
      "▁muam": 3799,
      "asıyla": 3800,
      "▁kak": 3801,
      "▁firmanın": 3802,
      "▁gelen": 3803,
      "▁yer": 3804,
      "▁j": 3805,
      "▁mah": 3806,
      "▁tarihine": 3807,
      "▁ciftlik": 3808,
      "mar": 3809,
      "jik": 3810,
      "▁tr": 3811,
      "▁nine": 3812,
      "ekkur": 3813,
      "▁universite": 3814,
      "▁kıy": 3815,
      "▁doktor": 3816,
      "▁tası": 3817,
      "▁baslan": 3818,
      "▁raporda": 3819,
      "▁mekana": 3820,
      "▁operator": 3821,
      "▁kurum": 3822,
      "▁kardesinin": 3823,
      "usuna": 3824,
      "▁dol": 3825,
      "liklerini": 3826,
      "meleri": 3827,
      "▁listesini": 3828,
      "lem": 3829,
      "▁muc": 3830,
      "▁tes": 3831,
      "lanma": 3832,
      "▁go": 3833,
      "tım": 3834,
      "▁harika": 3835,
      "izlik": 3836,
      "▁ilgisi": 3837,
      "arlan": 3838,
      "ciler": 3839,
      "▁dey": 3840,
      "▁duyuru": 3841,
      "▁imza": 3842,
      "▁yatırımcıları": 3843,
      "lardır": 3844,
      "▁birlikte": 3845,
      "muz": 3846,
      "tısı": 3847,
      "▁cambaz": 3848,
      "▁yasa": 3849,
      "▁mendil": 3850,
      "▁bab": 3851,
      "▁yuzunde": 3852,
      "▁arabalar": 3853,
      "▁oranında": 3854,
      "▁dok": 3855,
      "▁yanı": 3856,
      "madan": 3857,
      "gunluk": 3858,
      "▁hata": 3859,
      "▁odamdan": 3860,
      "▁fr": 3861,
      "phis": 3862,
      "▁tarafını": 3863,
      "▁degisiklikleri": 3864,
      "▁gonder": 3865,
      "▁sag": 3866,
      "▁yetersizdi": 3867,
      "▁insanlardan": 3868,
      "▁calisanlardan": 3869,
      "▁baglı": 3870,
      "▁tahr": 3871,
      "▁kanunu": 3872,
      "▁performans": 3873,
      "ville": 3874,
      "▁tarafı": 3875,
      "▁musait": 3876,
      "▁gorunuse": 3877,
      "▁hisselerin": 3878,
      "izma": 3879,
      "▁uygu": 3880,
      "lanan": 3881,
      "▁kulak": 3882,
      "ıyordu": 3883,
      "rsı": 3884,
      "▁avrupa": 3885,
      "▁hanima": 3886,
      "▁derd": 3887,
      "▁temettu": 3888,
      ".ceyrek": 3889,
      "▁sohbet": 3890,
      "▁duzen": 3891,
      "▁ucuna": 3892,
      "▁rakib": 3893,
      "▁masanın": 3894,
      "yar": 3895,
      "▁teminat": 3896,
      "etim": 3897,
      "▁internet": 3898,
      "▁birinci": 3899,
      "ırt": 3900,
      "▁soze": 3901,
      "san": 3902,
      "▁kapısına": 3903,
      "▁ikide": 3904,
      "▁tuketici": 3905,
      "▁sov": 3906,
      "▁carsamba": 3907,
      "fet": 3908,
      "▁super": 3909,
      "▁bilgisay": 3910,
      "▁des": 3911,
      "▁alkol": 3912,
      "▁simdiye": 3913,
      "aret": 3914,
      "masın": 3915,
      "urt": 3916,
      "▁senedi": 3917,
      "▁cob": 3918,
      "cık": 3919,
      "▁tuketim": 3920,
      "▁program": 3921,
      "uyordu": 3922,
      "▁konu": 3923,
      "▁kimse": 3924,
      "abileceg": 3925,
      "▁tamamen": 3926,
      "▁sam": 3927,
      "▁ulkelerde": 3928,
      "▁anlasma": 3929,
      "▁kahval": 3930,
      "▁ornek": 3931,
      "acıları": 3932,
      "malı": 3933,
      "▁oranla": 3934,
      "el": 3935,
      "ıldı": 3936,
      "▁kole": 3937,
      "cıya": 3938,
      "gır": 3939,
      "▁aqua": 3940,
      "▁kasır": 3941,
      "▁kardesim": 3942,
      "arılı": 3943,
      "atları": 3944,
      "▁halini": 3945,
      "▁ates": 3946,
      "▁varan": 3947,
      "▁saclarını": 3948,
      "▁gaf": 3949,
      "▁okulu": 3950,
      "▁iliski": 3951,
      "idir": 3952,
      "▁gorevini": 3953,
      "▁sız": 3954,
      "▁bize": 3955,
      "▁hakları": 3956,
      "▁limuzin": 3957,
      "▁yak": 3958,
      "▁olmasi": 3959,
      "▁babasının": 3960,
      "▁ornegin": 3961,
      "▁kum": 3962,
      "▁cih": 3963,
      "▁sirketine": 3964,
      "▁iyi": 3965,
      "sk": 3966,
      "ısından": 3967,
      "▁tekne": 3968,
      "▁olumlu": 3969,
      "▁kosulları": 3970,
      "▁boya": 3971,
      "umu": 3972,
      "▁yemekten": 3973,
      "▁ge": 3974,
      "ahan": 3975,
      "▁lideri": 3976,
      "▁kapat": 3977,
      "▁hepsi": 3978,
      "▁bıc": 3979,
      "x": 3980,
      "▁metre": 3981,
      "uga": 3982,
      "▁hemsir": 3983,
      "▁kendime": 3984,
      "▁kalemi": 3985,
      "ex": 3986,
      "▁nedenini": 3987,
      "▁analistler": 3988,
      "eceksin": 3989,
      "▁seans": 3990,
      "▁dakikada": 3991,
      "▁secenek": 3992,
      "▁anlamak": 3993,
      "atla": 3994,
      "▁dokun": 3995,
      "▁kamp": 3996,
      "▁med": 3997,
      "▁kars": 3998,
      "▁bulunuyor": 3999,
      "▁hisselerini": 4000,
      "▁denizin": 4001,
      "▁planı": 4002,
      "0.": 4003,
      "ediy": 4004,
      "▁bagı": 4005,
      "▁mal": 4006,
      "▁tıp": 4007,
      "ift": 4008,
      "o": 4009,
      "▁savunma": 4010,
      "esem": 4011,
      "ık": 4012,
      "▁22": 4013,
      "▁dam": 4014,
      "▁tram": 4015,
      "sur": 4016,
      "▁dusun": 4017,
      "▁kasırg": 4018,
      "▁tarafa": 4019,
      "▁z": 4020,
      "▁gonul": 4021,
      "▁tered": 4022,
      "2'ye": 4023,
      "ult": 4024,
      "ain": 4025,
      "am": 4026,
      "▁dusunuyor": 4027,
      "ılıs": 4028,
      "arın": 4029,
      "en": 4030,
      "▁evet": 4031,
      "▁mustaf": 4032,
      "▁num": 4033,
      "▁kaynakları": 4034,
      "▁asık": 4035,
      "▁hızlı": 4036,
      "▁universit": 4037,
      "▁korumak": 4038,
      "▁cez": 4039,
      "▁tedav": 4040,
      "▁birimi": 4041,
      "▁alıcı": 4042,
      "▁sark": 4043,
      "▁cami": 4044,
      "▁airlin": 4045,
      "▁hakkında": 4046,
      "▁gozlerim": 4047,
      "▁og": 4048,
      "eci": 4049,
      "▁olmakla": 4050,
      "▁semp": 4051,
      "▁mor": 4052,
      "▁don": 4053,
      "ret": 4054,
      "ep": 4055,
      "▁26": 4056,
      "▁sartları": 4057,
      "▁first": 4058,
      "▁teb": 4059,
      "▁cesitler": 4060,
      "▁kızı": 4061,
      "▁oncesinde": 4062,
      "o'ya": 4063,
      "ekul": 4064,
      "▁cas": 4065,
      "▁tatli": 4066,
      "▁dolayı": 4067,
      "▁eroin": 4068,
      "lıkla": 4069,
      "ligine": 4070,
      "▁degisik": 4071,
      "acag": 4072,
      "▁tuy": 4073,
      "mem": 4074,
      "'deki": 4075,
      "▁dekorasyonu": 4076,
      "▁ureticisi": 4077,
      "▁yapar": 4078,
      "nız": 4079,
      "▁elestirmen": 4080,
      "▁olmadi": 4081,
      "▁termal": 4082,
      "▁seylerin": 4083,
      "egor": 4084,
      "▁tama": 4085,
      "▁belgeleri": 4086,
      "▁tramvay": 4087,
      "▁engel": 4088,
      "layı": 4089,
      "▁tarafta": 4090,
      "▁impar": 4091,
      "kk": 4092,
      "▁sogan": 4093,
      "▁vardı": 4094,
      "▁heyecan": 4095,
      "▁analistlerin": 4096,
      "▁usul": 4097,
      "ait": 4098,
      "▁if": 4099,
      "yanın": 4100,
      "▁suphe": 4101,
      "▁kahvaltisi": 4102,
      "ansız": 4103,
      "▁ayrıntı": 4104,
      "▁havlular": 4105,
      "▁otobus": 4106,
      "▁kur": 4107,
      "▁aksam": 4108,
      "▁tun": 4109,
      "▁ister": 4110,
      "▁kent": 4111,
      "▁senin": 4112,
      "iyetle": 4113,
      "▁zey": 4114,
      "izin": 4115,
      "▁isini": 4116,
      "▁city": 4117,
      "leniyor": 4118,
      "▁bakanlıgı": 4119,
      "▁olmadıgını": 4120,
      "▁gozlerinin": 4121,
      "▁isleri": 4122,
      "▁birer": 4123,
      "▁uzerindeki": 4124,
      "meyecek": 4125,
      "▁seviy": 4126,
      "ge": 4127,
      "▁allah": 4128,
      "▁temsilcisi": 4129,
      "▁saatte": 4130,
      "▁limon": 4131,
      "lon": 4132,
      "▁kahkah": 4133,
      "▁titr": 4134,
      "id": 4135,
      "▁planlarını": 4136,
      "atur": 4137,
      "▁bl": 4138,
      "ugum": 4139,
      "mli": 4140,
      "anta": 4141,
      "▁tuccar": 4142,
      "iti": 4143,
      "▁fiyatlandır": 4144,
      "▁olmak": 4145,
      "▁kazancları": 4146,
      "▁hikay": 4147,
      "▁malzem": 4148,
      "ncak": 4149,
      "▁yanında": 4150,
      "▁hale": 4151,
      "▁tanık": 4152,
      "mez": 4153,
      "▁w": 4154,
      "▁ard": 4155,
      "tla": 4156,
      "to": 4157,
      "▁gum": 4158,
      "▁bisik": 4159,
      "alog": 4160,
      "▁ortasında": 4161,
      "▁servisi": 4162,
      "▁nedeni": 4163,
      "▁avukatlar": 4164,
      "egiyle": 4165,
      "▁iade": 4166,
      "▁hot": 4167,
      "▁olmasın": 4168,
      ".7": 4169,
      "▁haf": 4170,
      "▁salat": 4171,
      "▁iddia": 4172,
      "▁epe": 4173,
      "▁adını": 4174,
      "▁makaleye": 4175,
      "hangi": 4176,
      "atın": 4177,
      "▁cares": 4178,
      "iran": 4179,
      "luydu": 4180,
      "▁yalan": 4181,
      "▁28": 4182,
      "▁sekreteri": 4183,
      "▁nitelik": 4184,
      "▁tu": 4185,
      "▁lun": 4186,
      "▁ustelik": 4187,
      "▁havaalanı": 4188,
      "▁yaklasık": 4189,
      "▁alamadim": 4190,
      "verdi": 4191,
      "▁uzum": 4192,
      "▁lobi": 4193,
      "andı": 4194,
      "▁vez": 4195,
      "'d": 4196,
      "▁prens": 4197,
      "▁mode": 4198,
      "▁atlanta": 4199,
      "▁pahaliydi": 4200,
      "larıma": 4201,
      "▁..\"": 4202,
      "▁seyleri": 4203,
      "▁iliskisi": 4204,
      "▁bulunan": 4205,
      "▁olmasına": 4206,
      "▁yerlere": 4207,
      "▁cocuklara": 4208,
      "▁ceyrek": 4209,
      "▁once": 4210,
      "▁sevgil": 4211,
      "▁sec": 4212,
      "▁devr": 4213,
      "▁elestiri": 4214,
      "▁ilgis": 4215,
      "▁sahneye": 4216,
      "▁hastalıgı": 4217,
      "▁air": 4218,
      "\\/8": 4219,
      "▁sansur": 4220,
      "▁esn": 4221,
      "se": 4222,
      "▁imal": 4223,
      "▁hus": 4224,
      "irim": 4225,
      "▁yasam": 4226,
      "▁antr": 4227,
      "▁durdur": 4228,
      "▁zor": 4229,
      "▁um": 4230,
      "gı": 4231,
      "▁istedim": 4232,
      "▁sofr": 4233,
      "▁ceh": 4234,
      "▁kendi": 4235,
      "▁onur": 4236,
      "anıs": 4237,
      "▁donusu": 4238,
      "▁cop": 4239,
      "eyaz": 4240,
      "▁yad": 4241,
      "▁hizmetler": 4242,
      "larak": 4243,
      "fa": 4244,
      "▁hızı": 4245,
      "▁ustunden": 4246,
      "▁fazlasını": 4247,
      "▁fikri": 4248,
      "▁red": 4249,
      "a": 4250,
      "▁mot": 4251,
      "ah": 4252,
      "▁verir": 4253,
      "ac": 4254,
      "▁siddet": 4255,
      "▁muhareb": 4256,
      "▁eyalet": 4257,
      "nak": 4258,
      "▁hayatını": 4259,
      "▁konum": 4260,
      "▁mektep": 4261,
      "▁yara": 4262,
      "ıklar": 4263,
      "▁olacak": 4264,
      "liyor": 4265,
      "larca": 4266,
      "▁t": 4267,
      "ısı": 4268,
      "▁senato": 4269,
      "▁edil": 4270,
      "aseb": 4271,
      "miyorum": 4272,
      "▁uye": 4273,
      "▁degeri": 4274,
      "▁hakem": 4275,
      "orta": 4276,
      "amaları": 4277,
      "obil": 4278,
      "▁duk": 4279,
      "▁siyah": 4280,
      "+": 4281,
      "abını": 4282,
      "ola": 4283,
      "kten": 4284,
      "em": 4285,
      "larından": 4286,
      "▁mektup": 4287,
      "▁lob": 4288,
      "ıslı": 4289,
      "▁bis": 4290,
      "▁ziy": 4291,
      "▁abla": 4292,
      "▁kims": 4293,
      "sali": 4294,
      "▁bug": 4295,
      "▁yarım": 4296,
      "▁pes": 4297,
      "'nun": 4298,
      "▁aktivit": 4299,
      "▁olmus": 4300,
      "▁care": 4301,
      "cev": 4302,
      "▁tarihinde": 4303,
      "▁sevda": 4304,
      "▁agz": 4305,
      "etli": 4306,
      "▁mucevher": 4307,
      "▁agab": 4308,
      "▁milletin": 4309,
      "▁guven": 4310,
      "▁fot": 4311,
      "▁hazırlık": 4312,
      "▁evlerine": 4313,
      "▁kaymak": 4314,
      "▁muzak": 4315,
      "dum": 4316,
      "leket": 4317,
      "▁mayıs": 4318,
      "▁mekte": 4319,
      "▁mani": 4320,
      "▁paket": 4321,
      "▁ey": 4322,
      "icisi": 4323,
      "alardan": 4324,
      "▁dısında": 4325,
      "▁oturdu": 4326,
      "▁temizdi": 4327,
      "▁gunah": 4328,
      "▁detay": 4329,
      "▁bardak": 4330,
      "yabilir": 4331,
      "acıların": 4332,
      "▁duzelt": 4333,
      "▁surat": 4334,
      "ide": 4335,
      "elerden": 4336,
      "ian": 4337,
      "mec": 4338,
      "▁icki": 4339,
      "▁devri": 4340,
      "▁basında": 4341,
      "▁kadınlara": 4342,
      "▁cumartesi": 4343,
      "▁milyardan": 4344,
      "▁...\"": 4345,
      "▁anayasa": 4346,
      "▁milwa": 4347,
      "ket": 4348,
      "▁insanı": 4349,
      "▁gayr": 4350,
      "▁irade": 4351,
      "▁kararı": 4352,
      "▁pazarda": 4353,
      "▁198": 4354,
      "▁karın": 4355,
      "5'e": 4356,
      "▁pad": 4357,
      "▁samim": 4358,
      "▁aln": 4359,
      "▁perakende": 4360,
      "uru": 4361,
      "▁hukuk": 4362,
      "0'dan": 4363,
      "▁tanım": 4364,
      "▁pah": 4365,
      "▁yine": 4366,
      "▁dert": 4367,
      "▁herif": 4368,
      "▁dost": 4369,
      "▁anne": 4370,
      "▁fren": 4371,
      "of": 4372,
      "▁fir": 4373,
      "indeki": 4374,
      "▁kalem": 4375,
      "▁konular": 4376,
      "▁ceyr": 4377,
      "▁dustu": 4378,
      "▁herkesin": 4379,
      "▁bulgu": 4380,
      "gım": 4381,
      "▁sol": 4382,
      "▁ugr": 4383,
      "▁kural": 4384,
      "▁ropor": 4385,
      "mekte": 4386,
      "▁not": 4387,
      "osunu": 4388,
      "▁sair": 4389,
      "▁sirk": 4390,
      "ekk": 4391,
      "▁efendim": 4392,
      "yerek": 4393,
      "ıstı": 4394,
      "▁savası": 4395,
      "▁bizi": 4396,
      "▁kıyı": 4397,
      "▁bicim": 4398,
      "leye": 4399,
      "▁posta": 4400,
      "▁olabilirdi": 4401,
      "▁enst": 4402,
      "dizli": 4403,
      "stı": 4404,
      "▁isg": 4405,
      "gen": 4406,
      "▁atlar": 4407,
      "elik": 4408,
      "▁sorustur": 4409,
      "enler": 4410,
      "teri": 4411,
      "▁s": 4412,
      "▁fabrik": 4413,
      "ka": 4414,
      "▁gerekti": 4415,
      "att": 4416,
      "▁eksiklikler": 4417,
      "▁tatlı": 4418,
      "▁hal": 4419,
      "▁reh": 4420,
      "▁ref": 4421,
      "▁karsıya": 4422,
      "▁ile": 4423,
      "▁seri": 4424,
      "ank": 4425,
      "▁cuzdan": 4426,
      "▁satmak": 4427,
      "▁kamyon": 4428,
      "▁koy": 4429,
      "ich": 4430,
      "▁lan": 4431,
      "▁hamur": 4432,
      "▁siyas": 4433,
      "▁sekl": 4434,
      "▁buraya": 4435,
      "▁kurulunun": 4436,
      "▁ip": 4437,
      "▁cıkan": 4438,
      "▁derec": 4439,
      "▁taks": 4440,
      "▁dedi": 4441,
      "▁geliyordu": 4442,
      "▁ayd": 4443,
      "▁ilgil": 4444,
      "▁ucretleri": 4445,
      "▁gorusuldu": 4446,
      "▁ogretmen": 4447,
      "▁mat": 4448,
      "akende": 4449,
      "amayacagını": 4450,
      "▁yolu": 4451,
      "ilm": 4452,
      "▁bit": 4453,
      "▁16": 4454,
      "▁ici": 4455,
      "▁ten": 4456,
      "▁ask": 4457,
      "▁miy": 4458,
      "▁bakıma": 4459,
      "▁im": 4460,
      "ho": 4461,
      "▁makinesi": 4462,
      "▁siparis": 4463,
      "▁nufus": 4464,
      "larının": 4465,
      "kili": 4466,
      "▁havaal": 4467,
      "▁basım": 4468,
      "▁ayv": 4469,
      "▁surpr": 4470,
      "▁yıllarda": 4471,
      "▁atol": 4472,
      "oloj": 4473,
      "▁it": 4474,
      "▁hatta": 4475,
      "▁yab": 4476,
      "▁anı": 4477,
      "oksa": 4478,
      "▁sonra": 4479,
      "▁buna": 4480,
      "▁dolayi": 4481,
      "▁turku": 4482,
      "alarını": 4483,
      "▁sikay": 4484,
      "▁aray": 4485,
      "▁yaklasımı": 4486,
      "isinda": 4487,
      "gıcı": 4488,
      "▁cocuklarını": 4489,
      "▁yılların": 4490,
      "▁traf": 4491,
      "macı": 4492,
      "erin": 4493,
      "▁parası": 4494,
      "▁tahvilleri": 4495,
      "▁kanal": 4496,
      "▁acent": 4497,
      "▁mısır": 4498,
      "▁tekrar": 4499,
      "▁odalar": 4500,
      "miyordu": 4501,
      "▁nik": 4502,
      "gini": 4503,
      "▁tip": 4504,
      "▁197": 4505,
      "▁japon": 4506,
      "▁kek": 4507,
      "▁sıg": 4508,
      "▁kanı": 4509,
      "▁sahada": 4510,
      "▁oyuncak": 4511,
      "▁meyhan": 4512,
      "▁bununla": 4513,
      "▁laik": 4514,
      "▁proj": 4515,
      "▁1\\/": 4516,
      "siz": 4517,
      "▁eglen": 4518,
      "▁odedigim": 4519,
      "▁isci": 4520,
      "emem": 4521,
      "▁7'den": 4522,
      "▁dustugunu": 4523,
      "9": 4524,
      "▁sob": 4525,
      "▁donem": 4526,
      "▁senar": 4527,
      "ba": 4528,
      "eket": 4529,
      "▁harp": 4530,
      "asız": 4531,
      "egim": 4532,
      "▁omr": 4533,
      "▁kaynagı": 4534,
      "mistir": 4535,
      "lıklı": 4536,
      "▁dik": 4537,
      "▁vapur": 4538,
      "▁goturdu": 4539,
      "ıf": 4540,
      "mel": 4541,
      "ons": 4542,
      "▁zayifti": 4543,
      "▁sahili": 4544,
      "▁kurumları": 4545,
      "sman": 4546,
      "▁kayb": 4547,
      "▁ucu": 4548,
      "▁sayet": 4549,
      "▁nedenlerden": 4550,
      ".0": 4551,
      "▁ulkemiz": 4552,
      "▁gunlerini": 4553,
      "▁huk": 4554,
      "agından": 4555,
      "▁balayi": 4556,
      "alarının": 4557,
      "▁konuk": 4558,
      "cıların": 4559,
      "▁maas": 4560,
      "diginde": 4561,
      "▁merh": 4562,
      "▁cercevesinde": 4563,
      "acının": 4564,
      "len": 4565,
      "▁zira": 4566,
      "elt": 4567,
      "▁baskaları": 4568,
      "larımızın": 4569,
      "▁meger": 4570,
      "▁bey": 4571,
      "▁ur": 4572,
      "▁tercih": 4573,
      "▁zeytin": 4574,
      "lıgı": 4575,
      "▁ef": 4576,
      "▁rut": 4577,
      "▁matem": 4578,
      "▁gayret": 4579,
      "▁olun": 4580,
      "al": 4581,
      "▁aktar": 4582,
      "yalizm": 4583,
      "▁bilgisayar": 4584,
      "▁uygul": 4585,
      "▁odasında": 4586,
      "irmen": 4587,
      "▁he": 4588,
      "▁masasında": 4589,
      "▁temsil": 4590,
      "▁sana": 4591,
      "aydı": 4592,
      "▁nedir": 4593,
      "▁ihracat": 4594,
      "▁iscilerin": 4595,
      "lug": 4596,
      "▁gercek": 4597,
      "lan": 4598,
      "▁canı": 4599,
      "▁fakat": 4600,
      "▁anayas": 4601,
      "▁saatlerde": 4602,
      "▁lok": 4603,
      "ens": 4604,
      "▁yasına": 4605,
      "▁kenara": 4606,
      "▁kavram": 4607,
      "▁kemik": 4608,
      "amam": 4609,
      "cuk": 4610,
      "giniz": 4611,
      "yuzlu": 4612,
      "lıp": 4613,
      "anlara": 4614,
      "kur": 4615,
      "uk": 4616,
      "▁yonet": 4617,
      "eyr": 4618,
      "ede": 4619,
      "eciler": 4620,
      "▁mudahale": 4621,
      "uyorlardı": 4622,
      "▁karg": 4623,
      "▁takv": 4624,
      "▁tahmini": 4625,
      "▁begenmedim": 4626,
      "▁contin": 4627,
      "▁etme": 4628,
      "▁getirir": 4629,
      "▁yardımcı": 4630,
      "▁davr": 4631,
      "▁hali": 4632,
      "▁ayag": 4633,
      "▁fırsat": 4634,
      "ar": 4635,
      "▁senator": 4636,
      "▁gidis": 4637,
      "▁dukkan": 4638,
      "ruf": 4639,
      "▁okuyucu": 4640,
      "enuz": 4641,
      "ayet": 4642,
      "▁azdi": 4643,
      "▁ist": 4644,
      "esinde": 4645,
      "▁bel": 4646,
      "▁arabanın": 4647,
      "▁portf": 4648,
      "ılacak": 4649,
      "(": 4650,
      "▁fiz": 4651,
      "..": 4652,
      "▁yoluna": 4653,
      "▁gibi": 4654,
      "▁belli": 4655,
      "▁yenilik": 4656,
      "▁aktarmalı": 4657,
      "▁af": 4658,
      "ku": 4659,
      "yum": 4660,
      "▁umur": 4661,
      "▁damak": 4662,
      "▁halde": 4663,
      "▁olimpiyat": 4664,
      "▁icten": 4665,
      "▁ceviri": 4666,
      "▁istiyor": 4667,
      "▁saba": 4668,
      "▁cesitlilik": 4669,
      "▁uzeri": 4670,
      "han": 4671,
      "▁gon": 4672,
      "g": 4673,
      "uma": 4674,
      "▁galib": 4675,
      "▁duvara": 4676,
      "▁olmustu": 4677,
      "▁parayı": 4678,
      "▁pansiyon": 4679,
      "▁hedefi": 4680,
      "▁kadınları": 4681,
      "▁cıkmıs": 4682,
      "ucusu": 4683,
      "anları": 4684,
      "ong": 4685,
      "▁dak": 4686,
      "▁yerinden": 4687,
      "▁tabir": 4688,
      "ici": 4689,
      "▁sap": 4690,
      "▁washington'a": 4691,
      "▁adalet": 4692,
      "ru": 4693,
      "▁kapanıs": 4694,
      "lesti": 4695,
      "▁hizmet": 4696,
      "▁mustes": 4697,
      "lendirdi": 4698,
      "ilig": 4699,
      "▁seftali": 4700,
      "▁seg": 4701,
      "▁alb": 4702,
      "/": 4703,
      "▁onc": 4704,
      "▁emir": 4705,
      "▁konferans": 4706,
      "▁otelin": 4707,
      "▁duygu": 4708,
      "▁sona": 4709,
      "▁isterim": 4710,
      "▁isc": 4711,
      "▁geri": 4712,
      "▁olur": 4713,
      "▁yonelik": 4714,
      "▁temsilcileri": 4715,
      "▁uc": 4716,
      "▁satıslara": 4717,
      "mesin": 4718,
      "osunda": 4719,
      "▁cıkıyor": 4720,
      "layıp": 4721,
      "ucc": 4722,
      "▁kapandı": 4723,
      "▁fazla": 4724,
      "gimiz": 4725,
      "▁aleyh": 4726,
      "irip": 4727,
      "▁zar": 4728,
      "▁yerini": 4729,
      "▁zir": 4730,
      "▁protest": 4731,
      "▁piyasada": 4732,
      "▁rehberimiz": 4733,
      "▁chic": 4734,
      "▁phil": 4735,
      "▁": 4736,
      "une": 4737,
      "▁kısk": 4738,
      "▁toplum": 4739,
      "▁calısanlar": 4740,
      "▁dolap": 4741,
      "ılıg": 4742,
      "▁herhal": 4743,
      "▁sacları": 4744,
      "▁yolları": 4745,
      "▁gerekc": 4746,
      "▁muzigi": 4747,
      "abilecegini": 4748,
      "▁havayollarını": 4749,
      "▁son": 4750,
      "▁basarılı": 4751,
      "cılık": 4752,
      "▁rez": 4753,
      "▁tuvalet": 4754,
      "n": 4755,
      "▁dus": 4756,
      "▁hacı": 4757,
      "'si": 4758,
      "▁dusmus": 4759,
      "etre": 4760,
      "▁tehd": 4761,
      "▁netic": 4762,
      "lere": 4763,
      "▁gucluk": 4764,
      "▁ihtiyacları": 4765,
      "▁ulk": 4766,
      "▁abon": 4767,
      "▁$": 4768,
      "▁evla": 4769,
      "▁fiyati": 4770,
      "uyle": 4771,
      "▁basit": 4772,
      "▁hissesi": 4773,
      "▁pay": 4774,
      "urg": 4775,
      "▁eslik": 4776,
      "cagı": 4777,
      "▁harek": 4778,
      "attı": 4779,
      "▁ittif": 4780,
      "asyon": 4781,
      "asını": 4782,
      "cinin": 4783,
      "may": 4784,
      "▁uste": 4785,
      "▁bilet": 4786,
      "▁bulmak": 4787,
      "▁maliyeti": 4788,
      "▁.)": 4789,
      "▁dısarıda": 4790,
      "▁arttıgını": 4791,
      "mustur": 4792,
      "▁bahc": 4793,
      "▁haziran": 4794,
      "▁arkadasları": 4795,
      "▁ni": 4796,
      "▁baslamak": 4797,
      "▁epey": 4798,
      "▁toparlan": 4799,
      "▁varlıklar": 4800,
      "▁eksik": 4801,
      "▁burun": 4802,
      "▁kul": 4803,
      "▁bakan": 4804,
      "▁ozelligi": 4805,
      "minin": 4806,
      "▁kampan": 4807,
      "▁ediyor": 4808,
      "▁muddet": 4809,
      "▁edecegini": 4810,
      "▁pan": 4811,
      "▁haz": 4812,
      "▁fransız": 4813,
      "▁komisyonlar": 4814,
      "lidir": 4815,
      "▁ayaklarının": 4816,
      "▁sekil": 4817,
      "▁turuna": 4818,
      "▁ruh": 4819,
      "▁olcu": 4820,
      "gesi": 4821,
      "▁anası": 4822,
      "aj": 4823,
      "▁bilgilendir": 4824,
      "irdi": 4825,
      "cak": 4826,
      "▁ab": 4827,
      "ham": 4828,
      "▁%8": 4829,
      "mıyor": 4830,
      "▁bundan": 4831,
      "▁gunler": 4832,
      "▁ucuslarla": 4833,
      "▁takip": 4834,
      "▁ordu": 4835,
      "▁tuketiciler": 4836,
      "digi": 4837,
      "ese": 4838,
      "arl": 4839,
      "▁ele": 4840,
      "▁mutluluk": 4841,
      "▁mur": 4842,
      "▁sac": 4843,
      "▁oakland'a": 4844,
      "usun": 4845,
      "lilig": 4846,
      "ıcılar": 4847,
      "▁satıslar": 4848,
      "▁fiyatları": 4849,
      "▁kagıd": 4850,
      "▁mutf": 4851,
      "▁paylas": 4852,
      "▁su": 4853,
      "ızı": 4854,
      "▁tom": 4855,
      "▁gucu": 4856,
      "▁halka": 4857,
      "ilir": 4858,
      "▁heyet": 4859,
      "▁veririm": 4860,
      "▁masal": 4861,
      "din": 4862,
      "▁hav": 4863,
      "be": 4864,
      "ımızı": 4865,
      "▁yuzden": 4866,
      "▁marka": 4867,
      "▁hafız": 4868,
      "▁kuyr": 4869,
      "▁--": 4870,
      "▁masada": 4871,
      "amay": 4872,
      "▁kan": 4873,
      "▁araya": 4874,
      "ice": 4875,
      "iligin": 4876,
      "▁temyiz": 4877,
      "ılmasını": 4878,
      "▁kira": 4879,
      "▁washington'dan": 4880,
      "aların": 4881,
      "▁pamuk": 4882,
      "▁dedikodu": 4883,
      "ts": 4884,
      "▁mus": 4885,
      "▁teori": 4886,
      "▁ic": 4887,
      "▁sirketler": 4888,
      "etici": 4889,
      "▁muhafazak": 4890,
      "ga": 4891,
      "ud": 4892,
      "▁evlerinin": 4893,
      "▁hacim": 4894,
      "▁hul": 4895,
      "▁basa": 4896,
      "inceye": 4897,
      "zir": 4898,
      "▁suruyor": 4899,
      "▁har": 4900,
      "▁mum": 4901,
      "edil": 4902,
      "▁oyuncu": 4903,
      "▁kasab": 4904,
      "▁bekliyor": 4905,
      "▁kullan": 4906,
      "▁sıcak": 4907,
      "▁tır": 4908,
      "isyon": 4909,
      "▁yonetmen": 4910,
      "8": 4911,
      "▁hepimiz": 4912,
      "▁baskalarının": 4913,
      "▁felaket": 4914,
      "▁musterileri": 4915,
      "▁koridor": 4916,
      "▁zengin": 4917,
      "▁gey": 4918,
      "▁ceb": 4919,
      "▁muhal": 4920,
      "▁luk": 4921,
      "▁saygı": 4922,
      "▁ız": 4923,
      "ekler": 4924,
      "▁olmustur": 4925,
      "▁paranin": 4926,
      "▁sezon": 4927,
      "▁ner": 4928,
      "▁hukumet": 4929,
      "▁ves": 4930,
      "memiz": 4931,
      "▁gelecek": 4932,
      "▁ipek": 4933,
      ")": 4934,
      "▁hizm": 4935,
      "▁biber": 4936,
      "▁arazi": 4937,
      "▁degn": 4938,
      "▁vermek": 4939,
      "▁veriyorum": 4940,
      "▁le": 4941,
      "layacak": 4942,
      "▁oglen": 4943,
      "▁l": 4944,
      "▁ucagı": 4945,
      "▁ecz": 4946,
      ".m": 4947,
      "▁er": 4948,
      "im": 4949,
      "eceg": 4950,
      "▁yoneticileri": 4951,
      "aga": 4952,
      "▁muh": 4953,
      "adıgını": 4954,
      "▁kuc": 4955,
      "▁durumdan": 4956,
      "ıgına": 4957,
      "▁data": 4958,
      "/4": 4959,
      "emden": 4960,
      "▁miting": 4961,
      "▁fonu": 4962,
      "▁av": 4963,
      "▁odak": 4964,
      "▁muhab": 4965,
      "▁en": 4966,
      "▁turlu": 4967,
      "▁secen": 4968,
      "▁yav": 4969,
      "abı": 4970,
      "0'": 4971,
      "▁aj": 4972,
      "▁50": 4973,
      "▁etmem": 4974,
      "▁iliskiler": 4975,
      "▁fi": 4976,
      "▁kot": 4977,
      "▁ulasım": 4978,
      "▁atıl": 4979,
      "▁buc": 4980,
      "▁cıkarma": 4981,
      "larini": 4982,
      "▁anim": 4983,
      "▁dil": 4984,
      "▁bulundugu": 4985,
      "▁dunyanın": 4986,
      "aya": 4987,
      "▁tez": 4988,
      "▁burokr": 4989,
      "▁olus": 4990,
      "▁seyahat": 4991,
      "▁heyec": 4992,
      "▁dayak": 4993,
      "tigim": 4994,
      "▁avukat": 4995,
      "▁dc": 4996,
      "▁tadimiza": 4997,
      "▁icecekler": 4998,
      "▁kasabaya": 4999,
      "asında": 5000,
      "▁bez": 5001,
      "oz": 5002,
      "▁yasad": 5003,
      "▁rom": 5004,
      "▁yard": 5005,
      "madım": 5006,
      "'nı": 5007,
      "ele": 5008,
      "▁tenek": 5009,
      "9'a": 5010,
      "▁soya": 5011,
      "▁%4": 5012,
      "atır": 5013,
      "▁bildirdi": 5014,
      "▁alımı": 5015,
      "▁etmis": 5016,
      "▁ozgur": 5017,
      "▁haberi": 5018,
      "▁isp": 5019,
      "▁cek": 5020,
      "▁kapının": 5021,
      "elerde": 5022,
      "▁istemiyorum": 5023,
      "abor": 5024,
      "▁tahıl": 5025,
      "askanı": 5026,
      "▁kisiler": 5027,
      "▁borcu": 5028,
      "▁yastık": 5029,
      "yo": 5030,
      "▁sirketlerin": 5031,
      "▁ikti": 5032,
      "▁portakal": 5033,
      "▁tesebbus": 5034,
      "eyen": 5035,
      "▁ucuslar": 5036,
      "▁cocuklar": 5037,
      "▁polis": 5038,
      "nuz": 5039,
      "▁elbette": 5040,
      "▁zorunda": 5041,
      "ton": 5042,
      "ou": 5043,
      "▁reform": 5044,
      "▁noktasına": 5045,
      "▁denizinden": 5046,
      "▁kesinlikle": 5047,
      "▁kurallar": 5048,
      "ilige": 5049,
      "▁baslamıstı": 5050,
      "▁fab": 5051,
      "▁dusuktu": 5052,
      "—": 5053,
      "▁sh": 5054,
      "▁ilgilen": 5055,
      "sı": 5056,
      "yas": 5057,
      "'yı": 5058,
      "avv": 5059,
      "▁isin": 5060,
      "lendir": 5061,
      "▁tekl": 5062,
      "▁top": 5063,
      "ıslar": 5064,
      "ograf": 5065,
      "▁benim": 5066,
      "▁ho": 5067,
      "▁ydı": 5068,
      "▁kıskanc": 5069,
      "▁birlik": 5070,
      "▁kirp": 5071,
      "▁milletvekili": 5072,
      "alamak": 5073,
      "▁dair": 5074,
      "▁degerlendiririm": 5075,
      "imiz": 5076,
      "▁akıl": 5077,
      "▁cır": 5078,
      "▁basarı": 5079,
      "▁partisi": 5080,
      "▁tipi": 5081,
      "▁zararı": 5082,
      "iligi": 5083,
      "▁koye": 5084,
      "▁sadece": 5085,
      "▁1989": 5086,
      "gru": 5087,
      "tusu": 5088,
      "▁sel": 5089,
      "▁elektrik": 5090,
      "▁zamanı": 5091,
      "▁icinde": 5092,
      "una": 5093,
      "azı": 5094,
      "▁tabur": 5095,
      "ov": 5096,
      "▁din": 5097,
      "▁diyet": 5098,
      "▁model": 5099,
      "▁tutun": 5100,
      "▁dusunc": 5101,
      "digine": 5102,
      "man": 5103,
      "abilmek": 5104,
      "▁havalim": 5105,
      "▁yası": 5106,
      "▁hafif": 5107,
      "▁veya": 5108,
      "▁corp": 5109,
      "lerde": 5110,
      "▁ede": 5111,
      "▁oyuncular": 5112,
      "▁ogr": 5113,
      "▁stok": 5114,
      "▁duv": 5115,
      "▁san": 5116,
      "ento": 5117,
      "▁yasama": 5118,
      "▁patlıcan": 5119,
      "ileri": 5120,
      "▁inan": 5121,
      "▁sahne": 5122,
      "▁etmez": 5123,
      "▁pir": 5124,
      "▁dolay": 5125,
      "▁dur": 5126,
      "hu": 5127,
      "▁karayolu": 5128,
      "lum": 5129,
      "0'a": 5130,
      "▁matematik": 5131,
      "imin": 5132,
      "▁yaln": 5133,
      "▁ilgisizdi": 5134,
      "▁dusman": 5135,
      "▁misafir": 5136,
      "▁sahibi": 5137,
      "▁istif": 5138,
      "gah": 5139,
      "▁animasyon": 5140,
      "▁sistem": 5141,
      "▁kısmını": 5142,
      "▁sezlon": 5143,
      "▁k": 5144,
      "▁olmayacak": 5145,
      "▁aga": 5146,
      "▁ablam": 5147,
      "▁agacı": 5148,
      "▁gov": 5149,
      "▁mud": 5150,
      "▁olmadıgı": 5151,
      "▁azal": 5152,
      "▁aca": 5153,
      "▁ucuncu": 5154,
      "▁bayram": 5155,
      "ediye": 5156,
      "ran": 5157,
      "▁yoksul": 5158,
      "▁araz": 5159,
      "▁cel": 5160,
      "▁gelecegi": 5161,
      "▁leh": 5162,
      "▁gunleri": 5163,
      "sanız": 5164,
      "▁ney": 5165,
      "▁hap": 5166,
      "▁bonolar": 5167,
      "▁mutla": 5168,
      "ecektir": 5169,
      "bas": 5170,
      "▁mun": 5171,
      "cileri": 5172,
      "mıslar": 5173,
      "▁baslarını": 5174,
      "▁yoksa": 5175,
      "▁tac": 5176,
      "▁fedakar": 5177,
      "▁deg": 5178,
      "mad": 5179,
      "▁turb": 5180,
      "ıl": 5181,
      "▁taht": 5182,
      "▁diger": 5183,
      "▁esyalar": 5184,
      "▁sigortası": 5185,
      "▁fayda": 5186,
      "▁tutmak": 5187,
      "inde": 5188,
      "▁kariyer": 5189,
      "▁esya": 5190,
      "set": 5191,
      "▁kafa": 5192,
      "▁lezzetleri": 5193,
      "▁baktı": 5194,
      "▁karmas": 5195,
      "imden": 5196,
      "▁pek": 5197,
      "▁americ": 5198,
      "▁7": 5199,
      "erdi": 5200,
      "amaya": 5201,
      "▁havaalanından": 5202,
      "▁sanki": 5203,
      "isi": 5204,
      "lıs": 5205,
      "32": 5206,
      "▁yerine": 5207,
      "▁otur": 5208,
      "▁vucut": 5209,
      "▁kucuk": 5210,
      "▁c": 5211,
      "▁yapmayı": 5212,
      "lah": 5213,
      "▁onu": 5214,
      "▁odaya": 5215,
      "uyu": 5216,
      "▁penc": 5217,
      "▁isler": 5218,
      "'s": 5219,
      "aca": 5220,
      "▁onemi": 5221,
      "▁ucusları": 5222,
      "▁duvarda": 5223,
      "lendi": 5224,
      "▁acı": 5225,
      "▁kelep": 5226,
      "▁vadesi": 5227,
      "kilerin": 5228,
      "ali": 5229,
      "maması": 5230,
      "▁demokr": 5231,
      "▁mill": 5232,
      "kler": 5233,
      "▁islerin": 5234,
      "▁temiz": 5235,
      "▁bili": 5236,
      "▁boston'a": 5237,
      "niz": 5238,
      "▁ugras": 5239,
      "▁herk": 5240,
      "▁yonetiminin": 5241,
      "dikleri": 5242,
      "▁oyuncusu": 5243,
      "▁seviyede": 5244,
      "▁pittsburgh'tan": 5245,
      "▁onlara": 5246,
      "▁kırm": 5247,
      "▁beden": 5248,
      "▁new": 5249,
      "▁karıstır": 5250,
      "▁carsaf": 5251,
      "▁hicbir": 5252,
      "▁arkadası": 5253,
      "▁tarife": 5254,
      "▁acılıs": 5255,
      "▁us": 5256,
      "ligini": 5257,
      "▁indianapolis": 5258,
      "▁geldigini": 5259,
      "▁surecin": 5260,
      "▁kemal": 5261,
      "▁ihtiyacı": 5262,
      "▁gozyas": 5263,
      "seniz": 5264,
      "▁oyle": 5265,
      "▁duyar": 5266,
      "amaz": 5267,
      "▁bor": 5268,
      "▁kisileri": 5269,
      "▁cumhuriyetciler": 5270,
      "▁sebz": 5271,
      "▁degerleri": 5272,
      "onra": 5273,
      "▁harit": 5274,
      "▁baskısı": 5275,
      "▁isabet": 5276,
      "▁danısmanı": 5277,
      "▁derece": 5278,
      "▁surede": 5279,
      "▁lou": 5280,
      "▁yorum": 5281,
      "emis": 5282,
      "▁ellerinden": 5283,
      "▁diplom": 5284,
      "▁la": 5285,
      "▁daha": 5286,
      "▁oneri": 5287,
      "▁pab": 5288,
      "▁yaprak": 5289,
      "▁degisiklik": 5290,
      "ıyla": 5291,
      "▁zav": 5292,
      "lılıgını": 5293,
      "▁yapısı": 5294,
      "▁kav": 5295,
      "▁fen": 5296,
      "▁basımı": 5297,
      "▁devrim": 5298,
      "ad": 5299,
      "▁stu": 5300,
      "▁gorev": 5301,
      "▁sms": 5302,
      "▁git": 5303,
      "▁birlesme": 5304,
      "▁demokratlar": 5305,
      "ılma": 5306,
      "▁delik": 5307,
      "▁salt": 5308,
      "unc": 5309,
      "edi": 5310,
      "▁politika": 5311,
      "…": 5312,
      "▁burada": 5313,
      "▁anlasması": 5314,
      "▁op": 5315,
      "▁gosteri": 5316,
      "ince": 5317,
      "▁havaliman": 5318,
      "mamıs": 5319,
      "▁isbir": 5320,
      "▁ulasımını": 5321,
      "okr": 5322,
      "lıg": 5323,
      "▁gecmiste": 5324,
      "ebilirim": 5325,
      "▁ciz": 5326,
      "lugunda": 5327,
      "▁basımıza": 5328,
      "larına": 5329,
      "▁yaptı": 5330,
      "nun": 5331,
      "▁seferinde": 5332,
      "ektedir": 5333,
      "▁demokrasi": 5334,
      "ers": 5335,
      "mamak": 5336,
      "estir": 5337,
      "medigini": 5338,
      "5'ten": 5339,
      "▁27": 5340,
      "▁halkın": 5341,
      "▁koylu": 5342,
      "elerini": 5343,
      "▁delikan": 5344,
      "detti": 5345,
      "▁ortada": 5346,
      "oya": 5347,
      "▁pr": 5348,
      "▁serin": 5349,
      "2": 5350,
      "▁olsun": 5351,
      "▁eylem": 5352,
      "▁acıldı": 5353,
      "▁medeniyet": 5354,
      "▁geldi": 5355,
      "▁tadını": 5356,
      "▁gozlerinden": 5357,
      "▁ig": 5358,
      "▁tuv": 5359,
      "▁olması": 5360,
      "ktur": 5361,
      "▁kalit": 5362,
      "▁temizlik": 5363,
      "▁yerler": 5364,
      "▁kalkıs": 5365,
      "▁cer": 5366,
      "▁isbirligi": 5367,
      "▁guleryuzlu": 5368,
      "lunun": 5369,
      "▁onları": 5370,
      "▁bakar": 5371,
      "dikten": 5372,
      "larında": 5373,
      "▁dom": 5374,
      "▁hamam": 5375,
      "▁hayır": 5376,
      "▁geceleri": 5377,
      "av": 5378,
      "▁bil": 5379,
      "▁oncesine": 5380,
      "▁gostermek": 5381,
      "▁agzında": 5382,
      "▁veg": 5383,
      "▁duygular": 5384,
      "▁ameliyat": 5385,
      "▁etrafına": 5386,
      "▁tamir": 5387,
      "▁mevzu": 5388,
      "▁…": 5389,
      "▁yeten": 5390,
      "▁cumhuriyeti": 5391,
      "▁ciro": 5392,
      "▁haklarını": 5393,
      "▁yılının": 5394,
      "▁laf": 5395,
      "▁gorevli": 5396,
      "amıs": 5397,
      "▁komur": 5398,
      "▁kopek": 5399,
      "▁mak": 5400,
      "▁degerlendir": 5401,
      "▁kocaman": 5402,
      "lom": 5403,
      "▁11": 5404,
      "▁sonuclarını": 5405,
      "kel": 5406,
      "▁sok": 5407,
      "▁hosuma": 5408,
      "▁imkanlar": 5409,
      "▁likid": 5410,
      "if": 5411,
      "▁tahta": 5412,
      "▁ticareti": 5413,
      "▁sozcuk": 5414,
      "asından": 5415,
      "etle": 5416,
      "▁kalk": 5417,
      "▁reviz": 5418,
      "#": 5419,
      "▁seye": 5420,
      "▁durumda": 5421,
      "lk": 5422,
      "▁yenil": 5423,
      "aat": 5424,
      "▁5'ten": 5425,
      "edef": 5426,
      "▁piyasasında": 5427,
      ":": 5428,
      "▁hurriyet": 5429,
      "▁tedarik": 5430,
      "▁francisco": 5431,
      "▁bilgis": 5432,
      "▁kıyıya": 5433,
      "▁yoluyla": 5434,
      "▁karsilik": 5435,
      "▁akt": 5436,
      "'ni": 5437,
      "▁acaba": 5438,
      "▁uzmanları": 5439,
      "iyeti": 5440,
      "▁cıl": 5441,
      "▁kısıt": 5442,
      "enlik": 5443,
      "ite": 5444,
      "▁japonya": 5445,
      "▁ilan": 5446,
      "▁bakmak": 5447,
      "▁payları": 5448,
      "▁ısı": 5449,
      "iyet": 5450,
      "▁tabi": 5451,
      "udu": 5452,
      "▁alın": 5453,
      "▁koruma": 5454,
      "▁olduklarını": 5455,
      "▁donus": 5456,
      "▁erik": 5457,
      "▁mıy": 5458,
      "▁mektu": 5459,
      "iden": 5460,
      "▁etkinlik": 5461,
      "tarı": 5462,
      "▁dagın": 5463,
      "▁gorevi": 5464,
      "▁hou": 5465,
      "▁var": 5466,
      "▁tarz": 5467,
      "gili": 5468,
      "ilmesi": 5469,
      "▁alak": 5470,
      "kin": 5471,
      "▁getirmek": 5472,
      "o'dan": 5473,
      "▁hur": 5474,
      "tali": 5475,
      "▁okur": 5476,
      "▁parlam": 5477,
      "masi": 5478,
      "▁terk": 5479,
      "▁enerji": 5480,
      "▁yetenek": 5481,
      "leti": 5482,
      "maktan": 5483,
      "ls": 5484,
      "▁rad": 5485,
      "▁bunun": 5486,
      "▁mikr": 5487,
      "▁okudu": 5488,
      "likler": 5489,
      "hut": 5490,
      "▁bul": 5491,
      "▁eliyle": 5492,
      "▁girdi": 5493,
      "▁plastik": 5494,
      "▁sas": 5495,
      "▁arasında": 5496,
      "ly": 5497,
      "▁etmedi": 5498,
      "▁hizmeti": 5499,
      "▁biz": 5500,
      "▁parkın": 5501,
      "▁diren": 5502,
      "iz": 5503,
      "0000": 5504,
      "esik": 5505,
      "▁evinin": 5506,
      "▁3/": 5507,
      "▁korun": 5508,
      "▁planlamam": 5509,
      "▁kapital": 5510,
      "▁yapının": 5511,
      "▁planları": 5512,
      "▁tahmin": 5513,
      "▁odeme": 5514,
      "▁edilm": 5515,
      "▁nit": 5516,
      "▁sahil": 5517,
      "▁lık": 5518,
      "▁adamları": 5519,
      "▁ustunde": 5520,
      "▁kamu": 5521,
      "▁fonlar": 5522,
      "▁alman": 5523,
      "bilir": 5524,
      "▁adlı": 5525,
      "▁lis": 5526,
      "▁olmalı": 5527,
      "▁oylama": 5528,
      "▁boston'dan": 5529,
      "▁bilim": 5530,
      "▁prob": 5531,
      "▁get": 5532,
      "▁raporları": 5533,
      "▁ked": 5534,
      "▁haberler": 5535,
      "▁labor": 5536,
      "▁continental": 5537,
      "▁yasamını": 5538,
      "\"": 5539,
      "▁veyahut": 5540,
      "▁senet": 5541,
      "eginde": 5542,
      "▁suresi": 5543,
      "▁kop": 5544,
      "▁gidi": 5545,
      "dı": 5546,
      "▁ilet": 5547,
      "enleri": 5548,
      "▁strate": 5549,
      "arlar": 5550,
      "das": 5551,
      "▁ucmam": 5552,
      "▁lif": 5553,
      "onom": 5554,
      "▁organ": 5555,
      "▁ib": 5556,
      "▁gunun": 5557,
      "▁cocuklug": 5558,
      "▁ayında": 5559,
      "▁pencer": 5560,
      "luguna": 5561,
      "▁sın": 5562,
      "▁mim": 5563,
      "emeye": 5564,
      "▁gununu": 5565,
      "▁lazım": 5566,
      "▁geliri": 5567,
      "▁city'e": 5568,
      "▁ork": 5569,
      "▁abd": 5570,
      "▁alem": 5571,
      "▁lir": 5572,
      "▁islemlerinde": 5573,
      "▁lakin": 5574,
      "▁birinin": 5575,
      "▁gob": 5576,
      "▁ka": 5577,
      "▁birkac": 5578,
      "▁iyiydi": 5579,
      "denin": 5580,
      "▁cun": 5581,
      "▁elimi": 5582,
      "tigini": 5583,
      "isti": 5584,
      "▁cev": 5585,
      "▁temer": 5586,
      "dıkları": 5587,
      "▁her": 5588,
      "▁kendisini": 5589,
      "▁teknoloj": 5590,
      "▁form": 5591,
      "▁birey": 5592,
      "leriniz": 5593,
      "▁etkin": 5594,
      "▁tulum": 5595,
      "lemeye": 5596,
      "org": 5597,
      "▁cig": 5598,
      "▁ogrenciler": 5599,
      "▁parcası": 5600,
      "▁fotograf": 5601,
      "▁icra": 5602,
      "▁$'a": 5603,
      "▁co.": 5604,
      "inc": 5605,
      "ının": 5606,
      "▁sarkı": 5607,
      "emli": 5608,
      "▁baslamıs": 5609,
      "▁oldum": 5610,
      "▁reklamlar": 5611,
      "▁bence": 5612,
      "▁bay": 5613,
      "▁gozleriyle": 5614,
      "▁sasır": 5615,
      "▁calısanı": 5616,
      "▁aras": 5617,
      "8'de": 5618,
      "manlar": 5619,
      "▁sever": 5620,
      "▁ener": 5621,
      "▁ola": 5622,
      "▁got": 5623,
      "▁gost": 5624,
      "▁aksamı": 5625,
      "ersiz": 5626,
      "mesine": 5627,
      "▁barda": 5628,
      "▁kadınların": 5629,
      "▁“": 5630,
      "luyor": 5631,
      "ektr": 5632,
      "vel": 5633,
      "▁iceri": 5634,
      "▁yoneticiler": 5635,
      "▁dibine": 5636,
      "lanmıs": 5637,
      "▁ihal": 5638,
      "▁ulke": 5639,
      "leyen": 5640,
      "ınızda": 5641,
      "▁piyan": 5642,
      "▁pilot": 5643,
      "▁rekor": 5644,
      "▁sans": 5645,
      "eldi": 5646,
      "▁edep": 5647,
      "'y": 5648,
      "ans": 5649,
      "leriyle": 5650,
      "imizda": 5651,
      "▁uygulama": 5652,
      "▁tedirgin": 5653,
      "▁cumhurbaskanı": 5654,
      "ıgında": 5655,
      "▁teklifin": 5656,
      "eye": 5657,
      "▁anda": 5658,
      "▁yeniden": 5659,
      "▁ahlak": 5660,
      "▁olanak": 5661,
      "▁makine": 5662,
      "▁hakk": 5663,
      "▁oranlarının": 5664,
      "adı": 5665,
      "▁temet": 5666,
      "ecegiz": 5667,
      "▁onay": 5668,
      "▁teklifler": 5669,
      "▁gel": 5670,
      "▁tehlike": 5671,
      "▁boyn": 5672,
      "▁annem": 5673,
      "▁deprem": 5674,
      "▁akrab": 5675,
      "▁vah": 5676,
      "▁yarat": 5677,
      "ile": 5678,
      "gor": 5679,
      "▁maliyet": 5680,
      "▁sinema": 5681,
      "mey": 5682,
      "▁iddiaları": 5683,
      "▁1.": 5684,
      "▁teknoloji": 5685,
      "▁inceleme": 5686,
      "▁azınlık": 5687,
      "▁turkc": 5688,
      "ev": 5689,
      "▁sonrası": 5690,
      "acılar": 5691,
      "▁kas": 5692,
      "▁tap": 5693,
      "▁bahceye": 5694,
      "cih": 5695,
      "▁dedik": 5696,
      "tlu": 5697,
      "▁ittifak": 5698,
      "▁ode": 5699,
      "▁ceza": 5700,
      "▁uzman": 5701,
      "▁gorduk": 5702,
      "▁finanse": 5703,
      "▁kapısını": 5704,
      "▁agacın": 5705,
      "▁lezzetliydi": 5706,
      "▁komisyon": 5707,
      "▁enflasyon": 5708,
      "▁ogl": 5709,
      "▁yardım": 5710,
      "▁vur": 5711,
      "usunun": 5712,
      "▁baglant": 5713,
      "igini": 5714,
      "▁sinir": 5715,
      "▁iceride": 5716,
      "kiz": 5717,
      "▁ucte": 5718,
      "▁paran": 5719,
      "yası": 5720,
      "▁sonu": 5721,
      "uzluk": 5722,
      "▁pol": 5723,
      "▁beyaz": 5724,
      "▁faiz": 5725,
      "▁soylen": 5726,
      "liligi": 5727,
      "ilecegi": 5728,
      "▁urunlerin": 5729,
      "▁ay": 5730,
      "▁grup": 5731,
      "istirdi": 5732,
      "▁gen": 5733,
      "luluk": 5734,
      "orlu": 5735,
      "*": 5736,
      "▁%": 5737,
      "▁getirisi": 5738,
      "larımı": 5739,
      "▁zorluk": 5740,
      "ıgından": 5741,
      "▁cars": 5742,
      "erince": 5743,
      "▁199": 5744,
      "etsiz": 5745,
      "▁umid": 5746,
      "▁roportaj": 5747,
      "▁pesinden": 5748,
      "▁pencereden": 5749,
      "▁vardi": 5750,
      "▁yapım": 5751,
      "▁coktu": 5752,
      "▁yabancı": 5753,
      "acaktır": 5754,
      "areti": 5755,
      "▁bazi": 5756,
      "▁bedel": 5757,
      "▁biles": 5758,
      "▁fery": 5759,
      "▁cift": 5760,
      "lugunu": 5761,
      "▁dov": 5762,
      "▁milyona": 5763,
      "▁insanları": 5764,
      "▁sepet": 5765,
      "enli": 5766,
      "▁fabrika": 5767,
      "▁cuval": 5768,
      "▁catal": 5769,
      "▁yem": 5770,
      "▁ucuslarını": 5771,
      "▁tarihi": 5772,
      "▁ayrılık": 5773,
      "▁sık": 5774,
      "ıt": 5775,
      "▁destek": 5776,
      "pa": 5777,
      "ume": 5778,
      "▁terz": 5779,
      "▁196": 5780,
      "▁nis": 5781,
      "▁1/": 5782,
      "memek": 5783,
      "▁endeks": 5784,
      "▁dagıtım": 5785,
      "▁listel": 5786,
      "▁panik": 5787,
      "▁sandık": 5788,
      "isel": 5789,
      "▁gosterdi": 5790,
      "enden": 5791,
      "int": 5792,
      "▁egitimi": 5793,
      "cagız": 5794,
      "▁gazeteci": 5795,
      "▁anım": 5796,
      "▁sonr": 5797,
      "bi": 5798,
      "▁str": 5799,
      "▁vil": 5800,
      "tur": 5801,
      "▁sozunu": 5802,
      "▁yazarı": 5803,
      "▁gecen": 5804,
      "▁sermay": 5805,
      "▁noktası": 5806,
      "▁ong": 5807,
      "mus": 5808,
      "▁kendimi": 5809,
      "▁dır": 5810,
      "▁hitap": 5811,
      "dan": 5812,
      "▁yollarını": 5813,
      "▁alanında": 5814,
      "▁sokak": 5815,
      "▁petr": 5816,
      "aması": 5817,
      "▁tiyatrosu": 5818,
      "▁basladım": 5819,
      "▁kaydı": 5820,
      "lenin": 5821,
      "▁uygulam": 5822,
      "▁poz": 5823,
      "▁icine": 5824,
      "▁icimde": 5825,
      "▁sirketi": 5826,
      "▁bol": 5827,
      "lasyon": 5828,
      "dar": 5829,
      "▁ilham": 5830,
      "▁mevki": 5831,
      "▁asıl": 5832,
      "lulugunu": 5833,
      "▁cil": 5834,
      "▁sen": 5835,
      "iyoruz": 5836,
      "▁hos": 5837,
      "▁dolandır": 5838,
      "▁ayıp": 5839,
      "▁cark": 5840,
      "▁duydu": 5841,
      "▁eski": 5842,
      "m": 5843,
      "ırak": 5844,
      "▁moda": 5845,
      "▁soylem": 5846,
      "▁anal": 5847,
      "▁uygundu": 5848,
      "▁tic": 5849,
      "ladi": 5850,
      "lerimin": 5851,
      "▁sur": 5852,
      "▁fidan": 5853,
      "▁komut": 5854,
      "elere": 5855,
      "▁endustr": 5856,
      "▁iy": 5857,
      "▁gazete": 5858,
      "▁gerektigini": 5859,
      "▁kalıb": 5860,
      "▁mektubu": 5861,
      "▁ayakkabı": 5862,
      "▁programları": 5863,
      "▁philadelphia'ya": 5864,
      "▁aralık": 5865,
      "▁uretici": 5866,
      "ısız": 5867,
      "▁ocak": 5868,
      "▁varsa": 5869,
      "▁direktor": 5870,
      "▁cevresinde": 5871,
      "'un": 5872,
      "▁b": 5873,
      "▁komsu": 5874,
      "amda": 5875,
      "▁toplamda": 5876,
      "anlarda": 5877,
      "8'den": 5878,
      "izdi": 5879,
      "▁ulası": 5880,
      "▁dolara": 5881,
      "mini": 5882,
      "▁yetis": 5883,
      "'lik": 5884,
      "etleri": 5885,
      "▁5": 5886,
      "▁teskil": 5887,
      "▁eh": 5888,
      "▁vatand": 5889,
      "▁etrafında": 5890,
      "▁kızları": 5891,
      "ogu": 5892,
      "▁darbe": 5893,
      "lbu": 5894,
      "▁orada": 5895,
      "▁sure": 5896,
      "▁yuz": 5897,
      "▁pla": 5898,
      "lerdi": 5899,
      "▁hisseler": 5900,
      "▁30": 5901,
      "▁gem": 5902,
      "muyordu": 5903,
      "▁vardır": 5904,
      "▁aradan": 5905,
      "▁iht": 5906,
      "▁supur": 5907,
      "▁sars": 5908,
      "▁nerede": 5909,
      "▁eglenc": 5910,
      "▁mail": 5911,
      "is": 5912,
      "▁hast": 5913,
      "▁vazgec": 5914,
      "2'de": 5915,
      "▁gelirleri": 5916,
      "▁yild": 5917,
      "▁kabil": 5918,
      "tıgına": 5919,
      "▁yavr": 5920,
      "▁sask": 5921,
      "▁vak": 5922,
      "▁koltuga": 5923,
      "asıl": 5924,
      "▁mucadele": 5925,
      "ul": 5926,
      "ılmıs": 5927,
      "tih": 5928,
      "lardı": 5929,
      "▁21": 5930,
      "▁vap": 5931,
      "▁malzemeler": 5932,
      "▁teklifi": 5933,
      "▁gozu": 5934,
      "odr": 5935,
      "▁gos": 5936,
      "▁yonetimi": 5937,
      "▁baska": 5938,
      "iness": 5939,
      "▁masaya": 5940,
      "▁liderleri": 5941,
      "▁metal": 5942,
      "▁bardagı": 5943,
      "tun": 5944,
      "▁personellerin": 5945,
      "det": 5946,
      "▁elestir": 5947,
      "▁duvarlar": 5948,
      "-a": 5949,
      "urup": 5950,
      "'ı": 5951,
      "▁yay": 5952,
      "mak": 5953,
      "▁kalkıyor": 5954,
      "▁gelmedi": 5955,
      "oker": 5956,
      "▁banyo": 5957,
      "isinin": 5958,
      "▁amma": 5959,
      "▁sus": 5960,
      "▁ag": 5961,
      "▁rengi": 5962,
      "▁hukumetin": 5963,
      "▁onunde": 5964,
      "art": 5965,
      "macılar": 5966,
      "ork": 5967,
      "▁mukemmel": 5968,
      "▁cenaz": 5969,
      "▁veto": 5970,
      "vek": 5971,
      "▁kog": 5972,
      "▁nar": 5973,
      "▁attı": 5974,
      "▁gazet": 5975,
      "▁tedar": 5976,
      "▁sosy": 5977,
      "▁fes": 5978,
      "'t": 5979,
      "ari": 5980,
      "▁york": 5981,
      "▁gokyuz": 5982,
      "▁ko": 5983,
      "▁uyar": 5984,
      "▁cay": 5985,
      "mıstım": 5986,
      "lastı": 5987,
      "▁arkasına": 5988,
      "▁siyasi": 5989,
      "▁kusur": 5990,
      "▁personellerden": 5991,
      "▁zeka": 5992,
      "ginde": 5993,
      "arlı": 5994,
      "ug": 5995,
      "cisi": 5996,
      "▁st.": 5997,
      "las": 5998,
      "▁a.": 5999,
      "▁bal": 6000,
      "▁dolardan": 6001,
      "▁pac": 6002,
      "▁gecmis": 6003,
      "▁n": 6004,
      "▁asag": 6005,
      "▁zamanda": 6006,
      "▁mes": 6007,
      "▁satıcı": 6008,
      "▁vef": 6009,
      "▁cam": 6010,
      "-": 6011,
      "▁muzakere": 6012,
      "▁bugday": 6013,
      "▁rıh": 6014,
      "▁”": 6015,
      "▁yaptir": 6016,
      "isin": 6017,
      "'tan": 6018,
      "ktan": 6019,
      "ilik": 6020,
      "▁bugunun": 6021,
      "▁halbuki": 6022,
      "lardan": 6023,
      "eral": 6024,
      "▁ı": 6025,
      "▁tayin": 6026,
      "▁yurur": 6027,
      "▁mulk": 6028,
      "▁gece": 6029,
      "ach": 6030,
      "▁gostergeleri": 6031,
      "▁arac": 6032,
      "ih": 6033,
      "▁maliye": 6034,
      "lanmasını": 6035,
      "tıs": 6036,
      "▁baban": 6037,
      "▁sesi": 6038,
      "▁izlen": 6039,
      "▁kirpik": 6040,
      "siyon": 6041,
      "▁min": 6042,
      "▁kahvaltı": 6043,
      "▁cur": 6044,
      "▁geriledi": 6045,
      "▁gecm": 6046,
      "ere": 6047,
      "▁ciddi": 6048,
      "uyoruz": 6049,
      "▁kadını": 6050,
      "lık": 6051,
      "▁muzik": 6052,
      "▁sampiyon": 6053,
      "ıgı": 6054,
      "emiyor": 6055,
      "▁karlar": 6056,
      "ulmus": 6057,
      "▁sev": 6058,
      "▁iz": 6059,
      "▁sorumluluk": 6060,
      "▁ot": 6061,
      "▁islem": 6062,
      "▁hoca": 6063,
      "▁sahtek": 6064,
      "minde": 6065,
      "alım": 6066,
      "tar": 6067,
      "▁def": 6068,
      "▁ebeveyn": 6069,
      "▁buyukel": 6070,
      "▁ca": 6071,
      "▁bolumunde": 6072,
      "▁arasından": 6073,
      "▁oluyor": 6074,
      "▁hareketler": 6075,
      "▁birtakım": 6076,
      "▁yat": 6077,
      "▁arkadas": 6078,
      "ord": 6079,
      "▁detayları": 6080,
      "▁et": 6081,
      "▁serv": 6082,
      "▁aralarında": 6083,
      "▁elma": 6084,
      "▁chicag": 6085,
      "▁sorunların": 6086,
      "▁etmekten": 6087,
      "mafi": 6088,
      "gını": 6089,
      "▁duser": 6090,
      "▁sevg": 6091,
      "▁yandan": 6092,
      "▁amer": 6093,
      "▁hizmetinden": 6094,
      "▁yıllar": 6095,
      "rken": 6096,
      "▁neh": 6097,
      "sil": 6098,
      "▁gr": 6099,
      "▁sokaga": 6100,
      "▁yuzyıl": 6101,
      "▁ihtim": 6102,
      "iyorlardı": 6103,
      "unce": 6104,
      "▁demis": 6105,
      "'ya": 6106,
      "ze": 6107,
      "▁sırtında": 6108,
      "ri": 6109,
      "▁sop": 6110,
      "▁ama": 6111,
      "▁ve": 6112,
      "▁dr.": 6113,
      "▁cehr": 6114,
      "▁baslarına": 6115,
      "▁vs": 6116,
      "▁hisseyi": 6117,
      "ca": 6118,
      "▁gez": 6119,
      "▁arasındaki": 6120,
      "uyordum": 6121,
      "▁deney": 6122,
      "tiy": 6123,
      "▁buldu": 6124,
      "▁saray": 6125,
      "▁cogunluk": 6126,
      "ik": 6127,
      "▁yapti": 6128,
      "▁sevgi": 6129,
      "▁cik": 6130,
      "ston": 6131,
      "▁u": 6132,
      "▁alım": 6133,
      "▁elinin": 6134,
      "iri": 6135,
      "▁icme": 6136,
      "▁itibaren": 6137,
      "▁kafası": 6138,
      "▁durumlarda": 6139,
      "▁milyondan": 6140,
      "▁ayı": 6141,
      "oyu": 6142,
      "bah": 6143,
      "erek": 6144,
      "▁otelde": 6145,
      "otu": 6146,
      "▁burc": 6147,
      "▁kanıt": 6148,
      "▁puana": 6149,
      "[UNK]": 6150,
      "▁hatır": 6151,
      "lama": 6152,
      "eyle": 6153,
      "ınız": 6154,
      "▁birles": 6155,
      "▁eseri": 6156,
      "▁yuzunun": 6157,
      "▁sey": 6158,
      "▁ısıgında": 6159,
      "ısık": 6160,
      "▁degerinde": 6161,
      "usundan": 6162,
      "▁depremin": 6163,
      "acagına": 6164,
      "lıgımı": 6165,
      "'na": 6166,
      "▁isyan": 6167,
      "▁kaybet": 6168,
      "des": 6169,
      "▁amerikalı": 6170,
      "▁peynir": 6171,
      "▁kitaplar": 6172,
      "ekl": 6173,
      "rlikte": 6174,
      "ington": 6175,
      "▁sesini": 6176,
      "▁kuv": 6177,
      "▁karsıl": 6178,
      "▁can": 6179,
      "leg": 6180,
      "▁maz": 6181,
      "▁domuz": 6182,
      "▁mahalle": 6183,
      "▁bilmiyorum": 6184,
      "bire": 6185,
      "▁ulus": 6186,
      "eme": 6187,
      "▁gorusmek": 6188,
      "▁elbise": 6189,
      "▁dor": 6190,
      "▁gene": 6191,
      "liyat": 6192,
      "▁gelistir": 6193,
      "▁mens": 6194,
      "▁dl": 6195,
      "▁elinden": 6196,
      "▁edin": 6197,
      "yarak": 6198,
      "▁hikaye": 6199,
      "▁itir": 6200,
      "▁bıraktı": 6201,
      "▁aradi": 6202,
      "▁donemde": 6203,
      "▁tuf": 6204,
      "ısında": 6205,
      "▁ler": 6206,
      "▁cum": 6207,
      "▁4'ten": 6208,
      "▁philadelphia'dan": 6209,
      "▁kolunu": 6210,
      "agi": 6211,
      "▁duzenleme": 6212,
      "▁fazlası": 6213,
      "▁kası": 6214,
      "▁lake": 6215,
      "▁bekle": 6216,
      "▁maden": 6217,
      "▁beydi": 6218,
      "▁stratej": 6219,
      "eviz": 6220,
      "▁%2": 6221,
      "▁tatil": 6222,
      "▁salonun": 6223,
      "▁insanın": 6224,
      "▁davran": 6225,
      "▁jaguar": 6226,
      "lıydı": 6227,
      "▁odalari": 6228,
      "▁anket": 6229,
      "▁hip": 6230,
      "▁fiyatlarını": 6231,
      "▁cidd": 6232,
      "▁basarıya": 6233,
      "▁mik": 6234,
      "▁alternatif": 6235,
      "ed": 6236,
      "▁onlar": 6237,
      "▁sahip": 6238,
      "▁gidiyor": 6239,
      "lerek": 6240,
      "▁soyluyor": 6241,
      "▁ayrıl": 6242,
      "▁ellerine": 6243,
      "▁rehber": 6244,
      "▁dogru": 6245,
      "▁insanlar": 6246,
      "melere": 6247,
      "onik": 6248,
      "▁norm": 6249,
      "▁gazetenin": 6250,
      "▁bulama": 6251,
      "▁hakim": 6252,
      "▁deh": 6253,
      "▁dergi": 6254,
      "▁aktarma": 6255,
      "▁radyo": 6256,
      "▁sog": 6257,
      "▁ailelerin": 6258,
      "▁almaya": 6259,
      "umuzde": 6260,
      "uz": 6261,
      "▁baslıyor": 6262,
      "▁ediliyor": 6263,
      "ota": 6264,
      "▁acente": 6265,
      "▁donanma": 6266,
      "▁bon": 6267,
      "▁ikna": 6268,
      "dol": 6269,
      "▁tavsiye": 6270,
      "▁hev": 6271,
      "umsal": 6272,
      "▁olaylar": 6273,
      "▁hanimla": 6274,
      "onun": 6275,
      "▁anlamıyla": 6276,
      "▁nakit": 6277,
      "▁olc": 6278,
      "▁kır": 6279,
      "ası": 6280,
      "▁orman": 6281,
      "sun": 6282,
      "alarla": 6283,
      "▁gitmis": 6284,
      "▁malum": 6285,
      "▁bilin": 6286,
      "yız": 6287,
      "▁buh": 6288,
      "▁odamiz": 6289,
      "▁beklent": 6290,
      "elen": 6291,
      "▁dayanıs": 6292,
      "▁odam": 6293,
      "▁asam": 6294,
      "▁sorunu": 6295,
      "lerimi": 6296,
      "▁muhtesem": 6297,
      "▁sigar": 6298,
      "▁sadakat": 6299,
      "▁atıs": 6300,
      "▁arkadasim": 6301,
      "▁tem": 6302,
      "▁gi": 6303,
      "▁dagıt": 6304,
      "ti": 6305,
      "▁hissesini": 6306,
      "all": 6307,
      "▁kısalt": 6308,
      "▁komisyonları": 6309,
      "yıl": 6310,
      "▁goster": 6311,
      "▁ucaga": 6312,
      "▁vakti": 6313,
      "lemeyi": 6314,
      "▁onumuzdeki": 6315,
      "kil": 6316,
      "▁pazarlama": 6317,
      "▁yılına": 6318,
      "▁sembol": 6319,
      "'ye": 6320,
      "▁havaalan": 6321,
      "per": 6322,
      "▁nikah": 6323,
      "▁tehdit": 6324,
      "▁seyi": 6325,
      "▁eksiklik": 6326,
      "iyetine": 6327,
      "▁merk": 6328,
      "▁ince": 6329,
      "anlar": 6330,
      "▁borsasında": 6331,
      "▁kola": 6332,
      "kat": 6333,
      "▁cekim": 6334,
      "▁calı": 6335,
      "▁buyuk": 6336,
      "▁sıv": 6337,
      "▁yetkililer": 6338,
      "▁galiba": 6339,
      "atıl": 6340,
      "▁performansi": 6341,
      "▁yun": 6342,
      "▁neden": 6343,
      "▁yıgın": 6344,
      "asır": 6345,
      "▁isle": 6346,
      "▁ens": 6347,
      "▁tasıy": 6348,
      "▁kahv": 6349,
      "isini": 6350,
      "▁tanı": 6351,
      "▁namaz": 6352,
      "▁servet": 6353,
      "▁yuksek": 6354,
      "▁seyler": 6355,
      "lerimiz": 6356,
      "▁clas": 6357,
      "▁konusuyor": 6358,
      "▁haftanın": 6359,
      "▁denver'den": 6360,
      "▁beraber": 6361,
      "▁kah": 6362,
      "▁govde": 6363,
      "tıktan": 6364,
      "▁hamle": 6365,
      "▁istifade": 6366,
      "ot": 6367,
      "▁telefonda": 6368,
      "▁angel": 6369,
      "▁kalitesi": 6370,
      "▁nokt": 6371,
      "▁pirinc": 6372,
      "▁apartman": 6373,
      "▁gozlem": 6374,
      "eler": 6375,
      "▁ısrar": 6376,
      "▁vat": 6377,
      "▁odaydi": 6378,
      "▁grev": 6379,
      "▁ver": 6380,
      "abilir": 6381,
      "▁prot": 6382,
      "▁strateji": 6383,
      "▁gunu": 6384,
      "▁halat": 6385,
      "meler": 6386,
      "▁sonuc": 6387,
      "aliforn": 6388,
      "▁vermeye": 6389,
      "▁dalga": 6390,
      "▁mali": 6391,
      "mistim": 6392,
      "ili": 6393,
      "▁kes": 6394,
      "▁manzara": 6395,
      "▁butu": 6396,
      "ubet": 6397,
      "▁biliyorum": 6398,
      "izli": 6399,
      "▁bolg": 6400,
      "▁salı": 6401,
      "▁imparator": 6402,
      "lamıs": 6403,
      "▁heves": 6404,
      "▁edi": 6405,
      "▁ayagını": 6406,
      "▁ettim": 6407,
      "▁disi": 6408,
      "ildi": 6409,
      "▁gercegi": 6410,
      "▁ihtil": 6411,
      "▁ortamda": 6412,
      "▁avukatları": 6413,
      "▁fasuly": 6414,
      "▁ilisk": 6415,
      "lar": 6416,
      "erlik": 6417,
      "rlik": 6418,
      "▁artıs": 6419,
      "▁seviye": 6420,
      "ij": 6421,
      "▁durum": 6422,
      "acagım": 6423,
      "madik": 6424,
      "▁kolt": 6425,
      "▁personeller": 6426,
      "▁toplantıda": 6427,
      "▁ticaret": 6428,
      "▁banka": 6429,
      "▁bun": 6430,
      "▁turlar": 6431,
      "▁bilgilendirilmek": 6432,
      "▁spons": 6433,
      "▁yıld": 6434,
      "▁am": 6435,
      "▁vası": 6436,
      "▁pa": 6437,
      "ılık": 6438,
      "ucuk": 6439,
      "sin": 6440,
      "arak": 6441,
      "▁ortam": 6442,
      "'i": 6443,
      "▁icin": 6444,
      "▁komutan": 6445,
      "bası": 6446,
      "illeri": 6447,
      "itli": 6448,
      "esine": 6449,
      "imini": 6450,
      "▁denize": 6451,
      "▁e": 6452,
      "▁etkil": 6453,
      "lugun": 6454,
      "▁eda": 6455,
      "▁dar": 6456,
      "▁yuzu": 6457,
      "▁kosesine": 6458,
      "▁yasamak": 6459,
      "▁kof": 6460,
      "▁secmen": 6461,
      "▁mevzuat": 6462,
      "▁eyl": 6463,
      "▁nus": 6464,
      "▁eger": 6465,
      "dam": 6466,
      "▁kef": 6467,
      "▁cevr": 6468,
      "▁meyve": 6469,
      "▁yoneticisi": 6470,
      "▁agabey": 6471,
      "▁balik": 6472,
      "▁ardına": 6473,
      "van": 6474,
      "▁amerikalılar": 6475,
      "▁nez": 6476,
      "ivers": 6477,
      "▁trafik": 6478,
      "iler": 6479,
      "▁zamandan": 6480,
      "▁disiplin": 6481,
      "ims": 6482,
      "alı": 6483,
      "▁sehirler": 6484,
      "ekli": 6485,
      "▁film": 6486,
      "▁koyun": 6487,
      "▁oranını": 6488,
      "▁olanaklarını": 6489,
      "elig": 6490,
      "▁bitki": 6491,
      "▁yemegin": 6492,
      "▁ettigi": 6493,
      "▁verin": 6494,
      "▁ilgilendi": 6495,
      "▁kalmak": 6496,
      "▁durumun": 6497,
      "lestir": 6498,
      "▁cif": 6499,
      "▁yeterince": 6500,
      "▁mec": 6501,
      "ess": 6502,
      "▁fık": 6503,
      "▁gordum": 6504,
      "▁arzu": 6505,
      "▁menk": 6506,
      "▁nuf": 6507,
      "um": 6508,
      "▁imalat": 6509,
      "▁baskalarına": 6510,
      "▁ruzg": 6511,
      "▁sovyetler": 6512,
      "antaj": 6513,
      "▁gomleg": 6514,
      "▁gond": 6515,
      "alıgı": 6516,
      "▁muduru": 6517,
      "▁yasan": 6518,
      "▁oluyordu": 6519,
      "▁th": 6520,
      "▁gorunum": 6521,
      "▁norma": 6522,
      "▁dallas'a": 6523,
      "tarak": 6524,
      "▁gev": 6525,
      "▁diz": 6526,
      "▁mont": 6527,
      "▁vazif": 6528,
      "▁pilav": 6529,
      "▁unsur": 6530,
      "▁bakalım": 6531,
      "▁senat": 6532,
      "▁vb": 6533,
      "▁at": 6534,
      "▁gid": 6535,
      "▁yıllarında": 6536,
      "▁bah": 6537,
      "gam": 6538,
      "acagı": 6539,
      "masıyla": 6540,
      "▁evleri": 6541,
      "▁arıyor": 6542,
      "▁kuzu": 6543,
      "▁ait": 6544,
      "▁konforu": 6545,
      "▁hakkını": 6546,
      "let": 6547,
      "▁hastalık": 6548,
      "likle": 6549,
      "▁mu": 6550,
      "▁tesis": 6551,
      "larıyla": 6552,
      "▁butc": 6553,
      "unlu": 6554,
      "nem": 6555,
      "▁ceyreginde": 6556,
      "'te": 6557,
      "▁ciftciler": 6558,
      "▁yetersiz": 6559,
      "▁yukselisle": 6560,
      "ete": 6561,
      "▁golge": 6562,
      "▁sterlin": 6563,
      "▁sut": 6564,
      "▁ind": 6565,
      "ırı": 6566,
      "▁yahut": 6567,
      "ver": 6568,
      "elerle": 6569,
      "▁soru": 6570,
      "tıgında": 6571,
      "▁fırtına": 6572,
      "▁mer": 6573,
      "1": 6574,
      "masını": 6575,
      "▁merhaba": 6576,
      "▁peyn": 6577,
      "laya": 6578,
      "▁sada": 6579,
      "▁cuma": 6580,
      "▁29": 6581,
      "▁benz": 6582,
      "▁terey": 6583,
      "▁palto": 6584,
      "`": 6585,
      "▁imk": 6586,
      "▁fırın": 6587,
      "▁emn": 6588,
      "'ta": 6589,
      "laydi": 6590,
      "▁soguktu": 6591,
      "▁nere": 6592,
      "▁cennet": 6593,
      "ika": 6594,
      "lıyor": 6595,
      "usune": 6596,
      "▁sent": 6597,
      "ıda": 6598,
      "▁fakult": 6599,
      "▁anlattı": 6600,
      "▁1980'": 6601,
      "iski": 6602,
      "de": 6603,
      "▁beyler": 6604,
      "ebilir": 6605,
      "▁beyle": 6606,
      "ılıyor": 6607,
      "00'den": 6608,
      "▁fer": 6609,
      "iv": 6610,
      "▁ric": 6611,
      "▁col": 6612,
      "▁rakam": 6613,
      "▁beklen": 6614,
      "▁ederiz": 6615,
      "▁bet": 6616,
      "▁kendilerini": 6617,
      "an": 6618,
      "▁imaj": 6619,
      "▁tane": 6620,
      "▁bire": 6621,
      "▁donan": 6622,
      "▁sınırları": 6623,
      "▁planimiz": 6624,
      "▁altı": 6625,
      "▁yemeklerini": 6626,
      "ladıgı": 6627,
      "▁ucak": 6628,
      "▁ilgiliydi": 6629,
      "▁cd": 6630,
      "▁komisyonu": 6631,
      "▁kenarları": 6632,
      "▁dusunceler": 6633,
      "aket": 6634,
      "▁philadel": 6635,
      "▁yuv": 6636,
      "▁tey": 6637,
      "ida": 6638,
      "▁atat": 6639,
      "▁duvarın": 6640,
      "usu": 6641,
      "▁karayol": 6642,
      "▁seyr": 6643,
      "▁kendine": 6644,
      "▁aldıgını": 6645,
      "▁ihracları": 6646,
      "▁rezervasyon": 6647,
      "isinden": 6648,
      "arda": 6649,
      "▁ucusuna": 6650,
      "▁yerinde": 6651,
      "acagız": 6652,
      "▁kız": 6653,
      "lamaz": 6654,
      "▁bilir": 6655,
      "▁dua": 6656,
      "▁futbol": 6657,
      "▁zih": 6658,
      "▁verme": 6659,
      "▁evlere": 6660,
      "▁rakip": 6661,
      "▁teklif": 6662,
      "▁emniyet": 6663,
      "▁kiralama": 6664,
      "▁kurdu": 6665,
      "▁guzeldi": 6666,
      "ımda": 6667,
      "▁indirim": 6668,
      "▁belge": 6669,
      "▁kesint": 6670,
      "atlar": 6671,
      "▁bahsederim": 6672,
      "▁hakaret": 6673,
      "▁durdu": 6674,
      "▁bilg": 6675,
      "▁sorun": 6676,
      "▁operasyon": 6677,
      "uy": 6678,
      "ige": 6679,
      "▁zah": 6680,
      "▁esit": 6681,
      "▁isinden": 6682,
      "▁il": 6683,
      "▁kaliteli": 6684,
      "▁dava": 6685,
      "onelik": 6686,
      "▁yog": 6687,
      "▁agac": 6688,
      "▁aileler": 6689,
      "▁ben": 6690,
      "ene": 6691,
      "▁taklit": 6692,
      "▁rapor": 6693,
      "lugunun": 6694,
      "▁oldu": 6695,
      "▁olanakları": 6696,
      "▁hat": 6697,
      "▁tatile": 6698,
      "▁munasebet": 6699,
      "▁hangileri": 6700,
      "▁onun": 6701,
      "end": 6702,
      "▁gayrimen": 6703,
      "▁yukseldigini": 6704,
      "▁inanc": 6705,
      "▁islemin": 6706,
      "▁havaalanı'nda": 6707,
      "ege": 6708,
      "▁ıskar": 6709,
      "▁yık": 6710,
      "▁disip": 6711,
      "oh": 6712,
      "▁kullanmadim": 6713,
      "▁lek": 6714,
      "edigi": 6715,
      "▁mez": 6716,
      "▁ongor": 6717,
      "ınıza": 6718,
      "▁egitim": 6719,
      "▁hem": 6720,
      "▁etmeyi": 6721,
      "lerinde": 6722,
      "▁sakal": 6723,
      "▁cor": 6724,
      "▁havayolu": 6725,
      "▁dep": 6726,
      "inize": 6727,
      "▁sonrasında": 6728,
      "▁sarsıntı": 6729,
      "▁isi": 6730,
      "▁koltuk": 6731,
      "▁cim": 6732,
      "ska": 6733,
      "▁dolu": 6734,
      "▁kad": 6735,
      "ledim": 6736,
      "▁degil": 6737,
      "layacagını": 6738,
      "▁10'dan": 6739,
      "▁kumandan": 6740,
      "gi": 6741,
      "▁ceph": 6742,
      "ara": 6743,
      "▁istiklal": 6744,
      "▁sistemi": 6745,
      "ıgının": 6746,
      "▁istihdam": 6747,
      "▁azalt": 6748,
      "az": 6749,
      "▁odan": 6750,
      "tikce": 6751,
      "▁ila": 6752,
      "▁kagı": 6753,
      "▁ayaga": 6754,
      "▁sonbah": 6755,
      "▁olanları": 6756,
      "▁ahır": 6757,
      "▁dukkanı": 6758,
      "ustos": 6759,
      "▁yuzune": 6760,
      "▁gezi": 6761,
      "▁yans": 6762,
      "ble": 6763,
      "a'ya": 6764,
      "adaki": 6765,
      "afet": 6766,
      "▁yasamın": 6767,
      "[MASK]": 6768,
      "▁degisim": 6769,
      "sunuz": 6770,
      "ligiyle": 6771,
      "▁oturu": 6772,
      "▁ettiler": 6773,
      "▁ade": 6774,
      "▁fil": 6775,
      "▁dernegi": 6776,
      "▁temizlikten": 6777,
      "▁verdigim": 6778,
      "derken": 6779,
      "▁kadınlar": 6780,
      "dig": 6781,
      "▁gar": 6782,
      "usunda": 6783,
      "▁yolda": 6784,
      "▁kulub": 6785,
      "a'nın": 6786,
      "▁ufak": 6787,
      "▁teror": 6788,
      "▁projesi": 6789,
      "ela": 6790,
      "▁basını": 6791,
      "▁yemeklerinden": 6792,
      "▁anlayıs": 6793,
      "▁kisi": 6794,
      "ıla": 6795,
      "▁hun": 6796,
      "sizlik": 6797,
      "▁sa": 6798,
      "isten": 6799,
      "▁tramv": 6800,
      "uler": 6801,
      "▁francisco'dan": 6802,
      "tif": 6803,
      "▁kriz": 6804,
      "tti": 6805,
      "ol": 6806,
      "▁ruy": 6807,
      "esinden": 6808,
      "▁boston": 6809,
      "lerce": 6810,
      "▁huz": 6811,
      "▁ancak": 6812,
      "▁yurut": 6813,
      "▁oyn": 6814,
      "▁ols": 6815,
      "00": 6816,
      "▁tasavv": 6817,
      "▁maliyetleri": 6818,
      "▁ilgili": 6819,
      "▁icat": 6820,
      "▁tarl": 6821,
      "oglu": 6822,
      "▁sigara": 6823,
      "▁jap": 6824,
      "era": 6825,
      "▁krem": 6826,
      "▁bırakmak": 6827,
      "isinde": 6828,
      "▁tesisti": 6829,
      "▁meclisi": 6830,
      "▁evde": 6831,
      "▁zap": 6832,
      "eg": 6833,
      "▁ph": 6834,
      "▁saadet": 6835,
      "▁adr": 6836,
      "▁katana": 6837,
      "▁toprak": 6838,
      "▁icecek": 6839,
      "▁tasv": 6840,
      "▁degistir": 6841,
      "▁bahar": 6842,
      "▁olcude": 6843,
      "ılmaz": 6844,
      "ıyorlar": 6845,
      "▁calgı": 6846,
      "▁dili": 6847,
      "ayım": 6848,
      "▁dunya": 6849,
      "▁sanat": 6850,
      "▁sip": 6851,
      "▁paraya": 6852,
      "dek": 6853,
      "▁guzellik": 6854,
      "▁gelirler": 6855,
      "▁keleb": 6856,
      "▁gittim": 6857,
      "▁insanların": 6858,
      "▁izn": 6859,
      "atik": 6860,
      "▁uzer": 6861,
      "▁aydın": 6862,
      "▁kahvalt": 6863,
      "▁hepsini": 6864,
      "▁uzaktan": 6865,
      "tın": 6866,
      "▁gosteriyor": 6867,
      "eyin": 6868,
      "inden": 6869,
      "▁garson": 6870,
      "▁ugul": 6871,
      "▁kayık": 6872,
      "▁yapması": 6873,
      "▁lutfen": 6874,
      "irk": 6875,
      "▁sirkette": 6876,
      "▁emtia": 6877,
      "ch": 6878,
      "▁elinde": 6879,
      "▁kusk": 6880,
      "▁yeteri": 6881,
      "tik": 6882,
      "▁2'den": 6883,
      "▁acıdan": 6884,
      "▁ins": 6885,
      "▁tedavul": 6886,
      "▁finans": 6887,
      "▁ikin": 6888,
      "▁temsilci": 6889,
      "▁basıma": 6890,
      "anmıs": 6891,
      "▁cab": 6892,
      "▁12": 6893,
      "▁urunleri": 6894,
      "▁6'dan": 6895,
      "▁goruyor": 6896,
      "▁degerlendirmeye": 6897,
      "e": 6898,
      "▁dondur": 6899,
      "▁han": 6900,
      "isk": 6901,
      "▁fay": 6902,
      "▁sirket": 6903,
      "▁ıskarta": 6904,
      "▁standart": 6905,
      "▁kartı": 6906,
      "▁oldugu": 6907,
      "▁onayına": 6908,
      "▁kendis": 6909,
      "ıklıgı": 6910,
      "▁ortalam": 6911,
      "azla": 6912,
      "▁ah": 6913,
      "ha": 6914,
      "▁muhalef": 6915,
      "kce": 6916,
      "▁piyasalar": 6917,
      "▁bocek": 6918,
      "▁sonda": 6919,
      "mayı": 6920,
      "▁felsef": 6921,
      "▁verdigi": 6922,
      "▁:": 6923,
      "inizi": 6924,
      "▁r": 6925,
      "ow": 6926,
      "ce": 6927,
      "▁canım": 6928,
      "▁gunesi": 6929,
      "▁ucusu": 6930,
      "▁magaz": 6931,
      "▁farkı": 6932,
      "▁bilmem": 6933,
      "alarıyla": 6934,
      "▁karsi": 6935,
      "▁1990'da": 6936,
      "▁lah": 6937,
      "▁egil": 6938,
      "▁eg": 6939,
      "▁bede": 6940,
      "ustan": 6941,
      "▁kitabı": 6942,
      "▁ekibi": 6943,
      "▁ail": 6944,
      "▁eks": 6945,
      "▁isimler": 6946,
      "▁ban": 6947,
      "raz": 6948,
      "ıcı": 6949,
      "▁luz": 6950,
      "▁dahi": 6951,
      "larla": 6952,
      "▁cid": 6953,
      "sızlık": 6954,
      "▁kotuydu": 6955,
      "▁yontem": 6956,
      "cı": 6957,
      "mes": 6958,
      "▁resepsiyon": 6959,
      "▁sokakta": 6960,
      "yiz": 6961,
      "edik": 6962,
      "kun": 6963,
      "raf": 6964,
      "anmak": 6965,
      "▁sofor": 6966,
      "▁kalır": 6967,
      "–": 6968,
      "emez": 6969,
      "sız": 6970,
      "▁harikaydi": 6971,
      "▁uzerine": 6972,
      "iyetini": 6973,
      "dugunde": 6974,
      "irli": 6975,
      "▁yonuyle": 6976,
      "eh": 6977,
      "▁deniz": 6978,
      "▁kapan": 6979,
      "▁halbu": 6980,
      "▁etkisini": 6981,
      "unde": 6982,
      "nam": 6983,
      "▁ofk": 6984,
      "▁polisler": 6985,
      "▁gozlerimi": 6986,
      "▁zen": 6987,
      "▁akl": 6988,
      "▁lisans": 6989,
      "unda": 6990,
      "stu": 6991,
      "▁haval": 6992,
      "▁hangi": 6993,
      "▁alıp": 6994,
      "▁dern": 6995,
      "▁siper": 6996,
      "anc": 6997,
      "▁is": 6998,
      "▁calisanlar": 6999,
      "▁haberleri": 7000,
      "▁uzun": 7001,
      "asyonu": 7002,
      "▁saat": 7003,
      "▁sos": 7004,
      "▁ediyoruz": 7005,
      "atif": 7006,
      "▁jand": 7007,
      "▁lim": 7008,
      "▁carp": 7009,
      "▁ucretler": 7010,
      "abın": 7011,
      "▁bahan": 7012,
      "▁uyeleri": 7013,
      "▁f": 7014,
      "▁omuz": 7015,
      "▁ileri": 7016,
      "▁geli": 7017,
      "▁takdirde": 7018,
      "lıga": 7019,
      "▁arz": 7020,
      "lulugu": 7021,
      "leyi": 7022,
      "▁tasarruf": 7023,
      "▁dallas'tan": 7024,
      "▁kons": 7025,
      "▁sig": 7026,
      "▁rehberlik": 7027,
      "'yi": 7028,
      "▁dinlemek": 7029,
      "▁merm": 7030,
      "erik": 7031,
      "acı": 7032,
      "▁doldur": 7033,
      "▁tencer": 7034,
      "▁odadan": 7035,
      "▁vakt": 7036,
      "▁ch": 7037,
      "bar": 7038,
      "▁misaf": 7039,
      "etin": 7040,
      "▁karısı": 7041,
      "tigi": 7042,
      "▁ihtiyac": 7043,
      "▁tura": 7044,
      "▁sah": 7045,
      "▁aslan": 7046,
      "ıtma": 7047,
      "▁uz": 7048,
      "▁dow": 7049,
      "▁emr": 7050,
      "▁yukse": 7051,
      "▁ceket": 7052,
      "▁oc": 7053,
      "▁ekmek": 7054,
      "▁koca": 7055,
      "▁dr": 7056,
      "attle": 7057,
      "anını": 7058,
      "▁istedigini": 7059,
      "▁ayrıca": 7060,
      "▁kutup": 7061,
      "mıstı": 7062,
      "▁ac": 7063,
      "▁kud": 7064,
      "iya": 7065,
      "gın": 7066,
      "▁proje": 7067,
      "▁yerden": 7068,
      "▁yemekler": 7069,
      "biye": 7070,
      "▁sandal": 7071,
      "ılım": 7072,
      "▁puanlama": 7073,
      "▁ra": 7074,
      "▁gozuyle": 7075,
      "▁yaptır": 7076,
      "▁arası": 7077,
      "▁yıllardır": 7078,
      "▁niz": 7079,
      "▁sekilde": 7080,
      "▁kasaba": 7081,
      "▁otel": 7082,
      "▁getir": 7083,
      "inda": 7084,
      "▁aktiv": 7085,
      "tıg": 7086,
      "▁mufet": 7087,
      "▁kıza": 7088,
      "▁iskel": 7089,
      "▁olustur": 7090,
      "▁ayına": 7091,
      "amdan": 7092,
      "di": 7093,
      "▁istih": 7094,
      "▁yazı": 7095,
      "▁bufe": 7096,
      "▁yemekleri": 7097,
      "▁dostluk": 7098,
      "▁ali": 7099,
      "▁cesitliligi": 7100,
      "▁icim": 7101,
      "mam": 7102,
      "▁evine": 7103,
      "▁ham": 7104,
      "▁komp": 7105,
      "▁sırt": 7106,
      "aco": 7107,
      "▁bors": 7108,
      "▁alay": 7109,
      "▁yansı": 7110,
      "▁icerisinde": 7111,
      "lev": 7112,
      "taj": 7113,
      "kul": 7114,
      "isiyle": 7115,
      "▁surdu": 7116,
      "ey": 7117,
      "▁sizin": 7118,
      "atist": 7119,
      "arası": 7120,
      "▁kimsenin": 7121,
      "▁prof": 7122,
      "▁adımlarla": 7123,
      "▁faaliyetleri": 7124,
      "▁kup": 7125,
      "▁kulag": 7126,
      "▁eve": 7127,
      "▁dakika": 7128,
      "▁uretim": 7129,
      "sa": 7130,
      "▁etk": 7131,
      "▁lira": 7132,
      "▁yi": 7133,
      "▁ce": 7134,
      "▁dukk": 7135,
      "mki": 7136,
      "▁bizimle": 7137,
      "liligini": 7138,
      "▁kolon": 7139,
      "medik": 7140,
      "▁yemegi": 7141,
      "▁gelir": 7142,
      "▁kurumu": 7143,
      "▁cap": 7144,
      "▁organizasyon": 7145,
      "▁cizg": 7146,
      "lantı": 7147,
      "▁kullanım": 7148,
      "▁etraf": 7149,
      "▁belki": 7150,
      "▁sektorunde": 7151,
      "▁hissed": 7152,
      "▁dieg": 7153,
      "▁tespit": 7154,
      "til": 7155,
      "▁aksama": 7156,
      "meyi": 7157,
      "▁personeli": 7158,
      "▁satısları": 7159,
      "▁dosya": 7160,
      "▁kada": 7161,
      "▁cinayet": 7162,
      "▁altın": 7163,
      "▁peyniri": 7164,
      "▁kendim": 7165,
      "[PAD]": 7166,
      "▁olamaz": 7167,
      "▁asagıya": 7168,
      "▁aklı": 7169,
      "▁ingil": 7170,
      "▁tasar": 7171,
      "▁gununun": 7172,
      "▁grubun": 7173,
      "dikler": 7174,
      "ibe": 7175,
      "ake": 7176,
      "▁sukur": 7177,
      "sat": 7178,
      "▁sergi": 7179,
      "▁demokras": 7180,
      "▁onlem": 7181,
      "masız": 7182,
      "▁hele": 7183,
      "▁sizi": 7184,
      "▁kenar": 7185,
      "▁gorusme": 7186,
      "ıya": 7187,
      "▁cey": 7188,
      "▁muhalif": 7189,
      "▁cumhuriyetci": 7190,
      "▁sendik": 7191,
      "anın": 7192,
      "piyat": 7193,
      "agına": 7194,
      "cılıg": 7195,
      "▁kapısı": 7196,
      "▁ise": 7197,
      "▁muhtar": 7198,
      "▁edip": 7199,
      "meye": 7200,
      "▁kral": 7201,
      "emedi": 7202,
      "▁guleryuzluydu": 7203,
      "eticiler": 7204,
      "▁kıvılc": 7205,
      "memis": 7206,
      "▁hazine": 7207,
      "dıktan": 7208,
      "▁pant": 7209,
      "anti": 7210,
      "▁res": 7211,
      "▁konumundan": 7212,
      "▁ismi": 7213,
      "emizin": 7214,
      "▁gecirdi": 7215,
      "▁mehmet": 7216,
      "▁ozel": 7217,
      "▁odasi": 7218,
      "▁gu": 7219,
      "allı": 7220,
      "▁olabilir": 7221,
      "▁sular": 7222,
      "lemis": 7223,
      "do": 7224,
      "▁dudak": 7225,
      "enin": 7226,
      "▁naz": 7227,
      "▁duzeyde": 7228,
      "▁ogrenmek": 7229,
      "▁kaybı": 7230,
      "▁zamanlarda": 7231,
      "▁tabak": 7232,
      "▁baglantı": 7233,
      "\\/": 7234,
      "lerim": 7235,
      "▁sahit": 7236,
      "▁kayıt": 7237,
      "▁alım-satım": 7238,
      "sekiz": 7239,
      "eleri": 7240,
      "▁ticarette": 7241,
      "▁hizmetci": 7242,
      "▁gozle": 7243,
      "▁ekm": 7244,
      "▁cumhur": 7245,
      "ısına": 7246,
      "▁pencere": 7247,
      "▁ikinci": 7248,
      "▁topluluk": 7249,
      "▁huc": 7250,
      "▁iki": 7251,
      "▁ogret": 7252,
      "▁gecti": 7253,
      "par": 7254,
      "▁havayol": 7255,
      "▁ekonom": 7256,
      "▁adayı": 7257,
      "yuz": 7258,
      "▁tartısma": 7259,
      "▁depo": 7260,
      "▁cal": 7261,
      "▁uyustur": 7262,
      "si": 7263,
      "estiri": 7264,
      "▁harcamaları": 7265,
      "▁mem": 7266,
      "▁edebiyat": 7267,
      "▁masa": 7268,
      "▁utan": 7269,
      "▁altında": 7270,
      "▁dalg": 7271,
      "▁menfaat": 7272,
      "▁mada": 7273,
      "▁karsılıgı": 7274,
      "▁ressam": 7275,
      "▁denetim": 7276,
      "▁ragmen": 7277,
      "▁sanatcı": 7278,
      "▁baskanı": 7279,
      "▁pet": 7280,
      "▁bina": 7281,
      "▁asır": 7282,
      "▁ih": 7283,
      "▁mesel": 7284,
      "biy": 7285,
      "ani": 7286,
      "▁alanda": 7287,
      "etic": 7288,
      "▁butun": 7289,
      "▁sm": 7290,
      "▁kampanya": 7291,
      "▁bin": 7292,
      "▁direk": 7293,
      "▁orn": 7294,
      "▁misiniz": 7295,
      "ahat": 7296,
      "meden": 7297,
      "▁gunlerde": 7298,
      "▁ser": 7299,
      "▁vergisi": 7300,
      "elle": 7301,
      "▁arkad": 7302,
      "▁konularda": 7303,
      "arım": 7304,
      "▁kaza": 7305,
      "▁ramaz": 7306,
      "▁danıs": 7307,
      "ren": 7308,
      "eyim": 7309,
      "▁yukum": 7310,
      "▁salonunda": 7311,
      "▁sul": 7312,
      "▁baltimore": 7313,
      "▁baltimore'ye": 7314,
      "▁sit": 7315,
      "▁seyirci": 7316,
      "▁bahs": 7317,
      "▁suda": 7318,
      "▁hanım": 7319,
      "▁ilgi": 7320,
      "▁gunesin": 7321,
      "▁nelerdir": 7322,
      "▁ad": 7323,
      "▁dusunuyorum": 7324,
      "▁telgraf": 7325,
      "▁cocuk": 7326,
      "▁babası": 7327,
      "gim": 7328,
      "▁cocuklu": 7329,
      "▁univers": 7330,
      "▁anahtar": 7331,
      "▁calısıyor": 7332,
      "tal": 7333,
      "istim": 7334,
      "▁dolas": 7335,
      "▁sayg": 7336,
      "▁memnuniyeti": 7337,
      "▁vurdu": 7338,
      "▁hissenin": 7339,
      "▁editor": 7340,
      "turdu": 7341,
      "▁fırsatı": 7342,
      "▁verim": 7343,
      "▁bırak": 7344,
      "▁yiyecek": 7345,
      "▁istan": 7346,
      "▁derin": 7347,
      "yen": 7348,
      "▁gerceklestir": 7349,
      "hanede": 7350,
      "▁endis": 7351,
      "▁basamak": 7352,
      "▁durus": 7353,
      "▁uyesi": 7354,
      "▁size": 7355,
      "▁doları": 7356,
      "ebilmek": 7357,
      "▁deyim": 7358,
      "liy": 7359,
      "▁kisiyi": 7360,
      "indi": 7361,
      "▁finansman": 7362,
      "▁gures": 7363,
      "▁oyunlar": 7364,
      "▁burnu": 7365,
      "▁ceyrekte": 7366,
      "▁malzemeleri": 7367,
      "▁gorunuyor": 7368,
      "▁kurtaj": 7369,
      "▁men": 7370,
      "▁pos": 7371,
      "▁yuzume": 7372,
      "makla": 7373,
      "▁sıkınt": 7374,
      "okol": 7375,
      "▁tasın": 7376,
      "na": 7377,
      "ub": 7378,
      "embe": 7379,
      "▁nihayet": 7380,
      "▁derecede": 7381,
      "▁bag": 7382,
      "ını": 7383,
      "cının": 7384,
      "▁sik": 7385,
      "mi": 7386,
      "\\": 7387,
      "▁buzdol": 7388,
      "▁gorul": 7389,
      "▁tan": 7390,
      "▁toplantısında": 7391,
      "lının": 7392,
      "yasal": 7393,
      "▁anay": 7394,
      "▁kanat": 7395,
      "▁bagıs": 7396,
      "▁devralma": 7397,
      "lılıg": 7398,
      "idi": 7399,
      "▁kapas": 7400,
      "▁ekmegi": 7401,
      "▁yuzyılın": 7402,
      "st": 7403,
      "inin": 7404,
      "diginden": 7405,
      "▁sakız": 7406,
      "▁hayatımda": 7407,
      "▁hizmetten": 7408,
      "▁annemle": 7409,
      "amba": 7410,
      "▁dusuncelerini": 7411,
      "▁aktor": 7412,
      "▁cesitleri": 7413,
      "unden": 7414,
      "dat": 7415,
      "▁haft": 7416,
      "▁yerde": 7417,
      "▁kursun": 7418,
      "iber": 7419,
      "cılar": 7420,
      "▁yapacak": 7421,
      "sıyla": 7422,
      "▁pazarı": 7423,
      "▁itiraz": 7424,
      "▁domates": 7425,
      "ecek": 7426,
      "▁bile": 7427,
      "▁nes": 7428,
      "ladılar": 7429,
      "▁gulums": 7430,
      "hur": 7431,
      "▁ek": 7432,
      "▁fikr": 7433,
      "▁restor": 7434,
      "▁yonel": 7435,
      "▁amc": 7436,
      "▁islerini": 7437,
      "▁alma": 7438,
      "▁payını": 7439,
      "▁saglam": 7440,
      "▁yakinlar": 7441,
      "sacak": 7442,
      "▁toh": 7443,
      "▁ortal": 7444,
      "▁kayn": 7445,
      "▁mevduat": 7446,
      "▁elb": 7447,
      "▁sektoru": 7448,
      "▁etti": 7449,
      "▁sahs": 7450,
      "aralı": 7451,
      "▁soyler": 7452,
      "▁acıklam": 7453,
      "▁yani": 7454,
      "▁iflas": 7455,
      "▁hab": 7456,
      "▁19": 7457,
      "ucu": 7458,
      "▁halinde": 7459,
      "bus": 7460,
      "ami": 7461,
      "▁vagon": 7462,
      "ında": 7463,
      "▁35": 7464,
      "▁kir": 7465,
      "esiyle": 7466,
      "▁yor": 7467,
      "ee": 7468,
      "▁sozlerini": 7469,
      "▁komit": 7470,
      "▁send": 7471,
      "▁yiy": 7472,
      "▁vatan": 7473,
      "▁miktar": 7474,
      "lamayı": 7475,
      "▁vaz": 7476,
      "▁kol": 7477,
      "▁kuru": 7478,
      "▁ucusta": 7479,
      "▁fonları": 7480,
      "endir": 7481,
      "▁konser": 7482,
      "luk": 7483,
      "diklerini": 7484,
      "dir": 7485,
      "▁yonetic": 7486,
      ".3": 7487,
      "masından": 7488,
      "▁karakter": 7489,
      "▁bahcede": 7490,
      "▁sayısı": 7491,
      "▁acıga": 7492,
      "▁bulundu": 7493,
      "▁kapısından": 7494,
      "umuz": 7495,
      "eledi": 7496,
      "▁eksikligi": 7497,
      "▁sikint": 7498,
      "▁yapan": 7499,
      "▁psik": 7500,
      "▁boncuk": 7501,
      "lılar": 7502,
      "▁listele": 7503,
      "▁varlık": 7504,
      "up": 7505,
      "▁acısından": 7506,
      "▁kutu": 7507,
      "▁dest": 7508,
      "der": 7509,
      "mada": 7510,
      "▁sarım": 7511,
      "mıyordu": 7512,
      "ji": 7513,
      "▁birdenbire": 7514,
      "▁gizli": 7515,
      "'e": 7516,
      "▁kollarını": 7517,
      "▁miami": 7518,
      "▁fırt": 7519,
      "▁dig": 7520,
      "as": 7521,
      "ikler": 7522,
      "▁bagır": 7523,
      "▁las": 7524,
      "▁doga": 7525,
      "lilik": 7526,
      "▁sokaklarda": 7527,
      "▁kurulu": 7528,
      "▁emeklilik": 7529,
      "orm": 7530,
      "▁parasını": 7531,
      "▁kampanyalardan": 7532,
      "▁yurd": 7533,
      "▁hareketi": 7534,
      "▁sehrine": 7535,
      "▁gib": 7536,
      "▁beyan": 7537,
      "▁evden": 7538,
      "▁yazar": 7539,
      "▁ulkede": 7540,
      "▁kontr": 7541,
      "▁den": 7542,
      "▁gunes": 7543,
      "▁temel": 7544,
      "▁nokta": 7545,
      "▁devam": 7546,
      "▁rast": 7547,
      "▁anlat": 7548,
      "▁az": 7549,
      "▁suyu": 7550,
      "▁yirmi": 7551,
      "▁fiyata": 7552,
      "▁prosedur": 7553,
      "▁kolu": 7554,
      "eti": 7555,
      "▁uzat": 7556,
      "▁avuc": 7557,
      "anıt": 7558,
      "▁uretic": 7559,
      "tig": 7560,
      "▁meslek": 7561,
      "▁uzak": 7562,
      "imli": 7563,
      "agını": 7564,
      "q": 7565,
      "▁sırtına": 7566,
      "umlu": 7567,
      "▁renkli": 7568,
      "▁mey": 7569,
      "▁doların": 7570,
      "or": 7571,
      "▁ediyorum": 7572,
      "▁barıs": 7573,
      "▁pazarlık": 7574,
      "eren": 7575,
      "tat": 7576,
      "▁dile": 7577,
      "▁cok": 7578,
      "▁nef": 7579,
      "▁hatt": 7580,
      "▁ren": 7581,
      "▁okuz": 7582,
      "▁meclis": 7583,
      "▁bankalar": 7584,
      "itr": 7585,
      "▁bic": 7586,
      "▁met": 7587,
      "▁sarf": 7588,
      "eyh": 7589,
      "▁olursa": 7590,
      "▁dere": 7591,
      "▁animasyonlar": 7592,
      "▁pist": 7593,
      "▁ortak": 7594,
      "▁seyden": 7595,
      "▁bulgur": 7596,
      "ligi": 7597,
      "▁bugun": 7598,
      "he": 7599,
      "yan": 7600,
      "▁gonl": 7601,
      "▁0.": 7602,
      "▁icini": 7603,
      "▁kocası": 7604,
      "▁;": 7605,
      "▁kullanı": 7606,
      "emmel": 7607,
      "▁erkek": 7608,
      "▁sonunda": 7609,
      "▁merkezine": 7610,
      "gre": 7611,
      "tim": 7612,
      "▁plan": 7613,
      "▁dunyasında": 7614,
      "gunu": 7615,
      "▁yuzlu": 7616,
      "ie": 7617,
      "▁hisseye": 7618,
      "▁dortluk": 7619,
      "usten": 7620,
      "▁bunlar": 7621,
      "uzlu": 7622,
      "▁olm": 7623,
      "inler": 7624,
      "▁topluma": 7625,
      "▁numar": 7626,
      "aydi": 7627,
      "▁cogu": 7628,
      "ut": 7629,
      "▁iliskileri": 7630,
      "▁emek": 7631,
      "▁buz": 7632,
      "▁mola": 7633,
      "▁sonucu": 7634,
      "▁hani": 7635,
      "▁tesekkurler": 7636,
      "▁ayagına": 7637,
      "▁corba": 7638,
      "ir": 7639,
      "▁aydınlık": 7640,
      "▁yuzme": 7641,
      "▁dısarıya": 7642,
      "▁yon": 7643,
      "▁beyin": 7644,
      "▁kiz": 7645,
      "▁ayar": 7646,
      "▁seytan": 7647,
      "▁belirtti": 7648,
      "▁kadının": 7649,
      "amıza": 7650,
      "▁dal": 7651,
      "▁fiyatlarının": 7652,
      "0-": 7653,
      "▁jandar": 7654,
      "imdi": 7655,
      "▁siz": 7656,
      "▁yemeklerin": 7657,
      "tıl": 7658,
      "▁verildi": 7659,
      "▁kelimeyle": 7660,
      "▁ber": 7661,
      "▁bura": 7662,
      "meger": 7663,
      "edav": 7664,
      "amac": 7665,
      "usuyla": 7666,
      "iyla": 7667,
      "ı": 7668,
      "▁zır": 7669,
      "▁ihtir": 7670,
      "uncu": 7671,
      "▁oraya": 7672,
      "▁kendileri": 7673,
      "▁evinde": 7674,
      "▁sonucunda": 7675,
      "enlere": 7676,
      "▁topr": 7677,
      "▁olmay": 7678,
      "arı": 7679,
      "▁uyan": 7680,
      "▁tasarısı": 7681,
      "▁ısık": 7682,
      "ebilecek": 7683,
      "▁adamlar": 7684,
      "▁makal": 7685,
      "▁as": 7686,
      "▁atlan": 7687,
      "keti": 7688,
      "▁tuttu": 7689,
      "▁programı": 7690,
      "▁resmi": 7691,
      "▁olmad": 7692,
      "▁gars": 7693,
      "ikat": 7694,
      "▁durgunluk": 7695,
      "▁mav": 7696,
      "elli": 7697,
      "▁milleti": 7698,
      "▁koydu": 7699,
      "▁tohum": 7700,
      "▁ucagın": 7701,
      "▁45": 7702,
      "lastır": 7703,
      "▁oglum": 7704,
      "a'da": 7705,
      "▁kultur": 7706,
      "▁.\"": 7707,
      "▁zarar": 7708,
      "▁sesler": 7709,
      "rarak": 7710,
      "▁ellerinde": 7711,
      "▁bakanı": 7712,
      "uzluydu": 7713,
      "▁corap": 7714,
      "aklı": 7715,
      "▁laz": 7716,
      "undan": 7717,
      "lu": 7718,
      "dak": 7719,
      "kan": 7720,
      "sal": 7721,
      "▁pazartesi": 7722,
      "and": 7723,
      "akal": 7724,
      "sef": 7725,
      "▁bec": 7726,
      "▁sir": 7727,
      "ıklık": 7728,
      "▁toplam": 7729,
      "▁yuregi": 7730,
      "▁kaliteye": 7731,
      "▁dıs": 7732,
      "uguna": 7733,
      "▁kep": 7734,
      "lerini": 7735,
      "ıh": 7736,
      "▁iskem": 7737,
      "layan": 7738,
      "▁tıras": 7739,
      "ırk": 7740,
      "▁olayın": 7741,
      "▁giyim": 7742,
      "lasmıs": 7743,
      "iyordu": 7744,
      "▁kose": 7745,
      "▁ayakk": 7746,
      "▁bıy": 7747,
      "▁gecesi": 7748,
      "madı": 7749,
      "land": 7750,
      "▁ortasına": 7751,
      "▁gogus": 7752,
      "urdu": 7753,
      "▁sil": 7754,
      "dur": 7755,
      "▁bazıları": 7756,
      "▁masraf": 7757,
      "▁torun": 7758,
      "ur": 7759,
      "▁city'den": 7760,
      "▁sav": 7761,
      "▁kun": 7762,
      "▁kumar": 7763,
      "▁olayı": 7764,
      "▁vol": 7765,
      "▁opsiyon": 7766,
      "▁bakkal": 7767,
      "larımızı": 7768,
      "maları": 7769,
      "osu": 7770,
      "▁demektir": 7771,
      "▁heykel": 7772,
      "▁soylemek": 7773,
      "▁yakinlarima": 7774,
      "%": 7775,
      "ust": 7776,
      "▁kapattı": 7777,
      "▁lokanta": 7778,
      "▁artısı": 7779,
      "▁parm": 7780,
      "▁mesele": 7781,
      "▁mas": 7782,
      "▁kon": 7783,
      "engin": 7784,
      "▁manz": 7785,
      "tıgı": 7786,
      "▁fasul": 7787,
      "▁savun": 7788,
      "ekti": 7789,
      "lasman": 7790,
      "▁sikayet": 7791,
      "ması": 7792,
      "▁perform": 7793,
      "alet": 7794,
      "sarak": 7795,
      "esiz": 7796,
      "gınlık": 7797,
      "▁sozles": 7798,
      "▁es": 7799,
      "▁rutubet": 7800,
      "▁mis": 7801,
      "▁henuz": 7802,
      "▁anlam": 7803,
      "ende": 7804,
      "▁uyku": 7805,
      "ları": 7806,
      "▁askı": 7807,
      "adet": 7808,
      "▁protesto": 7809,
      "▁itibar": 7810,
      "▁ket": 7811,
      "▁tarihin": 7812,
      "▁demek": 7813,
      "▁turn": 7814,
      "ediyor": 7815,
      "dut": 7816,
      "▁3'ten": 7817,
      "▁sirketleri": 7818,
      "▁sigorta": 7819,
      "▁cuv": 7820,
      "▁tari": 7821,
      "▁macı": 7822,
      "▁kasık": 7823,
      "▁insa": 7824,
      "'u": 7825,
      "000": 7826,
      "mesinden": 7827,
      "▁manzarasi": 7828,
      "div": 7829,
      "▁yur": 7830,
      "?": 7831,
      "▁taleb": 7832,
      "▁kapıları": 7833,
      "▁duzenlem": 7834,
      "▁darbuk": 7835,
      "▁davaya": 7836,
      "▁ilkbah": 7837,
      "eticisi": 7838,
      "▁karsılastır": 7839,
      "▁etrafa": 7840,
      "imiza": 7841,
      "▁artırmak": 7842,
      "▁olmaktan": 7843,
      "▁hayret": 7844,
      "▁atmak": 7845,
      "digini": 7846,
      "▁yuze": 7847,
      "▁koyu": 7848,
      "▁tabii": 7849,
      "▁kal": 7850,
      "▁korku": 7851,
      "▁sim": 7852,
      "▁yok": 7853,
      "▁hicbiri": 7854,
      "▁pabuc": 7855,
      ".5": 7856,
      "▁ongoru": 7857,
      "▁hiz": 7858,
      "▁sistemleri": 7859,
      "▁devir": 7860,
      "▁sun": 7861,
      "dıklarını": 7862,
      "▁iplik": 7863,
      "lenmis": 7864,
      "ustu": 7865,
      "▁kopru": 7866,
      "▁yum": 7867,
      "▁almıs": 7868,
      "da": 7869,
      "i": 7870,
      "▁guz": 7871,
      "▁vuc": 7872,
      "▁'": 7873,
      "ıtı": 7874,
      "▁iktidar": 7875,
      "es": 7876,
      "kır": 7877,
      "▁veriyor": 7878,
      "▁franc": 7879,
      "▁id": 7880,
      "▁miz": 7881,
      "▁kapı": 7882,
      "▁ucusların": 7883,
      "ıgın": 7884,
      "▁elde": 7885,
      "▁amac": 7886,
      "▁tahsis": 7887,
      "▁cep": 7888,
      "▁pisir": 7889,
      "un": 7890,
      "▁kablo": 7891,
      "▁konuda": 7892,
      "▁far": 7893,
      "▁kere": 7894,
      "▁mon": 7895,
      "makt": 7896,
      "▁anlasmanın": 7897,
      "▁zamanla": 7898,
      "▁ardında": 7899,
      "▁class": 7900,
      "▁istatist": 7901,
      "▁basar": 7902,
      "▁sahibinin": 7903,
      "must": 7904,
      "emm": 7905,
      "cum": 7906,
      "▁yuzey": 7907,
      "▁merdiv": 7908,
      "tor": 7909,
      "▁edilir": 7910,
      "▁yıllardan": 7911,
      "▁oturma": 7912,
      "▁and": 7913,
      "▁yıldızı": 7914,
      "▁yıla": 7915,
      "▁dogr": 7916,
      "'ndan": 7917,
      "▁6": 7918,
      "▁cocukları": 7919,
      "▁tarım": 7920,
      "otuz": 7921,
      "▁yanak": 7922,
      "▁olup": 7923,
      "▁ihtimal": 7924,
      "ia": 7925,
      "▁sozlerine": 7926,
      "ıyorum": 7927,
      "▁mark": 7928,
      "aman": 7929,
      "▁ayda": 7930,
      "▁icinden": 7931,
      "ez": 7932,
      "/8'e": 7933,
      "▁kab": 7934,
      "▁korum": 7935,
      "▁koms": 7936,
      "▁yere": 7937,
      "maktadır": 7938,
      "▁indir": 7939,
      "▁bak": 7940,
      "▁emlak": 7941,
      "min": 7942,
      "▁reng": 7943,
      "▁gazin": 7944,
      "ding": 7945,
      "derek": 7946,
      "▁oteldi": 7947,
      "'nda": 7948,
      "▁akr": 7949,
      "▁batı": 7950,
      "▁nob": 7951,
      "▁duserek": 7952,
      "▁bosa": 7953,
      "▁reddet": 7954,
      "lanı": 7955,
      "▁to": 7956,
      "iyorum": 7957,
      "▁nefes": 7958,
      "▁yangın": 7959,
      "▁dairesi": 7960,
      "ht": 7961,
      "imci": 7962,
      "▁ozur": 7963,
      "▁almayı": 7964,
      "▁sekret": 7965,
      "▁yap": 7966,
      "▁duny": 7967,
      "met": 7968,
      "ıyı": 7969,
      "▁31": 7970,
      "▁tank": 7971,
      "▁tanr": 7972,
      "▁aramız": 7973,
      "▁taksi": 7974,
      "▁seker": 7975,
      "1'de": 7976,
      "▁tutma": 7977,
      ".ceyr": 7978,
      "▁sozleri": 7979,
      "▁piyasasının": 7980,
      "▁sıkı": 7981,
      "urk": 7982,
      "▁arkadaslar": 7983,
      "▁tesh": 7984,
      "▁pam": 7985,
      "ız": 7986,
      "▁denver": 7987,
      "▁raporu": 7988,
      "lıktan": 7989,
      "▁burokrat": 7990,
      "▁bodr": 7991,
      "▁mobil": 7992,
      "▁kitapta": 7993,
      "enc": 7994,
      "▁ing": 7995,
      "▁tutarında": 7996,
      "▁doktora": 7997,
      "istir": 7998,
      "▁turk": 7999,
      "▁calisanlarin": 8000,
      "▁donuyor": 8001,
      "▁uyk": 8002,
      "▁yorgunluk": 8003,
      "▁superdi": 8004,
      "▁ası": 8005,
      "▁kesim": 8006,
      "▁kurb": 8007,
      "▁cadde": 8008,
      "▁otek": 8009,
      "erk": 8010,
      "ellikle": 8011,
      "alari": 8012,
      "▁borc": 8013,
      "▁vali": 8014,
      "▁gerek": 8015,
      "▁gercekten": 8016,
      "siniz": 8017,
      "▁faz": 8018,
      "▁disk": 8019,
      "▁hadis": 8020,
      "anı": 8021,
      "lugu": 8022,
      "▁duyg": 8023,
      "▁akın": 8024,
      "▁buradan": 8025,
      "ıstır": 8026,
      "▁andan": 8027,
      "▁ces": 8028,
      "▁gibiydi": 8029,
      "▁dogasi": 8030,
      "▁davranıs": 8031,
      "▁anneme": 8032,
      "▁hır": 8033,
      "▁yapılan": 8034,
      "_": 8035,
      "▁kapalı": 8036,
      "os": 8037,
      "▁kurtul": 8038,
      "▁icap": 8039,
      "▁endustrisi": 8040,
      "▁oteki": 8041,
      "ısını": 8042,
      "ayla": 8043,
      "▁burası": 8044,
      "anlık": 8045,
      "acılıgı": 8046,
      "▁bankası": 8047,
      "▁sarı": 8048,
      "ta": 8049,
      "▁fena": 8050,
      "▁varlıgını": 8051,
      "▁turu": 8052,
      "▁motor": 8053,
      "▁yitir": 8054,
      "▁zam": 8055,
      "▁portfoy": 8056,
      "▁pur": 8057,
      "tiler": 8058,
      "▁kaldır": 8059,
      "▁calısmak": 8060,
      "▁om": 8061,
      "▁umud": 8062,
      "▁caba": 8063,
      "▁kork": 8064,
      "▁gore": 8065,
      "ab": 8066,
      "liye": 8067,
      "mektedir": 8068,
      "▁butce": 8069,
      "▁telafi": 8070,
      "nd": 8071,
      "ini": 8072,
      "▁sabah": 8073,
      "▁sorular": 8074,
      "▁oranda": 8075,
      "▁bunları": 8076,
      "▁gormeye": 8077,
      "anlı": 8078,
      "▁islemleri": 8079,
      "phia": 8080,
      "lılık": 8081,
      "ist": 8082,
      "▁cagır": 8083,
      "▁egem": 8084,
      "▁fır": 8085,
      "▁calismasina": 8086,
      "▁kıv": 8087,
      "iza": 8088,
      "▁ort": 8089,
      "▁personelden": 8090,
      "▁konumunu": 8091,
      "▁adet": 8092,
      "anda": 8093,
      "ceyr": 8094,
      "ılıgında": 8095,
      "▁gelgelelim": 8096,
      "▁milliyet": 8097,
      "▁topu": 8098,
      "▁dos": 8099,
      "▁sehir": 8100,
      "▁aklına": 8101,
      "▁vaat": 8102,
      "lusu": 8103,
      "▁katk": 8104,
      "▁...": 8105,
      "'ne": 8106,
      "▁kadeh": 8107,
      "▁yukselerek": 8108,
      "▁babama": 8109,
      "▁onde": 8110,
      "▁saglamak": 8111,
      "°": 8112,
      "▁kaldırım": 8113,
      "▁stokları": 8114,
      "▁annesi": 8115,
      "▁cograf": 8116,
      "▁taham": 8117,
      "▁nas": 8118,
      "▁ruzgar": 8119,
      "▁sahib": 8120,
      "zet": 8121,
      "▁tırnak": 8122,
      "▁bosluk": 8123,
      "lenme": 8124,
      "▁hiss": 8125,
      "▁bankacılık": 8126,
      "iydi": 8127,
      "meyecegini": 8128,
      "isle": 8129,
      "dıgına": 8130,
      "▁elleri": 8131,
      "▁pil": 8132,
      "▁isgal": 8133,
      "vil": 8134,
      "cilik": 8135,
      "▁garsonlar": 8136,
      "deki": 8137,
      "▁gecer": 8138,
      "ormal": 8139,
      "▁suz": 8140,
      "▁made": 8141,
      "▁sirketlerinin": 8142,
      "▁)": 8143,
      "oy": 8144,
      "▁on": 8145,
      "▁iletisim": 8146,
      "▁uyarı": 8147,
      "▁anketi": 8148,
      "▁avantaj": 8149,
      "isleri": 8150,
      "▁15": 8151,
      "▁camasır": 8152,
      "ısma": 8153,
      "▁boylece": 8154,
      "▁stud": 8155,
      "▁ucretine": 8156,
      "▁ithalat": 8157,
      "meyen": 8158,
      "▁istis": 8159,
      "▁yurudu": 8160,
      "▁otom": 8161,
      "▁bunların": 8162,
      "▁of": 8163,
      "lıkta": 8164,
      "▁muhendis": 8165,
      "▁karsı": 8166,
      "▁aldım": 8167,
      "▁final": 8168,
      "ilmesine": 8169,
      "▁gor": 8170,
      "▁ucusunda": 8171,
      "▁ikram": 8172,
      "▁mumkun": 8173,
      "▁cukur": 8174,
      "ımdan": 8175,
      "▁bizim": 8176,
      "▁calısan": 8177,
      "asındaki": 8178,
      "▁malzeme": 8179,
      "andan": 8180,
      "▁bolun": 8181,
      "▁tesv": 8182,
      "▁bazı": 8183,
      "▁boy": 8184,
      "lenir": 8185,
      "▁danısman": 8186,
      "▁ajans": 8187,
      "▁duyguları": 8188,
      "▁angeles": 8189,
      "▁sogu": 8190,
      "▁geminin": 8191
    },
    "merges": [
      [
        "m",
        "iyor"
      ],
      [
        "▁sip",
        "ar"
      ],
      [
        "▁o",
        "daydi"
      ],
      [
        "▁b",
        "eden"
      ],
      [
        "▁fer",
        "y"
      ],
      [
        "▁k",
        "esi"
      ],
      [
        "▁made",
        "mki"
      ],
      [
        "▁",
        "dı"
      ],
      [
        "▁bir",
        "ligi"
      ],
      [
        "ap",
        "ark"
      ],
      [
        "▁o",
        "t"
      ],
      [
        "▁un",
        "ut"
      ],
      [
        "ik",
        "a"
      ],
      [
        "▁musteri",
        "lere"
      ],
      [
        "▁",
        "ut"
      ],
      [
        "▁alt",
        "ında"
      ],
      [
        "▁c",
        "ev"
      ],
      [
        "▁b",
        "ırak"
      ],
      [
        "▁sal",
        "ı"
      ],
      [
        "ıg",
        "ında"
      ],
      [
        "▁deger",
        "ini"
      ],
      [
        "▁meydan",
        "a"
      ],
      [
        "ım",
        "la"
      ],
      [
        "▁of",
        "k"
      ],
      [
        "▁anla",
        "t"
      ],
      [
        "▁olu",
        "yor"
      ],
      [
        "▁hayat",
        "ın"
      ],
      [
        "▁par",
        "anın"
      ],
      [
        "▁s",
        "id"
      ],
      [
        "▁tekn",
        "oloj"
      ],
      [
        "ad",
        "ar"
      ],
      [
        "▁sen",
        "in"
      ],
      [
        "▁yap",
        "mak"
      ],
      [
        "'t",
        "e"
      ],
      [
        "d",
        "ık"
      ],
      [
        "ist",
        "i"
      ],
      [
        "l",
        "esti"
      ],
      [
        "▁m",
        "it"
      ],
      [
        "dik",
        "lerini"
      ],
      [
        "▁ard",
        "ına"
      ],
      [
        "▁a",
        "r"
      ],
      [
        "c",
        "ut"
      ],
      [
        "un",
        "lu"
      ],
      [
        "▁gib",
        "iydi"
      ],
      [
        "▁an",
        "cak"
      ],
      [
        "d",
        "aki"
      ],
      [
        "▁bo",
        "ston"
      ],
      [
        "k",
        "ar"
      ],
      [
        "siy",
        "on"
      ],
      [
        "▁ot",
        "eldi"
      ],
      [
        "▁soru",
        "ları"
      ],
      [
        "ecek",
        "lerini"
      ],
      [
        "lı",
        "k"
      ],
      [
        "▁bo",
        "y"
      ],
      [
        "▁duy",
        "uru"
      ],
      [
        "▁mı",
        "y"
      ],
      [
        "▁ucus",
        "a"
      ],
      [
        "d",
        "il"
      ],
      [
        "ik",
        "at"
      ],
      [
        "▁is",
        "let"
      ],
      [
        "▁red",
        "detti"
      ],
      [
        "▁ca",
        "m"
      ],
      [
        "en",
        "den"
      ],
      [
        "▁oda",
        "dan"
      ],
      [
        "▁lam",
        "b"
      ],
      [
        "▁ihrac",
        "at"
      ],
      [
        "▁kurt",
        "ar"
      ],
      [
        "n",
        "i"
      ],
      [
        "▁kur",
        "ulu"
      ],
      [
        "▁cumhur",
        "iyet"
      ],
      [
        "at",
        "ını"
      ],
      [
        "▁ot",
        "el"
      ],
      [
        "▁kur",
        "am"
      ],
      [
        "lık",
        "ta"
      ],
      [
        "▁bal",
        "kon"
      ],
      [
        "▁fon",
        "ları"
      ],
      [
        "ır",
        "ı"
      ],
      [
        "▁harcama",
        "ları"
      ],
      [
        "at",
        "la"
      ],
      [
        "▁og",
        "lu"
      ],
      [
        "▁dısarı",
        "dan"
      ],
      [
        "▁ak",
        "tif"
      ],
      [
        "▁day",
        "an"
      ],
      [
        "▁havalim",
        "an"
      ],
      [
        "l",
        "ası"
      ],
      [
        "▁dedi",
        "k"
      ],
      [
        "lama",
        "ya"
      ],
      [
        "▁es",
        "i"
      ],
      [
        "▁mi",
        "s"
      ],
      [
        "▁t",
        "am"
      ],
      [
        "▁h",
        "ay"
      ],
      [
        "k",
        "ez"
      ],
      [
        "▁ilgil",
        "ilerdi"
      ],
      [
        "▁deger",
        "leri"
      ],
      [
        "od",
        "r"
      ],
      [
        "▁mes",
        "el"
      ],
      [
        "dıgın",
        "a"
      ],
      [
        "▁ur",
        "unu"
      ],
      [
        "▁sac",
        "ları"
      ],
      [
        "▁d",
        "av"
      ],
      [
        "lug",
        "a"
      ],
      [
        "▁sozc",
        "uk"
      ],
      [
        "d",
        "izli"
      ],
      [
        "▁at",
        "mak"
      ],
      [
        "acı",
        "ların"
      ],
      [
        "▁gec",
        "mis"
      ],
      [
        "▁don",
        "uyor"
      ],
      [
        "l",
        "s"
      ],
      [
        "▁yemek",
        "lerde"
      ],
      [
        "▁yan",
        "dan"
      ],
      [
        "▁calıs",
        "ması"
      ],
      [
        "▁goz",
        "unu"
      ],
      [
        "▁d",
        "ay"
      ],
      [
        "▁k",
        "ayı"
      ],
      [
        "▁et",
        "mem"
      ],
      [
        "▁sok",
        "ak"
      ],
      [
        "ecek",
        "sin"
      ],
      [
        "am",
        "ıs"
      ],
      [
        "▁r",
        "ol"
      ],
      [
        "▁uy",
        "ustur"
      ],
      [
        "▁v",
        "az"
      ],
      [
        "▁is",
        "te"
      ],
      [
        "▁m",
        "ide"
      ],
      [
        "▁el",
        "imi"
      ],
      [
        "imiz",
        "da"
      ],
      [
        "▁al",
        "eyh"
      ],
      [
        "▁d",
        "iy"
      ],
      [
        "d",
        "um"
      ],
      [
        "ı",
        "f"
      ],
      [
        "▁bah",
        "cı"
      ],
      [
        "▁ko",
        "c"
      ],
      [
        "▁tarih",
        "in"
      ],
      [
        "▁har",
        "c"
      ],
      [
        "r",
        "ken"
      ],
      [
        "▁p",
        "eki"
      ],
      [
        "▁tes",
        "aduf"
      ],
      [
        "b",
        "ilir"
      ],
      [
        "▁go",
        "turdu"
      ],
      [
        "▁guler",
        "yuzlu"
      ],
      [
        "▁kap",
        "at"
      ],
      [
        "▁il",
        "gili"
      ],
      [
        "▁anay",
        "asa"
      ],
      [
        "▁birbir",
        "ine"
      ],
      [
        "▁bil",
        "iyorum"
      ],
      [
        "▁cocuk",
        "ları"
      ],
      [
        "▁kayb",
        "ı"
      ],
      [
        "▁h",
        "ic"
      ],
      [
        "▁ed",
        "ebilir"
      ],
      [
        "▁olum",
        "lu"
      ],
      [
        "▁bask",
        "an"
      ],
      [
        "d",
        "ıgı"
      ],
      [
        "ev",
        "i"
      ],
      [
        "▁s",
        "ep"
      ],
      [
        "▁karsı",
        "lastır"
      ],
      [
        "▁kul",
        "ub"
      ],
      [
        "ız",
        "da"
      ],
      [
        "▁bas",
        "k"
      ],
      [
        "▁a",
        "l"
      ],
      [
        "▁basv",
        "ur"
      ],
      [
        "▁gi",
        "d"
      ],
      [
        "▁",
        "lu"
      ],
      [
        "an",
        "lara"
      ],
      [
        "▁can",
        "t"
      ],
      [
        "▁mak",
        "am"
      ],
      [
        "▁ul",
        "uslar"
      ],
      [
        "▁ha",
        "p"
      ],
      [
        "▁sig",
        "ort"
      ],
      [
        "▁yuz",
        "den"
      ],
      [
        "▁havayol",
        "larının"
      ],
      [
        "▁t",
        "atlı"
      ],
      [
        "el",
        "i"
      ],
      [
        "re",
        "et"
      ],
      [
        "▁",
        "ya"
      ],
      [
        "e",
        "si"
      ],
      [
        "▁m",
        "ir"
      ],
      [
        "▁yard",
        "ımı"
      ],
      [
        "▁cif",
        "t"
      ],
      [
        "it",
        "i"
      ],
      [
        "▁haz",
        "iran"
      ],
      [
        "g",
        "ım"
      ],
      [
        "▁cal",
        "gı"
      ],
      [
        "ai",
        "r"
      ],
      [
        "▁tur",
        "ist"
      ],
      [
        "▁ucus",
        "u"
      ],
      [
        "▁ic",
        "me"
      ],
      [
        "▁",
        "it"
      ],
      [
        "ci",
        "h"
      ],
      [
        "▁hat",
        "t"
      ],
      [
        "▁top",
        "lum"
      ],
      [
        "▁koy",
        "de"
      ],
      [
        "▁olay",
        "dan"
      ],
      [
        "▁yolcu",
        "luk"
      ],
      [
        "▁m",
        "udur"
      ],
      [
        "ır",
        "k"
      ],
      [
        "▁dı",
        "r"
      ],
      [
        "▁z",
        "ey"
      ],
      [
        "iyet",
        "ine"
      ],
      [
        "▁olmak",
        "tan"
      ],
      [
        "m",
        "eger"
      ],
      [
        "l",
        "edi"
      ],
      [
        "t",
        "or"
      ],
      [
        "▁bor",
        "cu"
      ],
      [
        "▁b",
        "ır"
      ],
      [
        "▁k",
        "et"
      ],
      [
        "meler",
        "i"
      ],
      [
        "▁veg",
        "as"
      ],
      [
        "h",
        "al"
      ],
      [
        "▁say",
        "g"
      ],
      [
        "▁om",
        "z"
      ],
      [
        "malı",
        "dır"
      ],
      [
        "enler",
        "i"
      ],
      [
        "▁",
        "."
      ],
      [
        "en",
        "e"
      ],
      [
        "▁uygul",
        "am"
      ],
      [
        "▁dav",
        "ul"
      ],
      [
        "▁oran",
        "ında"
      ],
      [
        "▁",
        "n"
      ],
      [
        "am",
        "aya"
      ],
      [
        "▁p",
        "us"
      ],
      [
        "▁t",
        "av"
      ],
      [
        "▁piyas",
        "anın"
      ],
      [
        "▁tes",
        "ir"
      ],
      [
        "at",
        "ist"
      ],
      [
        "▁ba",
        "na"
      ],
      [
        "▁k",
        "ırk"
      ],
      [
        "▁ha",
        "k"
      ],
      [
        "▁ala",
        "k"
      ],
      [
        "ka",
        "t"
      ],
      [
        "▁eksik",
        "ligi"
      ],
      [
        "d",
        "uk"
      ],
      [
        "▁mahkem",
        "esi"
      ],
      [
        "▁f",
        "as"
      ],
      [
        "▁v",
        "iski"
      ],
      [
        "▁a",
        "mma"
      ],
      [
        "▁t",
        "ay"
      ],
      [
        "lug",
        "u"
      ],
      [
        "▁iy",
        "il"
      ],
      [
        "▁c",
        "it"
      ],
      [
        "▁al",
        "i"
      ],
      [
        "▁bulundu",
        "gu"
      ],
      [
        "a",
        "rı"
      ],
      [
        "us",
        "te"
      ],
      [
        "▁bili",
        "m"
      ],
      [
        "▁konum",
        "undan"
      ],
      [
        "▁ol",
        "anlar"
      ],
      [
        "tır",
        "ma"
      ],
      [
        "▁y",
        "ıgın"
      ],
      [
        "▁mesaf",
        "e"
      ],
      [
        "▁gorus",
        "mek"
      ],
      [
        "mes",
        "inden"
      ],
      [
        "▁1",
        "/2"
      ],
      [
        "▁on",
        "em"
      ],
      [
        "▁s",
        "ar"
      ],
      [
        "▁kar",
        "n"
      ],
      [
        "▁an",
        "t"
      ],
      [
        "▁gerekc",
        "esiyle"
      ],
      [
        "▁giz",
        "li"
      ],
      [
        "▁tah",
        "ıl"
      ],
      [
        "▁al",
        "anı"
      ],
      [
        "ma",
        "sı"
      ],
      [
        "▁nuf",
        "us"
      ],
      [
        "'d",
        "a"
      ],
      [
        "▁yog",
        "urt"
      ],
      [
        "▁b",
        "ina"
      ],
      [
        "t",
        "is"
      ],
      [
        "f",
        "i"
      ],
      [
        "ya",
        "cag"
      ],
      [
        "▁par",
        "ayi"
      ],
      [
        "▁gen",
        "eral"
      ],
      [
        "▁teklif",
        "ler"
      ],
      [
        "▁p",
        "ap"
      ],
      [
        "▁ken",
        "ara"
      ],
      [
        "▁bey",
        "az"
      ],
      [
        "▁m",
        "obil"
      ],
      [
        "▁ya",
        "g"
      ],
      [
        "m",
        "ız"
      ],
      [
        "▁ma",
        "as"
      ],
      [
        "▁bulun",
        "an"
      ],
      [
        "t",
        "ıgını"
      ],
      [
        "▁hat",
        "ır"
      ],
      [
        "▁petr",
        "ol"
      ],
      [
        "▁dısar",
        "ıya"
      ],
      [
        "▁sa",
        "una"
      ],
      [
        "▁telefon",
        "u"
      ],
      [
        "t",
        "arı"
      ],
      [
        "lge",
        "lelim"
      ],
      [
        "▁sur",
        "en"
      ],
      [
        "▁",
        "in"
      ],
      [
        "▁bil",
        "iyor"
      ],
      [
        "er",
        "ik"
      ],
      [
        "y",
        "i"
      ],
      [
        "▁tuh",
        "af"
      ],
      [
        "▁kurul",
        "us"
      ],
      [
        "▁havaal",
        "anından"
      ],
      [
        "▁ed",
        "eb"
      ],
      [
        "lay",
        "arak"
      ],
      [
        "▁yon",
        "u"
      ],
      [
        "a",
        "lara"
      ],
      [
        "is",
        "inin"
      ],
      [
        "▁ak",
        "tiv"
      ],
      [
        "▁bask",
        "ısı"
      ],
      [
        "▁salon",
        "u"
      ],
      [
        "▁sorustur",
        "ma"
      ],
      [
        "▁yag",
        "mur"
      ],
      [
        "▁s",
        "ez"
      ],
      [
        "▁must",
        "eri"
      ],
      [
        "s",
        "ek"
      ],
      [
        "▁do",
        "r"
      ],
      [
        "'n",
        "da"
      ],
      [
        "▁gitti",
        "m"
      ],
      [
        "▁meden",
        "iyet"
      ],
      [
        "g",
        "r"
      ],
      [
        "ag",
        "uar"
      ],
      [
        "▁tut",
        "tu"
      ],
      [
        "▁kan",
        "al"
      ],
      [
        "▁tem",
        "er"
      ],
      [
        "▁ab",
        "lam"
      ],
      [
        "▁uc",
        "us"
      ],
      [
        "▁seb",
        "ze"
      ],
      [
        "▁oran",
        "i"
      ],
      [
        "▁yap",
        "tıgı"
      ],
      [
        "▁ca",
        "ba"
      ],
      [
        "iyet",
        "i"
      ],
      [
        "di",
        "g"
      ],
      [
        "▁kendis",
        "ini"
      ],
      [
        "▁uc",
        "uz"
      ],
      [
        "m",
        "esini"
      ],
      [
        "in",
        "dan"
      ],
      [
        "▁havaal",
        "anı"
      ],
      [
        "▁ediyor",
        "lar"
      ],
      [
        "larımız",
        "a"
      ],
      [
        "le",
        "v"
      ],
      [
        "▁iht",
        "im"
      ],
      [
        "m",
        "edigini"
      ],
      [
        "▁kom",
        "s"
      ],
      [
        "▁civ",
        "arı"
      ],
      [
        "▁miktar",
        "da"
      ],
      [
        "ma",
        "r"
      ],
      [
        "ay",
        "ol"
      ],
      [
        "▁efend",
        "im"
      ],
      [
        "▁f",
        "a"
      ],
      [
        "▁dev",
        "am"
      ],
      [
        "▁y",
        "uz"
      ],
      [
        "▁",
        "`"
      ],
      [
        "▁..",
        "\""
      ],
      [
        "▁soyl",
        "edi"
      ],
      [
        "▁sur",
        "e"
      ],
      [
        "g",
        "e"
      ],
      [
        "▁n",
        "ik"
      ],
      [
        "▁halk",
        "ın"
      ],
      [
        "ade",
        "m"
      ],
      [
        "oy",
        "a"
      ],
      [
        "▁basladı",
        "lar"
      ],
      [
        "▁",
        "h"
      ],
      [
        "et",
        "in"
      ],
      [
        "▁oldu",
        "gunu"
      ],
      [
        "▁dag",
        "ı"
      ],
      [
        "▁v",
        "ide"
      ],
      [
        "lar",
        "i"
      ],
      [
        "▁as",
        "agı"
      ],
      [
        "▁el",
        "imden"
      ],
      [
        "▁demokr",
        "asi"
      ],
      [
        "▁hikay",
        "e"
      ],
      [
        "t",
        "ur"
      ],
      [
        "▁zam",
        "anı"
      ],
      [
        "▁kaynak",
        "ları"
      ],
      [
        "▁ha",
        "lbu"
      ],
      [
        "d",
        "ası"
      ],
      [
        "▁goz",
        "yas"
      ],
      [
        "▁k",
        "urdu"
      ],
      [
        "▁ban",
        "yosu"
      ],
      [
        "▁i",
        "d"
      ],
      [
        "▁kimse",
        "ye"
      ],
      [
        "▁sosy",
        "al"
      ],
      [
        "i",
        "nci"
      ],
      [
        "▁ka",
        "f"
      ],
      [
        "▁fab",
        "rik"
      ],
      [
        "▁yurur",
        "luge"
      ],
      [
        "▁goz",
        "lem"
      ],
      [
        "gı",
        "t"
      ],
      [
        "g",
        "ı"
      ],
      [
        "gun",
        "u"
      ],
      [
        "▁tur",
        "lu"
      ],
      [
        "▁tab",
        "ak"
      ],
      [
        "▁yol",
        "unda"
      ],
      [
        "▁degiller",
        "di"
      ],
      [
        "▁sur",
        "ede"
      ],
      [
        "▁yen",
        "ilik"
      ],
      [
        "▁c",
        "ir"
      ],
      [
        "du",
        "gu"
      ],
      [
        "▁z",
        "ehir"
      ],
      [
        "▁dog",
        "r"
      ],
      [
        "▁ade",
        "ta"
      ],
      [
        "▁",
        "oy"
      ],
      [
        "▁duv",
        "ara"
      ],
      [
        "▁o",
        "den"
      ],
      [
        "▁h",
        "az"
      ],
      [
        "▁k",
        "ot"
      ],
      [
        "▁sof",
        "or"
      ],
      [
        "el",
        "t"
      ],
      [
        "▁park",
        "ı"
      ],
      [
        "▁gid",
        "is"
      ],
      [
        "▁pr",
        "ogram"
      ],
      [
        "▁gece",
        "leri"
      ],
      [
        "▁kan",
        "un"
      ],
      [
        "▁olm",
        "a"
      ],
      [
        "▁ol",
        "dugu"
      ],
      [
        "▁ha",
        "len"
      ],
      [
        "ta",
        "t"
      ],
      [
        "▁kal",
        "madı"
      ],
      [
        "▁vucu",
        "d"
      ],
      [
        "▁is",
        "g"
      ],
      [
[...]
