{
  "version": "1.0",
  "truncation": null,
  "padding": null,
  "added_tokens": [
    {
      "id": 3182,
      "content": "[PAD]",
      "single_word": false,
      "lstrip": false,
      "rstrip": false,
      "normalized": false,
      "special": true
    },
    {
      "id": 3725,
      "content": "[MASK]",
      "single_word": false,
      "lstrip": false,
      "rstrip": false,
      "normalized": false,
      "special": true
    },
    {
      "id": 3812,
      "content": "[UNK]",
      "single_word": false,
      "lstrip": false,
      "rstrip": false,
      "normalized": false,
      "special": true
    },
    {
      "id": 6407,
      "content": "[CLS]",
      "single_word": false,
      "lstrip": false,
      "rstrip": false,
      "normalized": false,
      "special": true
    },
    {
      "id": 6633,
      "content": "[SEP]",
      "single_word": false,
      "lstrip": false,
      "rstrip": false,
      "normalized": false,
      "special": true
    }
  ],
  "normalizer": {
    "type": "Sequence",
    "normalizers": [
      {
        "type": "NFD"
      },
      {
        "type": "Lowercase"
      },
      {
        "type": "StripAccents"
      }
    ]
  },
  "pre_tokenizer": {
    "type": "Sequence",
    "pretokenizers": [
      {
        "type": "Metaspace",
        "replacement": "▁",
        "prepend_scheme": "always",
        "split": true
      }
    ]
  },
  "post_processor": {
    "type": "TemplateProcessing",
    "single": [
      {
        "SpecialToken": {
          "id": "[CLS]",
          "type_id": 0
        }
      },
      {
        "Sequence": {
          "id": "A",
          "type_id": 0
        }
      },
      {
        "SpecialToken": {
          "id": "[SEP]",
          "type_id": 0
        }
      }
    ],
    "pair": [
      {
        "SpecialToken": {
          "id": "[CLS]",
          "type_id": 0
        }
      },
      {
        "Sequence": {
          "id": "A",
          "type_id": 0
        }
      },
      {
        "SpecialToken": {
          "id": "[SEP]",
          "type_id": 0
        }
      },
      {
        "Sequence": {
          "id": "B",
          "type_id": 1
        }
      },
      {
        "SpecialToken": {
          "id": "[SEP]",
          "type_id": 1
        }
      }
    ],
    "special_tokens": {
      "[CLS]": {
        "id": "[CLS]",
        "ids": [
          6407
        ],
        "tokens": [
          "[CLS]"
        ]
      },
      "[SEP]": {
        "id": "[SEP]",
        "ids": [
          6633
        ],
        "tokens": [
          "[SEP]"
        ]
      }
    }
  },
  "decoder": {
    "type": "Metaspace",
    "replacement": "▁",
    "prepend_scheme": "always",
    "split": true
  },
  "model": {
    "type": "WordPiece",
    "unk_token": "[UNK]",
    "continuing_subword_prefix": "##",
    "max_input_chars_per_word": 100,
    "vocab": {
      "▁milyardan": 0,
      "▁agız": 1,
      "▁ilim": 2,
      "▁yuzyılın": 3,
      "▁sif": 4,
      "##to": 5,
      "▁alamadim": 6,
      "▁chat": 7,
      "▁hast": 8,
      "▁yonel": 9,
      "▁mudahal": 10,
      "##dugunu": 11,
      "##elim": 12,
      "▁ec": 13,
      "▁ha": 14,
      "▁must": 15,
      "▁herkesi": 16,
      "▁aras": 17,
      "▁reddet": 18,
      "▁form": 19,
      "##una": 20,
      "▁uzeri": 21,
      "▁ticari": 22,
      "▁sırada": 23,
      "▁sarkı": 24,
      "▁ebeveyn": 25,
      "▁topragı": 26,
      "▁kapıyı": 27,
      "##son": 28,
      "##raber": 29,
      "▁taham": 30,
      "▁q": 31,
      "▁uzakta": 32,
      "▁olayı": 33,
      "▁tedar": 34,
      "▁esn": 35,
      "▁burnu": 36,
      "▁halbuki": 37,
      "##asır": 38,
      "▁alakasi": 39,
      "▁gittim": 40,
      "▁coz": 41,
      "▁cerey": 42,
      "▁pesinden": 43,
      "##anlardan": 44,
      "▁yeniden": 45,
      "▁otelde": 46,
      "▁artıs": 47,
      "▁buy": 48,
      "##lasyon": 49,
      "##lık": 50,
      "▁arasında": 51,
      "▁ozellikleri": 52,
      "▁standart": 53,
      "▁yazarı": 54,
      "▁ulasımı": 55,
      "▁y": 56,
      "▁olustur": 57,
      "▁yur": 58,
      "▁carsı": 59,
      "▁heyec": 60,
      "##han": 61,
      "▁gogus": 62,
      "▁aray": 63,
      "▁buc": 64,
      "▁sorusturma": 65,
      "▁u": 66,
      "##alarda": 67,
      "##cih": 68,
      "##'nde": 69,
      "▁fig": 70,
      "##landıgında": 71,
      "##izlik": 72,
      "▁once": 73,
      "▁indian": 74,
      "##mıstır": 75,
      "▁yılına": 76,
      "▁mar": 77,
      "▁bitir": 78,
      "▁ucuslarla": 79,
      "▁bilgisayar": 80,
      "##orma": 81,
      "▁hisseyi": 82,
      "▁tesp": 83,
      "▁ra": 84,
      "##hur": 85,
      "##'ı": 86,
      "▁rıh": 87,
      "▁spons": 88,
      "▁pencereden": 89,
      "▁kaydetti": 90,
      "▁sir": 91,
      "▁adı": 92,
      "▁havalimanı": 93,
      "▁trafik": 94,
      "▁temizlikten": 95,
      "▁sonucların": 96,
      "▁first": 97,
      "▁futbolcu": 98,
      "▁karabiber": 99,
      "▁ameliyat": 100,
      "▁temel": 101,
      "▁patlıc": 102,
      "##un": 103,
      "▁mucadele": 104,
      "##ladılar": 105,
      "##imizin": 106,
      "▁gozler": 107,
      "▁boy": 108,
      "▁iplik": 109,
      "▁ora": 110,
      "##itesi": 111,
      "▁tesisten": 112,
      "▁harikaydi": 113,
      "##se": 114,
      "▁kenarları": 115,
      "▁kirpik": 116,
      "▁macı": 117,
      "▁gecer": 118,
      "▁tum": 119,
      "▁yonetiminin": 120,
      "▁annem": 121,
      "▁duygusu": 122,
      "▁akl": 123,
      "▁hakkı": 124,
      "▁mutla": 125,
      "##meli": 126,
      "##isinden": 127,
      "##emeye": 128,
      "▁yan": 129,
      "##lerdi": 130,
      "▁acıklam": 131,
      "▁mat": 132,
      "▁ayının": 133,
      "▁baskanlıgı": 134,
      "##tır": 135,
      "▁bec": 136,
      "##1'de": 137,
      "▁saniye": 138,
      "##org": 139,
      "##igine": 140,
      "▁mani": 141,
      "▁kep": 142,
      "▁yetersizdi": 143,
      "▁plaj": 144,
      "##isk": 145,
      "▁mektup": 146,
      "##iyla": 147,
      "▁lezz": 148,
      "##'ne": 149,
      "▁yavr": 150,
      "##ladi": 151,
      "▁gayr": 152,
      "▁konusmaya": 153,
      "▁madde": 154,
      "▁yapti": 155,
      "##8'de": 156,
      "▁planını": 157,
      "▁pur": 158,
      "▁yuzluydu": 159,
      "##ugum": 160,
      "##adde": 161,
      "##muyor": 162,
      "▁inceleme": 163,
      "##elerde": 164,
      "##lın": 165,
      "▁prot": 166,
      "##lantı": 167,
      "##ucc": 168,
      "▁bolumu": 169,
      "##lilig": 170,
      "▁sozc": 171,
      "##'tan": 172,
      "##dan": 173,
      "##beri": 174,
      "##o'dan": 175,
      "▁mademki": 176,
      "▁ice": 177,
      "▁siy": 178,
      "##yan": 179,
      "▁yangın": 180,
      "##ieg": 181,
      "▁kulag": 182,
      "##ad": 183,
      "▁taks": 184,
      "”": 185,
      "▁bon": 186,
      "▁vak": 187,
      "▁skandal": 188,
      "▁bilmek": 189,
      "##acaklarını": 190,
      "▁bildir": 191,
      "##istirdi": 192,
      "▁yukselerek": 193,
      "▁koltuklar": 194,
      "▁dususu": 195,
      "##ydi": 196,
      "##lal": 197,
      "▁dua": 198,
      "▁ceza": 199,
      "▁endustrisi": 200,
      "▁insanlardan": 201,
      "▁evden": 202,
      "▁aslında": 203,
      "▁dip": 204,
      "##gı": 205,
      "▁pazarlık": 206,
      "##ill": 207,
      "▁alıcı": 208,
      "▁ortalık": 209,
      "▁gelistirme": 210,
      "▁sevg": 211,
      "▁merh": 212,
      "##ızı": 213,
      "##mesinin": 214,
      "▁rap": 215,
      "▁sekiz": 216,
      "##cıları": 217,
      "▁hayatımda": 218,
      "▁kim": 219,
      "##kez": 220,
      "▁yetkilileri": 221,
      "##amdan": 222,
      "▁tut": 223,
      "▁hayal": 224,
      "▁hesaba": 225,
      "▁milletvek": 226,
      "▁veyahut": 227,
      "▁sim": 228,
      "▁duygular": 229,
      "▁alısveris": 230,
      "▁ayn": 231,
      "▁prob": 232,
      "▁reviz": 233,
      "##amda": 234,
      "▁kaybet": 235,
      "▁etmez": 236,
      "##daki": 237,
      "▁bulunan": 238,
      "##'ye": 239,
      "▁koyun": 240,
      "▁ask": 241,
      "▁muamel": 242,
      "▁tanr": 243,
      "▁pazarlama": 244,
      "##ong": 245,
      "▁calısması": 246,
      "##1'e": 247,
      "▁dısına": 248,
      "▁dusuktu": 249,
      "##2'de": 250,
      "▁yaptıgını": 251,
      "▁evla": 252,
      "▁mikrop": 253,
      "▁toplantı": 254,
      "##dem": 255,
      "▁begenmedim": 256,
      "##uy": 257,
      "▁olumlu": 258,
      "▁ob": 259,
      "##nem": 260,
      "▁veririm": 261,
      "##iss": 262,
      "▁mud": 263,
      "##maca": 264,
      "▁alıskan": 265,
      "▁diger": 266,
      "▁hun": 267,
      "##ti": 268,
      "▁aklıma": 269,
      "##emizin": 270,
      "##uyorlardı": 271,
      "▁kavga": 272,
      "▁birbirler": 273,
      "▁ilg": 274,
      "▁kose": 275,
      "▁harcamaları": 276,
      "##bil": 277,
      "▁almıs": 278,
      "##lasmıs": 279,
      "▁kog": 280,
      "##cagım": 281,
      "##osunu": 282,
      "▁delta": 283,
      "▁bah": 284,
      "##ızın": 285,
      "##oker": 286,
      "##tıs": 287,
      "▁laborat": 288,
      "▁buyume": 289,
      "▁etkin": 290,
      "▁kendiler": 291,
      "▁guver": 292,
      "▁zeytiny": 293,
      "##erh": 294,
      "▁azalt": 295,
      "▁yedi": 296,
      "▁tı": 297,
      "▁n": 298,
      "▁cap": 299,
      "▁cukur": 300,
      "##kiler": 301,
      "▁tad": 302,
      "▁doktorlar": 303,
      "▁rop": 304,
      "##izasyon": 305,
      "▁acente": 306,
      "##imen": 307,
      "##adem": 308,
      "▁yolun": 309,
      "▁dr": 310,
      "▁malzemeleri": 311,
      "##memek": 312,
      "##erindeki": 313,
      "##l": 314,
      "##hiss": 315,
      "▁ayrılık": 316,
      "▁uy": 317,
      "▁sanki": 318,
      "▁bulut": 319,
      "▁esi": 320,
      "▁sureci": 321,
      "▁yasındaki": 322,
      "##lanıyor": 323,
      "▁gel": 324,
      "▁yıllarında": 325,
      "▁ekonominin": 326,
      "▁sonraki": 327,
      "▁adlı": 328,
      "▁han": 329,
      "##dev": 330,
      "▁muddet": 331,
      "▁sirketin": 332,
      "▁oyunun": 333,
      "▁ima": 334,
      "▁lan": 335,
      "##umuza": 336,
      "▁senetlerinin": 337,
      "▁hayata": 338,
      "▁gucu": 339,
      "▁yıllarda": 340,
      "▁bitki": 341,
      "##alet": 342,
      "▁daha": 343,
      "##ep": 344,
      "▁sav": 345,
      "▁lif": 346,
      "▁mimar": 347,
      "▁mahkum": 348,
      "▁toplamda": 349,
      "##bar": 350,
      "▁insanları": 351,
      "##ograf": 352,
      "##ebilirim": 353,
      "▁eline": 354,
      "▁samim": 355,
      "##arası": 356,
      "▁cumartesi": 357,
      "##ım": 358,
      "▁sikint": 359,
      "▁faturam": 360,
      "▁hayatını": 361,
      "▁sauna": 362,
      "▁gorusuldu": 363,
      "##ı": 364,
      "▁eksikligi": 365,
      "▁baltimore'ye": 366,
      "##iki": 367,
      "##malar": 368,
      "▁baslarını": 369,
      "▁bekledigini": 370,
      "▁kaptan": 371,
      "▁gunlerini": 372,
      "▁yemegi": 373,
      "▁cd": 374,
      "▁pilot": 375,
      "▁kopr": 376,
      "▁oranlar": 377,
      "▁sayfa": 378,
      "▁cek": 379,
      "##eyin": 380,
      "▁ogrenci": 381,
      "▁ki": 382,
      "▁isine": 383,
      "▁verdim": 384,
      "▁borcunu": 385,
      "##ger": 386,
      "▁alma": 387,
      "▁salı": 388,
      "▁serin": 389,
      "▁sars": 390,
      "##umuze": 391,
      "▁basbak": 392,
      "▁okuyucu": 393,
      "▁sanatcılar": 394,
      "▁bay": 395,
      "##be": 396,
      "▁durgunluk": 397,
      "▁veto": 398,
      "▁sıf": 399,
      "##icisi": 400,
      "▁dusundu": 401,
      "▁idare": 402,
      "##lıgıyla": 403,
      "▁durdur": 404,
      "▁muam": 405,
      "▁deri": 406,
      "▁baslıyor": 407,
      "▁ailenin": 408,
      "▁kurumlar": 409,
      "##lerin": 410,
      "▁co": 411,
      "▁genclik": 412,
      "▁gerektigini": 413,
      "##cum": 414,
      "▁altı": 415,
      "▁verir": 416,
      "##mu": 417,
      "▁ondan": 418,
      "##may": 419,
      "▁bekleniyor": 420,
      "▁yonetici": 421,
      "##umus": 422,
      "▁hukumet": 423,
      "##sekiz": 424,
      "▁sakal": 425,
      "▁ihtiyac": 426,
      "▁gokyuz": 427,
      "▁ilgililerdi": 428,
      "▁avukatları": 429,
      "##dıgımız": 430,
      "##isel": 431,
      "##likte": 432,
      "▁saglık": 433,
      "##uluk": 434,
      "▁baskalarına": 435,
      "▁ger": 436,
      "▁icini": 437,
      "▁yemegin": 438,
      "##evizyon": 439,
      "▁hayatta": 440,
      "##dı": 441,
      "##ator": 442,
      "▁genellikle": 443,
      "▁son": 444,
      "▁domates": 445,
      "▁mill": 446,
      "▁dunya": 447,
      "##gal": 448,
      "##e": 449,
      "▁parti": 450,
      "##urt": 451,
      "▁konuk": 452,
      "##ing": 453,
      "##cuları": 454,
      "▁ey": 455,
      "▁mesaf": 456,
      "▁hak": 457,
      "##ındı": 458,
      "▁yuz": 459,
      "▁gercekl": 460,
      "▁bus": 461,
      "##lin": 462,
      "##mi": 463,
      "▁cag": 464,
      "▁yerlere": 465,
      "▁dik": 466,
      "▁boston": 467,
      "▁kalkıs": 468,
      "▁cıkıs": 469,
      "▁yapı": 470,
      "##'ta": 471,
      "▁olmustu": 472,
      "##egiyle": 473,
      "##eyebilir": 474,
      "▁dov": 475,
      "▁tepeden": 476,
      "▁kitaplar": 477,
      "▁duv": 478,
      "▁hastalıgı": 479,
      "▁bahan": 480,
      "▁almak": 481,
      "▁zengin": 482,
      "▁tadını": 483,
      "▁kıymetler": 484,
      "▁temizligi": 485,
      "##dum": 486,
      "▁kalabal": 487,
      "▁tahvil": 488,
      "▁hab": 489,
      "▁mir": 490,
      "▁las": 491,
      "▁aydınlık": 492,
      "▁prof": 493,
      "▁canı": 494,
      "▁ekib": 495,
      "##tıgına": 496,
      "▁taraf": 497,
      "▁fark": 498,
      "▁hukumeti": 499,
      "▁tul": 500,
      "▁kelimeyle": 501,
      "##umuzun": 502,
      "##larından": 503,
      "##imize": 504,
      "▁fr": 505,
      "▁vardi": 506,
      "▁icten": 507,
      "▁calisanlardan": 508,
      "▁boynuna": 509,
      "##lıga": 510,
      "##lamayı": 511,
      "▁ilgilen": 512,
      "▁ilgilenmedi": 513,
      "▁dır": 514,
      "▁he": 515,
      "▁inc.": 516,
      "▁hayır": 517,
      "##at": 518,
      "▁havlu": 519,
      "##larının": 520,
      "▁akr": 521,
      "▁philadelphia'ya": 522,
      "▁guzeldi": 523,
      "▁kutu": 524,
      "▁ozur": 525,
      "▁defa": 526,
      "▁olm": 527,
      "▁sez": 528,
      "▁yuzume": 529,
      "▁koltuk": 530,
      "▁fiyatlandır": 531,
      "##larınız": 532,
      "##ıldıgında": 533,
      "▁benim": 534,
      ".": 535,
      "▁etkinlik": 536,
      "##asın": 537,
      "##atıl": 538,
      "▁uyeleri": 539,
      "▁milwa": 540,
      "▁hosg": 541,
      "▁kurdu": 542,
      "▁superdi": 543,
      "##alarla": 544,
      "▁cakmak": 545,
      "▁kral": 546,
      "▁18": 547,
      "z": 548,
      "▁?..": 549,
      "▁uzaktan": 550,
      "##lige": 551,
      "▁okudu": 552,
      "▁avuc": 553,
      "▁kariyer": 554,
      "▁kor": 555,
      "##ulan": 556,
      "▁bu": 557,
      "▁baskent": 558,
      "▁dest": 559,
      "▁bazıları": 560,
      "▁biber": 561,
      "▁yukselisle": 562,
      "▁cagır": 563,
      "▁6": 564,
      "##lara": 565,
      "▁kalkıyor": 566,
      "▁gonder": 567,
      "##erlik": 568,
      "▁vic": 569,
      "▁aktar": 570,
      "##elere": 571,
      "##tıgında": 572,
      "▁cenaz": 573,
      "▁aktiv": 574,
      "▁bekliyor": 575,
      "▁zaman": 576,
      "##sak": 577,
      "▁bolgenin": 578,
      "▁dukkanı": 579,
      "▁mekte": 580,
      "##makta": 581,
      "▁boyn": 582,
      "##o": 583,
      "▁yontem": 584,
      "▁kendisini": 585,
      "##dirme": 586,
      "▁iceride": 587,
      "##ecegim": 588,
      "▁iddi": 589,
      "##m": 590,
      "##dim": 591,
      "▁ruz": 592,
      "##lıktan": 593,
      "▁mektubu": 594,
      "▁h": 595,
      "##ci": 596,
      "▁sozcu": 597,
      "▁ocagın": 598,
      "##isine": 599,
      "##mesin": 600,
      "##lamam": 601,
      "▁cocukluk": 602,
      "▁ulusal": 603,
      "▁sabahın": 604,
      "##erdi": 605,
      "##emde": 606,
      "▁toront": 607,
      "▁dey": 608,
      "▁ayrıl": 609,
      "▁sayısını": 610,
      "▁``": 611,
      "##iren": 612,
      "▁yara": 613,
      "▁bugday": 614,
      "▁lok": 615,
      "▁verdigi": 616,
      "▁sık": 617,
      "▁ga": 618,
      "##'un": 619,
      "▁komp": 620,
      "▁bankası": 621,
      "▁agaclar": 622,
      "▁gitmis": 623,
      "▁kelimesi": 624,
      "##meye": 625,
      "##us": 626,
      "##gun": 627,
      "▁tasar": 628,
      "▁veriyor": 629,
      "##‘": 630,
      "##ar": 631,
      "▁mumkun": 632,
      "##hal": 633,
      "▁ortamda": 634,
      "##ık": 635,
      ",": 636,
      "▁fır": 637,
      "▁sahs": 638,
      "##ımın": 639,
      "▁yiyecekler": 640,
      "##mada": 641,
      "▁kimseyi": 642,
      "##ni": 643,
      "▁cocuklu": 644,
      "▁ens": 645,
      "##lamaya": 646,
      "▁seyler": 647,
      "▁telef": 648,
      "▁cocugu": 649,
      "##'nın": 650,
      "▁isgal": 651,
      "▁olmayı": 652,
      "##raf": 653,
      "▁ettim": 654,
      "▁zap": 655,
      "▁kacak": 656,
      "▁ellerine": 657,
      "▁imalat": 658,
      "▁icine": 659,
      "▁kopru": 660,
      "▁dukk": 661,
      "▁harit": 662,
      "▁seydi": 663,
      "▁planın": 664,
      "▁muamele": 665,
      "▁hiss": 666,
      "▁sirketlerinin": 667,
      "▁gozluk": 668,
      "##mıstı": 669,
      "##tern": 670,
      "##ıya": 671,
      "▁ilan": 672,
      "▁ellerinde": 673,
      "▁6'dan": 674,
      "▁viz": 675,
      "▁konu": 676,
      "▁seyinden": 677,
      "▁la": 678,
      "▁tatil": 679,
      "▁deh": 680,
      "##ıklarını": 681,
      "▁nikah": 682,
      "##all": 683,
      "▁olarak": 684,
      "▁krav": 685,
      "▁coluk": 686,
      "▁bıy": 687,
      "▁15": 688,
      "▁mo": 689,
      "▁apartman": 690,
      "##arım": 691,
      "##ist": 692,
      "▁arazi": 693,
      "▁perde": 694,
      "▁camur": 695,
      "▁seviy": 696,
      "▁”": 697,
      "▁pazartesi": 698,
      "▁seyir": 699,
      "▁firmaları": 700,
      "▁aktarmalı": 701,
      "##sur": 702,
      "▁belir": 703,
      "▁reh": 704,
      "▁un": 705,
      "▁olar": 706,
      "▁basında": 707,
      "##gunu": 708,
      "▁gercegi": 709,
      "▁urunlerin": 710,
      "▁ihale": 711,
      "##ısır": 712,
      "▁oda": 713,
      "▁gunes": 714,
      "▁dol": 715,
      "▁noktasına": 716,
      "▁mayıs": 717,
      "##culuk": 718,
      "▁ay": 719,
      "##isyon": 720,
      "▁faal": 721,
      "u": 722,
      "▁omuz": 723,
      "##ıda": 724,
      "▁kaf": 725,
      "▁ikti": 726,
      "▁unut": 727,
      "▁bono": 728,
      "▁davaya": 729,
      "▁francisco'ya": 730,
      "▁aga": 731,
      "▁yud": 732,
      "##lardır": 733,
      "▁merkezine": 734,
      "▁hijyen": 735,
      "##a'da": 736,
      "▁balayi": 737,
      "▁kullanmadim": 738,
      "▁meyv": 739,
      "▁yapan": 740,
      "▁biy": 741,
      "##apark": 742,
      "##ahat": 743,
      "##;": 744,
      "▁karsılastır": 745,
      "▁tazmin": 746,
      "▁dep": 747,
      "▁tehlik": 748,
      "##malı": 749,
      "##gimiz": 750,
      "▁duzey": 751,
      "##agında": 752,
      "▁istedi": 753,
      "##bi": 754,
      "##okr": 755,
      "▁bekl": 756,
      "▁tası": 757,
      "▁analizciler": 758,
      "##ota": 759,
      "▁teori": 760,
      "▁atlan": 761,
      "▁orman": 762,
      "##bur": 763,
      "▁keyif": 764,
      "▁kullanım": 765,
      "##ice": 766,
      "▁tahminlerinin": 767,
      "▁kadın": 768,
      "▁evini": 769,
      "▁tabir": 770,
      "##ırı": 771,
      "##ow": 772,
      "▁ur": 773,
      "▁oakland'a": 774,
      "▁munasebet": 775,
      "▁icinden": 776,
      "▁mesele": 777,
      "&": 778,
      "▁kravat": 779,
      "##ligini": 780,
      "▁nuf": 781,
      "▁sub": 782,
      "▁oyuncak": 783,
      "▁hisseler": 784,
      "▁sayı": 785,
      "▁tır": 786,
      "##-a": 787,
      "▁sened": 788,
      "▁oyuncu": 789,
      "##ini": 790,
      "▁ucuslar": 791,
      "▁edil": 792,
      "▁kuram": 793,
      "▁baslayacak": 794,
      "▁sehrine": 795,
      "▁sektorunde": 796,
      "▁=": 797,
      "##tusu": 798,
      "##aklık": 799,
      "p": 800,
      "▁cuv": 801,
      "▁bugunun": 802,
      "▁musteri": 803,
      "▁ogrenciler": 804,
      "▁esv": 805,
      "##a'nın": 806,
      "▁etrafa": 807,
      "##elen": 808,
      "##lerce": 809,
      "▁vatand": 810,
      "▁insanın": 811,
      "▁vazgec": 812,
      "▁dagdan": 813,
      "▁olcude": 814,
      "▁tavuk": 815,
      "##anet": 816,
      "##esil": 817,
      "▁prop": 818,
      "▁dokun": 819,
      "▁baz": 820,
      "##alle": 821,
      "##lamak": 822,
      "▁bors": 823,
      "▁odalarin": 824,
      "▁haberler": 825,
      "▁odedigim": 826,
      "▁edilmesi": 827,
      "##etti": 828,
      "▁rom": 829,
      "##iyeti": 830,
      "▁sehir": 831,
      "▁zamanda": 832,
      "##uki": 833,
      "▁sahibi": 834,
      "▁sapk": 835,
      "▁avantaj": 836,
      "▁imkanı": 837,
      "▁kup": 838,
      "##aduf": 839,
      "##leti": 840,
      "▁aram": 841,
      "▁bulgu": 842,
      "##tih": 843,
      "▁olus": 844,
      "##luyor": 845,
      "▁vide": 846,
      "##miyordu": 847,
      "##ster": 848,
      "▁yolculuk": 849,
      "▁intik": 850,
      "##acıların": 851,
      "▁iade": 852,
      "▁bakım": 853,
      "▁elestiri": 854,
      "▁fi": 855,
      "##gım": 856,
      "▁avru": 857,
      "▁tasavv": 858,
      "▁edilen": 859,
      "▁maliye": 860,
      "▁cuzdan": 861,
      "▁anay": 862,
      "▁hamur": 863,
      "▁derd": 864,
      "▁tabak": 865,
      "▁stratej": 866,
      "▁tiyatr": 867,
      "▁mer": 868,
      "##kce": 869,
      "##acaktır": 870,
      "▁alanında": 871,
      "▁kenar": 872,
      "▁kaybetti": 873,
      "▁denizi": 874,
      "▁isimler": 875,
      "▁kı": 876,
      "##ivers": 877,
      "▁kans": 878,
      "▁katk": 879,
      "##esinde": 880,
      "▁kapan": 881,
      "▁duruyor": 882,
      "##ars": 883,
      "##maya": 884,
      "##imi": 885,
      "▁ecz": 886,
      "##uzlu": 887,
      "▁pas": 888,
      "▁suda": 889,
      "▁yararlan": 890,
      "##ken": 891,
      "▁okuy": 892,
      "##egini": 893,
      "▁bunlar": 894,
      "▁continental": 895,
      "▁anlama": 896,
      "▁ekonomist": 897,
      "▁gitmeyi": 898,
      "▁laz": 899,
      "▁katılım": 900,
      "▁cocukları": 901,
      "##&": 902,
      "##ugunun": 903,
      "▁kalemi": 904,
      "##irmen": 905,
      "▁fırtına": 906,
      "▁kalem": 907,
      "▁sını": 908,
      "▁veya": 909,
      "▁onunla": 910,
      "▁sefer": 911,
      "▁oranları": 912,
      "▁gitmek": 913,
      "▁gelgelelim": 914,
      "##9'da": 915,
      "▁isler": 916,
      "▁akrab": 917,
      "▁annemin": 918,
      "▁muhafaza": 919,
      "##ıgının": 920,
      "▁kimseye": 921,
      "##ra": 922,
      "▁merk": 923,
      "▁197": 924,
      "▁vol": 925,
      "▁got": 926,
      "##0'": 927,
      "▁poz": 928,
      "▁berab": 929,
      "##ecek": 930,
      "##sinin": 931,
      "##yas": 932,
      "▁ev": 933,
      "▁simdiye": 934,
      "##eligini": 935,
      "▁guverte": 936,
      "▁yazık": 937,
      "▁kitabın": 938,
      "▁dayanıs": 939,
      "▁eglenc": 940,
      "▁amacı": 941,
      "▁meger": 942,
      "▁otede": 943,
      "▁pro": 944,
      "▁ink": 945,
      "##yalar": 946,
      "##let": 947,
      "▁telefonu": 948,
      "▁aralık": 949,
      "##atik": 950,
      "▁gerektir": 951,
      "▁dug": 952,
      "▁burokrat": 953,
      "▁pilotlar": 954,
      "▁fa": 955,
      "▁kararı": 956,
      "##lanma": 957,
      "▁fidan": 958,
      "▁diren": 959,
      "##ce": 960,
      "▁tem": 961,
      "##el": 962,
      "▁ozen": 963,
      "▁komutan": 964,
      "▁tercih": 965,
      "▁mini": 966,
      "##ıyorsun": 967,
      "##leri": 968,
      "##unku": 969,
      "▁`": 970,
      "▁arada": 971,
      "▁vapur": 972,
      "5": 973,
      "▁past": 974,
      "▁zaten": 975,
      "##ikler": 976,
      "▁hale": 977,
      "##liligini": 978,
      "##ikt": 979,
      "▁alımı": 980,
      "▁basın": 981,
      "▁ilgili": 982,
      "▁mantık": 983,
      "▁sis": 984,
      "▁onlar": 985,
      "▁iflas": 986,
      "▁pah": 987,
      "▁daima": 988,
      "##aların": 989,
      "▁ogr": 990,
      "▁rutub": 991,
      "▁eve": 992,
      "▁masaya": 993,
      "▁piyas": 994,
      "▁yılından": 995,
      "▁polisler": 996,
      "##acagını": 997,
      "##ıyor": 998,
      "▁muc": 999,
      "▁agustos": 1000,
      "▁ama": 1001,
      "▁degerleri": 1002,
      "▁pasif": 1003,
      "▁doviz": 1004,
      "▁aldıgı": 1005,
      "##laması": 1006,
      "▁sadakat": 1007,
      "▁halb": 1008,
      "##dıg": 1009,
      "##imden": 1010,
      "▁olmuyor": 1011,
      "▁varan": 1012,
      "▁farkı": 1013,
      "▁karayolu": 1014,
      "▁mahkeme": 1015,
      "▁ticareti": 1016,
      "##ayım": 1017,
      "▁olun": 1018,
      "##ciler": 1019,
      "▁yiyecekleri": 1020,
      "##emiyor": 1021,
      "▁kab": 1022,
      "▁hikay": 1023,
      "▁dum": 1024,
      "▁fabrikası": 1025,
      "▁elleri": 1026,
      "▁pır": 1027,
      "▁dısı": 1028,
      "##uyla": 1029,
      "▁ulus": 1030,
      "▁jur": 1031,
      "▁zaf": 1032,
      "##ıltı": 1033,
      "▁rehber": 1034,
      "▁kak": 1035,
      "▁bazi": 1036,
      "▁lam": 1037,
      "##sas": 1038,
      "▁sorustur": 1039,
      "▁ceviz": 1040,
      "##izin": 1041,
      "▁hisseye": 1042,
      "▁pozisyon": 1043,
      "▁hem": 1044,
      "▁sozlerini": 1045,
      "▁kapat": 1046,
      "##inleri": 1047,
      "▁ca": 1048,
      "▁meb": 1049,
      "##meyecek": 1050,
      "▁konforu": 1051,
      "▁oturma": 1052,
      "▁oteli": 1053,
      "▁som": 1054,
      "##stır": 1055,
      "▁iddia": 1056,
      "▁tabl": 1057,
      "##uyordu": 1058,
      "▁konular": 1059,
      "▁beyaz": 1060,
      "▁diz": 1061,
      "##undan": 1062,
      "▁test": 1063,
      "▁ceyreginde": 1064,
      "##00'": 1065,
      "▁salonun": 1066,
      "▁subat": 1067,
      "##ot": 1068,
      "▁zamana": 1069,
      "▁goturdu": 1070,
      "▁hakkinda": 1071,
      "##umun": 1072,
      "##iyi": 1073,
      "##ıyorlar": 1074,
      "▁islet": 1075,
      "▁sakat": 1076,
      "%": 1077,
      "▁gormez": 1078,
      "▁yonetim": 1079,
      "▁beraber": 1080,
      "▁kisiye": 1081,
      "▁kıy": 1082,
      "▁id": 1083,
      "▁org": 1084,
      "##ecegi": 1085,
      "##ro": 1086,
      "▁aday": 1087,
      "▁adımlarla": 1088,
      "▁hasıl": 1089,
      "▁sozunu": 1090,
      "▁indianapolis": 1091,
      "##landır": 1092,
      "▁kad": 1093,
      "▁mukem": 1094,
      "##acılık": 1095,
      "▁atlanta'dan": 1096,
      "▁sonucu": 1097,
      "▁yoldan": 1098,
      "▁stokları": 1099,
      "▁fonların": 1100,
      "▁icim": 1101,
      "▁yukse": 1102,
      "▁gozuyle": 1103,
      "▁futbol": 1104,
      "▁sevgil": 1105,
      "▁lirayı": 1106,
      "##iyetle": 1107,
      "▁cet": 1108,
      "▁evlerin": 1109,
      "▁var": 1110,
      "##lerek": 1111,
      "▁milyara": 1112,
      "▁alt": 1113,
      "▁lider": 1114,
      "▁dusunuyorum": 1115,
      "▁sofra": 1116,
      "##anmak": 1117,
      "▁donemin": 1118,
      "▁yansıt": 1119,
      "▁derde": 1120,
      "##ayan": 1121,
      "▁ciddi": 1122,
      "▁gormedim": 1123,
      "▁saatte": 1124,
      "▁aldıgını": 1125,
      "##uydu": 1126,
      "▁adını": 1127,
      "##ey": 1128,
      "▁charl": 1129,
      "▁bilet": 1130,
      "▁fir": 1131,
      "▁dibine": 1132,
      "▁depremin": 1133,
      "##til": 1134,
      "▁tıras": 1135,
      "▁toplumun": 1136,
      "▁uzerine": 1137,
      "▁lazım": 1138,
      "##odu": 1139,
      "▁tatmin": 1140,
      "▁kod": 1141,
      "▁karısı": 1142,
      "▁amerikalılar": 1143,
      "▁sezlong": 1144,
      "▁birim": 1145,
      "▁bocek": 1146,
      "▁kola": 1147,
      "▁yem": 1148,
      "▁bakır": 1149,
      "▁malı": 1150,
      "▁personel": 1151,
      "▁kisiyi": 1152,
      "▁cehen": 1153,
      "▁burn": 1154,
      "▁dolar": 1155,
      "▁fransız": 1156,
      "▁yılın": 1157,
      "##tia": 1158,
      "▁basar": 1159,
      "▁oncesi": 1160,
      "▁pa": 1161,
      "▁kolon": 1162,
      "▁yetkililer": 1163,
      "▁agzından": 1164,
      "▁ziyaret": 1165,
      "##acag": 1166,
      "##elerin": 1167,
      "▁hiz": 1168,
      "▁omz": 1169,
      "▁vakt": 1170,
      "▁gunun": 1171,
      "▁bil": 1172,
      "▁gunler": 1173,
      "##atır": 1174,
      "▁sahibinin": 1175,
      "##ısma": 1176,
      "▁dolardan": 1177,
      "▁teslim": 1178,
      "▁tutarında": 1179,
      "▁binanın": 1180,
      "▁birkac": 1181,
      "▁vadeli": 1182,
      "▁kırık": 1183,
      "▁makal": 1184,
      "▁kendisi": 1185,
      "##ıdır": 1186,
      "##medig": 1187,
      "▁telefonda": 1188,
      "▁butun": 1189,
      "##mektedir": 1190,
      "▁fiyatları": 1191,
      "▁kira": 1192,
      "##lestir": 1193,
      "▁pittsburgh": 1194,
      "▁ayaklarını": 1195,
      "##zer": 1196,
      "▁angel": 1197,
      "▁yal": 1198,
      "▁ıs": 1199,
      "▁mobil": 1200,
      "▁satısa": 1201,
      "▁petrol": 1202,
      "▁icimde": 1203,
      "▁isg": 1204,
      "▁ugras": 1205,
      "▁og": 1206,
      "▁get": 1207,
      "▁etrafını": 1208,
      "▁hakkında": 1209,
      "▁adet": 1210,
      "▁ortalıgı": 1211,
      "▁sorumluluk": 1212,
      "▁kalite": 1213,
      "▁aca": 1214,
      "▁yolunda": 1215,
      "▁sigortası": 1216,
      "##x": 1217,
      "##azla": 1218,
      "▁yer": 1219,
      "##lı": 1220,
      "##ilisi": 1221,
      "▁klim": 1222,
      "▁kot": 1223,
      "▁kurk": 1224,
      "▁halini": 1225,
      "##ida": 1226,
      "▁karsiligini": 1227,
      "▁oldugunu": 1228,
      "▁radyo": 1229,
      "▁zorluk": 1230,
      "▁etmiyor": 1231,
      "▁pir": 1232,
      "▁s": 1233,
      "▁sekl": 1234,
      "▁asag": 1235,
      "▁pay": 1236,
      "##lerinden": 1237,
      "▁disi": 1238,
      "▁varmak": 1239,
      "▁pantolon": 1240,
      "▁vali": 1241,
      "▁hacmi": 1242,
      "▁eti": 1243,
      "▁ihtimal": 1244,
      "##tıktan": 1245,
      "##ich": 1246,
      "▁diyor": 1247,
      "##derken": 1248,
      "##ecegiz": 1249,
      "▁havuzun": 1250,
      "##klerini": 1251,
      "▁yuklen": 1252,
      "##elir": 1253,
      "##ers": 1254,
      "▁yollarını": 1255,
      "▁uyku": 1256,
      "▁kolt": 1257,
      "▁dem": 1258,
      "▁ucus": 1259,
      "▁sistemi": 1260,
      "##det": 1261,
      "▁iyilik": 1262,
      "##enlere": 1263,
      "▁pitts": 1264,
      "▁hizmet": 1265,
      "##lanması": 1266,
      "▁kuvvetleri": 1267,
      "▁20": 1268,
      "▁ozgurluk": 1269,
      "▁ucretleri": 1270,
      "▁teseb": 1271,
      "▁ozlem": 1272,
      "▁kopek": 1273,
      "##ektedir": 1274,
      "▁kalan": 1275,
      "▁dedim": 1276,
      "##5'e": 1277,
      "##iligi": 1278,
      "▁rej": 1279,
      "##usunda": 1280,
      "##alarıyla": 1281,
      "▁santr": 1282,
      "##larini": 1283,
      "##isinda": 1284,
      "##tis": 1285,
      "▁nedenini": 1286,
      "##ayi": 1287,
      "##.5": 1288,
      "▁lez": 1289,
      "##ıc": 1290,
      "▁portakal": 1291,
      "▁vakit": 1292,
      "▁pros": 1293,
      "##uh": 1294,
      "▁medya": 1295,
      "▁kotu": 1296,
      "▁ayd": 1297,
      "##'nda": 1298,
      "1": 1299,
      "##mamız": 1300,
      "▁sair": 1301,
      "##ince": 1302,
      "##anti": 1303,
      "▁akla": 1304,
      "▁hisselerinin": 1305,
      "▁uzmanları": 1306,
      "##af": 1307,
      "▁kemer": 1308,
      "##raz": 1309,
      "▁hav": 1310,
      "▁sosyal": 1311,
      "▁hizmetleri": 1312,
      "##mak": 1313,
      "▁ade": 1314,
      "▁paranın": 1315,
      "▁celik": 1316,
      "▁danıs": 1317,
      "▁destek": 1318,
      "##inizin": 1319,
      "▁iht": 1320,
      "▁temer": 1321,
      "▁tanıt": 1322,
      "##ton": 1323,
      "▁ten": 1324,
      "▁baslık": 1325,
      "▁muhat": 1326,
      "▁uzerinde": 1327,
      "##.9": 1328,
      "##erli": 1329,
      "##liyat": 1330,
      "▁seviyede": 1331,
      "▁gozlerinin": 1332,
      "▁imk": 1333,
      "▁oteldi": 1334,
      "▁hos": 1335,
      "##meyi": 1336,
      "▁cor": 1337,
      "▁sertif": 1338,
      "▁basa": 1339,
      "▁rapor": 1340,
      "▁ben": 1341,
      "##lemis": 1342,
      "▁etmeyi": 1343,
      "▁arap": 1344,
      "▁evet": 1345,
      "▁ihracları": 1346,
      "▁donemde": 1347,
      "##egin": 1348,
      "▁meyhan": 1349,
      "▁inis": 1350,
      "▁dil": 1351,
      "##isim": 1352,
      "▁geminin": 1353,
      "▁ai": 1354,
      "##aması": 1355,
      "▁sovyetler": 1356,
      "##ması": 1357,
      "##urlu": 1358,
      "##elerinin": 1359,
      "▁kırmızı": 1360,
      "▁eglence": 1361,
      "##gili": 1362,
      "▁ates": 1363,
      "▁kurus": 1364,
      "▁duvar": 1365,
      "▁sikayet": 1366,
      "▁odayı": 1367,
      "▁televizyon": 1368,
      "▁bom": 1369,
      "▁limuzin": 1370,
      "▁grupları": 1371,
      "▁teskil": 1372,
      "▁bedeli": 1373,
      "▁dieg": 1374,
      "▁katır": 1375,
      "▁malz": 1376,
      "##mıs": 1377,
      "▁masada": 1378,
      "▁yuzme": 1379,
      "▁ide": 1380,
      "##ultu": 1381,
      "▁meyve": 1382,
      "▁ulu": 1383,
      "▁uzerinden": 1384,
      "▁yıld": 1385,
      "▁yıldız": 1386,
      "▁tarafında": 1387,
      "▁cicekleri": 1388,
      "▁gunesin": 1389,
      "▁kosesinde": 1390,
      "▁bilgi": 1391,
      "▁amc": 1392,
      "e": 1393,
      "##tikten": 1394,
      "▁haft": 1395,
      "▁kıyas": 1396,
      "▁soylemek": 1397,
      "##aklar": 1398,
      "▁yeni": 1399,
      "▁cadde": 1400,
      "▁organizasyon": 1401,
      "▁davranıs": 1402,
      "▁malum": 1403,
      "▁kalkıp": 1404,
      "##ib": 1405,
      "##ızda": 1406,
      "##ırt": 1407,
      "▁ayaklarının": 1408,
      "##rak": 1409,
      "▁vad": 1410,
      "##'da": 1411,
      "▁egz": 1412,
      "##dık": 1413,
      "##her": 1414,
      "▁yıldan": 1415,
      "▁corp": 1416,
      "##vr": 1417,
      "▁tesis": 1418,
      "▁bilgileri": 1419,
      "##'nden": 1420,
      "▁nokta": 1421,
      "▁ortak": 1422,
      "▁her": 1423,
      "▁hikaye": 1424,
      "##unc": 1425,
      "▁ot": 1426,
      "▁yanı": 1427,
      "▁govde": 1428,
      "▁sorunların": 1429,
      "▁hurr": 1430,
      "▁oncesine": 1431,
      "##tılı": 1432,
      "▁sartları": 1433,
      "▁dava": 1434,
      "▁fonlar": 1435,
      "▁olanak": 1436,
      "▁haftada": 1437,
      "##ılıgında": 1438,
      "▁calgı": 1439,
      "▁gozlem": 1440,
      "▁hit": 1441,
      "▁care": 1442,
      "▁ilet": 1443,
      "▁konumu": 1444,
      "▁kızım": 1445,
      "▁insanların": 1446,
      "##lıgın": 1447,
      "##lit": 1448,
      "▁agır": 1449,
      "##emem": 1450,
      "▁komplek": 1451,
      "##+": 1452,
      "▁organ": 1453,
      "▁eden": 1454,
      "##idi": 1455,
      "▁agr": 1456,
      "▁danısmanı": 1457,
      "##aliforn": 1458,
      "▁ucusun": 1459,
      "▁gazeteci": 1460,
      "##yet": 1461,
      "▁sponsor": 1462,
      "##yip": 1463,
      "##ont": 1464,
      "+": 1465,
      "▁cıktı": 1466,
      "▁dısarıda": 1467,
      "▁sus": 1468,
      "▁hatta": 1469,
      "▁katil": 1470,
      "▁temiz": 1471,
      "▁sup": 1472,
      "##%": 1473,
      "▁cırp": 1474,
      "▁ge": 1475,
      "▁olmasi": 1476,
      "▁yargıc": 1477,
      "▁getirdi": 1478,
      "▁skan": 1479,
      "##ikat": 1480,
      "##mis": 1481,
      "▁oper": 1482,
      "▁kadına": 1483,
      "▁ucuza": 1484,
      "▁pab": 1485,
      "▁em": 1486,
      "▁yurd": 1487,
      "▁ızdır": 1488,
      "##etin": 1489,
      "##lanmak": 1490,
      "▁calısıyor": 1491,
      "▁hakim": 1492,
      "##giniz": 1493,
      "▁sayf": 1494,
      "▁sonu": 1495,
      "▁kayıp": 1496,
      "x": 1497,
      "▁yarım": 1498,
      "▁calısmaya": 1499,
      "##ediy": 1500,
      "▁baskaları": 1501,
      "▁fırın": 1502,
      "▁hangi": 1503,
      "##kt": 1504,
      "▁balta": 1505,
      "▁yarattı": 1506,
      "##ende": 1507,
      "##ecilik": 1508,
      "▁olmadı": 1509,
      "▁evvel": 1510,
      "##asa": 1511,
      "▁koru": 1512,
      "▁temizliginden": 1513,
      "▁secen": 1514,
      "▁getiri": 1515,
      "▁otobus": 1516,
      "▁satır": 1517,
      "##lıgının": 1518,
      "▁fuz": 1519,
      "▁protesto": 1520,
      "▁mim": 1521,
      "▁kısmı": 1522,
      "▁huzun": 1523,
      "▁motiv": 1524,
      "▁gelecegi": 1525,
      "▁oak": 1526,
      "▁hik": 1527,
      "##eyh": 1528,
      "▁oyunc": 1529,
      "j": 1530,
      "▁risk": 1531,
      "▁ac": 1532,
      "##'s": 1533,
      "▁orada": 1534,
      "▁dern": 1535,
      "▁fis": 1536,
      "▁gob": 1537,
      "▁rol": 1538,
      "##ize": 1539,
      "##unun": 1540,
      "▁gostergeleri": 1541,
      "##ec": 1542,
      "▁sandal": 1543,
      "##urdu": 1544,
      "▁oranında": 1545,
      "##ulur": 1546,
      "▁kay": 1547,
      "▁bisiklet": 1548,
      "▁st": 1549,
      "▁oyunlar": 1550,
      "##ladık": 1551,
      "▁malzeme": 1552,
      "##mel": 1553,
      "▁sınıfta": 1554,
      "▁cocukların": 1555,
      "##lerimiz": 1556,
      "##and": 1557,
      "##ını": 1558,
      "##yi": 1559,
      "▁elimi": 1560,
      "##id": 1561,
      "▁tufek": 1562,
      "##sine": 1563,
      "▁duvarın": 1564,
      "▁iktidar": 1565,
      "##ifti": 1566,
      "▁yaptıgı": 1567,
      "▁misafir": 1568,
      "##yen": 1569,
      "▁raporları": 1570,
      "##.7": 1571,
      "##4": 1572,
      "▁milwaukee": 1573,
      "##imin": 1574,
      "▁girdi": 1575,
      "▁sola": 1576,
      "▁fık": 1577,
      "▁dostluk": 1578,
      "▁prosed": 1579,
      "▁tuccar": 1580,
      "▁varlıklar": 1581,
      "▁istatist": 1582,
      "▁bolum": 1583,
      "▁yanıt": 1584,
      "▁eger": 1585,
      "▁gozune": 1586,
      "▁dans": 1587,
      "▁sh": 1588,
      "▁ciro": 1589,
      "▁teminat": 1590,
      "#": 1591,
      "▁baslamıs": 1592,
      "▁sifir": 1593,
      "▁yiy": 1594,
      "##abil": 1595,
      "▁komisyonları": 1596,
      "##imle": 1597,
      "##istan": 1598,
      "▁dusuncelerini": 1599,
      "▁yurur": 1600,
      "▁ugra": 1601,
      "▁sinyal": 1602,
      "▁milli": 1603,
      "▁uzakti": 1604,
      "##istiri": 1605,
      "▁tekrar": 1606,
      "##i": 1607,
      "▁pansiyon": 1608,
      "▁toz": 1609,
      "▁asır": 1610,
      "##uz": 1611,
      "▁rezerve": 1612,
      "▁yatırımcıları": 1613,
      "##iden": 1614,
      "▁ici": 1615,
      "▁emlak": 1616,
      "##obil": 1617,
      "▁muhal": 1618,
      "▁gercekten": 1619,
      "▁olsa": 1620,
      "##kur": 1621,
      "##v": 1622,
      "▁edi": 1623,
      "##era": 1624,
      "▁fal": 1625,
      "▁yahut": 1626,
      "##enler": 1627,
      "▁'": 1628,
      "▁kısalt": 1629,
      "##leyen": 1630,
      "▁nob": 1631,
      "▁rut": 1632,
      "##imizi": 1633,
      "▁olmustur": 1634,
      "▁degisimi": 1635,
      "▁odamiz": 1636,
      "▁hayran": 1637,
      "##etleri": 1638,
      "▁ula": 1639,
      "▁sol": 1640,
      "▁ilgisizdi": 1641,
      "▁ban": 1642,
      "▁bankalar": 1643,
      "▁ag": 1644,
      "▁ila": 1645,
      "▁hayatı": 1646,
      "▁itir": 1647,
      "▁suru": 1648,
      "▁cark": 1649,
      "▁gunumuzde": 1650,
      "▁basbakan": 1651,
      "▁cezası": 1652,
      "▁sayisi": 1653,
      "▁parası": 1654,
      "##igim": 1655,
      "▁basvur": 1656,
      "▁mevcut": 1657,
      "▁verin": 1658,
      "▁dusunceler": 1659,
      "▁ozgur": 1660,
      "▁konuları": 1661,
      "▁hakikat": 1662,
      "▁cab": 1663,
      "▁cıkarmaya": 1664,
      "▁ceb": 1665,
      "▁kampanya": 1666,
      "##tik": 1667,
      "▁kez": 1668,
      "▁devleti": 1669,
      "##zet": 1670,
      "▁miras": 1671,
      "▁yild": 1672,
      "▁bakar": 1673,
      "▁soyle": 1674,
      "##luluk": 1675,
      "##lıc": 1676,
      "▁elinin": 1677,
      "▁kam": 1678,
      "▁sebz": 1679,
      "▁nedeniyle": 1680,
      "##cıların": 1681,
      "▁kop": 1682,
      "▁americ": 1683,
      "▁olmadıgını": 1684,
      "▁dususle": 1685,
      "▁senaryo": 1686,
      "▁yay": 1687,
      "##gec": 1688,
      "▁karn": 1689,
      "▁gelirler": 1690,
      "▁dizi": 1691,
      "▁kalitesi": 1692,
      "▁devir": 1693,
      "▁baltimore'den": 1694,
      "▁fena": 1695,
      "▁dede": 1696,
      "▁temmuz": 1697,
      "##ev": 1698,
      "▁kosk": 1699,
      "##iski": 1700,
      "▁olduklarını": 1701,
      "##anta": 1702,
      "▁kızın": 1703,
      "##ladı": 1704,
      "▁dosya": 1705,
      "##cu": 1706,
      "▁aqua": 1707,
      "▁super": 1708,
      "▁bahc": 1709,
      "▁gay": 1710,
      "▁iy": 1711,
      "▁tarl": 1712,
      "▁karsın": 1713,
      "▁tip": 1714,
      "▁isci": 1715,
      "▁10'dan": 1716,
      "▁okulu": 1717,
      "▁kendim": 1718,
      "▁tun": 1719,
      "▁dl": 1720,
      "▁nus": 1721,
      "▁havuzu": 1722,
      "▁kamyon": 1723,
      "▁sesleri": 1724,
      "▁duruyordu": 1725,
      "▁hazırlık": 1726,
      "▁balik": 1727,
      "▁ayakk": 1728,
      "##ob": 1729,
      "▁vatan": 1730,
      "##dam": 1731,
      "▁satısları": 1732,
      "▁boston'dan": 1733,
      "▁getirisi": 1734,
      "▁1990'da": 1735,
      "▁yonet": 1736,
      "▁harekete": 1737,
      "▁yemeklerin": 1738,
      "▁heyeti": 1739,
      "##gul": 1740,
      "▁tor": 1741,
      "?": 1742,
      "▁cumhurb": 1743,
      "▁sorunları": 1744,
      "▁miz": 1745,
      "▁american": 1746,
      "▁i": 1747,
      "▁urun": 1748,
      "##takı": 1749,
      "▁ustun": 1750,
      "##dikler": 1751,
      "##lılıgını": 1752,
      "▁universitesi": 1753,
      "▁umit": 1754,
      "_": 1755,
      "▁kar": 1756,
      "▁otob": 1757,
      "▁gonlum": 1758,
      "▁olmak": 1759,
      "▁cıkar": 1760,
      "▁isbir": 1761,
      "##rken": 1762,
      "##ez": 1763,
      "##arak": 1764,
      "##lendirme": 1765,
      "##lasma": 1766,
      "▁tam": 1767,
      "##ig": 1768,
      "▁dalga": 1769,
      "▁cumhurbaskanı": 1770,
      "▁nez": 1771,
      "▁ası": 1772,
      "▁amma": 1773,
      "▁rezerv": 1774,
      "##iyetini": 1775,
      "▁tiyatro": 1776,
      "▁karakter": 1777,
      "▁degilim": 1778,
      "▁bahsederim": 1779,
      "▁bahs": 1780,
      "▁pac": 1781,
      "▁varlıgını": 1782,
      "▁guleryuzlu": 1783,
      "▁ediyor": 1784,
      "##emis": 1785,
      "▁davran": 1786,
      "▁klor": 1787,
      "▁haber": 1788,
      "##maktadır": 1789,
      "##ısını": 1790,
      "▁altına": 1791,
      "▁havayı": 1792,
      "##erin": 1793,
      "\"": 1794,
      "▁yalnız": 1795,
      "##ata": 1796,
      "▁oyn": 1797,
      "▁kentin": 1798,
      "▁planlıyor": 1799,
      "▁ham": 1800,
      "▁okumak": 1801,
      "▁temet": 1802,
      "##uyu": 1803,
      "▁girmek": 1804,
      "▁toh": 1805,
      "▁m": 1806,
      "▁gerekir": 1807,
      "##daydi": 1808,
      "##lıg": 1809,
      "##/4": 1810,
      "▁soylen": 1811,
      "▁politik": 1812,
      "##kinden": 1813,
      "▁konusunda": 1814,
      "##asındaki": 1815,
      "▁ankete": 1816,
      "##he": 1817,
      "▁gunlerde": 1818,
      "##cılara": 1819,
      "▁ig": 1820,
      "▁ve": 1821,
      "▁yıllardır": 1822,
      "▁kasım": 1823,
      "▁mode": 1824,
      "▁zır": 1825,
      "▁kuralları": 1826,
      "▁lezzet": 1827,
      "##atlar": 1828,
      "▁sikinti": 1829,
      "▁isini": 1830,
      "▁oldur": 1831,
      "##do": 1832,
      "▁varlık": 1833,
      "▁egitim": 1834,
      "##ının": 1835,
      "##ims": 1836,
      "▁sukur": 1837,
      "##or": 1838,
      "##asıl": 1839,
      "##bu": 1840,
      "▁yanında": 1841,
      "▁yururluge": 1842,
      "▁istiyorum": 1843,
      "##iri": 1844,
      "##.1": 1845,
      "▁oyk": 1846,
      "▁havayollarının": 1847,
      "▁yalnızlık": 1848,
      "##enc": 1849,
      "▁delikan": 1850,
      "##elig": 1851,
      "▁gerekiyor": 1852,
      "▁ydi": 1853,
      "▁ipek": 1854,
      "▁bol": 1855,
      "##la": 1856,
      "▁ver": 1857,
      "▁krizi": 1858,
      "##°": 1859,
      "▁bin": 1860,
      "▁cesitler": 1861,
      "▁yav": 1862,
      "▁hangisi": 1863,
      "▁gobek": 1864,
      "▁bilin": 1865,
      "▁calısan": 1866,
      "▁tedarik": 1867,
      "▁sac": 1868,
      "▁ilgil": 1869,
      "##emin": 1870,
      "▁andan": 1871,
      "##isti": 1872,
      "▁faaliyet": 1873,
      "▁dom": 1874,
      "▁tasın": 1875,
      "##iy": 1876,
      "▁mukelle": 1877,
      "▁duskun": 1878,
      "▁ciftciler": 1879,
      "▁sp": 1880,
      "▁avrupa": 1881,
      "##mma": 1882,
      "▁yıllardan": 1883,
      "##anla": 1884,
      "▁asıl": 1885,
      "▁maliyeti": 1886,
      "##askanı": 1887,
      "▁istis": 1888,
      "##ıb": 1889,
      "##uste": 1890,
      "▁tuhaf": 1891,
      "##eyaz": 1892,
      "▁yazılım": 1893,
      "▁liraya": 1894,
      "##kan": 1895,
      "▁ucu": 1896,
      "##uzluydu": 1897,
      "▁dere": 1898,
      "##var": 1899,
      "##estirdi": 1900,
      "▁beklenti": 1901,
      "##dek": 1902,
      "##cog": 1903,
      "▁kisi": 1904,
      "▁gorusme": 1905,
      "▁taz": 1906,
      "##lelim": 1907,
      "▁ikisi": 1908,
      "▁umid": 1909,
      "▁leblebi": 1910,
      "▁geldigini": 1911,
      "n": 1912,
      "▁ticaret": 1913,
      "▁cih": 1914,
      "▁sarı": 1915,
      "▁talim": 1916,
      "▁kesif": 1917,
      "▁baban": 1918,
      "▁edin": 1919,
      "▁cez": 1920,
      "▁kalit": 1921,
      "##ucu": 1922,
      "▁kıymetleri": 1923,
      "##ani": 1924,
      "▁itiraz": 1925,
      "▁ele": 1926,
      "▁aydın": 1927,
      "##ceyr": 1928,
      "▁kade": 1929,
      "▁toplan": 1930,
      "▁mens": 1931,
      "##orlu": 1932,
      "▁kork": 1933,
      "▁muhtar": 1934,
      "▁yuksel": 1935,
      "▁etkil": 1936,
      "##attle": 1937,
      "▁kabil": 1938,
      "▁seylerin": 1939,
      "▁kavram": 1940,
      "##uru": 1941,
      "▁oturdu": 1942,
      "##anları": 1943,
      "▁odaya": 1944,
      "▁gorunuse": 1945,
      "▁hisse": 1946,
      "##dik": 1947,
      "▁tesisti": 1948,
      "▁veriyorum": 1949,
      "▁cer": 1950,
      "▁kısı": 1951,
      "##yse": 1952,
      "##ca": 1953,
      "▁gazet": 1954,
      "▁bankacılık": 1955,
      "▁tarafına": 1956,
      "▁seyr": 1957,
      "##ht": 1958,
      "##ersiz": 1959,
      "▁yerlerde": 1960,
      "##ettim": 1961,
      "##ınc": 1962,
      "##les": 1963,
      "▁arkadasım": 1964,
      "▁bagı": 1965,
      "▁bicimde": 1966,
      "▁okum": 1967,
      "▁annesinin": 1968,
      "▁bolumunde": 1969,
      "##tal": 1970,
      "▁esir": 1971,
      "▁orgut": 1972,
      "##acagına": 1973,
      "▁baska": 1974,
      "▁bis": 1975,
      "##s": 1976,
      "▁indirim": 1977,
      "##bak": 1978,
      "▁gitti": 1979,
      "▁tanım": 1980,
      "▁animasyonlar": 1981,
      "▁bıc": 1982,
      "▁fedakar": 1983,
      "▁kahram": 1984,
      "▁kadar": 1985,
      "##tırma": 1986,
      "▁vermeye": 1987,
      "▁kahval": 1988,
      "▁on": 1989,
      "▁cars": 1990,
      "▁geciyor": 1991,
      "##t": 1992,
      "▁suyunu": 1993,
      "▁ustunden": 1994,
      "h": 1995,
      "▁redd": 1996,
      "▁atlanta'ya": 1997,
      "▁potansiy": 1998,
      "▁araya": 1999,
      "▁mis": 2000,
      "▁bayan": 2001,
      "▁sehirde": 2002,
      "▁tv": 2003,
      "▁kaldim": 2004,
      "▁bor": 2005,
      "▁oyunu": 2006,
      "##ırtı": 2007,
      "##anc": 2008,
      "▁gok": 2009,
      "##ıntı": 2010,
      "##gam": 2011,
      "▁port": 2012,
      "##st": 2013,
      "▁iyiye": 2014,
      "▁ardına": 2015,
      "▁pr": 2016,
      "▁piyano": 2017,
      "▁ureticisi": 2018,
      "▁ısı": 2019,
      "##lugunda": 2020,
      "▁ardında": 2021,
      "##eci": 2022,
      "##lom": 2023,
      "▁kitapları": 2024,
      "##tem": 2025,
      "##nd": 2026,
      "##yerek": 2027,
      "▁ad": 2028,
      "▁tezgah": 2029,
      "▁sokaklarda": 2030,
      "▁depart": 2031,
      "▁itaat": 2032,
      "▁calısanları": 2033,
      "##ıga": 2034,
      "▁juri": 2035,
      "▁prenses": 2036,
      "##ici": 2037,
      "▁cogunlugu": 2038,
      "▁lah": 2039,
      "##sanız": 2040,
      "▁isletmeler": 2041,
      "##gen": 2042,
      "##alıgı": 2043,
      "▁dukkan": 2044,
      "##anının": 2045,
      "##ekul": 2046,
      "▁duzelt": 2047,
      "▁gor": 2048,
      "##ag": 2049,
      "##pe": 2050,
      "…": 2051,
      "▁yont": 2052,
      "▁uretici": 2053,
      "▁cıkarma": 2054,
      "▁artırmak": 2055,
      "▁niyet": 2056,
      "▁ayr": 2057,
      "##siyon": 2058,
      "##uga": 2059,
      "##larında": 2060,
      "▁siyas": 2061,
      "▁bahceye": 2062,
      "##ud": 2063,
      "▁mor": 2064,
      "▁muduru": 2065,
      "▁anlasmayı": 2066,
      "##gini": 2067,
      "▁orgu": 2068,
      "▁birdenbire": 2069,
      "##yiz": 2070,
      "▁degerlendiririm": 2071,
      "▁indir": 2072,
      "##elik": 2073,
      "▁kapasitesi": 2074,
      "##ılmaz": 2075,
      "▁ap": 2076,
      "▁ib": 2077,
      "▁olmaz": 2078,
      "##lıkla": 2079,
      "▁konum": 2080,
      "▁gazete": 2081,
      "##lıgından": 2082,
      "▁ph": 2083,
      "▁kadro": 2084,
      "##ıydı": 2085,
      "##mek": 2086,
      "▁aldılar": 2087,
      "##ıldıgını": 2088,
      "▁ka": 2089,
      "▁cares": 2090,
      "▁ekibi": 2091,
      "▁ucusuna": 2092,
      "##ahi": 2093,
      "▁egzersiz": 2094,
      "▁genc": 2095,
      "##agon": 2096,
      "▁titr": 2097,
      "▁dedikodu": 2098,
      "▁beyler": 2099,
      "▁rez": 2100,
      "▁kut": 2101,
      "##lar": 2102,
      "▁arab": 2103,
      "▁sırasında": 2104,
      "▁mily": 2105,
      "##ake": 2106,
      "▁muzigi": 2107,
      "▁alay": 2108,
      "▁birinin": 2109,
      "##etic": 2110,
      "##agın": 2111,
      "▁fikri": 2112,
      "##dım": 2113,
      "##mekle": 2114,
      "##lac": 2115,
      "▁karak": 2116,
      "▁idaresi": 2117,
      "▁ince": 2118,
      "▁kapısına": 2119,
      "▁ithalat": 2120,
      "▁gelis": 2121,
      "▁yaptir": 2122,
      "▁agab": 2123,
      "▁14": 2124,
      "▁sınır": 2125,
      "▁hul": 2126,
      "##lulugunu": 2127,
      "##yal": 2128,
      "▁endust": 2129,
      "▁iste": 2130,
      "##ilendir": 2131,
      "▁ov": 2132,
      "##5'": 2133,
      "▁buyum": 2134,
      "–": 2135,
      "▁basarı": 2136,
      "▁denizin": 2137,
      "▁kayıplar": 2138,
      "▁yog": 2139,
      "▁sabaha": 2140,
      "▁kalacak": 2141,
      "##lerine": 2142,
      "##allas": 2143,
      "▁tutum": 2144,
      "▁degisiklikleri": 2145,
      "##samba": 2146,
      "▁yakinlarima": 2147,
      "▁kolu": 2148,
      "▁cami": 2149,
      "▁sehr": 2150,
      "▁dagıt": 2151,
      "##emli": 2152,
      "▁baskalarının": 2153,
      "▁nam": 2154,
      "##lasman": 2155,
      "▁tac": 2156,
      "▁onay": 2157,
      "▁atıs": 2158,
      "▁fiz": 2159,
      "##y": 2160,
      "▁sayet": 2161,
      "▁seyahat": 2162,
      "▁bag": 2163,
      "▁mater": 2164,
      "▁konumundan": 2165,
      "▁sekreter": 2166,
      "▁eb": 2167,
      "##arlandı": 2168,
      "▁muhtemelen": 2169,
      "##ugunda": 2170,
      "▁in": 2171,
      "▁boncuk": 2172,
      "▁garsonlar": 2173,
      "▁iki": 2174,
      "##met": 2175,
      "▁cem": 2176,
      "▁tarafa": 2177,
      "##lesti": 2178,
      "▁yasay": 2179,
      "##um": 2180,
      "▁j": 2181,
      "▁calisanlari": 2182,
      "▁borcu": 2183,
      "##ikti": 2184,
      "##ram": 2185,
      "##iyesi": 2186,
      "▁levh": 2187,
      "▁pam": 2188,
      "▁vergisi": 2189,
      "▁kaygı": 2190,
      "▁altında": 2191,
      "▁konularda": 2192,
      "▁nik": 2193,
      "▁kapısından": 2194,
      "▁sayısı": 2195,
      "▁kalk": 2196,
      "##00'den": 2197,
      "##iyon": 2198,
      "▁atıl": 2199,
      "▁ayında": 2200,
      "▁bununla": 2201,
      "▁ir": 2202,
      "▁seytan": 2203,
      "▁damak": 2204,
      "##0'a": 2205,
      "▁gorunum": 2206,
      "▁yoksul": 2207,
      "▁p": 2208,
      "▁lu": 2209,
      "▁kelep": 2210,
      "##ite": 2211,
      "▁veg": 2212,
      "▁olimpiyat": 2213,
      "▁hasta": 2214,
      "▁gunesi": 2215,
      "▁kasaba": 2216,
      "##lig": 2217,
      "##vil": 2218,
      "▁menf": 2219,
      "##esine": 2220,
      "▁bolgesi": 2221,
      "▁musteriler": 2222,
      "▁yılların": 2223,
      "▁ruy": 2224,
      "▁seviyesine": 2225,
      "▁yasa": 2226,
      "##layacagını": 2227,
      "▁inek": 2228,
      "▁nedeni": 2229,
      "▁yetk": 2230,
      "▁onayına": 2231,
      "▁istanbul": 2232,
      "##cılıg": 2233,
      "▁united": 2234,
      "▁varlıgı": 2235,
      "▁karsilama": 2236,
      "▁gond": 2237,
      "▁fazlasını": 2238,
      "▁esyalar": 2239,
      "##mesini": 2240,
      "▁sınav": 2241,
      "##eligi": 2242,
      "▁tahmini": 2243,
      "▁odam": 2244,
      "$": 2245,
      "▁yapmaktan": 2246,
      "##ecekleri": 2247,
      "▁bagır": 2248,
      "▁hev": 2249,
      "##up": 2250,
      "▁acen": 2251,
      "##kiz": 2252,
      "▁havaalanı'nda": 2253,
      "##inin": 2254,
      "▁partisi": 2255,
      "##000": 2256,
      "▁usul": 2257,
      "##emedi": 2258,
      "##abaz": 2259,
      "▁sov": 2260,
      "##ıstır": 2261,
      "▁kapsamında": 2262,
      "▁yasında": 2263,
      "##yası": 2264,
      "##ılıs": 2265,
      "▁yuzey": 2266,
      "##lıdır": 2267,
      "▁donemi": 2268,
      "##lusu": 2269,
      "▁aylarda": 2270,
      "▁kalır": 2271,
      "▁kredileri": 2272,
      "▁turlar": 2273,
      "▁iceri": 2274,
      "▁av": 2275,
      "▁o": 2276,
      "▁oranda": 2277,
      "▁odamdan": 2278,
      "▁devlet": 2279,
      "▁masal": 2280,
      "▁jandar": 2281,
      "▁tatlilar": 2282,
      "##ic": 2283,
      "▁sandaly": 2284,
      "##am": 2285,
      "▁urunleri": 2286,
      "##lan": 2287,
      "▁vap": 2288,
      "▁mekan": 2289,
      "▁hemsir": 2290,
      "▁birles": 2291,
      "▁duyar": 2292,
      "▁demektir": 2293,
      "▁hani": 2294,
      "##alar": 2295,
      "▁oz": 2296,
      "▁sofor": 2297,
      "▁ab": 2298,
      "##alam": 2299,
      "##liklerini": 2300,
      "##asında": 2301,
      "▁sozcuk": 2302,
      "##tıl": 2303,
      "▁cit": 2304,
      "▁sayg": 2305,
      "##ze": 2306,
      "▁terbiye": 2307,
      "##edikten": 2308,
      "▁agzını": 2309,
      "▁orne": 2310,
      "##iz": 2311,
      "▁kendis": 2312,
      "##ecekti": 2313,
      "▁belli": 2314,
      "▁kalitesinden": 2315,
      "▁konusuyor": 2316,
      "▁muz": 2317,
      "▁konustu": 2318,
      "▁yardımcısı": 2319,
      "##amac": 2320,
      "▁kullanıyor": 2321,
      "▁arkasında": 2322,
      "▁biri": 2323,
      "▁lideri": 2324,
      "##teki": 2325,
      "▁ceyrek": 2326,
      "▁zevk": 2327,
      "▁kilit": 2328,
      "▁egem": 2329,
      "▁acılıs": 2330,
      "##ki": 2331,
      "##'si": 2332,
      "##amam": 2333,
      "▁dam": 2334,
      "##lının": 2335,
      "##edik": 2336,
      "▁kıyıya": 2337,
      "##yıl": 2338,
      "##ustan": 2339,
      "▁iz": 2340,
      "▁adr": 2341,
      "▁unsur": 2342,
      "▁babama": 2343,
      "##ational": 2344,
      "▁kalıyor": 2345,
      "▁arac": 2346,
      "▁sure": 2347,
      "▁soguk": 2348,
      "▁mucade": 2349,
      "▁eliyle": 2350,
      "▁uretimi": 2351,
      "▁4": 2352,
      "▁seg": 2353,
      "▁birlikte": 2354,
      "▁gonl": 2355,
      "▁azal": 2356,
      "▁memlekette": 2357,
      "▁kom": 2358,
      "▁kaldırım": 2359,
      "▁charlotte": 2360,
      "▁hedefi": 2361,
      "##eceg": 2362,
      "▁yapılan": 2363,
      "▁tenc": 2364,
      "▁icra": 2365,
      "▁bıraktı": 2366,
      "▁motor": 2367,
      "▁zil": 2368,
      "▁hip": 2369,
      "▁simdi": 2370,
      "##olog": 2371,
      "▁potansiyel": 2372,
      "▁arb": 2373,
      "▁size": 2374,
      "▁kotuydu": 2375,
      "▁servet": 2376,
      "▁yakin": 2377,
      "▁edep": 2378,
      "▁surec": 2379,
      "##cık": 2380,
      "##lemesi": 2381,
      "▁palto": 2382,
      "##etr": 2383,
      "▁dogal": 2384,
      "##adı": 2385,
      "▁bul": 2386,
      "▁dogum": 2387,
      "▁contin": 2388,
      "▁manzarasi": 2389,
      "▁tap": 2390,
      "▁savas": 2391,
      "▁petr": 2392,
      "▁nar": 2393,
      "▁kapıları": 2394,
      "##9": 2395,
      "▁teh": 2396,
      "▁matem": 2397,
      "▁beb": 2398,
      "▁25": 2399,
      "▁sehirler": 2400,
      "▁seh": 2401,
      "▁gecesi": 2402,
      "▁varil": 2403,
      "▁oncesinde": 2404,
      "▁gucunu": 2405,
      "##ıklar": 2406,
      "▁islerini": 2407,
      "▁husus": 2408,
      "▁fiyata": 2409,
      "##inti": 2410,
      "b": 2411,
      "▁hamle": 2412,
      "##`": 2413,
      "▁dilek": 2414,
      "▁ilkbah": 2415,
      "##ısıyla": 2416,
      "▁gelisim": 2417,
      "▁oglum": 2418,
      "▁listeleyin": 2419,
      "▁but": 2420,
      "▁kurulus": 2421,
      "▁sıra": 2422,
      "▁duzen": 2423,
      "▁oluyor": 2424,
      "▁avuk": 2425,
      "▁doları'ndan": 2426,
      "▁pirinc": 2427,
      "##ucuk": 2428,
      "▁atesi": 2429,
      "▁yapıt": 2430,
      "##uya": 2431,
      "▁fikir": 2432,
      "▁hizmeti": 2433,
      "▁denver": 2434,
      "▁yapacak": 2435,
      "▁manz": 2436,
      "▁pahaliydi": 2437,
      "▁ucretler": 2438,
      "▁kimyasal": 2439,
      "▁ortada": 2440,
      "▁okul": 2441,
      "▁sabahı": 2442,
      "▁teknoloj": 2443,
      "▁sosyalizm": 2444,
      "##ınlık": 2445,
      "▁ısık": 2446,
      "##em": 2447,
      "▁koseye": 2448,
      "▁alıyor": 2449,
      "##lulugu": 2450,
      "▁and": 2451,
      "▁huzur": 2452,
      "##ine": 2453,
      "##lendirdi": 2454,
      "▁bankaların": 2455,
      "##dol": 2456,
      "##bat": 2457,
      "▁oyna": 2458,
      "##aj": 2459,
      "▁bakıyor": 2460,
      "##eliydi": 2461,
      "▁kala": 2462,
      "▁donem": 2463,
      "▁ortalam": 2464,
      "▁ars": 2465,
      "▁duman": 2466,
      "##odr": 2467,
      "▁gelecekte": 2468,
      "##iyat": 2469,
      "▁ayrıca": 2470,
      "▁kadr": 2471,
      "▁ucusunda": 2472,
      "▁kıvılc": 2473,
      "▁tavır": 2474,
      "##ada": 2475,
      "▁dolara": 2476,
      "##irip": 2477,
      "##ıkları": 2478,
      "▁yuk": 2479,
      "##ıslı": 2480,
      "▁pet": 2481,
      "▁guler": 2482,
      "▁sahis": 2483,
      "▁elb": 2484,
      "##siz": 2485,
      "▁darbe": 2486,
      "▁fiyatlarının": 2487,
      "▁katana": 2488,
      "▁fabrik": 2489,
      "▁muzaker": 2490,
      "▁guzellik": 2491,
      "▁gunden": 2492,
      "##amiza": 2493,
      "▁muda": 2494,
      "▁sirketlerin": 2495,
      "▁evde": 2496,
      "▁penc": 2497,
      "##sal": 2498,
      "##nc": 2499,
      "▁gune": 2500,
      "▁benz": 2501,
      "##verdi": 2502,
      "▁kampanyalar": 2503,
      "▁hur": 2504,
      "▁mevzu": 2505,
      "##du": 2506,
      "▁adama": 2507,
      "▁borsası'nda": 2508,
      "▁keleb": 2509,
      "##ap": 2510,
      "▁moda": 2511,
      "▁portf": 2512,
      "##ligin": 2513,
      "▁bina": 2514,
      "##ları": 2515,
      "▁digerleri": 2516,
      "▁sm": 2517,
      "▁kuzu": 2518,
      "▁suik": 2519,
      "▁hareketi": 2520,
      "▁kuyruk": 2521,
      "##asyonu": 2522,
      "##ston": 2523,
      "▁kayıt": 2524,
      "▁uygulama": 2525,
      "##gim": 2526,
      "▁muht": 2527,
      "▁tarafını": 2528,
      "▁cumhuriyeti": 2529,
      "▁alın": 2530,
      "##mıstım": 2531,
      "▁lokanta": 2532,
      "▁kalb": 2533,
      "▁odalardan": 2534,
      "▁ucreti": 2535,
      "▁uygulamaları": 2536,
      "▁salınc": 2537,
      "▁gelenek": 2538,
      "▁hızla": 2539,
      "▁oldug": 2540,
      "▁kafası": 2541,
      "##asını": 2542,
      "▁pant": 2543,
      "▁ardından": 2544,
      "▁ann": 2545,
      "▁okullar": 2546,
      "##yle": 2547,
      "##gin": 2548,
      "▁yana": 2549,
      "▁buh": 2550,
      "▁gununu": 2551,
      "##ardan": 2552,
      "▁isk": 2553,
      "▁hakem": 2554,
      "##dıgım": 2555,
      "▁sevda": 2556,
      "▁por": 2557,
      "▁doldur": 2558,
      "▁cizgi": 2559,
      "▁faiz": 2560,
      "##sı": 2561,
      "▁halkın": 2562,
      "▁4'ten": 2563,
      "▁sizi": 2564,
      "▁yak": 2565,
      "▁gozunu": 2566,
      "▁komisyonlar": 2567,
      "▁arkadaslar": 2568,
      "##ort": 2569,
      "##of": 2570,
      "▁dedik": 2571,
      "▁bankaları": 2572,
      "▁fiyatlar": 2573,
      "▁kumas": 2574,
      "▁arbitraj": 2575,
      "▁ket": 2576,
      "▁cikis": 2577,
      "▁nef": 2578,
      "▁kultur": 2579,
      "▁yukum": 2580,
      "##mar": 2581,
      "▁komut": 2582,
      "##malıdır": 2583,
      "▁dr.": 2584,
      "##ırdı": 2585,
      "▁kurallar": 2586,
      "▁hazir": 2587,
      "▁hafta": 2588,
      "▁mahkemesi": 2589,
      "▁kanadı": 2590,
      "▁fasul": 2591,
      "▁tanı": 2592,
      "##dıgı": 2593,
      "##eyr": 2594,
      "##ısından": 2595,
      "▁zih": 2596,
      "##'te": 2597,
      "##iyor": 2598,
      "▁halkla": 2599,
      "▁edip": 2600,
      "▁sen": 2601,
      "▁ız": 2602,
      "▁satısı": 2603,
      "▁mudur": 2604,
      "▁im": 2605,
      "▁ihr": 2606,
      "##gisi": 2607,
      "▁amerikalı": 2608,
      "##gır": 2609,
      "▁kusk": 2610,
      "▁bun": 2611,
      "▁baslarında": 2612,
      "▁alanda": 2613,
      "##bası": 2614,
      "▁yatırımcının": 2615,
      "##tig": 2616,
      "▁nokt": 2617,
      "▁basıma": 2618,
      "▁nis": 2619,
      "▁yon": 2620,
      "▁burun": 2621,
      "▁may": 2622,
      "##irk": 2623,
      "##usuyla": 2624,
      "▁kap": 2625,
      "▁dost": 2626,
      "▁pop": 2627,
      "##alamak": 2628,
      "▁toren": 2629,
      "▁neh": 2630,
      "▁islemler": 2631,
      "##burgh": 2632,
      "▁fer": 2633,
      "▁tacirler": 2634,
      "▁millet": 2635,
      "▁metr": 2636,
      "▁kem": 2637,
      "▁muhendis": 2638,
      "▁ucusların": 2639,
      "▁muzakere": 2640,
      "##dip": 2641,
      "▁istan": 2642,
      "3": 2643,
      "▁tesekkurler": 2644,
      "▁tez": 2645,
      "▁tabur": 2646,
      "▁end": 2647,
      "##ektr": 2648,
      "▁boylece": 2649,
      "▁dedi": 2650,
      "##lenme": 2651,
      "##ket": 2652,
      "##le": 2653,
      "▁aleyhine": 2654,
      "▁altın": 2655,
      "▁bilimi": 2656,
      "▁ort": 2657,
      "▁des": 2658,
      "##eden": 2659,
      "▁adına": 2660,
      "▁sevinc": 2661,
      "▁beni": 2662,
      "##apolis": 2663,
      "▁bogazici": 2664,
      "▁bolgede": 2665,
      "▁kuyr": 2666,
      "▁tartısma": 2667,
      "▁boyun": 2668,
      "▁cig": 2669,
      "`": 2670,
      "##oroz": 2671,
      "##asının": 2672,
      "▁cunku": 2673,
      "##eldi": 2674,
      "▁kaynakları": 2675,
      "##masından": 2676,
      "▁beyn": 2677,
      "▁delik": 2678,
      "##anma": 2679,
      "##'nun": 2680,
      "▁odun": 2681,
      "▁dallas'tan": 2682,
      "▁surdu": 2683,
      "##rlik": 2684,
      "▁cog": 2685,
      "▁istik": 2686,
      "▁oyle": 2687,
      "##abileceg": 2688,
      "▁sin": 2689,
      "▁artısla": 2690,
      "▁lutfen": 2691,
      "▁medeniyet": 2692,
      "▁alır": 2693,
      "▁bic": 2694,
      "▁kanun": 2695,
      "##masını": 2696,
      "▁programı": 2697,
      "▁birbir": 2698,
      "▁sular": 2699,
      "##ımda": 2700,
      "▁odeme": 2701,
      "▁bilim": 2702,
      "▁kızı": 2703,
      "▁gun": 2704,
      "▁yetkisi": 2705,
      "##memis": 2706,
      "▁zul": 2707,
      "▁anda": 2708,
      "▁felaket": 2709,
      "▁amcam": 2710,
      "▁nobet": 2711,
      "##dıgına": 2712,
      "▁yandan": 2713,
      "▁hastalık": 2714,
      "▁adım": 2715,
      "▁dibinde": 2716,
      "▁bunları": 2717,
      "▁hicbir": 2718,
      "##otte": 2719,
      "▁uzat": 2720,
      "##tin": 2721,
      "▁k": 2722,
      "##kat": 2723,
      "##mamak": 2724,
      "##ıcılar": 2725,
      "##ub": 2726,
      "▁saye": 2727,
      "▁fabrika": 2728,
      "▁noktası": 2729,
      "▁ajans": 2730,
      "▁temizlik": 2731,
      "▁pencer": 2732,
      "▁gidiyor": 2733,
      "▁olabilecegini": 2734,
      "▁muster": 2735,
      "▁ogretmeni": 2736,
      "##onom": 2737,
      "▁olas": 2738,
      "▁yolları": 2739,
      "##att": 2740,
      "▁sert": 2741,
      "▁evren": 2742,
      "▁stand": 2743,
      "▁krem": 2744,
      "▁tramv": 2745,
      "▁yasamı": 2746,
      "##'ni": 2747,
      "▁der": 2748,
      "##bet": 2749,
      "▁diyet": 2750,
      "▁huy": 2751,
      "##larımızı": 2752,
      "##ılma": 2753,
      "##av": 2754,
      "##00'e": 2755,
      "▁edilm": 2756,
      "▁diy": 2757,
      "▁bebek": 2758,
      "▁car": 2759,
      "▁arkasına": 2760,
      "▁animasyon": 2761,
      "▁muhaseb": 2762,
      "▁elden": 2763,
      "##/8'e": 2764,
      "▁topu": 2765,
      "▁suz": 2766,
      "▁muhafazak": 2767,
      "▁sahada": 2768,
      "▁$'a": 2769,
      "##ıs": 2770,
      "▁de": 2771,
      "▁kaynak": 2772,
      "▁bedel": 2773,
      "▁saga": 2774,
      "##anını": 2775,
      "▁kalabalık": 2776,
      "▁degerlendirmeye": 2777,
      "▁olanaklari": 2778,
      "▁zev": 2779,
      "▁naz": 2780,
      "▁mit": 2781,
      "▁tesekkur": 2782,
      "##liginin": 2783,
      "▁ekip": 2784,
      "##digini": 2785,
      "##liligi": 2786,
      "▁cikol": 2787,
      "##masız": 2788,
      "##gan": 2789,
      "t": 2790,
      "##elerini": 2791,
      "##eydi": 2792,
      "▁kirp": 2793,
      "▁buna": 2794,
      "##liydi": 2795,
      "##dıgını": 2796,
      "▁hou": 2797,
      "▁kalab": 2798,
      "##mayan": 2799,
      "##ız": 2800,
      "▁muslum": 2801,
      "##sıyla": 2802,
      "▁faturami": 2803,
      "##'lik": 2804,
      "##ade": 2805,
      "▁anı": 2806,
      "▁ucret": 2807,
      "▁musterileri": 2808,
      "▁dikkate": 2809,
      "▁telafi": 2810,
      "▁oglan": 2811,
      "##elt": 2812,
      "##mul": 2813,
      "▁siz": 2814,
      "▁kollarını": 2815,
      "##mekte": 2816,
      "▁sırtında": 2817,
      "▁pit": 2818,
      "▁yudum": 2819,
      "##lerim": 2820,
      "▁ucmak": 2821,
      "▁zafer": 2822,
      "##*": 2823,
      "▁video": 2824,
      "▁gumruk": 2825,
      "▁analistler": 2826,
      "##iye": 2827,
      "▁st.": 2828,
      "▁giz": 2829,
      "##apon": 2830,
      "▁onunde": 2831,
      "▁key": 2832,
      "##elleri": 2833,
      "▁cir": 2834,
      "##$": 2835,
      "▁kalmadı": 2836,
      "▁calısmak": 2837,
      "▁degeri": 2838,
      "▁satıcı": 2839,
      "##ıklık": 2840,
      "▁normaldi": 2841,
      "▁degildir": 2842,
      "##baz": 2843,
      "▁cos": 2844,
      "##lerden": 2845,
      "▁ceph": 2846,
      "▁gurult": 2847,
      "▁ayda": 2848,
      "##ıldı": 2849,
      "▁mav": 2850,
      "▁intih": 2851,
      "##eli": 2852,
      "▁ayrım": 2853,
      "##ilmesine": 2854,
      "▁bahseder": 2855,
      "▁taklit": 2856,
      "▁yuksekti": 2857,
      "▁yap": 2858,
      "▁tenis": 2859,
      "▁kadınların": 2860,
      "▁mutlu": 2861,
      "▁fakult": 2862,
      "▁planı": 2863,
      "▁istihbar": 2864,
      "▁ayagını": 2865,
      "▁yemeklerde": 2866,
      "▁nitelik": 2867,
      "▁belirt": 2868,
      "▁gozden": 2869,
      "##ime": 2870,
      "▁kosulları": 2871,
      "▁hac": 2872,
      "▁askı": 2873,
      "▁kabuk": 2874,
      "▁8": 2875,
      "▁fakir": 2876,
      "▁koye": 2877,
      "▁surucu": 2878,
      "▁koylu": 2879,
      "▁ongoru": 2880,
      "▁dunyası": 2881,
      "▁dogrudan": 2882,
      "▁kıl": 2883,
      "▁takımı": 2884,
      "▁kart": 2885,
      "▁bat": 2886,
      "▁yardimci": 2887,
      "▁yapacagını": 2888,
      "##men": 2889,
      "▁devletin": 2890,
      "▁mul": 2891,
      "▁%2": 2892,
      "▁temettu": 2893,
      "##agına": 2894,
      "##labilir": 2895,
      "▁hanimdi": 2896,
      "▁bakalım": 2897,
      "##emek": 2898,
      "▁etrafı": 2899,
      "d": 2900,
      "##ydı": 2901,
      "##bire": 2902,
      "▁hizmetler": 2903,
      "▁mus": 2904,
      "▁vir": 2905,
      "##day": 2906,
      "▁konuda": 2907,
      "▁eksik": 2908,
      "▁camasır": 2909,
      "▁lezzetleri": 2910,
      "##'u": 2911,
      "##ılması": 2912,
      "▁tasv": 2913,
      "▁uyum": 2914,
      "▁vucud": 2915,
      "▁demis": 2916,
      "▁tekl": 2917,
      "##istel": 2918,
      "##umlu": 2919,
      "▁cıkmıs": 2920,
      "▁elini": 2921,
      "▁depremden": 2922,
      "▁yola": 2923,
      "▁bekledi": 2924,
      "##vet": 2925,
      "##irleri": 2926,
      "▁niz": 2927,
      "▁deyim": 2928,
      "▁ilham": 2929,
      "##ıcak": 2930,
      "▁vardı": 2931,
      "▁gorul": 2932,
      "▁yuregi": 2933,
      "▁eder": 2934,
      "▁geregi": 2935,
      "▁fen": 2936,
      "##ilerdi": 2937,
      "##usuna": 2938,
      "▁havaliman": 2939,
      "▁ustu": 2940,
      "▁yatırım": 2941,
      "▁alısver": 2942,
      "▁seftali": 2943,
      "▁gezi": 2944,
      "##ınızda": 2945,
      "▁gazetenin": 2946,
      "##da": 2947,
      "▁elem": 2948,
      "▁tr": 2949,
      "##hut": 2950,
      "##eme": 2951,
      "▁gorev": 2952,
      "0": 2953,
      "▁dusmanı": 2954,
      "°": 2955,
      "##iliyor": 2956,
      "▁katilmak": 2957,
      "▁cın": 2958,
      "##layarak": 2959,
      "▁aktif": 2960,
      "’": 2961,
      "##lerde": 2962,
      "##emey": 2963,
      "▁kucuk": 2964,
      "##ban": 2965,
      "▁sekil": 2966,
      "▁karsi": 2967,
      "##aman": 2968,
      "▁sat": 2969,
      "▁olayda": 2970,
      "▁zem": 2971,
      "▁teker": 2972,
      "▁fonu": 2973,
      "▁seyleri": 2974,
      "##deydi": 2975,
      "▁hucre": 2976,
      "##larım": 2977,
      "▁sessiz": 2978,
      "▁sesi": 2979,
      "▁gecit": 2980,
      "▁olc": 2981,
      "##leye": 2982,
      "▁tahvilleri": 2983,
      "▁istifade": 2984,
      "▁hadis": 2985,
      "▁kutuk": 2986,
      "##tas": 2987,
      "▁es": 2988,
      "▁milyondan": 2989,
      "▁birligi": 2990,
      "▁hafız": 2991,
      "##tikce": 2992,
      "##arl": 2993,
      "▁doy": 2994,
      "▁tuh": 2995,
      "▁bunu": 2996,
      "▁taleb": 2997,
      "##ug": 2998,
      "##'ya": 2999,
      "##egen": 3000,
      "▁dısisleri": 3001,
      "▁ok": 3002,
      "▁fazl": 3003,
      "▁oldum": 3004,
      "▁kib": 3005,
      "▁piyan": 3006,
      "▁internet": 3007,
      "##sel": 3008,
      "▁jand": 3009,
      "▁viski": 3010,
      "▁kıvıl": 3011,
      "▁vadesi": 3012,
      "▁azından": 3013,
      "##melere": 3014,
      "▁hasar": 3015,
      "##ma": 3016,
      "▁badem": 3017,
      "▁efsan": 3018,
      "▁kul": 3019,
      "▁ilk": 3020,
      "▁korun": 3021,
      "▁hey": 3022,
      "▁oldu": 3023,
      "##iness": 3024,
      "▁haberdar": 3025,
      "##anıs": 3026,
      "##tu": 3027,
      "▁musait": 3028,
      "▁felsefe": 3029,
      "▁banka": 3030,
      "##cılık": 3031,
      "▁bakın": 3032,
      "▁cesaretini": 3033,
      "▁go": 3034,
      "▁borsası": 3035,
      "▁parasını": 3036,
      "▁list": 3037,
      "▁gecik": 3038,
      "##laydi": 3039,
      "▁dondu": 3040,
      "▁sanayi": 3041,
      "l": 3042,
      "▁taksi": 3043,
      "##illeri": 3044,
      "▁amel": 3045,
      "▁otomobiller": 3046,
      "▁tarihi": 3047,
      "▁ayak": 3048,
      "▁domuz": 3049,
      "##masi": 3050,
      "##aat": 3051,
      "##esem": 3052,
      "▁istiyor": 3053,
      "▁secim": 3054,
      "##eceksin": 3055,
      "▁ulk": 3056,
      "▁musterilere": 3057,
      "▁restor": 3058,
      "##o'ya": 3059,
      "##irgin": 3060,
      "##eler": 3061,
      "▁ihtiyat": 3062,
      "##usunu": 3063,
      "▁miktarda": 3064,
      "▁kada": 3065,
      "▁garanti": 3066,
      "▁uc": 3067,
      "▁cıkarmak": 3068,
      "▁degisiklik": 3069,
      "▁sut": 3070,
      "▁kanser": 3071,
      "▁alıcılar": 3072,
      "▁sınıf": 3073,
      "▁kalmaya": 3074,
      "▁olmaktan": 3075,
      "▁gorduk": 3076,
      "▁kasabaya": 3077,
      "▁kurek": 3078,
      "▁konusmak": 3079,
      "▁abd": 3080,
      "▁ken": 3081,
      "▁heves": 3082,
      "##ibi": 3083,
      "▁yılı": 3084,
      "##lıklı": 3085,
      "▁hemen": 3086,
      "▁cat": 3087,
      "##yla": 3088,
      "▁parkın": 3089,
      "▁cav": 3090,
      "##sek": 3091,
      "##cisi": 3092,
      "▁meydan": 3093,
      "##isleri": 3094,
      "##lamıstı": 3095,
      "▁geldim": 3096,
      "▁tulum": 3097,
      "▁acik": 3098,
      "##uza": 3099,
      "▁baskanı": 3100,
      "##manın": 3101,
      "▁donuyor": 3102,
      "▁26": 3103,
      "▁...": 3104,
      "▁bulgur": 3105,
      "##sun": 3106,
      "##emi": 3107,
      "▁parca": 3108,
      "▁bi": 3109,
      "▁corp.": 3110,
      "▁nok": 3111,
      "▁rady": 3112,
      "▁hekim": 3113,
      "▁cebinden": 3114,
      "▁tari": 3115,
      "▁memnuniyeti": 3116,
      "##ans": 3117,
      "##min": 3118,
      "▁newark": 3119,
      "▁sonra": 3120,
      "▁li": 3121,
      "##rada": 3122,
      "##leyi": 3123,
      "▁ogrenc": 3124,
      "##burg": 3125,
      "▁gordu": 3126,
      "##lamadı": 3127,
      "##ume": 3128,
      "▁alındı": 3129,
      "▁yerine": 3130,
      "▁tesaduf": 3131,
      "▁sıkıntısı": 3132,
      "##'nin": 3133,
      "▁kavg": 3134,
      "▁cambaz": 3135,
      "▁kahkaha": 3136,
      "▁odada": 3137,
      "▁yeryuz": 3138,
      "▁lezzeti": 3139,
      "##bul": 3140,
      "##anlık": 3141,
      "▁si": 3142,
      "▁sermaye": 3143,
      "##larımı": 3144,
      "##iyer": 3145,
      "##eksiyon": 3146,
      "▁lamb": 3147,
      "##enli": 3148,
      "##aca": 3149,
      "▁dolas": 3150,
      "▁paranin": 3151,
      "▁yuksek": 3152,
      "##ab": 3153,
      "▁milyona": 3154,
      "▁mevsim": 3155,
      "▁mez": 3156,
      "##ork": 3157,
      "▁vil": 3158,
      "▁bakıma": 3159,
      "▁halk": 3160,
      "▁deneme": 3161,
      "▁kutup": 3162,
      "▁jo": 3163,
      "##onel": 3164,
      "▁buf": 3165,
      "▁otom": 3166,
      "##mey": 3167,
      "▁turb": 3168,
      "##gıt": 3169,
      "▁zarar": 3170,
      "▁kanıt": 3171,
      "▁yetki": 3172,
      "▁isciler": 3173,
      "##gur": 3174,
      "▁kapı": 3175,
      "▁francisco'dan": 3176,
      "▁yıl": 3177,
      "##ustur": 3178,
      "▁siir": 3179,
      "##ekk": 3180,
      "##dıgımı": 3181,
      "[PAD]": 3182,
      "##ıyordum": 3183,
      "▁carsaf": 3184,
      "##alarım": 3185,
      "##amıza": 3186,
      "▁sistemini": 3187,
      "▁ener": 3188,
      "▁evleri": 3189,
      "▁geyik": 3190,
      "▁parayı": 3191,
      "##osun": 3192,
      "##.ceyrek": 3193,
      "▁mavi": 3194,
      "▁alan": 3195,
      "▁bilg": 3196,
      "▁1988'de": 3197,
      "▁annesi": 3198,
      "##urg": 3199,
      "##inden": 3200,
      "▁philadelphia": 3201,
      "▁dolandır": 3202,
      "▁yaptır": 3203,
      "▁tesh": 3204,
      "▁kulub": 3205,
      "##ılıgını": 3206,
      "##taj": 3207,
      "▁imkan": 3208,
      "▁icr": 3209,
      "▁tamir": 3210,
      "▁munaseb": 3211,
      "▁hoca": 3212,
      "▁kil": 3213,
      "▁konak": 3214,
      "▁ses": 3215,
      "▁basını": 3216,
      "▁tep": 3217,
      "▁re": 3218,
      "▁bizimle": 3219,
      "▁salonu": 3220,
      "▁bicimi": 3221,
      "▁yurudu": 3222,
      "▁misaf": 3223,
      "##tım": 3224,
      "▁anlasmanın": 3225,
      "▁hayv": 3226,
      "▁giyim": 3227,
      "▁disk": 3228,
      "##ıma": 3229,
      "##leme": 3230,
      "▁mal": 3231,
      "##eb": 3232,
      "▁yasamını": 3233,
      "▁kapital": 3234,
      "▁makineler": 3235,
      "▁tucc": 3236,
      "##dıkları": 3237,
      "▁kagıdı": 3238,
      "▁surecin": 3239,
      "▁sesler": 3240,
      "##macılar": 3241,
      "▁l": 3242,
      "▁sayesinde": 3243,
      "##impiyat": 3244,
      "▁aktiviteler": 3245,
      "▁cidd": 3246,
      "▁geliyordu": 3247,
      "▁evr": 3248,
      "▁dıs": 3249,
      "▁hayvanlar": 3250,
      "##larla": 3251,
      "##ts": 3252,
      "▁cik": 3253,
      "▁kanunu": 3254,
      "▁tedbir": 3255,
      "▁haziran": 3256,
      "##ina": 3257,
      "▁damla": 3258,
      "▁cekic": 3259,
      "▁evine": 3260,
      "##duz": 3261,
      "▁bilgilendir": 3262,
      "▁tuketici": 3263,
      "▁mec": 3264,
      "##uye": 3265,
      "▁ucretini": 3266,
      "▁dis": 3267,
      "▁butce": 3268,
      "▁anlamıyla": 3269,
      "▁v": 3270,
      "▁kurulunun": 3271,
      "##ima": 3272,
      "▁tarife": 3273,
      "##-": 3274,
      "▁bulas": 3275,
      "##etim": 3276,
      "▁deg": 3277,
      "▁yaklasık": 3278,
      "▁korku": 3279,
      "##acılar": 3280,
      "▁tey": 3281,
      "##larca": 3282,
      "▁send": 3283,
      "▁sirket": 3284,
      "▁aleyh": 3285,
      "##di": 3286,
      "▁olamaz": 3287,
      "▁personellerden": 3288,
      "▁milliyet": 3289,
      "▁tuccarlar": 3290,
      "▁tabiat": 3291,
      "▁sit": 3292,
      "▁gum": 3293,
      "##eciler": 3294,
      "▁...\"": 3295,
      "▁teklif": 3296,
      "▁yetkilisi": 3297,
      "▁cozum": 3298,
      "##uvar": 3299,
      "▁kapas": 3300,
      "▁yavas": 3301,
      "▁yitir": 3302,
      "▁turuna": 3303,
      "▁ekonomisi": 3304,
      "▁dudak": 3305,
      "▁ucmam": 3306,
      "▁kef": 3307,
      "▁cevr": 3308,
      "##tıg": 3309,
      "▁a.": 3310,
      "▁par": 3311,
      "▁pis": 3312,
      "▁ortalama": 3313,
      "▁sahit": 3314,
      "▁kırm": 3315,
      "##uklu": 3316,
      "##elle": 3317,
      "##p": 3318,
      "##dal": 3319,
      "▁senet": 3320,
      "▁marj": 3321,
      "##akin": 3322,
      "▁city'e": 3323,
      "▁kemik": 3324,
      "▁kapsam": 3325,
      "▁tatlı": 3326,
      "▁arz": 3327,
      "▁fab": 3328,
      "##aseb": 3329,
      "▁basta": 3330,
      "▁olac": 3331,
      "##geler": 3332,
      "▁sarsıntı": 3333,
      "▁paz": 3334,
      "##nci": 3335,
      "▁demokratlar": 3336,
      "##'y": 3337,
      "##'t": 3338,
      "▁iscilerin": 3339,
      "▁atmak": 3340,
      "y": 3341,
      "##iyet": 3342,
      "▁uyustur": 3343,
      "##unda": 3344,
      "▁gelmek": 3345,
      "##wa": 3346,
      "▁kalkan": 3347,
      "▁hele": 3348,
      "▁tarif": 3349,
      "▁genel": 3350,
      "▁kız": 3351,
      "##larımın": 3352,
      "##edav": 3353,
      "##ecegini": 3354,
      "▁kılıc": 3355,
      "##ınız": 3356,
      "##nız": 3357,
      "▁tehd": 3358,
      "##ekli": 3359,
      "##eral": 3360,
      "▁temsilcileri": 3361,
      "##ikleri": 3362,
      "▁makine": 3363,
      "▁gosterdi": 3364,
      "▁hedef": 3365,
      "▁dagın": 3366,
      "▁getir": 3367,
      "▁abla": 3368,
      "##oeni": 3369,
      "##larımızın": 3370,
      "##ezi": 3371,
      "##ali": 3372,
      "▁balt": 3373,
      "▁sirk": 3374,
      "▁komun": 3375,
      "▁sas": 3376,
      "▁degerini": 3377,
      "▁duserek": 3378,
      "▁sebeb": 3379,
      "▁fin": 3380,
      "▁hediy": 3381,
      "##ıgına": 3382,
      "##lamaz": 3383,
      "▁zor": 3384,
      "##isco": 3385,
      "▁ulkemiz": 3386,
      "##usten": 3387,
      "▁pamuk": 3388,
      "##lerimizin": 3389,
      "▁plani": 3390,
      "▁gelin": 3391,
      "▁oluyordu": 3392,
      "▁emr": 3393,
      "##enden": 3394,
      "▁kerv": 3395,
      "##lılıg": 3396,
      "▁an": 3397,
      "##gru": 3398,
      "##izdi": 3399,
      "▁yıla": 3400,
      "##digimi": 3401,
      "▁beyefendi": 3402,
      "▁dısarıdan": 3403,
      "##ebilecek": 3404,
      "▁fabr": 3405,
      "▁finc": 3406,
      "▁menfaat": 3407,
      "▁belki": 3408,
      "▁tesisin": 3409,
      "▁heyecan": 3410,
      "##ılıgı": 3411,
      "▁7'den": 3412,
      "▁kendine": 3413,
      "▁2'den": 3414,
      "▁geldi": 3415,
      "##ınıza": 3416,
      "▁cesi": 3417,
      "▁gozlerini": 3418,
      "▁aileler": 3419,
      "##anlarda": 3420,
      "##eveyn": 3421,
      "##dın": 3422,
      "▁%4": 3423,
      "##ellikle": 3424,
      "▁bardagı": 3425,
      "▁sogu": 3426,
      "▁makaleye": 3427,
      "▁kocası": 3428,
      "##q": 3429,
      "▁ist": 3430,
      "▁plat": 3431,
      "▁olabilir": 3432,
      "▁tarzı": 3433,
      "▁corba": 3434,
      "▁bar": 3435,
      "▁subay": 3436,
      "▁bulur": 3437,
      "▁fas": 3438,
      "##adel": 3439,
      "▁faaliyetleri": 3440,
      "##edef": 3441,
      "▁sonrası": 3442,
      "▁hakaret": 3443,
      "▁kon": 3444,
      "##temelen": 3445,
      "▁airlines": 3446,
      "##3'e": 3447,
      "▁halkı": 3448,
      "##use": 3449,
      "▁kazanmak": 3450,
      "▁mart": 3451,
      "▁cas": 3452,
      "▁kere": 3453,
      "▁katkı": 3454,
      "▁trans": 3455,
      "▁chp": 3456,
      "▁iceriden": 3457,
      "▁seans": 3458,
      "▁gost": 3459,
      "##rlikte": 3460,
      "▁pazar": 3461,
      "##altı": 3462,
      "##.m": 3463,
      "▁tasf": 3464,
      "▁anlasması": 3465,
      "▁piyasasının": 3466,
      "▁one": 3467,
      "##ukee": 3468,
      "▁basladım": 3469,
      "##goz": 3470,
      "##isten": 3471,
      "▁kusku": 3472,
      "▁bos": 3473,
      "▁dogrult": 3474,
      "▁ar": 3475,
      "##mayın": 3476,
      "##abilecegini": 3477,
      "▁temp": 3478,
      "▁aktarmasız": 3479,
      "▁onemi": 3480,
      "##biy": 3481,
      "##alog": 3482,
      "▁tadima": 3483,
      "▁bulama": 3484,
      "▁fiyatlarını": 3485,
      "▁sevk": 3486,
      "▁heykel": 3487,
      "▁ayından": 3488,
      "▁tanıtım": 3489,
      "▁sur": 3490,
      "##onra": 3491,
      "▁ait": 3492,
      "▁--": 3493,
      "▁dekorasyonu": 3494,
      "▁mur": 3495,
      "▁koku": 3496,
      "▁gayet": 3497,
      "▁muhtesem": 3498,
      "▁arası": 3499,
      "▁etraf": 3500,
      "▁omr": 3501,
      "##de": 3502,
      "▁espr": 3503,
      "##ile": 3504,
      "▁pap": 3505,
      "▁kullan": 3506,
      "##meldi": 3507,
      "##enek": 3508,
      "▁senedi": 3509,
      "##iligini": 3510,
      "▁azınlık": 3511,
      "▁angeles": 3512,
      "▁sahtek": 3513,
      "▁beye": 3514,
      "##mazdı": 3515,
      "▁zarf": 3516,
      "▁genelde": 3517,
      "▁arabalar": 3518,
      "▁umud": 3519,
      "▁anlat": 3520,
      "##ılık": 3521,
      "▁ode": 3522,
      "##ırak": 3523,
      "▁gunluk": 3524,
      "##onya": 3525,
      "##etle": 3526,
      "▁tutam": 3527,
      "▁karsıl": 3528,
      "▁vardır": 3529,
      "##ska": 3530,
      "▁gostermek": 3531,
      "##ere": 3532,
      "▁supur": 3533,
      "▁ikin": 3534,
      "##lemek": 3535,
      "▁parmak": 3536,
      "▁sabır": 3537,
      "▁havaalanından": 3538,
      "▁darb": 3539,
      "▁yapmayı": 3540,
      "▁memleketin": 3541,
      "▁muzik": 3542,
      "▁sesini": 3543,
      "▁.\"": 3544,
      "▁borc": 3545,
      "▁kek": 3546,
      "##lerinde": 3547,
      "##acılıgı": 3548,
      "▁akt": 3549,
      "▁yumurta": 3550,
      "##istler": 3551,
      "▁olay": 3552,
      "##0.": 3553,
      "##'de": 3554,
      "▁bildirdi": 3555,
      "▁planlamam": 3556,
      "##bal": 3557,
      "##legi": 3558,
      "▁yetenek": 3559,
      "▁laik": 3560,
      "▁uzerindeki": 3561,
      "##okul": 3562,
      "▁ailelerin": 3563,
      "▁rakib": 3564,
      "▁askeri": 3565,
      "▁ef": 3566,
      "▁sebebi": 3567,
      "▁kuyu": 3568,
      "##udur": 3569,
      "▁vucu": 3570,
      "▁bire": 3571,
      "##ait": 3572,
      "▁butu": 3573,
      "▁arkadasları": 3574,
      "▁for": 3575,
      "▁oldugun": 3576,
      "▁eks": 3577,
      "▁oldukca": 3578,
      "▁basla": 3579,
      "▁nakit": 3580,
      "▁haftanın": 3581,
      "▁yapması": 3582,
      "▁fut": 3583,
      "▁burokr": 3584,
      "▁ahır": 3585,
      "▁ter": 3586,
      "▁mot": 3587,
      "##lam": 3588,
      "##6": 3589,
      "##yosu": 3590,
      "▁kardesim": 3591,
      "▁bahar": 3592,
      "▁buz": 3593,
      "##ebilir": 3594,
      "▁bulundu": 3595,
      "▁saatleri": 3596,
      "▁mukemmeldi": 3597,
      "##ledim": 3598,
      "##lak": 3599,
      "▁yarıs": 3600,
      "▁tramvay": 3601,
      "▁bileti": 3602,
      "▁paket": 3603,
      "▁disip": 3604,
      "▁rah": 3605,
      "▁sokakta": 3606,
      "##:": 3607,
      "▁basımıza": 3608,
      "▁gorus": 3609,
      "▁bir": 3610,
      "▁onların": 3611,
      "▁tekne": 3612,
      "▁il": 3613,
      "▁huc": 3614,
      "▁sacları": 3615,
      "▁data": 3616,
      "▁kıymet": 3617,
      "▁icimden": 3618,
      "▁endeks": 3619,
      "▁ikram": 3620,
      "▁ucuyor": 3621,
      "▁koyden": 3622,
      "▁havaalanı": 3623,
      "▁eksiklik": 3624,
      "▁soz": 3625,
      "##ttı": 3626,
      "▁dikkat": 3627,
      "▁bira": 3628,
      "▁icimi": 3629,
      "▁falan": 3630,
      "▁seklinde": 3631,
      "▁sonbahar": 3632,
      "##lılık": 3633,
      "##f": 3634,
      "▁cehr": 3635,
      "▁olup": 3636,
      "▁yılda": 3637,
      "▁olursa": 3638,
      "▁kablo": 3639,
      "▁duygularını": 3640,
      "▁uze": 3641,
      "##5'te": 3642,
      "▁oranlarının": 3643,
      "▁sor": 3644,
      "##asız": 3645,
      "▁doktor": 3646,
      "▁verme": 3647,
      "▁gorgu": 3648,
      "▁haz": 3649,
      "▁guzelligi": 3650,
      "▁dair": 3651,
      "##uktu": 3652,
      "▁kitap": 3653,
      "▁ya": 3654,
      "▁ruzg": 3655,
      "##2": 3656,
      "▁dosy": 3657,
      "▁degil": 3658,
      "▁tatli": 3659,
      "##.": 3660,
      "▁kasıgı": 3661,
      "▁telgraf": 3662,
      "▁boyle": 3663,
      "▁kan": 3664,
      "▁ekim": 3665,
      "▁iceriye": 3666,
      "▁neyse": 3667,
      "▁meclisi": 3668,
      "▁ihmal": 3669,
      "▁yenilik": 3670,
      "##larını": 3671,
      "▁alb": 3672,
      "##jik": 3673,
      "▁kodu": 3674,
      "##agı": 3675,
      "▁bilir": 3676,
      "##makt": 3677,
      "##iydi": 3678,
      "##lastik": 3679,
      "▁set": 3680,
      "▁fatur": 3681,
      "▁etti": 3682,
      "▁sozlerine": 3683,
      "▁hızlı": 3684,
      "▁adamları": 3685,
      "##aliydi": 3686,
      "▁enst": 3687,
      "##cag": 3688,
      "##dıgında": 3689,
      "▁haval": 3690,
      "##imizde": 3691,
      "▁talep": 3692,
      "▁norm": 3693,
      "▁numar": 3694,
      "▁olduk": 3695,
      "##ayol": 3696,
      "▁hayret": 3697,
      "▁koridor": 3698,
      "▁adeta": 3699,
      "▁mevduat": 3700,
      "▁enerj": 3701,
      "▁beklent": 3702,
      "▁ata": 3703,
      "▁ikinci": 3704,
      "##lıydı": 3705,
      "▁polis": 3706,
      "##-sat": 3707,
      "##iyatr": 3708,
      "▁guney": 3709,
      "▁aqu": 3710,
      "▁lun": 3711,
      "##umuz": 3712,
      "##ilige": 3713,
      "▁hisselerin": 3714,
      "▁seviyesinde": 3715,
      "##(": 3716,
      "▁uste": 3717,
      "▁istegi": 3718,
      "▁phil": 3719,
      "▁yuv": 3720,
      "##izli": 3721,
      "▁sıcak": 3722,
      "▁galib": 3723,
      "▁istiklal": 3724,
      "[MASK]": 3725,
      "▁havayollarını": 3726,
      "▁tarihinde": 3727,
      "▁yanına": 3728,
      "▁kamu": 3729,
      "▁karsılıgı": 3730,
      "▁vs": 3731,
      "▁terbiy": 3732,
      "▁yig": 3733,
      "##yuzlu": 3734,
      "▁sal": 3735,
      "▁isyan": 3736,
      "▁day": 3737,
      "▁havuzlar": 3738,
      "▁gozlerim": 3739,
      "▁hakkını": 3740,
      "##ıgını": 3741,
      "▁odalari": 3742,
      "##od": 3743,
      "▁erkek": 3744,
      "▁gunku": 3745,
      "▁fiyatını": 3746,
      "▁biliyor": 3747,
      "▁sahn": 3748,
      "▁dos": 3749,
      "▁ismi": 3750,
      "▁ortalaması": 3751,
      "▁sirketinin": 3752,
      "▁sasır": 3753,
      "##eren": 3754,
      "▁limon": 3755,
      "##set": 3756,
      "▁yonunde": 3757,
      "▁per": 3758,
      "▁onur": 3759,
      "##ıstı": 3760,
      "##idir": 3761,
      "##cular": 3762,
      "▁tutar": 3763,
      "▁kitapta": 3764,
      "▁…": 3765,
      "▁mezar": 3766,
      "##fa": 3767,
      "▁vet": 3768,
      "##alama": 3769,
      "▁yerini": 3770,
      "##gah": 3771,
      "▁telaf": 3772,
      "▁memur": 3773,
      "▁saman": 3774,
      "▁hissediyor": 3775,
      "▁satmak": 3776,
      "▁iliskisi": 3777,
      "▁gelmedi": 3778,
      "▁alkol": 3779,
      "▁olur": 3780,
      "▁sigorta": 3781,
      "▁barın": 3782,
      "▁aln": 3783,
      "▁kagıtları": 3784,
      "▁harek": 3785,
      "##ligi": 3786,
      "##mustu": 3787,
      "▁kulak": 3788,
      "##ul": 3789,
      "##pan": 3790,
      "▁sigort": 3791,
      "▁alım-satım": 3792,
      "##ileri": 3793,
      "▁araz": 3794,
      "▁dalgalan": 3795,
      "▁ho": 3796,
      "##elerle": 3797,
      "a": 3798,
      "▁bilmem": 3799,
      "▁cont": 3800,
      "▁kagı": 3801,
      "##ilig": 3802,
      "##tıgını": 3803,
      "##an": 3804,
      "▁takım": 3805,
      "▁havada": 3806,
      "▁hatt": 3807,
      "▁cır": 3808,
      "▁ablam": 3809,
      "▁oteller": 3810,
      "▁hareketler": 3811,
      "[UNK]": 3812,
      "▁uzun": 3813,
      "##ıcısı": 3814,
      "▁duruma": 3815,
      "▁ile": 3816,
      "▁kahvaltisi": 3817,
      "##yacak": 3818,
      "##9'un": 3819,
      "##ayıf": 3820,
      "▁kavanoz": 3821,
      "▁rakip": 3822,
      "##arlar": 3823,
      "##elerden": 3824,
      "▁kupon": 3825,
      "##5'ten": 3826,
      "##uzluk": 3827,
      "▁hesap": 3828,
      "▁ster": 3829,
      "▁bence": 3830,
      "▁bog": 3831,
      "▁vur": 3832,
      "▁vatandas": 3833,
      "▁bulbul": 3834,
      "##leriniz": 3835,
      "▁karsilik": 3836,
      "##tat": 3837,
      "▁/": 3838,
      "▁kaya": 3839,
      "▁yardımı": 3840,
      "▁yapılacak": 3841,
      "##emiz": 3842,
      "▁memnunuz": 3843,
      "▁yolunu": 3844,
      "##tırmak": 3845,
      "##ba": 3846,
      "##eti": 3847,
      "▁hepimiz": 3848,
      "▁boyunca": 3849,
      "▁kesint": 3850,
      "▁gelisme": 3851,
      "##ladıgını": 3852,
      "▁ic": 3853,
      "▁batı": 3854,
      "▁bur": 3855,
      "▁kapandı": 3856,
      "▁itibar": 3857,
      "▁nefes": 3858,
      "▁havayolları": 3859,
      "▁ekledi": 3860,
      "▁kenarında": 3861,
      "▁carp": 3862,
      "▁met": 3863,
      "▁evlat": 3864,
      "▁transfer": 3865,
      "##ber": 3866,
      "▁anlas": 3867,
      "▁ail": 3868,
      "▁yapar": 3869,
      "▁durusma": 3870,
      "▁terey": 3871,
      "▁ayna": 3872,
      "▁top": 3873,
      "▁odalar": 3874,
      "##ınt": 3875,
      "▁gelmis": 3876,
      "▁dolap": 3877,
      "▁kum": 3878,
      "##edig": 3879,
      "▁odası": 3880,
      "▁suları": 3881,
      "▁dunyaya": 3882,
      "▁eg": 3883,
      "##esinin": 3884,
      "##ege": 3885,
      "▁degerlendir": 3886,
      "▁ner": 3887,
      "▁baglant": 3888,
      "▁“": 3889,
      "##7'de": 3890,
      "##ash": 3891,
      "▁al": 3892,
      "▁cam": 3893,
      "▁parayi": 3894,
      "▁girer": 3895,
      "▁nakliye": 3896,
      "##ay": 3897,
      "▁konuyu": 3898,
      "▁haline": 3899,
      "▁icme": 3900,
      "▁yaln": 3901,
      "▁pittsburgh'a": 3902,
      "##c": 3903,
      "▁zek": 3904,
      "▁cekim": 3905,
      "##iligin": 3906,
      "▁halka": 3907,
      "▁geriledi": 3908,
      "▁hepsi": 3909,
      "▁sayıda": 3910,
      "▁yayın": 3911,
      "▁kiralama": 3912,
      "##madan": 3913,
      "##'na": 3914,
      "▁sonuclar": 3915,
      "▁ayni": 3916,
      "▁denizinden": 3917,
      "▁isle": 3918,
      "▁sembol": 3919,
      "▁tasımacılıgı": 3920,
      "▁birini": 3921,
      "##dugunde": 3922,
      "▁degirmen": 3923,
      "▁ayagına": 3924,
      "##unuz": 3925,
      "▁asla": 3926,
      "▁gaf": 3927,
      "##geleri": 3928,
      "##'daki": 3929,
      "##oglu": 3930,
      "##des": 3931,
      "▁kasırg": 3932,
      "▁saclarını": 3933,
      "▁sinema": 3934,
      "▁teraz": 3935,
      "▁atılım": 3936,
      "▁dusunur": 3937,
      "▁suyun": 3938,
      "▁karsılık": 3939,
      "▁urunu": 3940,
      "##ij": 3941,
      "▁zira": 3942,
      "▁maden": 3943,
      "▁c": 3944,
      "##anın": 3945,
      "##ımla": 3946,
      "▁sektor": 3947,
      "​": 3948,
      "▁tuvalet": 3949,
      "▁tab": 3950,
      "▁cur": 3951,
      "▁kıyı": 3952,
      "▁isin": 3953,
      "▁utan": 3954,
      "▁oldugundan": 3955,
      "▁olabilirdi": 3956,
      "▁ulkelerde": 3957,
      "▁kacır": 3958,
      "▁oranla": 3959,
      "▁fıs": 3960,
      "▁eskiydi": 3961,
      "##meyecegini": 3962,
      "##endi": 3963,
      "▁lak": 3964,
      "▁karsı": 3965,
      "‘": 3966,
      "##sizdi": 3967,
      "##lag": 3968,
      "▁sorun": 3969,
      "▁nedenlerden": 3970,
      "▁panik": 3971,
      "▁gorevini": 3972,
      "##ye": 3973,
      "▁gerekcesiyle": 3974,
      "▁yapım": 3975,
      "▁op": 3976,
      "##sim": 3977,
      "##suz": 3978,
      "▁his": 3979,
      "▁hot": 3980,
      "▁basladılar": 3981,
      "##usundan": 3982,
      "▁tarım": 3983,
      "##ebil": 3984,
      "##piyat": 3985,
      "##,": 3986,
      "▁kıskanc": 3987,
      "##tanbul": 3988,
      "▁tedavulde": 3989,
      "##ıyla": 3990,
      "##arında": 3991,
      "▁talih": 3992,
      "▁duzel": 3993,
      "##go": 3994,
      "▁diye": 3995,
      "▁tane": 3996,
      "▁yıllık": 3997,
      "##eceklerini": 3998,
      "▁biraz": 3999,
      "▁geriye": 4000,
      "▁koyu": 4001,
      "▁otek": 4002,
      "##ıl": 4003,
      "▁geril": 4004,
      "▁etkisini": 4005,
      "##ınır": 4006,
      "##minde": 4007,
      "##tiv": 4008,
      "▁far": 4009,
      "##ıh": 4010,
      "▁sikay": 4011,
      "▁gecmiste": 4012,
      "▁soy": 4013,
      "▁ihtiyacı": 4014,
      "▁saglamak": 4015,
      "▁etmek": 4016,
      "▁cum": 4017,
      "##?": 4018,
      "▁tahvillerin": 4019,
      "▁ayag": 4020,
      "▁!..": 4021,
      "▁bagıs": 4022,
      "▁donan": 4023,
      "▁kiz": 4024,
      "▁artık": 4025,
      "▁hanimla": 4026,
      "▁duy": 4027,
      "▁okur": 4028,
      "▁delikanlı": 4029,
      "##aklı": 4030,
      "##mamıstı": 4031,
      "##larıyla": 4032,
      "##tigini": 4033,
      "##lacak": 4034,
      "▁odanın": 4035,
      "##lıkları": 4036,
      "▁gununden": 4037,
      "▁tahsis": 4038,
      "##ulmus": 4039,
      "##)": 4040,
      "▁haberleri": 4041,
      "▁sek": 4042,
      "▁ihal": 4043,
      "▁rakamları": 4044,
      "▁rekor": 4045,
      "▁kazanclar": 4046,
      "##aga": 4047,
      "▁yapmıs": 4048,
      "▁bakmak": 4049,
      "▁haric": 4050,
      "##ant": 4051,
      "▁satın": 4052,
      "▁yasına": 4053,
      "##'dan": 4054,
      "▁belg": 4055,
      "▁aklı": 4056,
      "▁federal": 4057,
      "▁bahcı": 4058,
      "▁iliskiler": 4059,
      "▁ipotege": 4060,
      "▁kilis": 4061,
      "▁goruntu": 4062,
      "▁isabet": 4063,
      "▁karsısında": 4064,
      "▁miktarı": 4065,
      "▁sorunun": 4066,
      "##bus": 4067,
      "▁yat": 4068,
      "##lk": 4069,
      "▁sınırları": 4070,
      "▁veri": 4071,
      "▁dus": 4072,
      "▁ahlak": 4073,
      "▁ilc": 4074,
      "▁business": 4075,
      "'": 4076,
      "▁verdi": 4077,
      "##lıgını": 4078,
      "▁dar": 4079,
      "▁plan": 4080,
      "##dadır": 4081,
      "▁madem": 4082,
      "▁lek": 4083,
      "▁yuzunu": 4084,
      "▁ucusunun": 4085,
      "##rik": 4086,
      "▁ressam": 4087,
      "▁ulas": 4088,
      "▁operasyon": 4089,
      "▁yaptirmadim": 4090,
      "▁istedigini": 4091,
      "▁duvarı": 4092,
      "▁kr": 4093,
      "▁perakende": 4094,
      "▁yalan": 4095,
      "▁arastır": 4096,
      "▁sapka": 4097,
      "▁nasıl": 4098,
      "##eri": 4099,
      "▁buradan": 4100,
      "▁yasan": 4101,
      "##luk": 4102,
      "▁rehberimiz": 4103,
      "▁rakı": 4104,
      "##landıgını": 4105,
      "▁uygu": 4106,
      "##sali": 4107,
      "▁degi": 4108,
      "▁so": 4109,
      "▁ydı": 4110,
      "##in": 4111,
      "##ell": 4112,
      "▁basarılı": 4113,
      "▁jaguar": 4114,
      "▁ciz": 4115,
      "▁iktid": 4116,
      "▁iletisim": 4117,
      "##layan": 4118,
      "▁ilgilendi": 4119,
      "▁zeka": 4120,
      "##gundu": 4121,
      "▁ısrar": 4122,
      "▁tedavul": 4123,
      "##lanan": 4124,
      "▁universit": 4125,
      "##tir": 4126,
      "##iste": 4127,
      "▁doları": 4128,
      "▁vucut": 4129,
      "▁alana": 4130,
      "##kin": 4131,
      "▁zamanla": 4132,
      "##inc": 4133,
      "▁bufe": 4134,
      "##cut": 4135,
      "▁birlesme": 4136,
      "##macı": 4137,
      "▁kalıb": 4138,
      "##ıf": 4139,
      "▁devrim": 4140,
      "##iniz": 4141,
      "▁hizmetinden": 4142,
      "▁asagı": 4143,
      "▁ak": 4144,
      "▁sezlon": 4145,
      "▁anım": 4146,
      "##alı": 4147,
      "▁uretim": 4148,
      "▁oyuncusu": 4149,
      "▁golg": 4150,
      "##uldu": 4151,
      "##ekler": 4152,
      "▁kalktı": 4153,
      "▁golge": 4154,
      "##ustuk": 4155,
      "▁anket": 4156,
      "##oru": 4157,
      "▁balık": 4158,
      "▁hal": 4159,
      "▁;": 4160,
      "##masına": 4161,
      "▁basamak": 4162,
      "▁spor": 4163,
      "▁if": 4164,
      "▁duyg": 4165,
      "▁uluslar": 4166,
      "▁misin": 4167,
      "▁kent": 4168,
      "▁piyasası": 4169,
      "▁gali": 4170,
      "▁oc": 4171,
      "##imore": 4172,
      "▁artısı": 4173,
      "▁pak": 4174,
      "##fet": 4175,
      "##acıları": 4176,
      "▁peynir": 4177,
      "##inler": 4178,
      "##erik": 4179,
      "▁onune": 4180,
      "▁babasının": 4181,
      "##leleri": 4182,
      "▁elbise": 4183,
      "▁demokras": 4184,
      "▁general": 4185,
      "r": 4186,
      "▁kole": 4187,
      "##osuna": 4188,
      "##og": 4189,
      "▁bolun": 4190,
      "##dir": 4191,
      "##tif": 4192,
      "▁hayalet": 4193,
      "##su": 4194,
      "▁malzem": 4195,
      "▁bayr": 4196,
      "▁dili": 4197,
      "##cilerin": 4198,
      "##lo": 4199,
      "▁kaldır": 4200,
      "▁gunleri": 4201,
      "▁istif": 4202,
      "▁uzman": 4203,
      "▁sırtına": 4204,
      "▁fazlası": 4205,
      "▁otomobil": 4206,
      "▁imal": 4207,
      "##ge": 4208,
      "▁isi": 4209,
      "▁yargı": 4210,
      "##osunda": 4211,
      "##mli": 4212,
      "▁dal": 4213,
      "##onto": 4214,
      "##kun": 4215,
      "▁kredi": 4216,
      "▁gerek": 4217,
      "▁bircok": 4218,
      "▁gelge": 4219,
      "▁sozlesmesi": 4220,
      "▁indi": 4221,
      "##co": 4222,
      "▁kapının": 4223,
      "▁deng": 4224,
      "▁di": 4225,
      "▁cocuklarını": 4226,
      "▁aklına": 4227,
      "▁bır": 4228,
      "##iran": 4229,
      "▁temyiz": 4230,
      "▁gecenin": 4231,
      "▁yerlerden": 4232,
      "##liye": 4233,
      "##yar": 4234,
      "▁mahkemede": 4235,
      "##iyeler": 4236,
      "##is": 4237,
      "▁vermis": 4238,
      "▁gru": 4239,
      "▁harcama": 4240,
      "▁br": 4241,
      "▁konferans": 4242,
      "▁artır": 4243,
      "▁hep": 4244,
      "▁post": 4245,
      "▁utanc": 4246,
      "##en": 4247,
      "▁3": 4248,
      "▁yaptı": 4249,
      "v": 4250,
      "▁oglen": 4251,
      "▁pu": 4252,
      "##agını": 4253,
      "##…": 4254,
      "▁derecede": 4255,
      "##muz": 4256,
      "▁ihtim": 4257,
      "▁alıp": 4258,
      "▁gib": 4259,
      "##hanede": 4260,
      "▁kimsenin": 4261,
      "▁bankanın": 4262,
      "##ia": 4263,
      "▁etmeye": 4264,
      "▁erik": 4265,
      "▁..": 4266,
      "▁iyice": 4267,
      "##andan": 4268,
      "▁omur": 4269,
      "##alari": 4270,
      "▁seker": 4271,
      "##ern": 4272,
      "##asıyla": 4273,
      "##inize": 4274,
      "▁dondur": 4275,
      "▁isleri": 4276,
      "▁dev": 4277,
      "▁itiraf": 4278,
      "▁inan": 4279,
      "▁muh": 4280,
      "▁kuv": 4281,
      "###": 4282,
      "##gar": 4283,
      "##ank": 4284,
      "▁kategor": 4285,
      "##sızlık": 4286,
      "▁arzu": 4287,
      "▁ornegin": 4288,
      "▁kurtaj": 4289,
      "##areti": 4290,
      "▁butc": 4291,
      "▁turden": 4292,
      "▁olmasın": 4293,
      "▁ucuslarının": 4294,
      "▁devri": 4295,
      "▁nisan": 4296,
      "▁animator": 4297,
      "▁vaat": 4298,
      "▁guv": 4299,
      "▁yatırımcı": 4300,
      "▁servisi": 4301,
      "##par": 4302,
      "##lem": 4303,
      "▁dustu": 4304,
      "##ane": 4305,
      "▁yol": 4306,
      "##fer": 4307,
      "##os": 4308,
      "##'a": 4309,
      "▁basarısız": 4310,
      "▁uslu": 4311,
      "▁yanl": 4312,
      "##ark": 4313,
      "##tigim": 4314,
      "▁kaybı": 4315,
      "##osyon": 4316,
      "##eticisi": 4317,
      "▁sade": 4318,
      "▁ulke": 4319,
      "▁eli": 4320,
      "##kon": 4321,
      "▁hedefleri": 4322,
      "▁yurut": 4323,
      "##ecekler": 4324,
      "##lugun": 4325,
      "▁kes": 4326,
      "▁nak": 4327,
      "▁harp": 4328,
      "▁tayin": 4329,
      "▁basladı": 4330,
      "##ugunu": 4331,
      "▁karsıtı": 4332,
      "##ında": 4333,
      "##ah": 4334,
      "▁sorum": 4335,
      "##00": 4336,
      "▁havlular": 4337,
      "##mos": 4338,
      "▁uretic": 4339,
      "▁tutmak": 4340,
      "▁gulery": 4341,
      "▁sultan": 4342,
      "▁houston": 4343,
      "##eder": 4344,
      "▁sı": 4345,
      "▁iliskileri": 4346,
      "▁kalitesini": 4347,
      "▁asagıda": 4348,
      "▁cev": 4349,
      "##ji": 4350,
      "▁senator": 4351,
      "▁9'dan": 4352,
      "##etsiz": 4353,
      "▁bulmak": 4354,
      "▁damar": 4355,
      "##man": 4356,
      "##ham": 4357,
      "▁cub": 4358,
      "##alif": 4359,
      "▁kolunu": 4360,
      "▁politikası": 4361,
      "▁teklifini": 4362,
      "▁hırsız": 4363,
      "▁sonunda": 4364,
      "▁yonde": 4365,
      "▁gozyas": 4366,
      "##yabilir": 4367,
      "##lıgımı": 4368,
      "##ira": 4369,
      "▁semt": 4370,
      "##enlerin": 4371,
      "▁buldum": 4372,
      "▁adamı": 4373,
      "▁siddet": 4374,
      "▁tarafı": 4375,
      "##inceye": 4376,
      "▁planlarını": 4377,
      "▁dısarıya": 4378,
      "▁yagı": 4379,
      "▁hissedar": 4380,
      "▁izn": 4381,
      "▁nih": 4382,
      "▁tatile": 4383,
      "▁ucretine": 4384,
      "##nam": 4385,
      "▁duvarlar": 4386,
      "▁adam": 4387,
      "##lenen": 4388,
      "▁kahvaltı": 4389,
      "▁topr": 4390,
      "▁aksamı": 4391,
      "▁isterim": 4392,
      "▁patron": 4393,
      "##il": 4394,
      "▁yaban": 4395,
      "▁taslar": 4396,
      "##ustos": 4397,
      "##ari": 4398,
      "▁birinci": 4399,
      "▁komitesi": 4400,
      "▁ihtiyar": 4401,
      "▁komite": 4402,
      "▁sil": 4403,
      "▁soylem": 4404,
      "▁etmis": 4405,
      "▁mısır": 4406,
      "##dıklarını": 4407,
      "▁bes": 4408,
      "▁alman": 4409,
      "##eket": 4410,
      "▁ko": 4411,
      "##angi": 4412,
      "##amay": 4413,
      "▁aksam": 4414,
      "##ildi": 4415,
      "▁ons": 4416,
      "▁mu": 4417,
      "##lanmasını": 4418,
      "▁spekul": 4419,
      "##lerimize": 4420,
      "▁dile": 4421,
      "##ve": 4422,
      "▁egitimi": 4423,
      "##tor": 4424,
      "##lesi": 4425,
      "▁parlam": 4426,
      "▁sansur": 4427,
      "##ılı": 4428,
      "▁giriste": 4429,
      "##8": 4430,
      "▁yabanci": 4431,
      "▁yoksa": 4432,
      "▁saka": 4433,
      "▁basvuru": 4434,
      "##orta": 4435,
      "##.4": 4436,
      "▁cevre": 4437,
      "##ru": 4438,
      "▁cop": 4439,
      "▁ogren": 4440,
      "##ilmesi": 4441,
      "▁konsol": 4442,
      "▁kanı": 4443,
      "##ayla": 4444,
      "▁mevz": 4445,
      "▁araba": 4446,
      "▁yesil": 4447,
      "▁verim": 4448,
      "▁enstit": 4449,
      "▁orta": 4450,
      "##luga": 4451,
      "▁listele": 4452,
      "##isini": 4453,
      "▁olduguna": 4454,
      "▁sanatcı": 4455,
      "▁ti": 4456,
      "▁salt": 4457,
      "▁dor": 4458,
      "▁senar": 4459,
      "▁kongr": 4460,
      "▁stud": 4461,
      "##ılmasını": 4462,
      "▁med": 4463,
      "▁performans": 4464,
      "▁kazandı": 4465,
      "▁olmalı": 4466,
      "##iyim": 4467,
      "▁gecirdi": 4468,
      "▁puanlama": 4469,
      "##cının": 4470,
      "▁tartıs": 4471,
      "▁tamamen": 4472,
      "▁men": 4473,
      "▁dunyasında": 4474,
      "##air": 4475,
      "##mine": 4476,
      "▁toprak": 4477,
      "▁resim": 4478,
      "▁yad": 4479,
      "▁girisim": 4480,
      "▁yolu": 4481,
      "##gor": 4482,
      "##'ın": 4483,
      "##ok": 4484,
      "▁cesitleri": 4485,
      "▁koy": 4486,
      "##anı": 4487,
      "▁babam": 4488,
      "▁yalnızca": 4489,
      "▁verdigim": 4490,
      "▁bagr": 4491,
      "▁yaklasımı": 4492,
      "▁fot": 4493,
      "##akende": 4494,
      "▁toplantıda": 4495,
      "▁sansı": 4496,
      "▁yokus": 4497,
      "▁ilgisi": 4498,
      "▁tipi": 4499,
      "▁rezervasyonu": 4500,
      "▁elde": 4501,
      "▁yarısı": 4502,
      "▁sendik": 4503,
      "▁milyar": 4504,
      "▁harika": 4505,
      "▁rakamlar": 4506,
      "▁elinden": 4507,
      "##ılmak": 4508,
      "▁chic": 4509,
      "##lamıs": 4510,
      "▁ailesi": 4511,
      "##j": 4512,
      "▁muhafaz": 4513,
      "##atı": 4514,
      "▁istih": 4515,
      "##ligine": 4516,
      "##mes": 4517,
      "▁aramız": 4518,
      "▁ihracı": 4519,
      "▁kampan": 4520,
      "▁serg": 4521,
      "▁f": 4522,
      "##ılıg": 4523,
      "##isinin": 4524,
      "▁11": 4525,
      "▁acısından": 4526,
      "▁evin": 4527,
      "▁bardak": 4528,
      "##ayı": 4529,
      "##igi": 4530,
      "▁yemekten": 4531,
      "▁okuz": 4532,
      "▁olacagını": 4533,
      "▁yolcu": 4534,
      "▁gencler": 4535,
      "##te": 4536,
      "▁teklifi": 4537,
      "▁suresi": 4538,
      "##alardan": 4539,
      "##esti": 4540,
      "▁icap": 4541,
      "▁islemi": 4542,
      "▁olmadi": 4543,
      "▁aks": 4544,
      "▁ark": 4545,
      "##azı": 4546,
      "▁merkezi": 4547,
      "▁merkez": 4548,
      "▁memnunum": 4549,
      "##25": 4550,
      "##tıkları": 4551,
      "▁doktorun": 4552,
      "▁hanım": 4553,
      "▁piy": 4554,
      "##3": 4555,
      "▁olayın": 4556,
      "▁uyusturucu": 4557,
      "##imizden": 4558,
      "##uler": 4559,
      "##ılmaya": 4560,
      "▁kumar": 4561,
      "▁oy": 4562,
      "▁oranı": 4563,
      "▁emn": 4564,
      "▁burada": 4565,
      "▁nelerdir": 4566,
      "##digi": 4567,
      "##lul": 4568,
      "▁bulun": 4569,
      "▁yuzyıl": 4570,
      "▁aldı": 4571,
      "▁kırıklıgı": 4572,
      "▁sermay": 4573,
      "▁etek": 4574,
      "▁gr": 4575,
      "▁yumruk": 4576,
      "##isinde": 4577,
      "▁vef": 4578,
      "▁tanrı": 4579,
      "##lıyordu": 4580,
      "##desi": 4581,
      "▁cocugun": 4582,
      "##lek": 4583,
      "##ın": 4584,
      "##das": 4585,
      "▁dusuk": 4586,
      "▁soyluyor": 4587,
      "▁kuvvet": 4588,
      "▁ederim": 4589,
      "▁garson": 4590,
      "▁irade": 4591,
      "##eki": 4592,
      "##lanmadı": 4593,
      "▁soguktu": 4594,
      "▁gal": 4595,
      "##sen": 4596,
      "▁ted": 4597,
      "▁raporu": 4598,
      "▁uzuntu": 4599,
      "▁verdigini": 4600,
      "##onelik": 4601,
      "▁cant": 4602,
      "##orn": 4603,
      "▁aynı": 4604,
      "▁dizgin": 4605,
      "▁a.m": 4606,
      "##agından": 4607,
      "▁olanları": 4608,
      "▁rica": 4609,
      "▁kuy": 4610,
      "▁kesinti": 4611,
      "##al": 4612,
      "##ehir": 4613,
      "▁pazarı": 4614,
      "▁cık": 4615,
      "##ten": 4616,
      "##eginin": 4617,
      "▁surat": 4618,
      "##must": 4619,
      "▁planimiz": 4620,
      "▁sendika": 4621,
      "▁se": 4622,
      "▁yerler": 4623,
      "▁zamanı": 4624,
      "▁airlin": 4625,
      "▁edebiyat": 4626,
      "▁profes": 4627,
      "▁serv": 4628,
      "▁dah": 4629,
      "▁isletme": 4630,
      "##ore": 4631,
      "▁katkıda": 4632,
      "▁vah": 4633,
      "##menin": 4634,
      "▁emeklilik": 4635,
      "▁olasılık": 4636,
      "▁odasında": 4637,
      "▁personeli": 4638,
      "##w": 4639,
      "▁hic": 4640,
      "▁duser": 4641,
      "▁tahvili": 4642,
      "▁hır": 4643,
      "##ahan": 4644,
      "▁sesiyle": 4645,
      "##cegini": 4646,
      "▁num": 4647,
      "▁eseri": 4648,
      "▁muhalefet": 4649,
      "▁seyirci": 4650,
      "##amıs": 4651,
      "▁degildi": 4652,
      "▁toparlan": 4653,
      "▁tas": 4654,
      "▁bakanı": 4655,
      "##arı": 4656,
      "▁iptal": 4657,
      "##ınca": 4658,
      "▁gorevli": 4659,
      "▁kurulusu": 4660,
      "▁od": 4661,
      "##cılıgın": 4662,
      "▁ithal": 4663,
      "▁kızları": 4664,
      "##2'ye": 4665,
      "▁aradan": 4666,
      "##dil": 4667,
      "▁fazla": 4668,
      "▁bırak": 4669,
      "##/4'e": 4670,
      "▁zeytin": 4671,
      "▁hat": 4672,
      "▁mey": 4673,
      "▁karıstır": 4674,
      "▁direktor": 4675,
      "▁kaza": 4676,
      "▁acıdan": 4677,
      "▁yang": 4678,
      "▁demek": 4679,
      "▁muay": 4680,
      "▁arabanın": 4681,
      "▁takdirde": 4682,
      "##lsun": 4683,
      "▁etk": 4684,
      "##ırlar": 4685,
      "▁arkadas": 4686,
      "▁bilgisay": 4687,
      "▁rahat": 4688,
      "▁icerisinde": 4689,
      "/": 4690,
      "▁islem": 4691,
      "▁avukatı": 4692,
      "▁geri": 4693,
      "##gınlık": 4694,
      "▁acıkladı": 4695,
      "▁gorusmek": 4696,
      "▁kahvalt": 4697,
      "##ed": 4698,
      "▁dakika": 4699,
      "▁dok": 4700,
      "▁kadınları": 4701,
      "▁birbirine": 4702,
      "▁ogl": 4703,
      "##ekti": 4704,
      "▁esit": 4705,
      "▁mermer": 4706,
      "▁karab": 4707,
      "▁ulasımını": 4708,
      "##ahh": 4709,
      "##ediyor": 4710,
      "▁zen": 4711,
      "▁pesinde": 4712,
      "▁bostan": 4713,
      "▁kit": 4714,
      "▁uzmanlar": 4715,
      "##ga": 4716,
      "▁oldular": 4717,
      "▁harc": 4718,
      "▁kuf": 4719,
      "▁engel": 4720,
      "▁tasım": 4721,
      "▁planları": 4722,
      "##miyorum": 4723,
      "▁ekmek": 4724,
      "▁takdir": 4725,
      "▁lafı": 4726,
      "▁duzeyde": 4727,
      "▁ortam": 4728,
      "▁kir": 4729,
      "##acının": 4730,
      "##!": 4731,
      "▁paraları": 4732,
      "▁yanak": 4733,
      "▁yurt": 4734,
      "##tmek": 4735,
      "▁fran": 4736,
      "##din": 4737,
      "##madi": 4738,
      "▁tasa": 4739,
      "▁sozleri": 4740,
      "▁seb": 4741,
      "##emm": 4742,
      "▁hayvan": 4743,
      "▁ilgis": 4744,
      "▁kapısında": 4745,
      "##tısı": 4746,
      "▁uzak": 4747,
      "▁palt": 4748,
      "▁baslamak": 4749,
      "##piyon": 4750,
      "##lat": 4751,
      "▁ulasım": 4752,
      "##diginden": 4753,
      "##andır": 4754,
      "▁saatlerini": 4755,
      "▁kok": 4756,
      "▁sozcusu": 4757,
      "▁kıv": 4758,
      "▁cekildi": 4759,
      "▁rakam": 4760,
      "##mesinden": 4761,
      "▁dusunce": 4762,
      "▁dahil": 4763,
      "▁piyasalar": 4764,
      "▁yetkili": 4765,
      "##sini": 4766,
      "▁reklamlar": 4767,
      "##amın": 4768,
      "▁caba": 4769,
      "▁yaprak": 4770,
      "##emedim": 4771,
      "##mas": 4772,
      "▁seviye": 4773,
      "##abın": 4774,
      "▁olmadıgı": 4775,
      "▁isver": 4776,
      "##ind": 4777,
      "▁degisik": 4778,
      "▁karsıma": 4779,
      "▁yaklasimi": 4780,
      "▁guc": 4781,
      "##fi": 4782,
      "▁cograf": 4783,
      "▁talebi": 4784,
      "▁kurumu": 4785,
      "▁mik": 4786,
      "▁pus": 4787,
      "▁sozler": 4788,
      "▁denge": 4789,
      "▁cıkardı": 4790,
      "▁sene": 4791,
      "▁taraftan": 4792,
      "##inlik": 4793,
      "##dugu": 4794,
      "▁boyut": 4795,
      "“": 4796,
      "##ka": 4797,
      "▁yard": 4798,
      "##dikleri": 4799,
      "▁senato": 4800,
      "▁hız": 4801,
      "▁suyu": 4802,
      "▁hissesi": 4803,
      "▁evlerinin": 4804,
      "▁bugune": 4805,
      "##ons": 4806,
      "▁etmem": 4807,
      "##lidir": 4808,
      "▁hazırlan": 4809,
      "▁osman": 4810,
      "##larımız": 4811,
      "##ek": 4812,
      "▁hamal": 4813,
      "▁yeterli": 4814,
      "##larımıza": 4815,
      "##.ceyr": 4816,
      "▁ediyorlar": 4817,
      "##yo": 4818,
      "▁pul": 4819,
      "▁bez": 4820,
      "▁isim": 4821,
      "▁2": 4822,
      "▁#": 4823,
      "▁temsil": 4824,
      "▁beden": 4825,
      "▁sakız": 4826,
      "▁misafirimiz": 4827,
      "▁kosesine": 4828,
      "##ington": 4829,
      "▁denet": 4830,
      "▁anim": 4831,
      "##ebilmek": 4832,
      "##tun": 4833,
      "▁banyosu": 4834,
      "▁ceh": 4835,
      "##osu": 4836,
      "▁yemis": 4837,
      "##ugun": 4838,
      "▁kagıt": 4839,
      "##emez": 4840,
      "▁kurtar": 4841,
      "▁1980'": 4842,
      "▁grub": 4843,
      "▁dusur": 4844,
      "▁plana": 4845,
      "##artesi": 4846,
      "▁izin": 4847,
      "▁icat": 4848,
      "▁cins": 4849,
      "▁telefonla": 4850,
      "▁karsiladi": 4851,
      "▁rak": 4852,
      "▁sahneye": 4853,
      "##ence": 4854,
      "##'n": 4855,
      "▁harik": 4856,
      "▁ticarette": 4857,
      "▁vakıf": 4858,
      "▁gerekc": 4859,
      "##istim": 4860,
      "##ıcılık": 4861,
      "▁beklen": 4862,
      "▁agzına": 4863,
      "▁masa": 4864,
      "▁atlanta": 4865,
      "▁cip": 4866,
      "▁alem": 4867,
      "▁sın": 4868,
      "▁borsada": 4869,
      "▁operator": 4870,
      "▁lisans": 4871,
      "▁eyalet": 4872,
      "▁uygundu": 4873,
      "▁biliyorum": 4874,
      "▁sent": 4875,
      "▁ekonomi": 4876,
      "▁meydana": 4877,
      "##er": 4878,
      "##lum": 4879,
      "▁lob": 4880,
      "▁gelecek": 4881,
      "▁yollarda": 4882,
      "▁acıklama": 4883,
      "▁islerin": 4884,
      "▁cekilm": 4885,
      "▁basım": 4886,
      "▁giden": 4887,
      "▁isten": 4888,
      "##uluyor": 4889,
      "▁univers": 4890,
      "##sat": 4891,
      "▁hij": 4892,
      "▁edilir": 4893,
      "▁agzı": 4894,
      "▁takip": 4895,
      "▁mallar": 4896,
      "▁haberi": 4897,
      "##bah": 4898,
      "▁bilgisi": 4899,
      "▁atlar": 4900,
      "q": 4901,
      "▁imz": 4902,
      "▁hakk": 4903,
      "##eklen": 4904,
      "▁ihtiyacları": 4905,
      "▁yıgın": 4906,
      "▁def": 4907,
      "▁gecir": 4908,
      "##'d": 4909,
      "▁dur": 4910,
      "▁muhalef": 4911,
      "▁bizim": 4912,
      "##estir": 4913,
      "▁siyasi": 4914,
      "▁ekmegi": 4915,
      "▁miting": 4916,
      "▁fırt": 4917,
      "##lere": 4918,
      "▁sevgi": 4919,
      "##uar": 4920,
      "▁sever": 4921,
      "▁cevabı": 4922,
      "▁cicek": 4923,
      "##si": 4924,
      "▁tanesi": 4925,
      "▁resep": 4926,
      "▁tal": 4927,
      "▁div": 4928,
      "▁pil": 4929,
      "▁t": 4930,
      "▁bundan": 4931,
      "▁cekti": 4932,
      "▁clev": 4933,
      "2": 4934,
      "##gıcı": 4935,
      "▁gecm": 4936,
      "▁borsasında": 4937,
      "▁ceket": 4938,
      "▁lir": 4939,
      "▁bakanlıgı": 4940,
      "##izm": 4941,
      "▁ust": 4942,
      "▁malzemeler": 4943,
      "▁ihtiy": 4944,
      "##6'dan": 4945,
      "▁pisti": 4946,
      "##likler": 4947,
      "▁cercevesinde": 4948,
      "##aret": 4949,
      "▁gotur": 4950,
      "##amak": 4951,
      "▁elimden": 4952,
      "##eni": 4953,
      "▁olsun": 4954,
      "##.6": 4955,
      "##if": 4956,
      "▁cumle": 4957,
      "▁ideal": 4958,
      "##kı": 4959,
      "##muyordu": 4960,
      "▁safh": 4961,
      "##akat": 4962,
      "▁gonul": 4963,
      "##alma": 4964,
      "▁analiz": 4965,
      "▁beyle": 4966,
      "▁bogaz": 4967,
      "##ısın": 4968,
      "▁caz": 4969,
      "▁alaka": 4970,
      "▁kasık": 4971,
      "▁cagr": 4972,
      "##gum": 4973,
      "▁makin": 4974,
      "##lerimi": 4975,
      "▁sog": 4976,
      "▁en": 4977,
      "▁saldırı": 4978,
      "▁buny": 4979,
      "▁kanat": 4980,
      "▁kosul": 4981,
      "▁gar": 4982,
      "##ens": 4983,
      "##ta": 4984,
      "##ımızı": 4985,
      "##eginde": 4986,
      "▁goc": 4987,
      "▁payı": 4988,
      "▁planının": 4989,
      "▁sakin": 4990,
      "▁esim": 4991,
      "##iledi": 4992,
      "▁tabi": 4993,
      "▁bede": 4994,
      "▁saf": 4995,
      "▁analist": 4996,
      "▁soyley": 4997,
      "##lemeyi": 4998,
      "##yum": 4999,
      "##asindan": 5000,
      "##erler": 5001,
      "▁isbirligi": 5002,
      "##ıgında": 5003,
      "▁tev": 5004,
      "▁otelin": 5005,
      "▁kadınlara": 5006,
      "▁turkc": 5007,
      "▁tehlike": 5008,
      "##amaya": 5009,
      "▁iyi": 5010,
      "▁selam": 5011,
      "##ısık": 5012,
      "▁oturum": 5013,
      "##stı": 5014,
      "▁30": 5015,
      "▁kriz": 5016,
      "##iyete": 5017,
      "##lastı": 5018,
      "##ard": 5019,
      "▁final": 5020,
      "##ekkur": 5021,
      "▁ruya": 5022,
      "▁birinde": 5023,
      "▁yeterince": 5024,
      "▁tuketim": 5025,
      "##mus": 5026,
      "##imdi": 5027,
      "▁yorum": 5028,
      "##imler": 5029,
      "▁sof": 5030,
      "▁ters": 5031,
      "▁sans": 5032,
      "▁ogul": 5033,
      "▁secenek": 5034,
      "##ibe": 5035,
      "▁yoneticiler": 5036,
      "▁hesabı": 5037,
      "▁gozlerinden": 5038,
      "▁cin": 5039,
      "▁buk": 5040,
      "▁yemeklerini": 5041,
      "▁ogleden": 5042,
      "##ate": 5043,
      "▁olmasına": 5044,
      "▁mum": 5045,
      "##imde": 5046,
      "▁bit": 5047,
      "▁adayı": 5048,
      "▁miami": 5049,
      "▁tık": 5050,
      "##abilir": 5051,
      "##mızı": 5052,
      "▁yet": 5053,
      "▁arabaya": 5054,
      "▁basına": 5055,
      "▁&": 5056,
      "▁kısmını": 5057,
      "##siniz": 5058,
      "##aydı": 5059,
      "##layı": 5060,
      "▁vucudu": 5061,
      "▁urunler": 5062,
      "##ugu": 5063,
      "##ese": 5064,
      "▁oner": 5065,
      "##akal": 5066,
      "▁normal": 5067,
      "▁cay": 5068,
      "▁hizmetci": 5069,
      "▁bekle": 5070,
      "▁ceyr": 5071,
      "##agının": 5072,
      "▁piyasaya": 5073,
      "▁davr": 5074,
      "##aki": 5075,
      "▁katına": 5076,
      "▁restoran": 5077,
      "##lay": 5078,
      "##ustugunu": 5079,
      "▁karsılıgında": 5080,
      "##ecektir": 5081,
      "▁agacı": 5082,
      "▁mucev": 5083,
      "▁konusur": 5084,
      "▁kazanc": 5085,
      "▁calısanı": 5086,
      "##eda": 5087,
      "▁ayakta": 5088,
      "##fı": 5089,
      "##kinin": 5090,
      "▁arkada": 5091,
      "▁muhaf": 5092,
      "##eliginde": 5093,
      "▁boru": 5094,
      "▁rev": 5095,
      "▁yans": 5096,
      "▁teyz": 5097,
      "##aba": 5098,
      "▁oldugum": 5099,
      "▁birer": 5100,
      "##tıp": 5101,
      "▁maliyetleri": 5102,
      "▁durumdan": 5103,
      "##iyetine": 5104,
      "##indan": 5105,
      "▁sark": 5106,
      "▁insa": 5107,
      "##egor": 5108,
      "▁yerles": 5109,
      "##bir": 5110,
      "▁ip": 5111,
      "▁ruzgar": 5112,
      "▁personelden": 5113,
      "##esinden": 5114,
      "▁ettiler": 5115,
      "▁devr": 5116,
      "##sil": 5117,
      "▁fatura": 5118,
      "##emden": 5119,
      "##acak": 5120,
      "▁ingiliz": 5121,
      "▁ric": 5122,
      "▁uyesi": 5123,
      "##leniyor": 5124,
      "▁tanıs": 5125,
      "▁tahviller": 5126,
      "##estr": 5127,
      "##eyi": 5128,
      "▁begendim": 5129,
      "▁ign": 5130,
      "▁abon": 5131,
      "##madım": 5132,
      "##islari": 5133,
      "▁ır": 5134,
      "▁konser": 5135,
      "▁donemlerde": 5136,
      "▁kedi": 5137,
      "##isah": 5138,
      "▁cikista": 5139,
      "▁yili": 5140,
      "▁gecirmek": 5141,
      "▁oksur": 5142,
      "##inda": 5143,
      "▁almayı": 5144,
      "▁derg": 5145,
      "▁sezon": 5146,
      "▁komisyonu": 5147,
      "▁tesv": 5148,
      "▁demet": 5149,
      "##embe": 5150,
      ">": 5151,
      "▁yollar": 5152,
      "##dıgın": 5153,
      "##ktu": 5154,
      "▁ord": 5155,
      "▁temsilci": 5156,
      "▁vadede": 5157,
      "▁duzenleme": 5158,
      "▁anal": 5159,
      "##enin": 5160,
      "##meler": 5161,
      "▁finans": 5162,
      "##ess": 5163,
      "▁asker": 5164,
      "▁uyelerinin": 5165,
      "▁sonbah": 5166,
      "▁babası": 5167,
      "##uyor": 5168,
      "##isiyle": 5169,
      "▁yapının": 5170,
      "▁heps": 5171,
      "▁sıkınt": 5172,
      "##lukte": 5173,
      "▁cumhuriyetci": 5174,
      "▁amerik": 5175,
      "##anıt": 5176,
      "##sul": 5177,
      "▁ozel": 5178,
      "▁muhabbet": 5179,
      "▁duzine": 5180,
      "▁bakıyordu": 5181,
      "▁pek": 5182,
      "##abını": 5183,
      "▁kolay": 5184,
      "▁eksiklikler": 5185,
      "▁yuzde": 5186,
      "▁biz": 5187,
      "▁dolarlık": 5188,
      "▁sıfır": 5189,
      "##yalizm": 5190,
      "▁zamanlarda": 5191,
      "▁yoluyla": 5192,
      "▁konuyla": 5193,
      "▁eser": 5194,
      "▁sahib": 5195,
      "▁cuz": 5196,
      "▁arama": 5197,
      "▁neden": 5198,
      "##oya": 5199,
      "##sem": 5200,
      "##ol": 5201,
      "▁kıs": 5202,
      "##lerimin": 5203,
      "##usunun": 5204,
      "▁ileri": 5205,
      "▁peyn": 5206,
      "##iyorlardı": 5207,
      "##ut": 5208,
      "##ılım": 5209,
      "▁eglen": 5210,
      "▁mudahale": 5211,
      "▁anlamına": 5212,
      "▁kosullar": 5213,
      "##istir": 5214,
      "##eh": 5215,
      "##g": 5216,
      "▁kapıdan": 5217,
      "▁huk": 5218,
      "▁tef": 5219,
      "##liy": 5220,
      "▁kıyafet": 5221,
      "▁duyguları": 5222,
      "▁dun": 5223,
      "▁ye": 5224,
      "▁lev": 5225,
      "▁hakları": 5226,
      "▁siparis": 5227,
      "▁tesebbus": 5228,
      "##tek": 5229,
      "▁francisco": 5230,
      "##indeki": 5231,
      "##ktan": 5232,
      "▁ediyoruz": 5233,
      "▁guclu": 5234,
      "##cak": 5235,
      "##usa": 5236,
      "▁da": 5237,
      "▁bunların": 5238,
      "▁soyler": 5239,
      "▁mendil": 5240,
      "##okol": 5241,
      "##diginde": 5242,
      "▁ucuz": 5243,
      "▁evlilik": 5244,
      "▁karsısına": 5245,
      "▁yuzuk": 5246,
      "▁asagıya": 5247,
      "▁ker": 5248,
      "▁bas": 5249,
      "##abı": 5250,
      "▁uygul": 5251,
      "▁fırc": 5252,
      "##mıyordu": 5253,
      "▁uf": 5254,
      "##usun": 5255,
      "▁nevi": 5256,
      "▁durumda": 5257,
      "▁yaklas": 5258,
      "▁acısı": 5259,
      "##ret": 5260,
      "▁havaya": 5261,
      "##hangi": 5262,
      "##uzu": 5263,
      "##end": 5264,
      "▁sanat": 5265,
      "▁dagı": 5266,
      "▁pabuc": 5267,
      "##edi": 5268,
      "▁oran": 5269,
      "▁emniyet": 5270,
      "▁mek": 5271,
      "▁ambar": 5272,
      "▁sok": 5273,
      "##lugunun": 5274,
      "▁yapısı": 5275,
      "▁cumhuriyetciler": 5276,
      "9": 5277,
      "##etre": 5278,
      "▁tarafta": 5279,
      "▁kahv": 5280,
      "▁degn": 5281,
      "▁degisim": 5282,
      "##ıv": 5283,
      "▁bagım": 5284,
      "##astır": 5285,
      "▁pittsburgh'tan": 5286,
      "##ited": 5287,
      "##\\/": 5288,
      "▁yaka": 5289,
      "▁ekipman": 5290,
      "##las": 5291,
      "##paz": 5292,
      "▁ancak": 5293,
      "▁tel": 5294,
      "▁milletvekili": 5295,
      "▁pantol": 5296,
      "▁kesin": 5297,
      "▁bilgilerini": 5298,
      "▁calismasina": 5299,
      "##enk": 5300,
      "▁bilgis": 5301,
      "▁paran": 5302,
      "▁moral": 5303,
      "▁arıyor": 5304,
      "▁san": 5305,
      "##oyu": 5306,
      "▁yalı": 5307,
      "▁ortasına": 5308,
      "##atın": 5309,
      "▁sehre": 5310,
      "▁cob": 5311,
      "##kilerin": 5312,
      "▁koc": 5313,
      "##ıp": 5314,
      "▁hukumdar": 5315,
      "▁alım-sat": 5316,
      "▁kası": 5317,
      "##rarak": 5318,
      "##suzluk": 5319,
      "▁kendisine": 5320,
      "▁duyuru": 5321,
      "##d": 5322,
      "##sir": 5323,
      "▁mucevher": 5324,
      "##op": 5325,
      "##ha": 5326,
      "▁deney": 5327,
      "##lant": 5328,
      "##ip": 5329,
      "▁duydu": 5330,
      "▁dalg": 5331,
      "▁kalp": 5332,
      "##atur": 5333,
      "▁carte": 5334,
      "▁kafasına": 5335,
      "▁co.": 5336,
      "▁yarısından": 5337,
      "▁yonelik": 5338,
      "▁feda": 5339,
      "▁koyde": 5340,
      "▁saz": 5341,
      "▁galiba": 5342,
      "##’": 5343,
      "##ac": 5344,
      "##itr": 5345,
      "▁versiyon": 5346,
      "▁vicdan": 5347,
      "▁odasi": 5348,
      "##ak": 5349,
      "▁sigara": 5350,
      "##tla": 5351,
      "▁alev": 5352,
      "▁etkisi": 5353,
      "▁plak": 5354,
      "▁matematik": 5355,
      "▁herkes": 5356,
      "##–": 5357,
      "▁verdik": 5358,
      "▁destekl": 5359,
      "▁mun": 5360,
      "▁kurum": 5361,
      "##edir": 5362,
      "▁kasab": 5363,
      "▁philadelphia'dan": 5364,
      "▁ilisk": 5365,
      "▁yi": 5366,
      "▁adina": 5367,
      "▁sonda": 5368,
      "▁boyutu": 5369,
      "##me": 5370,
      "##alarına": 5371,
      "▁3'ten": 5372,
      "▁icecek": 5373,
      "▁ikide": 5374,
      "▁geride": 5375,
      "▁cıg": 5376,
      "##afet": 5377,
      "▁protokol": 5378,
      "##mız": 5379,
      "▁yansı": 5380,
      "▁istasyon": 5381,
      "##lıklar": 5382,
      "▁gerceklestir": 5383,
      "▁yabancı": 5384,
      "▁gorevi": 5385,
      "▁goruyor": 5386,
      "▁,": 5387,
      "▁yerde": 5388,
      "##oc": 5389,
      "▁kuvv": 5390,
      "▁inter": 5391,
      "##edigi": 5392,
      "▁dek": 5393,
      "▁polit": 5394,
      "▁1/2": 5395,
      "▁geceleri": 5396,
      "##uzları": 5397,
      "##hane": 5398,
      "▁cesitliligi": 5399,
      "##lug": 5400,
      "▁olmasını": 5401,
      "##/8": 5402,
      "▁ortaydi": 5403,
      "▁igne": 5404,
      "##cilik": 5405,
      "▁rad": 5406,
      "▁emir": 5407,
      "▁agrı": 5408,
      "▁ortadan": 5409,
      "▁sarf": 5410,
      "▁sordu": 5411,
      "▁200": 5412,
      "▁anla": 5413,
      "▁gozleri": 5414,
      "##ule": 5415,
      "▁durak": 5416,
      "▁coc": 5417,
      "▁rezervasyon": 5418,
      "▁kalmak": 5419,
      "▁cesitli": 5420,
      "##ısız": 5421,
      "##etini": 5422,
      "▁bizi": 5423,
      "▁yuzunden": 5424,
      "##ardı": 5425,
      "##uyorum": 5426,
      "▁yemek": 5427,
      "▁ana": 5428,
      "▁baskı": 5429,
      "▁bastan": 5430,
      "▁elbet": 5431,
      "▁yardımcı": 5432,
      "▁lı": 5433,
      "##fen": 5434,
      "##akı": 5435,
      "▁dusunmuyor": 5436,
      "▁efendi": 5437,
      "▁istedig": 5438,
      "▁endustri": 5439,
      "▁noktaya": 5440,
      "▁tu": 5441,
      "##ncu": 5442,
      "▁konut": 5443,
      "##ındaki": 5444,
      "▁maliyet": 5445,
      "—": 5446,
      "##ıtı": 5447,
      "##ebilecegini": 5448,
      "##a": 5449,
      "##on": 5450,
      "▁mev": 5451,
      "▁kongre": 5452,
      "▁oyuna": 5453,
      "▁gemi": 5454,
      "▁mutlaka": 5455,
      "##umuzu": 5456,
      "##dıktan": 5457,
      "##​": 5458,
      "▁york": 5459,
      "▁hata": 5460,
      "▁halef": 5461,
      "##eticiler": 5462,
      "▁res": 5463,
      "▁alanı": 5464,
      "##sk": 5465,
      "##ama": 5466,
      "▁edecegini": 5467,
      "▁cıkıyor": 5468,
      "▁yıllar": 5469,
      "▁direktoru": 5470,
      "▁iddiaları": 5471,
      "##ola": 5472,
      "▁ucagın": 5473,
      "▁ucuslarını": 5474,
      "##lev": 5475,
      "▁halde": 5476,
      "##ee": 5477,
      "w": 5478,
      "▁sonuna": 5479,
      "▁ustune": 5480,
      "▁attı": 5481,
      "▁dert": 5482,
      "▁sıg": 5483,
      "▁kapısını": 5484,
      "##tim": 5485,
      "▁str": 5486,
      "▁iklim": 5487,
      "▁yastık": 5488,
      "##ıg": 5489,
      "▁12'den": 5490,
      "▁b": 5491,
      "##nin": 5492,
      "##umu": 5493,
      "▁suy": 5494,
      "▁patates": 5495,
      "▁dogasi": 5496,
      "▁27": 5497,
      "▁kelime": 5498,
      "▁kilo": 5499,
      "▁yukarı": 5500,
      ";": 5501,
      "!": 5502,
      "▁suk": 5503,
      "▁salon": 5504,
      "▁onları": 5505,
      "▁hastan": 5506,
      "##ete": 5507,
      "##tur": 5508,
      "▁mesel": 5509,
      "##digim": 5510,
      "▁zinc": 5511,
      "##ord": 5512,
      "##lerimizi": 5513,
      "▁sap": 5514,
      "▁gen": 5515,
      "##ef": 5516,
      "▁getirmek": 5517,
      "▁komsu": 5518,
      "▁ısıgı": 5519,
      "▁reform": 5520,
      "▁neredeyse": 5521,
      "▁tarih": 5522,
      "▁olu": 5523,
      "▁terk": 5524,
      "▁ediyorum": 5525,
      "▁basarıya": 5526,
      "##isler": 5527,
      "▁korumak": 5528,
      "▁olma": 5529,
      "▁firması": 5530,
      "▁tehdit": 5531,
      "▁kontrol": 5532,
      "▁gir": 5533,
      "▁gorunuyor": 5534,
      "▁olmaya": 5535,
      "▁havalimanından": 5536,
      "▁kadeh": 5537,
      "##dak": 5538,
      "▁tasarım": 5539,
      "##luguna": 5540,
      "▁anlamı": 5541,
      "##u": 5542,
      "##.8": 5543,
      "▁cihaz": 5544,
      "▁uyarı": 5545,
      "▁gosterir": 5546,
      "▁patr": 5547,
      "▁ayaga": 5548,
      "▁fed": 5549,
      "##gu": 5550,
      "▁magaza": 5551,
      "##eleri": 5552,
      "▁lig": 5553,
      "▁puana": 5554,
      "▁dergi": 5555,
      "▁tecru": 5556,
      "▁zey": 5557,
      "▁bek": 5558,
      "▁plaji": 5559,
      "##iger": 5560,
      "▁gorusu": 5561,
      "▁havaalanı'ndan": 5562,
      "##araj": 5563,
      "##maları": 5564,
      "▁demir": 5565,
      "▁kisinin": 5566,
      "##cul": 5567,
      "▁cıkmak": 5568,
      "▁herk": 5569,
      "▁olacak": 5570,
      "▁tank": 5571,
      "▁tazminat": 5572,
      "▁beyef": 5573,
      "▁(": 5574,
      "▁et": 5575,
      "▁sak": 5576,
      "▁sonrasında": 5577,
      "##cagız": 5578,
      "▁ed": 5579,
      "▁mutfak": 5580,
      "▁ekl": 5581,
      "▁bulundugu": 5582,
      "▁is": 5583,
      "▁gazin": 5584,
      "##amet": 5585,
      "▁pat": 5586,
      "##mıslar": 5587,
      "##gi": 5588,
      "▁cumhur": 5589,
      "▁kardesi": 5590,
      "▁sosy": 5591,
      "▁yemekleri": 5592,
      "▁odaydi": 5593,
      "▁yasak": 5594,
      "▁vazif": 5595,
      "##ılacak": 5596,
      "##kah": 5597,
      "▁dallas'a": 5598,
      "▁soya": 5599,
      "##mesi": 5600,
      "▁:": 5601,
      "▁gayrimen": 5602,
      "##masıyla": 5603,
      "##dur": 5604,
      "▁muhafazakar": 5605,
      "▁gey": 5606,
      "▁defter": 5607,
      "▁yeter": 5608,
      "▁kucuktu": 5609,
      "▁koltuga": 5610,
      "▁haf": 5611,
      "▁anayas": 5612,
      "▁ihracat": 5613,
      "▁yarad": 5614,
      "▁model": 5615,
      "▁roportaj": 5616,
      "▁benzin": 5617,
      "▁vers": 5618,
      "▁$": 5619,
      "##igini": 5620,
      "▁gaz": 5621,
      "▁karlar": 5622,
      "▁tedirgin": 5623,
      "▁devreye": 5624,
      "▁kus": 5625,
      "##ayacagını": 5626,
      "▁sada": 5627,
      "▁faz": 5628,
      "▁laf": 5629,
      "▁vegas": 5630,
      "▁kisiler": 5631,
      "▁haklarını": 5632,
      "##imiza": 5633,
      "▁teknoloji": 5634,
      "▁gi": 5635,
      "▁merak": 5636,
      "▁hayat": 5637,
      "▁olmasa": 5638,
      "##den": 5639,
      "▁acıklanmadı": 5640,
      "▁lakırtı": 5641,
      "##ıtma": 5642,
      "▁gereken": 5643,
      "##ver": 5644,
      "▁ozelligi": 5645,
      "▁rot": 5646,
      "▁ofisi": 5647,
      "▁ong": 5648,
      "##ların": 5649,
      "▁fırsatı": 5650,
      "g": 5651,
      "▁kel": 5652,
      "##liler": 5653,
      "##daydı": 5654,
      "▁sipar": 5655,
      "▁durumunda": 5656,
      "▁$'dan": 5657,
      "▁ta": 5658,
      "##igin": 5659,
      "▁birimi": 5660,
      "▁gosterin": 5661,
      "▁geceler": 5662,
      "▁calısma": 5663,
      "##'ten": 5664,
      "▁ufak": 5665,
      "▁merkeze": 5666,
      "▁aktivite": 5667,
      "▁gucluk": 5668,
      "▁fit": 5669,
      "▁muhab": 5670,
      "▁ister": 5671,
      "##ih": 5672,
      "##usu": 5673,
      "▁labor": 5674,
      "▁suruyor": 5675,
      "▁mevdu": 5676,
      "▁ekonomik": 5677,
      "▁oglu": 5678,
      "▁isp": 5679,
      "##0'dan": 5680,
      "▁finanse": 5681,
      "##ilmis": 5682,
      "▁baskanlık": 5683,
      "##urk": 5684,
      "##adıgını": 5685,
      "▁rengi": 5686,
      "▁gecen": 5687,
      "▁yil": 5688,
      "▁tuttu": 5689,
      "▁gerekti": 5690,
      "##ph": 5691,
      "▁kurtul": 5692,
      "▁orland": 5693,
      "▁kimi": 5694,
      "▁felsef": 5695,
      "##gunluk": 5696,
      "▁persembe": 5697,
      "##'yi": 5698,
      "##meden": 5699,
      "▁saadet": 5700,
      "▁sadece": 5701,
      "▁artarak": 5702,
      "##eo": 5703,
      "▁yılında": 5704,
      "▁orn": 5705,
      "▁kizim": 5706,
      "▁cey": 5707,
      "▁denver'e": 5708,
      "▁adamın": 5709,
      "##lenmek": 5710,
      "▁cok": 5711,
      "▁tec": 5712,
      "▁gosteri": 5713,
      "▁leble": 5714,
      "▁saun": 5715,
      "##/": 5716,
      "▁ederek": 5717,
      "▁saray": 5718,
      "##lamasını": 5719,
      "▁gomleg": 5720,
      "▁af": 5721,
      "##keti": 5722,
      "▁r": 5723,
      "▁ettik": 5724,
      "▁mad": 5725,
      "▁ves": 5726,
      "##ediye": 5727,
      "##cileri": 5728,
      "▁birey": 5729,
      "▁kred": 5730,
      "▁buyukel": 5731,
      "##70'": 5732,
      "▁suya": 5733,
      "##est": 5734,
      "▁odasına": 5735,
      "▁calisanlarin": 5736,
      "##'nı": 5737,
      "▁karısının": 5738,
      "▁dak": 5739,
      "▁sag": 5740,
      "▁hızı": 5741,
      "##inizi": 5742,
      "▁pos": 5743,
      "▁yapmaya": 5744,
      "▁hazır": 5745,
      "▁herhangi": 5746,
      "▁tesisi": 5747,
      "##eviz": 5748,
      "▁inc": 5749,
      "▁iskonto": 5750,
      "▁depr": 5751,
      "▁arttı": 5752,
      "##maz": 5753,
      "▁sabah": 5754,
      "▁sam": 5755,
      "▁be": 5756,
      "▁ragmen": 5757,
      "▁pilav": 5758,
      "▁tabii": 5759,
      "▁cekir": 5760,
      "##=": 5761,
      "▁bası": 5762,
      "▁acıgı": 5763,
      "▁elektrik": 5764,
      "▁kol": 5765,
      "##7": 5766,
      "▁sebep": 5767,
      "▁hukum": 5768,
      "▁biles": 5769,
      "##ly": 5770,
      "4": 5771,
      "▁kayı": 5772,
      "##h": 5773,
      "▁mil": 5774,
      "▁rolu": 5775,
      "▁kusur": 5776,
      "▁dolu": 5777,
      "▁sirketine": 5778,
      "▁ilgi": 5779,
      "##avv": 5780,
      "▁baslarına": 5781,
      "##lim": 5782,
      "##inn": 5783,
      "▁fren": 5784,
      "##lip": 5785,
      "▁nerede": 5786,
      "▁emek": 5787,
      "##amıyor": 5788,
      "▁grubun": 5789,
      "##mini": 5790,
      "▁calısmaları": 5791,
      "##ental": 5792,
      "▁ustunde": 5793,
      "▁topluluk": 5794,
      "▁uygar": 5795,
      "▁gul": 5796,
      "▁kanal": 5797,
      "##ldi": 5798,
      "▁seye": 5799,
      "▁ogrenmek": 5800,
      "▁val": 5801,
      "▁-": 5802,
      "##ıgın": 5803,
      "▁olaylara": 5804,
      "▁yaptirdi": 5805,
      "▁seyden": 5806,
      "##indi": 5807,
      "▁bak": 5808,
      "▁pisir": 5809,
      "▁olacaktır": 5810,
      "▁bolg": 5811,
      "▁baltimore": 5812,
      "▁gorevlisi": 5813,
      "##kili": 5814,
      "▁''": 5815,
      "▁gordum": 5816,
      "##medi": 5817,
      "▁servis": 5818,
      "▁elinde": 5819,
      "i": 5820,
      "▁masraf": 5821,
      "▁hukmu": 5822,
      "##attı": 5823,
      "▁soh": 5824,
      "▁reklam": 5825,
      "▁class": 5826,
      "▁tadimiza": 5827,
      "▁sokaga": 5828,
      "##mazlık": 5829,
      "▁ozellik": 5830,
      "##tr": 5831,
      "##ast": 5832,
      "##andı": 5833,
      "▁fik": 5834,
      "▁hafif": 5835,
      "▁ogle": 5836,
      "▁ucusu": 5837,
      "▁fel": 5838,
      "▁puandan": 5839,
      "##meyen": 5840,
      "s": 5841,
      "##reti": 5842,
      "▁cadır": 5843,
      "▁gozlerimi": 5844,
      "##leg": 5845,
      "▁ing": 5846,
      "▁sekret": 5847,
      "##ıgı": 5848,
      "▁mı": 5849,
      "▁cad": 5850,
      "▁iskel": 5851,
      "##eginden": 5852,
      "▁om": 5853,
      "##etik": 5854,
      "▁yetis": 5855,
      "▁ulasılamadı": 5856,
      "▁kahve": 5857,
      "▁boz": 5858,
      "▁zemin": 5859,
      "▁zahmet": 5860,
      "▁acık": 5861,
      "▁hali": 5862,
      "##tar": 5863,
      "▁opsiyon": 5864,
      "▁gibi": 5865,
      "▁dir": 5866,
      "▁muhareb": 5867,
      "##oy": 5868,
      "▁meslek": 5869,
      "▁calıs": 5870,
      "▁toplant": 5871,
      "▁koydu": 5872,
      "##inizde": 5873,
      "▁los": 5874,
      "▁sorular": 5875,
      "##dası": 5876,
      "##kk": 5877,
      "▁tamamı": 5878,
      "▁projesi": 5879,
      "▁amac": 5880,
      "▁sohbet": 5881,
      "▁yuzu": 5882,
      "▁meg": 5883,
      "▁fiyatina": 5884,
      "▁actı": 5885,
      "##mec": 5886,
      "##na": 5887,
      "##atlı": 5888,
      "##ilmesini": 5889,
      "▁rec": 5890,
      "▁usak": 5891,
      "##lasıyor": 5892,
      "▁yoluna": 5893,
      "▁dusman": 5894,
      "▁olanakları": 5895,
      "▁calı": 5896,
      "##gmen": 5897,
      "##agım": 5898,
      "##“": 5899,
      "▁tuz": 5900,
      "▁hizm": 5901,
      "##lari": 5902,
      "▁zav": 5903,
      "▁havaal": 5904,
      "##kel": 5905,
      "▁edit": 5906,
      "▁askerler": 5907,
      "▁ucrete": 5908,
      "▁sef": 5909,
      "##cok": 5910,
      "▁cekici": 5911,
      "▁entar": 5912,
      "##cılıgı": 5913,
      "▁metre": 5914,
      "▁hasret": 5915,
      "▁elestir": 5916,
      "▁tahv": 5917,
      "▁cil": 5918,
      "##iyordu": 5919,
      "##stık": 5920,
      "▁olmus": 5921,
      "▁dunyayı": 5922,
      "##ıgından": 5923,
      "6": 5924,
      "##ıklıgı": 5925,
      "##isle": 5926,
      "▁tura": 5927,
      "▁g": 5928,
      "▁otel": 5929,
      "▁hatır": 5930,
      "▁resepsiyon": 5931,
      "▁alıs": 5932,
      "▁tasarısı": 5933,
      "▁duzeni": 5934,
      "▁salat": 5935,
      "##iler": 5936,
      "▁yasası": 5937,
      "▁tes": 5938,
      "##yuz": 5939,
      "##medigini": 5940,
      "▁gercek": 5941,
      "▁sonuclarını": 5942,
      "▁geliri": 5943,
      "▁taraftar": 5944,
      "▁denetim": 5945,
      "▁muzak": 5946,
      "▁elma": 5947,
      "▁pes": 5948,
      "##tiler": 5949,
      "##imini": 5950,
      "▁oraya": 5951,
      "▁spot": 5952,
      "##laya": 5953,
      "▁geliyor": 5954,
      "##gıl": 5955,
      "##mı": 5956,
      "##int": 5957,
      "▁problem": 5958,
      "▁ellerinden": 5959,
      "▁halen": 5960,
      "▁ara": 5961,
      "▁eda": 5962,
      "▁hucum": 5963,
      "##eye": 5964,
      "▁pist": 5965,
      "##nuz": 5966,
      "▁kal": 5967,
      "▁sokak": 5968,
      "▁kah": 5969,
      "▁tan": 5970,
      "▁ediliyor": 5971,
      "▁tamam": 5972,
      "▁new": 5973,
      "▁miktar": 5974,
      "▁evinin": 5975,
      "▁uyar": 5976,
      "▁gidi": 5977,
      "▁odan": 5978,
      "##yor": 5979,
      "▁durus": 5980,
      "##tın": 5981,
      "▁parcaları": 5982,
      "▁degerinde": 5983,
      "##amba": 5984,
      "▁uyk": 5985,
      "##es": 5986,
      "▁yarın": 5987,
      "▁firmanın": 5988,
      "##adaki": 5989,
      "##k": 5990,
      "▁ceyrekte": 5991,
      "▁hitap": 5992,
      "▁kov": 5993,
      "▁pazarda": 5994,
      "▁neler": 5995,
      "▁esy": 5996,
      "▁pers": 5997,
      "▁aktivit": 5998,
      "▁dusmus": 5999,
      "##sa": 6000,
      "▁hissenin": 6001,
      "▁faktor": 6002,
      "▁hattı": 6003,
      "##phia": 6004,
      "▁dumanı": 6005,
      "##ili": 6006,
      "▁amacıyla": 6007,
      "##ana": 6008,
      "▁ornek": 6009,
      "▁borcun": 6010,
      "▁sos": 6011,
      "▁durumu": 6012,
      "▁sinir": 6013,
      "▁satıslarının": 6014,
      "▁istem": 6015,
      "▁yurum": 6016,
      "▁otlar": 6017,
      "▁denver'den": 6018,
      "▁karı": 6019,
      "▁vez": 6020,
      "▁icinde": 6021,
      "▁parcası": 6022,
      "▁sekilde": 6023,
      "▁bl": 6024,
      "##acılara": 6025,
      "##tı": 6026,
      "▁secmen": 6027,
      "##ach": 6028,
      "##ilen": 6029,
      "▁)": 6030,
      "▁surdur": 6031,
      "##r": 6032,
      "▁insanı": 6033,
      "▁alama": 6034,
      "▁politika": 6035,
      "▁merhaba": 6036,
      "▁sem": 6037,
      "▁kos": 6038,
      "▁to": 6039,
      "##unce": 6040,
      "##ele": 6041,
      "▁cim": 6042,
      "##deki": 6043,
      "▁donusu": 6044,
      "##onun": 6045,
      "##ku": 6046,
      "▁sms": 6047,
      "##ucusu": 6048,
      "▁ayakları": 6049,
      "▁kas": 6050,
      "##ital": 6051,
      "▁zar": 6052,
      "▁senetleri": 6053,
      "##isindan": 6054,
      "##0": 6055,
      "▁gerc": 6056,
      "▁yonuyle": 6057,
      "▁tarihine": 6058,
      "▁gelen": 6059,
      "##atını": 6060,
      "c": 6061,
      "▁korum": 6062,
      "▁icecekler": 6063,
      "▁davul": 6064,
      "##olu": 6065,
      "▁kurt": 6066,
      "▁gereksin": 6067,
      "▁akın": 6068,
      "##ıyı": 6069,
      "▁onumuz": 6070,
      "▁ant": 6071,
      "▁japon": 6072,
      "▁gittik": 6073,
      "▁yere": 6074,
      "▁ogretmen": 6075,
      "▁yuks": 6076,
      "##cı": 6077,
      "##ou": 6078,
      "▁hizmete": 6079,
      "##lenin": 6080,
      "▁kof": 6081,
      "▁erkegi": 6082,
      "▁maz": 6083,
      "##aleti": 6084,
      "▁kuz": 6085,
      "▁uyan": 6086,
      "▁deve": 6087,
      "▁tram": 6088,
      "▁katı": 6089,
      "▁fak": 6090,
      "▁birlik": 6091,
      "▁degisiklikler": 6092,
      "##graf": 6093,
      "▁hava": 6094,
      "▁red": 6095,
      "##denin": 6096,
      "▁cesitlilik": 6097,
      "▁philadel": 6098,
      "##estiri": 6099,
      "##ibaren": 6100,
      "▁kardesinin": 6101,
      "▁konf": 6102,
      "▁z": 6103,
      "▁portfoy": 6104,
      "##ıza": 6105,
      "▁harcam": 6106,
      "##tigi": 6107,
      "▁sahne": 6108,
      "▁kır": 6109,
      "##anoz": 6110,
      "▁hes": 6111,
      "##ust": 6112,
      "▁%1": 6113,
      "▁calisanlar": 6114,
      "##gesi": 6115,
      "▁faaliyeti": 6116,
      "##uc": 6117,
      "▁ulkemizde": 6118,
      "##enleri": 6119,
      "▁insaat": 6120,
      "▁onde": 6121,
      "##mam": 6122,
      "▁duygu": 6123,
      "▁bırakmak": 6124,
      "▁manzara": 6125,
      "▁yasama": 6126,
      "▁ulastı": 6127,
      "▁yatır": 6128,
      "▁geleni": 6129,
      "▁as": 6130,
      "▁gorun": 6131,
      "▁cizg": 6132,
      "▁\"": 6133,
      "▁lake": 6134,
      "▁sepet": 6135,
      "▁ise": 6136,
      "##yasal": 6137,
      "▁acmak": 6138,
      "▁gom": 6139,
      "##ımdan": 6140,
      "▁lakin": 6141,
      "▁13": 6142,
      "▁ceviri": 6143,
      "▁ucunda": 6144,
      "##tay": 6145,
      "##itraj": 6146,
      "▁tedav": 6147,
      "##amadı": 6148,
      "▁seviyesinden": 6149,
      "##ding": 6150,
      "▁yuze": 6151,
      "▁duvarda": 6152,
      "##ik": 6153,
      "▁.)": 6154,
      "▁konusmayı": 6155,
      "##b": 6156,
      "▁umur": 6157,
      "##rını": 6158,
      "▁vaz": 6159,
      "##emeyecegini": 6160,
      "▁etrafında": 6161,
      "▁gars": 6162,
      "▁gez": 6163,
      "##mistir": 6164,
      "▁ipotek": 6165,
      "▁dib": 6166,
      "##ilim": 6167,
      "▁kelim": 6168,
      "▁icecekleri": 6169,
      "##ına": 6170,
      "##va": 6171,
      "##ruk": 6172,
      "##lıs": 6173,
      "##mad": 6174,
      "▁parki": 6175,
      "▁donanma": 6176,
      "##mustur": 6177,
      "▁tak": 6178,
      "▁10": 6179,
      "▁tasıy": 6180,
      "▁sarım": 6181,
      "▁analistlerin": 6182,
      "▁guz": 6183,
      "##ısına": 6184,
      "▁editor": 6185,
      "▁yerinde": 6186,
      "▁otele": 6187,
      "▁bilgilendirilmek": 6188,
      "##mayacak": 6189,
      "▁alacak": 6190,
      "▁kaliteye": 6191,
      "##tluk": 6192,
      "▁col": 6193,
      "▁yaklasım": 6194,
      "▁elbette": 6195,
      "▁yaz": 6196,
      "▁saygı": 6197,
      "▁taahh": 6198,
      "▁norma": 6199,
      "▁genis": 6200,
      "▁yetersiz": 6201,
      "▁ropor": 6202,
      "▁yum": 6203,
      "▁tahr": 6204,
      "▁ucunu": 6205,
      "▁clas": 6206,
      "▁olaylar": 6207,
      "▁sey": 6208,
      "▁yab": 6209,
      "▁kurs": 6210,
      "##leyici": 6211,
      "▁yolcul": 6212,
      "##—": 6213,
      "##madı": 6214,
      "▁oden": 6215,
      "▁oncelik": 6216,
      "▁ne": 6217,
      "##ilik": 6218,
      "▁gurultu": 6219,
      "##gın": 6220,
      "▁giris": 6221,
      "▁fazlaydi": 6222,
      "##ıla": 6223,
      "▁yerinden": 6224,
      "▁halı": 6225,
      "▁bahcede": 6226,
      "▁ton": 6227,
      "▁tar": 6228,
      "▁henuz": 6229,
      "▁kahvalti": 6230,
      "##ası": 6231,
      "▁mustes": 6232,
      "##larak": 6233,
      "▁anne": 6234,
      "##'in": 6235,
      "▁ticaretinde": 6236,
      "▁bacak": 6237,
      "▁bonolar": 6238,
      "▁agzında": 6239,
      "▁yerel": 6240,
      "##lıgına": 6241,
      "▁ifade": 6242,
      "##sınız": 6243,
      "##dikten": 6244,
      "##mıyorum": 6245,
      "▁yeten": 6246,
      "▁enist": 6247,
      "▁deprem": 6248,
      "▁yolda": 6249,
      "▁ortal": 6250,
      "▁cift": 6251,
      "▁ayı": 6252,
      "▁yanlıs": 6253,
      "▁tok": 6254,
      "##stu": 6255,
      "▁proje": 6256,
      "▁pencerenin": 6257,
      "▁enflasyon": 6258,
      "##miyor": 6259,
      "▁nihayet": 6260,
      "##gil": 6261,
      "▁kardes": 6262,
      "▁hosuma": 6263,
      "▁cogun": 6264,
      "▁bicim": 6265,
      "▁muk": 6266,
      "▁imkanlari": 6267,
      "▁farkında": 6268,
      "▁kitabı": 6269,
      "▁yel": 6270,
      "▁islemleri": 6271,
      "▁iliskin": 6272,
      "##'": 6273,
      "▁oteden": 6274,
      "▁ugr": 6275,
      "▁sob": 6276,
      "▁den": 6277,
      "▁ufuk": 6278,
      "▁yarar": 6279,
      "▁piyasayı": 6280,
      "▁pad": 6281,
      "##iklik": 6282,
      "▁at": 6283,
      "##lup": 6284,
      "▁anlay": 6285,
      "▁ala": 6286,
      "▁imza": 6287,
      "▁intihar": 6288,
      "▁ork": 6289,
      "##lemeye": 6290,
      "▁yakın": 6291,
      "▁grev": 6292,
      "##egine": 6293,
      "▁akıl": 6294,
      "▁bize": 6295,
      "▁hizmette": 6296,
      "##dut": 6297,
      "▁derec": 6298,
      "##erhal": 6299,
      "##eyle": 6300,
      "##lanacak": 6301,
      "▁hissesini": 6302,
      "▁vb": 6303,
      "##ır": 6304,
      "▁yenil": 6305,
      "▁strateji": 6306,
      "▁aradi": 6307,
      "▁universite": 6308,
      "▁sınıfın": 6309,
      "▁yemekler": 6310,
      "##leyiciler": 6311,
      "▁dagıtım": 6312,
      "▁ipot": 6313,
      "▁kafa": 6314,
      ":": 6315,
      "##asi": 6316,
      "▁sutu": 6317,
      "▁dogr": 6318,
      "▁ismini": 6319,
      "▁disiplin": 6320,
      "▁nere": 6321,
      "▁sogut": 6322,
      "##ınızı": 6323,
      "##unde": 6324,
      "▁w": 6325,
      "▁ces": 6326,
      "▁annemle": 6327,
      "▁resmi": 6328,
      "▁rıht": 6329,
      "▁hacı": 6330,
      "▁komit": 6331,
      "##\"": 6332,
      "▁masaj": 6333,
      "##ult": 6334,
      "▁lokma": 6335,
      "▁yuzune": 6336,
      "##om": 6337,
      "##form": 6338,
      "##memiz": 6339,
      "▁baskan": 6340,
      "▁dort": 6341,
      "▁vat": 6342,
      "##arın": 6343,
      "▁stu": 6344,
      "▁dugun": 6345,
      "##ımıza": 6346,
      "o": 6347,
      "▁tarafından": 6348,
      "▁doların": 6349,
      "▁cuval": 6350,
      "▁ciftlik": 6351,
      "##mer": 6352,
      "▁kokusu": 6353,
      "##arlı": 6354,
      "▁ik": 6355,
      "▁idar": 6356,
      "▁spekulasyon": 6357,
      "▁oneri": 6358,
      "▁fiyat": 6359,
      "ı": 6360,
      "▁deniz": 6361,
      "▁milleti": 6362,
      "▁birtakı": 6363,
      "▁ders": 6364,
      "▁%": 6365,
      "##egim": 6366,
      "▁.": 6367,
      "▁zayifti": 6368,
      "▁oylama": 6369,
      "##uyle": 6370,
      "▁baslangıc": 6371,
      "▁doneminde": 6372,
      "##ıslar": 6373,
      "▁verildi": 6374,
      "##allı": 6375,
      "▁tavsiye": 6376,
      "▁tren": 6377,
      "▁cocuklar": 6378,
      "##abor": 6379,
      "▁beyan": 6380,
      "▁yardım": 6381,
      "▁peki": 6382,
      "▁kanaat": 6383,
      "▁100": 6384,
      "▁sise": 6385,
      "▁seri": 6386,
      "##cinin": 6387,
      "▁tom": 6388,
      "▁itibariyle": 6389,
      "▁vagon": 6390,
      "▁mah": 6391,
      "▁yukseldi": 6392,
      "▁varsa": 6393,
      "▁pla": 6394,
      "##tali": 6395,
      "▁it": 6396,
      "▁tesir": 6397,
      "▁hisseleri": 6398,
      "▁oku": 6399,
      "##ılıyor": 6400,
      "##aket": 6401,
      "▁cent": 6402,
      "▁.'": 6403,
      "▁istemiyorum": 6404,
      "▁bodr": 6405,
      "▁imaj": 6406,
      "[CLS]": 6407,
      "▁leh": 6408,
      "▁siper": 6409,
      "▁savun": 6410,
      "▁gunah": 6411,
      "##masında": 6412,
      "▁sar": 6413,
      "▁evi": 6414,
      "▁serisi": 6415,
      "▁elestirmen": 6416,
      "##lıyor": 6417,
      "▁mark": 6418,
      "##ligiyle": 6419,
      "##luydu": 6420,
      "▁eroin": 6421,
      "▁kuslar": 6422,
      "▁calis": 6423,
      "▁fener": 6424,
      "▁goze": 6425,
      "▁sel": 6426,
      "##gre": 6427,
      "▁detayları": 6428,
      "▁digeri": 6429,
      "##mayı": 6430,
      "▁yasam": 6431,
      "▁strate": 6432,
      "##erek": 6433,
      "▁herif": 6434,
      "▁arastırma": 6435,
      "▁bolumunu": 6436,
      "##.2": 6437,
      "▁sebeplerden": 6438,
      "▁gov": 6439,
      "▁onceki": 6440,
      "▁pahali": 6441,
      "##mistim": 6442,
      "▁kursun": 6443,
      "##ırım": 6444,
      "▁semp": 6445,
      "▁onu": 6446,
      "▁sofr": 6447,
      "▁ordu": 6448,
      "##lılıgı": 6449,
      "▁anti": 6450,
      "▁kend": 6451,
      "▁calismas": 6452,
      "▁vergi": 6453,
      "▁yoktur": 6454,
      "##kar": 6455,
      "▁ked": 6456,
      "▁yapılanma": 6457,
      "▁tutul": 6458,
      "▁yirmi": 6459,
      "▁basv": 6460,
      "▁cuma": 6461,
      "##uma": 6462,
      "▁aslan": 6463,
      "▁gozu": 6464,
      "##ustu": 6465,
      "▁baskısı": 6466,
      "▁phoenix": 6467,
      "▁sid": 6468,
      "▁pazarın": 6469,
      "▁soyledik": 6470,
      "▁kars": 6471,
      "##ai": 6472,
      "▁toplam": 6473,
      "▁esnada": 6474,
      "▁tersine": 6475,
      "▁arasından": 6476,
      "▁hanima": 6477,
      "▁fotograf": 6478,
      "▁istihdam": 6479,
      "▁yasıyor": 6480,
      "▁avukat": 6481,
      "▁pey": 6482,
      "▁dı": 6483,
      "▁uzum": 6484,
      "▁ettigini": 6485,
      "▁listel": 6486,
      "▁tir": 6487,
      "▁arkadası": 6488,
      "▁barda": 6489,
      "##sin": 6490,
      "▁dortluk": 6491,
      "▁19": 6492,
      "▁evlerine": 6493,
      "▁puan": 6494,
      "##minin": 6495,
      "▁corb": 6496,
      "▁mevki": 6497,
      "##sef": 6498,
      "▁agacın": 6499,
      "##say": 6500,
      "▁edebilir": 6501,
      "▁meh": 6502,
      "▁rehberlik": 6503,
      "##ruf": 6504,
      "##iti": 6505,
      "##alarının": 6506,
      "▁silah": 6507,
      "▁denizde": 6508,
      "▁fasuly": 6509,
      "▁ongor": 6510,
      "▁ulası": 6511,
      "▁kural": 6512,
      "▁memuru": 6513,
      "##eyn": 6514,
      "▁bayram": 6515,
      "▁profesor": 6516,
      "##ledi": 6517,
      "▁onlara": 6518,
      "##lastır": 6519,
      "▁surpr": 6520,
      "▁kaynagı": 6521,
      "▁acisindan": 6522,
      "▁satısların": 6523,
      "▁stok": 6524,
      "##lenmis": 6525,
      "▁etkileri": 6526,
      "▁tahk": 6527,
      "##kler": 6528,
      "##sman": 6529,
      "##mal": 6530,
      "▁saatlerde": 6531,
      "##lanır": 6532,
      "##biye": 6533,
      "▁tutun": 6534,
      "▁gelistir": 6535,
      "▁nefret": 6536,
      "▁bahce": 6537,
      "##orth": 6538,
      "▁kaliteli": 6539,
      "▁park": 6540,
      "▁tekn": 6541,
      "▁catal": 6542,
      "▁traf": 6543,
      "##.0": 6544,
      "▁okulda": 6545,
      "▁yanından": 6546,
      "##ift": 6547,
      "##yanın": 6548,
      "▁derin": 6549,
      "▁sandık": 6550,
      "##unluk": 6551,
      "▁olmakla": 6552,
      "▁koruma": 6553,
      "▁ada": 6554,
      "▁belirtti": 6555,
      "▁dinlemek": 6556,
      "##yım": 6557,
      "##ılan": 6558,
      "##ısı": 6559,
      "▁gomlek": 6560,
      "▁ihtil": 6561,
      "▁arkadasim": 6562,
      "▁mac": 6563,
      "▁yurek": 6564,
      "▁sig": 6565,
      "▁ettigi": 6566,
      "▁tahmin": 6567,
      "##usune": 6568,
      "▁basından": 6569,
      "▁basımı": 6570,
      "▁magaz": 6571,
      "▁derece": 6572,
      "▁say": 6573,
      "##ibar": 6574,
      "▁tıp": 6575,
      "##et": 6576,
      "▁dusus": 6577,
      "▁durumun": 6578,
      "▁liderleri": 6579,
      "▁durumlarda": 6580,
      "▁guven": 6581,
      "▁saati": 6582,
      "▁pl": 6583,
      "▁torb": 6584,
      "▁komisyon": 6585,
      "##ya": 6586,
      "▁hap": 6587,
      "▁edildi": 6588,
      "▁doları'na": 6589,
      "▁evlere": 6590,
      "▁prosedur": 6591,
      "▁kisilik": 6592,
      "▁anlamda": 6593,
      "▁soyledi": 6594,
      "▁kullanı": 6595,
      "##lıp": 6596,
      "▁dahi": 6597,
      "▁soruları": 6598,
      "▁umut": 6599,
      "▁gunu": 6600,
      "▁yani": 6601,
      "▁uzere": 6602,
      "▁ihtiyacım": 6603,
      "▁carsamba": 6604,
      "##irli": 6605,
      "▁pal": 6606,
      "▁satıs": 6607,
      "▁sist": 6608,
      "##ami": 6609,
      "▁piyasa": 6610,
      "▁icer": 6611,
      "▁yapma": 6612,
      "▁degis": 6613,
      "##z": 6614,
      "▁farklılık": 6615,
      "▁oykuler": 6616,
      "▁sıv": 6617,
      "▁luk": 6618,
      "▁soru": 6619,
      "##melidir": 6620,
      "▁%8": 6621,
      "▁agırlık": 6622,
      "##leriyle": 6623,
      "▁iyil": 6624,
      "▁emtia": 6625,
      "▁anah": 6626,
      "▁turkiye": 6627,
      "▁birik": 6628,
      "▁a": 6629,
      "▁tarz": 6630,
      "▁piyasanın": 6631,
      "▁yonetimi": 6632,
      "[SEP]": 6633,
      "▁hayatın": 6634,
      "▁tanık": 6635,
      "▁yonetic": 6636,
      "▁dolayi": 6637,
      "##lugunu": 6638,
      "*": 6639,
      "▁kapalı": 6640,
      "##oh": 6641,
      "▁uye": 6642,
      "▁asagida": 6643,
      "▁cesit": 6644,
      "▁gogs": 6645,
      "▁hucr": 6646,
      "▁elbis": 6647,
      "▁egit": 6648,
      "##van": 6649,
      "▁bal": 6650,
      "▁kısıt": 6651,
      "▁olabil": 6652,
      "##gr": 6653,
      "▁turu": 6654,
      "▁lira": 6655,
      "▁tuketiciler": 6656,
      "▁vermedi": 6657,
      "▁sab": 6658,
      "▁ruh": 6659,
      "▁muhend": 6660,
      "##iyordum": 6661,
      "▁du": 6662,
      "▁dustugunu": 6663,
      "▁asans": 6664,
      "▁doktora": 6665,
      "##ch": 6666,
      "##itler": 6667,
      "▁sebze": 6668,
      "##ilir": 6669,
      "▁ugruna": 6670,
      "▁konus": 6671,
      "▁posta": 6672,
      "▁bel": 6673,
      "▁aile": 6674,
      "##sız": 6675,
      "▁yes": 6676,
      "▁eh": 6677,
      "▁lid": 6678,
      "▁kıt": 6679,
      "▁kat": 6680,
      "▁soluk": 6681,
      "▁olmayan": 6682,
      "▁nesil": 6683,
      "##lge": 6684,
      "▁olması": 6685,
      "▁tahsil": 6686,
      "##tan": 6687,
      "▁dav": 6688,
      "▁fikr": 6689,
      "▁tarihe": 6690,
      "▁alk": 6691,
      "▁ortaya": 6692,
      "▁plastik": 6693,
      "##erk": 6694,
      "▁icki": 6695,
      "##bol": 6696,
      "▁stan": 6697,
      "▁olmad": 6698,
      "▁aktarma": 6699,
      "▁okulun": 6700,
      "▁cogunluk": 6701,
      "▁gerekse": 6702,
      "##lugu": 6703,
      "▁satıslara": 6704,
      "▁anlasmaya": 6705,
      "▁arkad": 6706,
      "▁karanlık": 6707,
      "▁karayol": 6708,
      "##as": 6709,
      "▁ayıp": 6710,
      "▁fon": 6711,
      "##eland": 6712,
      "▁mekana": 6713,
      "▁tur": 6714,
      "##leket": 6715,
      "##dılar": 6716,
      "##lerinin": 6717,
      "▁milletin": 6718,
      "▁anası": 6719,
      "▁um": 6720,
      "▁yakıt": 6721,
      "▁cıglık": 6722,
      "▁tarihin": 6723,
      "▁seref": 6724,
      "▁meden": 6725,
      "▁hanim": 6726,
      "##lb": 6727,
      "##dar": 6728,
      "##dug": 6729,
      "▁teror": 6730,
      "##ond": 6731,
      "▁usta": 6732,
      "▁ma": 6733,
      "▁avukatlar": 6734,
      "▁alternatif": 6735,
      "▁asık": 6736,
      "##tıgı": 6737,
      "▁5'ten": 6738,
      "▁not": 6739,
      "▁hurriyet": 6740,
      "▁baktı": 6741,
      "##vi": 6742,
      "▁anneme": 6743,
      "▁tiyatrosu": 6744,
      "▁kayık": 6745,
      "▁altını": 6746,
      "▁icin": 6747,
      "▁ba": 6748,
      "▁fiyati": 6749,
      "##ati": 6750,
      "▁ah": 6751,
      "##liginden": 6752,
      "▁kazancı": 6753,
      "##amaları": 6754,
      "▁boston'a": 6755,
      "▁konusu": 6756,
      "▁yakinlar": 6757,
      "##anmıs": 6758,
      "▁kec": 6759,
      "▁hapis": 6760,
      "▁iceriyor": 6761,
      "▁kufur": 6762,
      "▁ilav": 6763,
      "▁dilim": 6764,
      "##esini": 6765,
      "##ide": 6766,
      "▁makinesi": 6767,
      "##ıcı": 6768,
      "▁po": 6769,
      "##alım": 6770,
      "▁kapanıs": 6771,
      "▁rekabet": 6772,
      "▁gev": 6773,
      "▁prov": 6774,
      "▁uzay": 6775,
      "##erv": 6776,
      "▁eski": 6777,
      "▁giy": 6778,
      "▁patlıcan": 6779,
      "▁dig": 6780,
      "▁hoc": 6781,
      "▁yar": 6782,
      "▁aracı": 6783,
      "##irdi": 6784,
      "▁gon": 6785,
      "▁dostu": 6786,
      "##ormal": 6787,
      "##ırken": 6788,
      "▁fasulye": 6789,
      "▁fan": 6790,
      "▁kimlik": 6791,
      "##eledi": 6792,
      "▁belgeleri": 6793,
      "▁guvenlik": 6794,
      "▁mukemmel": 6795,
      "▁otelden": 6796,
      "▁sirketler": 6797,
      "▁mahall": 6798,
      "▁cinayet": 6799,
      "▁kısm": 6800,
      "▁gayrimenkul": 6801,
      "##lardı": 6802,
      "##irim": 6803,
      "▁banyo": 6804,
      "▁oglunun": 6805,
      "##ısında": 6806,
      "##stım": 6807,
      "▁antr": 6808,
      "▁amer": 6809,
      "▁erk": 6810,
      "▁listesini": 6811,
      "▁cesaret": 6812,
      "▁dısar": 6813,
      "##ıyorum": 6814,
      "##iyoruz": 6815,
      "▁aylık": 6816,
      "##erleri": 6817,
      "▁birtakım": 6818,
      "▁etki": 6819,
      "##uncu": 6820,
      "▁salonunda": 6821,
      "▁personeller": 6822,
      "##”": 6823,
      "##ulu": 6824,
      "▁git": 6825,
      "##lendirmek": 6826,
      "▁sonr": 6827,
      "▁gununun": 6828,
      "##bas": 6829,
      "▁ekonom": 6830,
      "▁1.": 6831,
      "▁cevir": 6832,
      "▁seyin": 6833,
      "▁7": 6834,
      "▁iyiydi": 6835,
      "▁sonlarında": 6836,
      "▁topraga": 6837,
      "##anda": 6838,
      "▁dusunc": 6839,
      "▁masanın": 6840,
      "▁gozle": 6841,
      "##ediklerini": 6842,
      "##erince": 6843,
      "▁yasamın": 6844,
      "=": 6845,
      "##lav": 6846,
      "##masının": 6847,
      "▁etmekten": 6848,
      "▁yeteri": 6849,
      "▁zirv": 6850,
      "▁sec": 6851,
      "▁sistemleri": 6852,
      "▁el": 6853,
      "▁ert": 6854,
      "▁gu": 6855,
      "▁uzer": 6856,
      "▁yıldızı": 6857,
      "▁duny": 6858,
      "##lıların": 6859,
      "▁yılının": 6860,
      "##iyle": 6861,
      "▁manev": 6862,
      "▁sun": 6863,
      "▁alım": 6864,
      "▁konfor": 6865,
      "▁daire": 6866,
      "▁ni": 6867,
      "##luge": 6868,
      "▁aracları": 6869,
      "▁mada": 6870,
      "▁ekm": 6871,
      "▁dernegi": 6872,
      "▁tic": 6873,
      "##gis": 6874,
      "##adan": 6875,
      "▁dekor": 6876,
      "▁sınıfı": 6877,
      "▁yapmak": 6878,
      "▁phoeni": 6879,
      "▁bilmiyorum": 6880,
      "▁komur": 6881,
      "▁ser": 6882,
      "▁sip": 6883,
      "▁guzel": 6884,
      "▁tenek": 6885,
      "▁12": 6886,
      "##derek": 6887,
      "▁dakikada": 6888,
      "##san": 6889,
      "▁netic": 6890,
      "▁fonları": 6891,
      "##tak": 6892,
      "▁senin": 6893,
      "##antaj": 6894,
      "▁seferinde": 6895,
      "##duk": 6896,
      "##sizlik": 6897,
      "##emmel": 6898,
      "##'ndan": 6899,
      "##acagım": 6900,
      "##uv": 6901,
      "▁goster": 6902,
      "▁canım": 6903,
      "##ımları": 6904,
      "▁gelirleri": 6905,
      "▁cemiyet": 6906,
      "▁seattle": 6907,
      "##gel": 6908,
      "##ılır": 6909,
      "▁kesinlikle": 6910,
      "##arda": 6911,
      "▁ucak": 6912,
      "##engin": 6913,
      "▁sinem": 6914,
      "▁ola": 6915,
      "##tum": 6916,
      "▁temizdi": 6917,
      "▁zorunda": 6918,
      "##rut": 6919,
      "##alık": 6920,
      "▁kısk": 6921,
      "##yacag": 6922,
      "▁ikna": 6923,
      "▁yumur": 6924,
      "▁yaslı": 6925,
      "##imli": 6926,
      "▁enerji": 6927,
      "▁rus": 6928,
      "▁onem": 6929,
      "▁kurb": 6930,
      "▁yun": 6931,
      "▁acentamiza": 6932,
      "▁za": 6933,
      "▁yazarın": 6934,
      "▁donus": 6935,
      "▁doktoru": 6936,
      "##mez": 6937,
      "▁lim": 6938,
      "##ley": 6939,
      "▁mulk": 6940,
      "##masın": 6941,
      "##lama": 6942,
      "▁grup": 6943,
      "▁esya": 6944,
      "▁mide": 6945,
      "▁likid": 6946,
      "▁ayagı": 6947,
      "##ukca": 6948,
      "▁yuzlu": 6949,
      "▁bunun": 6950,
      "##lah": 6951,
      "▁sirketi": 6952,
      "▁sırt": 6953,
      "##larına": 6954,
      "▁endek": 6955,
      "▁bazen": 6956,
      "▁kayb": 6957,
      "▁dısında": 6958,
      "▁para": 6959,
      "▁hareket": 6960,
      "▁bask": 6961,
      "##madıgını": 6962,
      "▁etmedi": 6963,
      "▁kub": 6964,
      "##tarı": 6965,
      "▁anlattı": 6966,
      "▁sistem": 6967,
      "▁kons": 6968,
      "##cıya": 6969,
      "▁sıc": 6970,
      "▁termal": 6971,
      "▁hizmetten": 6972,
      "▁issizlik": 6973,
      "▁zay": 6974,
      "##ızlı": 6975,
      "▁tat": 6976,
      "▁ederiz": 6977,
      "▁mon": 6978,
      "▁ucusa": 6979,
      "##lu": 6980,
      "##ums": 6981,
      "▁ittif": 6982,
      "▁bilgiler": 6983,
      "▁dairesi": 6984,
      "##amayacagını": 6985,
      "##oks": 6986,
      "▁kendi": 6987,
      "##tigine": 6988,
      "▁ucusta": 6989,
      "##>": 6990,
      "▁havaalan": 6991,
      "▁cogu": 6992,
      "▁sarap": 6993,
      "▁teor": 6994,
      "▁havası": 6995,
      "##aren": 6996,
      "▁pasa": 6997,
      "▁ugul": 6998,
      "▁birden": 6999,
      "▁kendimi": 7000,
      "▁te": 7001,
      "##sacak": 7002,
      "##tti": 7003,
      "▁mesafe": 7004,
      "▁kapısı": 7005,
      "▁of": 7006,
      "##mıyor": 7007,
      "▁net": 7008,
      "▁tahıl": 7009,
      "▁yine": 7010,
      "▁endustr": 7011,
      "▁oyun": 7012,
      "▁sah": 7013,
      "##mem": 7014,
      "▁bile": 7015,
      "##yol": 7016,
      "▁cel": 7017,
      "▁yo": 7018,
      "##emiyorum": 7019,
      "##larıma": 7020,
      "▁muhasebe": 7021,
      "##sunuz": 7022,
      "▁kızlar": 7023,
      "▁mem": 7024,
      "▁arttıgını": 7025,
      "##egi": 7026,
      "▁mamafih": 7027,
      "##ıyoruz": 7028,
      "▁yoneticileri": 7029,
      "##kleri": 7030,
      "▁enf": 7031,
      "▁ilave": 7032,
      "▁ucte": 7033,
      "▁istifa": 7034,
      "▁yuzden": 7035,
      "##adet": 7036,
      "▁isinden": 7037,
      "##atif": 7038,
      "▁*": 7039,
      "▁fery": 7040,
      "##uyorlar": 7041,
      "##uslar": 7042,
      "##eleriyle": 7043,
      "▁koca": 7044,
      "##elli": 7045,
      "▁istedim": 7046,
      "▁inanc": 7047,
      "▁kenarına": 7048,
      "▁tuk": 7049,
      "▁ozellikle": 7050,
      "▁ayır": 7051,
      "▁yonetmen": 7052,
      "▁arabayı": 7053,
      "▁piyasaları": 7054,
      "##edigim": 7055,
      "▁itibaren": 7056,
      "▁seks": 7057,
      "##teri": 7058,
      "▁giysi": 7059,
      "▁ucuna": 7060,
      "##unden": 7061,
      "▁kasabanın": 7062,
      "##medik": 7063,
      "▁adalet": 7064,
      "▁soze": 7065,
      "▁kur": 7066,
      "##rne": 7067,
      "##ımız": 7068,
      "▁del": 7069,
      "▁izlen": 7070,
      "▁d": 7071,
      "▁cif": 7072,
      "▁meselesi": 7073,
      "▁ediyordu": 7074,
      "##amı": 7075,
      "##eyim": 7076,
      "▁koymak": 7077,
      "##akları": 7078,
      "▁yarat": 7079,
      "##cısı": 7080,
      "▁vermeyi": 7081,
      "▁esnaf": 7082,
      "##vel": 7083,
      "##larda": 7084,
      "▁durdu": 7085,
      "▁namaz": 7086,
      "▁islemlerde": 7087,
      "▁tedavi": 7088,
      "##esi": 7089,
      "▁acent": 7090,
      "▁yetkililerine": 7091,
      "▁depo": 7092,
      "▁bulmaya": 7093,
      "▁soyl": 7094,
      "##1": 7095,
      "▁tepki": 7096,
      "##turdu": 7097,
      "▁mahkem": 7098,
      "▁0.": 7099,
      "▁dunyada": 7100,
      "▁acıl": 7101,
      "▁sop": 7102,
      "##urken": 7103,
      "▁mektu": 7104,
      "##_": 7105,
      "▁yapıyor": 7106,
      "▁capında": 7107,
      "##irler": 7108,
      "▁karın": 7109,
      "▁japonlar": 7110,
      "##uzel": 7111,
      "▁dakik": 7112,
      "##dırım": 7113,
      "▁huz": 7114,
      "▁yabanc": 7115,
      "▁yok": 7116,
      "##digine": 7117,
      "▁gunduz": 7118,
      "▁paraya": 7119,
      "##imci": 7120,
      "▁paylas": 7121,
      "##div": 7122,
      "▁bıcak": 7123,
      "▁kac": 7124,
      "▁olurdu": 7125,
      "▁coktu": 7126,
      "▁insanlara": 7127,
      "▁kapıya": 7128,
      "▁gıda": 7129,
      "▁salonda": 7130,
      "##indeydi": 7131,
      "▁196": 7132,
      "##ilm": 7133,
      "▁olumu": 7134,
      "▁art": 7135,
      "▁kenara": 7136,
      "##\\": 7137,
      "▁sanırım": 7138,
      "▁yapılandır": 7139,
      "##der": 7140,
      "▁suren": 7141,
      "▁sonucunda": 7142,
      "▁kara": 7143,
      "▁davası": 7144,
      "##ekt": 7145,
      "▁kılav": 7146,
      "▁ind": 7147,
      "▁vurgu": 7148,
      "▁nedir": 7149,
      "##bab": 7150,
      "##li": 7151,
      "▁baskanın": 7152,
      "▁air": 7153,
      "▁personellerin": 7154,
      "k": 7155,
      "▁duk": 7156,
      "▁roman": 7157,
      "▁alak": 7158,
      "▁holding": 7159,
      "▁kaldik": 7160,
      "▁heyet": 7161,
      "▁egil": 7162,
      "▁uygulam": 7163,
      "▁odak": 7164,
      "▁gormek": 7165,
      "▁ulkede": 7166,
      "▁edeb": 7167,
      "▁cumhuriyet": 7168,
      "▁firma": 7169,
      "▁merdiv": 7170,
      "▁surede": 7171,
      "##a'ya": 7172,
      "##makla": 7173,
      "▁kl": 7174,
      "##lattı": 7175,
      "▁merdiven": 7176,
      "▁1/": 7177,
      "##rar": 7178,
      "▁lik": 7179,
      "▁oyku": 7180,
      "▁eylul": 7181,
      "▁doga": 7182,
      "##lıgında": 7183,
      "▁sır": 7184,
      "▁herkesin": 7185,
      "##mamıs": 7186,
      "##aya": 7187,
      "▁bili": 7188,
      "▁hek": 7189,
      "▁efend": 7190,
      "▁dislerini": 7191,
      "▁kav": 7192,
      "▁direk": 7193,
      "▁esk": 7194,
      "##mafih": 7195,
      "▁aksama": 7196,
      "▁mufet": 7197,
      "▁kesi": 7198,
      "▁goz": 7199,
      "▁sergi": 7200,
      "▁kontr": 7201,
      "▁gayret": 7202,
      "▁bazı": 7203,
      "##atları": 7204,
      "▁nas": 7205,
      "▁olmay": 7206,
      "▁kisisel": 7207,
      "▁asl": 7208,
      "▁oranını": 7209,
      "##ncak": 7210,
      "▁bet": 7211,
      "##re": 7212,
      "▁tırnak": 7213,
      "▁otur": 7214,
      "▁fil": 7215,
      "##olis": 7216,
      "▁kurumsal": 7217,
      "▁evler": 7218,
      "##etici": 7219,
      "##ladıgı": 7220,
      "▁ref": 7221,
      "▁can": 7222,
      "##imleri": 7223,
      "▁baslangıcı": 7224,
      "▁anayasa": 7225,
      "##ige": 7226,
      "▁sask": 7227,
      "▁olcu": 7228,
      "▁sik": 7229,
      "##ayet": 7230,
      "##ogu": 7231,
      "▁market": 7232,
      "▁ez": 7233,
      "##iv": 7234,
      "▁fay": 7235,
      "▁protest": 7236,
      "##alt": 7237,
      "▁ote": 7238,
      "▁anahtar": 7239,
      "##izi": 7240,
      "##umda": 7241,
      "▁detay": 7242,
      "▁lobi": 7243,
      "##ika": 7244,
      "▁cekmek": 7245,
      "▁devralma": 7246,
      "▁tah": 7247,
      "▁kurban": 7248,
      "##lendi": 7249,
      "▁sirketleri": 7250,
      "▁dogru": 7251,
      "▁beyin": 7252,
      "▁gelir": 7253,
      "##gıc": 7254,
      "▁endeksi": 7255,
      "##lerini": 7256,
      "▁sonucları": 7257,
      "▁ayv": 7258,
      "▁yarı": 7259,
      "▁kahkah": 7260,
      "##aları": 7261,
      "▁eslik": 7262,
      "##per": 7263,
      "##mur": 7264,
      "##amaz": 7265,
      "▁ayrı": 7266,
      "▁zamanlar": 7267,
      "▁buzdol": 7268,
      "##cılar": 7269,
      "▁onceden": 7270,
      "▁stat": 7271,
      "▁yuruy": 7272,
      "▁bolge": 7273,
      "▁kartı": 7274,
      "▁17": 7275,
      "▁kadınlar": 7276,
      "##lenir": 7277,
      "▁tesvik": 7278,
      "▁atol": 7279,
      "8": 7280,
      "▁suphe": 7281,
      "▁cak": 7282,
      "▁piyasada": 7283,
      "##tarak": 7284,
      "▁atese": 7285,
      "▁reng": 7286,
      "##alarını": 7287,
      "##bilir": 7288,
      "##orm": 7289,
      "▁kapısının": 7290,
      "▁coban": 7291,
      "▁suc": 7292,
      "##oloji": 7293,
      "▁turn": 7294,
      "▁ogret": 7295,
      "▁peyniri": 7296,
      "▁ucaklar": 7297,
      "##za": 7298,
      "▁man": 7299,
      "##ain": 7300,
      "▁cocuk": 7301,
      "▁saldır": 7302,
      "▁franc": 7303,
      "▁onumuzdeki": 7304,
      "▁gecti": 7305,
      "▁ins": 7306,
      "▁cocuklug": 7307,
      "▁sektoru": 7308,
      "▁yasad": 7309,
      "▁kısım": 7310,
      "▁balkon": 7311,
      "▁terz": 7312,
      "▁jap": 7313,
      "▁kale": 7314,
      "▁yerleri": 7315,
      "▁oradan": 7316,
      "##diklerini": 7317,
      "▁sahipleri": 7318,
      "▁ortaklık": 7319,
      "▁otesinde": 7320,
      "▁mes": 7321,
      "▁catı": 7322,
      "▁oysa": 7323,
      "▁dag": 7324,
      "▁had": 7325,
      "▁1": 7326,
      "▁ede": 7327,
      "▁isleme": 7328,
      "▁hol": 7329,
      "##diye": 7330,
      "▁kitab": 7331,
      "▁cennet": 7332,
      "▁devam": 7333,
      "▁impar": 7334,
      "▁merm": 7335,
      "▁..\"": 7336,
      "▁yatırımcılar": 7337,
      "▁kıraat": 7338,
      "##alan": 7339,
      "▁kontrolu": 7340,
      "▁onun": 7341,
      "▁has": 7342,
      "▁sovyet": 7343,
      "▁ucaga": 7344,
      "##lerle": 7345,
      "▁endis": 7346,
      "▁civarı": 7347,
      "▁haklar": 7348,
      "▁metal": 7349,
      "##ilmek": 7350,
      "▁diplom": 7351,
      "##ılmıs": 7352,
      "##tık": 7353,
      "##acagız": 7354,
      "▁baslamıstı": 7355,
      "▁zincir": 7356,
      "▁hastal": 7357,
      "##lıkta": 7358,
      "▁sonuc": 7359,
      "##iber": 7360,
      "▁katıl": 7361,
      "▁isinin": 7362,
      "▁sep": 7363,
      "▁merkezinde": 7364,
      "▁babamın": 7365,
      "▁wash": 7366,
      "##umuzde": 7367,
      "▁kosede": 7368,
      "##ri": 7369,
      "▁yas": 7370,
      "##arlan": 7371,
      "▁yag": 7372,
      "▁isimiz": 7373,
      "▁oldugu": 7374,
      "##izma": 7375,
      "##isi": 7376,
      "▁hırs": 7377,
      "▁cocuga": 7378,
      "▁civ": 7379,
      "##dugum": 7380,
      "▁yanımda": 7381,
      "##adır": 7382,
      "##ukluk": 7383,
      "▁havayol": 7384,
      "##lunun": 7385,
      "▁herh": 7386,
      "▁koms": 7387,
      "▁gozlerle": 7388,
      "##gını": 7389,
      "▁dallas": 7390,
      "▁ol": 7391,
      "##ecegine": 7392,
      "▁baba": 7393,
      "▁baslar": 7394,
      "▁arasındaki": 7395,
      "▁ul": 7396,
      "▁teb": 7397,
      "▁ocagı": 7398,
      "##irmi": 7399,
      "▁bilimin": 7400,
      "▁siyah": 7401,
      "▁mut": 7402,
      "▁tutma": 7403,
      "▁tay": 7404,
      "▁olgu": 7405,
      "##kal": 7406,
      "▁ardı": 7407,
      "▁bakkal": 7408,
      "▁bug": 7409,
      "▁yoneticisi": 7410,
      "▁din": 7411,
      "##ımızın": 7412,
      "▁kumandan": 7413,
      "▁198": 7414,
      "▁keyf": 7415,
      "▁mali": 7416,
      "##lendir": 7417,
      "▁saatlerinde": 7418,
      "▁sozu": 7419,
      ")": 7420,
      "▁ziy": 7421,
      "##im": 7422,
      "##qu": 7423,
      "▁karmas": 7424,
      "▁payları": 7425,
      "##enlik": 7426,
      "##ktur": 7427,
      "##ımı": 7428,
      "▁olum": 7429,
      "▁gosteriyor": 7430,
      "▁ofk": 7431,
      "▁yiyeceklerin": 7432,
      "##ost": 7433,
      "▁kabul": 7434,
      "▁bugun": 7435,
      "▁baglı": 7436,
      "##lon": 7437,
      "▁acıga": 7438,
      "-": 7439,
      "▁sozles": 7440,
      "▁uluslararası": 7441,
      "▁onc": 7442,
      "##lamalar": 7443,
      "##uk": 7444,
      "\\": 7445,
      "▁performansi": 7446,
      "▁ucagı": 7447,
      "▁apart": 7448,
      "▁kimse": 7449,
      "▁fiyatı": 7450,
      "▁vade": 7451,
      "▁meclis": 7452,
      "▁mutluluk": 7453,
      "▁ofis": 7454,
      "▁cuk": 7455,
      "▁iliski": 7456,
      "▁sona": 7457,
      "▁iscileri": 7458,
      "##satı": 7459,
      "▁uygun": 7460,
      "▁yeri": 7461,
      "▁kurul": 7462,
      "##une": 7463,
      "▁ettig": 7464,
      "▁milyon": 7465,
      "▁sesle": 7466,
      "▁noktada": 7467,
      "▁ucusunu": 7468,
      "▁ortasında": 7469,
      "▁argum": 7470,
      "▁yasamak": 7471,
      "▁tuy": 7472,
      "▁burası": 7473,
      "##ından": 7474,
      "▁alet": 7475,
      "▁ren": 7476,
      "##hu": 7477,
      "▁zam": 7478,
      "##labil": 7479,
      "▁yogurt": 7480,
      "▁yumus": 7481,
      "##ansiyon": 7482,
      "##ogram": 7483,
      "▁ayakkabı": 7484,
      "▁ihrac": 7485,
      "##ıy": 7486,
      "▁mas": 7487,
      "##itli": 7488,
      "▁aralarında": 7489,
      "##maması": 7490,
      "▁kaz": 7491,
      "▁yukseldigini": 7492,
      "▁hazin": 7493,
      "▁renk": 7494,
      "▁yuzunde": 7495,
      "▁insan": 7496,
      "▁onunden": 7497,
      "▁tabanc": 7498,
      "▁?": 7499,
      "▁isc": 7500,
      "▁aldım": 7501,
      "▁yonu": 7502,
      "▁cesidi": 7503,
      "▁olan": 7504,
      "##asından": 7505,
      "##ımızdan": 7506,
      "▁asırı": 7507,
      "▁amerikan": 7508,
      "##inde": 7509,
      "▁kims": 7510,
      "##misti": 7511,
      "##uguna": 7512,
      "▁tohum": 7513,
      "▁karargah": 7514,
      "##iyorum": 7515,
      "▁odanin": 7516,
      "##lanı": 7517,
      "▁animasyonu": 7518,
      "▁farklı": 7519,
      "▁mi": 7520,
      "##ırmak": 7521,
      "▁kaydı": 7522,
      "▁temin": 7523,
      "▁kayd": 7524,
      "##nun": 7525,
      "##ran": 7526,
      "##kul": 7527,
      "▁piyasasında": 7528,
      "▁maddes": 7529,
      "▁dalı": 7530,
      "▁sozlesme": 7531,
      "▁arm": 7532,
      "▁psik": 7533,
      "▁corap": 7534,
      "▁gid": 7535,
      "▁gibiydi": 7536,
      "##unlu": 7537,
      "▁korid": 7538,
      "▁chicag": 7539,
      "▁dengesi": 7540,
      "▁sonundan": 7541,
      "▁yatırımcıların": 7542,
      "▁istey": 7543,
      "##ginde": 7544,
      "▁acı": 7545,
      "▁seyi": 7546,
      "##'e": 7547,
      "##ene": 7548,
      "▁mecl": 7549,
      "##iya": 7550,
      "▁cid": 7551,
      "▁animasyonlari": 7552,
      "▁hacim": 7553,
      "▁yası": 7554,
      "##arılı": 7555,
      "▁turku": 7556,
      "▁mag": 7557,
      "▁yerden": 7558,
      "##tansiy": 7559,
      "▁am": 7560,
      "▁siyaset": 7561,
      "##ede": 7562,
      "##net": 7563,
      "##art": 7564,
      "▁dog": 7565,
      "▁islemlerinde": 7566,
      "##cev": 7567,
      "▁benzer": 7568,
      "##esiyle": 7569,
      "▁kalma": 7570,
      "##cagı": 7571,
      "▁savası": 7572,
      "▁halat": 7573,
      "##uyoruz": 7574,
      "▁darbuk": 7575,
      "▁hay": 7576,
      "▁makam": 7577,
      "▁le": 7578,
      "▁zir": 7579,
      "▁tablo": 7580,
      "▁edebil": 7581,
      "▁gos": 7582,
      "▁karg": 7583,
      "▁parcasını": 7584,
      "▁kaldı": 7585,
      "##nak": 7586,
      "▁burc": 7587,
      "▁iskem": 7588,
      "▁danısman": 7589,
      "▁yapmadı": 7590,
      "##ıcının": 7591,
      "##lardan": 7592,
      "▁gider": 7593,
      "▁personelin": 7594,
      "▁havalim": 7595,
      "##hi": 7596,
      "##ent": 7597,
      "##sik": 7598,
      "▁part": 7599,
      "▁bosluk": 7600,
      "▁teklifin": 7601,
      "##.3": 7602,
      "▁erken": 7603,
      "▁altından": 7604,
      "▁tet": 7605,
      "▁ayar": 7606,
      "▁getirir": 7607,
      "▁yık": 7608,
      "▁beg": 7609,
      "##tiy": 7610,
      "▁sehrin": 7611,
      "▁almaya": 7612,
      "▁masasında": 7613,
      "▁hala": 7614,
      "▁hissed": 7615,
      "▁ureticileri": 7616,
      "▁insanlar": 7617,
      "▁alanlar": 7618,
      "▁odul": 7619,
      "▁sana": 7620,
      "##agi": 7621,
      "▁isaret": 7622,
      "▁kalmıs": 7623,
      "▁vermek": 7624,
      "▁gunde": 7625,
      "▁konusma": 7626,
      "▁sul": 7627,
      "▁kıza": 7628,
      "▁rast": 7629,
      "▁karıs": 7630,
      "##imiz": 7631,
      "▁satım": 7632,
      "##meleri": 7633,
      "▁eylem": 7634,
      "▁yavru": 7635,
      "▁belge": 7636,
      "▁islemin": 7637,
      "##liyor": 7638,
      "##kac": 7639,
      "m": 7640,
      "▁ortagı": 7641,
      "▁sorunlar": 7642,
      "▁mail": 7643,
      "▁don": 7644,
      "▁istek": 7645,
      "▁sa": 7646,
      "▁sohret": 7647,
      "##anından": 7648,
      "▁karakol": 7649,
      "##ask": 7650,
      "▁ittifak": 7651,
      "▁aj": 7652,
      "▁5": 7653,
      "##aydi": 7654,
      "▁erkekler": 7655,
      "##umde": 7656,
      "▁bo": 7657,
      "▁mutf": 7658,
      "▁turk": 7659,
      "##'i": 7660,
      "▁sampiyon": 7661,
      "▁tarihte": 7662,
      "▁cic": 7663,
      "▁takv": 7664,
      "▁sorunu": 7665,
      "▁fes": 7666,
      "▁eleman": 7667,
      "▁calısanlar": 7668,
      "▁vakti": 7669,
      "▁sev": 7670,
      "▁ısıgında": 7671,
      "▁kampanyalardan": 7672,
      "▁sahiptir": 7673,
      "▁deneyim": 7674,
      "▁durum": 7675,
      "##niz": 7676,
      "▁havayollarında": 7677,
      "##mustum": 7678,
      "▁anketi": 7679,
      "▁bisik": 7680,
      "▁ucretin": 7681,
      "##atist": 7682,
      "▁beydi": 7683,
      "▁sehri": 7684,
      "##enuz": 7685,
      "▁or": 7686,
      "▁manzar": 7687,
      "▁gizli": 7688,
      "▁er": 7689,
      "▁havuz": 7690,
      "##ne": 7691,
      "▁gurur": 7692,
      "▁bakıs": 7693,
      "▁menkul": 7694,
      "▁pencere": 7695,
      "▁uret": 7696,
      "##unca": 7697,
      "▁sigar": 7698,
      "▁yatak": 7699,
      "▁kazancları": 7700,
      "▁yerin": 7701,
      "▁tasarruf": 7702,
      "▁": 7703,
      "▁min": 7704,
      "▁edecek": 7705,
      "▁kagıd": 7706,
      "▁gerceklesti": 7707,
      "▁do": 7708,
      "##dat": 7709,
      "▁8'den": 7710,
      "##eg": 7711,
      "▁anlamak": 7712,
      "▁konuya": 7713,
      "▁kurulu": 7714,
      "▁dolay": 7715,
      "▁sekreteri": 7716,
      "▁kost": 7717,
      "▁imkanlar": 7718,
      "▁aileye": 7719,
      "▁muhar": 7720,
      "##sis": 7721,
      "##lamaları": 7722,
      "▁sterlin": 7723,
      "▁ucundan": 7724,
      "▁siv": 7725,
      "▁tespit": 7726,
      "▁ona": 7727,
      "▁yoktu": 7728,
      "▁soylediler": 7729,
      "▁gures": 7730,
      "##tlu": 7731,
      "##i'nin": 7732,
      "▁kısa": 7733,
      "##medim": 7734,
      "▁ayına": 7735,
      "##..": 7736,
      "▁us": 7737,
      "▁seni": 7738,
      "##lıgı": 7739,
      "##isin": 7740,
      "▁hazine": 7741,
      "▁raf": 7742,
      "▁unu": 7743,
      "▁vası": 7744,
      "##amız": 7745,
      "▁ucretlerini": 7746,
      "▁bab": 7747,
      "▁siparisini": 7748,
      "##sam": 7749,
      "▁yazar": 7750,
      "▁personelleri": 7751,
      "▁maas": 7752,
      "▁onemli": 7753,
      "▁nedenle": 7754,
      "##ation": 7755,
      "##dır": 7756,
      "▁gide": 7757,
      "▁yen": 7758,
      "▁mesaj": 7759,
      "▁finansman": 7760,
      "▁karan": 7761,
      "▁incel": 7762,
      "▁ayrıntı": 7763,
      "▁gur": 7764,
      "▁ucusları": 7765,
      "##lilik": 7766,
      "▁suph": 7767,
      "▁muhalif": 7768,
      "▁agac": 7769,
      "▁borsa": 7770,
      "▁mikr": 7771,
      "▁gozleriyle": 7772,
      "▁parm": 7773,
      "▁karsıya": 7774,
      "▁olanaklarını": 7775,
      "▁sogan": 7776,
      "▁ilac": 7777,
      "▁dunyanın": 7778,
      "▁kamp": 7779,
      "▁vurdu": 7780,
      "##dukca": 7781,
      "▁tered": 7782,
      "▁tav": 7783,
      "▁cayır": 7784,
      "▁gormeye": 7785,
      "▁dusun": 7786,
      "▁gidis": 7787,
      "##ates": 7788,
      "##detti": 7789,
      "▁21": 7790,
      "##yız": 7791,
      "▁alabilir": 7792,
      "##/2": 7793,
      "▁istir": 7794,
      "▁vek": 7795,
      "▁yelpaz": 7796,
      "▁havuzlari": 7797,
      "▁veren": 7798,
      "##sın": 7799,
      "▁odemeleri": 7800,
      "##unu": 7801,
      "▁altern": 7802,
      "▁aktor": 7803,
      "▁baglantı": 7804,
      "▁burosu": 7805,
      "##lası": 7806,
      "▁gog": 7807,
      "▁tek": 7808,
      "▁halinde": 7809,
      "##kır": 7810,
      "##aguar": 7811,
      "▁gece": 7812,
      "##eger": 7813,
      "##umsal": 7814,
      "##n": 7815,
      "##siy": 7816,
      "##tıklarını": 7817,
      "▁egilim": 7818,
      "▁gercekles": 7819,
      "▁blok": 7820,
      "▁payını": 7821,
      "##land": 7822,
      "##ekl": 7823,
      "▁cıkan": 7824,
      "##ian": 7825,
      "▁denize": 7826,
      "(": 7827,
      "##5": 7828,
      "##endir": 7829,
      "##kları": 7830,
      "▁yagmur": 7831,
      "##fih": 7832,
      "▁savunma": 7833,
      "▁sırtını": 7834,
      "▁kadının": 7835,
      "##elemek": 7836,
      "▁kadını": 7837,
      "##etli": 7838,
      "▁gerdan": 7839,
      "##otu": 7840,
      "##ir": 7841,
      "▁korkusu": 7842,
      "▁sahil": 7843,
      "▁ard": 7844,
      "▁bakan": 7845,
      "▁kisileri": 7846,
      "▁ulkenin": 7847,
      "▁yor": 7848,
      "▁kuzey": 7849,
      "▁vuc": 7850,
      "▁yiyecek": 7851,
      "##gının": 7852,
      "▁ero": 7853,
      "▁mevzuat": 7854,
      "▁dogrusu": 7855,
      "▁gene": 7856,
      "▁city": 7857,
      "▁gulums": 7858,
      "▁gem": 7859,
      "##urup": 7860,
      "▁zihn": 7861,
      "##rı": 7862,
      "▁belediye": 7863,
      "##inci": 7864,
      "##edil": 7865,
      "▁zararı": 7866,
      "##erken": 7867,
      "##ble": 7868,
      "▁tarla": 7869,
      "##mekten": 7870,
      "▁zehir": 7871,
      "▁iler": 7872,
      "▁nufus": 7873,
      "▁cocuklara": 7874,
      "▁cen": 7875,
      "▁baslan": 7876,
      "##anlar": 7877,
      "7": 7878,
      "▁buraya": 7879,
      "▁program": 7880,
      "▁film": 7881,
      "##kil": 7882,
      "▁rek": 7883,
      "▁oyuncular": 7884,
      "▁parkı": 7885,
      "▁arkasından": 7886,
      "##how": 7887,
      "##onu": 7888,
      "▁parc": 7889,
      "▁telefon": 7890,
      "▁buldu": 7891,
      "##abilmek": 7892,
      "▁kaymak": 7893,
      "▁kis": 7894,
      "▁ailelere": 7895,
      "▁fakat": 7896,
      "▁kuru": 7897,
      "##ılıga": 7898,
      "▁elektr": 7899,
      "▁cal": 7900,
      "##udu": 7901,
      "▁efendim": 7902,
      "▁memnun": 7903,
      "##alara": 7904,
      "▁surekli": 7905,
      "##edigini": 7906,
      "▁toplantısında": 7907,
      "▁tencer": 7908,
      "##ısının": 7909,
      "##ren": 7910,
      "##ter": 7911,
      "▁calıstı": 7912,
      "▁mahalle": 7913,
      "▁ıskarta": 7914,
      "▁memleket": 7915,
      "▁olanlar": 7916,
      "▁beri": 7917,
      "▁ber": 7918,
      "▁azdi": 7919,
      "##az": 7920,
      "##8'den": 7921,
      "##kten": 7922,
      "▁!": 7923,
      "▁evinde": 7924,
      "▁dusunuyor": 7925,
      "▁bosa": 7926,
      "▁agabey": 7927,
      "▁acıldı": 7928,
      "▁toplum": 7929,
      "▁luz": 7930,
      "▁bulunuyor": 7931,
      "▁bey": 7932,
      "▁buyuk": 7933,
      "▁uz": 7934,
      "▁torun": 7935,
      "▁proj": 7936,
      "▁hatun": 7937,
      "▁zayıf": 7938,
      "▁karar": 7939,
      "▁degistir": 7940,
      "▁duvara": 7941,
      "▁ut": 7942,
      "f": 7943,
      "##mac": 7944,
      "▁yorgunluk": 7945,
      "▁tuf": 7946,
      "▁cercev": 7947,
      "▁orani": 7948,
      "##madim": 7949,
      "▁okula": 7950,
      "▁davet": 7951,
      "▁gec": 7952,
      "▁lezzetliydi": 7953,
      "▁imam": 7954,
      "▁armag": 7955,
      "##abet": 7956,
      "▁koz": 7957,
      "▁demokr": 7958,
      "▁senat": 7959,
      "▁havayolu": 7960,
      "▁kendini": 7961,
      "##likten": 7962,
      "##eyen": 7963,
      "▁aramızda": 7964,
      "▁sıkıntı": 7965,
      "▁gorur": 7966,
      "▁boya": 7967,
      "##pa": 7968,
      "##erans": 7969,
      "▁gore": 7970,
      "##ler": 7971,
      "##siye": 7972,
      "▁guleryuzluydu": 7973,
      "▁topluma": 7974,
      "▁mektep": 7975,
      "▁ıskar": 7976,
      "▁daglar": 7977,
      "▁ikiye": 7978,
      "▁zah": 7979,
      "▁programını": 7980,
      "##atla": 7981,
      "▁sirkette": 7982,
      "##yon": 7983,
      "##anların": 7984,
      "▁kapattı": 7985,
      "##lanmıs": 7986,
      "▁yazı": 7987,
      "▁cevresinde": 7988,
      "##uzin": 7989,
      "▁kansas": 7990,
      "##adar": 7991,
      "▁arasına": 7992,
      "▁dc": 7993,
      "▁begen": 7994,
      "▁sart": 7995,
      "▁tuv": 7996,
      "##mesine": 7997,
      "▁ocak": 7998,
      "▁zamandan": 7999,
      "##ise": 8000,
      "▁olaydan": 8001,
      "▁yemeklerinden": 8002,
      "##lisi": 8003,
      "▁konumunu": 8004,
      "▁kazan": 8005,
      "▁yemeklerden": 8006,
      "▁numara": 8007,
      "▁yuzunun": 8008,
      "▁duz": 8009,
      "##ımızda": 8010,
      "##asına": 8011,
      "##asyon": 8012,
      "▁lis": 8013,
      "▁teklifler": 8014,
      "##len": 8015,
      "▁50": 8016,
      "▁hel": 8017,
      "▁bana": 8018,
      "▁veril": 8019,
      "▁cıl": 8020,
      "▁boyu": 8021,
      "##anlı": 8022,
      "##landı": 8023,
      "##ladım": 8024,
      "▁duzenlem": 8025,
      "▁hukuk": 8026,
      "▁kalmadim": 8027,
      "▁ellerini": 8028,
      "▁kayak": 8029,
      "▁sahip": 8030,
      "▁gecmis": 8031,
      "▁turlu": 8032,
      "##lılar": 8033,
      "▁pan": 8034,
      "▁nine": 8035,
      "▁anlasma": 8036,
      "##iyorlar": 8037,
      "##oj": 8038,
      "▁agz": 8039,
      "▁tadı": 8040,
      "##yı": 8041,
      "▁az": 8042,
      "▁perform": 8043,
      "##ur": 8044,
      "##seniz": 8045,
      "##evi": 8046,
      "##pr": 8047,
      "▁kasır": 8048,
      "##0-": 8049,
      "▁anlayıs": 8050,
      "##layıp": 8051,
      "▁hamam": 8052,
      "▁yapıl": 8053,
      "▁mola": 8054,
      "▁mel": 8055,
      "▁har": 8056,
      "##anlara": 8057,
      "##dig": 8058,
      "▁etme": 8059,
      "##iza": 8060,
      "##rsı": 8061,
      "▁mak": 8062,
      "▁9": 8063,
      "▁199": 8064,
      "▁iktis": 8065,
      "##cuk": 8066,
      "##esiz": 8067,
      "▁ch": 8068,
      "##lik": 8069,
      "▁ramaz": 8070,
      "▁sizin": 8071,
      "▁sattı": 8072,
      "▁raporda": 8073,
      "▁carsaflar": 8074,
      "▁disinda": 8075,
      "▁su": 8076,
      "▁yataklar": 8077,
      "▁gundeme": 8078,
      "##oz": 8079,
      "▁dolayı": 8080,
      "##ara": 8081,
      "▁bilinc": 8082,
      "##uyordum": 8083,
      "▁dısarı": 8084,
      "▁kun": 8085,
      "##dıgından": 8086,
      "▁yeme": 8087,
      "##ıt": 8088,
      "▁imparator": 8089,
      "▁turist": 8090,
      "▁dayak": 8091,
      "▁demokrasi": 8092,
      "▁hus": 8093,
      "▁barıs": 8094,
      "▁olmayacak": 8095,
      "▁pol": 8096,
      "▁fayda": 8097,
      "▁satıslar": 8098,
      "##uf": 8099,
      "▁marka": 8100,
      "##'den": 8101,
      "▁fırsat": 8102,
      "##ansız": 8103,
      "##oloj": 8104,
      "▁kayn": 8105,
      "▁lut": 8106,
      "▁hukumetin": 8107,
      "▁sahili": 8108,
      "▁onlem": 8109,
      "▁yurtd": 8110,
      "▁prens": 8111,
      "▁e": 8112,
      "##mekt": 8113,
      "##madik": 8114,
      "▁verg": 8115,
      "▁lezzetli": 8116,
      "##ıyordu": 8117,
      "▁davayı": 8118,
      "▁deger": 8119,
      "▁canlı": 8120,
      "##sizligi": 8121,
      "▁oteki": 8122,
      "▁nit": 8123,
      "##cek": 8124,
      "▁ek": 8125,
      "##liginde": 8126,
      "▁ali": 8127,
      "##ov": 8128,
      "▁kisilerin": 8129,
      "▁tahta": 8130,
      "▁endise": 8131,
      "##manlar": 8132,
      "▁oakland": 8133,
      "▁nes": 8134,
      "▁personellerinden": 8135,
      "▁programları": 8136,
      "▁dayan": 8137,
      "▁cevap": 8138,
      "▁adamlar": 8139,
      "▁grubu": 8140,
      "▁bilgiye": 8141,
      "▁asam": 8142,
      "##9'a": 8143,
      "▁ihtir": 8144,
      "▁taht": 8145,
      "▁hisselerini": 8146,
      "▁ayın": 8147,
      "▁ilgilendiler": 8148,
      "▁idi": 8149,
      "##acık": 8150,
      "▁kesim": 8151,
      "##layacak": 8152,
      "▁kud": 8153,
      "##ento": 8154,
      "▁etrafına": 8155,
      "▁tama": 8156,
      "##acı": 8157,
      "▁deli": 8158,
      "##manı": 8159,
      "▁saat": 8160,
      "▁ilgiliydi": 8161,
      "▁kapasit": 8162,
      "##0'da": 8163,
      "##acagı": 8164,
      "##vek": 8165,
      "▁kurumları": 8166,
      "##it": 8167,
      "▁civarında": 8168,
      "▁reddetti": 8169,
      "▁insana": 8170,
      "▁islere": 8171,
      "▁ingil": 8172,
      "▁ih": 8173,
      "##maktan": 8174,
      "▁washington": 8175,
      "▁anlam": 8176,
      "##likle": 8177,
      "▁odadan": 8178,
      "▁bank": 8179,
      "▁bulus": 8180,
      "▁birlesik": 8181,
      "▁sevin": 8182,
      "▁gol": 8183,
      "▁mahk": 8184,
      "##misler": 8185,
      "##imizda": 8186,
      "▁cep": 8187,
      "▁kuc": 8188,
      "▁bayrak": 8189,
      "▁temsilcisi": 8190,
      "▁islemlerin": 8191
    }
  }
}