{
  "version": "1.0",
  "truncation": null,
  "padding": null,
  "added_tokens": [
    {
      "id": 2474,
      "content": "[PAD]",
      "single_word": false,
      "lstrip": false,
      "rstrip": false,
      "normalized": false,
      "special": true
    },
    {
      "id": 7449,
      "content": "[SEP]",
      "single_word": false,
      "lstrip": false,
      "rstrip": false,
      "normalized": false,
      "special": true
    },
    {
      "id": 13222,
      "content": "[UNK]",
      "single_word": false,
      "lstrip": false,
      "rstrip": false,
      "normalized": false,
      "special": true
    },
    {
      "id": 15127,
      "content": "[CLS]",
      "single_word": false,
      "lstrip": false,
      "rstrip": false,
      "normalized": false,
      "special": true
    },
    {
      "id": 16131,
      "content": "[MASK]",
      "single_word": false,
      "lstrip": false,
      "rstrip": false,
      "normalized": false,
      "special": true
    }
  ],
  "normalizer": {
    "type": "Sequence",
    "normalizers": [
      {
        "type": "NFD"
      },
      {
        "type": "Lowercase"
      },
      {
        "type": "StripAccents"
      }
    ]
  },
  "pre_tokenizer": {
    "type": "Sequence",
    "pretokenizers": [
      {
        "type": "Metaspace",
        "replacement": "▁",
        "prepend_scheme": "always",
        "split": true
      }
    ]
  },
  "post_processor": {
    "type": "TemplateProcessing",
    "single": [
      {
        "SpecialToken": {
          "id": "[CLS]",
          "type_id": 0
        }
      },
      {
        "Sequence": {
          "id": "A",
          "type_id": 0
        }
      },
      {
        "SpecialToken": {
          "id": "[SEP]",
          "type_id": 0
        }
      }
    ],
    "pair": [
      {
        "SpecialToken": {
          "id": "[CLS]",
          "type_id": 0
        }
      },
      {
        "Sequence": {
          "id": "A",
          "type_id": 0
        }
      },
      {
        "SpecialToken": {
          "id": "[SEP]",
          "type_id": 0
        }
      },
      {
        "Sequence": {
          "id": "B",
          "type_id": 1
        }
      },
      {
        "SpecialToken": {
          "id": "[SEP]",
          "type_id": 1
        }
      }
    ],
    "special_tokens": {
      "[CLS]": {
        "id": "[CLS]",
        "ids": [
          15127
        ],
        "tokens": [
          "[CLS]"
        ]
      },
      "[SEP]": {
        "id": "[SEP]",
        "ids": [
          7449
        ],
        "tokens": [
          "[SEP]"
        ]
      }
    }
  },
  "decoder": {
    "type": "Metaspace",
    "replacement": "▁",
    "prepend_scheme": "always",
    "split": true
  },
  "model": {
    "type": "Unigram",
    "unk_id": 13222,
    "vocab": [
      [
        "c",
        -6.430645875655387
      ],
      [
        "▁duzey",
        -8.843671959386135
      ],
      [
        "lendirme",
        -10.283222283063754
      ],
      [
        "likler",
        -10.51657879467925
      ],
      [
        "eren",
        -8.96638790483414
      ],
      [
        "▁sabrı",
        -10.407391187141988
      ],
      [
        "▁dır",
        -4.287573368195668
      ],
      [
        "▁pittsburgh'",
        -5.830220983344218
      ],
      [
        "caya",
        -10.156958982748032
      ],
      [
        "▁gorunen",
        -9.23851303149914
      ],
      [
        "▁grub",
        -10.445568163089836
      ],
      [
        "▁beklentileri",
        -10.167785641740648
      ],
      [
        "rlar",
        -8.593514451729753
      ],
      [
        "▁anlamın",
        -8.714500726446095
      ],
      [
        "lık",
        -6.994200312939683
      ],
      [
        "▁karanlık",
        -8.182000264629504
      ],
      [
        "▁ongoruyor",
        -9.215782707374947
      ],
      [
        "▁adamı",
        -8.49461624903499
      ],
      [
        "▁aklınızda",
        -11.076405838041135
      ],
      [
        "▁koydu",
        -7.598014166929816
      ],
      [
        "▁kus",
        -8.691689769757044
      ],
      [
        "▁yene",
        -10.281873739495614
      ],
      [
        "liklerin",
        -9.535672698502811
      ],
      [
        "▁model",
        -9.74358008790874
      ],
      [
        "▁paralar",
        -10.283747982854502
      ],
      [
        "▁dograyı",
        -9.327609745406075
      ],
      [
        "▁incele",
        -9.553054555053427
      ],
      [
        "▁mo",
        -10.748787813834674
      ],
      [
        "▁menu",
        -11.125165569648654
      ],
      [
        "▁bu",
        -3.2396197333277525
      ],
      [
        "▁buluyor",
        -9.146445509608093
      ],
      [
        "▁vakıf",
        -9.91594137130517
      ],
      [
        "▁yazma",
        -9.384773791707467
      ],
      [
        "▁temelin",
        -10.721814144491493
      ],
      [
        "▁kıymetin",
        -10.71482803203821
      ],
      [
        "mizi",
        -9.835866857580756
      ],
      [
        "▁ihtiyat",
        -9.930536686513426
      ],
      [
        "gan",
        -9.002483237685713
      ],
      [
        "▁yargıcı",
        -10.660866348517569
      ],
      [
        "▁ekseriy",
        -9.00919196281981
      ],
      [
        "bat",
        -8.497312982968014
      ],
      [
        "▁destekliyor",
        -9.255077678280978
      ],
      [
        "▁inme",
        -11.001130386165006
      ],
      [
        "▁heves",
        -9.883187758572305
      ],
      [
        "▁olmalıdır",
        -8.745491816416173
      ],
      [
        "▁ettir",
        -9.318261701259091
      ],
      [
        "▁600",
        -7.786927650045376
      ],
      [
        "f",
        -7.213409085851779
      ],
      [
        "▁dinliyor",
        -8.953914129979578
      ],
      [
        "c",
        -8.828483204966615
      ],
      [
        "▁paraları",
        -10.029935445259891
      ],
      [
        "▁toplantılar",
        -10.080524245146925
      ],
      [
        "▁temyiz",
        -9.801353203602739
      ],
      [
        "▁borclanma",
        -10.253492244133646
      ],
      [
        "▁camlar",
        -10.26209159649912
      ],
      [
        "▁adamların",
        -10.496105675016159
      ],
      [
        "▁2003",
        -8.154411264281709
      ],
      [
        "▁ye",
        -8.137158329888496
      ],
      [
        "▁es",
        -8.308701657809824
      ],
      [
        "▁insanlık",
        -10.406110433795394
      ],
      [
        "▁birbirleri",
        -7.979369573870796
      ],
      [
        "ldik",
        -9.035585925778367
      ],
      [
        "▁1999",
        -8.08543405752368
      ],
      [
        "▁krediler",
        -10.121712793230083
      ],
      [
        "yuzelli",
        -8.090689166735284
      ],
      [
        "a",
        -3.8394838638049187
      ],
      [
        "su",
        -7.924619150497522
      ],
      [
        "▁rock",
        -8.415192827723825
      ],
      [
        "zler",
        -10.543142877544824
      ],
      [
        "ilmis",
        -9.133607987919268
      ],
      [
        "▁dusmesi",
        -10.83039264204925
      ],
      [
        "▁er",
        -9.225897782961376
      ],
      [
        "p",
        -8.916280301211483
      ],
      [
        "▁oldugumuz",
        -10.08813318127611
      ],
      [
        "▁denk",
        -10.360254053360284
      ],
      [
        "▁ekim",
        -7.390394719216669
      ],
      [
        "▁dokuma",
        -10.723562947597415
      ],
      [
        "▁ka",
        -9.2973943626025
      ],
      [
        "▁saga",
        -9.492924961636866
      ],
      [
        "sına",
        -8.686334125061018
      ],
      [
        "▁kıymetl",
        -9.30900380766012
      ],
      [
        "▁ton",
        -8.986914558399256
      ],
      [
        "▁4'te",
        -9.331104212865553
      ],
      [
        "▁calısmay",
        -10.543216385151561
      ],
      [
        "▁sozlerin",
        -9.381251144235142
      ],
      [
        "▁kurumları",
        -9.706675188802485
      ],
      [
        "▁seviyor",
        -9.415423823809707
      ],
      [
        "▁muzakerelerin",
        -11.120139494726622
      ],
      [
        "▁icraat",
        -10.743919828868297
      ],
      [
        "ır",
        -9.122830549176314
      ],
      [
        "▁beni",
        -4.178270586993837
      ],
      [
        "▁uzaklar",
        -10.732098293017946
      ],
      [
        "▁arzular",
        -11.012163413324918
      ],
      [
        "▁tasvi",
        -11.09802326395631
      ],
      [
        "▁ah",
        -9.849855937950485
      ],
      [
        "yayım",
        -9.535391582004097
      ],
      [
        "▁marcos",
        -9.012419238293038
      ],
      [
        "▁seksen",
        -7.5471725093316895
      ],
      [
        "▁idam",
        -10.464620657932812
      ],
      [
        "▁temmuz",
        -9.195078725690044
      ],
      [
        "▁amacı",
        -8.878671192718738
      ],
      [
        "▁sayısını",
        -9.386750593301274
      ],
      [
        "▁peni",
        -10.466023172959309
      ],
      [
        "▁serisi",
        -9.989887918222113
      ],
      [
        "▁ritmi",
        -11.0987433302573
      ],
      [
        "▁sokagın",
        -10.211811634418831
      ],
      [
        "▁fısıl",
        -10.898807310083509
      ],
      [
        "▁bogu",
        -9.430927975065169
      ],
      [
        "▁pembe",
        -8.497597246521899
      ],
      [
        "▁soz",
        -8.640535821440196
      ],
      [
        "▁tak",
        -8.240254249428203
      ],
      [
        "▁edemedi",
        -9.532693759728076
      ],
      [
        "▁olus",
        -10.850763920469111
      ],
      [
        "▁isaret",
        -8.638068271147606
      ],
      [
        "▁hiddet",
        -10.464219080323783
      ],
      [
        "ama",
        -3.6363263764093867
      ],
      [
        "▁tahsisat",
        -10.899742062873349
      ],
      [
        "▁kaybed",
        -8.422957492860599
      ],
      [
        "▁derin",
        -8.538183502760575
      ],
      [
        "▁sal",
        -9.13956983108741
      ],
      [
        "▁yansıtma",
        -11.098745283274042
      ],
      [
        "▁mutsuzlugu",
        -11.100434168834811
      ],
      [
        "▁delik",
        -8.84966384198391
      ],
      [
        "▁!",
        -9.53960140659185
      ],
      [
        "▁dolabın",
        -10.38637811971625
      ],
      [
        "▁benziyor",
        -8.176782275615567
      ],
      [
        "▁planlamam",
        -9.990359493198245
      ],
      [
        "▁utu",
        -10.16488647323943
      ],
      [
        "▁minare",
        -11.123528388589932
      ],
      [
        "▁televizyonda",
        -10.41153022698099
      ],
      [
        "over",
        -9.050184821927871
      ],
      [
        "▁kulube",
        -10.57852452093503
      ],
      [
        "▁iyimserlik",
        -10.732832500668739
      ],
      [
        "▁limanı",
        -10.776958088067634
      ],
      [
        "▁koku",
        -8.772145628112606
      ],
      [
        "▁samimiyet",
        -10.001942624431361
      ],
      [
        "▁sanatın",
        -10.081459169376465
      ],
      [
        "▁bulbul",
        -9.612750755814089
      ],
      [
        "\"",
        -10.290585212728432
      ],
      [
        "cu",
        -9.047207915238179
      ],
      [
        "▁deterjan",
        -10.898742889415498
      ],
      [
        "dı",
        -10.105361773148475
      ],
      [
        "▁noktası",
        -9.229177185792704
      ],
      [
        "▁nedeni",
        -8.117627738305625
      ],
      [
        "▁kulak",
        -8.74656439672934
      ],
      [
        "pati",
        -9.209084273134739
      ],
      [
        "▁her",
        -6.384114116204266
      ],
      [
        "▁buyukler",
        -9.907680227081382
      ],
      [
        "▁davanın",
        -10.436725116496614
      ],
      [
        "▁kazanma",
        -9.280077405669216
      ],
      [
        "▁hukumetin",
        -8.890701790651985
      ],
      [
        "onları",
        -8.727200049969378
      ],
      [
        "▁aldigim",
        -7.999018699062792
      ],
      [
        "▁bekleye",
        -8.896729944215993
      ],
      [
        "▁denver'de",
        -5.178782660526716
      ],
      [
        "▁ju",
        -9.954027270645007
      ],
      [
        "▁tanıdı",
        -9.177399339455464
      ],
      [
        "▁havale",
        -10.418412916888009
      ],
      [
        "▁guveyi",
        -11.101323723886617
      ],
      [
        "tan",
        -9.044013492674482
      ],
      [
        "▁arada",
        -7.748422970717839
      ],
      [
        "▁aylar",
        -10.086747663000155
      ],
      [
        "▁ocagında",
        -10.804956681997481
      ],
      [
        "▁soru",
        -9.688189301169576
      ],
      [
        "▁kadına",
        -10.50352913239665
      ],
      [
        "ya",
        -7.487244857637892
      ],
      [
        "▁3.",
        -5.926069570258965
      ],
      [
        "dan",
        -4.923470742661699
      ],
      [
        "▁aklını",
        -10.054330798899313
      ],
      [
        "▁tuken",
        -9.531455994073081
      ],
      [
        "▁donuk",
        -8.251428758321687
      ],
      [
        "▁savunucuları",
        -10.898742911572771
      ],
      [
        "▁basladıgı",
        -9.518670101849109
      ],
      [
        "gini",
        -8.700851340994934
      ],
      [
        "▁akord",
        -11.098764053693774
      ],
      [
        "▁devlet",
        -8.558690081571111
      ],
      [
        "▁sahil",
        -9.749676515131068
      ],
      [
        "▁tabure",
        -10.698738358901899
      ],
      [
        "▁gelistir",
        -9.474745844695597
      ],
      [
        "ba",
        -8.06782252209855
      ],
      [
        "▁makaley",
        -9.111498584920378
      ],
      [
        "▁new",
        -5.141447350007896
      ],
      [
        "▁ofke",
        -9.251054873770883
      ],
      [
        "ayım",
        -7.687132332607139
      ],
      [
        "n",
        -3.9923441943343114
      ],
      [
        "▁ayaklarında",
        -10.889438157402713
      ],
      [
        "▁detayları",
        -9.951762796501589
      ],
      [
        "▁cagırı",
        -9.480438913205337
      ],
      [
        "▁sozcugunu",
        -10.924510427260822
      ],
      [
        "▁geciriyor",
        -9.131466605130651
      ],
      [
        "ma",
        -8.403842852480327
      ],
      [
        "▁sakarya",
        -8.905456144921246
      ],
      [
        ".",
        -11.199601737652316
      ],
      [
        "▁cihazlar",
        -10.867747598237205
      ],
      [
        "▁haziran",
        -7.47108916219549
      ],
      [
        "▁ilgileniyor",
        -8.9459726731259
      ],
      [
        "▁gelenleri",
        -10.280921115058202
      ],
      [
        "▁seni",
        -5.079941773321164
      ],
      [
        "▁esrar",
        -10.355876034301302
      ],
      [
        "▁bolgesinde",
        -10.282788908759759
      ],
      [
        "▁gecen",
        -8.284165265283239
      ],
      [
        "▁dusundugun",
        -10.24818296931808
      ],
      [
        "merkez",
        -9.013089418937568
      ],
      [
        "▁yapti",
        -7.3477160805888495
      ],
      [
        "▁itirazı",
        -10.782397198999432
      ],
      [
        "▁sa",
        -4.233276091639059
      ],
      [
        "▁gol",
        -8.73792569799254
      ],
      [
        "▁itimat",
        -10.898744915437533
      ],
      [
        "▁ısıgı",
        -9.554620258711317
      ],
      [
        "▁satıl",
        -9.595613147708656
      ],
      [
        "cele",
        -9.084700886622908
      ],
      [
        "lerinden",
        -7.743808517523262
      ],
      [
        "ginde",
        -9.25235853384293
      ],
      [
        "▁walt",
        -8.942440268658403
      ],
      [
        "▁acan",
        -9.256818639178476
      ],
      [
        "▁reddedil",
        -9.459791094230278
      ],
      [
        "▁sirketini",
        -9.818668848982217
      ],
      [
        "▁belinde",
        -10.185466252153718
      ],
      [
        "den",
        -10.015566736665784
      ],
      [
        "▁yeterli",
        -9.620515762287019
      ],
      [
        "▁oncesin",
        -10.015041573323387
      ],
      [
        "▁halim",
        -10.698823443378895
      ],
      [
        "kendi",
        -8.045656625088052
      ],
      [
        "▁odeme",
        -8.488638920462414
      ],
      [
        "▁gordugum",
        -10.740582979502909
      ],
      [
        "▁asır",
        -10.11015137601162
      ],
      [
        "▁ciftci",
        -10.063981260693316
      ],
      [
        "▁katil",
        -9.175861373291651
      ],
      [
        "▁fal",
        -10.524437808722794
      ],
      [
        "dugunu",
        -9.035029235119191
      ],
      [
        "▁pittsburgh",
        -6.351771316570848
      ],
      [
        "▁telefonu",
        -9.790153598986823
      ],
      [
        "▁basarılarını",
        -10.986660229775728
      ],
      [
        "▁yuzyılda",
        -10.24979198715172
      ],
      [
        "▁konumda",
        -10.404074720325974
      ],
      [
        "▁soruları",
        -9.97173512669726
      ],
      [
        "▁gidecek",
        -9.454452807581841
      ],
      [
        "▁kalbin",
        -10.567769316068999
      ],
      [
        "▁mesru",
        -10.89873704687773
      ],
      [
        "▁tehdit",
        -9.245412123468972
      ],
      [
        "▁romancı",
        -9.806371090186854
      ],
      [
        "▁saz",
        -9.36797514413226
      ],
      [
        "di",
        -10.231009713513307
      ],
      [
        "▁seyirciler",
        -10.41418148873679
      ],
      [
        "▁kosullar",
        -9.534704435588722
      ],
      [
        "▁bugunu",
        -9.793722713240008
      ],
      [
        "▁sakatlıgı",
        -10.74050434999275
      ],
      [
        "▁toprak",
        -8.489745413190827
      ],
      [
        "m",
        -4.809409968019235
      ],
      [
        "▁'",
        -10.790149558202552
      ],
      [
        "len",
        -7.707804591723178
      ],
      [
        "▁dort",
        -4.533641774591931
      ],
      [
        "meyecek",
        -8.498226654065414
      ],
      [
        "▁makinist",
        -11.090466083727314
      ],
      [
        "▁kostek",
        -11.098757775449418
      ],
      [
        "▁20.",
        -7.512346450622075
      ],
      [
        "▁bagımsızlıg",
        -10.898744098910472
      ],
      [
        "▁2.3",
        -8.058814567633984
      ],
      [
        "▁yemeginde",
        -10.663666997386484
      ],
      [
        "▁tutku",
        -10.699768861078732
      ],
      [
        "▁bun",
        -4.95641735510991
      ],
      [
        "▁lobi",
        -9.45887828716776
      ],
      [
        "ydı",
        -7.488112625183191
      ],
      [
        "▁taleplerini",
        -10.381043962496644
      ],
      [
        "▁dikkatle",
        -10.391083453504613
      ],
      [
        "▁danısmanları",
        -10.419200263397883
      ],
      [
        "▁olasılıgı",
        -10.547984135103253
      ],
      [
        "hanesi",
        -11.071904262238501
      ],
      [
        "▁calıs",
        -8.389553384790805
      ],
      [
        "sinde",
        -7.3805668975433765
      ],
      [
        "▁komisyoncu",
        -10.670405948477553
      ],
      [
        "▁brown",
        -8.353357083995986
      ],
      [
        "▁yapılandırma",
        -10.079580958901886
      ],
      [
        "ulu",
        -9.540655211878178
      ],
      [
        "▁ocagın",
        -10.080082582576852
      ],
      [
        "▁cesitli",
        -7.127344675886908
      ],
      [
        "dini",
        -9.648552577536073
      ],
      [
        "▁toky",
        -9.035583209637448
      ],
      [
        "▁reis",
        -10.733166678107594
      ],
      [
        "▁topuk",
        -11.093262456013042
      ],
      [
        "▁michael",
        -8.23485118517964
      ],
      [
        "▁teslim",
        -8.720370402266308
      ],
      [
        "▁denge",
        -8.365464385128696
      ],
      [
        "▁kurulun",
        -10.68711213817468
      ],
      [
        "▁cimenler",
        -10.88222910820811
      ],
      [
        "lıklı",
        -8.655911197312777
      ],
      [
        "▁yapıldıgın",
        -10.397002591275182
      ],
      [
        "▁numaraları",
        -10.104299433076797
      ],
      [
        "▁kalabal",
        -8.521171699082714
      ],
      [
        "▁gazete",
        -8.190931532112046
      ],
      [
        "gal",
        -10.76990530336873
      ],
      [
        "▁150",
        -7.07966151810731
      ],
      [
        "▁done",
        -8.549931206463363
      ],
      [
        "▁sorununu",
        -9.987848300939543
      ],
      [
        "▁hamur",
        -10.144376214680632
      ],
      [
        "▁gonlunu",
        -10.163705131947237
      ],
      [
        "ji",
        -10.218788201139162
      ],
      [
        "▁gercegi",
        -9.714835194009707
      ],
      [
        "▁birles",
        -8.83515728544908
      ],
      [
        "f",
        -9.48903725495799
      ],
      [
        "▁yatı",
        -9.815254599550332
      ],
      [
        "▁kadıncagız",
        -10.46446845233902
      ],
      [
        "▁gecmis",
        -8.225579106490848
      ],
      [
        "abı",
        -10.650278504375741
      ],
      [
        "▁miydi",
        -5.8666742159891765
      ],
      [
        "▁alan",
        -9.032103123125982
      ],
      [
        "degili",
        -9.219086413763549
      ],
      [
        "▁otur",
        -8.237529103507198
      ],
      [
        "▁gozu",
        -8.23859842707946
      ],
      [
        "▁olusturuyor",
        -9.010897918694187
      ],
      [
        "▁yetisiyor",
        -9.695086029996224
      ],
      [
        "▁soy",
        -9.473205083556975
      ],
      [
        "▁masrafı",
        -10.417145691891063
      ],
      [
        "▁insaat",
        -8.462511553857102
      ],
      [
        "▁yapmayacagın",
        -11.04388552906123
      ],
      [
        "▁ibr",
        -10.46245958662215
      ],
      [
        "▁pınar",
        -10.732096133609536
      ],
      [
        "▁olmas",
        -8.686014865179953
      ],
      [
        "▁dalgal",
        -9.560806825978016
      ],
      [
        "▁1991'",
        -10.004081732402314
      ],
      [
        "▁kap",
        -9.303158948066772
      ],
      [
        "lardi",
        -9.411817586757744
      ],
      [
        "▁ozel",
        -6.39656241484808
      ],
      [
        "▁calı",
        -9.46828357605775
      ],
      [
        "eri",
        -9.996211761357804
      ],
      [
        "▁ederi",
        -6.006861745619497
      ],
      [
        "▁cıgır",
        -10.766843731978136
      ],
      [
        "▁egilimin",
        -11.033197217671413
      ],
      [
        "▁avukatlar",
        -9.284466995300582
      ],
      [
        "▁sorunu",
        -8.365052026468302
      ],
      [
        "▁tıp",
        -10.080164739996746
      ],
      [
        "▁dallas'",
        -5.766594172843666
      ],
      [
        "▁sar",
        -9.351823180429301
      ],
      [
        "▁onarım",
        -10.875975444746253
      ],
      [
        "▁tanıklık",
        -10.262829233946173
      ],
      [
        "▁alıskanlık",
        -10.978923342421155
      ],
      [
        "▁ciftler",
        -10.970720987846304
      ],
      [
        "▁sol",
        -7.288741515228045
      ],
      [
        "▁so",
        -8.823848671637887
      ],
      [
        "▁askerlik",
        -10.182450358970826
      ],
      [
        "▁sevindi",
        -9.138564488228
      ],
      [
        "dinde",
        -9.744352432043923
      ],
      [
        "▁isleri",
        -8.747171771165153
      ],
      [
        "▁or",
        -8.424261484288385
      ],
      [
        "▁riski",
        -10.282632648629939
      ],
      [
        ".6",
        -7.31878254229675
      ],
      [
        "han",
        -7.500671672989282
      ],
      [
        "ak",
        -8.1590688120904
      ],
      [
        "▁celebi",
        -8.784566023676035
      ],
      [
        "▁gerektir",
        -9.146557270418402
      ],
      [
        "▁kısıtlamalar",
        -10.662164394280001
      ],
      [
        "lerde",
        -7.59053195627458
      ],
      [
        "▁ellerim",
        -10.367014999651033
      ],
      [
        "▁ayakları",
        -9.267114887465592
      ],
      [
        "▁ekonomist",
        -10.431459292491933
      ],
      [
        "▁kotuluk",
        -11.099955329708193
      ],
      [
        "▁kristal",
        -10.589219079848512
      ],
      [
        "▁yukarıda",
        -10.682532582440862
      ],
      [
        "lama",
        -8.847818162774589
      ],
      [
        "▁kızları",
        -9.756641513161739
      ],
      [
        "▁zam",
        -9.798181674920173
      ],
      [
        "▁tesaduf",
        -9.634336565742053
      ],
      [
        "▁etkenleri",
        -10.887329364106188
      ],
      [
        "▁gezer",
        -9.292745538468182
      ],
      [
        "▁polonya",
        -8.29676673508626
      ],
      [
        "▁hazırlanma",
        -10.957492578536025
      ],
      [
        "▁2.6",
        -7.411926299767766
      ],
      [
        "▁komunist",
        -10.611709680623461
      ],
      [
        "▁dekoru",
        -11.028316741576418
      ],
      [
        "▁gevse",
        -9.208326245442873
      ],
      [
        "▁anlam",
        -8.554240906640702
      ],
      [
        "▁kumes",
        -11.071501897286884
      ],
      [
        "esn",
        -9.407017138679217
      ],
      [
        "▁kadındı",
        -9.51178088726645
      ],
      [
        "▁demekti",
        -8.052729377854998
      ],
      [
        "▁oglan",
        -9.037189572219635
      ],
      [
        "▁rıhtım",
        -9.990223275389578
      ],
      [
        "▁listeley",
        -6.290222718821956
      ],
      [
        "landırma",
        -10.886914263104174
      ],
      [
        "▁cumlesi",
        -9.48567874430746
      ],
      [
        "▁kaza",
        -9.013850004678076
      ],
      [
        "▁komsu",
        -9.785121592452185
      ],
      [
        "▁kalka",
        -5.973555474754623
      ],
      [
        "▁gorunmuyor",
        -8.807209527914921
      ],
      [
        "▁fenerleri",
        -10.624635083561937
      ],
      [
        "▁yatma",
        -10.29870738779641
      ],
      [
        "▁bulunuyor",
        -7.704855698590048
      ],
      [
        "▁sonu",
        -8.840424687555515
      ],
      [
        "▁finans",
        -8.68255701499143
      ],
      [
        ".",
        -1.1587881497080552
      ],
      [
        "adı",
        -10.616057965420612
      ],
      [
        "▁bizleri",
        -7.670619926103663
      ],
      [
        "ham",
        -10.896874811710813
      ],
      [
        "▁isteyen",
        -8.944476463443912
      ],
      [
        "▁karsılastı",
        -9.288690536934114
      ],
      [
        "'da",
        -9.771353405504778
      ],
      [
        "▁yavast",
        -9.128014861547346
      ],
      [
        "▁zihniyet",
        -11.098778683444035
      ],
      [
        "▁sak",
        -9.355756889124054
      ],
      [
        "▁e",
        -9.33193086974119
      ],
      [
        "▁bıcagın",
        -10.880137455789233
      ],
      [
        "▁sevi",
        -9.501176240230185
      ],
      [
        "▁po",
        -10.077528008374358
      ],
      [
        "▁kızıl",
        -8.811849562946607
      ],
      [
        "▁evvel",
        -8.824795853326233
      ],
      [
        "▁girmek",
        -9.761249662795942
      ],
      [
        "▁mu",
        -8.3270897465338
      ],
      [
        "▁cıkardıgı",
        -8.96097858121532
      ],
      [
        "b",
        -8.138833591377013
      ],
      [
        "▁gezi",
        -9.649143086654078
      ],
      [
        "▁harun",
        -8.899797760784903
      ],
      [
        "▁bakıslar",
        -11.050959612291349
      ],
      [
        "▁fırlay",
        -9.318000560125114
      ],
      [
        "▁kirpi",
        -10.895517883861658
      ],
      [
        "▁",
        -3.611816305408839
      ],
      [
        "▁ziyaret",
        -8.618011375673778
      ],
      [
        "▁calısanlarını",
        -10.541887054453719
      ],
      [
        "ır",
        -3.545613865433209
      ],
      [
        "▁terbiyesi",
        -11.029054563547762
      ],
      [
        "▁komite",
        -9.541743382154941
      ],
      [
        "▁kayıgın",
        -10.658755408156503
      ],
      [
        "▁ford'u",
        -8.798600766707999
      ],
      [
        "▁saati",
        -9.222357494520478
      ],
      [
        "▁sorun",
        -9.236904210390406
      ],
      [
        "▁bulen",
        -8.550482102485155
      ],
      [
        "mıslardı",
        -9.359139899636563
      ],
      [
        "▁sartları",
        -9.470982256641998
      ],
      [
        "▁orta",
        -7.921611910538365
      ],
      [
        "▁gorevleri",
        -10.593928493359797
      ],
      [
        "▁kıyas",
        -8.665428957164131
      ],
      [
        "▁yansıt",
        -9.043291056228828
      ],
      [
        "▁tenkit",
        -11.09874483578838
      ],
      [
        "b",
        -7.087749311720765
      ],
      [
        "▁dunyası",
        -9.667921840265471
      ],
      [
        "utan",
        -9.57317162066348
      ],
      [
        "▁savunuyor",
        -9.519098347117572
      ],
      [
        "ıs",
        -8.287789809995358
      ],
      [
        "▁hi",
        -4.718511553182138
      ],
      [
        "▁donemlerde",
        -10.165782027529728
      ],
      [
        "▁kalkıs",
        -9.619537982817782
      ],
      [
        "▁kalca",
        -11.090096112522522
      ],
      [
        "▁ka",
        -7.814655317270432
      ],
      [
        "▁kullanılmıs",
        -9.452856461458328
      ],
      [
        "ıstır",
        -8.331140581657268
      ],
      [
        "▁harcamaları",
        -9.92415621989377
      ],
      [
        "▁hazırlıgı",
        -11.100161927664733
      ],
      [
        "▁serin",
        -9.954789813977074
      ],
      [
        "▁neredey",
        -6.709668161950811
      ],
      [
        "▁engin",
        -8.79951354501774
      ],
      [
        "▁county",
        -8.986855090658505
      ],
      [
        "▁mesut",
        -8.898668350300207
      ],
      [
        "siz",
        -7.9918944637072
      ],
      [
        "u",
        -3.7168319356119826
      ],
      [
        "▁oldu",
        -7.796540599473481
      ],
      [
        "▁yeter",
        -7.764265844663578
      ],
      [
        "gi",
        -10.055124877575476
      ],
      [
        "lu",
        -7.588867179938893
      ],
      [
        "▁detroit'",
        -7.969483508508505
      ],
      [
        "▁gerceklesti",
        -8.051728994105423
      ],
      [
        "▁saka",
        -8.93521407470717
      ],
      [
        "▁fikir",
        -8.755472364316885
      ],
      [
        "erken",
        -9.409159998134541
      ],
      [
        "▁nesiller",
        -11.024794515261863
      ],
      [
        "▁seriat",
        -11.10261267556529
      ],
      [
        "▁il",
        -6.111403265351347
      ],
      [
        "sana",
        -10.46814210824266
      ],
      [
        "▁arabalar",
        -9.23945606759834
      ],
      [
        "▁kullanılı",
        -9.282414373089779
      ],
      [
        "▁mevzu",
        -10.644295098922322
      ],
      [
        "▁konakladigim",
        -9.544358253138036
      ],
      [
        "▁dolardı",
        -8.470701079219829
      ],
      [
        "▁kaynaklanıyor",
        -9.334908263921344
      ],
      [
        "▁disi",
        -9.83427619154498
      ],
      [
        "▁ok",
        -9.689931395535403
      ],
      [
        "▁baskanı'nı",
        -10.902372882871873
      ],
      [
        "▁yurume",
        -10.711857349455922
      ],
      [
        "▁bolunme",
        -10.842195258263528
      ],
      [
        "▁beyzbol",
        -10.732078624963716
      ],
      [
        "▁siyah",
        -6.842527925617158
      ],
      [
        "▁zehirl",
        -8.886761530612523
      ],
      [
        "▁indianapolis'",
        -7.852477390095281
      ],
      [
        "▁mes",
        -10.00432328336108
      ],
      [
        "sm",
        -10.509543427039166
      ],
      [
        "▁iltifat",
        -10.353108041379006
      ],
      [
        "▁topraklarda",
        -11.067742990131286
      ],
      [
        "▁salonda",
        -9.92326733828611
      ],
      [
        "ık",
        -7.114014088154494
      ],
      [
        "▁dile",
        -10.010467878045997
      ],
      [
        "▁ucuslar",
        -6.133115250310938
      ],
      [
        "bası",
        -9.635506195941733
      ],
      [
        "–",
        -12.802702672349787
      ],
      [
        "▁ingilizce",
        -8.342281573157743
      ],
      [
        "▁yapacagı",
        -9.425790165847344
      ],
      [
        "▁uyelerini",
        -9.940280189192555
      ],
      [
        "▁bilgiler",
        -9.632287491027398
      ],
      [
        "▁mısır",
        -8.877134257723828
      ],
      [
        "▁saklay",
        -9.786996165266945
      ],
      [
        "n",
        -4.329614631889785
      ],
      [
        "▁dalgalanması",
        -11.010691818141964
      ],
      [
        "niz",
        -7.335350596415703
      ],
      [
        "eral",
        -9.028854184437403
      ],
      [
        "▁saatini",
        -10.529825165934096
      ],
      [
        "▁toprag",
        -9.7156229474995
      ],
      [
        "wa",
        -8.939610455979558
      ],
      [
        "▁egemen",
        -10.728094642416997
      ],
      [
        "▁caz",
        -10.079275981896153
      ],
      [
        "uyordu",
        -8.085108600065736
      ],
      [
        "▁patlaması",
        -10.431060106534309
      ],
      [
        "▁ko",
        -8.548933816185256
      ],
      [
        "ı",
        -4.541321046145934
      ],
      [
        "sen",
        -8.736290184606178
      ],
      [
        "v",
        -8.961232844137596
      ],
      [
        "▁200",
        -6.130752197523191
      ],
      [
        "▁cap",
        -8.801962411188892
      ],
      [
        "lasmıstı",
        -9.674343500504591
      ],
      [
        "▁tasın",
        -9.431236883183264
      ],
      [
        "▁parcaları",
        -9.350519324300969
      ],
      [
        "▁bolge",
        -8.49050837589902
      ],
      [
        "ak",
        -3.6704506036336477
      ],
      [
        "z",
        -4.5682277971428595
      ],
      [
        "▁yerleri",
        -9.27137850860785
      ],
      [
        "▁sokak",
        -8.953002827233037
      ],
      [
        "▁parkı",
        -10.391733930445685
      ],
      [
        "▁masada",
        -9.595851894667696
      ],
      [
        "▁dagıt",
        -9.505806570152329
      ],
      [
        "▁edip",
        -7.343455231838878
      ],
      [
        "▁karsılasma",
        -10.764732419228627
      ],
      [
        "la",
        -7.777082916088704
      ],
      [
        "asyonu",
        -10.618728846007622
      ],
      [
        "illi",
        -9.15804544407128
      ],
      [
        "▁vizyon",
        -11.075305143991274
      ],
      [
        "▁ilk",
        -5.422088086439556
      ],
      [
        "▁anladı",
        -7.981671690000261
      ],
      [
        "▁aralıgın",
        -11.028043499805012
      ],
      [
        "▁birahane",
        -11.123457699618854
      ],
      [
        "1.9",
        -8.265703530508523
      ],
      [
        "fi",
        -11.266950760798968
      ],
      [
        "▁aydınlat",
        -10.899304386873958
      ],
      [
        "▁olcek",
        -10.353137027608849
      ],
      [
        "▁sen",
        -10.610496802343071
      ],
      [
        "▁yetersiz",
        -6.863319499207191
      ],
      [
        "▁diregin",
        -11.023239348963079
      ],
      [
        "▁gormus",
        -9.07819395704429
      ],
      [
        "▁ısı",
        -9.606998836789217
      ],
      [
        "▁ihtiyar",
        -7.886401087484883
      ],
      [
        "▁denen",
        -9.18484493565116
      ],
      [
        "▁alın",
        -9.834863094882923
      ],
      [
        "▁sesler",
        -9.273630729968065
      ],
      [
        "▁hazret",
        -11.070265045621623
      ],
      [
        "▁gorusme",
        -8.847673759113844
      ],
      [
        "o",
        -7.777203223457151
      ],
      [
        "▁kad",
        -9.164782618742375
      ],
      [
        "▁sınır",
        -9.3728523027096
      ],
      [
        "▁yet",
        -9.62717805224943
      ],
      [
        "▁saglıgı",
        -9.929407632942922
      ],
      [
        "▁kaslarını",
        -10.384350857682769
      ],
      [
        "▁hazine",
        -8.38511765582566
      ],
      [
        "▁ister",
        -9.606331903939168
      ],
      [
        "▁egitim",
        -8.608605471742159
      ],
      [
        "olu",
        -9.62379629473884
      ],
      [
        "▁nasdaq",
        -7.873293959551207
      ],
      [
        "▁40'",
        -10.801026034392613
      ],
      [
        "▁ticaret",
        -7.914770188357589
      ],
      [
        "acagı",
        -9.326474116927585
      ],
      [
        "▁yapabilecegin",
        -10.733825291526514
      ],
      [
        "▁fransa",
        -7.751101815802764
      ],
      [
        "▁cesedi",
        -10.46421917349288
      ],
      [
        "▁lohusa",
        -11.098742889309715
      ],
      [
        "arlık",
        -8.986337902015936
      ],
      [
        "▁faktoru",
        -11.120621521710516
      ],
      [
        "sizce",
        -8.503372912292296
      ],
      [
        "▁tesiste",
        -8.43676495347103
      ],
      [
        "▁kardesi",
        -9.273661160537534
      ],
      [
        "90",
        -8.12388973197764
      ],
      [
        "▁siddet",
        -8.144050475235517
      ],
      [
        "at",
        -7.908053349668081
      ],
      [
        "▁hakim",
        -9.162675477149294
      ],
      [
        "▁deger",
        -8.564624529595992
      ],
      [
        "s",
        -4.747466569578413
      ],
      [
        "▁filmleri",
        -10.463208313436056
      ],
      [
        "▁kıbrıs",
        -8.198489339542663
      ],
      [
        "▁tasıma",
        -10.219139496962091
      ],
      [
        "lasmıs",
        -9.199117570453074
      ],
      [
        "▁yasası",
        -9.553725851091736
      ],
      [
        "▁fiyatını",
        -9.727984502933346
      ],
      [
        "▁isteyenler",
        -10.855692708360884
      ],
      [
        "▁bayag",
        -8.83690707253055
      ],
      [
        "▁dogrulugunu",
        -10.902214309016003
      ],
      [
        "▁bitmisti",
        -9.350646425595164
      ],
      [
        "▁rezervasyonlar",
        -9.72412459604941
      ],
      [
        "▁hulya",
        -7.704783676304173
      ],
      [
        "▁aldı",
        -5.959464592992458
      ],
      [
        "ıktır",
        -9.73067356762196
      ],
      [
        "▁koyma",
        -10.50081715630353
      ],
      [
        "▁digital",
        -8.313534289837605
      ],
      [
        "▁cift",
        -10.84411857172623
      ],
      [
        "▁durur",
        -9.029250703626133
      ],
      [
        "▁alanı",
        -9.55953257226703
      ],
      [
        "▁temeller",
        -11.093259188033494
      ],
      [
        "▁kapılarını",
        -10.60708057241995
      ],
      [
        "▁oturdu",
        -7.976443221503487
      ],
      [
        "▁modeller",
        -10.373975858696685
      ],
      [
        "irler",
        -10.812632012673403
      ],
      [
        "dur",
        -9.294263284481898
      ],
      [
        "mu",
        -9.407081320931148
      ],
      [
        "▁0.",
        -7.885386228995489
      ],
      [
        "ustugunu",
        -11.02557050219894
      ],
      [
        "▁kayık",
        -9.862240986654907
      ],
      [
        "▁an",
        -9.464907472976373
      ],
      [
        "▁fransızca",
        -10.733052823325243
      ],
      [
        "▁azal",
        -8.084599415076477
      ],
      [
        "▁faizl",
        -9.038345682849116
      ],
      [
        "▁sorular",
        -9.334041718771182
      ],
      [
        "▁yog",
        -10.589212218355728
      ],
      [
        "ılmasını",
        -10.883328614606382
      ],
      [
        "▁sınırın",
        -11.06764326778952
      ],
      [
        "ın",
        -9.24694251492857
      ],
      [
        "cagız",
        -8.49509192316056
      ],
      [
        "▁uy",
        -9.19476489211617
      ],
      [
        "nan",
        -8.835488107489033
      ],
      [
        "hi",
        -10.103717129124831
      ],
      [
        "ledik",
        -10.676802565654505
      ],
      [
        "▁isci",
        -8.595347110105909
      ],
      [
        "▁yollarını",
        -9.53345413044033
      ],
      [
        "▁demiryolu",
        -10.732076223366256
      ],
      [
        "▁bakim",
        -8.830475993340073
      ],
      [
        "ince",
        -6.116245953076076
      ],
      [
        "yle",
        -8.775129653391309
      ],
      [
        "▁havayolunu",
        -10.073020307336607
      ],
      [
        "▁gorundu",
        -9.01618528031564
      ],
      [
        "▁omzum",
        -11.098743818290561
      ],
      [
        "▁yer",
        -6.69488124138051
      ],
      [
        "▁arar",
        -9.33990308074792
      ],
      [
        "▁aktarma",
        -6.132486988951108
      ],
      [
        "▁apple",
        -8.911920676110702
      ],
      [
        "▁mucadele",
        -8.370398712827107
      ],
      [
        "▁sır",
        -8.26804362577061
      ],
      [
        "▁'li",
        -7.839626404640395
      ],
      [
        "usu",
        -10.385934885630103
      ],
      [
        "▁cekilmis",
        -9.171071608516996
      ],
      [
        "▁tepesinde",
        -10.942754477430027
      ],
      [
        "▁arac",
        -8.969205286418815
      ],
      [
        "f",
        -8.465331673033063
      ],
      [
        "▁tacı",
        -10.985819710947268
      ],
      [
        "mi",
        -7.2172746650379995
      ],
      [
        "▁sallaya",
        -9.634619171746243
      ],
      [
        "mayacak",
        -8.292170887997285
      ],
      [
        "▁lazımdı",
        -8.809584230110826
      ],
      [
        "▁boya",
        -9.424991010706297
      ],
      [
        "'nın",
        -5.331183481266247
      ],
      [
        "yorum",
        -5.858574259389856
      ],
      [
        "▁tatlı",
        -7.194395806210718
      ],
      [
        "▁kirec",
        -10.464222878176319
      ],
      [
        "'li",
        -8.160752853372419
      ],
      [
        "▁varması",
        -11.026198795419035
      ],
      [
        "▁yemegin",
        -9.818361145907797
      ],
      [
        "▁dususunu",
        -10.10504298655279
      ],
      [
        "▁osmanlı",
        -7.553920337047785
      ],
      [
        "▁gen",
        -10.125882145080011
      ],
      [
        "▁bayan",
        -7.89262934694181
      ],
      [
        "▁yorumunu",
        -10.942155037739184
      ],
      [
        "▁ekibi",
        -8.61288784026469
      ],
      [
        "▁oteldi",
        -7.336627100644453
      ],
      [
        "▁alabilir",
        -7.880176294005994
      ],
      [
        "caba",
        -7.273779888668228
      ],
      [
        "▁etmiyordu",
        -8.96920329700978
      ],
      [
        "▁tutma",
        -9.551453172778515
      ],
      [
        "▁tavuk",
        -9.343216338727274
      ],
      [
        "k",
        -11.802702672349778
      ],
      [
        "▁hatırlat",
        -9.054289190462047
      ],
      [
        "▁yerlerin",
        -10.68306572842677
      ],
      [
        "▁ber",
        -5.3562904798937145
      ],
      [
        "▁onumuzde",
        -6.668482556610607
      ],
      [
        "▁beklenti",
        -10.516956481836122
      ],
      [
        "▁yasa",
        -8.194870699168721
      ],
      [
        "▁bulgu",
        -10.881154618247322
      ],
      [
        "masını",
        -8.295029023417266
      ],
      [
        "▁erdi",
        -8.489459703800636
      ],
      [
        "liginde",
        -9.455428756749736
      ],
      [
        "▁ettiginde",
        -10.487499417034028
      ],
      [
        "40",
        -7.577130996176349
      ],
      [
        "▁ramazan",
        -10.162198878409455
      ],
      [
        "▁hint",
        -9.010872263415266
      ],
      [
        "▁kok",
        -9.180232430194902
      ],
      [
        "▁ter",
        -8.317479051588451
      ],
      [
        "▁uretiyor",
        -8.96334488314042
      ],
      [
        "▁milyonu",
        -10.789329106142135
      ],
      [
        "▁soylenir",
        -9.143562032092273
      ],
      [
        "▁bacaklarını",
        -10.665812752461465
      ],
      [
        "▁elestirilerin",
        -11.058864805937208
      ],
      [
        "▁yerler",
        -8.610901974603442
      ],
      [
        "▁s",
        -6.730562792173902
      ],
      [
        "▁odalar",
        -7.850541904540477
      ],
      [
        "kimse",
        -10.52417235286918
      ],
      [
        "▁sayılır",
        -9.036166823804978
      ],
      [
        "▁eksik",
        -10.642656545047975
      ],
      [
        "▁atar",
        -8.581349882268539
      ],
      [
        "▁lisede",
        -10.744265115251086
      ],
      [
        "▁yılların",
        -9.679485706653605
      ],
      [
        "▁aglıyor",
        -9.355015466541005
      ],
      [
        "▁hazır",
        -10.71102221849058
      ],
      [
        "stı",
        -9.449252680586428
      ],
      [
        "▁personeli",
        -8.071928961954765
      ],
      [
        "ile",
        -3.9399224696062527
      ],
      [
        "▁motorun",
        -11.081955091872041
      ],
      [
        "oni",
        -8.038084261256678
      ],
      [
        "▁kas",
        -8.944697817678689
      ],
      [
        "▁hacim",
        -8.535894972618621
      ],
      [
        "ada",
        -9.424767190970815
      ],
      [
        "▁edilmis",
        -8.398841032961004
      ],
      [
        "ince",
        -10.130062135795333
      ],
      [
        "▁pır",
        -3.9152399587289417
      ],
      [
        "▁tamamla",
        -9.19386492047733
      ],
      [
        "▁gercekles",
        -8.949708447323436
      ],
      [
        "▁imajı",
        -10.880833534885799
      ],
      [
        "▁egil",
        -9.605089697958451
      ],
      [
        "▁z",
        -9.678782459014531
      ],
      [
        "▁iklim",
        -9.976937305574122
      ],
      [
        "g",
        -12.03594578210267
      ],
      [
        "gı",
        -8.890200282843502
      ],
      [
        "▁adil",
        -9.009264520086084
      ],
      [
        "▁gayret",
        -9.980307480074803
      ],
      [
        "er",
        -11.017488162037896
      ],
      [
        "▁almıyor",
        -9.472631827167497
      ],
      [
        "▁san",
        -6.097867166250172
      ],
      [
        "▁zevk",
        -9.308211255824641
      ],
      [
        "▁isliyor",
        -9.099903842263473
      ],
      [
        "▁komisyonu'nu",
        -10.924140303908993
      ],
      [
        "zi",
        -9.901658465207191
      ],
      [
        "▁cıksa",
        -9.70035678821873
      ],
      [
        "▁metni",
        -10.448185572501746
      ],
      [
        "▁california'",
        -7.9573498598326395
      ],
      [
        "▁190",
        -8.264558423855101
      ],
      [
        "▁ailesini",
        -9.953762466178485
      ],
      [
        "▁birinci",
        -9.761631451813047
      ],
      [
        "▁hekim",
        -9.658041716836838
      ],
      [
        "▁olmasi",
        -8.037172934133345
      ],
      [
        "ilmesi",
        -8.857700774471326
      ],
      [
        "d",
        -10.41573712684167
      ],
      [
        "▁asıl",
        -7.381204309289477
      ],
      [
        "▁valla",
        -9.76595308700335
      ],
      [
        "▁tutmus",
        -9.533458375623926
      ],
      [
        "▁sok",
        -9.60454129711525
      ],
      [
        "15",
        -7.462848269292871
      ],
      [
        "▁thomas",
        -9.009420215589374
      ],
      [
        "▁kısmında",
        -10.6472302815941
      ],
      [
        "▁sel",
        -9.742214567466588
      ],
      [
        "▁biliyorsun",
        -8.499263673790248
      ],
      [
        "▁beri",
        -7.337470521257895
      ],
      [
        "▁bilmem",
        -9.926012136175885
      ],
      [
        "▁ettiklerin",
        -10.762434727192847
      ],
      [
        "▁uzmanları",
        -9.732705160266024
      ],
      [
        "▁icindeyi",
        -9.60322191275013
      ],
      [
        "▁sarsıntılar",
        -10.971790145017927
      ],
      [
        "▁od",
        -10.472936767975046
      ],
      [
        "s",
        -3.5806418659215646
      ],
      [
        "▁qintex",
        -8.17984084372565
      ],
      [
        "▁denedi",
        -9.673734365719303
      ],
      [
        "▁sertligi",
        -10.909129613165254
      ],
      [
        "▁saf",
        -9.855237164050951
      ],
      [
        "▁in",
        -9.323195206665021
      ],
      [
        "▁nissan",
        -8.626823345412179
      ],
      [
        "▁tavsan",
        -10.898879135332525
      ],
      [
        "▁bulur",
        -8.668696147313385
      ],
      [
        "▁cukur",
        -10.629082317602732
      ],
      [
        "▁damda",
        -10.639809077193213
      ],
      [
        "▁supur",
        -9.609379526139044
      ],
      [
        "ıldıgı",
        -10.978967709126355
      ],
      [
        "▁dersi",
        -10.532394972827824
      ],
      [
        "▁ucte",
        -9.589826445276586
      ],
      [
        "k",
        -4.527687995047776
      ],
      [
        "▁hasta",
        -7.423188722157379
      ],
      [
        "▁hisse",
        -6.147976728177651
      ],
      [
        "▁yeter",
        -6.2492710500630295
      ],
      [
        "▁temizligi",
        -7.157286967641464
      ],
      [
        "lasma",
        -9.947373120475751
      ],
      [
        "▁bilgim",
        -10.648756374848134
      ],
      [
        "▁rahatsızlık",
        -10.253210913059863
      ],
      [
        "▁gar",
        -7.791208451061799
      ],
      [
        "l",
        -5.464349539545049
      ],
      [
        "ilkin",
        -9.535309555461073
      ],
      [
        "masın",
        -9.643919566602088
      ],
      [
        "▁ekleme",
        -10.6252368659925
      ],
      [
        "▁savcı",
        -10.115945574410532
      ],
      [
        "▁zeybe",
        -11.098742892033671
      ],
      [
        "▁yastıgı",
        -10.914132999658833
      ],
      [
        "▁hissesi",
        -8.709990853915926
      ],
      [
        "▁dernegi",
        -9.801348349002465
      ],
      [
        "la",
        -5.957128697951971
      ],
      [
        "▁sigarası",
        -11.124739680819514
      ],
      [
        "▁durdurma",
        -10.359826866016952
      ],
      [
        "ılı",
        -8.92909490547425
      ],
      [
        "errill",
        -7.5547023893008
      ],
      [
        "▁moody'",
        -8.040777599680375
      ],
      [
        "▁alay",
        -8.900823375917678
      ],
      [
        "▁eli",
        -8.423598368131941
      ],
      [
        "▁mura",
        -10.89648336700293
      ],
      [
        "yı",
        -8.994779585718636
      ],
      [
        "▁toyota",
        -9.023018795101532
      ],
      [
        "▁defteri",
        -10.448665612956
      ],
      [
        "▁kalitey",
        -9.55713281785301
      ],
      [
        "r",
        -7.411357469477656
      ],
      [
        "▁olabilecegin",
        -10.7485494424814
      ],
      [
        "▁hazırlama",
        -10.894956196233046
      ],
      [
        "▁ucları",
        -10.522516976961613
      ],
      [
        "▁cekirdek",
        -10.353108019555236
      ],
      [
        "▁de",
        -7.6413087259911965
      ],
      [
        "▁ad",
        -8.443510750513518
      ],
      [
        "▁nef",
        -9.503952631444275
      ],
      [
        "r",
        -2.8894423049085054
      ],
      [
        "▁kılma",
        -11.051117514349125
      ],
      [
        "kten",
        -7.853918357564823
      ],
      [
        "▁kaydedil",
        -9.396328544908465
      ],
      [
        "▁bakim",
        -8.688684515730637
      ],
      [
        "ecegi",
        -9.162001226482486
      ],
      [
        "▁faturam",
        -8.176049567301368
      ],
      [
        "▁calısanlar",
        -9.538035672261946
      ],
      [
        "▁ope",
        -10.917968353593091
      ],
      [
        "herkes",
        -9.546264984504056
      ],
      [
        "▁titriyor",
        -9.502617255297782
      ],
      [
        "▁gir",
        -7.837707612100456
      ],
      [
        "▁herkeste",
        -8.043909796658193
      ],
      [
        "▁yoneticiler",
        -9.525612403941926
      ],
      [
        "▁askıy",
        -10.866533811783814
      ],
      [
        "▁peynirleri",
        -10.473758605370024
      ],
      [
        "▁brezilya",
        -8.926718390471194
      ],
      [
        "cılı",
        -8.934858945422674
      ],
      [
        "▁bush",
        -7.397549214620362
      ],
      [
        "▁dus",
        -7.659862977212798
      ],
      [
        "landıgı",
        -10.323442418422346
      ],
      [
        "▁isık",
        -10.74043911055266
      ],
      [
        "▁rahat",
        -6.60639805817359
      ],
      [
        "▁yonunu",
        -10.533807623264885
      ],
      [
        "▁mese",
        -10.889752314340713
      ],
      [
        "▁dakikada",
        -9.371101101268003
      ],
      [
        "▁anne",
        -8.278309865767387
      ],
      [
        "▁yakin",
        -10.470652260605107
      ],
      [
        "▁hazırlan",
        -10.5030277716045
      ],
      [
        "▁umit",
        -9.58438353552933
      ],
      [
        "▁gecin",
        -10.887206516331647
      ],
      [
        "kırı",
        -8.502980451637516
      ],
      [
        "▁vade",
        -8.970564085159179
      ],
      [
        "▁islevi",
        -10.42494581002377
      ],
      [
        "▁balon",
        -10.497084616323008
      ],
      [
        "▁isten",
        -9.416629308255969
      ],
      [
        "▁derecelendiril",
        -9.714935273336248
      ],
      [
        "▁testi",
        -10.455340537060358
      ],
      [
        "▁neresin",
        -10.495552154883924
      ],
      [
        "▁oturdugu",
        -9.16796321667854
      ],
      [
        "▁ardı",
        -9.002504245993636
      ],
      [
        "▁ice",
        -9.494347932434623
      ],
      [
        "▁suru",
        -9.68986185209005
      ],
      [
        "▁olimpiyatlar",
        -10.794307817773257
      ],
      [
        "▁bey'",
        -8.633579570090578
      ],
      [
        "▁benze",
        -8.633245905412128
      ],
      [
        "▁ayakkabıları",
        -10.15576659563499
      ],
      [
        "ograf",
        -10.93510837064926
      ],
      [
        "▁kararı",
        -8.419752443791637
      ],
      [
        "▁vurguladı",
        -9.064152081941309
      ],
      [
        "un",
        -7.276023197560317
      ],
      [
        "▁thatcher",
        -8.880386358232288
      ],
      [
        "▁organları",
        -10.460225945237706
      ],
      [
        "▁atıs",
        -10.906685504182661
      ],
      [
        "▁dısı",
        -9.3423404068207
      ],
      [
        "▁sun",
        -8.207218560870785
      ],
      [
        "▁uye",
        -9.368321431177021
      ],
      [
        "▁bende",
        -10.928205698616317
      ],
      [
        "▁duyar",
        -8.934508568706839
      ],
      [
        "ah",
        -10.102976726532598
      ],
      [
        "▁karsıy",
        -9.52917359848002
      ],
      [
        "▁kalemler",
        -10.95984881960204
      ],
      [
        "▁bulutlar",
        -10.347473891495447
      ],
      [
        "▁bildigi",
        -9.577496643884444
      ],
      [
        "▁takıl",
        -9.016072030033978
      ],
      [
        "m",
        -3.07230917458263
      ],
      [
        "▁adamları",
        -8.683338855786909
      ],
      [
        "▁aradi",
        -6.877309850571278
      ],
      [
        "▁girmis",
        -8.920778833463922
      ],
      [
        "▁politikaları",
        -10.782084350494937
      ],
      [
        "am",
        -8.821966881578614
      ],
      [
        "▁teknoloji",
        -8.483386874606108
      ],
      [
        "▁opucuk",
        -10.732734895519014
      ],
      [
        "▁icer",
        -11.009150088829603
      ],
      [
        "▁olurdu",
        -7.791669779447872
      ],
      [
        "▁yılları",
        -10.348831009733107
      ],
      [
        "▁ilginc",
        -8.144211706128466
      ],
      [
        "kar",
        -10.026250306722051
      ],
      [
        "▁enistem",
        -11.104179902076199
      ],
      [
        "▁kediy",
        -11.098850629519927
      ],
      [
        "▁ogreti",
        -11.12223112503296
      ],
      [
        "▁he",
        -10.546813440427512
      ],
      [
        "acılı",
        -8.57891234025382
      ],
      [
        "asız",
        -8.684879934484599
      ],
      [
        "▁y",
        -8.967331541838378
      ],
      [
        "▁yaratır",
        -9.2146655193236
      ],
      [
        "▁satıla",
        -8.673308091097581
      ],
      [
        "▁ikramiye",
        -10.464342223343422
      ],
      [
        "▁dur",
        -9.166818050258739
      ],
      [
        "▁haftada",
        -9.20095775390958
      ],
      [
        "nde",
        -8.013819501051275
      ],
      [
        "▁cilek",
        -10.913391057592534
      ],
      [
        "▁sokma",
        -9.52506216679531
      ],
      [
        "arca",
        -9.766754463471809
      ],
      [
        "unuz",
        -6.768342496865392
      ],
      [
        "▁yem",
        -9.537632513139204
      ],
      [
        "▁yıldırım",
        -10.90129373925398
      ],
      [
        "▁es",
        -8.806834931454802
      ],
      [
        "▁yanı",
        -9.831820816877356
      ],
      [
        "▁tasıyordu",
        -9.642257919682883
      ],
      [
        "▁bey",
        -6.0651086991765455
      ],
      [
        "▁kılıcını",
        -11.127841894415178
      ],
      [
        "▁prensi",
        -11.006145461559326
      ],
      [
        "▁kalacak",
        -8.212928893708089
      ],
      [
        "▁car",
        -8.537913030948507
      ],
      [
        "aya",
        -10.706060638458467
      ],
      [
        "▁olme",
        -10.328851181217502
      ],
      [
        "▁balıklar",
        -10.086365747978164
      ],
      [
        "▁boyle",
        -6.401749911810886
      ],
      [
        "▁muallim",
        -10.732153045647784
      ],
      [
        "▁as",
        -11.043515447683161
      ],
      [
        "▁gucunde",
        -11.006165382294306
      ],
      [
        "▁cekim",
        -9.858088479001593
      ],
      [
        "▁degerlerin",
        -10.02598831089465
      ],
      [
        "▁yetiskin",
        -11.125064544425927
      ],
      [
        "▁nor",
        -8.16778529159829
      ],
      [
        "▁kavak",
        -11.099007546139187
      ],
      [
        "▁eglence",
        -8.476005748206358
      ],
      [
        "▁hazine'",
        -11.116517596415285
      ],
      [
        "▁yagmurl",
        -9.42212202248171
      ],
      [
        "▁erol",
        -8.551821107218544
      ],
      [
        "▁reddetti",
        -7.3475373174665854
      ],
      [
        "▁hikayesin",
        -10.953995630456875
      ],
      [
        "zin",
        -9.641793122512002
      ],
      [
        "▁bosal",
        -9.281554820530266
      ],
      [
        "▁oda",
        -6.3169395955319585
      ],
      [
        "▁girmesi",
        -9.684719979761828
      ],
      [
        "▁teskilat",
        -10.86844698798852
      ],
      [
        "tesli",
        -9.307827053832305
      ],
      [
        "▁cap",
        -8.46574441981694
      ],
      [
        "▁edilecek",
        -9.147324070395442
      ],
      [
        "▁kalkısları",
        -11.127302297747368
      ],
      [
        "▁elimi",
        -9.480761229385843
      ],
      [
        "im",
        -6.016458627655229
      ],
      [
        "▁kordugum",
        -11.098744152352516
      ],
      [
        "▁olmak",
        -8.05314755165293
      ],
      [
        "▁and",
        -10.204876877280253
      ],
      [
        "▁gonlu",
        -10.42368404212563
      ],
      [
        "▁kafamı",
        -10.497057011801493
      ],
      [
        "▁uc",
        -8.77830831819545
      ],
      [
        "▁sozlerini",
        -9.548416986928684
      ],
      [
        "▁ontario",
        -8.369503744745877
      ],
      [
        "▁baskent",
        -10.519281570415938
      ],
      [
        "▁mary",
        -8.964997048525591
      ],
      [
        "▁ver",
        -7.757383306895422
      ],
      [
        "▁basta",
        -8.779809616864231
      ],
      [
        "'n",
        -9.400415275833463
      ],
      [
        "▁durus",
        -10.044391004354763
      ],
      [
        "▁tasarısını",
        -10.718287743539527
      ],
      [
        "▁zumr",
        -10.589220384189655
      ],
      [
        "den",
        -5.765485517110782
      ],
      [
        "▁istatistikler",
        -10.917699857109591
      ],
      [
        "▁yanaklarını",
        -10.517128941612777
      ],
      [
        "▁kaide",
        -10.898998801944648
      ],
      [
        "▁yapılaca",
        -7.3771974283079125
      ],
      [
        "▁co.",
        -6.692764384855116
      ],
      [
        "7",
        -4.751300342131522
      ],
      [
        "▁gorustu",
        -7.835262745300925
      ],
      [
        "▁alemi",
        -10.487272027564892
      ],
      [
        "▁kartı",
        -9.95158955597106
      ],
      [
        "▁celme",
        -10.754967784079465
      ],
      [
        "▁neseli",
        -9.423825886615433
      ],
      [
        "▁merkezi",
        -8.286609967084111
      ],
      [
        "▁yatak",
        -8.94304796420647
      ],
      [
        "▁ki",
        -10.20076913482898
      ],
      [
        "▁daire",
        -9.361001597377781
      ],
      [
        "▁korkuları",
        -11.06656418441126
      ],
      [
        "▁ithalatı",
        -9.965857712664219
      ],
      [
        "▁faydalar",
        -11.068014796419446
      ],
      [
        "▁yastıklar",
        -10.316552227073117
      ],
      [
        "▁tecavuz",
        -10.253107969349172
      ],
      [
        "=",
        -11.302702672349787
      ],
      [
        "▁kapan",
        -9.599442913942893
      ],
      [
        "▁yah",
        -8.918348653379143
      ],
      [
        "▁mahkemede",
        -9.730920409453038
      ],
      [
        "▁belirle",
        -9.295886942803634
      ],
      [
        "▁mektupları",
        -11.027675424501796
      ],
      [
        "▁an",
        -9.238624777718954
      ],
      [
        "▁takimi",
        -11.099591567897317
      ],
      [
        "▁seruveni",
        -10.940075912218326
      ],
      [
        "▁pasa",
        -9.343129417528226
      ],
      [
        "▁ibm",
        -8.101680442143891
      ],
      [
        "▁kuru",
        -8.831287362753622
      ],
      [
        "▁corp.'u",
        -8.85014963860237
      ],
      [
        "mal",
        -9.261284462200438
      ],
      [
        "▁ulku",
        -10.73237387576073
      ],
      [
        "▁getiri",
        -8.624070470974221
      ],
      [
        "▁araclar",
        -10.18522689099222
      ],
      [
        "▁yılında",
        -7.729614245019449
      ],
      [
        "▁cıkaracak",
        -9.558724314586316
      ],
      [
        "▁govde",
        -10.404073377118621
      ],
      [
        "▁saglıgın",
        -10.385469887356674
      ],
      [
        "▁kitaplarını",
        -10.723025046836144
      ],
      [
        "▁kutuphane",
        -10.162455892160759
      ],
      [
        "▁kez",
        -8.23057518310227
      ],
      [
        "▁etmez",
        -8.386293944237442
      ],
      [
        "▁sozlesme",
        -8.61124881894612
      ],
      [
        "▁sarsıntıda",
        -10.95716503057758
      ],
      [
        "▁boyun",
        -9.25249015614443
      ],
      [
        "▁kolayın",
        -11.051719166471909
      ],
      [
        "▁sabır",
        -10.078822374762487
      ],
      [
        "▁oldugumuz",
        -9.166429780981732
      ],
      [
        "▁yaptıgım",
        -9.651795512940827
      ],
      [
        "▁mustesar",
        -10.55904765817635
      ],
      [
        "▁bildirme",
        -10.898767157166915
      ],
      [
        "▁laik",
        -9.559338257948298
      ],
      [
        "digi",
        -9.403236521009415
      ],
      [
        "▁secenek",
        -10.478443172627376
      ],
      [
        "acık",
        -8.623245486613722
      ],
      [
        "▁kasık",
        -9.825429172017637
      ],
      [
        "▁gel",
        -7.453208717310507
      ],
      [
        "▁emrini",
        -10.783616909707339
      ],
      [
        "▁kara",
        -6.747199164576152
      ],
      [
        "▁cicegin",
        -10.861870081513466
      ],
      [
        "▁yapa",
        -7.878229298172798
      ],
      [
        "▁wall",
        -6.797825513385183
      ],
      [
        "te",
        -8.427401427900065
      ],
      [
        "u",
        -12.802702672349787
      ],
      [
        "▁fizik",
        -8.842353712243286
      ],
      [
        "▁yabancıların",
        -10.779429452651472
      ],
      [
        "▁kaydetti",
        -8.059082844732238
      ],
      [
        "▁fonunu",
        -10.647998649440023
      ],
      [
        "▁nak",
        -10.73689632847784
      ],
      [
        "▁bahis",
        -10.16908370439566
      ],
      [
        "▁bay",
        -5.647293283228986
      ],
      [
        "pare",
        -11.086775021910931
      ],
      [
        "▁dilber",
        -10.162200789369054
      ],
      [
        "▁inanmak",
        -10.570161326886256
      ],
      [
        "▁sonbaharı",
        -11.050017619660212
      ],
      [
        "▁karıstır",
        -9.260849653594587
      ],
      [
        "▁yanını",
        -10.602375742274566
      ],
      [
        "▁parmakları",
        -9.75085011584474
      ],
      [
        "▁cansu",
        -8.900361475485491
      ],
      [
        "▁guve",
        -11.074683319145334
      ],
      [
        "▁cesaret",
        -9.61802646446154
      ],
      [
        "▁yedigi",
        -9.552441084080803
      ],
      [
        "▁pamuk",
        -9.584142927559848
      ],
      [
        "▁yuregini",
        -10.27205471220967
      ],
      [
        "w",
        -7.401227196623928
      ],
      [
        "▁taban",
        -9.427636031965665
      ],
      [
        "▁mulkiyeti",
        -10.602043038026864
      ],
      [
        "▁dusunmuyor",
        -7.918260975096974
      ],
      [
        "▁tiyatrosun",
        -11.075571948115986
      ],
      [
        "▁aydınlık",
        -9.584584564218703
      ],
      [
        "▁yan",
        -8.376526855088763
      ],
      [
        "ba",
        -9.329077262245207
      ],
      [
        "▁mutemadi",
        -8.499264931476192
      ],
      [
        "▁lekeler",
        -11.107228204067958
      ],
      [
        "▁hızla",
        -6.8654287322603
      ],
      [
        "▁sunger",
        -10.464270978414365
      ],
      [
        "▁edemez",
        -9.037145754766156
      ],
      [
        "▁onerir",
        -9.420292615274452
      ],
      [
        "▁alabildigi",
        -11.098743018840457
      ],
      [
        "▁hepsi",
        -4.889312156628241
      ],
      [
        "▁restorani",
        -11.003110631124084
      ],
      [
        "▁herkes",
        -8.179842702358489
      ],
      [
        "malıydı",
        -8.828519668313596
      ],
      [
        "▁texas",
        -7.972934776017525
      ],
      [
        "▁zarf",
        -9.158221938917189
      ],
      [
        "▁kılavuzları",
        -11.038445652430399
      ],
      [
        "▁karar",
        -7.400711333066303
      ],
      [
        "son",
        -7.531826592809271
      ],
      [
        "▁guclukler",
        -10.953999161522223
      ],
      [
        "imi",
        -9.102445640720045
      ],
      [
        "▁27",
        -5.792169366662349
      ],
      [
        "▁gelin",
        -8.955980698925284
      ],
      [
        "▁hay",
        -9.182459527693915
      ],
      [
        "▁g",
        -9.517533349526792
      ],
      [
        "▁oku",
        -8.339132018823143
      ],
      [
        "ten",
        -9.215825469599132
      ],
      [
        "▁kızın",
        -9.039227740707389
      ],
      [
        "'in",
        -4.908171749420495
      ],
      [
        "dıgım",
        -10.863733909686117
      ],
      [
        "▁avın",
        -10.792983523455458
      ],
      [
        "▁bacakları",
        -10.310990690685028
      ],
      [
        "lir",
        -9.516627937512707
      ],
      [
        "▁on",
        -6.089300112861576
      ],
      [
        "▁coller",
        -10.803272598917076
      ],
      [
        "▁hava",
        -8.84902749831551
      ],
      [
        "▁nisan",
        -7.524823421296444
      ],
      [
        "▁tehlikesi",
        -10.527633708414342
      ],
      [
        "▁dernek",
        -10.162203984919852
      ],
      [
        "▁kom",
        -11.09649203500057
      ],
      [
        "▁avukat",
        -8.897897004522111
      ],
      [
        "▁rakamları",
        -9.47844581175494
      ],
      [
        "▁tuta",
        -9.5735557487729
      ],
      [
        "▁taban",
        -10.039676138109051
      ],
      [
        "▁kendisinde",
        -6.859663833901616
      ],
      [
        "yordu",
        -6.764949158007341
      ],
      [
        "▁gorur",
        -8.278061622122554
      ],
      [
        "▁mukellefleri",
        -10.89874288930882
      ],
      [
        "▁su",
        -6.019620521653813
      ],
      [
        "▁oy",
        -8.56629190085134
      ],
      [
        "▁tadim",
        -9.779267813304878
      ],
      [
        "ff",
        -10.814283107803465
      ],
      [
        "▁dugmeleri",
        -10.559699825024136
      ],
      [
        "▁sordu",
        -7.210301424800346
      ],
      [
        "▁veremiyor",
        -9.326704267852588
      ],
      [
        "▁tasarım",
        -10.415879289304453
      ],
      [
        "▁krem",
        -10.549428209872579
      ],
      [
        "▁gelene",
        -10.718647752922445
      ],
      [
        "▁zincirini",
        -10.77212845384768
      ],
      [
        "▁kosulu",
        -10.590677164665438
      ],
      [
        "▁tumun",
        -8.919627659675687
      ],
      [
        "tasyon",
        -10.914145960375155
      ],
      [
        "amlı",
        -9.059457623817837
      ],
      [
        "▁yayım",
        -10.567960147390833
      ],
      [
        "▁boy",
        -9.048706314442764
      ],
      [
        "▁sabahı",
        -7.49086915077225
      ],
      [
        "▁acıklık",
        -10.742323210436195
      ],
      [
        "▁odami",
        -10.331866129439682
      ],
      [
        "▁guven",
        -9.507138048991354
      ],
      [
        "▁hazırlıkları",
        -10.912886487965098
      ],
      [
        "▁istiraki",
        -11.11218131184345
      ],
      [
        "▁yapabilir",
        -8.786859130336516
      ],
      [
        "▁aklım",
        -9.105781695616212
      ],
      [
        "▁onemli",
        -9.133575527692354
      ],
      [
        "▁bor",
        -10.151692188115325
      ],
      [
        "▁git",
        -7.190858593130086
      ],
      [
        "▁ha",
        -9.69129273185267
      ],
      [
        "▁kahvaltisi",
        -9.14901552235244
      ],
      [
        "▁46",
        -7.535870789687819
      ],
      [
        "▁son",
        -5.069177350025439
      ],
      [
        "inin",
        -7.99547016763872
      ],
      [
        "bunda",
        -10.517540612155337
      ],
      [
        "▁ilgileni",
        -9.647227748614306
      ],
      [
        "▁kalmıs",
        -7.921193617553888
      ],
      [
        "▁temiz",
        -6.8835209836635265
      ],
      [
        "▁hanımefendi",
        -10.464322710748451
      ],
      [
        "▁halatlar",
        -10.802729180315252
      ],
      [
        "▁kaldıgı",
        -9.057996860359232
      ],
      [
        "▁harman",
        -9.930596436853866
      ],
      [
        "▁insanları",
        -8.51253994013649
      ],
      [
        "▁yazarları",
        -10.54521847958341
      ],
      [
        "▁bilgileri",
        -9.447909863105142
      ],
      [
        "▁platform",
        -11.088218506044333
      ],
      [
        "▁ozde",
        -10.926311008124719
      ],
      [
        "▁aks",
        -10.489940270061728
      ],
      [
        "▁burası",
        -9.03801549593668
      ],
      [
        "sup",
        -8.315980552459447
      ],
      [
        "ıcı",
        -7.088788865289696
      ],
      [
        "▁yorma",
        -10.898933831226323
      ],
      [
        "▁sansı",
        -9.473223083701706
      ],
      [
        "nedi",
        -9.521771312324443
      ],
      [
        "▁8.3",
        -8.326364006999563
      ],
      [
        "▁yaptı",
        -6.445043724348869
      ],
      [
        "▁hikayesi",
        -9.911832264779212
      ],
      [
        "▁eksiklik",
        -10.521736826001332
      ],
      [
        "▁time",
        -8.763385364993566
      ],
      [
        "▁devaml",
        -9.148047216744226
      ],
      [
        "▁opti",
        -9.548304109140261
      ],
      [
        "▁yakalandı",
        -9.452307620698392
      ],
      [
        "▁oburun",
        -8.303320137242117
      ],
      [
        "▁kakao",
        -10.732079072868585
      ],
      [
        "▁tanrı'",
        -8.811896515026111
      ],
      [
        "▁berkeley",
        -8.87598194227736
      ],
      [
        "▁ayır",
        -8.58785212967987
      ],
      [
        "▁turkiye'y",
        -7.808037361817597
      ],
      [
        "▁balgam",
        -11.098746232693678
      ],
      [
        "▁olabilir",
        -5.896557524552605
      ],
      [
        "▁borsada",
        -10.049222956717998
      ],
      [
        "lıgını",
        -8.82566086644638
      ],
      [
        "▁ses",
        -8.093341269087894
      ],
      [
        "▁insa",
        -8.694645413425755
      ],
      [
        "yecegini",
        -9.916143844248625
      ],
      [
        "▁aletler",
        -10.768382783804572
      ],
      [
        "▁secimi",
        -10.309438454146406
      ],
      [
        "▁'lu",
        -8.55734771166754
      ],
      [
        "▁gununu",
        -9.463753739958236
      ],
      [
        "▁bunu",
        -4.07572431406977
      ],
      [
        "▁belin",
        -10.161364506408104
      ],
      [
        "▁digeri",
        -9.712292722577121
      ],
      [
        "▁ingiliz",
        -7.3765079154609525
      ],
      [
        "▁bekcisi",
        -10.735856525680749
      ],
      [
        "▁nese",
        -9.847737968208957
      ],
      [
        "▁kararl",
        -9.341697363609104
      ],
      [
        "▁avrupalılar",
        -11.040511581972352
      ],
      [
        "▁adam",
        -8.224659733142335
      ],
      [
        "v",
        -8.402736224443764
      ],
      [
        "bunlar",
        -9.181736799155649
      ],
      [
        "▁biter",
        -9.171816451134601
      ],
      [
        "iyorsun",
        -9.327081891495212
      ],
      [
        "▁yavru",
        -9.923959339104568
      ],
      [
        "▁aramız",
        -10.760174598980303
      ],
      [
        "lastı",
        -9.088795049830974
      ],
      [
        "ay",
        -8.559546829463308
      ],
      [
        "▁vergi",
        -7.713863042776597
      ],
      [
        "▁lar",
        -7.504939570431767
      ],
      [
        "▁ant",
        -10.179068587299312
      ],
      [
        "▁sikinti",
        -8.432333273407899
      ],
      [
        "▁kalbi",
        -9.99453898389628
      ],
      [
        "▁insanın",
        -7.953388309915397
      ],
      [
        "▁fenerbahce",
        -8.642301674061889
      ],
      [
        "5'te",
        -7.890120565123166
      ],
      [
        "gide",
        -8.415439818925279
      ],
      [
        "▁nisan'da",
        -8.039728696473313
      ],
      [
        "▁yılmaz",
        -8.917055525510706
      ],
      [
        "▁geri",
        -7.1818834557223115
      ],
      [
        "▁yenilgiy",
        -10.589301512579148
      ],
      [
        "▁edildigin",
        -10.165205301729397
      ],
      [
        "▁rahatt",
        -8.73230805901045
      ],
      [
        "▁yakalama",
        -10.270518607455614
      ],
      [
        "dık",
        -9.023746574504399
      ],
      [
        "▁d",
        -7.02374409345008
      ],
      [
        "yi",
        -9.273093689880234
      ],
      [
        "▁aralık",
        -7.542248708489103
      ],
      [
        "▁gorus",
        -9.250044111624167
      ],
      [
        "▁sabah",
        -7.865268865524003
      ],
      [
        "▁teras",
        -10.641424391480784
      ],
      [
        "▁persembe",
        -7.890832615382652
      ],
      [
        "▁sapı",
        -10.24697187620973
      ],
      [
        "▁uzay",
        -9.87769063586962
      ],
      [
        "isli",
        -8.192030201536882
      ],
      [
        "▁lutfe",
        -5.2736728355753195
      ],
      [
        "▁alın",
        -9.451169954915098
      ],
      [
        "mda",
        -8.956702665086041
      ],
      [
        "▁planlıyor",
        -8.113823608429437
      ],
      [
        "▁leke",
        -9.548637533951897
      ],
      [
        "▁anladıgın",
        -11.099109558398055
      ],
      [
        "▁kitabını",
        -10.199762705077678
      ],
      [
        "▁mektubun",
        -10.823857947374085
      ],
      [
        "▁esnaf",
        -10.228132622041002
      ],
      [
        "▁donmesi",
        -11.05109423188214
      ],
      [
        "▁helva",
        -10.878750410331314
      ],
      [
        "▁zaferler",
        -10.638649492841607
      ],
      [
        "▁tahviller",
        -8.2697222974009
      ],
      [
        "ecegi",
        -8.826018741026285
      ],
      [
        "▁dosyası",
        -11.031097055226583
      ],
      [
        "lestigin",
        -11.088208195476756
      ],
      [
        "▁kullanıla",
        -8.402085269304877
      ],
      [
        "▁kullanır",
        -9.397326702326097
      ],
      [
        "nmis",
        -9.618339320127362
      ],
      [
        "usines",
        -8.69345304901012
      ],
      [
        "▁love",
        -8.038754973731502
      ],
      [
        "v",
        -5.3814758935702685
      ],
      [
        "▁kullandı",
        -8.615836367355138
      ],
      [
        "▁ispir",
        -10.73217194375589
      ],
      [
        "av",
        -10.194207870528562
      ],
      [
        "▁tele",
        -7.449750743010933
      ],
      [
        "▁canad",
        -8.636088869980865
      ],
      [
        "▁altın",
        -7.827040144132851
      ],
      [
        "▁tuketiciler",
        -9.780202392280822
      ],
      [
        "anlar",
        -9.410261631065204
      ],
      [
        "ttı",
        -11.097833909072977
      ],
      [
        "▁acıklamasını",
        -10.699199418445573
      ],
      [
        "▁maya",
        -10.028249152035906
      ],
      [
        "▁muhtar",
        -10.23989509829136
      ],
      [
        "▁kir",
        -8.657237464226458
      ],
      [
        "▁vah",
        -10.533780134359867
      ],
      [
        "▁arkasında",
        -8.586301574377565
      ],
      [
        "▁neresi",
        -7.338079000641589
      ],
      [
        "▁barınak",
        -10.589374215405188
      ],
      [
        "▁yapılan",
        -6.93763034813531
      ],
      [
        "▁kocasın",
        -10.15003162625241
      ],
      [
        "▁ogreniyor",
        -9.703652902955083
      ],
      [
        "asa",
        -9.345251328416396
      ],
      [
        "▁kat",
        -9.49250095639891
      ],
      [
        "'te",
        -7.4383271455888815
      ],
      [
        "▁ugultu",
        -10.964973762492866
      ],
      [
        "▁doz",
        -10.812780787809746
      ],
      [
        "▁lu",
        -6.665428194656309
      ],
      [
        "▁bugday",
        -9.169014713002305
      ],
      [
        "▁olabil",
        -8.713444226035984
      ],
      [
        "▁dusunuyoru",
        -8.07836682669295
      ],
      [
        "▁kazana",
        -9.211225463157383
      ],
      [
        "▁ilac",
        -8.31381460903486
      ],
      [
        "▁degillerdi",
        -5.210354841089645
      ],
      [
        "▁sok",
        -8.875725833847932
      ],
      [
        "▁ic",
        -8.3812777897339
      ],
      [
        "▁bicimi",
        -9.618640841792573
      ],
      [
        "▁profesor",
        -10.193715522816651
      ],
      [
        "▁aydın",
        -8.998334317506368
      ],
      [
        "▁bahsetti",
        -8.773541355114666
      ],
      [
        "▁ogrenil",
        -9.340409068585902
      ],
      [
        "▁saksı",
        -10.590825020886243
      ],
      [
        "▁izlemek",
        -10.598808541442816
      ],
      [
        "▁pencerede",
        -9.682697458966336
      ],
      [
        "▁bilmiyoru",
        -7.471744270765011
      ],
      [
        "*",
        -8.013350264920795
      ],
      [
        "▁gecenleri",
        -10.925719590064492
      ],
      [
        "▁tarafın",
        -9.41450015850516
      ],
      [
        "▁popul",
        -11.098821407370504
      ],
      [
        "▁midwest",
        -8.624722325719112
      ],
      [
        "▁dogusu",
        -10.861803995714975
      ],
      [
        "nu",
        -8.409519495996452
      ],
      [
        "▁listele",
        -9.125380832026984
      ],
      [
        "▁kendinizde",
        -9.556986443878587
      ],
      [
        "▁burosu",
        -10.094266479615605
      ],
      [
        "gimiz",
        -9.222165825747538
      ],
      [
        "▁nota",
        -10.708508544689847
      ],
      [
        "▁san",
        -9.118720263965987
      ],
      [
        "ane",
        -9.2936493647865
      ],
      [
        "mutla",
        -8.91365621939616
      ],
      [
        "▁geri",
        -8.29006185206574
      ],
      [
        "▁verirler",
        -9.719315048586584
      ],
      [
        "l",
        -7.755569990872566
      ],
      [
        "▁acıklamad",
        -9.622718569224993
      ],
      [
        "▁gideri",
        -9.590722279421325
      ],
      [
        "▁art",
        -8.34966157181385
      ],
      [
        "▁alanlarda",
        -10.294854362710765
      ],
      [
        "▁surgun",
        -10.732108702055392
      ],
      [
        "▁imparatorluk",
        -10.732391797896058
      ],
      [
        "inda",
        -10.737435523076691
      ],
      [
        "▁lisan",
        -10.162096302806404
      ],
      [
        "▁agacları",
        -10.01999050342858
      ],
      [
        "▁gecit",
        -10.078875853304007
      ],
      [
        "▁agacta",
        -10.52274429567484
      ],
      [
        "▁anlattı",
        -7.630041903317169
      ],
      [
        "▁sade",
        -4.929761959807005
      ],
      [
        "▁kocası",
        -9.397947242163339
      ],
      [
        "▁kanunun",
        -10.715720222191518
      ],
      [
        "rugu",
        -10.864131148422796
      ],
      [
        "▁kaynana",
        -11.07804105834983
      ],
      [
        "▁asfalt",
        -10.589221502939814
      ],
      [
        "iyorlar",
        -8.586389927088765
      ],
      [
        "▁munas",
        -9.162779875669521
      ],
      [
        "▁17",
        -6.060985725555577
      ],
      [
        "▁yu",
        -7.611395303790645
      ],
      [
        "▁grubunu",
        -10.277316010964098
      ],
      [
        "▁cagın",
        -9.917386437588203
      ],
      [
        "▁ogret",
        -9.103425064127881
      ],
      [
        "▁ilke",
        -10.654796626743897
      ],
      [
        "'da",
        -7.32189348330439
      ],
      [
        "▁penn",
        -8.707363655290255
      ],
      [
        "▁turk",
        -7.715239757198589
      ],
      [
        "▁catı",
        -9.820762356149471
      ],
      [
        "lı",
        -4.604940978868521
      ],
      [
        "▁fe",
        -8.187250758716738
      ],
      [
        "▁bilme",
        -8.875381363210373
      ],
      [
        "▁acılan",
        -9.535568424634164
      ],
      [
        "ish",
        -8.135967148555501
      ],
      [
        "▁gencler",
        -9.354745956512124
      ],
      [
        "▁yakında",
        -7.032897940633355
      ],
      [
        "▁alternatif",
        -9.572286238205425
      ],
      [
        "▁oynama",
        -10.964115565674213
      ],
      [
        "▁visne",
        -10.898743186016373
      ],
      [
        "▁marjları",
        -10.655085024114268
      ],
      [
        "med",
        -8.27747926085322
      ],
      [
        "▁kategorisi",
        -10.242997189159738
      ],
      [
        "▁ulkelerin",
        -10.267573265628139
      ],
      [
        "▁patlıcanı",
        -10.545276290718355
      ],
      [
        "▁pis",
        -7.848255553532132
      ],
      [
        "▁yogurt",
        -9.863847331624951
      ],
      [
        "▁ler",
        -7.277208595177821
      ],
      [
        "▁bıktı",
        -9.547548914463167
      ],
      [
        "▁matematigi",
        -10.745709841286283
      ],
      [
        "ttı",
        -9.269576521612938
      ],
      [
        "▁ciftlik",
        -9.617124136757443
      ],
      [
        "▁cbs",
        -8.11443270675226
      ],
      [
        "▁bicare",
        -10.589223284520942
      ],
      [
        "▁ruh",
        -9.160100615177793
      ],
      [
        "▁yeme",
        -9.370531189478987
      ],
      [
        "zle",
        -10.289977928727824
      ],
      [
        "▁fiyatlar",
        -9.097756635488963
      ],
      [
        "▁divan",
        -9.963302526429214
      ],
      [
        "▁yetkili",
        -8.701522635090374
      ],
      [
        "▁karısı",
        -8.954295546412174
      ],
      [
        "▁kereste",
        -11.098871113382396
      ],
      [
        "▁boyu",
        -8.690324009793352
      ],
      [
        "▁sigortacılar",
        -10.314240376117912
      ],
      [
        "▁alan",
        -8.297622208325881
      ],
      [
        "▁calısı",
        -9.622754042113563
      ],
      [
        "▁bol",
        -7.374533476326934
      ],
      [
        "▁olmalı",
        -8.002535284819258
      ],
      [
        "▁calis",
        -9.642536049055963
      ],
      [
        "▁davacı",
        -11.000049316879187
      ],
      [
        "▁ocak'ta",
        -9.010414415552585
      ],
      [
        "▁de",
        -4.7753992930642415
      ],
      [
        "▁su",
        -8.517285383293169
      ],
      [
        "▁olcu",
        -9.685451588338006
      ],
      [
        "▁gelis",
        -7.943382877162252
      ],
      [
        "▁taahhudu",
        -10.744642573514882
      ],
      [
        "▁kuruluslar",
        -10.510798722721539
      ],
      [
        "▁gosterir",
        -8.326877619916301
      ],
      [
        "▁guzellikleri",
        -10.98863206600525
      ],
      [
        "▁bası",
        -9.286376558508511
      ],
      [
        "▁fe",
        -10.742541919002006
      ],
      [
        "▁kendinde",
        -7.5574632228605765
      ],
      [
        "▁kam",
        -10.971930034364092
      ],
      [
        "▁siirini",
        -11.112227312644892
      ],
      [
        "lik",
        -8.891297264335432
      ],
      [
        "▁subesi",
        -10.540005219186487
      ],
      [
        "▁analist",
        -9.488478387884843
      ],
      [
        "▁alına",
        -8.18756117274245
      ],
      [
        "▁ustun",
        -8.03828813011044
      ],
      [
        "▁sunlar",
        -6.837551784206271
      ],
      [
        "▁maliyetler",
        -10.27279567008813
      ],
      [
        "▁yatar",
        -9.184928358909739
      ],
      [
        "375",
        -7.696854079340215
      ],
      [
        "▁diplomat",
        -10.574738153708807
      ],
      [
        "'li",
        -9.172782689453415
      ],
      [
        "▁ihsan",
        -10.356578798385083
      ],
      [
        "iba",
        -7.213093955656788
      ],
      [
        "▁tuyleri",
        -10.54187901147657
      ],
      [
        "▁verme",
        -9.036475533767028
      ],
      [
        "mon",
        -10.731658455743203
      ],
      [
        "▁akıllı",
        -8.365795485058426
      ],
      [
        "▁urunu",
        -9.707657683115567
      ],
      [
        "▁koltugunda",
        -10.99606720941901
      ],
      [
        "lu",
        -8.250068732070302
      ],
      [
        "▁yusuf",
        -7.8649670775033425
      ],
      [
        "▁pre",
        -8.730008185266898
      ],
      [
        "▁ba",
        -8.250698502706395
      ],
      [
        "▁rapor",
        -8.349981916411185
      ],
      [
        "tere",
        -10.645541522066345
      ],
      [
        "▁basladıgında",
        -10.622462905069096
      ],
      [
        "▁basma",
        -10.504947750520635
      ],
      [
        "izin",
        -10.66459546578533
      ],
      [
        "izin",
        -9.640519507891911
      ],
      [
        "▁lloyd",
        -9.037265802891843
      ],
      [
        "▁calma",
        -10.662956085338283
      ],
      [
        ",",
        -11.199613634584775
      ],
      [
        "▁korkuyor",
        -8.994158981582506
      ],
      [
        "▁muddet",
        -9.584336567761536
      ],
      [
        "▁mulk",
        -9.228128774234586
      ],
      [
        "▁inanı",
        -9.403603416738214
      ],
      [
        "dıgını",
        -8.022441030192539
      ],
      [
        "▁s&p",
        -7.841850890772225
      ],
      [
        "▁cosku",
        -10.012081054883131
      ],
      [
        "▁77",
        -8.016637558734443
      ],
      [
        "▁dururdu",
        -8.906547627150067
      ],
      [
        "▁zorunda",
        -8.21664934820857
      ],
      [
        "▁uyar",
        -9.062058682680783
      ],
      [
        "sacas",
        -9.174284038901684
      ],
      [
        "▁simsek",
        -10.253109181897022
      ],
      [
        "▁islerin",
        -9.245435733027453
      ],
      [
        "▁9'da",
        -9.366471975519694
      ],
      [
        "oglu",
        -10.704773287159476
      ],
      [
        "▁kurum",
        -9.332732117089673
      ],
      [
        "▁kaz",
        -10.4174907258533
      ],
      [
        "▁kem",
        -9.656505746259652
      ],
      [
        "▁burnum",
        -10.61036143272459
      ],
      [
        "▁du",
        -8.633377315617889
      ],
      [
        "▁duzenleyen",
        -9.620601276362368
      ],
      [
        "▁kalırdı",
        -9.348188518610916
      ],
      [
        "▁dinleme",
        -10.2447287803116
      ],
      [
        "▁d",
        -6.354337849338902
      ],
      [
        "▁viski",
        -9.63493284738257
      ],
      [
        "nce",
        -8.670787444884843
      ],
      [
        "▁oyunların",
        -10.818262138623805
      ],
      [
        "▁zanlı",
        -11.098744634045088
      ],
      [
        "▁anımsıyor",
        -9.650046560465373
      ],
      [
        "▁sinema",
        -8.912550855052963
      ],
      [
        "ılması",
        -10.38205072675128
      ],
      [
        "de",
        -8.341909469523006
      ],
      [
        "▁bilir",
        -7.686244642690125
      ],
      [
        "▁dolandırıcılık",
        -10.353765446909355
      ],
      [
        "▁sefir",
        -10.909531804721516
      ],
      [
        "▁gelecegin",
        -10.801940739936567
      ],
      [
        "seme",
        -10.924575232902525
      ],
      [
        "▁yapılacagın",
        -10.907016398515536
      ],
      [
        "▁yala",
        -9.68187295421627
      ],
      [
        "▁52",
        -7.688842963038669
      ],
      [
        "▁ayrı",
        -10.437421300160276
      ],
      [
        "nızı",
        -9.79948952081837
      ],
      [
        "▁soylediklerini",
        -10.792911648927156
      ],
      [
        "▁muhata",
        -10.589264201221708
      ],
      [
        "▁gl",
        -10.881540650066734
      ],
      [
        "▁istedigi",
        -8.44543323804165
      ],
      [
        "▁nihayet",
        -10.07886554695913
      ],
      [
        "e",
        -3.854973002944332
      ],
      [
        "▁neticesinde",
        -10.736386387085084
      ],
      [
        "▁kalite",
        -7.615516568414705
      ],
      [
        "▁yap",
        -9.930669046461546
      ],
      [
        "▁me",
        -8.912649556778616
      ],
      [
        "▁sinan",
        -8.27236400130637
      ],
      [
        "▁amerika'y",
        -9.031924716983106
      ],
      [
        "▁uy",
        -11.060983453885665
      ],
      [
        "▁verebilir",
        -8.75133654132398
      ],
      [
        "▁evimde",
        -10.43252335874873
      ],
      [
        "▁lokma",
        -9.327656511303028
      ],
      [
        "▁yonetim",
        -7.65105444396264
      ],
      [
        "cusu",
        -8.655945843098745
      ],
      [
        "▁emine",
        -8.194283436245982
      ],
      [
        "▁traktorun",
        -11.11573245735349
      ],
      [
        "▁vaktini",
        -10.650745149938125
      ],
      [
        "▁kokuyor",
        -8.46244905088577
      ],
      [
        "▁cıkmıyor",
        -9.412431041284883
      ],
      [
        "▁y",
        -5.7779069079279255
      ],
      [
        "yu",
        -7.6123043424011385
      ],
      [
        "cuların",
        -10.82025612143494
      ],
      [
        "▁arizona",
        -8.243637910701775
      ],
      [
        "▁gevre",
        -9.545666813670628
      ],
      [
        "▁inanıyoru",
        -9.563925951087857
      ],
      [
        "▁yuva",
        -9.917992784489932
      ],
      [
        "▁donemlerinde",
        -10.09635236746514
      ],
      [
        "▁fırladı",
        -8.351885964733881
      ],
      [
        "▁yattı",
        -9.033256655099436
      ],
      [
        "▁yuz",
        -9.188947705914103
      ],
      [
        "▁gide",
        -5.85361093645331
      ],
      [
        "▁faktor",
        -9.961138556034252
      ],
      [
        "▁umum",
        -9.045380790119365
      ],
      [
        "duru",
        -9.758538849794961
      ],
      [
        "▁cekmece",
        -10.501030966891072
      ],
      [
        "▁yat",
        -8.849823343473737
      ],
      [
        "ikt",
        -8.993644293563689
      ],
      [
        "▁bas",
        -8.34427474861392
      ],
      [
        "cıgı",
        -10.961839411922783
      ],
      [
        "dur",
        -7.963461038635122
      ],
      [
        "▁yapı",
        -8.581788905610763
      ],
      [
        "▁goruntu",
        -10.281856496290759
      ],
      [
        "▁askeri",
        -10.652522597211
      ],
      [
        "▁sı",
        -9.54336987146676
      ],
      [
        "▁sınıfta",
        -9.579787391227237
      ],
      [
        "▁kıskac",
        -11.098872529841724
      ],
      [
        "▁moral",
        -10.1927848608955
      ],
      [
        "▁verdi",
        -6.17263437336263
      ],
      [
        "▁gosterebilir",
        -8.586782186323186
      ],
      [
        "▁edildi",
        -7.139347202228309
      ],
      [
        "▁aitti",
        -9.6210215958953
      ],
      [
        "▁ceyrekte",
        -8.592539053736445
      ],
      [
        "▁sonucları",
        -9.066737852781866
      ],
      [
        "▁mobilyalar",
        -10.781855679154571
      ],
      [
        "▁solunum",
        -10.465379903989689
      ],
      [
        "▁yolunu",
        -8.869904896883147
      ],
      [
        "▁hakk",
        -5.840372106910847
      ],
      [
        "▁icimde",
        -9.548035652533683
      ],
      [
        "▁bosu",
        -10.694988356659264
      ],
      [
        "▁tarifeleri",
        -10.412003585415993
      ],
      [
        "▁halkalar",
        -10.712204731963402
      ],
      [
        "▁titreme",
        -11.10668131016211
      ],
      [
        "▁ma",
        -9.649779986010461
      ],
      [
        "▁anda",
        -7.209664767584225
      ],
      [
        "▁karısını",
        -10.083543873479062
      ],
      [
        "▁leri",
        -8.068370454891589
      ],
      [
        "▁yetis",
        -9.380711704215894
      ],
      [
        "yebilir",
        -9.373473823499056
      ],
      [
        "▁kısıtlama",
        -10.778070092517812
      ],
      [
        "▁basarısızlık",
        -10.920442406623566
      ],
      [
        "▁atılım",
        -9.584339577137847
      ],
      [
        "▁ortamında",
        -10.63545206960046
      ],
      [
        "tab",
        -9.553635617866544
      ],
      [
        "▁cocuklarını",
        -9.735780977597202
      ],
      [
        "'da",
        -5.987685472531846
      ],
      [
        "▁buyume",
        -8.516131148732079
      ],
      [
        "▁yardımı",
        -9.490632698759708
      ],
      [
        "▁tamamla",
        -10.936117181677528
      ],
      [
        "▁arkasın",
        -9.504114010968237
      ],
      [
        "▁koprusunde",
        -11.098824381843023
      ],
      [
        "u",
        -6.171224191710348
      ],
      [
        "▁vajina",
        -10.89874304339717
      ],
      [
        "▁bitkiler",
        -10.2952286400831
      ],
      [
        "▁ayakkabılar",
        -10.393995364406253
      ],
      [
        "▁gecmiste",
        -9.494949410609468
      ],
      [
        "▁kendini",
        -4.901080439319303
      ],
      [
        "c",
        -6.519041070915973
      ],
      [
        "▁galatasaray",
        -8.983516240430074
      ],
      [
        "▁kogus",
        -10.435559589817053
      ],
      [
        ")",
        -6.115128725042444
      ],
      [
        "▁1/",
        -5.763313856350588
      ],
      [
        "▁musa",
        -8.762493150598967
      ],
      [
        "▁tesisler",
        -10.739017735058612
      ],
      [
        "▁itibar",
        -9.085628244552503
      ],
      [
        "ona",
        -8.784433502303932
      ],
      [
        "selligin",
        -10.987760064213466
      ],
      [
        "▁erkan",
        -11.089552068181549
      ],
      [
        "▁zorluyor",
        -9.619638046090916
      ],
      [
        "itap",
        -9.222733565048745
      ],
      [
        "▁dokmek",
        -10.761039626257574
      ],
      [
        "▁bulanıklı",
        -11.098743846085185
      ],
      [
        "▁teker",
        -9.00827672956678
      ],
      [
        "▁gelme",
        -9.653426830435276
      ],
      [
        "▁boy",
        -5.301293242611928
      ],
      [
        "▁maksat",
        -10.732076300111002
      ],
      [
        "ki",
        -10.683605372472872
      ],
      [
        "▁almanya",
        -7.48228014697874
      ],
      [
        "muza",
        -10.670315657230873
      ],
      [
        "▁destekley",
        -10.8103588477818
      ],
      [
        "ırlar",
        -11.106946581257219
      ],
      [
        "▁fa",
        -5.262360152298196
      ],
      [
        "▁hayalleri",
        -11.093722718650438
      ],
      [
        "▁belgeler",
        -10.016072004567842
      ],
      [
        "▁eksiklikler",
        -9.971531673552981
      ],
      [
        "▁belirl",
        -7.873679259010714
      ],
      [
        "ese",
        -10.439353389978015
      ],
      [
        "▁bilirdi",
        -9.28797129752389
      ],
      [
        "▁saatli",
        -8.686326185010666
      ],
      [
        "▁sundu",
        -8.913114996629078
      ],
      [
        "▁10'",
        -11.09837210500525
      ],
      [
        "sk",
        -8.94371635982186
      ],
      [
        "▁kent",
        -9.210326410867898
      ],
      [
        "bil",
        -9.47834842167628
      ],
      [
        "▁kurtul",
        -9.148115904563516
      ],
      [
        "▁erkek",
        -8.37258041040358
      ],
      [
        "▁zay",
        -9.622436745824915
      ],
      [
        "de",
        -5.333151002206946
      ],
      [
        "▁vergiler",
        -10.78527737859735
      ],
      [
        "▁bolge",
        -9.485678075815198
      ],
      [
        "▁havaalanlarını",
        -10.262975421764942
      ],
      [
        "▁mukafatın",
        -10.92145564641795
      ],
      [
        "▁cekmis",
        -9.232139647587687
      ],
      [
        "▁babası",
        -8.386028205350472
      ],
      [
        "▁geyik",
        -9.47038285567499
      ],
      [
        "▁olma",
        -8.38795150574927
      ],
      [
        "▁lapa",
        -10.732629653171276
      ],
      [
        "▁kader",
        -10.807848364911496
      ],
      [
        "acagım",
        -8.7485592621062
      ],
      [
        "erel",
        -9.018091085770678
      ],
      [
        "▁il",
        -9.324437364175603
      ],
      [
        "▁cıktık",
        -9.19908481589734
      ],
      [
        "▁hotel",
        -10.00209910779161
      ],
      [
        "▁hınc",
        -10.732527729705126
      ],
      [
        "▁etki",
        -9.204831295880936
      ],
      [
        "▁derse",
        -9.726966256110224
      ],
      [
        "▁sacını",
        -10.810828023924126
      ],
      [
        "▁burnu",
        -9.861928117271322
      ],
      [
        "▁damarları",
        -10.633079913791892
      ],
      [
        "▁cuma",
        -6.531198751131021
      ],
      [
        "▁yayıncılar",
        -10.43741093842068
      ],
      [
        "▁sezginler",
        -8.743777041778758
      ],
      [
        "▁uretimi",
        -9.098414016401238
      ],
      [
        "▁kupası",
        -11.101900101143839
      ],
      [
        "▁ocak",
        -8.7533701929169
      ],
      [
        "▁sayfa",
        -9.259883129669815
      ],
      [
        "▁bugu",
        -11.04240908256825
      ],
      [
        "▁kurt",
        -9.371748490533173
      ],
      [
        "mayacagı",
        -10.653047752794972
      ],
      [
        "▁hari",
        -7.715060009443443
      ],
      [
        "▁akp",
        -10.909886218096503
      ],
      [
        "ili",
        -6.820299547520811
      ],
      [
        "nd",
        -9.466824078172124
      ],
      [
        "larımı",
        -10.287865162530721
      ],
      [
        "▁ilgisi",
        -8.374171339832092
      ],
      [
        "▁yagmuru",
        -11.085143608063957
      ],
      [
        "▁falan",
        -9.58612960744079
      ],
      [
        "▁peygamber",
        -10.898742889906668
      ],
      [
        "▁ben",
        -2.9871799491523117
      ],
      [
        "e",
        -14.014958445102625
      ],
      [
        "sel",
        -8.686417677663545
      ],
      [
        "▁gecir",
        -9.534366653770993
      ],
      [
        "▁azap",
        -11.098902841626781
      ],
      [
        "▁egri",
        -10.589328814931594
      ],
      [
        "▁yatırımcını",
        -10.570769425313577
      ],
      [
        "▁dagıtma",
        -10.589250737370175
      ],
      [
        "▁boyunların",
        -10.918436540748154
      ],
      [
        "▁kor",
        -9.764583501675165
      ],
      [
        "▁enerji",
        -9.544339466427946
      ],
      [
        "▁ceviz",
        -9.586290465483492
      ],
      [
        "▁james",
        -7.95169686791302
      ],
      [
        "▁satırı",
        -10.951590142852579
      ],
      [
        "▁bilinc",
        -9.689640307487362
      ],
      [
        "ldıgında",
        -9.443904162331393
      ],
      [
        "▁ustu",
        -8.185164797090874
      ],
      [
        "▁hayvanlar",
        -9.760848896558063
      ],
      [
        "aret",
        -9.50431254651248
      ],
      [
        "▁yolları",
        -9.54373815766729
      ],
      [
        "▁cardagı",
        -10.89875670669235
      ],
      [
        "isini",
        -10.562856550585996
      ],
      [
        "▁karısımı",
        -10.496915577451164
      ],
      [
        "mazdı",
        -8.812500534069283
      ],
      [
        "cu",
        -8.274432299547946
      ],
      [
        "▁otların",
        -10.696058302456624
      ],
      [
        "v",
        -2.1317723992754427
      ],
      [
        "sin",
        -9.734058148015759
      ],
      [
        "▁demokratları",
        -10.990938468919731
      ],
      [
        "▁oteller",
        -9.375411673265283
      ],
      [
        "▁ters",
        -7.966993903453957
      ],
      [
        "▁kacın",
        -8.687702665673099
      ],
      [
        "▁skandal",
        -10.272240489597847
      ],
      [
        "▁ingilizce",
        -10.358211197583426
      ],
      [
        "▁mersi",
        -11.103914345368345
      ],
      [
        "▁ayında",
        -7.567031729338884
      ],
      [
        "▁olmadı",
        -7.986015424290535
      ],
      [
        "▁ferag",
        -10.898762955930902
      ],
      [
        "▁ulastı",
        -7.557456936747021
      ],
      [
        "▁big",
        -10.900584815305754
      ],
      [
        "▁yar",
        -9.175643960228552
      ],
      [
        "▁levazım",
        -11.098742896403405
      ],
      [
        "▁oldurme",
        -10.472057360810734
      ],
      [
        "▁angeles'te",
        -7.751971701114252
      ],
      [
        "▁cabuca",
        -8.677075409001183
      ],
      [
        "▁kazanc",
        -7.8912085107784105
      ],
      [
        "▁yumusa",
        -7.937687443718504
      ],
      [
        "▁uyma",
        -10.372729952606623
      ],
      [
        "▁gecmis",
        -7.743741673401963
      ],
      [
        "▁yalnızlıgın",
        -10.929885387750142
      ],
      [
        "tli",
        -9.311672479618816
      ],
      [
        "▁acaktı",
        -7.058629810723529
      ],
      [
        "nı",
        -6.810304340731507
      ],
      [
        "▁donanma",
        -9.863850460312092
      ],
      [
        "▁ortaklıklar",
        -11.016680828536396
      ],
      [
        "▁kadeh",
        -9.520784374255955
      ],
      [
        "▁serbest",
        -7.789340364422177
      ],
      [
        "▁yi",
        -9.374045745949209
      ],
      [
        "▁binalar",
        -10.754947851223355
      ],
      [
        "▁yara",
        -9.396732871715853
      ],
      [
        "▁dosya",
        -9.351001391148241
      ],
      [
        "▁geceler",
        -9.899416562732029
      ],
      [
        "▁sozunu",
        -9.277531847726465
      ],
      [
        "▁isabet",
        -9.930907240159701
      ],
      [
        "▁emekli",
        -9.592798869852484
      ],
      [
        "suz",
        -5.9552889409552785
      ],
      [
        "▁altta",
        -10.692401075637243
      ],
      [
        "▁cal",
        -10.84098230747607
      ],
      [
        "5",
        -4.1197129008691356
      ],
      [
        "▁noktasında",
        -10.566878472155638
      ],
      [
        "▁kuvveti",
        -11.001096187384201
      ],
      [
        "▁uzayda",
        -10.861820550796017
      ],
      [
        "▁icleri",
        -10.472517496832335
      ],
      [
        "▁trajedi",
        -10.589219079960206
      ],
      [
        "ıntı",
        -10.301528978687452
      ],
      [
        "▁hile",
        -10.162393758184463
      ],
      [
        "erler",
        -10.995737566408708
      ],
      [
        "▁alımlar",
        -10.566187709955889
      ],
      [
        "ınız",
        -9.67423043001204
      ],
      [
        "sadık",
        -8.785851219264412
      ],
      [
        "▁duman",
        -9.642608966167723
      ],
      [
        "▁ozgur",
        -8.898846087493702
      ],
      [
        "▁deme",
        -9.97549020039521
      ],
      [
        "▁lar",
        -7.606838285451938
      ],
      [
        "▁yitirmis",
        -9.727422983653467
      ],
      [
        "▁surece",
        -10.25187075536476
      ],
      [
        "▁sozcuk",
        -10.273000157955014
      ],
      [
        "▁keder",
        -10.471321987263934
      ],
      [
        "▁gonlumu",
        -10.600581227891016
      ],
      [
        "▁arkadaslarınız",
        -10.93223991578553
      ],
      [
        "▁uzmanı",
        -10.373874230162098
      ],
      [
        "▁giymis",
        -9.106750523224296
      ],
      [
        "▁alıskanlıklar",
        -11.00883474889212
      ],
      [
        "▁calmay",
        -10.217063866425812
      ],
      [
        "r",
        -5.7785602234432885
      ],
      [
        "▁banyosu",
        -9.612102171395204
      ],
      [
        "▁meksika",
        -8.241621926134679
      ],
      [
        "▁almıs",
        -7.873960886119022
      ],
      [
        "▁ebeveyn",
        -11.026078896597511
      ],
      [
        "▁ruyalar",
        -10.25924535460299
      ],
      [
        "▁kumsal",
        -9.21965614408818
      ],
      [
        "▁tarihin",
        -9.358442163052437
      ],
      [
        "▁arttıgın",
        -10.088285661177824
      ],
      [
        "▁ciro",
        -9.890095784812479
      ],
      [
        "kendisin",
        -10.088354246962783
      ],
      [
        "ri",
        -8.788363242963092
      ],
      [
        "▁mar",
        -8.575902006263789
      ],
      [
        "▁zemberek",
        -11.099636662641505
      ],
      [
        "r",
        -3.023477297952499
      ],
      [
        "▁havlu",
        -9.776136512137283
      ],
      [
        "▁",
        -0.7087938101118976
      ],
      [
        "gı",
        -8.153659499796825
      ],
      [
        "▁arttırma",
        -10.080610238246926
      ],
      [
        "▁kullanmay",
        -10.137212784965092
      ],
      [
        "mektedir",
        -6.679520843555263
      ],
      [
        "▁sunumu",
        -10.500755489804302
      ],
      [
        "▁",
        -3.1693413067501925
      ],
      [
        "ta",
        -6.648425320178734
      ],
      [
        "▁hizmetleri",
        -8.353694004385513
      ],
      [
        "▁en",
        -9.947091129449795
      ],
      [
        "a'da",
        -8.79752361813666
      ],
      [
        "▁alaska",
        -9.009407771965751
      ],
      [
        "na",
        -4.888725468870101
      ],
      [
        "ı",
        -6.441841627999206
      ],
      [
        "▁muhur",
        -10.464339528768457
      ],
      [
        "▁uyuma",
        -10.851547914873034
      ],
      [
        "▁ihlal",
        -9.930514051045277
      ],
      [
        "▁delik",
        -10.01280709911512
      ],
      [
        "▁vas",
        -9.232911911764235
      ],
      [
        "▁im",
        -7.790436672609875
      ],
      [
        "▁geldigi",
        -8.825769745898913
      ],
      [
        "▁yaz",
        -7.926089875289967
      ],
      [
        "▁kayak",
        -9.593622070371746
      ],
      [
        "▁merhale",
        -11.098744409750088
      ],
      [
        "da",
        -9.378985194024985
      ],
      [
        "▁tipi",
        -9.411273259980543
      ],
      [
        "▁kupe",
        -9.957524256101134
      ],
      [
        "-",
        -5.222901331865919
      ],
      [
        "▁asagıy",
        -10.572262034887292
      ],
      [
        "▁yılın",
        -7.990324947464801
      ],
      [
        "▁istih",
        -10.91826011048295
      ],
      [
        "▁universite",
        -8.985825642807214
      ],
      [
        "▁tes",
        -11.1022235488362
      ],
      [
        "▁yukseli",
        -8.66601270666713
      ],
      [
        "▁tavanı",
        -11.035024462471071
      ],
      [
        "▁isvicre",
        -8.758524073871659
      ],
      [
        "▁depremi",
        -10.835252174472759
      ],
      [
        "▁dusunme",
        -9.011080026706741
      ],
      [
        "▁bocek",
        -9.634857276892554
      ],
      [
        "▁gayreti",
        -10.950716934044785
      ],
      [
        "ur",
        -9.144133923617165
      ],
      [
        "▁soforu",
        -10.680488579529007
      ],
      [
        "luk",
        -7.3279065542286155
      ],
      [
        "▁analizi",
        -10.773457646620923
      ],
      [
        "m",
        -2.967950369370584
      ],
      [
        "'li",
        -9.501379903322782
      ],
      [
        "▁oturdugu",
        -9.628490892727193
      ],
      [
        "▁gerilim",
        -10.262512954066128
      ],
      [
        "▁toronto",
        -10.589219079965357
      ],
      [
        "▁home",
        -8.471632757879783
      ],
      [
        "gele",
        -9.366155567425386
      ],
      [
        "vi",
        -8.828824492005587
      ],
      [
        "▁ofisimiz",
        -10.991347831830767
      ],
      [
        "▁karsılık",
        -8.83400130547746
      ],
      [
        "▁seattle'de",
        -7.736604950268081
      ],
      [
        "▁toprakları",
        -10.668737690128776
      ],
      [
        "▁yaptirdi",
        -7.325496198244263
      ],
      [
        "▁solda",
        -9.96111121218188
      ],
      [
        "▁ortalama",
        -7.9104334433622565
      ],
      [
        "▁gerceg",
        -10.685257412357636
      ],
      [
        "▁munasebet",
        -10.990838577408622
      ],
      [
        "▁muhabbet",
        -9.801347229400667
      ],
      [
        "▁1",
        -9.30126238455715
      ],
      [
        "▁madalya",
        -10.898764622918799
      ],
      [
        "▁yazarın",
        -9.629960001339729
      ],
      [
        "▁helmsley",
        -9.009367452859314
      ],
      [
        "▁kaya",
        -9.250222419085672
      ],
      [
        "3.9",
        -8.070915407330402
      ],
      [
        "▁1'de",
        -9.851143821695237
      ],
      [
        "▁buyukelci",
        -10.078867687343934
      ],
      [
        "ınca",
        -8.210152025929427
      ],
      [
        "▁ozveri",
        -10.732092652356709
      ],
      [
        "4",
        -9.476655507730726
      ],
      [
        "▁moda",
        -9.178305429832577
      ],
      [
        "▁birin",
        -10.530065208951772
      ],
      [
        "▁onun",
        -8.659132124705813
      ],
      [
        "▁sergi",
        -9.558716261286222
      ],
      [
        "▁bahceleri",
        -10.809229860702818
      ],
      [
        "▁verdigi",
        -10.15140784210184
      ],
      [
        "cak",
        -9.297916546918316
      ],
      [
        "▁pehlivan",
        -11.098742889310007
      ],
      [
        "▁1974",
        -8.194534786143013
      ],
      [
        "▁fındık",
        -10.25310797230923
      ],
      [
        "gen",
        -9.365638724064041
      ],
      [
        "▁kendilerini",
        -5.975809907058947
      ],
      [
        "▁kosulların",
        -10.329086962289661
      ],
      [
        "▁kız",
        -9.818238009453147
      ],
      [
        "▁erken",
        -6.118897358076235
      ],
      [
        "▁cozumler",
        -10.359377571158383
      ],
      [
        "▁liste",
        -9.83850408964226
      ],
      [
        "eyim",
        -7.743666728038017
      ],
      [
        "rif",
        -9.532873853548764
      ],
      [
        "▁kolayca",
        -8.362299661553566
      ],
      [
        "▁basarıy",
        -10.413396911880692
      ],
      [
        "▁arıyordu",
        -10.898929185612802
      ],
      [
        "▁oynamak",
        -10.96335669243026
      ],
      [
        "▁etek",
        -9.808147896571366
      ],
      [
        "▁securit",
        -8.232484127806185
      ],
      [
        "ır",
        -8.318480313622686
      ],
      [
        "▁ici",
        -8.437857022349494
      ],
      [
        "▁bu",
        -7.374577612377099
      ],
      [
        "▁oyunları",
        -10.096844487722182
      ],
      [
        "▁vagon",
        -10.15924708687478
      ],
      [
        "▁oteki",
        -9.692115125740024
      ],
      [
        "▁international'",
        -8.562954087467523
      ],
      [
        "▁piyasalar",
        -9.502651332210352
      ],
      [
        "▁merkezi",
        -7.92603831470561
      ],
      [
        "▁koylu",
        -9.743025784240476
      ],
      [
        "▁edebilme",
        -10.898819049366187
      ],
      [
        "▁kusku",
        -9.292282744898088
      ],
      [
        "lanması",
        -10.359603905291229
      ],
      [
        "▁asya",
        -8.51797930191077
      ],
      [
        "▁tu",
        -3.938386220041247
      ],
      [
        "▁35",
        -6.847149008857883
      ],
      [
        "j",
        -9.770793491308241
      ],
      [
        "▁sezlong",
        -9.78944386405065
      ],
      [
        "▁ihale",
        -9.14425769172747
      ],
      [
        "▁duzine",
        -10.002714209456812
      ],
      [
        "▁londra",
        -7.490199595551225
      ],
      [
        "yacak",
        -9.476213899102827
      ],
      [
        "dir",
        -5.098808729016514
      ],
      [
        "▁yaptıgı",
        -7.933588595951754
      ],
      [
        "▁yiyecekleri",
        -10.183280526990089
      ],
      [
        "▁akses",
        -11.106722685519994
      ],
      [
        "▁pasifi",
        -10.078892159128632
      ],
      [
        "▁fenalık",
        -10.732171738024718
      ],
      [
        "▁kalma",
        -8.978817266226429
      ],
      [
        "▁kardes",
        -9.020391653753082
      ],
      [
        "▁yet",
        -8.23393354649901
      ],
      [
        "u",
        -6.081592138317589
      ],
      [
        "▁bayiler",
        -10.19715565014026
      ],
      [
        "▁iti",
        -10.763721096599507
      ],
      [
        "▁alman",
        -9.83475657585126
      ],
      [
        "▁gordugunu",
        -10.899236690667227
      ],
      [
        "▁zurna",
        -10.58947074627598
      ],
      [
        "▁yat",
        -9.875068518543982
      ],
      [
        "▁ucakları",
        -10.771045117137277
      ],
      [
        "malıdır",
        -8.323403986643505
      ],
      [
        "al",
        -6.621035070634247
      ],
      [
        "▁surucu",
        -10.566429926553544
      ],
      [
        "▁adil",
        -10.908083394143699
      ],
      [
        "ın",
        -8.334839911683863
      ],
      [
        "▁j",
        -8.77272849718818
      ],
      [
        "▁rusya",
        -8.834305790410781
      ],
      [
        "lamasını",
        -10.762578334944514
      ],
      [
        "▁hukumdar",
        -10.250880308923508
      ],
      [
        "▁kullan",
        -8.103839210606088
      ],
      [
        "▁say",
        -9.638513625030999
      ],
      [
        "▁degistirme",
        -9.450931819290536
      ],
      [
        "▁dudagı",
        -10.630665147315742
      ],
      [
        "▁verilecek",
        -9.608181748542115
      ],
      [
        "▁calı",
        -9.587290064126957
      ],
      [
        "▁ut",
        -11.1011899726722
      ],
      [
        "▁oz",
        -8.528572754610598
      ],
      [
        "▁tampa'da",
        -7.6671951410562915
      ],
      [
        "▁yıkılma",
        -10.92021162371233
      ],
      [
        "▁burbank'",
        -8.02300114871696
      ],
      [
        "▁gecir",
        -8.596994575738968
      ],
      [
        "▁benim",
        -8.95644891585309
      ],
      [
        "▁nitelik",
        -9.989889198825262
      ],
      [
        "▁anlatacagım",
        -9.421187619705298
      ],
      [
        "▁yolculugun",
        -10.758421233045166
      ],
      [
        "▁icap",
        -10.162452465590597
      ],
      [
        "▁olcut",
        -10.36999919790773
      ],
      [
        "▁delegasyonu",
        -10.732076257668558
      ],
      [
        "▁tac",
        -10.211007198790362
      ],
      [
        "▁olmaları",
        -9.574717722290838
      ],
      [
        "▁duygu",
        -8.598354913517756
      ],
      [
        "▁hayatı",
        -8.884143811482858
      ],
      [
        "▁ed",
        -10.47502974795316
      ],
      [
        "▁enstitusu",
        -10.253564630232782
      ],
      [
        "umuz",
        -9.783801706744903
      ],
      [
        "▁bor",
        -8.5900152522692
      ],
      [
        "▁rey",
        -8.768656790101389
      ],
      [
        "▁bulamadı",
        -9.243866761906592
      ],
      [
        "▁mart",
        -9.053814133516301
      ],
      [
        "▁calisi",
        -9.576921723524043
      ],
      [
        "▁carpar",
        -9.612769144879495
      ],
      [
        "▁gecelerde",
        -10.976434287631736
      ],
      [
        "▁endustrisi",
        -9.736498114591267
      ],
      [
        "bes",
        -6.886558564358986
      ],
      [
        "▁tulum",
        -9.927877891867588
      ],
      [
        "▁oden",
        -9.728557422785006
      ],
      [
        "▁yap",
        -9.072658901237602
      ],
      [
        "▁kultur",
        -8.846809347891458
      ],
      [
        "▁acı",
        -7.056702490320647
      ],
      [
        "▁birligi'ni",
        -10.759561056578763
      ],
      [
        "▁endustriler",
        -10.855557273964145
      ],
      [
        "▁cagırdı",
        -8.825316371954923
      ],
      [
        "▁baslık",
        -9.793386022712847
      ],
      [
        "▁akını",
        -11.088135362091737
      ],
      [
        "▁dag",
        -8.824968802676423
      ],
      [
        "▁viraj",
        -10.73207627004689
      ],
      [
        "▁saatler",
        -7.5770854084490615
      ],
      [
        "▁mahkemesi",
        -9.03084267244795
      ],
      [
        "▁okuyu",
        -9.05299363709895
      ],
      [
        "▁darbukasını",
        -10.901153829348278
      ],
      [
        "▁ders",
        -8.820860868383082
      ],
      [
        "▁mikro",
        -10.353594441784967
      ],
      [
        "▁konya",
        -11.124197564052807
      ],
      [
        "▁kasaba",
        -8.923112904475168
      ],
      [
        "u",
        -6.0375421242033775
      ],
      [
        "▁haber",
        -7.724663502312925
      ],
      [
        "▁q",
        -9.687293763391526
      ],
      [
        "▁iyisi",
        -8.534332744333161
      ],
      [
        "▁kultur",
        -8.694781069685188
      ],
      [
        "zgin",
        -9.336895627434853
      ],
      [
        "▁yili",
        -10.098204615148566
      ],
      [
        "n",
        -5.745614067840431
      ],
      [
        "▁acısı",
        -9.517045283764004
      ],
      [
        "▁kır",
        -8.70003233104945
      ],
      [
        "▁ucretlerini",
        -8.878803272422667
      ],
      [
        "▁sizde",
        -7.649578489204442
      ],
      [
        "▁ozur",
        -9.801513499884468
      ],
      [
        "▁tokyo'da",
        -8.0894890395314
      ],
      [
        "gunu",
        -9.13463618454016
      ],
      [
        "▁gidiyoru",
        -8.907583372740497
      ],
      [
        "▁yabancılar",
        -10.90593986276907
      ],
      [
        "▁fırtına",
        -9.406171229121949
      ],
      [
        "▁misafirler",
        -10.186021084394536
      ],
      [
        "▁mikrop",
        -10.522253175252272
      ],
      [
        "▁yukseltti",
        -8.452410628729046
      ],
      [
        "yasal",
        -8.29276946333895
      ],
      [
        "▁edinme",
        -10.647138607783207
      ],
      [
        "▁boslugun",
        -10.801783284583523
      ],
      [
        "▁enflasyonu",
        -10.666169531051567
      ],
      [
        "▁ozgurluk",
        -10.014695018016566
      ],
      [
        "▁kariyer",
        -10.520829904475306
      ],
      [
        "dar",
        -7.640150351019468
      ],
      [
        "▁suresini",
        -10.386141498705626
      ],
      [
        "▁titizlik",
        -10.898742893287677
      ],
      [
        "▁acıklama",
        -8.902860683270655
      ],
      [
        "▁pa",
        -8.229785100754121
      ],
      [
        "▁geldigini",
        -9.514660123307536
      ],
      [
        "iyo",
        -10.936342407385823
      ],
      [
        "deger",
        -9.470992962577347
      ],
      [
        "▁yaklastıgın",
        -10.73569530784775
      ],
      [
        "▁ordusu",
        -10.088010919911484
      ],
      [
        "sisel",
        -9.564637387012976
      ],
      [
        "▁yas",
        -8.52227243430836
      ],
      [
        "lıkla",
        -7.8693673310211
      ],
      [
        "▁fasulye",
        -9.254905223387905
      ],
      [
        "▁dinkins",
        -8.987129051652959
      ],
      [
        "▁veril",
        -9.311389595816848
      ],
      [
        "▁american",
        -6.132364770821345
      ],
      [
        "m",
        -5.717587004693732
      ],
      [
        "▁isle",
        -9.26033063356533
      ],
      [
        "▁federa",
        -7.494668383299166
      ],
      [
        "▁listesi",
        -10.538387024712971
      ],
      [
        "▁masraflar",
        -10.71083420064106
      ],
      [
        "▁23",
        -6.3598901647095225
      ],
      [
        "▁medeniyeti",
        -10.947087112677687
      ],
      [
        "▁odeyecek",
        -9.393901312451046
      ],
      [
        "cu",
        -5.83909274275951
      ],
      [
        "▁general",
        -9.635521787583905
      ],
      [
        "▁notları",
        -10.256185501590327
      ],
      [
        "▁kili",
        -10.502736596751536
      ],
      [
        "▁bil",
        -8.282180902102624
      ],
      [
        "bilecek",
        -8.871734838277593
      ],
      [
        "▁fener",
        -9.90107228872621
      ],
      [
        "ran",
        -8.786484147804554
      ],
      [
        "tor",
        -9.917515256807373
      ],
      [
        "▁izni",
        -9.97004748371239
      ],
      [
        "▁yaklastı",
        -9.103707642906246
      ],
      [
        "▁yaslılar",
        -10.737683742137097
      ],
      [
        "▁yılını",
        -9.261126860752276
      ],
      [
        "gec",
        -9.601332010249518
      ],
      [
        "▁computer",
        -8.89827614920131
      ],
      [
        "▁kimim",
        -10.398635937803382
      ],
      [
        "ulmus",
        -9.700460065193674
      ],
      [
        "madigim",
        -8.453118860663219
      ],
      [
        "▁yapar",
        -9.14595571019214
      ],
      [
        "lı",
        -6.982746712373694
      ],
      [
        "▁evimizde",
        -10.487095106835763
      ],
      [
        "▁alınma",
        -11.054973479622948
      ],
      [
        "▁doseme",
        -11.126291404605436
      ],
      [
        "▁uyku",
        -9.058062703305339
      ],
      [
        "▁hayri",
        -8.813109171029478
      ],
      [
        "▁istemez",
        -8.717812417151167
      ],
      [
        "▁beyler",
        -10.162496987593652
      ],
      [
        "▁televizyonu",
        -10.584383848514634
      ],
      [
        "▁sıgın",
        -9.524371581019722
      ],
      [
        "cigim",
        -10.709164597918967
      ],
      [
        "ız",
        -6.902924967862036
      ],
      [
        "▁takviye",
        -10.73207624118103
      ],
      [
        "▁azalt",
        -10.843217828569266
      ],
      [
        "▁37.",
        -8.06985283774615
      ],
      [
        "▁yuze",
        -9.8590873725026
      ],
      [
        "▁altinda",
        -10.905296357078374
      ],
      [
        "▁musluk",
        -11.100507859957027
      ],
      [
        "lesiyor",
        -9.665597871994999
      ],
      [
        "▁edilmesi",
        -9.539387496687684
      ],
      [
        "bilen",
        -9.346744262449665
      ],
      [
        "tur",
        -8.313523083067327
      ],
      [
        "▁is",
        -6.452709605661608
      ],
      [
        "▁kadrosu",
        -10.597584834541191
      ],
      [
        "▁gunde",
        -8.56835146478104
      ],
      [
        "▁isaretleri",
        -10.264863318766249
      ],
      [
        "▁anacıgı",
        -11.099373277048844
      ],
      [
        "▁gunde",
        -9.25833739429266
      ],
      [
        "▁h",
        -7.308813907456981
      ],
      [
        "ell",
        -8.9468200684012
      ],
      [
        "▁bahcede",
        -9.848095764246779
      ],
      [
        "▁bahce",
        -9.485707323342112
      ],
      [
        "ye",
        -8.85348347561256
      ],
      [
        "▁de",
        -2.1420817504035963
      ],
      [
        "▁p",
        -8.892348241691277
      ],
      [
        "▁so",
        -10.84022282083308
      ],
      [
        "▁gecme",
        -9.519250043806977
      ],
      [
        "mus",
        -6.151906848605291
      ],
      [
        "▁yansıttıgın",
        -10.464219135404269
      ],
      [
        "▁ucretin",
        -8.399788600475635
      ],
      [
        "▁dusus",
        -8.030207823148377
      ],
      [
        "▁devam",
        -6.831909005877772
      ],
      [
        "▁hukumeti",
        -9.028448315855474
      ],
      [
        "▁burunları",
        -10.769798867606728
      ],
      [
        "▁du",
        -3.325300845033725
      ],
      [
        "▁getirdigi",
        -9.422267182257045
      ],
      [
        "▁sorusturma",
        -9.40303868947062
      ],
      [
        "mediler",
        -9.5378906956194
      ],
      [
        "▁kısmını",
        -9.093421559964412
      ],
      [
        "▁yetis",
        -9.316568680764247
      ],
      [
        "▁gunumuz",
        -9.361422161852877
      ],
      [
        "▁abd'de",
        -7.61346576758946
      ],
      [
        "▁uzuluyor",
        -9.683271227669
      ],
      [
        "▁ne",
        -9.972767230577535
      ],
      [
        "▁frank",
        -8.183849809091923
      ],
      [
        "u",
        -6.328937242903749
      ],
      [
        "▁kimyasallar",
        -10.786158699079614
      ],
      [
        "▁kalınlıgı",
        -10.909530254523556
      ],
      [
        "▁duven",
        -11.126209255916233
      ],
      [
        "▁gozlerinde",
        -9.682968755759537
      ],
      [
        "▁emin",
        -7.957651102672362
      ],
      [
        "▁hucre",
        -9.632949433467115
      ],
      [
        "▁bolges",
        -8.931680170920519
      ],
      [
        "▁amerika'da",
        -8.238249559532939
      ],
      [
        "▁sistemini",
        -9.900714904079571
      ],
      [
        ";",
        -5.873728944142089
      ],
      [
        "▁riskin",
        -10.663902652340763
      ],
      [
        "▁tembelli",
        -11.098806844128735
      ],
      [
        "▁tarihinde",
        -8.708593934792376
      ],
      [
        "▁degerlendirme",
        -9.28525873680762
      ],
      [
        "▁asamada",
        -10.632079849944022
      ],
      [
        "▁ikiy",
        -10.087974396207482
      ],
      [
        "yalı",
        -9.274321397052699
      ],
      [
        "▁kamera",
        -10.253114252203575
      ],
      [
        "▁bes",
        -9.204435960769377
      ],
      [
        "▁da",
        -6.4410868306485405
      ],
      [
        "me",
        -7.920769480455831
      ],
      [
        "▁rehber",
        -8.527058612670402
      ],
      [
        "▁kuzey",
        -7.931135228099956
      ],
      [
        "bu",
        -5.9800526379311565
      ],
      [
        "ten",
        -6.634223079196404
      ],
      [
        "tlen",
        -11.104629217898646
      ],
      [
        "▁gercekles",
        -11.12188154741715
      ],
      [
        "▁soyluyor",
        -6.66182491967241
      ],
      [
        "mıs",
        -9.551155443526799
      ],
      [
        "▁ha",
        -6.19103839345896
      ],
      [
        "yet",
        -9.5841023733638
      ],
      [
        "▁p",
        -7.24526505317657
      ],
      [
        "▁varlıgın",
        -10.110013908163639
      ],
      [
        "re",
        -8.434806104857405
      ],
      [
        "▁cemil",
        -8.768533841446601
      ],
      [
        "▁ilgisizler",
        -9.242120215869363
      ],
      [
        "▁sag",
        -9.29627902801429
      ],
      [
        "▁vadesi",
        -9.655746829634856
      ],
      [
        "▁yere",
        -7.454006725599362
      ],
      [
        "▁ajanları",
        -11.102391071828444
      ],
      [
        "▁setin",
        -10.944765078764267
      ],
      [
        "▁karsıladı",
        -8.863313040957808
      ],
      [
        "▁ongorulerin",
        -11.006589083717515
      ],
      [
        "l",
        -8.749613634584774
      ],
      [
        "▁bahtiyar",
        -10.530876388045852
      ],
      [
        "uzu",
        -9.541063896013693
      ],
      [
        "▁adları",
        -10.611012456617193
      ],
      [
        "beni",
        -8.634569746757018
      ],
      [
        "▁bek",
        -10.597640619152015
      ],
      [
        "▁duvarlar",
        -9.281891109223453
      ],
      [
        "▁olmasını",
        -8.396263880752464
      ],
      [
        "▁sır",
        -9.143795561577488
      ],
      [
        "▁rakip",
        -10.19957700685366
      ],
      [
        "▁protokol",
        -9.801347346934861
      ],
      [
        "gin",
        -9.118315037239439
      ],
      [
        "▁sivri",
        -8.959226193856269
      ],
      [
        "▁pizza",
        -10.89874323836128
      ],
      [
        "te",
        -3.0767595735108397
      ],
      [
        "▁artıyor",
        -9.147584835145729
      ],
      [
        "▁disleri",
        -10.189927719615003
      ],
      [
        "▁cebin",
        -10.055110081803836
      ],
      [
        "▁yonetim",
        -8.711075021151963
      ],
      [
        "▁3.4",
        -8.22035603992964
      ],
      [
        "u",
        -7.761819605784515
      ],
      [
        "▁artısın",
        -10.252463245140989
      ],
      [
        "atı",
        -9.688178904224559
      ],
      [
        "▁cıkacagın",
        -11.015159140647762
      ],
      [
        "▁kenar",
        -9.438181962584181
      ],
      [
        "▁hanende",
        -11.100635818811867
      ],
      [
        "ası",
        -8.97356452450429
      ],
      [
        "deydi",
        -9.002217072973666
      ],
      [
        "▁araya",
        -9.058016545052038
      ],
      [
        "▁coz",
        -10.877220113369377
      ],
      [
        "▁aktiviteler",
        -9.545841737776238
      ],
      [
        "▁abla",
        -9.590748983843284
      ],
      [
        "▁bakısları",
        -9.944858122289373
      ],
      [
        "▁tohumları",
        -11.002159789585466
      ],
      [
        "uz",
        -7.239264014834163
      ],
      [
        "uncu",
        -8.61725654199062
      ],
      [
        "ıllı",
        -8.372088614477219
      ],
      [
        "s",
        -11.802702672349788
      ],
      [
        "ebilir",
        -7.346641081360528
      ],
      [
        "▁tahminler",
        -10.046301561839586
      ],
      [
        "▁goremedi",
        -8.666765893352476
      ],
      [
        "▁duzenleyiciler",
        -11.056894475722682
      ],
      [
        "▁insanlıg",
        -10.862740307970146
      ],
      [
        "▁elimiz",
        -10.304545286943213
      ],
      [
        "si",
        -8.03340020260503
      ],
      [
        "▁pap",
        -10.077949025207959
      ],
      [
        "▁renkte",
        -10.417422606374704
      ],
      [
        "▁lig",
        -10.764163899698099
      ],
      [
        "▁ulasımı",
        -8.00385691314715
      ],
      [
        "nmıs",
        -9.437652185870991
      ],
      [
        "▁duru",
        -7.994628757533106
      ],
      [
        "▁kagnı",
        -11.0987439455869
      ],
      [
        "▁yatırımcıların",
        -9.057318240136592
      ],
      [
        "▁portfoy",
        -9.843862032687163
      ],
      [
        "▁giren",
        -8.956459090328794
      ],
      [
        "▁soyler",
        -7.625395146330746
      ],
      [
        "▁atan",
        -9.437245351817372
      ],
      [
        "▁bahcıvan",
        -10.346096402444761
      ],
      [
        "ilde",
        -9.765991350500304
      ],
      [
        "▁karısıklık",
        -10.353159020409237
      ],
      [
        "▁hamam",
        -8.4498874459518
      ],
      [
        "▁telafi",
        -9.863847631513766
      ],
      [
        "tu",
        -8.166877898686522
      ],
      [
        "▁curuk",
        -8.549299797388718
      ],
      [
        "▁cocuklarımız",
        -10.999291600479712
      ],
      [
        "▁kurulusunu",
        -10.656665080427674
      ],
      [
        "▁teminat",
        -8.88714485638513
      ],
      [
        "▁sa",
        -9.528393423623363
      ],
      [
        "▁manalarını",
        -10.906412124018098
      ],
      [
        "▁asırlar",
        -10.835099840123867
      ],
      [
        "▁kimse",
        -7.61138753046334
      ],
      [
        "▁hesab",
        -10.012939925352093
      ],
      [
        "▁kirlilik",
        -10.353141932647723
      ],
      [
        "▁degis",
        -7.8792488915533365
      ],
      [
        "▁bırakır",
        -8.868787634310582
      ],
      [
        "v",
        -9.211678394969509
      ],
      [
        "▁350",
        -7.800976580022775
      ],
      [
        "▁gordugu",
        -9.586659356636883
      ],
      [
        "▁tavırla",
        -10.73786843767787
      ],
      [
        "▁tef",
        -9.92752784640301
      ],
      [
        "▁almanlar",
        -10.778511329549453
      ],
      [
        "▁alıcı",
        -9.131126041980131
      ],
      [
        "▁spekulatorler",
        -11.122774210294741
      ],
      [
        "gın",
        -7.896431926828197
      ],
      [
        "▁ruya",
        -9.401454753030267
      ],
      [
        "▁tasfiye",
        -10.075429503137933
      ],
      [
        "▁ederdi",
        -8.316628147113837
      ],
      [
        "▁kurekler",
        -10.88874040838208
      ],
      [
        "▁fizik",
        -10.163274841563743
      ],
      [
        "▁hizmetlerini",
        -10.463975155550777
      ],
      [
        "▁doya",
        -9.193241849222353
      ],
      [
        "▁tavsiyesi",
        -10.898684277378257
      ],
      [
        "▁yasların",
        -10.210445487478191
      ],
      [
        "▁k",
        -8.10499207453178
      ],
      [
        "ha",
        -8.752005402359181
      ],
      [
        "▁uslup",
        -10.732077673302943
      ],
      [
        "ugunde",
        -11.11873828517707
      ],
      [
        "▁1.5",
        -6.778286131943061
      ],
      [
        "▁koylerinde",
        -10.823111552976844
      ],
      [
        "▁yokus",
        -10.082901070372422
      ],
      [
        "▁devre",
        -9.7459903710957
      ],
      [
        "▁ucretl",
        -9.39238297482513
      ],
      [
        "▁vegas'",
        -6.918877935752587
      ],
      [
        "▁hak",
        -8.194979565530348
      ],
      [
        "▁oyuncu",
        -8.746494210661908
      ],
      [
        "▁olums",
        -9.403841297540968
      ],
      [
        "▁sabır",
        -9.148632344904088
      ],
      [
        "▁pat",
        -9.923173746188114
      ],
      [
        "▁kulfet",
        -10.898765560917582
      ],
      [
        "▁tapınaklar",
        -11.098752147023717
      ],
      [
        "▁veto",
        -9.1548598924761
      ],
      [
        "▁oylama",
        -9.503714486961185
      ],
      [
        "▁gosterileri",
        -10.3623435053528
      ],
      [
        "klar",
        -10.703870583024923
      ],
      [
        "▁minneapolis'te",
        -7.80806283380964
      ],
      [
        "▁tarak",
        -10.911303209503945
      ],
      [
        "▁ikincisi",
        -8.063668377265063
      ],
      [
        "▁noel",
        -8.804183420266513
      ],
      [
        "▁inci",
        -10.368302719717706
      ],
      [
        "▁'",
        -10.089756836168945
      ],
      [
        "▁bulmustu",
        -8.846907862579885
      ],
      [
        "▁omru",
        -10.432985983214108
      ],
      [
        "▁dille",
        -10.615142238615945
      ],
      [
        "▁deneme",
        -8.690940955384955
      ],
      [
        "i",
        -3.7820737249274696
      ],
      [
        "▁beyaz",
        -6.453228638200442
      ],
      [
        "▁yapamayacag",
        -9.64333082942827
      ],
      [
        "las",
        -8.9610614273222
      ],
      [
        "▁ruzgarı",
        -10.059808024528882
      ],
      [
        "▁sairi",
        -10.692832072677144
      ],
      [
        "dıgın",
        -10.850832242411984
      ],
      [
        "du",
        -5.160389139186812
      ],
      [
        "▁vb",
        -10.162300810598973
      ],
      [
        "mus",
        -10.364097149720255
      ],
      [
        "▁dokule",
        -9.264751104204125
      ],
      [
        "▁bizler",
        -6.884598609562019
      ],
      [
        "▁dr",
        -9.561956996476788
      ],
      [
        "▁getiri",
        -9.101667024452382
      ],
      [
        "ik",
        -9.198513697807325
      ],
      [
        "ilk",
        -9.787648671915584
      ],
      [
        "▁sahipligi",
        -10.778521344236726
      ],
      [
        "aclı",
        -8.773199229224863
      ],
      [
        "emis",
        -8.68854961724691
      ],
      [
        "▁ne",
        -6.301448313353805
      ],
      [
        "▁etmed",
        -8.910663466695901
      ],
      [
        "▁aid",
        -10.930612657067117
      ],
      [
        "ch",
        -8.71633810719033
      ],
      [
        "▁gulle",
        -11.12560007503932
      ],
      [
        "▁simgesi",
        -10.589219427963064
      ],
      [
        "▁ameliyat",
        -9.71392586680885
      ],
      [
        "▁kemik",
        -10.68836419884554
      ],
      [
        "▁v",
        -10.032577067556025
      ],
      [
        "ler",
        -10.22857317404263
      ],
      [
        "▁tepeler",
        -10.568414745706075
      ],
      [
        "▁muhafaza",
        -9.742465665540667
      ],
      [
        "▁soluk",
        -9.807029231387801
      ],
      [
        "▁acılıs",
        -9.745082064724304
      ],
      [
        "h",
        -6.455976204242755
      ],
      [
        "ti",
        -6.618442841399939
      ],
      [
        "▁di",
        -4.275857339641559
      ],
      [
        "▁onlem",
        -10.157358163870827
      ],
      [
        "▁bırakmadı",
        -9.348891923441618
      ],
      [
        "ndı",
        -9.286074029400767
      ],
      [
        "f",
        -7.4132971476116705
      ],
      [
        "▁pet",
        -10.810968855509303
      ],
      [
        "▁nobetci",
        -10.084647093538358
      ],
      [
        "▁alet",
        -9.609365529344153
      ],
      [
        "llah",
        -10.162805938928908
      ],
      [
        "▁f",
        -7.341780621958419
      ],
      [
        "▁edersin",
        -9.715930171316808
      ],
      [
        "▁geldigi",
        -8.54225955231983
      ],
      [
        "▁inan",
        -10.843285256766723
      ],
      [
        "▁bulundugu",
        -10.46520245752749
      ],
      [
        "▁listesini",
        -8.835996224975865
      ],
      [
        "▁yapamaz",
        -9.024343444800929
      ],
      [
        "unde",
        -9.61362757426839
      ],
      [
        "▁adres",
        -10.934555266819615
      ],
      [
        "▁bilgi",
        -6.831415312564064
      ],
      [
        "▁paylar",
        -10.28679217212027
      ],
      [
        "▁ortalama",
        -8.897672609672235
      ],
      [
        "c",
        -4.254761954954862
      ],
      [
        "eden",
        -8.92154070085157
      ],
      [
        "mıs",
        -5.402299570920754
      ],
      [
        "unun",
        -8.654510490070345
      ],
      [
        "▁ydu",
        -5.652411369949245
      ],
      [
        "gi",
        -8.084669617704343
      ],
      [
        "▁okuma",
        -9.654536672285763
      ],
      [
        "sam",
        -8.754748912844498
      ],
      [
        "▁istikrar",
        -10.616566356002217
      ],
      [
        "▁limanda",
        -10.52900143121499
      ],
      [
        "▁zorluklar",
        -9.928890185168036
      ],
      [
        "▁ali'",
        -8.799392567992886
      ],
      [
        "▁camurlu",
        -9.420221018882074
      ],
      [
        "▁onu",
        -8.296203296851035
      ],
      [
        "se",
        -9.397402738294481
      ],
      [
        "▁kırlarda",
        -10.767350107767603
      ],
      [
        "▁taze",
        -10.533305019022963
      ],
      [
        "▁kulturun",
        -10.315140807171023
      ],
      [
        "▁azmi",
        -10.902488187417713
      ],
      [
        "▁sen",
        -6.943079529204949
      ],
      [
        "▁mevsimin",
        -10.816306954784647
      ],
      [
        "▁cizgi",
        -9.120763942749667
      ],
      [
        "resmi",
        -7.411034989182304
      ],
      [
        "▁alel",
        -9.345688546999526
      ],
      [
        "▁sekeri",
        -10.049189042270438
      ],
      [
        "▁rahat",
        -9.481696463121617
      ],
      [
        "bunu",
        -8.517108250066565
      ],
      [
        "▁rahat",
        -9.225015922350895
      ],
      [
        "▁send",
        -10.816723809162319
      ],
      [
        "▁sa",
        -7.07666528397847
      ],
      [
        "▁times",
        -8.147034508334047
      ],
      [
        "▁yerdi",
        -9.033508342546801
      ],
      [
        "▁yasayanlar",
        -11.106116411907315
      ],
      [
        "▁dura",
        -7.954299185685494
      ],
      [
        "▁18.",
        -7.843812565487935
      ],
      [
        "▁ipuc",
        -10.464833959385151
      ],
      [
        "▁degerlendiril",
        -9.492827840061562
      ],
      [
        "▁dc",
        -7.502494331779321
      ],
      [
        "▁kurdu",
        -10.256880584234793
      ],
      [
        "▁cık",
        -8.093656468235832
      ],
      [
        "▁sonra",
        -9.450227445694484
      ],
      [
        "1.3",
        -8.07217637518868
      ],
      [
        "▁hud",
        -8.901977272836533
      ],
      [
        "▁suruldu",
        -9.506771003919956
      ],
      [
        "▁cıkarıldı",
        -9.610873974267735
      ],
      [
        "digini",
        -7.877123278171909
      ],
      [
        "▁gonderme",
        -10.16876594406124
      ],
      [
        "▁kopuk",
        -10.353148638177675
      ],
      [
        "▁yuruyusu",
        -11.068520492659179
      ],
      [
        "▁sozleri",
        -9.046483335051406
      ],
      [
        "▁komunistler",
        -10.845171385147676
      ],
      [
        "▁unu",
        -9.791649822615165
      ],
      [
        "▁gazoz",
        -11.099621568575422
      ],
      [
        "ilmesini",
        -10.885938949462673
      ],
      [
        "▁yarıs",
        -9.940927121581096
      ],
      [
        "▁yalnız",
        -5.438889735507824
      ],
      [
        "si'nde",
        -10.9649602574612
      ],
      [
        "▁peri",
        -11.094180956158386
      ],
      [
        "▁kapandı",
        -6.560167827904105
      ],
      [
        "▁gunlerini",
        -10.01037449605617
      ],
      [
        "▁suphe",
        -8.404558566732096
      ],
      [
        "▁otel",
        -6.467086177810073
      ],
      [
        "▁sozum",
        -10.779961662925018
      ],
      [
        "▁sirket",
        -6.512690435878768
      ],
      [
        "▁kapısını",
        -9.030449319760269
      ],
      [
        "▁atlant",
        -11.106242986492331
      ],
      [
        "▁yanım",
        -10.439439668954662
      ],
      [
        "▁bitir",
        -10.874223168987728
      ],
      [
        "mak",
        -7.900435840908149
      ],
      [
        "▁olasılıklar",
        -11.0937353820674
      ],
      [
        "cin",
        -11.082368273995641
      ],
      [
        "▁goren",
        -8.54080227969605
      ],
      [
        "▁programını",
        -9.9427412869114
      ],
      [
        "▁2'de",
        -10.005347658873927
      ],
      [
        "▁geldik",
        -8.761162889404691
      ],
      [
        "▁hanım'ı",
        -8.619918032669052
      ],
      [
        "▁isaretler",
        -10.242735209105524
      ],
      [
        "▁mis",
        -5.918581206871204
      ],
      [
        "si",
        -6.160743120187301
      ],
      [
        "▁sevin",
        -8.780012182774758
      ],
      [
        "▁hasladı",
        -9.689689467817377
      ],
      [
        "—",
        -12.802702672349787
      ],
      [
        "▁veteriner",
        -10.732076223266795
      ],
      [
        "▁agac",
        -8.605180669019786
      ],
      [
        "▁kaba",
        -9.443484639055661
      ],
      [
        "▁genel",
        -8.51443831728918
      ],
      [
        "▁istemiyordu",
        -9.706359441554888
      ],
      [
        "▁kanunla",
        -10.937102925203327
      ],
      [
        "▁haziran",
        -9.463303208176846
      ],
      [
        "▁modeli",
        -10.677400111158558
      ],
      [
        "▁bur",
        -8.106338960283185
      ],
      [
        "▁damla",
        -9.396343645407088
      ],
      [
        "▁kesfi",
        -11.02263868133872
      ],
      [
        "▁ileri",
        -8.70499771275459
      ],
      [
        "▁parkın",
        -10.091185771866517
      ],
      [
        "i",
        -3.0732711944739446
      ],
      [
        "▁kusur",
        -8.597400942839396
      ],
      [
        "▁islerinde",
        -10.498885030012598
      ],
      [
        "▁canavar",
        -10.82501250635201
      ],
      [
        "▁acıklama",
        -9.110279818506626
      ],
      [
        "▁yagmur",
        -8.782928619004645
      ],
      [
        "▁salladı",
        -9.469862283892418
      ],
      [
        "▁degmez",
        -9.636148286859905
      ],
      [
        "▁turizm",
        -10.354385040300901
      ],
      [
        "▁bas",
        -8.423869119465175
      ],
      [
        "▁piyasaların",
        -10.387555571366756
      ],
      [
        "▁giriste",
        -8.7247805615521
      ],
      [
        "lenmis",
        -9.54539533739372
      ],
      [
        "▁ayrıldı",
        -8.377644923179602
      ],
      [
        "▁kıyasla",
        -10.00469367297256
      ],
      [
        "▁gidilebil",
        -9.630196515012518
      ],
      [
        "▁bagımlılıgı",
        -10.589287013002151
      ],
      [
        "▁evlenme",
        -9.441143218760292
      ],
      [
        "▁kulakların",
        -10.58738001160072
      ],
      [
        "▁havalimanında",
        -10.042842646753483
      ],
      [
        "▁3.5",
        -7.033184509879599
      ],
      [
        "▁baslayı",
        -9.278326497394866
      ],
      [
        "▁olgun",
        -9.399342280641783
      ],
      [
        "▁tesekkur",
        -7.533302992002742
      ],
      [
        "din",
        -10.997333208749605
      ],
      [
        "▁buldu",
        -6.96205027725249
      ],
      [
        "apta",
        -8.563359285759493
      ],
      [
        "kları",
        -10.235995691367483
      ],
      [
        "▁buyu",
        -10.047935183187416
      ],
      [
        "5000",
        -7.739843722105653
      ],
      [
        "iz",
        -8.183355803138426
      ],
      [
        "▁zararları",
        -10.753185033093256
      ],
      [
        "▁huzur",
        -8.335024299760093
      ],
      [
        "▁bir",
        -10.251317762645535
      ],
      [
        "▁bast",
        -9.486110289937475
      ],
      [
        "tugunu",
        -10.774815678542687
      ],
      [
        "▁yaki",
        -7.509283000629577
      ],
      [
        "▁gerdan",
        -9.930533410724436
      ],
      [
        "izim",
        -9.429207404679605
      ],
      [
        "uru",
        -10.518623247108799
      ],
      [
        "▁elif",
        -8.625116038621695
      ],
      [
        "▁elmaslar",
        -10.972646119058737
      ],
      [
        "▁arastırmada",
        -11.014447205662906
      ],
      [
        "▁ogle",
        -9.527226449611927
      ],
      [
        "▁ua",
        -8.372735486662425
      ],
      [
        "▁ihtimalle",
        -10.579308423352497
      ],
      [
        "▁mertebe",
        -11.034563533053714
      ],
      [
        "▁milleti",
        -9.657825040770323
      ],
      [
        "▁ayagını",
        -10.138884791196077
      ],
      [
        "▁girmedi",
        -9.61069155463724
      ],
      [
        "▁cogunlukla",
        -10.903079688911667
      ],
      [
        "▁sarsar",
        -9.765889058107788
      ],
      [
        "kilerin",
        -10.52302293092185
      ],
      [
        "▁be",
        -8.245822081507646
      ],
      [
        "▁soylem",
        -10.579239618344635
      ],
      [
        "▁boslugu",
        -10.52268282039833
      ],
      [
        "▁kapsıyor",
        -9.63655230473606
      ],
      [
        "▁1989",
        -5.896581170332743
      ],
      [
        "▁gittigim",
        -9.09045006621232
      ],
      [
        "▁kopya",
        -10.248596708270522
      ],
      [
        "▁",
        -3.32808512111051
      ],
      [
        "maya",
        -7.022055951291881
      ],
      [
        "▁luzum",
        -10.553993237268267
      ],
      [
        "▁yeti",
        -11.091293243387069
      ],
      [
        "▁sarkılar",
        -10.732170294674765
      ],
      [
        "▁ortul",
        -9.005596190002485
      ],
      [
        "▁ayaklarım",
        -11.110406443510707
      ],
      [
        "▁idealizm",
        -10.732124659825535
      ],
      [
        "6",
        -10.158506552024441
      ],
      [
        "▁lanet",
        -10.253235084258534
      ],
      [
        "▁ceyreginde",
        -9.537281670459373
      ],
      [
        "▁belirtti",
        -7.576476867314307
      ],
      [
        "▁felaketin",
        -10.829803818362729
      ],
      [
        "b",
        -7.787526154383432
      ],
      [
        "▁kolombiya",
        -8.914295302189743
      ],
      [
        "en",
        -3.7741492745105623
      ],
      [
        "▁gidiyordu",
        -8.248233014145601
      ],
      [
        "▁gizem",
        -9.420086732486425
      ],
      [
        "▁dalları",
        -10.290046530349686
      ],
      [
        "▁kactı",
        -8.348673635529305
      ],
      [
        "▁nesesi",
        -10.651982503702632
      ],
      [
        "▁bilmiyor",
        -8.68197275387513
      ],
      [
        "layıcıları",
        -11.096170270207429
      ],
      [
        "[PAD]",
        0.0
      ],
      [
        "yin",
        -7.524851692384854
      ],
      [
        "▁guverte",
        -11.117848195580319
      ],
      [
        "▁gitmek",
        -9.316368473751973
      ],
      [
        "▁tasarruflar",
        -11.002477570968278
      ],
      [
        "asırı",
        -9.5279997855972
      ],
      [
        "▁olabil",
        -7.5559404033407995
      ],
      [
        "▁ne",
        -9.042026304396284
      ],
      [
        "d",
        -5.721200899562443
      ],
      [
        "▁azı",
        -8.731091212658692
      ],
      [
        "▁kasırga",
        -9.764794665007289
      ],
      [
        "der",
        -10.225754826720408
      ],
      [
        "▁icimiz",
        -10.599860890117462
      ],
      [
        "yetli",
        -9.033155784352395
      ],
      [
        "▁kopekleri",
        -10.752608505439404
      ],
      [
        "'lu",
        -9.059261913807912
      ],
      [
        "ım",
        -8.541931443741724
      ],
      [
        "▁vucudunda",
        -11.060483344016944
      ],
      [
        "dan",
        -7.5819631774298735
      ],
      [
        "▁olmama",
        -11.11245222230939
      ],
      [
        "▁erke",
        -10.977410863145403
      ],
      [
        "▁7.9",
        -8.204057527915424
      ],
      [
        "▁pusula",
        -11.101623957317774
      ],
      [
        "▁avcı",
        -10.206821146173606
      ],
      [
        "▁kadın",
        -7.1380847048377465
      ],
      [
        "▁siyas",
        -9.361615975235756
      ],
      [
        "rmak",
        -10.311440463766466
      ],
      [
        "▁ay",
        -7.794879922627047
      ],
      [
        "▁ikinci",
        -5.434783497462611
      ],
      [
        "▁soyluyordu",
        -9.216153194024216
      ],
      [
        "▁enistemiz",
        -10.466656466969962
      ],
      [
        "▁sendikalar",
        -10.933353993730456
      ],
      [
        "oluy",
        -8.64308769233122
      ],
      [
        "z",
        -7.0601052707392435
      ],
      [
        "▁komplo",
        -10.46421908062451
      ],
      [
        "▁ar",
        -8.989160193092625
      ],
      [
        "▁sesleri",
        -8.94845744676894
      ],
      [
        "n",
        -3.6280928810905246
      ],
      [
        "▁90",
        -7.863063374735991
      ],
      [
        "kinde",
        -10.527547673394409
      ],
      [
        "▁san",
        -4.252714316006625
      ],
      [
        "▁surdurdu",
        -9.410328903719176
      ],
      [
        "dolay",
        -8.574508283218814
      ],
      [
        "▁hasır",
        -11.101008196942391
      ],
      [
        "▁kilisesi",
        -10.50194384010946
      ],
      [
        "di",
        -6.312665811588268
      ],
      [
        "▁ardın",
        -7.0154321903276164
      ],
      [
        "▁anlamını",
        -10.651884164187003
      ],
      [
        "▁likor",
        -10.46430456956714
      ],
      [
        "▁kahkaha",
        -9.539767290230195
      ],
      [
        "▁pazarlarda",
        -10.628552755386266
      ],
      [
        "▁kaldırdı",
        -8.696993431549256
      ],
      [
        "▁sebepleri",
        -10.917756038490154
      ],
      [
        "▁ufuklar",
        -11.077075198614802
      ],
      [
        "▁ırk",
        -11.057459306154819
      ],
      [
        "ın",
        -6.015507385031408
      ],
      [
        "▁ar",
        -7.983228872390977
      ],
      [
        "le",
        -7.45879026731766
      ],
      [
        "▁bakla",
        -10.596497824733863
      ],
      [
        "▁muh",
        -9.658687885120012
      ],
      [
        "▁hastalıgı",
        -9.688933976846794
      ],
      [
        "▁elbet",
        -6.771714475515565
      ],
      [
        "▁itaat",
        -10.464114377948686
      ],
      [
        "▁efendi",
        -8.324733704506215
      ],
      [
        "▁keklik",
        -11.10252756950408
      ],
      [
        "▁olanagı",
        -10.111595381686776
      ],
      [
        "▁guzelligin",
        -10.016833124622703
      ],
      [
        "yla",
        -8.68293463466165
      ],
      [
        "▁kuruluslarını",
        -10.901649603245303
      ],
      [
        "altı",
        -9.914499492217951
      ],
      [
        "▁yazarlıgı",
        -11.107451010126459
      ],
      [
        "▁istemis",
        -8.990180707118032
      ],
      [
        "▁tabirleri",
        -11.119759125555351
      ],
      [
        "▁turistleri",
        -10.532199661656199
      ],
      [
        "▁cıkmıs",
        -7.71271102542528
      ],
      [
        "▁sonuc",
        -9.14760979782066
      ],
      [
        "e",
        -3.75931614807514
      ],
      [
        "▁ailece",
        -8.422302921951637
      ],
      [
        "96",
        -8.229653979245903
      ],
      [
        "▁yaza",
        -9.049163423996802
      ],
      [
        "icin",
        -5.8969885216171365
      ],
      [
        "▁patates",
        -9.093278313755647
      ],
      [
        "▁edip",
        -8.26976816931322
      ],
      [
        "▁chp",
        -8.385627006161723
      ],
      [
        "▁nizam",
        -10.464105165078777
      ],
      [
        "▁gece",
        -5.900191116805786
      ],
      [
        "▁vatanı",
        -10.987591231266467
      ],
      [
        "▁delikanlı",
        -8.603184389034485
      ],
      [
        "▁kestane",
        -10.732119094253664
      ],
      [
        "▁cumhuriyetci",
        -9.889043446245605
      ],
      [
        "▁gonul",
        -8.410291848232054
      ],
      [
        "▁kusları",
        -10.441948177400768
      ],
      [
        "▁hayatında",
        -10.304622566184495
      ],
      [
        "▁satacak",
        -9.628587821486214
      ],
      [
        "▁detay",
        -10.575744069574592
      ],
      [
        "▁mumlar",
        -10.97829441071572
      ],
      [
        "▁i",
        -7.378268743543707
      ],
      [
        "▁payını",
        -9.964856899875162
      ],
      [
        "▁yitirdi",
        -9.70176555617351
      ],
      [
        "▁buyu",
        -8.465510865884635
      ],
      [
        "▁nez",
        -11.098571178270014
      ],
      [
        "▁savas",
        -8.39206097511519
      ],
      [
        "▁birilerini",
        -8.052026896391645
      ],
      [
        "gı",
        -9.946781938701653
      ],
      [
        "▁kac",
        -10.25774680228315
      ],
      [
        "▁uygun",
        -5.712330602846942
      ],
      [
        "agı",
        -9.545006298947886
      ],
      [
        "liydi",
        -6.2322858940315955
      ],
      [
        "▁cagır",
        -9.193242533857193
      ],
      [
        "▁teyze",
        -9.953487043724074
      ],
      [
        "▁ince",
        -6.474577776280687
      ],
      [
        "▁tercume",
        -10.898744397544105
      ],
      [
        "▁kırma",
        -10.770581309405639
      ],
      [
        "▁tutu",
        -8.721074393873595
      ],
      [
        "▁intel",
        -8.8213689548277
      ],
      [
        "lıkları",
        -10.466068654845891
      ],
      [
        "▁dugum",
        -11.08744101950991
      ],
      [
        "yin",
        -5.784995693197711
      ],
      [
        "▁usta",
        -8.916580827932766
      ],
      [
        "▁baz",
        -9.048931940565692
      ],
      [
        "▁tursu",
        -10.482116687328617
      ],
      [
        "sı",
        -7.889669389907431
      ],
      [
        "▁cek",
        -10.425372094112538
      ],
      [
        "▁2.4",
        -7.54829737846009
      ],
      [
        "3",
        -4.775100445387008
      ],
      [
        "▁kap",
        -8.866741804088596
      ],
      [
        "▁altı",
        -4.934015652473771
      ],
      [
        "egi",
        -6.7349244106122175
      ],
      [
        "sa",
        -6.559936724481407
      ],
      [
        "▁nazar",
        -9.323970566777561
      ],
      [
        "▁attı",
        -7.25322987330236
      ],
      [
        "▁teni",
        -10.810270637216211
      ],
      [
        "▁abim",
        -10.367716503161143
      ],
      [
        "▁edindi",
        -9.584006168264368
      ],
      [
        "▁meyveler",
        -10.958485299229705
      ],
      [
        "▁paranın",
        -9.291451558838238
      ],
      [
        "▁maddesini",
        -11.014585360651829
      ],
      [
        "kler",
        -10.187876016547074
      ],
      [
        "▁kıra",
        -8.793795839508133
      ],
      [
        "▁kazanclarını",
        -10.039235506730023
      ],
      [
        "▁bekledigin",
        -9.421273078689392
      ],
      [
        "▁avsar",
        -8.982984525139745
      ],
      [
        "▁eksikti",
        -8.89804193792592
      ],
      [
        "▁dikil",
        -9.581598752684565
      ],
      [
        "has",
        -8.718769683180955
      ],
      [
        "yit",
        -10.802320512157596
      ],
      [
        "▁asma",
        -10.8982130042842
      ],
      [
        "▁kullanıcı",
        -10.448867049166488
      ],
      [
        "▁billur",
        -9.308915935283462
      ],
      [
        "▁konusu",
        -9.026017798488926
      ],
      [
        "▁antrenor",
        -11.098744039818907
      ],
      [
        "▁tuketicileri",
        -11.062678558926818
      ],
      [
        "▁eser",
        -9.132749423596472
      ],
      [
        "▁isporta",
        -10.898795014698166
      ],
      [
        "▁genclik",
        -9.407108197152517
      ],
      [
        "▁baslangıc",
        -9.63658242464065
      ],
      [
        "▁tank",
        -10.835801119212746
      ],
      [
        "mistir",
        -7.3840606320627895
      ],
      [
        "▁gectik",
        -10.464360515566696
      ],
      [
        "▁toplantısında",
        -9.868377156382024
      ],
      [
        "▁ozen",
        -9.449073669334474
      ],
      [
        "▁g.",
        -9.047681233475757
      ],
      [
        "▁seviyesini",
        -10.91067709991313
      ],
      [
        "▁turleri",
        -11.015698983579089
      ],
      [
        "▁oner",
        -8.947238590618117
      ],
      [
        "▁depremde",
        -9.81266375122445
      ],
      [
        "▁oldugunu",
        -6.165144376664872
      ],
      [
        "▁adl",
        -9.489437247379154
      ],
      [
        "▁pilavı",
        -10.51338459634484
      ],
      [
        "▁kendisi",
        -5.0164946613251225
      ],
      [
        "▁ozdemir",
        -8.798347132000153
      ],
      [
        "g",
        -8.598478675168938
      ],
      [
        "▁diger",
        -5.562375330073026
      ],
      [
        "okulu",
        -8.878045843167143
      ],
      [
        "▁sersem",
        -11.09874924953066
      ],
      [
        "▁ka",
        -8.433849711985982
      ],
      [
        "▁birbiri",
        -6.524940154870734
      ],
      [
        "▁coluk",
        -9.68727591348758
      ],
      [
        "▁orkestra",
        -10.250047614905053
      ],
      [
        "▁sessiz",
        -8.168404297102164
      ],
      [
        "▁kaldigim",
        -9.132461100947031
      ],
      [
        "▁bulunur",
        -8.533977088884363
      ],
      [
        "▁kız",
        -7.518530729266395
      ],
      [
        "ralar",
        -10.878343901528444
      ],
      [
        "▁malın",
        -10.433722638638608
      ],
      [
        "▁yuksel",
        -9.427661321871616
      ],
      [
        "▁kurumlar",
        -9.484940142485952
      ],
      [
        "▁yun",
        -9.772393355459716
      ],
      [
        "▁yaralanma",
        -11.106601264785683
      ],
      [
        "▁george",
        -7.757454851077565
      ],
      [
        "▁umut",
        -9.21981472645442
      ],
      [
        "▁hatal",
        -9.540548336019414
      ],
      [
        "▁detayl",
        -9.419356308188567
      ],
      [
        "▁birlikte",
        -9.49402661597296
      ],
      [
        "▁verdigini",
        -9.584613962425463
      ],
      [
        "▁cocugu",
        -8.464482906350312
      ],
      [
        "▁zeytinyagı",
        -10.04755838009429
      ],
      [
        "▁gencti",
        -9.508976194209517
      ],
      [
        "▁devletler",
        -10.782269771304401
      ],
      [
        "isi",
        -7.860989098248773
      ],
      [
        "▁karnını",
        -10.521093086548102
      ],
      [
        "▁c",
        -8.632979201027332
      ],
      [
        "meye",
        -8.823739549553157
      ],
      [
        "▁mesel",
        -10.94548003532395
      ],
      [
        "▁cinayeti",
        -10.989833022521058
      ],
      [
        "▁fail",
        -11.09891393585214
      ],
      [
        "▁stoklarını",
        -11.04481004571859
      ],
      [
        "▁suret",
        -10.146240985949985
      ],
      [
        "▁ugras",
        -10.845953451674616
      ],
      [
        "▁zararı",
        -10.076787806755654
      ],
      [
        "▁guzeli",
        -9.6915110280646
      ],
      [
        "▁riskini",
        -10.598765056414521
      ],
      [
        "▁acenta",
        -9.742524868766102
      ],
      [
        "▁danısman",
        -9.785898446701243
      ],
      [
        "▁tuketici",
        -8.821072721412943
      ],
      [
        "▁seneler",
        -9.011146938504794
      ],
      [
        "nala",
        -9.47253637002897
      ],
      [
        "meliyi",
        -9.457164431735283
      ],
      [
        "▁sas",
        -9.691580175570753
      ],
      [
        "▁arada",
        -8.371342495727712
      ],
      [
        "▁cogu",
        -6.224369063045475
      ],
      [
        "▁ha",
        -8.277176272093795
      ],
      [
        "▁yahudi",
        -8.854026443439391
      ],
      [
        "▁rolunu",
        -10.622406077900681
      ],
      [
        "▁zayıflık",
        -10.710112046939779
      ],
      [
        "liligi",
        -10.642431378894555
      ],
      [
        "sidir",
        -8.265980581265554
      ],
      [
        "▁kasım",
        -9.155186605065925
      ],
      [
        "▁surecini",
        -10.13497598008069
      ],
      [
        "▁nakliye",
        -9.776858434453922
      ],
      [
        "▁uc",
        -9.284728711532095
      ],
      [
        "onsuz",
        -9.570392178089188
      ],
      [
        "▁cins",
        -9.688412487849504
      ],
      [
        "▁agızları",
        -10.631965300269805
      ],
      [
        "orada",
        -11.028996462578917
      ],
      [
        "▁st",
        -5.907715493414773
      ],
      [
        "▁fiyatları",
        -7.427975687224656
      ],
      [
        "hangi",
        -6.332774858632261
      ],
      [
        "▁reklamları",
        -10.215415566006696
      ],
      [
        "rdı",
        -8.453843680748864
      ],
      [
        "▁adalet",
        -8.798363004799178
      ],
      [
        "▁aynısı",
        -10.93085146838869
      ],
      [
        "▁evini",
        -9.792053712662533
      ],
      [
        "▁begenmedi",
        -7.0160563725782366
      ],
      [
        "▁mae",
        -9.01995424808505
      ],
      [
        "▁yedek",
        -10.589238697452888
      ],
      [
        "o",
        -12.802702672349787
      ],
      [
        "▁calısan",
        -8.46280319227702
      ],
      [
        "▁yemeklerini",
        -9.521103166722858
      ],
      [
        "di",
        -8.38997319937183
      ],
      [
        "et",
        -6.8936994019445175
      ],
      [
        "▁gosterecek",
        -9.712553622904458
      ],
      [
        "▁cip",
        -10.326845246412741
      ],
      [
        "▁tırmanı",
        -9.528243679487183
      ],
      [
        "o",
        -9.574672963213274
      ],
      [
        "▁eski",
        -9.19062198431553
      ],
      [
        "▁99",
        -7.831898435775848
      ],
      [
        "▁uyeleri",
        -9.464292797233378
      ],
      [
        "▁odasını",
        -10.684328942919649
      ],
      [
        "▁sirketi",
        -7.853567257971652
      ],
      [
        "▁",
        -1.6692032132785002
      ],
      [
        "▁bonolar",
        -9.47868322854743
      ],
      [
        "▁egitimi",
        -10.059771204799985
      ],
      [
        "▁olanaklari",
        -8.110646840794946
      ],
      [
        "ormusc",
        -9.771084002896407
      ],
      [
        "▁tasa",
        -10.091464457361923
      ],
      [
        "▁kilo",
        -9.686929806883018
      ],
      [
        "▁birimler",
        -10.808795207347778
      ],
      [
        "▁yon",
        -7.426272201376805
      ],
      [
        "▁kes",
        -8.051379784091225
      ],
      [
        "digi",
        -7.767683567975881
      ],
      [
        "▁street",
        -7.067541525998615
      ],
      [
        "▁saki",
        -6.997830724557234
      ],
      [
        "asil",
        -9.55271875747163
      ],
      [
        "▁tak",
        -9.394555006868377
      ],
      [
        "▁sinirlendi",
        -9.731975707243308
      ],
      [
        "▁buyumesi",
        -10.770964431272189
      ],
      [
        "▁yapılacak",
        -8.006119323152062
      ],
      [
        "▁baglıdır",
        -8.95696279151159
      ],
      [
        "▁yarat",
        -9.41616422859978
      ],
      [
        "▁irm",
        -11.02414705612531
      ],
      [
        "▁karayolu",
        -7.62469145503779
      ],
      [
        "▁zarar",
        -8.226151297219209
      ],
      [
        ",",
        -11.259274920662083
      ],
      [
        "▁islemlerde",
        -9.262730155430546
      ],
      [
        "▁bas",
        -9.080299906412666
      ],
      [
        "▁boston",
        -5.725254465815135
      ],
      [
        "dik",
        -8.139810502825663
      ],
      [
        "once",
        -8.201754415952724
      ],
      [
        "▁yagma",
        -11.106641581834198
      ],
      [
        "▁dilimizi",
        -11.121129143933487
      ],
      [
        "▁milwaukee'de",
        -6.77260024927041
      ],
      [
        "▁ib",
        -9.38772116217762
      ],
      [
        "▁kaybı",
        -9.14773509806168
      ],
      [
        "▁gise",
        -11.098873085858838
      ],
      [
        "▁tacoma'",
        -7.877695112670695
      ],
      [
        "▁charlotte'de",
        -7.289118869835363
      ],
      [
        "▁kurmus",
        -9.498805748931144
      ],
      [
        "'u",
        -10.945244591567526
      ],
      [
        "▁alanları",
        -10.243735263956447
      ],
      [
        "ze",
        -10.367844327651936
      ],
      [
        "▁vasıtası",
        -10.521469336997004
      ],
      [
        "▁halefi",
        -10.324860707906959
      ],
      [
        "elim",
        -7.409512585230014
      ],
      [
        "▁kullan",
        -8.573655447972792
      ],
      [
        "▁agacın",
        -9.29127941018674
      ],
      [
        "▁mey",
        -9.54534491962708
      ],
      [
        "▁yo",
        -8.053728763625166
      ],
      [
        "▁bursa",
        -8.44582080570475
      ],
      [
        "▁45",
        -6.717907508711445
      ],
      [
        "▁3/4'",
        -10.34222924978282
      ],
      [
        "riz",
        -8.80238655099963
      ],
      [
        "▁dunyada",
        -8.564337884491408
      ],
      [
        "tikte",
        -10.657897358111034
      ],
      [
        "▁manası",
        -10.312450031445621
      ],
      [
        "▁vakası",
        -10.949982039720034
      ],
      [
        "▁itirazlar",
        -11.000653103906245
      ],
      [
        "▁mesgul",
        -10.353108263980191
      ],
      [
        "▁var",
        -7.218446326693829
      ],
      [
        "▁mesajları",
        -11.090520606758805
      ],
      [
        "▁ez",
        -8.519130447258377
      ],
      [
        "lı",
        -8.65060749836503
      ],
      [
        "▁cocuksu",
        -9.499584996937935
      ],
      [
        "▁kagıt",
        -8.695749535606591
      ],
      [
        "▁parcalarını",
        -10.73653853310017
      ],
      [
        "▁saglıgını",
        -10.325672331171042
      ],
      [
        "▁saglamlıgı",
        -11.119021249699411
      ],
      [
        "▁sans",
        -9.543505162568252
      ],
      [
        "erit",
        -9.60278542440815
      ],
      [
        "▁tasıt",
        -10.594778103401623
      ],
      [
        "▁civ",
        -10.870930375473176
      ],
      [
        "▁hatları",
        -10.075195851004068
      ],
      [
        "▁ettikleri",
        -10.71974355736677
      ],
      [
        "sever",
        -9.601508398650909
      ],
      [
        "▁iktisatcılar",
        -10.93140718563095
      ],
      [
        "0",
        -4.429548908795915
      ],
      [
        "▁icin",
        -5.611889001906072
      ],
      [
        "▁\"",
        -9.572846146402153
      ],
      [
        "▁yaptıgını",
        -9.599319603823542
      ],
      [
        "▁macta",
        -10.094361719732255
      ],
      [
        "kıslı",
        -9.184769027263572
      ],
      [
        "▁gul",
        -8.854194969549111
      ],
      [
        "▁hırsı",
        -10.780595290512464
      ],
      [
        "▁iddia",
        -8.054902716093714
      ],
      [
        "'",
        -8.76949670889076
      ],
      [
        "▁bircokları",
        -8.652344113603753
      ],
      [
        "▁1998",
        -8.232900204140496
      ],
      [
        "▁durma",
        -9.638422916076696
      ],
      [
        "dıgı",
        -7.668064050279131
      ],
      [
        "▁montreal'da",
        -8.263105489212075
      ],
      [
        "▁kefe",
        -10.589271959293768
      ],
      [
        "▁uzak",
        -7.416518726101365
      ],
      [
        "▁planlar",
        -10.125592767330392
      ],
      [
        "▁getirir",
        -8.512355115740984
      ],
      [
        "▁duskun",
        -10.571794066551224
      ],
      [
        "▁baskı",
        -8.320166047790025
      ],
      [
        "▁21",
        -10.56069353336157
      ],
      [
        "kusuz",
        -8.760596771514079
      ],
      [
        "rut",
        -9.392546966396267
      ],
      [
        "▁kutuk",
        -10.08966855830957
      ],
      [
        "▁aramay",
        -10.258235473578345
      ],
      [
        "▁cember",
        -10.944967115091838
      ],
      [
        "▁hakları",
        -9.182096698046513
      ],
      [
        "▁kumas",
        -8.545171930911652
      ],
      [
        "▁acik",
        -9.284987860919959
      ],
      [
        "▁mukemmeldi",
        -7.463083156957814
      ],
      [
        "▁goru",
        -8.201515277214732
      ],
      [
        "▁carptı",
        -9.11722724199323
      ],
      [
        "▁korkusu",
        -9.53007022586407
      ],
      [
        "▁kadro",
        -9.85374860388617
      ],
      [
        "▁calisti",
        -9.633882353871067
      ],
      [
        "▁uret",
        -9.358931752113334
      ],
      [
        "▁yanımızda",
        -10.901233184426733
      ],
      [
        "▁halt",
        -10.712371156561673
      ],
      [
        "▁yeg",
        -9.202208535739324
      ],
      [
        "▁ja",
        -9.942669196750465
      ],
      [
        "▁philadelphia'",
        -5.795188323964599
      ],
      [
        "▁acıklamalar",
        -11.004400996535953
      ],
      [
        "▁2",
        -9.437640702750038
      ],
      [
        "▁duyu",
        -9.64312132234334
      ],
      [
        "▁soy",
        -9.76787101700859
      ],
      [
        ".75",
        -7.683019738081665
      ],
      [
        "lem",
        -9.615981339856884
      ],
      [
        "g",
        -3.2365275863870604
      ],
      [
        "▁gelmek",
        -10.023969707662438
      ],
      [
        "▁yataga",
        -10.464228313157864
      ],
      [
        "z",
        -5.741533321333153
      ],
      [
        "▁kızıl",
        -9.236079662397573
      ],
      [
        "▁gomul",
        -9.694051093021187
      ],
      [
        "▁baskasını",
        -8.988536186073095
      ],
      [
        "▁atlanta'da",
        -5.474516033211378
      ],
      [
        "▁gelmiyor",
        -8.797178025880868
      ],
      [
        "▁dunyasını",
        -10.364079278427472
      ],
      [
        "▁duygular",
        -9.723166538142017
      ],
      [
        "▁isimlerini",
        -10.965028459392832
      ],
      [
        "▁derslerin",
        -9.975829007925972
      ],
      [
        "▁eylul",
        -7.337048712433888
      ],
      [
        "▁gobegi",
        -10.441900430709374
      ],
      [
        "▁satmay",
        -9.93415944935593
      ],
      [
        "▁gordun",
        -9.272628929742574
      ],
      [
        "▁fonlar",
        -9.0551088285899
      ],
      [
        "▁irade",
        -10.18512368179427
      ],
      [
        "ayacak",
        -9.373011200179466
      ],
      [
        "▁gir",
        -8.638802532608926
      ],
      [
        "▁rehberimiz",
        -8.981220226356754
      ],
      [
        "▁programında",
        -10.833757321429248
      ],
      [
        "▁mus",
        -9.844904436314202
      ],
      [
        "▁omzun",
        -9.98830819648005
      ],
      [
        "▁davran",
        -10.582395249678855
      ],
      [
        "▁borsasında",
        -9.885473117476637
      ],
      [
        "▁hızı",
        -9.443687865905817
      ],
      [
        "▁koydugu",
        -10.89937838671492
      ],
      [
        "an",
        -5.8047980791130245
      ],
      [
        "▁icin",
        -2.121748868097354
      ],
      [
        "▁odalarin",
        -9.748379090965049
      ],
      [
        "▁sev",
        -10.64224099818561
      ],
      [
        "rgun",
        -8.318001004046177
      ],
      [
        "▁basının",
        -10.485795434118144
      ],
      [
        "▁bayragı",
        -10.862718102313806
      ],
      [
        "▁bile",
        -8.56178551161112
      ],
      [
        "▁olaylar",
        -9.003382048644202
      ],
      [
        "▁sigorta",
        -8.367598497618655
      ],
      [
        "▁toplum",
        -8.897090138550798
      ],
      [
        "▁kuruyor",
        -9.58619128524042
      ],
      [
        "▁spor",
        -8.802863519027207
      ],
      [
        "▁olayın",
        -9.503510847992942
      ],
      [
        "▁cobanı",
        -10.999017962504903
      ],
      [
        "▁berber",
        -11.09874333652937
      ],
      [
        "▁salata",
        -9.395616483836521
      ],
      [
        "niz",
        -6.58899655814921
      ],
      [
        "▁geni",
        -10.86442490322344
      ],
      [
        "▁sebeplerini",
        -10.495626037688663
      ],
      [
        "▁sevgi",
        -8.318618412310423
      ],
      [
        "lin",
        -8.302366704145015
      ],
      [
        "▁sosyalist",
        -10.353107970585198
      ],
      [
        "gu",
        -8.766929790591
      ],
      [
        "1.6",
        -8.126581078841074
      ],
      [
        "▁sıralarda",
        -10.260972840301083
      ],
      [
        "▁ymis",
        -6.778867252469565
      ],
      [
        "▁reform",
        -9.96050632063078
      ],
      [
        "eleyi",
        -9.830507315868388
      ],
      [
        "▁alnı",
        -10.324102695950913
      ],
      [
        "▁hatun",
        -9.969525642983893
      ],
      [
        "cı",
        -9.09684505447019
      ],
      [
        "▁ingiltere'de",
        -8.366542670502627
      ],
      [
        "tık",
        -9.762621223916373
      ],
      [
        "▁oldugunda",
        -8.330188344526137
      ],
      [
        "ham",
        -9.821019571170135
      ],
      [
        "▁yuzunu",
        -8.611361293375555
      ],
      [
        "▁gece",
        -6.83625958669613
      ],
      [
        "▁hav",
        -10.869782958455705
      ],
      [
        "▁ibre",
        -10.901430689318724
      ],
      [
        "▁1/8'",
        -10.898843854586525
      ],
      [
        "▁ihracat",
        -9.915801001165788
      ],
      [
        "mesi",
        -8.138228096993776
      ],
      [
        "▁organi",
        -9.420033932927009
      ],
      [
        "uktu",
        -8.101673095317397
      ],
      [
        "▁yemeklerde",
        -8.672021005116093
      ],
      [
        "▁dc'de",
        -7.133611285873868
      ],
      [
        "▁kaynatı",
        -9.58004061891739
      ],
      [
        "▁sıcagı",
        -11.032997130483817
      ],
      [
        "▁kapılar",
        -9.855517541454104
      ],
      [
        "▁farkı",
        -9.991379009280642
      ],
      [
        "▁politik",
        -7.996027697662492
      ],
      [
        "▁bey",
        -8.087506802207939
      ],
      [
        "▁sorunum",
        -10.942889376240206
      ],
      [
        "▁kalorifer",
        -10.732076236936775
      ],
      [
        "▁topları",
        -10.667868906392627
      ],
      [
        "▁kisiligin",
        -10.963495827015585
      ],
      [
        "▁bakımı",
        -10.497159151970518
      ],
      [
        "▁paribas",
        -8.888749052087787
      ],
      [
        "ka",
        -8.892146895378989
      ],
      [
        "▁yanda",
        -8.473281903296023
      ],
      [
        "sizlik",
        -9.160658681849148
      ],
      [
        "▁mutfag",
        -10.168615718938248
      ],
      [
        "▁eksiklikleri",
        -11.087943695992008
      ],
      [
        "▁koskoca",
        -9.03500878713311
      ],
      [
        "erhal",
        -6.774381132419854
      ],
      [
        "on",
        -9.321228623880128
      ],
      [
        "▁eglendi",
        -9.680074223497993
      ],
      [
        "▁politikacıları",
        -10.994306613187842
      ],
      [
        "▁oranında",
        -8.963329575882584
      ],
      [
        "▁uykusu",
        -10.989975249186307
      ],
      [
        "▁olacagı",
        -8.724633896446967
      ],
      [
        "▁kırmızı",
        -6.9982941575363355
      ],
      [
        "▁gobek",
        -10.001942673128411
      ],
      [
        "▁keser",
        -9.349493481827613
      ],
      [
        "ral",
        -10.429274666472438
      ],
      [
        "▁kutle",
        -11.102347616058426
      ],
      [
        "▁elektr",
        -7.78279836205093
      ],
      [
        "zası",
        -11.125130849029254
      ],
      [
        "▁edecegi",
        -9.547637669663366
      ],
      [
        "▁ofis",
        -8.902272497219746
      ],
      [
        "▁endustrileri",
        -10.687523188312234
      ],
      [
        "▁parmagında",
        -11.121594863324617
      ],
      [
        "▁insanlıgı",
        -10.273446604537327
      ],
      [
        "▁ortam",
        -9.922227269983377
      ],
      [
        "aksız",
        -9.030210291030311
      ],
      [
        "▁kabukları",
        -10.532396239999482
      ],
      [
        "▁mutevaz",
        -9.309761850107943
      ],
      [
        "▁199",
        -7.246510262211592
      ],
      [
        "▁sınıfın",
        -9.962150163480834
      ],
      [
        "ysa",
        -9.06951475038463
      ],
      [
        "▁arap",
        -10.892861576468142
      ],
      [
        "mi",
        -8.918657595756954
      ],
      [
        "ldır",
        -9.231753218641362
      ],
      [
        "▁''",
        -11.101580700003277
      ],
      [
        "▁duzen",
        -9.4613641277611
      ],
      [
        "▁kosuyor",
        -9.330250448657148
      ],
      [
        "▁adi",
        -7.636028698036293
      ],
      [
        "▁tempo",
        -10.282553665207535
      ],
      [
        "▁geciyor",
        -7.732986696869652
      ],
      [
        "▁o",
        -8.605437628909534
      ],
      [
        "▁kesintiler",
        -10.761406421035819
      ],
      [
        "▁muhalifleri",
        -10.639685709931218
      ],
      [
        "dugu",
        -8.336275553530566
      ],
      [
        "dıklarını",
        -9.05038986312027
      ],
      [
        "▁li",
        -5.934253238643644
      ],
      [
        "▁doyum",
        -10.732117085624584
      ],
      [
        "▁dusunur",
        -8.429821200733226
      ],
      [
        "▁dokundu",
        -9.210820833492537
      ],
      [
        "▁noktaları",
        -10.832253823223372
      ],
      [
        "▁edecegim",
        -8.72295891406422
      ],
      [
        "▁yuzlerin",
        -10.473616110362109
      ],
      [
        "▁salih",
        -8.707825789268409
      ],
      [
        "▁inkılabı",
        -11.098742889315785
      ],
      [
        "▁etki",
        -8.564285244318832
      ],
      [
        "h",
        -6.957033578087399
      ],
      [
        "▁0.3",
        -7.7890691089459425
      ],
      [
        "▁golgesin",
        -10.643486255174736
      ],
      [
        "▁vesile",
        -10.25312088972145
      ],
      [
        "▁bizle",
        -8.927084353100643
      ],
      [
        "▁oldugu",
        -8.010642554796114
      ],
      [
        "▁duvarı",
        -10.000630657553815
      ],
      [
        "▁sezon",
        -9.258269841991892
      ],
      [
        "▁bulunmus",
        -9.326021100154883
      ],
      [
        "▁merkezlerini",
        -10.743258898553545
      ],
      [
        "▁bilinen",
        -9.350061918629613
      ],
      [
        "▁s",
        -6.872829076261193
      ],
      [
        "▁tut",
        -7.995860866800918
      ],
      [
        "▁izle",
        -9.668297897815298
      ],
      [
        "▁tanır",
        -9.268132507547328
      ],
      [
        "mıs",
        -8.391710216656891
      ],
      [
        "▁savur",
        -9.70685412440011
      ],
      [
        "▁olacak",
        -11.091960021900691
      ],
      [
        "▁borsası'n",
        -9.241057530235617
      ],
      [
        "2'",
        -9.119381859814382
      ],
      [
        "▁olurlar",
        -8.986618617119284
      ],
      [
        "▁sok",
        -9.355294180720243
      ],
      [
        "u",
        -5.721531573000035
      ],
      [
        "▁ilacı",
        -10.243674389444237
      ],
      [
        "sini",
        -9.608480917463345
      ],
      [
        "▁yok",
        -9.494700731894037
      ],
      [
        "▁kurk",
        -10.703934150509092
      ],
      [
        "▁halka",
        -8.840954189928595
      ],
      [
        "▁araplar",
        -10.744163993121587
      ],
      [
        "▁tutarın",
        -9.434411575991886
      ],
      [
        "▁hakik",
        -9.227536132375318
      ],
      [
        "▁yudum",
        -9.491262987797654
      ],
      [
        "▁sesl",
        -8.93506935519968
      ],
      [
        "▁meydanın",
        -11.065984031353135
      ],
      [
        "▁mum",
        -7.091078631728467
      ],
      [
        "▁rutbe",
        -10.898743160634327
      ],
      [
        "nden",
        -7.654988546416117
      ],
      [
        "▁icini",
        -9.47492425952366
      ],
      [
        "▁yuklenici",
        -10.732076882936992
      ],
      [
        "▁masal",
        -9.728610222165686
      ],
      [
        "▁masajı",
        -10.757972013745393
      ],
      [
        "▁evlerin",
        -9.0833451923999
      ],
      [
        "▁okulda",
        -9.657290998278208
      ],
      [
        "▁bunun",
        -4.410861678317182
      ],
      [
        "▁perdeler",
        -10.643601917572916
      ],
      [
        "▁bagları",
        -10.389432798805617
      ],
      [
        "▁pey",
        -10.666486490450104
      ],
      [
        "guzel",
        -9.2226553352338
      ],
      [
        "▁muzigin",
        -10.651013652930747
      ],
      [
        "ville",
        -8.753945525857192
      ],
      [
        "▁dostları",
        -10.292172786949234
      ],
      [
        "uk",
        -8.422146348361904
      ],
      [
        "▁cumartesi",
        -7.617833189658602
      ],
      [
        "mın",
        -9.812213846521114
      ],
      [
        "▁ulasma",
        -10.527228290769383
      ],
      [
        "▁reisi",
        -10.589836277207615
      ],
      [
        "▁dikkatimi",
        -10.734044369306732
      ],
      [
        "vaz",
        -9.661522143028774
      ],
      [
        "▁bunları",
        -4.754133212558791
      ],
      [
        "▁muhendislik",
        -10.261144357725113
      ],
      [
        "▁unite",
        -10.767344493248114
      ],
      [
        "▁dord",
        -9.558364520552182
      ],
      [
        "▁ucus",
        -8.42758558927779
      ],
      [
        "eger",
        -6.978820968666628
      ],
      [
        "▁gordu",
        -9.718622748148043
      ],
      [
        "▁anı",
        -9.40458413568092
      ],
      [
        "az",
        -7.193482929552113
      ],
      [
        "▁ambar",
        -10.253081988950372
      ],
      [
        "sunu",
        -8.963874590352871
      ],
      [
        "▁yayını",
        -10.259392379545435
      ],
      [
        "▁doktorun",
        -9.873865391038727
      ],
      [
        "▁ulkelerde",
        -9.624661738205859
      ],
      [
        "▁sonucların",
        -9.713410433037618
      ],
      [
        "▁orada",
        -5.86959198151261
      ],
      [
        "da",
        -6.754895265353099
      ],
      [
        "▁arttı",
        -7.265346289833492
      ],
      [
        "▁houston",
        -10.898742891843618
      ],
      [
        "▁uygundu",
        -7.625087428643898
      ],
      [
        "▁eksikligi",
        -9.094389725766435
      ],
      [
        "▁erkekleri",
        -9.560828571725812
      ],
      [
        "▁bana",
        -9.03593495281123
      ],
      [
        "▁arzusu",
        -10.471976401254917
      ],
      [
        "lar",
        -7.8303096889727435
      ],
      [
        "▁phoenix'de",
        -7.104343983014943
      ],
      [
        "da",
        -9.302105454042056
      ],
      [
        "malıyı",
        -8.750599827999974
      ],
      [
        "lar",
        -8.188377922663443
      ],
      [
        "▁yeryuzunu",
        -10.754783250987726
      ],
      [
        "▁gosteri",
        -6.766674628568176
      ],
      [
        "▁imparator",
        -11.097722262426988
      ],
      [
        "▁cakar",
        -11.099104174343482
      ],
      [
        "▁inanc",
        -10.19780864511203
      ],
      [
        "▁bunda",
        -5.599372556045785
      ],
      [
        "▁kilometre",
        -10.266386545956573
      ],
      [
        "▁nargile",
        -10.895284706978561
      ],
      [
        "▁yan",
        -9.876792540938094
      ],
      [
        "▁$'",
        -8.156407493269445
      ],
      [
        "60",
        -8.095069994909434
      ],
      [
        "az",
        -8.893329897836848
      ],
      [
        "▁yardımcılıgın",
        -10.800931781508066
      ],
      [
        "▁etkiley",
        -9.426858229901232
      ],
      [
        "▁getir",
        -9.46292794095055
      ],
      [
        "▁yen'",
        -10.357683730835408
      ],
      [
        "▁ola",
        -7.060701390497842
      ],
      [
        "cuk",
        -8.66616413663259
      ],
      [
        "▁tek",
        -5.296622749586832
      ],
      [
        "▁yapıs",
        -9.263359924032226
      ],
      [
        "▁sarap",
        -9.801411797724843
      ],
      [
        "▁ho",
        -9.39963335209005
      ],
      [
        "▁bolgede",
        -9.336388430840824
      ],
      [
        "▁azar",
        -11.100150476167023
      ],
      [
        "▁doldur",
        -8.899166800972013
      ],
      [
        "▁brosur",
        -10.732154141644175
      ],
      [
        "▁sepetin",
        -11.12257519027743
      ],
      [
        "▁kadını",
        -8.85451184000446
      ],
      [
        "▁esiyor",
        -9.332472262433216
      ],
      [
        "▁gelenek",
        -10.42547243634177
      ],
      [
        "▁kasap",
        -11.100850587563409
      ],
      [
        "▁mensupları",
        -11.103010390073278
      ],
      [
        "ra",
        -8.02860155091519
      ],
      [
        "▁sansur",
        -10.255506735009977
      ],
      [
        "medigini",
        -10.362847125836657
      ],
      [
        "▁2005",
        -8.247495323524756
      ],
      [
        "▁olan",
        -5.550474496869134
      ],
      [
        "hepsi",
        -9.45073239399945
      ],
      [
        "t",
        -5.498942757749235
      ],
      [
        "▁anlat",
        -7.934107037127927
      ],
      [
        "if",
        -7.979262804391219
      ],
      [
        "▁baskanlıgında",
        -10.62355851600848
      ],
      [
        "▁harp",
        -9.25509058525592
      ],
      [
        "▁gar",
        -10.058315126092126
      ],
      [
        "▁dortlu",
        -10.950673192474586
      ],
      [
        "▁ha",
        -11.285473340523586
      ],
      [
        "▁alamadı",
        -9.276278950824342
      ],
      [
        "▁bagl",
        -6.9916458664582715
      ],
      [
        "▁yaklasımı",
        -9.537373900932492
      ],
      [
        "▁laz",
        -11.113022077002535
      ],
      [
        "▁toparlanma",
        -9.499831256528271
      ],
      [
        "west",
        -8.20326549531011
      ],
      [
        "▁dikti",
        -9.257017866893335
      ],
      [
        "▁alabilme",
        -10.162297637561203
      ],
      [
        "▁verme",
        -9.310779323424018
      ],
      [
        "▁olmayan",
        -8.383646341866276
      ],
      [
        "imdi",
        -9.79264687127618
      ],
      [
        "▁odalarda",
        -9.838838397916973
      ],
      [
        "taraf",
        -9.077581295579108
      ],
      [
        "▁gokler",
        -10.938490503259345
      ],
      [
        "▁riskleri",
[...]
