{
  "version": "1.0",
  "truncation": null,
  "padding": null,
  "added_tokens": [
    {
      "id": 2637,
      "content": "[SEP]",
      "single_word": false,
      "lstrip": false,
      "rstrip": false,
      "normalized": false,
      "special": true
    },
    {
      "id": 4299,
      "content": "[MASK]",
      "single_word": false,
      "lstrip": false,
      "rstrip": false,
      "normalized": false,
      "special": true
    },
    {
      "id": 6391,
      "content": "[UNK]",
      "single_word": false,
      "lstrip": false,
      "rstrip": false,
      "normalized": false,
      "special": true
    },
    {
      "id": 8854,
      "content": "[PAD]",
      "single_word": false,
      "lstrip": false,
      "rstrip": false,
      "normalized": false,
      "special": true
    },
    {
      "id": 10353,
      "content": "[CLS]",
      "single_word": false,
      "lstrip": false,
      "rstrip": false,
      "normalized": false,
      "special": true
    }
  ],
  "normalizer": {
    "type": "Sequence",
    "normalizers": [
      {
        "type": "NFD"
      },
      {
        "type": "Lowercase"
      },
      {
        "type": "StripAccents"
      }
    ]
  },
  "pre_tokenizer": {
    "type": "Sequence",
    "pretokenizers": [
      {
        "type": "Metaspace",
        "replacement": "▁",
        "prepend_scheme": "always",
        "split": true
      }
    ]
  },
  "post_processor": {
    "type": "TemplateProcessing",
    "single": [
      {
        "SpecialToken": {
          "id": "[CLS]",
          "type_id": 0
        }
      },
      {
        "Sequence": {
          "id": "A",
          "type_id": 0
        }
      },
      {
        "SpecialToken": {
          "id": "[SEP]",
          "type_id": 0
        }
      }
    ],
    "pair": [
      {
        "SpecialToken": {
          "id": "[CLS]",
          "type_id": 0
        }
      },
      {
        "Sequence": {
          "id": "A",
          "type_id": 0
        }
      },
      {
        "SpecialToken": {
          "id": "[SEP]",
          "type_id": 0
        }
      },
      {
        "Sequence": {
          "id": "B",
          "type_id": 1
        }
      },
      {
        "SpecialToken": {
          "id": "[SEP]",
          "type_id": 1
        }
      }
    ],
    "special_tokens": {
      "[CLS]": {
        "id": "[CLS]",
        "ids": [
          10353
        ],
        "tokens": [
          "[CLS]"
        ]
      },
      "[SEP]": {
        "id": "[SEP]",
        "ids": [
          2637
        ],
        "tokens": [
          "[SEP]"
        ]
      }
    }
  },
  "decoder": {
    "type": "Metaspace",
    "replacement": "▁",
    "prepend_scheme": "always",
    "split": true
  },
  "model": {
    "type": "WordPiece",
    "unk_token": "[UNK]",
    "continuing_subword_prefix": "##",
    "max_input_chars_per_word": 100,
    "vocab": {
      "▁gunlerin": 0,
      "▁olacaktır": 1,
      "▁itibari": 2,
      "▁etmez": 3,
      "▁avrupa": 4,
      "▁ların": 5,
      "▁ciro": 6,
      "▁pozisyonları": 7,
      "▁odanin": 8,
      "▁dersiniz": 9,
      "▁acente": 10,
      "▁kamyona": 11,
      "▁muhafazakar": 12,
      "▁sayede": 13,
      "▁dort": 14,
      "▁metni": 15,
      "▁california": 16,
      "▁kırmızı": 17,
      "▁hav": 18,
      "▁ydim": 19,
      "##sızlıga": 20,
      "##tal": 21,
      "##yal": 22,
      "▁tebessum": 23,
      "▁yasayıs": 24,
      "▁yavru": 25,
      "▁seher": 26,
      "▁kolu": 27,
      "##cılarının": 28,
      "##dasını": 29,
      "▁memur": 30,
      "▁almanlar": 31,
      "▁pahali": 32,
      "▁olagan": 33,
      "▁bec": 34,
      "▁sırtında": 35,
      "▁camı": 36,
      "▁akr": 37,
      "##yım": 38,
      "##.125": 39,
      "##ah": 40,
      "##eller": 41,
      "▁calisanlari": 42,
      "▁pekala": 43,
      "▁ilacı": 44,
      "▁hicbir": 45,
      "▁gogsu": 46,
      "▁kendilerinin": 47,
      "▁mustafa": 48,
      "▁profesyon": 49,
      "▁meze": 50,
      "▁haykır": 51,
      "▁kesf": 52,
      "▁bilezik": 53,
      "▁ilgisi": 54,
      "▁ellerinde": 55,
      "▁bulunuyor": 56,
      "▁guvencesi": 57,
      "▁okuy": 58,
      "▁sakız": 59,
      "▁boz": 60,
      "▁bitmis": 61,
      "▁roman": 62,
      "▁sampiyon": 63,
      "▁gelmeye": 64,
      "▁teneff": 65,
      "##gili": 66,
      "▁halb": 67,
      "▁kıyı": 68,
      "▁dengesi": 69,
      "▁basmak": 70,
      "▁tasarısını": 71,
      "▁servisten": 72,
      "▁hisseyle": 73,
      "▁teklifler": 74,
      "▁namus": 75,
      "##yon": 76,
      "▁hatirlamiyorum": 77,
      "▁pervan": 78,
      "▁onunden": 79,
      "▁oglunun": 80,
      "▁esim": 81,
      "▁zamanı": 82,
      "▁gonder": 83,
      "##ıver": 84,
      "▁destekl": 85,
      "▁cır": 86,
      "▁yapıyorlar": 87,
      "▁toprakları": 88,
      "▁uyelig": 89,
      "▁penc": 90,
      "▁redde": 91,
      "▁gencin": 92,
      "##esli": 93,
      "g": 94,
      "▁deftere": 95,
      "▁louis'e": 96,
      "##gimiz": 97,
      "▁seh": 98,
      "##be": 99,
      "▁bina": 100,
      "▁bucuk": 101,
      "▁basarısı": 102,
      "##lattı": 103,
      "▁konser": 104,
      "##manlar": 105,
      "▁ediyordu": 106,
      "##udu": 107,
      "▁gobek": 108,
      "▁bakanlıgı'nın": 109,
      "▁pilak": 110,
      "▁yaptıklarını": 111,
      "##ek": 112,
      "▁ner": 113,
      "##mis": 114,
      "▁fiyati": 115,
      "▁onceden": 116,
      "▁francisco": 117,
      "▁baskanı": 118,
      "##esil": 119,
      "##anma": 120,
      "▁islemleri": 121,
      "##metli": 122,
      "▁turist": 123,
      "▁demis": 124,
      "▁yasaların": 125,
      "▁sırayla": 126,
      "▁miydi": 127,
      "▁bulbul": 128,
      "##ket": 129,
      "▁geriledi": 130,
      "▁kadında": 131,
      "▁ted": 132,
      "▁bog": 133,
      "##io": 134,
      "▁hastanede": 135,
      "▁ornegi": 136,
      "▁blok": 137,
      "▁karsilama": 138,
      "▁kasabadan": 139,
      "▁alması": 140,
      "▁di": 141,
      "▁havlu": 142,
      "##emmel": 143,
      "▁talim": 144,
      "▁maf": 145,
      "▁kooperatif": 146,
      "▁kırık": 147,
      "▁olanaklarını": 148,
      "▁milyara": 149,
      "▁tokyo": 150,
      "▁burnu": 151,
      "▁yukseltti": 152,
      "▁surdugunu": 153,
      "##egi": 154,
      "▁sizinle": 155,
      "▁maydanoz": 156,
      "▁toplamaya": 157,
      "##mistim": 158,
      "▁ulasımı": 159,
      "▁memnunum": 160,
      "##onto": 161,
      "##ebilecek": 162,
      "▁dolarda": 163,
      "##ılacak": 164,
      "##-hisse": 165,
      "▁mevzuatı": 166,
      "▁kemanla": 167,
      "▁pasap": 168,
      "##lılara": 169,
      "▁yapıyor": 170,
      "▁acıkca": 171,
      "▁kızgın": 172,
      "##dokuz": 173,
      "##otlar": 174,
      "▁yogun": 175,
      "▁bolgenin": 176,
      "▁degist": 177,
      "▁arabasıyla": 178,
      "▁rus": 179,
      "##lemeyi": 180,
      "▁nashville": 181,
      "▁ticaretinde": 182,
      "##must": 183,
      "▁arkadasim": 184,
      "##istirdi": 185,
      "▁oy": 186,
      "▁aksi": 187,
      "▁golf": 188,
      "▁calismasi": 189,
      "##lılık": 190,
      "▁nohut": 191,
      "##icinin": 192,
      "▁karakter": 193,
      "▁kalitesini": 194,
      "▁nokt": 195,
      "▁yok": 196,
      "▁lim": 197,
      "▁mulkiyeti": 198,
      "##ılı": 199,
      "▁birbirleri": 200,
      "▁vot": 201,
      "▁cıkmadı": 202,
      "▁mek": 203,
      "▁olasılıkla": 204,
      "▁kasket": 205,
      "▁ayakkab": 206,
      "▁lan": 207,
      "##landıgında": 208,
      "##imizde": 209,
      "▁senar": 210,
      "▁aklımdan": 211,
      "▁gelmesini": 212,
      "##iyeri": 213,
      "▁keyfini": 214,
      "▁dolara": 215,
      "▁zan": 216,
      "▁saniye": 217,
      "▁ansiklop": 218,
      "##nız": 219,
      "▁e": 220,
      "▁duvarda": 221,
      "▁tadına": 222,
      "▁universitesi'nde": 223,
      "##ınca": 224,
      "▁kusuru": 225,
      "▁sonunda": 226,
      "▁olmustur": 227,
      "▁fez": 228,
      "##org": 229,
      "##ab": 230,
      "▁toplam": 231,
      "▁americ": 232,
      "##ile": 233,
      "##ener": 234,
      "▁dustu": 235,
      "▁aracılar": 236,
      "▁york": 237,
      "▁geldik": 238,
      "##ilige": 239,
      "##acagını": 240,
      "▁turkiye'nin": 241,
      "▁yetisk": 242,
      "##abilmek": 243,
      "▁geleneksel": 244,
      "##larca": 245,
      "##mesinin": 246,
      "▁gorunus": 247,
      "▁efsanesi": 248,
      "▁indirim": 249,
      "▁bulunan": 250,
      "▁cumhuriyetcilerin": 251,
      "##rlikte": 252,
      "▁yuzbası": 253,
      "▁temas": 254,
      "▁ortada": 255,
      "▁satranc": 256,
      "##b.": 257,
      "▁donmek": 258,
      "▁mamafih": 259,
      "▁turev": 260,
      "▁saygıyla": 261,
      "##30": 262,
      "▁yurutme": 263,
      "▁milletten": 264,
      "▁apart": 265,
      "▁lira": 266,
      "▁united": 267,
      "▁tampa": 268,
      "▁kolon": 269,
      "▁bakmak": 270,
      "##bulans": 271,
      "▁diger": 272,
      "▁edecegiz": 273,
      "##miyor": 274,
      "▁serbest": 275,
      "▁gor": 276,
      "▁sevgiyi": 277,
      "▁kayg": 278,
      "▁makal": 279,
      "##59": 280,
      "▁kristal": 281,
      "▁yuklen": 282,
      "▁ebeveyn": 283,
      "##layıcı": 284,
      "▁3/8": 285,
      "##eyr": 286,
      "▁kalktı": 287,
      "▁dahası": 288,
      "▁namaz": 289,
      "▁dayanıs": 290,
      "▁ogrenciler": 291,
      "▁avaz": 292,
      "▁balıklar": 293,
      "▁komisyonu'nun": 294,
      "▁cehalet": 295,
      "▁stratej": 296,
      "▁amaca": 297,
      "▁cuzdanı": 298,
      "▁dogu": 299,
      "▁cant": 300,
      "▁kaza": 301,
      "▁karp": 302,
      "▁eksikler": 303,
      "▁fiyatları": 304,
      "##maktadırlar": 305,
      "▁annesinin": 306,
      "▁klas": 307,
      "▁kavus": 308,
      "▁sakaya": 309,
      "▁oldukca": 310,
      "##hane": 311,
      "▁pencere": 312,
      "▁almıstı": 313,
      "▁cip": 314,
      "▁olsun": 315,
      "▁ortamı": 316,
      "▁dogrudan": 317,
      "▁kayanın": 318,
      "▁ayaklarının": 319,
      "▁51": 320,
      "▁suratı": 321,
      "##latır": 322,
      "##aları": 323,
      "##sekse": 324,
      "▁cakı": 325,
      "▁oldugunda": 326,
      "▁karsı": 327,
      "▁rengini": 328,
      "##akende": 329,
      "▁seyinden": 330,
      "▁sertifikaları": 331,
      "##tıl": 332,
      "##sk": 333,
      "▁kilometre": 334,
      "▁sabun": 335,
      "▁bugun": 336,
      "▁iken": 337,
      "▁koltuklar": 338,
      "▁yaptılar": 339,
      "▁fas": 340,
      "▁vermeyi": 341,
      "▁gozlerimden": 342,
      "▁kulubu": 343,
      "▁hissedarların": 344,
      "▁uzak": 345,
      "▁3.6": 346,
      "##antr": 347,
      "▁kitaptan": 348,
      "▁kıc": 349,
      "▁kag": 350,
      "▁den": 351,
      "▁manzarasi": 352,
      "##6'sı": 353,
      "##ergah": 354,
      "▁icraat": 355,
      "▁yunus": 356,
      "▁heyeti": 357,
      "▁adliye": 358,
      "▁tuketic": 359,
      "▁dusurmek": 360,
      "▁malın": 361,
      "▁bitki": 362,
      "▁valilik": 363,
      "▁gecit": 364,
      "▁varması": 365,
      "▁isterdim": 366,
      "▁kahvede": 367,
      "▁kapadı": 368,
      "▁damla": 369,
      "▁dram": 370,
      "▁aileler": 371,
      "▁aklım": 372,
      "▁ilc": 373,
      "▁fonlar": 374,
      "▁acıklamayı": 375,
      "▁ep": 376,
      "##kan": 377,
      "▁oldugun": 378,
      "▁yemeye": 379,
      "▁pab": 380,
      "▁tatil": 381,
      "▁sıg": 382,
      "##giniz": 383,
      "▁telgraf": 384,
      "▁turdan": 385,
      "##dıgını": 386,
      "▁cumhuriyetciler": 387,
      "▁revizyon": 388,
      "▁dilim": 389,
      "▁mavisi": 390,
      "▁gosterileri": 391,
      "▁sezlong": 392,
      "▁sıra": 393,
      "▁isten": 394,
      "▁varlıgı": 395,
      "▁gucunu": 396,
      "▁tasfiye": 397,
      "▁dusmeye": 398,
      "##itti": 399,
      "▁omrunun": 400,
      "▁alıyordu": 401,
      "▁hisselerin": 402,
      "▁buyuklerin": 403,
      "▁santimetre": 404,
      "▁ens": 405,
      "▁lavan": 406,
      "▁lob": 407,
      "##dalı": 408,
      "▁tedavul": 409,
      "▁etkinlik": 410,
      "##eysel": 411,
      "▁kendilerinden": 412,
      "▁vilayet": 413,
      "▁gom": 414,
      "▁sak": 415,
      "▁1989": 416,
      "▁trafigi": 417,
      "▁savunma": 418,
      "▁mill": 419,
      "▁mustes": 420,
      "▁yardımcıs": 421,
      "▁kum": 422,
      "▁gecir": 423,
      "▁soguktu": 424,
      "▁dairesi": 425,
      "▁uste": 426,
      "▁tank": 427,
      "▁saatleri": 428,
      "##lılıg": 429,
      "▁catal": 430,
      "▁mıy": 431,
      "▁degerlendir": 432,
      "▁atıf": 433,
      "▁simdilik": 434,
      "▁numar": 435,
      "##ekti": 436,
      "▁meslektas": 437,
      "▁soganı": 438,
      "##'ya": 439,
      "▁mektupta": 440,
      "▁rehberi": 441,
      "▁darb": 442,
      "▁cıkacak": 443,
      "▁bilgiye": 444,
      "▁ustur": 445,
      "▁tereyagı": 446,
      "▁alım-satım": 447,
      "▁atolye": 448,
      "▁nefes": 449,
      "▁bagr": 450,
      "▁iltif": 451,
      "▁yanıtını": 452,
      "▁1986": 453,
      "▁dalı": 454,
      "##o'nun": 455,
      "▁acele": 456,
      "▁ın": 457,
      "##enler": 458,
      "▁hesapları": 459,
      "▁nitelikte": 460,
      "▁liradan": 461,
      "▁ayrık": 462,
      "▁soluc": 463,
      "▁mumk": 464,
      "▁depo": 465,
      "▁yollar": 466,
      "▁silahlar": 467,
      "▁gosterdi": 468,
      "▁depr": 469,
      "▁pantol": 470,
      "▁54": 471,
      "▁dusmesi": 472,
      "▁memlekette": 473,
      "##uzel": 474,
      "▁cilt": 475,
      "▁edilecek": 476,
      "▁mak": 477,
      "##leriyle": 478,
      "##gal": 479,
      "▁isletmesi": 480,
      "##0'a": 481,
      "##ack": 482,
      "##ast": 483,
      "##ıktan": 484,
      "▁ceyreginde": 485,
      "▁...\"": 486,
      "▁baglar": 487,
      "▁cezasına": 488,
      "▁mucevher": 489,
      "##imet": 490,
      "▁benzet": 491,
      "▁birc": 492,
      "▁lisansını": 493,
      "▁misafirin": 494,
      "▁aramız": 495,
      "▁rum": 496,
      "▁planim": 497,
      "##or": 498,
      "▁geceleri": 499,
      "▁hangi": 500,
      "##kav": 501,
      "▁cehr": 502,
      "▁acılıs": 503,
      "▁ulası": 504,
      "##iyor": 505,
      "▁ogretmenleri": 506,
      "##lanab": 507,
      "▁gogsune": 508,
      "##lamam": 509,
      "##esmen": 510,
      "##amın": 511,
      "▁ic": 512,
      "▁alnının": 513,
      "▁bakımdan": 514,
      "##ader": 515,
      "▁tansiyon": 516,
      "##acıkta": 517,
      "▁kitaba": 518,
      "▁cıkarmak": 519,
      "c": 520,
      "##lıgımı": 521,
      "▁yasamının": 522,
      "▁vucudunu": 523,
      "▁bogaz": 524,
      "▁vakt": 525,
      "▁cincinnati'den": 526,
      "▁degerleri": 527,
      "▁hassas": 528,
      "▁eks": 529,
      "##10": 530,
      "▁gunumuz": 531,
      "▁dilin": 532,
      "▁cıktıgını": 533,
      "▁engelliler": 534,
      "▁buyumesini": 535,
      "▁benzer": 536,
      "##dam": 537,
      "▁icermektedir": 538,
      "▁konsol": 539,
      "▁kazandım": 540,
      "##'li": 541,
      "▁ucuyor": 542,
      "▁lik": 543,
      "▁pervane": 544,
      "##ımla": 545,
      "▁konforu": 546,
      "▁askere": 547,
      "▁oturmus": 548,
      "##5'ten": 549,
      "▁sarkılar": 550,
      "▁icindir": 551,
      "▁lyn": 552,
      "##fes": 553,
      "▁yonunu": 554,
      "▁kahveler": 555,
      "▁kırıklıgına": 556,
      "▁gogus": 557,
      "▁biriyle": 558,
      "▁durumunda": 559,
      "##asır": 560,
      "##atıcı": 561,
      "##deydi": 562,
      "##elektr": 563,
      "▁degerini": 564,
      "▁ba": 565,
      "▁nazır": 566,
      "▁tabl": 567,
      "▁yalancı": 568,
      "▁beb": 569,
      "▁karsil": 570,
      "##uar": 571,
      "▁hasıl": 572,
      "▁krizinden": 573,
      "8": 574,
      "▁romanc": 575,
      "▁mor": 576,
      "##ur": 577,
      "##aslı": 578,
      "▁cer": 579,
      "▁miktar": 580,
      "##alarına": 581,
      "▁lod": 582,
      "▁ihtiyaci": 583,
      "▁yazarlık": 584,
      "▁egitimi": 585,
      "▁kaybedenleri": 586,
      "▁bayramı": 587,
      "▁boslukta": 588,
      "##ıldım": 589,
      "▁parcalara": 590,
      "▁portakal": 591,
      "▁yuregi": 592,
      "▁yerlestir": 593,
      "▁armagan": 594,
      "##ada": 595,
      "##dıklarını": 596,
      "▁contin": 597,
      "▁gotur": 598,
      "▁gelismeler": 599,
      "▁getirmis": 600,
      "▁havanın": 601,
      "##ıverdi": 602,
      "▁oldug": 603,
      "▁endustr": 604,
      "##ittir": 605,
      "▁sonra": 606,
      "▁guzele": 607,
      "▁kartı": 608,
      "##lerimizden": 609,
      "##ub": 610,
      "▁oku": 611,
      "▁basına": 612,
      "▁yuvarlak": 613,
      "##larımızı": 614,
      "▁niteliginde": 615,
      "##arına": 616,
      "##ag": 617,
      "▁oturup": 618,
      "▁dum": 619,
      "▁koylulerin": 620,
      "▁mikro": 621,
      "▁hi": 622,
      "▁sampanya": 623,
      "▁sekret": 624,
      "##endi": 625,
      "▁sahib": 626,
      "##zen": 627,
      "▁adina": 628,
      "▁mevzu": 629,
      "▁egz": 630,
      "▁koluna": 631,
      "▁yazılar": 632,
      "▁calıstıklarını": 633,
      "▁nu": 634,
      "▁rıh": 635,
      "▁kayısı": 636,
      "##alandır": 637,
      "##iyorlardi": 638,
      "5": 639,
      "▁kodu": 640,
      "▁saka": 641,
      "▁onayı": 642,
      "▁mendil": 643,
      "▁elle": 644,
      "▁saldırgan": 645,
      "▁pahal": 646,
      "▁nesil": 647,
      "▁bi": 648,
      "##ımız": 649,
      "▁sad": 650,
      "▁sube": 651,
      "▁yurek": 652,
      "▁babası": 653,
      "▁sektorunde": 654,
      "▁boynu": 655,
      "▁bed": 656,
      "▁karsıl": 657,
      "▁yuk": 658,
      "##tik": 659,
      "▁kotuydu": 660,
      "▁diyet": 661,
      "▁lor": 662,
      "▁sunu": 663,
      "▁bilegini": 664,
      "▁gavur": 665,
      "▁vah": 666,
      "▁corp": 667,
      "▁lig": 668,
      "▁kuması": 669,
      "▁aptal": 670,
      "▁tavsiy": 671,
      "▁olayla": 672,
      "▁yag": 673,
      "##inn": 674,
      "▁yapılıyor": 675,
      "##ılmıstı": 676,
      "▁motorun": 677,
      "▁tavsiyesi": 678,
      "##eger": 679,
      "▁kucak": 680,
      "▁gezer": 681,
      "▁huner": 682,
      "▁donuyor": 683,
      "##ugunde": 684,
      "▁cıkısı": 685,
      "▁ilkeleri": 686,
      "▁heyet": 687,
      "▁verilmesi": 688,
      "▁onundeki": 689,
      "▁ustası": 690,
      "▁hibe": 691,
      "▁saclarının": 692,
      "▁akım": 693,
      "▁olmasına": 694,
      "▁annesine": 695,
      "▁naz": 696,
      "▁``": 697,
      "##medig": 698,
      "##gıc": 699,
      "▁denir": 700,
      "▁aktif": 701,
      "▁konusuyor": 702,
      "▁los": 703,
      "▁'": 704,
      "▁yillardir": 705,
      "▁alıyorlar": 706,
      "▁il": 707,
      "##d": 708,
      "▁durus": 709,
      "▁ruyalar": 710,
      "▁masanın": 711,
      "▁izm": 712,
      "▁tuttum": 713,
      "▁karanlık": 714,
      "▁en": 715,
      "▁%7": 716,
      "▁akın": 717,
      "▁street": 718,
      "▁pot": 719,
      "##sman": 720,
      "▁cıktıktan": 721,
      "▁oranlarını": 722,
      "▁dogdu": 723,
      "▁%2": 724,
      "▁degerlerin": 725,
      "▁tablolar": 726,
      "▁gunde": 727,
      ":": 728,
      "▁prov": 729,
      "▁daglarda": 730,
      "▁seyden": 731,
      "▁huy": 732,
      "▁zamanla": 733,
      "▁balıkcılık": 734,
      "▁daireleri": 735,
      "▁ard": 736,
      "▁yolculuk": 737,
      "▁sebze": 738,
      "▁yenden": 739,
      "▁mukemm": 740,
      "##eyim": 741,
      "##ımın": 742,
      "▁ilet": 743,
      "▁gosterisi": 744,
      "▁konusmasını": 745,
      "▁banyo": 746,
      "▁yapması": 747,
      "▁kurumlar": 748,
      "▁yapılmıs": 749,
      "##lıgıma": 750,
      "▁hatıraları": 751,
      "##idi": 752,
      "▁siir": 753,
      "▁kaynaklar": 754,
      "▁hamur": 755,
      "▁efsan": 756,
      "▁goruyordu": 757,
      "▁aksamları": 758,
      "##aklı": 759,
      "##rı": 760,
      "▁sp": 761,
      "##emb": 762,
      "##akal": 763,
      "▁birbirimiz": 764,
      "▁ediyoruz": 765,
      "▁arab": 766,
      "▁itaat": 767,
      "▁kambiyo": 768,
      "▁kurumun": 769,
      "▁minimini": 770,
      "▁anlasmanın": 771,
      "▁sorun": 772,
      "▁fah": 773,
      "▁intikam": 774,
      "▁yon": 775,
      "##unce": 776,
      "▁kati": 777,
      "##tıkları": 778,
      "▁mukelle": 779,
      "##isi": 780,
      "▁davaları": 781,
      "▁ucusların": 782,
      "▁aramıza": 783,
      "##ını": 784,
      "##abıyla": 785,
      "##ugune": 786,
      "▁kanalı": 787,
      "▁odemesi": 788,
      "▁muhend": 789,
      "!": 790,
      "▁klim": 791,
      "▁keb": 792,
      "▁kurumların": 793,
      "▁plaj": 794,
      "▁pay": 795,
      "##vet": 796,
      "▁unsur": 797,
      "…": 798,
      "▁durumlarda": 799,
      "▁ulasım": 800,
      "##lıcı": 801,
      "▁55": 802,
      "▁huv": 803,
      "▁vef": 804,
      "▁dusman": 805,
      "▁dc'ye": 806,
      "▁guv": 807,
      "▁cama": 808,
      "▁zamanlarda": 809,
      "▁kucagında": 810,
      "##ems": 811,
      "▁ellerim": 812,
      "▁onayladı": 813,
      "▁korku": 814,
      "▁kıvır": 815,
      "▁ikti": 816,
      "▁davayı": 817,
      "▁sorununu": 818,
      "▁tavuklar": 819,
      "##;": 820,
      "##'unu": 821,
      "▁sanız": 822,
      "▁teklifine": 823,
      "▁vaktini": 824,
      "##iyorlardı": 825,
      "▁loca": 826,
      "▁idareye": 827,
      "##esim": 828,
      "▁sonda": 829,
      "▁izley": 830,
      "##cıyı": 831,
      "▁bib": 832,
      "▁mucadele": 833,
      "##likte": 834,
      "▁mı": 835,
      "▁uyeye": 836,
      "▁seye": 837,
      "▁butu": 838,
      "▁gozuk": 839,
      "▁arttıgını": 840,
      "▁bur": 841,
      "▁ucusunda": 842,
      "▁takımın": 843,
      "##adına": 844,
      "▁sorunlar": 845,
      "▁calıs": 846,
      "▁sonucunda": 847,
      "▁washington'a": 848,
      "▁bulten": 849,
      "##culuk": 850,
      "##eceklerini": 851,
      "▁amiri": 852,
      "##verdi": 853,
      "▁duyuyorum": 854,
      "##ikli": 855,
      "▁kendimiz": 856,
      "##sacak": 857,
      "##iyetini": 858,
      "▁gulums": 859,
      "▁tem": 860,
      "▁yuzu": 861,
      "▁yasamı": 862,
      "##inizde": 863,
      "▁oak": 864,
      "▁iskele": 865,
      "##atmak": 866,
      "▁tatilde": 867,
      "▁dr.": 868,
      "▁olcut": 869,
      "▁sermaye": 870,
      "▁evinden": 871,
      "▁universiteye": 872,
      "▁partisi": 873,
      "▁edilmis": 874,
      "▁albumu": 875,
      "▁turkce": 876,
      "▁koskun": 877,
      "▁zul": 878,
      "##kika": 879,
      "▁kiz": 880,
      "▁bıraktı": 881,
      "▁kagıda": 882,
      "▁istah": 883,
      "▁odasına": 884,
      "▁doz": 885,
      "▁tezk": 886,
      "▁ertelen": 887,
      "+": 888,
      "▁deneyimi": 889,
      "▁10'dan": 890,
      "▁kepenk": 891,
      "▁50'": 892,
      "▁ro": 893,
      "▁zek": 894,
      "▁listeleyebilir": 895,
      "▁demiryol": 896,
      "▁oburu": 897,
      "▁kartel": 898,
      "▁ayda": 899,
      "▁airlines": 900,
      "▁buny": 901,
      "▁itiraf": 902,
      "##cep": 903,
      "▁inceleme": 904,
      "▁sablon": 905,
      "##macı": 906,
      "##uv": 907,
      "▁agzına": 908,
      "##makıllı": 909,
      "▁pa": 910,
      "▁gosterg": 911,
      "▁belirsizlik": 912,
      "##esemdi": 913,
      "▁spekulasyonlar": 914,
      "▁oden": 915,
      "▁fikri": 916,
      "##ner": 917,
      "##siz": 918,
      "##alama": 919,
      "▁inziv": 920,
      "▁kızdır": 921,
      "▁babasına": 922,
      "▁veremem": 923,
      "##elin": 924,
      "▁alıcı": 925,
      "▁emir": 926,
      "##tus": 927,
      "▁mustesar": 928,
      "▁havaliman": 929,
      "▁filmin": 930,
      "▁washington'dan": 931,
      "▁surpriz": 932,
      "##ti": 933,
      "##artım": 934,
      "▁sonuclar": 935,
      "##mustur": 936,
      "##pe": 937,
      "▁muhtac": 938,
      "##legen": 939,
      "##ilmesini": 940,
      "▁temsilcisi": 941,
      "▁sopa": 942,
      "▁odalari": 943,
      "##meyecek": 944,
      "##tim": 945,
      "▁gencler": 946,
      "▁or": 947,
      "▁yararlı": 948,
      "▁ydi": 949,
      "▁ister": 950,
      "▁mesajı": 951,
      "▁yazmaya": 952,
      "▁isaretler": 953,
      "▁gerec": 954,
      "▁ilgiliydiler": 955,
      "▁babamın": 956,
      "▁bekledigini": 957,
      "▁yonetiminde": 958,
      "▁olusu": 959,
      "▁fık": 960,
      "##sinde": 961,
      "##eceksin": 962,
      "##asıl": 963,
      "▁kon": 964,
      "▁asagıda": 965,
      "##edef": 966,
      "▁girisimler": 967,
      "▁nuk": 968,
      "##lam": 969,
      "▁cumle": 970,
      "▁kardeslik": 971,
      "##alın": 972,
      "▁baskalarına": 973,
      "▁gorusmelerin": 974,
      "▁ortalamaydi": 975,
      "▁panige": 976,
      "▁ortusu": 977,
      "▁mutlu": 978,
      "▁sokaklara": 979,
      "▁meselesi": 980,
      "▁talimat": 981,
      "##isco": 982,
      "##o": 983,
      "▁mask": 984,
      "##macalar": 985,
      "##lerisi": 986,
      "##ik": 987,
      "▁neyse": 988,
      "▁dert": 989,
      "▁alanın": 990,
      "▁ozellikleri": 991,
      "##msal": 992,
      "▁sarkıyı": 993,
      "▁merdiven": 994,
      "▁cih": 995,
      "▁tamam": 996,
      "▁organı": 997,
      "▁fakul": 998,
      "▁atlanta": 999,
      "▁ayse": 1000,
      "▁nar": 1001,
      "▁soyluyor": 1002,
      "##urken": 1003,
      "##ersiz": 1004,
      "▁yazarlarının": 1005,
      "##mısım": 1006,
      "▁sitem": 1007,
      "▁kasık": 1008,
      "▁koruma": 1009,
      "▁kıymet": 1010,
      "▁sucu": 1011,
      "##icisi": 1012,
      "▁memnuniyet": 1013,
      "▁menkul": 1014,
      "▁kisi": 1015,
      "▁baglan": 1016,
      "▁sacları": 1017,
      "##lular": 1018,
      "##inc": 1019,
      "▁maz": 1020,
      "▁duyar": 1021,
      "▁diego'dan": 1022,
      "##sıp": 1023,
      "▁daya": 1024,
      "▁dair": 1025,
      "▁spekulator": 1026,
      "##seniz": 1027,
      "##ınt": 1028,
      "##ıklarını": 1029,
      "▁hayali": 1030,
      "▁halıları": 1031,
      "##eri": 1032,
      "##desine": 1033,
      "##umlu": 1034,
      "▁sırada": 1035,
      "▁omzuna": 1036,
      "▁simgesi": 1037,
      "▁verdim": 1038,
      "▁yolunu": 1039,
      "▁dosyada": 1040,
      "▁keyifli": 1041,
      "▁kileri": 1042,
      "▁kubb": 1043,
      "▁farkı": 1044,
      "▁merak": 1045,
      "▁getirilerin": 1046,
      "▁kurus": 1047,
      "▁las": 1048,
      "##aben": 1049,
      "▁onsu": 1050,
      "▁topa": 1051,
      "▁hakika": 1052,
      "▁nobet": 1053,
      "▁spot": 1054,
      "▁seattle": 1055,
      "▁dola": 1056,
      "##anıt": 1057,
      "##emedik": 1058,
      "▁fırsatı": 1059,
      "##mayla": 1060,
      "▁istiyorlar": 1061,
      "▁nav": 1062,
      "▁araplar": 1063,
      "▁temmuz": 1064,
      "##emeye": 1065,
      "▁yonetimler": 1066,
      "▁tadı": 1067,
      "##amızı": 1068,
      "▁isminde": 1069,
      "▁edebiyat": 1070,
      "##ond": 1071,
      "▁surecte": 1072,
      "▁magdur": 1073,
      "▁girisimi": 1074,
      "▁ipotek": 1075,
      "▁bagımlılık": 1076,
      "▁musa": 1077,
      "▁islerinde": 1078,
      "▁sektoru": 1079,
      "##usunu": 1080,
      "▁yemekte": 1081,
      "▁pam": 1082,
      "##osunun": 1083,
      "▁senetlerinin": 1084,
      "▁tuh": 1085,
      "▁mevki": 1086,
      "▁sovyetler": 1087,
      "▁cıkmıs": 1088,
      "▁askeri": 1089,
      "##mafi": 1090,
      "▁hurriyet": 1091,
      "##tam": 1092,
      "▁apartmana": 1093,
      "▁fot": 1094,
      "▁catısma": 1095,
      "▁tedbiri": 1096,
      "▁aleme": 1097,
      "▁parcalar": 1098,
      "##ısıklı": 1099,
      "▁ihracatı": 1100,
      "##lob": 1101,
      "▁zorunlu": 1102,
      "##len": 1103,
      "▁pamuk": 1104,
      "▁dususten": 1105,
      "▁hokkabaz": 1106,
      "▁kara": 1107,
      "##lugun": 1108,
      "▁diego'ya": 1109,
      "▁prim": 1110,
      "▁kuvvetin": 1111,
      "##kı": 1112,
      "▁cid": 1113,
      "▁kalkın": 1114,
      "▁kilim": 1115,
      "▁balıkcı": 1116,
      "▁grupların": 1117,
      "▁doktorlar": 1118,
      "##ulmus": 1119,
      "##satı": 1120,
      "▁astı": 1121,
      "▁teblig": 1122,
      "▁refakat": 1123,
      "▁iliskinin": 1124,
      "▁ti": 1125,
      "▁bana": 1126,
      "▁annesi": 1127,
      "▁carsaflar": 1128,
      "▁arif": 1129,
      "##ehir": 1130,
      "##dırdı": 1131,
      "##indedir": 1132,
      "6": 1133,
      "▁dır": 1134,
      "▁yumruk": 1135,
      "▁asama": 1136,
      "▁talihsizlik": 1137,
      "▁metrek": 1138,
      "▁pit": 1139,
      "##7'de": 1140,
      "▁birligi'nin": 1141,
      "##alan": 1142,
      "##tigine": 1143,
      "▁cekic": 1144,
      "▁sınıfa": 1145,
      "▁endiseler": 1146,
      "▁modeller": 1147,
      "##cuya": 1148,
      "▁yorgunluktan": 1149,
      "▁etmekte": 1150,
      "##guluyor": 1151,
      "▁havuc": 1152,
      "##eligi": 1153,
      "##gec": 1154,
      "##lıg": 1155,
      "▁barda": 1156,
      "##s": 1157,
      "▁dusecegini": 1158,
      "##'la": 1159,
      "▁buyukel": 1160,
      "▁diken": 1161,
      "##uyen": 1162,
      "▁dekorasyonu": 1163,
      "▁yasamında": 1164,
      "##oeni": 1165,
      "▁kaydet": 1166,
      "▁gelin": 1167,
      "▁teknolojiye": 1168,
      "##+": 1169,
      "▁yumurt": 1170,
      "▁lev": 1171,
      "##ugunu": 1172,
      "▁must": 1173,
      "▁sadakat": 1174,
      "##lum": 1175,
      "▁olay": 1176,
      "##imen": 1177,
      "▁tanr": 1178,
      "▁oncesine": 1179,
      "▁dilinden": 1180,
      "▁soylesi": 1181,
      "▁ahen": 1182,
      "▁yorgun": 1183,
      "▁telefonun": 1184,
      "▁airlin": 1185,
      "▁ipin": 1186,
      "▁yep": 1187,
      "▁seferinde": 1188,
      "##kik": 1189,
      "▁cagır": 1190,
      "▁durumunun": 1191,
      "▁numara": 1192,
      "##layabilir": 1193,
      "##oks": 1194,
      "##ikler": 1195,
      "▁kims": 1196,
      "▁depremde": 1197,
      "▁hapishane": 1198,
      "▁soygun": 1199,
      "▁kudret": 1200,
      "▁isaretleri": 1201,
      "▁kopuk": 1202,
      "▁mahp": 1203,
      "▁muy": 1204,
      "##abele": 1205,
      "▁ziy": 1206,
      "▁sahilde": 1207,
      "▁sirketlerin": 1208,
      "▁savundu": 1209,
      "▁mevcuttur": 1210,
      "##el": 1211,
      "▁kilit": 1212,
      "▁gecmis": 1213,
      "▁atıp": 1214,
      "▁kredileri": 1215,
      "▁yapmak": 1216,
      "##og": 1217,
      "▁sorar": 1218,
      "▁gulus": 1219,
      "▁yenilik": 1220,
      "▁resep": 1221,
      "##2'den": 1222,
      "▁etmiyordu": 1223,
      "##erin": 1224,
      "▁sarap": 1225,
      "##cılıgı": 1226,
      "▁kuzey": 1227,
      "▁dr": 1228,
      "▁oynama": 1229,
      "▁azal": 1230,
      "▁yalan": 1231,
      "▁lokasyonu": 1232,
      "▁gorevine": 1233,
      "▁ormanı": 1234,
      "##ke": 1235,
      "▁kirlilik": 1236,
      "▁pec": 1237,
      "##yacaklar": 1238,
      "▁guvercin": 1239,
      "▁restoranlar": 1240,
      "▁tufek": 1241,
      "▁cıkarma": 1242,
      "▁bilmem": 1243,
      "▁3\\/4": 1244,
      "▁aracılıgıyla": 1245,
      "▁sanduk": 1246,
      "▁memleketin": 1247,
      "▁sov": 1248,
      "▁karıstırın": 1249,
      "▁aradilar": 1250,
      "▁rakib": 1251,
      "▁diyorum": 1252,
      "▁inanmak": 1253,
      "▁hastalıgın": 1254,
      "▁ugultu": 1255,
      "▁1.2": 1256,
      "▁dusmanları": 1257,
      "▁ceviri": 1258,
      "▁mukaf": 1259,
      "▁kurallara": 1260,
      "##acan": 1261,
      "▁avize": 1262,
      "▁oyunc": 1263,
      "##akar": 1264,
      "▁tanıt": 1265,
      "▁asci": 1266,
      "▁sigarasını": 1267,
      "##na": 1268,
      "▁saglayacak": 1269,
      "▁halefi": 1270,
      "▁bilgilerine": 1271,
      "▁nedenlerle": 1272,
      "▁muayen": 1273,
      "##ilikleri": 1274,
      "##sızlık": 1275,
      "▁ar": 1276,
      "##his": 1277,
      "##telik": 1278,
      "▁pil": 1279,
      "▁kenara": 1280,
      "▁yurtd": 1281,
      "▁temp": 1282,
      "▁birimleri": 1283,
      "▁kahv": 1284,
      "▁ameliyat": 1285,
      "▁sabit": 1286,
      "▁gezinti": 1287,
      "▁insul": 1288,
      "▁manası": 1289,
      "▁faaliyetlerden": 1290,
      "##ıgından": 1291,
      "##ıyorlar": 1292,
      "▁dususe": 1293,
      "##innati": 1294,
      "▁ug": 1295,
      "▁zihn": 1296,
      "▁ec": 1297,
      "▁hasar": 1298,
      "▁sokakları": 1299,
      "▁gordugum": 1300,
      "##sız": 1301,
      "▁departmanı": 1302,
      "▁hitap": 1303,
      "▁eseri": 1304,
      "▁etek": 1305,
      "▁gruplar": 1306,
      "##tıs": 1307,
      "▁newark'tan": 1308,
      "▁fr": 1309,
      "▁heyecanla": 1310,
      "▁basarili": 1311,
      "▁mers": 1312,
      "▁ara": 1313,
      "▁yardımı": 1314,
      "▁sıcaklık": 1315,
      "##utlu": 1316,
      "▁makin": 1317,
      "▁degeri": 1318,
      "##amız": 1319,
      "▁yarıs": 1320,
      "▁iftir": 1321,
      "▁agaclar": 1322,
      "##ortu": 1323,
      "▁tımar": 1324,
      "▁kolayını": 1325,
      "▁bircok": 1326,
      "▁houston": 1327,
      "▁iyi": 1328,
      "▁kalan": 1329,
      "▁bahceyi": 1330,
      "▁vekil": 1331,
      "▁gundem": 1332,
      "▁yemeklerini": 1333,
      "▁(": 1334,
      "▁oylama": 1335,
      "▁vefat": 1336,
      "##ugun": 1337,
      "▁ortaydi": 1338,
      "▁hakkına": 1339,
      "▁anlatıyor": 1340,
      "▁iddi": 1341,
      "▁eldiv": 1342,
      "▁gogs": 1343,
      "▁kırıklıgı": 1344,
      "▁agrı": 1345,
      "▁ihtimalle": 1346,
      "##emiyor": 1347,
      "▁inancı": 1348,
      "▁kartal": 1349,
      "▁brons": 1350,
      "▁plajda": 1351,
      "▁kusun": 1352,
      "▁bazı": 1353,
      "##adan": 1354,
      "▁bagın": 1355,
      "▁islemlerini": 1356,
      "▁vicdan": 1357,
      "▁pilotlar": 1358,
      "##ktu": 1359,
      "▁borsada": 1360,
      "▁1.0": 1361,
      "▁otoy": 1362,
      "▁hot": 1363,
      "▁kulliyat": 1364,
      "▁derecelendirme": 1365,
      "▁bakımından": 1366,
      "▁taze": 1367,
      "▁niyeti": 1368,
      "▁kontrolunu": 1369,
      "▁evlat": 1370,
      "##mamız": 1371,
      "▁katıl": 1372,
      "▁alabilecegini": 1373,
      "▁ruyamda": 1374,
      "▁guvenli": 1375,
      "▁dokun": 1376,
      "▁gev": 1377,
      "▁doc": 1378,
      "▁yanını": 1379,
      "##alıgı": 1380,
      "▁izledi": 1381,
      "▁album": 1382,
      "▁gorusunu": 1383,
      "▁ickiler": 1384,
      "▁siddetli": 1385,
      "▁duz": 1386,
      "▁he": 1387,
      "##ahh": 1388,
      "##alarındaki": 1389,
      "##50": 1390,
      "##5$": 1391,
      "▁sa": 1392,
      "##umb": 1393,
      "▁murat": 1394,
      "▁dumanı": 1395,
      "▁temmuz'da": 1396,
      "▁azalması": 1397,
      "##ota": 1398,
      "▁tasım": 1399,
      "▁ascı": 1400,
      "▁bıy": 1401,
      "▁pusul": 1402,
      "▁mektuplar": 1403,
      "▁dant": 1404,
      "▁rapor": 1405,
      "##c": 1406,
      "▁oluyordu": 1407,
      "▁kurtardı": 1408,
      "▁gob": 1409,
      "▁harita": 1410,
      "▁baglama": 1411,
      "▁mektebe": 1412,
      "▁sahipleri": 1413,
      "▁2.4": 1414,
      "▁end": 1415,
      "▁bagımlılıgı": 1416,
      "▁yazın": 1417,
      "▁mevsim": 1418,
      "##tis": 1419,
      "▁kabuk": 1420,
      "▁kızı": 1421,
      "##dıg": 1422,
      "▁secen": 1423,
      "▁franch": 1424,
      "##gırak": 1425,
      "##dırmak": 1426,
      "▁sektorun": 1427,
      "▁arabul": 1428,
      "##dde": 1429,
      "▁bahs": 1430,
      "▁tesir": 1431,
      "▁sanat": 1432,
      "▁gidi": 1433,
      "##ıl": 1434,
      "▁patlıcan": 1435,
      "▁veto": 1436,
      "▁doneminin": 1437,
      "##ların": 1438,
      "▁tuvaletler": 1439,
      "▁lid": 1440,
      "▁dusurmeye": 1441,
      "##dugunu": 1442,
      "▁etrafını": 1443,
      "▁nakliy": 1444,
      "▁olanaklarini": 1445,
      "▁saraydan": 1446,
      "▁bulutlar": 1447,
      "▁zamanında": 1448,
      "##tc": 1449,
      "▁evrende": 1450,
      "#": 1451,
      "▁malumat": 1452,
      "##ekli": 1453,
      "▁butc": 1454,
      "▁yans": 1455,
      "##1": 1456,
      "##ri": 1457,
      "##iben": 1458,
      "▁anket": 1459,
      "##iyer": 1460,
      "▁iceriden": 1461,
      "▁300": 1462,
      "##'ini": 1463,
      "▁soy": 1464,
      "▁yarım": 1465,
      "▁stand": 1466,
      "▁arkadasimla": 1467,
      "##ırım": 1468,
      "▁arabalar": 1469,
      "▁yapmad": 1470,
      "▁tesaduf": 1471,
      "▁husus": 1472,
      "▁piyas": 1473,
      "##uste": 1474,
      "##lom": 1475,
      "▁kısım": 1476,
      "▁tebrik": 1477,
      "▁kuslar": 1478,
      "▁cakıl": 1479,
      "▁kardesimin": 1480,
      "##kot": 1481,
      "▁cinc": 1482,
      "▁hizmetlerinin": 1483,
      "▁is": 1484,
      "▁ih": 1485,
      "##ıcının": 1486,
      "▁gozda": 1487,
      "▁kavramının": 1488,
      "▁salas": 1489,
      "▁aquaparki": 1490,
      "▁aray": 1491,
      "##omu": 1492,
      "▁emel": 1493,
      "▁1992": 1494,
      "##teye": 1495,
      "##tileri": 1496,
      "▁gelir": 1497,
      "▁pencereden": 1498,
      "▁mes": 1499,
      "▁alt": 1500,
      "##usup": 1501,
      "▁okuyucu": 1502,
      "▁kerp": 1503,
      "##lik": 1504,
      "▁bey": 1505,
      "▁anlamak": 1506,
      "▁24": 1507,
      "##irdi": 1508,
      "▁hurmet": 1509,
      "▁karak": 1510,
      "▁edecegini": 1511,
      "▁dayanır": 1512,
      "▁kullanıl": 1513,
      "▁arkadasının": 1514,
      "▁gosteren": 1515,
      "▁portf": 1516,
      "▁200": 1517,
      "▁ef": 1518,
      "▁ardına": 1519,
      "▁bin": 1520,
      "▁cerceveyi": 1521,
      "▁parkın": 1522,
      "▁seyh": 1523,
      "▁qu": 1524,
      "##'y": 1525,
      "##ladılar": 1526,
      "##ugunda": 1527,
      "##arip": 1528,
      "▁hıckır": 1529,
      ">": 1530,
      "▁satıslardan": 1531,
      "▁gorusmedim": 1532,
      "▁serg": 1533,
      "▁belki": 1534,
      "##cul": 1535,
      "▁baslamıs": 1536,
      "▁turuna": 1537,
      "▁ark": 1538,
      "▁islemi": 1539,
      "▁satım": 1540,
      "▁saglıklı": 1541,
      "▁vasıf": 1542,
      "▁karakol": 1543,
      "▁aleyhinde": 1544,
      "##cagı": 1545,
      "▁beklem": 1546,
      "▁yardıma": 1547,
      "##'in": 1548,
      "##lerinden": 1549,
      "▁donmeye": 1550,
      "▁sakınca": 1551,
      "▁cebinden": 1552,
      "▁kavr": 1553,
      "##esti": 1554,
      "##emek": 1555,
      "▁gurur": 1556,
      "##larımıza": 1557,
      "▁gelmeyi": 1558,
      "##ran": 1559,
      "##ani": 1560,
      "▁saatine": 1561,
      "▁arabanın": 1562,
      "▁yasaları": 1563,
      "▁edemey": 1564,
      "▁soyleyin": 1565,
      "▁sınav": 1566,
      "##iri": 1567,
      "▁bilez": 1568,
      "▁ta": 1569,
      "▁birbirleriyle": 1570,
      "▁cagın": 1571,
      "▁dusunmedigini": 1572,
      "▁elde": 1573,
      "##0'den": 1574,
      "▁basvur": 1575,
      "▁sayfa": 1576,
      "▁soylenti": 1577,
      "▁eleman": 1578,
      "▁=": 1579,
      "▁duyur": 1580,
      "▁his": 1581,
      "##atin": 1582,
      "##estir": 1583,
      "▁r": 1584,
      "▁belediye": 1585,
      "##lul": 1586,
      "▁gelinceye": 1587,
      "a": 1588,
      "▁erkege": 1589,
      "▁pazarının": 1590,
      "▁columbus": 1591,
      "▁bulunur": 1592,
      "▁yit": 1593,
      "##emi": 1594,
      "▁olimpiyat": 1595,
      "▁etiket": 1596,
      "▁canım": 1597,
      "▁saygısız": 1598,
      "##manlık": 1599,
      "▁istifaya": 1600,
      "▁jandarma": 1601,
      "▁fonları": 1602,
      "▁cevresi": 1603,
      "▁sicakti": 1604,
      "▁varlıklar": 1605,
      "##eler": 1606,
      "##ilecek": 1607,
      "▁vatand": 1608,
      "##osk": 1609,
      "▁yken": 1610,
      "##irim": 1611,
      "▁seslerini": 1612,
      "▁fa": 1613,
      "▁olmaması": 1614,
      "▁yang": 1615,
      "▁dinle": 1616,
      "▁cevirmek": 1617,
      "▁orani": 1618,
      "▁beyef": 1619,
      "##olog": 1620,
      "▁aslan": 1621,
      "▁harcamalar": 1622,
      "▁sınırlı": 1623,
      "##ikatur": 1624,
      "▁ulkesinde": 1625,
      "##aretle": 1626,
      "▁dekorasyon": 1627,
      "▁meydanı": 1628,
      "▁rekabetin": 1629,
      "##alık": 1630,
      "▁arada": 1631,
      "▁talip": 1632,
      "▁oranları": 1633,
      "▁yuku": 1634,
      "▁elektronik": 1635,
      "▁sunum": 1636,
      "▁koy": 1637,
      "▁ani": 1638,
      "▁toh": 1639,
      "▁ima": 1640,
      "▁adamların": 1641,
      "▁lerin": 1642,
      "▁national": 1643,
      "▁konustu": 1644,
      "▁adamcagız": 1645,
      "▁baskanlık": 1646,
      "##elek": 1647,
      "##'yı": 1648,
      "▁kud": 1649,
      "▁cıkarmayı": 1650,
      "##vetli": 1651,
      "▁esyalarını": 1652,
      "##eyh": 1653,
      "▁dalgası": 1654,
      "▁sozles": 1655,
      "▁vasatti": 1656,
      "▁dallarını": 1657,
      "▁sanay": 1658,
      "##akları": 1659,
      "▁verdik": 1660,
      "▁dolap": 1661,
      "▁bugday": 1662,
      "▁surdurdu": 1663,
      "▁gostergesi": 1664,
      "▁kadav": 1665,
      "▁uzerindeydi": 1666,
      "##ete": 1667,
      "▁gelme": 1668,
      "##ımı": 1669,
      "▁defasında": 1670,
      "▁agrıları": 1671,
      "##labil": 1672,
      "▁girisimleri": 1673,
      "▁dizlerine": 1674,
      "▁satın": 1675,
      "▁marj": 1676,
      "▁baslarda": 1677,
      "##toru": 1678,
      "▁gam": 1679,
      "##lukla": 1680,
      "▁yapım": 1681,
      "▁hakkını": 1682,
      "##imizin": 1683,
      "▁katında": 1684,
      "##lastırıyor": 1685,
      "▁seyahate": 1686,
      "##ınız": 1687,
      "▁temizligini": 1688,
      "▁sivil": 1689,
      "##eksu": 1690,
      "▁inc.": 1691,
      "▁misafirimiz": 1692,
      "##ol": 1693,
      "▁tahv": 1694,
      "▁kazandı": 1695,
      "▁cogun": 1696,
      "▁icini": 1697,
      "▁raf": 1698,
      "▁cumleleri": 1699,
      "##isiniz": 1700,
      "▁nez": 1701,
      "▁kayıt": 1702,
      "▁elinin": 1703,
      "▁cekilm": 1704,
      "##cılıgına": 1705,
      "▁sedy": 1706,
      "▁kelimelere": 1707,
      "##esi'nde": 1708,
      "▁denge": 1709,
      "▁yerlerden": 1710,
      "▁ucretle": 1711,
      "▁gucluk": 1712,
      "##kilerin": 1713,
      "▁devral": 1714,
      "▁incir": 1715,
      "##kkat": 1716,
      "▁mırıl": 1717,
      "▁dol": 1718,
      "▁dinlemek": 1719,
      "##aga": 1720,
      "▁ihracı": 1721,
      "▁ufakti": 1722,
      "##lıgıyla": 1723,
      "▁verilir": 1724,
      "▁calisanlarin": 1725,
      "##ba": 1726,
      "▁begendik": 1727,
      "▁kimya": 1728,
      "▁fet": 1729,
      "▁yeterli": 1730,
      "▁kadınlara": 1731,
      "##leyici": 1732,
      "##eyen": 1733,
      "▁iscilerin": 1734,
      "▁saatlere": 1735,
      "▁olmaya": 1736,
      "##azı": 1737,
      "▁basarısız": 1738,
      "▁uyarı": 1739,
      "▁yuzyılın": 1740,
      "▁okuz": 1741,
      "##digine": 1742,
      "▁milleti": 1743,
      "##estiri": 1744,
      "##larınızla": 1745,
      "▁iste": 1746,
      "▁oyuncusu": 1747,
      "▁koltuguna": 1748,
      "##in": 1749,
      "##ific": 1750,
      "▁ayrıntılarıyla": 1751,
      "▁hesaptan": 1752,
      "##aklar": 1753,
      "▁mintan": 1754,
      "▁gum": 1755,
      "▁teminat": 1756,
      "##itlik": 1757,
      "▁bilesik": 1758,
      "##temelen": 1759,
      "##undan": 1760,
      "##civert": 1761,
      "▁kaldır": 1762,
      "##lenin": 1763,
      "▁saha": 1764,
      "▁cizg": 1765,
      "▁lokasyon": 1766,
      "▁icra": 1767,
      "##are": 1768,
      "▁hayattan": 1769,
      "▁kimyasal": 1770,
      "##rt": 1771,
      "##muslar": 1772,
      "▁hukm": 1773,
      "▁televizyona": 1774,
      "##landı": 1775,
      "▁yatırımı": 1776,
      "▁margar": 1777,
      "##indan": 1778,
      "▁polem": 1779,
      "▁akt": 1780,
      "▁konusmaya": 1781,
      "▁musluman": 1782,
      "▁129": 1783,
      "▁avluya": 1784,
      "##hazırda": 1785,
      "##aclı": 1786,
      "##ida": 1787,
      "▁sahipligi": 1788,
      "▁sembol": 1789,
      "▁ustumuze": 1790,
      "##ola": 1791,
      "▁sofor": 1792,
      "▁musik": 1793,
      "▁yapmıstı": 1794,
      "▁giyim": 1795,
      "▁sirkette": 1796,
      "▁isle": 1797,
      "▁mens": 1798,
      "▁faz": 1799,
      "▁hizmetinden": 1800,
      "##tara": 1801,
      "▁masasına": 1802,
      "▁verilm": 1803,
      "▁tarihli": 1804,
      "##de": 1805,
      "##ow": 1806,
      "▁fu": 1807,
      "▁alttan": 1808,
      "##guna": 1809,
      "▁acım": 1810,
      "▁bitiyor": 1811,
      "▁rahatti": 1812,
      "▁sondaj": 1813,
      "▁komisyonu": 1814,
      "▁olmuyor": 1815,
      "▁ekm": 1816,
      "▁sıv": 1817,
      "▁muf": 1818,
      "##lilerden": 1819,
      "▁guclerini": 1820,
      "▁ongordu": 1821,
      "▁getirisi": 1822,
      "##kli": 1823,
      "▁anım": 1824,
      "▁uyarısında": 1825,
      "▁rahmet": 1826,
      "▁yım": 1827,
      "##istel": 1828,
      "▁hukumeti": 1829,
      "##amadı": 1830,
      "##yol": 1831,
      "##lerden": 1832,
      "##o'ya": 1833,
      "▁iceceklerden": 1834,
      "##ans": 1835,
      "▁birisine": 1836,
      "▁tavrını": 1837,
      "▁ticarette": 1838,
      "▁burnunu": 1839,
      "##ncu": 1840,
      "▁isit": 1841,
      "▁suruyor": 1842,
      "▁yasamaya": 1843,
      "##.25": 1844,
      "▁inti": 1845,
      "▁nef": 1846,
      "▁memnuniyetini": 1847,
      "##iyesi": 1848,
      "▁konunun": 1849,
      "▁ihtimalini": 1850,
      "▁ilgiyle": 1851,
      "▁tahvil": 1852,
      "▁pittsburgh'tan": 1853,
      "▁mutfaga": 1854,
      "##tat": 1855,
      "##kay": 1856,
      "▁pound": 1857,
      "▁daima": 1858,
      "▁sessiz": 1859,
      "▁kime": 1860,
      "▁hazret": 1861,
      "##meyerek": 1862,
      "▁iklim": 1863,
      "▁olası": 1864,
      "##'un": 1865,
      "##ukle": 1866,
      "▁bolgesinde": 1867,
      "▁ısıgını": 1868,
      "▁adına": 1869,
      "▁saman": 1870,
      "##lanmıstı": 1871,
      "▁icten": 1872,
      "▁kulaklarına": 1873,
      "▁deleg": 1874,
      "▁inis": 1875,
      "##ludur": 1876,
      "▁adıyla": 1877,
      "▁gordugunu": 1878,
      "##lamak": 1879,
      "▁olm": 1880,
      "▁bekliyordu": 1881,
      "##diye": 1882,
      "▁istifa": 1883,
      "##mıstım": 1884,
      "▁birini": 1885,
      "▁bankaları": 1886,
      "▁etrafa": 1887,
      "▁dusundugunu": 1888,
      "▁hıy": 1889,
      "##inlik": 1890,
      "▁memnunuz": 1891,
      "▁ikmal": 1892,
      "▁gelecekteki": 1893,
      "▁eti": 1894,
      "##etler": 1895,
      "▁calisanlar": 1896,
      "##gi": 1897,
      "##asyonun": 1898,
      "▁yılki": 1899,
      "▁gunune": 1900,
      "▁ilke": 1901,
      "▁piyasasında": 1902,
      "▁piyasasına": 1903,
      "▁destekli": 1904,
      "##lari": 1905,
      "▁dizginleri": 1906,
      "##larınla": 1907,
      "##memis": 1908,
      "▁ihracat": 1909,
      "##0'ı": 1910,
      "▁isbirligi": 1911,
      "▁yak": 1912,
      "▁dunyada": 1913,
      "▁ogrenmek": 1914,
      "▁uretiyor": 1915,
      "▁durmak": 1916,
      "▁bugunun": 1917,
      "▁milletin": 1918,
      "▁gosterin": 1919,
      "##mma": 1920,
      "▁kaybı": 1921,
      "▁siy": 1922,
      "▁zorla": 1923,
      "▁kotuluk": 1924,
      "##ish": 1925,
      "▁kundur": 1926,
      "##leyerek": 1927,
      "##tiv": 1928,
      "▁ramazan": 1929,
      "▁belirtti": 1930,
      "▁birlesik": 1931,
      "▁finc": 1932,
      "##lusu": 1933,
      "▁davasını": 1934,
      "▁sop": 1935,
      "▁soba": 1936,
      "▁ek": 1937,
      "▁tetkik": 1938,
      "##ith": 1939,
      "▁rekabet": 1940,
      "##kine": 1941,
      "▁urk": 1942,
      "▁lehine": 1943,
      "▁ekonomisini": 1944,
      "▁hamla": 1945,
      "▁caddeye": 1946,
      "▁aydan": 1947,
      "▁kafam": 1948,
      "▁mcb": 1949,
      "▁duzen": 1950,
      "##erlik": 1951,
      "##aba": 1952,
      "▁operasyonlarına": 1953,
      "▁cıgırt": 1954,
      "▁anim": 1955,
      "▁havaalanının": 1956,
      "##ilmez": 1957,
      "##dir": 1958,
      "##atlar": 1959,
      "▁nit": 1960,
      "##lerle": 1961,
      "▁yanlıs": 1962,
      "▁adam": 1963,
      "▁tahsil": 1964,
      "▁odu": 1965,
      "▁yaptıktan": 1966,
      "▁rezervasyon": 1967,
      "▁hicbirinin": 1968,
      "##madigim": 1969,
      "▁kanunlar": 1970,
      "##maya": 1971,
      "▁edebiyatı": 1972,
      "▁yardimci": 1973,
      "##eliyor": 1974,
      "▁arzı": 1975,
      "▁indianapolis": 1976,
      "▁elindeki": 1977,
      "▁annemle": 1978,
      "▁gazel": 1979,
      "##digi": 1980,
      "▁mandır": 1981,
      "▁teli": 1982,
      "▁bazilar": 1983,
      "▁gectigimiz": 1984,
      "▁sartlar": 1985,
      "##gene": 1986,
      "##cakti": 1987,
      "##unu": 1988,
      "▁yapmayı": 1989,
      "▁emlak": 1990,
      "▁geb": 1991,
      "▁catma": 1992,
      "▁mute": 1993,
      "▁dog": 1994,
      "▁yetk": 1995,
      "▁gunah": 1996,
      "##ılabil": 1997,
      "▁guzelim": 1998,
      "##gın": 1999,
      "▁likidit": 2000,
      "▁nizam": 2001,
      "▁100'e": 2002,
      "##asıdır": 2003,
      "▁atlanta'dan": 2004,
      "▁war": 2005,
      "▁dilenci": 2006,
      "▁tehlikeye": 2007,
      "▁yenic": 2008,
      "▁bunca": 2009,
      "▁guvenc": 2010,
      "▁tarzı": 2011,
      "##ruf": 2012,
      "▁ikram": 2013,
      "_": 2014,
      "▁bicimde": 2015,
      "▁systems": 2016,
      "▁yayını": 2017,
      "##abet": 2018,
      "▁saldırı": 2019,
      "##ral": 2020,
      "▁cir": 2021,
      "##rken": 2022,
      "▁avukatlar": 2023,
      "▁kalmak": 2024,
      "▁dansı": 2025,
      "▁isver": 2026,
      "▁varıyor": 2027,
      "▁hayvan": 2028,
      "▁fısıltı": 2029,
      "▁havalimanlarından": 2030,
      "▁olmadan": 2031,
      "▁terbiy": 2032,
      "##diginden": 2033,
      "▁yanıtlar": 2034,
      "▁omuzlarına": 2035,
      "##ıda": 2036,
      "▁basında": 2037,
      "▁ipe": 2038,
      "▁deniz": 2039,
      "##lanmayı": 2040,
      "▁gezin": 2041,
      "▁dov": 2042,
      "▁baskısı": 2043,
      "##ımdır": 2044,
      "▁mini": 2045,
      "▁gunduz": 2046,
      "▁!": 2047,
      "▁suların": 2048,
      "##ecegimi": 2049,
      "▁tarihte": 2050,
      "▁birlesme": 2051,
      "##olu": 2052,
      "▁vesik": 2053,
      "▁yanl": 2054,
      "▁ilgisizdi": 2055,
      "▁prensesi": 2056,
      "▁iflas": 2057,
      "▁kun": 2058,
      "▁dokul": 2059,
      "##ilm": 2060,
      "##abilecegini": 2061,
      "▁varıs": 2062,
      "▁hind": 2063,
      "▁olumune": 2064,
      "▁kktc": 2065,
      "▁depreminin": 2066,
      "▁yabanci": 2067,
      "▁ugra": 2068,
      "▁atmak": 2069,
      "▁guvensizlik": 2070,
      "▁kul": 2071,
      "##4'e": 2072,
      "▁baslıyor": 2073,
      "##untu": 2074,
      "▁yabancilara": 2075,
      "##tiz": 2076,
      "x": 2077,
      "▁sokagı": 2078,
      "▁iskeleye": 2079,
      "▁evlerini": 2080,
      "▁takım": 2081,
      "▁guclerin": 2082,
      "▁siyasal": 2083,
      "▁kın": 2084,
      "v": 2085,
      "▁cogunluk": 2086,
      "▁vermesini": 2087,
      "▁west": 2088,
      "▁ederdi": 2089,
      "▁tama": 2090,
      "▁oldugu": 2091,
      "▁me": 2092,
      "▁temeller": 2093,
      "▁teshis": 2094,
      "▁bildirim": 2095,
      "▁armut": 2096,
      "▁kimse": 2097,
      "▁yeterince": 2098,
      "▁insanlık": 2099,
      "▁odev": 2100,
      "▁kabugu": 2101,
      "▁caddenin": 2102,
      "##lerdir": 2103,
      "▁kızlar": 2104,
      "▁anketi": 2105,
      "▁karmasası": 2106,
      "▁tadil": 2107,
      "##graf": 2108,
      "##ırken": 2109,
      "▁ucmam": 2110,
      "▁yorgan": 2111,
      "▁buklum": 2112,
      "▁yed": 2113,
      "▁sahipti": 2114,
      "##gu": 2115,
      "▁saglama": 2116,
      "▁bolun": 2117,
      "##larımızdan": 2118,
      "▁iyims": 2119,
      "▁kasabanın": 2120,
      "##umus": 2121,
      "▁evime": 2122,
      "▁baslan": 2123,
      "▁delta": 2124,
      "▁kurmaya": 2125,
      "▁$'a": 2126,
      "▁korkusuyla": 2127,
      "▁ici": 2128,
      "▁dile": 2129,
      "▁hucum": 2130,
      "▁kapılarını": 2131,
      "▁buluyor": 2132,
      "▁disinden": 2133,
      "▁inkar": 2134,
      "▁bagım": 2135,
      "▁uretimi": 2136,
      "▁sınır": 2137,
      "###": 2138,
      "▁matematik": 2139,
      "▁hızla": 2140,
      "▁kanunu": 2141,
      "##hti": 2142,
      "##misler": 2143,
      "▁ordunun": 2144,
      "##tas": 2145,
      "▁georg": 2146,
      "▁cevirdi": 2147,
      "▁tura": 2148,
      "▁mobilya": 2149,
      "##uttu": 2150,
      "▁tesisler": 2151,
      "##magını": 2152,
      "##mez": 2153,
      "▁bakır": 2154,
      "▁acıkladı": 2155,
      "▁mukabele": 2156,
      "##anmak": 2157,
      "##lası": 2158,
      "▁kurs": 2159,
      "▁hafta": 2160,
      "▁kaynak": 2161,
      "▁siper": 2162,
      "##rupalı": 2163,
      "▁kurtarma": 2164,
      "▁gorus": 2165,
      "▁tahakk": 2166,
      "▁kotul": 2167,
      "##mesidir": 2168,
      "▁yapılandırma": 2169,
      "▁kosulu": 2170,
      "▁fena": 2171,
      "▁tarlayı": 2172,
      "▁perakendeciler": 2173,
      "▁yonleriyle": 2174,
      "##fab": 2175,
      "▁yolculuga": 2176,
      "▁etmiyor": 2177,
      "▁pah": 2178,
      "▁kardes": 2179,
      "▁slog": 2180,
      "▁dereden": 2181,
      "▁sorunla": 2182,
      "##lit": 2183,
      "▁universitede": 2184,
      "▁anlıslanabilirlik": 2185,
      "▁misafirimizle": 2186,
      "▁stad": 2187,
      "##larımız": 2188,
      "▁patates": 2189,
      "▁basladıgında": 2190,
      "▁rady": 2191,
      "##ciger": 2192,
      "▁fan": 2193,
      "▁ver": 2194,
      "▁yapımı": 2195,
      "▁cen": 2196,
      "▁avuc": 2197,
      "##ecekler": 2198,
      "▁almıstım": 2199,
      "▁gunu": 2200,
      "▁vergiyi": 2201,
      "##edildi": 2202,
      "▁bazilari": 2203,
      "▁donum": 2204,
      "##00'e": 2205,
      "▁anlatmak": 2206,
      "▁dikkatimi": 2207,
      "▁sporcu": 2208,
      "##imli": 2209,
      "▁fak": 2210,
      "▁taco": 2211,
      "▁sav": 2212,
      "▁hurr": 2213,
      "▁sorum": 2214,
      "##ildi": 2215,
      "##avv": 2216,
      "▁sakat": 2217,
      "▁onde": 2218,
      "▁satıl": 2219,
      "##4'de": 2220,
      "▁olmasa": 2221,
      "▁mec": 2222,
      "##dar": 2223,
      "▁filik": 2224,
      "##mesin": 2225,
      "##ladıgı": 2226,
      "##lesme": 2227,
      "1": 2228,
      "▁nereden": 2229,
      "▁yun": 2230,
      "▁konumu": 2231,
      "##mıyla": 2232,
      "▁iade": 2233,
      "▁demektir": 2234,
      "▁duvardan": 2235,
      "▁mektup": 2236,
      "▁tutarında": 2237,
      "##use": 2238,
      "▁futbolcu": 2239,
      "▁atmaya": 2240,
      "▁muteahh": 2241,
      "##urcuk": 2242,
      "▁seyiyle": 2243,
      "▁nut": 2244,
      "▁koye": 2245,
      "▁ayakk": 2246,
      "▁tan": 2247,
      "▁dusunuyordu": 2248,
      "▁luzum": 2249,
      "▁sup": 2250,
      "▁eylemi": 2251,
      "▁1000": 2252,
      "▁ann": 2253,
      "##lukte": 2254,
      "▁jap": 2255,
      "▁ailesi": 2256,
      "##leleri": 2257,
      "##ımızda": 2258,
      "▁bol": 2259,
      "▁maddes": 2260,
      "▁kinden": 2261,
      "▁am": 2262,
      "▁3.": 2263,
      "##ıldıktan": 2264,
      "▁sıcaktan": 2265,
      "▁zorlu": 2266,
      "▁yarının": 2267,
      "▁altını": 2268,
      "▁turkler": 2269,
      "##rut": 2270,
      "##arlan": 2271,
      "▁44": 2272,
      "##anıyla": 2273,
      "▁yuzlerine": 2274,
      "▁ip": 2275,
      "▁uzerinden": 2276,
      "▁10'": 2277,
      "##isiyle": 2278,
      "##maca": 2279,
      "▁romancının": 2280,
      "▁ye": 2281,
      "##tuk": 2282,
      "▁tak": 2283,
      "▁sıkınt": 2284,
      "▁bolgesi": 2285,
      "▁ayrı": 2286,
      "##amlı": 2287,
      "##memiz": 2288,
      "▁dilekce": 2289,
      "##ya'da": 2290,
      "▁fin": 2291,
      "▁etti": 2292,
      "##kileri": 2293,
      "▁mum": 2294,
      "▁sapma": 2295,
      "▁but": 2296,
      "▁istil": 2297,
      "▁uyu": 2298,
      "##par": 2299,
      "##cıların": 2300,
      "▁lobi": 2301,
      "▁ceket": 2302,
      "▁dik": 2303,
      "▁faktorler": 2304,
      "▁dugun": 2305,
      "▁tastan": 2306,
      "▁ayd": 2307,
      "▁izleyiciler": 2308,
      "▁ugradı": 2309,
      "▁simdi": 2310,
      "▁galibiyet": 2311,
      "▁kullanımını": 2312,
      "▁oyuna": 2313,
      "▁kocası": 2314,
      "▁dusmanın": 2315,
      "##sak": 2316,
      "▁politikaları": 2317,
      "▁teyzemin": 2318,
      "##'ni": 2319,
      "▁bekci": 2320,
      "▁tabana": 2321,
      "▁dayan": 2322,
      "▁usulu": 2323,
      "▁siddet": 2324,
      "##sızlıgını": 2325,
      "▁kullandıgını": 2326,
      "▁trend": 2327,
      "▁kullanarak": 2328,
      "▁dudakları": 2329,
      "##6'ya": 2330,
      "##luy": 2331,
      "▁alamet": 2332,
      "▁kayda": 2333,
      "▁kimliklerini": 2334,
      "▁vapur": 2335,
      "▁cep": 2336,
      "▁komutan": 2337,
      "##tıgı": 2338,
      "##lıgına": 2339,
      "▁yardımına": 2340,
      "##2'ye": 2341,
      "▁degerlerine": 2342,
      "▁yardımcı": 2343,
      "▁yeryuz": 2344,
      "▁ey": 2345,
      "▁manzar": 2346,
      "▁mukemmeldi": 2347,
      "▁cirkin": 2348,
      "▁sigorta": 2349,
      "▁sauna": 2350,
      "▁ruh": 2351,
      "▁kanal": 2352,
      "##uma": 2353,
      "▁lakırtı": 2354,
      "##iyorum": 2355,
      "##lastı": 2356,
      "##lastır": 2357,
      "▁partiye": 2358,
      "▁odunc": 2359,
      "##32": 2360,
      "▁yetenegi": 2361,
      "▁aki": 2362,
      "▁tasar": 2363,
      "▁dolardan": 2364,
      "▁fatih": 2365,
      "##akti": 2366,
      "▁huzursuzluk": 2367,
      "▁muallim": 2368,
      "▁kalmamıs": 2369,
      "▁havalim": 2370,
      "▁gazino": 2371,
      "▁yumurta": 2372,
      "▁davranısını": 2373,
      "▁mutlulugu": 2374,
      "▁ayakları": 2375,
      "▁coluk": 2376,
      "##rap": 2377,
      "▁muda": 2378,
      "##att": 2379,
      "▁tasf": 2380,
      "##lirken": 2381,
      "▁leblebi": 2382,
      "▁tedav": 2383,
      "##hanenin": 2384,
      "▁dumen": 2385,
      "▁dikkate": 2386,
      "▁balon": 2387,
      "▁onlugu": 2388,
      "▁destek": 2389,
      "▁yanı": 2390,
      "▁oglen": 2391,
      "▁karsın": 2392,
      "▁ını": 2393,
      "▁teklifini": 2394,
      "▁muhalle": 2395,
      "▁idrak": 2396,
      "▁konsantr": 2397,
      "##ya": 2398,
      "▁ford": 2399,
      "▁kurdu": 2400,
      "##dal": 2401,
      "▁seyret": 2402,
      "▁koltuga": 2403,
      "##adar": 2404,
      "▁hip": 2405,
      "##una": 2406,
      "▁2.5": 2407,
      "▁etmisler": 2408,
      "▁giriyor": 2409,
      "▁hafiflet": 2410,
      "▁zamanlarını": 2411,
      "▁varan": 2412,
      "▁mikr": 2413,
      "▁magaz": 2414,
      "▁bilgilendir": 2415,
      "▁yo": 2416,
      "▁suvar": 2417,
      "##undeki": 2418,
      "▁indust": 2419,
      "▁yagmur": 2420,
      "▁dizisi": 2421,
      "▁kel": 2422,
      "▁elli": 2423,
      "▁ısıklar": 2424,
      "▁baskı": 2425,
      "##seydi": 2426,
      "▁turunu": 2427,
      "▁enflasyonu": 2428,
      "▁kopek": 2429,
      "▁duzenleyici": 2430,
      "▁ilgili": 2431,
      "##elere": 2432,
      "▁boyu": 2433,
      "▁cikolat": 2434,
      "▁ert": 2435,
      "▁kamp": 2436,
      "▁gelistirmeye": 2437,
      "##cilikten": 2438,
      "▁hizm": 2439,
      "▁3.1": 2440,
      "▁temerrut": 2441,
      "▁kadar": 2442,
      "▁mecl": 2443,
      "##desi": 2444,
      "▁bedeli": 2445,
      "▁cesmenin": 2446,
      "##iskiyi": 2447,
      "▁bulundur": 2448,
      "▁icimde": 2449,
      "##ecegi": 2450,
      "▁keci": 2451,
      "▁sabır": 2452,
      "▁hissini": 2453,
      "##oseksu": 2454,
      "▁kalın": 2455,
      "▁sorgu": 2456,
      "##isk": 2457,
      "▁ofkesini": 2458,
      "▁cez": 2459,
      "▁cent": 2460,
      "##aen": 2461,
      "▁alısveris": 2462,
      "▁lamb": 2463,
      "##lulerin": 2464,
      "▁tespit": 2465,
      "▁yazının": 2466,
      "##asyon": 2467,
      "##desinde": 2468,
      "▁bomba": 2469,
      "##net": 2470,
      "▁meclisi": 2471,
      "▁birey": 2472,
      "▁puf": 2473,
      "##lardır": 2474,
      "▁fiyatına": 2475,
      "▁havası": 2476,
      "▁gene": 2477,
      "▁bakimsizdi": 2478,
      "▁uzunluk": 2479,
      "##ecekleri": 2480,
      "▁birco": 2481,
      "▁kostum": 2482,
      "##suzlugu": 2483,
      "▁teraz": 2484,
      "▁yek": 2485,
      "▁istan": 2486,
      "▁hep": 2487,
      "▁hop": 2488,
      "▁ormanda": 2489,
      "▁varsay": 2490,
      "▁po": 2491,
      "▁eylul": 2492,
      "▁&": 2493,
      "▁kıraat": 2494,
      "▁hak": 2495,
      "▁yatag": 2496,
      "▁hal": 2497,
      "▁hale": 2498,
      "▁ney": 2499,
      "▁musaade": 2500,
      "▁if": 2501,
      "##amay": 2502,
      "##sav": 2503,
      "▁izah": 2504,
      "▁topragı": 2505,
      "▁listeleri": 2506,
      "▁kasabada": 2507,
      "▁calıstım": 2508,
      "##tr": 2509,
      "▁olmadıgına": 2510,
      "##abına": 2511,
      "##edigini": 2512,
      "##lastırmak": 2513,
      "▁eskiden": 2514,
      "▁bezi": 2515,
      "▁yonetmen": 2516,
      "▁cleveland'a": 2517,
      "▁tir": 2518,
      "▁karayolu": 2519,
      "▁icerisinde": 2520,
      "▁istanbul'un": 2521,
      "▁dayanagı": 2522,
      "##retli": 2523,
      "##gel": 2524,
      "▁zekası": 2525,
      "▁gozumde": 2526,
      "▁tukuruk": 2527,
      "▁merkez": 2528,
      "▁yurtdisinda": 2529,
      "##ence": 2530,
      "▁etkinlikler": 2531,
      "▁yapıl": 2532,
      "▁miktarda": 2533,
      "▁topu": 2534,
      "##adın": 2535,
      "▁yosun": 2536,
      "##'ta": 2537,
      "▁hamlenin": 2538,
      "##cılık": 2539,
      "▁sev": 2540,
      "▁gosterge": 2541,
      "##ki": 2542,
      "##dos": 2543,
      "▁mur": 2544,
      "▁ulk": 2545,
      "▁veriyor": 2546,
      "▁aldı": 2547,
      "▁kıyısında": 2548,
      "▁pey": 2549,
      "##'a": 2550,
      "▁ceh": 2551,
      "▁agzım": 2552,
      "▁guvence": 2553,
      "▁acıldı": 2554,
      "▁cekirdek": 2555,
      "▁dizgin": 2556,
      "▁dedik": 2557,
      "▁ign": 2558,
      "▁inanıyor": 2559,
      "▁sevgi": 2560,
      "▁kosar": 2561,
      "▁zirv": 2562,
      "▁artısına": 2563,
      "##uldum": 2564,
      "▁tunel": 2565,
      "##asur": 2566,
      "▁kasım": 2567,
      "▁kasaba": 2568,
      "▁isleme": 2569,
      "##lanmak": 2570,
      "##aza": 2571,
      "##ge": 2572,
      "▁likid": 2573,
      "##asini": 2574,
      "▁rıht": 2575,
      "▁teknoloj": 2576,
      "▁tesisin": 2577,
      "▁chat": 2578,
      "▁yetersizdi": 2579,
      "▁rehberlik": 2580,
      "▁tah": 2581,
      "▁dogrul": 2582,
      "##usudur": 2583,
      "▁tarafından": 2584,
      "▁man": 2585,
      "▁9'da": 2586,
      "##ayıp": 2587,
      "##.8": 2588,
      "▁baskın": 2589,
      "▁hanima": 2590,
      "▁iktidar": 2591,
      "▁sirketinin": 2592,
      "▁cesitli": 2593,
      "▁salatası": 2594,
      "##tu": 2595,
      "▁kariyer": 2596,
      "▁anlasmazlık": 2597,
      "▁yemis": 2598,
      "▁firmalar": 2599,
      "▁sarkı": 2600,
      "▁algı": 2601,
      "▁hayatına": 2602,
      "▁sınıf": 2603,
      "▁musterileri": 2604,
      "▁sıcrama": 2605,
      "▁almanya": 2606,
      "##liyordu": 2607,
      "▁belli": 2608,
      "▁150": 2609,
      "▁proj": 2610,
      "▁reklam": 2611,
      "▁yakalama": 2612,
      "▁davran": 2613,
      "▁numaraları": 2614,
      "▁tasımacılıgı": 2615,
      "▁manz": 2616,
      "▁kelime": 2617,
      "▁hır": 2618,
      "▁basyaz": 2619,
      "##ebilecegi": 2620,
      "▁verdiler": 2621,
      "▁faal": 2622,
      "▁bahan": 2623,
      "##enik": 2624,
      "##lıca": 2625,
      "▁enst": 2626,
      "▁gozlem": 2627,
      "▁karnını": 2628,
      "▁operasyonlarını": 2629,
      "▁kumsali": 2630,
      "##meti": 2631,
      "▁iliskilerinde": 2632,
      "▁paydos": 2633,
      "▁ulas": 2634,
      "▁doyum": 2635,
      "▁cabası": 2636,
      "[SEP]": 2637,
      "▁mail": 2638,
      "▁dinler": 2639,
      "▁acılım": 2640,
      "▁savun": 2641,
      "▁uc": 2642,
      "##lon": 2643,
      "▁cim": 2644,
      "▁muhtır": 2645,
      "▁kahvaltida": 2646,
      "▁sert": 2647,
      "▁fab": 2648,
      "▁kopr": 2649,
      "▁dal": 2650,
      "▁kardesim": 2651,
      "▁tavaf": 2652,
      "▁liseyi": 2653,
      "##ilim": 2654,
      "▁etmey": 2655,
      "▁dolayısıyla": 2656,
      "##eyl": 2657,
      "▁oturmak": 2658,
      "##oh": 2659,
      "##cıs": 2660,
      "▁santr": 2661,
      "▁doktoru": 2662,
      "▁satırlar": 2663,
      "▁ulkenin": 2664,
      "##cesi": 2665,
      "▁cesi": 2666,
      "▁cemiyetin": 2667,
      "▁anlar": 2668,
      "##keti": 2669,
      "▁damat": 2670,
      "▁mukellef": 2671,
      "▁zen": 2672,
      "▁oglum": 2673,
      "▁anlay": 2674,
      "▁kurb": 2675,
      "▁sabaha": 2676,
      "▁murekk": 2677,
      "▁kutuphane": 2678,
      "▁satma": 2679,
      "▁planlıyor": 2680,
      "▁yanımda": 2681,
      "▁satıcısı": 2682,
      "▁kıyafet": 2683,
      "▁gruba": 2684,
      "##ası": 2685,
      "▁yap": 2686,
      "▁ediyorlar": 2687,
      "##iran": 2688,
      "▁binası": 2689,
      "▁duyg": 2690,
      "▁yazıları": 2691,
      "▁millet": 2692,
      "▁insanog": 2693,
      "▁q": 2694,
      "▁anlasması": 2695,
      "▁yiy": 2696,
      "▁tarifeler": 2697,
      "##mekten": 2698,
      "▁guver": 2699,
      "▁balta": 2700,
      "▁kı": 2701,
      "▁iktis": 2702,
      "▁sebek": 2703,
      "▁hastalar": 2704,
      "▁dahili": 2705,
      "▁bırakın": 2706,
      "▁ulkede": 2707,
      "▁charl": 2708,
      "▁harcamaları": 2709,
      "▁birde": 2710,
      "▁fiili": 2711,
      "▁olduklarını": 2712,
      "▁kurnaz": 2713,
      "▁esn": 2714,
      "▁eglence": 2715,
      "▁cabasına": 2716,
      "▁konumda": 2717,
      "##dıgında": 2718,
      "▁gorunce": 2719,
      "▁randev": 2720,
      "▁koyde": 2721,
      "▁ong": 2722,
      "▁pazarlama": 2723,
      "▁emn": 2724,
      "##ledigi": 2725,
      "##3'te": 2726,
      "▁seklinde": 2727,
      "▁zevk": 2728,
      "▁goller": 2729,
      "▁lokant": 2730,
      "▁kattan": 2731,
      "▁alıp": 2732,
      "▁gelmeden": 2733,
      "▁seviyesinde": 2734,
      "▁orne": 2735,
      "##'den": 2736,
      "##seksen": 2737,
      "##inlerin": 2738,
      "##sizligi": 2739,
      "▁cozul": 2740,
      "▁terti": 2741,
      "##ıcıya": 2742,
      "▁kes": 2743,
      "▁ornekler": 2744,
      "##lu": 2745,
      "▁kapıdan": 2746,
      "##ational": 2747,
      "##’": 2748,
      "▁duv": 2749,
      "▁hatası": 2750,
      "▁santim": 2751,
      "▁detroit": 2752,
      "▁olursa": 2753,
      "##mustum": 2754,
      "▁hınc": 2755,
      "▁muthis": 2756,
      ")": 2757,
      "##noz": 2758,
      "##umda": 2759,
      "▁babasının": 2760,
      "▁muhafaza": 2761,
      "▁metrik": 2762,
      "▁tesiste": 2763,
      "▁temizlikten": 2764,
      "▁icaz": 2765,
      "##lanarak": 2766,
      "##ulmesi": 2767,
      "▁icinden": 2768,
      "▁telesk": 2769,
      "▁ıs": 2770,
      "##cular": 2771,
      "▁bili": 2772,
      "▁cocuk": 2773,
      "▁basla": 2774,
      "##egimi": 2775,
      "▁tatb": 2776,
      "▁lideri": 2777,
      "▁isletim": 2778,
      "##layın": 2779,
      "▁kostu": 2780,
      "▁bilgi": 2781,
      "▁askerler": 2782,
      "▁davanın": 2783,
      "▁olumunden": 2784,
      "▁arazi": 2785,
      "▁kapıda": 2786,
      "▁makarn": 2787,
      "▁42": 2788,
      "▁imk": 2789,
      "##usun": 2790,
      "▁sistem": 2791,
      "▁del": 2792,
      "▁endustrisinin": 2793,
      "##ıntılı": 2794,
      "▁tet": 2795,
      "▁esnaf": 2796,
      "▁kavramlar": 2797,
      "▁donemden": 2798,
      "▁teması": 2799,
      "▁sandıgı": 2800,
      "##ehr": 2801,
      "▁isteyen": 2802,
      "▁promosyon": 2803,
      "▁yolsuzluk": 2804,
      "▁tahıl": 2805,
      "▁ontar": 2806,
      "▁ine": 2807,
      "▁subvansiyon": 2808,
      "▁cizgiler": 2809,
      "▁kahve": 2810,
      "##dirdi": 2811,
      "▁esnasında": 2812,
      "▁stop": 2813,
      "▁kılıc": 2814,
      "##kleri": 2815,
      "▁duzel": 2816,
      "##kus": 2817,
      "##dana": 2818,
      "▁krizi": 2819,
      "▁esliginde": 2820,
      "▁o": 2821,
      "▁nehri": 2822,
      "▁bırakmak": 2823,
      "##masında": 2824,
      "▁milyar": 2825,
      "##se": 2826,
      "▁yılb": 2827,
      "▁verimli": 2828,
      "##ileb": 2829,
      "▁olmasi": 2830,
      "▁aktivite": 2831,
      "▁sehirler": 2832,
      "▁cad": 2833,
      "▁japonlar": 2834,
      "▁emper": 2835,
      "▁depremle": 2836,
      "▁sakak": 2837,
      "▁yer": 2838,
      "▁fazlası": 2839,
      "##bes": 2840,
      "▁manasıyla": 2841,
      "▁pasa": 2842,
      "▁stratejisi": 2843,
      "##onun": 2844,
      "▁almalar": 2845,
      "▁ulkelerin": 2846,
      "▁zorun": 2847,
      "▁rob": 2848,
      "##culugu": 2849,
      "▁ag": 2850,
      "▁tavan": 2851,
      "##osun": 2852,
      "▁hıc": 2853,
      "▁faturalar": 2854,
      "▁japonların": 2855,
      "▁islev": 2856,
      "##say": 2857,
      "▁tutar": 2858,
      "▁koylerinde": 2859,
      "▁gece": 2860,
      "##acılıgı": 2861,
      "##ikleri": 2862,
      "##medi": 2863,
      "▁patron": 2864,
      "▁islemler": 2865,
      "▁canını": 2866,
      "▁demec": 2867,
      "▁bahceleri": 2868,
      "▁burokras": 2869,
      "▁yargıcı": 2870,
      "▁ustun": 2871,
      "▁val": 2872,
      "▁bahar": 2873,
      "▁bekleniyor": 2874,
      "▁dip": 2875,
      "▁gittik": 2876,
      "▁sınavı": 2877,
      "▁kulaga": 2878,
      "▁rol": 2879,
      "▁taraftarları": 2880,
      "▁saglamayı": 2881,
      "▁kenarı": 2882,
      "▁gelistir": 2883,
      "▁ticarete": 2884,
      "▁yapısı": 2885,
      "▁alabilir": 2886,
      "▁katkı": 2887,
      "▁hile": 2888,
      "##lendirdi": 2889,
      "▁ebe": 2890,
      "▁tadina": 2891,
      "##ediyor": 2892,
      "▁sayesinde": 2893,
      "▁toplum": 2894,
      "##usturdu": 2895,
      "▁kullanılıyor": 2896,
      "##lanta": 2897,
      "▁cey": 2898,
      "▁hizmetlerini": 2899,
      "▁amerikalılar": 2900,
      "##ligine": 2901,
      "▁kendime": 2902,
      "▁genelkurmay": 2903,
      "▁ora": 2904,
      "▁denetimi": 2905,
      "▁acıl": 2906,
      "##cog": 2907,
      "▁yud": 2908,
      "##ov": 2909,
      "##ceyr": 2910,
      "##mser": 2911,
      "▁kaliteyi": 2912,
      "▁uzer": 2913,
      "##usuz": 2914,
      "▁kararıyla": 2915,
      "▁veri": 2916,
      "▁tesise": 2917,
      "▁kotuye": 2918,
      "##trilyon": 2919,
      "▁sozler": 2920,
      "##ette": 2921,
      "▁hukumdar": 2922,
      "▁alakası": 2923,
      "▁felsef": 2924,
      "▁havayollarında": 2925,
      "▁cuk": 2926,
      "##lasının": 2927,
      "▁isletiyor": 2928,
      "▁dah": 2929,
      "▁telekom": 2930,
      "▁kriz": 2931,
      "▁bilgisi": 2932,
      "▁jet": 2933,
      "▁ureticiler": 2934,
      "▁toplantılarında": 2935,
      "##so": 2936,
      "▁helik": 2937,
      "##ess": 2938,
      "▁durum": 2939,
      "▁dus": 2940,
      "▁secim": 2941,
      "##rak": 2942,
      "##agına": 2943,
      "▁analistleri": 2944,
      "▁yargıclar": 2945,
      "##ilmek": 2946,
      "##gor": 2947,
      "▁gozyası": 2948,
      "##edigi": 2949,
      "▁yerel": 2950,
      "▁vapurun": 2951,
      "##usunun": 2952,
      "▁nashville'den": 2953,
      "▁yanıma": 2954,
      "##liydi": 2955,
      "▁sozun": 2956,
      "▁kimlik": 2957,
      "▁sigort": 2958,
      "▁kısmen": 2959,
      "▁zorluklarla": 2960,
      "▁kesint": 2961,
      "▁eylem": 2962,
      "▁turkiye'de": 2963,
      "▁gosteri": 2964,
      "##h": 2965,
      "▁imparator": 2966,
      "▁konforlu": 2967,
      "▁istanbul'da": 2968,
      "▁rengine": 2969,
      "▁abd": 2970,
      "##aydı": 2971,
      "▁sahibinin": 2972,
      "▁tuvalet": 2973,
      "▁kap": 2974,
      "▁hakkinda": 2975,
      "##lat": 2976,
      "▁form": 2977,
      "▁uzakti": 2978,
      "▁alarak": 2979,
      "▁odaydi": 2980,
      "##lanacak": 2981,
      "##poh": 2982,
      "▁demokrasi": 2983,
      "▁kralı": 2984,
      "▁konusunu": 2985,
      "▁gurbet": 2986,
      "▁zinciri": 2987,
      "▁ısıgın": 2988,
      "▁aklimizda": 2989,
      "▁sol": 2990,
      "▁becerik": 2991,
      "▁aklının": 2992,
      "▁koc": 2993,
      "▁elimizde": 2994,
      "▁5'te": 2995,
      "▁dısı": 2996,
      "▁kalp": 2997,
      "▁evlenme": 2998,
      "▁itfa": 2999,
      "▁bazi": 3000,
      "▁sı": 3001,
      "##reti": 3002,
      "▁anlatım": 3003,
      "▁cocugum": 3004,
      "▁ri": 3005,
      "##udur": 3006,
      "▁grev": 3007,
      "##eni": 3008,
      "##lenmesi": 3009,
      "▁ince": 3010,
      "##ec": 3011,
      "▁hamlesi": 3012,
      "▁kapıyı": 3013,
      "▁tuccarı": 3014,
      "##tes": 3015,
      "▁barıs": 3016,
      "▁tabanc": 3017,
      "##iyenin": 3018,
      "▁performansa": 3019,
      "▁duzenlem": 3020,
      "/": 3021,
      "##egin": 3022,
      "##eti": 3023,
      "▁olaya": 3024,
      "##legi": 3025,
      "▁hin": 3026,
      "##may": 3027,
      "▁demet": 3028,
      "▁iceri": 3029,
      "##co": 3030,
      "▁sonu": 3031,
      "▁yt": 3032,
      "##ahat": 3033,
      "▁mahsulu": 3034,
      "▁kalacagını": 3035,
      "▁masada": 3036,
      "▁kalkarak": 3037,
      "▁28": 3038,
      "▁ingiltere": 3039,
      "▁liderler": 3040,
      "▁rec": 3041,
      "▁sesinden": 3042,
      "##ecek": 3043,
      "▁merkezli": 3044,
      "##.4": 3045,
      "▁kast": 3046,
      "▁peynirleri": 3047,
      "▁aza": 3048,
      "▁calı": 3049,
      "##dim": 3050,
      "▁mel": 3051,
      "##inti": 3052,
      "▁izlen": 3053,
      "▁'li": 3054,
      "▁dergileri": 3055,
      "▁oranı": 3056,
      "▁olus": 3057,
      "▁serp": 3058,
      "##han": 3059,
      "▁juri": 3060,
      "▁maliyetleri": 3061,
      "▁eglenceli": 3062,
      "▁dunyası": 3063,
      "##75": 3064,
      "▁ind": 3065,
      "▁sozlesmesi": 3066,
      "##metler": 3067,
      "##kını": 3068,
      "▁yuksekti": 3069,
      "▁yapt": 3070,
      "▁biz": 3071,
      "▁dukkan": 3072,
      "▁kaldık": 3073,
      "▁sers": 3074,
      "▁gorevleri": 3075,
      "▁oteden": 3076,
      "▁mevcut": 3077,
      "▁tatlilar": 3078,
      "▁katip": 3079,
      "▁dunyasından": 3080,
      "▁ogrencileri": 3081,
      "##lardir": 3082,
      "▁yaldız": 3083,
      "▁ucuna": 3084,
      "##uston": 3085,
      "##cev": 3086,
      "▁kanun": 3087,
      "##ıyı": 3088,
      "▁cesedi": 3089,
      "▁editoru": 3090,
      "##iginde": 3091,
      "▁terey": 3092,
      "▁tutum": 3093,
      "▁derenin": 3094,
      "##elerini": 3095,
      "##las": 3096,
      "##mazlar": 3097,
      "##ir": 3098,
      "▁faktor": 3099,
      "▁oturuyordu": 3100,
      "▁hus": 3101,
      "▁profes": 3102,
      "▁isti": 3103,
      "▁herk": 3104,
      "▁lacivert": 3105,
      "##esem": 3106,
      "▁kisiyi": 3107,
      "▁bakı": 3108,
      "▁nush": 3109,
      "##iliginden": 3110,
      "▁fırının": 3111,
      "##ucunun": 3112,
      "▁hacmine": 3113,
      "▁varlıkların": 3114,
      "▁baspar": 3115,
      "▁suyunu": 3116,
      "▁sakinleri": 3117,
      "▁teg": 3118,
      "▁kurban": 3119,
      "▁2.6": 3120,
      "▁zamanın": 3121,
      "##imler": 3122,
      "▁doku": 3123,
      "▁verim": 3124,
      "▁seyir": 3125,
      "▁aittir": 3126,
      "##mıyordu": 3127,
      "▁gozyas": 3128,
      "▁dul": 3129,
      "##ayla": 3130,
      "▁parmagı": 3131,
      "▁onum": 3132,
      "▁kondu": 3133,
      "▁sekerleme": 3134,
      "▁1'de": 3135,
      "##tek": 3136,
      "##ivers": 3137,
      "##gre": 3138,
      "##ersey": 3139,
      "▁verdigini": 3140,
      "##ısır": 3141,
      "▁kimden": 3142,
      "##mazdı": 3143,
      "▁lise": 3144,
      "▁newark": 3145,
      "▁onarım": 3146,
      "▁surduruyor": 3147,
      "##ultu": 3148,
      "▁yedi": 3149,
      "##inaen": 3150,
      "▁balo": 3151,
      "▁muhim": 3152,
      "▁kirpik": 3153,
      "▁geleceg": 3154,
      "##izmi": 3155,
      "▁yazık": 3156,
      "▁sevimli": 3157,
      "▁meb": 3158,
      "▁likidite": 3159,
      "▁kazancları": 3160,
      "##yle": 3161,
      "##sızın": 3162,
      "▁basa": 3163,
      "##cta": 3164,
      "▁yapılması": 3165,
      "##ırmak": 3166,
      "▁sıralarda": 3167,
      "▁coban": 3168,
      "▁ayından": 3169,
      "▁karabor": 3170,
      "▁olmak": 3171,
      "##larin": 3172,
      "▁harf": 3173,
      "▁elbiselerini": 3174,
      "▁bab": 3175,
      "▁yıldızlar": 3176,
      "▁ugruna": 3177,
      "▁kada": 3178,
      "▁kayıpların": 3179,
      "▁imkan": 3180,
      "▁calısmaya": 3181,
      "##lıga": 3182,
      "▁barikat": 3183,
      "▁oturum": 3184,
      "▁supurge": 3185,
      "▁eksikligi": 3186,
      "▁durusma": 3187,
      "▁silahlarını": 3188,
      "##iza": 3189,
      "▁kod": 3190,
      "##,": 3191,
      "▁tenc": 3192,
      "▁mir": 3193,
      "▁bildigini": 3194,
      "▁tomurcuk": 3195,
      "▁donanımı": 3196,
      "▁yoz": 3197,
      "##ansal": 3198,
      "##umuza": 3199,
      "##mb": 3200,
      "▁plana": 3201,
      "▁aradan": 3202,
      "▁ot": 3203,
      "▁arasında": 3204,
      "▁suclamalar": 3205,
      "▁seyahat": 3206,
      "##acagız": 3207,
      "▁editor": 3208,
      "##arlık": 3209,
      "▁resmin": 3210,
      "▁yeryuzunun": 3211,
      "▁devamı": 3212,
      "▁yanıl": 3213,
      "▁beklet": 3214,
      "##adım": 3215,
      "##50'": 3216,
      "##cilere": 3217,
      "▁kalma": 3218,
      "##ks": 3219,
      "▁umuduyla": 3220,
      "##45'ten": 3221,
      "##0'de": 3222,
      "▁seyrediyordu": 3223,
      "▁sekilde": 3224,
      "▁meyvelerini": 3225,
      "▁zavallı": 3226,
      "▁ıskarta": 3227,
      "##ladıklarını": 3228,
      "▁1985": 3229,
      "▁sahaya": 3230,
      "▁misali": 3231,
      "▁genclik": 3232,
      "##asındaki": 3233,
      "▁docent": 3234,
      "▁korun": 3235,
      "▁fonlarının": 3236,
      "▁nin": 3237,
      "▁uzerinde": 3238,
      "▁kapmak": 3239,
      "▁konumunu": 3240,
      "▁ogul": 3241,
      "▁tekn": 3242,
      "▁tis": 3243,
      "▁dibe": 3244,
      "##ator": 3245,
      "▁edenler": 3246,
      "▁yamac": 3247,
      "▁nese": 3248,
      "▁isveren": 3249,
      "▁imtiyaz": 3250,
      "▁mesafeyi": 3251,
      "▁astar": 3252,
      "▁oyn": 3253,
      "▁kokusu": 3254,
      "▁giderim": 3255,
      "▁komsu": 3256,
      "▁kaptır": 3257,
      "▁kep": 3258,
      "▁alayı": 3259,
      "##melerine": 3260,
      "▁serb": 3261,
      "##isli": 3262,
      "▁zirveye": 3263,
      "▁olaydan": 3264,
      "##mesinde": 3265,
      "##edigim": 3266,
      "▁anda": 3267,
      "▁vakit": 3268,
      "▁1/4": 3269,
      "▁pın": 3270,
      "▁sıkıs": 3271,
      "▁olmadigini": 3272,
      "▁gerisi": 3273,
      "▁sevgisini": 3274,
      "▁atalarımızın": 3275,
      "▁yaptıgını": 3276,
      "##lının": 3277,
      "▁yetenekleri": 3278,
      "▁etini": 3279,
      "▁mesrut": 3280,
      "▁sıkıntıya": 3281,
      "##acının": 3282,
      "▁rahatsız": 3283,
      "▁mesaj": 3284,
      "##arlandı": 3285,
      "▁taksit": 3286,
      "##eviz": 3287,
      "▁egzersiz": 3288,
      "▁cekmec": 3289,
      "▁uret": 3290,
      "▁doktu": 3291,
      "▁cekis": 3292,
      "▁burnundan": 3293,
      "##ılmak": 3294,
      "##sanız": 3295,
      "##amadım": 3296,
      "▁sinc": 3297,
      "▁ibadet": 3298,
      "▁yangın": 3299,
      "▁yili": 3300,
      "▁urunu": 3301,
      "▁disleri": 3302,
      "▁video": 3303,
      "▁liberal": 3304,
      "▁arkada": 3305,
      "▁konferans": 3306,
      "▁dunyasına": 3307,
      "##afor": 3308,
      "▁detayları": 3309,
      "▁vagon": 3310,
      "▁hocamız": 3311,
      "▁sıcram": 3312,
      "▁sorumlulugunu": 3313,
      "▁arkasını": 3314,
      "##bia": 3315,
      "##af": 3316,
      "##cu": 3317,
      "▁hicbiri": 3318,
      "▁yapacagı": 3319,
      "▁oynuyor": 3320,
      "▁?": 3321,
      "▁impar": 3322,
      "▁cerr": 3323,
      "##iste": 3324,
      "▁sez": 3325,
      "##8'de": 3326,
      "▁reasur": 3327,
      "▁ceketinin": 3328,
      "▁baglant": 3329,
      "▁vit": 3330,
      "▁yansı": 3331,
      "▁nisp": 3332,
      "▁feryat": 3333,
      "▁19": 3334,
      "##asti": 3335,
      "▁satıslara": 3336,
      "##ika": 3337,
      "▁finan": 3338,
      "▁dallas": 3339,
      "▁dogur": 3340,
      "▁saatlerde": 3341,
      "▁gelge": 3342,
      "▁yargıc": 3343,
      "▁beden": 3344,
      "##'ı": 3345,
      "▁savası": 3346,
      "▁alternatif": 3347,
      "▁bırakmıs": 3348,
      "▁yuzyılda": 3349,
      "▁girisi": 3350,
      "▁otur": 3351,
      "▁sag": 3352,
      "▁uyeleri": 3353,
      "▁onlerine": 3354,
      "▁koyar": 3355,
      "▁kavramı": 3356,
      "##ıla": 3357,
      "##kiz": 3358,
      "##cilerin": 3359,
      "##lerimiz": 3360,
      "##day": 3361,
      "▁pesinden": 3362,
      "▁goc": 3363,
      "▁kabın": 3364,
      "▁ihtiyar": 3365,
      "▁secimleri": 3366,
      "##leti": 3367,
      "▁muhabbet": 3368,
      "▁dow": 3369,
      "##\"": 3370,
      "▁ayrildik": 3371,
      "##tiy": 3372,
      "▁damak": 3373,
      "▁hamlede": 3374,
      "##kındaki": 3375,
      "▁ithalat": 3376,
      "▁paraya": 3377,
      "▁yıl": 3378,
      "##ezz": 3379,
      "▁suphe": 3380,
      "▁hatır": 3381,
      "▁urunler": 3382,
      "##geler": 3383,
      "▁masal": 3384,
      "▁cob": 3385,
      "▁konsep": 3386,
      "▁kavgası": 3387,
      "▁sabah": 3388,
      "##esiz": 3389,
      "▁salt": 3390,
      "▁mucadelesi": 3391,
      "▁orgut": 3392,
      "##ber": 3393,
      "▁af": 3394,
      "##musum": 3395,
      "##arc": 3396,
      "▁ikaz": 3397,
      "▁sper": 3398,
      "▁uzay": 3399,
      "▁sapkasını": 3400,
      "▁ortamında": 3401,
      "▁graf": 3402,
      "▁sade": 3403,
      "▁kısıtlama": 3404,
      "▁”": 3405,
      "▁reklamları": 3406,
      "▁hattının": 3407,
      "▁karam": 3408,
      "##ıgı": 3409,
      "▁caz": 3410,
      "▁yapabilir": 3411,
      "##uya": 3412,
      "▁doları": 3413,
      "▁carte": 3414,
      "▁bırakarak": 3415,
      "▁iddialar": 3416,
      "##anam": 3417,
      "▁devrinin": 3418,
      "▁edinmek": 3419,
      "▁bulabil": 3420,
      "▁istihbar": 3421,
      "▁tex": 3422,
      "▁kurulusunun": 3423,
      "▁kadın": 3424,
      "▁haric": 3425,
      "##ion": 3426,
      "▁bekl": 3427,
      "▁nerede": 3428,
      "▁zember": 3429,
      "▁yemegine": 3430,
      "▁amc": 3431,
      "##oc": 3432,
      "##emezdi": 3433,
      "▁suclar": 3434,
      "▁kaliforniya": 3435,
      "▁pahalıya": 3436,
      "▁kelimeler": 3437,
      "##ızda": 3438,
      "##lamadı": 3439,
      "▁yerlerinde": 3440,
      "▁sirkete": 3441,
      "▁calıstı": 3442,
      "▁milwaukee'den": 3443,
      "▁standart": 3444,
      "##ıza": 3445,
      "▁anlamında": 3446,
      "▁torba": 3447,
      "▁yurtdısında": 3448,
      "▁hotel": 3449,
      "▁bassav": 3450,
      "▁odamiz": 3451,
      "▁muster": 3452,
      "##ortusu": 3453,
      "▁gelisimini": 3454,
      "▁mig": 3455,
      "▁tarifesini": 3456,
      "▁merdiv": 3457,
      "▁merdivenin": 3458,
      "3": 3459,
      "▁arastırma": 3460,
      "▁ulasımını": 3461,
      "▁battan": 3462,
      "▁deyip": 3463,
      "##9'dan": 3464,
      "▁kentinde": 3465,
      "▁programlarının": 3466,
      "▁hukumet": 3467,
      "▁selam": 3468,
      "▁ymis": 3469,
      "▁tuketicilerin": 3470,
      "▁programı": 3471,
      "▁alımları": 3472,
      "▁ortamına": 3473,
      "▁kapatmak": 3474,
      "▁ice": 3475,
      "▁kanada": 3476,
      "▁istikamet": 3477,
      "▁icerir": 3478,
      "▁birimini": 3479,
      "▁hakkı": 3480,
      "▁dunyayı": 3481,
      "▁iletisimi": 3482,
      "▁korkuya": 3483,
      "▁yardım": 3484,
      "▁tal": 3485,
      "▁kapandıktan": 3486,
      "▁utan": 3487,
      "▁sikay": 3488,
      "▁ofke": 3489,
      "▁dusunuyor": 3490,
      "▁fonun": 3491,
      "▁huzurlu": 3492,
      "▁eyalette": 3493,
      "▁ruya": 3494,
      "▁genelinde": 3495,
      "▁sarhos": 3496,
      "▁telefonla": 3497,
      "##tasıyla": 3498,
      "▁ihtiyacım": 3499,
      "▁yapmadıgını": 3500,
      "▁zarar": 3501,
      "▁calısan": 3502,
      "▁evliligin": 3503,
      "▁halk": 3504,
      "▁idman": 3505,
      "▁zev": 3506,
      "##anla": 3507,
      "##inden": 3508,
      "▁deterj": 3509,
      "▁ugr": 3510,
      "▁kocasının": 3511,
      "##.5": 3512,
      "##amul": 3513,
      "▁boylesine": 3514,
      "▁altern": 3515,
      "▁bolumun": 3516,
      "▁otobusun": 3517,
      "▁ars": 3518,
      "##iyet": 3519,
      "▁azınlık": 3520,
      "▁satıcı": 3521,
      "##ellik": 3522,
      "##ustur": 3523,
      "▁dedesinin": 3524,
      "▁um": 3525,
      "##dart": 3526,
      "▁eczacı": 3527,
      "▁yakası": 3528,
      "▁cikolata": 3529,
      "▁kusagı": 3530,
      "▁columbia": 3531,
      "##cilerinin": 3532,
      "##ikr": 3533,
      "##raz": 3534,
      "▁renkte": 3535,
      "▁saf": 3536,
      "▁uyelerini": 3537,
      "▁haberi": 3538,
      "##ranc": 3539,
      "▁neticeye": 3540,
      "▁meydan": 3541,
      "▁duvarı": 3542,
      "▁cıt": 3543,
      "“": 3544,
      "▁sektorde": 3545,
      "▁hane": 3546,
      "▁aksam": 3547,
      "▁oldu": 3548,
      "​": 3549,
      "▁indirdi": 3550,
      "▁verimi": 3551,
      "##sem": 3552,
      "▁siddete": 3553,
      "##dır": 3554,
      "▁heg": 3555,
      "▁yasamadik": 3556,
      "▁gemi": 3557,
      "▁ydı": 3558,
      "##uza": 3559,
      "##leyicisi": 3560,
      "▁tl": 3561,
      "##ap": 3562,
      "▁yasamına": 3563,
      "▁say": 3564,
      "##omosyon": 3565,
      "##ons": 3566,
      "▁sertifik": 3567,
      "▁kayna": 3568,
      "##uyorlar": 3569,
      "▁korumak": 3570,
      "▁adayları": 3571,
      "▁kahvaltisi": 3572,
      "▁kurtaj": 3573,
      "##-sat": 3574,
      "▁kızın": 3575,
      "▁baglılık": 3576,
      "▁uretiminde": 3577,
      "▁ekim": 3578,
      "▁kahramanlık": 3579,
      "▁ligin": 3580,
      "▁1990'": 3581,
      "##umun": 3582,
      "##ulacak": 3583,
      "▁fır": 3584,
      "##outh": 3585,
      "▁olmayacak": 3586,
      "▁yık": 3587,
      "▁yaptirdi": 3588,
      "##imci": 3589,
      "▁leri": 3590,
      "▁allah": 3591,
      "▁piyasasını": 3592,
      "▁dinlem": 3593,
      "##larının": 3594,
      "▁gerc": 3595,
      "##egen": 3596,
      "▁9": 3597,
      "##uyla": 3598,
      "##iyetine": 3599,
      "▁edilmistir": 3600,
      "##gumuz": 3601,
      "▁manevra": 3602,
      "▁roz": 3603,
      "▁fizik": 3604,
      "▁%": 3605,
      "##luyordu": 3606,
      "▁moral": 3607,
      "▁goturdu": 3608,
      "##vas": 3609,
      "▁yetkilisi": 3610,
      "##er'in": 3611,
      "▁bura": 3612,
      "▁agr": 3613,
      "▁hil": 3614,
      "▁birbirlerini": 3615,
      "▁erkek": 3616,
      "▁minder": 3617,
      "▁sonraları": 3618,
      "▁yazım": 3619,
      "##esi": 3620,
      "▁baskanlıgında": 3621,
      "##maktan": 3622,
      "##enlerin": 3623,
      "▁gozlerim": 3624,
      "▁mulkiyet": 3625,
      "##agının": 3626,
      "▁lastik": 3627,
      "▁hissediyor": 3628,
      "▁havayolları'nın": 3629,
      "▁haftanın": 3630,
      "▁yeniden": 3631,
      "▁ayrım": 3632,
      "▁bagırdı": 3633,
      "▁zah": 3634,
      "▁feder": 3635,
      "▁kitleye": 3636,
      "▁baslamıstı": 3637,
      "▁yede": 3638,
      "▁vurmak": 3639,
      "▁phoenix": 3640,
      "▁yasayı": 3641,
      "##inda": 3642,
      "▁analiz": 3643,
      "▁arkadaslarıyla": 3644,
      "▁ofise": 3645,
      "▁destekley": 3646,
      "▁pasaj": 3647,
      "▁lisan": 3648,
      "▁gov": 3649,
      "▁rengi": 3650,
      "▁gorusmeleri": 3651,
      "▁duygusunun": 3652,
      "▁utu": 3653,
      "▁ispat": 3654,
      "▁maruz": 3655,
      "##uluk": 3656,
      "▁strateji": 3657,
      "##/32": 3658,
      "##eyle": 3659,
      "▁urunun": 3660,
      "▁kaynaklandıgını": 3661,
      "##laya": 3662,
      "▁kole": 3663,
      "▁vermektedir": 3664,
      "▁beyanat": 3665,
      "▁tespih": 3666,
      "▁ikibin": 3667,
      "▁hareketinin": 3668,
      "▁ra": 3669,
      "▁tepsiye": 3670,
      "▁'lik": 3671,
      "▁bankacılıgı": 3672,
      "▁vermedi": 3673,
      "▁somur": 3674,
      "▁nimet": 3675,
      "▁arastırmaları": 3676,
      "▁ayaklarını": 3677,
      "▁sirketi": 3678,
      "▁semsiye": 3679,
      "▁birincisi": 3680,
      "▁yokus": 3681,
      "▁ex": 3682,
      "▁bilgisayar-programı": 3683,
      "▁gecirdik": 3684,
      "▁bolg": 3685,
      "▁kendine": 3686,
      "▁mahz": 3687,
      "▁lok": 3688,
      "▁yapılır": 3689,
      "▁dikis": 3690,
      "▁ustelik": 3691,
      "▁sesini": 3692,
      "▁dantel": 3693,
      "▁partiyi": 3694,
      "▁kons": 3695,
      "##irmi": 3696,
      "▁panjur": 3697,
      "▁gerekse": 3698,
      "▁diregi": 3699,
      "##cık": 3700,
      "##istim": 3701,
      "▁kocasına": 3702,
      "▁azabı": 3703,
      "▁phoeni": 3704,
      "▁konusunda": 3705,
      "##eder": 3706,
      "▁mual": 3707,
      "▁birden": 3708,
      "▁og": 3709,
      "▁ziraat": 3710,
      "▁hayalet": 3711,
      "▁koop": 3712,
      "▁arkadası": 3713,
      "▁degil": 3714,
      "▁mufett": 3715,
      "##ligimin": 3716,
      "▁gelmis": 3717,
      "▁darbuk": 3718,
      "▁olu": 3719,
      "▁gazetenin": 3720,
      "▁yonet": 3721,
      "##gesi": 3722,
      "##iren": 3723,
      "▁cıkıs": 3724,
      "▁adamdı": 3725,
      "▁belirtmek": 3726,
      "##etiyle": 3727,
      "▁icti": 3728,
      "▁puanlama": 3729,
      "##imizle": 3730,
      "##ememis": 3731,
      "▁gordun": 3732,
      "▁arap": 3733,
      "▁tiyatronun": 3734,
      "▁ekmek": 3735,
      "##iyim": 3736,
      "▁hastaneye": 3737,
      "▁muzigi": 3738,
      "▁hastane": 3739,
      "▁sonundan": 3740,
      "▁firar": 3741,
      "##enin": 3742,
      "▁evlen": 3743,
      "▁tabi": 3744,
      "▁amerikan": 3745,
      "▁boyut": 3746,
      "▁ihalesinde": 3747,
      "▁gog": 3748,
      "▁uygulam": 3749,
      "▁sonbaharı": 3750,
      "▁yonden": 3751,
      "▁hikayesini": 3752,
      "##ilmesine": 3753,
      "##d.": 3754,
      "##esidir": 3755,
      "##unuza": 3756,
      "▁cabalarını": 3757,
      "▁sirketin": 3758,
      "▁karab": 3759,
      "##inler": 3760,
      "▁fiyatın": 3761,
      "##ob": 3762,
      "▁tam": 3763,
      "##uvar": 3764,
      "##luyor": 3765,
      "▁sendromu": 3766,
      "▁fasul": 3767,
      "▁artısı": 3768,
      "▁yabancıların": 3769,
      "▁yukarıya": 3770,
      "▁ont": 3771,
      "▁fark": 3772,
      "▁guclu": 3773,
      "▁yıllardan": 3774,
      "▁sondur": 3775,
      "##izligi": 3776,
      "▁cemaat": 3777,
      "▁sit": 3778,
      "▁zihninde": 3779,
      "▁duduk": 3780,
      "▁yonetiminin": 3781,
      "▁ayrılıp": 3782,
      "▁biraz": 3783,
      "▁hareketi": 3784,
      "▁7": 3785,
      "▁zih": 3786,
      "##atla": 3787,
      "##anından": 3788,
      "##emem": 3789,
      "▁ucuslarınız": 3790,
      "▁ceph": 3791,
      "▁dalına": 3792,
      "##rat": 3793,
      "▁mahkemesi": 3794,
      "▁kampanyalardan": 3795,
      "▁isg": 3796,
      "▁sanatlar": 3797,
      "▁degirmen": 3798,
      "▁hepsinden": 3799,
      "##sunuz": 3800,
      "▁isler": 3801,
      "##3": 3802,
      "▁yankı": 3803,
      "▁bulama": 3804,
      "▁ogr": 3805,
      "##tema": 3806,
      "##imlerin": 3807,
      "##otu": 3808,
      "▁hosgor": 3809,
      "▁uretiminin": 3810,
      "▁efsane": 3811,
      "▁orman": 3812,
      "▁senden": 3813,
      "##dum": 3814,
      "▁yoktur": 3815,
      "##ilik": 3816,
      "▁cifte": 3817,
      "▁onune": 3818,
      "▁odenek": 3819,
      "▁sıcagı": 3820,
      "▁resim": 3821,
      "▁londra": 3822,
      "▁baskumandan": 3823,
      "##umuzu": 3824,
      "▁koyuldu": 3825,
      "▁sifir": 3826,
      "▁teyze": 3827,
      "##lanan": 3828,
      "▁merte": 3829,
      "##luluk": 3830,
      "##batı": 3831,
      "▁beton": 3832,
      "▁orn": 3833,
      "##saat": 3834,
      "▁gizlemek": 3835,
      "▁poker": 3836,
      "▁karısının": 3837,
      "##abeti": 3838,
      "##esiyle": 3839,
      "▁kazancı": 3840,
      "▁gecici": 3841,
      "▁gogsunun": 3842,
      "▁kutlama": 3843,
      "▁fazilet": 3844,
      "▁kisinin": 3845,
      "##lıklarını": 3846,
      "##ıg": 3847,
      "▁tugla": 3848,
      "▁num": 3849,
      "▁beygir": 3850,
      "▁vir": 3851,
      "##hw": 3852,
      "▁temsilcileri": 3853,
      "▁hissenin": 3854,
      "▁korkusu": 3855,
      "##tıga": 3856,
      "▁duruma": 3857,
      "▁ayva": 3858,
      "##taj": 3859,
      "▁yuzumu": 3860,
      "##duk": 3861,
      "##ildik": 3862,
      "▁kaba": 3863,
      "▁disi": 3864,
      "▁insanla": 3865,
      "▁sansur": 3866,
      "##dini": 3867,
      "▁yukarı": 3868,
      "##ulmustur": 3869,
      "▁yasay": 3870,
      "##tlar": 3871,
      "▁broker": 3872,
      "▁ileri": 3873,
      "▁pırıltı": 3874,
      "▁baglantı": 3875,
      "▁4": 3876,
      "▁tecrub": 3877,
      "▁degisikliklerin": 3878,
      "##ciden": 3879,
      "▁keten": 3880,
      "▁bolgesine": 3881,
      "##hakk": 3882,
      "##der": 3883,
      "▁first": 3884,
      "▁sel": 3885,
      "▁gununde": 3886,
      "▁rehberim": 3887,
      "▁islemlerine": 3888,
      "▁ucmanın": 3889,
      "▁dusuncenin": 3890,
      "▁etegi": 3891,
      "▁oakland'dan": 3892,
      "▁kirp": 3893,
      "▁anladım": 3894,
      "##orta": 3895,
      "▁geceler": 3896,
      "▁baskalarının": 3897,
      "▁karısımı": 3898,
      "▁olume": 3899,
      "▁muhabir": 3900,
      "▁genislet": 3901,
      "##isine": 3902,
      "##isah": 3903,
      "▁kırılması": 3904,
      "▁lıgın": 3905,
      "▁sansını": 3906,
      "▁payı": 3907,
      "##lac": 3908,
      "▁ırk": 3909,
      "▁oldum": 3910,
      "▁hedefleri": 3911,
      "▁senede": 3912,
      "##umluydu": 3913,
      "▁jo": 3914,
      "▁setin": 3915,
      "▁balay": 3916,
      "▁cantasında": 3917,
      "▁gosterir": 3918,
      "▁harp": 3919,
      "▁tik": 3920,
      "▁odalardan": 3921,
      "▁gormez": 3922,
      "▁kitaplarını": 3923,
      "▁meden": 3924,
      "▁yem": 3925,
      "▁odanın": 3926,
      "▁sattı": 3927,
      "▁icecekleri": 3928,
      "▁ifsa": 3929,
      "▁lirayı": 3930,
      "▁puandan": 3931,
      "▁tavr": 3932,
      "▁yola": 3933,
      "▁emrini": 3934,
      "▁tadimiza": 3935,
      "▁faaliyette": 3936,
      "▁partisinin": 3937,
      "▁pist": 3938,
      "▁gorusmek": 3939,
      "▁hucre": 3940,
      "▁sahneye": 3941,
      "##lerimin": 3942,
      "▁dolay": 3943,
      "▁ettigi": 3944,
      "▁ustlen": 3945,
      "▁class": 3946,
      "▁gunesten": 3947,
      "##otuz": 3948,
      "▁etmeli": 3949,
      "▁:": 3950,
      "▁ziyan": 3951,
      "▁savcılar": 3952,
      "▁yarısını": 3953,
      "▁sonradan": 3954,
      "▁s&": 3955,
      "▁koyunun": 3956,
      "##eff": 3957,
      "▁birles": 3958,
      "▁anladı": 3959,
      "▁cekmis": 3960,
      "▁buzdolabı": 3961,
      "▁yonelikti": 3962,
      "##e'nin": 3963,
      "▁endeks": 3964,
      "▁muhab": 3965,
      "▁dusuk": 3966,
      "▁bahanesiyle": 3967,
      "▁nufus": 3968,
      "▁kapsamlı": 3969,
      "▁kendinden": 3970,
      "▁filmleri": 3971,
      "▁hamle": 3972,
      "▁tulb": 3973,
      "▁aktar": 3974,
      "▁gon": 3975,
      "▁avına": 3976,
      "▁polon": 3977,
      "▁cagırdı": 3978,
      "▁traf": 3979,
      "▁mutfagi": 3980,
      "▁kerpic": 3981,
      "▁edip": 3982,
      "##otte": 3983,
      "##izlik": 3984,
      "▁bakim": 3985,
      "▁tasıdı": 3986,
      "▁krem": 3987,
      "▁espr": 3988,
      "▁seg": 3989,
      "▁versiyonu": 3990,
      "▁terliklerini": 3991,
      "▁anlıslanabili": 3992,
      "▁sırt": 3993,
      "▁uzaklarda": 3994,
      "▁romant": 3995,
      "▁tek": 3996,
      "##lantılı": 3997,
      "▁iceriyor": 3998,
      "##x": 3999,
      "▁gorusuldu": 4000,
      "##kaz": 4001,
      "▁takı": 4002,
      "##aylon": 4003,
      "▁bula": 4004,
      "▁artıyor": 4005,
      "▁kalpak": 4006,
      "##ali": 4007,
      "##agon": 4008,
      "##abilir": 4009,
      "##oglu": 4010,
      "▁fiyatlardan": 4011,
      "▁rastlantı": 4012,
      "##istan": 4013,
      "▁gormedi": 4014,
      "##layacak": 4015,
      "▁fer": 4016,
      "▁haziranda": 4017,
      "▁reper": 4018,
      "▁teslimat": 4019,
      "##lesmis": 4020,
      "▁kacak": 4021,
      "▁gars": 4022,
      "▁fasuly": 4023,
      "▁giriste": 4024,
      "▁dunyadan": 4025,
      "▁gostermeye": 4026,
      "##ununun": 4027,
      "##dın": 4028,
      "▁belirtileri": 4029,
      "▁geciriyor": 4030,
      "▁bacakları": 4031,
      "▁paris": 4032,
      "##​": 4033,
      "▁fakult": 4034,
      "▁macı": 4035,
      "▁kasırga": 4036,
      "▁dolandırıcılık": 4037,
      "##y's": 4038,
      "▁urunlerinin": 4039,
      "▁ticaretin": 4040,
      "▁olaylara": 4041,
      "▁kazayla": 4042,
      "##ebilirdi": 4043,
      "▁kagıdı": 4044,
      "▁rahip": 4045,
      "▁musam": 4046,
      "▁lir": 4047,
      "▁yapar": 4048,
      "▁malı": 4049,
      "▁inanilmaz": 4050,
      "##ribut": 4051,
      "▁mukemmel": 4052,
      "##ılır": 4053,
      "▁agabey": 4054,
      "##yacak": 4055,
      "▁sık": 4056,
      "▁matba": 4057,
      "▁ile": 4058,
      "▁sermayesini": 4059,
      "▁kardesinin": 4060,
      "##zer": 4061,
      "▁suik": 4062,
      "▁eserleri": 4063,
      "▁kapsamı": 4064,
      "▁yukselisle": 4065,
      "▁gec": 4066,
      "▁hoc": 4067,
      "##etr": 4068,
      "##30'dan": 4069,
      "▁birbirler": 4070,
      "▁ster": 4071,
      "▁yararlanmadim": 4072,
      "▁disip": 4073,
      "▁atı": 4074,
      "▁bashek": 4075,
      "▁gosterdigini": 4076,
      "##duktan": 4077,
      "▁kısıt": 4078,
      "▁prosed": 4079,
      "▁hamam": 4080,
      "▁cevresine": 4081,
      "##ıcak": 4082,
      "##iyete": 4083,
      "▁obj": 4084,
      "▁odemesini": 4085,
      "▁ide": 4086,
      "▁artıs": 4087,
      "▁cıkmak": 4088,
      "▁bedel": 4089,
      "▁cekim": 4090,
      "▁gazetesinin": 4091,
      "▁yedir": 4092,
      "▁stil": 4093,
      "▁suları": 4094,
      "▁kediyi": 4095,
      "##esel": 4096,
      "▁suclama": 4097,
      "##medik": 4098,
      "▁duyguları": 4099,
      "▁kagıt": 4100,
      "▁serviste": 4101,
      "▁vizyon": 4102,
      "▁vazo": 4103,
      "▁herkes": 4104,
      "▁dalga": 4105,
      "▁8'den": 4106,
      "▁karmas": 4107,
      "▁dav": 4108,
      "▁kuy": 4109,
      "▁derde": 4110,
      "▁ucusla": 4111,
      "▁ayakkabılar": 4112,
      "▁ucuslarının": 4113,
      "##abil": 4114,
      "▁enistemiz": 4115,
      "##arda": 4116,
      "##80'": 4117,
      "▁ertesi": 4118,
      "▁cember": 4119,
      "▁sayılı": 4120,
      "▁dosy": 4121,
      "▁hepimizi": 4122,
      "▁sistemine": 4123,
      "▁tug": 4124,
      "##siyon": 4125,
      "▁hizmette": 4126,
      "##larımla": 4127,
      "##cb": 4128,
      "##cinin": 4129,
      "▁onumuzdeki": 4130,
      "##emm": 4131,
      "▁23": 4132,
      "▁sozluk": 4133,
      "▁derslerine": 4134,
      "▁kin": 4135,
      "▁ortalıgı": 4136,
      "▁oyuncu": 4137,
      "##7": 4138,
      "▁baskanlıgı": 4139,
      "*": 4140,
      "▁bakanlıgı": 4141,
      "▁kararsiz": 4142,
      "▁donemlerinde": 4143,
      "▁sims": 4144,
      "▁rakipleri": 4145,
      "▁sidd": 4146,
      "##luye": 4147,
      "##tiler": 4148,
      "▁ragmen": 4149,
      "##ig": 4150,
      "▁sozcuk": 4151,
      "##abın": 4152,
      "▁tacirler": 4153,
      "▁no": 4154,
      "##emsiz": 4155,
      "▁dergiler": 4156,
      "##meyecegini": 4157,
      "▁ilg": 4158,
      "##suna": 4159,
      "▁memnun": 4160,
      "▁tarak": 4161,
      "▁planlar": 4162,
      "▁kapısının": 4163,
      "▁yaklastı": 4164,
      "▁mam": 4165,
      "▁incelem": 4166,
      "▁secimler": 4167,
      "▁tehdidini": 4168,
      "▁hapis": 4169,
      "▁nesesi": 4170,
      "▁temet": 4171,
      "▁mul": 4172,
      "▁mode": 4173,
      "▁cadde": 4174,
      "▁yn": 4175,
      "▁yaslarına": 4176,
      "##w": 4177,
      "▁mektep": 4178,
      "▁adamının": 4179,
      "▁muzisy": 4180,
      "▁kadayıf": 4181,
      "▁kaleci": 4182,
      "▁etme": 4183,
      "▁akciger": 4184,
      "##vr": 4185,
      "▁dep": 4186,
      "▁tr": 4187,
      "▁dek": 4188,
      "▁kaliteye": 4189,
      "▁odasının": 4190,
      "▁kayb": 4191,
      "▁dogrult": 4192,
      "▁maas": 4193,
      "▁yapıs": 4194,
      "▁yılların": 4195,
      "▁yas": 4196,
      "##ekom": 4197,
      "##lıp": 4198,
      "▁bede": 4199,
      "▁heyecan": 4200,
      "##ield": 4201,
      "##mıl": 4202,
      "▁bilgisini": 4203,
      "▁bulamac": 4204,
      "▁yaptım": 4205,
      "▁arkası": 4206,
      "▁yelken": 4207,
      "▁mani": 4208,
      "▁vatanın": 4209,
      "▁karsılas": 4210,
      "▁oper": 4211,
      "▁doviz": 4212,
      "▁nabz": 4213,
      "▁yaktı": 4214,
      "▁kaderi": 4215,
      "▁canları": 4216,
      "▁senator": 4217,
      "##lanmıstır": 4218,
      "▁lezzetli": 4219,
      "▁talebe": 4220,
      "▁esyayı": 4221,
      "▁delik": 4222,
      "▁yonlendir": 4223,
      "▁ekledi": 4224,
      "##>": 4225,
      "▁rey": 4226,
      "##ildigini": 4227,
      "##ırtmak": 4228,
      "▁halen": 4229,
      "##fa": 4230,
      "▁komur": 4231,
      "▁cleveland'dan": 4232,
      "▁vadesi": 4233,
      "##agında": 4234,
      "▁oncesi": 4235,
      "▁tasarı": 4236,
      "▁ortak": 4237,
      "##ent": 4238,
      "▁satır": 4239,
      "▁kasım'da": 4240,
      "##lilik": 4241,
      "▁bakıma": 4242,
      "▁komitesinin": 4243,
      "▁konus": 4244,
      "▁camasır": 4245,
      "▁evr": 4246,
      "▁buldu": 4247,
      "▁sid": 4248,
      "▁sın": 4249,
      "▁ist": 4250,
      "##edik": 4251,
      "▁beri": 4252,
      "▁doldurdu": 4253,
      "▁egem": 4254,
      "▁yapmadı": 4255,
      "▁dusuncesi": 4256,
      "▁tarcın": 4257,
      "##ib": 4258,
      "▁kopar": 4259,
      "▁okulunda": 4260,
      "▁altına": 4261,
      "▁savas": 4262,
      "▁gorundu": 4263,
      "▁istiklal": 4264,
      "▁i": 4265,
      "##agını": 4266,
      "##enuz": 4267,
      "▁yerini": 4268,
      "▁kalmıs": 4269,
      "▁kesim": 4270,
      "▁kongr": 4271,
      "▁bende": 4272,
      "▁taksi": 4273,
      "▁dor": 4274,
      "▁otelde": 4275,
      "▁kullanmayı": 4276,
      "▁kac": 4277,
      "▁fayda": 4278,
      "▁faizleri": 4279,
      "##ıstı": 4280,
      "▁belge": 4281,
      "▁geyik": 4282,
      "##em": 4283,
      "##ecegiz": 4284,
      "##piyat": 4285,
      "▁trav": 4286,
      "▁birin": 4287,
      "▁1991": 4288,
      "##iel": 4289,
      "▁kahvaltı": 4290,
      "▁amel": 4291,
      "▁kactı": 4292,
      "▁kodunu": 4293,
      "▁girisim": 4294,
      "▁geminin": 4295,
      "##ich": 4296,
      "▁ucusları": 4297,
      "▁patronu": 4298,
      "[MASK]": 4299,
      "▁otellerin": 4300,
      "▁sorusuna": 4301,
      "##sel": 4302,
      "▁yoneticiler": 4303,
      "▁binayı": 4304,
      "▁luk": 4305,
      "▁peh": 4306,
      "▁tel": 4307,
      "##stu": 4308,
      "▁bunların": 4309,
      "▁olması": 4310,
      "▁lezzetleri": 4311,
      "##liligi": 4312,
      "▁hekim": 4313,
      "▁parkta": 4314,
      "▁vucudun": 4315,
      "##luydu": 4316,
      "▁kr": 4317,
      "▁kacın": 4318,
      "▁dord": 4319,
      "▁duser": 4320,
      "▁eve": 4321,
      "##iliyordu": 4322,
      "▁mort": 4323,
      "▁olmam": 4324,
      "▁kelimesi": 4325,
      "▁isteklerini": 4326,
      "▁kararlar": 4327,
      "▁renkleri": 4328,
      "##he": 4329,
      "▁odalarin": 4330,
      "##diklerinde": 4331,
      "▁oncelik": 4332,
      "▁gomlegini": 4333,
      "##ucuları": 4334,
      "##nak": 4335,
      "▁nedenleri": 4336,
      "▁yasama": 4337,
      "▁artık": 4338,
      "▁istanbul": 4339,
      "##ladı": 4340,
      "▁ilgilendiler": 4341,
      "▁terbiye": 4342,
      "##tanın": 4343,
      "▁muhakkak": 4344,
      "▁satıs": 4345,
      "▁talih": 4346,
      "▁ogrenim": 4347,
      "▁acık": 4348,
      "▁varil": 4349,
      "##kilerden": 4350,
      "▁domuz": 4351,
      "▁adamlar": 4352,
      "##os": 4353,
      "▁yıldız": 4354,
      "##iciye": 4355,
      "##cagızı": 4356,
      "▁degisiklikler": 4357,
      "▁unvanını": 4358,
      "▁salah": 4359,
      "▁ydu": 4360,
      "▁alısver": 4361,
      "▁iddiaları": 4362,
      "##r": 4363,
      "##usten": 4364,
      "▁kazanclarını": 4365,
      "▁mudahale": 4366,
      "▁semt": 4367,
      "▁kaybına": 4368,
      "▁7.9": 4369,
      "##vek": 4370,
      "▁1.8": 4371,
      "▁tasv": 4372,
      "##mayacagını": 4373,
      "##ustum": 4374,
      "##uldugunu": 4375,
      "▁saglık": 4376,
      "▁yemege": 4377,
      "▁tuttur": 4378,
      "##yıp": 4379,
      "▁zaten": 4380,
      "##uslu": 4381,
      "▁capta": 4382,
      "▁skandal": 4383,
      "##inlerini": 4384,
      "▁sevkiyat": 4385,
      "▁endustriler": 4386,
      "▁saks": 4387,
      "▁yatırımcı": 4388,
      "▁saglıgını": 4389,
      "▁gecim": 4390,
      "▁havalimanı": 4391,
      "▁bekliyor": 4392,
      "##lenme": 4393,
      "##op": 4394,
      "##lendirme": 4395,
      "▁atar": 4396,
      "▁sevgilisini": 4397,
      "▁degisime": 4398,
      "▁asamada": 4399,
      "##islerden": 4400,
      "▁arac": 4401,
      "▁beklentimi": 4402,
      "▁hazir": 4403,
      "##gn": 4404,
      "▁fran": 4405,
      "##ıyordu": 4406,
      "▁fonlarını": 4407,
      "▁hayli": 4408,
      "▁elimize": 4409,
      "▁kayn": 4410,
      "▁sahibi": 4411,
      "▁calısanların": 4412,
      "▁sarsıntı": 4413,
      "▁munak": 4414,
      "▁tanıyor": 4415,
      "▁eline": 4416,
      "▁kasır": 4417,
      "▁1'den": 4418,
      "▁iz": 4419,
      "▁memuriyet": 4420,
      "##ıldıgı": 4421,
      "▁sahiplerine": 4422,
      "##ediye": 4423,
      "▁34": 4424,
      "▁nem": 4425,
      "▁kahveyi": 4426,
      "▁onunla": 4427,
      "##memize": 4428,
      "▁hepiniz": 4429,
      "##ıldıgını": 4430,
      "▁uslu": 4431,
      "##cuyu": 4432,
      "##iyorsunuz": 4433,
      "##onom": 4434,
      "▁kaldim": 4435,
      "▁kıymetleri": 4436,
      "▁riv": 4437,
      "▁sorusturma": 4438,
      "▁durmamacasına": 4439,
      "▁itimat": 4440,
      "▁kalanlar": 4441,
      "▁kut": 4442,
      "▁dusunuyorum": 4443,
      "▁bonoları": 4444,
      "▁surecini": 4445,
      "▁koydu": 4446,
      "▁duydu": 4447,
      "▁yukselt": 4448,
      "▁aklın": 4449,
      "▁asans": 4450,
      "▁asker": 4451,
      "▁vaz": 4452,
      "##obil": 4453,
      "▁insanoglu": 4454,
      "▁arkadan": 4455,
      "##alik": 4456,
      "▁pahalı": 4457,
      "▁trafik": 4458,
      "##ited": 4459,
      "▁haftalarda": 4460,
      "▁pirz": 4461,
      "##emenin": 4462,
      "##arki": 4463,
      "##dılar": 4464,
      "##acagim": 4465,
      "▁besin": 4466,
      "▁gemiydi": 4467,
      "##imlari": 4468,
      "▁huz": 4469,
      "▁sig": 4470,
      "▁anası": 4471,
      "▁seytan": 4472,
      "▁ana": 4473,
      "▁mavzer": 4474,
      "##siye": 4475,
      "▁yıldır": 4476,
      "▁kosullarına": 4477,
      "▁suresini": 4478,
      "▁fabrikada": 4479,
      "##isten": 4480,
      "▁yatır": 4481,
      "##asıtasıyla": 4482,
      "▁yıllara": 4483,
      "▁gazin": 4484,
      "▁evimde": 4485,
      "▁destekle": 4486,
      "##tugu": 4487,
      "▁uretic": 4488,
      "▁nazar": 4489,
      "▁miami": 4490,
      "▁kumas": 4491,
      "▁diktator": 4492,
      "▁kosede": 4493,
      "▁ustunde": 4494,
      "##ij": 4495,
      "▁hareketiyle": 4496,
      "##irgin": 4497,
      "▁katılımcıların": 4498,
      "▁kokuyor": 4499,
      "##mesinden": 4500,
      "▁havl": 4501,
      "##haneye": 4502,
      "▁it": 4503,
      "▁samar": 4504,
      "▁fotograflar": 4505,
      "##is": 4506,
      "▁cift": 4507,
      "▁calıstır": 4508,
      "▁ben": 4509,
      "##ayede": 4510,
      "▁karla": 4511,
      "▁galiba": 4512,
      "▁suyu": 4513,
      "▁bizden": 4514,
      "##yetli": 4515,
      "##uzu": 4516,
      "▁bilgim": 4517,
      "▁du": 4518,
      "##cılı": 4519,
      "▁yukumluluk": 4520,
      "##line": 4521,
      "▁kılıf": 4522,
      "▁makineler": 4523,
      "▁yakıt": 4524,
      "##ıf": 4525,
      "▁isada": 4526,
      "##mayı": 4527,
      "▁ilgin": 4528,
      "▁enflasyon": 4529,
      "##abili": 4530,
      "▁bayanlar": 4531,
      "▁sanatı": 4532,
      "▁yanda": 4533,
      "▁devlet": 4534,
      "##onik": 4535,
      "▁cebinde": 4536,
      "##lerinizi": 4537,
      "▁fikirler": 4538,
      "▁ucretleri": 4539,
      "▁balayi": 4540,
      "▁bulgu": 4541,
      "▁kopru": 4542,
      "▁marka": 4543,
      "▁glas": 4544,
      "▁buraya": 4545,
      "▁sonr": 4546,
      "▁fırca": 4547,
      "▁listede": 4548,
      "▁ulusal": 4549,
      "##ert": 4550,
      "▁tim": 4551,
      "▁fenalık": 4552,
      "▁sirketinden": 4553,
      "▁dongu": 4554,
      "##lıyordu": 4555,
      "▁satımı": 4556,
      "▁meseleler": 4557,
      "▁ovgu": 4558,
      "▁hasan": 4559,
      "##tay": 4560,
      "##eginde": 4561,
      "▁kapasitesi": 4562,
      "▁ortalaması": 4563,
      "▁devlete": 4564,
      "▁kusların": 4565,
      "▁elimle": 4566,
      "▁faturamin": 4567,
      "▁prote": 4568,
      "▁mimarlık": 4569,
      "▁mit": 4570,
      "▁arabasına": 4571,
      "▁anad": 4572,
      "##alar": 4573,
      "▁prop": 4574,
      "▁za": 4575,
      "##ılıgına": 4576,
      "▁gazetecileri": 4577,
      "▁fabrika": 4578,
      "▁acen": 4579,
      "▁yetersiz": 4580,
      "▁ortami": 4581,
      "▁neredeyse": 4582,
      "▁beklenen": 4583,
      "▁fiyattan": 4584,
      "▁kulak": 4585,
      "▁buyudu": 4586,
      "▁cat": 4587,
      "▁turk": 4588,
      "▁olasılık": 4589,
      "▁gelmez": 4590,
      "▁ayna": 4591,
      "▁adında": 4592,
      "▁sozlerine": 4593,
      "▁cocuklarını": 4594,
      "▁kahvehan": 4595,
      "▁soyluyorlar": 4596,
      "▁ogretmenim": 4597,
      "▁karsıladı": 4598,
      "##?": 4599,
      "▁etmek": 4600,
      "▁piyasaya": 4601,
      "▁aclıktan": 4602,
      "▁endustri": 4603,
      "##”": 4604,
      "▁burası": 4605,
      "▁oyunda": 4606,
      "▁degisik": 4607,
      "▁kesil": 4608,
      "▁fiyatlarla": 4609,
      "▁com": 4610,
      "▁hiddet": 4611,
      "▁problemi": 4612,
      "##lamur": 4613,
      "##liy": 4614,
      "▁mark": 4615,
      "▁kapısından": 4616,
      "▁gerceklestir": 4617,
      "▁aday": 4618,
      "▁emtia": 4619,
      "▁atılım": 4620,
      "▁ikin": 4621,
      "▁surdu": 4622,
      "▁ucretine": 4623,
      "▁rolunu": 4624,
      "▁sini": 4625,
      "▁sordum": 4626,
      "##ız": 4627,
      "##dandır": 4628,
      "▁kucuk": 4629,
      "▁sun": 4630,
      "##ham": 4631,
      "▁kulagını": 4632,
      "▁carsıya": 4633,
      "▁gav": 4634,
      "▁budak": 4635,
      "##ıma": 4636,
      "##elleri": 4637,
      "##eleri": 4638,
      "▁tartısmaya": 4639,
      "▁bang": 4640,
      "-": 4641,
      "##den": 4642,
      "▁bakan": 4643,
      "▁pesine": 4644,
      "▁kog": 4645,
      "▁subay": 4646,
      "▁hissedarları": 4647,
      "##land": 4648,
      "▁sebebiyle": 4649,
      "▁cocuklug": 4650,
      "▁yazarı": 4651,
      "▁piyasanın": 4652,
      "▁icer": 4653,
      "▁hey": 4654,
      "▁tv": 4655,
      "▁sahne": 4656,
      "▁gonlunu": 4657,
      "▁artırmak": 4658,
      "▁yaptirmadim": 4659,
      "##iyetli": 4660,
      "▁asl": 4661,
      "▁belir": 4662,
      "▁icine": 4663,
      "▁benim": 4664,
      "▁duzene": 4665,
      "▁mahallede": 4666,
      "▁makaleye": 4667,
      "▁le": 4668,
      "▁geldikleri": 4669,
      "##stım": 4670,
      "▁gururu": 4671,
      "▁karaltı": 4672,
      "▁imzaladı": 4673,
      "▁sirketini": 4674,
      "▁tahta": 4675,
      "▁hukuk": 4676,
      "▁olacaktı": 4677,
      "▁etrafında": 4678,
      "▁ısıkları": 4679,
      "▁denli": 4680,
      "▁ocak": 4681,
      "▁pence": 4682,
      "▁gunluk": 4683,
      "▁sonucların": 4684,
      "▁calık": 4685,
      "▁illet": 4686,
      "▁oykusu": 4687,
      "▁hanimla": 4688,
      "##ucular": 4689,
      "▁otobus": 4690,
      "▁varlıgını": 4691,
      "▁ikinci": 4692,
      "▁renkli": 4693,
      "▁kucuktu": 4694,
      "##romu": 4695,
      "▁ansik": 4696,
      "##amdan": 4697,
      "▁gitar": 4698,
      "▁topları": 4699,
      "##emeyecegini": 4700,
      "▁degerli": 4701,
      "##chell": 4702,
      "▁20": 4703,
      "▁gost": 4704,
      "##st": 4705,
      "▁fuze": 4706,
      "▁guluyor": 4707,
      "##ogramı": 4708,
      "▁ibar": 4709,
      "##ılmaya": 4710,
      "▁ecz": 4711,
      "▁konak": 4712,
      "##lar": 4713,
      "##ıslı": 4714,
      "##era": 4715,
      "▁bakın": 4716,
      "##25": 4717,
      "##fi": 4718,
      "▁acıklıyor": 4719,
      "▁olculere": 4720,
      "##inizin": 4721,
      "▁kumsal": 4722,
      "▁uzum": 4723,
      "▁hun": 4724,
      "▁kentte": 4725,
      "##lıgı": 4726,
      "##lenmek": 4727,
      "▁padisah": 4728,
      "'": 4729,
      "▁duvarlar": 4730,
      "▁reorganizasyon": 4731,
      "▁1985'te": 4732,
      "▁rolu": 4733,
      "##lıyor": 4734,
      "##li": 4735,
      "▁duydum": 4736,
      "##iyi": 4737,
      "▁teklifin": 4738,
      "##ce": 4739,
      "##0'dan": 4740,
      "▁cagr": 4741,
      "▁vatandas": 4742,
      "▁cuval": 4743,
      "##memesi": 4744,
      "▁neden": 4745,
      "▁ode": 4746,
      "▁usta": 4747,
      "▁buyuklugu": 4748,
      "##adını": 4749,
      "▁doruk": 4750,
      "▁ortamda": 4751,
      "▁teyp": 4752,
      "▁isci": 4753,
      "▁vız": 4754,
      "##ktır": 4755,
      "▁getirdigini": 4756,
      "▁": 4757,
      "▁gunun": 4758,
      "▁hayatta": 4759,
      "▁sarlat": 4760,
      "▁birisi": 4761,
      "▁zeki": 4762,
      "▁agrısı": 4763,
      "▁iyice": 4764,
      "▁salat": 4765,
      "▁havaalanından": 4766,
      "▁kilogram": 4767,
      "▁ucretlerini": 4768,
      "▁bazda": 4769,
      "▁yargıl": 4770,
      "▁firmasının": 4771,
      "▁istatistik": 4772,
      "▁artı": 4773,
      "▁hayatımızın": 4774,
      "▁buldum": 4775,
      "▁yuvar": 4776,
      "▁imtiy": 4777,
      "▁yaptim": 4778,
      "▁sarayın": 4779,
      "▁adamları": 4780,
      "##van": 4781,
      "▁fast": 4782,
      "##ıp": 4783,
      "##egiyle": 4784,
      "▁.)": 4785,
      "▁kadınlar": 4786,
      "##emden": 4787,
      "▁eserini": 4788,
      "▁onder": 4789,
      "▁seyr": 4790,
      "▁ihtimali": 4791,
      "##nost": 4792,
      "▁eserler": 4793,
      "▁yasını": 4794,
      "▁kadına": 4795,
      "▁tered": 4796,
      "##cileri": 4797,
      "▁bayram": 4798,
      "▁buyur": 4799,
      "▁gitgide": 4800,
      "##oker": 4801,
      "▁hediye": 4802,
      "▁devre": 4803,
      "▁angeles'e": 4804,
      "▁kadrosu": 4805,
      "▁hanım": 4806,
      "##unikasyon": 4807,
      "##labilir": 4808,
      "▁getirir": 4809,
      "▁yıllardır": 4810,
      "▁edilen": 4811,
      "▁odam": 4812,
      "▁ayrıc": 4813,
      "▁a.m": 4814,
      "▁tedavulde": 4815,
      "▁ekibinin": 4816,
      "##amac": 4817,
      "▁yonuyle": 4818,
      "▁davacı": 4819,
      "##olo": 4820,
      "▁konuya": 4821,
      "▁dahi": 4822,
      "▁uygu": 4823,
      "##ikti": 4824,
      "▁goruyor": 4825,
      "▁tif": 4826,
      "▁3\\/8": 4827,
      "▁temb": 4828,
      "##g": 4829,
      "▁kalmayı": 4830,
      "▁duserek": 4831,
      "▁dolasmaya": 4832,
      "##lesi": 4833,
      "▁dısarıda": 4834,
      "▁cıkıyordu": 4835,
      "##aray": 4836,
      "▁cocuklu": 4837,
      "##usuyla": 4838,
      "▁etmenin": 4839,
      "▁cal": 4840,
      "▁ayrıca": 4841,
      "▁ehl": 4842,
      "▁lafa": 4843,
      "##kon": 4844,
      "▁misafirler": 4845,
      "▁suyuna": 4846,
      "##abilecek": 4847,
      "##mer": 4848,
      "▁ab": 4849,
      "▁komisyonları": 4850,
      "▁mas": 4851,
      "##isyon": 4852,
      "##amı": 4853,
      "▁emekliye": 4854,
      "▁verime": 4855,
      "▁cizgileri": 4856,
      "▁cop": 4857,
      "▁katı": 4858,
      "▁nih": 4859,
      "▁dakika": 4860,
      "▁c": 4861,
      "▁kaleme": 4862,
      "▁ekonomik": 4863,
      "##erv": 4864,
      "▁dusunmuyor": 4865,
      "▁piyasalarını": 4866,
      "##arlar": 4867,
      "▁hou": 4868,
      "▁seans": 4869,
      "##larlar": 4870,
      "▁yıllarında": 4871,
      "▁kusagının": 4872,
      "▁yor": 4873,
      "▁ilisk": 4874,
      "▁hakikat": 4875,
      "▁tur": 4876,
      "▁ortadan": 4877,
      "##lasmıs": 4878,
      "▁otor": 4879,
      "▁onemi": 4880,
      "##abi": 4881,
      "▁hukumetinin": 4882,
      "▁gel": 4883,
      "▁borsası'nda": 4884,
      "##sın": 4885,
      "##meye": 4886,
      "▁havaalanlarını": 4887,
      "▁rahat": 4888,
      "▁tazminat": 4889,
      "▁aldik": 4890,
      "▁markaları": 4891,
      "##ene": 4892,
      "▁karanfil": 4893,
      "##meldi": 4894,
      "▁lezz": 4895,
      "▁saglam": 4896,
      "▁karsiligini": 4897,
      "▁espri": 4898,
      "▁macın": 4899,
      "▁iceriye": 4900,
      "▁kaldırım": 4901,
      "##urg": 4902,
      "▁.\"": 4903,
      "▁icat": 4904,
      "▁buranın": 4905,
      "▁zaaf": 4906,
      "▁pencerede": 4907,
      "▁dairesine": 4908,
      "▁odamın": 4909,
      "▁ins": 4910,
      "▁oyla": 4911,
      "▁beraber": 4912,
      "▁oldugunu": 4913,
      "▁kredilere": 4914,
      "▁maske": 4915,
      "▁politikasını": 4916,
      "▁yuksek": 4917,
      "▁sosyalizm": 4918,
      "▁yetmis": 4919,
      "▁195": 4920,
      "##lor": 4921,
      "▁bahis": 4922,
      "▁uygulamayı": 4923,
      "##otif": 4924,
      "▁sisteminin": 4925,
      "▁av": 4926,
      "▁kafa": 4927,
      "##dayım": 4928,
      "##iz": 4929,
      "##emli": 4930,
      "▁magara": 4931,
      "▁acıklaması": 4932,
      "▁koltugun": 4933,
      "##11": 4934,
      "▁daglara": 4935,
      "▁yazıyor": 4936,
      "▁bonolar": 4937,
      "##leyen": 4938,
      "##malıyım": 4939,
      "▁kapan": 4940,
      "▁koruy": 4941,
      "▁yuzdelik": 4942,
      "##ilmaz": 4943,
      "▁met": 4944,
      "▁hatıra": 4945,
      "▁sız": 4946,
      "##tası": 4947,
      "▁galip": 4948,
      "##real": 4949,
      "▁teror": 4950,
      "▁gerci": 4951,
      "##zav": 4952,
      "▁m": 4953,
      "▁salonunda": 4954,
      "▁ayakta": 4955,
      "▁tutul": 4956,
      "##alardan": 4957,
      "▁elektr": 4958,
      "▁hastalıgına": 4959,
      "▁eser": 4960,
      "▁yetkili": 4961,
      "▁ayr": 4962,
      "▁sovyetlerin": 4963,
      "##olis": 4964,
      "##ırıl": 4965,
      "▁hıckırık": 4966,
      "▁koyn": 4967,
      "▁muhafazak": 4968,
      "▁kapsa": 4969,
      "##lediler": 4970,
      "▁etmeyi": 4971,
      "##digini": 4972,
      "▁siparisi": 4973,
      "▁rakibini": 4974,
      "▁uzaga": 4975,
      "▁tahsis": 4976,
      "▁milli": 4977,
      "▁profesoru": 4978,
      "▁tecrube": 4979,
      "▁201": 4980,
      "▁aylarında": 4981,
      "##ip": 4982,
      "▁edecegim": 4983,
      "▁alay": 4984,
      "##00000": 4985,
      "##iriz": 4986,
      "▁gurultusu": 4987,
      "▁gormus": 4988,
      "▁olan": 4989,
      "▁olanları": 4990,
      "##ni": 4991,
      "##kce": 4992,
      "##'dan": 4993,
      "▁kurumları": 4994,
      "▁80": 4995,
      "▁sinemaya": 4996,
      "▁yarısına": 4997,
      "##yasal": 4998,
      "▁york'a": 4999,
      "▁1/2'den": 5000,
      "▁balıkları": 5001,
      "##var": 5002,
      "▁nes": 5003,
      "▁omr": 5004,
      "▁servet": 5005,
      "▁isciyi": 5006,
      "▁uzman": 5007,
      "▁zamankinden": 5008,
      "▁sandaly": 5009,
      "▁merkezinin": 5010,
      "▁por": 5011,
      "▁piyasada": 5012,
      "▁mektebi": 5013,
      "▁cinsiyet": 5014,
      "##areti": 5015,
      "▁hareketini": 5016,
      "▁arastırmalar": 5017,
      "##madan": 5018,
      "##izdi": 5019,
      "▁satmaya": 5020,
      "▁doktorun": 5021,
      "▁haberim": 5022,
      "▁bluz": 5023,
      "▁hayatında": 5024,
      "##xpr": 5025,
      "▁firma": 5026,
      "▁yapıyordu": 5027,
      "▁sehri": 5028,
      "▁referans": 5029,
      "▁tencer": 5030,
      "##digimden": 5031,
      "##ates": 5032,
      "▁gercekleri": 5033,
      "▁ede": 5034,
      "##ulur": 5035,
      "▁projeleri": 5036,
      "##anın": 5037,
      "▁goruntusu": 5038,
      "##phia": 5039,
      "▁olabil": 5040,
      "▁sokagın": 5041,
      "▁mahkemeler": 5042,
      "▁gercekte": 5043,
      "▁onayına": 5044,
      "##nin": 5045,
      "▁konserv": 5046,
      "▁teb": 5047,
      "▁secmen": 5048,
      "▁st": 5049,
      "▁cizm": 5050,
      "▁artan": 5051,
      "▁topraga": 5052,
      "▁yabanc": 5053,
      "▁cekildi": 5054,
      "▁indian": 5055,
      "##dugumu": 5056,
      "▁es": 5057,
      "▁lam": 5058,
      "▁gayret": 5059,
      "▁efendim": 5060,
      "▁sterlin": 5061,
      "▁soru": 5062,
      "▁kurucusu": 5063,
      "##lilerin": 5064,
      "▁ipotekler": 5065,
      "▁biriydi": 5066,
      "▁munaseb": 5067,
      "▁sehirlerde": 5068,
      "##opter": 5069,
      "▁uye": 5070,
      "▁yıla": 5071,
      "▁58": 5072,
      "▁hepsinin": 5073,
      "▁hukumetin": 5074,
      "▁genellikle": 5075,
      "##makt": 5076,
      "▁karbon": 5077,
      "▁akınt": 5078,
      "▁kanaat": 5079,
      "▁boluk": 5080,
      "▁noktaya": 5081,
      "##atıl": 5082,
      "##ısız": 5083,
      "▁miralay": 5084,
      "##bas": 5085,
      "▁kadir": 5086,
      "##maların": 5087,
      "▁damarı": 5088,
      "▁kategorisi": 5089,
      "▁arabayı": 5090,
      "▁denizciler": 5091,
      "▁muzayede": 5092,
      "▁salon": 5093,
      "▁saglıgı": 5094,
      "##das": 5095,
      "##ahlık": 5096,
      "▁artısın": 5097,
      "▁artıslarına": 5098,
      "▁maksat": 5099,
      "▁katılımcı": 5100,
      "##ilme": 5101,
      "##iyetleri": 5102,
      "##andan": 5103,
      "##oloji": 5104,
      "▁geli": 5105,
      "##aduf": 5106,
      "##old": 5107,
      "▁tedbirler": 5108,
      "▁danıs": 5109,
      "▁utop": 5110,
      "▁seylerden": 5111,
      "▁kralic": 5112,
      "▁mim": 5113,
      "▁gaf": 5114,
      "▁tari": 5115,
      "▁ilcesinde": 5116,
      "▁doktora": 5117,
      "▁odalarda": 5118,
      "▁ob": 5119,
      "##kur": 5120,
      "▁dısisleri": 5121,
      "▁acıgı": 5122,
      "▁kurumu": 5123,
      "##isinde": 5124,
      "▁dinlenmek": 5125,
      "▁mıyım": 5126,
      "▁malzeme": 5127,
      "▁tabancayı": 5128,
      "▁yastık": 5129,
      "▁arastırmacı": 5130,
      "##lendirmek": 5131,
      "▁binada": 5132,
      "▁sark": 5133,
      "##agım": 5134,
      "▁ikna": 5135,
      "▁w": 5136,
      "▁sosyalist": 5137,
      "▁onlerinde": 5138,
      "▁arkamdan": 5139,
      "▁sordular": 5140,
      "▁servisi": 5141,
      "▁finansmanı": 5142,
      "##arası": 5143,
      "##imden": 5144,
      "##gınlık": 5145,
      "▁katılım": 5146,
      "▁tutacak": 5147,
      "▁yah": 5148,
      "▁telas": 5149,
      "▁nakit": 5150,
      "##kse": 5151,
      "▁cizgisini": 5152,
      "▁ralli": 5153,
      "▁charlotte'den": 5154,
      "▁bord": 5155,
      "▁aracılık": 5156,
      "▁patr": 5157,
      "##elemek": 5158,
      "▁mutfag": 5159,
      "▁secenek": 5160,
      "▁der": 5161,
      "▁cıngırak": 5162,
      "▁taht": 5163,
      "▁ayn": 5164,
      "##menin": 5165,
      "▁dedi": 5166,
      "▁annesiyle": 5167,
      "▁enerj": 5168,
      "##'ne": 5169,
      "▁ticareti": 5170,
      "▁kacırmak": 5171,
      "▁getir": 5172,
      "##lup": 5173,
      "▁konusu": 5174,
      "##cısı": 5175,
      "▁kasla": 5176,
      "##-b": 5177,
      "▁fikir": 5178,
      "▁berab": 5179,
      "▁sonuclarından": 5180,
      "##iligin": 5181,
      "▁dostlar": 5182,
      "▁halka": 5183,
      "▁hazırladı": 5184,
      "▁musteri": 5185,
      "##det": 5186,
      "##enleri": 5187,
      "▁gole": 5188,
      "▁lodos": 5189,
      "▁ruhu": 5190,
      ";": 5191,
      "▁torbaya": 5192,
      "▁olmayacagını": 5193,
      "▁gorucu": 5194,
      "▁de": 5195,
      "▁coktan": 5196,
      "##lig": 5197,
      "▁bası": 5198,
      "▁harcama": 5199,
      "##maları": 5200,
      "▁kulag": 5201,
      "##od": 5202,
      "▁fiyatlarını": 5203,
      "▁uzattı": 5204,
      "▁fant": 5205,
      "▁anında": 5206,
      "▁yorumunu": 5207,
      "▁uretime": 5208,
      "▁?..": 5209,
      "▁cokusunden": 5210,
      "▁verg": 5211,
      "▁mısınız": 5212,
      "▁boga": 5213,
      "▁birbir": 5214,
      "##nı": 5215,
      "▁cennet": 5216,
      "▁yapragı": 5217,
      "##adı": 5218,
      "▁196": 5219,
      "▁sarkının": 5220,
      "▁gizli": 5221,
      "▁serbet": 5222,
      "▁inkılap": 5223,
      "##ersah": 5224,
      "▁kırmız": 5225,
      "▁beylik": 5226,
      "##imi": 5227,
      "▁toplantıya": 5228,
      "▁18": 5229,
      "▁tanıklık": 5230,
      "▁duny": 5231,
      "▁gaza": 5232,
      "▁kuk": 5233,
      "▁felsefe": 5234,
      "##suz": 5235,
      "▁iznini": 5236,
      "▁ederiz": 5237,
      "▁kalemi": 5238,
      "▁kıta": 5239,
      "##e": 5240,
      "▁sivr": 5241,
      "▁bugune": 5242,
      "▁terz": 5243,
      "▁adımlar": 5244,
      "▁esy": 5245,
      "▁ardında": 5246,
      "▁ekmegi": 5247,
      "▁noktasında": 5248,
      "▁olasılıgını": 5249,
      "▁ka": 5250,
      "▁yemegin": 5251,
      "▁karsılıgını": 5252,
      "▁muhasebe": 5253,
      "▁doları'na": 5254,
      "▁tarafını": 5255,
      "▁ittifak": 5256,
      "▁niyetine": 5257,
      "▁onumuzde": 5258,
      "##bek": 5259,
      "▁borclanma": 5260,
      "▁yog": 5261,
      "▁beni": 5262,
      "▁surum": 5263,
      "▁gorunumu": 5264,
      "▁sist": 5265,
      "▁veril": 5266,
      "▁imaj": 5267,
      "▁eli": 5268,
      "▁cicek": 5269,
      "▁amer": 5270,
      "▁evim": 5271,
      "##andı": 5272,
      "▁yagm": 5273,
      "▁ceb": 5274,
      "▁ulasa": 5275,
      "▁oynamaya": 5276,
      "▁uykuya": 5277,
      "▁agız": 5278,
      "▁mamafi": 5279,
      "▁pazarı": 5280,
      "▁ula": 5281,
      "▁ekibine": 5282,
      "##ladık": 5283,
      "##diginde": 5284,
      "▁degerlendiril": 5285,
      "▁dogr": 5286,
      "▁kit": 5287,
      "▁hes": 5288,
      "##alarında": 5289,
      "▁akrep": 5290,
      "▁gidiyordu": 5291,
      "▁acıklama": 5292,
      "▁temizlikte": 5293,
      "##lugune": 5294,
      "▁sofraya": 5295,
      "▁kahvesi": 5296,
      "##ranı": 5297,
      "##lugunde": 5298,
      "▁biyotekn": 5299,
      "##il": 5300,
      "▁devrinde": 5301,
      "##ekler": 5302,
      "▁japon": 5303,
      "▁acak": 5304,
      "▁uzere": 5305,
      "▁portfoyu": 5306,
      "##.ceyr": 5307,
      "##nuz": 5308,
      "##kunu": 5309,
      "##'i": 5310,
      "##ksiyon": 5311,
      "▁malzem": 5312,
      "▁hemen": 5313,
      "▁kamu": 5314,
      "▁kaldırma": 5315,
      "▁bekler": 5316,
      "▁yoldası": 5317,
      "▁mıdır": 5318,
      "▁mola": 5319,
      "▁one": 5320,
      "▁bad": 5321,
      "##5'e": 5322,
      "▁1\\/": 5323,
      "▁ihtiras": 5324,
      "##ede": 5325,
      "▁rot": 5326,
      "▁bic": 5327,
      "▁argum": 5328,
      "▁cesitlendirme": 5329,
      "▁vurdu": 5330,
      "▁adeta": 5331,
      "##mezdi": 5332,
      "▁bolumu": 5333,
      "##ili": 5334,
      "▁bela": 5335,
      "▁vadeli": 5336,
      "▁sur": 5337,
      "▁oranla": 5338,
      "▁kredisi": 5339,
      "▁burosunda": 5340,
      "▁tasdik": 5341,
      "##do": 5342,
      "##anıklıgı": 5343,
      "▁sip": 5344,
      "▁leble": 5345,
      "##emis": 5346,
      "▁istedigim": 5347,
      "▁bizim": 5348,
      "▁yargı": 5349,
      "▁palas": 5350,
      "▁sahit": 5351,
      "▁istihbarat": 5352,
      "▁banyosu": 5353,
      "##oyla": 5354,
      "##lıları": 5355,
      "▁koca": 5356,
      "▁cenaze": 5357,
      "▁tekstil": 5358,
      "▁olanaklari": 5359,
      "▁cesidi": 5360,
      "▁okullar": 5361,
      "▁houston'a": 5362,
      "▁etrafımda": 5363,
      "▁ust": 5364,
      "▁istemem": 5365,
      "▁insanların": 5366,
      "▁ruz": 5367,
      "##ması": 5368,
      "▁rad": 5369,
      "p": 5370,
      "▁onemlisi": 5371,
      "▁yapr": 5372,
      "▁gecerli": 5373,
      "▁gazet": 5374,
      "▁baslarına": 5375,
      "▁yasasında": 5376,
      "##enk": 5377,
      "##uge": 5378,
      "##emesi": 5379,
      "##ıltı": 5380,
      "▁planda": 5381,
      "##larına": 5382,
      "▁sosyal": 5383,
      "▁miras": 5384,
      "▁osman": 5385,
      "▁kaslarını": 5386,
      "▁konfor": 5387,
      "▁dusus": 5388,
      "▁derecede": 5389,
      "▁kayıgın": 5390,
      "▁olgu": 5391,
      "▁kaldırdı": 5392,
      "▁talebi": 5393,
      "##lıyorum": 5394,
      "▁halkın": 5395,
      "▁bunları": 5396,
      "▁daktil": 5397,
      "▁emin": 5398,
      "▁pik": 5399,
      "##lerim": 5400,
      "##idin": 5401,
      "▁darı": 5402,
      "▁ogut": 5403,
      "▁bundan": 5404,
      "▁muess": 5405,
      "▁sınırlandır": 5406,
      "▁otomobiller": 5407,
      "▁istis": 5408,
      "▁cıkıyor": 5409,
      "##siy": 5410,
      "▁iyiles": 5411,
      "▁ileride": 5412,
      "▁dili": 5413,
      "▁gogsunu": 5414,
      "##‘": 5415,
      "▁firmalarının": 5416,
      "▁degismedi": 5417,
      "▁vitam": 5418,
      "▁edilmedi": 5419,
      "▁tamamı": 5420,
      "▁olgunluk": 5421,
      "▁redd": 5422,
      "▁zenginlik": 5423,
      "##eland": 5424,
      "▁insaat": 5425,
      "▁bakısta": 5426,
      "▁corp.": 5427,
      "▁yapının": 5428,
      "▁tutarı": 5429,
      "▁siyas": 5430,
      "▁boynunda": 5431,
      "##larla": 5432,
      "##ait": 5433,
      "▁saat": 5434,
      "▁cekin": 5435,
      "▁depol": 5436,
      "##ikten": 5437,
      "▁reisi": 5438,
      "▁sacak": 5439,
      "▁financi": 5440,
      "▁cay": 5441,
      "##yiz": 5442,
      "▁yolları": 5443,
      "▁herkesi": 5444,
      "▁kollarını": 5445,
      "##hassa": 5446,
      "##eyi": 5447,
      "##nc": 5448,
      "##ogu": 5449,
      "▁pla": 5450,
      "▁agırlık": 5451,
      "▁avans": 5452,
      "▁bolgeleri": 5453,
      "▁stratejiler": 5454,
      "▁razı": 5455,
      "##unku": 5456,
      "▁istatist": 5457,
      "▁cozumu": 5458,
      "▁leh": 5459,
      "##ikt": 5460,
      "##acılık": 5461,
      "▁patlıc": 5462,
      "##lıktan": 5463,
      "##9": 5464,
      "▁post": 5465,
      "##-f": 5466,
      "▁star": 5467,
      "##yum": 5468,
      "▁kozmetik": 5469,
      "▁baktım": 5470,
      "##iligi": 5471,
      "▁hab": 5472,
      "▁itibaren": 5473,
      "▁petersburg": 5474,
      "▁chicag": 5475,
      "##ıslan": 5476,
      "▁endust": 5477,
      "▁gi": 5478,
      "▁evin": 5479,
      "##ere": 5480,
      "▁mer": 5481,
      "##mıslardı": 5482,
      "▁zum": 5483,
      "▁mudurun": 5484,
      "▁tatbik": 5485,
      "▁yapmaları": 5486,
      "▁iddialarını": 5487,
      "##tıras": 5488,
      "##lıkları": 5489,
      "▁yarısı": 5490,
      "▁hesap": 5491,
      "▁yılından": 5492,
      "▁albay": 5493,
      "##masız": 5494,
      "▁naf": 5495,
      "##tı": 5496,
      "▁verici": 5497,
      "▁muhtar": 5498,
      "##eceginin": 5499,
      "▁tutam": 5500,
      "##leyin": 5501,
      "▁ifade": 5502,
      "▁suikast": 5503,
      "##tt": 5504,
      "▁muav": 5505,
      "▁fit": 5506,
      "▁kirem": 5507,
      "▁ask": 5508,
      "▁gozalt": 5509,
      "▁azı": 5510,
      "▁gecmiste": 5511,
      "▁piyasaları": 5512,
      "▁mevdu": 5513,
      "▁kale": 5514,
      "▁projeler": 5515,
      "▁oyununa": 5516,
      "##tigimiz": 5517,
      "▁mektu": 5518,
      "▁tekst": 5519,
      "▁ablası": 5520,
      "▁polit": 5521,
      "▁annenin": 5522,
      "▁kategor": 5523,
      "▁gordum": 5524,
      "▁semp": 5525,
      "▁'lı": 5526,
      "▁bacagını": 5527,
      "▁kır": 5528,
      "▁id": 5529,
      "▁yılı": 5530,
      "##vil": 5531,
      "▁hatt": 5532,
      "##'s": 5533,
      "▁..": 5534,
      "▁siparis": 5535,
      "▁dereceye": 5536,
      "▁bayır": 5537,
      "▁beyazın": 5538,
      "▁horm": 5539,
      "##ılıgını": 5540,
      "▁bahseder": 5541,
      "▁yut": 5542,
      "▁eserin": 5543,
      "▁altinda": 5544,
      "##oy": 5545,
      "▁hadis": 5546,
      "▁sogan": 5547,
      "▁%1": 5548,
      "▁milyondan": 5549,
      "▁hisselerine": 5550,
      "▁suk": 5551,
      "▁hostes": 5552,
      "▁merkezinde": 5553,
      "##jik": 5554,
      "▁postacı": 5555,
      "▁kan": 5556,
      "▁muhar": 5557,
      "▁yatırım": 5558,
      "▁biliyor": 5559,
      "▁fırtına": 5560,
      "▁cıkınca": 5561,
      "▁topluma": 5562,
      "▁teselli": 5563,
      "▁planları": 5564,
      "▁sada": 5565,
      "##lemeler": 5566,
      "▁kam": 5567,
      "▁kaplama": 5568,
      "▁kader": 5569,
      "▁karsıma": 5570,
      "▁tasıyan": 5571,
      "▁eliyle": 5572,
      "▁lal": 5573,
      "▁muhendislik": 5574,
      "▁kisisi": 5575,
      "▁kaf": 5576,
      "▁teni": 5577,
      "▁havaal": 5578,
      "▁61": 5579,
      "▁tazminatı": 5580,
      "▁kitap": 5581,
      "##9'a": 5582,
      "##miyordu": 5583,
      "##esyon": 5584,
      "▁nefer": 5585,
      "▁meydanda": 5586,
      "▁tanın": 5587,
      "▁goruyoruz": 5588,
      "##elerce": 5589,
      "▁dogruya": 5590,
      "▁davada": 5591,
      "▁yakin": 5592,
      "▁ail": 5593,
      "▁ucan": 5594,
      "▁bogum": 5595,
      "##ıklık": 5596,
      "▁kahkahalar": 5597,
      "▁endustrisi": 5598,
      "##ciligin": 5599,
      "##amayı": 5600,
      "▁kop": 5601,
      "▁99": 5602,
      "▁bostan": 5603,
      "▁meclis": 5604,
      "▁teknolojisi": 5605,
      "▁arkadasa": 5606,
      "▁kıdemli": 5607,
      "▁panc": 5608,
      "▁yaka": 5609,
      "▁salvar": 5610,
      "##izden": 5611,
      "▁otellerde": 5612,
      "##lop": 5613,
      "##digimiz": 5614,
      "▁perdeler": 5615,
      "▁ordu": 5616,
      "▁kurulmus": 5617,
      "▁nisan": 5618,
      "▁bunlardan": 5619,
      "▁lun": 5620,
      "▁paraları": 5621,
      "▁kavga": 5622,
      "##cilikle": 5623,
      "▁tecru": 5624,
      "▁tesiri": 5625,
      "▁malını": 5626,
      "▁isyan": 5627,
      "▁prosedur": 5628,
      "▁ismi": 5629,
      "##ısa": 5630,
      "▁parcaya": 5631,
      "##istlerin": 5632,
      "▁hisse": 5633,
      "##ims": 5634,
      "▁pansiyonda": 5635,
      "▁pencer": 5636,
      "##'nden": 5637,
      "▁karısık": 5638,
      "▁kullanma": 5639,
      "▁duzeni": 5640,
      "##ont": 5641,
      "##dugunde": 5642,
      "▁seyirci": 5643,
      "▁senato": 5644,
      "##lanıp": 5645,
      "▁kabin": 5646,
      "▁yaver": 5647,
      "▁francisco'ya": 5648,
      "##'deki": 5649,
      "▁okka": 5650,
      "▁aj": 5651,
      "▁nine": 5652,
      "▁hasır": 5653,
      "▁kendilerine": 5654,
      "▁ucları": 5655,
      "▁kotu": 5656,
      "▁dil": 5657,
      "##agat": 5658,
      "▁olmasıdır": 5659,
      "▁kurtul": 5660,
      "▁ziyade": 5661,
      "##sur": 5662,
      "##lilig": 5663,
      "▁arkadasını": 5664,
      "▁karlı": 5665,
      "##arak": 5666,
      "▁rov": 5667,
      "▁pozisyonu": 5668,
      "▁olusan": 5669,
      "##ume": 5670,
      "▁maddelerin": 5671,
      "▁guzeldi": 5672,
      "▁gelisimi": 5673,
      "##aca": 5674,
      "▁kaynagı": 5675,
      "▁omru": 5676,
      "▁geldigini": 5677,
      "▁adamın": 5678,
      "▁sadece": 5679,
      "▁hek": 5680,
      "▁insanlıga": 5681,
      "▁kalemleri": 5682,
      "##bin": 5683,
      "▁100000": 5684,
      "▁gercekten": 5685,
      "▁boston'dan": 5686,
      "▁prenses": 5687,
      "▁balkon": 5688,
      "▁politika": 5689,
      "▁gayr": 5690,
      "▁istem": 5691,
      "▁delikanlının": 5692,
      "▁cogu": 5693,
      "▁cocukların": 5694,
      "##teci": 5695,
      "▁ispirto": 5696,
      "##dip": 5697,
      "##uz": 5698,
      "▁govdes": 5699,
      "▁cenneti": 5700,
      "▁yukum": 5701,
      "▁saban": 5702,
      "▁savunu": 5703,
      "##tri": 5704,
      "▁dalgalar": 5705,
      "▁sozlesmeler": 5706,
      "▁dinlen": 5707,
      "▁turde": 5708,
      "##yonluk": 5709,
      "##ake": 5710,
      "##al": 5711,
      "##kanlıgı": 5712,
      "▁muht": 5713,
      "##ane": 5714,
      "▁cıv": 5715,
      "▁kazaz": 5716,
      "▁ekonomistler": 5717,
      "▁planladıgını": 5718,
      "▁muddet": 5719,
      "▁yerlerini": 5720,
      "▁istasyonu": 5721,
      "##unuzun": 5722,
      "▁masrafı": 5723,
      "##aj": 5724,
      "▁gozu": 5725,
      "▁risk": 5726,
      "▁hedef": 5727,
      "▁askerlik": 5728,
      "▁sehrine": 5729,
      "##mun": 5730,
      "##organ": 5731,
      "##ose": 5732,
      "▁tab": 5733,
      "▁lez": 5734,
      "##acı": 5735,
      "▁kapılarında": 5736,
      "▁gezi": 5737,
      "▁kusk": 5738,
      "▁embriy": 5739,
      "▁duskunlugu": 5740,
      "##lanıyor": 5741,
      "▁gazi": 5742,
      "▁adinaydi": 5743,
      "▁riskine": 5744,
      "##mızı": 5745,
      "▁vaj": 5746,
      "▁bilirdi": 5747,
      "##acaat": 5748,
      "▁isminin": 5749,
      "▁nam": 5750,
      "▁degistirdi": 5751,
      "▁tasarımı": 5752,
      "▁yapildi": 5753,
      "▁psilyum": 5754,
      "▁kalkar": 5755,
      "▁onlar": 5756,
      "▁rezerve": 5757,
      "▁kanunla": 5758,
      "▁arastır": 5759,
      "▁zaf": 5760,
      "▁istih": 5761,
      "▁tablo": 5762,
      "▁istikrar": 5763,
      "▁gayrimen": 5764,
      "##eledi": 5765,
      "▁issizlik": 5766,
      "▁mallar": 5767,
      "▁tahminini": 5768,
      "▁univers": 5769,
      "▁kazancını": 5770,
      "▁bagları": 5771,
      "▁kafesi": 5772,
      "##isim": 5773,
      "▁adet": 5774,
      "▁enflasyonun": 5775,
      "▁gezegen": 5776,
      "▁kursu": 5777,
      "▁ogretmenler": 5778,
      "▁paya": 5779,
      "▁pazarında": 5780,
      "##ilerin": 5781,
      "▁boncuk": 5782,
      "▁icleri": 5783,
      "▁ondan": 5784,
      "▁kapattı": 5785,
      "▁ko": 5786,
      "##ılabilir": 5787,
      "▁hamal": 5788,
      "▁gelecegini": 5789,
      "▁dun": 5790,
      "▁baklav": 5791,
      "▁parmaklarını": 5792,
      "##yete": 5793,
      "▁kamar": 5794,
      "##sıyor": 5795,
      "##ikasyon": 5796,
      "▁beklenti": 5797,
      "▁dogasi": 5798,
      "▁imkanlarindan": 5799,
      "▁bulur": 5800,
      "##irip": 5801,
      "▁kolunu": 5802,
      "▁kaliteliydi": 5803,
      "▁tahminlerinin": 5804,
      "##usundan": 5805,
      "▁irade": 5806,
      "▁cıkarır": 5807,
      "##igine": 5808,
      "▁yaz": 5809,
      "▁genel": 5810,
      "▁kalmadı": 5811,
      "##ock": 5812,
      "▁olusturdu": 5813,
      "▁tedavi": 5814,
      "▁alanına": 5815,
      "##lav": 5816,
      "▁partiler": 5817,
      "▁hay": 5818,
      "▁denilen": 5819,
      "▁ciftlik": 5820,
      "##attan": 5821,
      "▁ayında": 5822,
      "▁prensip": 5823,
      "▁philadelphia": 5824,
      "▁perdeden": 5825,
      "▁hareketin": 5826,
      "▁kaput": 5827,
      "▁planın": 5828,
      "▁yazarlar": 5829,
      "▁kapasit": 5830,
      "▁ofk": 5831,
      "▁herhangi": 5832,
      "▁milyardan": 5833,
      "▁girince": 5834,
      "▁a": 5835,
      "▁bat": 5836,
      "▁dallas'ta": 5837,
      "▁cocuklarının": 5838,
      "▁caminin": 5839,
      "▁oldukları": 5840,
      "▁olacagına": 5841,
      "##taki": 5842,
      "##etini": 5843,
      "##let": 5844,
      "▁ucretini": 5845,
      "##azaran": 5846,
      "▁topcu": 5847,
      "##eyn": 5848,
      "▁ustunu": 5849,
      "▁durumda": 5850,
      "▁gerekli": 5851,
      "▁nasihat": 5852,
      "▁marif": 5853,
      "##abz": 5854,
      "▁katkıda": 5855,
      "▁york'tan": 5856,
      "▁babama": 5857,
      "▁sabahında": 5858,
      "▁beyni": 5859,
      "▁hafıza": 5860,
      "▁kaynaklarına": 5861,
      "##ogram": 5862,
      "▁gorunuse": 5863,
      "▁satısını": 5864,
      "▁dolma": 5865,
      "▁otopark": 5866,
      "##ıklıgı": 5867,
      "▁tuhaf": 5868,
      "▁milletvekil": 5869,
      "▁ev": 5870,
      "▁set": 5871,
      "▁param": 5872,
      "##onra": 5873,
      "ı": 5874,
      "▁pemb": 5875,
      "▁salonu": 5876,
      "▁havlular": 5877,
      "##eket": 5878,
      "##dort": 5879,
      "▁etmesi": 5880,
      "▁amacıyla": 5881,
      "▁kuzu": 5882,
      "▁kenarda": 5883,
      "##ımda": 5884,
      "▁istedig": 5885,
      "▁carda": 5886,
      "▁partn": 5887,
      "▁alıs": 5888,
      "▁binbası": 5889,
      "##elige": 5890,
      "▁adamı": 5891,
      "▁ettiklerini": 5892,
      "▁beklendigini": 5893,
      "▁edildigini": 5894,
      "▁intik": 5895,
      "▁turkuler": 5896,
      "▁hissine": 5897,
      "▁uykus": 5898,
      "##erh": 5899,
      "##ska": 5900,
      "▁hissesi": 5901,
      "▁acıga": 5902,
      "▁birkacı": 5903,
      "▁kampanya": 5904,
      "▁uzeri": 5905,
      "▁bankacı": 5906,
      "▁olmasindan": 5907,
      "▁hizmetleri": 5908,
      "▁zaferi": 5909,
      "▁kavgaya": 5910,
      "▁kisilerle": 5911,
      "▁tıpkı": 5912,
      "▁ortaokul": 5913,
      "▁yepyeni": 5914,
      "▁kurustan": 5915,
      "▁duvarların": 5916,
      "▁tep": 5917,
      "▁etmiyorum": 5918,
      "▁otob": 5919,
      "▁sıkıstır": 5920,
      "▁alnına": 5921,
      "▁merhal": 5922,
      "▁kokain": 5923,
      "##avr": 5924,
      "▁yetkililerine": 5925,
      "▁katildim": 5926,
      "▁agacları": 5927,
      "▁nane": 5928,
      "▁yetkilileri": 5929,
      "▁cesitlilik": 5930,
      "▁casusluk": 5931,
      "▁zeytinyagı": 5932,
      "▁kese": 5933,
      "##mada": 5934,
      "▁cm": 5935,
      "▁erik": 5936,
      "▁ureticilerinin": 5937,
      "▁alar": 5938,
      "▁gerilim": 5939,
      "▁tehdid": 5940,
      "▁send": 5941,
      "▁istemis": 5942,
      "##zet": 5943,
      "▁amerikalıların": 5944,
      "##ıgının": 5945,
      "##yalı": 5946,
      "▁gozunu": 5947,
      "▁tanrı": 5948,
      "▁trans": 5949,
      "▁dondur": 5950,
      "▁yatırımcılarının": 5951,
      "##sarı": 5952,
      "▁kanuna": 5953,
      "▁seyleri": 5954,
      "▁cıp": 5955,
      "##erken": 5956,
      "▁dikkatini": 5957,
      "▁mah": 5958,
      "▁ihr": 5959,
      "##'le": 5960,
      "▁elemanlar": 5961,
      "▁limon": 5962,
      "##elerinin": 5963,
      "▁sahtek": 5964,
      "▁0.": 5965,
      "▁soylenir": 5966,
      "▁rezervasyonumu": 5967,
      "▁cagrısı": 5968,
      "▁ni": 5969,
      "▁kansas": 5970,
      "▁deneyim": 5971,
      "▁yatırımcılara": 5972,
      "▁uyan": 5973,
      "▁ucuyla": 5974,
      "##ilerini": 5975,
      "▁rezervasyonu": 5976,
      "▁ederim": 5977,
      "##cagını": 5978,
      "▁fırtın": 5979,
      "▁evimizde": 5980,
      "▁anlattı": 5981,
      "▁hac": 5982,
      "▁gozum": 5983,
      "▁olamaz": 5984,
      "▁gelisme": 5985,
      "##attı": 5986,
      "##malarını": 5987,
      "▁bagıs": 5988,
      "▁okulda": 5989,
      "▁gucleri": 5990,
      "▁komisyonu'na": 5991,
      "▁gecik": 5992,
      "##ugum": 5993,
      "▁fiyatını": 5994,
      "▁durak": 5995,
      "▁basladılar": 5996,
      "##ının": 5997,
      "▁hamil": 5998,
      "▁sıp": 5999,
      "▁mahkem": 6000,
      "▁toplantıyı": 6001,
      "##dug": 6002,
      "▁tasıt": 6003,
      "▁kocasını": 6004,
      "▁yapan": 6005,
      "▁kumandan": 6006,
      "▁uzerine": 6007,
      "▁kampanyalar": 6008,
      "▁saksı": 6009,
      "▁did": 6010,
      "▁kontratı": 6011,
      "▁uyum": 6012,
      "▁aklına": 6013,
      "▁arttır": 6014,
      "▁kırdı": 6015,
      "▁badem": 6016,
      "##dukten": 6017,
      "▁kus": 6018,
      "▁lag": 6019,
      "##ektedir": 6020,
      "▁kurgu": 6021,
      "▁turlarina": 6022,
      "##masın": 6023,
      "▁tarife": 6024,
      "▁hisselerde": 6025,
      "▁bellek": 6026,
      "▁kaldırımda": 6027,
      "▁nor": 6028,
      "▁az": 6029,
      "▁propaganda": 6030,
      "▁ikisi": 6031,
      "▁kimligi": 6032,
      "##izma": 6033,
      "▁golg": 6034,
      "▁birimler": 6035,
      "▁satıcılar": 6036,
      "##acta": 6037,
      "▁cephe": 6038,
      "##\\/8'e": 6039,
      "▁ciftci": 6040,
      "##aran": 6041,
      "##cının": 6042,
      "▁kalır": 6043,
      "##ilini": 6044,
      "▁kopya": 6045,
      "##tmek": 6046,
      "##kor": 6047,
      "▁seyrediyor": 6048,
      "▁senetleri": 6049,
      "▁1987'de": 6050,
      "##adem": 6051,
      "▁sorunlarını": 6052,
      "▁cumhur": 6053,
      "▁duvarlara": 6054,
      "##adetin": 6055,
      "▁giz": 6056,
      "▁degisiklikleri": 6057,
      "▁arabadan": 6058,
      "▁sizi": 6059,
      "▁yolu": 6060,
      "##ıcılar": 6061,
      "##'u": 6062,
      "▁dergi": 6063,
      "▁oda": 6064,
      "▁saatlerinde": 6065,
      "▁inanc": 6066,
      "▁ileriye": 6067,
      "##ade": 6068,
      "▁sonrasına": 6069,
      "##dv": 6070,
      "##ut": 6071,
      "▁japonya": 6072,
      "▁tesisti": 6073,
      "▁cık": 6074,
      "▁fotografı": 6075,
      "##uyle": 6076,
      "▁siv": 6077,
      "▁faydasını": 6078,
      "▁asist": 6079,
      "▁sahnenin": 6080,
      "▁gures": 6081,
      "▁onar": 6082,
      "▁subat": 6083,
      "▁telefona": 6084,
      "##gır": 6085,
      "▁yahudi": 6086,
      "▁rolune": 6087,
      "▁ad": 6088,
      "##lerce": 6089,
      "##suzluk": 6090,
      "▁soylemek": 6091,
      "▁.": 6092,
      "##ebe": 6093,
      "▁vaziyet": 6094,
      "▁mudafa": 6095,
      "▁savasta": 6096,
      "▁vurusu": 6097,
      "##tem": 6098,
      "##emiz": 6099,
      "##eldi": 6100,
      "▁cinsinden": 6101,
      "▁tıkır": 6102,
      "▁dokundu": 6103,
      "##mekte": 6104,
      "##layan": 6105,
      "▁zincir": 6106,
      "▁talebini": 6107,
      "▁ucretler": 6108,
      "##8": 6109,
      "▁asır": 6110,
      "▁varlıklarının": 6111,
      "▁aska": 6112,
      "▁degilse": 6113,
      "▁aracılı": 6114,
      "▁yuze": 6115,
      "▁katk": 6116,
      "▁reklamlar": 6117,
      "▁annesini": 6118,
      "##azla": 6119,
      "▁amacları": 6120,
      "▁acısından": 6121,
      "▁esek": 6122,
      "##eles": 6123,
      "▁sayfaları": 6124,
      "▁evler": 6125,
      "##anlarim": 6126,
      "9": 6127,
      "▁odasi": 6128,
      "▁kurum": 6129,
      "▁kalıb": 6130,
      "##it": 6131,
      "▁aklından": 6132,
      "▁kafayı": 6133,
      "▁ailesinden": 6134,
      "##igin": 6135,
      "##ısından": 6136,
      "▁tacir": 6137,
      "▁zuh": 6138,
      "▁ayrica": 6139,
      "▁yavrusu": 6140,
      "▁kokuyordu": 6141,
      "▁almadim": 6142,
      "▁milyon": 6143,
      "##almaya": 6144,
      "▁taraflar": 6145,
      "▁genis": 6146,
      "▁islevi": 6147,
      "##tır": 6148,
      "▁bom": 6149,
      "▁yaparlar": 6150,
      "▁gunlerde": 6151,
      "▁bulmustu": 6152,
      "▁varacak": 6153,
      "▁odemeleri": 6154,
      "▁likit": 6155,
      "▁ken": 6156,
      "▁bakarak": 6157,
      "▁sille": 6158,
      "▁rekor": 6159,
      "▁kor": 6160,
      "▁gelenlerin": 6161,
      "▁guven": 6162,
      "▁tartı": 6163,
      "##bir": 6164,
      "▁rom": 6165,
      "##'nu": 6166,
      "##aat": 6167,
      "▁kisiler": 6168,
      "##ibe": 6169,
      "▁dagın": 6170,
      "▁durumunu": 6171,
      "▁iliskin": 6172,
      "▁havuza": 6173,
      "▁taleb": 6174,
      "▁birim": 6175,
      "▁gobegi": 6176,
      "▁kendimize": 6177,
      "##.3": 6178,
      "▁aksama": 6179,
      "##mayız": 6180,
      "##p'nin": 6181,
      "▁misal": 6182,
      "▁olayın": 6183,
      "▁oyunun": 6184,
      "##ese": 6185,
      "▁satıslar": 6186,
      "▁alanlarda": 6187,
      "##lıklı": 6188,
      "▁varlıga": 6189,
      "▁kıvılcım": 6190,
      "▁niyet": 6191,
      "▁lara": 6192,
      "▁hasta": 6193,
      "##erler": 6194,
      "▁bekley": 6195,
      "▁topraktan": 6196,
      "##ami": 6197,
      "▁arastırmacılar": 6198,
      "##alarımızı": 6199,
      "▁redingot": 6200,
      "▁sesi": 6201,
      "▁yaklastıgını": 6202,
      "▁vaktiyle": 6203,
      "▁satıslarını": 6204,
      "##tıran": 6205,
      "▁yeri": 6206,
      "▁balıgı": 6207,
      "▁aram": 6208,
      "▁pasta": 6209,
      "▁araclar": 6210,
      "▁tiyatroda": 6211,
      "##lant": 6212,
      "##leye": 6213,
      "▁yoluna": 6214,
      "##ekul": 6215,
      "▁52": 6216,
      "▁hayatımız": 6217,
      "▁kovboy": 6218,
      "##anan": 6219,
      "▁mobilyalar": 6220,
      "▁avantaj": 6221,
      "▁olcek": 6222,
      "▁cesitler": 6223,
      "▁komis": 6224,
      "▁mayın": 6225,
      "▁senary": 6226,
      "▁evimize": 6227,
      "##oroz": 6228,
      "▁duzenlemeleri": 6229,
      "▁madde": 6230,
      "▁parasını": 6231,
      "▁civi": 6232,
      "▁tumuyle": 6233,
      "▁olusturuyor": 6234,
      "▁yapamaz": 6235,
      "▁sıgır": 6236,
      "##ılıgıyla": 6237,
      "##00'den": 6238,
      "##lenmesine": 6239,
      "##ekon": 6240,
      "▁7'de": 6241,
      "▁isinin": 6242,
      "▁cocugun": 6243,
      "▁giyin": 6244,
      "▁bilg": 6245,
      "▁haksızlık": 6246,
      "%": 6247,
      "▁duygusu": 6248,
      "▁bilhassa": 6249,
      "▁fiyatlari": 6250,
      "▁beklenenden": 6251,
      "▁motiv": 6252,
      "▁sınırları": 6253,
      "##si": 6254,
      "▁aran": 6255,
      "##itre": 6256,
      "▁cesaret": 6257,
      "▁egitmen": 6258,
      "▁imalat": 6259,
      "▁caddesi": 6260,
      "▁temer": 6261,
      "▁komp": 6262,
      "▁sogut": 6263,
      "▁savcılıgın": 6264,
      "▁istediler": 6265,
      "▁kadının": 6266,
      "▁k": 6267,
      "##ıtma": 6268,
      "▁toronto'dan": 6269,
      "▁dortte": 6270,
      "▁girer": 6271,
      "▁gununu": 6272,
      "##anoz": 6273,
      "▁versiyon": 6274,
      "▁kurallar": 6275,
      "##sınız": 6276,
      "▁refah": 6277,
      "▁erkekler": 6278,
      "▁kurde": 6279,
      "▁tarihinin": 6280,
      "▁sob": 6281,
      "▁kitab": 6282,
      "▁bahcede": 6283,
      "▁guvertede": 6284,
      "##bet": 6285,
      "▁keman": 6286,
      "▁ekibi": 6287,
      "▁co": 6288,
      "w": 6289,
      "▁soyle": 6290,
      "▁lek": 6291,
      "▁yaklasım": 6292,
      "▁cograf": 6293,
      "▁domatesleri": 6294,
      "▁kendisinde": 6295,
      "##kart": 6296,
      "▁ambargo": 6297,
      "▁fren": 6298,
      "▁yat": 6299,
      "▁cagrı": 6300,
      "▁aldigim": 6301,
      "##la": 6302,
      "▁vurgun": 6303,
      "##denin": 6304,
      "▁yapıldı": 6305,
      "▁ogle": 6306,
      "▁hoslan": 6307,
      "##anı": 6308,
      "▁cıkıp": 6309,
      "▁tasla": 6310,
      "▁minar": 6311,
      "▁cag": 6312,
      "▁pas": 6313,
      "▁serisi": 6314,
      "▁birinden": 6315,
      "▁cografy": 6316,
      "▁cekme": 6317,
      "##ininin": 6318,
      "##ogret": 6319,
      "▁guzelligi": 6320,
      "▁kararnam": 6321,
      "▁denizde": 6322,
      "▁parlam": 6323,
      "▁yonune": 6324,
      "▁terk": 6325,
      "##.50": 6326,
      "▁rev": 6327,
      "▁kanı": 6328,
      "▁cevaplar": 6329,
      "▁deh": 6330,
      "▁magazası": 6331,
      "▁arasına": 6332,
      "▁dusunceler": 6333,
      "▁duzeyine": 6334,
      "##ga": 6335,
      "▁tenek": 6336,
      "▁sırtına": 6337,
      "▁kalabalık": 6338,
      "▁ren": 6339,
      "▁hokk": 6340,
      "▁onları": 6341,
      "▁bac": 6342,
      "##leyip": 6343,
      "▁otede": 6344,
      "##meleri": 6345,
      "▁str": 6346,
      "▁esi": 6347,
      "##mar": 6348,
      "▁beyaz": 6349,
      "▁tiyatr": 6350,
      "▁sorunları": 6351,
      "▁davalar": 6352,
      "##iyat": 6353,
      "▁sozcukleri": 6354,
      "=": 6355,
      "▁sesiyle": 6356,
      "▁siyaset": 6357,
      "▁kompleksi": 6358,
      "##arın": 6359,
      "▁gelirler": 6360,
      "##unlar": 6361,
      "▁yal": 6362,
      "▁ayık": 6363,
      "▁def": 6364,
      "▁tanıs": 6365,
      "▁al": 6366,
      "##imleri": 6367,
      "▁ozelligi": 6368,
      "▁sagduy": 6369,
      "▁milletvek": 6370,
      "▁babam": 6371,
      "▁bildirildi": 6372,
      "▁cıktık": 6373,
      "▁30-hisse": 6374,
      "▁ettig": 6375,
      "▁1987": 6376,
      "▁tehlik": 6377,
      "▁yuzum": 6378,
      "##ekkur": 6379,
      "▁vermiyor": 6380,
      "▁muhafız": 6381,
      "▁bahset": 6382,
      "▁iddia": 6383,
      "##lın": 6384,
      "▁cic": 6385,
      "▁kl": 6386,
      "▁sahiptir": 6387,
      "▁felaket": 6388,
      "▁telekomunikasyon": 6389,
      "▁nezaket": 6390,
      "[UNK]": 6391,
      "▁evlerde": 6392,
      "▁durumuna": 6393,
      "▁saglıgına": 6394,
      "▁luz": 6395,
      "##medigi": 6396,
      "▁duyguların": 6397,
      "▁resimleri": 6398,
      "##vert": 6399,
      "▁deneme": 6400,
      "▁otel": 6401,
      "▁1988'de": 6402,
      "▁emri": 6403,
      "▁tiyatro": 6404,
      "▁bildi": 6405,
      "▁pav": 6406,
      "▁geldiginde": 6407,
      "##atist": 6408,
      "▁kaset": 6409,
      "▁okyan": 6410,
      "▁1988": 6411,
      "▁derhal": 6412,
      "▁genisleme": 6413,
      "##lasma": 6414,
      "▁namına": 6415,
      "▁yılları": 6416,
      "▁sus": 6417,
      "##akta": 6418,
      "▁tarlaları": 6419,
      "▁dugmeleri": 6420,
      "▁hik": 6421,
      "▁hediy": 6422,
      "▁vur": 6423,
      "▁olustur": 6424,
      "▁planını": 6425,
      "▁ihtir": 6426,
      "##arlıgı": 6427,
      "▁munasebetsizlik": 6428,
      "▁korktu": 6429,
      "##av": 6430,
      "##illi": 6431,
      "▁busbutun": 6432,
      "▁eden": 6433,
      "▁havayollarının": 6434,
      "▁ucuncu": 6435,
      "##0'da": 6436,
      "▁oteller": 6437,
      "▁hastalıkları": 6438,
      "##bay": 6439,
      "▁surat": 6440,
      "▁guvenlik": 6441,
      "##di": 6442,
      "##.ceyrek": 6443,
      "▁musterilerin": 6444,
      "▁meyv": 6445,
      "▁vadede": 6446,
      "##iya": 6447,
      "▁bunda": 6448,
      "▁ruhunun": 6449,
      "▁beyle": 6450,
      "▁ogrendi": 6451,
      "▁askın": 6452,
      "##malıyız": 6453,
      "▁yorum": 6454,
      "▁yere": 6455,
      "▁ofiste": 6456,
      "▁bankanın": 6457,
      "▁karton": 6458,
      "▁politikasının": 6459,
      "▁karısıklık": 6460,
      "▁10": 6461,
      "▁sevmek": 6462,
      "##osuna": 6463,
      "▁hisseleri": 6464,
      "▁minnet": 6465,
      "▁sayi": 6466,
      "▁1": 6467,
      "##endir": 6468,
      "▁keyif": 6469,
      "▁limanda": 6470,
      "▁guvenini": 6471,
      "##inlere": 6472,
      "##yip": 6473,
      "▁onunde": 6474,
      "▁mesele": 6475,
      "##lamıyor": 6476,
      "▁atıyor": 6477,
      "▁fikr": 6478,
      "▁konaklama": 6479,
      "▁maliye": 6480,
      "▁1970'": 6481,
      "▁gorun": 6482,
      "▁kafil": 6483,
      "▁ki": 6484,
      "▁isra": 6485,
      "▁celik": 6486,
      "▁tul": 6487,
      "▁veya": 6488,
      "##cusu": 6489,
      "##estirdi": 6490,
      "▁yoksul": 6491,
      "▁islerin": 6492,
      "▁durumdan": 6493,
      "##lendigini": 6494,
      "##izme": 6495,
      "▁ilave": 6496,
      "▁kotums": 6497,
      "▁gereken": 6498,
      "▁sehr": 6499,
      "▁fatura": 6500,
      "▁lezzetliydi": 6501,
      "▁oturumda": 6502,
      "▁vergisi": 6503,
      "▁yasındaki": 6504,
      "##lılıgını": 6505,
      "▁bunal": 6506,
      "##juv": 6507,
      "▁kıs": 6508,
      "##usa": 6509,
      "##leli": 6510,
      "▁tarif": 6511,
      "##ımları": 6512,
      "▁dısarı": 6513,
      "▁kontrol": 6514,
      "▁basım": 6515,
      "▁yara": 6516,
      "▁zem": 6517,
      "▁turistlerin": 6518,
      "##ildim": 6519,
      "▁cesitliligi": 6520,
      "▁38": 6521,
      "▁yatagına": 6522,
      "▁yeteri": 6523,
      "##ayan": 6524,
      "▁barut": 6525,
      "▁37": 6526,
      "▁suruk": 6527,
      "▁nihai": 6528,
      "##ıyorlardı": 6529,
      "##arılı": 6530,
      "▁lık": 6531,
      "▁kalıyor": 6532,
      "▁koleksiyon": 6533,
      "▁hosgoru": 6534,
      "##ısına": 6535,
      "▁past": 6536,
      "▁davranmak": 6537,
      "##larınızı": 6538,
      "▁tic": 6539,
      "▁hoca": 6540,
      "▁bulmus": 6541,
      "▁stud": 6542,
      "▁arkadaslık": 6543,
      "▁)": 6544,
      "▁ade": 6545,
      "▁sayıya": 6546,
      "##egini": 6547,
      "▁hayret": 6548,
      "▁bilgiler": 6549,
      "##baz": 6550,
      "##mesiyle": 6551,
      "▁adi": 6552,
      "▁kanto": 6553,
      "`": 6554,
      "b": 6555,
      "▁propag": 6556,
      "▁neticesinde": 6557,
      "▁tıp": 6558,
      "▁agab": 6559,
      "▁gozlerini": 6560,
      "##lıların": 6561,
      "▁oluk": 6562,
      "##uki": 6563,
      "▁oturdu": 6564,
      "##cılıgın": 6565,
      "▁uykudan": 6566,
      "▁tamamen": 6567,
      "▁yoneticileri": 6568,
      "▁mayıs": 6569,
      "▁hata": 6570,
      "▁engelleri": 6571,
      "▁eziyet": 6572,
      "▁alet": 6573,
      "▁dern": 6574,
      "##ell": 6575,
      "▁sesin": 6576,
      "▁isc": 6577,
      "▁gozunde": 6578,
      "▁misafire": 6579,
      "▁pazarlarda": 6580,
      "▁kazak": 6581,
      "▁rıhtıma": 6582,
      "▁kısıtlamaları": 6583,
      "▁haftada": 6584,
      "▁grafik": 6585,
      "##eksiyon": 6586,
      "▁14": 6587,
      "▁fiy": 6588,
      "▁agabeyim": 6589,
      "##acıların": 6590,
      "▁oncu": 6591,
      "▁testere": 6592,
      "▁kaydetti": 6593,
      "▁goruldu": 6594,
      "▁siirler": 6595,
      "▁hastaya": 6596,
      "▁kalabalıgın": 6597,
      "▁cemiyet": 6598,
      "##yaları": 6599,
      "▁getiriler": 6600,
      "▁istirak": 6601,
      "▁yorg": 6602,
      "▁yasın": 6603,
      "▁islet": 6604,
      "▁oneri": 6605,
      "▁ler": 6606,
      "▁obu": 6607,
      "▁hakları": 6608,
      "##cilerle": 6609,
      "##arya": 6610,
      "▁olmakla": 6611,
      "▁vererek": 6612,
      "▁test": 6613,
      "▁spor": 6614,
      "▁mahkum": 6615,
      "##ilmeye": 6616,
      "▁duzeyi": 6617,
      "##ılıgında": 6618,
      "▁dukkanında": 6619,
      "▁heps": 6620,
      "▁plastik": 6621,
      "▁seridi": 6622,
      "▁acmak": 6623,
      "▁bankalarının": 6624,
      "▁konular": 6625,
      "▁kendim": 6626,
      "▁halatlar": 6627,
      "##agıyla": 6628,
      "##rarak": 6629,
      "▁yansıttıgını": 6630,
      "##araya": 6631,
      "▁baslarını": 6632,
      "▁silk": 6633,
      "▁tipi": 6634,
      "▁degisti": 6635,
      "▁nebze": 6636,
      "▁dallas'tan": 6637,
      "▁takipsizlik": 6638,
      "▁kendimde": 6639,
      "▁kosul": 6640,
      "▁sunger": 6641,
      "▁seyler": 6642,
      "##mel": 6643,
      "▁birik": 6644,
      "##lerimi": 6645,
      "▁verdig": 6646,
      "▁ray": 6647,
      "▁makineleri": 6648,
      "##ma": 6649,
      "▁seruv": 6650,
      "▁azade": 6651,
      "▁gurultu": 6652,
      "▁salata": 6653,
      "▁soylem": 6654,
      "##mislerdir": 6655,
      "▁sirketlerinin": 6656,
      "▁hayvanları": 6657,
      "##altı": 6658,
      "▁ayagı": 6659,
      "▁yuzden": 6660,
      "▁mahkeme": 6661,
      "▁fikrini": 6662,
      "▁tiyatrosu": 6663,
      "▁cekmeye": 6664,
      "##amıs": 6665,
      "▁aya": 6666,
      "##vel": 6667,
      "▁sch": 6668,
      "▁memnunduk": 6669,
      "▁ciftligi": 6670,
      "▁ulasılamadı": 6671,
      "##lım": 6672,
      "▁anal": 6673,
      "##mos": 6674,
      "▁rıza": 6675,
      "▁ediyorum": 6676,
      "▁yuklu": 6677,
      "▁yerleri": 6678,
      "▁duygularını": 6679,
      "▁ıslah": 6680,
      "▁aldıgı": 6681,
      "▁kupası": 6682,
      "▁gizem": 6683,
      "▁alakali": 6684,
      "##agın": 6685,
      "▁kabile": 6686,
      "▁hareketlilik": 6687,
      "##yse": 6688,
      "▁vatanı": 6689,
      "▁sinema": 6690,
      "▁tuccar": 6691,
      "▁bozuk": 6692,
      "▁mily": 6693,
      "▁bunlara": 6694,
      "▁ent": 6695,
      "##lerindeki": 6696,
      "▁tencereyi": 6697,
      "▁yetersizligi": 6698,
      "▁7\\/8": 6699,
      "▁kazası": 6700,
      "▁eyaletler": 6701,
      "▁avrupalı": 6702,
      "▁kusak": 6703,
      "▁agası": 6704,
      "▁balk": 6705,
      "▁maclarda": 6706,
      "▁eris": 6707,
      "##_": 6708,
      "##izin": 6709,
      "##mezse": 6710,
      "▁corb": 6711,
      "▁dagları": 6712,
      "▁fedakar": 6713,
      "▁armag": 6714,
      "▁dibi": 6715,
      "▁berber": 6716,
      "▁kısın": 6717,
      "▁haft": 6718,
      "▁annemden": 6719,
      "▁bıcak": 6720,
      "▁tatilimi": 6721,
      "▁kendin": 6722,
      "▁ertel": 6723,
      "▁ucagının": 6724,
      "▁psil": 6725,
      "▁bizimle": 6726,
      "▁yemekleri": 6727,
      "▁baskenti": 6728,
      "▁sehirleri": 6729,
      "▁kurtulus": 6730,
      "▁profesyonel": 6731,
      "▁arkad": 6732,
      "##yak": 6733,
      "▁paylasım": 6734,
      "▁aksamın": 6735,
      "▁emniyet": 6736,
      "##impiyat": 6737,
      "##ima": 6738,
      "##ırlar": 6739,
      "▁hızı": 6740,
      "▁erisim": 6741,
      "##istal": 6742,
      "▁muzigin": 6743,
      "▁temyiz": 6744,
      "▁isinden": 6745,
      "▁birileri": 6746,
      "▁chicago": 6747,
      "▁birka": 6748,
      "▁macta": 6749,
      "##for": 6750,
      "▁dukkanı": 6751,
      "##lesiyor": 6752,
      "▁ikide": 6753,
      "▁arıyorum": 6754,
      "▁wall": 6755,
      "##sek": 6756,
      "▁enstit": 6757,
      "▁hubub": 6758,
      "▁lunapark": 6759,
      "▁musterinin": 6760,
      "##acaklar": 6761,
      "▁attılar": 6762,
      "▁sirketlerden": 6763,
      "▁artarak": 6764,
      "▁fırt": 6765,
      "▁aldat": 6766,
      "▁26": 6767,
      "##ve": 6768,
      "##ecegine": 6769,
      "##itesi": 6770,
      "▁edilebilir": 6771,
      "▁tasır": 6772,
      "▁olumle": 6773,
      "▁bahsederim": 6774,
      "▁baltimore'ye": 6775,
      "##ilecegi": 6776,
      "##cegi": 6777,
      "##igi": 6778,
      "##cı": 6779,
      "▁baglantılı": 6780,
      "▁isp": 6781,
      "▁kandil": 6782,
      "##yoz": 6783,
      "##oludur": 6784,
      "▁sekil": 6785,
      "▁kuraklık": 6786,
      "▁faydalan": 6787,
      "▁nesi": 6788,
      "▁getirip": 6789,
      "▁karsısında": 6790,
      "▁sent": 6791,
      "▁dusunce": 6792,
      "▁mac": 6793,
      "##biy": 6794,
      "##anlar": 6795,
      "##afeti": 6796,
      "▁onemini": 6797,
      "▁esit": 6798,
      "▁nev": 6799,
      "▁soyler": 6800,
      "▁yasal": 6801,
      "##uklar": 6802,
      "▁insaf": 6803,
      "▁keh": 6804,
      "▁hukuka": 6805,
      "▁ozur": 6806,
      "##iyeti": 6807,
      "▁ifadeler": 6808,
      "▁the": 6809,
      "▁yollarda": 6810,
      "▁ahır": 6811,
      "▁proje": 6812,
      "##.9": 6813,
      "▁ron": 6814,
      "▁sabık": 6815,
      "▁farz": 6816,
      "▁tartısmayı": 6817,
      "▁peygam": 6818,
      "▁lazımdır": 6819,
      "▁duvarlarında": 6820,
      "▁kaldırıma": 6821,
      "▁elestirmenler": 6822,
      "▁getiren": 6823,
      "▁raporunu": 6824,
      "▁arasındaki": 6825,
      "▁azından": 6826,
      "▁merkezlerini": 6827,
      "▁hizmet": 6828,
      "▁sıc": 6829,
      "▁mada": 6830,
      "##tık": 6831,
      "▁'lu": 6832,
      "▁evde": 6833,
      "▁kuf": 6834,
      "##gısını": 6835,
      "▁mali": 6836,
      "▁oyunları": 6837,
      "##anları": 6838,
      "▁aga": 6839,
      "▁kalmadik": 6840,
      "▁kavun": 6841,
      "##enc": 6842,
      "▁uyelerinin": 6843,
      "▁km": 6844,
      "▁sorunumuz": 6845,
      "##sen": 6846,
      "▁teknolojisini": 6847,
      "▁olmalıdır": 6848,
      "##demli": 6849,
      "##irerek": 6850,
      "##tur": 6851,
      "▁psik": 6852,
      "##lerimle": 6853,
      "▁gozlerden": 6854,
      "▁hacminde": 6855,
      "▁yedek": 6856,
      "▁ufak": 6857,
      "##melerde": 6858,
      "▁okur": 6859,
      "▁anımsa": 6860,
      "▁ogrenc": 6861,
      "##hiz": 6862,
      "▁attım": 6863,
      "▁analizciler": 6864,
      "##uzları": 6865,
      "▁ataturk": 6866,
      "▁zincirinin": 6867,
      "▁basvurusu": 6868,
      "▁gonlum": 6869,
      "▁anlat": 6870,
      "▁onların": 6871,
      "▁anlıslan": 6872,
      "▁analistlerin": 6873,
      "▁yaygın": 6874,
      "##urk": 6875,
      "▁gecikme": 6876,
      "▁tasarısı": 6877,
      "▁likor": 6878,
      "▁tır": 6879,
      "##iyede": 6880,
      "▁davranıs": 6881,
      "▁takv": 6882,
      "▁hakem": 6883,
      "▁--": 6884,
      "##inin": 6885,
      "▁cef": 6886,
      "▁sapan": 6887,
      "▁ucusta": 6888,
      "▁seydir": 6889,
      "##eciler": 6890,
      "▁tuz": 6891,
      "▁cocuga": 6892,
      "▁menf": 6893,
      "▁hissesinin": 6894,
      "▁burbank": 6895,
      "▁planlamam": 6896,
      "▁takdirde": 6897,
      "▁sırf": 6898,
      "##latma": 6899,
      "▁hizmeti": 6900,
      "▁kibr": 6901,
      "##ayıcı": 6902,
      "▁davranmaya": 6903,
      "▁50": 6904,
      "##mul": 6905,
      "##aladıgını": 6906,
      "▁gazeteci": 6907,
      "▁faaliyet": 6908,
      "▁olsunlar": 6909,
      "▁siyah": 6910,
      "▁cene": 6911,
      "▁sabrı": 6912,
      "▁kadınların": 6913,
      "▁bonolarının": 6914,
      "▁karagoz": 6915,
      "▁dosyayı": 6916,
      "▁ilgilendi": 6917,
      "▁dc": 6918,
      "▁cav": 6919,
      "▁lamba": 6920,
      "▁patlaması": 6921,
      "▁yakinlar": 6922,
      "▁kendimizi": 6923,
      "▁city": 6924,
      "##iss": 6925,
      "▁enf": 6926,
      "▁cıl": 6927,
      "▁bunlar": 6928,
      "▁milyonu": 6929,
      "▁ilham": 6930,
      "▁25": 6931,
      "##ington": 6932,
      "▁tasımaya": 6933,
      "##dol": 6934,
      "▁fiyatina": 6935,
      "##ebil": 6936,
      "▁kesintiye": 6937,
      "▁tesekkurler": 6938,
      "##leyiciler": 6939,
      "##irleri": 6940,
      "▁kredilerin": 6941,
      "▁plat": 6942,
      "▁senedine": 6943,
      "▁deger": 6944,
      "▁tepeden": 6945,
      "▁kızıl": 6946,
      "▁saye": 6947,
      "▁saglamaya": 6948,
      "##kları": 6949,
      "▁etmis": 6950,
      "▁atlet": 6951,
      "▁sarkıları": 6952,
      "▁teklifte": 6953,
      "▁reklamcılar": 6954,
      "▁minibus": 6955,
      "▁farklılık": 6956,
      "▁hazin": 6957,
      "##mli": 6958,
      "▁cog": 6959,
      "▁ali": 6960,
      "▁kredi": 6961,
      "▁kırlarda": 6962,
      "##uzluydu": 6963,
      "▁eyaleti": 6964,
      "▁yuksekten": 6965,
      "▁irti": 6966,
      "▁pat": 6967,
      "▁ları": 6968,
      "▁etkisi": 6969,
      "▁fiyatının": 6970,
      "▁sindir": 6971,
      "▁loc": 6972,
      "▁zapt": 6973,
      "▁tekne": 6974,
      "▁odama": 6975,
      "▁yaparım": 6976,
      "▁na": 6977,
      "##acıya": 6978,
      "▁muz": 6979,
      "▁tesisi": 6980,
      "▁bicimi": 6981,
      "▁capında": 6982,
      "▁denges": 6983,
      "▁badan": 6984,
      "▁yansıtıyor": 6985,
      "▁yonelik": 6986,
      "▁ısı": 6987,
      "▁cevr": 6988,
      "▁33": 6989,
      "▁goreve": 6990,
      "▁tezgahı": 6991,
      "▁fakir": 6992,
      "##lanabilir": 6993,
      "▁kendinde": 6994,
      "▁odası": 6995,
      "▁kapa": 6996,
      "▁ihan": 6997,
      "▁brit": 6998,
      "▁ahsap": 6999,
      "##anmıs": 7000,
      "▁secildi": 7001,
      "▁topladı": 7002,
      "▁bekle": 7003,
      "##isini": 7004,
      "▁odemeler": 7005,
      "▁ener": 7006,
      "##etin": 7007,
      "▁onerileri": 7008,
      "▁ogretim": 7009,
      "▁osmanlı": 7010,
      "##.": 7011,
      "##\\": 7012,
      "▁hayatın": 7013,
      "##eo": 7014,
      "▁tamir": 7015,
      "##lanın": 7016,
      "##erans": 7017,
      "▁sandalı": 7018,
      "▁uzmanlar": 7019,
      "▁ısıl": 7020,
      "▁turp": 7021,
      "▁oran": 7022,
      "▁sorular": 7023,
      "▁onlardan": 7024,
      "##alt": 7025,
      "▁edebil": 7026,
      "▁sayısının": 7027,
      "▁ibraz": 7028,
      "▁karsımda": 7029,
      "▁magazaların": 7030,
      "▁seslendi": 7031,
      "▁tuketici": 7032,
      "▁esyasını": 7033,
      "##rib": 7034,
      "▁kısaltması": 7035,
      "▁havayı": 7036,
      "▁mucadelenin": 7037,
      "▁alanda": 7038,
      "##osunu": 7039,
      "##bası": 7040,
      "##meniz": 7041,
      "##mad": 7042,
      "▁bizle": 7043,
      "##erik": 7044,
      "▁ortalam": 7045,
      "▁arabaya": 7046,
      "##ian": 7047,
      "▁tutmaya": 7048,
      "▁yanına": 7049,
      "▁cogal": 7050,
      "▁35": 7051,
      "##ou": 7052,
      "▁gormezden": 7053,
      "▁ihtiyacımız": 7054,
      "▁cuh": 7055,
      "▁oneririm": 7056,
      "▁listeleyin": 7057,
      "##eden": 7058,
      "▁hicbirine": 7059,
      "##irler": 7060,
      "▁lakin": 7061,
      "▁sozlesmesini": 7062,
      "▁programının": 7063,
      "▁lak": 7064,
      "▁bazılarının": 7065,
      "##astırma": 7066,
      "##ini": 7067,
      "▁yatırımcıların": 7068,
      "▁kafile": 7069,
      "##deri": 7070,
      "▁paylar": 7071,
      "▁tovbe": 7072,
      "▁telef": 7073,
      "▁coc": 7074,
      "▁defter": 7075,
      "▁akrab": 7076,
      "▁universit": 7077,
      "▁aracların": 7078,
      "▁cakal": 7079,
      "▁ayı": 7080,
      "▁yapılacak": 7081,
      "##allı": 7082,
      "##ıyorum": 7083,
      "▁mahkemede": 7084,
      "▁cayı": 7085,
      "▁aynı": 7086,
      "▁efendi": 7087,
      "▁ai": 7088,
      "▁loh": 7089,
      "##tiginde": 7090,
      "##lantı": 7091,
      "▁men": 7092,
      "▁yaklas": 7093,
      "##esine": 7094,
      "##tel": 7095,
      "▁teseb": 7096,
      "▁isterseniz": 7097,
      "▁hindistan": 7098,
      "##kes": 7099,
      "▁cimen": 7100,
      "▁ingil": 7101,
      "▁istasyonun": 7102,
      "▁alıskanlıgı": 7103,
      "▁tarihin": 7104,
      "▁kat": 7105,
      "▁kendisini": 7106,
      "▁reasurans": 7107,
      "▁faaliyetlerini": 7108,
      "▁yeme": 7109,
      "▁sek": 7110,
      "##ukee": 7111,
      "##lalı": 7112,
      "▁devri": 7113,
      "▁fir": 7114,
      "▁gorunum": 7115,
      "▁seattle'ye": 7116,
      "▁uslup": 7117,
      "##tmi": 7118,
      "▁horoz": 7119,
      "##ukluk": 7120,
      "▁burokrat": 7121,
      "▁yur": 7122,
      "▁duzeyde": 7123,
      "▁olmaz": 7124,
      "▁romatizm": 7125,
      "▁parcayı": 7126,
      "##tla": 7127,
      "▁isletmeleri": 7128,
      "▁ustalık": 7129,
      "▁masası": 7130,
      "▁merhamet": 7131,
      "▁nobetci": 7132,
      "▁ste": 7133,
      "▁bug": 7134,
      "▁senaryo": 7135,
      "▁siddetle": 7136,
      "▁esas": 7137,
      "▁diplomasi": 7138,
      "##mıstır": 7139,
      "▁ingilter": 7140,
      "▁arz": 7141,
      "##mki": 7142,
      "##esik": 7143,
      "##acag": 7144,
      "▁nakar": 7145,
      "##amızda": 7146,
      "▁milliyetci": 7147,
      "▁konularında": 7148,
      "▁gul": 7149,
      "▁pitts": 7150,
      "▁ch": 7151,
      "▁yedikten": 7152,
      "##osyon": 7153,
      "▁studyo": 7154,
      "▁katal": 7155,
      "▁tarihi": 7156,
      "##yız": 7157,
      "▁operasyonları": 7158,
      "▁can": 7159,
      "▁aksamı": 7160,
      "▁etmeye": 7161,
      "▁durmadan": 7162,
      "▁begenmedim": 7163,
      "▁okurlar": 7164,
      "▁secmek": 7165,
      "▁piy": 7166,
      "▁bakalım": 7167,
      "▁kulturune": 7168,
      "▁yasaya": 7169,
      "▁yatak": 7170,
      "▁indirimi": 7171,
      "▁gelebilir": 7172,
      "▁kofte": 7173,
      "▁olas": 7174,
      "##chester": 7175,
      "▁butceye": 7176,
      "##manının": 7177,
      "▁gunler": 7178,
      "▁sozunu": 7179,
      "##enn": 7180,
      "▁kendiler": 7181,
      "##ndeki": 7182,
      "▁sacma": 7183,
      "▁yapmaktan": 7184,
      "▁altıda": 7185,
      "▁gozlerine": 7186,
      "▁turizm": 7187,
      "▁taf": 7188,
      "▁tın": 7189,
      "##lisi": 7190,
      "▁ehemm": 7191,
      "▁edebilir": 7192,
      "▁tuzu": 7193,
      "▁kisileri": 7194,
      "##isindan": 7195,
      "##liginde": 7196,
      "##celi": 7197,
      "▁5'ten": 7198,
      "▁dusunmeye": 7199,
      "▁verebilir": 7200,
      "▁canak": 7201,
      "▁arar": 7202,
      "▁ilkokul": 7203,
      "##celeri": 7204,
      "▁izni": 7205,
      "▁komplek": 7206,
      "##emeyecek": 7207,
      "▁bayiler": 7208,
      "▁akl": 7209,
      "▁esv": 7210,
      "##bon": 7211,
      "▁ucte": 7212,
      "▁anlamıyla": 7213,
      "▁kaldırılması": 7214,
      "▁mudure": 7215,
      "▁yaptır": 7216,
      "▁internet": 7217,
      "▁temizligi": 7218,
      "▁yatagında": 7219,
      "▁oyley": 7220,
      "▁market": 7221,
      "▁kom": 7222,
      "▁elimden": 7223,
      "##ece": 7224,
      "▁haberler": 7225,
      "▁parmaklarıyla": 7226,
      "▁gormedigini": 7227,
      "##du": 7228,
      "▁bekledi": 7229,
      "##muyordu": 7230,
      "▁gorevl": 7231,
      "▁zil": 7232,
      "▁gevez": 7233,
      "▁opsiyon": 7234,
      "▁atları": 7235,
      "##uc": 7236,
      "▁borsası": 7237,
      "▁pol": 7238,
      "##kah": 7239,
      "▁medya": 7240,
      "▁cezası": 7241,
      "▁mil": 7242,
      "▁falan": 7243,
      "▁iri": 7244,
      "▁nere": 7245,
      "▁yetki": 7246,
      "##aret": 7247,
      "▁maddeye": 7248,
      "▁sekl": 7249,
      "▁evlerin": 7250,
      "▁sub": 7251,
      "▁kork": 7252,
      "▁aygıt": 7253,
      "▁yayın": 7254,
      "▁gercekles": 7255,
      "▁yelpaze": 7256,
      "▁kitabını": 7257,
      "▁davranısları": 7258,
      "▁yuzey": 7259,
      "##cıları": 7260,
      "▁parc": 7261,
      "▁zeytiny": 7262,
      "##ısın": 7263,
      "▁hosg": 7264,
      "▁long": 7265,
      "▁gibi": 7266,
      "▁cıkması": 7267,
      "▁kapali": 7268,
      "▁gıc": 7269,
      "▁sirketler": 7270,
      "##dog": 7271,
      "▁halt": 7272,
      "##ılım": 7273,
      "▁hadise": 7274,
      "▁davar": 7275,
      "▁balık": 7276,
      "##ank": 7277,
      "▁birdenbire": 7278,
      "▁geldiler": 7279,
      "▁39": 7280,
      "▁halkını": 7281,
      "▁fıs": 7282,
      "▁ulkeleri": 7283,
      "▁hedefi": 7284,
      "▁gazetelerin": 7285,
      "▁sevgili": 7286,
      "▁milletvekili": 7287,
      "▁sunuyor": 7288,
      "▁heyec": 7289,
      "▁sonuca": 7290,
      "##larımın": 7291,
      "▁gurult": 7292,
      "▁sikint": 7293,
      "▁rica": 7294,
      "▁verimlilik": 7295,
      "▁onlara": 7296,
      "▁analistler": 7297,
      "▁sıgın": 7298,
      "▁derste": 7299,
      "##uverdi": 7300,
      "##ırdı": 7301,
      "▁tencerede": 7302,
      "▁cevap": 7303,
      "▁kurallarına": 7304,
      "▁istedim": 7305,
      "▁meger": 7306,
      "▁ettir": 7307,
      "▁bırakıyor": 7308,
      "▁mazer": 7309,
      "▁saniyede": 7310,
      "▁sokakta": 7311,
      "##amba": 7312,
      "##uler": 7313,
      "▁macları": 7314,
      "##mamıs": 7315,
      "##ahi": 7316,
      "▁kimseyi": 7317,
      "▁yengec": 7318,
      "▁durdur": 7319,
      "##istin": 7320,
      "▁tahk": 7321,
      "▁120": 7322,
      "▁ruzg": 7323,
      "▁ızdır": 7324,
      "▁komitesi": 7325,
      "##alle": 7326,
      "▁televizyon": 7327,
      "▁yaptik": 7328,
      "▁bolgeye": 7329,
      "▁acıp": 7330,
      "##ileri": 7331,
      "##usu": 7332,
      "▁yonunde": 7333,
      "▁tef": 7334,
      "▁hacmi": 7335,
      "▁apıs": 7336,
      "▁yatırımcının": 7337,
      "▁yani": 7338,
      "▁cevresinin": 7339,
      "##usunuz": 7340,
      "##itli": 7341,
      "▁laborat": 7342,
      "▁bakıs": 7343,
      "▁etrafta": 7344,
      "▁garanti": 7345,
      "##madıgını": 7346,
      "##kili": 7347,
      "▁gokyuzunu": 7348,
      "▁gitmeyi": 7349,
      "▁fisek": 7350,
      "##esk": 7351,
      "▁kendiniz": 7352,
      "▁dortluk": 7353,
      "▁batak": 7354,
      "▁vis": 7355,
      "▁soruyor": 7356,
      "▁fiyatlandırıldı": 7357,
      "▁bale": 7358,
      "▁boru": 7359,
      "▁sof": 7360,
      "##les": 7361,
      "▁yılının": 7362,
      "##eyip": 7363,
      "▁eksikleri": 7364,
      "▁ez": 7365,
      "▁hazine": 7366,
      "▁ariz": 7367,
      "▁solda": 7368,
      "▁zararlar": 7369,
      "▁etkili": 7370,
      "▁olanak": 7371,
      "▁had": 7372,
      "##jde": 7373,
      "▁cozmek": 7374,
      "##rin": 7375,
      "▁eldiven": 7376,
      "–": 7377,
      "▁olun": 7378,
      "▁teri": 7379,
      "▁aln": 7380,
      "▁reform": 7381,
      "▁noktada": 7382,
      "▁odami": 7383,
      "▁yasından": 7384,
      "▁vasıta": 7385,
      "▁hatırım": 7386,
      "▁mus": 7387,
      "##rek": 7388,
      "▁hok": 7389,
      "▁parka": 7390,
      "▁derginin": 7391,
      "▁bulun": 7392,
      "##mıstık": 7393,
      "##ısma": 7394,
      "▁ortaklık": 7395,
      "##dizli": 7396,
      "▁vali": 7397,
      "##dugum": 7398,
      "▁ci": 7399,
      "▁gonullu": 7400,
      "▁dest": 7401,
      "▁deplasmanda": 7402,
      "##teri": 7403,
      "▁devralma": 7404,
      "▁parcacıklar": 7405,
      "▁getirilerinin": 7406,
      "▁abi": 7407,
      "▁canlı": 7408,
      "##ıntıları": 7409,
      "##landırıldı": 7410,
      "##inle": 7411,
      "▁salkım": 7412,
      "##ildigi": 7413,
      "▁duygular": 7414,
      "##emiyordu": 7415,
      "▁kılavuz": 7416,
      "▁yabancı": 7417,
      "▁hakim": 7418,
      "##iyeden": 7419,
      "##acagından": 7420,
      "▁karaya": 7421,
      "##ınızda": 7422,
      "▁tram": 7423,
      "▁emegi": 7424,
      "##aya": 7425,
      "▁alıcıları": 7426,
      "▁otek": 7427,
      "▁cizgi": 7428,
      "##kuz": 7429,
      "▁pırıl": 7430,
      "▁hur": 7431,
      "▁worth": 7432,
      "▁istifade": 7433,
      "▁ekonomisi": 7434,
      "##mi": 7435,
      "▁ucakların": 7436,
      "▁aleminde": 7437,
      "▁ilav": 7438,
      "##uttur": 7439,
      "▁tiyatroya": 7440,
      "▁calısanlar": 7441,
      "▁endisesi": 7442,
      "▁trilyon": 7443,
      "##adır": 7444,
      "##cemi": 7445,
      "▁hayır": 7446,
      "##tmıs": 7447,
      "▁havaalanı'ndan": 7448,
      "▁baskent": 7449,
      "▁kızına": 7450,
      "▁vatan": 7451,
      "##abilecegine": 7452,
      "##iger": 7453,
      "##lak": 7454,
      "##maktır": 7455,
      "▁band": 7456,
      "▁nasıl": 7457,
      "▁bebek": 7458,
      "▁durumu": 7459,
      "▁canına": 7460,
      "▁jandar": 7461,
      "▁cel": 7462,
      "▁degerlendirmek": 7463,
      "▁karı": 7464,
      "##ach": 7465,
      "▁orneklerini": 7466,
      "▁li": 7467,
      "##cok": 7468,
      "▁basıma": 7469,
      "▁hususunda": 7470,
      "▁uyeligi": 7471,
      "▁mevz": 7472,
      "##odu": 7473,
      "▁halbuki": 7474,
      "##ıgım": 7475,
      "▁ogluna": 7476,
      "##uru": 7477,
      "▁kuz": 7478,
      "▁degisikligi": 7479,
      "▁kimin": 7480,
      "▁gazoz": 7481,
      "▁parti": 7482,
      "▁gecede": 7483,
      "▁satıyor": 7484,
      "▁serin": 7485,
      "▁iktidara": 7486,
      "▁big": 7487,
      "▁7.8": 7488,
      "##uguna": 7489,
      "▁rub": 7490,
      "▁kuc": 7491,
      "▁bulus": 7492,
      "▁hizmete": 7493,
      "▁yazma": 7494,
      "▁moder": 7495,
      "▁buyukler": 7496,
      "▁turn": 7497,
      "▁asırı": 7498,
      "▁listesine": 7499,
      "##aden": 7500,
      "▁pet": 7501,
      "▁surecinin": 7502,
      "▁fincanını": 7503,
      "▁!..": 7504,
      "▁tatlı": 7505,
      "▁harmanı": 7506,
      "▁minneapolis": 7507,
      "▁idar": 7508,
      "▁hesabını": 7509,
      "▁hayv": 7510,
      "▁bucak": 7511,
      "▁halef": 7512,
      "▁konu": 7513,
      "▁baslangıc": 7514,
      "▁gelecekte": 7515,
      "▁saatin": 7516,
      "▁yakından": 7517,
      "##ydı": 7518,
      "▁dolayi": 7519,
      "##indeki": 7520,
      "▁arama": 7521,
      "▁dogru": 7522,
      "▁kalmıstı": 7523,
      "##ınır": 7524,
      "▁radyoyu": 7525,
      "##tti": 7526,
      "##gru": 7527,
      "▁sezon": 7528,
      "▁havaalanı'nda": 7529,
      "▁ilan": 7530,
      "▁tasavv": 7531,
      "▁ası": 7532,
      "##lasabilir": 7533,
      "##eginden": 7534,
      "▁yirmi": 7535,
      "▁cleveland": 7536,
      "##!": 7537,
      "▁halli": 7538,
      "▁alıskan": 7539,
      "##lamalar": 7540,
      "▁yarıya": 7541,
      "▁performansı": 7542,
      "▁hatun": 7543,
      "##afet": 7544,
      "▁eastern": 7545,
      "▁ucaga": 7546,
      "▁ense": 7547,
      "▁kullanılan": 7548,
      "##uydu": 7549,
      "▁acar": 7550,
      "▁piyade": 7551,
      "▁gorusler": 7552,
      "##ılıklar": 7553,
      "##etleri": 7554,
      "▁ucagı": 7555,
      "##unuzu": 7556,
      "▁oteye": 7557,
      "▁isleminin": 7558,
      "##lesine": 7559,
      "##giliz": 7560,
      "▁kimseye": 7561,
      "▁ucurt": 7562,
      "▁ig": 7563,
      "▁kadını": 7564,
      "▁kalk": 7565,
      "$": 7566,
      "▁istek": 7567,
      "▁operasyonu": 7568,
      "▁sayet": 7569,
      "▁guverte": 7570,
      "▁sular": 7571,
      "▁ayagın": 7572,
      "▁onculuk": 7573,
      "▁tumu": 7574,
      "##ph": 7575,
      "##ardı": 7576,
      "▁pudra": 7577,
      "▁kaybetti": 7578,
      "▁boyle": 7579,
      "▁hamami": 7580,
      "##esap": 7581,
      "▁bahsediyor": 7582,
      "▁yurut": 7583,
      "##da": 7584,
      "##samba": 7585,
      "▁yad": 7586,
      "▁kambiy": 7587,
      "▁personelinin": 7588,
      "▁planı": 7589,
      "▁carsamba": 7590,
      "▁yerlere": 7591,
      "▁kızgınlık": 7592,
      "▁maliyetini": 7593,
      "▁aglamaya": 7594,
      "▁dinam": 7595,
      "▁gazeteyi": 7596,
      "##masının": 7597,
      "▁dedim": 7598,
      "▁ilerledi": 7599,
      "▁city'e": 7600,
      "▁ulkeler": 7601,
      "▁zihin": 7602,
      "▁gordugu": 7603,
      "▁baskasının": 7604,
      "▁bahtiy": 7605,
      "▁bakar": 7606,
      "▁mar": 7607,
      "▁dur": 7608,
      "▁goruyorum": 7609,
      "##ulu": 7610,
      "▁mi": 7611,
      "▁ayakkabı": 7612,
      "▁zey": 7613,
      "▁bence": 7614,
      "▁tecessus": 7615,
      "##iledi": 7616,
      "##forlu": 7617,
      "▁ayakkabılarını": 7618,
      "##liyor": 7619,
      "\\": 7620,
      "▁zamana": 7621,
      "▁kullanıcı": 7622,
      "▁boston": 7623,
      "##ann": 7624,
      "▁mensup": 7625,
      "▁yataga": 7626,
      "▁maglub": 7627,
      "▁gib": 7628,
      "##elerle": 7629,
      "▁merc": 7630,
      "▁rap": 7631,
      "▁hol": 7632,
      "▁inek": 7633,
      "▁defteri": 7634,
      "▁meras": 7635,
      "▁mumu": 7636,
      "▁grup": 7637,
      "▁havasında": 7638,
      "▁ucunu": 7639,
      "▁yıldırım": 7640,
      "##perv": 7641,
      "##a": 7642,
      "▁karsılıklı": 7643,
      "##sas": 7644,
      "##egine": 7645,
      "▁getirmek": 7646,
      "▁bel": 7647,
      "▁ordusunun": 7648,
      "▁boy": 7649,
      "##ince": 7650,
      "r": 7651,
      "▁sorunlarına": 7652,
      "##dular": 7653,
      "▁karav": 7654,
      "▁12'den": 7655,
      "▁yardımıyla": 7656,
      "##asından": 7657,
      "▁yont": 7658,
      "▁kendimi": 7659,
      "▁dısarıdan": 7660,
      "▁bilgilerini": 7661,
      "▁gidisat": 7662,
      "▁zayıf": 7663,
      "▁belirli": 7664,
      "▁golgesinde": 7665,
      "▁mikrofon": 7666,
      "▁gelisim": 7667,
      "▁degistirmek": 7668,
      "##tin": 7669,
      "▁anah": 7670,
      "▁jener": 7671,
      "▁formulu": 7672,
      "▁yolcu": 7673,
      "▁yelpaz": 7674,
      "▁bosalt": 7675,
      "##adde": 7676,
      "▁mortgage": 7677,
      "##ly": 7678,
      "▁kacır": 7679,
      "▁ders": 7680,
      "##'e": 7681,
      "▁kızların": 7682,
      "▁tehlikesi": 7683,
      "##beri": 7684,
      "##liler": 7685,
      "##ılmıstır": 7686,
      "▁anahtarı": 7687,
      "▁anne": 7688,
      "▁iht": 7689,
      "▁pisir": 7690,
      "##dırma": 7691,
      "▁koltukta": 7692,
      "▁manevr": 7693,
      "▁yumuk": 7694,
      "▁bit": 7695,
      "##yar": 7696,
      "▁bilanc": 7697,
      "▁eklen": 7698,
      "▁kerem": 7699,
      "▁pus": 7700,
      "▁evvela": 7701,
      "▁sırtını": 7702,
      "##acasına": 7703,
      "▁har": 7704,
      "▁uvey": 7705,
      "▁birlestir": 7706,
      "▁hocalık": 7707,
      "▁teor": 7708,
      "▁yeraltı": 7709,
      "##ilerle": 7710,
      "▁dokuz": 7711,
      "##indey": 7712,
      "▁kala": 7713,
      "▁basımda": 7714,
      "▁numarasını": 7715,
      "##etti": 7716,
      "▁yaprakları": 7717,
      "▁stokları": 7718,
      "▁yiyecek": 7719,
      "▁sanatcılar": 7720,
      "▁nereler": 7721,
      "##bre": 7722,
      "▁ciftciler": 7723,
      "##duklarını": 7724,
      "▁veren": 7725,
      "▁delikan": 7726,
      "▁etkil": 7727,
      "▁teori": 7728,
      "##ısım": 7729,
      "▁kilisesi": 7730,
      "##alıklar": 7731,
      "##har": 7732,
      "▁on": 7733,
      "▁yavasca": 7734,
      "▁faiz": 7735,
      "▁anasının": 7736,
      "##eral": 7737,
      "▁yerde": 7738,
      "##iginin": 7739,
      "▁indirimlerden": 7740,
      "##jon": 7741,
      "▁fal": 7742,
      "▁basta": 7743,
      "▁doldur": 7744,
      "▁yes": 7745,
      "▁kabiliyet": 7746,
      "▁demek": 7747,
      "▁koyluler": 7748,
      "▁ihtimal": 7749,
      "##ifer": 7750,
      "▁gorevli": 7751,
      "▁alanlarında": 7752,
      "▁vaktim": 7753,
      "▁merdivenleri": 7754,
      "▁sıhh": 7755,
      "▁dusunuyoruz": 7756,
      "▁masadan": 7757,
      "▁fırsat": 7758,
      "▁kokuları": 7759,
      "▁golge": 7760,
      "▁gozlu": 7761,
      "▁miami'ye": 7762,
      "##–": 7763,
      "▁vazgec": 7764,
      "▁olmadı": 7765,
      "▁seneden": 7766,
      "▁onunuz": 7767,
      "▁sabahtan": 7768,
      "▁tesisten": 7769,
      "▁cekir": 7770,
      "▁devrim": 7771,
      "▁programına": 7772,
      "▁emperyalizm": 7773,
      "▁nedenini": 7774,
      "##ıyorsun": 7775,
      "▁bıcagı": 7776,
      "##alamak": 7777,
      "▁harc": 7778,
      "##liginden": 7779,
      "##lacagını": 7780,
      "▁isimler": 7781,
      "▁rok": 7782,
      "##usuna": 7783,
      "▁etmesine": 7784,
      "▁sep": 7785,
      "##u": 7786,
      "▁cark": 7787,
      "▁memphis'ten": 7788,
      "▁katına": 7789,
      "▁bildigi": 7790,
      "##ukce": 7791,
      "▁endustrileri": 7792,
      "▁direnis": 7793,
      "▁baskanının": 7794,
      "▁nas": 7795,
      "▁ucusunun": 7796,
      "▁artcı": 7797,
      "▁“": 7798,
      "▁sudan": 7799,
      "▁birligini": 7800,
      "▁yay": 7801,
      "▁an": 7802,
      "▁gelistiriciler": 7803,
      "▁acıklanmadı": 7804,
      "▁yuzleri": 7805,
      "▁elbet": 7806,
      "▁donemde": 7807,
      "▁hucr": 7808,
      "▁otların": 7809,
      "▁koyun": 7810,
      "##iktir": 7811,
      "▁bayrak": 7812,
      "▁a.": 7813,
      "▁aktiv": 7814,
      "▁yaklasık": 7815,
      "▁tazmin": 7816,
      "▁sagladı": 7817,
      "##lerinin": 7818,
      "▁vucudu": 7819,
      "▁taahhut": 7820,
      "▁bankası'nın": 7821,
      "▁kalfa": 7822,
      "▁hizmetin": 7823,
      "▁urun": 7824,
      "▁hekimi": 7825,
      "▁bazen": 7826,
      "▁62": 7827,
      "▁rop": 7828,
      "##9'da": 7829,
      "▁jul": 7830,
      "▁denem": 7831,
      "▁girdi": 7832,
      "▁tatili": 7833,
      "▁unif": 7834,
      "▁agzında": 7835,
      "▁misyon": 7836,
      "▁muhaliflerin": 7837,
      "▁veterin": 7838,
      "▁isy": 7839,
      "▁cocugunun": 7840,
      "▁erkegi": 7841,
      "▁oldugumu": 7842,
      "▁heyetin": 7843,
      "##muz": 7844,
      "▁tarafına": 7845,
      "▁cesaretini": 7846,
      "▁dinliyor": 7847,
      "▁haberin": 7848,
      "▁herifin": 7849,
      "▁randevu": 7850,
      "▁koz": 7851,
      "▁defa": 7852,
      "▁beyefendi": 7853,
      "▁turb": 7854,
      "▁burjuv": 7855,
      ",": 7856,
      "▁bet": 7857,
      "##aliydi": 7858,
      "▁ekonom": 7859,
      "##biri": 7860,
      "▁topr": 7861,
      "▁finanse": 7862,
      "▁okumak": 7863,
      "▁gulery": 7864,
      "▁liber": 7865,
      "##mac": 7866,
      "▁koku": 7867,
      "▁ekipman": 7868,
      "▁masayı": 7869,
      "▁gar": 7870,
      "▁levh": 7871,
      "▁kullan": 7872,
      "▁fincanı": 7873,
      "▁manzara": 7874,
      "##ege": 7875,
      "##gunuz": 7876,
      "▁sukur": 7877,
      "▁bilinc": 7878,
      "▁dagıt": 7879,
      "▁hattı": 7880,
      "##erdi": 7881,
      "▁meseleyi": 7882,
      "▁rakamı": 7883,
      "▁hesabı": 7884,
      "##ona": 7885,
      "▁silah": 7886,
      "##landıgını": 7887,
      "▁isimleri": 7888,
      "▁talebinin": 7889,
      "##atlı": 7890,
      "▁dizi": 7891,
      "▁soylendi": 7892,
      "▁olumden": 7893,
      "▁herkesin": 7894,
      "▁genetik": 7895,
      "▁kesinlik": 7896,
      "▁kuyu": 7897,
      "▁kıy": 7898,
      "▁sarh": 7899,
      "##uluyor": 7900,
      "##malıydı": 7901,
      "▁kısıtlamalar": 7902,
      "▁ihtiy": 7903,
      "▁telefonu": 7904,
      "▁hayaller": 7905,
      "▁rehberimiz": 7906,
      "##abileceg": 7907,
      "##nam": 7908,
      "##ırak": 7909,
      "▁uzat": 7910,
      "##dev": 7911,
      "▁anlasmaya": 7912,
      "▁bilgisayar-pr": 7913,
      "▁eksi": 7914,
      "▁mut": 7915,
      "##%": 7916,
      "▁vakfı": 7917,
      "▁mef": 7918,
      "▁ustune": 7919,
      "▁klima": 7920,
      "▁kurulunun": 7921,
      "##inleri": 7922,
      "▁maharetle": 7923,
      "▁gectikten": 7924,
      "▁yazılım": 7925,
      "▁arkasına": 7926,
      "▁harcam": 7927,
      "##uculuk": 7928,
      "▁duygusal": 7929,
      "▁modelleri": 7930,
      "▁biletleri": 7931,
      "▁1988'in": 7932,
      "▁tasların": 7933,
      "▁kopegi": 7934,
      "▁satırları": 7935,
      "▁amcam": 7936,
      "▁nicin": 7937,
      "##'lik": 7938,
      "▁metaller": 7939,
      "##agoz": 7940,
      "▁ucusun": 7941,
      "##ler": 7942,
      "▁ayrılmak": 7943,
      "▁be": 7944,
      "▁daktilo": 7945,
      "▁dak": 7946,
      "▁dahil": 7947,
      "▁hareketler": 7948,
      "▁duvarlarına": 7949,
      "▁vucuduna": 7950,
      "▁mahkumu": 7951,
      "▁hakikaten": 7952,
      "▁zevkimize": 7953,
      "▁kalite": 7954,
      "▁gonlu": 7955,
      "##i'nin": 7956,
      "▁corbayı": 7957,
      "▁fikirleri": 7958,
      "▁makya": 7959,
      "▁sanki": 7960,
      "▁mahall": 7961,
      "▁sureci": 7962,
      "▁sonucları": 7963,
      "▁temiz": 7964,
      "▁tecavuz": 7965,
      "▁toplamak": 7966,
      "▁gulu": 7967,
      "▁mutf": 7968,
      "▁karsıt": 7969,
      "##lanmıs": 7970,
      "##layabil": 7971,
      "▁karlar": 7972,
      "▁karıstı": 7973,
      "▁malları": 7974,
      "##80": 7975,
      "##lendir": 7976,
      "▁sigortacılar": 7977,
      "##6'da": 7978,
      "▁kaya": 7979,
      "▁muc": 7980,
      "▁metr": 7981,
      "▁macer": 7982,
      "▁bahceler": 7983,
      "▁harman": 7984,
      "▁n": 7985,
      "▁haval": 7986,
      "▁muzakere": 7987,
      "▁gidil": 7988,
      "▁13": 7989,
      "▁camasırları": 7990,
      "##ine": 7991,
      "▁sapkası": 7992,
      "##tigim": 7993,
      "▁gercegi": 7994,
      "▁calmaya": 7995,
      "▁beyn": 7996,
      "▁sonbaharda": 7997,
      "▁hatırı": 7998,
      "▁genelde": 7999,
      "▁telefon": 8000,
      "▁sarmas": 8001,
      "▁pilav": 8002,
      "▁denizden": 8003,
      "▁guzellik": 8004,
      "▁ahkam": 8005,
      "▁yasa": 8006,
      "##iller": 8007,
      "▁insaatı": 8008,
      "▁masallar": 8009,
      "##cılarla": 8010,
      "▁hataları": 8011,
      "▁kulagımdan": 8012,
      "▁kira": 8013,
      "▁tukur": 8014,
      "##yıl": 8015,
      "▁verdi": 8016,
      "▁zihnini": 8017,
      "##emde": 8018,
      "▁masasında": 8019,
      "▁gerceklik": 8020,
      "▁ucuslarını": 8021,
      "▁tarihe": 8022,
      "▁actı": 8023,
      "##dım": 8024,
      "##tih": 8025,
      "▁ugras": 8026,
      "▁toprak": 8027,
      "##lanmasını": 8028,
      "▁fındık": 8029,
      "##\\/": 8030,
      "▁kosullar": 8031,
      "▁gasp": 8032,
      "▁takımları": 8033,
      "▁sosyete": 8034,
      "##lıc": 8035,
      "##cin": 8036,
      "▁sut": 8037,
      "▁erdog": 8038,
      "##palı": 8039,
      "▁vardır": 8040,
      "▁bush": 8041,
      "▁yalı": 8042,
      "▁yararı": 8043,
      "▁becer": 8044,
      "▁insandan": 8045,
      "▁ismini": 8046,
      "▁herhalde": 8047,
      "▁muzik": 8048,
      "▁birinde": 8049,
      "▁projesi": 8050,
      "▁tahl": 8051,
      "▁mana": 8052,
      "▁basları": 8053,
      "▁aktor": 8054,
      "##malıdır": 8055,
      "##mesi": 8056,
      "▁evv": 8057,
      "▁iskence": 8058,
      "▁hastaları": 8059,
      "▁calısanları": 8060,
      "##ımcı": 8061,
      "▁marangoz": 8062,
      "▁qx": 8063,
      "▁vucut": 8064,
      "##oca": 8065,
      "##5'lik": 8066,
      "▁dagdan": 8067,
      "##tıkca": 8068,
      "▁cinsten": 8069,
      "▁em": 8070,
      "##ital": 8071,
      "▁ut": 8072,
      "▁iktid": 8073,
      "##orm": 8074,
      "▁ozellikle": 8075,
      "▁icerde": 8076,
      "▁dalgalan": 8077,
      "▁yapmakta": 8078,
      "▁yandı": 8079,
      "▁1/": 8080,
      "▁kurtulur": 8081,
      "▁galib": 8082,
      "▁kiracı": 8083,
      "▁oturan": 8084,
      "°": 8085,
      "▁soyleyebilir": 8086,
      "▁gunlerinde": 8087,
      "▁kost": 8088,
      "▁davasının": 8089,
      "▁ulkeden": 8090,
      "▁muhal": 8091,
      "▁endustrinin": 8092,
      "##cagım": 8093,
      "▁benziyor": 8094,
      "##asyona": 8095,
      "▁teklifi": 8096,
      "▁sigortası": 8097,
      "▁ihal": 8098,
      "▁rakam": 8099,
      "▁notlar": 8100,
      "▁cıktım": 8101,
      "▁tavana": 8102,
      "▁secimlerde": 8103,
      "▁dusuncesini": 8104,
      "▁ickiye": 8105,
      "▁cont": 8106,
      "▁dinin": 8107,
      "▁geri": 8108,
      "▁istiyorum": 8109,
      "▁gelenler": 8110,
      "##iyel": 8111,
      "▁attı": 8112,
      "▁hanimdi": 8113,
      "▁sayg": 8114,
      "▁medy": 8115,
      "▁bitim": 8116,
      "▁ucret": 8117,
      "▁getirileri": 8118,
      "▁yuregim": 8119,
      "##liginin": 8120,
      "▁degilim": 8121,
      "##tun": 8122,
      "▁ihtis": 8123,
      "▁topluluk": 8124,
      "▁90": 8125,
      "▁karsılastırıldıgında": 8126,
      "##alarımızın": 8127,
      "##lamasına": 8128,
      "▁yaslarında": 8129,
      "▁traj": 8130,
      "▁rezerv": 8131,
      "▁yurd": 8132,
      "##yı": 8133,
      "▁edit": 8134,
      "##0-": 8135,
      "▁belg": 8136,
      "▁tohumu": 8137,
      "▁ormanın": 8138,
      "▁sım": 8139,
      "▁liderlik": 8140,
      "▁bagımlı": 8141,
      "▁bırakma": 8142,
      "▁havasını": 8143,
      "▁kalkıs": 8144,
      "▁kestane": 8145,
      "##ginde": 8146,
      "▁bardagı": 8147,
      "▁cezaev": 8148,
      "▁kamera": 8149,
      "##alarımız": 8150,
      "▁adımda": 8151,
      "▁gozle": 8152,
      "▁francisco'dan": 8153,
      "▁konserve": 8154,
      "▁umdugunu": 8155,
      "▁cihazlar": 8156,
      "▁hukumete": 8157,
      "▁ziyareti": 8158,
      "▁ilcesine": 8159,
      "▁ac": 8160,
      "▁lazım": 8161,
      "▁abla": 8162,
      "##daki": 8163,
      "▁depremden": 8164,
      "▁kalorifer": 8165,
      "▁bık": 8166,
      "▁iman": 8167,
      "▁sendik": 8168,
      "▁hulya": 8169,
      "▁bus": 8170,
      "##yor": 8171,
      "▁genc": 8172,
      "▁yaralan": 8173,
      "▁anay": 8174,
      "▁bilirim": 8175,
      "##layıp": 8176,
      "▁cami": 8177,
      "▁yolda": 8178,
      "##evizyon": 8179,
      "▁goster": 8180,
      "▁gozume": 8181,
      "▁faizini": 8182,
      "##manın": 8183,
      "▁faturami": 8184,
      "▁gerektir": 8185,
      "▁lah": 8186,
      "▁zavall": 8187,
      "▁cicekler": 8188,
      "▁gag": 8189,
      "▁ifadesini": 8190,
      "##tıktan": 8191,
      "▁komuru": 8192,
      "##ez": 8193,
      "▁halden": 8194,
      "##8'den": 8195,
      "##lugundan": 8196,
      "▁denetim": 8197,
      "▁tutuyor": 8198,
      "▁arıtma": 8199,
      "▁program": 8200,
      "▁soylen": 8201,
      "▁dusundum": 8202,
      "##siyle": 8203,
      "▁diril": 8204,
      "##lelim": 8205,
      "▁dolar": 8206,
      "▁kenti": 8207,
      "▁icimden": 8208,
      "▁mesaf": 8209,
      "▁temizleme": 8210,
      "▁golun": 8211,
      "▁yolculugun": 8212,
      "##rar": 8213,
      "▁muhalif": 8214,
      "##ru": 8215,
      "▁calisirim": 8216,
      "##lere": 8217,
      "▁rejim": 8218,
      "##acılara": 8219,
      "▁alakaliydi": 8220,
      "▁haf": 8221,
      "##asta": 8222,
      "##mur": 8223,
      "▁sis": 8224,
      "▁om": 8225,
      "▁kutu": 8226,
      "▁vakıf": 8227,
      "▁36": 8228,
      "▁arasından": 8229,
      "▁40'": 8230,
      "▁dediler": 8231,
      "▁kullandı": 8232,
      "▁yanıt": 8233,
      "▁simdiden": 8234,
      "▁malum": 8235,
      "▁bekledigimden": 8236,
      "▁onay": 8237,
      "##aliforn": 8238,
      "▁oranlarına": 8239,
      "▁kısı": 8240,
      "▁ornek": 8241,
      "▁yururluge": 8242,
      "▁;": 8243,
      "##kun": 8244,
      "▁haberdar": 8245,
      "▁vide": 8246,
      "▁geregi": 8247,
      "▁listeye": 8248,
      "▁spekulasyon": 8249,
      "##lerinize": 8250,
      "##stır": 8251,
      "##1'de": 8252,
      "▁sirketlerini": 8253,
      "▁kullanmaya": 8254,
      "▁yaratır": 8255,
      "▁yatırımların": 8256,
      "▁yılın": 8257,
      "▁insanlardan": 8258,
      "▁bulunmaktadır": 8259,
      "▁gevs": 8260,
      "▁houston'dan": 8261,
      "##ibine": 8262,
      "u": 8263,
      "▁sozcuklerin": 8264,
      "▁kapılar": 8265,
      "▁murekkep": 8266,
      "▁kelebek": 8267,
      "##medigini": 8268,
      "▁ısır": 8269,
      "▁muhur": 8270,
      "▁sairleri": 8271,
      "▁kacındı": 8272,
      "▁bayr": 8273,
      "##aların": 8274,
      "##amadıgını": 8275,
      "▁mekan": 8276,
      "▁fazl": 8277,
      "▁hizmetler": 8278,
      "▁kuyruk": 8279,
      "▁geciyor": 8280,
      "##anız": 8281,
      "▁kayın": 8282,
      "▁aktiviteleri": 8283,
      "4": 8284,
      "▁32": 8285,
      "▁yol": 8286,
      "▁irf": 8287,
      "▁katalog": 8288,
      "▁kimi": 8289,
      "▁baglam": 8290,
      "##iye": 8291,
      "▁acıdan": 8292,
      "▁halı": 8293,
      "##aki": 8294,
      "▁buyumesi": 8295,
      "▁etmem": 8296,
      "▁alımının": 8297,
      "▁bizde": 8298,
      "##landırdı": 8299,
      "▁koalisyon": 8300,
      "▁sohret": 8301,
      "▁belgeler": 8302,
      "▁stu": 8303,
      "▁yakıs": 8304,
      "▁pul": 8305,
      "##briy": 8306,
      "▁olmayan": 8307,
      "▁alım": 8308,
      "▁bilet": 8309,
      "▁dakikadan": 8310,
      "▁stres": 8311,
      "▁philadel": 8312,
      "▁parkı": 8313,
      "▁alınması": 8314,
      "▁ellerinden": 8315,
      "##`": 8316,
      "##lemis": 8317,
      "##acık": 8318,
      "▁ulkeye": 8319,
      "▁acmıs": 8320,
      "▁uretimini": 8321,
      "▁yim": 8322,
      "▁umuyor": 8323,
      "▁sizlere": 8324,
      "▁endeksinin": 8325,
      "▁olanakları": 8326,
      "▁misin": 8327,
      "▁etki": 8328,
      "▁doları'nda": 8329,
      "▁kontak": 8330,
      "▁altından": 8331,
      "##kın": 8332,
      "▁bı": 8333,
      "▁gozlerle": 8334,
      "▁tar": 8335,
      "##malık": 8336,
      "▁listesi": 8337,
      "▁fac": 8338,
      "▁duygularla": 8339,
      "▁maddenin": 8340,
      "▁gerekir": 8341,
      "▁yonetic": 8342,
      "▁gergin": 8343,
      "▁masaj": 8344,
      "▁ortagı": 8345,
      "▁1\\/2": 8346,
      "##eren": 8347,
      "▁tasa": 8348,
      "▁verdigi": 8349,
      "▁gecelerde": 8350,
      "▁zırh": 8351,
      "▁telaf": 8352,
      "▁yapıldıgını": 8353,
      "▁kred": 8354,
      "▁yapımını": 8355,
      "▁cocugu": 8356,
      "▁hafif": 8357,
      "##usunden": 8358,
      "▁yazıya": 8359,
      "##wa": 8360,
      "##unca": 8361,
      "”": 8362,
      "▁beyan": 8363,
      "▁etrafı": 8364,
      "##yla": 8365,
      "▁kenarında": 8366,
      "▁luks": 8367,
      "▁tarafindan": 8368,
      "▁muharr": 8369,
      "▁direnc": 8370,
      "▁ekipmanı": 8371,
      "▁dusmus": 8372,
      "▁fev": 8373,
      "▁cumlesinde": 8374,
      "##iydi": 8375,
      "▁kolayca": 8376,
      "##mustu": 8377,
      "##yonun": 8378,
      "▁fransız": 8379,
      "##ver": 8380,
      "▁gozyasları": 8381,
      "▁degi": 8382,
      "▁aslına": 8383,
      "##atları": 8384,
      "▁isini": 8385,
      "▁edec": 8386,
      "▁sertif": 8387,
      "##sızlıgı": 8388,
      "▁kablo": 8389,
      "▁bun": 8390,
      "▁dusuktu": 8391,
      "▁aylık": 8392,
      "▁basarılı": 8393,
      "▁gunlerinden": 8394,
      "▁olc": 8395,
      "▁yeryuzunde": 8396,
      "▁kendi": 8397,
      "##ttı": 8398,
      "##nem": 8399,
      "##desinin": 8400,
      "▁kosullara": 8401,
      "▁biter": 8402,
      "##veri": 8403,
      "##ton": 8404,
      "##asıydı": 8405,
      "▁uzan": 8406,
      "▁omuzlarını": 8407,
      "▁planlarını": 8408,
      "▁saunayi": 8409,
      "▁gorevini": 8410,
      "▁planimiz": 8411,
      "##kum": 8412,
      "▁hafifce": 8413,
      "▁direkt": 8414,
      "▁gid": 8415,
      "▁gittikce": 8416,
      "▁arkadaslar": 8417,
      "##amam": 8418,
      "▁araclara": 8419,
      "▁27": 8420,
      "##dandı": 8421,
      "▁multeci": 8422,
      "##oglanı": 8423,
      "▁pazarlam": 8424,
      "▁kahram": 8425,
      "##lugunda": 8426,
      "▁maymun": 8427,
      "▁60": 8428,
      "▁numaralı": 8429,
      "▁yse": 8430,
      "▁iletisim": 8431,
      "▁kayıplar": 8432,
      "##ldi": 8433,
      "▁uluslararası": 8434,
      "▁calar": 8435,
      "▁kapsamına": 8436,
      "▁yerles": 8437,
      "▁mirası": 8438,
      "▁elbette": 8439,
      "▁farklı": 8440,
      "▁gururunu": 8441,
      "▁dolandır": 8442,
      "▁inan": 8443,
      "▁problem": 8444,
      "▁titr": 8445,
      "▁gur": 8446,
      "▁sokaklarında": 8447,
      "##ısının": 8448,
      "▁she": 8449,
      "▁gun": 8450,
      "▁personeller": 8451,
      "##uzey": 8452,
      "▁ata": 8453,
      "##dırım": 8454,
      "▁raporlar": 8455,
      "▁ihalesi": 8456,
      "##und": 8457,
      "▁neti": 8458,
      "▁guleryuzlu": 8459,
      "▁bitkiler": 8460,
      "▁listele": 8461,
      "▁hizmetci": 8462,
      "▁sektore": 8463,
      "▁gorunmuyor": 8464,
      "▁tahkikat": 8465,
      "▁defne": 8466,
      "▁sanayicileri": 8467,
      "▁dergisinde": 8468,
      "▁egilimi": 8469,
      "▁gozlerinin": 8470,
      "▁tamamıyla": 8471,
      "▁hacmin": 8472,
      "▁katana": 8473,
      "▁faturam": 8474,
      "▁ellerimi": 8475,
      "▁ziyafet": 8476,
      "▁balik": 8477,
      "▁madem": 8478,
      "▁sırrı": 8479,
      "##lıgım": 8480,
      "▁beklemeye": 8481,
      "▁tartısma": 8482,
      "▁kızının": 8483,
      "▁garant": 8484,
      "##ugunun": 8485,
      "▁adımları": 8486,
      "▁sahn": 8487,
      "▁gorec": 8488,
      "▁yufka": 8489,
      "▁bulas": 8490,
      "▁tarifeleri": 8491,
      "▁poyraz": 8492,
      "▁peri": 8493,
      "▁aramızda": 8494,
      "▁tasarrufu": 8495,
      "▁evleri": 8496,
      "▁fert": 8497,
      "▁filan": 8498,
      "▁duyul": 8499,
      "▁art": 8500,
      "▁onem": 8501,
      "▁''": 8502,
      "##ındaki": 8503,
      "▁anlaya": 8504,
      "▁tulbent": 8505,
      "▁etk": 8506,
      "▁beye": 8507,
      "▁per": 8508,
      "▁baslat": 8509,
      "▁ocagı": 8510,
      "▁yetistir": 8511,
      "##acagına": 8512,
      "▁aranmak": 8513,
      "##atsız": 8514,
      "##larım": 8515,
      "▁tehdit": 8516,
      "▁peters": 8517,
      "▁sapka": 8518,
      "##unda": 8519,
      "▁dugmesini": 8520,
      "▁karsıtı": 8521,
      "▁yurur": 8522,
      "▁kredinin": 8523,
      "▁fersah": 8524,
      "▁insan": 8525,
      "▁aylarda": 8526,
      "▁planının": 8527,
      "▁ramaz": 8528,
      "▁bok": 8529,
      "▁birinin": 8530,
      "▁noktasına": 8531,
      "##sul": 8532,
      "▁olacak": 8533,
      "▁politikaya": 8534,
      "▁katılıyor": 8535,
      "##jur": 8536,
      "▁tribun": 8537,
      "▁gayet": 8538,
      "##ore": 8539,
      "▁yasad": 8540,
      "▁tahrik": 8541,
      "▁umit": 8542,
      "▁okullarda": 8543,
      "▁vatandası": 8544,
      "##amak": 8545,
      "##cag": 8546,
      "▁yalnızca": 8547,
      "##/8": 8548,
      "▁balıkcılar": 8549,
      "▁toronto'ya": 8550,
      "▁rakip": 8551,
      "▁dugmesine": 8552,
      "▁arkadasımın": 8553,
      "▁kamyonu": 8554,
      "▁teknik": 8555,
      "▁resesyon": 8556,
      "▁satılması": 8557,
      "▁sah": 8558,
      "▁ugur": 8559,
      "##layalım": 8560,
      "▁hizli": 8561,
      "##ize": 8562,
      "▁verip": 8563,
      "▁avukatı": 8564,
      "▁catı": 8565,
      "##mem": 8566,
[...]
