{
  "version": "1.0",
  "truncation": null,
  "padding": null,
  "added_tokens": [
    {
      "id": 981,
      "content": "[MASK]",
      "single_word": false,
      "lstrip": false,
      "rstrip": false,
      "normalized": false,
      "special": true
    },
    {
      "id": 1331,
      "content": "[PAD]",
      "single_word": false,
      "lstrip": false,
      "rstrip": false,
      "normalized": false,
      "special": true
    },
    {
      "id": 2121,
      "content": "[UNK]",
      "single_word": false,
      "lstrip": false,
      "rstrip": false,
      "normalized": false,
      "special": true
    },
    {
      "id": 2569,
      "content": "[SEP]",
      "single_word": false,
      "lstrip": false,
      "rstrip": false,
      "normalized": false,
      "special": true
    },
    {
      "id": 2589,
      "content": "[CLS]",
      "single_word": false,
      "lstrip": false,
      "rstrip": false,
      "normalized": false,
      "special": true
    }
  ],
  "normalizer": {
    "type": "Sequence",
    "normalizers": [
      {
        "type": "NFD"
      },
      {
        "type": "Lowercase"
      },
      {
        "type": "StripAccents"
      }
    ]
  },
  "pre_tokenizer": {
    "type": "Sequence",
    "pretokenizers": [
      {
        "type": "Metaspace",
        "replacement": "▁",
        "prepend_scheme": "always",
        "split": true
      }
    ]
  },
  "post_processor": {
    "type": "TemplateProcessing",
    "single": [
      {
        "SpecialToken": {
          "id": "[CLS]",
          "type_id": 0
        }
      },
      {
        "Sequence": {
          "id": "A",
          "type_id": 0
        }
      },
      {
        "SpecialToken": {
          "id": "[SEP]",
          "type_id": 0
        }
      }
    ],
    "pair": [
      {
        "SpecialToken": {
          "id": "[CLS]",
          "type_id": 0
        }
      },
      {
        "Sequence": {
          "id": "A",
          "type_id": 0
        }
      },
      {
        "SpecialToken": {
          "id": "[SEP]",
          "type_id": 0
        }
      },
      {
        "Sequence": {
          "id": "B",
          "type_id": 1
        }
      },
      {
        "SpecialToken": {
          "id": "[SEP]",
          "type_id": 1
        }
      }
    ],
    "special_tokens": {
      "[CLS]": {
        "id": "[CLS]",
        "ids": [
          2589
        ],
        "tokens": [
          "[CLS]"
        ]
      },
      "[SEP]": {
        "id": "[SEP]",
        "ids": [
          2569
        ],
        "tokens": [
          "[SEP]"
        ]
      }
    }
  },
  "decoder": {
    "type": "Metaspace",
    "replacement": "▁",
    "prepend_scheme": "always",
    "split": true
  },
  "model": {
    "type": "WordPiece",
    "unk_token": "[UNK]",
    "continuing_subword_prefix": "##",
    "max_input_chars_per_word": 100,
    "vocab": {
      "▁alan": 0,
      "▁yarıs": 1,
      "##daydi": 2,
      "▁odaya": 3,
      "##ekl": 4,
      "▁efendi": 5,
      "▁bıy": 6,
      "▁listele": 7,
      "▁philadel": 8,
      "▁kir": 9,
      "▁faaliyet": 10,
      "##dıgını": 11,
      "▁elinde": 12,
      "a": 13,
      "▁col": 14,
      "▁butu": 15,
      "▁havayol": 16,
      "▁ajans": 17,
      "##2": 18,
      "▁kısa": 19,
      "##ısır": 20,
      "▁kas": 21,
      "▁tutun": 22,
      "▁makine": 23,
      "▁bebek": 24,
      "##sef": 25,
      "▁cocugu": 26,
      "▁gars": 27,
      "##eler": 28,
      "▁dusunc": 29,
      "▁calıs": 30,
      "▁yuksel": 31,
      "##cıların": 32,
      "▁olustur": 33,
      "##sel": 34,
      "▁satısları": 35,
      "▁sozleri": 36,
      "##ımın": 37,
      "▁karayolu": 38,
      "##ston": 39,
      "##3": 40,
      "##afet": 41,
      "▁listel": 42,
      "▁istemiyorum": 43,
      "##tur": 44,
      "▁od": 45,
      "##net": 46,
      "▁mevz": 47,
      "▁aralık": 48,
      "y": 49,
      "##van": 50,
      "▁ciz": 51,
      "▁doları'na": 52,
      "▁bog": 53,
      "##at": 54,
      "▁poz": 55,
      "##uc": 56,
      "▁gozlem": 57,
      "▁soy": 58,
      "▁le": 59,
      "▁kons": 60,
      "▁maz": 61,
      "▁salı": 62,
      "▁yan": 63,
      "▁seye": 64,
      "▁mesaf": 65,
      "▁sebep": 66,
      "##$": 67,
      "##lerimizi": 68,
      "##alarına": 69,
      "##ind": 70,
      "##”": 71,
      "▁eylem": 72,
      "##mamıs": 73,
      "##eki": 74,
      "▁cogu": 75,
      "▁sıra": 76,
      "##asına": 77,
      "▁sahipleri": 78,
      "▁darb": 79,
      "▁had": 80,
      "▁birkac": 81,
      "▁ko": 82,
      "▁matem": 83,
      "##anları": 84,
      "▁muam": 85,
      "▁anim": 86,
      "▁isk": 87,
      "▁ulas": 88,
      "##orta": 89,
      "##gel": 90,
      "▁cıg": 91,
      "▁gayet": 92,
      "▁ucmak": 93,
      "##idir": 94,
      "▁begen": 95,
      "##ess": 96,
      "▁ag": 97,
      "##0'": 98,
      "##op": 99,
      "▁patates": 100,
      "##yalar": 101,
      "▁ancak": 102,
      "▁gar": 103,
      "▁personeli": 104,
      "▁pil": 105,
      "▁de": 106,
      "▁yolda": 107,
      "▁oranı": 108,
      "▁tasarruf": 109,
      "##unde": 110,
      "▁franc": 111,
      "▁halkı": 112,
      "▁eline": 113,
      "##cının": 114,
      "▁seviye": 115,
      "▁sade": 116,
      "3": 117,
      "▁devir": 118,
      "##eyim": 119,
      "▁gir": 120,
      "▁iflas": 121,
      "##4": 122,
      "##etim": 123,
      "▁itibariyle": 124,
      "▁kazanc": 125,
      "▁cev": 126,
      "##dugunu": 127,
      "##ah": 128,
      "▁iddia": 129,
      "▁huz": 130,
      "▁seyleri": 131,
      "##8'de": 132,
      "▁vucud": 133,
      "▁pantol": 134,
      "##akat": 135,
      "▁ornegin": 136,
      "##eme": 137,
      "##ili": 138,
      "##tor": 139,
      "▁vardı": 140,
      "▁fut": 141,
      "##ur": 142,
      "##ti": 143,
      "▁ihtiyac": 144,
      "##lk": 145,
      "▁hamle": 146,
      "▁gormek": 147,
      "▁mart": 148,
      "▁ib": 149,
      "▁oc": 150,
      "▁kontrol": 151,
      "▁olabilirdi": 152,
      "▁uf": 153,
      "▁j": 154,
      "##eci": 155,
      "##ont": 156,
      "▁kaynak": 157,
      "▁ber": 158,
      "##eli": 159,
      "▁dis": 160,
      "##te": 161,
      "▁bal": 162,
      "##dırım": 163,
      "##larak": 164,
      "▁itibar": 165,
      "▁merkeze": 166,
      "##.": 167,
      "##tar": 168,
      "▁degistir": 169,
      "▁oz": 170,
      "▁piy": 171,
      "▁dik": 172,
      "▁soyle": 173,
      "x": 174,
      "##geleri": 175,
      "▁bileti": 176,
      "▁erk": 177,
      "##ans": 178,
      "▁basında": 179,
      "▁pit": 180,
      "▁sesi": 181,
      "▁men": 182,
      "##hu": 183,
      "##ugu": 184,
      "##urt": 185,
      "##he": 186,
      "▁anlattı": 187,
      "##ington": 188,
      "▁kahkah": 189,
      "▁beb": 190,
      "▁herkesin": 191,
      "▁yuzunden": 192,
      "##irim": 193,
      "##sak": 194,
      "##uyla": 195,
      "▁sonra": 196,
      "##ısı": 197,
      "▁kaf": 198,
      "▁duz": 199,
      "▁piyasa": 200,
      "r": 201,
      "▁*": 202,
      "▁araya": 203,
      "##aydı": 204,
      "▁karsılık": 205,
      "##makt": 206,
      "##aj": 207,
      "=": 208,
      "▁olarak": 209,
      "▁esya": 210,
      "##lemeye": 211,
      "▁acısından": 212,
      "##nam": 213,
      "##mustur": 214,
      "▁gayrimen": 215,
      "##be": 216,
      "▁hava": 217,
      "▁dususle": 218,
      "▁gosterdi": 219,
      "▁karsıl": 220,
      "▁yumurta": 221,
      "▁milletvek": 222,
      "▁istihdam": 223,
      "##raf": 224,
      "##askanı": 225,
      "▁not": 226,
      "##meleri": 227,
      "▁don": 228,
      "▁ilav": 229,
      "▁toh": 230,
      "▁tavsiye": 231,
      "▁da": 232,
      "##emey": 233,
      "▁rak": 234,
      "4": 235,
      "e": 236,
      "▁ekip": 237,
      "▁yolculuk": 238,
      "▁ilave": 239,
      "##iden": 240,
      "##esinde": 241,
      "▁si": 242,
      "▁yasında": 243,
      "▁konut": 244,
      "▁zor": 245,
      "▁ces": 246,
      "▁)": 247,
      "▁yemeklerden": 248,
      "##`": 249,
      "▁oldugu": 250,
      "▁sul": 251,
      "##arı": 252,
      "▁kos": 253,
      "▁gecen": 254,
      "▁zar": 255,
      "▁tesisin": 256,
      "##liydi": 257,
      "▁fot": 258,
      "##bilir": 259,
      "▁red": 260,
      "▁zeytin": 261,
      "w": 262,
      "##duz": 263,
      "▁toplum": 264,
      "▁millet": 265,
      "##han": 266,
      "▁kabul": 267,
      "##ime": 268,
      "▁gok": 269,
      "▁getiri": 270,
      "▁tesekkur": 271,
      "▁if": 272,
      "▁hali": 273,
      "##ıklık": 274,
      "▁ellerini": 275,
      "▁tavır": 276,
      "▁e": 277,
      "##ıgına": 278,
      "▁cak": 279,
      "▁icme": 280,
      "▁gitmek": 281,
      "##eleri": 282,
      "▁temsil": 283,
      "##isleri": 284,
      "▁organ": 285,
      "▁enf": 286,
      "▁yalan": 287,
      "▁fa": 288,
      "▁haftada": 289,
      "##imi": 290,
      "##rı": 291,
      "▁yılı": 292,
      "▁depr": 293,
      "▁muk": 294,
      "▁endustri": 295,
      "▁tane": 296,
      "▁istif": 297,
      "▁gelmis": 298,
      "▁olur": 299,
      "##unku": 300,
      "▁hukum": 301,
      "##amız": 302,
      "▁oglan": 303,
      "▁gercek": 304,
      "▁ucus": 305,
      "▁=": 306,
      "▁sokak": 307,
      "▁beklen": 308,
      "▁n": 309,
      "▁key": 310,
      "▁bilgis": 311,
      "▁endis": 312,
      "▁9": 313,
      "▁faz": 314,
      "▁boyn": 315,
      "▁sebeb": 316,
      "m": 317,
      "▁tak": 318,
      "▁biz": 319,
      "##gun": 320,
      "▁beyle": 321,
      "▁rehber": 322,
      "##..": 323,
      "▁ucuslar": 324,
      "▁hayata": 325,
      "▁cag": 326,
      "##atır": 327,
      "▁adamı": 328,
      "▁esk": 329,
      "▁damak": 330,
      "##iv": 331,
      "▁numar": 332,
      "▁toplan": 333,
      "▁ba": 334,
      "▁avukat": 335,
      "▁kor": 336,
      "##iklik": 337,
      "##ayla": 338,
      "##oyu": 339,
      "▁cesitleri": 340,
      "##ilm": 341,
      "▁gecm": 342,
      "##dı": 343,
      "▁demek": 344,
      "▁malzem": 345,
      ":": 346,
      "▁tedav": 347,
      "▁sordu": 348,
      "##7": 349,
      "▁ho": 350,
      "▁oglen": 351,
      "##yo": 352,
      "▁kr": 353,
      "▁first": 354,
      "##alı": 355,
      "g": 356,
      "▁dusus": 357,
      "▁tiyatr": 358,
      "##etici": 359,
      "##anıt": 360,
      "▁ayakk": 361,
      "▁day": 362,
      "▁polit": 363,
      "▁stok": 364,
      "▁katkıda": 365,
      "▁oranları": 366,
      "##ebilir": 367,
      "▁kapının": 368,
      "▁sav": 369,
      "▁,": 370,
      "▁tesis": 371,
      "▁yel": 372,
      "##ran": 373,
      "▁far": 374,
      "▁personellerden": 375,
      "▁acık": 376,
      "##onom": 377,
      "▁sınıfı": 378,
      "▁sıkınt": 379,
      "▁vucut": 380,
      "▁tedavul": 381,
      "▁oldug": 382,
      "▁kırık": 383,
      "##ama": 384,
      "▁emeklilik": 385,
      "▁parcası": 386,
      "##gil": 387,
      "▁yerine": 388,
      "▁cicek": 389,
      "▁otobus": 390,
      "p": 391,
      "▁kah": 392,
      "▁yıllar": 393,
      "▁onemli": 394,
      "##0'dan": 395,
      "▁kıymet": 396,
      "##amaya": 397,
      "▁olduk": 398,
      "##s": 399,
      "##must": 400,
      "##ligi": 401,
      "##isyon": 402,
      "▁meydana": 403,
      "▁kurul": 404,
      "▁ev": 405,
      "▁denizi": 406,
      "▁sipar": 407,
      "▁ar": 408,
      "##tıktan": 409,
      "##istel": 410,
      "▁dog": 411,
      "##ık": 412,
      "▁nakit": 413,
      "▁omuz": 414,
      "##masını": 415,
      "▁5": 416,
      "▁uretimi": 417,
      "▁vardır": 418,
      "▁tah": 419,
      "▁w": 420,
      "##uma": 421,
      "##ıgını": 422,
      "▁ekmek": 423,
      "##eyaz": 424,
      "##ızı": 425,
      "▁etti": 426,
      "▁eli": 427,
      "▁ma": 428,
      "##masına": 429,
      "▁talep": 430,
      "▁uzak": 431,
      "▁buc": 432,
      "▁bayram": 433,
      "##ma": 434,
      "▁am": 435,
      "▁yeniden": 436,
      "▁akl": 437,
      "##stu": 438,
      "##gıc": 439,
      "##uz": 440,
      "▁fiyati": 441,
      "▁net": 442,
      "▁yaban": 443,
      "▁satır": 444,
      "▁bakan": 445,
      "##luga": 446,
      "##fen": 447,
      "▁dusun": 448,
      "##iyatr": 449,
      "▁herk": 450,
      "##mıslar": 451,
      "▁baslangıc": 452,
      "▁eksik": 453,
      "▁seh": 454,
      "##erli": 455,
      "▁isci": 456,
      "▁lezz": 457,
      "▁hatır": 458,
      "##yacak": 459,
      "▁yurtd": 460,
      "▁verdi": 461,
      "▁havaalanından": 462,
      "##ligini": 463,
      "▁dunyanın": 464,
      "▁endust": 465,
      "▁koyun": 466,
      "##sal": 467,
      "▁bilet": 468,
      "##ıcak": 469,
      "▁edebiyat": 470,
      "▁sır": 471,
      "▁huzur": 472,
      "##igini": 473,
      "▁yiyecekler": 474,
      "▁bahs": 475,
      "▁i": 476,
      "▁deniz": 477,
      "##adde": 478,
      "▁yatırımcıların": 479,
      "▁ge": 480,
      "▁bul": 481,
      "▁hayal": 482,
      "▁yılın": 483,
      "##0": 484,
      "##isi": 485,
      "##ete": 486,
      "▁bey": 487,
      "##izdi": 488,
      "##atlar": 489,
      "##'e": 490,
      "▁hayv": 491,
      "▁p": 492,
      "▁sinir": 493,
      "##isiyle": 494,
      "▁$'a": 495,
      "▁iletisim": 496,
      "▁hazine": 497,
      "▁ogle": 498,
      "▁sonucu": 499,
      "▁su": 500,
      "▁komisyon": 501,
      "▁sof": 502,
      "▁gorusuldu": 503,
      "##amın": 504,
      "##ata": 505,
      "##larının": 506,
      "▁fik": 507,
      "▁mes": 508,
      "▁kucuk": 509,
      "##izli": 510,
      "▁or": 511,
      "▁;": 512,
      "▁mus": 513,
      "##&": 514,
      "▁senedi": 515,
      "##aklı": 516,
      "▁niyet": 517,
      "▁sayf": 518,
      "##cılık": 519,
      "##uydu": 520,
      "▁buz": 521,
      "##mam": 522,
      "▁mut": 523,
      "▁dur": 524,
      "▁kalb": 525,
      "▁memur": 526,
      "▁gore": 527,
      "##usunda": 528,
      "▁kararı": 529,
      "▁ig": 530,
      "##kler": 531,
      "▁herh": 532,
      "##ca": 533,
      "▁sovyet": 534,
      "▁ozgur": 535,
      "##ttı": 536,
      "##met": 537,
      "▁mev": 538,
      "▁fırsat": 539,
      "▁borc": 540,
      "▁clas": 541,
      "▁yuzme": 542,
      "▁yerinde": 543,
      "##ici": 544,
      "##imin": 545,
      "##larına": 546,
      "▁kalmadim": 547,
      "##gim": 548,
      "▁veril": 549,
      "▁begenmedim": 550,
      "▁muh": 551,
      "##yuzlu": 552,
      "▁dusuk": 553,
      "##eyr": 554,
      "▁gogs": 555,
      "##bir": 556,
      "##kac": 557,
      "▁listesini": 558,
      "▁eglence": 559,
      "##asa": 560,
      "▁muhal": 561,
      "▁sistemi": 562,
      "▁universit": 563,
      "▁hem": 564,
      "▁saf": 565,
      "▁odan": 566,
      "▁otomobil": 567,
      "▁hikay": 568,
      "▁kodu": 569,
      "▁hayvan": 570,
      "##uluyor": 571,
      "▁oyle": 572,
      "▁gul": 573,
      "##ıh": 574,
      "▁alım": 575,
      "##agı": 576,
      "##art": 577,
      "▁ses": 578,
      "▁oner": 579,
      "##ugunu": 580,
      "▁anlat": 581,
      "▁aldı": 582,
      "▁dusunuyor": 583,
      "▁traf": 584,
      "▁fazl": 585,
      "▁ann": 586,
      "▁tahmin": 587,
      "▁konak": 588,
      "##sunuz": 589,
      "▁oyun": 590,
      "▁f": 591,
      "▁bede": 592,
      "##m": 593,
      "▁gece": 594,
      "##den": 595,
      "##uya": 596,
      "▁yarın": 597,
      "##apon": 598,
      "▁bır": 599,
      "▁insanı": 600,
      "##liligi": 601,
      "##ansiyon": 602,
      "▁akr": 603,
      "##ika": 604,
      "##ılır": 605,
      "▁sans": 606,
      "▁:": 607,
      "▁bo": 608,
      "##ımıza": 609,
      "▁toz": 610,
      "##enc": 611,
      "▁kullanmadim": 612,
      "▁anda": 613,
      "▁pos": 614,
      "▁he": 615,
      "▁onay": 616,
      "##pan": 617,
      "▁pas": 618,
      "▁yumur": 619,
      "▁adam": 620,
      "▁merkezine": 621,
      "▁itir": 622,
      "▁insana": 623,
      "▁sırada": 624,
      "▁nedenlerden": 625,
      "##acagını": 626,
      "##ıgı": 627,
      "##dıgında": 628,
      "▁ihrac": 629,
      "▁ucretlerini": 630,
      "##1": 631,
      "##isine": 632,
      "##areti": 633,
      "##ekler": 634,
      "▁guzeldi": 635,
      "▁politika": 636,
      "▁plani": 637,
      "▁duman": 638,
      "▁menkul": 639,
      "▁dem": 640,
      "##mak": 641,
      "▁birles": 642,
      "▁endek": 643,
      "▁saat": 644,
      "▁anket": 645,
      "▁hik": 646,
      "▁isim": 647,
      "##e": 648,
      "##ac": 649,
      "▁yont": 650,
      "##inda": 651,
      "▁islemler": 652,
      "▁icki": 653,
      "▁bekl": 654,
      "▁kot": 655,
      "▁lok": 656,
      "##ni": 657,
      "##emek": 658,
      "##angi": 659,
      "##ite": 660,
      "▁yonetimi": 661,
      "##ıs": 662,
      "▁kac": 663,
      "▁aile": 664,
      "##layan": 665,
      "##ediyor": 666,
      "▁destek": 667,
      "##ket": 668,
      "▁dep": 669,
      "▁naz": 670,
      "▁islet": 671,
      "▁ziy": 672,
      "##eticisi": 673,
      "▁kez": 674,
      "##sız": 675,
      "▁onlar": 676,
      "▁ta": 677,
      "▁basladı": 678,
      "▁10'dan": 679,
      "##umun": 680,
      "▁ticaret": 681,
      "▁etmeye": 682,
      "▁etki": 683,
      "##arlar": 684,
      "##ilik": 685,
      "▁serv": 686,
      "▁mec": 687,
      "▁savası": 688,
      "▁dunyaya": 689,
      "##sen": 690,
      "▁kahv": 691,
      "▁zih": 692,
      "▁icra": 693,
      "▁iler": 694,
      "▁class": 695,
      "▁kral": 696,
      "▁ozel": 697,
      "▁acıklam": 698,
      "▁bolum": 699,
      "▁kitabı": 700,
      "▁ez": 701,
      "##laması": 702,
      "##lacak": 703,
      "▁bakım": 704,
      "##ht": 705,
      "▁ayrıl": 706,
      "##erleri": 707,
      "▁ya": 708,
      "##cut": 709,
      "##egin": 710,
      "##isinden": 711,
      "▁yag": 712,
      "##amaz": 713,
      "▁kol": 714,
      "##siye": 715,
      "▁ir": 716,
      "▁lutfen": 717,
      "▁tem": 718,
      "##asının": 719,
      "▁yapıyor": 720,
      "▁dam": 721,
      "▁fabrik": 722,
      "▁kalite": 723,
      "▁ifade": 724,
      "▁isletme": 725,
      "##lac": 726,
      "▁alısveris": 727,
      "##inin": 728,
      "▁sistem": 729,
      "▁yoktu": 730,
      "##and": 731,
      "▁ih": 732,
      "▁ey": 733,
      "##umuz": 734,
      "▁bes": 735,
      "##ge": 736,
      "##ıstır": 737,
      "▁ik": 738,
      "▁yum": 739,
      "▁tabak": 740,
      "▁akt": 741,
      "##ayı": 742,
      "▁kapıyı": 743,
      "▁art": 744,
      "##ens": 745,
      "▁ziyaret": 746,
      "##cilik": 747,
      "▁ikinci": 748,
      "▁mevdu": 749,
      "▁kit": 750,
      "##akı": 751,
      "▁cars": 752,
      "▁te": 753,
      "▁af": 754,
      "▁arastırma": 755,
      "▁tarihinde": 756,
      "##es": 757,
      "▁hiss": 758,
      "##lit": 759,
      "▁rap": 760,
      "##ey": 761,
      "▁kolt": 762,
      "##medi": 763,
      "▁ortaya": 764,
      "▁oyn": 765,
      "▁firma": 766,
      "▁sekret": 767,
      "▁asagı": 768,
      "▁basta": 769,
      "##lıkları": 770,
      "##elir": 771,
      "▁sigorta": 772,
      "▁za": 773,
      "##ması": 774,
      "▁sorunu": 775,
      "▁gel": 776,
      "▁mem": 777,
      "b": 778,
      "▁yal": 779,
      "▁nedenle": 780,
      "▁penc": 781,
      "##masından": 782,
      "▁alama": 783,
      "▁kal": 784,
      "##ap": 785,
      "▁belir": 786,
      "##maları": 787,
      "▁yemek": 788,
      "##f": 789,
      "▁tan": 790,
      ";": 791,
      "##gın": 792,
      "##na": 793,
      "▁delik": 794,
      "##ımızın": 795,
      "▁yog": 796,
      "▁bors": 797,
      "▁havayolu": 798,
      "▁gunden": 799,
      "▁kut": 800,
      "▁ust": 801,
      "▁yemeklerinden": 802,
      "▁uzman": 803,
      "▁tezgah": 804,
      "▁bug": 805,
      "▁memnun": 806,
      "▁idare": 807,
      "▁pay": 808,
      "▁firması": 809,
      "##aliydi": 810,
      "▁ph": 811,
      "##lıgını": 812,
      "▁agac": 813,
      "▁bicim": 814,
      "▁alk": 815,
      "▁yonetim": 816,
      "▁haline": 817,
      "▁azal": 818,
      "▁alacak": 819,
      "▁parmak": 820,
      "▁mudur": 821,
      "##'n": 822,
      "##abı": 823,
      "##larımızı": 824,
      "##ligine": 825,
      "▁bilg": 826,
      "▁gecir": 827,
      "▁cem": 828,
      "##estir": 829,
      "▁sorustur": 830,
      "##ibar": 831,
      "▁dallas": 832,
      "▁huk": 833,
      "▁benz": 834,
      "##du": 835,
      "##ıyor": 836,
      "▁detay": 837,
      "▁sozcusu": 838,
      "▁artısla": 839,
      "##mus": 840,
      "▁kaldır": 841,
      "##'da": 842,
      "▁fikir": 843,
      "##sı": 844,
      "▁suy": 845,
      "▁ettigini": 846,
      "##ledi": 847,
      "▁sim": 848,
      "▁mah": 849,
      "▁derecede": 850,
      "▁nis": 851,
      "▁temel": 852,
      "##ısız": 853,
      "▁mill": 854,
      "▁has": 855,
      "▁yuv": 856,
      "f": 857,
      "▁vergi": 858,
      "▁kere": 859,
      "##ızın": 860,
      "##ane": 861,
      "▁gazeteci": 862,
      "▁dus": 863,
      "##mayan": 864,
      "▁otur": 865,
      "▁teklifi": 866,
      "▁kars": 867,
      "##8": 868,
      "##medigini": 869,
      "##isini": 870,
      "▁universite": 871,
      "▁ticarette": 872,
      "▁yine": 873,
      "##us": 874,
      "##siz": 875,
      "▁elini": 876,
      "##evi": 877,
      "▁islemlerinde": 878,
      "##may": 879,
      "▁sayı": 880,
      "▁boyle": 881,
      "▁burn": 882,
      "##gur": 883,
      "▁konusunda": 884,
      "##eden": 885,
      "##teri": 886,
      "▁sikayet": 887,
      "##tay": 888,
      "▁guzel": 889,
      "##lug": 890,
      "▁belki": 891,
      "▁personelleri": 892,
      "▁bor": 893,
      "▁suya": 894,
      "▁med": 895,
      "##luydu": 896,
      "▁mur": 897,
      "##ırdı": 898,
      "##azla": 899,
      "▁artıs": 900,
      "▁personeller": 901,
      "##aya": 902,
      "ı": 903,
      "▁ilgi": 904,
      "▁mun": 905,
      "##yen": 906,
      "##ad": 907,
      "##ayan": 908,
      "▁posta": 909,
      "▁ban": 910,
      "▁hacmi": 911,
      "▁fr": 912,
      "▁yas": 913,
      "▁paket": 914,
      "##em": 915,
      "▁.": 916,
      "▁beni": 917,
      "▁aj": 918,
      "▁ucreti": 919,
      "▁arkadas": 920,
      "##or": 921,
      "▁egitim": 922,
      "▁bildir": 923,
      "##ıma": 924,
      "##ılım": 925,
      "▁sevgi": 926,
      "##iyat": 927,
      "▁sehir": 928,
      "▁senetleri": 929,
      "##umu": 930,
      "▁uret": 931,
      "▁bol": 932,
      "##anıs": 933,
      "▁yuzune": 934,
      "▁3": 935,
      "##ıldı": 936,
      "▁yay": 937,
      "▁gozlerini": 938,
      "##mel": 939,
      "▁indirim": 940,
      "▁uygul": 941,
      "▁kisilik": 942,
      "##ılmıs": 943,
      "▁ard": 944,
      "▁yav": 945,
      "▁kelime": 946,
      "▁tac": 947,
      "▁gitti": 948,
      "##tir": 949,
      "t": 950,
      "▁akıl": 951,
      "▁lezzetleri": 952,
      "▁say": 953,
      "▁geliyor": 954,
      "▁hastan": 955,
      "▁alay": 956,
      "▁kuf": 957,
      "▁analiz": 958,
      "##gr": 959,
      "▁lu": 960,
      "▁av": 961,
      "▁kadar": 962,
      "##ısıyla": 963,
      "▁yere": 964,
      "▁sinem": 965,
      "##lam": 966,
      "▁tarih": 967,
      "7": 968,
      "▁borsa": 969,
      "##inde": 970,
      "#": 971,
      "##ibi": 972,
      "▁istedi": 973,
      "##k": 974,
      "▁ek": 975,
      "##evizyon": 976,
      "##6": 977,
      "##ucc": 978,
      "##ruk": 979,
      "▁evin": 980,
      "[MASK]": 981,
      "##isim": 982,
      "##'na": 983,
      "▁finans": 984,
      "##lanır": 985,
      "▁izin": 986,
      "▁cevr": 987,
      "##elere": 988,
      "▁seyden": 989,
      "▁onunde": 990,
      "##lıkla": 991,
      "▁duzen": 992,
      "##uyordu": 993,
      "▁mekte": 994,
      "▁kahvalt": 995,
      "▁kes": 996,
      "##ınlık": 997,
      "##+": 998,
      "▁kumar": 999,
      "▁daha": 1000,
      "##iler": 1001,
      "▁orne": 1002,
      "▁hareket": 1003,
      "##manın": 1004,
      "##arında": 1005,
      "##muyor": 1006,
      "▁babam": 1007,
      "##'": 1008,
      "##adar": 1009,
      "##siy": 1010,
      "▁reform": 1011,
      "▁danıs": 1012,
      "▁tul": 1013,
      "##z": 1014,
      "##eri": 1015,
      "##lik": 1016,
      "##sim": 1017,
      "▁tip": 1018,
      "▁198": 1019,
      "##ag": 1020,
      "▁ornek": 1021,
      "▁kardes": 1022,
      "▁sa": 1023,
      "##li": 1024,
      "▁dagıt": 1025,
      "▁ken": 1026,
      "▁a": 1027,
      "▁gunu": 1028,
      "▁farkında": 1029,
      "▁oglum": 1030,
      "##5": 1031,
      "▁uzerinden": 1032,
      "▁kelim": 1033,
      "##ıkları": 1034,
      "▁rakam": 1035,
      "##all": 1036,
      "▁rekor": 1037,
      "▁&": 1038,
      "▁goz": 1039,
      "##larında": 1040,
      "▁bahc": 1041,
      "▁must": 1042,
      "▁ele": 1043,
      "▁bazi": 1044,
      "▁eyalet": 1045,
      "▁muzik": 1046,
      "▁imz": 1047,
      "▁vatand": 1048,
      "▁ters": 1049,
      "▁gerekiyor": 1050,
      "▁sabah": 1051,
      "▁edecek": 1052,
      "▁us": 1053,
      "▁arasına": 1054,
      "##len": 1055,
      "##erler": 1056,
      "%": 1057,
      "▁prens": 1058,
      "##ilim": 1059,
      "▁k": 1060,
      "▁giriste": 1061,
      "##inc": 1062,
      "▁kat": 1063,
      "▁mola": 1064,
      "▁zam": 1065,
      "##dur": 1066,
      "###": 1067,
      "▁operasyon": 1068,
      "▁etrafında": 1069,
      "##ij": 1070,
      "▁taraf": 1071,
      "▁tec": 1072,
      "▁tenc": 1073,
      "▁personellerin": 1074,
      "▁cık": 1075,
      "n": 1076,
      "▁dav": 1077,
      "##ger": 1078,
      "##raz": 1079,
      "##ide": 1080,
      "▁gom": 1081,
      "##aca": 1082,
      "##ban": 1083,
      "##ecegim": 1084,
      "▁verim": 1085,
      "##lerde": 1086,
      "##madan": 1087,
      "##elerin": 1088,
      "##mıs": 1089,
      "##ından": 1090,
      "▁boston": 1091,
      "▁karsiligini": 1092,
      "##up": 1093,
      "##larımı": 1094,
      "##miyor": 1095,
      "▁diger": 1096,
      "##lek": 1097,
      "##aydi": 1098,
      "▁son": 1099,
      "##ileri": 1100,
      "▁lid": 1101,
      "▁araz": 1102,
      "##ten": 1103,
      "##onun": 1104,
      "##yle": 1105,
      "▁def": 1106,
      "##enek": 1107,
      "##erv": 1108,
      "▁ordu": 1109,
      "##um": 1110,
      "##gul": 1111,
      "▁francisco'ya": 1112,
      "▁misafir": 1113,
      "▁sonrasında": 1114,
      "▁hur": 1115,
      "▁ofk": 1116,
      "▁sonrası": 1117,
      "▁uzun": 1118,
      "##tu": 1119,
      "▁ekim": 1120,
      "##:": 1121,
      "##iber": 1122,
      "##lerin": 1123,
      "▁ac": 1124,
      "▁kitap": 1125,
      "##gıt": 1126,
      "▁azalt": 1127,
      "▁tahv": 1128,
      "##sam": 1129,
      "▁bolumu": 1130,
      "##iyi": 1131,
      "▁fiyatlarını": 1132,
      "##y": 1133,
      "▁gunlerde": 1134,
      "▁savunma": 1135,
      "▁kampanyalar": 1136,
      "▁ucusu": 1137,
      "##'un": 1138,
      "▁olan": 1139,
      "##asındaki": 1140,
      "▁kurt": 1141,
      "▁im": 1142,
      "▁guz": 1143,
      "##ydı": 1144,
      "##ılı": 1145,
      "▁artısı": 1146,
      "▁dom": 1147,
      "▁kis": 1148,
      "▁?": 1149,
      "▁kultur": 1150,
      "▁ener": 1151,
      "▁direk": 1152,
      "▁caba": 1153,
      "▁garson": 1154,
      "▁karsısında": 1155,
      "▁sıkıntı": 1156,
      "##tr": 1157,
      "▁tehlik": 1158,
      "▁burokr": 1159,
      "##alarım": 1160,
      "▁.)": 1161,
      "▁ihtiyacı": 1162,
      "##ucu": 1163,
      "▁sark": 1164,
      "##ye": 1165,
      "##un": 1166,
      "##eb": 1167,
      "▁kıy": 1168,
      "▁bogaz": 1169,
      "▁sekl": 1170,
      "##ari": 1171,
      "▁nak": 1172,
      "##ec": 1173,
      "▁dalg": 1174,
      "▁sigara": 1175,
      "▁odalari": 1176,
      "▁once": 1177,
      "##ldi": 1178,
      "▁unu": 1179,
      "▁soyledi": 1180,
      "▁degisiklikler": 1181,
      "##uv": 1182,
      "▁tahvil": 1183,
      "▁kosulları": 1184,
      "##fer": 1185,
      "▁cif": 1186,
      "##et": 1187,
      "▁maliyeti": 1188,
      "▁gosterin": 1189,
      "▁faiz": 1190,
      "##madı": 1191,
      "▁plaji": 1192,
      "▁evi": 1193,
      "▁ten": 1194,
      "##gunluk": 1195,
      "▁cocugun": 1196,
      "▁tarif": 1197,
      "▁ins": 1198,
      "▁bilgi": 1199,
      "##ruf": 1200,
      "▁yasa": 1201,
      "##ıf": 1202,
      "▁anay": 1203,
      "▁ise": 1204,
      "▁surec": 1205,
      "▁kardesim": 1206,
      "▁dair": 1207,
      "▁kom": 1208,
      "▁parti": 1209,
      "▁burada": 1210,
      "##etleri": 1211,
      "▁kurtaj": 1212,
      "▁sup": 1213,
      "##arlan": 1214,
      "▁bana": 1215,
      "▁teor": 1216,
      "▁is": 1217,
      "##ayi": 1218,
      "##lılık": 1219,
      "▁sohbet": 1220,
      "##ınız": 1221,
      "▁kil": 1222,
      "▁erken": 1223,
      "▁olsun": 1224,
      "▁bilim": 1225,
      "##erken": 1226,
      "▁anlam": 1227,
      "▁12": 1228,
      "▁ren": 1229,
      "▁hanimdi": 1230,
      "▁alıs": 1231,
      "##attı": 1232,
      "▁deprem": 1233,
      "▁yık": 1234,
      "▁oyunc": 1235,
      "##gal": 1236,
      "▁ha": 1237,
      "##ındaki": 1238,
      "▁yatırımcılar": 1239,
      "▁yalnız": 1240,
      "▁test": 1241,
      "▁satıs": 1242,
      "##uyor": 1243,
      "##deki": 1244,
      "▁top": 1245,
      "▁siir": 1246,
      "▁kısı": 1247,
      "##lerle": 1248,
      "$": 1249,
      "▁uz": 1250,
      "▁nefes": 1251,
      "▁hır": 1252,
      "##esini": 1253,
      "▁edil": 1254,
      "▁dogru": 1255,
      "▁bin": 1256,
      "##ılan": 1257,
      "▁zaman": 1258,
      "▁dov": 1259,
      "▁cel": 1260,
      "##ima": 1261,
      "▁lam": 1262,
      "▁getir": 1263,
      "▁doldur": 1264,
      "▁maliyet": 1265,
      "##emli": 1266,
      "▁ikisi": 1267,
      "▁kisi": 1268,
      "▁ekm": 1269,
      "▁sevk": 1270,
      "▁dogr": 1271,
      "▁cen": 1272,
      "▁sor": 1273,
      "##cilerin": 1274,
      "▁sayg": 1275,
      "##uktu": 1276,
      "##ep": 1277,
      "##asyon": 1278,
      "##agını": 1279,
      "▁arac": 1280,
      "▁terk": 1281,
      "▁endeks": 1282,
      "▁cad": 1283,
      "▁8'den": 1284,
      "##00'": 1285,
      "▁nelerdir": 1286,
      "▁mobil": 1287,
      "▁har": 1288,
      "##egi": 1289,
      "▁boyun": 1290,
      "▁tır": 1291,
      "▁rezervasyonu": 1292,
      "▁git": 1293,
      "▁elb": 1294,
      "▁tepki": 1295,
      "▁cift": 1296,
      "▁basv": 1297,
      "##lerinin": 1298,
      "▁ede": 1299,
      "##uguna": 1300,
      "▁kayn": 1301,
      "▁lob": 1302,
      "v": 1303,
      "##unda": 1304,
      "▁futbol": 1305,
      "▁insanın": 1306,
      "##c": 1307,
      "▁savun": 1308,
      "▁deney": 1309,
      "##ınc": 1310,
      "▁katilmak": 1311,
      "▁tasım": 1312,
      "▁grubu": 1313,
      "0": 1314,
      "▁baz": 1315,
      "▁ilk": 1316,
      "▁ip": 1317,
      "##mes": 1318,
      "▁dar": 1319,
      "▁perde": 1320,
      "▁kayıt": 1321,
      "##par": 1322,
      "▁olanak": 1323,
      "##ınt": 1324,
      "##is": 1325,
      "▁piyan": 1326,
      "▁uc": 1327,
      "##irler": 1328,
      "##erans": 1329,
      "▁sar": 1330,
      "[PAD]": 1331,
      "▁kadın": 1332,
      "##emin": 1333,
      "▁oteli": 1334,
      "##cı": 1335,
      "##t": 1336,
      "▁kalkan": 1337,
      "▁arab": 1338,
      "▁boyu": 1339,
      "▁itiraf": 1340,
      "▁uyk": 1341,
      "▁ter": 1342,
      "▁karak": 1343,
      "▁problem": 1344,
      "▁h": 1345,
      "9": 1346,
      "▁iyi": 1347,
      "##izi": 1348,
      "##liye": 1349,
      "▁gerek": 1350,
      "##esti": 1351,
      "##liyor": 1352,
      "▁sig": 1353,
      "##nun": 1354,
      "▁eder": 1355,
      "▁satım": 1356,
      "▁ici": 1357,
      "##ilendir": 1358,
      "##suz": 1359,
      "▁ekibi": 1360,
      "▁7": 1361,
      "▁parca": 1362,
      "##uyle": 1363,
      "##hane": 1364,
      "▁tay": 1365,
      "▁oyku": 1366,
      "##dak": 1367,
      "▁nedeniyle": 1368,
      "##lastır": 1369,
      "▁tek": 1370,
      "##lamıs": 1371,
      "▁sur": 1372,
      "▁gru": 1373,
      "▁tiyatro": 1374,
      "##aat": 1375,
      "▁dayan": 1376,
      "##let": 1377,
      "▁basını": 1378,
      "▁inter": 1379,
      "▁saglık": 1380,
      "▁mesaj": 1381,
      "##ıda": 1382,
      "▁dusman": 1383,
      "8": 1384,
      "▁elestiri": 1385,
      "▁ulasım": 1386,
      "▁francisco": 1387,
      "##uyu": 1388,
      "▁esim": 1389,
      "▁kusur": 1390,
      "##usuna": 1391,
      "▁z": 1392,
      "▁kop": 1393,
      "▁alak": 1394,
      "##tı": 1395,
      "##urdu": 1396,
      "##bası": 1397,
      "▁tesisi": 1398,
      "▁direktor": 1399,
      "▁emir": 1400,
      "##mekten": 1401,
      "##0'da": 1402,
      "##aba": 1403,
      "▁kahvaltı": 1404,
      "##5'": 1405,
      "##ugun": 1406,
      "▁olm": 1407,
      "▁herkes": 1408,
      "▁cik": 1409,
      "▁aklı": 1410,
      "▁anlas": 1411,
      "##cisi": 1412,
      "▁edi": 1413,
      "▁hizmet": 1414,
      "##aseb": 1415,
      "##abet": 1416,
      "▁199": 1417,
      "##ecegi": 1418,
      "▁kov": 1419,
      "##ların": 1420,
      "▁t": 1421,
      "▁kısmı": 1422,
      "▁ortam": 1423,
      "##od": 1424,
      "##edigim": 1425,
      "##ev": 1426,
      "##kar": 1427,
      "▁koku": 1428,
      "##ola": 1429,
      "▁ile": 1430,
      "##iri": 1431,
      "▁onem": 1432,
      "▁yagmur": 1433,
      "▁\"": 1434,
      "▁buyum": 1435,
      "2": 1436,
      "▁beklent": 1437,
      "”": 1438,
      "▁grub": 1439,
      "##aları": 1440,
      "▁gal": 1441,
      "▁program": 1442,
      "▁yılının": 1443,
      "▁taz": 1444,
      "▁kıv": 1445,
      "##dugu": 1446,
      "▁gorev": 1447,
      "▁cer": 1448,
      "▁sayıda": 1449,
      "▁ulke": 1450,
      "▁tasar": 1451,
      "▁eks": 1452,
      "##isco": 1453,
      "▁form": 1454,
      "##uzlu": 1455,
      "▁cumhurb": 1456,
      "▁yukseldi": 1457,
      "▁piyasanın": 1458,
      "##ı": 1459,
      "##yon": 1460,
      "##malar": 1461,
      "▁gayrimenkul": 1462,
      "▁sirketleri": 1463,
      "##kan": 1464,
      "##dıgı": 1465,
      "##ada": 1466,
      "▁arkadaslar": 1467,
      "▁yapmak": 1468,
      "▁kahve": 1469,
      "##ıklar": 1470,
      "##mis": 1471,
      "▁adım": 1472,
      "▁acent": 1473,
      "▁yoneticileri": 1474,
      "▁ureticisi": 1475,
      "▁dok": 1476,
      "▁sorumluluk": 1477,
      "▁kahval": 1478,
      "▁bank": 1479,
      "▁coc": 1480,
      "▁genelde": 1481,
      "##urk": 1482,
      "▁proj": 1483,
      "##lantı": 1484,
      "##ının": 1485,
      "▁cep": 1486,
      "##izasyon": 1487,
      "▁inc": 1488,
      "▁civ": 1489,
      "▁gem": 1490,
      "##ekti": 1491,
      "▁hisse": 1492,
      "##udu": 1493,
      "▁to": 1494,
      "▁kup": 1495,
      "##yl": 1496,
      "##astır": 1497,
      "##i": 1498,
      "▁begendim": 1499,
      "▁tic": 1500,
      "▁arz": 1501,
      "▁bizim": 1502,
      "##eginde": 1503,
      "##agının": 1504,
      "▁kavram": 1505,
      "▁cercev": 1506,
      "▁amerik": 1507,
      "▁rahat": 1508,
      "##ult": 1509,
      "##eda": 1510,
      "▁yanına": 1511,
      "##ver": 1512,
      "▁cocuklara": 1513,
      "▁havayollarını": 1514,
      "##maz": 1515,
      "▁geri": 1516,
      "##elim": 1517,
      "▁guleryuzlu": 1518,
      "##x": 1519,
      "▁yat": 1520,
      "▁vet": 1521,
      "▁as": 1522,
      "##tan": 1523,
      "▁%": 1524,
      "▁ka": 1525,
      "▁zamanda": 1526,
      "##lardı": 1527,
      "##ıla": 1528,
      "▁il": 1529,
      "▁end": 1530,
      "▁kamyon": 1531,
      "&": 1532,
      "▁yiy": 1533,
      "##cok": 1534,
      "##mek": 1535,
      "▁onun": 1536,
      "##alle": 1537,
      "##phia": 1538,
      "▁haft": 1539,
      "▁met": 1540,
      "▁sus": 1541,
      "##ren": 1542,
      "▁york": 1543,
      "▁ucak": 1544,
      "▁oyunu": 1545,
      "##igi": 1546,
      "##d": 1547,
      "##ısında": 1548,
      "##acak": 1549,
      "▁hanimla": 1550,
      "##lerimi": 1551,
      "▁kurulus": 1552,
      "▁borsası": 1553,
      "▁sez": 1554,
      "▁em": 1555,
      "##suzluk": 1556,
      "##edik": 1557,
      "▁yemeklerde": 1558,
      "##egine": 1559,
      "##imizi": 1560,
      "▁can": 1561,
      "▁ustu": 1562,
      "▁ruy": 1563,
      "▁ic": 1564,
      "▁seker": 1565,
      "▁oteldi": 1566,
      "##esinin": 1567,
      "▁olu": 1568,
      "##lıgında": 1569,
      "▁basarı": 1570,
      "##cılıg": 1571,
      "##itesi": 1572,
      "▁arasındaki": 1573,
      "▁mektup": 1574,
      "▁anlamına": 1575,
      "▁ucret": 1576,
      "▁tat": 1577,
      "▁mek": 1578,
      "##ark": 1579,
      "▁koylu": 1580,
      "▁may": 1581,
      "##ork": 1582,
      "▁kıymetler": 1583,
      "##ay": 1584,
      "▁.\"": 1585,
      "▁ellerinde": 1586,
      "▁inan": 1587,
      "▁aynı": 1588,
      "##oloj": 1589,
      "##lendir": 1590,
      "▁seyler": 1591,
      "##endi": 1592,
      "##iniz": 1593,
      "▁fır": 1594,
      "▁bile": 1595,
      "▁derece": 1596,
      "▁urun": 1597,
      "##stı": 1598,
      "▁bah": 1599,
      "##elerden": 1600,
      "##;": 1601,
      "▁harekete": 1602,
      "▁yolcu": 1603,
      "##idi": 1604,
      "▁kuvv": 1605,
      "▁go": 1606,
      "▁seklinde": 1607,
      "▁seyahat": 1608,
      "▁kontr": 1609,
      "▁yolu": 1610,
      "##'s": 1611,
      "▁doları'ndan": 1612,
      "▁kuv": 1613,
      "▁konuyu": 1614,
      "?": 1615,
      "##ust": 1616,
      "▁korku": 1617,
      "▁bugday": 1618,
      "▁ben": 1619,
      "##oj": 1620,
      "▁indir": 1621,
      "▁idar": 1622,
      "▁nokta": 1623,
      "##usunu": 1624,
      "▁gidis": 1625,
      "▁geliri": 1626,
      "▁ısrar": 1627,
      "▁belirt": 1628,
      "▁sadece": 1629,
      "##ım": 1630,
      "▁19": 1631,
      "##misti": 1632,
      "▁kent": 1633,
      "##uklu": 1634,
      "▁atlanta": 1635,
      "▁soyluyor": 1636,
      "▁icecek": 1637,
      "▁icine": 1638,
      "##cegini": 1639,
      "▁istih": 1640,
      "▁dib": 1641,
      "##sin": 1642,
      "##emi": 1643,
      "##alma": 1644,
      "##ha": 1645,
      "▁sarkı": 1646,
      "▁kum": 1647,
      "▁deger": 1648,
      "▁sun": 1649,
      "▁fiyat": 1650,
      "…": 1651,
      "##ıl": 1652,
      "##tif": 1653,
      "▁tarla": 1654,
      "▁yardım": 1655,
      "##ograf": 1656,
      "▁sil": 1657,
      "▁kur": 1658,
      "##elig": 1659,
      "▁seviyesinden": 1660,
      "▁bl": 1661,
      "▁burası": 1662,
      "▁ilgilen": 1663,
      "##'nde": 1664,
      "▁ef": 1665,
      "##5'ten": 1666,
      "▁dedim": 1667,
      "▁yargıc": 1668,
      "▁ucusların": 1669,
      "▁kurulu": 1670,
      "▁amc": 1671,
      "##ph": 1672,
      "##lemek": 1673,
      "▁sonu": 1674,
      "▁ila": 1675,
      "##mesine": 1676,
      "▁parc": 1677,
      "▁ipot": 1678,
      "▁soyley": 1679,
      "##manı": 1680,
      "##re": 1681,
      "▁gerektigini": 1682,
      "▁butce": 1683,
      "▁kok": 1684,
      "▁yemeklerin": 1685,
      "##r": 1686,
      "▁bulundu": 1687,
      "▁bası": 1688,
      "##co": 1689,
      "##isk": 1690,
      "▁kapsam": 1691,
      "▁koltuk": 1692,
      "▁ilan": 1693,
      "##de": 1694,
      "▁sahibi": 1695,
      "##ina": 1696,
      "##ıp": 1697,
      "▁halde": 1698,
      "##/": 1699,
      "##lıga": 1700,
      "##gili": 1701,
      "##cu": 1702,
      "▁ucuslarını": 1703,
      "##aması": 1704,
      "▁alma": 1705,
      "▁yanl": 1706,
      "▁sermaye": 1707,
      "##ene": 1708,
      "▁yuksek": 1709,
      "▁gog": 1710,
      "##pr": 1711,
      "▁milyon": 1712,
      "▁cesit": 1713,
      "▁sırt": 1714,
      "▁ilisk": 1715,
      "▁pat": 1716,
      "▁uzerine": 1717,
      "##dim": 1718,
      "##“": 1719,
      "▁sos": 1720,
      "▁ogr": 1721,
      "▁cekti": 1722,
      "##ustu": 1723,
      "▁meyve": 1724,
      "▁duygu": 1725,
      "##reti": 1726,
      "▁sekil": 1727,
      "##embe": 1728,
      "▁bırak": 1729,
      "▁gur": 1730,
      "▁herif": 1731,
      "##larda": 1732,
      "##sur": 1733,
      "▁vuc": 1734,
      "##asın": 1735,
      "▁deg": 1736,
      "▁calısma": 1737,
      "▁silah": 1738,
      "▁ak": 1739,
      "▁imkan": 1740,
      "##za": 1741,
      "##estiri": 1742,
      "##ne": 1743,
      "▁ada": 1744,
      "▁yerinden": 1745,
      "▁aradi": 1746,
      "▁yuz": 1747,
      "▁erkek": 1748,
      "▁hayat": 1749,
      "▁y": 1750,
      "▁roman": 1751,
      "##akları": 1752,
      "▁yaptı": 1753,
      "▁uye": 1754,
      "▁rapor": 1755,
      "▁otel": 1756,
      "##gah": 1757,
      "▁veri": 1758,
      "▁digerleri": 1759,
      "▁yapar": 1760,
      "▁sov": 1761,
      "▁bon": 1762,
      "▁kalem": 1763,
      "▁olması": 1764,
      "▁meydan": 1765,
      "▁gum": 1766,
      "▁hanım": 1767,
      "##'nun": 1768,
      "##cıları": 1769,
      "▁tuz": 1770,
      "▁endise": 1771,
      "▁ol": 1772,
      "▁devlet": 1773,
      "▁dek": 1774,
      "##ve": 1775,
      "##st": 1776,
      "▁tav": 1777,
      "##uga": 1778,
      "##amak": 1779,
      "▁ders": 1780,
      "##les": 1781,
      "▁onceki": 1782,
      "▁hatta": 1783,
      "▁yanında": 1784,
      "▁kisiler": 1785,
      "▁kavg": 1786,
      "##men": 1787,
      "##asyonu": 1788,
      "▁ay": 1789,
      "▁amerikalı": 1790,
      "##dar": 1791,
      "l": 1792,
      "▁mez": 1793,
      "▁evet": 1794,
      "##kun": 1795,
      "▁ceza": 1796,
      "##ik": 1797,
      "\\": 1798,
      "▁ayak": 1799,
      "▁azdi": 1800,
      "▁mahkeme": 1801,
      "▁zinc": 1802,
      "▁danısman": 1803,
      "▁odeme": 1804,
      "▁yaprak": 1805,
      "▁ikram": 1806,
      "▁ask": 1807,
      "▁kav": 1808,
      "▁dısı": 1809,
      "▁toplam": 1810,
      "▁dengesi": 1811,
      "##alım": 1812,
      "▁mal": 1813,
      "##am": 1814,
      "▁ceyr": 1815,
      "##larımız": 1816,
      "▁adet": 1817,
      "▁sikinti": 1818,
      "▁rehberimiz": 1819,
      "##oz": 1820,
      "##ug": 1821,
      "▁dıs": 1822,
      "▁hasta": 1823,
      "▁koc": 1824,
      "▁gelis": 1825,
      "##lıg": 1826,
      "▁hay": 1827,
      "▁muhafaz": 1828,
      "##mur": 1829,
      "##lim": 1830,
      "##lanı": 1831,
      "▁bag": 1832,
      "##duk": 1833,
      "##l": 1834,
      "▁bab": 1835,
      "▁tor": 1836,
      "▁amac": 1837,
      "##masının": 1838,
      "▁davran": 1839,
      "▁dag": 1840,
      "##asıl": 1841,
      "##eviz": 1842,
      "##9": 1843,
      "▁yemekler": 1844,
      "##elen": 1845,
      "▁fatur": 1846,
      "▁analistler": 1847,
      "##inlik": 1848,
      "▁sab": 1849,
      "##yi": 1850,
      "▁dolardan": 1851,
      "▁at": 1852,
      "▁kul": 1853,
      "▁4": 1854,
      "##sil": 1855,
      "▁doktor": 1856,
      "##ını": 1857,
      "▁pr": 1858,
      "▁kend": 1859,
      "##ayol": 1860,
      "##ırt": 1861,
      "##ize": 1862,
      "##medim": 1863,
      "▁dudak": 1864,
      "##oksa": 1865,
      "▁havuz": 1866,
      "##ıyorlar": 1867,
      "▁kayb": 1868,
      "-": 1869,
      "##eder": 1870,
      "▁bıcak": 1871,
      "▁lezzet": 1872,
      "##ern": 1873,
      "▁olcu": 1874,
      "##uslar": 1875,
      "▁str": 1876,
      "▁cum": 1877,
      "▁tahta": 1878,
      "▁kulub": 1879,
      "▁adını": 1880,
      "##inden": 1881,
      "##ist": 1882,
      "▁seyi": 1883,
      "##dum": 1884,
      "##lerim": 1885,
      "▁tatil": 1886,
      "▁radyo": 1887,
      "##ecek": 1888,
      "+": 1889,
      "▁dip": 1890,
      "▁dısında": 1891,
      "▁(": 1892,
      "▁ileri": 1893,
      "▁zorluk": 1894,
      "▁olanakları": 1895,
      "▁kapas": 1896,
      "▁orman": 1897,
      "▁prot": 1898,
      "▁ediyorum": 1899,
      "##q": 1900,
      "▁havaal": 1901,
      "##ed": 1902,
      "##agına": 1903,
      "##mıyor": 1904,
      "▁kız": 1905,
      "##adan": 1906,
      "▁okul": 1907,
      "▁arastır": 1908,
      "▁seyir": 1909,
      "##landı": 1910,
      "##digini": 1911,
      "##ıt": 1912,
      "##lugun": 1913,
      "▁actı": 1914,
      "▁gelen": 1915,
      "▁merh": 1916,
      "▁oper": 1917,
      "##u": 1918,
      "##ıy": 1919,
      "▁ihtiyacım": 1920,
      "▁komut": 1921,
      "##ba": 1922,
      "▁icin": 1923,
      "▁gu": 1924,
      "##daki": 1925,
      "▁varlık": 1926,
      "▁v": 1927,
      "▁dustu": 1928,
      "*": 1929,
      "##ogram": 1930,
      "▁olac": 1931,
      "▁ucaga": 1932,
      "▁hap": 1933,
      "▁incel": 1934,
      "##ler": 1935,
      "▁po": 1936,
      "▁manzarasi": 1937,
      "##ul": 1938,
      "##dan": 1939,
      "▁hapis": 1940,
      "##lamaya": 1941,
      "▁arada": 1942,
      "▁hakkında": 1943,
      "##abilecegini": 1944,
      "##ru": 1945,
      "▁dogum": 1946,
      "##des": 1947,
      "##isinde": 1948,
      "▁vermek": 1949,
      "▁olsa": 1950,
      "##lı": 1951,
      "##ince": 1952,
      "##asını": 1953,
      "▁topr": 1954,
      "##lıc": 1955,
      "▁basına": 1956,
      "–": 1957,
      "##dıg": 1958,
      "▁yaptir": 1959,
      "▁pla": 1960,
      "##udur": 1961,
      "▁dede": 1962,
      "##unu": 1963,
      "##00": 1964,
      "##alık": 1965,
      "##lay": 1966,
      "##leri": 1967,
      "▁iliski": 1968,
      "##cek": 1969,
      "▁tep": 1970,
      "▁lim": 1971,
      "##imizin": 1972,
      "▁denver'den": 1973,
      "▁sahip": 1974,
      "##°": 1975,
      "##mistir": 1976,
      "▁num": 1977,
      "##ing": 1978,
      "▁cab": 1979,
      "▁kopek": 1980,
      "##ıyı": 1981,
      "▁zamanı": 1982,
      "▁yani": 1983,
      "▁hizmete": 1984,
      "▁tarz": 1985,
      "▁sendika": 1986,
      "##ildi": 1987,
      "▁politik": 1988,
      "##stır": 1989,
      "##me": 1990,
      "##esinden": 1991,
      "▁yemegi": 1992,
      "▁zincir": 1993,
      "▁ardından": 1994,
      "##ıya": 1995,
      "▁boz": 1996,
      "##lanmıs": 1997,
      "▁odasına": 1998,
      "▁hamam": 1999,
      "##il": 2000,
      "##ardı": 2001,
      "##>": 2002,
      "##lugu": 2003,
      "▁arkad": 2004,
      "▁ayda": 2005,
      "##eceg": 2006,
      "##ile": 2007,
      "##sızlık": 2008,
      "##mayı": 2009,
      "▁karıs": 2010,
      "▁ilgilendiler": 2011,
      "▁yorum": 2012,
      "▁doları": 2013,
      "▁anne": 2014,
      "▁islem": 2015,
      "▁kuc": 2016,
      "##est": 2017,
      "▁kurum": 2018,
      "##tal": 2019,
      "▁icerisinde": 2020,
      "▁havayolları": 2021,
      "▁ediyordu": 2022,
      "##ast": 2023,
      "##eyin": 2024,
      "##ımız": 2025,
      "##tik": 2026,
      "##aket": 2027,
      "##ciler": 2028,
      "▁ihr": 2029,
      "##ıyla": 2030,
      "##alardan": 2031,
      "▁fiyata": 2032,
      "▁sigort": 2033,
      "▁dost": 2034,
      "(": 2035,
      "##gan": 2036,
      "##mem": 2037,
      "##arda": 2038,
      "##lerdi": 2039,
      "##gisi": 2040,
      "##okr": 2041,
      "##ırım": 2042,
      "▁cok": 2043,
      "▁olmak": 2044,
      "##eye": 2045,
      "▁hacim": 2046,
      "##lerden": 2047,
      "▁kaldik": 2048,
      "▁pant": 2049,
      "▁fir": 2050,
      "▁donem": 2051,
      "▁ortadan": 2052,
      "▁lezzeti": 2053,
      "##eyle": 2054,
      "▁madde": 2055,
      "##eyen": 2056,
      "##etr": 2057,
      "▁hak": 2058,
      "▁bagım": 2059,
      "##ts": 2060,
      "▁yuk": 2061,
      "##ecegini": 2062,
      "##'ın": 2063,
      "##hal": 2064,
      "##enler": 2065,
      "▁gelistir": 2066,
      "▁sik": 2067,
      "▁kanun": 2068,
      "##lastı": 2069,
      "▁cir": 2070,
      "▁ettim": 2071,
      "▁per": 2072,
      "##ıc": 2073,
      "▁kagıt": 2074,
      "q": 2075,
      "▁etmek": 2076,
      "▁emek": 2077,
      "▁yola": 2078,
      "▁gun": 2079,
      "##'in": 2080,
      "▁ara": 2081,
      "▁sozu": 2082,
      "▁univers": 2083,
      "##oy": 2084,
      "##ladım": 2085,
      "##dım": 2086,
      "▁darbe": 2087,
      "▁pittsburgh": 2088,
      "▁han": 2089,
      "##asından": 2090,
      "▁san": 2091,
      "▁fiyatı": 2092,
      "##lerini": 2093,
      "▁nedeni": 2094,
      "▁sut": 2095,
      "▁ort": 2096,
      "##izm": 2097,
      "▁u": 2098,
      "▁dev": 2099,
      "▁giden": 2100,
      "▁nedir": 2101,
      "▁sac": 2102,
      "▁altında": 2103,
      "▁oluyor": 2104,
      "▁milyondan": 2105,
      "▁gecti": 2106,
      "▁ortalama": 2107,
      "▁cil": 2108,
      "##ıyorum": 2109,
      "▁avuk": 2110,
      "▁gunduz": 2111,
      "##ez": 2112,
      "##uk": 2113,
      "▁sozcu": 2114,
      "##om": 2115,
      "▁hol": 2116,
      "▁dikkat": 2117,
      "▁iste": 2118,
      "▁bicimde": 2119,
      "▁kıl": 2120,
      "[UNK]": 2121,
      "##rak": 2122,
      "▁yonetici": 2123,
      "▁olacak": 2124,
      "▁bulmak": 2125,
      "▁ister": 2126,
      "▁ihtiy": 2127,
      "▁avuc": 2128,
      "▁durus": 2129,
      "##erek": 2130,
      "▁teknoloj": 2131,
      "▁anlasma": 2132,
      "##ore": 2133,
      "▁milyardan": 2134,
      "▁ofis": 2135,
      "▁sure": 2136,
      "##ir": 2137,
      "##madim": 2138,
      "##mı": 2139,
      "##muz": 2140,
      "▁ogl": 2141,
      "▁cıkar": 2142,
      "▁tamam": 2143,
      "▁buraya": 2144,
      "▁gon": 2145,
      "##kah": 2146,
      "▁s": 2147,
      "▁isaret": 2148,
      "▁vucu": 2149,
      "▁karsı": 2150,
      "##amı": 2151,
      "▁kab": 2152,
      "▁cez": 2153,
      "▁birtakı": 2154,
      "##lat": 2155,
      "▁sat": 2156,
      "▁ucu": 2157,
      "##lerimiz": 2158,
      "▁ardı": 2159,
      "▁basın": 2160,
      "##ligin": 2161,
      "▁personellerinden": 2162,
      "▁hissed": 2163,
      "▁edildi": 2164,
      "##vr": 2165,
      "▁elbise": 2166,
      "▁alb": 2167,
      "▁kahvalti": 2168,
      "▁ıs": 2169,
      "##ok": 2170,
      "##aların": 2171,
      "##ng": 2172,
      "##ekli": 2173,
      "##uler": 2174,
      "▁yer": 2175,
      "▁personelin": 2176,
      "▁yarat": 2177,
      "▁aracı": 2178,
      "▁koy": 2179,
      "▁d": 2180,
      "▁anlama": 2181,
      "##as": 2182,
      "▁ulasımı": 2183,
      "##ara": 2184,
      "##dug": 2185,
      "▁alısver": 2186,
      "##alarda": 2187,
      "▁birlik": 2188,
      "▁fas": 2189,
      "##'nda": 2190,
      "▁diy": 2191,
      "▁olmaya": 2192,
      "▁para": 2193,
      "##inti": 2194,
      "▁piyasada": 2195,
      "##rne": 2196,
      "▁tut": 2197,
      "▁gunun": 2198,
      "▁durumu": 2199,
      "▁ortal": 2200,
      "▁kalab": 2201,
      "▁evine": 2202,
      "▁gaz": 2203,
      "/": 2204,
      "▁mey": 2205,
      "▁seb": 2206,
      "▁otelden": 2207,
      "▁hafta": 2208,
      "▁duk": 2209,
      "▁insanları": 2210,
      "▁turk": 2211,
      "##erin": 2212,
      "▁kimse": 2213,
      "▁uyum": 2214,
      "##an": 2215,
      "▁hicbir": 2216,
      "▁esn": 2217,
      "▁ham": 2218,
      "▁gid": 2219,
      "▁icinde": 2220,
      "▁calisanlar": 2221,
      "▁ger": 2222,
      "##masız": 2223,
      "▁almak": 2224,
      "##—": 2225,
      "▁uzer": 2226,
      "##tin": 2227,
      "##bet": 2228,
      "▁sene": 2229,
      "▁havayollarında": 2230,
      "▁gey": 2231,
      "##mız": 2232,
      "▁yaklasık": 2233,
      "▁disi": 2234,
      "▁ser": 2235,
      "▁yaln": 2236,
      "##ksa": 2237,
      "##mesini": 2238,
      "##lere": 2239,
      "##imde": 2240,
      "##enk": 2241,
      "▁sefer": 2242,
      "▁ov": 2243,
      "▁sesleri": 2244,
      "##asında": 2245,
      "▁tad": 2246,
      "▁dil": 2247,
      "▁gez": 2248,
      "▁sag": 2249,
      "▁odam": 2250,
      "▁ist": 2251,
      "▁ker": 2252,
      "▁paraya": 2253,
      "▁programı": 2254,
      "##imen": 2255,
      "▁kalk": 2256,
      "##%": 2257,
      "▁ayakkabı": 2258,
      "▁kus": 2259,
      "▁sektor": 2260,
      "▁tel": 2261,
      "##lendi": 2262,
      "▁ul": 2263,
      "▁gorun": 2264,
      "▁buy": 2265,
      "▁bit": 2266,
      "▁risk": 2267,
      "▁resim": 2268,
      "▁giy": 2269,
      "▁gozler": 2270,
      "▁pers": 2271,
      "▁sıcak": 2272,
      "##emez": 2273,
      "##'d": 2274,
      "▁yanıt": 2275,
      "▁gos": 2276,
      "▁isler": 2277,
      "##asıyla": 2278,
      "▁kafa": 2279,
      "▁kem": 2280,
      "▁": 2281,
      "▁gibi": 2282,
      "▁istem": 2283,
      "▁yuzyıl": 2284,
      "##ılması": 2285,
      "▁ucuyor": 2286,
      "▁uzerinde": 2287,
      "##uf": 2288,
      "##ent": 2289,
      "▁amerikan": 2290,
      "##tır": 2291,
      "##tun": 2292,
      "##land": 2293,
      "▁yuzunu": 2294,
      "▁ulkenin": 2295,
      "##ıga": 2296,
      "▁beklenti": 2297,
      "▁eski": 2298,
      "##indi": 2299,
      "▁og": 2300,
      "▁olacagını": 2301,
      "▁park": 2302,
      "▁mucadele": 2303,
      "▁hizmetinden": 2304,
      "▁acisindan": 2305,
      "##b": 2306,
      "▁kel": 2307,
      "▁kalabalık": 2308,
      "▁dolar": 2309,
      "▁dum": 2310,
      "▁tası": 2311,
      "##–": 2312,
      "▁cozum": 2313,
      "▁kazan": 2314,
      "▁prob": 2315,
      "##cılar": 2316,
      "▁muduru": 2317,
      "##eti": 2318,
      "##ekkur": 2319,
      "▁birer": 2320,
      "▁cocuklu": 2321,
      "##lem": 2322,
      "##ce": 2323,
      "##digi": 2324,
      "##gini": 2325,
      "▁sevg": 2326,
      "▁goze": 2327,
      "▁baltimore": 2328,
      "▁insaat": 2329,
      "▁birligi": 2330,
      "▁tucc": 2331,
      "▁kayıp": 2332,
      "▁mil": 2333,
      "▁tedbir": 2334,
      "▁telefonla": 2335,
      "▁ok": 2336,
      "▁sef": 2337,
      "##ılıyor": 2338,
      "▁dısarı": 2339,
      "##las": 2340,
      "▁tekn": 2341,
      "##ash": 2342,
      "▁agır": 2343,
      "##'ten": 2344,
      "▁hayatı": 2345,
      "##laya": 2346,
      "▁merdiven": 2347,
      "##iski": 2348,
      "##elik": 2349,
      "▁potansiyel": 2350,
      "▁isi": 2351,
      "▁karı": 2352,
      "##kur": 2353,
      "##anlık": 2354,
      "▁op": 2355,
      "▁balık": 2356,
      "▁eylul": 2357,
      "##agından": 2358,
      "##isle": 2359,
      "▁beydi": 2360,
      "##lari": 2361,
      "▁tesvik": 2362,
      "▁beyin": 2363,
      "▁kimi": 2364,
      "▁mutf": 2365,
      "▁personel": 2366,
      "▁veririm": 2367,
      "▁sol": 2368,
      "▁yoksa": 2369,
      "▁yiyecek": 2370,
      "▁moda": 2371,
      "▁peynir": 2372,
      "▁komp": 2373,
      "▁ucretin": 2374,
      "##'dan": 2375,
      "▁sermay": 2376,
      "▁dava": 2377,
      "##aga": 2378,
      "##oc": 2379,
      "▁cek": 2380,
      "▁degerlendir": 2381,
      "▁olmalı": 2382,
      "▁makaleye": 2383,
      "▁tez": 2384,
      "▁etme": 2385,
      "▁1/": 2386,
      "##kı": 2387,
      "▁fel": 2388,
      "▁et": 2389,
      "##cih": 2390,
      "▁aktar": 2391,
      "▁ince": 2392,
      "##yum": 2393,
      "▁takım": 2394,
      "▁yapmayı": 2395,
      "▁dert": 2396,
      "▁tarafı": 2397,
      "▁sayısı": 2398,
      "▁bay": 2399,
      "▁hizm": 2400,
      "▁gelir": 2401,
      "##int": 2402,
      "##lige": 2403,
      "▁yatırımcı": 2404,
      "▁sis": 2405,
      "▁geyik": 2406,
      "▁otob": 2407,
      "##ob": 2408,
      "▁duvar": 2409,
      "▁sir": 2410,
      "▁konum": 2411,
      "▁yab": 2412,
      "▁dizi": 2413,
      "▁doviz": 2414,
      "▁aleyh": 2415,
      "▁elektr": 2416,
      "##sat": 2417,
      "▁isleri": 2418,
      "##onu": 2419,
      "▁fen": 2420,
      "▁sent": 2421,
      "##ımda": 2422,
      "##kel": 2423,
      "▁hic": 2424,
      "##allas": 2425,
      "▁zey": 2426,
      "##if": 2427,
      "▁8": 2428,
      "▁olmus": 2429,
      "o": 2430,
      "##lerine": 2431,
      "▁yor": 2432,
      "▁yem": 2433,
      ",": 2434,
      "##cak": 2435,
      "▁gorus": 2436,
      "▁sair": 2437,
      "▁guv": 2438,
      "##uluk": 2439,
      "▁masa": 2440,
      "##elerde": 2441,
      "##ates": 2442,
      "▁--": 2443,
      "▁bilmek": 2444,
      "##aki": 2445,
      "▁ceh": 2446,
      "▁imk": 2447,
      "##lul": 2448,
      "▁artır": 2449,
      "##ri": 2450,
      "▁kapandı": 2451,
      "▁mahalle": 2452,
      "##ska": 2453,
      "▁lira": 2454,
      "▁makin": 2455,
      "▁pilot": 2456,
      "##burg": 2457,
      "##kul": 2458,
      "▁eve": 2459,
      "▁attı": 2460,
      "▁ayı": 2461,
      "▁genel": 2462,
      "##urlu": 2463,
      "▁cuma": 2464,
      "##lilik": 2465,
      "▁yatak": 2466,
      "▁olduguna": 2467,
      "▁imal": 2468,
      "▁bun": 2469,
      "▁tehdit": 2470,
      "▁mul": 2471,
      "▁hac": 2472,
      "##arak": 2473,
      "▁baskanı": 2474,
      "▁devr": 2475,
      "##ktu": 2476,
      "##unun": 2477,
      "▁haval": 2478,
      ">": 2479,
      "##ud": 2480,
      "##lıktan": 2481,
      "▁sorunun": 2482,
      "##dek": 2483,
      "##ısından": 2484,
      "##kin": 2485,
      "▁mikr": 2486,
      "▁-": 2487,
      "##lar": 2488,
      "▁itiraz": 2489,
      "##g": 2490,
      "▁olanlar": 2491,
      "▁tas": 2492,
      "▁yazı": 2493,
      "##uyorlar": 2494,
      "▁..\"": 2495,
      "▁den": 2496,
      "▁sonuc": 2497,
      "##kat": 2498,
      "▁telefon": 2499,
      "▁heyecan": 2500,
      "▁hakim": 2501,
      "▁gordum": 2502,
      "▁yolcul": 2503,
      "▁umut": 2504,
      "▁alamadim": 2505,
      "▁sak": 2506,
      "##lon": 2507,
      "▁hisseleri": 2508,
      "##imiz": 2509,
      "##likle": 2510,
      "##ate": 2511,
      "▁ves": 2512,
      "▁ail": 2513,
      "##lerinde": 2514,
      "▁rad": 2515,
      "▁mer": 2516,
      "##ılık": 2517,
      "▁genis": 2518,
      "▁yur": 2519,
      "▁cay": 2520,
      "##inci": 2521,
      "##a": 2522,
      "▁tab": 2523,
      "▁”": 2524,
      "##eyn": 2525,
      "▁hukuk": 2526,
      "▁kad": 2527,
      "▁varan": 2528,
      "▁etraf": 2529,
      "##'y": 2530,
      "▁boyut": 2531,
      "▁sehr": 2532,
      "##ardan": 2533,
      "▁yerden": 2534,
      "##se": 2535,
      "▁gercekl": 2536,
      "##lıkta": 2537,
      "▁salon": 2538,
      "▁biri": 2539,
      "▁felaket": 2540,
      "▁hazır": 2541,
      "▁ilac": 2542,
      "▁aday": 2543,
      "▁urunleri": 2544,
      "▁orta": 2545,
      "▁pan": 2546,
      "##meler": 2547,
      "##sik": 2548,
      "▁bina": 2549,
      "##imci": 2550,
      "▁pazar": 2551,
      "▁hız": 2552,
      "##yuz": 2553,
      "##nız": 2554,
      "▁der": 2555,
      "▁diz": 2556,
      "▁yeme": 2557,
      "▁duyg": 2558,
      "▁haber": 2559,
      "▁kar": 2560,
      "▁mik": 2561,
      "##ol": 2562,
      "▁tekl": 2563,
      "##elerle": 2564,
      "▁nef": 2565,
      "▁gor": 2566,
      "▁yil": 2567,
      "##lamak": 2568,
      "[SEP]": 2569,
      "▁kucuktu": 2570,
      "▁veya": 2571,
      "▁yardımcısı": 2572,
      "▁sacları": 2573,
      "▁engel": 2574,
      "▁manzar": 2575,
      "##ig": 2576,
      "▁banka": 2577,
      "▁devam": 2578,
      "▁neden": 2579,
      "##kon": 2580,
      "▁fayda": 2581,
      "##etti": 2582,
      "##enleri": 2583,
      "▁halk": 2584,
      "##ıdır": 2585,
      "▁rakamlar": 2586,
      "▁anal": 2587,
      "##tansiy": 2588,
      "[CLS]": 2589,
      "▁karar": 2590,
      "▁olas": 2591,
      "▁aktiv": 2592,
      "▁barıs": 2593,
      "##alarla": 2594,
      "▁kap": 2595,
      "▁ama": 2596,
      "’": 2597,
      "##ısını": 2598,
      "▁suc": 2599,
      "▁wash": 2600,
      "▁mis": 2601,
      "▁tr": 2602,
      "▁kadınlar": 2603,
      "##mal": 2604,
      "▁hakk": 2605,
      "##in": 2606,
      "##alet": 2607,
      "##o": 2608,
      "##nd": 2609,
      "▁soh": 2610,
      "▁sınır": 2611,
      "##ise": 2612,
      "▁ord": 2613,
      "▁hastal": 2614,
      "##ır": 2615,
      "▁hukumet": 2616,
      "▁orada": 2617,
      "##ken": 2618,
      "▁mat": 2619,
      "c": 2620,
      "##eticiler": 2621,
      "▁girisim": 2622,
      "▁gonl": 2623,
      "▁sandal": 2624,
      "▁aqu": 2625,
      "##ecekler": 2626,
      "▁annemin": 2627,
      "▁nasıl": 2628,
      "▁olanaklari": 2629,
      "##ot": 2630,
      "▁gerc": 2631,
      "▁kaldı": 2632,
      "##erlik": 2633,
      "▁mu": 2634,
      "▁gune": 2635,
      "##lan": 2636,
      "##ton": 2637,
      "▁yıldız": 2638,
      "##eldi": 2639,
      "▁en": 2640,
      "##tıs": 2641,
      "▁araba": 2642,
      "▁vak": 2643,
      "▁fiyatlar": 2644,
      "##liginden": 2645,
      "##yet": 2646,
      "▁odalar": 2647,
      "▁yerler": 2648,
      "▁gozleri": 2649,
      "##ımızda": 2650,
      "▁kimsenin": 2651,
      "##emiyor": 2652,
      "##usu": 2653,
      "▁mac": 2654,
      "▁kurs": 2655,
      "▁zamanlarda": 2656,
      "▁takdir": 2657,
      "▁altından": 2658,
      "▁bek": 2659,
      "▁mo": 2660,
      "▁kadının": 2661,
      "▁hal": 2662,
      "▁dol": 2663,
      "▁min": 2664,
      "##lara": 2665,
      "##larından": 2666,
      "▁lik": 2667,
      "##lıgına": 2668,
      "##ine": 2669,
      "▁dahil": 2670,
      "▁olabilir": 2671,
      "▁hisseye": 2672,
      "▁onc": 2673,
      "▁bacak": 2674,
      "▁etmem": 2675,
      "▁metr": 2676,
      "##uye": 2677,
      "▁mimar": 2678,
      "▁uy": 2679,
      "▁alanda": 2680,
      "▁servis": 2681,
      "▁tesisten": 2682,
      "▁teh": 2683,
      "▁aksamı": 2684,
      "▁turku": 2685,
      "▁ki": 2686,
      "##lestir": 2687,
      "##ter": 2688,
      "▁es": 2689,
      "▁ceyrekte": 2690,
      "##ia": 2691,
      "##lisi": 2692,
      "▁gozden": 2693,
      "▁cumhuriyet": 2694,
      "▁teklif": 2695,
      "▁savas": 2696,
      "▁..": 2697,
      "▁mevcut": 2698,
      "▁gunes": 2699,
      "##ımı": 2700,
      "▁barda": 2701,
      "##denin": 2702,
      "▁gider": 2703,
      "##mer": 2704,
      "▁kasab": 2705,
      "##larını": 2706,
      "▁new": 2707,
      "▁6": 2708,
      "▁fiyatina": 2709,
      "1": 2710,
      "##bak": 2711,
      "##ıg": 2712,
      "▁karn": 2713,
      "▁profes": 2714,
      "▁edin": 2715,
      "##enlerin": 2716,
      "▁korum": 2717,
      "##gum": 2718,
      "▁egit": 2719,
      "▁istifa": 2720,
      "▁heyec": 2721,
      "▁cumle": 2722,
      "▁ec": 2723,
      "▁listeleyin": 2724,
      "▁dilim": 2725,
      "▁hisseler": 2726,
      "##lardan": 2727,
      "▁cic": 2728,
      "##ende": 2729,
      "▁dort": 2730,
      "▁…": 2731,
      "▁iht": 2732,
      "▁yazar": 2733,
      "▁odada": 2734,
      "##eyi": 2735,
      "▁yaklasimi": 2736,
      "▁durumda": 2737,
      "▁satıslar": 2738,
      "▁fin": 2739,
      "▁dah": 2740,
      "▁istiyor": 2741,
      "▁goc": 2742,
      "▁petrol": 2743,
      "▁doneminde": 2744,
      "▁dolarlık": 2745,
      "▁ne": 2746,
      "▁kitab": 2747,
      "▁masal": 2748,
      "▁tamir": 2749,
      "▁boy": 2750,
      "▁yıl": 2751,
      "##erk": 2752,
      "▁ediyor": 2753,
      "▁japon": 2754,
      "▁yerini": 2755,
      "▁port": 2756,
      "##tih": 2757,
      "##cileri": 2758,
      "▁nam": 2759,
      "▁bolge": 2760,
      "▁sahn": 2761,
      "▁sirketi": 2762,
      "▁telef": 2763,
      "▁harc": 2764,
      "##stım": 2765,
      "▁olmaz": 2766,
      "##si": 2767,
      "▁um": 2768,
      "▁faal": 2769,
      "##anti": 2770,
      "##dikleri": 2771,
      "▁guler": 2772,
      "▁kalit": 2773,
      "▁animasyon": 2774,
      "▁komsu": 2775,
      "▁ana": 2776,
      "▁tartıs": 2777,
      "▁ilgisi": 2778,
      "▁gemi": 2779,
      "▁hukumeti": 2780,
      "▁hab": 2781,
      "##mekt": 2782,
      "##hangi": 2783,
      "##er": 2784,
      "▁man": 2785,
      "▁om": 2786,
      "▁nuf": 2787,
      "▁hoc": 2788,
      "▁cam": 2789,
      "##mesi": 2790,
      "##erh": 2791,
      "##tıgı": 2792,
      "##'de": 2793,
      "##ini": 2794,
      "▁sını": 2795,
      "▁ustune": 2796,
      "▁boston'dan": 2797,
      "▁dusur": 2798,
      "▁piyas": 2799,
      "▁...\"": 2800,
      "##mini": 2801,
      "▁aktarma": 2802,
      "▁ayrıca": 2803,
      "▁kayı": 2804,
      "▁toprak": 2805,
      "▁dey": 2806,
      "##leriyle": 2807,
      "▁rezerv": 2808,
      "▁ekonomi": 2809,
      "▁denize": 2810,
      "##bah": 2811,
      "▁m": 2812,
      "▁duy": 2813,
      "▁goster": 2814,
      "▁strate": 2815,
      "▁yap": 2816,
      "##ade": 2817,
      "##lo": 2818,
      "▁hayatın": 2819,
      "▁st": 2820,
      "▁evde": 2821,
      "▁sanat": 2822,
      "k": 2823,
      "▁her": 2824,
      "▁ayr": 2825,
      "##leyi": 2826,
      "##vek": 2827,
      "##amet": 2828,
      "▁misafirimiz": 2829,
      "6": 2830,
      "##ediye": 2831,
      "▁carsaf": 2832,
      "▁un": 2833,
      "##al": 2834,
      "▁adamın": 2835,
      "▁...": 2836,
      "##atif": 2837,
      "▁bahce": 2838,
      "▁fabr": 2839,
      "▁vaz": 2840,
      "▁ayında": 2841,
      "##erdi": 2842,
      "▁sona": 2843,
      ".": 2844,
      "##biy": 2845,
      "▁limon": 2846,
      "▁fran": 2847,
      "##layacak": 2848,
      "##agın": 2849,
      "##tiv": 2850,
      "▁renk": 2851,
      "▁malz": 2852,
      "##ncak": 2853,
      "▁tahvilleri": 2854,
      "▁haric": 2855,
      "▁sem": 2856,
      "▁hus": 2857,
      "##ydi": 2858,
      "##ilig": 2859,
      "▁kı": 2860,
      "##dır": 2861,
      "▁yetk": 2862,
      "▁yıllık": 2863,
      "▁zevk": 2864,
      "##digim": 2865,
      "▁soz": 2866,
      "▁hasar": 2867,
      "▁kuz": 2868,
      "▁buldu": 2869,
      "##dıktan": 2870,
      "▁pazartesi": 2871,
      "▁pir": 2872,
      "##orm": 2873,
      "▁duzey": 2874,
      "▁insa": 2875,
      "##zet": 2876,
      "▁devralma": 2877,
      "▁basa": 2878,
      "▁sorun": 2879,
      "##dık": 2880,
      "▁soru": 2881,
      "▁saati": 2882,
      "##v": 2883,
      "▁durum": 2884,
      "▁ilet": 2885,
      "##acag": 2886,
      "▁yıllarda": 2887,
      "##anından": 2888,
      "▁kendi": 2889,
      "▁olcude": 2890,
      "▁ceb": 2891,
      "▁guzellik": 2892,
      "▁zek": 2893,
      "▁internet": 2894,
      "▁bel": 2895,
      "##cul": 2896,
      "##leg": 2897,
      "▁yeter": 2898,
      "##takı": 2899,
      "▁ogret": 2900,
      "##etic": 2901,
      "▁kokusu": 2902,
      "▁ode": 2903,
      "▁oyuncu": 2904,
      "▁edeb": 2905,
      "▁asag": 2906,
      "▁el": 2907,
      "▁yemekleri": 2908,
      "‘": 2909,
      "▁yılında": 2910,
      "##iyle": 2911,
      "▁diyor": 2912,
      "▁vur": 2913,
      "▁persembe": 2914,
      "▁muzak": 2915,
      "▁kampan": 2916,
      "▁pu": 2917,
      "##ilmis": 2918,
      "##urg": 2919,
      "▁vapur": 2920,
      "▁seviy": 2921,
      "▁mezar": 2922,
      "##lıklar": 2923,
      "##dam": 2924,
      "##istir": 2925,
      "▁bakıs": 2926,
      "##aret": 2927,
      "▁dusunce": 2928,
      "▁ankete": 2929,
      "▁eden": 2930,
      "##it": 2931,
      "▁bardagı": 2932,
      "▁siyas": 2933,
      "##makta": 2934,
      "▁rekabet": 2935,
      "##gı": 2936,
      "##eger": 2937,
      "▁res": 2938,
      "▁tanı": 2939,
      "▁5'ten": 2940,
      "##'a": 2941,
      "▁sorum": 2942,
      "▁hastalık": 2943,
      "##iss": 2944,
      "▁?..": 2945,
      "▁konus": 2946,
      "▁`": 2947,
      "▁etmis": 2948,
      "##ıgın": 2949,
      "▁bugune": 2950,
      "▁cal": 2951,
      "##mektedir": 2952,
      "▁sirketler": 2953,
      "▁simdiye": 2954,
      "▁sonucları": 2955,
      "▁yuzde": 2956,
      "▁isini": 2957,
      "▁vakit": 2958,
      "▁musteri": 2959,
      "▁ithal": 2960,
      "▁komisyonu": 2961,
      "▁''": 2962,
      "##til": 2963,
      "▁#": 2964,
      "▁ates": 2965,
      "▁yılda": 2966,
      "▁gokyuz": 2967,
      "j": 2968,
      "##ırtı": 2969,
      "▁so": 2970,
      "▁istik": 2971,
      "##burgh": 2972,
      "▁cat": 2973,
      "##luk": 2974,
      "▁olma": 2975,
      "▁lut": 2976,
      "▁bis": 2977,
      "▁piyasaya": 2978,
      "▁agz": 2979,
      "##!": 2980,
      "##madıgını": 2981,
      "##ator": 2982,
      "▁nit": 2983,
      "▁otelde": 2984,
      "▁kalp": 2985,
      "▁cap": 2986,
      "▁ayd": 2987,
      "##og": 2988,
      "▁yuzu": 2989,
      "▁derec": 2990,
      "▁ucusa": 2991,
      "​": 2992,
      "▁uygun": 2993,
      "##igim": 2994,
      "▁mahk": 2995,
      "▁yapti": 2996,
      "##anc": 2997,
      "##lık": 2998,
      "##ahat": 2999,
      "##to": 3000,
      "##ısına": 3001,
      "##larım": 3002,
      "_": 3003,
      "##ta": 3004,
      "▁soyl": 3005,
      "##eydi": 3006,
      "##edef": 3007,
      "▁basar": 3008,
      "▁sok": 3009,
      "▁mode": 3010,
      "▁unut": 3011,
      "##adem": 3012,
      "▁nokt": 3013,
      "##tırmak": 3014,
      "##bi": 3015,
      "▁dunyada": 3016,
      "##form": 3017,
      "▁asagıda": 3018,
      "▁kriz": 3019,
      "▁havayollarının": 3020,
      "##eg": 3021,
      "▁$": 3022,
      "##ırak": 3023,
      "##iz": 3024,
      "▁tam": 3025,
      "▁sın": 3026,
      "##esi": 3027,
      "▁basbak": 3028,
      "▁kızı": 3029,
      "▁hizmetten": 3030,
      "▁adina": 3031,
      "▁part": 3032,
      "▁senet": 3033,
      "▁merk": 3034,
      "▁neler": 3035,
      "▁memleket": 3036,
      "▁kumas": 3037,
      "▁haf": 3038,
      "##alt": 3039,
      "▁teslim": 3040,
      "##bul": 3041,
      "▁hakkı": 3042,
      "##sizdi": 3043,
      "▁bekle": 3044,
      "▁uygulama": 3045,
      "▁ayn": 3046,
      "▁raf": 3047,
      "▁domates": 3048,
      "▁petr": 3049,
      "▁saatlerde": 3050,
      "▁cumhur": 3051,
      "##andır": 3052,
      "▁yetersizdi": 3053,
      "▁annesi": 3054,
      "▁elinden": 3055,
      "▁bircok": 3056,
      "▁merkezi": 3057,
      "▁yet": 3058,
      "▁benim": 3059,
      "##istler": 3060,
      "▁tur": 3061,
      "##ılıgı": 3062,
      "▁dos": 3063,
      "▁ailesi": 3064,
      "▁sanayi": 3065,
      "##alama": 3066,
      "▁konumunu": 3067,
      "▁mevzu": 3068,
      "▁bos": 3069,
      "##meden": 3070,
      "▁hat": 3071,
      "▁defa": 3072,
      "▁gunde": 3073,
      "▁eskiydi": 3074,
      "##kt": 3075,
      "##lig": 3076,
      "▁dukk": 3077,
      "##ısının": 3078,
      "▁portfoy": 3079,
      "▁oldugunu": 3080,
      "▁gidi": 3081,
      "▁teb": 3082,
      "▁sınıf": 3083,
      "##imizde": 3084,
      "##id": 3085,
      "▁corba": 3086,
      "▁ozellik": 3087,
      "▁gulery": 3088,
      "▁mar": 3089,
      "▁temmuz": 3090,
      "▁ucuz": 3091,
      "▁kosul": 3092,
      "▁takip": 3093,
      "▁zaf": 3094,
      "▁havuzu": 3095,
      "▁sınav": 3096,
      "▁cent": 3097,
      "▁geldi": 3098,
      "▁bugun": 3099,
      "▁nisan": 3100,
      "▁dans": 3101,
      "▁genc": 3102,
      "▁gunleri": 3103,
      "##ek": 3104,
      "▁yen": 3105,
      "▁rol": 3106,
      "##emem": 3107,
      "##abil": 3108,
      "▁sirket": 3109,
      "##larla": 3110,
      "▁tu": 3111,
      "##uru": 3112,
      "▁insanların": 3113,
      "▁ad": 3114,
      "▁iddi": 3115,
      "▁mucade": 3116,
      "##maktan": 3117,
      "▁sah": 3118,
      "##ci": 3119,
      "▁pal": 3120,
      "▁saldır": 3121,
      "▁rej": 3122,
      "▁ark": 3123,
      "##en": 3124,
      "##nc": 3125,
      "▁temizligi": 3126,
      "▁sog": 3127,
      "▁tey": 3128,
      "▁yarı": 3129,
      "▁org": 3130,
      "▁ucusun": 3131,
      "##anma": 3132,
      "▁bez": 3133,
      "##ka": 3134,
      "▁tum": 3135,
      "▁cocuk": 3136,
      "▁hizmeti": 3137,
      "##bu": 3138,
      "▁l": 3139,
      "▁acik": 3140,
      "##la": 3141,
      "▁yeri": 3142,
      "▁dugun": 3143,
      "d": 3144,
      "##asır": 3145,
      "▁kims": 3146,
      "##iy": 3147,
      "▁ilg": 3148,
      "▁sub": 3149,
      "##ikti": 3150,
      "##j": 3151,
      "▁gunah": 3152,
      "▁oranında": 3153,
      "##diginde": 3154,
      "##ib": 3155,
      "▁bask": 3156,
      "▁belediye": 3157,
      "▁vad": 3158,
      "▁ugr": 3159,
      "##meye": 3160,
      "▁kalitesi": 3161,
      "▁sozlesme": 3162,
      "▁artık": 3163,
      "▁dun": 3164,
      "##eklen": 3165,
      "▁satısı": 3166,
      "##ana": 3167,
      "▁ruzgar": 3168,
      "##iyordu": 3169,
      "▁dug": 3170,
      "▁banyo": 3171,
      "▁siy": 3172,
      "▁mulk": 3173,
      "▁mahkem": 3174,
      "▁sonr": 3175,
      "▁ted": 3176,
      "▁gond": 3177,
      "##w": 3178,
      ")": 3179,
      "##undan": 3180,
      "▁kan": 3181,
      "##cag": 3182,
      "▁felsef": 3183,
      "##8'e": 3184,
      "▁baskan": 3185,
      "▁mir": 3186,
      "▁prof": 3187,
      "▁iy": 3188,
      "▁tahviller": 3189,
      "▁hanim": 3190,
      "▁endustr": 3191,
      "##tıgını": 3192,
      "▁cizgi": 3193,
      "##atur": 3194,
      "##bol": 3195,
      "▁bilgisay": 3196,
      "▁aktarmasız": 3197,
      "▁devletin": 3198,
      "▁rezervasyon": 3199,
      "▁yetkilileri": 3200,
      "▁degisiklik": 3201,
      "▁film": 3202,
      "##ektr": 3203,
      "▁icecekler": 3204,
      "▁ah": 3205,
      "▁ot": 3206,
      "▁anlamda": 3207,
      "▁butun": 3208,
      "▁kam": 3209,
      "##yan": 3210,
      "▁geriye": 3211,
      "▁bardak": 3212,
      "▁temizdi": 3213,
      "▁tok": 3214,
      "▁dekor": 3215,
      "▁hangi": 3216,
      "▁sam": 3217,
      "▁herhangi": 3218,
      "##ılıg": 3219,
      "▁muhaf": 3220,
      "##imore": 3221,
      "##edi": 3222,
      "##uh": 3223,
      "##ram": 3224,
      "##lanıyor": 3225,
      "##sa": 3226,
      "▁ogrenci": 3227,
      "##(": 3228,
      "▁din": 3229,
      "##uzluydu": 3230,
      "▁vat": 3231,
      "▁dig": 3232,
      "▁merdiv": 3233,
      "▁lak": 3234,
      "▁tal": 3235,
      "\"": 3236,
      "##esine": 3237,
      "▁zorunda": 3238,
      "▁demir": 3239,
      "▁gayr": 3240,
      "##manlar": 3241,
      "▁islerini": 3242,
      "##lum": 3243,
      "▁gonul": 3244,
      "##atı": 3245,
      "▁gorusme": 3246,
      "▁cor": 3247,
      "▁ceyrek": 3248,
      "▁sehrin": 3249,
      "##mi": 3250,
      "▁paz": 3251,
      "▁katil": 3252,
      "▁sı": 3253,
      "▁kampanyalardan": 3254,
      "##ilen": 3255,
      "▁mail": 3256,
      "▁aylık": 3257,
      "##​": 3258,
      "##isin": 3259,
      "▁suk": 3260,
      "▁olmasi": 3261,
      "▁ogrenmek": 3262,
      "▁hissesi": 3263,
      "##andı": 3264,
      "▁.'": 3265,
      "▁muc": 3266,
      "▁kenar": 3267,
      "▁ihal": 3268,
      "##ın": 3269,
      "##iyeti": 3270,
      "▁baslan": 3271,
      "▁ortak": 3272,
      "▁konforu": 3273,
      "▁iyiydi": 3274,
      "▁birim": 3275,
      "##iligini": 3276,
      "##lama": 3277,
      "▁pek": 3278,
      "▁lez": 3279,
      "▁!": 3280,
      "▁insanlar": 3281,
      "▁halinde": 3282,
      "▁camasır": 3283,
      "▁sif": 3284,
      "▁konf": 3285,
      "▁ucusları": 3286,
      "▁sist": 3287,
      "##'ye": 3288,
      "##une": 3289,
      "▁olum": 3290,
      "▁beyaz": 3291,
      "▁yatırım": 3292,
      "##elli": 3293,
      "▁hast": 3294,
      "▁hesap": 3295,
      "▁cocukları": 3296,
      "▁miktar": 3297,
      "▁cevre": 3298,
      "##osu": 3299,
      "▁acıl": 3300,
      "▁cadde": 3301,
      "##iye": 3302,
      "▁planı": 3303,
      "##isindan": 3304,
      "▁odun": 3305,
      "▁c": 3306,
      "▁elde": 3307,
      "▁g": 3308,
      "▁dal": 3309,
      "##ulu": 3310,
      "##yıl": 3311,
      "##iyet": 3312,
      "▁cunku": 3313,
      "`": 3314,
      "▁ogren": 3315,
      "▁portf": 3316,
      "▁zarar": 3317,
      "▁tuk": 3318,
      "▁giris": 3319,
      "▁makal": 3320,
      "▁aksam": 3321,
      "##luluk": 3322,
      "▁gecesi": 3323,
      "▁mag": 3324,
      "▁basbakan": 3325,
      "▁ailelere": 3326,
      "▁fay": 3327,
      "▁rek": 3328,
      "##erik": 3329,
      "##kk": 3330,
      "##mad": 3331,
      "▁sep": 3332,
      "▁kaldırım": 3333,
      "▁davet": 3334,
      "▁girdi": 3335,
      "▁yard": 3336,
      "##mustu": 3337,
      "▁agustos": 3338,
      "▁6'dan": 3339,
      "▁yo": 3340,
      "▁sozc": 3341,
      "▁ogretmen": 3342,
      "##atın": 3343,
      "▁buyuk": 3344,
      "▁ulk": 3345,
      "##ub": 3346,
      "##ret": 3347,
      "▁list": 3348,
      "##eni": 3349,
      "##ebil": 3350,
      "▁sip": 3351,
      "“": 3352,
      "##obil": 3353,
      "▁taleb": 3354,
      "##mey": 3355,
      "▁baktı": 3356,
      "▁yaklas": 3357,
      "▁sec": 3358,
      "▁odamiz": 3359,
      "▁defter": 3360,
      "##imdi": 3361,
      "▁ula": 3362,
      "▁buf": 3363,
      "##kil": 3364,
      "▁kim": 3365,
      "▁sirketin": 3366,
      "▁oldu": 3367,
      "▁temiz": 3368,
      "▁esy": 3369,
      "##ersiz": 3370,
      "▁veriyor": 3371,
      "##ch": 3372,
      "▁oda": 3373,
      "##lin": 3374,
      "▁sen": 3375,
      "▁mak": 3376,
      "▁tren": 3377,
      "▁dolara": 3378,
      "##lasyon": 3379,
      "▁lir": 3380,
      "▁acı": 3381,
      "##?": 3382,
      "▁ilgili": 3383,
      "▁karsi": 3384,
      "▁sık": 3385,
      "##oh": 3386,
      "▁philadelphia": 3387,
      "▁fon": 3388,
      "▁dukkan": 3389,
      "##gi": 3390,
      "##itr": 3391,
      "▁kade": 3392,
      "▁ikti": 3393,
      "▁spor": 3394,
      "##isler": 3395,
      "▁mahkemesi": 3396,
      "▁buyume": 3397,
      "##uzel": 3398,
      "▁konuda": 3399,
      "##iyor": 3400,
      "▁pozisyon": 3401,
      "▁karab": 3402,
      "▁babası": 3403,
      "##lak": 3404,
      "##ra": 3405,
      "##rt": 3406,
      "▁faturam": 3407,
      "▁mark": 3408,
      "##ecegine": 3409,
      "▁fikr": 3410,
      "▁sekilde": 3411,
      "▁biraz": 3412,
      "##el": 3413,
      "▁kaldim": 3414,
      "▁arasında": 3415,
      "##acılar": 3416,
      "▁phil": 3417,
      "▁ayakta": 3418,
      "##ut": 3419,
      "##alarının": 3420,
      "▁etkisi": 3421,
      "##ımdan": 3422,
      "##lu": 3423,
      "▁gosteri": 3424,
      "##diye": 3425,
      "##alan": 3426,
      "##lıgı": 3427,
      "▁yayın": 3428,
      "##uyorum": 3429,
      "▁aileler": 3430,
      "▁imkanlar": 3431,
      "##ask": 3432,
      "##ef": 3433,
      "##ic": 3434,
      "▁yurt": 3435,
      "▁pitts": 3436,
      "▁coz": 3437,
      "##detti": 3438,
      "▁sev": 3439,
      "▁gob": 3440,
      "▁piyasası": 3441,
      "°": 3442,
      "##‘": 3443,
      "▁orn": 3444,
      "▁elden": 3445,
      "▁delikan": 3446,
      "▁insan": 3447,
      "##qu": 3448,
      "▁cıktı": 3449,
      "▁seviyesine": 3450,
      "▁fil": 3451,
      "▁toplant": 3452,
      "##on": 3453,
      "▁temin": 3454,
      "▁enerji": 3455,
      "▁re": 3456,
      "##abilir": 3457,
      "##ıyordu": 3458,
      "##esiyle": 3459,
      "▁guven": 3460,
      "▁elektrik": 3461,
      "▁hes": 3462,
      "▁ruh": 3463,
      "##etli": 3464,
      "##ding": 3465,
      "##iydi": 3466,
      "▁mim": 3467,
      "▁yana": 3468,
      "▁oran": 3469,
      "▁fazla": 3470,
      "▁cog": 3471,
      "▁ingil": 3472,
      "▁mot": 3473,
      "▁bar": 3474,
      "▁eser": 3475,
      "##eral": 3476,
      "##anda": 3477,
      "▁arttı": 3478,
      "▁potansiy": 3479,
      "▁sey": 3480,
      "▁nes": 3481,
      "▁yıld": 3482,
      "▁ilgilendi": 3483,
      "##lıgın": 3484,
      "##=": 3485,
      "▁vadeli": 3486,
      "▁zev": 3487,
      "▁otele": 3488,
      "▁baskı": 3489,
      "▁tercih": 3490,
      "▁katk": 3491,
      "▁sin": 3492,
      "##iyorum": 3493,
      "##'ndan": 3494,
      "▁duv": 3495,
      "##lıyor": 3496,
      "##ant": 3497,
      "▁kaliteye": 3498,
      "▁ayrı": 3499,
      "▁topu": 3500,
      "##cev": 3501,
      "▁yapım": 3502,
      "##hut": 3503,
      "▁la": 3504,
      "▁ısık": 3505,
      "##ak": 3506,
      "▁1": 3507,
      "##ere": 3508,
      "▁ton": 3509,
      "▁yakın": 3510,
      "▁ekonom": 3511,
      "▁dakik": 3512,
      "##ız": 3513,
      "▁yahut": 3514,
      "##dik": 3515,
      "##tig": 3516,
      "▁par": 3517,
      "▁kadını": 3518,
      "▁r": 3519,
      "▁manz": 3520,
      "##ında": 3521,
      "▁baba": 3522,
      "##yal": 3523,
      "##edigini": 3524,
      "▁of": 3525,
      "▁cop": 3526,
      "▁dunya": 3527,
      "##dıgın": 3528,
      "▁beye": 3529,
      "▁!..": 3530,
      "##ga": 3531,
      "##\"": 3532,
      "▁dostu": 3533,
      "▁vardi": 3534,
      "h": 3535,
      "▁bir": 3536,
      "▁katılım": 3537,
      "▁get": 3538,
      "5": 3539,
      "▁yuzden": 3540,
      "▁id": 3541,
      "##tigi": 3542,
      "▁suru": 3543,
      "##isinin": 3544,
      "▁adamları": 3545,
      "▁puan": 3546,
      "▁kotu": 3547,
      "##’": 3548,
      "▁annem": 3549,
      "▁kork": 3550,
      "▁yasam": 3551,
      "▁otom": 3552,
      "##artesi": 3553,
      "##enin": 3554,
      "##oru": 3555,
      "▁tuketici": 3556,
      "##unuz": 3557,
      "▁onune": 3558,
      "##eyh": 3559,
      "▁ustunde": 3560,
      "▁yanı": 3561,
      "▁ap": 3562,
      "##da": 3563,
      "##edir": 3564,
      "▁send": 3565,
      "##tigini": 3566,
      "▁ilgil": 3567,
      "▁sezon": 3568,
      "##sizlik": 3569,
      "##mas": 3570,
      "##alar": 3571,
      "##liginde": 3572,
      "▁inanc": 3573,
      "▁sonuna": 3574,
      "##h": 3575,
      "▁civarı": 3576,
      "##gunu": 3577,
      "##labilir": 3578,
      "▁fakat": 3579,
      "▁merak": 3580,
      "▁motor": 3581,
      "▁gazete": 3582,
      "▁bic": 3583,
      "▁du": 3584,
      "▁olmad": 3585,
      "▁dak": 3586,
      "##tıg": 3587,
      "▁zir": 3588,
      "▁beg": 3589,
      "##gar": 3590,
      "▁konu": 3591,
      "▁mektu": 3592,
      "▁rengi": 3593,
      "##'nın": 3594,
      "##siyon": 3595,
      "▁gr": 3596,
      "▁sofr": 3597,
      "##su": 3598,
      "##iyorlar": 3599,
      "▁car": 3600,
      "▁tesp": 3601,
      "▁cevap": 3602,
      "##anının": 3603,
      "▁konumu": 3604,
      "##of": 3605,
      "▁ref": 3606,
      "▁yar": 3607,
      "▁tehd": 3608,
      "u": 3609,
      "▁sirk": 3610,
      "##uy": 3611,
      "!": 3612,
      "##ladı": 3613,
      "##iligi": 3614,
      "▁bat": 3615,
      "▁balt": 3616,
      "▁kon": 3617,
      "▁reh": 3618,
      "▁dergi": 3619,
      "▁masraf": 3620,
      "##mıstır": 3621,
      "▁analist": 3622,
      "##go": 3623,
      "s": 3624,
      "##le": 3625,
      "##rar": 3626,
      "▁hit": 3627,
      "▁guc": 3628,
      "▁di": 3629,
      "▁istasyon": 3630,
      "##izlik": 3631,
      "##yası": 3632,
      "##imden": 3633,
      "##gu": 3634,
      "▁dortluk": 3635,
      "▁bak": 3636,
      "▁gucu": 3637,
      "▁nok": 3638,
      "▁olay": 3639,
      "##sun": 3640,
      "▁haz": 3641,
      "▁ederim": 3642,
      "##man": 3643,
      "▁degisim": 3644,
      "▁baska": 3645,
      "##…": 3646,
      "▁istek": 3647,
      "##tık": 3648,
      "##dir": 3649,
      "▁zamanlar": 3650,
      "##der": 3651,
      "▁kullan": 3652,
      "▁elem": 3653,
      "▁rez": 3654,
      "▁tesv": 3655,
      "▁alıcı": 3656,
      "▁tesisti": 3657,
      "▁bi": 3658,
      "##etin": 3659,
      "▁masanın": 3660,
      "▁deneme": 3661,
      "▁bulut": 3662,
      "▁hep": 3663,
      "▁sel": 3664,
      "▁gay": 3665,
      "▁kuy": 3666,
      "▁alın": 3667,
      "▁muz": 3668,
      "▁asker": 3669,
      "##liginin": 3670,
      "##ang": 3671,
      "##ecilik": 3672,
      "▁/": 3673,
      "▁muda": 3674,
      "▁fer": 3675,
      "▁basından": 3676,
      "##maya": 3677,
      "▁rakip": 3678,
      "##ına": 3679,
      "▁okum": 3680,
      "▁hav": 3681,
      "##ov": 3682,
      "▁ucuslarının": 3683,
      "▁gozu": 3684,
      "##anların": 3685,
      "##onel": 3686,
      "##'tan": 3687,
      "▁kıs": 3688,
      "▁patlıc": 3689,
      "▁bil": 3690,
      "▁tesekkurler": 3691,
      "▁ruz": 3692,
      "▁iceri": 3693,
      "▁elbis": 3694,
      "▁ve": 3695,
      "##acı": 3696,
      "##maktadır": 3697,
      "▁but": 3698,
      "▁altın": 3699,
      "▁performans": 3700,
      "▁polis": 3701,
      "▁cesaret": 3702,
      "▁kotuydu": 3703,
      "##emedi": 3704,
      "▁magaz": 3705,
      "▁hemen": 3706,
      "▁eglen": 3707,
      "▁hizmetleri": 3708,
      "▁uyku": 3709,
      "▁sap": 3710,
      "▁vade": 3711,
      "##ıntı": 3712,
      "▁mesel": 3713,
      "▁yon": 3714,
      "▁plan": 3715,
      "##ab": 3716,
      "▁hey": 3717,
      "##atik": 3718,
      "▁sal": 3719,
      "▁yapıl": 3720,
      "▁muhab": 3721,
      "##ki": 3722,
      "▁an": 3723,
      "▁teknoloji": 3724,
      "▁ver": 3725,
      "▁alt": 3726,
      "▁istiyorum": 3727,
      "▁anla": 3728,
      "▁bankası": 3729,
      "##gre": 3730,
      "##adıgını": 3731,
      "##ya": 3732,
      "##yor": 3733,
      "##usunun": 3734,
      "'": 3735,
      "▁icer": 3736,
      "##amam": 3737,
      "##ers": 3738,
      "##bil": 3739,
      "▁gordu": 3740,
      "##eket": 3741,
      "▁halka": 3742,
      "##ıcılar": 3743,
      "▁olursa": 3744,
      "##eh": 3745,
      "▁kisinin": 3746,
      "##tıl": 3747,
      "##dal": 3748,
      "##ele": 3749,
      "▁co": 3750,
      "▁gec": 3751,
      "##ilmesi": 3752,
      "▁animasyonlar": 3753,
      "##det": 3754,
      "##masın": 3755,
      "▁degeri": 3756,
      "▁hoca": 3757,
      "▁arkasından": 3758,
      "##'den": 3759,
      "▁az": 3760,
      "▁demokr": 3761,
      "##ege": 3762,
      "▁dest": 3763,
      "##day": 3764,
      "##amaları": 3765,
      "▁elleri": 3766,
      "▁ch": 3767,
      "▁davranıs": 3768,
      "##az": 3769,
      "##)": 3770,
      "▁kongre": 3771,
      "▁yok": 3772,
      "##gesi": 3773,
      "##'ya": 3774,
      "▁temizlik": 3775,
      "##leket": 3776,
      "▁kır": 3777,
      "▁calı": 3778,
      "z": 3779,
      "▁fak": 3780,
      "▁odadan": 3781,
      "▁dedi": 3782,
      "##anı": 3783,
      "▁cih": 3784,
      "##indan": 3785,
      "▁peyn": 3786,
      "▁civarında": 3787,
      "▁kapı": 3788,
      "▁model": 3789,
      "▁adı": 3790,
      "▁sabahı": 3791,
      "##lugunu": 3792,
      "▁sp": 3793,
      "▁mas": 3794,
      "▁fotograf": 3795,
      "▁kası": 3796,
      "##dig": 3797,
      "▁anlay": 3798,
      "▁pol": 3799,
      "##end": 3800,
      "##ulmus": 3801,
      "▁konusu": 3802,
      "▁huc": 3803,
      "##ayet": 3804,
      "##p": 3805,
      "▁ola": 3806,
      "▁kara": 3807,
      "▁eger": 3808,
      "▁olc": 3809,
      "▁fark": 3810,
      "▁“": 3811,
      "##unc": 3812,
      "▁toplantı": 3813,
      "▁garanti": 3814,
      "▁ihtim": 3815,
      "▁fab": 3816,
      "▁duny": 3817,
      "▁bas": 3818,
      "▁isin": 3819,
      "▁havalim": 3820,
      "##madik": 3821,
      "▁karayol": 3822,
      "##div": 3823,
      "▁fiyatları": 3824,
      "##ley": 3825,
      "##bar": 3826,
      "##edav": 3827,
      "▁insanlara": 3828,
      "▁kredi": 3829,
      "▁cin": 3830,
      "##mıstı": 3831,
      "##ustos": 3832,
      "▁havada": 3833,
      "▁yonet": 3834,
      "▁eg": 3835,
      "▁ocak": 3836,
      "▁kural": 3837,
      "##cısı": 3838,
      "▁gen": 3839,
      "▁bolg": 3840,
      "▁bakanlıgı": 3841,
      "▁harek": 3842,
      "▁durumunda": 3843,
      "▁ala": 3844,
      "##landır": 3845,
      "##isten": 3846,
      "▁paranın": 3847,
      "▁cocuklar": 3848,
      "##ali": 3849,
      "##una": 3850,
      "▁yaz": 3851,
      "▁havaalanı": 3852,
      "▁yapmaya": 3853,
      "▁kasıgı": 3854,
      "##af": 3855,
      "▁gidiyor": 3856,
      "▁on": 3857,
      "▁ogleden": 3858,
      "i": 3859,
      "▁hedef": 3860,
      "▁misaf": 3861,
      "▁sart": 3862,
      "▁payı": 3863,
      "▁paran": 3864,
      "▁ucretleri": 3865,
      "▁o": 3866,
      "##yla": 3867,
      "##'nin": 3868,
      "##_": 3869,
      "▁endeksi": 3870,
      "▁ipotek": 3871,
      "▁yardimci": 3872,
      "▁iz": 3873,
      "##tiler": 3874,
      "▁bıraktı": 3875,
      "##anın": 3876,
      "##anlar": 3877,
      "▁yerde": 3878,
      "▁hale": 3879,
      "▁sozles": 3880,
      "▁alır": 3881,
      "▁aktivite": 3882,
      "##siniz": 3883,
      "▁al": 3884,
      "##unden": 3885,
      "▁ortasında": 3886,
      "▁``": 3887,
      "▁basla": 3888,
      "##ıza": 3889,
      "##adı": 3890,
      "▁yardımcı": 3891,
      "▁reklam": 3892,
      "##sın": 3893,
      "##ası": 3894,
      "▁ekl": 3895,
      "▁kulak": 3896,
      "▁yetkili": 3897,
      "▁olmadi": 3898,
      "##ars": 3899,
      "▁meslek": 3900,
      "▁ilgiliydi": 3901,
      "▁mily": 3902,
      "▁ur": 3903,
      "▁sonbah": 3904,
      "▁oy": 3905,
      "▁cocukların": 3906,
      "▁merkez": 3907,
      "▁secim": 3908,
      "▁oyunun": 3909,
      "▁haberi": 3910,
      "▁satın": 3911,
      "##imize": 3912,
      "▁gunler": 3913,
      "##meyi": 3914,
      "##os": 3915,
      "▁veriyorum": 3916,
      "▁gelecek": 3917,
      "▁simdi": 3918,
      "##ellikle": 3919,
      "▁olmadıgını": 3920,
      "▁mecl": 3921,
      "▁muhend": 3922,
      "▁dir": 3923,
      "▁tartısma": 3924,
      "##alarını": 3925,
      "▁kuvvet": 3926,
      "▁bazı": 3927,
      "▁alaka": 3928,
      "▁do": 3929,
      "##ip": 3930,
      "▁cins": 3931,
      "##menin": 3932,
      "▁gol": 3933,
      "##onra": 3934,
      "##ikat": 3935,
      "▁lis": 3936,
      "##mez": 3937,
      "▁yandan": 3938,
      "▁bono": 3939,
      "▁donemde": 3940,
      "▁ab": 3941,
      "▁icinden": 3942,
      "▁hayır": 3943,
      "##min": 3944,
      "▁sırasında": 3945,
      "▁pencer": 3946,
      "▁iki": 3947,
      "##ber": 3948,
      "▁bakanı": 3949,
      "##,": 3950,
      "▁bilgisayar": 3951,
      "##ji": 3952,
      "##ustur": 3953,
      "##ede": 3954,
      "▁agız": 3955,
      "##ayacagını": 3956,
      "##edig": 3957,
      "##ları": 3958,
      "▁yolunu": 3959,
      "▁kart": 3960,
      "▁parasını": 3961,
      "▁tarafından": 3962,
      "▁laf": 3963,
      "##ih": 3964,
      "▁saatlerinde": 3965,
      "##san": 3966,
      "##nak": 3967,
      "▁suyu": 3968,
      "##arın": 3969,
      "▁kısıt": 3970,
      "▁'": 3971,
      "▁donus": 3972,
      "▁kamu": 3973,
      "▁kısm": 3974,
      "##ıcı": 3975,
      "##-": 3976,
      "▁in": 3977,
      "▁atlan": 3978,
      "##acılık": 3979,
      "▁tavuk": 3980,
      "##egini": 3981,
      "##uldu": 3982,
      "▁dakika": 3983,
      "▁guvenlik": 3984,
      "▁yapı": 3985,
      "▁enflasyon": 3986,
      "▁cihaz": 3987,
      "▁hele": 3988,
      "▁vap": 3989,
      "▁abd": 3990,
      "▁vakt": 3991,
      "##sınız": 3992,
      "▁aln": 3993,
      "▁grup": 3994,
      "##yas": 3995,
      "▁gi": 3996,
      "##lerinden": 3997,
      "▁otelin": 3998,
      "##ume": 3999,
      "▁aktivit": 4000,
      "##av": 4001,
      "▁servisi": 4002,
      "##im": 4003,
      "▁birtakım": 4004,
      "▁televizyon": 4005,
      "▁aksama": 4006,
      "▁imkanlari": 4007,
      "##inize": 4008,
      "▁perform": 4009,
      "▁b": 4010,
      "##agında": 4011,
      "▁yak": 4012,
      "▁calis": 4013,
      "▁parayı": 4014,
      "▁mide": 4015,
      "▁etk": 4016,
      "##asi": 4017,
      "##n": 4018,
      "▁denver": 4019,
      "##iyon": 4020,
      "▁var": 4021,
      "##isti": 4022,
      "##irdi": 4023,
      "▁bulun": 4024,
      "##ivers": 4025,
      "##ort": 4026,
      "▁hukumetin": 4027,
      "##umda": 4028,
      "▁kagı": 4029,
      "##*": 4030,
      "##ımızı": 4031,
      "▁uretim": 4032,
      "##larıyla": 4033,
      "##dil": 4034,
      "▁bu": 4035,
      "▁washington": 4036,
      "##leme": 4037,
      "##ar": 4038,
      "▁ed": 4039,
      "▁kay": 4040,
      "▁cumartesi": 4041,
      "▁bayan": 4042,
      "##umuzde": 4043,
      "▁uretici": 4044,
      "▁numara": 4045,
      "##andan": 4046,
      "▁ide": 4047,
      "▁yıla": 4048,
      "▁ucrete": 4049,
      "▁hos": 4050,
      "▁yuks": 4051,
      "▁yeni": 4052,
      "▁bur": 4053,
      "##gin": 4054,
      "▁rah": 4055,
      "##\\": 4056,
      "##adel": 4057,
      "▁sonuclar": 4058,
      "##malı": 4059,
      "##lav": 4060,
      "▁seyin": 4061,
      "▁tes": 4062,
      "▁degis": 4063,
      "—": 4064,
      "##iste": 4065,
      "▁altına": 4066,
      "▁kaz": 4067,
      "##miyorum": 4068,
      "▁yol": 4069,
      "▁gazet": 4070,
      "▁it": 4071,
      "▁tarihi": 4072,
      "##hur": 4073,
      "▁sid": 4074,
      "##taj": 4075,
      "▁sek": 4076,
      "▁bisik": 4077,
      "##ikler": 4078,
      "▁fabrika": 4079,
      "▁rom": 4080,
      "▁er": 4081,
      "▁sorunları": 4082,
      "##kal": 4083,
      "▁tar": 4084,
      "▁2": 4085,
      "##di": 4086,
      "▁azından": 4087,
      "▁br": 4088,
      "##ster": 4089,
      "##ku": 4090,
      "▁$'dan": 4091,
      "▁arası": 4092,
      "▁evden": 4093,
      "▁restor": 4094,
      "##emiz": 4095
    }
  }
}