{
  "version": "1.0",
  "truncation": null,
  "padding": null,
  "added_tokens": [
    {
      "id": 4033,
      "content": "[UNK]",
      "single_word": false,
      "lstrip": false,
      "rstrip": false,
      "normalized": false,
      "special": true
    },
    {
      "id": 4452,
      "content": "[CLS]",
      "single_word": false,
      "lstrip": false,
      "rstrip": false,
      "normalized": false,
      "special": true
    },
    {
      "id": 4613,
      "content": "[SEP]",
      "single_word": false,
      "lstrip": false,
      "rstrip": false,
      "normalized": false,
      "special": true
    },
    {
      "id": 6925,
      "content": "[MASK]",
      "single_word": false,
      "lstrip": false,
      "rstrip": false,
      "normalized": false,
      "special": true
    },
    {
      "id": 8033,
      "content": "[PAD]",
      "single_word": false,
      "lstrip": false,
      "rstrip": false,
      "normalized": false,
      "special": true
    }
  ],
  "normalizer": {
    "type": "Sequence",
    "normalizers": [
      {
        "type": "NFD"
      },
      {
        "type": "Lowercase"
      },
      {
        "type": "StripAccents"
      }
    ]
  },
  "pre_tokenizer": {
    "type": "Sequence",
    "pretokenizers": [
      {
        "type": "Metaspace",
        "replacement": "▁",
        "prepend_scheme": "always",
        "split": true
      }
    ]
  },
  "post_processor": {
    "type": "TemplateProcessing",
    "single": [
      {
        "SpecialToken": {
          "id": "[CLS]",
          "type_id": 0
        }
      },
      {
        "Sequence": {
          "id": "A",
          "type_id": 0
        }
      },
      {
        "SpecialToken": {
          "id": "[SEP]",
          "type_id": 0
        }
      }
    ],
    "pair": [
      {
        "SpecialToken": {
          "id": "[CLS]",
          "type_id": 0
        }
      },
      {
        "Sequence": {
          "id": "A",
          "type_id": 0
        }
      },
      {
        "SpecialToken": {
          "id": "[SEP]",
          "type_id": 0
        }
      },
      {
        "Sequence": {
          "id": "B",
          "type_id": 1
        }
      },
      {
        "SpecialToken": {
          "id": "[SEP]",
          "type_id": 1
        }
      }
    ],
    "special_tokens": {
      "[CLS]": {
        "id": "[CLS]",
        "ids": [
          4452
        ],
        "tokens": [
          "[CLS]"
        ]
      },
      "[SEP]": {
        "id": "[SEP]",
        "ids": [
          4613
        ],
        "tokens": [
          "[SEP]"
        ]
      }
    }
  },
  "decoder": {
    "type": "Metaspace",
    "replacement": "▁",
    "prepend_scheme": "always",
    "split": true
  },
  "model": {
    "type": "Unigram",
    "unk_id": 4033,
    "vocab": [
      [
        "▁kimligi",
        -10.05878268146811
      ],
      [
        "ma",
        -7.885474611994246
      ],
      [
        "▁cins",
        -9.574843814862259
      ],
      [
        "▁aradı",
        -8.89498133901568
      ],
      [
        "ir",
        -8.515864176495883
      ],
      [
        "▁fikirleri",
        -9.93757780266876
      ],
      [
        "▁t",
        -7.355080114010372
      ],
      [
        "▁bildirdi",
        -7.552312565344615
      ],
      [
        "▁kızgın",
        -8.448632793234832
      ],
      [
        "le",
        -6.887670592142281
      ],
      [
        "▁varmak",
        -9.868116984503121
      ],
      [
        "▁kara",
        -8.268169956269192
      ],
      [
        "ını",
        -6.614951322777229
      ],
      [
        "cik",
        -9.300129225268059
      ],
      [
        "▁iskence",
        -9.839964797753911
      ],
      [
        "r",
        -6.2580206567506025
      ],
      [
        "▁durumu",
        -8.336494175419743
      ],
      [
        "▁gelis",
        -7.943382877162252
      ],
      [
        "▁uc",
        -8.79408648688098
      ],
      [
        "▁olmadıgını",
        -8.380001185977228
      ],
      [
        "▁illa",
        -8.631037449064294
      ],
      [
        "▁islemciler",
        -9.995697055916596
      ],
      [
        "▁ugra",
        -9.811718813073327
      ],
      [
        "'nun",
        -6.178313541810417
      ],
      [
        "▁bahis",
        -9.961635955940734
      ],
      [
        "▁degerl",
        -7.960113259088484
      ],
      [
        "el",
        -7.723344440345956
      ],
      [
        "▁yerlerde",
        -9.214883255022958
      ],
      [
        "▁yapıyor",
        -6.9439479928904575
      ],
      [
        "▁gunu",
        -6.261576438994198
      ],
      [
        "leri",
        -5.269717383689016
      ],
      [
        "▁he",
        -9.926427091418343
      ],
      [
        "▁belir",
        -7.5840970746139265
      ],
      [
        "▁kuyu",
        -9.162853326333245
      ],
      [
        "▁yasamı",
        -9.674112405155809
      ],
      [
        "▁devlet",
        -7.40337706902222
      ],
      [
        "▁sezon",
        -9.32640493569606
      ],
      [
        "▁sesle",
        -9.599340737475087
      ],
      [
        "▁yanlıs",
        -9.473925961783046
      ],
      [
        "▁ortalama",
        -8.786515745869476
      ],
      [
        "▁david",
        -8.039645432221675
      ],
      [
        "bana",
        -7.997178458702052
      ],
      [
        "▁yaglı",
        -8.374836103730527
      ],
      [
        "▁bulu",
        -8.599103413617508
      ],
      [
        "ının",
        -7.434663971060819
      ],
      [
        "▁ismini",
        -9.421588595523776
      ],
      [
        "▁odedigim",
        -6.715099991319124
      ],
      [
        "▁fazlası",
        -9.627805701293088
      ],
      [
        "▁baslamıs",
        -7.932017451835269
      ],
      [
        "ysa",
        -8.923158557709659
      ],
      [
        "▁lık",
        -7.543427626244069
      ],
      [
        "▁eksiklikler",
        -9.80882622491417
      ],
      [
        "▁sohret",
        -9.96128820819943
      ],
      [
        "▁yuzey",
        -10.160486951901962
      ],
      [
        "▁atlanta'da",
        -5.474516033211378
      ],
      [
        "▁siparisler",
        -9.990536003303824
      ],
      [
        "sını",
        -6.90342527436048
      ],
      [
        "▁alıcılar",
        -9.71855325324909
      ],
      [
        "▁olmayı",
        -9.693828032467351
      ],
      [
        "▁agrı",
        -9.590026000383633
      ],
      [
        "lilik",
        -9.25563980352296
      ],
      [
        "▁orada",
        -6.679303596995425
      ],
      [
        "▁10",
        -9.692815490797145
      ],
      [
        "▁belirttigi",
        -8.71073857022654
      ],
      [
        "▁milletin",
        -9.884502465727437
      ],
      [
        "▁deli",
        -7.876917093199866
      ],
      [
        "ucu",
        -8.345145413273505
      ],
      [
        "▁seker",
        -8.821906893987967
      ],
      [
        "▁gene",
        -9.959218377141555
      ],
      [
        "sına",
        -8.177988959580906
      ],
      [
        "▁guzel",
        -8.23111534209698
      ],
      [
        "▁bildiri",
        -10.151582657944523
      ],
      [
        "▁bizim",
        -8.887491071444323
      ],
      [
        "ınca",
        -6.707064326619587
      ],
      [
        "▁me",
        -8.112532873127401
      ],
      [
        "▁hayır",
        -8.741477556596884
      ],
      [
        "▁merkezi",
        -8.286609967084111
      ],
      [
        "ttigi",
        -9.987788438572013
      ],
      [
        "▁dir",
        -4.563511654215546
      ],
      [
        "▁etmeye",
        -8.60391832722236
      ],
      [
        "▁belge",
        -9.617695125516114
      ],
      [
        "▁bos",
        -6.966195874127998
      ],
      [
        "▁mat",
        -9.851948786315173
      ],
      [
        "▁almanya'da",
        -8.090421037547184
      ],
      [
        "▁ceker",
        -8.094654426537014
      ],
      [
        "▁dava",
        -7.416854356841948
      ],
      [
        "r",
        -11.302702672349785
      ],
      [
        "▁kanser",
        -10.028740504082913
      ],
      [
        "▁belirl",
        -7.873679259010714
      ],
      [
        "▁borcu",
        -9.106454503439359
      ],
      [
        "…",
        -11.802702672349788
      ],
      [
        "▁yapmak",
        -8.205927415013317
      ],
      [
        "▁gunes",
        -8.205446327679265
      ],
      [
        "▁co",
        -6.843950054630211
      ],
      [
        "▁zengin",
        -7.073573728941109
      ],
      [
        "▁son",
        -8.537041191139693
      ],
      [
        "▁tam",
        -6.157110276087403
      ],
      [
        "▁dost",
        -9.159382066634304
      ],
      [
        "▁onlar",
        -4.15628502075879
      ],
      [
        "dir",
        -7.005721053756499
      ],
      [
        "▁verilen",
        -8.372165323791652
      ],
      [
        "▁sekilde",
        -6.801347640637176
      ],
      [
        "▁degili",
        -4.9352643412096375
      ],
      [
        "▁arta",
        -7.919814251811303
      ],
      [
        "ist",
        -8.724220420575483
      ],
      [
        "▁strateji",
        -8.866081951164054
      ],
      [
        "▁azalma",
        -10.176362832983624
      ],
      [
        "▁davranıs",
        -9.451977604816964
      ],
      [
        "▁yil",
        -8.673921592207703
      ],
      [
        "▁musiki",
        -10.176511641594345
      ],
      [
        "▁inc",
        -6.94299459218671
      ],
      [
        "▁boyun",
        -9.02683500592994
      ],
      [
        "▁paul'",
        -7.571377764242304
      ],
      [
        "▁yasta",
        -10.099480988708432
      ],
      [
        "▁calisanlar",
        -8.451190507419271
      ],
      [
        "ne",
        -8.562322028383877
      ],
      [
        "▁yasar",
        -8.378151067862493
      ],
      [
        "▁ayrı",
        -9.854775937987112
      ],
      [
        "▁katı",
        -9.353557516694686
      ],
      [
        "klerini",
        -8.416370255934254
      ],
      [
        "▁kapattı",
        -8.197820325348946
      ],
      [
        "▁acıgı",
        -9.654294645729284
      ],
      [
        "▁fikri",
        -8.802202662123808
      ],
      [
        "▁arbitraj",
        -10.027954870968621
      ],
      [
        "ları",
        -5.202785875483254
      ],
      [
        "▁tv",
        -9.963149910357057
      ],
      [
        "ması",
        -7.775695408814518
      ],
      [
        "▁spot",
        -9.899187879034006
      ],
      [
        "a",
        -6.240650828353713
      ],
      [
        "▁editor",
        -9.787732823854942
      ],
      [
        ",",
        -11.199613634584775
      ],
      [
        "▁ucuslar",
        -6.226607001372271
      ],
      [
        "▁yargı",
        -9.217970512204674
      ],
      [
        "▁zam",
        -9.780141603333727
      ],
      [
        "n",
        -3.3061660798050543
      ],
      [
        "▁kampanya",
        -9.4610964972156
      ],
      [
        "▁mallar",
        -10.040834748567462
      ],
      [
        "▁kedi",
        -8.78033624729348
      ],
      [
        "▁gazete",
        -8.1342237464848
      ],
      [
        "▁v",
        -8.713254355738648
      ],
      [
        "▁odam",
        -8.866890846165742
      ],
      [
        "landı",
        -8.616952141013547
      ],
      [
        "▁izin",
        -8.06606867969676
      ],
      [
        "▁kodu",
        -8.689022621458202
      ],
      [
        "▁profesor",
        -10.114736595122597
      ],
      [
        "▁cıkart",
        -8.96600648148572
      ],
      [
        "▁taraf",
        -8.33326154799446
      ],
      [
        "▁herif",
        -9.28311556223514
      ],
      [
        "am",
        -8.20305343986586
      ],
      [
        "sında",
        -7.129464393211055
      ],
      [
        "v",
        -8.098783892429132
      ],
      [
        "▁oldugum",
        -7.761207621413908
      ],
      [
        "▁salata",
        -9.408704084544166
      ],
      [
        "▁yarıs",
        -9.609215495461585
      ],
      [
        "▁mektubu",
        -9.503559021775825
      ],
      [
        "▁seref",
        -9.73185354226556
      ],
      [
        "▁kova",
        -9.702057088656488
      ],
      [
        "▁herkes",
        -7.966576209391024
      ],
      [
        "▁karsısında",
        -8.340710661550004
      ],
      [
        "▁ez",
        -8.519130447258377
      ],
      [
        "▁be",
        -8.504947737710792
      ],
      [
        "ar",
        -7.710251009188294
      ],
      [
        "▁ideal",
        -7.703491446277126
      ],
      [
        "madı",
        -7.855064716859427
      ],
      [
        "sızlık",
        -9.292927547814864
      ],
      [
        "rak",
        -8.737317526850882
      ],
      [
        "▁baslarında",
        -9.443824636415522
      ],
      [
        "▁sup",
        -7.614106068843844
      ],
      [
        "▁cıkar",
        -7.850134360737044
      ],
      [
        "ma",
        -7.59784297526015
      ],
      [
        "▁industries",
        -8.129913594326528
      ],
      [
        "yel",
        -8.565582910227288
      ],
      [
        "▁altında",
        -7.322676035218732
      ],
      [
        "▁dedigi",
        -8.95996749137875
      ],
      [
        "dugu",
        -8.336275553530566
      ],
      [
        "▁yuksel",
        -6.724838392089302
      ],
      [
        "▁phoenix'de",
        -7.104343983014943
      ],
      [
        "▁hic",
        -4.7912109296688214
      ],
      [
        "b",
        -7.087749311720764
      ],
      [
        "▁nefer",
        -10.176314052137368
      ],
      [
        "▁gostere",
        -8.567719247690754
      ],
      [
        "digini",
        -8.87967269104562
      ],
      [
        "▁personel",
        -6.499551627576882
      ],
      [
        "▁cikolata",
        -10.099383442594627
      ],
      [
        "amaz",
        -7.8741649218845975
      ],
      [
        "nin",
        -5.371980879799208
      ],
      [
        "▁alev",
        -9.686260616930547
      ],
      [
        "▁g",
        -7.539574150770843
      ],
      [
        "▁birbirini",
        -6.541637450514566
      ],
      [
        "▁sergi",
        -9.391465603081233
      ],
      [
        "▁gecme",
        -8.528279297089854
      ],
      [
        "▁gecir",
        -10.064830776465481
      ],
      [
        "▁3.",
        -5.926069570258965
      ],
      [
        "▁houston'",
        -7.473895534382342
      ],
      [
        "▁yasıyor",
        -7.827542717097652
      ],
      [
        "▁l",
        -8.40687398848284
      ],
      [
        "▁fiyatı",
        -8.104388814826956
      ],
      [
        "abiliyor",
        -8.925362242997718
      ],
      [
        "▁hepimizi",
        -7.106313200253321
      ],
      [
        "▁amerikalılar",
        -9.845581996881368
      ],
      [
        "▁cografya",
        -10.027955719886071
      ],
      [
        "▁isyan",
        -9.422215140818539
      ],
      [
        "▁kondu",
        -9.95492379375878
      ],
      [
        "▁suc",
        -8.753881233597081
      ],
      [
        "▁verme",
        -8.559899751613884
      ],
      [
        "▁milletvekili",
        -9.681777540852375
      ],
      [
        "▁cekim",
        -9.704636773468454
      ],
      [
        "los",
        -6.830333516071331
      ],
      [
        "▁degerinde",
        -9.62358275230318
      ],
      [
        "▁meyhane",
        -9.731779560636362
      ],
      [
        "▁robert",
        -7.895259777079192
      ],
      [
        "ır",
        -8.318480313622686
      ],
      [
        "▁fon",
        -8.735461334062007
      ],
      [
        "▁civarı",
        -8.95383114979398
      ],
      [
        "▁d",
        -7.02374409345008
      ],
      [
        "k",
        -4.044470171830262
      ],
      [
        "ndan",
        -6.5640626603921195
      ],
      [
        "mesini",
        -8.110554120596017
      ],
      [
        "▁uzuntu",
        -9.463559474819293
      ],
      [
        "▁saki",
        -6.997830724557234
      ],
      [
        "tan",
        -6.593577048707708
      ],
      [
        "▁24",
        -6.263247141229067
      ],
      [
        "▁donuk",
        -8.251428758321687
      ],
      [
        "▁gereke",
        -8.279110484610474
      ],
      [
        "▁aralık'ta",
        -7.801440471665967
      ],
      [
        "▁itibar",
        -9.560361244724534
      ],
      [
        "▁acık",
        -6.410109475772573
      ],
      [
        "abe",
        -8.567426442434614
      ],
      [
        "▁kosk",
        -9.600907849180622
      ],
      [
        "▁dah",
        -8.480184938324264
      ],
      [
        "gin",
        -8.712800069914545
      ],
      [
        "▁bodrum",
        -10.09938347259294
      ],
      [
        "▁y",
        -5.850136498665641
      ],
      [
        "▁biz",
        -8.575322793666926
      ],
      [
        "▁lazımdı",
        -8.835154785865583
      ],
      [
        "ler",
        -6.545964428951377
      ],
      [
        "▁doktorlar",
        -9.709936332735392
      ],
      [
        "▁eskiy",
        -7.214999941926577
      ],
      [
        "▁cocukluk",
        -9.975916177691685
      ],
      [
        "▁olmadıgı",
        -8.048917008557847
      ],
      [
        "▁san",
        -4.252714316006625
      ],
      [
        "▁ola",
        -3.676043512832143
      ],
      [
        "▁kısın",
        -8.365500774839033
      ],
      [
        "▁gidi",
        -7.35829839470744
      ],
      [
        "▁yarı",
        -9.285883971297814
      ],
      [
        "▁sesini",
        -9.305212463784807
      ],
      [
        "eydi",
        -8.68318109921204
      ],
      [
        "o",
        -7.77720322345715
      ],
      [
        "▁soguk",
        -7.14116228744034
      ],
      [
        "▁nar",
        -9.991211812676784
      ],
      [
        "▁onlar",
        -7.358829322235774
      ],
      [
        "▁dır",
        -4.287573368195668
      ],
      [
        "▁karanlık",
        -9.35542658815751
      ],
      [
        "▁geregi",
        -9.481541489368077
      ],
      [
        "▁kaldi",
        -5.217745652790012
      ],
      [
        "▁dusuk",
        -10.177826207598109
      ],
      [
        "▁gune",
        -9.6147789616426
      ],
      [
        "▁teker",
        -9.554387988575831
      ],
      [
        "▁yoneticisi",
        -9.230221279409637
      ],
      [
        "▁tesebbus",
        -9.961288204304765
      ],
      [
        "▁yaslar",
        -9.68776049744027
      ],
      [
        "▁kemer",
        -10.027967940388443
      ],
      [
        "▁yasaya",
        -8.70047691885593
      ],
      [
        "▁artı",
        -8.581293221837413
      ],
      [
        "▁d",
        -9.995414436185875
      ],
      [
        "▁satıyor",
        -8.779282749074019
      ],
      [
        "bu",
        -7.536628892704083
      ],
      [
        "▁badem",
        -9.840024122824605
      ],
      [
        "an",
        -8.145310038240687
      ],
      [
        "nc",
        -6.268229403463587
      ],
      [
        "▁evler",
        -9.458617463900223
      ],
      [
        "ler",
        -8.293736253779967
      ],
      [
        "▁fazlasını",
        -9.515903573722623
      ],
      [
        "kta",
        -9.598096229478395
      ],
      [
        "▁elektrik",
        -8.535626293936236
      ],
      [
        "▁sana",
        -5.075330108084433
      ],
      [
        "▁kendim",
        -6.106222814598597
      ],
      [
        "a",
        -3.8394838638049187
      ],
      [
        "an",
        -5.165519414905496
      ],
      [
        "▁seks",
        -9.846673138093799
      ],
      [
        "up",
        -7.694270584247252
      ],
      [
        "▁insan",
        -6.772208448614279
      ],
      [
        "▁mart",
        -8.933604488689657
      ],
      [
        "mme",
        -8.46388241452652
      ],
      [
        "▁yakinlarim",
        -9.899118381679305
      ],
      [
        "▁solda",
        -10.103849978618001
      ],
      [
        "▁yuzluydu",
        -7.926726445768184
      ],
      [
        "▁yasam",
        -8.274972980735114
      ],
      [
        "▁ed",
        -8.766915707344921
      ],
      [
        "▁newark'",
        -7.324007278679551
      ],
      [
        "▁cıka",
        -7.995320739530353
      ],
      [
        "en",
        -8.333530082193722
      ],
      [
        "▁ayak",
        -8.133508879127783
      ],
      [
        "▁yo",
        -5.081569992204334
      ],
      [
        "▁acısı",
        -9.60828977778807
      ],
      [
        "▁pasta",
        -9.64447739682956
      ],
      [
        "▁yaklasım",
        -9.76935352486221
      ],
      [
        "▁mutlulugu",
        -9.898809951219079
      ],
      [
        "▁egitim",
        -8.608605471742159
      ],
      [
        "▁uzer",
        -10.08372679436448
      ],
      [
        "▁ceviri",
        -10.176306845283044
      ],
      [
        "▁telefonu",
        -9.533436158810956
      ],
      [
        "▁yukselisle",
        -9.894485524620254
      ],
      [
        "▁diyor",
        -5.9760460213583615
      ],
      [
        "▁kendimiz",
        -6.381187203357939
      ],
      [
        "▁siddet",
        -9.251475543341009
      ],
      [
        "▁ebeveyn",
        -9.89878821135957
      ],
      [
        "▁hari",
        -7.715060009443443
      ],
      [
        "▁iti",
        -10.011500347832552
      ],
      [
        "▁tv",
        -7.8500461917645055
      ],
      [
        "▁konus",
        -7.812994629712506
      ],
      [
        "▁bicimi",
        -9.624701487487027
      ],
      [
        "ut",
        -7.534273502585786
      ],
      [
        "▁gecit",
        -10.176314105870317
      ],
      [
        "▁yemegi",
        -8.51965576413553
      ],
      [
        "75",
        -6.51104329968174
      ],
      [
        "▁dedikodu",
        -9.68177754047301
      ],
      [
        "▁bedeli",
        -10.038637413974527
      ],
      [
        "▁yatırımcılar",
        -8.121210068307999
      ],
      [
        "▁duygu",
        -8.664012020547107
      ],
      [
        "▁gun",
        -6.073615341159536
      ],
      [
        "▁kosar",
        -8.545452459367537
      ],
      [
        "▁buz",
        -8.909279493203545
      ],
      [
        "'li",
        -9.501379903322782
      ],
      [
        "▁ayn",
        -8.14989803709778
      ],
      [
        "▁ortalaması",
        -9.861720721015878
      ],
      [
        "▁lise",
        -9.252196305096236
      ],
      [
        "▁iyi",
        -4.128386314809931
      ],
      [
        "▁ekipman",
        -9.65071353986287
      ],
      [
        "▁kargasa",
        -9.961499483224788
      ],
      [
        "▁karargah",
        -10.17632271773052
      ],
      [
        "ya",
        -7.487244857637893
      ],
      [
        "▁dallas'ta",
        -5.771591626541849
      ],
      [
        "his",
        -8.33901680755023
      ],
      [
        "▁kalmaya",
        -9.443564264510108
      ],
      [
        "▁nere",
        -7.87386553786739
      ],
      [
        "lamaya",
        -9.430719143639738
      ],
      [
        "▁sessiz",
        -7.411728800344441
      ],
      [
        "▁kıs",
        -8.16188244775315
      ],
      [
        "▁herkes",
        -4.990935261703556
      ],
      [
        "▁aksam",
        -6.6552843446679555
      ],
      [
        "s",
        -6.235752450749961
      ],
      [
        "▁ilce",
        -9.555620432924746
      ],
      [
        "▁kalkar",
        -8.919620575314946
      ],
      [
        "▁tahsil",
        -9.681777779103093
      ],
      [
        "▁talep",
        -8.24845189483223
      ],
      [
        "▁",
        -0.7087938101118976
      ],
      [
        "n",
        -3.36243448112465
      ],
      [
        "▁senin",
        -5.127217236835529
      ],
      [
        "▁",
        -3.1693413067501925
      ],
      [
        "▁istedi",
        -7.176852402405102
      ],
      [
        "▁a.b.d.",
        -7.883420276119656
      ],
      [
        "▁salonu",
        -9.87368346238731
      ],
      [
        "▁sahiptir",
        -8.097176859383168
      ],
      [
        "▁sagladı",
        -8.529225154961305
      ],
      [
        "▁vermeyi",
        -9.970445761275114
      ],
      [
        "niye",
        -7.497200092075518
      ],
      [
        "lu",
        -5.7724310591815975
      ],
      [
        "▁rengi",
        -8.490326052368752
      ],
      [
        "'",
        -5.94912463252334
      ],
      [
        "▁iyiydi",
        -4.7290992028879995
      ],
      [
        "▁tutun",
        -8.94935896824732
      ],
      [
        "▁kosu",
        -9.682658097284005
      ],
      [
        "nın",
        -7.557663351227015
      ],
      [
        "▁olması",
        -8.4525594019771
      ],
      [
        "▁deger",
        -7.777637612233826
      ],
      [
        "▁nobet",
        -9.956147461863296
      ],
      [
        "▁hukumet",
        -7.753369232637409
      ],
      [
        "▁iyi",
        -6.254102976079183
      ],
      [
        "▁azal",
        -8.816811300481247
      ],
      [
        "nuz",
        -7.811240399677354
      ],
      [
        "vası",
        -7.7579027535534415
      ],
      [
        "▁polisler",
        -9.77313611037931
      ],
      [
        "▁karsı",
        -6.153679112273401
      ],
      [
        "▁cay",
        -8.32300333454649
      ],
      [
        "re",
        -4.844554200876263
      ],
      [
        "▁esyalar",
        -9.937510679677654
      ],
      [
        "▁kucuk",
        -10.099474180543911
      ],
      [
        "▁karın",
        -9.109624617500852
      ],
      [
        "▁halkı",
        -9.01484929989244
      ],
      [
        "rim",
        -8.384658300147619
      ],
      [
        "▁c",
        -6.895016804484409
      ],
      [
        "▁oturu",
        -8.138288562191022
      ],
      [
        "▁gumus",
        -8.45347510151566
      ],
      [
        "cagız",
        -8.852217712868713
      ],
      [
        "▁kapı",
        -7.11042202167858
      ],
      [
        "▁2.6",
        -7.411926299767766
      ],
      [
        "▁cennet",
        -9.388061656636005
      ],
      [
        "ana",
        -9.21544090621301
      ],
      [
        "▁gelmiyor",
        -8.772113210551112
      ],
      [
        "▁dik",
        -9.773261350388372
      ],
      [
        "▁gogus",
        -9.732868660866334
      ],
      [
        "▁okur",
        -9.805485558402324
      ],
      [
        "▁kansas",
        -6.518973960745943
      ],
      [
        "▁varil",
        -9.967725939432523
      ],
      [
        "▁dusundugun",
        -10.028191706870187
      ],
      [
        "▁gorusme",
        -8.439597214963388
      ],
      [
        "▁anlayıs",
        -9.763298231422706
      ],
      [
        "ze",
        -8.203100113383165
      ],
      [
        "▁7\\/",
        -6.8180399467908055
      ],
      [
        "▁kredileri",
        -9.4950678401657
      ],
      [
        "▁dogu",
        -9.460722736516619
      ],
      [
        "k",
        -4.867414459287313
      ],
      [
        "kalan",
        -8.291973658772934
      ],
      [
        "0",
        -4.429548908795915
      ],
      [
        "▁yemeklerini",
        -9.647257132258368
      ],
      [
        "▁kosuyor",
        -8.93886202837432
      ],
      [
        "▁havaalanı",
        -8.908092441441761
      ],
      [
        "▁hep",
        -5.352880005653416
      ],
      [
        "▁uyandır",
        -8.973804091799792
      ],
      [
        "▁california'da",
        -8.308713773943015
      ],
      [
        "▁duvarlar",
        -9.386909103422365
      ],
      [
        "▁deg",
        -8.900363577093401
      ],
      [
        "▁ga",
        -9.373935020747375
      ],
      [
        "▁kurumlar",
        -9.568285482620283
      ],
      [
        "▁se",
        -7.921130552514964
      ],
      [
        "▁gunluk",
        -9.752278957368022
      ],
      [
        "s",
        -7.578120381583995
      ],
      [
        "ver",
        -9.328905761475522
      ],
      [
        "▁tarafı",
        -8.873916754521687
      ],
      [
        "▁guvence",
        -10.030702236771088
      ],
      [
        "▁sene",
        -7.609387360849591
      ],
      [
        "▁louis'",
        -7.6848737944468155
      ],
      [
        "▁damla",
        -9.206842524637555
      ],
      [
        "00",
        -5.835146209538178
      ],
      [
        "ten",
        -6.001337085484257
      ],
      [
        "▁hatırlıyor",
        -8.983894176264693
      ],
      [
        "▁miami",
        -8.334919779298076
      ],
      [
        "gal",
        -7.36865630030424
      ],
      [
        "likt",
        -6.5852774385037165
      ],
      [
        "▁rezerv",
        -9.026172845798996
      ],
      [
        "▁veril",
        -8.651422521145161
      ],
      [
        "im",
        -7.35369559311153
      ],
      [
        "▁sosyal",
        -7.120592372210748
      ],
      [
        "▁arkadası",
        -9.191533550312586
      ],
      [
        "r",
        -3.585362620231244
      ],
      [
        "▁basım",
        -9.007302168122843
      ],
      [
        "▁nese",
        -9.3530962536617
      ],
      [
        "▁kagıtları",
        -9.72414704364452
      ],
      [
        "▁pır",
        -9.927927321115074
      ],
      [
        "u",
        -5.3681920564335766
      ],
      [
        "▁31",
        -5.9613495351198695
      ],
      [
        "▁kapasite",
        -9.441969772730122
      ],
      [
        "seniz",
        -8.278469743849517
      ],
      [
        "▁kendilerinde",
        -8.111357562464656
      ],
      [
        "▁kalan",
        -8.315480082012462
      ],
      [
        "▁ailece",
        -8.422302921951637
      ],
      [
        "▁armagan",
        -9.96128849415019
      ],
      [
        "▁or",
        -8.424261484288385
      ],
      [
        "▁tatmin",
        -9.682009987460795
      ],
      [
        "▁sel",
        -9.340747207174411
      ],
      [
        "▁leblebi",
        -9.784409119446199
      ],
      [
        "be",
        -8.024463293400848
      ],
      [
        "▁kitap",
        -8.219778592254045
      ],
      [
        "▁masal",
        -9.74177515102914
      ],
      [
        "▁anlamak",
        -9.57985081227829
      ],
      [
        "▁gezi",
        -9.077975957080527
      ],
      [
        "▁yeme",
        -8.511268248748522
      ],
      [
        "▁fotograf",
        -8.598209790831886
      ],
      [
        "▁hanım",
        -7.660419018851054
      ],
      [
        "▁pala",
        -10.027163774906711
      ],
      [
        "▁dua",
        -9.253947174923486
      ],
      [
        "▁1992",
        -7.209051499194875
      ],
      [
        "k",
        -1.4604408798163275
      ],
      [
        "asagı",
        -7.350576247561033
      ],
      [
        "▁cambaz",
        -10.176309289996135
      ],
      [
        "▁eskid",
        -7.508059908398208
      ],
      [
        "ıllı",
        -8.372088614477219
      ],
      [
        "▁roportaj",
        -9.545225690685925
      ],
      [
        "▁bizleri",
        -7.670619926103663
      ],
      [
        "▁isterdi",
        -8.835146579357808
      ],
      [
        "▁fener",
        -9.701303702994359
      ],
      [
        "▁oncesinde",
        -10.001388230872562
      ],
      [
        "▁maliyet",
        -9.389970198934462
      ],
      [
        "▁bu",
        -3.2396197333277525
      ],
      [
        "▁bazı",
        -7.174522301574614
      ],
      [
        "▁on",
        -6.089300112861576
      ],
      [
        "▁zevk",
        -8.696003491938583
      ],
      [
        "▁saygı",
        -8.884589432051769
      ],
      [
        "▁saf",
        -9.595732172082787
      ],
      [
        "▁olan",
        -4.305715080017117
      ],
      [
        "mıslar",
        -8.516242560934442
      ],
      [
        "▁hafif",
        -7.869072630271415
      ],
      [
        "▁dergiler",
        -10.137413200937967
      ],
      [
        "▁bircogunu",
        -8.407429037175746
      ],
      [
        "▁ediliyor",
        -7.876687468298929
      ],
      [
        "▁o",
        -3.956108734297758
      ],
      [
        "▁yanakları",
        -9.761956326264338
      ],
      [
        "▁kaldırdı",
        -8.661956045636629
      ],
      [
        "▁pul",
        -9.900343246757283
      ],
      [
        "rlik",
        -10.218215489745543
      ],
      [
        "▁dc",
        -7.502494331779322
      ],
      [
        "▁ant",
        -9.739259255085045
      ],
      [
        "acagın",
        -9.692622814088317
      ],
      [
        "▁yer",
        -7.371204498805532
      ],
      [
        "▁buyur",
        -8.91523839938762
      ],
      [
        "l",
        -5.464349539545049
      ],
      [
        "▁suren",
        -8.678254924265296
      ],
      [
        "▁baslay",
        -8.40026921577704
      ],
      [
        "im",
        -6.091841997074981
      ],
      [
        "▁ruyalar",
        -10.06126358052391
      ],
      [
        "/",
        -11.25927492062213
      ],
      [
        "▁balıkcı",
        -9.258921993791102
      ],
      [
        "▁olmayacak",
        -8.11804274535196
      ],
      [
        "▁olmad",
        -7.939023621311465
      ],
      [
        "▁degillerdi",
        -5.210354841089645
      ],
      [
        "▁iscilerin",
        -10.081839858487871
      ],
      [
        "ar",
        -8.291577834059105
      ],
      [
        "▁charlotte'",
        -7.562305075097724
      ],
      [
        "▁nevi",
        -9.899124506090569
      ],
      [
        "urekli",
        -6.170784925687602
      ],
      [
        "▁turkiye'y",
        -7.808037361817595
      ],
      [
        "▁inan",
        -10.009015801910461
      ],
      [
        "▁sert",
        -7.1538297241196025
      ],
      [
        "▁kulagım",
        -10.084032812475186
      ],
      [
        "▁tramvay",
        -9.839964701466275
      ],
      [
        "▁nine",
        -9.64072118265808
      ],
      [
        "▁gizli",
        -7.175718993405508
      ],
      [
        "ara",
        -6.535783394481455
      ],
      [
        "▁ramiz",
        -8.214293832917615
      ],
      [
        "▁bırak",
        -7.657082484102785
      ],
      [
        "inda",
        -7.030220148536347
      ],
      [
        "▁onur",
        -9.645832059158476
      ],
      [
        "eli",
        -7.901174086956097
      ],
      [
        "▁pabuc",
        -9.961288504087978
      ],
      [
        "▁t",
        -7.020996493100862
      ],
      [
        "▁fatih",
        -7.956502252507361
      ],
      [
        "▁atıldı",
        -8.845530016698913
      ],
      [
        "▁muzakere",
        -9.051615185622504
      ],
      [
        "▁govde",
        -9.317863410592889
      ],
      [
        "▁baskan",
        -8.311889032106556
      ],
      [
        "k",
        -3.6593738698329776
      ],
      [
        "▁uygulama",
        -8.626917489547575
      ],
      [
        "▁bakıs",
        -8.971038785178763
      ],
      [
        "rek",
        -7.859815931954515
      ],
      [
        "▁personeller",
        -6.953658375263141
      ],
      [
        "az",
        -8.895652220484271
      ],
      [
        "atlı",
        -7.8514276154019305
      ],
      [
        "▁teksas",
        -8.360013284145381
      ],
      [
        "▁karnı",
        -9.805327314940376
      ],
      [
        "▁huner",
        -10.176409522523873
      ],
      [
        "▁nakit",
        -8.616343267626469
      ],
      [
        "▁bilim",
        -7.662561484827331
      ],
      [
        "▁da",
        -6.5733829391589484
      ],
      [
        "▁sofa",
        -10.02798537911513
      ],
      [
        "▁abd'",
        -7.5057070778701505
      ],
      [
        "▁cap",
        -8.722198952302024
      ],
      [
        "▁hayatımda",
        -10.030868283166498
      ],
      [
        "▁hastalıkları",
        -9.998876992084204
      ],
      [
        "▁salı",
        -7.34254281010433
      ],
      [
        "▁yarısma",
        -9.765107715714581
      ],
      [
        "ustu",
        -8.194458491228332
      ],
      [
        "▁emri",
        -10.008130402691323
      ],
      [
        "▁iletisim",
        -8.906791306865296
      ],
      [
        "▁saatleri",
        -9.435544304845438
      ],
      [
        "▁tedbir",
        -9.555498809352807
      ],
      [
        "▁mum",
        -9.80137345007681
      ],
      [
        "le",
        -7.2319893104787205
      ],
      [
        "▁harita",
        -9.681819738076728
      ],
      [
        "▁keten",
        -10.176613984996305
      ],
      [
        "▁yukselme",
        -10.106342076184713
      ],
      [
        "000",
        -5.453798378371451
      ],
      [
        "▁gene",
        -7.985532383849426
      ],
      [
        "▁donu",
        -8.515294939942681
      ],
      [
        "▁yorum",
        -7.473244579711905
      ],
      [
        "▁konusunda",
        -7.275564498343578
      ],
      [
        "▁saman",
        -9.683002646630714
      ],
      [
        "sal",
        -9.743346260171108
      ],
      [
        "▁milli",
        -6.88701508521391
      ],
      [
        "▁felc",
        -10.176406429104931
      ],
      [
        "▁cirkin",
        -8.643477938749065
      ],
      [
        "▁bazıları",
        -5.5918974405545265
      ],
      [
        "▁kurdu",
        -8.16913111780464
      ],
      [
        "▁leri",
        -8.23078403741966
      ],
      [
        "asında",
        -8.166110055285735
      ],
      [
        "▁baslangıcı",
        -9.83426280203992
      ],
      [
        "▁aylık",
        -8.605405261884497
      ],
      [
        "▁azınlık",
        -9.475888231649405
      ],
      [
        "▁halat",
        -9.476720170732563
      ],
      [
        "▁il",
        -6.111403265351347
      ],
      [
        "▁aldi",
        -7.968594690533367
      ],
      [
        "▁bostan",
        -9.839977317846747
      ],
      [
        "▁olmayan",
        -8.413891605311811
      ],
      [
        "▁al",
        -8.360768270527352
      ],
      [
        "▁kimse",
        -5.611770680556417
      ],
      [
        "▁arac",
        -8.926904700518058
      ],
      [
        "▁onunde",
        -7.891866653735921
      ],
      [
        "▁ada",
        -9.26697282358467
      ],
      [
        "▁gordu",
        -6.480807974818351
      ],
      [
        "0'",
        -9.29357026099132
      ],
      [
        "▁kalı",
        -9.613261888813568
      ],
      [
        "▁kurumları",
        -9.700618830011411
      ],
      [
        "00'de",
        -9.816987984054753
      ],
      [
        "▁ifade",
        -7.52079335516036
      ],
      [
        "ser",
        -9.454922673236004
      ],
      [
        "her",
        -6.241321517692774
      ],
      [
        "▁dolasır",
        -8.89996157177276
      ],
      [
        "▁gorevini",
        -9.710729246234315
      ],
      [
        "ele",
        -12.03594578210268
      ],
      [
        "▁in",
        -8.736883981384642
      ],
      [
        "▁geciyor",
        -7.629980189897767
      ],
      [
        "▁yapı",
        -8.070770407087547
      ],
      [
        "▁bilme",
        -8.736281404901153
      ],
      [
        "ice",
        -8.482527239851917
      ],
      [
        "▁milwaukee'de",
        -6.77260024927041
      ],
      [
        "▁birinde",
        -6.609824599980316
      ],
      [
        "lerinden",
        -7.266441926719326
      ],
      [
        "▁et",
        -8.321809319540604
      ],
      [
        "za",
        -8.319808492142993
      ],
      [
        "▁onları",
        -4.32931003779788
      ],
      [
        "▁finans",
        -8.703959539085703
      ],
      [
        "▁nedenini",
        -10.092635857836182
      ],
      [
        "▁aclık",
        -9.916986981719173
      ],
      [
        "cilikte",
        -9.984003370183313
      ],
      [
        "▁babası",
        -8.400178371391771
      ],
      [
        "▁davetiye",
        -10.1764769020035
      ],
      [
        "▁montreal'da",
        -8.263105489212075
      ],
      [
        "▁lisan",
        -9.984796513717747
      ],
      [
        "mada",
        -6.606015577227643
      ],
      [
        "▁efsane",
        -9.588703947546101
      ],
      [
        "▁sonrası",
        -9.042567599840298
      ],
      [
        "lastı",
        -8.414492341744435
      ],
      [
        "▁nerede",
        -6.062949956164146
      ],
      [
        "▁para",
        -6.293343894658395
      ],
      [
        "▁kap",
        -8.457335684643596
      ],
      [
        "▁sok",
        -8.819062772029946
      ],
      [
        "▁kasım",
        -9.254011791240673
      ],
      [
        "▁ozgu",
        -7.912709494579628
      ],
      [
        "▁gosteri",
        -8.748069987395738
      ],
      [
        "gın",
        -7.896431926828197
      ],
      [
        "▁bulunuyordu",
        -8.795599811602347
      ],
      [
        "▁zeka",
        -9.556666898656779
      ],
      [
        "▁yapıyordu",
        -8.691621262236108
      ],
      [
        "▁artı",
        -5.0609734598905
      ],
      [
        "1",
        -11.802702672349785
      ],
      [
        "▁katil",
        -9.7630288171956
      ],
      [
        "▁verecek",
        -8.242449862483065
      ],
      [
        "lugu",
        -8.419353111113764
      ],
      [
        "▁sarsıntı",
        -9.681782736625886
      ],
      [
        "▁yapmaya",
        -8.994102931319333
      ],
      [
        "▁harcama",
        -9.373508906833392
      ],
      [
        "▁yavas",
        -7.42590430231164
      ],
      [
        "▁tac",
        -9.743094837817933
      ],
      [
        "▁calismasin",
        -9.972070510621354
      ],
      [
        "▁gorevlisi",
        -9.566346764713819
      ],
      [
        "yla",
        -6.609948332917524
      ],
      [
        "zu",
        -9.062179647118034
      ],
      [
        "▁izleyici",
        -9.898887643172007
      ],
      [
        "▁yem",
        -10.057358476085383
      ],
      [
        "meyi",
        -8.10650288274687
      ],
      [
        "▁masasında",
        -10.110744340670944
      ],
      [
        "▁tercih",
        -7.236352838464994
      ],
      [
        "▁ilgileniyor",
        -8.600439255661284
      ],
      [
        "▁yukarı",
        -9.634287863495699
      ],
      [
        "▁kaynagı",
        -9.63653232503658
      ],
      [
        "▁rusvet",
        -10.027975718338798
      ],
      [
        "▁sorunlarını",
        -10.086896771127213
      ],
      [
        "▁urun",
        -8.635556427418317
      ],
      [
        "erek",
        -4.620556824828748
      ],
      [
        "▁cumle",
        -8.79203147997116
      ],
      [
        "▁ust",
        -8.814400935681396
      ],
      [
        "▁etmekte",
        -8.074015997544667
      ],
      [
        "▁sesleri",
        -9.011988703695543
      ],
      [
        "▁davran",
        -8.567626557843383
      ],
      [
        "▁partisi",
        -9.291229875328497
      ],
      [
        "▁siparis",
        -9.425891822123686
      ],
      [
        "▁zafer",
        -9.47418788900065
      ],
      [
        "▁efendim",
        -9.966582973674122
      ],
      [
        "125",
        -7.299233959202321
      ],
      [
        "▁uyarı",
        -9.424327231269922
      ],
      [
        "▁board",
        -8.29110027533374
      ],
      [
        "erken",
        -6.4253651959846225
      ],
      [
        "▁mudur",
        -8.644647032941025
      ],
      [
        "▁nedenle",
        -8.868026099633237
      ],
      [
        "▁baz",
        -8.954841698433572
      ],
      [
        "▁varlık",
        -9.285960495131874
      ],
      [
        "▁boslugu",
        -9.784624660640539
      ],
      [
        "▁guc",
        -8.484829431853754
      ],
      [
        "▁dilim",
        -9.008356897369895
      ],
      [
        "gil",
        -7.604654609424275
      ],
      [
        "▁alakal",
        -8.205748665914669
      ],
      [
        "▁ar",
        -8.627014902641005
      ],
      [
        "▁kendimi",
        -5.7344618553965745
      ],
      [
        "▁tam",
        -6.196690295557846
      ],
      [
        "▁kurt",
        -8.100519537105876
      ],
      [
        "kan",
        -9.210623601904185
      ],
      [
        "▁gorunmuyor",
        -8.817720247176707
      ],
      [
        "▁alay",
        -9.25258224538593
      ],
      [
        "▁suyu",
        -8.278932972006722
      ],
      [
        "▁tuketici",
        -8.829029019490761
      ],
      [
        "20",
        -7.338029211449448
      ],
      [
        "▁iceriyor",
        -7.874679379361867
      ],
      [
        "▁klima",
        -9.731789348372294
      ],
      [
        "▁arastırma",
        -8.484233988096456
      ],
      [
        "▁ortamı",
        -10.0235698122208
      ],
      [
        "▁kom",
        -8.406286050718897
      ],
      [
        "▁",
        -3.32808512111051
      ],
      [
        "▁pap",
        -9.965340653329175
      ],
      [
        "▁pahalı",
        -8.022469362426737
      ],
      [
        "▁etkisini",
        -9.925766945060985
      ],
      [
        "▁ettigi",
        -8.456570324960014
      ],
      [
        "▁kızı",
        -8.362776734903555
      ],
      [
        "▁geliyor",
        -6.322582259374516
      ],
      [
        "▁bizler",
        -6.884598609562019
      ],
      [
        "e",
        -3.054524576694324
      ],
      [
        "▁yonde",
        -9.838663524783215
      ],
      [
        "tıgını",
        -9.655417311116329
      ],
      [
        "▁tek",
        -9.367879712339137
      ],
      [
        "▁baba",
        -7.87070812791602
      ],
      [
        "▁agırlık",
        -9.839970369663629
      ],
      [
        "▁kimi",
        -5.800937397148718
      ],
      [
        "ip",
        -6.160296091166794
      ],
      [
        "▁transfer",
        -9.784409358523284
      ],
      [
        "▁boya",
        -8.699390086872718
      ],
      [
        "▁bedel",
        -9.627050437823856
      ],
      [
        "▁gozlu",
        -8.451901347001293
      ],
      [
        "▁louis",
        -8.193652694080182
      ],
      [
        "▁ekledi",
        -7.413772003440981
      ],
      [
        "me",
        -5.2378659416475815
      ],
      [
        "▁ses",
        -8.142506613852813
      ],
      [
        "▁kos",
        -8.476965782490117
      ],
      [
        "▁yan",
        -7.701764539820724
      ],
      [
        "▁temiz",
        -6.89300580491289
      ],
      [
        "iba",
        -7.213093955656788
      ],
      [
        "▁sebebi",
        -8.884569232965749
      ],
      [
        "▁reklam",
        -8.209799233449308
      ],
      [
        "▁gosterge",
        -9.557040616335092
      ],
      [
        "▁grev",
        -9.84030795842964
      ],
      [
        "▁yan",
        -8.784985264815456
      ],
      [
        "▁l.",
        -8.244531548830729
      ],
      [
        "▁temsil",
        -8.876015035930902
      ],
      [
        "▁kur",
        -7.696678492179027
      ],
      [
        "ro",
        -9.329657738259744
      ],
      [
        "▁yen'",
        -7.390874940176632
      ],
      [
        "▁pesinde",
        -9.399697435476128
      ],
      [
        "leri",
        -6.24116818408501
      ],
      [
        "ılmıs",
        -8.955605062090278
      ],
      [
        "▁arabalar",
        -9.244282297657055
      ],
      [
        "▁emlak",
        -9.634261564851926
      ],
      [
        "▁basamak",
        -10.034255685134978
      ],
      [
        "▁ac",
        -7.88921618362037
      ],
      [
        "▁yuru",
        -8.112127916766505
      ],
      [
        "lerden",
        -7.151203912299483
      ],
      [
        "▁almadi",
        -8.49758417346879
      ],
      [
        "▁kullanıl",
        -8.376072105059265
      ],
      [
        "▁gozlem",
        -9.21909786641763
      ],
      [
        "▁hizmet",
        -5.988713322378943
      ],
      [
        "▁sektorunde",
        -9.905807788252615
      ],
      [
        "▁inceleme",
        -9.46358696690262
      ],
      [
        "name",
        -9.697203665670155
      ],
      [
        "▁ahlak",
        -8.699058204417298
      ],
      [
        "▁birbirimizi",
        -7.931464907644399
      ],
      [
        "▁deve",
        -9.61857488244406
      ],
      [
        "▁mer",
        -9.650884615613794
      ],
      [
        "▁limuzin",
        -9.78440932826958
      ],
      [
        "elik",
        -7.316834905725905
      ],
      [
        "▁teneke",
        -9.839971889310402
      ],
      [
        "ılır",
        -8.908554240632471
      ],
      [
        "▁koymak",
        -10.125614594233852
      ],
      [
        "▁d",
        -7.195383266702848
      ],
      [
        "▁demekti",
        -8.065332888771511
      ],
      [
        "▁acente",
        -9.221023903206838
      ],
      [
        "▁muht",
        -8.652134073756198
      ],
      [
        "▁birl",
        -8.456773045245946
      ],
      [
        "▁meyve",
        -8.741473493392682
      ],
      [
        "▁ted",
        -8.684857678773053
      ],
      [
        "▁41",
        -7.431141876383894
      ],
      [
        "ton",
        -7.6226007165899015
      ],
      [
        "▁tutma",
        -9.428853006966246
      ],
      [
        "▁tasfiye",
        -10.027955222793066
      ],
      [
        "▁hafta",
        -6.995095917046984
      ],
      [
        "▁musterilerin",
        -10.165017494786618
      ],
      [
        "▁kafes",
        -9.636981518048827
      ],
      [
        "ıp",
        -5.680099940697676
      ],
      [
        "gına",
        -9.474672855815495
      ],
      [
        "f",
        -8.77684154095741
      ],
      [
        "▁yapmıstı",
        -8.57710478024154
      ],
      [
        "▁gorus",
        -8.981896418212601
      ],
      [
        "▁bulundu",
        -7.4509989034172435
      ],
      [
        "dıklarını",
        -9.083449298985379
      ],
      [
        "ya",
        -6.624486546172472
      ],
      [
        "▁hissesi",
        -8.84984704461063
      ],
      [
        "▁kirpikleri",
        -9.899888494819841
      ],
      [
        "h",
        -8.209950746419374
      ],
      [
        "▁1.7",
        -6.892164186865186
      ],
      [
        "▁bulgur",
        -10.02873969555609
      ],
      [
        "▁sırtı",
        -10.011895749845706
      ],
      [
        "▁durumda",
        -7.989172410941645
      ],
      [
        "ydi",
        -9.939449298313436
      ],
      [
        "▁oluyor",
        -6.656929846062734
      ],
      [
        "▁acılıs",
        -9.545723010680433
      ],
      [
        "ili",
        -8.256585716571182
      ],
      [
        "▁or",
        -8.60131286978149
      ],
      [
        ",",
        -11.259274920662083
      ],
      [
        "lıydı",
        -8.728352446842617
      ],
      [
        "▁guzellik",
        -9.257476017619823
      ],
      [
        "▁yasanan",
        -8.872996337712346
      ],
      [
        "yacagını",
        -9.870692076268401
      ],
      [
        "▁nam",
        -9.898878174741265
      ],
      [
        "▁olasılıgı",
        -9.961307793446382
      ],
      [
        "v",
        -8.012914494879144
      ],
      [
        "'te",
        -7.4383271455888815
      ],
      [
        "▁ates",
        -8.046196687550465
      ],
      [
        "▁dusus",
        -8.08567722667367
      ],
      [
        "▁o",
        -8.092435956467884
      ],
      [
        "▁kenarın",
        -10.020136169597203
      ],
      [
        "cıların",
        -9.389241372713865
      ],
      [
        "▁alıcı",
        -9.204266343929657
      ],
      [
        "iyeti",
        -9.413975162224853
      ],
      [
        "▁calısma",
        -8.10203209878561
      ],
      [
        "▁arıyoru",
        -8.60302325214272
      ],
      [
        "▁kimsey",
        -6.6878994019356295
      ],
      [
        "▁cevabı",
        -9.90878325412876
      ],
      [
        "b",
        -8.138833591377013
      ],
      [
        "me",
        -6.988268616501213
      ],
      [
        "▁merkez",
        -7.544822209243105
      ],
      [
        "▁arttır",
        -8.90934981173523
      ],
      [
        "▁yapılmıs",
        -8.707561720268505
      ],
      [
        "gına",
        -8.805672343527606
      ],
      [
        "etkili",
        -8.631071817142605
      ],
      [
        "ne",
        -7.295935539686148
      ],
      [
        "ı'nda",
        -9.982245808995911
      ],
      [
        "▁ak",
        -7.232676296493376
      ],
      [
        "▁bugun",
        -8.505421484617202
      ],
      [
        "▁yardımcısı",
        -8.553353577127556
      ],
      [
        "iz",
        -8.183355803138426
      ],
      [
        "▁gorduk",
        -8.204857589315335
      ],
      [
        "▁merkezinde",
        -9.548360426574545
      ],
      [
        "▁",
        -1.6692032132785002
      ],
      [
        "lık",
        -6.994200312939683
      ],
      [
        "i",
        -5.561724808163408
      ],
      [
        "▁ayaklarını",
        -9.479291333207899
      ],
      [
        "▁beyaz",
        -6.453228638200443
      ],
      [
        "▁arastırmacılar",
        -9.92528903036257
      ],
      [
        "▁kendimde",
        -7.695269369691355
      ],
      [
        "nin",
        -8.467346327469443
      ],
      [
        "▁taksi",
        -9.093616646325506
      ],
      [
        "▁guzeli",
        -9.840031321485313
      ],
      [
        "de",
        -8.341909469523005
      ],
      [
        "▁tadim",
        -9.902383224581786
      ],
      [
        "▁analiz",
        -9.420752979345163
      ],
      [
        "▁30",
        -5.020739400265071
      ],
      [
        "▁4",
        -9.04055341469497
      ],
      [
        "▁komisyon",
        -9.60172421287458
      ],
      [
        "▁matematik",
        -9.503559129858214
      ],
      [
        "▁uluslararası",
        -9.731777613325441
      ],
      [
        "▁isle",
        -10.030881087386613
      ],
      [
        "▁dusunmuyor",
        -7.909101768927735
      ],
      [
        "▁yaklası",
        -6.023838545224694
      ],
      [
        "erine",
        -7.345133478854348
      ],
      [
        "▁havalimanında",
        -10.14685809650385
      ],
      [
        "▁elbet",
        -6.771714475515565
      ],
      [
        "ti",
        -6.333955093263915
      ],
      [
        "▁girme",
        -9.721543412487161
      ],
      [
        "▁gel",
        -10.166042678300544
      ],
      [
        "▁kulagın",
        -9.892197690628596
      ],
      [
        "▁bugunu",
        -10.023601099324305
      ],
      [
        "▁kelime",
        -8.390142625726128
      ],
      [
        "▁cozme",
        -10.176565007971934
      ],
      [
        "▁re",
        -8.463649692067214
      ],
      [
        "▁maden",
        -9.445451685948907
      ],
      [
        "▁soyle",
        -7.605343412952941
      ],
      [
        "▁siyah",
        -10.028027696354489
      ],
      [
        "inin",
        -7.421017385754958
      ],
      [
        "▁ataturk'u",
        -7.98641216010333
      ],
      [
        "z",
        -7.384597776793819
      ],
      [
        "hi",
        -10.103717129124831
      ],
      [
        "▁lar",
        -7.76677043803274
      ],
      [
        "▁sp",
        -9.700462861705388
      ],
      [
        "▁kıza",
        -9.463535017296413
      ],
      [
        "▁philadelphia",
        -6.792612375923283
      ],
      [
        "▁arttı",
        -7.288317713889354
      ],
      [
        "▁gorme",
        -8.737709247874779
      ],
      [
        "▁alnı",
        -9.824864442680468
      ],
      [
        "▁gunesin",
        -9.638130323888069
      ],
      [
        "▁murat",
        -7.8009368883497014
      ],
      [
        "▁ora",
        -8.799534576243087
      ],
      [
        "▁ciftciler",
        -9.76095616239001
      ],
      [
        "▁gunah",
        -9.316180005601641
      ],
      [
        "▁anketi",
        -9.918143064014307
      ],
      [
        "▁makam",
        -9.326351905680895
      ],
      [
        "leyici",
        -10.081039786926715
      ],
      [
        "rak",
        -3.383613678221411
      ],
      [
        "▁politikası",
        -9.789783290770517
      ],
      [
        "▁cam",
        -8.42113710003153
      ],
      [
        "m",
        -7.306008514562447
      ],
      [
        "▁evren",
        -9.80129714978284
      ],
      [
        "▁yolculuk",
        -9.026779404903621
      ],
      [
        "▁etme",
        -7.813199608203826
      ],
      [
        "▁adl",
        -8.700475544561737
      ],
      [
        "onluk",
        -8.403771992470638
      ],
      [
        "mla",
        -9.499298368720792
      ],
      [
        "▁sek",
        -9.644614060358743
      ],
      [
        "▁sartlar",
        -10.098468827187261
      ],
      [
        "▁otur",
        -8.64822380741516
      ],
      [
        "▁eksikligi",
        -9.192433028384936
      ],
      [
        "▁petersburg'",
        -7.199759637875763
      ],
      [
        "▁patlıcan",
        -9.555015586494136
      ],
      [
        "▁odasında",
        -9.619762070545278
      ],
      [
        "▁196",
        -7.2077126022460485
      ],
      [
        "▁yeter",
        -9.396350735354401
      ],
      [
        "▁sim",
        -9.867616385383446
      ],
      [
        "▁di",
        -4.275857339641559
      ],
      [
        "▁bakim",
        -8.692247591030657
      ],
      [
        "hen",
        -7.322566510349346
      ],
      [
        "▁bunun",
        -4.410861678317182
      ],
      [
        "▁beklentileri",
        -9.906766505806559
      ],
      [
        "▁tanı",
        -9.95193602062672
      ],
      [
        "▁konforu",
        -9.16550654484513
      ],
      [
        "▁mar",
        -9.941042940090952
      ],
      [
        "▁edi",
        -9.82311795153509
      ],
      [
        "▁ortada",
        -9.358930550623612
      ],
      [
        "de",
        -6.946567213525358
      ],
      [
        "tıp",
        -7.593361442092817
      ],
      [
        "▁rezervasyonlar",
        -9.897026042573076
      ],
      [
        "▁konferans",
        -9.545225687760327
      ],
      [
        "▁spor",
        -8.760450205795337
      ],
      [
        "sı",
        -7.695684531623617
      ],
      [
        "▁buluyor",
        -8.805377919857353
      ],
      [
        "▁yeter",
        -7.718708084894755
      ],
      [
        "▁defter",
        -8.77389489519267
      ],
      [
        "▁orta",
        -7.215193928687245
      ],
      [
        "▁zavallı",
        -10.17630655891124
      ],
      [
        "▁gonul",
        -8.685782438594025
      ],
      [
        "sın",
        -6.587334162141272
      ],
      [
        "▁isteyen",
        -8.971944350223403
      ],
      [
        "▁iskele",
        -9.161324566407522
      ],
      [
        "▁kir",
        -8.301632173148072
      ],
      [
        "▁hay",
        -7.957898060284682
      ],
      [
        "▁gecmis",
        -8.245109124772139
      ],
      [
        "▁kaynakları",
        -10.082680496103205
      ],
      [
        "▁kaliforniya",
        -7.288443125848875
      ],
      [
        "baz",
        -7.624916523494468
      ],
      [
        "▁gitmeli",
        -8.726426822934037
      ],
      [
        "gu",
        -8.747600390828552
      ],
      [
        "▁tahta",
        -8.540975213102287
      ],
      [
        "▁indianapolis'te",
        -7.020105383147481
      ],
      [
        "▁deyi",
        -8.076753344353833
      ],
      [
        "▁cek",
        -8.01119483231206
      ],
      [
        "▁merak",
        -8.34823750861066
      ],
      [
        "▁ederi",
        -5.850964208446732
      ],
      [
        "▁arz",
        -8.692157349785493
      ],
      [
        "▁ulkemiz",
        -9.720805320377922
      ],
      [
        "▁ihmal",
        -10.027955926792348
      ],
      [
        "▁stokları",
        -9.436064315956996
      ],
      [
        "▁zincir",
        -9.268361164910903
      ],
      [
        "▁islemler",
        -8.939307499453506
      ],
      [
        "▁dakika",
        -7.926822097218136
      ],
      [
        "▁basarı",
        -8.748452981107661
      ],
      [
        "▁kaybı",
        -9.112788505815248
      ],
      [
        "▁ucusu",
        -6.911962657851482
      ],
      [
        "▁gidecek",
        -8.892196047842369
      ],
      [
        "▁sandıgı",
        -9.610750263166949
      ],
      [
        "▁zorunlu",
        -8.250197031507545
      ],
      [
        "di",
        -6.312665811588268
      ],
      [
        "▁temmuz'da",
        -7.093763077525752
      ],
      [
        "▁yaprak",
        -9.534795903407524
      ],
      [
        "agı",
        -8.668232740265001
      ],
      [
        "▁phoenix'",
        -7.466919520995885
      ],
      [
        "▁ro",
        -9.849057067141707
      ],
      [
        "▁yararlanmadi",
        -8.984007567138288
      ],
      [
        "▁aklım",
        -8.979274193437202
      ],
      [
        "▁okuma",
        -9.242414284471954
      ],
      [
        "aval",
        -8.662231307535361
      ],
      [
        "▁macın",
        -9.908899552062785
      ],
      [
        "▁kan",
        -7.826233488713776
      ],
      [
        "▁sık",
        -9.062557474228768
      ],
      [
        "▁kanat",
        -9.50661046015393
      ],
      [
        "izi",
        -9.399207472400754
      ],
      [
        "▁olimpiyat",
        -10.099383442451256
      ],
      [
        "▁pi",
        -8.667031882608265
      ],
      [
        "yin",
        -7.704841574067467
      ],
      [
        "▁adım",
        -7.970055869561174
      ],
      [
        "▁sozun",
        -9.670088449313715
      ],
      [
        "▁sahi",
        -9.408194958898125
      ],
      [
        "▁bunda",
        -7.388617737186985
      ],
      [
        "▁degil",
        -2.538634238983531
      ],
      [
        "▁domuz",
        -10.043087244351216
      ],
      [
        "▁bor",
        -9.639868677175507
      ],
      [
        "▁malları",
        -10.039664449160039
      ],
      [
        "▁yap",
        -8.16121320876132
      ],
      [
        "▁hicbirini",
        -7.414469362230415
      ],
      [
        "ip",
        -7.673280800405093
      ],
      [
        "▁oteldi",
        -7.362574892416137
      ],
      [
        "▁ber",
        -9.757124592665104
      ],
      [
        "▁hazine",
        -8.143501116790205
      ],
      [
        "nce",
        -8.560764248985508
      ],
      [
        "▁acılıyor",
        -8.87692131228097
      ],
      [
        "▁vapur",
        -8.928723133369974
      ],
      [
        "ki",
        -7.892649406450822
      ],
      [
        "▁yapil",
        -8.217889134525425
      ],
      [
        "▁dogru",
        -7.603731796977202
      ],
      [
        "d",
        -6.042528314637639
      ],
      [
        "▁don",
        -8.594968907651552
      ],
      [
        "ca",
        -4.628700976346801
      ],
      [
        "▁ote",
        -8.811459287778568
      ],
      [
        "uz",
        -7.511655463535279
      ],
      [
        "▁yapması",
        -10.080699850569536
      ],
      [
        "▁sebep",
        -8.64232238377388
      ],
      [
        "▁s",
        -6.872829076261193
      ],
      [
        "▁gelecek",
        -8.722608883497415
      ],
      [
        "▁endustri",
        -8.662054579652594
      ],
      [
        "de",
        -6.701267329750672
      ],
      [
        "ce",
        -8.21524495305074
      ],
      [
        "▁dustugunu",
        -10.17673878881973
      ],
      [
        "▁olur",
        -6.171130023010019
      ],
      [
        "▁eylul",
        -8.520241678580437
      ],
      [
        "▁milliyetci",
        -9.998685687496817
      ],
      [
        "▁eniste",
        -10.097913952302353
      ],
      [
        "▁sanatın",
        -9.911929129849161
      ],
      [
        "▁daglar",
        -9.389478689073899
      ],
      [
        "▁ekim",
        -7.390394719216669
      ],
      [
        "▁kesinti",
        -9.672130108627927
      ],
      [
        "▁durumunda",
        -9.20807689804445
      ],
      [
        "▁issizlik",
        -10.034007605394846
      ],
      [
        "▁an",
        -7.253157750539298
      ],
      [
        "▁tasarı",
        -9.86652951981812
      ],
      [
        "▁alanında",
        -9.576566600744552
      ],
      [
        "▁cırpı",
        -10.028100677773606
      ],
      [
        "1'",
        -9.638300116710317
      ],
      [
        "▁onda",
        -8.058578171363468
      ],
      [
        "▁ucun",
        -9.761221787834884
      ],
      [
        "▁firma",
        -8.373371276573398
      ],
      [
        "▁siyah",
        -6.842527925617158
      ],
      [
        "▁odamiz",
        -8.44784783581612
      ],
      [
        "▁yuzum",
        -9.389348011833787
      ],
      [
        "▁arkadasını",
        -9.84883664501737
      ],
      [
        "▁oldugu",
        -6.514803343798484
      ],
      [
        "▁anket",
        -7.8998005649309455
      ],
      [
        "▁kisilerin",
        -9.673796189139086
      ],
      [
        "▁coban",
        -9.132813731911387
      ],
      [
        "▁iki",
        -9.017387623429535
      ],
      [
        "▁ual",
        -7.259611041686999
      ],
      [
        "mum",
        -8.30973621921525
      ],
      [
        "▁degisiklik",
        -9.132239279850799
      ],
      [
        "▁veren",
        -8.347787183855221
      ],
      [
        "▁caz",
        -10.17763445491045
      ],
      [
        "▁isleme",
        -9.727121405115744
      ],
      [
        "▁sistemini",
        -10.010398046037011
      ],
      [
        "▁oyuncular",
        -9.597778635778962
      ],
      [
        "▁dısisleri",
        -9.731778896578733
      ],
      [
        "▁bankacılık",
        -9.734997260303432
      ],
      [
        "▁basladı",
        -5.910406136442482
      ],
      [
        "▁karayolu",
        -7.722123478142257
      ],
      [
        "▁haziran'da",
        -7.404441858125582
      ],
      [
        "cı",
        -7.241674452543847
      ],
      [
        "▁kazancları",
        -9.3375384615754
      ],
      [
        "fes",
        -8.44847588586754
      ],
      [
        "▁oncelik",
        -9.802085881887967
      ],
      [
        "9",
        -4.905248477984599
      ],
      [
        "▁say",
        -8.601413518006044
      ],
      [
        "▁6",
        -4.8583629380426645
      ],
      [
        "▁hizmette",
        -9.025795269934875
      ],
      [
        "▁tet",
        -9.971693668032536
      ],
      [
        "▁hakkı",
        -8.527726883230859
      ],
      [
        "▁angeles'",
        -7.507348018654785
      ],
      [
        "▁oy",
        -7.883383855276201
      ],
      [
        "▁hepsini",
        -5.598394737968925
      ],
      [
        "▁yapmadı",
        -8.010417327709973
      ],
      [
        "▁fransız",
        -8.492526700649357
      ],
      [
        "a",
        -12.802702672349763
      ],
      [
        "▁bo",
        -7.697034901542983
      ],
      [
        "▁bosa",
        -9.660681913655566
      ],
      [
        "ms",
        -9.42338916521622
      ],
      [
        "▁kendileri",
        -6.4584490618068315
      ],
      [
        "▁esi",
        -9.3664011834256
      ],
      [
        "▁getiri",
        -8.53269356888715
      ],
      [
        "▁etki",
        -8.564285244318832
      ],
      [
        "▁kurtul",
        -8.990949382634968
      ],
      [
        "▁durak",
        -10.029036410520947
      ],
      [
        "taki",
        -7.906016675487488
      ],
      [
        "▁satıcı",
        -9.307307380834043
      ],
      [
        "▁hali",
        -7.3462464573427555
      ],
      [
        "▁cesitliligi",
        -9.254015107313347
      ],
      [
        "▁paranın",
        -9.397819787769821
      ],
      [
        "▁girisim",
        -8.676098862616607
      ],
      [
        "c",
        -6.430645875655387
      ],
      [
        "▁hat",
        -6.71359374354625
      ],
      [
        "▁gorustu",
        -7.861515663917695
      ],
      [
        "▁dugun",
        -8.991491647760038
      ],
      [
        "▁sovyet",
        -9.160692106861035
      ],
      [
        "ki",
        -5.536838665843374
      ],
      [
        "larını",
        -8.192570554273463
      ],
      [
        "▁sa",
        -4.233276091639059
      ],
      [
        "▁oray",
        -9.330200629699952
      ],
      [
        "▁doktor",
        -8.647910800182665
      ],
      [
        "▁yorgunluk",
        -9.731777540758229
      ],
      [
        "▁demokrat",
        -7.983744257892762
      ],
      [
        "▁olma",
        -8.327551674180558
      ],
      [
        "▁yolu",
        -8.024695299742799
      ],
      [
        "▁cocugunu",
        -9.73515356171144
      ],
      [
        "▁hanimla",
        -9.164582970068043
      ],
      [
        "▁guler",
        -8.99214286523438
      ],
      [
        "▁havuzu",
        -7.429266137924247
      ],
      [
        "uyor",
        -7.038211118422899
      ],
      [
        "▁sezlong",
        -9.634158493702046
      ],
      [
        "▁ogretmenim",
        -10.074142777622002
      ],
      [
        "▁bell",
        -8.087504603383183
      ],
      [
        "▁45",
        -6.717907508711445
      ],
      [
        "la",
        -6.132318751279013
      ],
      [
        "▁va",
        -8.405399899478365
      ],
      [
        "▁verme",
        -8.750194263942463
      ],
      [
        "▁yurek",
        -9.634159250014145
      ],
      [
        "▁yapma",
        -8.262775913633625
      ],
      [
        "▁gecis",
        -9.789931944993235
      ],
      [
        "▁donanma",
        -9.9612952389662
      ],
      [
        "▁hissedarlar",
        -10.075795892286447
      ],
      [
        "▁kazanım",
        -10.132831296198516
      ],
      [
        "▁surucu",
        -9.687413232304921
      ],
      [
        "▁cıktı",
        -6.124531541200812
      ],
      [
        "▁basarılar",
        -10.084661539777777
      ],
      [
        "▁onc",
        -8.378922882909404
      ],
      [
        "▁musteriler",
        -8.983354635122309
      ],
      [
        "▁ya",
        -4.634008824959308
      ],
      [
        "▁istedigim",
        -8.393325925289368
      ],
      [
        "▁gelme",
        -8.405286920219678
      ],
      [
        "▁kasa",
        -9.316510407630513
      ],
      [
        "▁ve",
        -9.32429463680366
      ],
      [
        "▁vermek",
        -7.866382237267987
      ],
      [
        "▁yapılaca",
        -7.3771974283079125
      ],
      [
        "la",
        -8.064272540337956
      ],
      [
        "▁baslar",
        -8.104971779029714
      ],
      [
        "▁tıp",
        -9.961347685408864
      ],
      [
        "▁toplum",
        -8.571312796715956
      ],
      [
        "ıp",
        -6.402716634388267
      ],
      [
        "▁seyirci",
        -9.580982662220894
      ],
      [
        "itap",
        -9.32509797271633
      ],
      [
        "▁bana",
        -9.134356025712819
      ],
      [
        "ili",
        -6.820299547520811
      ],
      [
        "▁ingilizce",
        -8.342281573157743
      ],
      [
        "▁kanal",
        -9.50695513549429
      ],
      [
        "angır",
        -10.03363671925797
      ],
      [
        "▁acı",
        -8.12523406608582
      ],
      [
        "llah",
        -9.793134730327711
      ],
      [
        "▁yuruyus",
        -9.731806273878513
      ],
      [
        "▁bolumu",
        -8.824032392199864
      ],
      [
        "▁igne",
        -9.077931516598774
      ],
      [
        "ince",
        -8.412645061292471
      ],
      [
        "ktan",
        -8.160806335935046
      ],
      [
        "o",
        -7.261688420079819
      ],
      [
        "▁bilgisi",
        -9.644954691250906
      ],
      [
        "l",
        -5.218757669442791
      ],
      [
        "▁doldurdu",
        -8.373924564541808
      ],
      [
        "▁fayda",
        -9.023170836720475
      ],
      [
        "▁yana",
        -7.967408395125522
      ],
      [
        "▁degerini",
        -9.764085255479827
      ],
      [
        "▁medya",
        -9.222455595441172
      ],
      [
        "▁ureticiler",
        -10.105276002354413
      ],
      [
        "▁imalat",
        -9.931051704375001
      ],
      [
        "▁cesitleri",
        -9.024489889078694
      ],
      [
        "▁naci",
        -7.836373764627838
      ],
      [
        "▁80",
        -7.328815330437189
      ],
      [
        "▁hukuku",
        -10.156121939738544
      ],
      [
        "▁geli",
        -8.729343340094012
      ],
      [
        "▁kopegi",
        -9.681836135769615
      ],
      [
        "▁ekim'de",
        -8.241055313297913
      ],
      [
        "da",
        -7.303895337423888
      ],
      [
        "▁etmis",
        -7.424545476230384
      ],
      [
        "in",
        -5.913242392268193
      ],
      [
        "▁sans",
        -9.39759483347852
      ],
      [
        "▁tadı",
        -9.716902433738957
      ],
      [
        "suna",
        -9.704415917935304
      ],
      [
        "▁egitim",
        -8.230646439887273
      ],
      [
        "▁hisselerini",
        -9.10856833598972
      ],
      [
        "▁muhte",
        -8.816883149632384
      ],
      [
        "▁kek",
        -9.844422230088302
      ],
      [
        "▁calısıyordu",
        -8.243107125140158
      ],
      [
        "▁yası",
        -9.546791600073998
      ],
      [
        "▁de",
        -4.7753992930642415
      ],
      [
        "▁kurmay",
        -9.991806458079878
      ],
      [
        "▁l",
        -8.001456448523463
      ],
      [
        "▁fila",
        -8.50141288075814
      ],
      [
        "▁baslama",
        -9.877372180848177
      ],
      [
        "un",
        -6.959468783522774
      ],
      [
        "▁cabası",
        -9.985016124795752
      ],
      [
        "▁calısmak",
        -10.159859087824124
      ],
      [
        "cıları",
        -9.000535322295027
      ],
      [
        "▁ya",
        -7.80067176222719
      ],
      [
        "▁zamanlarda",
        -8.690946024645553
      ],
      [
        "▁sınırı",
        -10.083588646854256
      ],
      [
        "lik",
        -7.6912088397564204
      ],
      [
        "▁%",
        -3.886665045624931
      ],
      [
        "l",
        -8.749613634584774
      ],
      [
        "imiz",
        -7.864450820875663
      ],
      [
        "▁kuslar",
        -9.466962486721062
      ],
      [
        "▁doga",
        -7.4439148638797
      ],
      [
        "▁ajansı",
        -9.751742924449307
      ],
      [
        "▁getiri",
        -8.300033995827805
      ],
      [
        "▁den",
        -8.851020514105679
      ],
      [
        "▁sandalye",
        -9.548183577818499
      ],
      [
        "▁degildi",
        -2.1591214805820806
      ],
      [
        "▁odemeleri",
        -10.014966629987367
      ],
      [
        "▁hucre",
        -9.640978283192933
      ],
      [
        "▁halin",
        -8.061212722566438
      ],
      [
        "▁incele",
        -8.863858087018535
      ],
      [
        "▁imza",
        -8.952780908389883
      ],
      [
        "▁kapsam",
        -8.331701078668564
      ],
      [
        "▁avukatı",
        -9.95516324225375
      ],
      [
        "▁almanya",
        -7.4822801469787406
      ],
      [
        "▁gunler",
        -8.860031255200315
      ],
      [
        "▁kisilik",
        -9.172932991774951
      ],
      [
        "▁sonra",
        -4.483960125414106
      ],
      [
        "▁parlamento",
        -9.961288204592865
      ],
      [
        "du",
        -8.09431807471644
      ],
      [
        "c",
        -12.802702672349787
      ],
      [
        "▁yapma",
        -7.86506853639131
      ],
      [
        "▁fikir",
        -8.794698090747088
      ],
      [
        "▁yasası",
        -9.613716931359052
      ],
      [
        "▁araba",
        -7.390177687859514
      ],
      [
        "ss",
        -9.437149516960732
      ],
      [
        "▁mis",
        -5.918581206871204
      ],
      [
        "▁televizyon",
        -8.405008413889021
      ],
      [
        "▁sahil",
        -9.871734920613857
      ],
      [
        "▁tamam",
        -7.655270434831342
      ],
      [
        "altı",
        -6.945780996775762
      ],
      [
        "▁asama",
        -9.487348339143157
      ],
      [
        "▁yanı",
        -8.447338164011763
      ],
      [
        "▁ona",
        -4.235995178139032
      ],
      [
        "cinin",
        -9.536806916297435
      ],
      [
        "▁cevresinde",
        -9.688069087426607
      ],
      [
        "▁derece",
        -7.761073440767786
      ],
      [
        "▁gucu",
        -8.591958702945863
      ],
      [
        "▁doları",
        -7.810405135295385
      ],
      [
        "▁olduk",
        -9.882832252437366
      ],
      [
        "▁donum",
        -10.058568715864075
      ],
      [
        "st",
        -7.641483134940492
      ],
      [
        "▁rapor",
        -8.364219369745673
      ],
      [
        "▁makaley",
        -9.375053159760594
      ],
      [
        "▁akıl",
        -8.741502408257068
      ],
      [
        "▁ardı",
        -9.096310906775097
      ],
      [
        "▁yoneticiler",
        -9.603031612271701
      ],
      [
        "▁f",
        -7.967080839754346
      ],
      [
        "▁av",
        -8.912702494874924
      ],
      [
        "▁yemek",
        -7.04818349101189
      ],
      [
        "▁olamaz",
        -8.248500242077554
      ],
      [
        "▁oburun",
        -8.303320137242117
      ],
      [
        "▁korku",
        -8.437575451638665
      ],
      [
        "▁bulmustu",
        -8.875136507883106
      ],
      [
        "▁orta",
        -7.872563770188562
      ],
      [
        "▁yeni",
        -9.389974462262252
      ],
      [
        "▁kimin",
        -7.5530505528743355
      ],
      [
        "▁niyet",
        -9.512188508046297
      ],
      [
        "▁parmagı",
        -9.759632159926042
      ],
      [
        "▁delta",
        -6.478642828940246
      ],
      [
        "▁hisselerin",
        -9.627943801852481
      ],
      [
        "▁kazan",
        -8.782007187408357
      ],
      [
        "▁cin",
        -9.41270178536313
      ],
      [
        "▁otur",
        -8.181847693026166
      ],
      [
        "▁konusma",
        -8.466836762364819
      ],
      [
        "▁edemez",
        -8.929675118898468
      ],
      [
        "▁orkestra",
        -10.176306519464013
      ],
      [
        "▁izlenim",
        -10.099385506330542
      ],
      [
        "cilik",
        -8.734942781277397
      ],
      [
        "▁hareketi",
        -9.135351422442254
      ],
      [
        "▁22",
        -6.204600493789114
      ],
      [
        "▁'li",
        -7.839626404640395
      ],
      [
        "▁inc",
        -10.175789490991116
      ],
      [
        "▁veremem",
        -8.922545305763009
      ],
      [
        "▁keyif",
        -8.646195907887032
      ],
      [
        "▁belediye",
        -8.685905025051714
      ],
      [
        "▁dusunme",
        -8.508532822693187
      ],
      [
        "▁sam",
        -9.760514042953501
      ],
      [
        "▁denizin",
        -9.25858671363122
      ],
      [
        "▁sikayet",
        -8.616313470723844
      ],
      [
        "▁rahat",
        -8.30828836050418
      ],
      [
        "▁ipuc",
        -9.962047896740852
      ],
      [
        "▁mev",
        -6.723538293557618
      ],
      [
        "▁avukatları",
        -9.76576722388539
      ],
      [
        "▁adin",
        -8.827650671289945
      ],
      [
        "▁plaj",
        -8.66807289723069
      ],
      [
        "▁ne",
        -6.301448313353805
      ],
      [
        "▁hareket",
        -7.179087371462134
      ],
      [
        "▁yaka",
        -9.267382900168894
      ],
      [
        "▁japonya",
        -7.316375579672631
      ],
      [
        "▁meclisi",
        -9.488398315088952
      ],
      [
        "sa",
        -6.264005283029503
      ],
      [
        "▁arka",
        -8.97010769601486
      ],
      [
        "yim",
        -8.132157031008926
      ],
      [
        "▁ihtiyar",
        -7.886401087484883
      ],
      [
        "▁dizi",
        -8.438656295283696
      ],
      [
        "ir",
        -7.332362169299999
      ],
      [
        "ım",
        -8.123091178542019
      ],
      [
        "▁cekilme",
        -9.638133834669262
      ],
      [
        "▁doktu",
        -8.87659131229665
      ],
      [
        "▁soyluyor",
        -6.643198559782432
      ],
      [
        "▁aksam",
        -8.353179542310087
      ],
      [
        "▁ma",
        -7.653124638385439
      ],
      [
        "▁yelpaze",
        -9.8987882453021
      ],
      [
        "▁ileri",
        -8.810318801485373
      ],
      [
        "▁halı",
        -9.452519490362985
      ],
      [
        "▁kızım",
        -9.651578552640403
      ],
      [
        "▁imkanı",
        -9.809412900824166
      ],
      [
        "▁meydan",
        -8.116393669392856
      ],
      [
        "▁he",
        -8.944634002943305
      ],
      [
        "▁kuzu",
        -9.464110530758642
      ],
      [
        "▁seviyede",
        -9.578979026918466
      ],
      [
        "tir",
        -8.286739654787315
      ],
      [
        "▁zamanlar",
        -8.320324976703688
      ],
      [
        "lan",
        -7.373043220940611
      ],
      [
        "tan",
        -6.7100181245625805
      ],
      [
        "▁ihtiyacı",
        -8.922156465549888
      ],
      [
        "▁verdigi",
        -7.596916374111639
      ],
      [
        "▁du",
        -8.633377315617889
      ],
      [
        "▁gosteriyor",
        -7.3267549643592575
      ],
      [
        "eden",
        -6.570073607543819
      ],
      [
        "ndıgında",
        -10.129557805475434
      ],
      [
        "▁nashville'de",
        -7.653684376333695
      ],
      [
        "son",
        -7.531826592809271
      ],
      [
        "▁sur",
        -7.903491867822824
      ],
      [
        "▁yuk",
        -8.917091074180817
      ],
      [
        "▁odalari",
        -8.891308180108481
      ],
      [
        "mdan",
        -8.889618439512708
      ],
      [
        "▁hurriyet",
        -9.731778682521604
      ],
      [
        "▁gecen",
        -8.292071992581839
      ],
      [
        "▁miting",
        -9.83996548949067
      ],
      [
        "▁degis",
        -9.819863821392921
      ],
      [
        "▁yanımda",
        -9.843549193184272
      ],
      [
        "▁guney",
        -9.354587190467058
      ],
      [
        "▁neler",
        -6.5615336919270835
      ],
      [
        "▁giy",
        -8.852265876379992
      ],
      [
        "▁s",
        -8.236084667241634
      ],
      [
        "▁firs",
        -8.26034278038258
      ],
      [
        "in",
        -5.266157079427771
      ],
      [
        "▁odalar",
        -7.885137097626414
      ],
      [
        ".",
        -1.1587881497080552
      ],
      [
        "▁tutar",
        -9.126080764462227
      ],
      [
        "▁ber",
        -8.189873495288287
      ],
      [
        "▁moral",
        -10.100475766530808
      ],
      [
        "'un",
        -5.705129799005704
      ],
      [
        "▁william",
        -8.133740340470013
      ],
      [
        "4",
        -4.477827337596428
      ],
      [
        "▁kitle",
        -9.284542095105428
      ],
      [
        "▁pittsburgh'ta",
        -5.619548745818885
      ],
      [
        "▁fonların",
        -9.734426226247702
      ],
      [
        "▁tahıl",
        -10.099383610263072
      ],
      [
        "t",
        -5.970918673445824
      ],
      [
        "▁borsası",
        -8.700895984341411
      ],
      [
        "▁bez",
        -9.94014151222333
      ],
      [
        "▁alakaliydi",
        -8.673809460093759
      ],
      [
        "▁di",
        -9.030980831435157
      ],
      [
        "▁bura",
        -9.384434815636821
      ],
      [
        "▁karsilama",
        -8.275826153557919
      ],
      [
        "▁soz",
        -7.18716750733744
      ],
      [
        "▁parla",
        -7.872920519380257
      ],
      [
        "▁dag",
        -8.4041239470628
      ],
      [
        "▁usta",
        -8.744238749966124
      ],
      [
        "▁ko",
        -8.436188161531723
      ],
      [
        "▁amir",
        -10.029190381571416
      ],
      [
        "u",
        -4.975797338804984
      ],
      [
        "▁ol",
        -9.622171761775187
      ],
      [
        "▁aslan",
        -9.638062185868833
      ],
      [
        "▁can",
        -7.731664627365475
      ],
      [
        "▁kaybed",
        -8.422957492860599
      ],
      [
        "▁dagın",
        -9.783398704583282
      ],
      [
        "▁gunesi",
        -10.073742544494426
      ],
      [
        "ka",
        -4.814930333216153
      ],
      [
        "▁tedavulde",
        -9.284530066641056
      ],
      [
        "▁ailesi",
        -8.837864937168845
      ],
      [
        "▁gittik",
        -8.172715816911975
      ],
      [
        "▁yatırımları",
        -10.102330154374162
      ],
      [
        "uk",
        -8.929364639003108
      ],
      [
        "▁vermedi",
        -8.234190518613614
      ],
      [
        "▁oglu",
        -9.002644128372792
      ],
      [
        "▁celik",
        -9.637473253330748
      ],
      [
        "▁rezervasyonu",
        -8.18447371030464
      ],
      [
        "mın",
        -9.00924372139877
      ],
      [
        "▁lacivert",
        -8.643565974139694
      ],
      [
        "▁uzak",
        -7.416518726101365
      ],
      [
        "▁ki",
        -9.163882346102435
      ],
      [
        "▁m",
        -8.567339466644853
      ],
      [
        "▁vatan",
        -8.953586680142813
      ],
      [
        "▁paul",
        -7.718110480898946
      ],
      [
        "▁paha",
        -7.450113366831144
      ],
      [
        "▁ulkeni",
        -9.46885202096324
      ],
      [
        "▁kurulusları",
        -9.686720479989027
      ],
      [
        "▁hakim",
        -8.848557398400382
      ],
      [
        "▁satıla",
        -8.673308091097581
      ],
      [
        "▁bolumunu",
        -9.578886711684827
      ],
      [
        "aclı",
        -8.773199229224863
      ],
      [
        "▁tohum",
        -9.352355013205955
      ],
      [
        "▁kahraman",
        -9.740566509759716
      ],
      [
        "▁",
        -1.722964280954951
      ],
      [
        "▁otur",
        -10.09174853301049
      ],
      [
        "▁yok",
        -5.684098178948602
      ],
      [
        "▁sev",
        -8.537714751413239
      ],
      [
        "▁vah",
        -9.96497469740806
      ],
      [
        "▁kitabı",
        -8.395278315555252
      ],
      [
        "▁politik",
        -7.996027697662492
      ],
      [
        "▁yukselmesin",
        -10.116305003309563
      ],
      [
        "▁aileler",
        -7.263400794178908
      ],
      [
        "▁mutl",
        -7.186288115784883
      ],
      [
        "▁kendin",
        -6.061141479550905
      ],
      [
        "n",
        -5.575916566983608
      ],
      [
        "deli",
        -8.805753695423384
      ],
      [
        "▁temettu",
        -9.425097575752517
      ],
      [
        "▁geldi",
        -5.550090260586221
      ],
      [
        "▁sakız",
        -10.099393827980604
      ],
      [
        "3.",
        -9.78654219912501
      ],
      [
        "▁golu",
        -9.89542300090592
      ],
      [
        "▁mor",
        -9.580873122724116
      ],
      [
        "▁kilo",
        -9.68178054511062
      ],
      [
        "▁iri",
        -7.672692456991397
      ],
      [
        "uluyor",
        -8.760132363171907
      ],
      [
        "▁i",
        -10.719126777139204
      ],
      [
        "▁bebegi",
        -9.731783113876025
      ],
      [
        "v",
        -14.014858445102625
      ],
      [
        "biz",
        -7.9810231857484
      ],
      [
        "▁ayna",
        -8.820826662821869
      ],
      [
        "▁bildigi",
        -9.884307809548638
      ],
      [
        "▁oneri",
        -9.567061559352664
      ],
      [
        "▁ortaklık",
        -9.68905807457707
      ],
      [
        "▁raf",
        -9.161347517545325
      ],
      [
        "▁yarısı",
        -9.25496088864322
      ],
      [
        "▁bitki",
        -9.351089450487406
      ],
      [
        "▁ayn",
        -7.320358475157959
      ],
      [
        "▁bak",
        -6.688141638355412
      ],
      [
        "▁harc",
        -9.389076008399204
      ],
      [
        "▁ga",
        -8.354126557654107
      ],
      [
        "▁sayı",
        -8.163162293131137
      ],
      [
        "▁goremedi",
        -8.674050676623198
      ],
      [
        "\"",
        -9.187979756183218
      ],
      [
        "▁cıkacak",
        -8.37941486865802
      ],
      [
        "▁suresi",
        -9.24815065282652
      ],
      [
        "▁san",
        -6.23877004096941
      ],
      [
        "▁imam",
        -9.616300870066523
      ],
      [
        "▁ittifak",
        -9.731777589579602
      ],
      [
        "▁sorumlu",
        -10.02757424565224
      ],
      [
        "▁f",
        -8.134808978346355
      ],
      [
        "▁kaybetti",
        -8.103100706566854
      ],
      [
        "▁giriyor",
        -8.291461110287642
      ],
      [
        "cagı",
        -8.866042356328894
      ],
      [
        "▁asagı",
        -8.030071702686872
      ],
      [
        "dıgını",
        -8.3116168872929
      ],
      [
        "▁ev",
        -6.967179451191135
      ],
      [
        "▁ceyrekte",
        -8.690799461797374
      ],
      [
        "ev",
        -11.802702672349788
      ],
      [
        "▁bakan",
        -9.173415625446918
      ],
      [
        "lılıgı",
        -10.030882922241545
      ],
      [
        "▁ebe",
        -10.176804106856439
      ],
      [
        "t",
        -5.498942757749235
      ],
      [
        "▁demek",
        -8.88843134617336
      ],
      [
        "▁",
        -1.3922668288882338
      ],
      [
        "▁isti",
        -9.537931426145981
      ],
      [
        "▁hedef",
        -8.773805802300013
      ],
      [
        "▁getirisi",
        -9.674984921258197
      ],
      [
        "▁39",
        -7.370096993076277
      ],
      [
        "▁yonu",
        -9.237367111174482
      ],
      [
        "▁kapadı",
        -8.759759830062809
      ],
      [
        "'",
        -7.112561032152628
      ],
      [
        "▁yetkilisi",
        -9.751782883278619
      ],
      [
        "▁geceler",
        -10.020834042443354
      ],
      [
        "▁unutma",
        -8.89612686320126
      ],
      [
        "▁donmus",
        -8.632329422279831
      ],
      [
        "▁sezonu",
        -10.081196948330284
      ],
      [
        "▁ettigi",
        -9.61392905573121
      ],
      [
        "▁kamp",
        -9.731332177663372
      ],
      [
        "▁gider",
        -7.602091807598916
      ],
      [
        "mda",
        -8.60230388528225
      ],
      [
        "▁masraf",
        -9.157654512283642
      ],
      [
        "▁ol",
        -6.7441642099832695
      ],
      [
        "▁mark",
        -9.681532921181622
      ],
      [
        "▁lisans",
        -9.765134140293098
      ],
      [
        "▁konusmalar",
        -9.776197238184754
      ],
      [
        "▁beraber",
        -6.830449956414693
      ],
      [
        "▁gerceklestir",
        -8.33592997092666
      ],
      [
        "▁kalbi",
        -8.90195992367343
      ],
      [
        "dir",
        -6.65097430980568
      ],
      [
        "u",
        -5.77991641711818
      ],
      [
        "gım",
        -8.973138979571996
      ],
      [
        "caya",
        -10.008917867811661
      ],
      [
        "luk",
        -7.58203323543242
      ],
      [
        "▁yiyecekler",
        -8.760890723576999
      ],
      [
        "ıcı",
        -7.088788865289696
      ],
      [
        "▁duy",
        -8.25752684241756
      ],
      [
        "▁ocak",
        -8.616422290520799
      ],
      [
        "inde",
        -7.05693297867705
      ],
      [
        "▁belirtti",
        -7.593027508679173
      ],
      [
        "siniz",
        -6.719970420927142
      ],
      [
        "▁puanlama",
        -9.230765593019072
      ],
      [
        "celik",
        -8.70922937823941
      ],
      [
        "▁mola",
        -8.864551498422216
      ],
      [
        "▁49",
        -7.1162351191246005
      ],
      [
        "c",
        -4.279370353650242
      ],
      [
        "▁hızlı",
        -8.173460503382016
      ],
      [
        "g",
        -3.2365275863870604
      ],
      [
        "▁petrol",
        -8.143170856323124
      ],
      [
        "▁osmanlı",
        -7.553920337047785
      ],
      [
        "▁taze",
        -7.7460431805793695
      ],
      [
        "y",
        -7.3139644686198
      ],
      [
        "▁surer",
        -8.573187543690057
      ],
      [
        "▁sabah",
        -6.71879558616918
      ],
      [
        "▁cleveland'",
        -6.731610941983824
      ],
      [
        "▁korku",
        -7.751115978817232
      ],
      [
        "nc",
        -8.015339232914753
      ],
      [
        "▁bizi",
        -9.81424531816548
      ],
      [
        "▁post",
        -9.74945784147057
      ],
      [
        "▁alca",
        -8.7105396051646
      ],
      [
        "▁t",
        -8.732834936656262
      ],
      [
        "▁durma",
        -9.98028906631912
      ],
      [
        "te",
        -8.427401427900064
      ],
      [
        "ot",
        -8.834729391576415
      ],
      [
        "▁gemi",
        -8.030048486366617
      ],
      [
        "▁japon",
        -7.6012635840781595
      ],
      [
        "▁sakal",
        -9.720225591644784
      ],
      [
        "▁cogunluk",
        -10.028352161615711
      ],
      [
        "birli",
        -7.476480969195897
      ],
      [
        "dıkları",
        -9.22884054416976
      ],
      [
        "▁muhte",
        -7.212527407828399
      ],
      [
        "▁eve",
        -7.843391170197548
      ],
      [
        "nu",
        -7.718100518034964
      ],
      [
        "▁babamı",
        -9.238847057613217
      ],
      [
        "▁yerini",
        -8.572497199261655
      ],
      [
        "acaktı",
        -8.696573075677138
      ],
      [
        "▁ucusunda",
        -9.740569674823274
      ],
      [
        "▁long",
        -7.475427347950381
      ],
      [
        "landıgını",
        -9.64551746193745
      ],
      [
        "▁yanıt",
        -9.076997358637659
      ],
      [
        "▁uzere",
        -5.048386226996949
      ],
      [
        "▁telefonla",
        -8.501174807578352
      ],
      [
        "▁raporu",
        -9.236827379202545
      ],
      [
        "▁ustunde",
        -7.808236317565109
      ],
      [
        "▁patlama",
        -10.07626402684153
      ],
      [
        "▁tur",
        -8.673507487778625
      ],
      [
        "8'",
        -9.57672400455771
      ],
      [
        "▁de",
        -2.1420817504035963
      ],
      [
        "digim",
        -8.570519405623951
      ],
      [
        "▁edile",
        -8.361442269704881
      ],
      [
        "▁toronto",
        -8.034445559699725
      ],
      [
        "▁cocugun",
        -8.76386824041687
      ],
      [
        "imle",
        -6.45089307209828
      ],
      [
        "du",
        -6.548127996053304
      ],
      [
        "▁karsıt",
        -9.656700389044717
      ],
      [
        "▁diego",
        -8.336292208352035
      ],
      [
        "▁hukuk",
        -8.587409022387796
      ],
      [
        "▁ce",
        -9.175883447442002
      ],
      [
        "▁bekleme",
        -9.323085458845664
      ],
      [
        "▁araya",
        -8.525755107115026
      ],
      [
        "icin",
        -5.8969885216171365
      ],
      [
        "klarını",
        -8.01160706971895
      ],
      [
        "▁olmaz",
        -7.066809689867068
      ],
      [
        "▁kola",
        -9.618732328777448
      ],
      [
        "▁zil",
        -9.82365395785881
      ],
      [
        "▁sirke",
        -10.094971749289478
      ],
      [
        "▁yaz",
        -7.950343997234887
      ],
      [
        "▁baslaya",
        -8.81861870269889
      ],
      [
        "▁s",
        -4.608337497691907
      ],
      [
        "tro",
        -9.53108656120046
      ],
      [
        "▁birlesme",
        -9.3524288834491
      ],
      [
        "▁etmek",
        -7.691167246707034
      ],
      [
        "▁piyasasında",
        -9.658861879222217
      ],
      [
        "ladı",
        -8.155108428851204
      ],
      [
        "meyecek",
        -8.240813819155417
      ],
      [
        "▁tanım",
        -9.465889182675806
      ],
      [
        "▁1'de",
        -9.944204246475987
      ],
      [
        "▁nefret",
        -9.503559024341422
      ],
      [
        "nde",
        -8.378991300973894
      ],
      [
        "▁p",
        -8.149996193190008
      ],
      [
        "▁ford",
        -7.740421862401378
      ],
      [
        "▁ogret",
        -8.58660390765957
      ],
      [
        "'e",
        -6.643965634587967
      ],
      [
        "▁yoneticilerin",
        -10.045568750929457
      ],
      [
        "▁cocug",
        -9.521137257041135
      ],
      [
        "▁hızl",
        -7.233125527976824
      ],
      [
        "▁guzel",
        -9.520797235601473
      ],
      [
        "▁depremde",
        -9.953673532995643
      ],
      [
        "▁kar",
        -8.661770229349568
      ],
      [
        "▁hatları",
        -10.17747131986632
      ],
      [
        "lıkta",
        -8.783287026036604
      ],
      [
        "▁p",
        -7.245265053176569
      ],
      [
        "▁suda",
        -9.96224014224051
      ],
      [
        "▁mail",
        -8.977112453687816
      ],
      [
        "▁havuz",
        -7.553635438764325
      ],
      [
        "▁o",
        -7.153300629920321
      ],
      [
        "▁gercegi",
        -9.478259416220363
      ],
      [
        "nı",
        -6.61479250990866
      ],
      [
        "▁plak",
        -9.84078522561127
      ],
      [
        "▁tutun",
        -8.810343286394296
      ],
      [
        "▁resim",
        -8.824151736740939
      ],
      [
        "▁bilegi",
        -9.840621378714005
      ],
      [
        "▁muayene",
        -9.898788631119888
      ],
      [
        "▁500",
        -6.435639842843321
      ],
      [
        "▁dogu",
        -7.316808571511066
      ],
      [
        "▁kon",
        -9.043153699131825
      ],
      [
        "tti",
        -8.687810749592234
      ],
      [
        "▁yak",
        -8.742968103304275
      ],
      [
        "▁dayanır",
        -8.676462305077727
      ],
      [
        "sinin",
        -7.713440345854014
      ],
      [
        "▁duzen",
        -8.760545102418082
      ],
      [
        "sı",
        -8.25115808350297
      ],
      [
        "yonel",
        -8.267010652555069
      ],
      [
        "▁be",
        -8.245822081507646
      ],
      [
        "▁li",
        -5.934253238643644
      ],
      [
        "zat",
        -7.044131657787526
      ],
      [
        "yle",
        -6.079427766229643
      ],
      [
        "▁gormustu",
        -8.770407357830713
      ],
      [
        "ala",
        -7.800581317341299
      ],
      [
        "▁milleti",
        -9.727402550476041
      ],
      [
        "▁mı",
        -3.073600583083266
      ],
      [
        "▁tat",
        -8.421261695602189
      ],
      [
        "▁teklifi",
        -8.563198484333059
      ],
      [
        "▁kacındı",
        -8.682777785872004
      ],
      [
        "▁meze",
        -9.841634453931011
      ],
      [
        "▁cıkmıs",
        -7.677117904496876
      ],
      [
        "▁gid",
        -7.946850644407117
      ],
      [
        "▁ot",
        -9.263674057864478
      ],
      [
        "▁surat",
        -9.48383432924823
      ],
      [
        "ildi",
        -7.720625603517543
      ],
      [
        "▁duyuru",
        -9.545255993939616
      ],
      [
        "▁macı",
        -9.899816110603624
      ],
      [
        "▁za",
        -8.400602552092757
      ],
      [
        "▁k",
        -6.1777118715667445
      ],
      [
        "▁ala",
        -9.25330473442514
      ],
      [
        "▁uzun",
        -5.554823761362111
      ],
      [
        "▁saglık",
        -8.278735636334126
      ],
      [
        "▁vermeye",
        -9.853391349429238
      ],
      [
        "ik",
        -6.414547574206891
      ],
      [
        "▁han",
        -8.220608278298114
      ],
      [
        "▁8",
        -5.673436706926548
      ],
      [
        "▁olcu",
        -9.639751230580952
      ],
      [
        "ilen",
        -8.726137893235784
      ],
      [
        "▁altı",
        -9.204764587307537
      ],
      [
        "lık",
        -6.551850487952047
      ],
      [
        "▁gunde",
        -8.476532335746565
      ],
      [
        "▁mezarlıg",
        -10.078626411539368
      ],
      [
        "▁iskonto",
        -9.634158521606492
      ],
      [
        "▁sovyetler",
        -9.546139016407322
      ],
      [
        "▁eda",
        -9.716654193794971
      ],
      [
        "▁alına",
        -8.18756117274245
      ],
      [
        "▁kendisin",
        -5.410287165828488
      ],
      [
        "▁calıyor",
        -8.64180874580059
      ],
      [
        "▁turkiye'",
        -7.00172363747034
      ],
      [
        "▁varsa",
        -7.665968530700809
      ],
      [
        "iyet",
        -8.358596479865508
      ],
      [
        "len",
        -7.707804591723178
      ],
      [
        "▁gecmis",
        -7.743741673401963
      ],
      [
        "▁odeme",
        -8.258984852288858
      ],
      [
        "▁sen",
        -6.943079529204949
      ],
      [
        "▁eglence",
        -8.405008443570143
      ],
      [
        "lar",
        -8.188377922663443
      ],
      [
        "▁ir",
        -9.290083489467648
      ],
      [
        "umuz",
        -9.13768353941226
      ],
      [
        "▁maliyetleri",
        -9.0921208033651
      ],
      [
        "▁parcaları",
        -9.257862277569537
      ],
      [
        "alım",
        -6.712631715118891
      ],
      [
        "▁kesin",
        -6.101322210378779
      ],
      [
        "berg",
        -8.3300530085768
      ],
      [
        "makta",
        -7.57840801026483
      ],
      [
        "▁bilet",
        -8.115318340459279
      ],
      [
        "▁ruhu",
        -9.64405224999902
      ],
      [
        "9'",
        -9.109382918463115
      ],
      [
        "▁ileri",
        -7.734309038549302
      ],
      [
        "▁sehir",
        -7.523227552497981
      ],
      [
        "sunda",
        -9.737939332797993
      ],
      [
        "▁v",
        -6.0393683046606
      ],
      [
        "▁baglama",
        -10.059916330420297
      ],
      [
        "ha",
        -8.439566849849676
      ],
      [
        "▁oranlarını",
        -9.913151159616858
      ],
      [
        "san",
        -8.521219724256412
      ],
      [
        "▁bina",
        -8.330526690321093
      ],
      [
        "▁katılıyor",
        -8.87340093009841
      ],
      [
        "kin",
        -8.48471306510844
      ],
      [
        "sine",
        -6.767223674923712
      ],
      [
        "mıyordu",
        -8.97466979098834
      ],
      [
        "▁okumak",
        -9.9181697282257
      ],
      [
        "▁emeklilik",
        -9.078657187022962
      ],
      [
        "▁ucunu",
        -9.860696579050831
      ],
      [
        "ekli",
        -8.384168101461615
      ],
      [
        "▁her",
        -3.2176437841680947
      ],
      [
        "▁tar",
        -9.806096754695465
      ],
      [
        "▁gazeteler",
        -10.029208174916224
      ],
      [
        "▁yazı",
        -7.783176098005122
      ],
      [
        "▁yolculugun",
        -10.012965429684366
      ],
      [
        "▁hisseleri",
        -7.871536482748275
      ],
      [
        "▁birin",
        -6.900610794792714
      ],
      [
        "▁mis",
        -9.819443482122338
      ],
      [
        "▁resmi",
        -9.297254908374638
      ],
      [
        "▁iflas",
        -9.000974308690981
      ],
      [
        "gari",
        -8.52184592464536
      ],
      [
        "▁sene",
        -8.047000242491155
      ],
      [
        "▁5\\/",
        -7.490278875194841
      ],
      [
        "%",
        -12.802702672349787
      ],
      [
        "kli",
        -8.508299663600342
      ],
      [
        "▁el",
        -7.121537686409118
      ],
      [
        "▁sonunda",
        -9.352549289183871
      ],
      [
        "▁birini",
        -6.202515730872842
      ],
      [
        "▁asır",
        -9.703983073856445
      ],
      [
        "bu",
        -5.9800526379311565
      ],
      [
        "▁150",
        -7.07966151810731
      ],
      [
        "▁yaptıgını",
        -9.698508421734758
      ],
      [
        "▁ele",
        -7.950758561699387
      ],
      [
        "▁actı",
        -6.9460602888846195
      ],
      [
        "iyetli",
        -8.76819856306355
      ],
      [
        "▁oldu",
        -5.026169973079062
      ],
      [
        "r",
        -4.185130804161471
      ],
      [
        "▁davranısları",
        -10.121395994028479
      ],
      [
        "▁kuzey",
        -7.931135228099956
      ],
      [
        "▁bekci",
        -9.855356850726222
      ],
      [
        "▁bak",
        -9.230458550180934
      ],
      [
        "meye",
        -8.517338851597493
      ],
      [
        "▁ikinci",
        -8.80037423770089
      ],
      [
        "icin",
        -7.37606402349094
      ],
      [
        "▁genisleme",
        -10.099384793827735
      ],
      [
        "ledi",
        -8.468980613884238
      ],
      [
        "▁eczane",
        -10.176306519491934
      ],
      [
        "▁son",
        -5.069177350025439
      ],
      [
        "▁etme",
        -7.9991568430052435
      ],
      [
        "▁sura",
        -9.661642800352633
      ],
      [
        "▁marka",
        -8.755330167483978
      ],
      [
        "▁gozun",
        -9.832149310665965
      ],
      [
        "▁bicimde",
        -8.95967775692757
      ],
      [
        "▁moody'",
        -8.040777599680375
      ],
      [
        "nde",
        -7.337163914968514
      ],
      [
        "unlu",
        -7.55797632889681
      ],
      [
        "armasık",
        -8.737098179833303
      ],
      [
        "▁kere",
        -8.074638287854018
      ],
      [
        "▁durumlarda",
        -9.855876043591838
      ],
      [
        "▁sas",
        -8.733774713501543
      ],
      [
        "▁ihti",
        -10.175867856166764
      ],
      [
        "▁gri",
        -8.79177908488022
      ],
      [
        "▁kapagı",
        -9.964531345046945
      ],
      [
        "▁konumu",
        -6.499462957718281
      ],
      [
        "eye",
        -8.445803057601927
      ],
      [
        "madıgı",
        -8.795974861997085
      ],
      [
        "tab",
        -9.553635617866544
      ],
      [
        "▁besin",
        -10.066526697676238
      ],
      [
        "▁kurum",
        -9.164335285633994
      ],
      [
        "▁ciro",
        -9.6817879070544
      ],
      [
        "▁spekulasyon",
        -9.681777540452494
      ],
      [
        "▁ilgilenmedi",
        -7.791466542886641
      ],
      [
        "▁cincinnati'de",
        -7.46347859479992
      ],
      [
        "▁etrafını",
        -9.985736855095386
      ],
      [
        "▁yat",
        -8.637622034214361
      ],
      [
        "▁kullanıcı",
        -10.165753897109628
      ],
      [
        "▁ufakt",
        -8.588929040231331
      ],
      [
        "k",
        -6.621157945432207
      ],
      [
        "▁sat",
        -9.28299471229738
      ],
      [
        "▁tuketim",
        -9.388061498937859
      ],
      [
        "tu",
        -8.105684428840348
      ],
      [
        "▁?",
        -9.528807987385584
      ],
      [
        "layıcı",
        -9.785961341914795
      ],
      [
        "▁ici",
        -8.034754760992879
      ],
      [
        "mak",
        -7.3460374908202715
      ],
      [
        "▁kapa",
        -8.465281544283624
      ],
      [
        "tıkları",
        -10.088927738497613
      ],
      [
        "▁temas",
        -9.720909502351768
      ],
      [
        "▁aylarda",
        -10.11200738172554
      ],
      [
        "▁amerikalı",
        -9.505843033947713
      ],
      [
        "lanabil",
        -8.71366260953483
      ],
      [
        "▁ke",
        -8.309828404696262
      ],
      [
        "▁kagıdı",
        -9.25891184888112
      ],
      [
        "▁bulma",
        -8.357649446586247
      ],
      [
        "z",
        -8.00771259404701
      ],
      [
        "▁ler",
        -7.748374407484016
      ],
      [
        "▁askı",
        -8.892757752597085
      ],
      [
        "▁ev",
        -6.268454093143926
      ],
      [
        "▁masa",
        -7.4876510871627
      ],
      [
        "ama",
        -3.6363263764093867
      ],
      [
        "▁arkadaslarını",
        -9.983658905905342
      ],
      [
        "▁yor",
        -8.532903657937025
      ],
      [
        "tır",
        -8.673098603175978
      ],
      [
        "▁dernegi",
        -9.898792593859621
      ],
      [
        "▁calısıyorlar",
        -8.86797921271182
      ],
      [
        "▁cayı",
        -9.806611247035466
      ],
      [
        "niz",
        -7.208870524936369
      ],
      [
        "▁turkler",
        -10.057369690323853
      ],
      [
        "▁yasamın",
        -9.847412851478763
      ],
      [
        "sizce",
        -8.503372912292296
      ],
      [
        "▁ofisi",
        -9.510550268492079
      ],
      [
        "▁guc",
        -7.810627353668535
      ],
      [
        "▁st",
        -5.907715493414773
      ],
      [
        "▁bahar",
        -9.026354115529813
      ],
      [
        "▁buray",
        -8.816156833311346
      ],
      [
        "▁anlam",
        -7.970774144990175
      ],
      [
        "▁ucte",
        -9.692536767517128
      ],
      [
        "ıyla",
        -7.904251157180966
      ],
      [
        "▁tir",
        -10.05408246388576
      ],
      [
        "▁ucretin",
        -8.533711085175048
      ],
      [
        "▁mekan",
        -9.026338614908674
      ],
      [
        "an",
        -5.478366728993746
      ],
      [
        "ıldıgını",
        -9.922435339828112
      ],
      [
        "▁ataturk",
        -7.302380895321511
      ],
      [
        "▁care",
        -9.224206038232207
      ],
      [
        "▁bo",
        -8.71876655247448
      ],
      [
        "▁nesi",
        -7.919048130008328
      ],
      [
        "▁kotu",
        -6.131757626554474
      ],
      [
        "▁tadi",
        -9.871181928851414
      ],
      [
        "▁olusturma",
        -10.099390755885409
      ],
      [
        "liginde",
        -9.314464770563182
      ],
      [
        "▁sekreter",
        -9.682296660326234
      ],
      [
        "▁yanda",
        -8.638232131561658
      ],
      [
        "▁sahada",
        -10.08145032896471
      ],
      [
        "s",
        -7.940678475384541
      ],
      [
        "▁curu",
        -10.177402290284373
      ],
      [
        "t",
        -7.4126795457453865
      ],
      [
        "▁yetmis",
        -7.281993076538758
      ],
      [
        "▁camasır",
        -8.976848382004889
      ],
      [
        "▁1.5",
        -6.778286131943061
      ],
      [
        "▁0.1",
        -7.272046684752251
      ],
      [
        "ayan",
        -7.2756813833180125
      ],
      [
        "ley",
        -8.64501679354688
      ],
      [
        "▁endustri",
        -8.404622234089933
      ],
      [
        "▁canım",
        -9.145652803144792
      ],
      [
        "▁burbank'",
        -8.02300114871696
      ],
      [
        "▁inanc",
        -10.057103477003402
      ],
      [
        "▁zeytin",
        -9.463412133543315
      ],
      [
        "▁temel",
        -7.169891348812971
      ],
      [
        "▁devir",
        -9.16151096693278
      ],
      [
        "▁8",
        -9.21782146353967
      ],
      [
        "▁sınırları",
        -9.92729118554825
      ],
      [
        "6'",
        -9.210825175055419
      ],
      [
        "▁tur",
        -6.953862621762375
      ],
      [
        "▁hay",
        -9.326527326021203
      ],
      [
        "ikti",
        -7.773889039990508
      ],
      [
        "▁yonetme",
        -9.923321224698611
      ],
      [
        "kte",
        -7.35037593173012
      ],
      [
        "▁san",
        -8.98179938631655
      ],
      [
        "▁yerlesti",
        -8.909326767480927
      ],
      [
        "▁imkan",
        -9.039542137071635
      ],
      [
        "▁calıs",
        -8.158654180536228
      ],
      [
        "▁demokratlar",
        -9.81995241137955
      ],
      [
        "▁tacoma'",
        -7.877695112670695
      ],
      [
        "▁dilin",
        -10.072112158006735
      ],
      [
        "▁one",
        -9.271148454542846
      ],
      [
        "▁cıkar",
        -6.98398357556363
      ],
      [
        "▁sektor",
        -8.627948444872034
      ],
      [
        "▁arkasın",
        -9.331531797579231
      ],
      [
        "yım",
        -8.759135381627564
      ],
      [
        "▁itibari",
        -9.017076635215918
      ],
      [
        "m",
        -12.802702672349787
      ],
      [
        "▁olumun",
        -9.881758854614137
      ],
      [
        "▁yat",
        -9.656674645962894
      ],
      [
        "▁konusma",
        -8.418288367724168
      ],
      [
        "▁davul",
        -9.898789043052055
      ],
      [
        "▁tacirler",
        -9.942660741102394
      ],
      [
        "▁koyu",
        -8.056911850139146
      ],
      [
        "fi",
        -11.266950760798968
      ],
      [
        "▁14",
        -6.171359778606929
      ],
      [
        "▁gecti",
        -6.748914384618158
      ],
      [
        "▁199",
        -7.246510262211592
      ],
      [
        "▁aklını",
        -9.703596544168965
      ],
      [
        "▁bes",
        -4.200467720609225
      ],
      [
        "ebilecek",
        -8.554891748207545
      ],
      [
        "▁personeli",
        -8.173548878260362
      ],
      [
        "▁cosku",
        -9.839965461447157
      ],
      [
        "ması",
        -7.915886836062635
      ],
      [
        "▁washington'da",
        -6.676110632476292
      ],
      [
        "▁sigara",
        -8.415548462646832
      ],
      [
        "▁cicekleri",
        -9.938560881763214
      ],
      [
        "▁din",
        -8.77257151608551
      ],
      [
        "▁yuzunde",
        -8.82085464064985
      ],
      [
        "▁ideoloji",
        -10.099396375757067
      ],
      [
        "digimi",
        -9.762097917880979
      ],
      [
        "▁ydu",
        -5.652411369949245
      ],
      [
        "▁mulkiyet",
        -9.737392312372823
      ],
      [
        "▁halini",
        -9.91402809057909
      ],
      [
        "e",
        -3.9469061176939926
      ],
      [
        "▁sistemleri",
        -9.525138397876685
      ],
      [
        "▁1",
        -8.253833276314008
      ],
      [
        "▁bel",
        -5.7176907548495475
      ],
      [
        "▁ne",
        -5.102818083154211
      ],
      [
        "▁karsısın",
        -9.663606179991183
      ],
      [
        "▁numara",
        -8.686840188442503
      ],
      [
        "dıgım",
        -10.026873354081712
      ],
      [
        "▁amerika",
        -7.0730111501400605
      ],
      [
        "'de",
        -7.3956080720555555
      ],
      [
        "▁bakım",
        -8.65715892708466
      ],
      [
        "▁yapılan",
        -6.93763034813531
      ],
      [
        "▁babam",
        -7.957281844091082
      ],
      [
        "▁etmekte",
        -10.063844626027924
      ],
      [
        "▁evinde",
        -9.292614031062302
      ],
      [
        "▁saatler",
        -7.5770854084490615
      ],
      [
        "▁zorluklar",
        -9.925048239101265
      ],
      [
        "▁biliyor",
        -7.830368955866254
      ],
      [
        "▁aynı",
        -5.643781137011638
      ],
      [
        "larımız",
        -8.465347348793486
      ],
      [
        "▁kurum",
        -8.251770764458545
      ],
      [
        "▁gelirleri",
        -9.701371991359487
      ],
      [
        "▁katilma",
        -9.145844607211785
      ],
      [
        "▁beklen",
        -8.350184568134853
      ],
      [
        "▁rejimi",
        -10.105422984540573
      ],
      [
        "▁ardın",
        -9.831359114004032
      ],
      [
        "▁kileri",
        -8.495443798036117
      ],
      [
        "▁gozum",
        -9.442287388069516
      ],
      [
        "▁tampa'da",
        -7.6671951410562915
      ],
      [
        "b",
        -7.787526154383432
      ],
      [
        "▁mutfag",
        -10.133096532288812
      ],
      [
        "▁kızlar",
        -9.283330140268468
      ],
      [
        "2'de",
        -9.722248289989528
      ],
      [
        "▁durum",
        -7.774867782029893
      ],
      [
        "▁degistir",
        -8.386234304028083
      ],
      [
        "▁arastırma",
        -8.347302501262961
      ],
      [
        "▁ad",
        -8.571081100636135
      ],
      [
        "c",
        -6.519041070915973
      ],
      [
        "▁ayır",
        -8.293698561438811
      ],
      [
        "▁elimde",
        -9.560730865293479
      ],
      [
        "▁denge",
        -8.365464385128696
      ],
      [
        "yıp",
        -8.391723566680888
      ],
      [
        "▁kollarını",
        -9.813794325992033
      ],
      [
        "▁dusunuyordu",
        -8.621547354681578
      ],
      [
        "▁ust",
        -7.1185545875493945
      ],
      [
        "▁ucretlerini",
        -8.985748398589074
      ],
      [
        "ın",
        -6.08940540610804
      ],
      [
        "▁teması",
        -10.129050509233291
      ],
      [
        "▁3\\/",
        -6.515098788460735
      ],
      [
        "b",
        -2.357610727034924
      ],
      [
        "san",
        -8.305207098842889
      ],
      [
        "▁dinleme",
        -10.108995046220212
      ],
      [
        "▁programın",
        -9.942613539069423
      ],
      [
        "▁gelirler",
        -9.585676384234624
      ],
      [
        "▁yakın",
        -6.535228700885873
      ],
      [
        "▁dibinde",
        -9.594409727035153
      ],
      [
        "▁dura",
        -7.954299185685494
      ],
      [
        "r",
        -6.5679732324376445
      ],
      [
        "gı",
        -7.311332294522567
      ],
      [
        "it",
        -8.908983323281
      ],
      [
        "▁olmalıy",
        -8.92228848497537
      ],
      [
        "▁charlotte",
        -7.8261223887215365
      ],
      [
        "▁burada",
        -6.054666224502334
      ],
      [
        "gı",
        -7.533626846813169
      ],
      [
        "▁bakanlıgı",
        -9.22118038976795
      ],
      [
        "▁belgeleri",
        -10.00383045927395
      ],
      [
        "▁alkol",
        -9.463894329840402
      ],
      [
        "▁sansı",
        -9.393177814110729
      ],
      [
        "▁su",
        -8.062729926363533
      ],
      [
        "▁cık",
        -9.22812729007157
      ],
      [
        "▁tahminler",
        -10.038235155733137
      ],
      [
        "▁olmasını",
        -9.408956917122655
      ],
      [
        "'la",
        -8.10892179497952
      ],
      [
        "▁ny",
        -7.758699029263622
      ],
      [
        "▁calısanları",
        -9.334138148264898
      ],
      [
        "lıdır",
        -8.38877795466395
      ],
      [
        "una",
        -8.555042958872406
      ],
      [
        "▁planı",
        -8.78924027281415
      ],
      [
        "rmak",
        -9.71265918099682
      ],
      [
        "yet",
        -8.428836460289046
      ],
      [
        "a",
        -3.7340635823201875
      ],
      [
        "▁kablo",
        -10.02795487413912
      ],
      [
        "▁baglantı",
        -9.190719112153191
      ],
      [
        "▁hafta",
        -8.672579335982292
      ],
      [
        "▁duz",
        -8.31210916044675
      ],
      [
        "▁isveren",
        -10.176351264848845
      ],
      [
        "▁saatli",
        -8.686326185010666
      ],
      [
        "dar",
        -9.008516505021177
      ],
      [
        "▁dusme",
        -9.124528568618569
      ],
      [
        "mıstı",
        -6.54217064264794
      ],
      [
        "▁devri",
        -8.9878321576442
      ],
      [
        "▁denver'",
        -5.525182183641318
      ],
      [
        "▁bira",
        -8.993307040046949
      ],
      [
        "▁a",
        -6.925115723606803
      ],
      [
        "sine",
        -8.708260001900612
      ],
      [
        "tigini",
        -9.71767676118031
      ],
      [
        "iy",
        -7.061574036687148
      ],
      [
        "lerdi",
        -7.628455214739489
      ],
      [
        "lu",
        -7.588867179938893
      ],
      [
        "▁teknoloji",
        -8.397433218953473
      ],
      [
        "ar",
        -7.493436261772175
      ],
      [
        "▁bildir",
        -8.667162452386297
      ],
      [
        "▁orada",
        -8.536837084496895
      ],
      [
        "▁artı",
        -9.883734229734173
      ],
      [
        "uncu",
        -8.61725654199062
      ],
      [
        "▁kurumu",
        -9.697526815018145
      ],
      [
        "▁ok",
        -9.19190345034056
      ],
      [
        "uyordu",
        -8.149199591787955
      ],
      [
        "▁tat",
        -8.635051834284644
      ],
      [
        "5'",
        -9.069650681526053
      ],
      [
        "▁toplulugu",
        -10.027958988466516
      ],
      [
        "▁soyle",
        -6.131883733396973
      ],
      [
        "er",
        -8.341686207183077
      ],
      [
        "ta",
        -6.309472583087412
      ],
      [
        "▁kal",
        -8.926845014747215
      ],
      [
        "metler",
        -7.668897127202383
      ],
      [
        "l",
        -7.804722282254634
      ],
      [
        "▁nesne",
        -10.027962576838817
      ],
      [
        "▁odayd",
        -7.483536853650766
      ],
      [
        "▁vicdan",
        -10.099390810160177
      ],
      [
        "▁kuf",
        -9.73549625156758
      ],
      [
        "▁etrafı",
        -9.567909472275549
      ],
      [
        "▁olusu",
        -9.666121844863257
      ],
      [
        "▁dert",
        -9.222456960263028
      ],
      [
        "acagım",
        -8.590418151658657
      ],
      [
        "▁kad",
        -8.626457259795085
      ],
      [
        "▁bizim",
        -4.375437664788901
      ],
      [
        "▁yanında",
        -8.105873293626296
      ],
      [
        "▁turkiye",
        -6.349258393848831
      ],
      [
        "▁ana",
        -6.921880696346016
      ],
      [
        "▁kilise",
        -9.906152944056421
      ],
      [
        "▁bilgileri",
        -9.588086913820696
      ],
      [
        "▁gecirdi",
        -7.673800457807336
      ],
      [
        "▁ameliyat",
        -9.545225694521681
      ],
      [
        "m",
        -6.995862214619032
      ],
      [
        "▁agac",
        -8.676026421383433
      ],
      [
        "▁ilave",
        -8.820732222415623
      ],
      [
        "▁ic",
        -7.175317188722782
      ],
      [
        "▁dı",
        -3.685551159034305
      ],
      [
        "▁oranında",
        -9.060606660716383
      ],
      [
        "▁goruyoru",
        -8.635430427404504
      ],
      [
        "▁ha",
        -7.625962682190957
      ],
      [
        "▁as",
        -8.92902715994748
      ],
      [
        "▁sarf",
        -9.735064691053784
      ],
      [
        "▁cıglık",
        -9.503559087281548
      ],
      [
        "▁avlu",
        -9.733037426563115
      ],
      [
        "▁odalarin",
        -9.86179393245019
      ],
      [
        "suz",
        -5.9552889409552785
      ],
      [
        "▁ak",
        -8.327752057745448
      ],
      [
        "▁yalnız",
        -7.341033475000972
      ],
      [
        "▁birbirleri",
        -7.979369573870796
      ],
      [
        "▁gerilim",
        -9.899017082693597
      ],
      [
        "▁faturami",
        -9.628836188013388
      ],
      [
        "▁yonunde",
        -9.90400186800646
      ],
      [
        "▁hayvanlar",
        -9.811705494307237
      ],
      [
        "lerimi",
        -9.22221351437858
      ],
      [
        "▁hoca",
        -8.312413816533958
      ],
      [
        "▁cincinnati'",
        -8.062880060882803
      ],
      [
        "ki",
        -4.637459479808162
      ],
      [
        "his",
        -9.766569249382885
      ],
      [
        "o",
        -12.802702672349787
      ],
      [
        "▁vucudunu",
        -10.142720556696712
      ],
      [
        "▁tanrı",
        -9.190727846644306
      ],
      [
        "▁far",
        -9.812744003314252
      ],
      [
        "▁fe",
        -8.187250758716738
      ],
      [
        "ve",
        -8.34043871392612
      ],
      [
        "oysa",
        -10.862622396443756
      ],
      [
        "▁seda",
        -8.299919363893439
      ],
      [
        "d",
        -7.520473339483107
      ],
      [
        "▁deplasman",
        -10.17630660173822
      ],
      [
        "▁lubnan",
        -8.089627710103573
      ],
      [
        "dan",
        -5.735766773513523
      ],
      [
        "a",
        -6.377168279984644
      ],
      [
        "▁goturdu",
        -8.067399066742993
      ],
      [
        "▁uzlasma",
        -9.899027426538266
      ],
      [
        "▁onde",
        -9.245983900719672
      ],
      [
        "=",
        -11.302702672349787
      ],
      [
        "▁geri",
        -5.740966921982887
      ],
      [
        "▁geli",
        -6.90804634111799
      ],
      [
        "▁bebek",
        -9.051619517415112
      ],
      [
        "▁muhafaza",
        -9.83978976160156
      ],
      [
        "▁felaket",
        -8.976583976376892
      ],
      [
        "▁ocagı",
        -9.573635785422411
      ],
      [
        "ı",
        -5.124368161599108
      ],
      [
        "luydu",
        -8.015190650603543
      ],
      [
        "uldu",
        -8.745031451964728
      ],
      [
        "▁sanıyor",
        -8.989273905348202
      ],
      [
        "mıs",
        -9.656561144778305
      ],
      [
        "▁23",
        -6.3598901647095225
      ],
      [
        "▁borsada",
        -10.151187105812363
      ],
      [
        "▁gelis",
        -9.446839854816389
      ],
      [
        "ici",
        -9.190071964540753
      ],
      [
        "▁yalnızlıgı",
        -10.176306520131774
      ],
      [
        "▁yangın",
        -9.197757897059883
      ],
      [
        "▁istedigi",
        -8.598393966868512
      ],
      [
        "▁aralarında",
        -9.290511870617124
      ],
      [
        "▁bellegi",
        -10.0994207213796
      ],
      [
        "▁yapım",
        -9.442890208304103
      ],
      [
        "▁siddet",
        -8.144050475235517
      ],
      [
        "▁aklı",
        -8.634872614306746
      ],
      [
        "ilmesi",
        -8.767337684604929
      ],
      [
        "▁yuz",
        -5.128319349560085
      ],
      [
        "▁ilgi",
        -7.407675563774309
      ],
      [
        "▁oldugunu",
        -6.6320035446136485
      ],
      [
        "▁dev",
        -8.103747686579705
      ],
      [
        "▁hisseler",
        -8.727949915397343
      ],
      [
        "▁ozelligi",
        -9.68178123981591
      ],
      [
        "kten",
        -8.797004257726309
      ],
      [
        "▁ankara",
        -7.346777313838827
      ],
      [
        "▁hay",
        -9.861965038483364
      ],
      [
        "▁havası",
        -9.260814202752023
      ],
      [
        "▁tanıdı",
        -8.989818678570579
      ],
      [
        "▁vegas'ta",
        -7.479937227083081
      ],
      [
        "▁hikaye",
        -8.954794110588836
      ],
      [
        "▁pay",
        -7.739648885701946
      ],
      [
        "▁tesisi",
        -8.73748748029383
      ],
      [
        "▁gecmiste",
        -9.596058229391648
      ],
      [
        "▁american",
        -6.132364770821345
      ],
      [
        "▁var",
        -7.216725724892593
      ],
      [
        "▁saadet",
        -9.839966836605857
      ],
      [
        "▁telafi",
        -9.961289600938313
      ],
      [
        "▁sunul",
        -8.788777249236997
      ],
      [
        "▁hamle",
        -8.617996332815016
      ],
      [
        "t",
        -5.881101381461162
      ],
      [
        "▁sımsı",
        -8.60010759844772
      ],
      [
        "▁agustos",
        -8.339196146707526
      ],
      [
        "▁kurek",
        -9.841128280526995
      ],
      [
        "▁arasında",
        -6.07117041101955
      ],
      [
        "▁karar",
        -7.99545359550161
      ],
      [
        "▁kendilerin",
        -6.5666059748182395
      ],
      [
        "▁tamam",
        -6.411602014418075
      ],
      [
        "▁yuzde",
        -8.423529304367072
      ],
      [
        "nin",
        -8.505245470600455
      ],
      [
        "▁hafif",
        -6.813099720239409
      ],
      [
        "▁carsaf",
        -9.948964625145148
      ],
      [
        "▁pist",
        -10.102042436144153
      ],
      [
        "▁dusunce",
        -8.837703919749423
      ],
      [
        "▁mufettis",
        -9.898788204427705
      ],
      [
        "▁kalın",
        -7.871277273894357
      ],
      [
        "▁miydi",
        -5.8666742159891765
      ],
      [
        "▁analistler",
        -8.288576354641005
      ],
      [
        "le",
        -5.4601027747989495
      ],
      [
        "▁otomobil",
        -8.162766323009114
      ],
      [
        "if",
        -7.979262804391219
      ],
      [
        "▁ekonomisi",
        -9.99149768418922
      ],
      [
        "ası",
        -8.872465173854511
      ],
      [
        "▁makale",
        -9.173030829496584
      ],
      [
        "▁gozleri",
        -7.802730797161795
      ],
      [
        "▁turkce",
        -9.507764318493315
      ],
      [
        "▁namaz",
        -9.504690022879394
      ],
      [
        "eter",
        -7.8667924199507695
      ],
      [
        "▁butce",
        -8.567126298350564
      ],
      [
        "▁kaymakam",
        -9.96128918225597
      ],
      [
        "▁sov",
        -9.66074054809487
      ],
      [
        "▁ali",
        -6.6915030225679955
      ],
      [
        "▁ucuyor",
        -7.218495273415914
      ],
      [
        "onun",
        -7.534328467502998
      ],
      [
        "c",
        -4.705204350413798
      ],
      [
        "▁haber",
        -7.807144546263004
      ],
      [
        "▁bulbul",
        -9.545230135397654
      ],
      [
        "&",
        -7.467592664439693
      ],
      [
        "▁alıyor",
        -7.267886573406208
      ],
      [
        "unları",
        -8.274387771946522
      ],
      [
        "▁donem",
        -8.508751581394174
      ],
      [
        "▁kurallar",
        -9.569816938132561
      ],
      [
        "▁er",
        -8.700371133238654
      ],
      [
        "▁am",
        -9.787539236234137
      ],
      [
        "▁olma",
        -8.219141381625018
      ],
      [
        "▁senator",
        -9.547466244575492
      ],
      [
        "▁koca",
        -6.809408070987436
      ],
      [
        "uktu",
        -7.263764642908668
      ],
      [
        "▁gelis",
        -8.914849163749613
      ],
      [
        "▁makine",
        -8.699882033332251
      ],
      [
        "▁talebi",
        -9.827272506449066
      ],
      [
        "ye",
        -4.573780734147815
      ],
      [
        "▁elli",
        -6.208347808831624
      ],
      [
        "▁mevki",
        -9.839966037268601
      ],
      [
        "▁hassas",
        -8.493380798764369
      ],
      [
        "1",
        -4.618758539404045
      ],
      [
        "▁kat",
        -8.447485081271845
      ],
      [
        "▁faaliyetleri",
        -9.631667217583457
      ],
      [
        "▁vardi",
        -6.25965259201028
      ],
      [
        "▁az",
        -6.471772696233295
      ],
      [
        "▁adamdı",
        -8.648796851814279
      ],
      [
        "▁cekici",
        -10.091002699376883
      ],
      [
        "▁elbise",
        -8.490165131119257
      ],
      [
        "▁geride",
        -9.458082898483372
      ],
      [
        "▁go",
        -8.329695954102501
      ],
      [
        "▁tabi",
        -6.9922903682893205
      ],
      [
        "▁tıp",
        -7.74869399277782
      ],
      [
        "▁ileri",
        -7.922074601544299
      ],
      [
        "▁uc",
        -8.018569844224036
      ],
      [
        "▁elini",
        -8.42755988549434
      ],
      [
        "▁buluna",
        -7.764962097519984
      ],
      [
        "▁sonuclar",
        -9.03438505163045
      ],
      [
        "▁ikna",
        -9.54526251206085
      ],
      [
        "▁isteme",
        -9.968359058301107
      ],
      [
        "ki",
        -5.8381534103384745
      ],
      [
        "ılan",
        -8.795705729473106
      ],
      [
        "▁orada",
        -5.86959198151261
      ],
      [
        "ek",
        -8.432671710188803
      ],
      [
        "▁dusundugum",
        -8.699969769942838
      ],
      [
        "ler",
        -5.198978878287717
      ],
      [
        "▁komur",
        -9.736558936187446
      ],
      [
        "▁tutmak",
        -9.9476606874824
      ],
      [
        "–",
        -12.802702672349787
      ],
      [
        "on",
        -4.581243662563073
      ],
      [
        "cu",
        -5.8390927427595125
      ],
      [
        "ut",
        -8.706720389201042
      ],
      [
        "▁hayatı",
        -8.827664083635032
      ],
      [
        "▁derdin",
        -9.950705520755738
      ],
      [
        "▁pazar",
        -7.728872626375107
      ],
      [
        "▁sozlerini",
        -9.664947539044828
      ],
      [
        "▁ustunde",
        -7.996886191260947
      ],
      [
        "▁zorla",
        -9.865764098379396
      ],
      [
        "▁ayva",
        -10.033690162077987
      ],
      [
        "▁gerekiyor",
        -7.141487195025526
      ],
      [
        "▁1990'da",
        -10.114116436988432
      ],
      [
        "▁burcu",
        -9.906364138136519
      ],
      [
        "▁neden",
        -5.802656505533223
      ],
      [
        "▁1.6",
        -7.0577073785408775
      ],
      [
        "▁cesur",
        -8.757668871855296
      ],
      [
        "▁guney",
        -8.542530109911308
      ],
      [
        "▁uyum",
        -9.254911224390945
      ],
      [
        "rekt",
        -7.869188788552224
      ],
      [
        "▁okullar",
        -9.90621378562223
      ],
      [
        "▁yumusa",
        -7.937687443718504
      ],
      [
        "▁yedi",
        -5.3484134847842775
      ],
      [
        "▁temizlikte",
        -9.671163258406722
      ],
      [
        "▁toplam",
        -7.814002498854201
      ],
      [
        "▁haric",
        -8.907546030502688
      ],
      [
        "gıy",
        -8.2890619212006
      ],
      [
        "▁falan",
        -9.683560151511353
      ],
      [
        "▁seyler",
        -7.533892322096259
      ],
      [
        "▁turk",
        -6.29239673085937
      ],
      [
        "▁saka",
        -8.943370463226978
      ],
      [
        "▁hayra",
        -10.176037961049278
      ],
      [
        "#",
        -10.352702672349787
      ],
      [
        "▁mayıs",
        -9.284960019837818
      ],
      [
        "▁bakanlar",
        -10.141679295149753
      ],
      [
        "ni",
        -6.2097340952788675
      ],
      [
        "▁sofor",
        -9.35234754464399
      ],
      [
        "cisi",
        -8.936210285596117
      ],
      [
        "*",
        -8.013350264920795
      ],
      [
        "▁alın",
        -7.703435514389548
      ],
      [
        "▁ziyaret",
        -8.612142628995795
      ],
      [
        "▁yapacagın",
        -9.856402556141848
      ],
      [
        "▁fazla",
        -8.989113964811297
      ],
      [
        "▁acele",
        -8.404598797197146
      ],
      [
        "eri",
        -9.546284511109059
      ],
      [
        "▁duvar",
        -8.483693411000996
      ],
      [
        "▁istiyor",
        -7.248337486283619
      ],
      [
        "▁dinledi",
        -8.832263879187543
      ],
      [
        "evi",
        -9.045549806112712
      ],
      [
        "▁okulun",
        -9.603742960540501
      ],
      [
        "▁ibrahim",
        -8.082282298943525
      ],
      [
        "▁reagan",
        -8.23246718729969
      ],
      [
        "▁toprag",
        -9.75972422173824
      ],
      [
        "▁yerinde",
        -8.10903683046838
      ],
      [
        "▁arkasında",
        -8.539778689059515
      ],
      [
        "▁olmadıgı",
        -8.55321234260587
      ],
      [
        "▁anlat",
        -10.100097808831135
      ],
      [
        "▁nazik",
        -8.32325300885901
      ],
      [
        "▁adam",
        -6.779013191235255
      ],
      [
        "sizlik",
        -8.726956400589636
      ],
      [
        "▁yuruyor",
        -8.931271884895946
      ],
      [
        "▁kapısını",
        -9.144439727780219
      ],
      [
        "▁sanayi",
        -8.650234567838627
      ],
      [
        "▁tavuk",
        -9.132759522835407
      ],
      [
        "▁cins",
        -8.401508958306177
      ],
      [
        "▁asagıda",
        -8.947762715351653
      ],
      [
        "meye",
        -7.097658097142998
      ],
      [
        "▁bi",
        -4.970497081628543
      ],
      [
        "▁ceket",
        -9.57781190397138
      ],
      [
        "asa",
        -9.345251328416396
      ],
      [
        "▁gecikme",
        -9.634160321781895
      ],
      [
        "▁tahvil",
        -7.700473365226528
      ],
      [
        "▁sabahlar",
        -8.336444228612429
      ],
      [
        "▁ti",
        -3.9155890831001203
      ],
      [
        "▁nor",
        -8.167785291598292
      ],
      [
        "▁gorgu",
        -10.100431459635612
      ],
      [
        "▁agı",
        -9.783707167991384
      ],
      [
        "▁kucu",
        -8.433503492467294
      ],
      [
        "sunu",
        -8.139020331463861
      ],
      [
        "▁bankalar",
        -9.212912823398511
      ],
      [
        "▁olcude",
        -8.134554722448769
      ],
      [
        "v",
        -7.594892263256156
      ],
      [
        "oru",
        -10.159233915415598
      ],
      [
        "▁taslar",
        -9.459288508097751
      ],
      [
        "▁gerekir",
        -7.608638063474874
      ],
      [
        "▁cok",
        -9.664383700682187
      ],
      [
        "▁ekonomi",
        -6.9467799020503
      ],
      [
        "▁deniz",
        -6.759021777013119
      ],
      [
        "lli",
        -10.009628530707937
      ],
      [
        "▁duzenl",
        -8.012533933194753
      ],
      [
        "▁bıcak",
        -9.104959107507359
      ],
      [
        "c",
        -4.254761954954862
      ],
      [
        "▁ekmegi",
        -9.489975075432206
      ],
      [
        "▁gunleri",
        -8.499476119786385
      ],
      [
        "▁havalimanların",
        -10.176306670827618
      ],
      [
        "▁haftalı",
        -8.124062166503307
      ],
      [
        "▁gul",
        -8.923090329090016
      ],
      [
        "'ı",
        -7.531868235774581
      ],
      [
        "▁kogus",
        -10.100193845449837
      ],
      [
        "▁saglık",
        -8.308972200964265
      ],
      [
        "▁kurtaj",
        -9.105122140708016
      ],
      [
        "▁birbiri",
        -6.524940154870734
      ],
      [
        "▁arkadasim",
        -9.287327542846604
      ],
      [
        "▁cocuklugum",
        -10.152071898991176
      ],
      [
        "▁sepet",
        -9.221022831859003
      ],
      [
        "▁elin",
        -9.08095877868757
      ],
      [
        "▁aktiviteler",
        -9.649341757599423
      ],
      [
        "▁reform",
        -9.190020588323259
      ],
      [
        "mis",
        -6.005830842246151
      ],
      [
        "▁uyu",
        -8.857746709871154
      ],
      [
        "▁goster",
        -4.7802924241005025
      ],
      [
        "▁gece",
        -5.900191116805786
      ],
      [
        "▁ola",
        -7.060701390497842
      ],
      [
        "▁se",
        -4.925808727806686
      ],
      [
        "▁karabiber",
        -9.784409123165506
      ],
      [
        "▁tuvalet",
        -9.681777541057489
      ],
      [
        "▁sırada",
        -8.319202512375822
      ],
      [
        "▁yurume",
        -9.799047690078684
      ],
      [
        "o",
        -2.8956488792173367
      ],
      [
        "▁alır",
        -7.4430565420438
      ],
      [
        "▁bil",
        -8.09607963168584
      ],
      [
        "▁gunumuz",
        -9.315078347139123
      ],
      [
        "▁nufus",
        -9.450628377920332
      ],
      [
        "▁domates",
        -9.161307313560851
      ],
      [
        "▁gitmek",
        -8.317067116257146
      ],
      [
        "▁ortak",
        -9.307227423842601
      ],
      [
        "▁gunduz",
        -8.952784687052596
      ],
      [
        "▁yetkilileri",
        -8.255147153631782
      ],
      [
        "▁dusundu",
        -7.624996139132827
      ],
      [
        "▁tahmin",
        -7.668454589954176
      ],
      [
        "▁mısın",
        -5.888033299562615
      ],
      [
        "g",
        -6.440338115441626
      ],
      [
        "▁ettik",
        -8.227321382174205
      ],
      [
        "▁tarafını",
        -10.156672432965618
      ],
      [
        "▁girdik",
        -8.950959130594612
      ],
      [
        "r",
        -3.023477297952498
      ],
      [
        "miyor",
        -7.394474598951474
      ],
      [
        "kendi",
        -8.045656625088052
      ],
      [
        "▁fırın",
        -9.373465126223689
      ],
      [
        "▁kokusu",
        -8.979083327015458
      ],
      [
        "▁haziran",
        -7.47108916219549
      ],
      [
        "▁guzeldi",
        -4.537164040841041
      ],
      [
        "▁mus",
        -5.417352690502484
      ],
      [
        "▁yetersiz",
        -6.856958464066205
      ],
      [
        "▁cereyan",
        -9.961308490700123
      ],
      [
        "▁iste",
        -6.53043461090222
      ],
      [
        "▁gibi",
        -2.7839934559607933
      ],
      [
        "▁gece",
        -6.8423262270207905
      ],
      [
        "▁yasal",
        -8.233397827924325
      ],
      [
        "▁mani",
        -9.35902080046072
      ],
      [
        "lanma",
        -8.65426640272351
      ],
      [
        "▁duzenlemeleri",
        -9.875361728102114
      ],
      [
        "▁aqua",
        -9.46355902334115
      ],
      [
        "▁bunda",
        -5.599372556045785
      ],
      [
        "▁oakland",
        -6.972867370550637
      ],
      [
        "▁tef",
        -9.903655744430518
      ],
      [
        "▁kendinizi",
        -7.1322740463500285
      ],
      [
        "uz",
        -5.3946574070791815
      ],
      [
        "▁olmasını",
        -8.907086360566069
      ],
      [
        "▁kadının",
        -8.890467343514041
      ],
      [
        "▁ceyrek",
        -8.150876485848588
      ],
      [
        "cık",
        -8.41530316108884
      ],
      [
        "lamak",
        -8.571127496361784
      ],
      [
        "▁buyume",
        -8.410159058265386
      ],
      [
        "▁worth'da",
        -7.589467204646883
      ],
      [
        "▁birbirlerin",
        -6.499373602294938
      ],
      [
        "▁ablam",
        -10.044914674658257
      ],
      [
        "▁gozyası",
        -10.100250421485434
      ],
      [
        "▁gelir",
        -7.122760924582713
      ],
      [
        "▁asık",
        -8.748523953003708
      ],
      [
        "▁yatırımcıları",
        -9.28533371678243
      ],
      [
        "▁soylemedi",
        -8.802041596917288
      ],
      [
        "ask",
        -5.901277785160477
      ],
      [
        "▁ellerini",
        -8.886982504390433
      ],
      [
        "▁iki",
        -2.932821784785342
      ],
      [
        "ma",
        -6.393463579249078
      ],
      [
        "▁destekleme",
        -9.931531172443034
      ],
      [
        "mle",
        -8.266579360532228
      ],
      [
        "ye",
        -5.347596821164118
      ],
      [
        ";",
        -5.873728944142089
      ],
      [
        "▁lezzetleri",
        -8.841774605790807
      ],
      [
        "▁soyluyorlar",
        -8.719631693301242
      ],
      [
        "▁de",
        -8.926184400510895
      ],
      [
        "▁ka",
        -8.294860978827629
      ],
      [
        "▁systems",
        -7.670663312767045
      ],
      [
        "du",
        -4.695439442154072
      ],
      [
        "▁hızla",
        -6.8654287322603
      ],
      [
        "▁degisme",
        -8.242077861260858
      ],
      [
        "▁sun",
        -8.492721875837578
      ],
      [
        "ımızda",
        -9.456512668188527
      ],
      [
        "▁vatandas",
        -9.179384697132875
      ],
      [
        "▁gor",
        -8.305038711044588
      ],
      [
        "um",
        -7.966549887239921
      ],
      [
        "▁ucusu",
        -8.875815659425072
      ],
      [
        "in",
        -5.792810355911519
      ],
      [
        "▁acısın",
        -8.746028472792368
      ],
      [
        "▁sanatcılar",
        -9.823555721905187
      ],
      [
        "▁buyu",
        -9.58168249086906
      ],
      [
        "▁tarafın",
        -9.596805134701134
      ],
      [
        "rate",
        -7.759016430197842
      ],
      [
        "▁bekle",
        -8.897327571080766
      ],
      [
        "▁dururdu",
        -8.93958620158383
      ],
      [
        "▁ureticisi",
        -8.833907181218605
      ],
      [
        "▁kasıgı",
        -8.668055877683774
      ],
      [
        "▁kayıp",
        -9.718502707064934
      ],
      [
        "▁roman",
        -8.767074616928863
      ],
      [
        "lmaz",
        -8.186394698680651
      ],
      [
        "▁deneme",
        -8.704103972269603
      ],
      [
        "▁sık",
        -6.294492815396526
      ],
      [
        "▁kong",
        -8.207051402981307
      ],
      [
        "▁fransız",
        -9.783588633910734
      ],
      [
        "n",
        -2.612661024943989
      ],
      [
        "i",
        -3.4756304079147933
      ],
      [
        "▁derin",
        -8.538183502760576
      ],
      [
        "▁bira",
        -7.941284487515572
      ],
      [
        "▁evini",
        -9.860601656571461
      ],
      [
        "▁kotu",
        -9.027620293444343
      ],
      [
        "▁bonoları",
        -9.844535751102892
      ],
      [
        "▁cin",
        -7.368193966484965
      ],
      [
        "▁rejim",
        -10.169833781291858
      ],
      [
        "▁otlar",
        -9.933807559153598
      ],
      [
        "▁personelleri",
        -7.071300630353229
      ],
      [
        "x",
        -9.50355901977652
      ],
      [
        "yen",
        -6.847219483426914
      ],
      [
        "▁eseri",
        -9.57061407416025
      ],
      [
        "lerini",
        -6.198054628146535
      ],
      [
        "aka",
        -7.864848662931539
      ],
      [
        "▁ic",
        -8.37415200606085
      ],
      [
        "i",
        -6.569725458742204
      ],
      [
        "▁dusunur",
        -8.165509321586125
      ],
      [
        "▁entari",
        -9.898794601533897
      ],
      [
        "▁noktasın",
        -10.128353046305243
      ],
      [
        "▁tufek",
        -10.176366451722568
      ],
      [
        "▁olu",
        -9.453047351663175
      ],
      [
        "▁niteligi",
        -10.027969514692597
      ],
      [
        "bil",
        -8.839063913363281
      ],
      [
        "▁avrupa'da",
        -7.497466820441639
      ],
      [
        "▁sonrasın",
        -8.902465002295541
      ],
      [
        "▁satısı",
        -9.026517819365989
      ],
      [
        "meyi",
        -9.40270768619759
      ],
      [
        "ca",
        -7.126501367689933
      ],
      [
        "▁dıs",
        -7.897161349086526
      ],
      [
        "li",
        -8.076561838336984
      ],
      [
        "▁tara",
        -9.751840969025903
      ],
      [
        "▁bakın",
        -7.978477074509707
      ],
      [
        "▁gidis",
        -7.275597656799717
      ],
      [
        "▁houston",
        -7.917246887274478
      ],
      [
        "hic",
        -7.843634605618451
      ],
      [
        "▁ya",
        -2.9045168103401533
      ],
      [
        "▁basar",
        -8.89848673732579
      ],
      [
        "▁vade",
        -9.007490136284193
      ],
      [
        "▁aglama",
        -9.569229174643645
      ],
      [
        "ba",
        -8.06782252209855
      ],
      [
        "▁baskanlıgı",
        -9.807948632610456
      ],
      [
        "▁kal",
        -7.282630546391927
      ],
      [
        "▁gonderdi",
        -8.498094181511378
      ],
      [
        "▁niha",
        -8.322839238780727
      ],
      [
        "▁baglıdır",
        -8.984089547613655
      ],
      [
        "▁bagıs",
        -9.763614522246431
      ],
      [
        "▁ihracları",
        -9.737291670311754
      ],
      [
        "do",
        -9.14594777603917
      ],
      [
        "▁18",
        -6.1993401006974596
      ],
      [
        "▁coktu",
        -8.06925336707311
      ],
      [
        "ne",
        -7.508679295573125
      ],
      [
        "▁19",
        -5.584042382710446
      ],
      [
        "▁hayatımız",
        -9.65866042893382
      ],
      [
        "▁kontrol",
        -8.273674508363422
      ],
      [
        "▁memphis'",
        -6.872706489303382
      ],
      [
        "▁karakol",
        -10.02798614523226
      ],
      [
        "o",
        -3.5207675806184575
      ],
      [
        "▁uretim",
        -8.475241322658277
      ],
      [
        "▁1\\/",
        -5.804230612565163
      ],
      [
        "▁trust",
        -8.038755782515096
      ],
      [
        "mızda",
        -9.128695140169057
      ],
      [
        "▁cene",
        -9.396304266801241
      ],
      [
        "yuzlu",
        -6.498143314138133
      ],
      [
        "m",
        -5.266659879742203
      ],
      [
        "kleri",
        -8.632289154070612
      ],
      [
        "▁frank",
        -8.183849809091923
      ],
      [
        "k",
        -4.6147283463589135
      ],
      [
        "ip",
        -8.147036271354292
      ],
      [
        "▁kole",
        -9.686948852691543
      ],
      [
        "al",
        -6.132646043440521
      ],
      [
        "▁analizciler",
        -9.468118507357525
      ],
      [
        "▁tanık",
        -9.510725076381487
      ],
      [
        "▁gecirme",
        -9.968241530120903
      ],
      [
        "▁indirim",
        -9.22308498276562
      ],
      [
        "la",
        -6.957578549967413
      ],
      [
        "▁cagırdı",
        -8.8242755219977
      ],
      [
        "▁dikkat",
        -7.762260855898051
      ],
      [
        "▁kongre",
        -8.633262786190507
      ],
      [
        "▁il",
        -8.546225476510248
      ],
      [
        "▁ara",
        -7.73045778762757
      ],
      [
        "▁esas",
        -10.136280484055908
      ],
      [
        "▁baker",
        -7.9972181113886425
      ],
      [
        "▁sart",
        -9.118202071955784
      ],
      [
        "▁basımız",
        -9.968512381728006
      ],
      [
        "▁gunler",
        -8.535755032459603
      ],
      [
        "ir",
        -7.249585255353831
      ],
      [
        "▁gazino",
        -9.898820973626105
      ],
      [
        "▁yolcu",
        -9.301193601585384
      ],
      [
        "▁galibiyet",
        -10.099802299638778
      ],
      [
        "▁sınır",
        -8.873058586037608
      ],
      [
        "ti",
        -7.688775488755771
      ],
      [
        "▁degisim",
        -8.859775443805905
      ],
      [
        "▁kiler",
        -5.651095447333789
      ],
      [
        "▁11",
        -5.819399660742911
      ],
      [
        "▁yarar",
        -9.642015797079011
      ],
      [
        "p",
        -6.8247742603690735
      ],
      [
        "▁tarzı",
        -9.663895747257431
      ],
      [
        "▁geceleri",
        -9.493602722950293
      ],
      [
        "▁okul",
        -8.299799684002835
      ],
      [
        "▁odun",
        -9.003910930160355
      ],
      [
        "▁gorun",
        -8.35481860629487
      ],
      [
        "▁b",
        -6.664377335583076
      ],
      [
        "▁icra",
        -9.130440742747137
      ],
      [
        "▁begenmedi",
        -7.03843907103994
      ],
      [
        "▁umudu",
        -10.027962300903457
      ],
      [
        "▁per",
        -8.356093819964316
      ],
      [
        "▁f",
        -9.397581593746157
      ],
      [
        "▁az",
        -9.081384129597188
      ],
      [
        "▁sade",
        -4.929761959807005
      ],
      [
        "eki",
        -7.37202748704168
      ],
      [
        "▁amerika'da",
        -8.238249559532939
      ],
      [
        "▁nihayet",
        -10.176306523193368
      ],
      [
        "▁gazeteciler",
        -10.055070894717892
      ],
      [
        "▁yildiz",
        -10.176309108254484
      ],
      [
        "▁tele",
        -7.449750743010933
      ],
      [
        "▁43",
        -7.045957252005733
      ],
      [
        "▁bir",
        -1.2266873658587887
      ],
      [
        "▁etkenler",
        -10.16693217633767
      ],
      [
        "▁verir",
        -7.67016575151838
      ],
      [
        "▁ornek",
        -8.663211245940706
      ],
      [
        "▁tahvilleri",
        -8.704830990606728
      ],
      [
        "ımlı",
        -8.741268454258853
      ],
      [
        "temiz",
        -8.736503455565757
      ],
      [
        "▁kulak",
        -8.54936847653918
      ],
      [
        "▁lokanta",
        -9.521667658815536
      ],
      [
        "▁toplantıda",
        -9.336429958495442
      ],
      [
        "▁meksika",
        -8.241621926134677
      ],
      [
        "lanmak",
        -10.050764534302068
      ],
      [
        "temel",
        -7.572565365807591
      ],
      [
        "▁kapasitesi",
        -9.148537665959672
      ],
      [
        "▁komitesi",
        -9.410370628246364
      ],
      [
        "▁genel",
        -5.430935490490446
      ],
      [
        "samba",
        -9.511335110794256
      ],
      [
        "▁mayıs",
        -7.853242583760244
      ],
      [
        "▁kalktı",
        -7.850631911405778
      ],
      [
        "▁bırakı",
        -8.076229761590735
      ],
      [
        "en",
        -3.944717042641246
      ],
      [
        "▁eylul",
        -7.337048712433888
      ],
      [
        "▁gurur",
        -9.703473493071634
      ],
      [
        "▁suphe",
        -8.404558566732096
      ],
      [
        "min",
        -8.42882417760081
      ],
      [
        "▁yapa",
        -6.83511149287275
      ],
      [
        "▁durus",
        -10.00284843700552
      ],
      [
        "▁kac",
        -8.390868883630446
      ],
      [
        "▁maliye",
        -9.958890084374683
      ],
      [
        "▁toz",
        -9.034991605204695
      ],
      [
        "▁ayag",
        -9.334954406174006
      ],
      [
        "▁is",
        -8.322910808840675
      ],
      [
        "▁ogul",
        -9.388069455949507
      ],
      [
        "▁gorev",
        -7.82578387076788
      ],
      [
        "▁hatırlat",
        -8.661452357706834
      ],
      [
        "▁%1",
        -9.946471651455337
      ],
      [
        "le",
        -5.607696273133939
      ],
      [
        "▁gunlerde",
        -8.684531975954954
      ],
      [
        "cak",
        -9.936236622001802
      ],
      [
        "ılması",
        -9.18157451446561
      ],
      [
        "50",
        -6.986054737074031
      ],
      [
        "da",
        -7.47758773350303
      ],
      [
        "▁agaclar",
        -9.70234425374325
      ],
      [
        "▁adı",
        -7.912290995364163
      ],
      [
        "kırı",
        -8.502980451637516
      ],
      [
        "▁sahibi",
        -8.006511560293184
      ],
      [
        "▁verdi",
        -6.149864983269833
      ],
      [
        "▁kurus",
        -9.240599693927493
      ],
      [
        "ort",
        -9.715229912644606
      ],
      [
        "▁taban",
        -9.424452366415947
      ],
      [
        "▁kurtar",
        -8.75406711257996
      ],
      [
        "iydi",
        -7.5635232602572104
      ],
      [
        "▁airlines",
        -6.469843231157303
      ],
      [
        "▁un",
        -8.933659764201568
      ],
      [
        "▁dokme",
        -10.100370243198487
      ],
      [
        "▁adlandır",
        -8.986658973389298
      ],
      [
        "▁babasını",
        -9.587439996024191
      ],
      [
        "▁gorunuyor",
        -7.329012415121878
      ],
      [
        "▁tartısmalar",
        -9.809230014363088
      ],
      [
        "▁bahsetti",
        -8.786500663505338
      ],
      [
        "▁giris",
        -8.903702275728136
      ],
      [
        "▁baglan",
        -8.73388549521388
      ],
      [
        "▁istedigi",
        -9.897672029807197
      ],
      [
        "▁senet",
        -9.928353417102489
      ],
      [
        "▁gerektigin",
        -8.245551379704743
      ],
      [
        "▁basi",
        -8.216603476879973
      ],
      [
        "siz",
        -5.279569494377398
      ],
      [
        "▁onu",
        -3.8180555155698697
      ],
      [
        "▁bilgilerin",
        -9.832990431732016
      ],
      [
        "▁dusunuyoru",
        -7.936326132982006
      ],
      [
        "▁delik",
        -10.110739064637656
      ],
      [
        "▁semsiye",
        -10.099383701981905
      ],
      [
        "-",
        -5.222901331865919
      ],
      [
        "▁su",
        -8.517285383293167
      ],
      [
        "▁katılım",
        -9.909710305850982
      ],
      [
        "▁yavas",
        -6.877789976330432
      ],
      [
        "▁gıda",
        -9.318010529249102
      ],
      [
        "▁nikah",
        -9.898788407949514
      ],
      [
        "▁dısarıda",
        -9.125481341494325
      ],
      [
        "▁girmis",
        -8.899909960239881
      ],
      [
        "▁yolunda",
        -9.563159425706681
      ],
      [
        "”",
        -9.78282532741986
      ],
      [
        "▁bulunan",
        -7.980153037192069
      ],
      [
        "▁cevir",
        -8.9035554935799
      ],
      [
        "▁sırada",
        -8.798483873222734
      ],
      [
        "▁baltimore'de",
        -5.9201318121674325
      ],
      [
        "▁2'de",
        -10.103961798093263
      ],
      [
        "▁beyaz",
        -7.733156618765178
      ],
      [
        "deta",
        -6.817374011480661
      ],
      [
        "nal",
        -8.168082854549622
      ],
      [
        "▁ipek",
        -9.840855766466511
      ],
      [
        "▁havalimanı",
        -9.985448338665414
      ],
      [
        "▁huzun",
        -9.839981764676583
      ],
      [
        "gu",
        -7.939005614181522
      ],
      [
        "▁hakem",
        -9.786090566208077
      ],
      [
        "▁tabanca",
        -9.841153446677637
      ],
      [
        "r",
        -2.7496375480404023
      ],
      [
        "▁ic",
        -8.077256345274252
      ],
      [
        "s",
        -6.888021904455875
      ],
      [
        "▁memnunu",
        -7.304399173983059
      ],
      [
        "▁oku",
        -8.25706644052518
      ],
      [
        "▁baskanı",
        -7.480618363551514
      ],
      [
        "▁ar",
        -8.762983023464987
      ],
      [
        ".7",
        -7.256500161773339
      ],
      [
        "▁yedi",
        -9.86455623424229
      ],
      [
        "▁ne",
        -3.7234659756415116
      ],
      [
        "▁dostları",
        -10.09599747935741
      ],
      [
        "▁gelmez",
        -8.561449333581786
      ],
      [
        "▁hic",
        -9.107136274934724
      ],
      [
        "▁ahmet",
        -7.460731861142552
      ],
      [
        "▁misafirler",
        -10.175422158622158
      ],
      [
        "▁muamele",
        -9.841444417754163
      ],
      [
        "▁yuzunu",
        -8.712236517764657
      ],
      [
        "▁urunler",
        -9.022701161604619
      ],
      [
        "▁w",
        -7.777294965806435
      ],
      [
        "obur",
        -7.915910986663735
      ],
      [
        "▁ed",
        -9.642248305141756
      ],
      [
        "▁fonlar",
        -9.152842269356924
      ],
      [
        "ra",
        -8.721498686150658
      ],
      [
        "ka",
        -7.788155254108851
      ],
      [
        "▁kosede",
        -9.631745221284612
      ],
      [
        "▁tumu",
        -9.642897545484665
      ],
      [
        "▁durgunluk",
        -9.352346340199059
      ],
      [
        "▁farkında",
        -9.05606138431989
      ],
      [
        "▁haklarını",
        -9.863668296466095
      ],
      [
        "▁sozunu",
        -9.373283082231094
      ],
      [
        "▁merdiven",
        -9.202070911828507
      ],
      [
        "▁kosesinde",
        -9.572991118989078
      ],
      [
        "da",
        -4.263949664924009
      ],
      [
        "lıg",
        -8.185077983117543
      ],
      [
        "▁canlı",
        -9.111286277557937
      ],
      [
        "miz",
        -7.523029650265079
      ],
      [
        "▁hissedarları",
        -9.848696089389737
      ],
      [
        "▁depo",
        -9.247761026159576
      ],
      [
        "▁us",
        -7.929442508986908
      ],
      [
        "▁nefes",
        -8.535628100949914
      ],
      [
        "▁yuzun",
        -8.771282901498608
      ],
      [
        "▁dalga",
        -9.090413544921676
      ],
      [
        "b",
        -7.70537449612564
      ],
      [
        "▁cuval",
        -9.78440930681664
      ],
      [
        "▁gayrimenkul",
        -8.976583914708986
      ],
      [
        "▁oburu",
        -7.437531266809803
      ],
      [
        "▁yetenekleri",
        -10.169526001318182
      ],
      [
        "▁sevgili",
        -8.590160799265618
      ],
      [
        "▁coktan",
        -7.3459526941433975
      ],
      [
        "c",
        -7.456203092935342
      ],
      [
        "▁batı",
        -7.674105944717036
      ],
      [
        "unu",
        -7.466198157082587
      ],
      [
        "▁etmedi",
        -7.5904811672750885
      ],
      [
        "an",
        -7.668036448599423
      ],
      [
        "▁kusur",
        -8.597400942839396
      ],
      [
        "z",
        -12.24335423160404
      ],
      [
        "yla",
        -6.08064716344082
      ],
      [
        "▁soguktu",
        -8.111127033409582
      ],
      [
        "▁sular",
        -9.09895035802344
      ],
      [
        "ve",
        -6.34156215292432
      ],
      [
        "▁sav",
        -9.706927529213113
      ],
      [
        "leri",
        -8.80600109880018
      ],
      [
        "▁tutum",
        -9.690219046556447
      ],
      [
        "▁gecirdik",
        -8.503963635885977
      ],
      [
        "▁mini",
        -7.617494903195212
      ],
      [
        "▁satın",
        -7.26239506977346
      ],
      [
        "mesi",
        -7.080830730383252
      ],
      [
        "▁biri",
        -8.165567273475755
      ],
      [
        "▁francisco",
        -5.916503277408278
      ],
      [
        "▁kırmızı",
        -6.9982941575363355
      ],
      [
        "dan",
        -5.612755608367095
      ],
      [
        "▁sırasın",
        -9.295461748669172
      ],
      [
        "▁hız",
        -9.412075947313848
      ],
      [
        "▁bucuk",
        -8.762695278337272
      ],
      [
        "▁oyna",
        -8.502331376591057
      ],
      [
        "mek",
        -7.738690938566126
      ],
      [
        "mayacagını",
        -9.62583367441017
      ],
      [
        "▁medeniyet",
        -9.993615089422743
      ],
      [
        "▁ser",
        -8.513089292382647
      ],
      [
        "▁newark",
        -8.322903132594115
      ],
      [
        "ınızı",
        -9.99741286964868
      ],
      [
        "▁kim",
        -4.773235186824169
      ],
      [
        "▁belirlen",
        -8.762830260190546
      ],
      [
        "▁dısında",
        -8.638334062284523
      ],
      [
        "digini",
        -7.772256147668039
      ],
      [
        "▁fiyatları",
        -7.528386336713049
      ],
      [
        "▁raporlar",
        -9.915325152003438
      ],
      [
        "▁ederdi",
        -8.32431761267153
      ],
      [
        "▁manevra",
        -10.027954872153177
      ],
      [
        "▁istanbul",
        -9.96128821890015
      ],
      [
        "▁on",
        -7.456449375650154
      ],
      [
        "▁isaret",
        -8.723687188696665
      ],
      [
        "▁baslayacak",
        -8.338687462296841
      ],
      [
        "▁pa",
        -8.229785100754121
      ],
      [
        "m",
        -2.873216853466465
      ],
      [
        "▁yerin",
        -7.675975537647207
      ],
      [
        "▁asker",
        -8.463880583702121
      ],
      [
        "▁onumuzde",
        -6.668482556610607
      ],
      [
        "▁yapılıyor",
        -8.55978477419495
      ],
      [
        "▁op",
        -9.905942988507054
      ],
      [
        "▁haftada",
        -9.302263279508805
      ],
      [
        "▁gercek",
        -6.589993971854006
      ],
      [
        "▁ilim",
        -10.175052043667677
      ],
      [
        "15",
        -7.462848269292871
      ],
      [
        "▁turkce",
        -8.333911123962746
      ],
      [
        "▁kanaat",
        -10.176503824252304
      ],
      [
        "o",
        -6.336011923027603
      ],
      [
        "▁semt",
        -9.898821012024692
      ],
      [
        "▁sizi",
        -5.685998760825111
      ],
      [
        "▁evi",
        -8.37595878994147
      ],
      [
        "dı",
        -8.828757258661337
      ],
      [
        "▁gelen",
        -6.427638887850488
      ],
      [
        "▁i",
        -8.2117958667695
      ],
      [
        "▁hakan",
        -8.114789020989463
      ],
      [
        "▁gene",
        -6.8420526161527
      ],
      [
        "onu",
        -7.620609519768246
      ],
      [
        "▁kisiler",
        -8.801947328620596
      ],
      [
        "▁aracı",
        -8.565091357527306
      ],
      [
        "▁mevsim",
        -9.43958601313166
      ],
      [
        "▁ticareti",
        -9.102055495733044
      ],
      [
        "kanlı",
        -8.637540324805098
      ],
      [
        "▁calısmaları",
        -9.720947299594505
      ],
      [
        "▁istihdam",
        -9.252299578021919
      ],
      [
        "i",
        -5.1748346016730125
      ],
      [
        "mesi",
        -8.895541088606443
      ],
      [
        "dıgını",
        -7.4734858745138135
      ],
      [
        "▁has",
        -8.726625874575694
      ],
      [
        "▁guldu",
        -8.59670940269548
      ],
      [
        "▁olan",
        -6.016898818599858
      ],
      [
        "▁gul",
        -7.834113419273578
      ],
      [
        "▁sure",
        -7.178789539008516
      ],
      [
        "▁satıslar",
        -7.845565416299318
      ],
      [
        "▁yapmaya",
        -8.689286902628638
      ],
      [
        "▁oyunlar",
        -9.458918430767664
      ],
      [
        "▁etmiyor",
        -7.938923573294892
      ],
      [
        "ys",
        -8.722692971893338
      ],
      [
        "▁isini",
        -8.842625661587274
      ],
      [
        "▁james",
        -7.95169686791302
      ],
      [
        "▁zamanda",
        -7.898850261431715
      ],
      [
        "▁bey",
        -6.737353057666577
      ],
      [
        "le",
        -9.080439678678806
      ],
      [
        "eden",
        -8.441909816439713
      ],
      [
        "▁rakam",
        -9.59406119181797
      ],
      [
        "▁kayık",
        -9.732082580424596
      ],
      [
        "▁seviye",
        -8.781735365320223
      ],
      [
        "▁yaz",
        -7.925087256193843
      ],
      [
        "▁arkadaslarım",
        -10.106927655582886
      ],
      [
        "dik",
        -7.989629979835145
      ],
      [
        "▁bil",
        -9.160273757143404
      ],
      [
        "er",
        -11.017488162037896
      ],
      [
        "▁kasık",
        -9.840366698471442
      ],
      [
        "▁aktarma",
        -6.132486988951108
      ],
      [
        "▁gok",
        -8.212404365444266
      ],
      [
        "▁degistiriyor",
        -8.88595308683686
      ],
      [
        "▁gelecek",
        -7.984943240332869
      ],
      [
        "▁askerler",
        -9.847848987115725
      ],
      [
        "▁agız",
        -8.600352098127015
      ],
      [
        "▁tuketiciler",
        -9.817296569774479
      ],
      [
        "▁bir",
        -3.027951570239419
      ],
      [
        "▁tezgah",
        -8.551251395668611
      ],
      [
        "▁oyuncuları",
        -10.009465591098657
      ],
      [
        "nc",
        -8.425730389423945
      ],
      [
        "▁olgu",
        -9.42408195348473
      ],
      [
        "▁iliskisi",
        -9.572067012884922
      ],
      [
        "▁7",
        -9.135484207627028
      ],
      [
        "▁bolunme",
        -10.176308528487697
      ],
      [
        "r",
        -6.326167901266359
      ],
      [
        "e",
        -6.116056716652192
      ],
      [
        "▁amerika",
        -7.467700766358428
      ],
      [
        "▁otelde",
        -8.362671288111375
      ],
      [
        "▁vegas",
        -8.239903936946574
      ],
      [
        "▁art",
        -8.34966157181385
      ],
      [
        "▁iklim",
        -9.731779073918077
      ],
      [
        "ız",
        -6.912663209463113
      ],
      [
        "▁icmek",
        -10.156511511353978
      ],
      [
        "▁kosesin",
        -10.042257582533578
      ],
      [
        "z",
        -6.428989089571596
      ],
      [
        "▁otele",
        -9.107129534568209
      ],
      [
        "▁oturuyor",
        -8.703918861795998
      ],
      [
        "30'da",
        -9.898747425593585
      ],
      [
        "▁oyun",
        -7.986455557914242
      ],
      [
        "▁don",
        -8.33302328191867
      ],
      [
        "▁isleri",
        -8.875601072342603
      ],
      [
        "▁taraftar",
        -9.550301152664606
      ],
      [
        "▁kaba",
        -9.222172181638669
      ],
      [
        "▁kes",
        -9.56406673324829
      ],
      [
        "▁catal",
        -10.099932248558858
      ],
      [
        "▁hotel",
        -10.099385481680232
      ],
      [
        "▁abd",
        -9.018203724862193
      ],
      [
        "larınızı",
        -10.029224425698223
      ],
      [
        "▁kırık",
        -10.110817013204839
      ],
      [
        "▁cezası",
        -9.719304798459941
      ],
      [
        "▁evlat",
        -10.099595967335762
      ],
      [
        "▁yana",
        -8.36736752338527
      ],
      [
        "▁kesi",
        -9.840505596841776
      ],
      [
        "▁hesab",
        -10.022303624005021
      ],
      [
        "maları",
        -8.445191383645746
      ],
      [
        "▁tokyo",
        -7.688891124280381
      ],
      [
        "si",
        -6.771010741864699
      ],
      [
        "▁c",
        -8.835176991413647
      ],
      [
        "▁",
        -2.896334987865555
      ],
      [
        "▁s",
        -7.689158553916042
      ],
      [
        "▁istiklal",
        -10.176309908739809
      ],
      [
        "men",
        -7.749488467529847
      ],
      [
        "mi",
        -7.596438345119356
      ],
      [
        "▁21",
        -6.150409216274106
      ],
      [
        "lak",
        -9.116075080543805
      ],
      [
        "▁ca",
        -8.240530858342229
      ],
      [
        "▁milyon",
        -3.278490722863072
      ],
      [
        "▁sirkette",
        -9.501554893267384
      ],
      [
        "▁avuc",
        -9.012374300356274
      ],
      [
        "▁yi",
        -6.724826691407346
      ],
      [
        "▁servis",
        -7.706834943466836
      ],
      [
        "▁pazartesi",
        -8.841572573686888
      ],
      [
        "▁westchester",
        -7.766201932015287
      ],
      [
        "▁iskemle",
        -9.898788290510817
      ],
      [
        "▁y",
        -7.475113524003658
      ],
      [
        "▁demokrasi",
        -9.252272002114474
      ],
      [
        "▁cephe",
        -9.545247164627115
      ],
      [
        "▁dusunceler",
        -9.768072150652426
      ],
      [
        "▁doneminde",
        -8.997237730358298
      ],
      [
        "▁universite",
        -8.746930950243414
      ],
      [
        "f",
        -11.199613634584775
      ],
      [
        "▁safha",
        -10.061217263481858
      ],
      [
        "▁columbus'",
        -7.644761089220505
      ],
      [
        "▁'",
        -10.790149558202552
      ],
      [
        "▁bankası",
        -8.971689021421028
      ],
      [
        "▁idare",
        -8.460589934051669
      ],
      [
        "▁ortasında",
        -8.964440705291523
      ],
      [
        "▁gunlu",
        -6.633656965974765
      ],
      [
        "▁dıs",
        -9.819834443049993
      ],
      [
        "▁buyukelci",
        -10.176310699735222
      ],
      [
        "▁kardes",
        -8.761804183716109
      ],
      [
        "▁sehrinde",
        -10.021117408995218
      ],
      [
        "cuk",
        -8.66616413663259
      ],
      [
        "▁borek",
        -10.028317963131128
      ],
      [
        "▁cocuklar",
        -7.351290492625759
      ],
      [
        "maya",
        -8.182278342934532
      ],
      [
        "▁olmus",
        -6.939502463671576
      ],
      [
        "▁yetkililer",
        -9.047680067810095
      ],
      [
        "▁alternatif",
        -9.388060444371748
      ],
      [
        "▁boyle",
        -5.086562249009878
      ],
      [
        "ne",
        -6.372458135960013
      ],
      [
        "▁sıcaklıgı",
        -10.1025131094697
      ],
      [
        "va",
        -8.36708514772662
      ],
      [
        "ceklerini",
        -10.078998871026169
      ],
      [
        "▁surduruyor",
        -8.974412156770702
      ],
      [
        "▁kor",
        -8.94921058477141
      ],
      [
        "10",
        -7.252954889851428
      ],
      [
        "▁ufak",
        -7.167207725982407
      ],
      [
        "▁yusuf",
        -7.8649670775033425
      ],
      [
        "rken",
        -8.96724739117056
      ],
      [
        "▁yapılan",
        -7.503148608251517
      ],
      [
        "siniz",
        -5.458119837635438
      ],
      [
        "lerini",
        -8.443773640625864
      ],
      [
        "dort",
        -6.718900884756826
      ],
      [
        "ne",
        -8.670205081013911
      ],
      [
        "▁mıydı",
        -5.937353458778416
      ],
      [
        "▁hosum",
        -9.324638127994817
      ],
      [
        "▁muhendis",
        -9.475372007351002
      ],
      [
        "▁ham",
        -9.408971673825073
      ],
      [
        "▁muharebe",
        -10.027954882261838
      ],
      [
        "▁guney",
        -7.673310704006244
      ],
      [
        "▁gelmisti",
        -7.989491741900457
      ],
      [
        "▁elde",
        -7.561680282535534
      ],
      [
        "bir",
        -6.535641181344047
      ],
      [
        "▁mahalle",
        -8.53562653892827
      ],
      [
        "▁olursa",
        -7.118533903910536
      ],
      [
        "▁payını",
        -10.071813302935361
      ],
      [
        "▁3/",
        -6.233627537946334
      ],
      [
        "8'de",
        -9.557143200006557
      ],
      [
        "▁57",
        -6.850345209755751
      ],
      [
        "▁baslıca",
        -8.758741546534543
      ],
      [
        "▁kolay",
        -10.16299732192143
      ],
      [
        "unuz",
        -6.768342496865392
      ],
      [
        "▁gir",
        -7.837707612100456
      ],
      [
        "▁herkeste",
        -8.043909796658193
      ],
      [
        "mistir",
        -7.393870760329985
      ],
      [
        "▁sabahı",
        -7.590061537648854
      ],
      [
        "ye",
        -4.130045537692629
      ],
      [
        "▁persembe",
        -7.9882735904532
      ],
      [
        "▁arazi",
        -9.001145186546271
      ],
      [
        "▁hong",
        -7.670114815154395
      ],
      [
        "▁acıldı",
        -7.815745461521954
      ],
      [
        "▁biliyordu",
        -8.696926177736213
      ],
      [
        "▁kac",
        -6.757270404007121
      ],
      [
        "▁varlıklarını",
        -10.133292778970045
      ],
      [
        "▁yollar",
        -9.479169749949811
      ],
      [
        "▁bahsediyor",
        -8.932971530601117
      ],
      [
        "▁icecekler",
        -8.728824381593366
      ],
      [
        "▁goren",
        -8.559329733512701
      ],
      [
        "▁ikisi",
        -7.407822385017121
      ],
      [
        "▁bakanlıgı'n",
        -9.735304766074414
      ],
      [
        "▁ayrıl",
        -10.066425960443842
      ],
      [
        "▁herkes",
        -8.179842702358489
      ],
      [
        "▁karsılık",
        -8.932930162794593
      ],
      [
        "tur",
        -9.316611696601866
      ],
      [
        "▁washington'",
        -6.646016631355565
      ],
      [
        "lemek",
        -9.333090551855985
      ],
      [
        "▁tesekkurler",
        -8.355981129017952
      ],
      [
        "olası",
        -7.743034153911136
      ],
      [
        "▁for",
        -9.633703182114914
      ],
      [
        "(",
        -6.121810261614014
      ],
      [
        "▁kazanc",
        -7.9540988363322525
      ],
      [
        "▁surme",
        -9.635491856956172
      ],
      [
        "▁sona",
        -8.216296537348098
      ],
      [
        "▁pe",
        -9.40898917583845
      ],
      [
        "▁parki",
        -9.710015743780994
      ],
      [
        "▁kez",
        -8.23057518310227
      ],
      [
        "o",
        -4.578117168882934
      ],
      [
        "▁dergileri",
        -10.170901839799004
      ],
      [
        "▁dogru",
        -6.176161593885434
      ],
      [
        "seme",
        -9.517039025630051
      ],
      [
        "▁cumhuriyet",
        -9.34388181259811
      ],
      [
        "▁degisme",
        -8.163684177018716
      ],
      [
        "up",
        -6.6607683440219585
      ],
      [
        "▁yapacagı",
        -8.684583826317212
      ],
      [
        "sız",
        -7.68390184486632
      ],
      [
        "▁a.s",
        -8.24939069284674
      ],
      [
        "▁sınıfı",
        -8.329497744088732
      ],
      [
        "▁oyku",
        -8.967680444711432
      ],
      [
        "▁francisco'da",
        -6.025430847554295
      ],
      [
        "▁new",
        -5.141447350007896
      ],
      [
        "turlu",
        -6.676109046357388
      ],
      [
        "inden",
        -7.24288112292709
      ],
      [
        "▁onum",
        -10.074278550673682
      ],
      [
        "▁kaldıgı",
        -9.967340572160252
      ],
      [
        "▁varmıs",
        -8.558903906461996
      ],
      [
        "▁takım",
        -8.363941752206525
      ],
      [
        "abı",
        -8.959536421818612
      ],
      [
        ".",
        -6.508779962973538
      ],
      [
        "'te",
        -7.554695699613818
      ],
      [
        "▁richard",
        -8.203039213365276
      ],
      [
        "▁sebepler",
        -9.738937941738005
      ],
      [
        "▁bar",
        -8.432456186532402
      ],
      [
        "▁bush",
        -7.397549214620362
      ],
      [
        "y",
        -7.158213097392434
      ],
      [
        "▁ipoteg",
        -9.96128871219953
      ],
      [
        "▁'lu",
        -8.55734771166754
      ],
      [
        "hazır",
        -7.439275110079495
      ],
      [
        "6",
        -8.87981147217561
      ],
      [
        "un",
        -6.350571138778809
      ],
      [
        "▁beklene",
        -8.47202102089458
      ],
      [
        "▁sonra",
        -9.015702093379858
      ],
      [
        "▁degisiklikler",
        -8.99307489021451
      ],
      [
        "▁olsaydı",
        -8.40711788420744
      ],
      [
        "▁universitesi",
        -10.12603875134285
      ],
      [
        "ve",
        -5.575675023950563
      ],
      [
        "▁sıra",
        -7.542075982091267
      ],
      [
        "caba",
        -7.273779888668228
      ],
      [
        "nizin",
        -9.733033255813059
      ],
      [
        "▁ucagın",
        -9.062541823749962
      ],
      [
        "▁texas",
        -7.972934776017524
      ],
      [
        "▁senetleri",
        -8.573480278845839
      ],
      [
        "▁cakmak",
        -10.100250156093423
      ],
      [
        "▁cikiyor",
        -8.870201300572171
      ],
      [
        "lin",
        -8.302366704145015
      ],
      [
        "▁bagım",
        -7.806174640195771
      ],
      [
        "▁cevre",
        -8.155252259757777
      ],
      [
        "▁soluk",
        -8.486440128272543
      ],
      [
        "▁yer",
        -8.608293665629773
      ],
      [
        "▁gecme",
        -9.398484095533862
      ],
      [
        "▁ici",
        -7.0951664394874765
      ],
      [
        "olumlu",
        -7.522201059196778
      ],
      [
        "8",
        -9.073618141218802
      ],
      [
        "▁26",
        -6.241788422066687
      ],
      [
        "▁bıraktı",
        -7.2803044256168885
      ],
      [
        "▁etegi",
        -9.963472663086431
      ],
      [
        "▁cogu",
        -7.522406212547266
      ],
      [
        "arak",
        -6.248357976238072
      ],
      [
        "▁konuları",
        -10.089490505670929
      ],
      [
        "▁kuram",
        -10.125331263377298
      ],
      [
        "▁sol",
        -7.288741515228045
      ],
      [
        "▁suyunu",
        -9.31334735143945
      ],
      [
        "medi",
        -8.684851290272388
      ],
      [
        "▁tesvik",
        -8.741473247416302
      ],
      [
        "'ni",
        -6.192098510147202
      ],
      [
        "▁attı",
        -7.228921289009988
      ],
      [
        "▁kes",
        -8.49539614775726
      ],
      [
        "▁animasyonlar",
        -8.800910853448345
      ],
      [
        "▁grupları",
        -9.6024788590753
      ],
      [
        "gi",
        -7.411655354386049
      ],
      [
        "▁dosya",
        -8.741484486337873
      ],
      [
        "▁ikisini",
        -10.081807435033255
      ],
      [
        "▁karsı",
        -7.1093484264581885
      ],
      [
        "ustu",
        -8.224255914410714
      ],
      [
        "▁yıllık",
        -6.382629120949315
      ],
      [
        "▁pisti",
        -8.276569974260577
      ],
      [
        "▁dile",
        -8.376631499678519
      ],
      [
        "▁pasa",
        -7.518856156672783
      ],
      [
        "ing",
        -8.127706819579522
      ],
      [
        "▁kırı",
        -9.416457010547024
      ],
      [
        "▁calısır",
        -8.62064494205179
      ],
      [
        "8",
        -4.0265055199764435
      ],
      [
        "dur",
        -9.011300140768235
      ],
      [
        "▁basta",
        -8.897917195009862
      ],
      [
        "▁digital",
        -8.313534289837605
      ],
      [
        "sı",
        -5.980693889272721
      ],
      [
        "ın",
        -7.1382036613530975
      ],
      [
        "lardı",
        -6.078459275901821
      ],
      [
        "bir",
        -9.84958288323799
      ],
      [
        "ten",
        -6.617646770750299
      ],
      [
        "▁i",
        -8.445387722296196
      ],
      [
        "▁ver",
        -7.757383306895422
      ],
      [
        "▁yazarın",
        -9.74051462064538
      ],
      [
        "▁koyu",
        -9.612332167093573
      ],
      [
        "▁ba",
        -7.905663656293536
      ],
      [
        "▁m",
        -6.868818945363074
      ],
      [
        "▁ba",
        -8.250698502706395
      ],
      [
        "▁donusu",
        -9.904280407684318
      ],
      [
        "▁lynch",
        -7.449314816384752
      ],
      [
        "▁olmadıgı",
        -9.389487602082133
      ],
      [
        "▁oldugunu",
        -6.570795219592205
      ],
      [
        "▁dusen",
        -8.83135426872035
      ],
      [
        "▁oldu",
        -6.11244623246
      ],
      [
        "▁cemiyet",
        -9.78572297582023
      ],
      [
        "▁yonetici",
        -9.104428611078283
      ],
      [
        "▁eleman",
        -9.609669947885482
      ],
      [
        "▁eserleri",
        -9.946325802924594
      ],
      [
        "▁yana",
        -7.77216474041248
      ],
      [
        "sal",
        -6.9497786218493225
      ],
      [
        "▁class",
        -8.102140046027774
      ],
      [
        "co",
        -4.969231820816542
      ],
      [
        "▁bitirdi",
        -8.78459095776465
      ],
      [
        "▁cukur",
        -9.73178083591959
      ],
      [
        "▁d",
        -7.853809268752026
      ],
      [
        "lenme",
        -8.398491152170017
      ],
      [
        "▁ligin",
        -9.822160854347754
      ],
      [
        "▁jones",
        -6.8050000035329266
      ],
      [
        "▁komisyoncu",
        -10.006780883963096
      ],
      [
        "n",
        -3.992344194334313
      ],
      [
        "▁ulke",
        -7.948606603315816
      ],
      [
        "▁yuva",
        -9.190725585311082
      ],
      [
        "▁temiz",
        -5.287015000360599
      ],
      [
        "▁bekliyor",
        -7.325980457750257
      ],
      [
        "▁vucut",
        -9.221022010286223
      ],
      [
        "▁doları'nda",
        -9.207621709391148
      ],
      [
        "▁cebinde",
        -9.385942254326451
      ],
      [
        "▁uzmanlar",
        -9.793015565696209
      ],
      [
        "ese",
        -9.881881994760931
      ],
      [
        "▁fırladı",
        -8.369706604505089
      ],
      [
        "▁ait",
        -5.924503288156106
      ],
      [
        "▁diy",
        -8.048293197356147
      ],
      [
        "kı",
        -7.885778701471194
      ],
      [
        "▁ulasa",
        -8.631199064286665
      ],
      [
        "▁karanlık",
        -8.182000264629504
      ],
      [
        "▁ge",
        -8.756003463043847
      ],
      [
        "il",
        -8.041720945472774
      ],
      [
        "▁can",
        -7.814479418953498
      ],
      [
        "▁kapısında",
        -9.213272291238692
      ],
      [
        "▁b",
        -7.979129003456873
      ],
      [
        "▁diego'da",
        -7.712745988696155
      ],
      [
        "▁istemiyor",
        -8.690027703675792
      ],
      [
        "▁ova",
        -9.606267528827495
      ],
      [
        "▁yasamak",
        -10.004434795353417
      ],
      [
        "▁itiraf",
        -9.28453040913249
      ],
      [
        "▁sinirl",
        -8.387794097518851
      ],
      [
        "cılık",
        -8.973618426168706
      ],
      [
        "▁edebiyatı",
        -10.085500324015896
      ],
      [
        "▁h",
        -7.908592599068422
      ],
      [
        "▁kurulu'n",
        -9.85921704199614
      ],
      [
        "larda",
        -6.959888806276309
      ],
      [
        "▁gorune",
        -8.773770914155817
      ],
      [
        "▁is",
        -6.739784994148765
      ],
      [
        "▁am",
        -5.947568370575268
      ],
      [
        "▁aktar",
        -8.557557591398407
      ],
      [
        "▁tayin",
        -9.909167236538035
      ],
      [
        "▁cozumu",
        -10.119909264580079
      ],
      [
        "culuk",
        -10.125816019006361
      ],
      [
        "▁mecbur",
        -8.757778843797404
      ],
      [
        "▁durma",
        -7.886790072455554
      ],
      [
        "▁bahcede",
        -10.002459801582635
      ],
      [
        "ir",
        -7.963442746892628
      ],
      [
        "▁ocak",
        -8.220155806235336
      ],
      [
        "ta",
        -6.454986418729423
      ],
      [
        "▁kalanı",
        -9.786154772728748
      ],
      [
        "▁ge",
        -7.675684987001167
      ],
      [
        "▁oyle",
        -5.64675409423086
      ],
      [
        "▁bulma",
        -8.200271641100349
      ],
      [
        "▁asık",
        -9.294108187717914
      ],
      [
        "▁acı",
        -7.056702490320646
      ],
      [
        "▁cicegi",
        -9.961288660300598
      ],
      [
        "▁detroit'te",
        -7.778415091354365
      ],
      [
        "▁listeley",
        -6.221076943569894
      ],
      [
        "▁duruyor",
        -7.474600104731279
      ],
      [
        "ı",
        -9.759274920662083
      ],
      [
        "▁isbirligi",
        -9.388071001272964
      ],
      [
        "▁sorular",
        -9.385492202949857
      ],
      [
        "▁tahvillerin",
        -9.911481049388119
      ],
      [
        "▁gectigim",
        -8.61122539536374
      ],
      [
        "▁musterileri",
        -9.6166894312521
      ],
      [
        "▁dokuz",
        -5.927416539257818
      ],
      [
        "▁35",
        -6.847149008857883
      ],
      [
        "▁isimler",
        -9.687177521584637
      ],
      [
        "kleri",
        -7.734520318496818
      ],
      [
        "▁kurt",
        -9.101662322509156
      ],
      [
        "dolay",
        -8.574508283218814
      ],
      [
        "▁h",
        -5.985551101189426
      ],
      [
        "▁kelebek",
        -9.961288206586492
      ],
      [
        "▁yaklası",
        -8.672924671213131
      ],
      [
        "▁oran",
        -8.264130484559317
      ],
      [
        "▁sayısı",
        -8.850120445906203
      ],
      [
        "▁mut",
        -9.641235584015034
      ],
      [
        "▁adet",
        -7.83891926579264
      ],
      [
        "▁konser",
        -9.463427135642661
      ],
      [
        "karlı",
        -8.704985432091185
      ],
      [
        "▁tepede",
        -10.031571449762444
      ],
      [
        "▁yen",
        -8.510431705826226
      ],
      [
        "▁yetersizligi",
        -10.107186620877762
      ],
      [
        "▁istanbul'u",
        -7.438025467717539
      ],
      [
        "bu",
        -8.892023471905638
      ],
      [
        "▁altın",
        -7.235660038774681
      ],
      [
        "▁g",
        -6.207197408240738
      ],
      [
        "▁dusunu",
        -8.635085735701736
      ],
      [
        "▁ilgili",
        -9.116111608634283
      ],
      [
        "4",
        -12.802702672349787
      ],
      [
        "▁olanları",
        -9.613464201864575
      ],
      [
        "▁sırrı",
        -10.030636747479722
      ],
      [
        "den",
        -6.363492151075381
      ],
      [
        "▁evim",
        -10.121827745461408
      ],
      [
        "mus",
        -6.6063377594969
      ],
      [
        "▁",
        -5.94289235840594
      ],
      [
        "gini",
        -9.449215099077808
      ],
      [
        "▁goruntu",
        -9.964963849448939
      ],
      [
        "▁sekreteri",
        -10.175456115339292
      ],
      [
        "nizi",
        -9.24520765477218
      ],
      [
        "i",
        -5.235142918594545
      ],
      [
        "▁bulut",
        -9.990166237487966
      ],
      [
        "▁soylendi",
        -8.977475621870196
      ],
      [
        "s",
        -6.14942133002761
      ],
      [
        "▁elinde",
        -7.469964829617879
      ],
      [
        "eyim",
        -7.631005962396692
      ],
      [
        "▁kopya",
        -10.033001180903335
      ],
      [
        "▁dol",
        -9.394887291889592
      ],
      [
        "▁sus",
        -9.25545221535005
      ],
      [
        "▁gokyuzu",
        -9.889586371945413
      ],
      [
        "'de",
        -6.124273734227502
      ],
      [
        "▁rota",
        -9.434558609679838
      ],
      [
        "▁tesaduf",
        -9.73177754086856
      ],
      [
        "▁ogren",
        -8.548932240484582
      ],
      [
        "▁faturam",
        -8.270379215917288
      ],
      [
        "▁bas",
        -8.71803223951012
      ],
      [
        "▁gosterme",
        -9.033000685819797
      ],
      [
        "ar",
        -7.789969017039488
      ],
      [
        "▁koyu",
        -8.621327095156678
      ],
      [
        "malıyı",
        -8.534609415842482
      ],
      [
        "▁kolay",
        -6.787546431258131
      ],
      [
        "▁a.",
        -9.686675429960625
      ],
      [
        "▁sehirde",
        -9.862544190036687
      ],
      [
        "▁kalite",
        -7.559607377155032
      ],
      [
        "▁kalp",
        -8.762145558902574
      ],
      [
        "▁misafirimiz",
        -8.302108868095317
      ],
      [
        "▁pamuk",
        -9.503559251394204
      ],
      [
        "▁dolasma",
        -10.10263572559972
      ],
      [
        "▁gozlerinde",
        -9.802636247428136
      ],
      [
        "▁kalitesinde",
        -9.688663249052219
      ],
      [
        "▁yarı",
        -6.462489428475425
      ],
      [
        "kadar",
        -6.308773486617229
      ],
      [
        "▁yaptirdi",
        -7.350977243572093
      ],
      [
        "▁ankara'da",
        -8.068013582008785
      ],
      [
        "▁gur",
        -8.754298629300687
      ],
      [
        "▁pembe",
        -8.497597246521899
      ],
      [
        "▁hatır",
        -9.452536079165021
      ],
      [
        "ing",
        -9.726878614832243
      ],
      [
        "▁ab",
        -7.913838431680318
      ],
      [
        "▁geliri",
        -8.887282647919083
      ],
      [
        "mayın",
        -8.60470207058859
      ],
      [
        "▁ozellikleri",
        -9.80067817527313
      ],
      [
        "▁memleketi",
        -9.45203776698574
      ],
      [
        "mısım",
        -8.80969525404123
      ],
      [
        "▁baslarını",
        -9.96323597301498
      ],
      [
        "cıklar",
        -10.009877783910285
      ],
      [
        "▁ka",
        -6.481825642100741
      ],
      [
        "dizli",
        -7.5921693520752385
      ],
      [
        "▁cıkardı",
        -7.2462128854987435
      ],
      [
        "▁amcam",
        -10.130937952283306
      ],
      [
        "▁yas",
        -8.157507480451418
      ],
      [
        "▁merhaba",
        -9.588704027903454
      ],
      [
        "▁em",
        -9.899379635950531
      ],
      [
        "dikleri",
        -9.73285817454281
      ],
      [
        "▁kidder",
        -8.102063970095287
      ],
      [
        "▁bul",
        -6.973767915580445
      ],
      [
        "▁ic",
        -6.5122645661677705
      ],
      [
        "fa",
        -8.236962644876998
      ],
      [
        "10",
        -9.850772467547976
      ],
      [
        "▁def",
        -10.006611548670813
      ],
      [
        "lara",
        -6.088226839202348
      ],
      [
        "acak",
        -6.434009902988618
      ],
      [
        "▁gelisme",
        -9.477404925955732
      ],
      [
        "▁karar",
        -7.394798779803498
      ],
      [
        "sef",
        -8.617685786776235
      ],
      [
        "▁sponsor",
        -9.961288205841747
      ],
      [
        "▁fena",
        -6.973697154414399
      ],
      [
        "▁sozleri",
        -9.129667842708761
      ],
      [
        "▁insaat",
        -8.525222547279625
      ],
      [
        "zl",
        -8.922167783293098
      ],
      [
        "▁il",
        -3.41811777620672
      ],
      [
        "▁alamadi",
        -7.110493000190174
      ],
      [
        "▁ka",
        -7.696028190957291
      ],
      [
        "▁iz",
        -9.042932649999065
      ],
      [
        "▁fakir",
        -10.02795526861517
      ],
      [
        "▁sonra",
        -7.366201746799842
      ],
      [
        "▁usul",
        -9.57791944524333
      ],
      [
        "▁giri",
[...]
