{
  "version": "1.0",
  "truncation": null,
  "padding": null,
  "added_tokens": [
    {
      "id": 1073,
      "content": "[CLS]",
      "single_word": false,
      "lstrip": false,
      "rstrip": false,
      "normalized": false,
      "special": true
    },
    {
      "id": 2952,
      "content": "[UNK]",
      "single_word": false,
      "lstrip": false,
      "rstrip": false,
      "normalized": false,
      "special": true
    },
    {
      "id": 3239,
      "content": "[SEP]",
      "single_word": false,
      "lstrip": false,
      "rstrip": false,
      "normalized": false,
      "special": true
    },
    {
      "id": 3606,
      "content": "[MASK]",
      "single_word": false,
      "lstrip": false,
      "rstrip": false,
      "normalized": false,
      "special": true
    },
    {
      "id": 4422,
      "content": "[PAD]",
      "single_word": false,
      "lstrip": false,
      "rstrip": false,
      "normalized": false,
      "special": true
    }
  ],
  "normalizer": {
    "type": "Sequence",
    "normalizers": [
      {
        "type": "NFD"
      },
      {
        "type": "Lowercase"
      },
      {
        "type": "StripAccents"
      }
    ]
  },
  "pre_tokenizer": {
    "type": "Sequence",
    "pretokenizers": [
      {
        "type": "Metaspace",
        "replacement": "▁",
        "prepend_scheme": "always",
        "split": true
      }
    ]
  },
  "post_processor": {
    "type": "TemplateProcessing",
    "single": [
      {
        "SpecialToken": {
          "id": "[CLS]",
          "type_id": 0
        }
      },
      {
        "Sequence": {
          "id": "A",
          "type_id": 0
        }
      },
      {
        "SpecialToken": {
          "id": "[SEP]",
          "type_id": 0
        }
      }
    ],
    "pair": [
      {
        "SpecialToken": {
          "id": "[CLS]",
          "type_id": 0
        }
      },
      {
        "Sequence": {
          "id": "A",
          "type_id": 0
        }
      },
      {
        "SpecialToken": {
          "id": "[SEP]",
          "type_id": 0
        }
      },
      {
        "Sequence": {
          "id": "B",
          "type_id": 1
        }
      },
      {
        "SpecialToken": {
          "id": "[SEP]",
          "type_id": 1
        }
      }
    ],
    "special_tokens": {
      "[CLS]": {
        "id": "[CLS]",
        "ids": [
          1073
        ],
        "tokens": [
          "[CLS]"
        ]
      },
      "[SEP]": {
        "id": "[SEP]",
        "ids": [
          3239
        ],
        "tokens": [
          "[SEP]"
        ]
      }
    }
  },
  "decoder": {
    "type": "Metaspace",
    "replacement": "▁",
    "prepend_scheme": "always",
    "split": true
  },
  "model": {
    "type": "Unigram",
    "unk_id": 2952,
    "vocab": [
      [
        "▁tatmin",
        -9.682009987460795
      ],
      [
        "▁madde",
        -8.435323559749296
      ],
      [
        "gımız",
        -8.736776938188797
      ],
      [
        "▁ol",
        -6.906079594147441
      ],
      [
        "▁kesin",
        -6.101322210378779
      ],
      [
        "▁evini",
        -9.860601656571463
      ],
      [
        "▁elli",
        -6.208347808831624
      ],
      [
        "▁ikisi",
        -7.407822385017121
      ],
      [
        "▁duyma",
        -10.116360798374373
      ],
      [
        "▁hızı",
        -9.504575377430875
      ],
      [
        "unla",
        -5.843073533484597
      ],
      [
        "▁kar",
        -7.184255339976209
      ],
      [
        "▁tutma",
        -9.428853006966246
      ],
      [
        "▁fırca",
        -9.840331030867018
      ],
      [
        "▁ablam",
        -10.044914674658257
      ],
      [
        "▁sırtın",
        -9.520665550190852
      ],
      [
        "▁yalnızlıgı",
        -10.176306520131774
      ],
      [
        "▁kızgın",
        -8.448632793234832
      ],
      [
        "▁kahve",
        -7.623939041158127
      ],
      [
        "▁masraf",
        -9.157654512283642
      ],
      [
        "ev",
        -11.802702672349788
      ],
      [
        "▁zeytinyagı",
        -9.899015220595098
      ],
      [
        "▁imalatcı",
        -9.928986424885991
      ],
      [
        "▁vegas'ta",
        -7.479937227083081
      ],
      [
        "ana",
        -3.4668823189684232
      ],
      [
        "▁finans",
        -7.7895039515763
      ],
      [
        "sine",
        -8.708260001900614
      ],
      [
        "▁numaral",
        -7.903709266781838
      ],
      [
        "▁ucuncu",
        -7.7894332237383175
      ],
      [
        "umuzu",
        -9.979769215844442
      ],
      [
        ".",
        -7.4470540468205
      ],
      [
        "▁tıp",
        -9.961347685408866
      ],
      [
        "▁yapmadı",
        -8.010417327709973
      ],
      [
        "▁hekim",
        -9.42518242392351
      ],
      [
        "▁doları'n",
        -8.3343778319604
      ],
      [
        "▁azal",
        -8.084599415076477
      ],
      [
        "▁zaman",
        -7.1405633171011775
      ],
      [
        "▁devlet",
        -7.40337706902222
      ],
      [
        "▁bal",
        -8.501775148304622
      ],
      [
        "▁vucudu",
        -9.013434932526655
      ],
      [
        "▁cekiyor",
        -8.366328643620314
      ],
      [
        "▁toplum",
        -8.571312796715956
      ],
      [
        "▁ya",
        -4.634008824959308
      ],
      [
        "▁vaka",
        -9.281766154100197
      ],
      [
        "▁sahip",
        -7.125997578852691
      ],
      [
        "▁bu",
        -7.374577612377099
      ],
      [
        "▁care",
        -9.224206038232207
      ],
      [
        "▁17",
        -6.060985725555577
      ],
      [
        "▁cocukları",
        -8.61257065397782
      ],
      [
        "▁hasta",
        -8.764562894803543
      ],
      [
        "▁es",
        -8.288859122251772
      ],
      [
        "aclı",
        -8.773199229224863
      ],
      [
        "▁katı",
        -9.353557516694686
      ],
      [
        "▁etmiyor",
        -7.938923573294893
      ],
      [
        "▁calısıyordu",
        -8.243107125140158
      ],
      [
        "▁gezegen",
        -10.099383669928596
      ],
      [
        "▁millet",
        -8.558475368987864
      ],
      [
        "▁kullanma",
        -9.961561106823638
      ],
      [
        "▁terzi",
        -9.961679631713977
      ],
      [
        "ti",
        -9.518487782928336
      ],
      [
        "▁don",
        -8.780974281693027
      ],
      [
        "▁montreal",
        -8.204171178266979
      ],
      [
        "▁yapar",
        -7.492585274946969
      ],
      [
        "ak",
        -3.6704506036336477
      ],
      [
        "▁ana",
        -8.123154413437376
      ],
      [
        "▁sevinc",
        -9.317948706583564
      ],
      [
        "▁cleveland'",
        -6.731610941983823
      ],
      [
        "▁vadede",
        -9.730955565478705
      ],
      [
        "▁toren",
        -9.348433164536573
      ],
      [
        "▁fakir",
        -8.447946744051569
      ],
      [
        "▁keman",
        -10.028054830917247
      ],
      [
        "▁yagı",
        -9.400359553507474
      ],
      [
        "▁bas",
        -7.0855459941968135
      ],
      [
        "▁to",
        -9.000459375894337
      ],
      [
        "▁yorumu",
        -10.131584221384946
      ],
      [
        "▁herif",
        -9.28311556223514
      ],
      [
        "▁keten",
        -10.176613984996305
      ],
      [
        "▁degili",
        -4.9352643412096375
      ],
      [
        "▁ol",
        -9.622171761775187
      ],
      [
        "asagı",
        -7.350576247561033
      ],
      [
        "▁tas",
        -8.495346835281588
      ],
      [
        "▁manzara",
        -8.86077082738922
      ],
      [
        "▁-",
        -9.780423386250764
      ],
      [
        "▁enerji",
        -8.505090174006728
      ],
      [
        "▁kahvaltı",
        -9.051615184315848
      ],
      [
        "▁cekti",
        -7.180773397373516
      ],
      [
        "▁si",
        -8.08769010824167
      ],
      [
        "▁getiri",
        -8.53269356888715
      ],
      [
        "▁endise",
        -8.543527610458806
      ],
      [
        "▁dusundu",
        -7.624996139132827
      ],
      [
        "▁soz",
        -7.18716750733744
      ],
      [
        "▁hatırlat",
        -8.661452357706834
      ],
      [
        "▁ihtiyacı",
        -8.922156465549888
      ],
      [
        "▁1.8",
        -7.194900721909706
      ],
      [
        "▁oturdu",
        -7.985250454652396
      ],
      [
        "▁gez",
        -8.570622304197522
      ],
      [
        "▁kurt",
        -8.100519537105876
      ],
      [
        "▁kaliforniya",
        -7.288443125848875
      ],
      [
        "▁baslayacak",
        -8.338687462296841
      ],
      [
        "▁pazarın",
        -9.99542799926481
      ],
      [
        "▁birileri",
        -7.533993563251414
      ],
      [
        "▁kusur",
        -8.878201817879823
      ],
      [
        "ama",
        -3.6363263764093876
      ],
      [
        "▁duygu",
        -8.664012020547107
      ],
      [
        "ması",
        -6.800156016328986
      ],
      [
        "yabilir",
        -8.683868959968766
      ],
      [
        "▁bolgede",
        -9.334914488197855
      ],
      [
        "▁sube",
        -9.745544408572558
      ],
      [
        "▁f",
        -8.134808978346355
      ],
      [
        "▁dalga",
        -9.090413544921676
      ],
      [
        "ayan",
        -7.2756813833180125
      ],
      [
        "▁ten",
        -9.271559594488435
      ],
      [
        "▁izni",
        -10.101710088371963
      ],
      [
        "▁coban",
        -9.132813731911385
      ],
      [
        "▁em",
        -9.899379635950531
      ],
      [
        "jik",
        -8.46688497866116
      ],
      [
        "▁gunlerde",
        -8.684531975954954
      ],
      [
        "▁cevril",
        -8.862144432819633
      ],
      [
        "yin",
        -7.704841574067467
      ],
      [
        "▁tam",
        -6.196690295557846
      ],
      [
        "▁systems",
        -7.670663312767045
      ],
      [
        "▁divan",
        -9.784513306649947
      ],
      [
        "▁hucum",
        -9.898813628602024
      ],
      [
        "▁cocuklar",
        -7.351290492625759
      ],
      [
        "▁b",
        -7.9791290034568725
      ],
      [
        "anan",
        -7.995654658330354
      ],
      [
        "▁yasama",
        -8.619760262552175
      ],
      [
        "▁sesleri",
        -9.011988703695542
      ],
      [
        "▁13",
        -6.181566688398235
      ],
      [
        "▁hediye",
        -9.503562944365594
      ],
      [
        "▁durumlarda",
        -9.855876043591838
      ],
      [
        "nde",
        -7.954801055741926
      ],
      [
        "▁ve",
        -2.837416967995196
      ],
      [
        "▁alnı",
        -9.824864442680468
      ],
      [
        "▁kalabalıgı",
        -9.634201327545114
      ],
      [
        "▁be",
        -8.504947737710792
      ],
      [
        "▁durma",
        -9.980289066319122
      ],
      [
        "▁sap",
        -9.307156286008054
      ],
      [
        "▁kıyasla",
        -10.099384009801785
      ],
      [
        "▁sabahlar",
        -8.336444228612429
      ],
      [
        "▁havayolları",
        -7.381762203133278
      ],
      [
        "▁deneme",
        -8.704103972269603
      ],
      [
        "▁agzını",
        -9.239677395863332
      ],
      [
        "▁anne",
        -8.06044990547132
      ],
      [
        "ceklerini",
        -10.078998871026167
      ],
      [
        "▁sehir",
        -7.523227552497981
      ],
      [
        "▁20.",
        -7.512346450622075
      ],
      [
        "▁boylu",
        -8.000496396541944
      ],
      [
        "▁inan",
        -8.496052988373734
      ],
      [
        "▁ozgurluk",
        -9.545393248740346
      ],
      [
        "▁yı",
        -6.932780921650514
      ],
      [
        "▁sahibi",
        -8.006511560293184
      ],
      [
        "▁varır",
        -8.930957075891941
      ],
      [
        "▁almanya'da",
        -8.090421037547184
      ],
      [
        "▁agırlık",
        -9.839970369663629
      ],
      [
        "cılar",
        -8.198668733583938
      ],
      [
        "$",
        -7.511459065044036
      ],
      [
        "▁kapa",
        -7.8899446309259185
      ],
      [
        "▁sultan",
        -8.229505126261504
      ],
      [
        "▁degistiriyor",
        -8.885953086836862
      ],
      [
        "▁goren",
        -8.120628947105864
      ],
      [
        "▁vakıf",
        -9.83996922321247
      ],
      [
        "▁yarar",
        -8.314234146588847
      ],
      [
        "di",
        -8.250947502323072
      ],
      [
        "▁uzerin",
        -7.65898580193947
      ],
      [
        "▁oncesi",
        -9.280381582622372
      ],
      [
        "▁olunc",
        -8.094357719033704
      ],
      [
        "lan",
        -7.373043220940611
      ],
      [
        "digim",
        -8.57051940562395
      ],
      [
        "kları",
        -8.336851683863237
      ],
      [
        "▁agırlıgı",
        -9.73181152041833
      ],
      [
        "▁odun",
        -9.003910930160355
      ],
      [
        "▁sasırt",
        -8.50632684415974
      ],
      [
        "▁hafıza",
        -10.09706673735936
      ],
      [
        "▁gecit",
        -10.176314105870317
      ],
      [
        "san",
        -8.305207098842889
      ],
      [
        "▁suruyor",
        -8.154890350883278
      ],
      [
        "▁sogan",
        -9.190752955315762
      ],
      [
        "▁gosterir",
        -8.14678446940563
      ],
      [
        "kla",
        -9.650649354893169
      ],
      [
        "▁duyguları",
        -9.352151855756665
      ],
      [
        "▁kisilerin",
        -9.673796189139086
      ],
      [
        "▁",
        -3.32808512111051
      ],
      [
        "▁kapısında",
        -9.213272291238692
      ],
      [
        "▁hulya",
        -7.7047836763041735
      ],
      [
        "m",
        -7.306008514562448
      ],
      [
        "na",
        -4.888725468870101
      ],
      [
        "▁okuma",
        -9.242414284471954
      ],
      [
        "▁malları",
        -10.039664449160039
      ],
      [
        "▁yapacagın",
        -9.856402556141848
      ],
      [
        "▁fransa",
        -7.751101815802763
      ],
      [
        "▁yonetmen",
        -10.071234505648677
      ],
      [
        "▁jaguar",
        -8.186284359692328
      ],
      [
        "▁acıklama",
        -8.43819539316909
      ],
      [
        "▁ardı",
        -9.096310906775095
      ],
      [
        "▁yurek",
        -9.634159250014147
      ],
      [
        "g",
        -7.643914206678526
      ],
      [
        "▁8'de",
        -8.978303758023928
      ],
      [
        "▁icme",
        -8.920123822594704
      ],
      [
        "▁soruyor",
        -8.44349555851925
      ],
      [
        "tı",
        -6.533048043276507
      ],
      [
        "▁birbirimizi",
        -7.931464907644399
      ],
      [
        "▁22",
        -6.204600493789114
      ],
      [
        "▁duvarlar",
        -9.386909103422365
      ],
      [
        "muz",
        -8.481262585477365
      ],
      [
        "▁kur",
        -8.480735570377265
      ],
      [
        "▁rezerv",
        -9.026172845798996
      ],
      [
        "▁erkekler",
        -9.131674107176757
      ],
      [
        "▁bilgiler",
        -9.857120081204787
      ],
      [
        "▁olmadıgı",
        -8.048917008557849
      ],
      [
        "▁corba",
        -8.567133811979403
      ],
      [
        "▁kira",
        -9.165111240138561
      ],
      [
        "▁tesekkur",
        -7.628335301429562
      ],
      [
        "▁merak",
        -8.34823750861066
      ],
      [
        "▁mantık",
        -9.784515649460069
      ],
      [
        "\"",
        -3.8868225721526475
      ],
      [
        "▁tatlilar",
        -9.592129248446337
      ],
      [
        "▁azalma",
        -10.176362832983624
      ],
      [
        "▁bebegi",
        -9.731783113876025
      ],
      [
        "▁kapasitesi",
        -9.148537665959672
      ],
      [
        "▁defa",
        -7.8570215822027265
      ],
      [
        "▁alaca",
        -9.87386606740583
      ],
      [
        "▁kullanıyor",
        -8.063980962690811
      ],
      [
        "▁yollarda",
        -9.882917668955027
      ],
      [
        "▁cekmek",
        -9.512381499328749
      ],
      [
        "▁devam",
        -6.929316789098013
      ],
      [
        "tu",
        -4.465248438584364
      ],
      [
        "▁ihtiyar",
        -9.000980711498753
      ],
      [
        "▁profesor",
        -10.114736595122595
      ],
      [
        "▁geri",
        -8.134223477173276
      ],
      [
        "▁ak",
        -8.205481051836538
      ],
      [
        "etle",
        -8.613674263760398
      ],
      [
        "▁ayıp",
        -9.967922441935631
      ],
      [
        "▁bey",
        -6.737353057666577
      ],
      [
        "▁dısarıy",
        -10.113317753487433
      ],
      [
        "▁bagır",
        -8.921535024572322
      ],
      [
        "▁baslay",
        -8.40026921577704
      ],
      [
        "▁olayda",
        -9.788002425430701
      ],
      [
        "▁icinde",
        -6.7321078423567275
      ],
      [
        "dı",
        -8.828757258661337
      ],
      [
        "▁parla",
        -7.872920519380257
      ],
      [
        "▁vegas'",
        -6.918877935752586
      ],
      [
        "▁detroit'",
        -7.969483508508505
      ],
      [
        "▁oranını",
        -9.922684427998972
      ],
      [
        "▁oturum",
        -9.505678794690532
      ],
      [
        "▁yasta",
        -10.099480988708432
      ],
      [
        ",",
        -9.63116700711275
      ],
      [
        "▁2.",
        -6.760491276534013
      ],
      [
        "ut",
        -8.706720389201042
      ],
      [
        "▁bir",
        -3.027951570239419
      ],
      [
        "▁endeksi",
        -7.877450050088343
      ],
      [
        "▁havalimanların",
        -10.176306670827618
      ],
      [
        "▁si",
        -8.204993804943655
      ],
      [
        "▁yonunde",
        -9.90400186800646
      ],
      [
        "ib",
        -8.443565151977818
      ],
      [
        "▁seda",
        -8.299919363893439
      ],
      [
        "▁gar",
        -9.394616829782438
      ],
      [
        "▁eskiy",
        -7.214999941926577
      ],
      [
        "▁ulke",
        -7.948606603315816
      ],
      [
        "▁bulundugu",
        -9.784612194222843
      ],
      [
        "▁temiz",
        -9.417912382638606
      ],
      [
        "▁deger",
        -8.564624529595992
      ],
      [
        "▁brit",
        -8.283373850844672
      ],
      [
        "▁yontemi",
        -10.003695450482724
      ],
      [
        "▁sınav",
        -9.376403135358856
      ],
      [
        "▁inc",
        -6.94299459218671
      ],
      [
        "▁elma",
        -8.910866230599584
      ],
      [
        "▁bilmiyoru",
        -7.427216640962725
      ],
      [
        "ve",
        -5.575675023950561
      ],
      [
        "▁bulmustu",
        -8.875136507883106
      ],
      [
        "gı",
        -9.946781938701653
      ],
      [
        "▁ameliyat",
        -9.54522569452168
      ],
      [
        "tik",
        -8.469767063087144
      ],
      [
        "▁baktı",
        -7.217780060325734
      ],
      [
        "angır",
        -10.03363671925797
      ],
      [
        "is",
        -7.51314299891555
      ],
      [
        "ıldıgında",
        -9.793963860751573
      ],
      [
        "▁soluk",
        -9.912072082203593
      ],
      [
        "ku",
        -6.898800660323433
      ],
      [
        "maz",
        -7.624026610202501
      ],
      [
        "▁kendim",
        -6.106222814598596
      ],
      [
        "ır",
        -10.179962567137554
      ],
      [
        "▁finansman",
        -9.323094229470879
      ],
      [
        "▁kes",
        -8.051379784091225
      ],
      [
        "▁gozluk",
        -10.11395654490097
      ],
      [
        "iz",
        -6.722998754508661
      ],
      [
        "▁toplantı",
        -8.762775170958706
      ],
      [
        "un",
        -6.959468783522774
      ],
      [
        "ılması",
        -9.18157451446561
      ],
      [
        "▁uyandı",
        -8.937823148113935
      ],
      [
        "▁bodrum",
        -10.09938347259294
      ],
      [
        "ıcı",
        -7.088788865289696
      ],
      [
        "▁biri",
        -4.369579569371211
      ],
      [
        "▁kullan",
        -8.103839210606088
      ],
      [
        "▁ilac",
        -8.327369878882932
      ],
      [
        "ir",
        -7.963442746892628
      ],
      [
        "▁hazır",
        -7.176515987374993
      ],
      [
        "cı",
        -7.241674452543846
      ],
      [
        "ebilecek",
        -8.554891748207545
      ],
      [
        "▁dı",
        -3.685551159034305
      ],
      [
        "▁surec",
        -9.032522031285588
      ],
      [
        "iy",
        -7.061574036687148
      ],
      [
        "▁edilmis",
        -8.419475278066383
      ],
      [
        "75",
        -6.51104329968174
      ],
      [
        "zu",
        -9.062179647118034
      ],
      [
        "▁olum",
        -7.852817688776028
      ],
      [
        "▁kimya",
        -9.839983693975695
      ],
      [
        "▁satır",
        -9.419776761960076
      ],
      [
        "▁philadelphia'",
        -5.795188323964599
      ],
      [
        "▁ediyoru",
        -7.149364542599122
      ],
      [
        "▁yil",
        -8.673921592207703
      ],
      [
        "▁isyan",
        -9.422215140818539
      ],
      [
        "sına",
        -8.177988959580906
      ],
      [
        "▁kong",
        -8.207051402981307
      ],
      [
        "▁cevre",
        -8.776037273577481
      ],
      [
        "ımı",
        -8.597855877945214
      ],
      [
        "▁",
        -1.6692032132785002
      ],
      [
        "▁yanı",
        -9.831820816877356
      ],
      [
        "▁orta",
        -7.2151939286872455
      ],
      [
        "▁cıkıyor",
        -7.662003157749673
      ],
      [
        "▁onde",
        -9.245983900719672
      ],
      [
        "▁irak",
        -7.4470760111475
      ],
      [
        "▁hedef",
        -8.773805802300013
      ],
      [
        "▁ettigi",
        -8.456570324960014
      ],
      [
        "▁kıdem",
        -8.54089098847471
      ],
      [
        "▁bası",
        -8.177725380099758
      ],
      [
        "▁bakım",
        -8.65715892708466
      ],
      [
        "▁etmek",
        -7.691167246707034
      ],
      [
        "▁dekor",
        -10.096867418781645
      ],
      [
        "yonlu",
        -8.780767043391974
      ],
      [
        "▁ithalat",
        -9.188764188110053
      ],
      [
        "an",
        -7.668036448599423
      ],
      [
        "▁acık",
        -7.077738448004128
      ],
      [
        "▁ortaklık",
        -9.68905807457707
      ],
      [
        "▁biraz",
        -4.687763168436832
      ],
      [
        "▁elestirmenler",
        -10.09938414814534
      ],
      [
        "kar",
        -8.69392657847972
      ],
      [
        "▁muzigi",
        -9.352486890600112
      ],
      [
        "▁yuzyıl",
        -9.202665888960318
      ],
      [
        "▁geleni",
        -9.463902510016426
      ],
      [
        "▁olustur",
        -8.362266560705175
      ],
      [
        "▁dususle",
        -8.724786995926907
      ],
      [
        "▁11",
        -5.819399660742911
      ],
      [
        "▁misafirler",
        -10.175422158622158
      ],
      [
        "▁oldugunu",
        -6.570795219592205
      ],
      [
        "▁birim",
        -8.395280471262884
      ],
      [
        "▁gen",
        -9.44286859152004
      ],
      [
        "▁amerika'da",
        -8.238249559532939
      ],
      [
        "▁sun",
        -8.207218560870785
      ],
      [
        "▁bekleniyor",
        -7.467868611709613
      ],
      [
        "▁ipotek",
        -9.07793100919478
      ],
      [
        "nin",
        -5.371980879799208
      ],
      [
        "▁canım",
        -9.145652803144792
      ],
      [
        "▁payları",
        -9.999145262144404
      ],
      [
        "▁sorun",
        -7.529905226200501
      ],
      [
        "diklerini",
        -9.563799112323956
      ],
      [
        "▁kaldırım",
        -9.161307750700733
      ],
      [
        "▁dusus",
        -8.085677226673669
      ],
      [
        "mezse",
        -8.951956085730325
      ],
      [
        "▁california'da",
        -8.308713773943015
      ],
      [
        "▁tutarın",
        -9.603023960450425
      ],
      [
        "▁guzeldi",
        -4.537164040841041
      ],
      [
        "ma",
        -6.393463579249078
      ],
      [
        "▁koyluler",
        -9.918547217308891
      ],
      [
        "▁calısmak",
        -10.159859087824124
      ],
      [
        "▁ihracatı",
        -10.1565616956555
      ],
      [
        "▁isletme",
        -8.091427451980877
      ],
      [
        "▁kapasite",
        -9.441969772730122
      ],
      [
        "▁almak",
        -8.295815532235729
      ],
      [
        "▁gorev",
        -7.82578387076788
      ],
      [
        "▁sonucların",
        -9.838595366595994
      ],
      [
        "▁seviyede",
        -9.578979026918466
      ],
      [
        "▁devir",
        -9.16151096693278
      ],
      [
        "▁ekibi",
        -8.599650905280164
      ],
      [
        "urekli",
        -6.170784925687602
      ],
      [
        "▁yemeklerin",
        -8.971561937187273
      ],
      [
        "▁ait",
        -5.924503288156106
      ],
      [
        "c",
        -8.444674680457622
      ],
      [
        "▁bolgesi",
        -9.771626910307285
      ],
      [
        "si",
        -8.7135044580987
      ],
      [
        "▁oldugu",
        -8.027106300278753
      ],
      [
        "▁yapıl",
        -8.196809659325119
      ],
      [
        "▁yiyecekler",
        -8.760890723576999
      ],
      [
        "unları",
        -8.274387771946522
      ],
      [
        "▁sayısı",
        -8.850120445906203
      ],
      [
        "▁kapsam",
        -8.331701078668564
      ],
      [
        "▁som",
        -9.931908182173604
      ],
      [
        "▁kom",
        -9.629500438212425
      ],
      [
        "▁kırk",
        -6.011931561604349
      ],
      [
        "▁dolas",
        -8.399356915511563
      ],
      [
        "▁herkes",
        -8.179842702358489
      ],
      [
        "▁cırpı",
        -10.028100677773606
      ],
      [
        "▁alt",
        -9.135988264403592
      ],
      [
        "2.5",
        -7.325956578116923
      ],
      [
        "▁sart",
        -9.118202071955784
      ],
      [
        "▁is",
        -6.739784994148765
      ],
      [
        "▁daya",
        -7.9449521610679685
      ],
      [
        "cık",
        -8.991392569339848
      ],
      [
        "▁mu",
        -8.321753834716581
      ],
      [
        "▁on",
        -4.304254523933001
      ],
      [
        "▁ust",
        -7.1185545875493945
      ],
      [
        "▁ellerini",
        -8.886982504390433
      ],
      [
        "▁cam",
        -8.69575409676546
      ],
      [
        "▁hatırlıyor",
        -8.983894176264691
      ],
      [
        "▁hangi",
        -5.189675037624199
      ],
      [
        "▁azın",
        -8.761996323733628
      ],
      [
        "▁anlattı",
        -7.615592299830996
      ],
      [
        "▁ayagın",
        -9.85526369457546
      ],
      [
        "▁bayag",
        -8.055283607379746
      ],
      [
        "▁tuketiciler",
        -9.817296569774479
      ],
      [
        "▁ce",
        -9.175883447442
      ],
      [
        "▁madd",
        -8.794122163868858
      ],
      [
        "▁sistemin",
        -10.06774660272182
      ],
      [
        "yo",
        -9.250274552836736
      ],
      [
        "▁cuma",
        -6.531198751131021
      ],
      [
        "▁dolastı",
        -8.696745787029675
      ],
      [
        "▁soylemek",
        -9.516086626477382
      ],
      [
        "▁oran",
        -8.264130484559317
      ],
      [
        "▁nese",
        -9.3530962536617
      ],
      [
        "▁sırtında",
        -9.248174937240988
      ],
      [
        "▁imalat",
        -9.931051704375001
      ],
      [
        "▁sezonu",
        -10.081196948330284
      ],
      [
        "sinin",
        -7.713440345854014
      ],
      [
        "tma",
        -9.125346498056961
      ],
      [
        "▁yerini",
        -8.572497199261653
      ],
      [
        "▁kaya",
        -9.08779213729851
      ],
      [
        "m",
        -3.7415001008522433
      ],
      [
        "▁baskanlıgı",
        -9.807948632610456
      ],
      [
        "▁uzakta",
        -8.90686077852975
      ],
      [
        "▁kisi",
        -7.406179170664951
      ],
      [
        "▁ithalatı",
        -10.105385285784287
      ],
      [
        "▁kalitesi",
        -7.130877389292354
      ],
      [
        "▁panik",
        -9.731781746461262
      ],
      [
        "▁bogaz",
        -9.369820591274488
      ],
      [
        "▁parkta",
        -10.07241142643503
      ],
      [
        "▁isi",
        -7.63177770188299
      ],
      [
        "▁donem",
        -8.508751581394174
      ],
      [
        "o",
        -7.777203223457151
      ],
      [
        "▁ailesi",
        -8.837864937168845
      ],
      [
        "ip",
        -6.716093428086537
      ],
      [
        "▁arkadasım",
        -9.38298637726125
      ],
      [
        "▁boynunda",
        -10.107323237252324
      ],
      [
        "▁tank",
        -10.101973055010296
      ],
      [
        "▁akın",
        -9.416464943945256
      ],
      [
        "▁sohbet",
        -8.92951857754374
      ],
      [
        "▁cıkma",
        -9.330185265839951
      ],
      [
        "dıgını",
        -8.3116168872929
      ],
      [
        "ayet",
        -5.79797472285833
      ],
      [
        "mıyor",
        -8.120844345982924
      ],
      [
        "▁hizmeti",
        -7.529790809701044
      ],
      [
        "▁kızları",
        -9.570294522171942
      ],
      [
        "▁katılım",
        -9.909710305850982
      ],
      [
        "▁satmak",
        -9.982702885413612
      ],
      [
        "▁onum",
        -10.074278550673682
      ],
      [
        "▁kalmadi",
        -6.567112995728585
      ],
      [
        "▁milwaukee'",
        -6.945673137830503
      ],
      [
        "▁skandal",
        -9.827969348733253
      ],
      [
        "▁verme",
        -8.559899751613884
      ],
      [
        "za",
        -8.319808492142993
      ],
      [
        "▁3/",
        -6.233627537946334
      ],
      [
        "d",
        -10.41573712684167
      ],
      [
        "▁parmaklarını",
        -10.155688713725567
      ],
      [
        "▁zaman",
        -6.112881943981424
      ],
      [
        "utton",
        -8.29976267104842
      ],
      [
        "▁borek",
        -10.028317963131128
      ],
      [
        "▁cam",
        -8.42113710003153
      ],
      [
        "▁seydi",
        -8.329338082289006
      ],
      [
        "▁neler",
        -6.5615336919270835
      ],
      [
        "▁agustos",
        -8.339196146707526
      ],
      [
        "▁dur",
        -8.282044598869458
      ],
      [
        "▁benzer",
        -8.438803253213491
      ],
      [
        "eye",
        -8.445803057601927
      ],
      [
        "▁secildi",
        -8.562563816311796
      ],
      [
        "▁sundu",
        -8.88257996746686
      ],
      [
        "bili",
        -7.975758866809144
      ],
      [
        "▁anadolu",
        -7.548407391738422
      ],
      [
        "▁dusur",
        -8.703653151283008
      ],
      [
        "erek",
        -6.4614038044192785
      ],
      [
        "nce",
        -8.56076424898551
      ],
      [
        "▁def",
        -10.006611548670813
      ],
      [
        "▁ar",
        -8.762983023464987
      ],
      [
        "▁ihracat",
        -9.293498469541351
      ],
      [
        "▁disind",
        -9.88828398815754
      ],
      [
        "▁ahır",
        -9.898846384186928
      ],
      [
        "▁cıkar",
        -8.667831394030792
      ],
      [
        "▁cikiyor",
        -8.870201300572171
      ],
      [
        "▁edilmisti",
        -8.558904034577523
      ],
      [
        "▁sade",
        -8.413972647884538
      ],
      [
        "landıgı",
        -9.956536200947323
      ],
      [
        "▁lider",
        -9.357372627103146
      ],
      [
        "ı",
        -4.891576374391303
      ],
      [
        "▁fikri",
        -8.802202662123808
      ],
      [
        "▁onlar",
        -4.15628502075879
      ],
      [
        "▁31",
        -5.9613495351198695
      ],
      [
        "▁kultur",
        -8.792801063351465
      ],
      [
        "▁tahminler",
        -10.038235155733137
      ],
      [
        "▁harman",
        -10.028685687233784
      ],
      [
        "larındaki",
        -8.04462031994002
      ],
      [
        "▁degilse",
        -6.117869861012117
      ],
      [
        "▁belgeleri",
        -10.00383045927395
      ],
      [
        "▁elin",
        -9.08095877868757
      ],
      [
        "▁ekmegi",
        -9.489975075432206
      ],
      [
        "▁sozlerini",
        -9.664947539044828
      ],
      [
        "up",
        -7.694270584247252
      ],
      [
        "▁donemin",
        -9.563913423682447
      ],
      [
        "▁pencereler",
        -10.0297709487428
      ],
      [
        "▁ayagını",
        -10.173278551371022
      ],
      [
        "▁tahmin",
        -7.668454589954176
      ],
      [
        "ele",
        -12.03594578210268
      ],
      [
        "▁tatilimiz",
        -10.149846779339022
      ],
      [
        "▁chicago'",
        -7.087735294209967
      ],
      [
        "▁gazino",
        -9.898820973626105
      ],
      [
        "ci",
        -7.164295727968464
      ],
      [
        "sik",
        -8.110083134767015
      ],
      [
        "ya",
        -3.9236136214403894
      ],
      [
        "▁rekor",
        -9.221032917135123
      ],
      [
        "▁iceriyor",
        -7.874679379361867
      ],
      [
        "▁zor",
        -8.624213414908162
      ],
      [
        "▁ailelerin",
        -9.79827010611518
      ],
      [
        "▁v",
        -6.0393683046606
      ],
      [
        "▁hızl",
        -7.233125527976824
      ],
      [
        "▁ipoteg",
        -9.96128871219953
      ],
      [
        "▁ates",
        -8.046196687550465
      ],
      [
        "▁cagırdı",
        -8.8242755219977
      ],
      [
        "▁carsı",
        -9.767135538379819
      ],
      [
        "▁boz",
        -9.231004346778906
      ],
      [
        "▁kumandan",
        -10.058628480491873
      ],
      [
        "▁kanunu",
        -9.470170929527415
      ],
      [
        "m",
        -12.802702672349787
      ],
      [
        "▁columbus'",
        -7.644761089220504
      ],
      [
        "▁dinlenme",
        -10.029227822821818
      ],
      [
        "▁kıymet",
        -9.532102391429213
      ],
      [
        "ne",
        -8.86858130504411
      ],
      [
        "ı",
        -11.802702672349788
      ],
      [
        "▁saglık",
        -8.278735636334126
      ],
      [
        "▁gunde",
        -8.476532335746565
      ],
      [
        "▁d",
        -7.853809268752026
      ],
      [
        "▁yay",
        -9.172843885906271
      ],
      [
        "▁darbe",
        -8.741639967505368
      ],
      [
        "ili",
        -8.256585716571182
      ],
      [
        "▁cin",
        -9.41270178536313
      ],
      [
        "▁elini",
        -8.42755988549434
      ],
      [
        "▁yavas",
        -6.877789976330432
      ],
      [
        "cik",
        -8.648041836038566
      ],
      [
        "▁yonetme",
        -9.923321224698613
      ],
      [
        "▁ra",
        -6.318499422728735
      ],
      [
        "▁afrika",
        -8.272438011849937
      ],
      [
        "▁edip",
        -8.276449919410176
      ],
      [
        "▁denizi",
        -6.979767268175976
      ],
      [
        "▁sev",
        -9.653691124748601
      ],
      [
        "▁cevir",
        -8.9035554935799
      ],
      [
        "▁vermisti",
        -8.505612528027044
      ],
      [
        "▁masasında",
        -10.110744340670944
      ],
      [
        "▁aradı",
        -8.89498133901568
      ],
      [
        "▁otesin",
        -9.717200920616726
      ],
      [
        "▁grup",
        -8.443325163956352
      ],
      [
        "et",
        -6.8936994019445175
      ],
      [
        "▁sıra",
        -7.542075982091267
      ],
      [
        "▁kısım",
        -9.683411840185798
      ],
      [
        "▁1989",
        -5.896581170332743
      ],
      [
        "▁odası",
        -9.783109596995407
      ],
      [
        "▁ilgili",
        -5.433302855292382
      ],
      [
        "ecegini",
        -8.109272319833789
      ],
      [
        "▁urunler",
        -9.022701161604619
      ],
      [
        "▁yok",
        -7.22103998281352
      ],
      [
        "▁cem",
        -7.684916112293987
      ],
      [
        "▁beni",
        -4.178270586993837
      ],
      [
        "c",
        -4.853219729400437
      ],
      [
        "▁konak",
        -9.781389478093885
      ],
      [
        "kten",
        -8.797004257726309
      ],
      [
        "▁olmaz",
        -7.066809689867068
      ],
      [
        "▁vali",
        -9.01396650099462
      ],
      [
        "▁kondu",
        -9.95492379375878
      ],
      [
        "▁ta",
        -8.71936292060021
      ],
      [
        "▁bunda",
        -5.599372556045785
      ],
      [
        "▁dugun",
        -8.991491647760038
      ],
      [
        "▁ekledi",
        -7.413772003440981
      ],
      [
        "▁hastalıkları",
        -9.998876992084204
      ],
      [
        "▁far",
        -9.81274400331425
      ],
      [
        "z",
        -8.00771259404701
      ],
      [
        "▁birlesme",
        -9.3524288834491
      ],
      [
        "arası",
        -7.805702185816337
      ],
      [
        "▁dolu",
        -9.68141741916745
      ],
      [
        "▁peynir",
        -9.051752514778599
      ],
      [
        "▁yapma",
        -7.865068536391311
      ],
      [
        "mamıs",
        -8.715796391966146
      ],
      [
        "▁sunul",
        -8.788777249236997
      ],
      [
        "▁saadet",
        -9.839966836605857
      ],
      [
        "tigini",
        -9.71767676118031
      ],
      [
        "▁biliyorsun",
        -8.513719304853531
      ],
      [
        "▁done",
        -8.549931206463363
      ],
      [
        "▁vermiyor",
        -8.790441769797932
      ],
      [
        "▁john",
        -7.546371710635979
      ],
      [
        "▁beklentileri",
        -9.906766505806559
      ],
      [
        "▁al",
        -7.464332101553018
      ],
      [
        "▁siper",
        -9.961291185222185
      ],
      [
        "uler",
        -8.403777472656197
      ],
      [
        "d",
        -8.872852067275208
      ],
      [
        "▁yapılandırma",
        -10.176777900111974
      ],
      [
        "ar",
        -7.710251009188294
      ],
      [
        "▁sozcu",
        -8.015683723407676
      ],
      [
        "▁degis",
        -8.930267587809201
      ],
      [
        "▁yargı",
        -9.217970512204674
      ],
      [
        "▁eser",
        -8.905500011858168
      ],
      [
        "▁koyu",
        -9.612332167093573
      ],
      [
        "▁bin",
        -9.098347269171132
      ],
      [
        "▁konularda",
        -9.765378252759087
      ],
      [
        "▁gorusu",
        -9.460026849046645
      ],
      [
        "▁onlar",
        -7.358829322235774
      ],
      [
        "▁soyluyor",
        -6.643198559782432
      ],
      [
        "▁kuslar",
        -9.466962486721062
      ],
      [
        "▁politikası",
        -9.789783290770517
      ],
      [
        "yedi",
        -7.402501345346703
      ],
      [
        ".",
        -11.199601737652316
      ],
      [
        "▁california",
        -8.208073781562616
      ],
      [
        "▁itibari",
        -9.017076635215918
      ],
      [
        "▁tem",
        -8.774564596340506
      ],
      [
        "▁sirke",
        -10.094971749289478
      ],
      [
        "▁tuz",
        -8.505937628549546
      ],
      [
        "ur",
        -8.176839496390159
      ],
      [
        "▁turkce",
        -9.507764318493315
      ],
      [
        "▁gazeteler",
        -10.029208174916224
      ],
      [
        "▁mesru",
        -10.176451532373644
      ],
      [
        "altı",
        -9.378865057894554
      ],
      [
        "▁yoneticisi",
        -9.230221279409637
      ],
      [
        "▁yolcu",
        -9.301193601585384
      ],
      [
        "▁duzeyin",
        -10.065811749872758
      ],
      [
        "▁ruhunu",
        -10.07076078525426
      ],
      [
        "▁yaz",
        -7.925087256193843
      ],
      [
        "▁21",
        -6.150409216274106
      ],
      [
        "▁dolap",
        -9.705380773102355
      ],
      [
        "▁dustugunu",
        -10.17673878881973
      ],
      [
        "▁sanatcı",
        -9.468421578933052
      ],
      [
        "▁bayan",
        -7.987716391195384
      ],
      [
        "▁temyiz",
        -9.898788475843814
      ],
      [
        "▁kiler",
        -8.43945657651828
      ],
      [
        "uldu",
        -8.745031451964728
      ],
      [
        "▁yıllarında",
        -10.115277939990477
      ],
      [
        "▁yer",
        -8.608293665629773
      ],
      [
        "▁nesil",
        -9.643185841158047
      ],
      [
        "▁isleri",
        -8.875601072342603
      ],
      [
        "▁mustafa",
        -6.756573711528863
      ],
      [
        "▁surece",
        -10.146877091174007
      ],
      [
        "▁siparis",
        -9.425891822123686
      ],
      [
        "▁gozlerini",
        -8.144196334393618
      ],
      [
        "▁gidebilir",
        -8.55148205818069
      ],
      [
        "▁havuzlar",
        -8.78445343443942
      ],
      [
        "▁indianapolis'",
        -7.852477390095279
      ],
      [
        "▁azaltma",
        -9.658380161700524
      ],
      [
        "▁yas",
        -7.6627350208943135
      ],
      [
        "▁yardım",
        -8.050861218284576
      ],
      [
        "▁meclis",
        -9.42084381694229
      ],
      [
        "ırdı",
        -8.961977914066345
      ],
      [
        "▁anayasa",
        -8.906796287053954
      ],
      [
        "▁alacak",
        -7.974701961052199
      ],
      [
        "▁kimsey",
        -6.6878994019356295
      ],
      [
        "▁cıkmıstı",
        -8.275607733301744
      ],
      [
        "▁besin",
        -10.06652669767624
      ],
      [
        "▁manzaras",
        -9.507478479447155
      ],
      [
        "▁dusunuyoru",
        -7.936326132982005
      ],
      [
        "▁durur",
        -8.507663793948545
      ],
      [
        "▁kalıyor",
        -8.010636646992333
      ],
      [
        "o",
        -7.261688420079819
      ],
      [
        "su",
        -7.907342939079312
      ],
      [
        "▁saye",
        -9.246294790240505
      ],
      [
        "▁kenar",
        -8.869829890011221
      ],
      [
        "bu",
        -7.536628892704083
      ],
      [
        "uyor",
        -7.038211118422899
      ],
      [
        "▁calısanı",
        -9.997789448345761
      ],
      [
        "▁doları",
        -7.810405135295386
      ],
      [
        "▁otede",
        -9.681592850118705
      ],
      [
        "▁acı",
        -7.056702490320647
      ],
      [
        "▁makam",
        -9.326351905680895
      ],
      [
        "▁istiyoru",
        -5.066155671076176
      ],
      [
        "▁gerdan",
        -10.028031525663467
      ],
      [
        "▁arada",
        -7.853921508429677
      ],
      [
        "ta",
        -6.454986418729423
      ],
      [
        "landı",
        -8.616952141013547
      ],
      [
        "▁yorgunluk",
        -9.731777540758229
      ],
      [
        "▁sofra",
        -8.633262794959935
      ],
      [
        "yle",
        -8.309447818058349
      ],
      [
        "▁varlıklar",
        -9.162171742281748
      ],
      [
        "irdi",
        -8.81715352692327
      ],
      [
        "▁personelin",
        -8.602323854263837
      ],
      [
        "▁fiyatı",
        -8.104388814826956
      ],
      [
        "▁lokasyon",
        -9.961288401769867
      ],
      [
        "▁tac",
        -9.743094837817933
      ],
      [
        "▁kalk",
        -7.706475545801142
      ],
      [
        "▁ilerleme",
        -9.840506718303123
      ],
      [
        "▁brown",
        -8.353357083995986
      ],
      [
        "▁sizin",
        -5.649030984391743
      ],
      [
        "▁anlat",
        -7.658866901519624
      ],
      [
        "▁evin",
        -7.900547210114244
      ],
      [
        "▁haziran'da",
        -7.404441858125582
      ],
      [
        "▁degillerdi",
        -5.210354841089645
      ],
      [
        "st",
        -8.027352174336574
      ],
      [
        ".4",
        -7.453933029995798
      ],
      [
        "▁sarap",
        -9.8991520659439
      ],
      [
        "▁meger",
        -8.017094335820264
      ],
      [
        "▁sende",
        -7.595001925069891
      ],
      [
        "▁karayolu",
        -7.722123478142257
      ],
      [
        "▁paha",
        -7.450113366831144
      ],
      [
        "▁cep",
        -9.084679298816
      ],
      [
        "▁tesekkurler",
        -8.355981129017952
      ],
      [
        "▁arz",
        -8.692157349785493
      ],
      [
        "▁doviz",
        -9.077957755805825
      ],
      [
        "▁5\\/",
        -7.490278875194841
      ],
      [
        "tugunu",
        -9.895312985320421
      ],
      [
        "▁m",
        -6.5695762177022194
      ],
      [
        "▁yukseltti",
        -8.47359224882392
      ],
      [
        "▁fazla",
        -5.48186363795423
      ],
      [
        "yorum",
        -7.974039099820722
      ],
      [
        "ce",
        -6.594022487097856
      ],
      [
        "yasal",
        -8.29276946333895
      ],
      [
        "▁cins",
        -8.401508958306177
      ],
      [
        "▁asıl",
        -7.381204309289477
      ],
      [
        "du",
        -8.09431807471644
      ],
      [
        "▁kıs",
        -8.16188244775315
      ],
      [
        "siz",
        -5.279569494377398
      ],
      [
        "leyici",
        -10.081039786926715
      ],
      [
        "▁saglıgı",
        -9.51725885490152
      ],
      [
        "▁lutfe",
        -5.273672835575321
      ],
      [
        "▁geldi",
        -5.550090260586221
      ],
      [
        "dukc",
        -8.47443067352392
      ],
      [
        "▁1.6",
        -7.057707378540877
      ],
      [
        "▁ressam",
        -9.78440922873465
      ],
      [
        "la",
        -7.519647211782816
      ],
      [
        "▁gorevli",
        -9.987020335150074
      ],
      [
        "▁personellerin",
        -8.604486416868925
      ],
      [
        "▁yalan",
        -8.661791620680985
      ],
      [
        "▁acısı",
        -9.60828977778807
      ],
      [
        "▁ucuz",
        -9.820621854126731
      ],
      [
        "ilir",
        -8.905063552606952
      ],
      [
        "▁zaman",
        -8.439869080536017
      ],
      [
        "▁zeka",
        -9.556666898656779
      ],
      [
        "▁bosluk",
        -9.352371643719387
      ],
      [
        "▁ilce",
        -9.555620432924746
      ],
      [
        "▁sirket",
        -8.817395261501115
      ],
      [
        "▁devri",
        -8.987832157644203
      ],
      [
        "min",
        -8.428824177600806
      ],
      [
        "▁calı",
        -8.979285707692732
      ],
      [
        "▁3\\/",
        -6.515098788460735
      ],
      [
        "▁carsaf",
        -9.948964625145148
      ],
      [
        "▁ayır",
        -8.293698561438811
      ],
      [
        "izi",
        -9.399207472400754
      ],
      [
        "▁kısa",
        -6.230231755369564
      ],
      [
        "▁danısmanı",
        -9.798360774872217
      ],
      [
        "▁nerede",
        -7.3722393738330165
      ],
      [
        "▁cıkara",
        -8.294485257679437
      ],
      [
        "▁iki",
        -9.017387623429535
      ],
      [
        "▁kaba",
        -8.083097393987945
      ],
      [
        "▁wall",
        -6.797825513385183
      ],
      [
        "▁yalı",
        -9.388500037546965
      ],
      [
        "larla",
        -7.082227629271176
      ],
      [
        "▁tasarruf",
        -8.931278739456356
      ],
      [
        "▁kotu",
        -9.027620293444343
      ],
      [
        "▁oy",
        -8.250156033631498
      ],
      [
        "▁aldıgın",
        -9.838312008048877
      ],
      [
        "▁buz",
        -8.909279493203545
      ],
      [
        "tir",
        -8.286739654787315
      ],
      [
        "▁ekim",
        -7.390394719216669
      ],
      [
        "▁biz",
        -7.698689817019057
      ],
      [
        "▁tur",
        -6.953862621762375
      ],
      [
        "▁havayollarını",
        -8.639005343874722
      ],
      [
        "▁kafes",
        -9.636981518048827
      ],
      [
        "▁arastırmacılar",
        -9.92528903036257
      ],
      [
        "▁uvey",
        -8.404350908401213
      ],
      [
        "▁united",
        -6.265269205589437
      ],
      [
        "▁pasa",
        -9.37566891963284
      ],
      [
        "▁acılıyor",
        -8.87692131228097
      ],
      [
        "▁ya",
        -7.800671762227191
      ],
      [
        "▁toplantıda",
        -9.336429958495442
      ],
      [
        "▁listele",
        -6.288078952484841
      ],
      [
        "▁insanları",
        -8.632788717963848
      ],
      [
        "j",
        -8.833535509724031
      ],
      [
        "nızda",
        -9.700767021435666
      ],
      [
        "▁aylar",
        -8.304850012234626
      ],
      [
        "▁dc",
        -7.502494331779322
      ],
      [
        "▁ortam",
        -9.560588117639252
      ],
      [
        "▁ceyrekte",
        -8.690799461797374
      ],
      [
        "▁kac",
        -9.64012321911973
      ],
      [
        "lara",
        -6.7331203313059405
      ],
      [
        "▁degildi",
        -2.1591214805820806
      ],
      [
        "ra",
        -8.02860155091519
      ],
      [
        "siniz",
        -5.458119837635438
      ],
      [
        "▁iddiaları",
        -9.794680753246594
      ],
      [
        "▁sonrası",
        -9.042567599840298
      ],
      [
        "▁aralık",
        -7.542248708489103
      ],
      [
        "▁meyhane",
        -9.731779560636362
      ],
      [
        "▁bilir",
        -7.661525956525454
      ],
      [
        "▁hisseleri",
        -7.871536482748275
      ],
      [
        "ca",
        -7.195586049672088
      ],
      [
        "▁an",
        -8.887923568972717
      ],
      [
        "ce",
        -7.37276765553874
      ],
      [
        "maları",
        -8.445191383645746
      ],
      [
        "▁yapın",
        -8.80345430890916
      ],
      [
        "▁cıkmıs",
        -7.677117904496876
      ],
      [
        "▁adam",
        -8.224659733142335
      ],
      [
        "▁yapmıstı",
        -8.57710478024154
      ],
      [
        "▁nereler",
        -8.402931740133155
      ],
      [
        "▁acık",
        -6.410109475772573
      ],
      [
        "▁seref",
        -9.73185354226556
      ],
      [
        "▁aktarma",
        -8.780315375189966
      ],
      [
        "▁surpriz",
        -10.176306519499931
      ],
      [
        "▁degisiklikleri",
        -9.737757836939593
      ],
      [
        "li",
        -7.25093721435945
      ],
      [
        "▁yetkililer",
        -9.047680067810095
      ],
      [
        "▁doksan",
        -7.243696276708544
      ],
      [
        "▁agrı",
        -9.590026000383634
      ],
      [
        "▁insanı",
        -8.779049657319506
      ],
      [
        "cusu",
        -8.77582000197132
      ],
      [
        "ger",
        -9.79670564291061
      ],
      [
        "e",
        -5.432312471123907
      ],
      [
        "▁sonuclar",
        -9.03438505163045
      ],
      [
        "▁ankara'da",
        -8.068013582008785
      ],
      [
        "landıgını",
        -9.64551746193745
      ],
      [
        "▁basarısız",
        -8.331545846004797
      ],
      [
        "▁yoneticilerin",
        -10.045568750929457
      ],
      [
        "▁yasa",
        -7.764477575068114
      ],
      [
        "▁fort",
        -6.801607371991959
      ],
      [
        "▁duk",
        -6.451917218688736
      ],
      [
        "▁basbakan",
        -8.998840710106132
      ],
      [
        "▁birlikte",
        -9.506821890762895
      ],
      [
        "▁dıs",
        -9.819834443049995
      ],
      [
        "▁kisilik",
        -9.172932991774951
      ],
      [
        "▁amerika",
        -7.467700766358428
      ],
      [
        "▁sovyet",
        -9.160692106861035
      ],
      [
        "la",
        -6.087479352776021
      ],
      [
        "ili",
        -6.820299547520811
      ],
      [
        "▁alınması",
        -9.802064193336117
      ],
      [
        "▁ederdi",
        -8.32431761267153
      ],
      [
        "▁c",
        -8.176196859020525
      ],
      [
        "es",
        -8.029639286721329
      ],
      [
        "▁minneapolis'te",
        -7.80806283380964
      ],
      [
        "▁yaptıgı",
        -7.911382389790713
      ],
      [
        "▁atlanta'da",
        -5.474516033211378
      ],
      [
        "az",
        -6.848167859171971
      ],
      [
        "▁yapı",
        -7.913086557891587
      ],
      [
        "h",
        -6.8306572091775175
      ],
      [
        "▁mas",
        -9.439356582107887
      ],
      [
        "▁pittsburgh'",
        -5.830220983344222
      ],
      [
        "▁bin",
        -4.672987243887961
      ],
      [
        "▁arka",
        -7.766725027347814
      ],
      [
        "▁alev",
        -9.686260616930547
      ],
      [
        "▁yasaya",
        -8.700476918855932
      ],
      [
        "▁ba",
        -7.905663656293536
      ],
      [
        "▁denver'de",
        -5.178782660526716
      ],
      [
        "nik",
        -8.139729787660851
      ],
      [
        "▁guler",
        -7.698994887491056
      ],
      [
        "▁tak",
        -8.921665169072927
      ],
      [
        "▁ingiliz",
        -7.3765079154609525
      ],
      [
        "bas",
        -9.73482674025703
      ],
      [
        "▁",
        -1.722964280954951
      ],
      [
        "▁bolge",
        -8.187216144554789
      ],
      [
        "▁ilham",
        -9.898792276994744
      ],
      [
        "ıllı",
        -8.372088614477219
      ],
      [
        "▁dır",
        -4.287573368195668
      ],
      [
        "▁bırak",
        -8.087005017576926
      ],
      [
        "▁birbirimiz",
        -7.457556533410018
      ],
      [
        "▁hastalık",
        -9.037399883832752
      ],
      [
        "▁tahvil",
        -7.700473365226528
      ],
      [
        "▁canı",
        -9.364691146536423
      ],
      [
        "▁mev",
        -6.723538293557618
      ],
      [
        "▁ifade",
        -7.52079335516036
      ],
      [
        "tif",
        -8.766456092828673
      ],
      [
        "▁sayfa",
        -8.98347886854751
      ],
      [
        "▁oynama",
        -10.171055513137466
      ],
      [
        "▁yanlıs",
        -7.173834167548121
      ],
      [
        "▁t",
        -8.732834936656264
      ],
      [
        "▁zor",
        -6.587348648101007
      ],
      [
        "▁sovyetler",
        -9.546139016407322
      ],
      [
        "▁oldugunu",
        -6.165144376664872
      ],
      [
        "▁kalabal",
        -8.548645627119674
      ],
      [
        "▁rehberimiz",
        -9.078847809835791
      ],
      [
        "'e",
        -6.643965634587967
      ],
      [
        "▁arkada",
        -9.696311234699612
      ],
      [
        "▁kendimde",
        -7.695269369691355
      ],
      [
        "▁orkestra",
        -10.176306519464013
      ],
      [
        "▁istiyor",
        -7.248337486283619
      ],
      [
        "▁olmadıgı",
        -8.55321234260587
      ],
      [
        "▁havalimanında",
        -10.14685809650385
      ],
      [
        "veya",
        -7.07356391847621
      ],
      [
        "▁or",
        -8.776706927948519
      ],
      [
        "▁kapattı",
        -8.197820325348946
      ],
      [
        "▁ureticiler",
        -10.105276002354412
      ],
      [
        "▁toronto'da",
        -7.1939430775272815
      ],
      [
        "da",
        -9.378985194024985
      ],
      [
        "▁personeli",
        -8.173548878260362
      ],
      [
        "▁patlama",
        -10.076264026841528
      ],
      [
        "▁onu",
        -3.8180555155698697
      ],
      [
        "▁komisyonu",
        -9.015441238110412
      ],
      [
        "yin",
        -5.784995693197711
      ],
      [
        "▁elimde",
        -9.560730865293479
      ],
      [
        "▁2",
        -8.646052158374655
      ],
      [
        "▁olan",
        -4.305715080017117
      ],
      [
        "larını",
        -5.940442738682342
      ],
      [
        "▁karsı",
        -4.835443352689402
      ],
      [
        "'nın",
        -5.331183481266247
      ],
      [
        "▁perde",
        -8.87250336850531
      ],
      [
        "lar",
        -8.974590896815133
      ],
      [
        "n",
        -3.1048016047906435
      ],
      [
        "▁ilgilen",
        -8.809574805624328
      ],
      [
        "▁yabanci",
        -9.962211553752569
      ],
      [
        "u",
        -5.3681920564335766
      ],
      [
        "▁1.3",
        -6.781587815894188
      ],
      [
        "sanız",
        -8.20323249911143
      ],
      [
        "5'",
        -9.069650681526054
      ],
      [
        "▁kurulu",
        -8.118428412447077
      ],
      [
        "▁oy",
        -8.511249687202449
      ],
      [
        "ar",
        -8.291577834059105
      ],
      [
        "▁sartları",
        -9.50017090443826
      ],
      [
        "▁oturmus",
        -8.643265822089745
      ],
      [
        "▁yalnız",
        -5.438889735507824
      ],
      [
        "▁",
        -1.3922668288882338
      ],
      [
        "▁hedefleri",
        -9.744518220347928
      ],
      [
        "▁kay",
        -8.977307347852069
      ],
      [
        "sa",
        -8.865208249174382
      ],
      [
        "▁huzur",
        -8.335024299760093
      ],
      [
        "▁elimi",
        -9.584052374617068
      ],
      [
        "6",
        -8.87981147217561
      ],
      [
        "karlı",
        -8.704985432091185
      ],
      [
        "▁tanım",
        -9.465889182675804
      ],
      [
        "▁cocugunu",
        -9.73515356171144
      ],
      [
        "ana",
        -9.215440906213008
      ],
      [
        "lar",
        -7.1060434803029695
      ],
      [
        "▁muhte",
        -7.212527407828399
      ],
      [
        "▁taban",
        -9.424452366415947
      ],
      [
        "lıgı",
        -8.579194503357435
      ],
      [
        "▁mesaj",
        -9.087040788791018
      ],
      [
        "▁taslar",
        -9.459288508097751
      ],
      [
        "▁yazı",
        -7.783176098005122
      ],
      [
        "▁dogu",
        -7.316808571511066
      ],
      [
        "▁edilmesi",
        -8.983573061996466
      ],
      [
        "▁gelen",
        -6.427638887850488
      ],
      [
        "▁ihtiyacları",
        -9.592524914350065
      ],
      [
        "▁gecer",
        -8.113339694802196
      ],
      [
        "men",
        -7.749488467529847
      ],
      [
        "▁icin",
        -8.540091019626397
      ],
      [
        "▁sene",
        -8.047000242491155
      ],
      [
        "▁bakım",
        -7.325904814344627
      ],
      [
        "▁teklif",
        -7.605818832670482
      ],
      [
        "la",
        -6.957578549967414
      ],
      [
        "▁batı",
        -7.664739957258702
      ],
      [
        "▁yuzlu",
        -6.905887493603706
      ],
      [
        "▁takım",
        -8.363941752206525
      ],
      [
        "▁sen",
        -9.812195872594582
      ],
      [
        "yuklu",
        -8.623668324093863
      ],
      [
        "▁direnis",
        -9.89879570404329
      ],
      [
        "▁atıldı",
        -8.845530016698913
      ],
      [
        "▁naci",
        -7.836373764627838
      ],
      [
        "▁acmak",
        -9.73561689830387
      ],
      [
        "▁sahi",
        -8.37558660362646
      ],
      [
        "▁savası",
        -8.858226428398872
      ],
      [
        "▁ligin",
        -9.822160854347754
      ],
      [
        "▁hukuk",
        -8.587409022387796
      ],
      [
        "larda",
        -6.959888806276309
      ],
      [
        "▁yasal",
        -8.233397827924325
      ],
      [
        "▁gerek",
        -8.412238183017557
      ],
      [
        "▁yapılanma",
        -9.683935761373096
      ],
      [
        "▁dogrusu",
        -9.793982868722638
      ],
      [
        "▁baglıdır",
        -8.984089547613655
      ],
      [
        "▁ogretmeni",
        -9.566979408463283
      ],
      [
        "▁mahsu",
        -8.554238235853783
      ],
      [
        "▁no",
        -9.269631637978941
      ],
      [
        "▁temmuz",
        -7.357692698517294
      ],
      [
        "▁dunya",
        -6.9119997996284415
      ],
      [
        "▁haber",
        -7.724663502312925
      ],
      [
        "▁agacın",
        -9.400602521960336
      ],
      [
        "▁edilmesi",
        -9.495534705186586
      ],
      [
        "▁kanaat",
        -10.176503824252304
      ],
      [
        "ip",
        -8.147036271354292
      ],
      [
        "v",
        -8.759408541790629
      ],
      [
        "▁sandalye",
        -9.548183577818499
      ],
      [
        "be",
        -8.024463293400848
      ],
      [
        "dir",
        -8.133205486406723
      ],
      [
        "▁deneyim",
        -9.32385775830296
      ],
      [
        "caya",
        -10.008917867811657
      ],
      [
        "▁eylem",
        -8.58329847556055
      ],
      [
        "▁komsu",
        -9.163427406385562
      ],
      [
        "▁louis'te",
        -7.920851364431851
      ],
      [
        "▁canlı",
        -9.111286277557936
      ],
      [
        "kar",
        -8.510340351272795
      ],
      [
        "▁eg",
        -9.518608298380018
      ],
      [
        "▁guleryuzluydu",
        -7.450109174233483
      ],
      [
        "▁getirileri",
        -10.10467236238045
      ],
      [
        "▁44",
        -7.3247160992506455
      ],
      [
        "▁bil",
        -8.09607963168584
      ],
      [
        "▁pittsburgh",
        -6.351771316570849
      ],
      [
        "i",
        -5.1748346016730125
      ],
      [
        "▁getirmek",
        -9.853861129974385
      ],
      [
        "iz",
        -8.183355803138426
      ],
      [
        "▁mahmut",
        -8.349867822604647
      ],
      [
        "▁istemiyoru",
        -6.493869047259434
      ],
      [
        "▁uygun",
        -5.712330602846942
      ],
      [
        "▁verir",
        -7.67016575151838
      ],
      [
        "▁birimleri",
        -9.849805264073815
      ],
      [
        "caba",
        -7.273779888668228
      ],
      [
        "▁hukum",
        -9.164130204410856
      ],
      [
        "▁evladı",
        -10.028939703693947
      ],
      [
        "▁koyar",
        -8.929749474043742
      ],
      [
        "al",
        -6.132646043440521
      ],
      [
        "▁bakanlıgı'n",
        -9.735304766074414
      ],
      [
        "miza",
        -9.535824085749038
      ],
      [
        "muyor",
        -8.887006599081127
      ],
      [
        "▁kalma",
        -8.985956914890293
      ],
      [
        "▁hız",
        -9.412075947313848
      ],
      [
        "▁yak",
        -8.742968103304275
      ],
      [
        "irim",
        -8.732761594764893
      ],
      [
        "▁ureticisi",
        -8.833907181218605
      ],
      [
        "▁gerekiyor",
        -7.141487195025526
      ],
      [
        "▁yaklasimi",
        -8.9534099964119
      ],
      [
        "likte",
        -9.377477656973944
      ],
      [
        "▁siz",
        -4.451945015214789
      ],
      [
        "▁nam",
        -9.898878174741263
      ],
      [
        "▁gununu",
        -9.661428608773617
      ],
      [
        "▁e",
        -7.672348431626707
      ],
      [
        "lanmak",
        -10.050764534302068
      ],
      [
        "in",
        -8.211738689545989
      ],
      [
        "▁uye",
        -9.14465989434117
      ],
      [
        "▁oray",
        -9.330200629699952
      ],
      [
        "▁bulur",
        -8.626900255411407
      ],
      [
        "sin",
        -6.581261317813709
      ],
      [
        "▁delikanlı",
        -8.603184389034485
      ],
      [
        "▁sırası",
        -10.1196308252742
      ],
      [
        "ıp",
        -5.680099940697676
      ],
      [
        "yecegi",
        -9.803646180254477
      ],
      [
        "eli",
        -8.613668942201887
      ],
      [
        "▁uyku",
        -8.658353768370624
      ],
      [
        "▁guldu",
        -8.59670940269548
      ],
      [
        "li",
        -8.076561838336984
      ],
      [
        "▁yetenegi",
        -9.731777600237008
      ],
      [
        "ince",
        -9.74008781387159
      ],
      [
        "▁sak",
        -10.034184629155012
      ],
      [
        "▁risk",
        -8.654042399525899
      ],
      [
        "gin",
        -8.712800069914545
      ],
      [
        "▁insanlar",
        -7.27879518315788
      ],
      [
        "n",
        -5.646770103360007
      ],
      [
        "▁uzer",
        -10.08372679436448
      ],
      [
        "▁gosteri",
        -8.748069987395738
      ],
      [
        "▁burası",
        -9.164577691862215
      ],
      [
        "▁alanın",
        -10.116695820009241
      ],
      [
        "'le",
        -7.744582706234022
      ],
      [
        "▁degerlendirir",
        -7.936053310413518
      ],
      [
        "miyoru",
        -8.840425377936983
      ],
      [
        "▁indianapolis",
        -8.143947437469897
      ],
      [
        "▁ne",
        -5.102818083154211
      ],
      [
        "▁bekliyordu",
        -8.664945580834615
      ],
      [
        "▁bulut",
        -9.990166237487966
      ],
      [
        "▁long",
        -7.475427347950381
      ],
      [
        "▁temel",
        -9.145378862916143
      ],
      [
        "▁alakasi",
        -9.60147950734798
      ],
      [
        "▁tarihi",
        -8.787980470110972
      ],
      [
        "▁bela",
        -9.64019733773208
      ],
      [
        "abilecek",
        -8.828095077309802
      ],
      [
        "▁sınıfta",
        -9.682043651263077
      ],
      [
        "▁dernegi",
        -9.898792593859621
      ],
      [
        "▁gorevi",
        -9.77314126394751
      ],
      [
        "▁parca",
        -8.188356309076914
      ],
      [
        "▁orlando",
        -8.016363390628642
      ],
      [
        "aj",
        -8.71637342584558
      ],
      [
        "▁baglantı",
        -9.190719112153191
      ],
      [
        "▁a",
        -7.748049010338403
      ],
      [
        "▁uzerin",
        -6.161937060409342
      ],
      [
        "▁yolculuk",
        -9.026779404903621
      ],
      [
        "▁ala",
        -9.25330473442514
      ],
      [
        "▁ba",
        -8.816175872557334
      ],
      [
        "▁ediyordu",
        -7.3351873661469496
      ],
      [
        "▁damak",
        -8.784748190731248
      ],
      [
        "▁kesti",
        -8.354104924663527
      ],
      [
        "il",
        -8.041720945472774
      ],
      [
        "▁tutum",
        -9.690219046556447
      ],
      [
        "▁s",
        -8.215671686759379
      ],
      [
        "▁danısmanları",
        -10.149493825758912
      ],
      [
        "[CLS]",
        0.0
      ],
      [
        "▁oranında",
        -9.060606660716383
      ],
      [
        "hane",
        -8.761309486121394
      ],
      [
        "▁ciddiyet",
        -10.114539314776483
      ],
      [
        "▁sunlar",
        -6.837551784206271
      ],
      [
        "▁olmalıy",
        -8.92228848497537
      ],
      [
        "▁imza",
        -8.952780908389883
      ],
      [
        "▁ceke",
        -8.506260510674569
      ],
      [
        "▁baslıyor",
        -7.816886225346613
      ],
      [
        "▁adamdı",
        -8.648796851814279
      ],
      [
        "▁omru",
        -9.557780418014714
      ],
      [
        "▁fa",
        -5.262360152298196
      ],
      [
        "▁mukemmeldi",
        -7.49030928232392
      ],
      [
        "iydi",
        -7.5635232602572104
      ],
      [
        "▁set",
        -9.573762929401658
      ],
      [
        "▁makaley",
        -9.375053159760594
      ],
      [
        "▁balta",
        -9.968619833188546
      ],
      [
        "r",
        -8.379793470514926
      ],
      [
        "l",
        -5.067017035620294
      ],
      [
        "▁2.6",
        -7.411926299767766
      ],
      [
        "▁yemek",
        -7.04818349101189
      ],
      [
        "▁yetersiz",
        -6.856958464066205
      ],
      [
        "▁kol",
        -8.37211506947627
      ],
      [
        "▁ayak",
        -8.133508879127785
      ],
      [
        "▁petrol",
        -8.143170856323124
      ],
      [
        "▁kabul",
        -7.030697585479653
      ],
      [
        "▁olanaklari",
        -8.208132508337261
      ],
      [
        "▁programın",
        -9.942613539069423
      ],
      [
        "▁taksit",
        -10.086458328158008
      ],
      [
        "▁giden",
        -8.50264301676016
      ],
      [
        "▁sar",
        -8.59551011689721
      ],
      [
        "▁gonderil",
        -8.841942330050186
      ],
      [
        "▁katılma",
        -9.826618988724817
      ],
      [
        "▁temin",
        -10.027710388939033
      ],
      [
        "unlu",
        -7.55797632889681
      ],
      [
        "▁yatak",
        -8.9446771933993
      ],
      [
        "▁olanakları",
        -9.128498837378137
      ],
      [
        "▁ilgilenmedi",
        -7.79146654288664
      ],
      [
        "irlik",
        -5.69607855368877
      ],
      [
        "▁gayrimenkul",
        -8.976583914708986
      ],
      [
        "n",
        -2.612661024943989
      ],
      [
        "▁arasın",
        -7.727391433307153
      ],
      [
        "▁yapacagı",
        -8.684583826317212
      ],
      [
        "▁toreni",
        -9.968613943074939
      ],
      [
        "ktan",
        -7.570124476525819
      ],
      [
        "▁olmadıgını",
        -8.380001185977228
      ],
      [
        "▁islerini",
        -8.97806999204746
      ],
      [
        "his",
        -8.33901680755023
      ],
      [
        "▁kursu",
        -9.820665026709506
      ],
      [
        "▁garsonlar",
        -9.668687083054863
      ],
      [
        "▁sorunlar",
        -9.490798685909239
      ],
      [
        "▁deniz",
        -6.7590217770131185
      ],
      [
        "rak",
        -9.576017997809247
      ],
      [
        "son",
        -7.531826592809271
      ],
      [
        "▁boston'",
        -5.730022221571596
      ],
      [
        "▁ekmek",
        -8.143479642098928
      ],
      [
        "t",
        -6.092549449512361
      ],
      [
        "▁leri",
        -8.23078403741966
      ],
      [
        "4'",
        -9.117632927553188
      ],
      [
        "▁yedi",
        -5.3484134847842775
      ],
      [
        "▁kayna",
        -8.922960174630997
      ],
      [
        "▁kuzu",
        -9.464110530758642
      ],
      [
        "▁mc",
        -7.9373590000001055
      ],
      [
        "▁edecegini",
        -9.285471710667288
      ],
      [
        "▁yaklası",
        -6.023838545224694
      ],
      [
        "lerimi",
        -9.22221351437858
      ],
      [
        "▁sinyal",
        -10.027992072820911
      ],
      [
        "▁renk",
        -8.489938794462145
      ],
      [
        "▁dai",
        -8.212908243381195
      ],
      [
        "▁yerinde",
        -8.10903683046838
      ],
      [
        "▁gorunuyordu",
        -8.399398132123714
      ],
      [
        "▁ucagı",
        -9.60639638912383
      ],
      [
        "▁yuku",
        -9.85627808983994
      ],
      [
        "▁dava",
        -7.416854356841948
      ],
      [
        "▁oteller",
        -9.592591539968534
      ],
      [
        "▁hareket",
        -7.179087371462134
      ],
      [
        "i",
        -3.7820737249274696
      ],
      [
        "▁halde",
        -7.783803975375056
      ],
      [
        "▁soyledigi",
        -10.065079594907537
      ],
      [
        "▁kenarında",
        -9.916452154465002
      ],
      [
        "'nde",
        -9.02261788587439
      ],
      [
        "▁taze",
        -7.7460431805793695
      ],
      [
        "ıyordu",
        -7.374090680716897
      ],
      [
        "▁uca",
        -7.87841749773607
      ],
      [
        "▁yarattı",
        -8.721827080527456
      ],
      [
        "e",
        -3.054524576694323
      ],
      [
        "▁ici",
        -7.0951664394874765
      ],
      [
        "▁ku",
        -8.336693040225477
      ],
      [
        "▁otlar",
        -9.933807559153596
      ],
      [
        "▁du",
        -8.63337731561789
      ],
      [
        "“",
        -9.068411161210182
      ],
      [
        "▁ayag",
        -9.334954406174006
      ],
      [
        "▁teori",
        -9.284551555520741
      ],
      [
        "▁allah",
        -7.160498052187049
      ],
      [
        "▁izliyor",
        -8.537743364796476
      ],
      [
        "▁bilgilendirilme",
        -9.898788205694114
      ],
      [
        "▁buyur",
        -8.91523839938762
      ],
      [
        "▁ya",
        -8.672989836050743
      ],
      [
        "▁saglık",
        -8.308972200964265
      ],
      [
        "▁karar",
        -7.995453595501612
      ],
      [
        "▁olmasın",
        -8.543613904840175
      ],
      [
        "▁konferans",
        -9.545225687760327
      ],
      [
        "culuk",
        -10.125816019006361
      ],
      [
        "▁hacim",
        -8.633448972456822
      ],
      [
        "▁nine",
        -9.64072118265808
      ],
      [
        "on",
        -8.18452169455618
      ],
      [
        "b",
        -7.087749311720764
      ],
      [
        "lı",
        -7.37465092610085
      ],
      [
        "▁mail",
        -8.977112453687816
      ],
      [
        "kendi",
        -8.045656625088052
      ],
      [
        "▁teyze",
        -9.85756871756795
      ],
      [
        "▁iskemle",
        -9.898788290510817
      ],
      [
        "▁24",
        -6.263247141229067
      ],
      [
        "▁bagıs",
        -9.763614522246431
      ],
      [
        "▁ozlem",
        -10.099793987715172
      ],
      [
        "▁kimin",
        -7.553050552874336
      ],
      [
        "akka",
        -8.407853895765978
      ],
      [
        "▁300",
        -6.580752342133439
      ],
      [
        "ham",
        -9.821019571170135
      ],
      [
        "▁toprag",
        -9.75972422173824
      ],
      [
        "▁isletmeler",
        -9.809851903178421
      ],
      [
        "▁haz",
        -9.776818375318674
      ],
      [
        "▁kariyer",
        -9.634163201159515
      ],
      [
        "▁california'",
        -7.9573498598326395
      ],
      [
        "▁1",
        -3.639482725986401
      ],
      [
        "▁d",
        -9.995414436185875
      ],
      [
        "▁bulbul",
        -9.545230135397654
      ],
      [
        "er",
        -8.341686207183077
      ],
      [
        "▁evi",
        -8.375958789941471
      ],
      [
        "▁bekleme",
        -9.323085458845663
      ],
      [
        "▁g",
        -5.746819020120406
      ],
      [
        "▁dusunu",
        -8.635085735701736
      ],
      [
        "▁ipek",
        -8.702773194668113
      ],
      [
        "▁yaptıgı",
        -7.8310214212526015
      ],
      [
        "▁yaglı",
        -8.374836103730527
      ],
      [
        "▁cesitli",
        -8.766884099657567
      ],
      [
        "▁za",
        -8.400602552092757
      ],
      [
        "▁turlari",
        -9.737997612879607
      ],
      [
        "▁hayat",
        -7.725927274715796
      ],
      [
        "▁kılıc",
        -9.388470585647063
      ],
      [
        "▁bitki",
        -9.351089450487406
      ],
      [
        "▁as",
        -8.92902715994748
      ],
      [
        "▁ibr",
        -9.733281341773083
      ],
      [
        "▁medeniyet",
        -9.993615089422743
      ],
      [
        "▁gelecek",
        -8.722608883497415
      ],
      [
        "dolay",
        -8.574508283218814
      ],
      [
        "▁arsa",
        -10.177888296469376
      ],
      [
        "▁verildi",
        -7.933705345787441
      ],
      [
        "▁savunma",
        -8.507626232015093
      ],
      [
        "▁menkul",
        -7.708471482838003
      ],
      [
        "i",
        -3.0732711944739446
      ],
      [
        "▁ogrendi",
        -8.62697093966935
      ],
      [
        "▁montreal'da",
        -8.263105489212075
      ],
      [
        "medigi",
        -10.076585500992921
      ],
      [
        "met",
        -8.920252266160633
      ],
      [
        "▁k",
        -7.400253612310262
      ],
      [
        "le",
        -8.251667830885411
      ],
      [
        "▁etmis",
        -7.424545476230384
      ],
      [
        "cagı",
        -8.866042356328895
      ],
      [
        "ndıgında",
        -10.129557805475434
      ],
      [
        "▁indianapolis'te",
        -7.020105383147481
      ],
      [
        "likt",
        -6.5852774385037165
      ],
      [
        "▁sosyal",
        -7.120592372210748
      ],
      [
        "▁d",
        -6.355214304135228
      ],
      [
        "medi",
        -8.684851290272388
      ],
      [
        "te",
        -8.427401427900064
      ],
      [
        "'da",
        -7.32189348330439
      ],
      [
        "▁sp",
        -9.700462861705388
      ],
      [
        "lastı",
        -8.414492341744435
      ],
      [
        "yor",
        -9.43130156208674
      ],
      [
        "▁guzel",
        -9.520797235601473
      ],
      [
        "yim",
        -8.132157031008926
      ],
      [
        "dan",
        -5.735766773513523
      ],
      [
        "▁kendilerinde",
        -8.111357562464656
      ],
      [
        "mla",
        -9.49929836872079
      ],
      [
        "▁masa",
        -7.487651087162699
      ],
      [
        "du",
        -4.695439442154071
      ],
      [
        "▁denizde",
        -9.75644275781328
      ],
      [
        "▁bell",
        -8.087504603383183
      ],
      [
        "cik",
        -9.300129225268059
      ],
      [
        "▁ha",
        -7.625962682190957
      ],
      [
        "▁miras",
        -9.317984436453976
      ],
      [
        "▁kendisin",
        -5.410287165828488
      ],
      [
        "▁aydın",
        -9.781395920528716
      ],
      [
        "8",
        -9.0736181412188
      ],
      [
        "ik",
        -8.087447834135226
      ],
      [
        "▁nizam",
        -10.099393280936482
      ],
      [
        "▁yasaya",
        -8.566349252591053
      ],
      [
        "▁turkce",
        -8.333911123962746
      ],
      [
        "cek",
        -7.863023733881743
      ],
      [
        "▁planını",
        -9.49354510337759
      ],
      [
        "▁yurudu",
        -8.099884682814995
      ],
      [
        "▁uygulan",
        -8.437745734360028
      ],
      [
        "lanması",
        -9.532631935968908
      ],
      [
        "▁giren",
        -8.974633600176379
      ],
      [
        "f",
        -11.199613634584775
      ],
      [
        "mı",
        -7.578435694686615
      ],
      [
        "▁kav",
        -9.26293564680918
      ],
      [
        "▁tarihin",
        -9.541570193097701
      ],
      [
        "▁as",
        -8.157936438625255
      ],
      [
        "▁halk",
        -8.156540416784157
      ],
      [
        "▁hava",
        -7.168265742394751
      ],
      [
        "▁sen",
        -8.46960218868321
      ],
      [
        "▁persembe",
        -7.9882735904532
      ],
      [
        "bir",
        -8.552334326594274
      ],
      [
        "mu",
        -8.513807239803414
      ],
      [
        "▁surdu",
        -8.170091370177579
      ],
      [
        "▁yogurt",
        -9.961288690617186
      ],
      [
        "▁degerlendirme",
        -9.205254432497652
      ],
      [
        "ında",
        -7.049416272570734
      ],
      [
        "▁bekliyor",
        -7.325980457750257
      ],
      [
        "on",
        -8.553878951677497
      ],
      [
        "▁prenses",
        -9.842904563764293
      ],
      [
        "▁muddet",
        -9.681777560504104
      ],
      [
        "▁rezervasyon",
        -8.341319845706803
      ],
      [
        "▁bekci",
        -9.85535685072622
      ],
      [
        "▁olursa",
        -7.118533903910536
      ],
      [
        "▁gozyası",
        -10.100250421485434
      ],
      [
        "▁naz",
        -9.790934710960983
      ],
      [
        "mis",
        -5.6537645568386345
      ],
      [
        "▁isteye",
        -8.487280285385715
      ],
      [
        "▁adayı",
        -9.826992613791248
      ],
      [
        "▁konusu",
        -8.627981485209231
      ],
      [
        "▁yasıyor",
        -7.827542717097652
      ],
      [
        "di",
        -6.312665811588268
      ],
      [
        "▁gorusmedi",
        -8.475486177294048
      ],
      [
        "▁salonda",
        -10.045538622986157
      ],
      [
        "▁ayhan",
        -7.795699687227096
      ],
      [
        "▁journal",
        -7.908812225703002
      ],
      [
        "▁organizasyon",
        -9.503559028876541
      ],
      [
        "▁ucretlerini",
        -8.985748398589074
      ],
      [
        "is",
        -8.181793698532807
      ],
      [
        "▁kuyu",
        -9.162853326333245
      ],
      [
        "▁g",
        -9.185339971889224
      ],
      [
        "▁15",
        -5.317744224803343
      ],
      [
        "▁seker",
        -8.821906893987967
      ],
      [
        "▁calgı",
        -9.784409736051886
      ],
      [
        "▁cogu",
        -7.522406212547266
      ],
      [
        "ek",
        -8.432671710188803
      ],
      [
        "▁zengin",
        -7.073573728941109
      ],
      [
        "resmi",
        -7.411034989182304
      ],
      [
        "▁yuzd",
        -6.009199951643306
      ],
      [
        "▁tamamlanması",
        -10.028341493889211
      ],
      [
        "▁miting",
        -9.83996548949067
      ],
      [
        "▁dogru",
        -8.996511561396314
      ],
      [
        "nca",
        -6.940399481638486
      ],
      [
        "sekiz",
        -7.187399372377987
      ],
      [
        "▁s",
        -6.552837919622918
      ],
      [
        "▁hasret",
        -9.898857372740004
      ],
      [
        "▁hasarı",
        -9.994684368944132
      ],
      [
        "▁vol",
        -10.100122348703133
      ],
      [
        "▁katana",
        -10.100767139187075
      ],
      [
        "▁etmiyoru",
        -8.901048496910327
      ],
      [
        "▁icecekleri",
        -9.329857543726453
      ],
      [
        "▁kalmadigim",
        -8.593248975650528
      ],
      [
        "▁hakkını",
        -9.770185312050659
      ],
      [
        "'da",
        -5.987685472531846
      ],
      [
        "▁nakliye",
        -9.864295650294586
      ],
      [
        "▁raporu",
        -9.236827379202545
      ],
      [
        "▁kurtul",
        -8.990949382634968
      ],
      [
        "sız",
        -7.68390184486632
      ],
      [
        "▁al",
        -8.360768270527352
      ],
      [
        "▁disi",
        -10.002730052937018
      ],
      [
        "ları",
        -8.642392733446677
      ],
      [
        "▁aksama",
        -9.064690899448768
      ],
      [
        "le",
        -6.887670592142281
      ],
      [
        "▁birinde",
        -9.660756128219527
      ],
      [
        "▁alt",
        -7.494383247396693
      ],
      [
        "iki",
        -6.72307488974722
      ],
      [
        "s",
        -6.083064316595122
      ],
      [
        "ıyla",
        -7.904251157180966
      ],
      [
        "▁tampa'",
        -8.04256393082669
      ],
      [
        "▁birlik",
        -9.461689217271887
      ],
      [
        "▁trust",
        -8.038755782515096
      ],
      [
        "▁normal",
        -7.430989206315969
      ],
      [
        "▁cumhuriyet",
        -9.34388181259811
      ],
      [
        "▁fiyatlarını",
        -8.502246758446596
      ],
      [
        "▁etmekte",
        -8.074015997544667
      ],
      [
        "▁gozlerinde",
        -9.802636247428138
      ],
      [
        "e",
        -8.372618959769959
      ],
      [
        "▁sarıldı",
        -8.992821000881051
      ],
      [
        "▁guzeli",
        -9.840031321485315
      ],
      [
        "ndan",
        -6.5640626603921195
      ],
      [
        "▁yardimci",
        -8.062726031045958
      ],
      [
        "ko",
        -9.146986028858954
      ],
      [
        "▁aylık",
        -8.605405261884497
      ],
      [
        "▁benim",
        -8.657290628416938
      ],
      [
        "suna",
        -9.704415917935304
      ],
      [
        "▁itiraz",
        -8.952774919008
      ],
      [
        "▁iletisim",
        -8.906791306865296
      ],
      [
        "bir",
        -3.7092891508635653
      ],
      [
        "luluk",
        -10.05584762641078
      ],
      [
        "▁tatlı",
        -9.966325246435403
      ],
      [
        "▁giy",
        -8.852265876379992
      ],
      [
        "rlik",
        -10.218215489745543
      ],
      [
        "▁saskın",
        -10.16592614192194
      ],
      [
        "▁konusuyor",
        -7.991218854827705
      ],
      [
        "▁baskaların",
        -9.885017231106316
      ],
      [
        "ıp",
        -6.402716634388267
      ],
      [
        "▁1.1",
        -7.274207496044125
      ],
      [
        "▁varan",
        -6.420723393827976
      ],
      [
        "▁hukumleri",
        -10.166513706190461
      ],
      [
        "4",
        -12.802702672349787
      ],
      [
        "▁ya",
        -2.9045168103401533
      ],
      [
        "mazdı",
        -8.791725159722208
      ],
      [
        "al",
        -8.653393854644325
      ],
      [
        "▁ed",
        -8.766915707344921
      ],
      [
        "▁endustrisi",
        -9.879424343652198
      ],
      [
        "esme",
        -8.089439494467394
      ],
      [
        "an",
        -8.145310038240687
      ],
      [
        "▁birimi",
        -9.079338503737416
      ],
      [
        "▁cok",
        -9.664383700682187
      ],
      [
        "▁seyahat",
        -8.1327555381821
      ],
      [
        "▁muht",
        -8.6521340737562
      ],
      [
        "▁calisanlarin",
        -9.652676106882078
      ],
      [
        "▁turist",
        -9.849466911861473
      ],
      [
        "▁kadro",
        -9.909209297356702
      ],
      [
        "▁avukatları",
        -9.76576722388539
      ],
      [
        "iji",
        -8.70416995871651
      ],
      [
        "▁ordu",
        -8.655793240910679
      ],
      [
        "an",
        -5.165519414905496
      ],
      [
        "▁neredey",
        -6.709668161950811
      ],
      [
        "▁teklifini",
        -9.38023279005533
      ],
      [
        "us",
        -7.61243417649517
      ],
      [
        "▁yurt",
        -8.633242658341526
      ],
      [
        "s",
        -7.700008686485435
      ],
      [
        "▁bolumunde",
        -9.691483220680816
      ],
      [
        "▁asagıda",
        -8.947762715351653
      ],
      [
        "▁sah",
        -8.821733507347759
      ],
      [
        "▁yana",
        -8.36736752338527
      ],
      [
        "▁kisiler",
        -8.801947328620596
      ],
      [
        "▁karıstırı",
        -8.755324254933461
      ],
      [
        "▁yıgın",
        -9.386734269845391
      ],
      [
        "▁diy",
        -8.048293197356147
      ],
      [
        "▁birey",
        -9.906189883889063
      ],
      [
        "▁fare",
        -9.805715464932174
      ],
      [
        "▁gok",
        -8.212404365444268
      ],
      [
        "i",
        -5.235142918594545
      ],
      [
        "y",
        -5.3092215007041865
      ],
      [
        "▁atmak",
        -10.10616071610771
      ],
      [
        "▁kendisi",
        -5.0164946613251225
      ],
      [
        "c",
        -6.519041070915973
      ],
      [
        "▁saglayacak",
        -8.719514769412978
      ],
      [
        "▁kaynak",
        -8.437709221412401
      ],
      [
        "▁bildigi",
        -9.884307809548638
      ],
      [
        "▁cift",
        -7.348307323274102
      ],
      [
        "▁saniye",
        -9.588813320634655
      ],
      [
        "▁kalk",
        -8.03923805967623
      ],
      [
        "▁oteli",
        -8.334414863697841
      ],
      [
        "+",
        -12.802702672349787
      ],
      [
        "▁ju",
        -9.873823226882767
      ],
      [
        "▁se",
        -7.921130552514963
      ],
      [
        "▁hikaye",
        -8.954794110588836
      ],
      [
        "▁elbet",
        -6.771714475515565
      ],
      [
        "▁yasamın",
        -9.847412851478763
      ],
      [
        "▁bakar",
        -8.238649410961601
      ],
      [
        "▁alet",
        -9.106665118044283
      ],
      [
        "ek",
        -8.626203900674426
      ],
      [
        "▁sapka",
        -9.252524341816518
      ],
      [
        "▁bicimi",
        -9.624701487487027
      ],
      [
        "▁ani",
        -8.79281280256296
      ],
      [
        "▁acar",
        -8.337642511132312
      ],
      [
        "▁izleme",
        -9.799192909422638
      ],
      [
        "▁fincan",
        -9.425123507629086
      ],
      [
        "▁mar",
        -9.941042940090952
      ],
      [
        "▁kasırga",
        -9.85216468699212
      ],
      [
        "▁demek",
        -7.615228327851538
      ],
      [
        "▁bil",
        -9.160273757143404
      ],
      [
        "▁taksi",
        -9.093616646325506
      ],
      [
        "▁agzım",
        -10.071754245963117
      ],
      [
        "\"",
        -9.187979756183218
      ],
      [
        "▁duzeni",
        -9.544373912816015
      ],
      [
        "▁gobegi",
        -9.898788223443866
      ],
      [
        "▁olumu",
        -9.690283486457368
      ],
      [
        "tik",
        -7.798881633101012
      ],
      [
        "▁sanayi",
        -8.650234567838627
      ],
      [
        "▁biri",
        -8.165567273475755
      ],
      [
        "elik",
        -7.316834905725904
      ],
      [
        "▁arastırma",
        -8.347302501262961
      ],
      [
        "▁umit",
        -9.682020189701694
      ],
      [
        "ile",
        -3.939922469606252
      ],
      [
        "▁cumartesi",
        -7.715274173345423
      ],
      [
        "▁oglu",
        -9.002644128372792
      ],
      [
        "▁28",
        -6.493645630951328
      ],
      [
        "▁cıkı",
        -7.8380238542350185
      ],
      [
        "▁ticar",
        -7.102147996519058
      ],
      [
        "▁il",
        -8.546225476510248
      ],
      [
        "digini",
        -8.87967269104562
      ],
      [
        "▁temsilcileri",
        -9.969331734021548
      ],
      [
        "▁meydan",
        -8.116393669392856
      ],
      [
        "▁plani",
        -8.963316057467402
      ],
      [
        "▁or",
        -8.424261484288385
      ],
      [
        "▁cumle",
        -8.79203147997116
      ],
      [
        "▁cemiyet",
        -9.785722975820232
      ],
      [
        "▁haklarını",
        -9.863668296466095
      ],
      [
        "▁sauna",
        -9.026230235829168
      ],
      [
        "▁disiplin",
        -9.588704011363905
      ],
      [
        "▁anti",
        -9.806657078347875
      ],
      [
        "▁ders",
        -8.611169654404495
      ],
      [
        "▁kendinizi",
        -7.1322740463500285
      ],
      [
        "▁yukse",
        -5.634843789760225
      ],
      [
        "▁lake",
        -6.5192866892006665
      ],
      [
        "z",
        -12.24335423160404
      ],
      [
        "leri",
        -8.80600109880018
      ],
      [
        "am",
        -8.203053439865858
      ],
      [
        "▁buluna",
        -7.764962097519984
      ],
      [
        "▁cesaret",
        -9.505192659935961
      ],
      [
        "▁felsefe",
        -9.317863399957002
      ],
      [
        "▁durusma",
        -9.602708331082823
      ],
      [
        "t",
        -5.463644525858803
      ],
      [
        "▁uret",
        -8.55469785546132
      ],
      [
        "▁york",
        -5.812414345836371
      ],
      [
        "▁vermedi",
        -8.234190518613614
      ],
      [
        "rak",
        -3.383613678221411
      ],
      [
        "isli",
        -8.192030201536882
      ],
      [
        "▁yakın",
        -8.49017966735875
      ],
      [
        "▁aileler",
        -7.263400794178908
      ],
      [
        "▁cat",
        -9.775175077416867
      ],
      [
        "▁deplasman",
        -10.17630660173822
      ],
      [
        "▁emri",
        -10.008130402691323
      ],
      [
        "▁yetkisi",
        -9.708219580277353
      ],
      [
        "▁gur",
        -8.754298629300688
      ],
      [
        "▁dis",
        -8.762716897582234
      ],
      [
        "▁namaz",
        -9.504690022879394
      ],
      [
        "ait",
        -10.16105159335135
      ],
      [
        "▁fiyatlar",
        -8.227043163791365
      ],
      [
        "▁dogum",
        -9.109234376530999
      ],
      [
        "▁kulagın",
        -9.892197690628596
      ],
      [
        "▁degil",
        -2.538634238983531
      ],
      [
        "▁yavrusu",
        -10.168967332766007
      ],
      [
        "▁gunluk",
        -9.752278957368022
      ],
      [
        "▁kadar",
        -8.616559021729449
      ],
      [
        "▁gok",
        -9.138475562439604
      ],
      [
        "▁meselesi",
        -9.682289789594849
      ],
      [
        "▁uz",
        -9.225915029859461
      ],
      [
        "▁hicbiri",
        -6.194402383819175
      ],
      [
        "▁yetenekleri",
        -10.169526001318182
      ],
      [
        "▁gunu",
        -6.261576438994198
      ],
      [
        "lıklar",
        -9.057496399167906
      ],
      [
        "▁oranları",
        -8.786510176948203
      ],
      [
        "▁kagıt",
        -8.695749535606591
      ],
      [
        "▁cocug",
        -9.521137257041135
      ],
      [
        "▁birin",
        -8.090399387979804
      ],
      [
        "▁umidi",
        -9.961302382394118
      ],
      [
        "▁alın",
        -7.703435514389548
      ],
      [
        "gil",
        -7.604654609424275
      ],
      [
        "▁sık",
        -9.062557474228768
      ],
      [
        "▁ofisi",
        -9.510550268492079
      ],
      [
        "▁denge",
        -8.365464385128696
      ],
      [
        "▁ydu",
        -5.652411369949245
      ],
      [
        "lı",
        -4.604940978868521
      ],
      [
        "▁yuzde",
        -8.423529304367072
      ],
      [
        "▁tak",
        -8.558546933359
      ],
      [
        "▁olabil",
        -8.713444226035984
      ],
      [
        "▁faktor",
        -9.388061074574924
      ],
      [
        "o",
        -12.802702672349787
      ],
      [
        "▁et",
        -7.977902231821705
      ],
      [
        "▁baslamıs",
        -7.932017451835269
      ],
      [
        "▁miami'de",
        -7.374097466826984
      ],
      [
        "▁arıyoru",
        -8.60302325214272
      ],
      [
        "larımız",
        -8.465347348793486
      ],
      [
        "l",
        -6.569307647131929
      ],
      [
        "▁suclama",
        -9.165846803423976
      ],
      [
        "te",
        -6.519108773746345
      ],
      [
        "▁olmalıdır",
        -8.773223519812422
      ],
      [
        "▁denile",
        -8.392108695656162
      ],
      [
        "lerimizi",
        -8.739944220313054
      ],
      [
        "▁senator",
        -9.547466244575492
      ],
      [
        "da",
        -6.754895265353099
      ],
      [
        "▁londra",
        -7.490199595551225
      ],
      [
        "▁dost",
        -8.801407901498695
      ],
      [
        "▁barıs",
        -9.211405767758823
      ],
      [
        "mıstı",
        -6.54217064264794
      ],
      [
        "sini",
        -6.643606470944175
      ],
      [
        "▁parmagı",
        -9.759632159926042
      ],
      [
        "00'de",
        -9.816987984054755
      ],
      [
        "▁ortalaması",
        -9.86172072101588
      ],
      [
        "▁maddeler",
        -10.038267883525439
      ],
      [
        "▁yedi",
        -9.86455623424229
      ],
      [
        "▁kalkar",
        -8.919620575314946
      ],
      [
        "madı",
        -7.855064716859427
      ],
      [
        "k",
        -4.834402831400872
      ],
      [
        "▁milliyetci",
        -9.998685687496819
      ],
      [
        "▁olacak",
        -7.7873202747897015
      ],
      [
        "▁yuruyordu",
        -8.993963459208668
      ],
      [
        "▁s",
        -6.730562792173902
      ],
      [
        "▁planın",
        -9.889955216853828
      ],
      [
        "▁sent",
        -8.455293907508421
      ],
      [
        "▁juri",
        -9.682096862266452
      ],
      [
        "v",
        -14.014958445102625
      ],
      [
        "▁ne",
        -5.752760880288738
      ],
      [
        "mal",
        -9.24465330033221
      ],
      [
        "▁gumus",
        -8.45347510151566
      ],
      [
        "▁uzere",
        -5.048386226996949
      ],
      [
        "▁sahiptir",
        -8.097176859383168
      ],
      [
        "boy",
        -9.336408938206505
      ],
      [
        "▁kez",
        -7.4685425941925425
      ],
      [
        "▁yerleri",
        -9.340908858874725
      ],
      [
        "▁yara",
        -8.318483706895702
      ],
      [
        "▁toplantısında",
        -9.968292445252656
      ],
      [
        "▁veriyoru",
        -6.404260480391238
      ],
      [
        "▁uc",
        -8.79408648688098
      ],
      [
        "ı",
        -4.541321046145934
      ],
      [
        "ss",
        -9.437149516960732
      ],
      [
        "▁yayla",
        -9.768754096727776
      ],
      [
        "z",
        -6.428989089571596
      ],
      [
        "▁takdir",
        -9.078755129044564
      ],
      [
        "▁sevda",
        -9.594836952103476
      ],
      [
        "▁uretiyor",
        -8.987684972151193
      ],
      [
        "▁bolumunu",
        -9.578886711684827
      ],
      [
        "3.",
        -9.786542199125012
      ],
      [
        "▁kim",
        -8.612603231965428
      ],
      [
        "▁anlama",
        -8.733755619919087
      ],
      [
        "▁uyum",
        -9.254911224390945
      ],
      [
        "▁york'ta",
        -6.469904347778425
      ],
      [
        "▁birimiz",
        -8.487004582228542
      ],
      [
        "▁islemlerin",
        -9.70375501687967
      ],
      [
        "ecek",
        -6.942638364273837
      ],
      [
        "▁surdurme",
        -10.123829912148182
      ],
      [
        "▁tahsis",
        -10.175716271980495
      ],
      [
        "▁ne",
        -5.899376330339412
      ],
      [
        "▁annem",
        -7.927872486840817
      ],
      [
        "▁o",
        -6.656188534955952
      ],
      [
        "▁cevabı",
        -9.90878325412876
      ],
      [
        "▁kume",
        -9.972631952549222
      ],
      [
        "▁tekrar",
        -5.767848238720847
      ],
      [
        "▁mutluluk",
        -9.503597999419291
      ],
      [
        "▁be",
        -8.245822081507646
      ],
      [
        "▁iliskileri",
        -9.19277482832436
      ],
      [
        "▁piyano",
        -9.634161728938029
      ],
      [
        "▁don",
        -8.594968907651552
      ],
      [
        "▁avrupa'da",
        -7.497466820441639
      ],
      [
        "▁plak",
        -9.84078522561127
      ],
      [
        "▁yuze",
        -10.023168721163861
      ],
      [
        "▁has",
        -8.726625874575694
      ],
      [
        "emel",
        -7.841634726129378
      ],
      [
        "▁kaymakam",
        -9.96128918225597
      ],
      [
        "9",
        -4.905248477984599
      ],
      [
        "▁denver",
        -5.849706285433558
      ],
      [
        "▁eylul'de",
        -7.876697701139456
      ],
      [
        "▁si",
        -9.41211622225353
      ],
      [
        "▁telefon",
        -7.746732095705221
      ],
      [
        "▁dusuyor",
        -8.52874364892277
      ],
      [
        "lar",
        -5.089393930338147
      ],
      [
        "▁idare",
        -8.460589934051669
      ],
      [
        "▁ugra",
        -8.75604721363435
      ],
      [
        "▁dergileri",
        -10.170901839799004
      ],
      [
        "▁dol",
        -9.394887291889592
      ],
      [
        "▁fazla",
        -9.88892981459929
      ],
      [
        "▁cumhuriyeti",
        -9.548683467877906
      ],
      [
        "▁worth'da",
        -7.589467204646883
      ],
      [
        "▁memuru",
        -9.715491174134428
      ],
      [
        "▁airlines",
        -6.469843231157303
      ],
      [
        "▁uyeleri",
        -9.2673635001862
      ],
      [
        "▁camı",
        -10.108694217533863
      ],
      [
        "▁olmasını",
        -9.408956917122655
      ],
      [
        "▁orhan",
        -8.303500768666341
      ],
      [
        "▁ciftciler",
        -9.76095616239001
      ],
      [
        "▁verdigini",
        -9.48593464180538
      ],
      [
        "▁pencerede",
        -9.878649366832258
      ],
      [
        "▁",
        -2.896334987865554
      ],
      [
        "▁mahkemede",
        -9.82936803544071
      ],
      [
        "▁artıs",
        -8.226404791128935
      ],
      [
        "onun",
        -7.534328467502998
      ],
      [
        "me",
        -8.153444905148167
      ],
      [
        "▁yatırımcıların",
        -9.16029165589428
      ],
      [
        "▁dilim",
        -9.008356897369895
      ],
      [
        "▁dısı",
        -8.59931508030196
      ],
      [
        "den",
        -4.636461324944689
      ],
      [
        "▁veri",
        -8.424047217170443
      ],
      [
        "▁karsılıkl",
        -8.788007644814307
      ],
      [
        "▁genel",
        -5.430935490490446
      ],
      [
        "▁his",
        -9.028715750299629
      ],
      [
        "▁koltuk",
        -9.187265505172467
      ],
      [
        "▁42",
        -6.850838654741995
      ],
      [
        "▁isleme",
        -9.727121405115744
      ],
      [
        "▁teslim",
        -8.776211446756115
      ],
      [
        "▁duvarın",
        -9.746312922021659
      ],
      [
        "▁ufakt",
        -8.588929040231333
      ],
      [
        "▁felaket",
        -8.976583976376892
      ],
      [
        "▁verdi",
        -6.149864983269833
      ],
      [
        "▁sattı",
        -8.33891154611181
      ],
      [
        "yan",
        -6.952056413456755
      ],
      [
        "▁yana",
        -7.77216474041248
      ],
      [
        "▁olanak",
        -9.890132118667397
      ],
      [
        "▁kez",
        -8.23057518310227
      ],
      [
        "▁diyorlar",
        -8.719058831820329
      ],
      [
        "▁kırdı",
        -8.876370957919564
      ],
      [
        "▁yere",
        -7.548976951796603
      ],
      [
        "at",
        -7.621242717650691
      ],
      [
        "▁gorunmuyor",
        -8.817720247176707
      ],
      [
        "▁sov",
        -9.66074054809487
      ],
      [
        "▁demir",
        -8.584467275682043
      ],
      [
        "▁cin",
        -7.368193966484965
      ],
      [
        "▁aksi",
        -8.334466707343594
      ],
      [
        "▁etmeye",
        -8.60391832722236
      ],
      [
        "▁aktar",
        -8.557557591398407
      ],
      [
        "▁kapısı",
        -9.747252001832258
      ],
      [
        "▁1\\/",
        -5.804230612565163
      ],
      [
        "▁asl",
        -6.096723680153653
      ],
      [
        "▁say",
        -8.601413518006044
      ],
      [
        "sef",
        -8.617685786776235
      ],
      [
        "gunluk",
        -7.899583056749842
      ],
      [
        "'ni",
        -6.192098510147202
      ],
      [
        "i",
        -11.302702672349787
      ],
      [
        "▁kalmıstı",
        -8.07210442507385
      ],
      [
        "▁d",
        -7.195383266702848
      ],
      [
        "▁isten",
        -9.46691484763397
      ],
      [
        "▁yanlıs",
        -9.473925961783046
      ],
      [
        "▁alanlar",
        -9.91674114156219
      ],
      [
        "▁kon",
        -8.666173701184023
      ],
      [
        "▁firmalar",
        -10.045476330812885
      ],
      [
        "▁sevk",
        -9.058340020872963
      ],
      [
        "▁zor",
        -9.714644304799325
      ],
      [
        "▁mecbur",
        -8.757778843797404
      ],
      [
        "▁dusman",
        -8.36559806191044
      ],
      [
        "▁site",
        -9.430930275508057
      ],
      [
        "ot",
        -8.834729391576413
      ],
      [
        "▁cıkardı",
        -7.246212885498744
      ],
      [
        "▁kıy",
        -7.644915052644335
      ],
      [
        "▁ro",
        -9.849057067141707
      ],
      [
        "▁istifa",
        -8.551553864635249
      ],
      [
        "▁oylama",
        -9.599227770159217
      ],
      [
        "▁dem",
        -10.043665453306701
      ],
      [
        "▁daldı",
        -8.757586543163981
      ],
      [
        "ya",
        -8.255055954866737
      ],
      [
        "▁bırakma",
        -9.352346238552391
      ],
      [
        "▁topu",
        -8.869599354673486
      ],
      [
        "▁icti",
        -8.916813856535772
      ],
      [
        "▁emniyet",
        -9.545268060465224
      ],
      [
        "▁sigara",
        -8.415548462646832
      ],
      [
        "ustu",
        -8.224255914410714
      ],
      [
        "▁45",
        -6.717907508711445
      ],
      [
        "▁ihale",
        -9.13605087429694
      ],
      [
        "ır",
        -8.318480313622686
      ],
      [
        "▁olum",
        -8.381255984402511
      ],
      [
        "du",
        -6.548127996053305
      ],
      [
        "▁zorla",
        -9.865764098379396
      ],
      [
        "▁olmadıgı",
        -9.389487602082133
      ],
      [
        "▁rekabet",
        -8.490164790951724
      ],
      [
        "▁katında",
        -9.933035242646179
      ],
      [
        "▁kalka",
        -5.973555474754623
      ],
      [
        "▁niyet",
        -9.512188508046297
      ],
      [
        "▁bilim",
        -7.662561484827331
      ],
      [
        "▁var",
        -6.912256961521406
      ],
      [
        "▁gidecek",
        -8.892196047842369
      ],
      [
        "▁acenta",
        -9.839968542972263
      ],
      [
        "▁araya",
        -9.098155667118299
      ],
      [
        "▁goruyor",
        -7.57896505273146
      ],
      [
        "6'",
        -9.210825175055417
      ],
      [
        "dır",
        -6.552896859402911
      ],
      [
        "▁dusuk",
        -10.177826207598109
      ],
      [
        "lı",
        -9.494718087596715
      ],
      [
        "▁durum",
        -7.774867782029893
      ],
      [
        "▁birini",
        -9.101330180289109
      ],
      [
        "▁talebi",
        -9.827272506449066
      ],
      [
        "▁tipi",
        -9.427494956244765
      ],
      [
        "▁nufus",
        -9.450628377920332
      ],
      [
        "▁baslarını",
        -9.96323597301498
      ],
      [
        "▁ucretini",
        -9.506389400318113
      ],
      [
        "si",
        -5.480218201930448
      ],
      [
        "▁zamanlarda",
        -8.690946024645553
      ],
      [
        "layan",
        -7.7732711328130035
      ],
      [
        "▁yanı",
        -8.409016488526667
      ],
      [
        "▁analiz",
        -9.420752979345163
      ],
      [
        "▁gazeteciler",
        -10.055070894717892
      ],
      [
        "san",
        -8.356714171594742
      ],
      [
        "▁kalktı",
        -7.850631911405778
      ],
      [
        "▁tek",
        -5.296622749586832
      ],
      [
        "▁okuyucu",
        -9.83997565013528
      ],
      [
        "▁dili",
        -9.17310506304326
      ],
      [
        "▁birbirlerini",
        -6.747191508618523
      ],
      [
        "▁cocugun",
        -8.76386824041687
      ],
      [
        "▁ayri",
        -8.136691950554985
      ],
      [
        "▁misafir",
        -8.364704594804103
      ],
      [
        "▁bakan",
        -8.503176993550035
      ],
      [
        "▁newark'ta",
        -7.286859075704227
      ],
      [
        "▁ucusunu",
        -9.103552939318078
      ],
      [
        "▁sekreteri",
        -10.175456115339292
      ],
      [
        "▁konusunu",
        -10.140267524358956
      ],
      [
        "▁guvenlik",
        -8.687878923828801
      ],
      [
        "▁olusu",
        -9.666121844863257
      ],
      [
        "cagız",
        -8.852217712868713
      ],
      [
        "▁sis",
        -9.282576967807902
      ],
      [
        "▁ocak",
        -8.616422290520799
      ],
      [
        "▁6'da",
        -8.907250990536618
      ],
      [
        "▁yoneticileri",
        -9.029736131100314
      ],
      [
        "dır",
        -7.667202842089157
      ],
      [
        "▁soyleniyor",
        -8.9939905644031
      ],
      [
        "▁parmakları",
        -9.654740449415382
      ],
      [
        "▁yuruyus",
        -9.731806273878513
      ],
      [
        "▁rahat",
        -8.30828836050418
      ],
      [
        "▁morgan",
        -8.02159012207175
      ],
      [
        "▁yatırımcıları",
        -9.28533371678243
      ],
      [
        "▁bolum",
        -8.518166062379922
      ],
      [
        "▁kazan",
        -8.829590920833903
      ],
      [
        "▁cicekler",
        -9.944374540817076
      ],
      [
        "▁suphe",
        -8.404558566732096
      ],
      [
        "y",
        -7.27092172567569
      ],
      [
        "▁hakları",
        -9.100872865306915
      ],
      [
        "sun",
        -6.380546687901305
      ],
      [
        "▁donuk",
        -8.251428758321687
      ],
      [
        "ye",
        -8.934712087907656
      ],
      [
        "▁ettik",
        -9.63697492735361
      ],
      [
        "▁sinirleri",
        -10.095602822742745
      ],
      [
        "▁ekipman",
        -9.65071353986287
      ],
      [
        "▁acmıstı",
        -8.978146136278777
      ],
      [
        "▁cip",
        -10.099526070457994
      ],
      [
        "k",
        -6.146478582532372
      ],
      [
        "▁tipi",
        -8.082752634834256
      ],
      [
        "▁okuz",
        -10.027988110952872
      ],
      [
        "▁isteme",
        -9.968359058301107
      ],
      [
        "▁yokus",
        -9.982346867929513
      ],
      [
        "▁gar",
        -7.791208451061799
      ],
      [
        "▁gitmisti",
        -8.796909617520168
      ],
      [
        "acık",
        -8.623245486613722
      ],
      [
        "▁bonolar",
        -9.574046688478344
      ],
      [
        "gun",
        -7.780179854067352
      ],
      [
        "b",
        -8.138833591377013
      ],
      [
        "c",
        -4.254761954954862
      ],
      [
        "'nun",
        -6.178313541810417
      ],
      [
        "▁geri",
        -5.740966921982887
      ],
      [
        "▁yetmis",
        -7.281993076538758
      ],
      [
        "▁kendimi",
        -5.7344618553965745
      ],
      [
        "▁stratejisi",
        -10.08826696573211
      ],
      [
        "▁kosullar",
        -9.27955590978804
      ],
      [
        "▁du",
        -9.069743225063082
      ],
      [
        "▁tadim",
        -9.902383224581786
      ],
      [
        "▁goster",
        -4.780292424100502
      ],
      [
        "▁or",
        -8.60131286978149
      ],
      [
        "▁biliyordu",
        -8.696926177736215
      ],
      [
        "lari",
        -9.02566953343354
      ],
      [
        "larımızı",
        -8.52420906718793
      ],
      [
        "en",
        -6.063421751332491
      ],
      [
        "▁iade",
        -9.589202606109824
      ],
      [
        "▁gostere",
        -8.567719247690754
      ],
      [
        "arak",
        -6.248357976238072
      ],
      [
        "▁servisi",
        -8.134199586536244
      ],
      [
        "▁seftali",
        -10.0993932713284
      ],
      [
        "▁sergi",
        -9.391465603081233
      ],
      [
        "▁mahkeme",
        -8.332293654226586
      ],
      [
        "▁hali",
        -8.685252491573205
      ],
      [
        "▁kemer",
        -10.027967940388443
      ],
      [
        "u",
        -4.975797338804984
      ],
      [
        "▁kazan",
        -8.782007187408357
      ],
      [
        "gi",
        -10.055124877575476
      ],
      [
        "▁odeme",
        -8.258984852288858
      ],
      [
        "▁soylendi",
        -8.977475621870196
      ],
      [
        "▁yollarını",
        -9.649508490948353
      ],
      [
        "▁sezlong",
        -9.634158493702046
      ],
      [
        "▁ola",
        -3.676043512832143
      ],
      [
        "▁sorunu",
        -8.384549779837196
      ],
      [
        "o",
        -2.8956488792173367
      ],
      [
        "▁olmak",
        -7.594056185166777
      ],
      [
        "▁diyordu",
        -8.551748048018602
      ],
      [
        "▁gelir",
        -7.122760924582713
      ],
      [
        "▁yeri",
        -8.607230413926226
      ],
      [
        "▁gerek",
        -8.144007580230529
      ],
      [
        "▁sevgili",
        -9.607550558767713
      ],
      [
        "▁yorgan",
        -10.027955922471682
      ],
      [
        "▁gorule",
        -8.687942469840241
      ],
      [
        "▁gogus",
        -9.732868660866334
      ],
      [
        "▁yasadıgı",
        -8.813047333474
      ],
      [
        "▁din",
        -8.77257151608551
      ],
      [
        "▁girer",
        -7.986300337386995
      ],
      [
        "▁gozum",
        -9.442287388069516
      ],
      [
        "▁guc",
        -8.484829431853754
      ],
      [
        "▁alca",
        -8.7105396051646
      ],
      [
        "00",
        -5.835146209538178
      ],
      [
        "lik",
        -4.866178197012406
      ],
      [
        "uyordu",
        -8.149199591787955
      ],
      [
        "▁gonul",
        -8.685782438594025
      ],
      [
        "▁me",
        -8.112532873127401
      ],
      [
        "▁kansas",
        -6.518973960745943
      ],
      [
        "▁uzmanları",
        -9.502852860063607
      ],
      [
        "▁eti",
        -9.369150709194912
      ],
      [
        "▁yukseldi",
        -6.141516990966012
      ],
      [
        "▁doldur",
        -8.821844763172505
      ],
      [
        "▁olanaklarını",
        -9.55759320699416
      ],
      [
        "▁vur",
        -8.667016132592863
      ],
      [
        "▁etti",
        -5.191383391828558
      ],
      [
        "▁yıllık",
        -6.382629120949315
      ],
      [
        "▁arttı",
        -7.288317713889354
      ],
      [
        "▁uzlasma",
        -9.899027426538266
      ],
      [
        "zat",
        -7.044131657787526
      ],
      [
        "▁yanın",
        -8.896047332263041
      ],
      [
        "dan",
        -5.612755608367095
      ],
      [
        "▁gazeteci",
        -9.47839119998877
      ],
      [
        "lardan",
        -7.2494119388552
      ],
      [
        "▁kurulusları",
        -9.686720479989027
      ],
      [
        "▁yarısında",
        -10.119984521761173
      ],
      [
        "lı",
        -6.982746712373694
      ],
      [
        "▁nihayet",
        -10.176306523193368
      ],
      [
        "▁evde",
        -7.922848743487957
      ],
      [
        "▁kazanclar",
        -9.40150821751051
      ],
      [
        "▁sise",
        -8.993515567574804
      ],
      [
        "▁gelin",
        -8.78066237604558
      ],
      [
        "▁senetleri",
        -8.573480278845839
      ],
      [
        "▁oranı",
        -8.278025444848112
      ],
      [
        "▁richard",
        -8.203039213365276
      ],
      [
        "▁karsilama",
        -8.275826153557919
      ],
      [
        "▁muhasebe",
        -9.885320429576364
      ],
      [
        "▁gibi",
        -2.7839934559607933
      ],
      [
        "▁yen'",
        -7.390874940176632
      ],
      [
        "do",
        -9.411609804799927
      ],
      [
        "▁inanc",
        -10.057103477003402
      ],
      [
        "▁iddia",
        -7.900829301032245
      ],
      [
        "▁husus",
        -9.486190526816815
      ],
      [
        "▁sun",
        -8.492721875837578
      ],
      [
        "▁etmesi",
        -8.817679902296556
      ],
      [
        "▁deli",
        -7.876917093199866
      ],
      [
        "▁adamı",
        -8.602078839978144
      ],
      [
        ".5'",
        -9.888923657963002
      ],
      [
        "ton",
        -7.6226007165899015
      ],
      [
        "▁yazma",
        -9.270097692646186
      ],
      [
        "▁elbise",
        -8.490165131119257
      ],
      [
        "▁industries",
        -8.129913594326528
      ],
      [
        "▁telefonla",
        -8.501174807578352
      ],
      [
        "▁gecmis",
        -9.443909478226916
      ],
      [
        "▁guvence",
        -10.030702236771088
      ],
      [
        "▁oldu",
        -5.026169973079062
      ],
      [
        "▁sorar",
        -8.925500732484089
      ],
      [
        "▁ora",
        -8.799534576243087
      ],
      [
        "den",
        -6.363492151075381
      ],
      [
        "yıp",
        -8.391723566680888
      ],
      [
        "▁yelpaze",
        -9.8987882453021
      ],
      [
        "▁bulma",
        -8.200271641100349
      ],
      [
        "kin",
        -5.764318754693728
      ],
      [
        "▁kalır",
        -8.265413742871766
      ],
      [
        "▁yuzunde",
        -8.820854640649852
      ],
      [
        "▁arası",
        -7.666211944241718
      ],
      [
        "ir",
        -7.148358618459739
      ],
      [
        "▁katilmadi",
        -8.719325271321853
      ],
      [
        "msal",
        -7.709211565662931
      ],
      [
        "▁edin",
        -7.975179900692032
      ],
      [
        "lma",
        -9.262854734633448
      ],
      [
        "▁ar",
        -7.983228872390978
      ],
      [
        "8",
        -4.026505519976443
      ],
      [
        "▁anca",
        -5.244266919710403
      ],
      [
        "at",
        -7.90805334966808
      ],
      [
        "▁eylul",
        -8.520241678580437
      ],
      [
        "▁deme",
        -10.007580637473058
      ],
      [
        "▁ses",
        -8.142506613852813
      ],
      [
        "▁yer",
        -6.709275396757743
      ],
      [
        "▁acıyor",
        -8.480887171902683
      ],
      [
        "▁uzerinde",
        -7.335585220165018
      ],
      [
        "▁televizyon",
        -8.405008413889021
      ],
      [
        "y",
        -9.699613634584775
      ],
      [
        "▁sehr",
        -9.580824132283274
      ],
      [
        "m",
        -7.317767413586324
      ],
      [
        "yacagını",
        -9.870692076268401
      ],
      [
        "▁bak",
        -6.688141638355412
      ],
      [
        "▁haberi",
        -9.143730186962621
      ],
      [
        "▁spekulasyon",
        -9.681777540452494
      ],
      [
        "▁ozellikleri",
        -9.80067817527313
      ],
      [
        "u",
        -5.77991641711818
      ],
      [
        "▁yil",
        -9.88423741397589
      ],
      [
        "▁yag",
        -8.75080633261224
      ],
      [
        "▁d",
        -6.354337849338901
      ],
      [
        "▁adl",
        -8.700475544561737
      ],
      [
        "▁7'de",
        -9.285329885399353
      ],
      [
        "▁cagrı",
        -9.077966098513626
      ],
      [
        "misti",
        -6.886512725471708
      ],
      [
        "▁gunler",
        -8.860031255200315
      ],
      [
        "▁inc.",
        -6.717419652120548
      ],
      [
        "▁esim",
        -8.849214992701357
      ],
      [
        "▁restoran",
        -8.9427192758341
      ],
      [
        "in",
        -7.8985262541354775
      ],
      [
        "ligi",
        -7.546336745031981
      ],
      [
        "inda",
        -7.030220148536347
      ],
      [
        "sız",
        -5.222971193390283
      ],
      [
        "▁sesi",
        -8.054006287479474
      ],
      [
        "▁kıymetleri",
        -9.704965609927637
      ],
      [
        "▁serin",
        -9.797813121520026
      ],
      [
        "▁abd",
        -9.018203724862193
      ],
      [
        "dır",
        -6.2567400438746335
      ],
      [
        "er",
        -11.017488162037896
      ],
      [
        "▁ar",
        -8.627014902641005
      ],
      [
        "▁'",
        -10.790149558202552
      ],
      [
        "bre",
        -9.904917901675432
      ],
      [
        "▁salt",
        -6.502997576983729
      ],
      [
        "▁editor",
        -9.787732823854942
      ],
      [
        "▁%",
        -8.96805669590211
      ],
      [
        "▁har",
        -8.954336312690904
      ],
      [
        "▁pul",
        -9.900343246757284
      ],
      [
        "▁kokusu",
        -8.979083327015458
      ],
      [
        "▁dayan",
        -8.44335773969743
      ],
      [
        "▁kisi",
        -6.912513065481617
      ],
      [
        "▁alı",
        -7.238867173783138
      ],
      [
        "o",
        -3.5207675806184575
      ],
      [
        "▁1/2'",
        -10.176306901264166
      ],
      [
        "▁kagıdı",
        -9.25891184888112
      ],
      [
        "▁birinde",
        -6.609824599980316
      ],
      [
        "▁ozel",
        -6.39656241484808
      ],
      [
        "▁ver",
        -6.800698001091943
      ],
      [
        "▁gemi",
        -8.030048486366617
      ],
      [
        "▁kabin",
        -10.176528326130757
      ],
      [
        "ılır",
        -8.908554240632473
      ],
      [
        "▁dusuncelerini",
        -9.814156930692292
      ],
      [
        "▁bunları",
        -4.754133212558791
      ],
      [
        "▁dua",
        -9.253947174923486
      ],
      [
        "▁demek",
        -8.88843134617336
      ],
      [
        "▁teması",
        -10.129050509233291
      ],
      [
        "▁ugur",
        -8.287684213582361
      ],
      [
        "▁vardi",
        -6.25965259201028
      ],
      [
        "▁edil",
        -8.317273230341463
      ],
      [
        "▁benze",
        -8.633245905412128
      ],
      [
        "▁koca",
        -9.150608636084922
      ],
      [
        "▁55",
        -7.460530306526801
      ],
      [
        "ri",
        -7.982229087466196
      ],
      [
        "▁kosede",
        -9.631745221284612
      ],
      [
        "▁dedikodu",
        -9.68177754047301
      ],
      [
        "▁yontem",
        -9.834877093376111
      ],
      [
        "▁ad",
        -8.571081100636135
      ],
      [
        "▁197",
        -7.0704416662705025
      ],
      [
        "ince",
        -6.116245953076076
      ],
      [
        "▁yetki",
        -9.60838829825206
      ],
      [
        "acagı",
        -8.480767934503367
      ],
      [
        "▁biz",
        -8.575322793666926
      ],
      [
        "▁atlanta'",
        -5.6316524177406855
      ],
      [
        "▁durus",
        -10.00284843700552
      ],
      [
        "inde",
        -7.056932978677051
      ],
      [
        "▁temizligi",
        -7.252699985157385
      ],
      [
        "▁miami'",
        -6.944090027143235
      ],
      [
        "▁dilin",
        -10.072112158006734
      ],
      [
        "▁aray",
        -8.62889675731824
      ],
      [
        "▁isini",
        -8.842625661587274
      ],
      [
        "▁ben",
        -7.920580179960945
      ],
      [
        "▁dar",
        -7.483731200604239
      ],
      [
        "▁the",
        -8.031754556602847
      ],
      [
        "▁kentin",
        -9.304529142227553
      ],
      [
        "▁hazırlanı",
        -8.60948257515803
      ],
      [
        "▁orada",
        -8.536837084496895
      ],
      [
        "daki",
        -5.614571492439549
      ],
      [
        "▁kıs",
        -7.698404602811573
      ],
      [
        "▁ima",
        -9.308728897513156
      ],
      [
        "▁ucusun",
        -8.963200431225864
      ],
      [
        "▁dususu",
        -9.743798403295195
      ],
      [
        "▁ucusların",
        -8.601780166162772
      ],
      [
        "▁kaygı",
        -9.318652801607318
      ],
      [
        "▁toplumun",
        -9.637415297441144
      ],
      [
        "▁havlular",
        -10.08571072354338
      ],
      [
        "▁hassas",
        -8.493380798764369
      ],
      [
        "▁hikayesi",
        -9.87330354634194
      ],
      [
        "▁hasta",
        -7.423188722157379
      ],
      [
        "▁oranla",
        -9.746453180034308
      ],
      [
        "▁uzuntu",
        -9.463559474819293
      ],
      [
        "▁hangisi",
        -5.9097176655688965
      ],
      [
        "▁bey",
        -8.087506802207939
      ],
      [
        "▁siddet",
        -9.251475543341009
      ],
      [
        "▁dondu",
        -7.247701092557411
      ],
      [
        "▁go",
        -8.329695954102501
      ],
      [
        "▁devrim",
        -8.986069756895095
      ],
      [
        "▁gucu",
        -8.591958702945863
      ],
      [
        "▁yararlan",
        -8.845664920075984
      ],
      [
        "▁bileti",
        -8.698950887448296
      ],
      [
        "ten",
        -6.617646770750299
      ],
      [
        "▁aldı",
        -5.949564804131445
      ],
      [
        "▁ulkeleri",
        -9.724198312965058
      ],
      [
        "▁olmasını",
        -8.907086360566069
      ],
      [
        "dik",
        -7.9896299798351444
      ],
      [
        "▁sozlesme",
        -8.526786491629077
      ],
      [
        "diginde",
        -9.261154911964987
      ],
      [
        "un",
        -6.350571138778809
      ],
      [
        "itap",
        -9.32509797271633
      ],
      [
        "abilecegini",
        -9.94425318633828
      ],
      [
        "gi",
        -8.143008653259956
      ],
      [
        "▁a.b.d.",
        -7.883420276119656
      ],
      [
        "▁belirl",
        -7.873679259010714
      ],
      [
        "▁zincir",
        -9.268361164910903
      ],
      [
        "s",
        -6.235752450749961
      ],
      [
        "▁holding",
        -9.252272002155264
      ],
      [
        "yla",
        -8.527917099610294
      ],
      [
        "mıyordu",
        -8.97466979098834
      ],
      [
        "lu",
        -7.858190321473152
      ],
      [
        "▁yanı",
        -8.447338164011763
      ],
      [
        "mel",
        -6.735596847557808
      ],
      [
        "▁hanimla",
        -9.164582970068043
      ],
      [
        "▁yukselmesin",
        -10.116305003309563
      ],
      [
        "w",
        -9.781666471481843
      ],
      [
        "▁cagın",
        -9.774922217938858
      ],
      [
        "▁saat",
        -6.54765335998979
      ],
      [
        "bası",
        -9.126196892774178
      ],
      [
        "▁duzenlemeleri",
        -9.875361728102114
      ],
      [
        "▁cıkmak",
        -9.44121842133861
      ],
      [
        "dır",
        -5.60851668359774
      ],
      [
        "▁fiyatları",
        -7.528386336713049
      ],
      [
        "▁gitmeli",
        -8.726426822934037
      ],
      [
        "5",
        -8.718768001777528
      ],
      [
        "mis",
        -6.0058308422461515
      ],
      [
        "▁ihtiyacım",
        -7.457494821532661
      ],
      [
        "▁tabiat",
        -9.58937557646203
      ],
      [
        "▁olduk",
        -9.882832252437364
      ],
      [
        "▁soz",
        -8.640535821440196
      ],
      [
        "▁bo",
        -8.71876655247448
      ],
      [
        "▁se",
        -9.073968805023135
      ],
      [
        "in",
        -5.913242392268193
      ],
      [
        "▁ucmak",
        -7.751648479573512
      ],
      [
        "▁ayrılı",
        -7.428865757157178
      ],
      [
        "▁sutu",
        -9.50326897500671
      ],
      [
        "▁iktidar",
        -9.289908284499006
      ],
      [
        "▁hukmu",
        -9.681793010401815
      ],
      [
        "▁sıcak",
        -7.082854663663533
      ],
      [
        "▁ayrıntı",
        -9.982183285441105
      ],
      [
        "▁delta",
        -6.478642828940246
      ],
      [
        "▁ets",
        -7.220010846682943
      ],
      [
        "▁dururdu",
        -8.93958620158383
      ],
      [
        "▁kus",
        -8.304898194217728
      ],
      [
        "▁han",
        -8.220608278298114
      ],
      [
        "▁her",
        -6.384114116204266
      ],
      [
        "▁surer",
        -8.573187543690057
      ],
      [
        "ma",
        -7.228102024339413
      ],
      [
        "▁baslık",
        -9.658126645817337
      ],
      [
        "▁ihtiyat",
        -10.028055668493295
      ],
      [
        "▁alım-satım",
        -9.388060444304939
      ],
      [
        "▁23",
        -6.3598901647095225
      ],
      [
        "mizde",
        -8.95967072568418
      ],
      [
        "▁dayak",
        -9.732459305100274
      ],
      [
        "▁haberleri",
        -9.56244668862595
      ],
      [
        "▁icecekler",
        -8.728824381593366
      ],
      [
        "▁kaf",
        -10.15152951437429
      ],
      [
        "▁krizi",
        -9.39126167023608
      ],
      [
        "▁doları'nda",
        -9.207621709391148
      ],
      [
        "▁suleyman",
        -8.171091438037156
      ],
      [
        "bu",
        -5.9800526379311565
      ],
      [
        "▁edilebilir",
        -8.721184716247883
      ],
      [
        "▁superdi",
        -7.66835887429291
      ],
      [
        "▁bagı",
        -9.286723585521381
      ],
      [
        "▁turun",
        -9.444409889529535
      ],
      [
        "▁kızı",
        -8.362776734903555
      ],
      [
        "▁gorusuldu",
        -5.592085806786611
      ],
      [
        "▁gelis",
        -7.943382877162252
      ],
      [
        "▁ok",
        -9.19190345034056
      ],
      [
        "▁yuzunu",
        -8.712236517764657
      ],
      [
        "▁bitirdi",
        -8.78459095776465
      ],
      [
        "▁programını",
        -10.058215202521042
      ],
      [
        "▁sanat",
        -8.01771506420495
      ],
      [
        "▁zirve",
        -9.821882843123426
      ],
      [
        "▁zarar",
        -8.130252587908764
      ],
      [
        "▁",
        -6.206069250914623
      ],
      [
        "▁kılavuz",
        -9.839964678774438
      ],
      [
        ".1",
        -7.478510669554215
      ],
      [
        "s",
        -7.578120381583995
      ],
      [
        "▁olamaz",
        -8.248500242077554
      ],
      [
        "▁chicago",
        -7.784260712059638
      ],
      [
        "▁dibinde",
        -9.594409727035153
      ],
      [
        "▁vermeyi",
        -9.970445761275114
      ],
      [
        "▁yuk",
        -8.917091074180817
      ],
      [
        "▁kazan",
        -8.069428999623325
      ],
      [
        "ı",
        -6.495236803388376
      ],
      [
        "▁cebin",
        -9.953217698677236
      ],
      [
        "▁mac",
        -7.8342953396970145
      ],
      [
        "▁birbirleri",
        -7.979369573870796
      ],
      [
        "▁gelmez",
        -8.561449333581786
      ],
      [
        "▁kopya",
        -10.033001180903335
      ],
      [
        "kırı",
        -8.502980451637516
      ],
      [
        "▁acı",
        -8.944201768988744
      ],
      [
        "▁yapıyorlar",
        -8.922991742056936
      ],
      [
        "dıgım",
        -10.026873354081712
      ],
      [
        "klarını",
        -8.01160706971895
      ],
      [
        "▁artı",
        -8.581293221837413
      ],
      [
        "▁alan",
        -7.711723491862631
      ],
      [
        "▁gec",
        -6.50595673707562
      ],
      [
        "▁salon",
        -9.313286607515286
      ],
      [
        "daha",
        -8.298177487120773
      ],
      [
        "▁hatır",
        -9.452536079165021
      ],
      [
        "▁po",
        -9.093012455231381
      ],
      [
        "▁ayakta",
        -8.86628178073793
      ],
      [
        "▁mahalle",
        -8.53562653892827
      ],
      [
        "lu",
        -7.728927844254983
      ],
      [
        "▁bana",
        -9.134356025712819
      ],
      [
        ".",
        -5.61017237309726
      ],
      [
        "▁ceza",
        -8.513282690908323
      ],
      [
        "▁sag",
        -8.545254756250406
      ],
      [
        "ıcı",
        -9.706071748122376
      ],
      [
        "▁gecer",
        -7.921102608017377
      ],
      [
        "ler",
        -6.545964428951377
      ],
      [
        "▁olay",
        -8.532423512986664
      ],
      [
        "▁edep",
        -10.17635909151889
      ],
      [
        "▁cene",
        -9.396304266801243
      ],
      [
        "▁burokrat",
        -9.54522592249986
      ],
      [
        "▁kul",
        -8.594750268470179
      ],
      [
        "▁il",
        -3.41811777620672
      ],
      [
        "liginde",
        -9.314464770563182
      ],
      [
        "▁oturma",
        -9.006914855031079
      ],
      [
        "▁karanlık",
        -9.35542658815751
      ],
      [
        "▁yerlesti",
        -8.909326767480927
      ],
      [
        "▁mesajı",
        -10.074939671293993
      ],
      [
        "▁kenarları",
        -9.611203371578046
      ],
      [
        "▁bar",
        -8.432456186532402
      ],
      [
        "▁hane",
        -9.714586629406083
      ],
      [
        "ilmesi",
        -9.742608723853618
      ],
      [
        "▁soyle",
        -9.494150251336517
      ],
      [
        "▁hamam",
        -8.505261288109775
      ],
      [
        "▁ogretmenim",
        -10.074142777622002
      ],
      [
        "dur",
        -7.5373835156814595
      ],
      [
        "▁duyuyor",
        -8.35496780627116
      ],
      [
        "▁cevresinde",
        -9.688069087426609
      ],
      [
        "lar",
        -5.938162244444685
      ],
      [
        "▁havuz",
        -7.553635438764325
      ],
      [
        "▁kampanyası",
        -10.17249418211567
      ],
      [
        "▁4",
        -4.732260125815868
      ],
      [
        "▁ana",
        -6.921880696346016
      ],
      [
        "▁civarı",
        -8.953831149793983
      ],
      [
        "8'",
        -9.57672400455771
      ],
      [
        "▁usulca",
        -8.360477474113367
      ],
      [
        "▁kendisini",
        -5.346153125872469
      ],
      [
        "ler",
        -8.293736253779967
      ],
      [
        "▁yedi",
        -8.165945817509165
      ],
      [
        "▁beri",
        -7.337470521257895
      ],
      [
        "▁dir",
        -4.563511654215546
      ],
      [
        "▁gor",
        -8.305038711044588
      ],
      [
        "ge",
        -7.749838708792535
      ],
      [
        "▁mevcuttu",
        -8.719263994653152
      ],
      [
        "▁sabır",
        -9.89879069487806
      ],
      [
        "▁tacirler",
        -9.942660741102394
      ],
      [
        "▁bak",
        -9.230458550180934
      ],
      [
        "▁sebep",
        -8.64232238377388
      ],
      [
        "▁onayladı",
        -8.869533620624868
      ],
      [
        "▁gelen",
        -7.085954173273364
      ],
      [
        "▁endustri",
        -8.404622234089935
      ],
      [
        "▁sektoru",
        -9.234330448925931
      ],
      [
        "▁bilmiyor",
        -8.847560148342811
      ],
      [
        "▁lezzetleri",
        -8.841774605790807
      ],
      [
        "▁rejim",
        -10.169833781291858
      ],
      [
        "yil",
        -8.126759085737312
      ],
      [
        "▁roman",
        -8.767074616928863
      ],
      [
        "li",
        -6.839824818430305
      ],
      [
        "unuz",
        -6.768342496865392
      ],
      [
        "▁ortalık",
        -9.567333773651239
      ],
      [
        "▁deniz",
        -7.832670221880124
      ],
      [
        "▁kole",
        -9.686948852691545
      ],
      [
        "o",
        -6.336011923027603
      ],
      [
        "f",
        -6.873351135099574
      ],
      [
        "▁once",
        -4.914128521965577
      ],
      [
        "▁hangi",
        -5.368112293086949
      ],
      [
        "▁bozu",
        -8.196383960105303
      ],
      [
        "▁salonun",
        -9.676534641689232
      ],
      [
        "▁dısisleri",
        -9.731778896578733
      ],
      [
        "m",
        -4.809409968019235
      ],
      [
        "ti",
        -6.333955093263915
      ],
      [
        "▁ka",
        -8.106646594323895
      ],
      [
        "▁uyusturucu",
        -9.961288204397356
      ],
      [
        "▁yasar",
        -8.378151067862493
      ],
      [
        "▁kitapta",
        -9.857500563517922
      ],
      [
        "▁mezar",
        -9.954130805237664
      ],
      [
        "nin",
        -8.505245470600455
      ],
      [
        "erhal",
        -6.774381132419854
      ],
      [
        "us",
        -8.510881798620218
      ],
      [
        "▁tacoma'",
        -7.877695112670695
      ],
      [
        "er",
        -6.722505363095777
      ],
      [
        "▁tepede",
        -10.031571449762444
      ],
      [
        "▁adamlar",
        -9.753380050102518
      ],
      [
        "▁nispet",
        -8.108013528554135
      ],
      [
        "▁milyon",
        -7.95304805884153
      ],
      [
        "▁on",
        -6.089300112861576
      ],
      [
        "▁kulturu",
        -9.700435101399417
      ],
      [
        "▁curuk",
        -8.549299797388718
      ],
      [
        "ilmesi",
        -8.767337684604929
      ],
      [
        "▁hazır",
        -9.998833523814344
      ],
      [
        "▁tehdit",
        -9.252272004954593
      ],
      [
        "▁m",
        -8.968825549431878
      ],
      [
        "re",
        -4.844554200876263
      ],
      [
        "▁dah",
        -8.480184938324264
      ],
      [
        "ekli",
        -8.384168101461615
      ],
      [
        "p",
        -6.8247742603690735
      ],
      [
        "6",
        -4.861426244991477
      ],
      [
        "▁moda",
        -9.165336922524002
      ],
      [
        "▁sirket",
        -6.571667865376545
      ],
      [
        "▁yag",
        -8.69843710349425
      ],
      [
        "▁girdik",
        -8.950959130594612
      ],
      [
        "imli",
        -8.253498525915738
      ],
      [
        "▁satısların",
        -9.957275924469386
      ],
      [
        "ya",
        -7.487244857637893
      ],
      [
        "▁karsı",
        -6.153679112273401
      ],
      [
        "▁onunde",
        -7.891866653735921
      ],
      [
        "▁musun",
        -5.9490528284716895
      ],
      [
        "▁degisimi",
        -9.433211713207333
      ],
      [
        "▁hepimiz",
        -6.275153793410539
      ],
      [
        "▁philadelphia",
        -6.792612375923283
      ],
      [
        "▁yukseliyor",
        -8.9311493194657
      ],
      [
        "▁olasılıgı",
        -9.961307793446382
      ],
      [
        "▁evim",
        -10.121827745461408
      ],
      [
        "▁tarım",
        -10.1061880324005
      ],
      [
        "da",
        -5.043500650824109
      ],
      [
        "▁basarı",
        -8.748452981107661
      ],
      [
        "y",
        -6.016951674088136
      ],
      [
        "▁yetkili",
        -8.701522635090374
      ],
      [
        "celik",
        -8.70922937823941
      ],
      [
        "▁dusunuyordu",
        -8.621547354681578
      ],
      [
        "▁bahseder",
        -7.774507284704243
      ],
      [
        "▁lokma",
        -9.42509755114238
      ],
      [
        "▁taklit",
        -9.961299035953658
      ],
      [
        "▁azal",
        -8.816811300481247
      ],
      [
        "▁yan",
        -8.126224855646317
      ],
      [
        "▁koydu",
        -7.595980521404155
      ],
      [
        "▁harikayd",
        -7.727006982039751
      ],
      [
        "▁t",
        -8.63893619005369
      ],
      [
        "el",
        -8.691758636762444
      ],
      [
        "▁kullanmadi",
        -7.102732034173352
      ],
      [
        "gel",
        -7.946391005262725
      ],
      [
        "▁egilim",
        -9.771582995565357
      ],
      [
        "▁sa",
        -4.233276091639059
      ],
      [
        "▁market",
        -10.100646200163697
      ],
      [
        "▁net",
        -8.176922060696352
      ],
      [
        "▁ayna",
        -8.820826662821869
      ],
      [
        "▁sade",
        -4.929761959807005
      ],
      [
        "kli",
        -8.508299663600342
      ],
      [
        "▁senato",
        -9.423130627470195
      ],
      [
        "▁le",
        -7.96846560358397
      ],
      [
        "ha",
        -9.255242096426834
      ],
      [
        "▁bakanlar",
        -10.141679295149753
      ],
      [
        "▁gorunum",
        -9.992852023485893
      ],
      [
        "▁kolay",
        -10.16299732192143
      ],
      [
        "▁pantolon",
        -9.813441498087043
      ],
      [
        "▁gitti",
        -6.546713289249649
      ],
      [
        "▁pazar",
        -6.868070937762325
      ],
      [
        "▁temizlik",
        -7.570978775726861
      ],
      [
        "▁muzik",
        -8.78046548787884
      ],
      [
        "▁calısıyor",
        -7.241602594793623
      ],
      [
        "▁opsiyon",
        -9.846694923060934
      ],
      [
        "▁arkasında",
        -8.539778689059515
      ],
      [
        "▁bıcak",
        -9.104959107507359
      ],
      [
        "▁aksamı",
        -8.487971800465674
      ],
      [
        "▁irade",
        -9.68197835266456
      ],
      [
        "ıkca",
        -7.569260549122383
      ],
      [
        "▁dalgası",
        -9.945123973302213
      ],
      [
        "▁olgu",
        -9.42408195348473
      ],
      [
        "▁cıkacak",
        -8.37941486865802
      ],
      [
        "▁ornek",
        -8.663211245940706
      ],
      [
        "▁limon",
        -9.161309047258086
      ],
      [
        "▁sımsı",
        -8.60010759844772
      ],
      [
        "▁dedi",
        -5.072186116662261
      ],
      [
        "▁yıldız",
        -9.693571796687126
      ],
      [
        "n",
        -3.6280928810905237
      ],
      [
        "▁surede",
        -9.747935441946622
      ],
      [
        "▁borsası",
        -8.700895984341411
      ],
      [
        "alım",
        -6.712631715118891
      ],
      [
        "▁gelir",
        -7.236166032174328
      ],
      [
        "▁baslar",
        -8.104971779029714
      ],
      [
        "▁met",
        -9.286233455962261
      ],
      [
        "▁arkadası",
        -9.191533550312586
      ],
      [
        "▁piyasasında",
        -9.658861879222217
      ],
      [
        "▁bel",
        -9.111655634196747
      ],
      [
        "▁yukselis",
        -9.287647646000012
      ],
      [
        "ı",
        -7.27174067462808
      ],
      [
        "ktan",
        -8.160806335935046
      ],
      [
        "▁alan",
        -8.290527668735532
      ],
      [
        "mız",
        -7.713185983751263
      ],
      [
        "▁muduru",
        -8.588249333070213
      ],
      [
        "▁halin",
        -8.061212722566438
      ],
      [
        "▁adama",
        -9.750625148084284
      ],
      [
        "▁tane",
        -8.049627557567952
      ],
      [
        "▁evren",
        -9.80129714978284
      ],
      [
        "▁galibiyet",
        -10.099802299638778
      ],
      [
        "mesi",
        -8.895541088606443
      ],
      [
        "▁tesaduf",
        -9.73177754086856
      ],
      [
        "▁annemi",
        -9.303451698471392
      ],
      [
        "▁bil",
        -7.953877062617877
      ],
      [
        "▁6",
        -4.8583629380426645
      ],
      [
        "mayın",
        -8.60470207058859
      ],
      [
        "▁ant",
        -9.739259255085047
      ],
      [
        "▁yi",
        -6.724826691407347
      ],
      [
        "▁lezzet",
        -7.531795148909234
      ],
      [
        "▁ciro",
        -9.6817879070544
      ],
      [
        "ar",
        -7.493436261772175
      ],
      [
        "▁hızla",
        -9.774294170434237
      ],
      [
        "▁cesitler",
        -9.773251208897124
      ],
      [
        "▁yerlerinde",
        -10.120228836944353
      ],
      [
        "▁eseri",
        -9.570614074160249
      ],
      [
        "▁mut",
        -7.576081653053345
      ],
      [
        "▁cocuk",
        -6.950026888484662
      ],
      [
        "▁geceleri",
        -9.493602722950293
      ],
      [
        "▁duydu",
        -7.8031167750417065
      ],
      [
        "▁zehir",
        -9.83996468362693
      ],
      [
        "larını",
        -8.192570554273463
      ],
      [
        "en",
        -8.1926423500545
      ],
      [
        "▁carsaflar",
        -9.910506716871797
      ],
      [
        "▁dallas'",
        -5.766594172843666
      ],
      [
        "mis",
        -9.429344900007656
      ],
      [
        "▁adin",
        -8.827650671289945
      ],
      [
        "▁son",
        -8.537041191139693
      ],
      [
        "▁soyledi",
        -5.0455612463554385
      ],
      [
        "▁tut",
        -8.009724034822467
      ],
      [
        "ustu",
        -9.709057569124546
      ],
      [
        "▁sokag",
        -9.01995402629882
      ],
      [
        "▁egitim",
        -8.230646439887273
      ],
      [
        "▁odul",
        -9.131832059876302
      ],
      [
        "▁basın",
        -7.010086775906843
      ],
      [
        "▁etmez",
        -8.402905412534649
      ],
      [
        "▁gecmiste",
        -9.596058229391648
      ],
      [
        "▁cevre",
        -8.155252259757777
      ],
      [
        "senin",
        -7.191137581322565
      ],
      [
        "▁teklifler",
        -9.48794553426316
      ],
      [
        "▁ustun",
        -8.03828813011044
      ],
      [
        "d",
        -7.6910191410283
      ],
      [
        "▁tası",
        -8.600636835584421
      ],
      [
        "▁beden",
        -9.52093715280075
      ],
      [
        "▁v",
        -8.713254355738648
      ],
      [
        "▁degis",
        -9.819863821392921
      ],
      [
        "▁pro",
        -10.041326624613635
      ],
      [
        "▁hanım",
        -7.660419018851054
      ],
      [
        "▁otelde",
        -8.362671288111375
      ],
      [
        "de",
        -3.7122609263462767
      ],
      [
        "on",
        -7.341084587992029
      ],
      [
        "ıldı",
        -8.26569037030887
      ],
      [
        "▁dus",
        -8.074622497849719
      ],
      [
        "kca",
        -6.111250826125482
      ],
      [
        "▁bilimin",
        -9.676684569030588
      ],
      [
        "den",
        -5.765485517110782
      ],
      [
        "de",
        -5.364170869481338
      ],
      [
        "▁ayagı",
        -9.485580065562894
      ],
      [
        "▁pro",
        -8.367740582984169
      ],
      [
        "l",
        -6.098948794144246
      ],
      [
        "▁faiz",
        -7.569278245820745
      ],
      [
        "▁bulabilir",
        -8.61749493131679
      ],
      [
        "▁cereyan",
        -9.961308490700125
      ],
      [
        "ice",
        -8.482527239851917
      ],
      [
        "▁biber",
        -9.503559097418835
      ],
      [
        "▁uste",
        -9.167391036297659
      ],
      [
        "llah",
        -9.793134730327711
      ],
      [
        "▁topla",
        -9.923559338187342
      ],
      [
        "▁neler",
        -6.671905713767434
      ],
      [
        "▁hemen",
        -5.2483253520340405
      ],
      [
        "▁cbs",
        -8.11443270675226
      ],
      [
        "i'ni",
        -7.812141059096041
      ],
      [
        "▁ortamı",
        -10.0235698122208
      ],
      [
        "o",
        -4.578117168882934
      ],
      [
        "▁sahi",
        -9.408194958898125
      ],
      [
        "▁giderler",
        -10.164726276627068
      ],
      [
        "▁tel",
        -8.409827562471282
      ],
      [
        "se",
        -8.083804748240649
      ],
      [
        "▁guzel",
        -4.6932365533476865
      ],
      [
        "▁kum",
        -8.709698375969285
      ],
      [
        "▁g",
        -7.539574150770843
      ],
      [
        "▁gece",
        -5.900191116805786
      ],
      [
        "ka",
        -4.814930333216153
      ],
      [
        "▁dolay",
        -4.747145240580062
      ],
      [
        "▁avlu",
        -9.733037426563111
      ],
      [
        "▁kosk",
        -9.600907849180622
      ],
      [
        "▁kulagım",
        -10.084032812475186
      ],
      [
        "▁pazarda",
        -10.145651376847042
      ],
      [
        "▁dordu",
        -6.775844926385021
      ],
      [
        "▁phoenix'",
        -7.466919520995885
      ],
      [
        "▁maas",
        -9.453355788049533
      ],
      [
        "▁arta",
        -7.919814251811303
      ],
      [
        "▁tarihinde",
        -8.806592547542401
      ],
      [
        "▁koru",
        -8.925317226452268
      ],
      [
        "▁pır",
        -9.927927321115074
      ],
      [
        "▁yirmi",
        -5.481367957249344
      ],
      [
        "▁hayal",
        -8.192332321064576
      ],
      [
        "▁abd'de",
        -7.61346576758946
      ],
      [
        "▁gece",
        -6.8423262270207905
      ],
      [
        "gu",
        -8.747600390828554
      ],
      [
        "▁kurallar",
        -9.569816938132561
      ],
      [
        "▁etegi",
        -9.963472663086433
      ],
      [
        "i",
        -4.732976630052781
      ],
      [
        "▁yapıyor",
        -6.9439479928904575
      ],
      [
        "ı",
        -4.804327802810323
      ],
      [
        "▁ingilizce",
        -8.342281573157743
      ],
      [
        "▁odalari",
        -8.891308180108481
      ],
      [
        "az",
        -8.895652220484271
      ],
      [
        "▁elektrik",
        -8.535626293936236
      ],
      [
        "▁yatırımları",
        -10.102330154374162
      ],
      [
        "um",
        -7.966549887239921
      ],
      [
        "▁programı",
        -8.691569360988119
      ],
      [
        "▁turkiye",
        -6.349258393848831
      ],
      [
        "lıkta",
        -8.783287026036604
      ],
      [
        "▁dinledi",
        -8.832263879187543
      ],
      [
        "▁dudakları",
        -9.276699200982673
      ],
      [
        "or",
        -8.349775983074409
      ],
      [
        "▁iliski",
        -8.498192686010002
      ],
      [
        "▁hakan",
        -8.114789020989463
      ],
      [
        "kta",
        -9.598096229478395
      ],
      [
        "▁cocuklarını",
        -9.87857394031911
      ],
      [
        "▁tren",
        -8.583290359950368
      ],
      [
        "▁dunya",
        -7.414707195677696
      ],
      [
        "▁kimse",
        -7.546123394008336
      ],
      [
        "▁yuzum",
        -9.389348011833787
      ],
      [
        "asında",
        -8.166110055285735
      ],
      [
        "▁olması",
        -8.4525594019771
      ],
      [
        "ine",
        -6.049563716949283
      ],
      [
        "▁geceler",
        -10.020834042443354
      ],
      [
        "nla",
        -6.587253460802882
      ],
      [
        "▁mekan",
        -9.026338614908674
      ],
      [
        "▁harbi",
        -10.028996846705237
      ],
      [
        "▁hepsinde",
        -6.975710945347217
      ],
      [
        "▁karsiladi",
        -7.926659271039195
      ],
      [
        "▁ters",
        -7.966993903453957
      ],
      [
        "yi",
        -5.951509808141958
      ],
      [
        "mizi",
        -8.050809985730572
      ],
      [
        "▁abd",
        -5.865467032327615
      ],
      [
        "ında",
        -4.740979246502958
      ],
      [
        "▁kutu",
        -8.907957771236369
      ],
      [
        "▁38",
        -7.462788926884992
      ],
      [
        "sem",
        -7.580612882548985
      ],
      [
        "▁bulunma",
        -9.720920436738968
      ],
      [
        "sa",
        -6.264005283029503
      ],
      [
        "▁9",
        -5.778083511879295
      ],
      [
        "▁pe",
        -9.40898917583845
      ],
      [
        "ıldıgını",
        -9.922435339828112
      ],
      [
        "▁alına",
        -8.18756117274245
      ],
      [
        "▁insan",
        -6.772208448614279
      ],
      [
        "▁malzemeleri",
        -9.632691586173252
      ],
      [
        "▁tut",
        -9.264779273854861
      ],
      [
        "▁yemeklerde",
        -8.744281498275445
      ],
      [
        "▁agustos",
        -7.762595169095416
      ],
      [
        "▁arabası",
        -10.081171128103982
      ],
      [
        "▁cizgi",
        -8.599697044837516
      ],
      [
        "▁tar",
        -9.806096754695465
      ],
      [
        "▁kurum",
        -9.164335285633994
      ],
      [
        "▁veremem",
        -8.922545305763009
      ],
      [
        "▁cd",
        -10.03094319182007
      ],
      [
        "▁telefonu",
        -9.533436158810954
      ],
      [
        "▁kolu",
        -9.596741562970337
      ],
      [
        "kun",
        -6.943139555201732
      ],
      [
        "▁bayram",
        -8.68635930213188
      ],
      [
        "▁artı",
        -5.0609734598905
      ],
      [
        "▁cincinnati'de",
        -7.46347859479992
      ],
      [
        "▁eskid",
        -7.508059908398208
      ],
      [
        "▁bit",
        -8.758971168607314
      ],
      [
        "▁varmak",
        -9.868116984503121
      ],
      [
        "▁gorun",
        -8.354818606294868
      ],
      [
        "▁fatura",
        -8.945908498056825
      ],
      [
        "▁san",
        -8.326054371018685
      ],
      [
        "▁simdi",
        -4.839658505846722
      ],
      [
        "▁yazarın",
        -9.74051462064538
      ],
      [
        "▁takımın",
        -9.886587548122073
      ],
      [
        "▁kendinde",
        -7.5574632228605765
      ],
      [
        "▁ceyreginde",
        -9.634967486810996
      ],
      [
        "▁senedi",
        -7.575877352547784
      ],
      [
        "▁faaliyetleri",
        -9.631667217583457
      ],
      [
        "▁anı",
        -9.026921932813496
      ],
      [
        "▁ucaklar",
        -9.923714832988189
      ],
      [
        "▁pilot",
        -9.179428283106308
      ],
      [
        "m",
        -3.07230917458263
      ],
      [
        "▁cıkma",
        -8.981968204305435
      ],
      [
        "▁burun",
        -9.223407655628371
      ],
      [
        "▁mehmet",
        -6.7206985485298185
      ],
      [
        "▁60",
        -6.569104616035265
      ],
      [
        "liler",
        -9.2559040580401
      ],
      [
        "oglu",
        -7.150144633485656
      ],
      [
        "▁198",
        -5.050423814575034
      ],
      [
        "▁for",
        -9.633703182114914
      ],
      [
        "▁eksikti",
        -8.925219193045695
      ],
      [
        "▁takip",
        -8.378171620062815
      ],
      [
        "▁asagı",
        -8.89139255330801
      ],
      [
        "▁duruyordu",
        -8.2096100708942
      ],
      [
        "▁ekonomi",
        -7.713590511713206
      ],
      [
        "▁0.2",
        -7.302963686414264
      ],
      [
        "▁200",
        -6.130752197523192
      ],
      [
        "▁louis'",
        -7.684873794446814
      ],
      [
        "▁kapılar",
        -10.076104653236136
      ],
      [
        "▁yıllarda",
        -8.618410199012494
      ],
      [
        "▁kalite",
        -7.559607377155032
      ],
      [
        "▁baslangıcı",
        -9.83426280203992
      ],
      [
        "▁basvuru",
        -9.992200443220051
      ],
      [
        "▁gomlegi",
        -9.961788069568284
      ],
      [
        "▁tv",
        -9.963149910357057
      ],
      [
        "▁dizi",
        -8.438656295283696
      ],
      [
        "▁buray",
        -7.17894211671777
      ],
      [
        "▁gecir",
        -8.40944107470792
      ],
      [
        "ıydı",
        -8.25984488987745
      ],
      [
        "▁yuruyor",
        -8.931271884895946
      ],
      [
        "▁halkla",
        -9.921052869504098
      ],
      [
        "kul",
        -7.4453938067184895
      ],
      [
        "ının",
        -7.434663971060819
      ],
      [
        "▁mut",
        -9.641235584015035
      ],
      [
        "▁bura",
        -9.384434815636821
      ],
      [
        ")",
        -6.115128725042444
      ],
      [
        "la",
        -5.588970610126579
      ],
      [
        "▁bildiri",
        -10.151582657944525
      ],
      [
        "▁international",
        -7.381709683577083
      ],
      [
        "lerde",
        -7.883651144811565
      ],
      [
        "▁dersler",
        -9.861561624944828
      ],
      [
        "larınızı",
        -10.029224425698224
      ],
      [
        "▁yemeklerinde",
        -8.942323754339125
      ],
      [
        "▁ac",
        -7.39820185274849
      ],
      [
        "▁1",
        -8.253833276314007
      ],
      [
        "▁mali",
        -6.83117324371423
      ],
      [
        "▁geciriyor",
        -8.97826817279288
      ],
      [
        "▁is",
        -6.432227372024845
      ],
      [
        "▁tehlike",
        -8.616313472017437
      ],
      [
        "▁kom",
        -8.406286050718897
      ],
      [
        "▁bostan",
        -9.839977317846747
      ],
      [
        "▁ny",
        -7.758699029263623
      ],
      [
        "▁nerede",
        -6.062949956164146
      ],
      [
        "▁yuzey",
        -10.160486951901962
      ],
      [
        "▁bag",
        -8.348181691497707
      ],
      [
        "▁acıklanma",
        -7.831513768826225
      ],
      [
        "el",
        -6.427638421254004
      ],
      [
        "▁gorun",
        -7.339522011104732
      ],
      [
        "▁saman",
        -9.683002646630714
      ],
      [
        "▁ulasım",
        -8.107208203177096
      ],
      [
        "▁donus",
        -7.070469128436656
      ],
      [
        "▁casus",
        -10.17638660659415
      ],
      [
        "▁k",
        -6.177711871566743
      ],
      [
        "▁genclig",
        -10.002181696893619
      ],
      [
        "▁devre",
        -9.65794869431061
      ],
      [
        "muzun",
        -9.73296119390643
      ],
      [
        "lama",
        -7.964587865557944
      ],
      [
        "▁miydi",
        -5.8666742159891765
      ],
      [
        "▁ust",
        -8.814400935681396
      ],
      [
        "▁bufe",
        -9.161351533071874
      ],
      [
        "niz",
        -7.208870524936369
      ],
      [
        "dir",
        -6.65097430980568
      ],
      [
        "▁dergi",
        -8.763330812989416
      ],
      [
        "▁sorunun",
        -9.41945274457952
      ],
      [
        "▁kulak",
        -8.54936847653918
      ],
      [
        "sı",
        -8.25115808350297
      ],
      [
        "sine",
        -6.767223674923711
      ],
      [
        "▁hic",
        -9.107136274934724
      ],
      [
        "▁insanların",
        -8.113597309238177
      ],
      [
        "▁degiller",
        -6.357911091308022
      ],
      [
        "▁di",
        -7.868016944370776
      ],
      [
        "un",
        -5.755775350433605
      ],
      [
        "f",
        -8.77684154095741
      ],
      [
        "▁karakol",
        -10.02798614523226
      ],
      [
        "▁odalar",
        -7.885137097626414
      ],
      [
        "▁liste",
        -9.294978021087838
      ],
      [
        "▁ilkeleri",
        -9.787206208661994
      ],
      [
        "▁ucuyor",
        -7.218495273415914
      ],
      [
        "▁katıldı",
        -8.44698220616228
      ],
      [
        "▁hakk",
        -5.840372106910847
      ],
      [
        "▁kendini",
        -4.901080439319303
      ],
      [
        "▁geldigin",
        -9.180614258477506
      ],
      [
        "▁fiyat",
        -6.557092855673658
      ],
      [
        "▁taraf",
        -5.733464205858842
      ],
      [
        "▁genel",
        -6.384596635128069
      ],
      [
        "▁boyut",
        -9.737474989898924
      ],
      [
        "▁kı",
        -9.091885006746914
      ],
      [
        "▁konusmak",
        -10.14278396148935
      ],
      [
        "▁14",
        -6.171359778606929
      ],
      [
        "▁keskin",
        -7.6602917997901345
      ],
      [
        "▁kal",
        -8.926845014747215
      ],
      [
        "▁geliri",
        -8.887282647919083
      ],
      [
        "▁tesisin",
        -7.7225546497668
      ],
      [
        "▁animasyon",
        -7.489925033568396
      ],
      [
        "▁oneri",
        -9.567061559352664
      ],
      [
        "▁ben",
        -2.9871799491523117
      ],
      [
        "▁ceviri",
        -10.176306845283044
      ],
      [
        "▁futbol",
        -8.82542016646067
      ],
      [
        "▁ruyalar",
        -10.06126358052391
      ],
      [
        "▁yapıldı",
        -8.264724422830945
      ],
      [
        "▁numaraları",
        -10.10776106426873
      ],
      [
        "▁mevzuat",
        -9.505274579889681
      ],
      [
        "▁yapamaz",
        -8.98783807478146
      ],
      [
        "luk",
        -7.582033235432421
      ],
      [
        "▁analistlerin",
        -9.791144315709953
      ],
      [
        "▁kuzey",
        -8.404421094313163
      ],
      [
        "▁kapı",
        -7.110422021678579
      ],
      [
        "▁degis",
        -7.8792488915533365
      ],
      [
        "▁mudahale",
        -9.425097498358895
      ],
      [
        "▁gune",
        -9.6147789616426
      ],
      [
        "yor",
        -7.668326099669613
      ],
      [
        "▁onu",
        -9.880180652534495
      ],
      [
        "▁video",
        -9.898788742717059
      ],
      [
        "▁ez",
        -8.519130447258377
      ],
      [
        "▁tuvalet",
        -9.681777541057489
      ],
      [
        "▁telafi",
        -9.961289600938313
      ],
      [
        "▁camur",
        -9.638292889229072
      ],
      [
        "d",
        -4.831539974861214
      ],
      [
        "▁yeni",
        -4.887383215687459
      ],
      [
        "▁kendisinde",
        -6.859663833901616
      ],
      [
        "▁belirt",
        -8.163295218925729
      ],
      [
        "▁dolar",
        -6.019255257127832
      ],
      [
        "lerden",
        -7.151203912299482
      ],
      [
        "▁maliyetleri",
        -9.0921208033651
      ],
      [
        "▁alanda",
        -9.101716784342429
      ],
      [
        "▁baslay",
        -8.676663356897368
      ],
      [
        "▁mar",
        -8.575902006263789
      ],
      [
        ",",
        -6.9378721810349715
      ],
      [
        "oz",
        -8.69830439082018
      ],
      [
        "▁gidiyordu",
        -8.28223365653192
      ],
      [
        "▁hissesi",
        -8.84984704461063
      ],
      [
        "▁milwaukee'de",
        -6.77260024927041
      ],
      [
        "▁b",
        -7.179027993401228
      ],
      [
        "▁ucu",
        -5.928380103362834
      ],
      [
        "su",
        -6.81228904551094
      ],
      [
        "▁dol",
        -8.66387183973334
      ],
      [
        "▁a.s",
        -8.249390692846742
      ],
      [
        "▁arzu",
        -9.414567750936037
      ],
      [
        "▁gucluk",
        -9.963597627531078
      ],
      [
        "▁sorunların",
        -9.498826213888377
      ],
      [
        "▁eristi",
        -8.72085698549145
      ],
      [
        "▁kısmını",
        -9.192611694383602
      ],
      [
        "▁sarsıntı",
        -9.681782736625884
      ],
      [
        "▁yurdu",
        -10.12539240199691
      ],
      [
        "▁arbitraj",
        -10.027954870968621
      ],
      [
        "▁romancı",
        -9.905789648861171
      ],
      [
        "▁3/4'",
        -10.099383463133224
      ],
      [
        "una",
        -8.555042958872406
      ],
      [
        "▁piyasaları",
        -9.045352689517891
      ],
      [
        "▁mum",
        -7.091078631728467
      ],
      [
        "▁suphe",
        -9.077931162377652
      ],
      [
        "▁oldukları",
        -10.101720818336272
      ],
      [
        "▁sekilde",
        -6.801347640637176
      ],
      [
        "▁et",
        -8.321809319540604
      ],
      [
        "esik",
        -8.186275057097657
      ],
      [
        "▁yerin",
        -7.675975537647209
      ],
      [
        "▁vucudunu",
        -10.142720556696712
      ],
      [
        "▁cı",
        -8.479167951535707
      ],
      [
        "ca",
        -4.628700976346801
      ],
      [
        "▁sohret",
        -9.961288208199429
      ],
      [
        "▁saatte",
        -9.311704084058814
      ],
      [
        "▁genisleme",
        -10.099384793827735
      ],
      [
        "▁hale",
        -7.8724649417536625
      ],
      [
        "▁sesini",
        -9.305212463784807
      ],
      [
        "cısı",
        -9.475195413956325
      ],
      [
        "▁ilgililer",
        -8.11427311367772
      ],
      [
        "de",
        -5.846327743756247
      ],
      [
        "▁pacific",
        -7.77626416492925
      ],
      [
        "▁securit",
        -8.232484127806185
      ],
      [
        "▁anlasıl",
        -8.727093256442933
      ],
      [
        "▁jandarma",
        -10.099383479314968
      ],
      [
        "▁1.",
        -6.636358218991969
      ],
      [
        "▁birbirini",
        -6.541637450514566
      ],
      [
        "▁b",
        -8.717094528754004
      ],
      [
        "▁badem",
        -9.840024122824605
      ],
      [
        "▁takımı",
        -9.153568245556777
      ],
      [
        "▁doku",
        -9.543372928171543
      ],
      [
        "▁uyesi",
        -9.248191344963487
      ],
      [
        "▁davranma",
        -10.170939080814517
      ],
      [
        "▁yelken",
        -10.099426674421828
      ],
      [
        "altı",
        -6.945780996775762
      ],
      [
        "imi",
        -8.225362412535006
      ],
      [
        "▁airlines'i",
        -7.956888270785612
      ],
      [
        "▁sagladı",
        -8.529225154961305
      ],
      [
        "▁eleman",
        -9.609669947885482
      ],
      [
        "name",
        -9.697203665670155
      ],
      [
        "▁esas",
        -10.136280484055908
      ],
      [
        "im",
        -7.353695593111529
      ],
      [
        "▁bile",
        -4.691592204789792
      ],
      [
        "▁bank",
        -9.294192961321905
      ],
      [
        "▁tabanca",
        -9.841153446677636
      ],
      [
        "his",
        -9.766569249382885
      ],
      [
        "▁kadeh",
        -9.317873482261907
      ],
      [
        "ki",
        -7.374134809775946
      ],
      [
        "▁tv",
        -7.8500461917645055
      ],
      [
        "▁isbirligi",
        -9.388071001272964
      ],
      [
        "▁seri",
        -8.243574936551441
      ],
      [
        "▁odamiz",
        -8.44784783581612
      ],
      [
        "▁tavsiye",
        -6.565655032857441
      ],
      [
        "▁urunu",
        -9.519447931114566
      ],
      [
        "▁mil",
        -9.296771882692502
      ],
      [
        "▁istegi",
        -9.261591063499843
      ],
      [
        "se",
        -3.4538809016461762
      ],
      [
        "▁yolu",
        -8.024695299742799
      ],
      [
        "▁ay",
        -7.7948799226270475
      ],
      [
        "▁kalitesini",
        -9.776029237833557
      ],
      [
        "▁ustu",
        -8.119876797186569
      ],
      [
        "▁ismi",
        -9.07129098005496
      ],
      [
        "▁uzerinde",
        -7.192513175418255
      ],
      [
        "▁genc",
        -6.319296118895047
      ],
      [
        "▁muhte",
        -8.81688314963238
      ],
      [
        "ıs",
        -8.287789809995358
      ],
      [
        "▁posta",
        -8.912889990357911
      ],
      [
        "▁ceviz",
        -9.68181575151286
      ],
      [
        "▁la",
        -8.11054759812204
      ],
      [
        "▁dusmanı",
        -9.770830622780482
      ],
      [
        "▁ab",
        -9.048126099292816
      ],
      [
        "▁maliyet",
        -9.38997019893446
      ],
      [
        "▁kalanı",
        -9.78615477272875
      ],
      [
        "▁eserleri",
        -9.946325802924594
      ],
      [
        "metler",
        -7.668897127202383
      ],
      [
        "▁ardında",
        -8.789851841036207
      ],
      [
        "▁guney",
        -9.354587190467058
      ],
      [
        "▁gelmis",
        -7.242049449828504
      ],
      [
        "▁p",
        -7.24526505317657
      ],
      [
        "▁alternatif",
        -9.388060444371748
      ],
      [
        "▁sonra",
        -4.483960125414106
      ],
      [
        "▁gosterdi",
        -7.350102549385823
      ],
      [
        "▁pembe",
        -8.497597246521899
      ],
      [
        "▁city'",
        -6.532412024171423
      ],
      [
        "▁bilgisi",
        -9.644954691250906
      ],
      [
        "d",
        -2.461972935010672
      ],
      [
        "anları",
        -9.929758015086326
      ],
      [
        "▁varıyor",
        -8.34515357867274
      ],
      [
        "azım",
        -7.425511355648923
      ],
      [
        "mus",
        -6.6063377594969
      ],
      [
        "▁teksas",
        -8.360013284145381
      ],
      [
        "▁odemeleri",
        -10.014966629987367
      ],
      [
        "ebilir",
        -6.895147310968675
      ],
      [
        "▁boyutu",
        -10.17211018631584
      ],
      [
        "dıgında",
        -10.01061901644487
      ],
      [
        "▁tarihi",
        -8.471746516546451
      ],
      [
        "▁kurulu'n",
        -9.85921704199614
      ],
      [
        "▁muze",
        -9.655050222055591
      ],
      [
        "▁normaldi",
        -7.636592726183154
      ],
      [
        "'yi",
        -7.535730970715371
      ],
      [
        "▁bunu",
        -4.07572431406977
      ],
      [
        "▁yapmadi",
        -8.441848472917842
      ],
      [
        "▁kafa",
        -8.015099555449215
      ],
      [
        "▁hal",
        -8.577598749298755
      ],
      [
        "▁san",
        -8.98179938631655
      ],
      [
        "▁kopru",
        -8.800330840782284
      ],
      [
        "▁varlıklarını",
        -10.133292778970045
      ],
      [
        "▁carpı",
        -8.579111127910924
      ],
      [
        "▁kart",
        -9.189992150669402
      ],
      [
        "▁arada",
        -8.371342495727712
      ],
      [
        "▁sorusturma",
        -9.29333819015619
      ],
      [
        "▁olmuyor",
        -8.208307800258376
      ],
      [
        "▁konuda",
        -8.42416431949812
      ],
      [
        "g",
        -8.77592801283695
      ],
      [
        "▁omur",
        -9.388068113744115
      ],
      [
        "n",
        -2.4853475738798307
      ],
      [
        "▁kendi",
        -8.151899075753663
      ],
      [
        "gu",
        -7.939005614181522
      ],
      [
        "dı",
        -9.485167678842888
      ],
      [
        "▁muka",
        -9.900575175166235
      ],
      [
        "▁verdigi",
        -7.59691637411164
      ],
      [
        "▁ata",
        -9.070717300275035
      ],
      [
        "▁bekle",
        -8.897327571080766
      ],
      [
        "▁bilgisayarlar",
        -9.976515913921393
      ],
      [
        "▁musluman",
        -10.17630669875712
      ],
      [
        "b",
        -7.787526154383432
      ],
      [
        "tif",
        -7.161954237497133
      ],
      [
        "▁ogrenme",
        -8.963108022459721
      ],
      [
        "▁iyilik",
        -9.689192436051076
      ],
      [
        "ral",
        -7.850009928623745
      ],
      [
        "agdas",
        -8.551816640104498
      ],
      [
        "▁calıyor",
        -8.64180874580059
      ],
      [
        "▁acı",
        -8.12523406608582
      ],
      [
        "▁dur",
        -7.519389443172973
      ],
      [
        "yan",
        -8.239439808111698
      ],
      [
        "▁karın",
        -9.109624617500852
      ],
      [
        "▁cık",
        -8.093656468235832
      ],
      [
        "▁havuzu",
        -7.429266137924247
      ],
      [
        "r",
        -4.185130804161472
      ],
      [
        "▁do",
        -8.74462179382095
      ],
      [
        "lere",
        -6.718424578081387
      ],
      [
        "/2",
        -7.370058073350043
      ],
      [
        "▁recep",
        -8.028165502541958
      ],
      [
        "▁olus",
        -10.026280586485552
      ],
      [
        "er",
        -6.289941342378664
      ],
      [
        "▁fazlasını",
        -9.515903573722623
      ],
      [
        "▁o",
        -8.092435956467884
      ],
      [
        "▁merkez",
        -7.544822209243105
      ],
      [
        "▁sabahın",
        -9.582976070353574
      ],
      [
        "▁askı",
        -8.892757752597085
      ],
      [
        "▁ca",
        -8.240530858342229
      ],
      [
        "▁degistirdi",
        -8.77446383201015
      ],
      [
        "▁bırakı",
        -8.076229761590735
      ],
      [
        "▁er",
        -8.700371133238654
      ],
      [
        "▁dr",
        -9.64023491814267
      ],
      [
        "▁deyi",
        -8.076753344353833
      ],
      [
        "▁gurur",
        -9.703473493071634
      ],
      [
        "▁odalarin",
        -9.86179393245019
      ],
      [
        "▁ulus",
        -8.109087142109953
      ],
      [
        "ladı",
        -8.155108428851204
      ],
      [
        "pa",
        -9.362876472104805
      ],
      [
        "▁yogu",
        -7.734757678835395
      ],
      [
        "▁he",
        -6.338240779722565
      ],
      [
        "▁banka",
        -7.858617997390147
      ],
      [
        "▁2",
        -4.210742886992677
      ],
      [
        "▁t",
        -7.355080114010372
      ],
      [
        "▁kas",
        -8.258088785994438
      ],
      [
        "▁olacaktı",
        -7.593186088791428
      ],
      [
        "▁tabur",
        -9.681783751789169
      ],
      [
        "▁hem",
        -10.124775861415383
      ],
      [
        "▁mimar",
        -9.836782827391236
      ],
      [
        "rmak",
        -9.71265918099682
      ],
      [
        "▁8",
        -9.21782146353967
      ],
      [
        "▁tahmini",
        -9.347606850174202
      ],
      [
        "▁80",
        -7.328815330437189
      ],
      [
        "▁louis",
        -8.193652694080182
      ],
      [
        "▁cıkar",
        -6.98398357556363
      ],
      [
        "▁bakır",
        -9.681807290131578
      ],
      [
        "mis",
        -6.6617930363773965
      ],
      [
        "yara",
        -7.835166346450105
      ],
      [
        "▁yemekte",
        -9.95984557605474
      ],
      [
        "▁hadise",
        -9.588707398340878
      ],
      [
        "los",
        -6.830333516071331
      ],
      [
        "▁'",
        -9.555207706062431
      ],
      [
        "▁maal",
        -8.592757761456934
      ],
      [
        "lıyor",
        -8.619197819846699
      ],
      [
        "▁fikirleri",
        -9.93757780266876
      ],
      [
        "▁hafif",
        -7.869072630271415
      ],
      [
        "▁sarkı",
        -8.540004406655616
      ],
      [
        "▁olmayı",
        -9.693828032467351
      ],
      [
        "ar",
        -7.789969017039487
      ],
      [
        "▁milyon",
        -3.278490722863072
      ],
      [
        "▁sıfır",
        -10.176306528439833
      ],
      [
        "▁57",
        -6.850345209755751
      ],
      [
        "▁denizin",
        -9.258586713631221
      ],
      [
        "mesi",
        -8.138228096993776
      ],
      [
        "▁tazminat",
        -9.463559023593156
      ],
      [
        "▁ugra",
        -9.811718813073327
      ],
      [
        "de",
        -9.767450165438444
      ],
      [
        "▁rezervasyonu",
        -8.18447371030464
      ],
      [
        "e",
        -3.9469061176939926
      ],
      [
        "▁gelecek",
        -7.984943240332869
      ],
      [
        "▁ic",
        -8.37415200606085
      ],
      [
        "▁teror",
        -9.638821719350156
      ],
      [
        "▁haziran",
        -7.47108916219549
      ],
      [
        "▁sehrin",
        -8.706545768462188
      ],
      [
        "▁mis",
        -5.918581206871204
      ],
      [
        "▁oysa",
        -7.627516959748585
      ],
      [
        "▁istiklal",
        -10.176309908739809
      ],
      [
        "▁sık",
        -6.294492815396526
      ],
      [
        "▁dun",
        -8.01255692530411
      ],
      [
        "▁calismasin",
        -9.972070510621354
      ],
      [
        "me",
        -6.988268616501213
      ],
      [
        "▁arası",
        -8.719200024991633
      ],
      [
        "▁pop",
        -8.322720459890677
      ],
      [
        "▁pa",
        -8.229785100754121
      ],
      [
        "dir",
        -9.355790999670962
      ],
      [
        "ul",
        -8.362786706144309
      ],
      [
        "▁guc",
        -7.810627353668535
      ],
      [
        "tur",
        -9.316611696601866
      ],
      [
        "▁cicegi",
        -9.961288660300598
      ],
      [
        "▁yabancı",
        -9.144305549961988
      ],
      [
        "▁evvel",
        -7.64205734534819
      ],
      [
        "▁gereken",
        -8.271974686107184
      ],
      [
        "▁kıyafet",
        -9.252272005916486
      ],
      [
        "onu",
        -7.620609519768246
      ],
      [
        "▁ekonomisi",
        -9.99149768418922
      ],
      [
        "▁sterlin",
        -9.898788363685002
      ],
      [
        "meger",
        -11.466125186009307
      ],
      [
        "▁getiriyor",
        -8.394380446292567
      ],
      [
        "▁isabet",
        -10.02795585041369
      ],
      [
        "▁kalkıyor",
        -7.534003415349989
      ],
      [
        "▁onur",
        -9.645832059158476
      ],
      [
        "▁eder",
        -6.596644283048192
      ],
      [
        "▁koca",
        -6.809408070987436
      ],
      [
        "▁cogu",
        -6.224369063045475
      ],
      [
        "▁ogrenciler",
        -9.338435280638546
      ],
      [
        "▁mark",
        -9.681532921181622
      ],
      [
        "▁girmis",
        -8.899909960239881
      ],
      [
        "▁huner",
        -10.176409522523873
      ],
      [
        "elinde",
        -8.311375403575358
      ],
      [
        "▁sekreter",
        -9.682296660326234
      ],
      [
        "▁sinir",
        -9.027438212968924
      ],
      [
        "▁otuz",
        -5.90962280616334
      ],
      [
        "▁chp",
        -10.027959879663948
      ],
      [
        "▁kir",
        -10.08454860433699
      ],
      [
        "▁yaktı",
        -8.727458179960532
      ],
      [
        "▁kule",
        -9.764468063566792
      ],
      [
        "he",
        -9.640744780901306
      ],
      [
        "r",
        -7.411357469477656
      ],
      [
        "▁karsıt",
        -9.656700389044715
      ],
      [
        "▁yılında",
        -7.827853738286696
      ],
      [
        "▁alıs",
        -9.84408672991921
      ],
      [
        "r",
        -2.8894423049085054
      ],
      [
        "▁kadının",
        -8.890467343514041
      ],
      [
        "sizligi",
        -9.530657145917518
      ],
      [
        "▁musteriler",
        -8.983354635122309
      ],
      [
        "▁gorusme",
        -8.439597214963388
      ],
      [
        "▁keyif",
        -8.646195907887032
      ],
      [
        "▁gencler",
        -9.055635603557574
      ],
      [
        "ız",
        -6.912663209463112
      ],
      [
        "▁boz",
        -8.993643064736178
      ],
      [
        "▁pence",
        -9.784025858259682
      ],
      [
        "▁$'",
        -8.253779457063484
      ],
      [
        "abe",
        -8.567426442434614
      ],
      [
        "▁tam",
        -6.157110276087403
      ],
      [
        "▁kat",
        -8.447485081271845
      ],
      [
        "▁seyler",
        -7.533892322096259
      ],
      [
        "▁kırıklıgı",
        -9.354205223707579
      ],
      [
        "▁karsiligi",
        -8.182631850259286
      ],
      [
        "▁yuz",
        -5.128319349560085
      ],
      [
        "▁korkusu",
        -9.501033329530696
      ],
      [
        "▁gozle",
        -9.758184097762403
      ],
      [
        "▁tamam",
        -6.411602014418075
      ],
      [
        "▁h",
        -7.908592599068422
      ],
      [
        "▁donuyor",
        -7.859736831894503
      ],
      [
        "▁tasıdı",
        -8.789744675088894
      ],
      [
        "▁texas",
        -7.972934776017524
      ],
      [
        "▁tı",
        -3.8255906107362634
      ],
      [
        "siz",
        -7.9918944637072
      ],
      [
        "▁seviyesinde",
        -8.72094694578546
      ],
      [
        "rate",
        -7.759016430197842
      ],
      [
        "▁aralık",
        -8.624708951799668
      ],
      [
        "▁kir",
        -8.301632173148072
      ],
      [
        "ı'nda",
        -9.982245808995913
      ],
      [
        "▁erkegi",
        -9.692414491405758
      ],
      [
        "ası",
        -8.872465173854511
      ],
      [
        "▁yuksel",
        -6.724838392089302
      ],
      [
        "▁avustralya",
        -8.21737928119759
      ],
      [
        "[UNK]",
        0.0
      ],
      [
        "▁vere",
        -8.764434579335369
      ],
      [
        "▁ulas",
        -8.378419935276916
      ],
      [
        "▁radyo",
        -8.710439208720972
      ],
      [
        "co",
        -4.969231820816542
      ],
      [
        "▁zemin",
        -9.503584882749177
      ],
      [
        "▁bayragı",
        -10.029736935692771
      ],
      [
        "k",
        -3.6593738698329767
      ],
      [
        "▁finans",
        -8.703959539085703
      ],
      [
        "▁olmaya",
        -8.999355224745273
      ],
      [
        "▁bakıyordu",
        -8.053434577520717
      ],
      [
        "▁hizmetci",
        -9.759617730034613
      ],
      [
        "▁ara",
        -7.730457787627569
      ],
      [
        "▁inan",
        -10.009015801910461
      ],
      [
        "▁sinema",
        -8.909794434433106
      ],
      [
        "tıgını",
        -9.655417311116329
      ],
      [
        "▁bulundugu",
        -8.199107879652507
      ],
      [
        "kleri",
        -8.632289154070612
      ],
      [
        "▁koy",
        -8.077235508580674
      ],
      [
        "▁boston",
        -5.725254465815135
      ],
      [
        "'un",
        -5.705129799005704
      ],
      [
        "▁ediyor",
        -5.54412539349534
      ],
      [
        "▁saatleri",
        -9.435544304845438
      ],
      [
        "masını",
        -7.7201996773418715
      ],
      [
        "imiz",
        -7.864450820875663
      ],
      [
        "▁ay",
        -8.332692143939353
      ],
      [
        "▁belgeler",
        -10.07936160032517
      ],
      [
        "▁ettigini",
        -8.671632145761535
      ],
      [
        "ya",
        -7.730897184349787
      ],
      [
        "gıy",
        -8.2890619212006
      ],
      [
        "asa",
        -9.345251328416396
      ],
      [
        "cisi",
        -8.936210285596117
      ],
      [
        "▁degisti",
        -8.572063572961623
      ],
      [
        "▁zararı",
        -10.118066771770673
      ],
      [
        "▁cesitliligi",
        -9.254015107313347
      ],
      [
        "▁h",
        -5.985551101189426
      ],
      [
        "▁demekti",
        -8.065332888771511
      ],
      [
        "▁ah",
        -9.47751786686565
      ],
      [
        "▁cevirme",
        -9.961288266096965
      ],
      [
        "ık",
        -7.114014088154494
      ],
      [
        "bir",
        -6.535641181344047
      ],
      [
        "▁siyah",
        -10.028027696354489
      ],
      [
        "▁su",
        -8.517285383293167
      ],
      [
        "ask",
        -5.901277785160477
      ],
      [
        "▁kısmı",
        -8.701347233695433
      ],
      [
        "▁payı",
        -9.076288429974616
      ],
      [
        "▁tele",
        -7.449750743010933
      ],
      [
        "▁siyasi",
        -7.447874088442382
      ],
      [
        "▁gold",
        -7.915441987690988
      ],
      [
        "▁boslugu",
        -9.784624660640539
      ],
      [
        "to",
        -8.513493351183307
      ],
      [
        "▁kapanıs",
        -9.751968950195126
      ],
      [
        "▁kuru",
        -8.723558314835572
      ],
      [
        "▁gozu",
        -8.272830386517915
      ],
      [
        "▁calısma",
        -8.10203209878561
      ],
      [
        "▁sakal",
        -9.720225591644784
      ],
      [
        "▁kuralları",
        -9.667692920001155
      ],
      [
        "▁yeter",
        -9.396350735354401
      ],
      [
        "ici",
        -9.190071964540753
      ],
      [
        "▁dolardı",
        -8.494333369675527
      ],
      [
        "▁hamil",
        -10.100688252047803
      ],
      [
        "▁urunleri",
        -8.491121160725452
      ],
      [
        "▁gecim",
        -10.027970653918253
      ],
      [
        "▁davetiye",
        -10.1764769020035
      ],
      [
        "▁vazife",
        -10.007533158093612
      ],
      [
        "l",
        -5.464349539545049
      ],
      [
        "▁geli",
        -8.72934334009401
      ],
      [
        "▁bulunuyordu",
        -8.795599811602347
      ],
      [
        "erken",
        -9.828592015308542
      ],
      [
        "mekte",
        -8.161150289230351
      ],
      [
        "▁do",
        -4.997386800813171
      ],
      [
        "▁sat",
        -9.282994712297379
      ],
      [
        "errill",
        -7.5547023893008
      ],
      [
        "▁kedi",
        -8.78033624729348
      ],
      [
        "▁oy",
        -7.883383855276201
      ],
      [
        "mistir",
        -7.393870760329985
      ],
      [
        "tıg",
        -9.390766392205336
      ],
      [
        "▁bi",
        -8.725655930571454
      ],
      [
        "▁o",
        -7.858857258088566
      ],
      [
        "gini",
        -7.876620083995508
      ],
      [
        "sal",
        -6.949778621849322
      ],
      [
        "▁12",
        -5.275039660619872
      ],
      [
        "▁gayret",
        -9.634161191864008
      ],
      [
        "tu",
        -8.32122468562093
      ],
      [
        "▁yasa",
        -8.194870699168721
      ],
      [
        "▁test",
        -8.504978687228597
      ],
      [
        "▁ıskarta",
        -9.425098026597857
      ],
      [
        ":",
        -5.1950716830752155
      ],
      [
        "mıs",
        -5.907845273333249
      ],
      [
        "▁geyik",
        -9.428120454168996
      ],
      [
        "ecektir",
        -8.41134730618427
      ],
      [
        "▁kendi",
        -3.6923164518459464
      ],
      [
        "▁dostu",
        -8.68618618731025
      ],
      [
        "▁edebiyatı",
        -10.085500324015898
      ],
      [
        "▁ismini",
        -9.421588595523776
      ],
      [
        "er",
        -6.344730511987982
      ],
      [
        "▁diger",
        -5.562375330073026
      ],
      [
        "▁gene",
        -7.985532383849426
      ],
      [
        "▁dısında",
        -8.236189428305284
      ],
      [
        "▁duser",
        -8.161663015630488
      ],
      [
        "▁kosuyor",
        -8.93886202837432
      ],
      [
        "▁anlam",
        -7.970774144990175
      ],
      [
        "gına",
        -8.805672343527606
      ],
      [
        "▁uzakt",
        -8.080965866555633
      ],
      [
        "▁fark",
        -8.168985069147405
      ],
      [
        "▁newark",
        -8.322903132594115
      ],
      [
        "▁",
        -3.061094390239502
      ],
      [
        "▁tesis",
        -6.491561047697874
      ],
      [
        "▁kad",
        -8.626457259795085
      ],
      [
        "▁ilk",
        -9.492502225707053
      ],
      [
        "▁yanında",
        -8.105873293626296
      ],
      [
        "▁temsilcisi",
        -10.026857298643908
      ],
      [
        "▁ciftlik",
        -9.323422806191317
      ],
      [
        "▁krem",
        -9.962307582095193
      ],
      [
        "mde",
        -8.409015759923683
      ],
      [
        "▁boyun",
        -9.02683500592994
      ],
      [
        "▁belge",
        -9.617695125516114
      ],
      [
        "▁burada",
        -8.52069999775598
      ],
      [
        "▁yavaslama",
        -9.90427355227271
      ],
      [
        "ecek",
        -7.550345091321895
      ],
      [
        "unda",
        -7.883768488942473
      ],
      [
        "▁anladı",
        -7.889241620264004
      ],
      [
        "▁beri",
        -9.292385788059743
      ],
      [
        "▁tarafında",
        -7.2894598664073325
      ],
      [
        "▁ust",
        -6.960954297026537
      ],
      [
        "▁emeklilik",
        -9.078657187022962
      ],
      [
        "▁arkasında",
        -8.676772776857902
      ],
      [
        "▁aklın",
        -8.968615808990311
      ],
      [
        "▁oteki",
        -8.101188908250926
      ],
      [
        "!",
        -5.67393291373121
      ],
      [
        "▁kararın",
        -10.020394302321462
      ],
      [
        "▁dur",
        -9.21507457686025
      ],
      [
        "▁karı",
        -8.382959139033732
      ],
      [
        "▁ki",
        -9.163882346102437
      ],
      [
        "▁kal",
        -7.282630546391927
      ],
      [
        "▁edilme",
        -10.116222025379756
      ],
      [
        "▁acele",
        -8.404598797197146
      ],
      [
        "▁elestiri",
        -9.361792668885556
      ],
      [
        "▁car",
        -8.66649618217978
      ],
      [
        "▁genel",
        -8.502154757444966
      ],
      [
        "b",
        -8.065854960638958
      ],
      [
        "▁ister",
        -7.5148055003204455
      ],
      [
        "▁196",
        -7.2077126022460485
      ],
      [
        "▁kalkıs",
        -9.425118005240805
      ],
      [
        "▁sular",
        -9.09895035802344
      ],
      [
        "ji",
        -9.750545811594737
      ],
      [
        "▁olmak",
        -7.390130413470924
      ],
      [
        "▁oda",
        -6.321582926818172
      ],
      [
        "▁kacırdı",
        -8.660523831971638
      ],
      [
        "▁siddetl",
        -8.007686364282007
      ],
      [
        "▁yun",
        -9.550710557355181
      ],
      [
        "▁buyudu",
        -8.649143620517247
      ],
      [
        "▁babamı",
        -9.238847057613217
      ],
      [
        "▁hi",
        -4.718511553182138
      ],
      [
        "▁kayıt",
        -9.127728161936028
      ],
      [
        "dugunu",
        -9.014151791985217
      ],
      [
        "▁merkezinde",
        -9.548360426574545
      ],
      [
        "su",
        -7.924619150497522
      ],
      [
        "igi",
        -8.994779070314207
      ],
      [
        "ılmaz",
        -8.605627263129815
      ],
      [
        "▁zamanı",
        -8.626130107246297
      ],
      [
        "▁tepe",
        -8.934446019529293
      ],
      [
        "▁ihracı",
        -9.07169449583548
      ],
      [
        "▁acıldı",
        -7.815745461521954
      ],
      [
        "▁sozleri",
        -9.129667842708761
      ],
      [
        "▁degerleri",
        -9.794979178840638
      ],
      [
        "▁siparisler",
        -9.990536003303824
      ],
      [
        "▁tedbirler",
        -10.081753967631986
      ],
      [
        "mez",
        -7.976211492001962
      ],
      [
        "uz",
        -7.511655463535279
      ],
      [
        "▁basım",
        -9.007302168122843
      ],
      [
        "▁analizciler",
        -9.468118507357525
      ],
      [
        "pozit",
        -8.615929994693467
      ],
      [
        "▁birisini",
        -7.7245982872027135
      ],
      [
        "▁icra",
        -9.130440742747137
      ],
      [
        "▁sizde",
        -7.649578489204442
      ],
      [
        "▁hayvan",
        -9.245163870344065
      ],
      [
        "▁bırakmıs",
        -8.93671780277022
      ],
      [
        "▁bilmem",
        -8.31896242053679
      ],
      [
        "dar",
        -7.640150351019468
      ],
      [
        "eri",
        -9.546284511109059
      ],
      [
        "▁kaynagı",
        -9.63653232503658
      ],
      [
        "bir",
        -9.84958288323799
      ],
      [
        "tıp",
        -7.593361442092817
      ],
      [
        "▁nasıl",
        -5.461418423501822
      ],
      [
        "▁subay",
        -9.19098437361054
      ],
      [
        "▁ilet",
        -8.815100080097915
      ],
      [
        "▁bahcesi",
        -10.050090460415383
      ],
      [
        "▁bugun",
        -8.505421484617202
      ],
      [
        "z",
        -4.5682277971428595
      ],
      [
        "▁erkek",
        -7.700621246120635
      ],
      [
        "▁bomba",
        -10.028112131955961
      ],
      [
        "▁cıka",
        -7.995320739530353
      ],
      [
        "▁konusu",
        -8.495655781651896
      ],
      [
        "▁yana",
        -7.967408395125522
      ],
      [
        "▁aynı",
        -5.643781137011638
      ],
      [
        "▁cag",
        -9.046629717161853
      ],
      [
        "▁meslek",
        -9.463459460680168
      ],
      [
        "▁yaratma",
        -9.8481034135493
      ],
      [
        "▁garson",
        -9.745736304545531
      ],
      [
        "p",
        -5.819386245122589
      ],
      [
        "▁gelmedi",
        -7.8525561523882415
      ],
      [
        "▁ideal",
        -7.703491446277126
      ],
      [
        "▁dow",
        -6.8008506431762905
      ],
      [
        "▁siyah",
        -6.842527925617158
      ],
      [
        "dort",
        -6.718900884756827
      ],
      [
        "▁verdik",
        -8.37332680053282
      ],
      [
        "el",
        -10.025638889085528
      ],
      [
        "▁oz",
        -8.528572754610598
      ],
      [
        "lerde",
        -7.091786562618415
      ],
      [
        "▁basladıgı",
        -10.036850787024292
      ],
      [
        "ti",
        -7.68877548875577
      ],
      [
        "t",
        -5.498942757749235
      ],
      [
        "▁yapa",
        -7.878229298172798
      ],
      [
        "▁gunler",
        -8.535755032459603
      ],
      [
        "▁detayları",
        -9.933873014794552
      ],
      [
        "dik",
        -9.299450153841201
      ],
      [
        "▁baskaları",
        -9.835886158200596
      ],
      [
        "▁goz",
        -7.224676054152864
      ],
      [
        "▁oyuncu",
        -8.781026114965462
      ],
      [
        "▁istedigi",
        -9.897672029807197
      ],
      [
        "▁oldu",
        -6.11244623246
      ],
      [
        "%",
        -4.15274950330704
      ],
      [
        "▁belirlen",
        -8.762830260190547
      ],
      [
        "tik",
        -7.299517765000672
      ],
      [
        "▁yonetici",
        -9.104428611078283
      ],
      [
        "v",
        -8.402736224443764
      ],
      [
        "▁yapacak",
        -7.631070474136227
      ],
      [
        "▁golu",
        -9.89542300090592
      ],
      [
        "▁yakıt",
        -10.027955236287001
      ],
      [
        "▁yan",
        -9.876792540938094
      ],
      [
        "▁beklenti",
        -9.390209728740707
      ],
      [
        "▁izlenim",
        -10.099385506330542
      ],
      [
        "▁sehrinde",
        -10.021117408995218
      ],
      [
        "▁basımı",
        -9.884554591019228
      ],
      [
        "h",
[...]
