{
  "version": "1.0",
  "truncation": null,
  "padding": null,
  "added_tokens": [
    {
      "id": 797,
      "content": "[SEP]",
      "single_word": false,
      "lstrip": false,
      "rstrip": false,
      "normalized": false,
      "special": true
    },
    {
      "id": 1231,
      "content": "[MASK]",
      "single_word": false,
      "lstrip": false,
      "rstrip": false,
      "normalized": false,
      "special": true
    },
    {
      "id": 2009,
      "content": "[PAD]",
      "single_word": false,
      "lstrip": false,
      "rstrip": false,
      "normalized": false,
      "special": true
    },
    {
      "id": 3195,
      "content": "[CLS]",
      "single_word": false,
      "lstrip": false,
      "rstrip": false,
      "normalized": false,
      "special": true
    },
    {
      "id": 4004,
      "content": "[UNK]",
      "single_word": false,
      "lstrip": false,
      "rstrip": false,
      "normalized": false,
      "special": true
    }
  ],
  "normalizer": {
    "type": "Sequence",
    "normalizers": [
      {
        "type": "NFD"
      },
      {
        "type": "Lowercase"
      },
      {
        "type": "StripAccents"
      }
    ]
  },
  "pre_tokenizer": {
    "type": "Sequence",
    "pretokenizers": [
      {
        "type": "Metaspace",
        "replacement": "▁",
        "prepend_scheme": "always",
        "split": true
      }
    ]
  },
  "post_processor": {
    "type": "TemplateProcessing",
    "single": [
      {
        "SpecialToken": {
          "id": "[CLS]",
          "type_id": 0
        }
      },
      {
        "Sequence": {
          "id": "A",
          "type_id": 0
        }
      },
      {
        "SpecialToken": {
          "id": "[SEP]",
          "type_id": 0
        }
      }
    ],
    "pair": [
      {
        "SpecialToken": {
          "id": "[CLS]",
          "type_id": 0
        }
      },
      {
        "Sequence": {
          "id": "A",
          "type_id": 0
        }
      },
      {
        "SpecialToken": {
          "id": "[SEP]",
          "type_id": 0
        }
      },
      {
        "Sequence": {
          "id": "B",
          "type_id": 1
        }
      },
      {
        "SpecialToken": {
          "id": "[SEP]",
          "type_id": 1
        }
      }
    ],
    "special_tokens": {
      "[CLS]": {
        "id": "[CLS]",
        "ids": [
          3195
        ],
        "tokens": [
          "[CLS]"
        ]
      },
      "[SEP]": {
        "id": "[SEP]",
        "ids": [
          797
        ],
        "tokens": [
          "[SEP]"
        ]
      }
    }
  },
  "decoder": {
    "type": "Metaspace",
    "replacement": "▁",
    "prepend_scheme": "always",
    "split": true
  },
  "model": {
    "type": "WordPiece",
    "unk_token": "[UNK]",
    "continuing_subword_prefix": "##",
    "max_input_chars_per_word": 100,
    "vocab": {
      "▁makaleye": 0,
      "▁donemde": 1,
      "##kler": 2,
      "##gal": 3,
      "##ıyorlar": 4,
      "##ladım": 5,
      "t": 6,
      "▁yalan": 7,
      "▁araba": 8,
      "▁cumhurb": 9,
      "▁cum": 10,
      "##ımızı": 11,
      "##aba": 12,
      "▁alan": 13,
      "▁yil": 14,
      "##nc": 15,
      "▁ipot": 16,
      "▁tu": 17,
      "▁raf": 18,
      "▁kurs": 19,
      "▁dikkat": 20,
      "▁bıcak": 21,
      "▁dir": 22,
      "▁olas": 23,
      "▁kası": 24,
      "▁al": 25,
      "▁bekle": 26,
      "▁dev": 27,
      "▁beydi": 28,
      "▁halkı": 29,
      "▁kongre": 30,
      "##ligin": 31,
      "##sa": 32,
      "▁tatil": 33,
      "##tiv": 34,
      "▁&": 35,
      "##landır": 36,
      "▁havaalanı": 37,
      "##madıgını": 38,
      "▁yaklasık": 39,
      "▁insanın": 40,
      "▁davran": 41,
      "▁alamadim": 42,
      "▁karab": 43,
      "▁prens": 44,
      "▁tasım": 45,
      "▁odalari": 46,
      "▁ucuyor": 47,
      "▁anket": 48,
      "▁atlanta": 49,
      "▁mode": 50,
      "▁fiyatlarını": 51,
      "▁basbak": 52,
      "##ip": 53,
      "▁..\"": 54,
      "▁coz": 55,
      "##ort": 56,
      "▁urun": 57,
      "##nız": 58,
      "▁guzel": 59,
      "##leriyle": 60,
      "▁ceyrek": 61,
      "▁mik": 62,
      "▁cocuklara": 63,
      "▁once": 64,
      "▁istem": 65,
      "##sim": 66,
      "▁madde": 67,
      "##isyon": 68,
      "##er": 69,
      "▁onlar": 70,
      "##g": 71,
      "▁sahip": 72,
      "##land": 73,
      "▁sec": 74,
      "▁gidiyor": 75,
      "▁ulkenin": 76,
      "▁devr": 77,
      "▁soyluyor": 78,
      "##na": 79,
      "▁rehber": 80,
      "▁dogru": 81,
      "##unde": 82,
      "##uklu": 83,
      "▁insanlar": 84,
      "▁tul": 85,
      "##tay": 86,
      "▁elestiri": 87,
      "▁katilmak": 88,
      "▁tek": 89,
      "▁istik": 90,
      "##ından": 91,
      "##daki": 92,
      "▁kazan": 93,
      "▁esn": 94,
      "▁imal": 95,
      "▁niyet": 96,
      "▁hukum": 97,
      "▁hus": 98,
      "##isinden": 99,
      "##kk": 100,
      "▁tal": 101,
      "▁yasam": 102,
      "##stu": 103,
      "▁sebep": 104,
      "##anının": 105,
      "##ecekler": 106,
      "▁zor": 107,
      "▁toplant": 108,
      "▁um": 109,
      "▁hakim": 110,
      "▁personel": 111,
      "▁dergi": 112,
      "##kur": 113,
      "##dim": 114,
      "▁aktarma": 115,
      "▁sofr": 116,
      "▁sog": 117,
      "▁ceh": 118,
      "▁radyo": 119,
      "▁kendi": 120,
      "▁merdiven": 121,
      "##erv": 122,
      "##alarına": 123,
      "▁cop": 124,
      "##gunu": 125,
      "##izli": 126,
      "▁otelden": 127,
      "##'ndan": 128,
      "▁tahv": 129,
      "▁sikinti": 130,
      "▁bon": 131,
      "▁cocukların": 132,
      "▁dog": 133,
      "▁sozc": 134,
      "##asın": 135,
      "▁bekl": 136,
      "▁pazar": 137,
      "▁tavsiye": 138,
      "▁parca": 139,
      "##ruf": 140,
      "d": 141,
      "▁ortadan": 142,
      "a": 143,
      "▁mot": 144,
      "##ot": 145,
      "▁red": 146,
      "##ers": 147,
      "▁kadın": 148,
      "##ud": 149,
      "▁hanimla": 150,
      "##end": 151,
      "▁cihaz": 152,
      "▁cak": 153,
      "▁meydana": 154,
      "▁fark": 155,
      "▁nakit": 156,
      "▁zaf": 157,
      "▁eyalet": 158,
      "▁per": 159,
      "##isle": 160,
      "▁olc": 161,
      "▁kır": 162,
      "##all": 163,
      "▁has": 164,
      "▁orman": 165,
      "▁konum": 166,
      "▁kart": 167,
      "##imde": 168,
      "##indi": 169,
      "▁end": 170,
      "##lerinden": 171,
      "▁beni": 172,
      "▁olacak": 173,
      "▁ekonomi": 174,
      "##eyn": 175,
      "▁t": 176,
      "##ap": 177,
      "▁lezzet": 178,
      "▁hemen": 179,
      "▁edil": 180,
      "▁tesisi": 181,
      "▁odamiz": 182,
      "▁nedeniyle": 183,
      "▁beklent": 184,
      "▁yuzunden": 185,
      "▁alaka": 186,
      "▁yumurta": 187,
      "##lu": 188,
      "▁uye": 189,
      "▁degeri": 190,
      "▁altından": 191,
      ",": 192,
      "▁odam": 193,
      "##eldi": 194,
      "##ımıza": 195,
      "▁arasına": 196,
      "##irdi": 197,
      "▁ayak": 198,
      "▁had": 199,
      "##larak": 200,
      "▁etkisi": 201,
      "##-": 202,
      "##ydı": 203,
      "##at": 204,
      "▁sorunu": 205,
      "##elig": 206,
      "▁duk": 207,
      "▁cozum": 208,
      "##imize": 209,
      "▁beye": 210,
      "▁garanti": 211,
      "+": 212,
      "▁hit": 213,
      "##anlık": 214,
      "▁tut": 215,
      "▁mektup": 216,
      "▁yuzunu": 217,
      "▁tem": 218,
      "▁gi": 219,
      "##adar": 220,
      "▁lob": 221,
      "▁dagıt": 222,
      "▁`": 223,
      "▁bis": 224,
      "▁ez": 225,
      "##te": 226,
      "▁ziy": 227,
      "▁hoc": 228,
      "##eri": 229,
      "##lerine": 230,
      "▁kims": 231,
      "##osu": 232,
      "▁sep": 233,
      "▁der": 234,
      "▁vucud": 235,
      "▁metr": 236,
      "##lum": 237,
      "▁bug": 238,
      "▁saldır": 239,
      "▁acik": 240,
      "▁elbis": 241,
      "##raz": 242,
      "6": 243,
      "▁yemek": 244,
      "▁gelmis": 245,
      "▁goster": 246,
      "▁ucaga": 247,
      "##detti": 248,
      "▁aktivit": 249,
      "##unuz": 250,
      "▁olmus": 251,
      "▁endust": 252,
      "▁tarihinde": 253,
      "##egi": 254,
      "##enin": 255,
      "##dugu": 256,
      "▁bek": 257,
      "▁agz": 258,
      "##lendir": 259,
      "▁aynı": 260,
      "##'tan": 261,
      "##cilerin": 262,
      "▁guven": 263,
      "##oksa": 264,
      "▁onune": 265,
      "▁fot": 266,
      "##ruk": 267,
      "▁must": 268,
      "##isiyle": 269,
      "▁bircok": 270,
      "▁muzak": 271,
      "▁agustos": 272,
      "▁hastal": 273,
      "▁sozlesme": 274,
      "▁yatırımcı": 275,
      "▁tehdit": 276,
      "##om": 277,
      "##elerle": 278,
      "▁oglan": 279,
      "▁seyi": 280,
      "▁ov": 281,
      "▁meydan": 282,
      "##gesi": 283,
      "▁merk": 284,
      "##ellikle": 285,
      "##uc": 286,
      "▁ince": 287,
      "##’": 288,
      "##ılı": 289,
      "▁kis": 290,
      "▁mekte": 291,
      "##asındaki": 292,
      "##muyor": 293,
      "▁g": 294,
      "##ye": 295,
      "▁paket": 296,
      "##yl": 297,
      "##ise": 298,
      "▁ey": 299,
      "##erk": 300,
      "##imiz": 301,
      "▁dısında": 302,
      "▁calı": 303,
      "▁bagım": 304,
      "▁kac": 305,
      "▁buyuk": 306,
      "▁gunah": 307,
      "▁detay": 308,
      "▁temizdi": 309,
      "##se": 310,
      "##ust": 311,
      "▁bardak": 312,
      "▁analist": 313,
      "##lig": 314,
      "##la": 315,
      "▁neden": 316,
      "▁kadar": 317,
      "##maya": 318,
      "##?": 319,
      "##unc": 320,
      "▁eglence": 321,
      "##edigini": 322,
      "▁dip": 323,
      "##ton": 324,
      "##art": 325,
      "##ali": 326,
      "▁kahv": 327,
      "▁,": 328,
      "▁borsası": 329,
      "▁icki": 330,
      "##ce": 331,
      "##isten": 332,
      "##igim": 333,
      "##isine": 334,
      "▁test": 335,
      "▁tanı": 336,
      "▁basında": 337,
      "##'d": 338,
      "▁yuksek": 339,
      "▁seyler": 340,
      "##ket": 341,
      "▁cumartesi": 342,
      "▁...\"": 343,
      "▁milyardan": 344,
      "##ıkları": 345,
      "▁clas": 346,
      "▁denver'den": 347,
      "▁ker": 348,
      "▁gayr": 349,
      "▁insanı": 350,
      "▁an": 351,
      "▁okul": 352,
      "▁simdi": 353,
      "▁kararı": 354,
      "▁kah": 355,
      "▁198": 356,
      "##ek": 357,
      "▁hamle": 358,
      "##mez": 359,
      "▁satısı": 360,
      "▁amerikan": 361,
      "▁surec": 362,
      "##onra": 363,
      "▁itiraf": 364,
      "##…": 365,
      "▁yiyecekler": 366,
      "▁kalitesi": 367,
      "▁nokt": 368,
      "##met": 369,
      "▁aln": 370,
      "▁hukuk": 371,
      "##meyi": 372,
      "▁otomobil": 373,
      "##enk": 374,
      "##lige": 375,
      "##amaz": 376,
      "##ve": 377,
      "##ildi": 378,
      "##rtl": 379,
      "▁yine": 380,
      "##maz": 381,
      "▁herif": 382,
      "▁gozlem": 383,
      "▁ucretin": 384,
      "▁dert": 385,
      "▁oner": 386,
      "##emedi": 387,
      "▁dost": 388,
      "▁anne": 389,
      "▁ısrar": 390,
      "▁insan": 391,
      "▁vat": 392,
      "▁sonucları": 393,
      "▁yıldız": 394,
      "▁fir": 395,
      "##anda": 396,
      "▁yolculuk": 397,
      "##'ya": 398,
      "▁ver": 399,
      "▁prot": 400,
      "▁kalem": 401,
      "▁ya": 402,
      "▁otele": 403,
      "▁ceyr": 404,
      "▁dustu": 405,
      "▁gunu": 406,
      "▁haber": 407,
      "##may": 408,
      "▁herkesin": 409,
      "▁sonuc": 410,
      "##gur": 411,
      "▁calısma": 412,
      "##uzel": 413,
      "##oloj": 414,
      "▁imz": 415,
      "▁sol": 416,
      "##ilmesi": 417,
      "##alma": 418,
      "▁hafta": 419,
      "▁kes": 420,
      "▁kuvv": 421,
      "▁fut": 422,
      ">": 423,
      "▁butu": 424,
      "##ede": 425,
      "▁kural": 426,
      "▁ugr": 427,
      "▁zev": 428,
      "##edef": 429,
      "##dal": 430,
      "▁kapsam": 431,
      "##imi": 432,
      "##be": 433,
      "r": 434,
      "##digini": 435,
      "▁but": 436,
      "▁not": 437,
      "▁gun": 438,
      "▁sair": 439,
      "▁genc": 440,
      "##e": 441,
      "▁bolg": 442,
      "▁salı": 443,
      "▁sirk": 444,
      "##;": 445,
      "##mes": 446,
      "##adel": 447,
      "▁cekti": 448,
      "▁oranı": 449,
      "##lem": 450,
      "▁savası": 451,
      "▁toz": 452,
      "▁profes": 453,
      "▁dayan": 454,
      "▁edi": 455,
      "▁olanlar": 456,
      "▁takdir": 457,
      "##masını": 458,
      "▁bicim": 459,
      "▁po": 460,
      "▁aylık": 461,
      "”": 462,
      "▁yapı": 463,
      "##atlar": 464,
      "▁ettim": 465,
      "▁olabilirdi": 466,
      "▁posta": 467,
      "▁disi": 468,
      "▁kurulus": 469,
      "▁hisse": 470,
      "##ediye": 471,
      "##ır": 472,
      "##esini": 473,
      "▁sorustur": 474,
      "##ts": 475,
      "##etin": 476,
      "▁ilisk": 477,
      "##ırak": 478,
      "##iye": 479,
      "##arak": 480,
      "▁artıs": 481,
      "##ardı": 482,
      "▁manzar": 483,
      "▁seviye": 484,
      "##ciler": 485,
      "▁durum": 486,
      "##eviz": 487,
      "##kac": 488,
      "##abil": 489,
      "▁iddi": 490,
      "▁yukseldi": 491,
      "▁zevk": 492,
      "▁s": 493,
      "4": 494,
      "##mıstı": 495,
      "##imci": 496,
      "▁fabrik": 497,
      "##isi": 498,
      "▁ucrete": 499,
      "▁personeller": 500,
      "▁kolt": 501,
      "##etici": 502,
      "▁st": 503,
      "▁bası": 504,
      "##umda": 505,
      "▁ticaret": 506,
      "##+": 507,
      "▁banka": 508,
      "▁bun": 509,
      "##dam": 510,
      "##lamıs": 511,
      "▁baskı": 512,
      "##bak": 513,
      "▁yeme": 514,
      "▁hal": 515,
      "▁reh": 516,
      "▁konuyu": 517,
      "##sınız": 518,
      "##mayan": 519,
      "▁ref": 520,
      "##istir": 521,
      "##ması": 522,
      "▁am": 523,
      "▁yıld": 524,
      "##edig": 525,
      "▁ile": 526,
      "##ska": 527,
      "##tl": 528,
      "▁el": 529,
      "▁depr": 530,
      "▁kamyon": 531,
      "##emem": 532,
      "▁ilave": 533,
      "▁katılım": 534,
      "▁koy": 535,
      "▁yurtd": 536,
      "▁talep": 537,
      "▁sekl": 538,
      "▁buraya": 539,
      "▁ip": 540,
      "##ızı": 541,
      "▁ortam": 542,
      "▁icin": 543,
      "##ug": 544,
      "##iss": 545,
      "##dıgın": 546,
      "##alarının": 547,
      "##abet": 548,
      "##ıntı": 549,
      "▁hacmi": 550,
      "▁bulut": 551,
      "▁derec": 552,
      "▁dedi": 553,
      "##'nde": 554,
      "▁ayd": 555,
      "▁gal": 556,
      "▁ilgil": 557,
      "##ig": 558,
      "▁vet": 559,
      "▁denize": 560,
      "▁ucretleri": 561,
      "▁e": 562,
      "▁oyunun": 563,
      "▁tarla": 564,
      "▁fik": 565,
      "▁civarı": 566,
      "▁gorusuldu": 567,
      "▁dar": 568,
      "▁yuzu": 569,
      "▁ogretmen": 570,
      "▁tesvik": 571,
      "▁mat": 572,
      "▁karı": 573,
      "▁yolu": 574,
      "##anıt": 575,
      "##eklen": 576,
      "##asını": 577,
      "▁beb": 578,
      "▁bit": 579,
      "##'nın": 580,
      "##leme": 581,
      "▁ici": 582,
      "▁ten": 583,
      "▁ask": 584,
      "▁eger": 585,
      "▁ıs": 586,
      "▁sof": 587,
      "##ısına": 588,
      "▁risk": 589,
      "▁yaban": 590,
      "▁im": 591,
      "▁mezar": 592,
      "▁cevr": 593,
      "##iski": 594,
      "##ik": 595,
      "▁meyve": 596,
      "##lardan": 597,
      "▁getiri": 598,
      "##esinde": 599,
      "▁ne": 600,
      "##abı": 601,
      ";": 602,
      "##00": 603,
      "##0'": 604,
      "▁havaal": 605,
      "▁sı": 606,
      "▁haftada": 607,
      "##cılar": 608,
      "▁sınıf": 609,
      "▁fon": 610,
      "▁dedim": 611,
      "##han": 612,
      "▁yıllarda": 613,
      "▁insana": 614,
      "##ge": 615,
      "##ete": 616,
      "▁dostu": 617,
      "▁veril": 618,
      "##mel": 619,
      "▁kend": 620,
      "▁kam": 621,
      "▁hatta": 622,
      "▁it": 623,
      "▁2": 624,
      "▁yab": 625,
      "▁sonra": 626,
      "▁parc": 627,
      "▁kagıt": 628,
      "▁turku": 629,
      "▁pal": 630,
      "▁mucade": 631,
      "##de": 632,
      "▁film": 633,
      "▁gormek": 634,
      "▁siy": 635,
      "▁dusunce": 636,
      "##ıs": 637,
      "▁yardimci": 638,
      "▁re": 639,
      "▁koyun": 640,
      "▁cesit": 641,
      "▁za": 642,
      "▁tiyatro": 643,
      "▁firması": 644,
      "▁yolcul": 645,
      "##yacak": 646,
      "##ilen": 647,
      "▁traf": 648,
      "##elli": 649,
      "##ligine": 650,
      "▁tahvilleri": 651,
      "▁sef": 652,
      "##mesi": 653,
      "▁acent": 654,
      "▁ilgilendi": 655,
      "▁spor": 656,
      "##bar": 657,
      "▁odalar": 658,
      "##id": 659,
      "▁ihr": 660,
      "##5'ten": 661,
      "##ınt": 662,
      "▁ekim": 663,
      "▁kıymet": 664,
      "▁cif": 665,
      "▁tip": 666,
      "▁!": 667,
      "▁mec": 668,
      "##lıklar": 669,
      "▁merak": 670,
      "##lastır": 671,
      "##and": 672,
      "##umu": 673,
      "▁japon": 674,
      "##cının": 675,
      "▁paranın": 676,
      "▁gordum": 677,
      "▁adı": 678,
      "▁defter": 679,
      "▁personellerinden": 680,
      "▁tarih": 681,
      "▁nuf": 682,
      "▁piyas": 683,
      "▁dek": 684,
      "▁belirt": 685,
      "##ine": 686,
      "##esinin": 687,
      "▁sonuclar": 688,
      "##usuna": 689,
      "##kar": 690,
      "##mektedir": 691,
      "##sat": 692,
      "##masından": 693,
      "▁proj": 694,
      "##edik": 695,
      "▁kanun": 696,
      "##ilmis": 697,
      "▁eglen": 698,
      "▁isci": 699,
      "##aret": 700,
      "▁soyle": 701,
      "$": 702,
      "▁sır": 703,
      "9": 704,
      "▁hayv": 705,
      "▁dekor": 706,
      "##denin": 707,
      "▁donem": 708,
      "##elerde": 709,
      "▁civarında": 710,
      "▁gond": 711,
      "▁muduru": 712,
      "▁kapıyı": 713,
      "##suzluk": 714,
      "▁tekn": 715,
      "▁yılın": 716,
      "##une": 717,
      "##lerini": 718,
      "##etleri": 719,
      "##meden": 720,
      "▁cent": 721,
      "##liginde": 722,
      "▁diz": 723,
      "##emez": 724,
      "▁etmek": 725,
      "▁duman": 726,
      "##izi": 727,
      "##sı": 728,
      "▁at": 729,
      "▁gid": 730,
      "▁kez": 731,
      "##agı": 732,
      "##larıyla": 733,
      "▁bah": 734,
      "▁bahce": 735,
      "##emek": 736,
      "▁dik": 737,
      "▁vapur": 738,
      "▁kampanyalar": 739,
      "##diye": 740,
      "▁karsısında": 741,
      "##irler": 742,
      "▁konforu": 743,
      "▁perde": 744,
      "▁persembe": 745,
      "▁dunyada": 746,
      "▁hastalık": 747,
      "##liye": 748,
      "##ut": 749,
      "▁ucuz": 750,
      "▁mu": 751,
      "▁kaf": 752,
      "##ov": 753,
      "▁kayb": 754,
      "##'s": 755,
      "▁ucu": 756,
      "##fen": 757,
      "▁tesis": 758,
      "##ldi": 759,
      "▁nedenlerden": 760,
      "##eyi": 761,
      "▁davet": 762,
      "▁huk": 763,
      "##ısından": 764,
      "##od": 765,
      "##dil": 766,
      "▁hisseleri": 767,
      "##lay": 768,
      "▁reklam": 769,
      "▁co": 770,
      "▁girisim": 771,
      "▁kap": 772,
      "▁sist": 773,
      "##gu": 774,
      "▁merh": 775,
      "▁lezz": 776,
      "▁sut": 777,
      "##ch": 778,
      "##des": 779,
      "##uguna": 780,
      "▁cen": 781,
      "▁deger": 782,
      "▁\"": 783,
      "##arında": 784,
      "▁tuk": 785,
      "▁yahut": 786,
      "▁gitmek": 787,
      "▁hayatı": 788,
      "▁yalnız": 789,
      "▁dogum": 790,
      "▁avuk": 791,
      "▁bey": 792,
      "▁soru": 793,
      "▁mesaf": 794,
      "##tıgı": 795,
      "##gil": 796,
      "[SEP]": 797,
      "▁mer": 798,
      "▁bat": 799,
      "1": 800,
      "##et": 801,
      "▁ur": 802,
      "▁tercih": 803,
      "##ılım": 804,
      "▁zamanlar": 805,
      "▁ok": 806,
      "▁lez": 807,
      "##liydi": 808,
      "▁ef": 809,
      "▁peyn": 810,
      "##una": 811,
      "▁zeytin": 812,
      "▁icer": 813,
      "##esi": 814,
      "##etli": 815,
      "▁cuma": 816,
      "▁konusunda": 817,
      "▁sınıfı": 818,
      "▁matem": 819,
      "▁doları'na": 820,
      "##madan": 821,
      "▁benz": 822,
      "▁problem": 823,
      "▁guvenlik": 824,
      "▁kırık": 825,
      "##asyon": 826,
      "▁kuvvet": 827,
      "##eyim": 828,
      "##ku": 829,
      "▁aktar": 830,
      "`": 831,
      "▁havuz": 832,
      "▁imk": 833,
      "▁fazl": 834,
      "▁tok": 835,
      "▁bilgisayar": 836,
      "##bil": 837,
      "▁uygul": 838,
      "▁alır": 839,
      "▁he": 840,
      "▁adamı": 841,
      "##aydı": 842,
      "##okr": 843,
      "▁temsil": 844,
      "##az": 845,
      "##mey": 846,
      "▁nedir": 847,
      "▁hay": 848,
      "##ecegim": 849,
      "▁olu": 850,
      "▁kısm": 851,
      "##uma": 852,
      "##uye": 853,
      "##ka": 854,
      "▁gercek": 855,
      "##ada": 856,
      "▁fakat": 857,
      "▁sent": 858,
      "##ıklar": 859,
      "##ansiyon": 860,
      "▁saatlerde": 861,
      "▁lok": 862,
      "▁lid": 863,
      "▁sefer": 864,
      "▁kavram": 865,
      "▁ruz": 866,
      "▁anlattı": 867,
      "##gıc": 868,
      "▁ba": 869,
      "##endi": 870,
      "▁yont": 871,
      "▁baslangıc": 872,
      "##el": 873,
      "▁v": 874,
      "▁ilgilendiler": 875,
      "▁yonet": 876,
      "▁seyin": 877,
      "▁kavg": 878,
      "##cek": 879,
      "##ash": 880,
      "▁dusus": 881,
      "##amın": 882,
      "▁hac": 883,
      "##ayan": 884,
      "##eyin": 885,
      "▁ark": 886,
      "##anları": 887,
      "▁begenmedim": 888,
      "##sin": 889,
      "▁du": 890,
      "##uz": 891,
      "▁biri": 892,
      "▁beyle": 893,
      "##agın": 894,
      "▁etme": 895,
      "##re": 896,
      "▁kisinin": 897,
      "▁fer": 898,
      "▁col": 899,
      "▁gok": 900,
      "##let": 901,
      "▁etmeye": 902,
      "▁yardımcı": 903,
      "##mas": 904,
      "##ilm": 905,
      "##uru": 906,
      "▁hedef": 907,
      "##lanır": 908,
      "▁eli": 909,
      "3": 910,
      "▁rakam": 911,
      "▁idar": 912,
      "##edigim": 913,
      "▁calis": 914,
      "▁beklen": 915,
      "▁hali": 916,
      "▁fırsat": 917,
      "##ız": 918,
      "##eki": 919,
      "##ont": 920,
      "##uga": 921,
      "▁kalp": 922,
      "##dikleri": 923,
      "▁rak": 924,
      "▁odada": 925,
      "##ator": 926,
      "▁islet": 927,
      "##isler": 928,
      "##umuz": 929,
      "▁gidis": 930,
      "▁sınır": 931,
      "▁tane": 932,
      "▁dukkan": 933,
      "▁azdi": 934,
      "▁geyik": 935,
      "▁ist": 936,
      "▁enf": 937,
      "▁bel": 938,
      "##ımızda": 939,
      "▁portf": 940,
      "▁cag": 941,
      "▁yargıc": 942,
      "▁ucak": 943,
      "##alet": 944,
      "▁bi": 945,
      "▁ilgiliydi": 946,
      "##eyaz": 947,
      "▁isletme": 948,
      "▁komisyonu": 949,
      "▁digerleri": 950,
      "▁philadel": 951,
      "(": 952,
      "##ıklık": 953,
      "▁yuv": 954,
      "▁tey": 955,
      "▁di": 956,
      "▁havuzu": 957,
      "##usunda": 958,
      "▁gibi": 959,
      "▁say": 960,
      "##eci": 961,
      "▁af": 962,
      "##in": 963,
      "##burg": 964,
      "##hu": 965,
      "▁vucu": 966,
      "▁istedi": 967,
      "▁damak": 968,
      "▁karayol": 969,
      "▁basından": 970,
      "##uluk": 971,
      "▁halde": 972,
      "▁doneminde": 973,
      "##akat": 974,
      "##yor": 975,
      "▁islemler": 976,
      "▁unu": 977,
      "▁rezervasyon": 978,
      "▁lu": 979,
      "▁tren": 980,
      "▁istiyor": 981,
      "▁oyun": 982,
      "▁bilmek": 983,
      "▁gon": 984,
      "g": 985,
      "##min": 986,
      "▁yerinde": 987,
      "##inlik": 988,
      "##ıdır": 989,
      "##uzluydu": 990,
      "▁kay": 991,
      "▁kız": 992,
      "##isim": 993,
      "##day": 994,
      "▁dısarı": 995,
      "##uh": 996,
      "▁yan": 997,
      "▁balık": 998,
      "▁parayı": 999,
      "▁gogs": 1000,
      "▁ucretlerini": 1001,
      "k": 1002,
      "##og": 1003,
      "▁sez": 1004,
      "▁futbol": 1005,
      "▁zih": 1006,
      "##ersiz": 1007,
      "▁rakip": 1008,
      "##gul": 1009,
      "##bası": 1010,
      "▁durumunda": 1011,
      "##sizlik": 1012,
      "▁teklif": 1013,
      "▁lik": 1014,
      "##angi": 1015,
      "##dar": 1016,
      "▁guzeldi": 1017,
      "##tı": 1018,
      "##mıslar": 1019,
      "▁dak": 1020,
      "▁yerinden": 1021,
      "▁sap": 1022,
      "▁sorunları": 1023,
      "▁ihtiy": 1024,
      "##teri": 1025,
      "▁indirim": 1026,
      "##attı": 1027,
      "▁bir": 1028,
      "▁hizmet": 1029,
      "▁ogle": 1030,
      "##dug": 1031,
      "##alama": 1032,
      "##'dan": 1033,
      "##eginde": 1034,
      "▁bilg": 1035,
      "##ler": 1036,
      "▁sorun": 1037,
      "▁si": 1038,
      "▁soz": 1039,
      "##us": 1040,
      "▁operasyon": 1041,
      "##erans": 1042,
      "##form": 1043,
      "▁il": 1044,
      "▁tel": 1045,
      "▁dava": 1046,
      "##adı": 1047,
      "▁ucusun": 1048,
      "▁pas": 1049,
      "▁coc": 1050,
      "▁ekip": 1051,
      "##erdi": 1052,
      "▁yetkili": 1053,
      "##div": 1054,
      "▁yog": 1055,
      "▁uyum": 1056,
      "▁agac": 1057,
      "▁alb": 1058,
      "▁aileler": 1059,
      "/": 1060,
      "▁onc": 1061,
      "##uyle": 1062,
      "▁ol": 1063,
      "▁ben": 1064,
      "▁yal": 1065,
      "▁konut": 1066,
      "##ıc": 1067,
      "▁otelin": 1068,
      "##to": 1069,
      "▁emir": 1070,
      "▁rapor": 1071,
      "▁duygu": 1072,
      "▁sona": 1073,
      "##muz": 1074,
      "▁bu": 1075,
      "▁em": 1076,
      "▁oldu": 1077,
      "▁olanakları": 1078,
      "▁hat": 1079,
      "▁geri": 1080,
      "▁olur": 1081,
      "##mad": 1082,
      "##m": 1083,
      "▁uc": 1084,
      "##lemek": 1085,
      "▁onun": 1086,
      "▁konak": 1087,
      "▁yuksel": 1088,
      "▁gelis": 1089,
      "##ene": 1090,
      "▁arttı": 1091,
      "▁gayrimen": 1092,
      "##kel": 1093,
      "▁mul": 1094,
      "▁inanc": 1095,
      "▁saglık": 1096,
      "▁ortaya": 1097,
      "▁kapandı": 1098,
      "▁katil": 1099,
      "▁fazla": 1100,
      "▁rekabet": 1101,
      "▁duz": 1102,
      "u": 1103,
      "##allas": 1104,
      "▁tahvil": 1105,
      "▁yık": 1106,
      "##elim": 1107,
      "▁aleyh": 1108,
      "▁kalite": 1109,
      "##os": 1110,
      "▁guv": 1111,
      "▁gitti": 1112,
      "▁kullanmadim": 1113,
      "##eler": 1114,
      "h": 1115,
      "▁menkul": 1116,
      "▁piy": 1117,
      "▁mez": 1118,
      "##yet": 1119,
      "##si": 1120,
      "▁zar": 1121,
      "▁yerini": 1122,
      "▁zir": 1123,
      "▁olum": 1124,
      "▁piyasada": 1125,
      "▁egitim": 1126,
      "▁olduguna": 1127,
      "##of": 1128,
      "▁dısı": 1129,
      "▁rehberimiz": 1130,
      "##biy": 1131,
      "▁hem": 1132,
      "##ım": 1133,
      "▁phil": 1134,
      "▁sebeb": 1135,
      "▁doları'ndan": 1136,
      "▁": 1137,
      "▁yapmak": 1138,
      "▁tur": 1139,
      "##siy": 1140,
      "##ane": 1141,
      "▁toplum": 1142,
      "▁uy": 1143,
      "##tor": 1144,
      "▁cor": 1145,
      "▁mac": 1146,
      "##estir": 1147,
      "▁havayolu": 1148,
      "▁tepki": 1149,
      "##gın": 1150,
      "▁kısı": 1151,
      "▁puan": 1152,
      "▁izin": 1153,
      "▁yel": 1154,
      "▁dep": 1155,
      "▁sonrasında": 1156,
      "▁sacları": 1157,
      "▁isi": 1158,
      "##egin": 1159,
      "▁kotu": 1160,
      "▁suy": 1161,
      "##lin": 1162,
      "▁koltuk": 1163,
      "▁rej": 1164,
      "##tig": 1165,
      "▁kad": 1166,
      "▁kayı": 1167,
      "▁arab": 1168,
      "##aların": 1169,
      "##acı": 1170,
      "##s": 1171,
      "▁artık": 1172,
      "▁arada": 1173,
      "▁gayet": 1174,
      "▁or": 1175,
      "▁havayollarını": 1176,
      "##kon": 1177,
      "##yal": 1178,
      "▁10'dan": 1179,
      "▁son": 1180,
      "##du": 1181,
      "▁elden": 1182,
      "##y": 1183,
      "▁rez": 1184,
      "n": 1185,
      "▁dus": 1186,
      "▁sistemi": 1187,
      "##estiri": 1188,
      "▁istihdam": 1189,
      "▁tehd": 1190,
      "▁ailelere": 1191,
      "##lan": 1192,
      "##lav": 1193,
      "▁azalt": 1194,
      "▁odan": 1195,
      "▁kat": 1196,
      "▁ila": 1197,
      "▁kagı": 1198,
      "##oc": 1199,
      "##dugunu": 1200,
      "▁firma": 1201,
      "▁agız": 1202,
      "▁h": 1203,
      "▁sonbah": 1204,
      "##unku": 1205,
      "##lerden": 1206,
      "▁ulk": 1207,
      "▁ala": 1208,
      "▁sahipleri": 1209,
      "▁etki": 1210,
      "▁bono": 1211,
      "##uf": 1212,
      "▁fas": 1213,
      "▁$": 1214,
      "▁yuzune": 1215,
      "▁fiyati": 1216,
      "▁hissesi": 1217,
      "▁hazır": 1218,
      "##ef": 1219,
      "##inin": 1220,
      "▁pay": 1221,
      "##'ye": 1222,
      "##laya": 1223,
      "▁harek": 1224,
      "▁acisindan": 1225,
      "p": 1226,
      "▁bacak": 1227,
      "##larına": 1228,
      "##‘": 1229,
      "▁sahn": 1230,
      "[MASK]": 1231,
      "▁degisim": 1232,
      "##5'": 1233,
      "##mur": 1234,
      "##cegini": 1235,
      "##larım": 1236,
      "##inc": 1237,
      "▁fil": 1238,
      "▁kadınlar": 1239,
      "▁seviyesine": 1240,
      "##ıya": 1241,
      "▁huzur": 1242,
      "▁bilet": 1243,
      "##ıy": 1244,
      "▁bulmak": 1245,
      "▁gar": 1246,
      "▁maliyeti": 1247,
      "▁.)": 1248,
      "▁soy": 1249,
      "##ag": 1250,
      "##siyon": 1251,
      "▁yolda": 1252,
      "▁hol": 1253,
      "▁kulub": 1254,
      "▁muda": 1255,
      "▁bahc": 1256,
      "▁port": 1257,
      "##abilecegini": 1258,
      "▁ders": 1259,
      "▁yemeklerinden": 1260,
      "##anından": 1261,
      "▁basını": 1262,
      "##lat": 1263,
      "▁kisi": 1264,
      "▁kisilik": 1265,
      "##gr": 1266,
      "##mistir": 1267,
      "##akları": 1268,
      "▁sa": 1269,
      "▁teslim": 1270,
      "▁yuks": 1271,
      "##_": 1272,
      "##uyordu": 1273,
      "▁eksik": 1274,
      "##enc": 1275,
      "##istel": 1276,
      "▁kontrol": 1277,
      "▁kul": 1278,
      "▁bakan": 1279,
      "##atır": 1280,
      "##lit": 1281,
      "##'un": 1282,
      "▁kriz": 1283,
      "▁herkes": 1284,
      "##iv": 1285,
      "##acak": 1286,
      "▁ruy": 1287,
      "▁boston": 1288,
      "▁ev": 1289,
      "▁ifade": 1290,
      "▁duy": 1291,
      "▁kampan": 1292,
      "▁ediyor": 1293,
      "##ter": 1294,
      "▁may": 1295,
      "##ren": 1296,
      "▁huz": 1297,
      "##dırım": 1298,
      "##ısız": 1299,
      "▁sesleri": 1300,
      "▁tep": 1301,
      "▁ancak": 1302,
      "▁haz": 1303,
      "▁pan": 1304,
      "##ur": 1305,
      "▁oyn": 1306,
      "▁lut": 1307,
      "▁uzerinde": 1308,
      "▁yuk": 1309,
      "##ing": 1310,
      "▁aile": 1311,
      "▁sekil": 1312,
      "▁muz": 1313,
      "▁ilgili": 1314,
      "▁yaz": 1315,
      "▁(": 1316,
      "##suz": 1317,
      "▁balt": 1318,
      "▁memur": 1319,
      "▁piyasanın": 1320,
      "▁ruh": 1321,
      "▁olcu": 1322,
      "▁olan": 1323,
      "▁1": 1324,
      "##ayla": 1325,
      "▁sigara": 1326,
      "▁yo": 1327,
      "▁tesisti": 1328,
      "▁dortl": 1329,
      "##emi": 1330,
      "##eye": 1331,
      "▁ab": 1332,
      "##uk": 1333,
      "▁sorum": 1334,
      "▁dusuk": 1335,
      "▁evde": 1336,
      "##ıza": 1337,
      "##larımı": 1338,
      "▁ph": 1339,
      "▁karsılık": 1340,
      "##ısıyla": 1341,
      "▁fiyatı": 1342,
      "##ic": 1343,
      "▁gunler": 1344,
      "▁toprak": 1345,
      "▁icecek": 1346,
      "##lıkları": 1347,
      "##manın": 1348,
      "▁karıs": 1349,
      "##arda": 1350,
      "##ladı": 1351,
      "##ılır": 1352,
      "▁takip": 1353,
      "▁asagı": 1354,
      "##tık": 1355,
      "▁ordu": 1356,
      "▁sin": 1357,
      "▁yaklasimi": 1358,
      "▁degistir": 1359,
      "▁day": 1360,
      "▁ele": 1361,
      "f": 1362,
      "▁olcude": 1363,
      "▁listeleyin": 1364,
      "▁mur": 1365,
      "▁sac": 1366,
      "##daydi": 1367,
      "▁kabul": 1368,
      "##elerden": 1369,
      "▁satıslar": 1370,
      "##eti": 1371,
      "▁kalmadim": 1372,
      "▁seviyesinden": 1373,
      "▁fiyatları": 1374,
      "▁mutf": 1375,
      "##madı": 1376,
      "▁istasyon": 1377,
      "▁dunya": 1378,
      "▁su": 1379,
      "▁sanat": 1380,
      "##elir": 1381,
      "▁sip": 1382,
      "##ıgın": 1383,
      "▁zinc": 1384,
      "▁kodu": 1385,
      "##ınlık": 1386,
      "▁kalabalık": 1387,
      "▁gucu": 1388,
      "▁paraya": 1389,
      "▁oteli": 1390,
      "▁halka": 1391,
      "##ore": 1392,
      "▁alama": 1393,
      "▁guzellik": 1394,
      "##atif": 1395,
      "##oy": 1396,
      "▁okum": 1397,
      "##cıları": 1398,
      "▁veririm": 1399,
      "▁masal": 1400,
      "▁grub": 1401,
      "“": 1402,
      "▁insanların": 1403,
      "▁od": 1404,
      "##lim": 1405,
      "▁hav": 1406,
      "▁tor": 1407,
      "##lara": 1408,
      "##mıstır": 1409,
      "▁uzer": 1410,
      "▁geriye": 1411,
      "▁yuzden": 1412,
      "##artesi": 1413,
      "▁endustri": 1414,
      "▁kahvalt": 1415,
      "##ırdı": 1416,
      "▁cesaret": 1417,
      "##x": 1418,
      "▁--": 1419,
      "▁ilk": 1420,
      "##eket": 1421,
      "▁garson": 1422,
      "▁sade": 1423,
      "##av": 1424,
      "▁lutfen": 1425,
      "▁kan": 1426,
      "▁ihtiyacım": 1427,
      "▁..": 1428,
      "▁dugun": 1429,
      "▁yumur": 1430,
      "▁toplantı": 1431,
      "▁anlamda": 1432,
      "▁erken": 1433,
      "##eyen": 1434,
      "▁araya": 1435,
      "▁suru": 1436,
      "##isini": 1437,
      "▁elinde": 1438,
      "▁gec": 1439,
      "▁yarı": 1440,
      "▁yeri": 1441,
      "##dak": 1442,
      "##ıp": 1443,
      "##uya": 1444,
      "##=": 1445,
      "##cih": 1446,
      "▁ins": 1447,
      "▁tedavul": 1448,
      "▁farkında": 1449,
      "##aat": 1450,
      "##4": 1451,
      "##edi": 1452,
      "▁birim": 1453,
      "▁finans": 1454,
      "##las": 1455,
      "▁mus": 1456,
      "##lacak": 1457,
      "▁ic": 1458,
      "##iyor": 1459,
      "▁sirketler": 1460,
      "##acag": 1461,
      "▁herhangi": 1462,
      "▁tedbir": 1463,
      "▁hesap": 1464,
      "##gah": 1465,
      "▁yuzde": 1466,
      "##un": 1467,
      "##sunuz": 1468,
      "##unu": 1469,
      "##ustu": 1470,
      "▁kredi": 1471,
      "​": 1472,
      "▁cab": 1473,
      "▁12": 1474,
      "##ortl": 1475,
      "##lerinde": 1476,
      "▁urunleri": 1477,
      "▁a": 1478,
      "▁hacim": 1479,
      "##andı": 1480,
      "▁senetleri": 1481,
      "▁6'dan": 1482,
      "▁basa": 1483,
      "e": 1484,
      "▁han": 1485,
      "▁kitab": 1486,
      "▁fay": 1487,
      "##yum": 1488,
      "▁sirket": 1489,
      "▁har": 1490,
      "▁vakit": 1491,
      "##lamaya": 1492,
      "▁karn": 1493,
      "##isk": 1494,
      "▁sipar": 1495,
      "▁oyuncu": 1496,
      "▁oldugu": 1497,
      "▁kasab": 1498,
      "▁bekliyor": 1499,
      "▁havayollarında": 1500,
      "▁kullan": 1501,
      "##7": 1502,
      "##maları": 1503,
      "▁sıcak": 1504,
      "▁personelleri": 1505,
      "▁hak": 1506,
      "▁tır": 1507,
      "▁yeni": 1508,
      "##eticisi": 1509,
      "▁buf": 1510,
      "8": 1511,
      "##iyle": 1512,
      "##unun": 1513,
      "▁ah": 1514,
      "▁dususle": 1515,
      "##co": 1516,
      "▁onemli": 1517,
      "##ici": 1518,
      "▁8": 1519,
      "##yuzlu": 1520,
      "##cılık": 1521,
      "▁felsef": 1522,
      "##iri": 1523,
      "▁felaket": 1524,
      "▁gey": 1525,
      "▁key": 1526,
      "▁:": 1527,
      "##adan": 1528,
      "▁bır": 1529,
      "▁r": 1530,
      "▁ceb": 1531,
      "▁muhal": 1532,
      "▁mir": 1533,
      "y": 1534,
      "▁olanaklari": 1535,
      "▁buyum": 1536,
      "##andır": 1537,
      "▁ucusu": 1538,
      "##ens": 1539,
      "▁gorus": 1540,
      "##cag": 1541,
      "▁tav": 1542,
      "▁magaz": 1543,
      "##ardan": 1544,
      "▁deneme": 1545,
      "##itesi": 1546,
      "▁sezon": 1547,
      "##elerin": 1548,
      "▁gay": 1549,
      "▁hukumet": 1550,
      "▁karsi": 1551,
      "▁yar": 1552,
      "▁umut": 1553,
      "##sal": 1554,
      "▁eg": 1555,
      "##maktadır": 1556,
      "▁renk": 1557,
      "▁bede": 1558,
      "▁ves": 1559,
      "▁cevre": 1560,
      "##it": 1561,
      "##ken": 1562,
      "▁telef": 1563,
      "▁sp": 1564,
      "▁gelecek": 1565,
      "▁kitabı": 1566,
      "▁ekibi": 1567,
      ")": 1568,
      "▁roman": 1569,
      "▁hizm": 1570,
      "▁ail": 1571,
      "▁eks": 1572,
      "▁ban": 1573,
      "▁so": 1574,
      "##uyla": 1575,
      "▁suya": 1576,
      "▁esk": 1577,
      "##)": 1578,
      "##tun": 1579,
      "▁nisan": 1580,
      "▁vermek": 1581,
      "##cul": 1582,
      "▁le": 1583,
      "▁veriyorum": 1584,
      "##ımı": 1585,
      "▁sub": 1586,
      "▁sınav": 1587,
      "##asi": 1588,
      "▁oglen": 1589,
      "▁l": 1590,
      "##erler": 1591,
      "▁alısveris": 1592,
      "▁er": 1593,
      "▁ilac": 1594,
      "▁y": 1595,
      "▁ki": 1596,
      "▁kotuydu": 1597,
      "##asına": 1598,
      "▁yoneticileri": 1599,
      "▁muh": 1600,
      "▁kuc": 1601,
      "##enler": 1602,
      "##etic": 1603,
      "▁olay": 1604,
      "▁imkanlari": 1605,
      "##ıl": 1606,
      "▁av": 1607,
      "##mam": 1608,
      "▁muhab": 1609,
      "##ret": 1610,
      "▁en": 1611,
      "▁faaliyet": 1612,
      "▁insanlara": 1613,
      "##aydi": 1614,
      "▁pat": 1615,
      "▁yav": 1616,
      "–": 1617,
      "▁kit": 1618,
      "5": 1619,
      "▁aj": 1620,
      "##mekten": 1621,
      "▁zek": 1622,
      "##obil": 1623,
      "##ahat": 1624,
      "##larımızı": 1625,
      "▁uzerine": 1626,
      "##edir": 1627,
      "##iyorlar": 1628,
      "▁in": 1629,
      "▁rap": 1630,
      "##ikat": 1631,
      "##ley": 1632,
      "##ni": 1633,
      "##mustu": 1634,
      "##eyr": 1635,
      "##undan": 1636,
      "▁acık": 1637,
      "##ttı": 1638,
      "▁etmem": 1639,
      "▁deniz": 1640,
      "▁boyun": 1641,
      "▁wash": 1642,
      "▁baba": 1643,
      "##ecilik": 1644,
      "▁kot": 1645,
      "▁ulasım": 1646,
      "▁ofk": 1647,
      "##ekl": 1648,
      "##must": 1649,
      "##ıcılar": 1650,
      "▁buc": 1651,
      "▁tamam": 1652,
      "##cev": 1653,
      "##ana": 1654,
      "▁akl": 1655,
      "▁tah": 1656,
      "▁servis": 1657,
      "▁takım": 1658,
      "▁telefonla": 1659,
      "▁anlas": 1660,
      "▁haval": 1661,
      "▁hangi": 1662,
      "##anıs": 1663,
      "▁anim": 1664,
      "##dur": 1665,
      "▁karar": 1666,
      "▁dil": 1667,
      "▁giriste": 1668,
      "▁olmaya": 1669,
      "▁dunyanın": 1670,
      "▁tez": 1671,
      "##duz": 1672,
      "▁burokr": 1673,
      "▁seyahat": 1674,
      "▁heyec": 1675,
      "##mak": 1676,
      "##ktu": 1677,
      "▁avukat": 1678,
      "▁yagmur": 1679,
      "##embe": 1680,
      "▁de": 1681,
      "##ok": 1682,
      "##ru": 1683,
      "▁hasta": 1684,
      "▁is": 1685,
      "▁calisanlar": 1686,
      "▁olma": 1687,
      "▁uzun": 1688,
      "▁icecekler": 1689,
      "▁ide": 1690,
      "##cılıg": 1691,
      "▁ikisi": 1692,
      "▁saat": 1693,
      "##lıgı": 1694,
      "▁sos": 1695,
      "▁bez": 1696,
      "▁mahkem": 1697,
      "▁fiyatina": 1698,
      "▁lim": 1699,
      "##ıyordu": 1700,
      "##masın": 1701,
      "▁bar": 1702,
      "▁birtak": 1703,
      "▁insaat": 1704,
      "▁fa": 1705,
      "▁rom": 1706,
      "▁gog": 1707,
      "▁yard": 1708,
      "##ustur": 1709,
      "▁kel": 1710,
      "##adem": 1711,
      "▁isk": 1712,
      "▁fin": 1713,
      "##oyu": 1714,
      "##eyh": 1715,
      "▁f": 1716,
      "##c": 1717,
      "▁omuz": 1718,
      "▁yapmaya": 1719,
      "▁bolum": 1720,
      "▁otob": 1721,
      "▁ileri": 1722,
      "▁basla": 1723,
      "##ama": 1724,
      "▁bos": 1725,
      "▁arz": 1726,
      "▁sart": 1727,
      "▁tasarruf": 1728,
      "##5": 1729,
      "##ika": 1730,
      "▁kons": 1731,
      "▁sig": 1732,
      "##ime": 1733,
      "▁etmis": 1734,
      "▁ozgur": 1735,
      "▁haberi": 1736,
      "##ların": 1737,
      "▁cek": 1738,
      "▁kapının": 1739,
      "▁-": 1740,
      "▁istemiyorum": 1741,
      "▁goze": 1742,
      "z": 1743,
      "##ide": 1744,
      "▁giy": 1745,
      "▁hanim": 1746,
      "##eb": 1747,
      "##k": 1748,
      "▁dun": 1749,
      "##mayı": 1750,
      "▁hava": 1751,
      "▁kisiler": 1752,
      "▁yet": 1753,
      "▁doldur": 1754,
      "▁odadan": 1755,
      "▁vakt": 1756,
      "▁ch": 1757,
      "▁sene": 1758,
      "▁ikti": 1759,
      "##ları": 1760,
      "##cileri": 1761,
      "▁misaf": 1762,
      "▁washington": 1763,
      "##mız": 1764,
      "▁seyir": 1765,
      "▁ihtiyac": 1766,
      "##asıyla": 1767,
      "##ıg": 1768,
      "##dir": 1769,
      "▁memnun": 1770,
      "##aklı": 1771,
      "▁sah": 1772,
      "▁ann": 1773,
      "▁ucuslar": 1774,
      "▁uz": 1775,
      "##w": 1776,
      "##ri": 1777,
      "▁tat": 1778,
      "##gin": 1779,
      "▁cocuklar": 1780,
      "##geleri": 1781,
      "b": 1782,
      "##likle": 1783,
      "▁sırada": 1784,
      "▁polis": 1785,
      "▁seh": 1786,
      "▁car": 1787,
      "▁yasında": 1788,
      "##inci": 1789,
      "▁buy": 1790,
      "##emin": 1791,
      "▁lak": 1792,
      "##apon": 1793,
      "▁yana": 1794,
      "##mıs": 1795,
      "##inden": 1796,
      "▁kısa": 1797,
      "##f": 1798,
      "##igini": 1799,
      "▁oc": 1800,
      "▁zorunda": 1801,
      "▁ekmek": 1802,
      "##lıga": 1803,
      "##ber": 1804,
      "▁reform": 1805,
      "▁piyasası": 1806,
      "▁anlamına": 1807,
      "##aca": 1808,
      "▁ayrıca": 1809,
      "▁fab": 1810,
      "—": 1811,
      "▁hayatın": 1812,
      "##esti": 1813,
      "##pr": 1814,
      "##imen": 1815,
      "▁ilgilen": 1816,
      "▁arastır": 1817,
      "##ad": 1818,
      "▁ac": 1819,
      "▁lezzeti": 1820,
      "▁yonetim": 1821,
      "▁isin": 1822,
      "▁dis": 1823,
      "▁tekl": 1824,
      "##eral": 1825,
      "▁kalkan": 1826,
      "▁top": 1827,
      "▁devlet": 1828,
      "▁.": 1829,
      "##iklik": 1830,
      "##yas": 1831,
      "##tin": 1832,
      "▁yerden": 1833,
      "##ivers": 1834,
      "▁benim": 1835,
      "▁yemekler": 1836,
      "▁ho": 1837,
      "▁birlik": 1838,
      "▁sandal": 1839,
      "▁kosul": 1840,
      "▁dair": 1841,
      "▁ardı": 1842,
      "▁arası": 1843,
      "##asır": 1844,
      "##yon": 1845,
      "##'na": 1846,
      "▁malz": 1847,
      "▁sekilde": 1848,
      "▁akıl": 1849,
      "▁otel": 1850,
      "▁getir": 1851,
      "▁begendim": 1852,
      "▁basarı": 1853,
      "▁aktiv": 1854,
      "▁dakik": 1855,
      "##sel": 1856,
      "##ist": 1857,
      "##oj": 1858,
      "##man": 1859,
      "▁temin": 1860,
      "##den": 1861,
      "▁sadece": 1862,
      "▁olustur": 1863,
      "▁havada": 1864,
      "▁biraz": 1865,
      "▁dans": 1866,
      "##liyor": 1867,
      "##alan": 1868,
      "▁sel": 1869,
      "##.": 1870,
      "##lek": 1871,
      "##etti": 1872,
      "▁yazı": 1873,
      "##alarda": 1874,
      "▁gosterin": 1875,
      "▁elektrik": 1876,
      "▁yemekleri": 1877,
      "▁musteri": 1878,
      "▁istih": 1879,
      "▁zamanı": 1880,
      "▁icinde": 1881,
      "▁sup": 1882,
      "##ola": 1883,
      "▁piyasaya": 1884,
      "▁kara": 1885,
      "▁payı": 1886,
      "▁evine": 1887,
      "##bet": 1888,
      "▁ham": 1889,
      "▁komp": 1890,
      "▁herh": 1891,
      "▁sırt": 1892,
      "##ite": 1893,
      "▁din": 1894,
      "▁model": 1895,
      "▁tutun": 1896,
      "▁dusunc": 1897,
      "▁bors": 1898,
      "##ata": 1899,
      "##det": 1900,
      "▁alay": 1901,
      "▁icerisinde": 1902,
      "▁silah": 1903,
      "##meye": 1904,
      "▁dede": 1905,
      "▁havalim": 1906,
      "##idi": 1907,
      "▁veya": 1908,
      "▁kimsenin": 1909,
      "##tır": 1910,
      "▁soh": 1911,
      "▁prof": 1912,
      "##mamıs": 1913,
      "▁ucuslarının": 1914,
      "##is": 1915,
      "▁ede": 1916,
      "▁dum": 1917,
      "##alar": 1918,
      "##lastı": 1919,
      "▁ogr": 1920,
      "##uktu": 1921,
      "▁ik": 1922,
      "▁adım": 1923,
      "##lıg": 1924,
      "##as": 1925,
      "##sızlık": 1926,
      "▁stok": 1927,
      "▁cumle": 1928,
      "▁istek": 1929,
      "▁zaman": 1930,
      "▁kup": 1931,
      "##ere": 1932,
      "##kt": 1933,
      "▁duv": 1934,
      "▁eve": 1935,
      "▁dakika": 1936,
      "▁uretim": 1937,
      "▁san": 1938,
      "▁etk": 1939,
      "w": 1940,
      "▁kardes": 1941,
      "▁sını": 1942,
      "▁lira": 1943,
      "▁iste": 1944,
      "##astır": 1945,
      "##v": 1946,
      "▁inan": 1947,
      "##ci": 1948,
      "▁pir": 1949,
      "▁dunyaya": 1950,
      "▁aktivite": 1951,
      "▁parti": 1952,
      "##alt": 1953,
      "▁dukk": 1954,
      "##lerle": 1955,
      "##madik": 1956,
      "▁dur": 1957,
      "▁karayolu": 1958,
      "##atın": 1959,
      "##yası": 1960,
      "▁ziyaret": 1961,
      "##siz": 1962,
      "▁yemegi": 1963,
      "▁gelir": 1964,
      "##ih": 1965,
      "##iligi": 1966,
      "##ıyla": 1967,
      "▁ha": 1968,
      "▁yaln": 1969,
      "▁gozler": 1970,
      "##ısının": 1971,
      "▁cap": 1972,
      "##gan": 1973,
      "▁dusman": 1974,
      "▁taz": 1975,
      "##sun": 1976,
      "▁misafir": 1977,
      "##lıkta": 1978,
      "▁genelde": 1979,
      "▁etraf": 1980,
      "▁cicek": 1981,
      "##afet": 1982,
      "▁sahibi": 1983,
      "▁``": 1984,
      "▁dusur": 1985,
      "▁istif": 1986,
      "▁belki": 1987,
      "▁animasyon": 1988,
      "▁sistem": 1989,
      "▁kitap": 1990,
      "▁hissed": 1991,
      "▁diyor": 1992,
      "##layan": 1993,
      "▁degis": 1994,
      "▁k": 1995,
      "##onu": 1996,
      "##abilir": 1997,
      "▁yaklas": 1998,
      "▁aracı": 1999,
      "▁aksama": 2000,
      "▁personeli": 2001,
      "▁satısları": 2002,
      "▁ortalama": 2003,
      "▁hayvan": 2004,
      "##ork": 2005,
      "▁altın": 2006,
      "▁denizi": 2007,
      "▁ederim": 2008,
      "[PAD]": 2009,
      "▁piyasa": 2010,
      "▁secim": 2011,
      "▁ed": 2012,
      "▁oyunu": 2013,
      "##ston": 2014,
      "▁efendi": 2015,
      "▁aklı": 2016,
      "▁ingil": 2017,
      "▁tasar": 2018,
      "##go": 2019,
      "▁azal": 2020,
      "▁yanıt": 2021,
      "▁cog": 2022,
      "c": 2023,
      "▁yolcu": 2024,
      "▁ogleden": 2025,
      "▁yılı": 2026,
      "##ugun": 2027,
      "▁endise": 2028,
      "▁bayram": 2029,
      "##indan": 2030,
      "##tur": 2031,
      "▁ayrı": 2032,
      "▁eskiydi": 2033,
      "##tigi": 2034,
      "##til": 2035,
      "▁cel": 2036,
      "▁dug": 2037,
      "##ılıg": 2038,
      "▁araz": 2039,
      "▁hele": 2040,
      "▁ilav": 2041,
      "▁sak": 2042,
      "##lıgın": 2043,
      "▁gunleri": 2044,
      "##d": 2045,
      "▁elini": 2046,
      "##sak": 2047,
      "▁mevcut": 2048,
      "▁bildir": 2049,
      "▁satıs": 2050,
      "▁hap": 2051,
      "▁alacak": 2052,
      "##ımız": 2053,
      "▁alt": 2054,
      "##ele": 2055,
      "▁kenar": 2056,
      "▁gorusme": 2057,
      "▁belir": 2058,
      "##kun": 2059,
      "##ilim": 2060,
      "##acılık": 2061,
      "▁mun": 2062,
      "▁hapis": 2063,
      "##aki": 2064,
      "▁yoksa": 2065,
      "▁tac": 2066,
      "▁seb": 2067,
      "▁sinem": 2068,
      "###": 2069,
      "▁deg": 2070,
      "▁faturam": 2071,
      "##rar": 2072,
      "##'": 2073,
      "▁dah": 2074,
      "▁yemeklerden": 2075,
      "▁ise": 2076,
      "▁ulasımı": 2077,
      "▁kral": 2078,
      "##>": 2079,
      "##ta": 2080,
      "▁neler": 2081,
      "▁rek": 2082,
      "##izasyon": 2083,
      "##edav": 2084,
      "▁yatırımcılar": 2085,
      "##3": 2086,
      "▁diger": 2087,
      "▁tas": 2088,
      "▁gul": 2089,
      "##masına": 2090,
      "▁$'dan": 2091,
      "▁cumhuriyet": 2092,
      "##dik": 2093,
      "▁rahat": 2094,
      "##amak": 2095,
      "▁hazine": 2096,
      "▁pant": 2097,
      "▁res": 2098,
      "▁gider": 2099,
      "▁fayda": 2100,
      "▁yıl": 2101,
      "▁esya": 2102,
      "▁defa": 2103,
      "▁aktarmasız": 2104,
      "▁kafa": 2105,
      "##inde": 2106,
      "##erken": 2107,
      "▁cic": 2108,
      "▁lezzetleri": 2109,
      "▁baktı": 2110,
      "▁ula": 2111,
      "▁ozel": 2112,
      "▁acıl": 2113,
      "▁pek": 2114,
      ".": 2115,
      "▁yatırım": 2116,
      "##aj": 2117,
      "▁gorun": 2118,
      "##par": 2119,
      "##ob": 2120,
      "▁cocugu": 2121,
      "▁karak": 2122,
      "▁7": 2123,
      "▁kalab": 2124,
      "▁havaalanından": 2125,
      "▁siyaset": 2126,
      "##asa": 2127,
      "##sam": 2128,
      "0": 2129,
      "▁gu": 2130,
      "##maktan": 2131,
      "##kil": 2132,
      "##mus": 2133,
      "##dır": 2134,
      "▁gordu": 2135,
      "▁nam": 2136,
      "▁sayf": 2137,
      "▁hukumeti": 2138,
      "##masız": 2139,
      "▁yerine": 2140,
      "▁otur": 2141,
      "▁kaldim": 2142,
      "##alı": 2143,
      "▁kucuk": 2144,
      "▁satın": 2145,
      "▁olabilir": 2146,
      "▁mo": 2147,
      "▁muhend": 2148,
      "##u": 2149,
      "▁c": 2150,
      "▁yapmayı": 2151,
      "▁dudak": 2152,
      "##ınc": 2153,
      "▁naz": 2154,
      "▁odaya": 2155,
      "▁penc": 2156,
      "▁isler": 2157,
      "▁tavuk": 2158,
      "▁endek": 2159,
      "▁tak": 2160,
      "▁ogrenmek": 2161,
      "▁''": 2162,
      "▁alıs": 2163,
      "▁tec": 2164,
      "##ırım": 2165,
      "▁zamanlarda": 2166,
      "▁tabak": 2167,
      "▁erk": 2168,
      "▁ucusları": 2169,
      "##ısır": 2170,
      "##ington": 2171,
      "##menin": 2172,
      "▁ekl": 2173,
      "▁kazanc": 2174,
      "##ince": 2175,
      "▁acı": 2176,
      "▁kayıt": 2177,
      "▁pittsburgh": 2178,
      "##tu": 2179,
      "▁havayolları": 2180,
      "▁mek": 2181,
      "▁koc": 2182,
      "▁ticarette": 2183,
      "▁dallas": 2184,
      "##kal": 2185,
      "##su": 2186,
      "##ul": 2187,
      "▁sab": 2188,
      "##agından": 2189,
      "▁kaldı": 2190,
      "##atı": 2191,
      "▁demokr": 2192,
      "##'e": 2193,
      "▁ekm": 2194,
      "##lerimiz": 2195,
      "##arlar": 2196,
      "▁cumhur": 2197,
      "l": 2198,
      "▁mill": 2199,
      "▁par": 2200,
      "▁temiz": 2201,
      "##dıgı": 2202,
      "##esiyle": 2203,
      "▁mesaj": 2204,
      "▁bes": 2205,
      "▁dag": 2206,
      "##siniz": 2207,
      "▁darb": 2208,
      "▁ikinci": 2209,
      "▁tum": 2210,
      "##ıgına": 2211,
      "▁kelim": 2212,
      "▁basv": 2213,
      "##kul": 2214,
      "▁huc": 2215,
      "##onom": 2216,
      "##alım": 2217,
      "▁vadeli": 2218,
      "▁iki": 2219,
      "▁ogret": 2220,
      "▁gecti": 2221,
      "▁rol": 2222,
      "##lantı": 2223,
      "##asyonu": 2224,
      "▁herk": 2225,
      "##ilig": 2226,
      "▁mimar": 2227,
      "▁gir": 2228,
      "▁havayol": 2229,
      "▁sıkıntı": 2230,
      "▁tab": 2231,
      "▁ekonom": 2232,
      "##alardan": 2233,
      "##amam": 2234,
      "##q": 2235,
      "▁tartısma": 2236,
      "▁sal": 2237,
      "##'a": 2238,
      "##arlan": 2239,
      "##ah": 2240,
      "##ogram": 2241,
      "##mal": 2242,
      "▁hız": 2243,
      "▁cal": 2244,
      "##siye": 2245,
      "▁anlay": 2246,
      "▁mar": 2247,
      "▁francisco'ya": 2248,
      "▁m": 2249,
      "▁haric": 2250,
      "▁goz": 2251,
      "##inda": 2252,
      "‘": 2253,
      "▁new": 2254,
      "▁lam": 2255,
      "▁carsaf": 2256,
      "▁bayan": 2257,
      "##bah": 2258,
      "##ındaki": 2259,
      "##ydi": 2260,
      "##​": 2261,
      "##uslar": 2262,
      "▁bulun": 2263,
      "▁hicbir": 2264,
      "▁mem": 2265,
      "▁edebiyat": 2266,
      "▁sif": 2267,
      "##ekli": 2268,
      "▁duvar": 2269,
      "▁masa": 2270,
      "##erleri": 2271,
      "▁belediye": 2272,
      "▁altında": 2273,
      "▁dalg": 2274,
      "▁anla": 2275,
      "▁us": 2276,
      "##”": 2277,
      "▁tenc": 2278,
      "▁eder": 2279,
      "▁yarıs": 2280,
      "##me": 2281,
      "▁saatlerinde": 2282,
      "▁soyley": 2283,
      "▁personelin": 2284,
      "▁kok": 2285,
      "##acagını": 2286,
      "▁uretimi": 2287,
      "▁guc": 2288,
      "##gar": 2289,
      "▁bur": 2290,
      "▁cad": 2291,
      "▁ihtiyacı": 2292,
      "▁potansiy": 2293,
      "▁cık": 2294,
      "▁gecir": 2295,
      "▁boz": 2296,
      "▁oyle": 2297,
      "▁baskanı": 2298,
      "▁bor": 2299,
      "▁bina": 2300,
      "▁ih": 2301,
      "##dı": 2302,
      "##ans": 2303,
      "▁mesel": 2304,
      "▁cıg": 2305,
      "▁alanda": 2306,
      "▁sabahı": 2307,
      "▁basladı": 2308,
      "##uyor": 2309,
      "▁derece": 2310,
      "##atik": 2311,
      "▁butun": 2312,
      "▁kelime": 2313,
      "▁numara": 2314,
      "▁yorum": 2315,
      "▁oda": 2316,
      "▁bin": 2317,
      "▁direk": 2318,
      "##agının": 2319,
      "##ram": 2320,
      "▁orn": 2321,
      "▁vad": 2322,
      "▁/": 2323,
      "##ib": 2324,
      "##ili": 2325,
      "▁toplan": 2326,
      "▁gunlerde": 2327,
      "▁?..": 2328,
      "▁salon": 2329,
      "▁la": 2330,
      "##erlik": 2331,
      "▁ser": 2332,
      "▁daha": 2333,
      "▁tuz": 2334,
      "▁bogaz": 2335,
      "▁yaprak": 2336,
      "▁degisiklik": 2337,
      "##'nda": 2338,
      "##nak": 2339,
      "##rak": 2340,
      "▁arkad": 2341,
      "▁kav": 2342,
      "▁fel": 2343,
      "##evi": 2344,
      "▁fen": 2345,
      "##yalar": 2346,
      "##imore": 2347,
      "▁bugune": 2348,
      "##dek": 2349,
      "▁sıra": 2350,
      "▁fabr": 2351,
      "##enek": 2352,
      "▁yatırımcıların": 2353,
      "##ra": 2354,
      "▁danıs": 2355,
      "##gi": 2356,
      "▁gorev": 2357,
      "▁hik": 2358,
      "▁tezgah": 2359,
      "▁git": 2360,
      "##cısı": 2361,
      "##0'dan": 2362,
      "▁tay": 2363,
      "=": 2364,
      "▁sul": 2365,
      "▁tarafından": 2366,
      "▁delik": 2367,
      "▁kuz": 2368,
      "▁baltimore": 2369,
      "▁hanimdi": 2370,
      "▁ailesi": 2371,
      "▁evi": 2372,
      "▁yolunu": 2373,
      "▁politika": 2374,
      "##lanıyor": 2375,
      "##ten": 2376,
      "##ası": 2377,
      "…": 2378,
      "▁cem": 2379,
      "▁ayakta": 2380,
      "▁bahs": 2381,
      "##iyordu": 2382,
      "▁burada": 2383,
      "▁hanım": 2384,
      "▁ilgi": 2385,
      "▁ayrıl": 2386,
      "##lıyor": 2387,
      "##n": 2388,
      "▁op": 2389,
      "##iler": 2390,
      "▁nelerdir": 2391,
      "##aset": 2392,
      "▁ad": 2393,
      "▁gosteri": 2394,
      "▁basbakan": 2395,
      "▁cocuk": 2396,
      "▁babası": 2397,
      "##ern": 2398,
      "▁cocuklu": 2399,
      "▁ucreti": 2400,
      "▁univers": 2401,
      "▁tucc": 2402,
      "▁art": 2403,
      "▁istiyorum": 2404,
      "▁ardından": 2405,
      "##ecegine": 2406,
      "##iyat": 2407,
      "##mustur": 2408,
      "▁ciz": 2409,
      "▁sayg": 2410,
      "▁pu": 2411,
      "▁yaptı": 2412,
      "▁4": 2413,
      "##ult": 2414,
      "##o": 2415,
      "##larından": 2416,
      "▁kov": 2417,
      "▁hes": 2418,
      "▁analiz": 2419,
      "▁merkeze": 2420,
      "▁bana": 2421,
      "##af": 2422,
      "##erin": 2423,
      "##isti": 2424,
      "##unda": 2425,
      "▁verim": 2426,
      "▁fatur": 2427,
      "##ev": 2428,
      "▁gaz": 2429,
      "▁kos": 2430,
      "##ıma": 2431,
      "▁yiyecek": 2432,
      "▁bırak": 2433,
      "▁asagıda": 2434,
      "▁sor": 2435,
      "▁birligi": 2436,
      "▁ir": 2437,
      "▁sayıda": 2438,
      "▁dem": 2439,
      "▁koylu": 2440,
      "##larında": 2441,
      "▁ogren": 2442,
      "##lıkla": 2443,
      "!": 2444,
      "▁endis": 2445,
      "▁sehr": 2446,
      "▁delikan": 2447,
      "▁kıl": 2448,
      "##imdi": 2449,
      "▁pr": 2450,
      "▁durus": 2451,
      "##ban": 2452,
      "▁calıs": 2453,
      "2": 2454,
      "▁olsun": 2455,
      "▁eylem": 2456,
      "##cıların": 2457,
      "▁gercekl": 2458,
      "▁ulas": 2459,
      "▁konus": 2460,
      "▁gozden": 2461,
      "▁geldi": 2462,
      "##luk": 2463,
      "▁doları": 2464,
      "▁ig": 2465,
      "▁vade": 2466,
      "##taj": 2467,
      "▁olması": 2468,
      "▁kalit": 2469,
      "▁temizlik": 2470,
      "##ari": 2471,
      "▁uzerinden": 2472,
      "▁yerler": 2473,
      "##uzlu": 2474,
      "▁sorunun": 2475,
      "##hane": 2476,
      "##ran": 2477,
      "##he": 2478,
      "▁cer": 2479,
      "▁adamın": 2480,
      "▁esy": 2481,
      "▁guleryuzlu": 2482,
      "▁ceyrekte": 2483,
      "▁sis": 2484,
      "▁genis": 2485,
      "▁dom": 2486,
      "##lasyon": 2487,
      "▁hamam": 2488,
      "▁kurtaj": 2489,
      "▁kr": 2490,
      "▁misafirimiz": 2491,
      "##amız": 2492,
      "▁hayır": 2493,
      "▁mev": 2494,
      "▁bil": 2495,
      "▁dolar": 2496,
      "▁men": 2497,
      "▁pos": 2498,
      "##tıg": 2499,
      "##iyet": 2500,
      "▁gozleri": 2501,
      "▁sıkınt": 2502,
      "▁bıraktı": 2503,
      "▁idare": 2504,
      "##uluyor": 2505,
      "▁kahvalti": 2506,
      "▁tamir": 2507,
      "▁mevzu": 2508,
      "▁kim": 2509,
      "##lamak": 2510,
      "▁cıkar": 2511,
      "▁…": 2512,
      "▁derecede": 2513,
      "▁imkan": 2514,
      "##9": 2515,
      "##a": 2516,
      "▁bag": 2517,
      "##lari": 2518,
      "▁gom": 2519,
      "##layacak": 2520,
      "▁yılının": 2521,
      "▁laf": 2522,
      "##pan": 2523,
      "▁konf": 2524,
      "▁kopek": 2525,
      "▁tam": 2526,
      "▁mak": 2527,
      "▁degerlendir": 2528,
      "▁sik": 2529,
      "##(": 2530,
      "\\": 2531,
      "##cak": 2532,
      "▁patlıc": 2533,
      "▁saf": 2534,
      "▁sok": 2535,
      "##digi": 2536,
      "▁tan": 2537,
      "##inize": 2538,
      "##makt": 2539,
      "▁imkanlar": 2540,
      "▁kor": 2541,
      "##esine": 2542,
      "##lıgını": 2543,
      "▁anay": 2544,
      "'": 2545,
      "##bir": 2546,
      "▁eylul": 2547,
      "▁devralma": 2548,
      "▁dib": 2549,
      "▁tahta": 2550,
      "▁kapas": 2551,
      "▁konumu": 2552,
      "▁pantol": 2553,
      "##lıgında": 2554,
      "▁buyume": 2555,
      "##al": 2556,
      "##stı": 2557,
      "▁mevz": 2558,
      "##an": 2559,
      "▁basın": 2560,
      "▁ustune": 2561,
      "▁mevdu": 2562,
      "▁hizmetten": 2563,
      "▁boyle": 2564,
      "▁bog": 2565,
      "##iz": 2566,
      "▁kahve": 2567,
      "▁cesitleri": 2568,
      "▁seklinde": 2569,
      "▁sirketin": 2570,
      "▁kalk": 2571,
      "##evizyon": 2572,
      "#": 2573,
      "##tal": 2574,
      "▁sozu": 2575,
      "▁=": 2576,
      "▁yerde": 2577,
      "▁durumda": 2578,
      "▁kil": 2579,
      "##sız": 2580,
      "▁seye": 2581,
      "##'ın": 2582,
      "▁haft": 2583,
      "▁sozcusu": 2584,
      "##les": 2585,
      "##dum": 2586,
      "##00'": 2587,
      "▁5'ten": 2588,
      "##ger": 2589,
      "##lk": 2590,
      "##eda": 2591,
      "##alarla": 2592,
      "▁istifa": 2593,
      "▁cin": 2594,
      ":": 2595,
      "##aları": 2596,
      "##tıgını": 2597,
      "##ol": 2598,
      "▁francisco": 2599,
      "▁itiraz": 2600,
      "▁domates": 2601,
      "##uydu": 2602,
      "##tansiy": 2603,
      "▁bile": 2604,
      "▁bilgis": 2605,
      "▁anlama": 2606,
      "▁akt": 2607,
      "##ımda": 2608,
      "▁nes": 2609,
      "▁siir": 2610,
      "▁sayı": 2611,
      "▁pitts": 2612,
      "##gunluk": 2613,
      "##luga": 2614,
      "##anma": 2615,
      "▁beklenti": 2616,
      "▁soyledi": 2617,
      "##um": 2618,
      "##z": 2619,
      "▁dilim": 2620,
      "##di": 2621,
      "##larda": 2622,
      "▁ek": 2623,
      "▁kısıt": 2624,
      "##mı": 2625,
      "▁ger": 2626,
      "▁restor": 2627,
      "▁fikr": 2628,
      "##—": 2629,
      "##masının": 2630,
      "▁potansiyel": 2631,
      "##ligini": 2632,
      "▁amc": 2633,
      "▁islerini": 2634,
      "##ıyorum": 2635,
      "▁ton": 2636,
      "##en": 2637,
      "▁egit": 2638,
      "##misti": 2639,
      "▁kı": 2640,
      "▁ilan": 2641,
      "▁alma": 2642,
      "##ate": 2643,
      "▁toh": 2644,
      "▁ortal": 2645,
      "▁kayn": 2646,
      "▁elb": 2647,
      "▁bo": 2648,
      "▁etti": 2649,
      "##lıktan": 2650,
      "▁*": 2651,
      "▁ucus": 2652,
      "##ini": 2653,
      "▁alın": 2654,
      "▁devletin": 2655,
      "##ıla": 2656,
      "##ugu": 2657,
      "▁ana": 2658,
      "▁donus": 2659,
      "▁yılında": 2660,
      "▁bask": 2661,
      "▁acıklam": 2662,
      "▁demir": 2663,
      "▁un": 2664,
      "##ne": 2665,
      "##'den": 2666,
      "##ın": 2667,
      "##phia": 2668,
      "▁!..": 2669,
      "##elik": 2670,
      "▁yani": 2671,
      "##ekler": 2672,
      "##ıda": 2673,
      "▁hab": 2674,
      "▁mektu": 2675,
      "▁iflas": 2676,
      "##ayacagını": 2677,
      "▁19": 2678,
      "##urlu": 2679,
      "▁diy": 2680,
      "▁halinde": 2681,
      "##izm": 2682,
      "##larını": 2683,
      "##ileri": 2684,
      "##eden": 2685,
      "##ımızın": 2686,
      "##lac": 2687,
      "▁kade": 2688,
      "##medi": 2689,
      "##ılıyor": 2690,
      "##ey": 2691,
      "##tan": 2692,
      "##–": 2693,
      "▁evin": 2694,
      "##andan": 2695,
      "##lo": 2696,
      "▁kucuktu": 2697,
      "▁suc": 2698,
      "##ustos": 2699,
      "▁var": 2700,
      "▁tarz": 2701,
      "▁bank": 2702,
      "▁alak": 2703,
      "##iyeti": 2704,
      "▁hur": 2705,
      "##sın": 2706,
      "▁kir": 2707,
      "▁ayr": 2708,
      "##lere": 2709,
      "▁yor": 2710,
      "▁kaynak": 2711,
      "##'nin": 2712,
      "##ess": 2713,
      "▁9": 2714,
      "▁isim": 2715,
      "▁yiy": 2716,
      "▁send": 2717,
      "▁terk": 2718,
      "▁enerji": 2719,
      "##lam": 2720,
      "##onel": 2721,
      "▁seyleri": 2722,
      "▁fak": 2723,
      "▁tesekkur": 2724,
      "##ucc": 2725,
      "##digim": 2726,
      "▁miktar": 2727,
      "▁vaz": 2728,
      "▁kol": 2729,
      "▁cunku": 2730,
      "▁rad": 2731,
      "▁mikr": 2732,
      "##ent": 2733,
      "▁bul": 2734,
      "▁tarif": 2735,
      "##isleri": 2736,
      "##ucu": 2737,
      "▁gunduz": 2738,
      "▁oyunc": 2739,
      "##sik": 2740,
      "▁girdi": 2741,
      "##askanı": 2742,
      "▁bilgi": 2743,
      "##san": 2744,
      "▁zincir": 2745,
      "##raf": 2746,
      "▁sayısı": 2747,
      "▁bulundu": 2748,
      "▁arasında": 2749,
      "▁eser": 2750,
      "▁hizmeti": 2751,
      "▁biz": 2752,
      "▁doviz": 2753,
      "▁grubu": 2754,
      "▁ar": 2755,
      "▁yurt": 2756,
      "v": 2757,
      "##mem": 2758,
      "▁kokusu": 2759,
      "▁listele": 2760,
      "▁iler": 2761,
      "▁varlık": 2762,
      "##nun": 2763,
      "##°": 2764,
      "▁sonuna": 2765,
      "##/": 2766,
      "▁acısından": 2767,
      "▁tahmin": 2768,
      "▁dest": 2769,
      "▁odeme": 2770,
      "▁uret": 2771,
      "▁nit": 2772,
      "##eh": 2773,
      "▁adamları": 2774,
      "▁ustunde": 2775,
      "▁kamu": 2776,
      "▁i": 2777,
      "▁fikir": 2778,
      "▁man": 2779,
      "▁lis": 2780,
      "▁olmalı": 2781,
      "##'nun": 2782,
      "##'da": 2783,
      "▁boston'dan": 2784,
      "▁adam": 2785,
      "▁bilim": 2786,
      "▁degisiklikler": 2787,
      "▁yas": 2788,
      "▁dig": 2789,
      "▁yag": 2790,
      "▁haline": 2791,
      "▁get": 2792,
      "▁prob": 2793,
      "▁temmuz": 2794,
      "▁ipotek": 2795,
      "▁adina": 2796,
      "##cilik": 2797,
      "▁kurt": 2798,
      "▁kurulu": 2799,
      "▁olacagını": 2800,
      "##alık": 2801,
      "##lak": 2802,
      "##ayol": 2803,
      "▁3": 2804,
      "\"": 2805,
      "▁bicimde": 2806,
      "▁emeklilik": 2807,
      "##amı": 2808,
      "▁parasını": 2809,
      "##yo": 2810,
      "▁sordu": 2811,
      "▁senet": 2812,
      "▁incel": 2813,
      "##aliydi": 2814,
      "▁kampanyalardan": 2815,
      "▁sendika": 2816,
      "▁kop": 2817,
      "##lemeye": 2818,
      "##bu": 2819,
      "▁gidi": 2820,
      "’": 2821,
      "▁ilet": 2822,
      "##eydi": 2823,
      "▁kasıgı": 2824,
      "##emli": 2825,
      "##kat": 2826,
      "##dık": 2827,
      "▁yazar": 2828,
      "##anlar": 2829,
      "##tir": 2830,
      "▁dahil": 2831,
      "▁kontr": 2832,
      "▁strate": 2833,
      "▁evden": 2834,
      "▁den": 2835,
      "##ep": 2836,
      "▁gunes": 2837,
      "##iyorum": 2838,
      "##ıt": 2839,
      "▁nokta": 2840,
      "##ıf": 2841,
      "▁kuy": 2842,
      "▁temel": 2843,
      "▁savas": 2844,
      "▁devam": 2845,
      "##ıcak": 2846,
      "▁dizi": 2847,
      "▁yılda": 2848,
      "▁baz": 2849,
      "▁anlat": 2850,
      "▁organ": 2851,
      "##liginin": 2852,
      "##amaları": 2853,
      "▁ib": 2854,
      "▁gunun": 2855,
      "▁ayında": 2856,
      "##ak": 2857,
      "##mi": 2858,
      "▁pencer": 2859,
      "##imin": 2860,
      "##lerdi": 2861,
      "▁mahkemesi": 2862,
      "▁sın": 2863,
      "▁mim": 2864,
      "▁az": 2865,
      "▁suyu": 2866,
      "##urt": 2867,
      "▁fiyata": 2868,
      "▁tar": 2869,
      "##diginde": 2870,
      "▁ord": 2871,
      "▁oyku": 2872,
      "▁rakamlar": 2873,
      "▁geliri": 2874,
      "▁avuc": 2875,
      "▁abd": 2876,
      "##lıc": 2877,
      "▁meslek": 2878,
      "▁uzak": 2879,
      "▁hakkı": 2880,
      "▁gunden": 2881,
      "##cisi": 2882,
      "▁pit": 2883,
      "▁lir": 2884,
      "▁alk": 2885,
      "▁islemlerinde": 2886,
      "##imizin": 2887,
      "▁annemin": 2888,
      "▁ka": 2889,
      "▁birkac": 2890,
      "q": 2891,
      "▁iyiydi": 2892,
      "##sizdi": 2893,
      "▁gob": 2894,
      "▁ucmak": 2895,
      "##lestir": 2896,
      "##alarını": 2897,
      "▁mey": 2898,
      "##landı": 2899,
      "▁cev": 2900,
      "##h": 2901,
      "▁ediyorum": 2902,
      "▁barıs": 2903,
      "▁alısver": 2904,
      "##za": 2905,
      "##len": 2906,
      "##elen": 2907,
      "▁her": 2908,
      "##ısını": 2909,
      "▁edecek": 2910,
      "##cı": 2911,
      "▁teknoloj": 2912,
      "##ara": 2913,
      "##dıg": 2914,
      "##asında": 2915,
      "▁bebek": 2916,
      "▁hayata": 2917,
      "▁form": 2918,
      "▁ters": 2919,
      "##uyorlar": 2920,
      "##dig": 2921,
      "▁cok": 2922,
      "▁nef": 2923,
      "##&": 2924,
      "▁veri": 2925,
      "▁plani": 2926,
      "▁parcası": 2927,
      "▁yapıyor": 2928,
      "▁ren": 2929,
      "##anın": 2930,
      "▁fotograf": 2931,
      "▁icra": 2932,
      "##hur": 2933,
      "##ıgı": 2934,
      "▁mahkeme": 2935,
      "▁tesp": 2936,
      "▁bic": 2937,
      "▁$'a": 2938,
      "▁met": 2939,
      "▁gerekiyor": 2940,
      "▁sarkı": 2941,
      "▁giris": 2942,
      "▁sehrin": 2943,
      "##igi": 2944,
      "▁kalb": 2945,
      "▁muhaf": 2946,
      "##arın": 2947,
      "▁olursa": 2948,
      "##:": 2949,
      "▁animasyonlar": 2950,
      "##eni": 2951,
      "##asının": 2952,
      "▁resim": 2953,
      "▁bay": 2954,
      "▁seyden": 2955,
      "▁ortak": 2956,
      "▁ediyordu": 2957,
      "##ir": 2958,
      "##em": 2959,
      "##rne": 2960,
      "▁bugun": 2961,
      "▁ener": 2962,
      "▁yoktu": 2963,
      "▁ola": 2964,
      "##ask": 2965,
      "▁cizgi": 2966,
      "▁gonl": 2967,
      "▁ettigini": 2968,
      "##'n": 2969,
      "▁civ": 2970,
      "▁ihrac": 2971,
      "▁ankete": 2972,
      "▁;": 2973,
      "▁aksamı": 2974,
      "▁borsa": 2975,
      "▁temizligi": 2976,
      "▁erkek": 2977,
      "▁burn": 2978,
      "▁barda": 2979,
      "▁pers": 2980,
      "▁merkezine": 2981,
      "▁isaret": 2982,
      "##r": 2983,
      "##0": 2984,
      "▁yanına": 2985,
      "▁plan": 2986,
      "▁“": 2987,
      "▁havayollarının": 2988,
      "##isindan": 2989,
      "▁arkasından": 2990,
      "▁bileti": 2991,
      "▁mut": 2992,
      "▁basta": 2993,
      "##nam": 2994,
      "▁polit": 2995,
      "▁hisseye": 2996,
      "##ind": 2997,
      "##imizi": 2998,
      "##lılık": 2999,
      "▁dortluk": 3000,
      "▁tad": 3001,
      "▁iceri": 3002,
      "##inti": 3003,
      "▁olm": 3004,
      "▁yardımcısı": 3005,
      "##ekkur": 3006,
      "▁numar": 3007,
      "▁politik": 3008,
      "##eder": 3009,
      "##imizde": 3010,
      "▁cogu": 3011,
      "##eleri": 3012,
      "▁ihal": 3013,
      "##udu": 3014,
      "▁ulke": 3015,
      "▁emek": 3016,
      "▁buz": 3017,
      "▁arastırma": 3018,
      "▁mola": 3019,
      "##'de": 3020,
      "▁bakıs": 3021,
      "▁sonucu": 3022,
      "##kah": 3023,
      "▁piyan": 3024,
      "##enlerin": 3025,
      "▁sermaye": 3026,
      "▁pilot": 3027,
      "▁mag": 3028,
      "▁p": 3029,
      "▁rekor": 3030,
      "▁tesekkurler": 3031,
      "▁sans": 3032,
      "##ısında": 3033,
      "▁corba": 3034,
      "##ki": 3035,
      "##sef": 3036,
      "▁yuzme": 3037,
      "##umuzde": 3038,
      "##etim": 3039,
      "▁unut": 3040,
      "▁yon": 3041,
      "▁beyin": 3042,
      "▁inc": 3043,
      "▁olarak": 3044,
      "▁yonetici": 3045,
      "##ver": 3046,
      "▁hasar": 3047,
      "▁uygulama": 3048,
      "▁merkez": 3049,
      "▁kadının": 3050,
      "▁fiyat": 3051,
      "▁dal": 3052,
      "▁oy": 3053,
      "▁yeter": 3054,
      "▁tavır": 3055,
      "##iden": 3056,
      "▁cercev": 3057,
      "▁paz": 3058,
      "▁yemeklerin": 3059,
      "##ab": 3060,
      "##madim": 3061,
      "▁anda": 3062,
      "##ınız": 3063,
      "##im": 3064,
      "##ırt": 3065,
      "▁ber": 3066,
      "▁yeniden": 3067,
      "##elere": 3068,
      "##iyi": 3069,
      "▁cevap": 3070,
      "▁dolarlık": 3071,
      "##azla": 3072,
      "▁yanl": 3073,
      "▁mil": 3074,
      "##agında": 3075,
      "##ısı": 3076,
      "▁olanak": 3077,
      "▁makine": 3078,
      "▁hakk": 3079,
      "▁odun": 3080,
      "ı": 3081,
      "▁onay": 3082,
      "▁hareket": 3083,
      "▁gel": 3084,
      "##ecegini": 3085,
      "▁yen": 3086,
      "##tigini": 3087,
      "##burgh": 3088,
      "##eger": 3089,
      "▁boyn": 3090,
      "##'ten": 3091,
      "▁ayn": 3092,
      "▁annem": 3093,
      "##ında": 3094,
      "▁oldugunu": 3095,
      "▁deprem": 3096,
      "▁begen": 3097,
      "##uler": 3098,
      "##bul": 3099,
      "▁kısmı": 3100,
      "##ac": 3101,
      "▁mudur": 3102,
      "##0'da": 3103,
      "▁yarat": 3104,
      "▁gayrimenkul": 3105,
      "▁topr": 3106,
      "▁bolumu": 3107,
      "##iydi": 3108,
      "▁ken": 3109,
      "▁ter": 3110,
      "##sil": 3111,
      "▁maliyet": 3112,
      "▁mahk": 3113,
      "▁fran": 3114,
      "##amaya": 3115,
      "▁dengesi": 3116,
      "▁teknoloji": 3117,
      "▁ısık": 3118,
      "##medim": 3119,
      "▁agır": 3120,
      "▁makal": 3121,
      "▁as": 3122,
      "##uv": 3123,
      "▁atlan": 3124,
      "▁sonrası": 3125,
      "▁teor": 3126,
      "▁programı": 3127,
      "##ı": 3128,
      "▁boyu": 3129,
      "##manlar": 3130,
      "##ec": 3131,
      "##yla": 3132,
      "▁hey": 3133,
      "▁harc": 3134,
      "▁ted": 3135,
      "##ayet": 3136,
      "▁olmad": 3137,
      "▁gars": 3138,
      "##ncak": 3139,
      "▁kas": 3140,
      "▁boyut": 3141,
      "##2": 3142,
      "▁altına": 3143,
      "##lugun": 3144,
      "▁gerc": 3145,
      "▁kom": 3146,
      "##ediyor": 3147,
      "▁artısla": 3148,
      "▁ode": 3149,
      "▁ceza": 3150,
      "▁eden": 3151,
      "▁uzman": 3152,
      "##zet": 3153,
      "##tırmak": 3154,
      "▁orta": 3155,
      "▁list": 3156,
      "▁oglum": 3157,
      "▁.\"": 3158,
      "▁kultur": 3159,
      "▁kumas": 3160,
      "▁sovyet": 3161,
      "##isinde": 3162,
      "▁zarar": 3163,
      "▁cıktı": 3164,
      "▁komisyon": 3165,
      "▁tehlik": 3166,
      "##eticiler": 3167,
      "▁ellerinde": 3168,
      "▁enflasyon": 3169,
      "▁bakanı": 3170,
      "▁ogl": 3171,
      "▁yardım": 3172,
      "▁vur": 3173,
      "▁olsa": 3174,
      "▁part": 3175,
      "##idir": 3176,
      "▁sinir": 3177,
      "▁gozlerini": 3178,
      "##uy": 3179,
      "##ding": 3180,
      "##gel": 3181,
      "▁hastan": 3182,
      "##'in": 3183,
      "▁pazartesi": 3184,
      "▁paran": 3185,
      "▁sonu": 3186,
      "##urdu": 3187,
      "▁pol": 3188,
      "▁beyaz": 3189,
      "▁sir": 3190,
      "##int": 3191,
      "▁faiz": 3192,
      "▁toplam": 3193,
      "▁#": 3194,
      "[CLS]": 3195,
      "##ılması": 3196,
      "▁kaliteye": 3197,
      "▁ay": 3198,
      "▁dıs": 3199,
      "##qu": 3200,
      "▁philadelphia": 3201,
      "▁satır": 3202,
      "▁yol": 3203,
      "▁grup": 3204,
      "▁gen": 3205,
      "##ızın": 3206,
      "##lisi": 3207,
      "##yle": 3208,
      "▁elektr": 3209,
      "##hangi": 3210,
      "▁ithal": 3211,
      "*": 3212,
      "▁%": 3213,
      "▁zorluk": 3214,
      "▁guler": 3215,
      "##vek": 3216,
      "##mek": 3217,
      "##bol": 3218,
      "▁ayakk": 3219,
      "▁teh": 3220,
      "▁cars": 3221,
      "▁bıy": 3222,
      "▁gecesi": 3223,
      "▁199": 3224,
      "##i": 3225,
      "##mesini": 3226,
      "▁uf": 3227,
      "▁sil": 3228,
      "▁masraf": 3229,
      "##nd": 3230,
      "##agına": 3231,
      "▁park": 3232,
      "▁goc": 3233,
      "▁sav": 3234,
      "▁sozcu": 3235,
      "▁vardi": 3236,
      "▁cat": 3237,
      "▁yapım": 3238,
      "▁kumar": 3239,
      "##ant": 3240,
      "##ıstır": 3241,
      "▁onceki": 3242,
      "▁sektor": 3243,
      "▁bazi": 3244,
      "##ulu": 3245,
      "▁cift": 3246,
      "▁karsiligini": 3247,
      "▁dov": 3248,
      "##isinin": 3249,
      "##urk": 3250,
      "▁muhafaz": 3251,
      "▁rah": 3252,
      "▁amerik": 3253,
      "##oz": 3254,
      "##leket": 3255,
      "▁gru": 3256,
      "▁faal": 3257,
      "▁tahviller": 3258,
      "##orta": 3259,
      "%": 3260,
      "▁rezervasyonu": 3261,
      "▁insanları": 3262,
      "##ulmus": 3263,
      "▁fabrika": 3264,
      "▁artısı": 3265,
      "j": 3266,
      "▁bas": 3267,
      "▁yem": 3268,
      "##%": 3269,
      "##ed": 3270,
      "▁ucuslarını": 3271,
      "▁makin": 3272,
      "▁tarihi": 3273,
      "▁ofis": 3274,
      "##ıyor": 3275,
      "▁mas": 3276,
      "▁kon": 3277,
      "▁yarın": 3278,
      "##yen": 3279,
      "##6": 3280,
      "▁hizmetleri": 3281,
      "##eg": 3282,
      "▁fiyatlar": 3283,
      "▁sık": 3284,
      "▁destek": 3285,
      "##irim": 3286,
      "##fer": 3287,
      "##eyle": 3288,
      "▁artır": 3289,
      "##ina": 3290,
      "▁manz": 3291,
      "▁ust": 3292,
      "▁ilg": 3293,
      "▁mart": 3294,
      "▁savun": 3295,
      "##leg": 3296,
      "▁nis": 3297,
      "##bi": 3298,
      "▁sikayet": 3299,
      "##reti": 3300,
      "▁dav": 3301,
      "##der": 3302,
      "##ark": 3303,
      "▁1/": 3304,
      "▁perform": 3305,
      "##izlik": 3306,
      "▁endeks": 3307,
      "▁katkıda": 3308,
      "▁listel": 3309,
      "##..": 3310,
      "##lugu": 3311,
      "▁gune": 3312,
      "▁gosterdi": 3313,
      "##lerim": 3314,
      "##ıyı": 3315,
      "##ilik": 3316,
      "##dıgını": 3317,
      "▁sozles": 3318,
      "▁es": 3319,
      "▁ara": 3320,
      "▁mis": 3321,
      "▁anlam": 3322,
      "▁tartıs": 3323,
      "▁sanayi": 3324,
      "▁onem": 3325,
      "##larının": 3326,
      "▁endeksi": 3327,
      "▁vucut": 3328,
      "▁kıs": 3329,
      "##anc": 3330,
      "▁uyku": 3331,
      "▁gazeteci": 3332,
      "▁sonr": 3333,
      "▁str": 3334,
      "▁itibar": 3335,
      "##umun": 3336,
      "##uldu": 3337,
      "▁cir": 3338,
      "##lanmıs": 3339,
      "▁gecen": 3340,
      "▁sermay": 3341,
      "▁kar": 3342,
      "▁aqu": 3343,
      "▁basına": 3344,
      "▁demek": 3345,
      "##lık": 3346,
      "##alarım": 3347,
      "▁gemi": 3348,
      "▁sat": 3349,
      "▁satım": 3350,
      "▁saati": 3351,
      "##unden": 3352,
      "##aket": 3353,
      "##j": 3354,
      "##luluk": 3355,
      "##cok": 3356,
      "▁muam": 3357,
      "▁sirketleri": 3358,
      "▁sigorta": 3359,
      "##lıgına": 3360,
      "##ade": 3361,
      "▁elem": 3362,
      "▁sokak": 3363,
      "▁gelen": 3364,
      "▁petr": 3365,
      "▁insa": 3366,
      "##gun": 3367,
      "▁yakın": 3368,
      "##ının": 3369,
      "▁yer": 3370,
      "▁j": 3371,
      "▁mah": 3372,
      "▁net": 3373,
      "▁manzarasi": 3374,
      "##*": 3375,
      "▁yur": 3376,
      "▁poz": 3377,
      "▁icine": 3378,
      "##up": 3379,
      "?": 3380,
      "▁geliyor": 3381,
      "▁sirketi": 3382,
      "▁bol": 3383,
      "##!": 3384,
      "▁beg": 3385,
      "▁tr": 3386,
      "▁taleb": 3387,
      "▁sid": 3388,
      "##8": 3389,
      "&": 3390,
      "▁universite": 3391,
      "▁almak": 3392,
      "▁kıy": 3393,
      "##miyor": 3394,
      "▁doktor": 3395,
      "▁ucret": 3396,
      "▁baslan": 3397,
      "##usunun": 3398,
      "▁tası": 3399,
      "##gim": 3400,
      "##manı": 3401,
      "▁kurum": 3402,
      "▁soyl": 3403,
      "##yi": 3404,
      "##ars": 3405,
      "##t": 3406,
      "▁genel": 3407,
      "▁dol": 3408,
      "##acılar": 3409,
      "▁cil": 3410,
      "##larımız": 3411,
      "▁merkezi": 3412,
      "▁sen": 3413,
      "##dıgında": 3414,
      "##ij": 3415,
      "##ha": 3416,
      "▁listesini": 3417,
      "▁kal": 3418,
      "##emiz": 3419,
      "▁hos": 3420,
      "▁muc": 3421,
      "▁sim": 3422,
      "##hal": 3423,
      "▁korku": 3424,
      "▁tes": 3425,
      "▁yok": 3426,
      "##ksa": 3427,
      "▁go": 3428,
      "##ıga": 3429,
      "##ına": 3430,
      "##da": 3431,
      "##ilendir": 3432,
      "##ecegi": 3433,
      "▁eski": 3434,
      "##iligini": 3435,
      "▁devir": 3436,
      "m": 3437,
      "##uyu": 3438,
      "▁sun": 3439,
      "▁ilgisi": 3440,
      "##ya": 3441,
      "▁moda": 3442,
      "##ebilir": 3443,
      "▁dey": 3444,
      "▁anal": 3445,
      "▁tic": 3446,
      "##ia": 3447,
      "▁sur": 3448,
      "▁yum": 3449,
      "▁edildi": 3450,
      "▁yasa": 3451,
      "##gili": 3452,
      "##imden": 3453,
      "▁kuf": 3454,
      "##meler": 3455,
      "▁komut": 3456,
      "##lik": 3457,
      "i": 3458,
      "▁endustr": 3459,
      "▁guz": 3460,
      "▁iy": 3461,
      "▁gazete": 3462,
      "▁vuc": 3463,
      "##deki": 3464,
      "▁'": 3465,
      "▁gerektigini": 3466,
      "▁bab": 3467,
      "##cut": 3468,
      "▁para": 3469,
      "▁tiyatr": 3470,
      "▁ayakkabı": 3471,
      "▁veriyor": 3472,
      "▁franc": 3473,
      "▁id": 3474,
      "▁odasına": 3475,
      "▁kapı": 3476,
      "▁ucusların": 3477,
      "##ekti": 3478,
      "▁oranında": 3479,
      "##gıt": 3480,
      "▁dok": 3481,
      "▁yanı": 3482,
      "##8'de": 3483,
      "▁aralık": 3484,
      "##alle": 3485,
      "▁elde": 3486,
      "▁uygun": 3487,
      "▁uretici": 3488,
      "##ebil": 3489,
      "▁amac": 3490,
      "▁fr": 3491,
      "▁ocak": 3492,
      "▁bakım": 3493,
      "▁direktor": 3494,
      "▁cep": 3495,
      "##yan": 3496,
      "▁konuda": 3497,
      "##gre": 3498,
      "##usu": 3499,
      "▁b": 3500,
      "▁far": 3501,
      "▁komsu": 3502,
      "##ibi": 3503,
      "▁sag": 3504,
      "▁yetersizdi": 3505,
      "▁kere": 3506,
      "▁azından": 3507,
      "##“": 3508,
      "▁performans": 3509,
      "##8'e": 3510,
      "▁orne": 3511,
      "▁rezerv": 3512,
      "▁dolara": 3513,
      "▁8'den": 3514,
      "##makta": 3515,
      "▁tarafı": 3516,
      "▁class": 3517,
      "##dan": 3518,
      "##orm": 3519,
      "##aması": 3520,
      "▁5": 3521,
      "▁basar": 3522,
      "▁kulak": 3523,
      "##p": 3524,
      "▁nasıl": 3525,
      "##est": 3526,
      "##ıgını": 3527,
      "▁oper": 3528,
      "▁gunde": 3529,
      "▁kem": 3530,
      "▁etrafında": 3531,
      "##anti": 3532,
      "▁vatand": 3533,
      "▁darbe": 3534,
      "▁merdiv": 3535,
      "##ikti": 3536,
      "▁hic": 3537,
      "##tıs": 3538,
      "▁orada": 3539,
      "▁sure": 3540,
      "##udur": 3541,
      "##usunu": 3542,
      "▁yuz": 3543,
      "▁yıla": 3544,
      "▁dogr": 3545,
      "##mıyor": 3546,
      "▁6": 3547,
      "##$": 3548,
      "▁pla": 3549,
      "▁cocukları": 3550,
      "▁hisseler": 3551,
      "▁sohbet": 3552,
      "▁duzen": 3553,
      "▁kimi": 3554,
      "▁gem": 3555,
      "▁d": 3556,
      "##dıktan": 3557,
      "##malar": 3558,
      "##ht": 3559,
      "▁masanın": 3560,
      "▁ul": 3561,
      "##ugunu": 3562,
      "▁vardır": 3563,
      "##liginden": 3564,
      "##op": 3565,
      "▁iht": 3566,
      "##iy": 3567,
      "▁mark": 3568,
      "▁ayda": 3569,
      "▁icinden": 3570,
      "##larla": 3571,
      "##ti": 3572,
      "##erek": 3573,
      "▁kab": 3574,
      "▁korum": 3575,
      "▁yere": 3576,
      "##arı": 3577,
      "▁hast": 3578,
      "▁mail": 3579,
      "▁indir": 3580,
      "▁bak": 3581,
      "▁internet": 3582,
      "##enleri": 3583,
      "##gum": 3584,
      "##men": 3585,
      "▁oteldi": 3586,
      "▁suk": 3587,
      "##tr": 3588,
      "▁vak": 3589,
      "##tıktan": 3590,
      "▁mucadele": 3591,
      "##tih": 3592,
      "▁tuketici": 3593,
      "▁akr": 3594,
      "##yuz": 3595,
      "▁sov": 3596,
      "▁vap": 3597,
      "##erh": 3598,
      "▁bilgisay": 3599,
      "##egini": 3600,
      "▁to": 3601,
      "▁teklifi": 3602,
      "▁simdiye": 3603,
      "▁nefes": 3604,
      "▁gozu": 3605,
      "##or": 3606,
      "▁senedi": 3607,
      "▁gos": 3608,
      "▁yonetimi": 3609,
      "▁baska": 3610,
      "▁vergi": 3611,
      "##ji": 3612,
      "▁program": 3613,
      "▁yıllık": 3614,
      "##ize": 3615,
      "##asından": 3616,
      "▁yap": 3617,
      "##ledi": 3618,
      "▁sekret": 3619,
      "▁konu": 3620,
      "▁duny": 3621,
      "##emey": 3622,
      "▁kimse": 3623,
      "▁bardagı": 3624,
      "##'y": 3625,
      "▁gulery": 3626,
      "▁verdi": 3627,
      "▁sam": 3628,
      "▁personellerin": 3629,
      "▁bolge": 3630,
      "▁seker": 3631,
      "▁br": 3632,
      "▁anlasma": 3633,
      "##leyi": 3634,
      "▁kahval": 3635,
      "##ılmıs": 3636,
      "▁plaji": 3637,
      "▁sozleri": 3638,
      "▁yay": 3639,
      "##ligi": 3640,
      "▁televizyon": 3641,
      "##medigini": 3642,
      "▁ornek": 3643,
      "##ımın": 3644,
      "▁konusu": 3645,
      "▁ma": 3646,
      "▁banyo": 3647,
      "##miyorum": 3648,
      "▁mide": 3649,
      "▁durumu": 3650,
      "▁arkadaslar": 3651,
      "▁sus": 3652,
      "▁denver": 3653,
      "##\"": 3654,
      "▁ag": 3655,
      "▁rengi": 3656,
      "▁hukumetin": 3657,
      "▁onunde": 3658,
      "▁kardesim": 3659,
      "▁.'": 3660,
      "▁hizmete": 3661,
      "##ırtı": 3662,
      "##anı": 3663,
      "▁parmak": 3664,
      "▁millet": 3665,
      "▁ates": 3666,
      "▁mecl": 3667,
      "▁?": 3668,
      "▁memleket": 3669,
      "▁varan": 3670,
      "▁mobil": 3671,
      "##yıl": 3672,
      "▁duzey": 3673,
      "▁iliski": 3674,
      "▁olac": 3675,
      "##kin": 3676,
      "▁yemeklerde": 3677,
      "▁olduk": 3678,
      "▁yak": 3679,
      "▁kus": 3680,
      "▁olmasi": 3681,
      "▁ornegin": 3682,
      "##lı": 3683,
      "▁kum": 3684,
      "▁cih": 3685,
      "▁attı": 3686,
      "▁itibariyle": 3687,
      "▁gazet": 3688,
      "▁do": 3689,
      "▁iyi": 3690,
      "▁turk": 3691,
      "▁hayal": 3692,
      "##lon": 3693,
      "▁uyk": 3694,
      "##sur": 3695,
      "##lilik": 3696,
      "▁kosulları": 3697,
      "##\\": 3698,
      "##ga": 3699,
      "▁cocugun": 3700,
      "##istler": 3701,
      "##,": 3702,
      "##van": 3703,
      "s": 3704,
      "▁ge": 3705,
      "##esinden": 3706,
      "▁york": 3707,
      "##stır": 3708,
      "▁cadde": 3709,
      "▁ko": 3710,
      "▁gokyuz": 3711,
      "x": 3712,
      "##ayı": 3713,
      "▁cay": 3714,
      "▁pozisyon": 3715,
      "▁borc": 3716,
      "▁ada": 3717,
      "▁kusur": 3718,
      "##vr": 3719,
      "▁personellerden": 3720,
      "▁nedenle": 3721,
      "##iyatr": 3722,
      "▁gerek": 3723,
      "##if": 3724,
      "▁bal": 3725,
      "▁dolardan": 3726,
      "##ma": 3727,
      "▁analistler": 3728,
      "▁kayıp": 3729,
      "##stım": 3730,
      "▁faz": 3731,
      "▁sırasında": 3732,
      "▁muk": 3733,
      "▁n": 3734,
      "▁oz": 3735,
      "▁duyg": 3736,
      "##lar": 3737,
      "▁kars": 3738,
      "▁edeb": 3739,
      "▁o": 3740,
      "▁med": 3741,
      "▁asag": 3742,
      "▁hayat": 3743,
      "▁zamanda": 3744,
      "▁mes": 3745,
      "▁planı": 3746,
      "▁yetk": 3747,
      "▁tesisten": 3748,
      "▁ozellik": 3749,
      "▁ces": 3750,
      "▁cam": 3751,
      "-": 3752,
      "▁davranıs": 3753,
      "##oh": 3754,
      "▁bugday": 3755,
      "▁yetkilileri": 3756,
      "▁mal": 3757,
      "##adıgını": 3758,
      "▁”": 3759,
      "▁hır": 3760,
      "▁yaptir": 3761,
      "##amet": 3762,
      "o": 3763,
      "_": 3764,
      "##isco": 3765,
      "▁savunma": 3766,
      "##lerin": 3767,
      "##gı": 3768,
      "##ikler": 3769,
      "##ca": 3770,
      "▁dam": 3771,
      "▁oranları": 3772,
      "##1": 3773,
      "##gini": 3774,
      "▁dusun": 3775,
      "▁z": 3776,
      "##atur": 3777,
      "▁gonul": 3778,
      "▁ta": 3779,
      "▁harekete": 3780,
      "▁mulk": 3781,
      "▁gece": 3782,
      "▁burası": 3783,
      "▁tesisin": 3784,
      "▁bankası": 3785,
      "▁dusunuyor": 3786,
      "7": 3787,
      "▁arac": 3788,
      "##lul": 3789,
      "##adde": 3790,
      "▁petrol": 3791,
      "▁yayın": 3792,
      "▁evet": 3793,
      "##eceg": 3794,
      "##mer": 3795,
      "##mis": 3796,
      "##uyorum": 3797,
      "##es": 3798,
      "▁num": 3799,
      "##rı": 3800,
      "▁sesi": 3801,
      "▁motor": 3802,
      "▁ec": 3803,
      "▁zam": 3804,
      "▁universit": 3805,
      "▁portfoy": 3806,
      "▁min": 3807,
      "##ates": 3808,
      "▁kahvaltı": 3809,
      "##ılık": 3810,
      "▁taraf": 3811,
      "##ını": 3812,
      "▁aday": 3813,
      "▁gecm": 3814,
      "▁cez": 3815,
      "▁te": 3816,
      "▁tedav": 3817,
      "▁ustu": 3818,
      "▁ap": 3819,
      "▁alıcı": 3820,
      "##le": 3821,
      "##malı": 3822,
      "▁kaldır": 3823,
      "▁sark": 3824,
      "##ımdan": 3825,
      "##areti": 3826,
      "▁eline": 3827,
      "▁om": 3828,
      "▁halk": 3829,
      "▁hakkında": 3830,
      "▁kadını": 3831,
      "##ph": 3832,
      "▁muzik": 3833,
      "##net": 3834,
      "▁telefon": 3835,
      "##dım": 3836,
      "▁caba": 3837,
      "▁kork": 3838,
      "▁og": 3839,
      "▁gore": 3840,
      "▁sev": 3841,
      "▁iz": 3842,
      "▁hoca": 3843,
      "##aya": 3844,
      "▁ot": 3845,
      "▁islem": 3846,
      "▁butce": 3847,
      "▁sorumluluk": 3848,
      "##tiler": 3849,
      "▁sevk": 3850,
      "▁sabah": 3851,
      "▁ak": 3852,
      "▁don": 3853,
      "▁def": 3854,
      "##iniz": 3855,
      "##duk": 3856,
      "##tif": 3857,
      "▁first": 3858,
      "▁mily": 3859,
      "▁sem": 3860,
      "▁teb": 3861,
      "▁kızı": 3862,
      "▁nak": 3863,
      "##lerimizi": 3864,
      "##aseb": 3865,
      "▁oluyor": 3866,
      "##izdi": 3867,
      "▁org": 3868,
      "▁fır": 3869,
      "##bilir": 3870,
      "##ar": 3871,
      "▁kıv": 3872,
      "▁birtakım": 3873,
      "##b": 3874,
      "▁sigort": 3875,
      "▁yat": 3876,
      "▁arkadas": 3877,
      "##iber": 3878,
      "▁ort": 3879,
      "▁esim": 3880,
      "##sen": 3881,
      "▁et": 3882,
      "▁serv": 3883,
      "##mini": 3884,
      "▁konumunu": 3885,
      "##am": 3886,
      "▁adet": 3887,
      "##luydu": 3888,
      "▁milyon": 3889,
      "##oru": 3890,
      "▁ureticisi": 3891,
      "##onun": 3892,
      "▁yapar": 3893,
      "##etr": 3894,
      "▁baskan": 3895,
      "▁topu": 3896,
      "▁dos": 3897,
      "▁sehir": 3898,
      "▁sevg": 3899,
      "▁yandan": 3900,
      "▁olmadi": 3901,
      "▁hizmetinden": 3902,
      "▁yıllar": 3903,
      "▁katk": 3904,
      "##on": 3905,
      "▁...": 3906,
      "▁asker": 3907,
      "▁gr": 3908,
      "▁koku": 3909,
      "▁kurul": 3910,
      "▁yuzyıl": 3911,
      "▁ihtim": 3912,
      "##il": 3913,
      "▁engel": 3914,
      "▁kaldik": 3915,
      "##ıh": 3916,
      "##ık": 3917,
      "##lendi": 3918,
      "##asıl": 3919,
      "°": 3920,
      "▁kut": 3921,
      "▁kaldırım": 3922,
      "##ıcı": 3923,
      "##lerde": 3924,
      "▁vardı": 3925,
      "##ılan": 3926,
      "▁ve": 3927,
      "▁giden": 3928,
      "▁ama": 3929,
      "▁kıymetler": 3930,
      "▁heyecan": 3931,
      "▁annesi": 3932,
      "▁milletvek": 3933,
      "▁ruzgar": 3934,
      "##ima": 3935,
      "##ibar": 3936,
      "▁if": 3937,
      "##eli": 3938,
      "▁gez": 3939,
      "▁arasındaki": 3940,
      "▁oran": 3941,
      "▁ellerini": 3942,
      "##mekt": 3943,
      "▁deney": 3944,
      "##ay": 3945,
      "##eme": 3946,
      "▁aldı": 3947,
      "▁buldu": 3948,
      "▁hiss": 3949,
      "##agını": 3950,
      "▁cins": 3951,
      "##labilir": 3952,
      "▁yapti": 3953,
      "▁elleri": 3954,
      "▁pil": 3955,
      "▁otobus": 3956,
      "▁kur": 3957,
      "▁aksam": 3958,
      "▁sevgi": 3959,
      "▁cik": 3960,
      "▁u": 3961,
      "##aga": 3962,
      "▁babam": 3963,
      "▁alım": 3964,
      "▁kent": 3965,
      "▁ister": 3966,
      "▁inter": 3967,
      "▁gur": 3968,
      "##l": 3969,
      "▁zey": 3970,
      "##laması": 3971,
      "▁icme": 3972,
      "▁isini": 3973,
      "▁actı": 3974,
      "▁patates": 3975,
      "▁bakanlıgı": 3976,
      "▁olmadıgını": 3977,
      "▁milyondan": 3978,
      "▁ayı": 3979,
      "▁birer": 3980,
      "▁isleri": 3981,
      "##emiyor": 3982,
      "##ba": 3983,
      "##ume": 3984,
      "##itr": 3985,
      "▁otelde": 3986,
      "##ster": 3987,
      "##lerinin": 3988,
      "▁hep": 3989,
      "▁seviy": 3990,
      "▁yola": 3991,
      "▁)": 3992,
      "##tıl": 3993,
      "##ograf": 3994,
      "##ege": 3995,
      "▁on": 3996,
      "▁ucusa": 3997,
      "▁kaz": 3998,
      "##tik": 3999,
      "▁iletisim": 4000,
      "##iste": 4001,
      "▁limon": 4002,
      "▁kahkah": 4003,
      "[UNK]": 4004,
      "▁hatır": 4005,
      "##lama": 4006,
      "##ecek": 4007,
      "##ez": 4008,
      "##tak": 4009,
      "##ılıgı": 4010,
      "##mesine": 4011,
      "##meleri": 4012,
      "▁bl": 4013,
      "##lugunu": 4014,
      "▁camasır": 4015,
      "##tar": 4016,
      "##kan": 4017,
      "▁birles": 4018,
      "##egine": 4019,
      "##gisi": 4020,
      "##leri": 4021,
      "##liligi": 4022,
      "▁sey": 4023,
      "##hut": 4024,
      "▁olmak": 4025,
      "##anların": 4026,
      "##ektr": 4027,
      "▁hikay": 4028,
      "##ub": 4029,
      "▁otom": 4030,
      "▁malzem": 4031,
      "▁yanında": 4032,
      "▁hale": 4033,
      "▁ses": 4034,
      "▁amerikalı": 4035,
      "##ende": 4036,
      "▁of": 4037,
      "▁gol": 4038,
      "##ile": 4039,
      "▁peynir": 4040,
      "##lerimi": 4041,
      "▁karsı": 4042,
      "##urg": 4043,
      "▁yatak": 4044,
      "▁kuv": 4045,
      "##li": 4046,
      "▁karsıl": 4047,
      "▁sek": 4048,
      "##ast": 4049,
      "▁w": 4050,
      "▁ard": 4051,
      "▁gor": 4052,
      "▁nok": 4053,
      "▁ikram": 4054,
      "▁can": 4055,
      "##lug": 4056,
      "▁maz": 4057,
      "##erli": 4058,
      "▁gum": 4059,
      "▁mahalle": 4060,
      "▁bisik": 4061,
      "▁oldug": 4062,
      "▁sar": 4063,
      "##`": 4064,
      "▁yapıl": 4065,
      "##lardı": 4066,
      "▁ortasında": 4067,
      "##cu": 4068,
      "##st": 4069,
      "▁servisi": 4070,
      "▁ogrenci": 4071,
      "▁bizim": 4072,
      "▁nedeni": 4073,
      "▁elbise": 4074,
      "▁tesv": 4075,
      "##ayi": 4076,
      "▁olmaz": 4077,
      "▁bazı": 4078,
      "▁da": 4079,
      "▁boy": 4080,
      "▁danısman": 4081,
      "▁ajans": 4082,
      "##isin": 4083,
      "▁gelistir": 4084,
      "##ıldı": 4085,
      "▁elinden": 4086,
      "▁edin": 4087,
      "##lanı": 4088,
      "##erik": 4089,
      "▁haf": 4090,
      "▁iddia": 4091,
      "▁itir": 4092,
      "▁aradi": 4093,
      "▁adını": 4094,
      "##iyon": 4095
    }
  }
}