{
  "version": "1.0",
  "truncation": null,
  "padding": null,
  "added_tokens": [
    {
      "id": 1311,
      "content": "[SEP]",
      "single_word": false,
      "lstrip": false,
      "rstrip": false,
      "normalized": false,
      "special": true
    },
    {
      "id": 2137,
      "content": "[MASK]",
      "single_word": false,
      "lstrip": false,
      "rstrip": false,
      "normalized": false,
      "special": true
    },
    {
      "id": 3192,
      "content": "[UNK]",
      "single_word": false,
      "lstrip": false,
      "rstrip": false,
      "normalized": false,
      "special": true
    },
    {
      "id": 4471,
      "content": "[PAD]",
      "single_word": false,
      "lstrip": false,
      "rstrip": false,
      "normalized": false,
      "special": true
    },
    {
      "id": 5164,
      "content": "[CLS]",
      "single_word": false,
      "lstrip": false,
      "rstrip": false,
      "normalized": false,
      "special": true
    }
  ],
  "normalizer": {
    "type": "Sequence",
    "normalizers": [
      {
        "type": "NFD"
      },
      {
        "type": "Lowercase"
      },
      {
        "type": "StripAccents"
      }
    ]
  },
  "pre_tokenizer": {
    "type": "Sequence",
    "pretokenizers": [
      {
        "type": "Metaspace",
        "replacement": "▁",
        "prepend_scheme": "always",
        "split": true
      }
    ]
  },
  "post_processor": {
    "type": "TemplateProcessing",
    "single": [
      {
        "SpecialToken": {
          "id": "[CLS]",
          "type_id": 0
        }
      },
      {
        "Sequence": {
          "id": "A",
          "type_id": 0
        }
      },
      {
        "SpecialToken": {
          "id": "[SEP]",
          "type_id": 0
        }
      }
    ],
    "pair": [
      {
        "SpecialToken": {
          "id": "[CLS]",
          "type_id": 0
        }
      },
      {
        "Sequence": {
          "id": "A",
          "type_id": 0
        }
      },
      {
        "SpecialToken": {
          "id": "[SEP]",
          "type_id": 0
        }
      },
      {
        "Sequence": {
          "id": "B",
          "type_id": 1
        }
      },
      {
        "SpecialToken": {
          "id": "[SEP]",
          "type_id": 1
        }
      }
    ],
    "special_tokens": {
      "[CLS]": {
        "id": "[CLS]",
        "ids": [
          5164
        ],
        "tokens": [
          "[CLS]"
        ]
      },
      "[SEP]": {
        "id": "[SEP]",
        "ids": [
          1311
        ],
        "tokens": [
          "[SEP]"
        ]
      }
    }
  },
  "decoder": {
    "type": "Metaspace",
    "replacement": "▁",
    "prepend_scheme": "always",
    "split": true
  },
  "model": {
    "type": "BPE",
    "dropout": null,
    "unk_token": "[UNK]",
    "continuing_subword_prefix": null,
    "end_of_word_suffix": null,
    "fuse_unk": false,
    "byte_fallback": false,
    "ignore_merges": false,
    "vocab": {
      "▁olacaktır": 0,
      "▁etmez": 1,
      "▁avrupa": 2,
      "▁ciro": 3,
      "▁odanin": 4,
      "emiyorum": 5,
      "alarıyla": 6,
      "ding": 7,
      "▁acente": 8,
      "son": 9,
      "▁muhafazakar": 10,
      "▁dort": 11,
      "iri": 12,
      ".0": 13,
      "lim": 14,
      "▁kırmızı": 15,
      "▁hav": 16,
      "▁yavru": 17,
      "landı": 18,
      "▁kolu": 19,
      "▁memur": 20,
      "▁pahali": 21,
      "▁bec": 22,
      "▁sırtında": 23,
      "▁akr": 24,
      "▁calisanlari": 25,
      "▁hicbir": 26,
      "▁ilgisi": 27,
      "▁ellerinde": 28,
      "▁bulunuyor": 29,
      "▁okuy": 30,
      "▁sakız": 31,
      "▁boz": 32,
      "▁roman": 33,
      "▁sampiyon": 34,
      "▁kıyı": 35,
      "0'da": 36,
      "▁dengesi": 37,
      "sınız": 38,
      "▁teklifler": 39,
      "is": 40,
      "▁onunden": 41,
      "▁oglunun": 42,
      "▁esim": 43,
      "▁zamanı": 44,
      "▁gonder": 45,
      "▁destekl": 46,
      "▁cır": 47,
      "mayan": 48,
      "▁penc": 49,
      "tigine": 50,
      "g": 51,
      "▁seh": 52,
      "▁bina": 53,
      "▁konser": 54,
      "▁ediyordu": 55,
      "▁gobek": 56,
      "sinin": 57,
      "iye": 58,
      "izma": 59,
      "▁ner": 60,
      "▁fiyati": 61,
      "▁onceden": 62,
      "▁francisco": 63,
      "▁baskanı": 64,
      "▁islemleri": 65,
      "lerden": 66,
      "▁demis": 67,
      "▁turist": 68,
      "▁bulbul": 69,
      "▁geriledi": 70,
      "alıgı": 71,
      "▁bog": 72,
      "▁ted": 73,
      "▁karsilama": 74,
      "masi": 75,
      "▁di": 76,
      "▁havlu": 77,
      "▁talim": 78,
      "▁kırık": 79,
      "▁olanaklarını": 80,
      "▁milyara": 81,
      "▁burnu": 82,
      "▁ulasımı": 83,
      "▁memnunum": 84,
      "lamasını": 85,
      "▁yapıyor": 86,
      "▁bolgenin": 87,
      "▁rus": 88,
      "egini": 89,
      "bi": 90,
      "▁ticaretinde": 91,
      "isinde": 92,
      "ediye": 93,
      "▁arkadasim": 94,
      "▁oy": 95,
      "layan": 96,
      "▁karakter": 97,
      "▁kalitesini": 98,
      "▁nokt": 99,
      "▁yok": 100,
      "▁lim": 101,
      "ması": 102,
      "ınır": 103,
      "om": 104,
      "▁mek": 105,
      "▁lan": 106,
      "▁senar": 107,
      "▁dolara": 108,
      ".7": 109,
      "▁saniye": 110,
      "ikt": 111,
      "▁duvarda": 112,
      "di": 113,
      "▁e": 114,
      "ver": 115,
      "▁sonunda": 116,
      "▁olmustur": 117,
      "umu": 118,
      "▁toplam": 119,
      "▁americ": 120,
      "▁dustu": 121,
      "duk": 122,
      "▁york": 123,
      "ok": 124,
      "▁indirim": 125,
      "▁bulunan": 126,
      "▁ortada": 127,
      "likler": 128,
      "▁mamafih": 129,
      "▁apart": 130,
      "▁lira": 131,
      "▁united": 132,
      "ene": 133,
      "▁kolon": 134,
      "▁bakmak": 135,
      "▁diger": 136,
      "▁gor": 137,
      "▁makal": 138,
      "ington": 139,
      "▁yuklen": 140,
      "▁ebeveyn": 141,
      "▁kalktı": 142,
      "▁dayanıs": 143,
      "▁namaz": 144,
      "▁ogrenciler": 145,
      "▁stratej": 146,
      "amet": 147,
      "▁cant": 148,
      "▁kaza": 149,
      "▁fiyatları": 150,
      "▁annesinin": 151,
      "▁oldukca": 152,
      "▁pencere": 153,
      "▁cip": 154,
      "▁olsun": 155,
      "▁dogrudan": 156,
      "▁ayaklarının": 157,
      "lerimin": 158,
      "▁karsı": 159,
      "▁seyinden": 160,
      "▁bugun": 161,
      "lendirmek": 162,
      "▁fas": 163,
      "▁vermeyi": 164,
      "▁uzak": 165,
      "▁den": 166,
      "▁manzarasi": 167,
      "ce": 168,
      "ukluk": 169,
      "▁heyeti": 170,
      "-a": 171,
      "▁bitki": 172,
      "▁gecit": 173,
      "rne": 174,
      "▁damla": 175,
      "▁aileler": 176,
      "▁ilc": 177,
      "▁fonlar": 178,
      "ıyorum": 179,
      "▁oldugun": 180,
      "▁pab": 181,
      "ırlar": 182,
      "▁tatil": 183,
      "▁sıg": 184,
      "▁telgraf": 185,
      "00": 186,
      "bas": 187,
      "klerini": 188,
      "▁cumhuriyetciler": 189,
      "day": 190,
      "▁dilim": 191,
      "▁sezlong": 192,
      "▁sıra": 193,
      "▁isten": 194,
      "▁varlıgı": 195,
      "▁gucunu": 196,
      "lasıyor": 197,
      "mec": 198,
      "▁hisselerin": 199,
      "▁ens": 200,
      "▁lob": 201,
      "▁tedavul": 202,
      "▁etkinlik": 203,
      "ilik": 204,
      "▁gom": 205,
      "▁sak": 206,
      "▁1989": 207,
      "zer": 208,
      "▁savunma": 209,
      "▁mill": 210,
      "▁mustes": 211,
      "▁kum": 212,
      "▁gecir": 213,
      "▁soguktu": 214,
      "▁dairesi": 215,
      "▁uste": 216,
      "▁tank": 217,
      "▁saatleri": 218,
      "▁catal": 219,
      "▁mıy": 220,
      "▁degerlendir": 221,
      "tas": 222,
      "▁numar": 223,
      "um": 224,
      "▁darb": 225,
      "▁bilgiye": 226,
      "amayacagını": 227,
      "▁alım-satım": 228,
      "▁nefes": 229,
      "▁bagr": 230,
      "▁dalı": 231,
      "cok": 232,
      "se": 233,
      "▁depo": 234,
      "▁yollar": 235,
      "▁gosterdi": 236,
      "ıyordum": 237,
      "▁depr": 238,
      "▁pantol": 239,
      "▁memlekette": 240,
      "▁mak": 241,
      "▁...\"": 242,
      "yalizm": 243,
      "▁ceyreginde": 244,
      "▁mucevher": 245,
      "▁aramız": 246,
      "▁geceleri": 247,
      "▁hangi": 248,
      "eceklerini": 249,
      "▁cehr": 250,
      "▁acılıs": 251,
      "▁ulası": 252,
      "▁ic": 253,
      "alan": 254,
      "c": 255,
      "▁cıkarmak": 256,
      "▁bogaz": 257,
      "▁vakt": 258,
      "▁degerleri": 259,
      "▁eks": 260,
      "▁benzer": 261,
      "▁konsol": 262,
      "▁ucuyor": 263,
      "▁lik": 264,
      "▁konforu": 265,
      "edigini": 266,
      "▁gogus": 267,
      "▁durumunda": 268,
      "▁degerini": 269,
      "▁ba": 270,
      "isler": 271,
      "▁tabl": 272,
      "▁beb": 273,
      "egor": 274,
      "▁hasıl": 275,
      "8": 276,
      "lerim": 277,
      "▁cer": 278,
      "▁mor": 279,
      "▁miktar": 280,
      "▁egitimi": 281,
      "ht": 282,
      "▁portakal": 283,
      "dugunu": 284,
      "▁yuregi": 285,
      "▁contin": 286,
      "▁gotur": 287,
      "imore": 288,
      "▁oldug": 289,
      "▁endustr": 290,
      "▁sonra": 291,
      "▁kartı": 292,
      "▁oku": 293,
      "▁basına": 294,
      "▁dum": 295,
      "ırda": 296,
      "▁sekret": 297,
      "▁sahib": 298,
      "abilmek": 299,
      "▁adina": 300,
      "▁mevzu": 301,
      "▁egz": 302,
      "iniz": 303,
      "▁rıh": 304,
      "5": 305,
      "▁kodu": 306,
      "adır": 307,
      "▁saka": 308,
      "▁mendil": 309,
      "▁nesil": 310,
      "▁bi": 311,
      "▁yurek": 312,
      "▁babası": 313,
      "▁sektorunde": 314,
      "yuzlu": 315,
      "▁karsıl": 316,
      "▁yuk": 317,
      "▁kotuydu": 318,
      "▁diyet": 319,
      "▁corp": 320,
      "▁vah": 321,
      "▁lig": 322,
      "ahh": 323,
      "▁yag": 324,
      "acagım": 325,
      "larla": 326,
      "▁donuyor": 327,
      "anın": 328,
      "▁heyet": 329,
      "▁olmasına": 330,
      "▁naz": 331,
      "▁``": 332,
      "eligini": 333,
      "▁aktif": 334,
      "▁konusuyor": 335,
      "▁los": 336,
      "▁'": 337,
      "▁il": 338,
      "▁durus": 339,
      "▁masanın": 340,
      "▁karanlık": 341,
      "cagım": 342,
      "▁en": 343,
      "▁akın": 344,
      "▁%2": 345,
      "▁gunde": 346,
      ":": 347,
      "▁prov": 348,
      "▁seyden": 349,
      "rı": 350,
      "▁zamanla": 351,
      "▁huy": 352,
      "▁ard": 353,
      "▁yolculuk": 354,
      "▁sebze": 355,
      "▁ilet": 356,
      "hal": 357,
      "▁banyo": 358,
      "▁yapması": 359,
      "▁kurumlar": 360,
      "'daki": 361,
      "▁siir": 362,
      "▁hamur": 363,
      "▁efsan": 364,
      "▁sp": 365,
      "▁ediyoruz": 366,
      "▁arab": 367,
      "lestir": 368,
      "▁itaat": 369,
      "▁anlasmanın": 370,
      "▁sorun": 371,
      "uyu": 372,
      "burgh": 373,
      "▁yon": 374,
      "a'da": 375,
      "nd": 376,
      "mafi": 377,
      "▁ucusların": 378,
      "umuze": 379,
      "▁muhend": 380,
      "!": 381,
      "▁klim": 382,
      "▁plaj": 383,
      "▁pay": 384,
      "▁unsur": 385,
      "…": 386,
      "▁durumlarda": 387,
      "ısır": 388,
      "▁ulasım": 389,
      "▁vef": 390,
      "▁dusman": 391,
      "▁guv": 392,
      "ums": 393,
      "▁zamanlarda": 394,
      "sızlık": 395,
      "▁korku": 396,
      "▁ikti": 397,
      "▁davayı": 398,
      "liyor": 399,
      "ub": 400,
      "▁sonda": 401,
      "▁mucadele": 402,
      "▁mı": 403,
      "ugu": 404,
      "▁seye": 405,
      "▁butu": 406,
      "▁arttıgını": 407,
      "▁bur": 408,
      "▁ucusunda": 409,
      "tan": 410,
      "▁sorunlar": 411,
      "▁calıs": 412,
      "▁sonucunda": 413,
      "▁washington'a": 414,
      "▁kendimiz": 415,
      "▁gulums": 416,
      "▁tem": 417,
      "▁yuzu": 418,
      "▁yasamı": 419,
      "iyeler": 420,
      "▁oak": 421,
      "lenmis": 422,
      "▁dr.": 423,
      "asındaki": 424,
      "'yi": 425,
      "▁sermaye": 426,
      "▁partisi": 427,
      "dal": 428,
      "var": 429,
      "▁zul": 430,
      "▁bıraktı": 431,
      "▁kiz": 432,
      "▁odasına": 433,
      "+": 434,
      "▁10'dan": 435,
      "▁ro": 436,
      "▁zek": 437,
      "lıkları": 438,
      "▁ayda": 439,
      "urken": 440,
      "lge": 441,
      "▁airlines": 442,
      "▁buny": 443,
      "▁itiraf": 444,
      "▁inceleme": 445,
      "ston": 446,
      "lasmıs": 447,
      "▁agzına": 448,
      "ikat": 449,
      "▁pa": 450,
      "uluk": 451,
      "lendirdi": 452,
      "▁oden": 453,
      "▁fikri": 454,
      "ulan": 455,
      "iren": 456,
      "▁alıcı": 457,
      "▁emir": 458,
      "▁havaliman": 459,
      "▁washington'dan": 460,
      "▁sonuclar": 461,
      "'nın": 462,
      "▁temsilcisi": 463,
      "▁odalari": 464,
      "▁gencler": 465,
      "▁or": 466,
      "at": 467,
      "▁ydi": 468,
      "▁ister": 469,
      "▁babamın": 470,
      "▁bekledigini": 471,
      "▁fık": 472,
      "▁kon": 473,
      "▁asagıda": 474,
      "istel": 475,
      "▁cumle": 476,
      "▁baskalarına": 477,
      "agının": 478,
      "iyeti": 479,
      "iyim": 480,
      "▁mutlu": 481,
      "▁meselesi": 482,
      "aren": 483,
      "▁neyse": 484,
      "▁dert": 485,
      "▁ozellikleri": 486,
      "aklar": 487,
      "▁merdiven": 488,
      "▁cih": 489,
      "▁tamam": 490,
      "▁atlanta": 491,
      "▁nar": 492,
      "▁soyluyor": 493,
      "▁kasık": 494,
      "▁koruma": 495,
      "▁kıymet": 496,
      "▁menkul": 497,
      "▁kisi": 498,
      "▁sacları": 499,
      "▁maz": 500,
      "▁duyar": 501,
      "in": 502,
      "▁dair": 503,
      "ime": 504,
      "▁sırada": 505,
      "'ya": 506,
      "▁yolunu": 507,
      "isi": 508,
      "▁farkı": 509,
      "▁merak": 510,
      "▁kurus": 511,
      "landıgında": 512,
      "▁las": 513,
      "▁seattle": 514,
      "▁nobet": 515,
      "▁spot": 516,
      "▁fırsatı": 517,
      "enc": 518,
      "▁temmuz": 519,
      "▁tadı": 520,
      "▁edebiyat": 521,
      "▁ipotek": 522,
      "▁sektoru": 523,
      "▁pam": 524,
      "▁senetlerinin": 525,
      "▁tuh": 526,
      "▁mevki": 527,
      "▁sovyetler": 528,
      "▁cıkmıs": 529,
      "▁askeri": 530,
      "▁hurriyet": 531,
      "▁fot": 532,
      "▁pamuk": 533,
      "cısı": 534,
      "▁kara": 535,
      "mamak": 536,
      "▁cid": 537,
      "▁doktorlar": 538,
      "engin": 539,
      "▁ti": 540,
      "▁bana": 541,
      "▁annesi": 542,
      "ing": 543,
      "net": 544,
      "6": 545,
      "▁dır": 546,
      "▁yumruk": 547,
      "lıga": 548,
      "oglu": 549,
      "▁pit": 550,
      "▁cekic": 551,
      "7'de": 552,
      "cılıgı": 553,
      "yanın": 554,
      "yol": 555,
      "sı": 556,
      "eyr": 557,
      "▁barda": 558,
      "lastik": 559,
      "▁buyukel": 560,
      "eveyn": 561,
      "rken": 562,
      "▁dekorasyonu": 563,
      "atli": 564,
      "▁gelin": 565,
      "suzluk": 566,
      "▁lev": 567,
      "▁sadakat": 568,
      "▁must": 569,
      "on": 570,
      "▁olay": 571,
      "▁tanr": 572,
      "▁oncesine": 573,
      "ıklarını": 574,
      "▁airlin": 575,
      "man": 576,
      "▁seferinde": 577,
      "▁cagır": 578,
      "▁numara": 579,
      "▁kims": 580,
      "layacagını": 581,
      "▁ziy": 582,
      "▁sirketlerin": 583,
      "▁kilit": 584,
      "ustu": 585,
      "▁gecmis": 586,
      "tis": 587,
      "lı": 588,
      "▁kredileri": 589,
      "ik": 590,
      "▁yapmak": 591,
      "indan": 592,
      "▁yenilik": 593,
      "▁resep": 594,
      "▁sarap": 595,
      "▁kuzey": 596,
      "▁dr": 597,
      "id": 598,
      "▁azal": 599,
      "▁yalan": 600,
      "layarak": 601,
      "▁cıkarma": 602,
      "▁bilmem": 603,
      "▁memleketin": 604,
      "▁sov": 605,
      "▁rakib": 606,
      "ve": 607,
      "aset": 608,
      "odr": 609,
      "5'e": 610,
      "▁ceviri": 611,
      "ivers": 612,
      "▁oyunc": 613,
      "▁tanıt": 614,
      "oksa": 615,
      "liler": 616,
      "ttı": 617,
      "▁ar": 618,
      "▁pil": 619,
      "ledi": 620,
      "▁kenara": 621,
      "▁yurtd": 622,
      "▁temp": 623,
      "iden": 624,
      "▁kahv": 625,
      "▁ameliyat": 626,
      "▁zihn": 627,
      "▁ec": 628,
      "▁hasar": 629,
      "estirdi": 630,
      "▁hitap": 631,
      "▁eseri": 632,
      "▁etek": 633,
      "▁fr": 634,
      "alle": 635,
      "▁ara": 636,
      "▁yardımı": 637,
      "cılık": 638,
      "culuk": 639,
      "▁makin": 640,
      "▁yarıs": 641,
      "▁degeri": 642,
      "▁agaclar": 643,
      "▁bircok": 644,
      "▁houston": 645,
      "▁iyi": 646,
      "▁kalan": 647,
      "ali": 648,
      "▁yemeklerini": 649,
      "▁(": 650,
      "▁oylama": 651,
      "qu": 652,
      "▁ortaydi": 653,
      "▁iddi": 654,
      "▁gogs": 655,
      "▁kırıklıgı": 656,
      "▁agrı": 657,
      "hi": 658,
      "▁bazı": 659,
      "tarı": 660,
      "ladı": 661,
      "▁vicdan": 662,
      "▁pilotlar": 663,
      "▁borsada": 664,
      "ayıf": 665,
      "▁hot": 666,
      "eni": 667,
      "▁evlat": 668,
      "▁katıl": 669,
      "ital": 670,
      "etr": 671,
      "▁dokun": 672,
      "▁gev": 673,
      "▁he": 674,
      "▁duz": 675,
      "enden": 676,
      "▁sa": 677,
      "▁dumanı": 678,
      "▁tasım": 679,
      "▁bıy": 680,
      "▁rapor": 681,
      "ılmak": 682,
      "▁oluyordu": 683,
      "lerle": 684,
      "▁gob": 685,
      "▁sahipleri": 686,
      "▁end": 687,
      "▁mevsim": 688,
      "▁kabuk": 689,
      "▁kızı": 690,
      "▁secen": 691,
      "▁bahs": 692,
      "▁tesir": 693,
      "▁sanat": 694,
      "▁gidi": 695,
      "▁patlıcan": 696,
      "enuz": 697,
      "▁veto": 698,
      "yabilir": 699,
      "▁lid": 700,
      "uye": 701,
      "larında": 702,
      "▁etrafını": 703,
      "or": 704,
      "anlı": 705,
      "#": 706,
      "▁butc": 707,
      "▁yans": 708,
      "▁anket": 709,
      "arası": 710,
      "usunun": 711,
      "iklik": 712,
      "▁iceriden": 713,
      "ekt": 714,
      "▁soy": 715,
      "▁yarım": 716,
      "▁stand": 717,
      "▁arabalar": 718,
      "▁tesaduf": 719,
      "▁husus": 720,
      "isiyle": 721,
      "▁piyas": 722,
      "▁kısım": 723,
      "ati": 724,
      "▁kuslar": 725,
      "▁is": 726,
      "▁ih": 727,
      "▁aray": 728,
      "iyla": 729,
      "amiza": 730,
      "▁gelir": 731,
      "▁pencereden": 732,
      "▁mes": 733,
      "▁alt": 734,
      "▁okuyucu": 735,
      "▁bey": 736,
      "▁anlamak": 737,
      "▁24": 738,
      "▁karak": 739,
      "▁edecegini": 740,
      "▁portf": 741,
      "▁200": 742,
      "▁ef": 743,
      "▁ardına": 744,
      "▁bin": 745,
      "▁parkın": 746,
      ">": 747,
      "▁serg": 748,
      "▁belki": 749,
      "▁turuna": 750,
      "▁baslamıs": 751,
      "▁ark": 752,
      "lanı": 753,
      "tıgı": 754,
      "▁islemi": 755,
      "▁satım": 756,
      "tiler": 757,
      "iligi": 758,
      "masında": 759,
      "▁cebinden": 760,
      "usten": 761,
      "▁gurur": 762,
      "▁arabanın": 763,
      "▁sınav": 764,
      "▁ta": 765,
      "▁elde": 766,
      "▁basvur": 767,
      "▁sayfa": 768,
      "▁eleman": 769,
      "▁=": 770,
      "▁his": 771,
      "▁r": 772,
      "▁belediye": 773,
      "piyat": 774,
      "'u": 775,
      "a": 776,
      "▁olimpiyat": 777,
      "▁canım": 778,
      "▁fonları": 779,
      "▁varlıklar": 780,
      "▁vatand": 781,
      "▁fa": 782,
      "▁yang": 783,
      "▁orani": 784,
      "▁beyef": 785,
      "▁aslan": 786,
      "larımızın": 787,
      "uguna": 788,
      "allı": 789,
      "▁arada": 790,
      "▁oranları": 791,
      "▁koy": 792,
      "▁toh": 793,
      "▁ima": 794,
      "▁konustu": 795,
      "mazlık": 796,
      "▁baskanlık": 797,
      "▁kud": 798,
      "▁sozles": 799,
      "▁verdik": 800,
      "ch": 801,
      "▁dolap": 802,
      "▁bugday": 803,
      "▁satın": 804,
      "▁marj": 805,
      "▁yapım": 806,
      "▁hakkını": 807,
      "▁inc.": 808,
      "▁misafirimiz": 809,
      "▁kazandı": 810,
      "▁tahv": 811,
      "atını": 812,
      "▁cogun": 813,
      "▁icini": 814,
      "▁raf": 815,
      "▁nez": 816,
      "▁kayıt": 817,
      "▁elinin": 818,
      "▁cekilm": 819,
      "▁denge": 820,
      "▁yerlerden": 821,
      "▁gucluk": 822,
      "anlık": 823,
      "▁dol": 824,
      "▁dinlemek": 825,
      "▁ihracı": 826,
      "eci": 827,
      "▁calisanlarin": 828,
      "▁yeterli": 829,
      "▁kadınlara": 830,
      "▁iscilerin": 831,
      "▁olmaya": 832,
      "amam": 833,
      "▁basarısız": 834,
      "▁uyarı": 835,
      "▁yuzyılın": 836,
      "▁okuz": 837,
      "ansız": 838,
      "▁milleti": 839,
      "edil": 840,
      "aba": 841,
      "▁iste": 842,
      "▁oyuncusu": 843,
      "onelik": 844,
      "▁gum": 845,
      "▁teminat": 846,
      ".m": 847,
      "leye": 848,
      "▁kaldır": 849,
      "▁cizg": 850,
      "▁icra": 851,
      "▁kimyasal": 852,
      "es": 853,
      "ba": 854,
      "anmak": 855,
      "▁akt": 856,
      "▁konusmaya": 857,
      "irim": 858,
      "▁sembol": 859,
      "satı": 860,
      "▁sofor": 861,
      "astır": 862,
      "'nde": 863,
      "▁giyim": 864,
      "luga": 865,
      "▁sirkette": 866,
      "▁isle": 867,
      "▁mens": 868,
      "▁faz": 869,
      "▁hizmetinden": 870,
      "edi": 871,
      "fı": 872,
      "▁komisyonu": 873,
      "▁olmuyor": 874,
      "ısın": 875,
      "▁ekm": 876,
      "anta": 877,
      "▁sıv": 878,
      "▁getirisi": 879,
      "▁anım": 880,
      "artesi": 881,
      "irk": 882,
      "bur": 883,
      "ikleri": 884,
      "▁hukumeti": 885,
      "iyetle": 886,
      "undan": 887,
      "▁ticarette": 888,
      "▁suruyor": 889,
      "ap": 890,
      "ork": 891,
      "▁nef": 892,
      "▁tahvil": 893,
      "▁pittsburgh'tan": 894,
      "dın": 895,
      "▁daima": 896,
      "▁sessiz": 897,
      "iv": 898,
      "▁iklim": 899,
      "emedim": 900,
      "ni": 901,
      "cun": 902,
      "▁adına": 903,
      "▁saman": 904,
      "▁icten": 905,
      "▁inis": 906,
      "▁olm": 907,
      "▁istifa": 908,
      "ess": 909,
      "▁birini": 910,
      "▁bankaları": 911,
      "▁etrafa": 912,
      "gır": 913,
      "lanması": 914,
      "▁memnunuz": 915,
      "▁eti": 916,
      "▁calisanlar": 917,
      "anıt": 918,
      "▁piyasasında": 919,
      "inti": 920,
      "▁ihracat": 921,
      "▁isbirligi": 922,
      "▁yak": 923,
      "▁dunyada": 924,
      "▁ogrenmek": 925,
      ".5": 926,
      "medim": 927,
      "▁bugunun": 928,
      "▁milletin": 929,
      "▁gosterin": 930,
      "▁kaybı": 931,
      "▁siy": 932,
      "▁belirtti": 933,
      "▁finc": 934,
      "kel": 935,
      "kul": 936,
      "▁sop": 937,
      "▁ek": 938,
      "▁rekabet": 939,
      "ydı": 940,
      "▁duzen": 941,
      "abileceg": 942,
      "▁anim": 943,
      "tif": 944,
      "larıma": 945,
      "▁tahsil": 946,
      "▁nit": 947,
      "▁yanlıs": 948,
      "▁adam": 949,
      "▁rezervasyon": 950,
      "goz": 951,
      "usunu": 952,
      "▁yardimci": 953,
      "▁indianapolis": 954,
      "▁annemle": 955,
      "\\/8": 956,
      "▁emlak": 957,
      "▁yapmayı": 958,
      "eyebilir": 959,
      "lik": 960,
      "ji": 961,
      "▁dog": 962,
      "▁yetk": 963,
      "▁gunah": 964,
      "▁atlanta'dan": 965,
      "▁tarzı": 966,
      "▁ikram": 967,
      "_": 968,
      "▁bicimde": 969,
      "▁saldırı": 970,
      "lemis": 971,
      "elim": 972,
      "▁cir": 973,
      "▁avukatlar": 974,
      "▁kalmak": 975,
      "lının": 976,
      "▁isver": 977,
      "▁hayvan": 978,
      "ebilecek": 979,
      "▁terbiy": 980,
      "▁basında": 981,
      "▁deniz": 982,
      "▁dov": 983,
      "▁baskısı": 984,
      "▁mini": 985,
      "▁gunduz": 986,
      "'in": 987,
      "▁!": 988,
      "aları": 989,
      "▁tarihte": 990,
      "▁birlesme": 991,
      "▁yanl": 992,
      "▁ilgisizdi": 993,
      "ansiyon": 994,
      "▁iflas": 995,
      "▁kun": 996,
      "teki": 997,
      "▁yabanci": 998,
      "▁atmak": 999,
      "▁ugra": 1000,
      "▁kul": 1001,
      "▁baslıyor": 1002,
      "x": 1003,
      "atlı": 1004,
      "▁takım": 1005,
      "v": 1006,
      "▁cogunluk": 1007,
      "ya": 1008,
      "▁tama": 1009,
      "▁oldugu": 1010,
      "▁kimse": 1011,
      "▁yeterince": 1012,
      "ugunu": 1013,
      "▁kızlar": 1014,
      "▁anketi": 1015,
      "mey": 1016,
      "▁ucmam": 1017,
      "ını": 1018,
      "▁bolun": 1019,
      "▁baslan": 1020,
      "▁delta": 1021,
      "▁$'a": 1022,
      "▁ici": 1023,
      "▁dile": 1024,
      "▁hucum": 1025,
      "▁bagım": 1026,
      "igini": 1027,
      "▁uretimi": 1028,
      "unden": 1029,
      "▁sınır": 1030,
      "▁matematik": 1031,
      "▁hızla": 1032,
      "▁kanunu": 1033,
      "ecegim": 1034,
      "esini": 1035,
      "gıl": 1036,
      "evizyon": 1037,
      "▁tura": 1038,
      "▁bakır": 1039,
      "▁acıkladı": 1040,
      "▁kurs": 1041,
      "▁hafta": 1042,
      "▁kaynak": 1043,
      "▁siper": 1044,
      "▁gorus": 1045,
      "estiri": 1046,
      "ardı": 1047,
      "▁fena": 1048,
      "▁etmiyor": 1049,
      "▁pah": 1050,
      "▁kardes": 1051,
      "▁patates": 1052,
      "ncu": 1053,
      "os": 1054,
      "osu": 1055,
      "▁rady": 1056,
      "▁fan": 1057,
      "▁ver": 1058,
      "▁cen": 1059,
      "▁avuc": 1060,
      "yosu": 1061,
      "lıgına": 1062,
      "▁gunu": 1063,
      "ims": 1064,
      "adar": 1065,
      "▁fak": 1066,
      "kah": 1067,
      "▁sav": 1068,
      "ıkları": 1069,
      "▁sorum": 1070,
      "▁hurr": 1071,
      "meye": 1072,
      "▁onde": 1073,
      "▁sakat": 1074,
      "ada": 1075,
      "larındaki": 1076,
      "▁olmasa": 1077,
      "▁mec": 1078,
      "ed": 1079,
      "ısından": 1080,
      "1": 1081,
      "ani": 1082,
      "imdi": 1083,
      "▁konumu": 1084,
      "▁yun": 1085,
      "▁iade": 1086,
      "▁demektir": 1087,
      "▁mektup": 1088,
      "▁tutarında": 1089,
      "ont": 1090,
      "▁koye": 1091,
      "▁ayakk": 1092,
      "▁tan": 1093,
      "hangi": 1094,
      "▁sup": 1095,
      "▁ann": 1096,
      "▁jap": 1097,
      "▁ailesi": 1098,
      "▁bol": 1099,
      "▁maddes": 1100,
      "▁am": 1101,
      "▁3.": 1102,
      "kiler": 1103,
      "▁altını": 1104,
      "▁ip": 1105,
      "▁uzerinden": 1106,
      "lardan": 1107,
      "izasyon": 1108,
      "ektr": 1109,
      "ızda": 1110,
      "▁ye": 1111,
      "▁tak": 1112,
      "▁sıkınt": 1113,
      "▁bolgesi": 1114,
      "▁ayrı": 1115,
      "▁etti": 1116,
      "▁fin": 1117,
      ".ceyrek": 1118,
      "▁mum": 1119,
      "▁but": 1120,
      "▁lobi": 1121,
      "▁ceket": 1122,
      "▁dik": 1123,
      "▁dugun": 1124,
      "iledi": 1125,
      "kal": 1126,
      "▁ayd": 1127,
      "▁simdi": 1128,
      "eyn": 1129,
      "▁oyuna": 1130,
      "▁kocası": 1131,
      "urt": 1132,
      "▁dayan": 1133,
      "▁siddet": 1134,
      "mekten": 1135,
      "edav": 1136,
      "▁vapur": 1137,
      "▁cep": 1138,
      "▁komutan": 1139,
      "lerinden": 1140,
      "iness": 1141,
      "lerinde": 1142,
      "▁yardımcı": 1143,
      "▁yeryuz": 1144,
      "▁ey": 1145,
      "▁manzar": 1146,
      "'un": 1147,
      "▁mukemmeldi": 1148,
      "asına": 1149,
      "▁sigorta": 1150,
      "▁sauna": 1151,
      "▁ruh": 1152,
      "▁kanal": 1153,
      "▁lakırtı": 1154,
      "▁tasar": 1155,
      "▁dolardan": 1156,
      "▁havalim": 1157,
      "▁yumurta": 1158,
      "lerin": 1159,
      "▁ayakları": 1160,
      "▁coluk": 1161,
      "▁muda": 1162,
      "▁tasf": 1163,
      "▁leblebi": 1164,
      "▁tedav": 1165,
      "▁dikkate": 1166,
      "oz": 1167,
      "ediyor": 1168,
      "ecektir": 1169,
      "▁destek": 1170,
      "▁yanı": 1171,
      "▁oglen": 1172,
      "▁karsın": 1173,
      "▁teklifini": 1174,
      "gın": 1175,
      "▁kurdu": 1176,
      "abını": 1177,
      "▁hip": 1178,
      "▁koltuga": 1179,
      "lasman": 1180,
      "▁varan": 1181,
      "ter": 1182,
      "▁mikr": 1183,
      "isini": 1184,
      "▁magaz": 1185,
      "▁bilgilendir": 1186,
      "▁yo": 1187,
      "▁yagmur": 1188,
      "▁kel": 1189,
      "▁elli": 1190,
      "▁baskı": 1191,
      "uncu": 1192,
      "▁kopek": 1193,
      "▁ilgili": 1194,
      "▁boyu": 1195,
      "▁ert": 1196,
      "istirdi": 1197,
      "meden": 1198,
      "▁kamp": 1199,
      "ayi": 1200,
      "▁hizm": 1201,
      "▁kadar": 1202,
      "▁mecl": 1203,
      "ımları": 1204,
      "1'de": 1205,
      "▁icimde": 1206,
      "▁sabır": 1207,
      "rsı": 1208,
      "▁cez": 1209,
      "▁cent": 1210,
      "▁alısveris": 1211,
      "▁lamb": 1212,
      "▁tespit": 1213,
      "▁meclisi": 1214,
      "▁birey": 1215,
      "▁havası": 1216,
      "▁gene": 1217,
      "0'dan": 1218,
      "uyorum": 1219,
      "hut": 1220,
      "▁teraz": 1221,
      "▁istan": 1222,
      "▁hep": 1223,
      "▁po": 1224,
      "▁eylul": 1225,
      "▁&": 1226,
      "▁kıraat": 1227,
      "▁hak": 1228,
      "▁hal": 1229,
      "▁hale": 1230,
      "▁ney": 1231,
      "tusu": 1232,
      "▁if": 1233,
      "tırmak": 1234,
      "▁topragı": 1235,
      "ımızın": 1236,
      "enler": 1237,
      "▁yonetmen": 1238,
      "umus": 1239,
      "▁tir": 1240,
      "▁karayolu": 1241,
      "▁icerisinde": 1242,
      "kez": 1243,
      "▁merkez": 1244,
      "▁yapıl": 1245,
      "umuzu": 1246,
      "▁topu": 1247,
      "▁miktarda": 1248,
      "▁sev": 1249,
      "▁mur": 1250,
      "▁ulk": 1251,
      "▁veriyor": 1252,
      "edir": 1253,
      "▁aldı": 1254,
      "▁pey": 1255,
      "▁ceh": 1256,
      "▁acıldı": 1257,
      "▁dizgin": 1258,
      "inleri": 1259,
      "▁dedik": 1260,
      "▁ign": 1261,
      "▁sevgi": 1262,
      "▁zirv": 1263,
      "▁kasım": 1264,
      "▁kasaba": 1265,
      "▁isleme": 1266,
      "ne": 1267,
      "keti": 1268,
      "ri": 1269,
      "'a": 1270,
      "▁likid": 1271,
      "'ın": 1272,
      "▁rıht": 1273,
      "▁teknoloj": 1274,
      "▁tesisin": 1275,
      "▁chat": 1276,
      "ıtma": 1277,
      "▁yetersizdi": 1278,
      "▁rehberlik": 1279,
      "▁tah": 1280,
      "▁tarafından": 1281,
      "▁man": 1282,
      "ru": 1283,
      "▁hanima": 1284,
      "▁iktidar": 1285,
      "▁sirketinin": 1286,
      "▁cesitli": 1287,
      "ort": 1288,
      "▁kariyer": 1289,
      "asyon": 1290,
      "▁yemis": 1291,
      "▁sarkı": 1292,
      "▁sınıf": 1293,
      "▁musterileri": 1294,
      "▁belli": 1295,
      "▁proj": 1296,
      "▁reklam": 1297,
      "▁davran": 1298,
      "▁tasımacılıgı": 1299,
      "minin": 1300,
      "▁manz": 1301,
      "▁kelime": 1302,
      "▁hır": 1303,
      "▁faal": 1304,
      "ılmıs": 1305,
      "memiz": 1306,
      "▁bahan": 1307,
      "▁enst": 1308,
      "▁gozlem": 1309,
      "▁ulas": 1310,
      "[SEP]": 1311,
      "▁mail": 1312,
      "▁savun": 1313,
      "▁uc": 1314,
      "▁cim": 1315,
      "▁sert": 1316,
      "ırım": 1317,
      "▁fab": 1318,
      "▁kopr": 1319,
      "▁dal": 1320,
      "▁kardesim": 1321,
      "mıs": 1322,
      "eger": 1323,
      "iti": 1324,
      "▁santr": 1325,
      "▁doktoru": 1326,
      "▁ulkenin": 1327,
      "▁cesi": 1328,
      "onu": 1329,
      "▁zen": 1330,
      "▁oglum": 1331,
      "abilecegini": 1332,
      "▁anlay": 1333,
      "▁kurb": 1334,
      "▁sabaha": 1335,
      "▁yanımda": 1336,
      "▁planlıyor": 1337,
      "▁kıyafet": 1338,
      "▁yap": 1339,
      "▁ediyorlar": 1340,
      "▁duyg": 1341,
      "eginde": 1342,
      "▁millet": 1343,
      "▁q": 1344,
      "▁anlasması": 1345,
      "▁yiy": 1346,
      "▁guver": 1347,
      "▁balta": 1348,
      "▁kı": 1349,
      "▁iktis": 1350,
      "▁ulkede": 1351,
      "▁charl": 1352,
      "▁harcamaları": 1353,
      "lere": 1354,
      "▁olduklarını": 1355,
      "▁esn": 1356,
      "lanmadı": 1357,
      "▁eglence": 1358,
      "▁gorunce": 1359,
      "▁koyde": 1360,
      "▁ong": 1361,
      "▁pazarlama": 1362,
      "▁emn": 1363,
      "▁seklinde": 1364,
      "▁zevk": 1365,
      "▁alıp": 1366,
      "▁seviyesinde": 1367,
      "▁orne": 1368,
      "▁kes": 1369,
      "lılar": 1370,
      "aliforn": 1371,
      "▁kapıdan": 1372,
      "▁duv": 1373,
      "egen": 1374,
      "gım": 1375,
      "▁olursa": 1376,
      ")": 1377,
      "▁babasının": 1378,
      "▁muhafaza": 1379,
      "maktadır": 1380,
      "▁temizlikten": 1381,
      "▁icinden": 1382,
      "▁ıs": 1383,
      "▁bili": 1384,
      "▁cocuk": 1385,
      "▁basla": 1386,
      "ici": 1387,
      "▁lideri": 1388,
      "▁bilgi": 1389,
      "▁askerler": 1390,
      "lerimizin": 1391,
      "▁arazi": 1392,
      "ill": 1393,
      "▁imk": 1394,
      "▁sistem": 1395,
      "▁del": 1396,
      "▁tet": 1397,
      "ıyı": 1398,
      "▁esnaf": 1399,
      "dan": 1400,
      "aydı": 1401,
      "▁tahıl": 1402,
      "oru": 1403,
      "▁kahve": 1404,
      "▁kılıc": 1405,
      "▁duzel": 1406,
      "▁krizi": 1407,
      "▁o": 1408,
      "▁bırakmak": 1409,
      "▁milyar": 1410,
      "▁olmasi": 1411,
      "▁aktivite": 1412,
      "▁sehirler": 1413,
      "▁cad": 1414,
      "▁yer": 1415,
      "memis": 1416,
      "▁fazlası": 1417,
      "arın": 1418,
      "ılıga": 1419,
      "▁pasa": 1420,
      "tun": 1421,
      "▁ag": 1422,
      "1'e": 1423,
      "urg": 1424,
      "▁tutar": 1425,
      "▁gece": 1426,
      "igine": 1427,
      "▁islemler": 1428,
      "▁ustun": 1429,
      "▁val": 1430,
      "▁bahar": 1431,
      "▁bekleniyor": 1432,
      "ıklar": 1433,
      "▁dip": 1434,
      "lemek": 1435,
      "▁gittik": 1436,
      "ig": 1437,
      "▁rol": 1438,
      "▁gelistir": 1439,
      "▁yapısı": 1440,
      "▁alabilir": 1441,
      "▁katkı": 1442,
      "ıcak": 1443,
      "de": 1444,
      "▁sayesinde": 1445,
      "▁toplum": 1446,
      "ıgında": 1447,
      "▁cey": 1448,
      "▁amerikalılar": 1449,
      "emmel": 1450,
      "▁kendime": 1451,
      "▁ora": 1452,
      "lerimize": 1453,
      "▁acıl": 1454,
      "▁yud": 1455,
      "▁uzer": 1456,
      "bası": 1457,
      "▁veri": 1458,
      "impiyat": 1459,
      "▁sozler": 1460,
      "gor": 1461,
      "ıslar": 1462,
      "▁hukumdar": 1463,
      "▁felsef": 1464,
      "▁havayollarında": 1465,
      "▁cuk": 1466,
      "ilmesini": 1467,
      "lug": 1468,
      "▁dah": 1469,
      "gının": 1470,
      "▁kriz": 1471,
      "▁bilgisi": 1472,
      "▁durum": 1473,
      "▁dus": 1474,
      "▁secim": 1475,
      "▁yerel": 1476,
      "▁kimlik": 1477,
      "▁sigort": 1478,
      "▁kesint": 1479,
      "▁eylem": 1480,
      "▁gosteri": 1481,
      "▁imparator": 1482,
      "▁abd": 1483,
      "▁sahibinin": 1484,
      "▁tuvalet": 1485,
      "▁kap": 1486,
      "ası": 1487,
      "▁hakkinda": 1488,
      "▁form": 1489,
      "000": 1490,
      "▁uzakti": 1491,
      "▁odaydi": 1492,
      "▁demokrasi": 1493,
      "zir": 1494,
      "▁sol": 1495,
      "▁koc": 1496,
      "▁dısı": 1497,
      "▁kalp": 1498,
      "▁bazi": 1499,
      "▁sı": 1500,
      "ımda": 1501,
      "▁grev": 1502,
      "▁ince": 1503,
      "eleri": 1504,
      "▁kapıyı": 1505,
      "etik": 1506,
      "▁barıs": 1507,
      "▁tabanc": 1508,
      "▁duzenlem": 1509,
      "/": 1510,
      "sunuz": 1511,
      "div": 1512,
      "▁demet": 1513,
      "▁iceri": 1514,
      "▁sonu": 1515,
      "ıl": 1516,
      "▁28": 1517,
      "▁masada": 1518,
      "▁rec": 1519,
      "▁calı": 1520,
      "▁mel": 1521,
      "▁izlen": 1522,
      "▁oranı": 1523,
      "▁olus": 1524,
      "▁basımı": 1525,
      "▁dunyası": 1526,
      "▁juri": 1527,
      "alardan": 1528,
      "▁ind": 1529,
      "▁maliyetleri": 1530,
      "lıgımı": 1531,
      "▁sozlesmesi": 1532,
      "▁yuksekti": 1533,
      "▁biz": 1534,
      "▁dukkan": 1535,
      "ıc": 1536,
      "▁oteden": 1537,
      "siz": 1538,
      "▁mevcut": 1539,
      "▁tatlilar": 1540,
      "kun": 1541,
      "▁ucuna": 1542,
      "▁kanun": 1543,
      "▁terey": 1544,
      "▁tutum": 1545,
      "elere": 1546,
      "▁faktor": 1547,
      "▁hus": 1548,
      "▁profes": 1549,
      "▁herk": 1550,
      "▁kisiyi": 1551,
      "▁suyunu": 1552,
      "▁kurban": 1553,
      "▁verim": 1554,
      "▁seyir": 1555,
      "▁gozyas": 1556,
      "umuzde": 1557,
      "gmen": 1558,
      "▁verdigini": 1559,
      "▁newark": 1560,
      "unce": 1561,
      "▁yedi": 1562,
      "ane": 1563,
      "▁kirpik": 1564,
      "tik": 1565,
      "▁yazık": 1566,
      "▁meb": 1567,
      "▁kazancları": 1568,
      "lıkla": 1569,
      "sarak": 1570,
      "▁basa": 1571,
      "▁coban": 1572,
      "▁ayından": 1573,
      "▁olmak": 1574,
      "▁bab": 1575,
      "▁kada": 1576,
      "▁imkan": 1577,
      "▁calısmaya": 1578,
      "▁oturum": 1579,
      "▁eksikligi": 1580,
      "▁durusma": 1581,
      "tem": 1582,
      "▁kod": 1583,
      "▁tenc": 1584,
      "▁mir": 1585,
      "lgelelim": 1586,
      ".2": 1587,
      "isin": 1588,
      "▁plana": 1589,
      "▁aradan": 1590,
      "indeki": 1591,
      "▁ot": 1592,
      "▁arasında": 1593,
      "▁seyahat": 1594,
      "▁editor": 1595,
      "aklı": 1596,
      "5'te": 1597,
      "ong": 1598,
      "▁kalma": 1599,
      "▁sekilde": 1600,
      "nam": 1601,
      "desi": 1602,
      "▁ıskarta": 1603,
      "ash": 1604,
      "ot": 1605,
      "yla": 1606,
      "▁genclik": 1607,
      "▁korun": 1608,
      "▁uzerinde": 1609,
      "▁konumunu": 1610,
      "▁ogul": 1611,
      "sal": 1612,
      "▁tekn": 1613,
      "▁oyn": 1614,
      "▁kokusu": 1615,
      "▁komsu": 1616,
      "▁kep": 1617,
      "tor": 1618,
      "unca": 1619,
      "▁olaydan": 1620,
      "▁anda": 1621,
      "gul": 1622,
      "eyim": 1623,
      "▁vakit": 1624,
      "▁yaptıgını": 1625,
      "iyetini": 1626,
      "▁mesaj": 1627,
      "nci": 1628,
      "▁egzersiz": 1629,
      "▁uret": 1630,
      "apark": 1631,
      "▁yangın": 1632,
      "▁yili": 1633,
      "ısız": 1634,
      "▁urunu": 1635,
      "▁video": 1636,
      "imize": 1637,
      "▁arkada": 1638,
      "▁konferans": 1639,
      "raf": 1640,
      "▁detayları": 1641,
      "▁vagon": 1642,
      "inizi": 1643,
      "▁hicbiri": 1644,
      "▁?": 1645,
      "▁impar": 1646,
      "o'dan": 1647,
      "▁sez": 1648,
      "ydi": 1649,
      "▁baglant": 1650,
      "▁yansı": 1651,
      "gan": 1652,
      "▁19": 1653,
      "▁satıslara": 1654,
      "▁dallas": 1655,
      "▁saatlerde": 1656,
      "▁yargıc": 1657,
      "▁beden": 1658,
      "▁savası": 1659,
      "▁alternatif": 1660,
      "ulur": 1661,
      "▁otur": 1662,
      "▁sag": 1663,
      "▁uyeleri": 1664,
      "▁pesinden": 1665,
      "▁goc": 1666,
      "▁ihtiyar": 1667,
      "▁muhabbet": 1668,
      "▁dow": 1669,
      "▁damak": 1670,
      "▁ithalat": 1671,
      "▁paraya": 1672,
      "▁yıl": 1673,
      "▁suphe": 1674,
      "ye": 1675,
      "▁hatır": 1676,
      "▁urunler": 1677,
      "▁cob": 1678,
      "▁masal": 1679,
      "▁sabah": 1680,
      "▁salt": 1681,
      "▁orgut": 1682,
      "▁af": 1683,
      "liligini": 1684,
      "akal": 1685,
      "▁uzay": 1686,
      "▁sade": 1687,
      "▁”": 1688,
      "▁caz": 1689,
      "▁doları": 1690,
      "ental": 1691,
      "▁carte": 1692,
      "liligi": 1693,
      "tern": 1694,
      "▁kadın": 1695,
      "▁haric": 1696,
      "ladi": 1697,
      "forlu": 1698,
      "▁bekl": 1699,
      "▁nerede": 1700,
      "▁amc": 1701,
      "nin": 1702,
      "▁calıstı": 1703,
      "▁standart": 1704,
      "▁odamiz": 1705,
      "▁muster": 1706,
      "▁merdiv": 1707,
      "3": 1708,
      "▁arastırma": 1709,
      "er": 1710,
      "▁ulasımını": 1711,
      "▁hukumet": 1712,
      "▁selam": 1713,
      "▁programı": 1714,
      "▁ice": 1715,
      "bah": 1716,
      "▁hakkı": 1717,
      "madıgını": 1718,
      "▁dunyayı": 1719,
      "ca": 1720,
      "usune": 1721,
      "▁yardım": 1722,
      "▁tal": 1723,
      "▁utan": 1724,
      "▁sikay": 1725,
      "▁dusunuyor": 1726,
      "mektedir": 1727,
      "▁ruya": 1728,
      "▁telefonla": 1729,
      "mız": 1730,
      "▁ihtiyacım": 1731,
      "agını": 1732,
      "▁zarar": 1733,
      "▁calısan": 1734,
      "▁halk": 1735,
      "▁zev": 1736,
      "▁ugr": 1737,
      "▁altern": 1738,
      "▁ars": 1739,
      "tur": 1740,
      "▁azınlık": 1741,
      "▁satıcı": 1742,
      "vel": 1743,
      "▁um": 1744,
      "layıp": 1745,
      "lusu": 1746,
      "▁saf": 1747,
      "atur": 1748,
      "▁haberi": 1749,
      "▁meydan": 1750,
      "▁duvarı": 1751,
      "“": 1752,
      "olog": 1753,
      "▁aksam": 1754,
      "▁oldu": 1755,
      "​": 1756,
      "▁gemi": 1757,
      "▁ydı": 1758,
      "ika": 1759,
      "iyer": 1760,
      "emek": 1761,
      "▁say": 1762,
      "onya": 1763,
      "▁korumak": 1764,
      "▁kahvaltisi": 1765,
      "▁kurtaj": 1766,
      "▁kızın": 1767,
      "▁ekim": 1768,
      "▁fır": 1769,
      "▁olmayacak": 1770,
      "▁yık": 1771,
      "cul": 1772,
      "▁yaptirdi": 1773,
      "▁allah": 1774,
      "▁gerc": 1775,
      "▁9": 1776,
      "dıg": 1777,
      "▁%": 1778,
      "rlik": 1779,
      "lerde": 1780,
      "▁goturdu": 1781,
      "▁moral": 1782,
      "▁yetkilisi": 1783,
      "dikten": 1784,
      "esiyle": 1785,
      "iyet": 1786,
      "▁bura": 1787,
      "▁agr": 1788,
      "▁erkek": 1789,
      "▁gozlerim": 1790,
      "▁hissediyor": 1791,
      "▁haftanın": 1792,
      "▁yeniden": 1793,
      "▁ayrım": 1794,
      "ham": 1795,
      "▁zah": 1796,
      "▁baslamıstı": 1797,
      "▁phoenix": 1798,
      "▁analiz": 1799,
      "▁gov": 1800,
      "▁rengi": 1801,
      "sun": 1802,
      "endir": 1803,
      "▁strateji": 1804,
      "▁kole": 1805,
      "dikler": 1806,
      "aya": 1807,
      "▁ra": 1808,
      "▁vermedi": 1809,
      "▁ayaklarını": 1810,
      "▁sirketi": 1811,
      "▁yokus": 1812,
      "▁bolg": 1813,
      "orth": 1814,
      "▁kendine": 1815,
      "▁lok": 1816,
      "yası": 1817,
      "▁ustelik": 1818,
      "▁sesini": 1819,
      "ırak": 1820,
      "▁kons": 1821,
      "▁gerekse": 1822,
      "ukca": 1823,
      "oy": 1824,
      "▁phoeni": 1825,
      "▁konusunda": 1826,
      "rını": 1827,
      "▁birden": 1828,
      "▁og": 1829,
      "gim": 1830,
      "▁hayalet": 1831,
      "▁arkadası": 1832,
      "▁degil": 1833,
      "ıcının": 1834,
      "dig": 1835,
      "▁gelmis": 1836,
      "▁darbuk": 1837,
      "▁olu": 1838,
      "▁gazetenin": 1839,
      "▁yonet": 1840,
      "▁cıkıs": 1841,
      "▁puanlama": 1842,
      "ıldı": 1843,
      "▁arap": 1844,
      "▁ekmek": 1845,
      "erv": 1846,
      "▁muzigi": 1847,
      "▁sonundan": 1848,
      "▁tabi": 1849,
      "ayı": 1850,
      "▁amerikan": 1851,
      "▁boyut": 1852,
      "▁gog": 1853,
      "▁uygulam": 1854,
      "▁sirketin": 1855,
      "▁karab": 1856,
      "▁tam": 1857,
      "mesin": 1858,
      "▁fasul": 1859,
      "▁artısı": 1860,
      "ık": 1861,
      "▁fark": 1862,
      "▁guclu": 1863,
      "isinda": 1864,
      "▁yıllardan": 1865,
      "▁sit": 1866,
      "ucu": 1867,
      "▁yonetiminin": 1868,
      "▁biraz": 1869,
      "▁hareketi": 1870,
      "▁7": 1871,
      "▁zih": 1872,
      "attle": 1873,
      "rlikte": 1874,
      "0'a": 1875,
      "▁ceph": 1876,
      "▁mahkemesi": 1877,
      "▁kampanyalardan": 1878,
      "▁isg": 1879,
      "▁degirmen": 1880,
      "▁isler": 1881,
      "▁bulama": 1882,
      "▁ogr": 1883,
      "lilik": 1884,
      "▁orman": 1885,
      "imizin": 1886,
      "▁yoktur": 1887,
      "▁onune": 1888,
      "▁resim": 1889,
      "▁sifir": 1890,
      "▁orn": 1891,
      "dır": 1892,
      "indi": 1893,
      "amı": 1894,
      "▁karısının": 1895,
      "▁kazancı": 1896,
      "▁kisinin": 1897,
      "▁num": 1898,
      "mar": 1899,
      "▁vir": 1900,
      "▁temsilcileri": 1901,
      "▁hissenin": 1902,
      "▁korkusu": 1903,
      "▁duruma": 1904,
      "dıgı": 1905,
      "itli": 1906,
      "▁disi": 1907,
      "▁sansur": 1908,
      "▁yukarı": 1909,
      "▁yasay": 1910,
      "▁ileri": 1911,
      "▁baglantı": 1912,
      "▁4": 1913,
      "▁first": 1914,
      "▁sel": 1915,
      "ana": 1916,
      "▁kirp": 1917,
      "▁geceler": 1918,
      "▁baskalarının": 1919,
      "kuz": 1920,
      "ısını": 1921,
      "▁payı": 1922,
      "kten": 1923,
      "▁oldum": 1924,
      "▁hedefleri": 1925,
      "▁jo": 1926,
      "gum": 1927,
      "▁gosterir": 1928,
      "▁harp": 1929,
      "▁odalardan": 1930,
      "▁gormez": 1931,
      "▁meden": 1932,
      "▁yem": 1933,
      "mamız": 1934,
      "▁odanın": 1935,
      "cagız": 1936,
      "▁icecekleri": 1937,
      "▁lirayı": 1938,
      "▁puandan": 1939,
      "adel": 1940,
      "▁yola": 1941,
      "▁tadimiza": 1942,
      "▁pist": 1943,
      "▁gorusmek": 1944,
      "▁hucre": 1945,
      "andır": 1946,
      "▁sahneye": 1947,
      "▁dolay": 1948,
      "sekiz": 1949,
      "▁ettigi": 1950,
      "o'ya": 1951,
      "ger": 1952,
      "▁class": 1953,
      "mur": 1954,
      "▁:": 1955,
      "orlu": 1956,
      "gunluk": 1957,
      "▁sonradan": 1958,
      "▁birles": 1959,
      "alarını": 1960,
      "▁endeks": 1961,
      "▁dusuk": 1962,
      "▁muhab": 1963,
      "▁nufus": 1964,
      "▁hamle": 1965,
      "▁aktar": 1966,
      "▁gon": 1967,
      "ost": 1968,
      "kilerin": 1969,
      "▁traf": 1970,
      "▁edip": 1971,
      "▁krem": 1972,
      "▁espr": 1973,
      "▁seg": 1974,
      "▁sırt": 1975,
      "▁tek": 1976,
      "siye": 1977,
      "▁iceriyor": 1978,
      "▁gorusuldu": 1979,
      "kan": 1980,
      "ilig": 1981,
      "luyor": 1982,
      "▁fer": 1983,
      "aca": 1984,
      "▁kacak": 1985,
      "▁gars": 1986,
      "▁fasuly": 1987,
      "▁giriste": 1988,
      "▁fakult": 1989,
      "▁macı": 1990,
      "inizin": 1991,
      "▁olaylara": 1992,
      "nız": 1993,
      "osunda": 1994,
      "▁kagıdı": 1995,
      "▁lir": 1996,
      "▁yapar": 1997,
      "▁malı": 1998,
      "etic": 1999,
      "ilendir": 2000,
      "▁mukemmel": 2001,
      "aralı": 2002,
      "▁agabey": 2003,
      "lan": 2004,
      "▁sık": 2005,
      "▁ile": 2006,
      "▁kardesinin": 2007,
      "▁suik": 2008,
      "▁yukselisle": 2009,
      "▁gec": 2010,
      "▁hoc": 2011,
      "etini": 2012,
      "▁birbirler": 2013,
      "▁ster": 2014,
      "▁disip": 2015,
      "▁kısıt": 2016,
      "▁prosed": 2017,
      "▁hamam": 2018,
      "oyu": 2019,
      "▁ide": 2020,
      "▁artıs": 2021,
      "▁cıkmak": 2022,
      "▁bedel": 2023,
      "▁cekim": 2024,
      "▁suları": 2025,
      "▁duyguları": 2026,
      "▁kagıt": 2027,
      "▁herkes": 2028,
      "▁dalga": 2029,
      "▁8'den": 2030,
      "▁karmas": 2031,
      "▁dav": 2032,
      "▁kuy": 2033,
      "▁derde": 2034,
      "▁ucuslarının": 2035,
      "ladıgı": 2036,
      "▁dosy": 2037,
      "'dan": 2038,
      "▁hizmette": 2039,
      "▁onumuzdeki": 2040,
      "▁23": 2041,
      "▁ortalıgı": 2042,
      "isleri": 2043,
      "▁oyuncu": 2044,
      "▁baskanlıgı": 2045,
      "*": 2046,
      "▁bakanlıgı": 2047,
      "apon": 2048,
      "▁ragmen": 2049,
      "▁sozcuk": 2050,
      "anlar": 2051,
      "▁tacirler": 2052,
      "cag": 2053,
      "▁ilg": 2054,
      "▁memnun": 2055,
      "ıcı": 2056,
      "▁kapısının": 2057,
      "alari": 2058,
      "'ndan": 2059,
      "▁hapis": 2060,
      "▁temet": 2061,
      "▁mul": 2062,
      "▁mode": 2063,
      "▁cadde": 2064,
      "ex": 2065,
      "tıgına": 2066,
      "▁mektep": 2067,
      "▁etme": 2068,
      "esinden": 2069,
      "eyle": 2070,
      "▁dep": 2071,
      "2'de": 2072,
      "▁tr": 2073,
      "▁dek": 2074,
      "▁kaliteye": 2075,
      "▁kayb": 2076,
      "▁maas": 2077,
      "▁yılların": 2078,
      "▁yas": 2079,
      "▁heyecan": 2080,
      "▁bede": 2081,
      "ibe": 2082,
      "▁mani": 2083,
      "▁oper": 2084,
      "▁doviz": 2085,
      "ini": 2086,
      "▁senator": 2087,
      "▁lezzetli": 2088,
      "▁delik": 2089,
      "▁ekledi": 2090,
      "▁halen": 2091,
      "▁komur": 2092,
      "▁vadesi": 2093,
      "▁oncesi": 2094,
      "▁ortak": 2095,
      "▁satır": 2096,
      "▁bakıma": 2097,
      "tıgında": 2098,
      "temelen": 2099,
      "▁konus": 2100,
      "▁camasır": 2101,
      "▁evr": 2102,
      "▁buldu": 2103,
      "▁sid": 2104,
      "▁sın": 2105,
      "▁ist": 2106,
      "▁beri": 2107,
      "ahan": 2108,
      "▁egem": 2109,
      "▁yapmadı": 2110,
      "▁altına": 2111,
      "▁savas": 2112,
      "▁istiklal": 2113,
      "▁i": 2114,
      "▁kalmıs": 2115,
      "▁yerini": 2116,
      "▁kesim": 2117,
      "▁kongr": 2118,
      "▁taksi": 2119,
      "▁dor": 2120,
      "▁otelde": 2121,
      "▁kac": 2122,
      "▁fayda": 2123,
      "▁belge": 2124,
      "ından": 2125,
      "izdi": 2126,
      "▁geyik": 2127,
      "agına": 2128,
      "▁kahvaltı": 2129,
      "▁amel": 2130,
      "▁girisim": 2131,
      "ebil": 2132,
      "▁geminin": 2133,
      "emin": 2134,
      "▁ucusları": 2135,
      "lık": 2136,
      "[MASK]": 2137,
      "▁yoneticiler": 2138,
      "ese": 2139,
      "▁luk": 2140,
      "▁tel": 2141,
      "▁bunların": 2142,
      "▁olması": 2143,
      "▁lezzetleri": 2144,
      "▁hekim": 2145,
      "onra": 2146,
      "mustum": 2147,
      "▁kr": 2148,
      "▁duser": 2149,
      "▁eve": 2150,
      "uz": 2151,
      "▁kelimesi": 2152,
      "aseb": 2153,
      "▁odalarin": 2154,
      "▁oncelik": 2155,
      "larını": 2156,
      "lardı": 2157,
      "amba": 2158,
      "▁yasama": 2159,
      "▁artık": 2160,
      "▁istanbul": 2161,
      "▁ilgilendiler": 2162,
      "▁terbiye": 2163,
      "dugu": 2164,
      "▁satıs": 2165,
      "▁talih": 2166,
      "▁acık": 2167,
      "▁varil": 2168,
      "▁domuz": 2169,
      "▁adamlar": 2170,
      "▁yıldız": 2171,
      "▁degisiklikler": 2172,
      "▁alısver": 2173,
      "▁iddiaları": 2174,
      "▁mudahale": 2175,
      "▁semt": 2176,
      "▁tasv": 2177,
      "derek": 2178,
      "▁saglık": 2179,
      "enk": 2180,
      "▁zaten": 2181,
      "▁skandal": 2182,
      "▁yatırımcı": 2183,
      "▁havalimanı": 2184,
      "▁bekliyor": 2185,
      "▁arac": 2186,
      "▁hazir": 2187,
      "▁fran": 2188,
      "▁kayn": 2189,
      "▁sahibi": 2190,
      "liklerini": 2191,
      "▁sarsıntı": 2192,
      "amak": 2193,
      "▁eline": 2194,
      "▁kasır": 2195,
      "eh": 2196,
      "▁iz": 2197,
      "▁onunla": 2198,
      "▁uslu": 2199,
      "▁kaldim": 2200,
      "▁kıymetleri": 2201,
      "▁sorusturma": 2202,
      "▁kut": 2203,
      "▁dusunuyorum": 2204,
      "▁koydu": 2205,
      "tlu": 2206,
      "imiza": 2207,
      "▁duydu": 2208,
      "▁asans": 2209,
      "▁asker": 2210,
      "▁vaz": 2211,
      "▁trafik": 2212,
      "▁sig": 2213,
      "▁huz": 2214,
      "▁anası": 2215,
      "melidir": 2216,
      "▁seytan": 2217,
      "▁ana": 2218,
      "lanmak": 2219,
      "▁yatır": 2220,
      "dıgımız": 2221,
      "▁gazin": 2222,
      "▁uretic": 2223,
      "▁miami": 2224,
      "▁kumas": 2225,
      "leti": 2226,
      "▁kosede": 2227,
      "▁ustunde": 2228,
      "▁it": 2229,
      "▁cift": 2230,
      "▁ben": 2231,
      "▁galiba": 2232,
      "▁suyu": 2233,
      "▁du": 2234,
      "▁yakıt": 2235,
      "ıyor": 2236,
      "ta": 2237,
      "▁enflasyon": 2238,
      "bol": 2239,
      "asında": 2240,
      "▁devlet": 2241,
      "iyordu": 2242,
      "▁ucretleri": 2243,
      "▁balayi": 2244,
      "▁bulgu": 2245,
      "▁kopru": 2246,
      "▁marka": 2247,
      "lerini": 2248,
      "ia": 2249,
      "bak": 2250,
      "dug": 2251,
      "▁buraya": 2252,
      "▁sonr": 2253,
      "▁ulusal": 2254,
      "alarda": 2255,
      "me": 2256,
      "3'e": 2257,
      "va": 2258,
      "▁kapasitesi": 2259,
      "▁ortalaması": 2260,
      "▁mit": 2261,
      "▁prop": 2262,
      "op": 2263,
      "▁za": 2264,
      "nun": 2265,
      "▁fabrika": 2266,
      "▁acen": 2267,
      "▁yetersiz": 2268,
      "▁neredeyse": 2269,
      "lıc": 2270,
      "▁kulak": 2271,
      "▁turk": 2272,
      "▁cat": 2273,
      "▁olasılık": 2274,
      "▁ayna": 2275,
      "▁sozlerine": 2276,
      "▁cocuklarını": 2277,
      "eket": 2278,
      "▁etmek": 2279,
      "lamaz": 2280,
      "▁piyasaya": 2281,
      "▁endustri": 2282,
      "▁burası": 2283,
      "▁degisik": 2284,
      "▁mark": 2285,
      "▁kapısından": 2286,
      "lanır": 2287,
      "ladık": 2288,
      "▁gerceklestir": 2289,
      "▁aday": 2290,
      "▁emtia": 2291,
      "▁atılım": 2292,
      "▁ikin": 2293,
      "bu": 2294,
      "amay": 2295,
      "▁ucretine": 2296,
      "▁surdu": 2297,
      "▁kucuk": 2298,
      "▁sun": 2299,
      "masını": 2300,
      "osun": 2301,
      "sul": 2302,
      "tıl": 2303,
      "dılar": 2304,
      "-": 2305,
      "▁bakan": 2306,
      "ina": 2307,
      "▁kog": 2308,
      "▁subay": 2309,
      "ebilmek": 2310,
      "▁cocuklug": 2311,
      "▁yazarı": 2312,
      "phis": 2313,
      "▁piyasanın": 2314,
      "▁icer": 2315,
      "▁hey": 2316,
      "▁tv": 2317,
      "▁sahne": 2318,
      "▁artırmak": 2319,
      "▁yaptirmadim": 2320,
      "▁asl": 2321,
      "▁belir": 2322,
      "▁icine": 2323,
      "▁benim": 2324,
      "▁makaleye": 2325,
      "ur": 2326,
      "▁le": 2327,
      "▁tahta": 2328,
      "▁hukuk": 2329,
      "▁etrafında": 2330,
      "▁ocak": 2331,
      "▁gunluk": 2332,
      "▁sonucların": 2333,
      "acı": 2334,
      "inlik": 2335,
      "▁hanimla": 2336,
      "▁otobus": 2337,
      "▁varlıgını": 2338,
      "yi": 2339,
      "▁ikinci": 2340,
      "▁renkli": 2341,
      "▁kucuktu": 2342,
      "deki": 2343,
      "▁20": 2344,
      "▁gost": 2345,
      "ens": 2346,
      "▁ecz": 2347,
      "reti": 2348,
      "ef": 2349,
      "▁konak": 2350,
      "▁bakın": 2351,
      "▁cun": 2352,
      "▁uzum": 2353,
      "▁hun": 2354,
      "asının": 2355,
      "amıs": 2356,
      "'": 2357,
      "▁duvarlar": 2358,
      "elerinin": 2359,
      "▁rolu": 2360,
      "▁teklifin": 2361,
      "tti": 2362,
      "▁cagr": 2363,
      "▁vatandas": 2364,
      "▁cuval": 2365,
      "▁neden": 2366,
      "▁ode": 2367,
      "▁usta": 2368,
      "▁ortamda": 2369,
      "▁isci": 2370,
      "hu": 2371,
      "▁": 2372,
      "▁gunun": 2373,
      "▁hayatta": 2374,
      "▁birisi": 2375,
      "lıgıyla": 2376,
      "▁iyice": 2377,
      "▁salat": 2378,
      "▁havaalanından": 2379,
      "▁ucretlerini": 2380,
      "iki": 2381,
      "▁buldum": 2382,
      "uyoruz": 2383,
      "lunun": 2384,
      "▁adamları": 2385,
      "▁.)": 2386,
      "gal": 2387,
      "▁kadınlar": 2388,
      "▁seyr": 2389,
      "▁kadına": 2390,
      "▁tered": 2391,
      "▁bayram": 2392,
      "▁hanım": 2393,
      "▁getirir": 2394,
      "▁yıllardır": 2395,
      "enin": 2396,
      "yasal": 2397,
      "▁edilen": 2398,
      "▁odam": 2399,
      "▁a.m": 2400,
      "▁tedavulde": 2401,
      "▁yonuyle": 2402,
      "▁konuya": 2403,
      "ian": 2404,
      "▁dahi": 2405,
      "▁uygu": 2406,
      "uzu": 2407,
      "▁goruyor": 2408,
      "cilerin": 2409,
      "▁duserek": 2410,
      "▁dısarıda": 2411,
      "▁cocuklu": 2412,
      "elleri": 2413,
      "▁cal": 2414,
      "▁ayrıca": 2415,
      "▁ab": 2416,
      "▁komisyonları": 2417,
      "▁mas": 2418,
      "▁cop": 2419,
      "▁katı": 2420,
      "▁dakika": 2421,
      "▁nih": 2422,
      "▁c": 2423,
      "manlar": 2424,
      "▁ekonomik": 2425,
      "▁dusunmuyor": 2426,
      "▁hou": 2427,
      "▁seans": 2428,
      "▁yıllarında": 2429,
      "▁ilisk": 2430,
      "▁yor": 2431,
      "▁hakikat": 2432,
      "▁tur": 2433,
      "▁ortadan": 2434,
      "uc": 2435,
      "▁onemi": 2436,
      "dıgımı": 2437,
      "he": 2438,
      "▁gel": 2439,
      "▁borsası'nda": 2440,
      "oeni": 2441,
      "▁rahat": 2442,
      "▁tazminat": 2443,
      "▁lezz": 2444,
      "▁saglam": 2445,
      "▁karsiligini": 2446,
      "anını": 2447,
      "▁iceriye": 2448,
      "▁kaldırım": 2449,
      "▁.\"": 2450,
      "▁icat": 2451,
      "▁ins": 2452,
      "▁beraber": 2453,
      "▁oldugunu": 2454,
      "ildi": 2455,
      "niz": 2456,
      "▁yuksek": 2457,
      "dev": 2458,
      "▁av": 2459,
      "tih": 2460,
      "▁kafa": 2461,
      "umuza": 2462,
      "▁bonolar": 2463,
      "▁kapan": 2464,
      "ak": 2465,
      "▁met": 2466,
      "▁sız": 2467,
      "ır": 2468,
      "▁teror": 2469,
      "▁m": 2470,
      "▁salonunda": 2471,
      "▁ayakta": 2472,
      "▁tutul": 2473,
      "▁elektr": 2474,
      "▁eser": 2475,
      "▁yetkili": 2476,
      "▁ayr": 2477,
      "aat": 2478,
      "▁muhafazak": 2479,
      "▁etmeyi": 2480,
      "▁tahsis": 2481,
      "▁milli": 2482,
      "▁alay": 2483,
      "bin": 2484,
      "▁olan": 2485,
      "▁olanları": 2486,
      "▁kurumları": 2487,
      "ili": 2488,
      "▁nes": 2489,
      "▁omr": 2490,
      "▁servet": 2491,
      "▁uzman": 2492,
      "▁sandaly": 2493,
      "▁por": 2494,
      "▁piyasada": 2495,
      "ldi": 2496,
      "malar": 2497,
      "lılıgı": 2498,
      "tıs": 2499,
      "▁doktorun": 2500,
      "teri": 2501,
      "▁firma": 2502,
      "▁sehri": 2503,
      "▁tencer": 2504,
      "otu": 2505,
      "▁ede": 2506,
      ".9": 2507,
      "oya": 2508,
      "tum": 2509,
      "▁olabil": 2510,
      "▁onayına": 2511,
      "▁teb": 2512,
      "▁secmen": 2513,
      "stu": 2514,
      "▁st": 2515,
      "▁topraga": 2516,
      "▁yabanc": 2517,
      "▁cekildi": 2518,
      "▁indian": 2519,
      "▁es": 2520,
      "▁lam": 2521,
      "▁gayret": 2522,
      "must": 2523,
      "▁efendim": 2524,
      "▁soru": 2525,
      "▁sterlin": 2526,
      "▁munaseb": 2527,
      "ore": 2528,
      "▁uye": 2529,
      "▁yıla": 2530,
      "▁hepsinin": 2531,
      "irdi": 2532,
      "▁hukumetin": 2533,
      "▁genellikle": 2534,
      "▁kanaat": 2535,
      "▁noktaya": 2536,
      "emizin": 2537,
      "▁arabayı": 2538,
      "▁salon": 2539,
      "imizi": 2540,
      "▁geli": 2541,
      "▁danıs": 2542,
      "adı": 2543,
      "ilir": 2544,
      "▁mim": 2545,
      "▁gaf": 2546,
      "lar": 2547,
      "▁tari": 2548,
      "kin": 2549,
      "▁doktora": 2550,
      "▁ob": 2551,
      "▁dısisleri": 2552,
      "▁acıgı": 2553,
      "ade": 2554,
      "▁kurumu": 2555,
      "▁malzeme": 2556,
      "▁yastık": 2557,
      "▁sark": 2558,
      "▁w": 2559,
      "▁ikna": 2560,
      "cular": 2561,
      "▁servisi": 2562,
      "ılmasını": 2563,
      "▁katılım": 2564,
      "▁nakit": 2565,
      "▁patr": 2566,
      "▁secenek": 2567,
      "▁der": 2568,
      "▁taht": 2569,
      "▁ayn": 2570,
      "▁dedi": 2571,
      "▁enerj": 2572,
      "▁ticareti": 2573,
      "▁getir": 2574,
      "▁konusu": 2575,
      "▁fikir": 2576,
      "gam": 2577,
      "▁berab": 2578,
      "▁halka": 2579,
      "▁musteri": 2580,
      "ult": 2581,
      "irler": 2582,
      ";": 2583,
      "▁de": 2584,
      "▁harcama": 2585,
      "▁bası": 2586,
      "▁kulag": 2587,
      "▁fiyatlarını": 2588,
      "sis": 2589,
      "▁?..": 2590,
      "▁verg": 2591,
      "▁birbir": 2592,
      "▁cennet": 2593,
      "-sat": 2594,
      "▁196": 2595,
      "▁gizli": 2596,
      "ayet": 2597,
      "ımı": 2598,
      "attı": 2599,
      "▁18": 2600,
      "▁duny": 2601,
      "▁ederiz": 2602,
      "▁kalemi": 2603,
      "madım": 2604,
      "enlik": 2605,
      "▁bugune": 2606,
      "▁terz": 2607,
      "▁esy": 2608,
      "▁ardında": 2609,
      "▁ekmegi": 2610,
      "lugunu": 2611,
      "▁ka": 2612,
      "▁yemegin": 2613,
      "▁muhasebe": 2614,
      "▁doları'na": 2615,
      "▁tarafını": 2616,
      "▁ittifak": 2617,
      "▁yog": 2618,
      "▁beni": 2619,
      "▁sist": 2620,
      "▁veril": 2621,
      "▁imaj": 2622,
      "▁cicek": 2623,
      "▁eli": 2624,
      "▁amer": 2625,
      "▁ceb": 2626,
      "ısı": 2627,
      "unc": 2628,
      "▁agız": 2629,
      "▁mamafi": 2630,
      "▁pazarı": 2631,
      "▁ula": 2632,
      "telik": 2633,
      "'ı": 2634,
      "▁dogr": 2635,
      "▁kit": 2636,
      "ın": 2637,
      "▁hes": 2638,
      "▁acıklama": 2639,
      "agi": 2640,
      "ari": 2641,
      "asa": 2642,
      "▁japon": 2643,
      "▁uzere": 2644,
      "ligini": 2645,
      "▁malzem": 2646,
      "▁hemen": 2647,
      "▁kamu": 2648,
      "▁mola": 2649,
      "▁one": 2650,
      "▁1\\/": 2651,
      "tu": 2652,
      "larda": 2653,
      "▁rot": 2654,
      "▁bic": 2655,
      "▁argum": 2656,
      "ek": 2657,
      "▁vurdu": 2658,
      "▁adeta": 2659,
      "▁bolumu": 2660,
      "▁vadeli": 2661,
      "▁sur": 2662,
      "▁oranla": 2663,
      "▁sip": 2664,
      "▁leble": 2665,
      "▁bizim": 2666,
      "▁yargı": 2667,
      "ro": 2668,
      "▁sahit": 2669,
      "▁banyosu": 2670,
      "▁koca": 2671,
      "▁olanaklari": 2672,
      "ılır": 2673,
      "▁cesidi": 2674,
      "▁okullar": 2675,
      "▁ust": 2676,
      "▁insanların": 2677,
      "▁ruz": 2678,
      "iski": 2679,
      "▁rad": 2680,
      "p": 2681,
      "▁gazet": 2682,
      "▁baslarına": 2683,
      "ıyorsun": 2684,
      "▁sosyal": 2685,
      "▁miras": 2686,
      "▁osman": 2687,
      "▁konfor": 2688,
      "▁dusus": 2689,
      "▁derecede": 2690,
      "luk": 2691,
      "▁olgu": 2692,
      "▁talebi": 2693,
      "▁bunları": 2694,
      "▁halkın": 2695,
      "ecegi": 2696,
      "ville": 2697,
      "▁bundan": 2698,
      "▁otomobiller": 2699,
      "▁istis": 2700,
      "▁cıkıyor": 2701,
      "▁dili": 2702,
      "▁tamamı": 2703,
      "▁redd": 2704,
      "▁insaat": 2705,
      "ıyordu": 2706,
      "▁corp.": 2707,
      "mad": 2708,
      "▁yapının": 2709,
      "▁siyas": 2710,
      "▁saat": 2711,
      "leri": 2712,
      "▁cay": 2713,
      "'lik": 2714,
      "arında": 2715,
      "▁yolları": 2716,
      "ki": 2717,
      "▁herkesi": 2718,
      "▁kollarını": 2719,
      "liginden": 2720,
      "▁pla": 2721,
      "▁agırlık": 2722,
      "▁istatist": 2723,
      "▁leh": 2724,
      "▁patlıc": 2725,
      "▁post": 2726,
      "▁hab": 2727,
      "▁itibaren": 2728,
      "lamalar": 2729,
      "▁chicag": 2730,
      "▁endust": 2731,
      "▁evin": 2732,
      "▁gi": 2733,
      "acıları": 2734,
      "▁mer": 2735,
      "asından": 2736,
      "iyor": 2737,
      "▁yarısı": 2738,
      "▁hesap": 2739,
      "▁yılından": 2740,
      "isten": 2741,
      "avv": 2742,
      "▁muhtar": 2743,
      "ite": 2744,
      "▁tutam": 2745,
      "▁ifade": 2746,
      "▁fit": 2747,
      "▁ask": 2748,
      "elerde": 2749,
      "▁gecmiste": 2750,
      "ince": 2751,
      "esi": 2752,
      "▁mevdu": 2753,
      "▁piyasaları": 2754,
      "▁kale": 2755,
      "▁mektu": 2756,
      "▁polit": 2757,
      "▁kategor": 2758,
      "▁gordum": 2759,
      "▁semp": 2760,
      "▁kır": 2761,
      "▁id": 2762,
      "▁yılı": 2763,
      "▁hatt": 2764,
      "raz": 2765,
      "▁..": 2766,
      "▁siparis": 2767,
      "▁bahseder": 2768,
      "fa": 2769,
      "liye": 2770,
      "▁hadis": 2771,
      "istler": 2772,
      "digine": 2773,
      "▁sogan": 2774,
      "▁%1": 2775,
      "na": 2776,
      "▁milyondan": 2777,
      "▁suk": 2778,
      "▁merkezinde": 2779,
      "▁kan": 2780,
      "▁muhar": 2781,
      "▁yatırım": 2782,
      "▁biliyor": 2783,
      "▁fırtına": 2784,
      "▁topluma": 2785,
      "▁planları": 2786,
      "▁sada": 2787,
      "▁kam": 2788,
      "▁karsıma": 2789,
      "▁eliyle": 2790,
      "▁kaf": 2791,
      "▁havaal": 2792,
      "▁kitap": 2793,
      "▁yakin": 2794,
      "▁ail": 2795,
      "etre": 2796,
      "eginin": 2797,
      "▁endustrisi": 2798,
      "lıgın": 2799,
      "▁kop": 2800,
      "cak": 2801,
      "▁bostan": 2802,
      "▁meclis": 2803,
      "▁yaka": 2804,
      "▁ordu": 2805,
      "▁nisan": 2806,
      "▁bunlardan": 2807,
      "▁lun": 2808,
      "▁paraları": 2809,
      "▁kavga": 2810,
      "▁tecru": 2811,
      "▁isyan": 2812,
      "▁prosedur": 2813,
      "etin": 2814,
      "▁ismi": 2815,
      "▁hisse": 2816,
      "▁pencer": 2817,
      "uzluydu": 2818,
      "gr": 2819,
      "▁duzeni": 2820,
      "▁seyirci": 2821,
      "▁senato": 2822,
      "▁francisco'ya": 2823,
      "▁aj": 2824,
      "▁nine": 2825,
      "▁kendilerine": 2826,
      "▁kotu": 2827,
      "▁dil": 2828,
      "lugun": 2829,
      "▁kurtul": 2830,
      "▁guzeldi": 2831,
      "ıydı": 2832,
      "lendir": 2833,
      "▁kaynagı": 2834,
      "▁geldigini": 2835,
      "▁adamın": 2836,
      "▁sadece": 2837,
      "▁hek": 2838,
      "▁gercekten": 2839,
      "▁boston'dan": 2840,
      "▁prenses": 2841,
      "▁balkon": 2842,
      "▁politika": 2843,
      "▁gayr": 2844,
      "▁istem": 2845,
      "▁cogu": 2846,
      "▁cocukların": 2847,
      "▁yukum": 2848,
      "esik": 2849,
      "▁muht": 2850,
      "▁muddet": 2851,
      "iyatr": 2852,
      "▁gozu": 2853,
      "▁risk": 2854,
      "▁hedef": 2855,
      "une": 2856,
      "▁sehrine": 2857,
      "▁tab": 2858,
      "▁lez": 2859,
      "▁gezi": 2860,
      "▁kusk": 2861,
      "org": 2862,
      "emis": 2863,
      "▁nam": 2864,
      "▁onlar": 2865,
      "▁rezerve": 2866,
      "if": 2867,
      "use": 2868,
      "▁arastır": 2869,
      "▁zaf": 2870,
      "▁istih": 2871,
      "▁tablo": 2872,
      "▁gayrimen": 2873,
      "▁mallar": 2874,
      "▁issizlik": 2875,
      "ıda": 2876,
      "▁univers": 2877,
      "yacag": 2878,
      "to": 2879,
      "▁adet": 2880,
      "tin": 2881,
      "▁boncuk": 2882,
      "▁ondan": 2883,
      "▁kapattı": 2884,
      "▁ko": 2885,
      "layı": 2886,
      "▁hamal": 2887,
      "▁dun": 2888,
      "▁beklenti": 2889,
      "▁dogasi": 2890,
      "▁bulur": 2891,
      "▁kolunu": 2892,
      "▁tahminlerinin": 2893,
      "▁irade": 2894,
      "▁yaz": 2895,
      "▁genel": 2896,
      "imizden": 2897,
      "▁kalmadı": 2898,
      "do": 2899,
      "▁tedavi": 2900,
      "▁hay": 2901,
      "▁ciftlik": 2902,
      "▁ayında": 2903,
      "▁philadelphia": 2904,
      "▁planın": 2905,
      "acının": 2906,
      "▁kapasit": 2907,
      "▁ofk": 2908,
      "▁herhangi": 2909,
      "▁milyardan": 2910,
      "▁a": 2911,
      "adde": 2912,
      "▁bat": 2913,
      "rak": 2914,
      "▁ucretini": 2915,
      "▁durumda": 2916,
      "▁katkıda": 2917,
      "▁babama": 2918,
      "ph": 2919,
      "onun": 2920,
      "▁gorunuse": 2921,
      "gisi": 2922,
      "▁tuhaf": 2923,
      "▁ev": 2924,
      "▁set": 2925,
      "orm": 2926,
      "ı": 2927,
      "▁salonu": 2928,
      "▁havlular": 2929,
      "cık": 2930,
      "▁amacıyla": 2931,
      "estr": 2932,
      "▁kuzu": 2933,
      "▁istedig": 2934,
      "▁alıs": 2935,
      "mki": 2936,
      "▁adamı": 2937,
      "ıh": 2938,
      "▁intik": 2939,
      "mesinden": 2940,
      "▁acıga": 2941,
      "▁hissesi": 2942,
      "▁uzeri": 2943,
      "▁kampanya": 2944,
      "lerinin": 2945,
      "▁hizmetleri": 2946,
      "tigim": 2947,
      "▁tep": 2948,
      "▁otob": 2949,
      "uzin": 2950,
      "▁yetkililerine": 2951,
      "▁made": 2952,
      "▁yetkilileri": 2953,
      "▁cesitlilik": 2954,
      "onom": 2955,
      "macı": 2956,
      "▁erik": 2957,
      "macılar": 2958,
      "▁send": 2959,
      "meli": 2960,
      "▁gozunu": 2961,
      "▁tanrı": 2962,
      "▁trans": 2963,
      "▁dondur": 2964,
      "▁seyleri": 2965,
      "ırmak": 2966,
      "eler": 2967,
      "▁mah": 2968,
      "▁ihr": 2969,
      "▁limon": 2970,
      "▁sahtek": 2971,
      "▁0.": 2972,
      "leriyle": 2973,
      "▁ni": 2974,
      "▁kansas": 2975,
      "▁deneyim": 2976,
      "▁uyan": 2977,
      "▁rezervasyonu": 2978,
      "▁ederim": 2979,
      "dadır": 2980,
      "▁anlattı": 2981,
      "▁hac": 2982,
      "▁olamaz": 2983,
      "▁gelisme": 2984,
      "▁bagıs": 2985,
      "▁okulda": 2986,
      "▁gecik": 2987,
      "▁fiyatını": 2988,
      "▁durak": 2989,
      "▁basladılar": 2990,
      "▁mahkem": 2991,
      "▁yapan": 2992,
      "▁kumandan": 2993,
      "▁uzerine": 2994,
      "▁kampanyalar": 2995,
      "inizde": 2996,
      "▁uyum": 2997,
      "▁aklına": 2998,
      "▁badem": 2999,
      "▁kus": 3000,
      "▁tarife": 3001,
      "▁az": 3002,
      "▁ikisi": 3003,
      "▁golg": 3004,
      "lıyor": 3005,
      "ov": 3006,
      "▁kalır": 3007,
      "stık": 3008,
      "miyor": 3009,
      "ıntı": 3010,
      "sız": 3011,
      "▁senetleri": 3012,
      "▁cumhur": 3013,
      "▁giz": 3014,
      "▁degisiklikleri": 3015,
      "▁sizi": 3016,
      "▁yolu": 3017,
      "▁dergi": 3018,
      "▁oda": 3019,
      "▁saatlerinde": 3020,
      "'de": 3021,
      "▁inanc": 3022,
      "nc": 3023,
      "mem": 3024,
      "▁japonya": 3025,
      "▁tesisti": 3026,
      "▁cık": 3027,
      "iyorum": 3028,
      "▁siv": 3029,
      "geleri": 3030,
      "▁gures": 3031,
      "▁subat": 3032,
      "▁ad": 3033,
      "▁soylemek": 3034,
      "▁.": 3035,
      "tıp": 3036,
      "li": 3037,
      "asyonu": 3038,
      "ıt": 3039,
      "▁zincir": 3040,
      "▁ucretler": 3041,
      "▁asır": 3042,
      "tıgını": 3043,
      "lıgı": 3044,
      "▁yuze": 3045,
      "▁katk": 3046,
      "▁reklamlar": 3047,
      "▁acısından": 3048,
      "▁evler": 3049,
      "din": 3050,
      "9": 3051,
      "▁odasi": 3052,
      "▁kurum": 3053,
      "may": 3054,
      "▁kalıb": 3055,
      "tluk": 3056,
      "▁milyon": 3057,
      "▁genis": 3058,
      "▁bom": 3059,
      "▁gunlerde": 3060,
      "mamıs": 3061,
      "▁ken": 3062,
      "▁rekor": 3063,
      "st": 3064,
      "▁kor": 3065,
      "▁guven": 3066,
      "▁rom": 3067,
      "aması": 3068,
      "▁kisiler": 3069,
      "▁dagın": 3070,
      "▁iliskin": 3071,
      "▁taleb": 3072,
      "▁birim": 3073,
      "▁aksama": 3074,
      "ızın": 3075,
      "▁olayın": 3076,
      "▁oyunun": 3077,
      "▁satıslar": 3078,
      "▁niyet": 3079,
      "▁hasta": 3080,
      "▁sesi": 3081,
      "▁yeri": 3082,
      "▁aram": 3083,
      "af": 3084,
      "▁yoluna": 3085,
      "ret": 3086,
      "▁avantaj": 3087,
      "▁cesitler": 3088,
      "▁madde": 3089,
      "▁parasını": 3090,
      "..": 3091,
      "lu": 3092,
      "imler": 3093,
      "rut": 3094,
      "otte": 3095,
      "ilmesine": 3096,
      "▁isinin": 3097,
      "▁cocugun": 3098,
      "▁bilg": 3099,
      "%": 3100,
      "▁motiv": 3101,
      "▁sınırları": 3102,
      "lamaya": 3103,
      "irmen": 3104,
      "▁cesaret": 3105,
      "▁imalat": 3106,
      "irgin": 3107,
      "▁temer": 3108,
      "▁komp": 3109,
      "▁sogut": 3110,
      "pr": 3111,
      "▁kadının": 3112,
      "▁k": 3113,
      "▁girer": 3114,
      "▁gununu": 3115,
      "▁kurallar": 3116,
      "▁versiyon": 3117,
      "acagı": 3118,
      "▁erkekler": 3119,
      "▁sob": 3120,
      "▁kitab": 3121,
      "▁bahcede": 3122,
      "ars": 3123,
      "dugunde": 3124,
      "aleti": 3125,
      "▁ekibi": 3126,
      "▁co": 3127,
      "w": 3128,
      "▁soyle": 3129,
      "▁lek": 3130,
      "▁yaklasım": 3131,
      "▁cograf": 3132,
      "▁fren": 3133,
      "▁yat": 3134,
      "▁ogle": 3135,
      "mi": 3136,
      "fi": 3137,
      "lıgından": 3138,
      "▁cag": 3139,
      "▁pas": 3140,
      "▁serisi": 3141,
      "adaki": 3142,
      "▁guzelligi": 3143,
      "▁denizde": 3144,
      "▁parlam": 3145,
      "▁terk": 3146,
      "▁rev": 3147,
      "▁kanı": 3148,
      "masız": 3149,
      "▁deh": 3150,
      "daydı": 3151,
      "▁arasına": 3152,
      "te": 3153,
      "suz": 3154,
      "▁dusunceler": 3155,
      "▁tenek": 3156,
      "▁sırtına": 3157,
      "▁kalabalık": 3158,
      "▁ren": 3159,
      "▁onları": 3160,
      "▁otede": 3161,
      "▁str": 3162,
      "▁esi": 3163,
      "▁beyaz": 3164,
      "▁tiyatr": 3165,
      "▁sorunları": 3166,
      "usuna": 3167,
      "=": 3168,
      "▁sesiyle": 3169,
      "ınıza": 3170,
      "▁siyaset": 3171,
      "han": 3172,
      "▁gelirler": 3173,
      "abil": 3174,
      "▁yal": 3175,
      "▁def": 3176,
      "luydu": 3177,
      "be": 3178,
      "▁tanıs": 3179,
      "▁al": 3180,
      "▁ozelligi": 3181,
      "▁milletvek": 3182,
      "▁babam": 3183,
      "▁ettig": 3184,
      "▁tehlik": 3185,
      "▁iddia": 3186,
      "▁kl": 3187,
      "▁cic": 3188,
      "▁sahiptir": 3189,
      "du": 3190,
      "▁felaket": 3191,
      "[UNK]": 3192,
      "her": 3193,
      "▁luz": 3194,
      "▁deneme": 3195,
      "gini": 3196,
      "▁otel": 3197,
      "▁1988'de": 3198,
      "ern": 3199,
      "▁tiyatro": 3200,
      "▁1988": 3201,
      "masıyla": 3202,
      "rar": 3203,
      "▁sus": 3204,
      "mez": 3205,
      "▁hik": 3206,
      "▁hediy": 3207,
      "▁vur": 3208,
      "▁olustur": 3209,
      "▁planını": 3210,
      "▁ihtir": 3211,
      "▁havayollarının": 3212,
      "▁eden": 3213,
      "ilen": 3214,
      "▁ucuncu": 3215,
      "▁oteller": 3216,
      "▁surat": 3217,
      "▁guvenlik": 3218,
      "▁meyv": 3219,
      "▁vadede": 3220,
      "▁beyle": 3221,
      "▁yorum": 3222,
      "▁yere": 3223,
      "▁bankanın": 3224,
      "▁10": 3225,
      "ınc": 3226,
      "▁hisseleri": 3227,
      "▁1": 3228,
      "daki": 3229,
      "▁keyif": 3230,
      "▁onunde": 3231,
      "▁mesele": 3232,
      "olis": 3233,
      "ınızı": 3234,
      "▁fikr": 3235,
      "▁maliye": 3236,
      "ktu": 3237,
      "▁gorun": 3238,
      "▁ki": 3239,
      "gu": 3240,
      "dirme": 3241,
      "▁celik": 3242,
      "lamak": 3243,
      "▁veya": 3244,
      "▁tul": 3245,
      "▁yoksul": 3246,
      "▁islerin": 3247,
      "▁durumdan": 3248,
      "▁ilave": 3249,
      "▁sehr": 3250,
      "▁gereken": 3251,
      "▁fatura": 3252,
      "▁lezzetliydi": 3253,
      "▁vergisi": 3254,
      "▁yasındaki": 3255,
      "5'ten": 3256,
      "▁kıs": 3257,
      "mal": 3258,
      "▁tarif": 3259,
      "▁kontrol": 3260,
      "▁dısarı": 3261,
      "▁basım": 3262,
      "▁yara": 3263,
      "▁zem": 3264,
      "▁cesitliligi": 3265,
      "▁yeteri": 3266,
      "yum": 3267,
      "▁37": 3268,
      "▁kalıyor": 3269,
      "▁lık": 3270,
      "elle": 3271,
      "▁past": 3272,
      "▁tic": 3273,
      "▁hoca": 3274,
      "kac": 3275,
      "▁stud": 3276,
      "▁)": 3277,
      "▁ade": 3278,
      "▁hayret": 3279,
      "ıcısı": 3280,
      "▁bilgiler": 3281,
      "iyete": 3282,
      "▁adi": 3283,
      "ugum": 3284,
      "`": 3285,
      "b": 3286,
      "ku": 3287,
      "▁tıp": 3288,
      "▁agab": 3289,
      "▁gozlerini": 3290,
      "▁oturdu": 3291,
      "'nı": 3292,
      "▁tamamen": 3293,
      "▁yoneticileri": 3294,
      "▁mayıs": 3295,
      "▁hata": 3296,
      "enlerin": 3297,
      "▁alet": 3298,
      "▁dern": 3299,
      "▁isc": 3300,
      "▁haftada": 3301,
      "ad": 3302,
      "▁14": 3303,
      "▁kaydetti": 3304,
      "agında": 3305,
      "▁cemiyet": 3306,
      "ıgının": 3307,
      "iyle": 3308,
      "▁islet": 3309,
      "▁oneri": 3310,
      "▁ler": 3311,
      "▁hakları": 3312,
      "▁olmakla": 3313,
      "▁mahkum": 3314,
      "▁test": 3315,
      "▁spor": 3316,
      "▁heps": 3317,
      "arlı": 3318,
      "▁plastik": 3319,
      "▁acmak": 3320,
      "▁kendim": 3321,
      "▁konular": 3322,
      "ip": 3323,
      "▁baslarını": 3324,
      "▁tipi": 3325,
      "▁dallas'tan": 3326,
      "▁kosul": 3327,
      "▁seyler": 3328,
      "▁birik": 3329,
      "reet": 3330,
      "▁gurultu": 3331,
      "▁soylem": 3332,
      "▁sirketlerinin": 3333,
      "▁ayagı": 3334,
      "▁yuzden": 3335,
      "▁mahkeme": 3336,
      "▁tiyatrosu": 3337,
      "acıların": 3338,
      "lah": 3339,
      "▁ulasılamadı": 3340,
      "imini": 3341,
      "▁anal": 3342,
      "per": 3343,
      "▁ediyorum": 3344,
      "iyat": 3345,
      "ida": 3346,
      "▁yerleri": 3347,
      "▁duygularını": 3348,
      "▁aldıgı": 3349,
      "▁sinema": 3350,
      "▁tuccar": 3351,
      "▁mily": 3352,
      "ımıza": 3353,
      "ibar": 3354,
      "maya": 3355,
      "ble": 3356,
      "▁corb": 3357,
      "aların": 3358,
      "leyiciler": 3359,
      "▁fedakar": 3360,
      "▁armag": 3361,
      "▁haft": 3362,
      "stım": 3363,
      "▁bıcak": 3364,
      "isim": 3365,
      "▁bizimle": 3366,
      "▁yemekleri": 3367,
      "▁arkad": 3368,
      "lası": 3369,
      "ruf": 3370,
      "▁emniyet": 3371,
      "lıklar": 3372,
      "adıgını": 3373,
      "▁hızı": 3374,
      "▁temyiz": 3375,
      "▁isinden": 3376,
      "la": 3377,
      "▁dukkanı": 3378,
      "▁ikide": 3379,
      "ton": 3380,
      "ilim": 3381,
      "siyon": 3382,
      "arl": 3383,
      "▁enstit": 3384,
      "▁artarak": 3385,
      "esil": 3386,
      "▁fırt": 3387,
      "▁26": 3388,
      "▁bahsederim": 3389,
      "▁baltimore'ye": 3390,
      "▁isp": 3391,
      "▁sekil": 3392,
      "▁karsısında": 3393,
      "▁sent": 3394,
      "▁dusunce": 3395,
      "▁mac": 3396,
      "mek": 3397,
      "▁esit": 3398,
      "▁soyler": 3399,
      "▁ozur": 3400,
      "▁yollarda": 3401,
      "▁ahır": 3402,
      "bal": 3403,
      "▁proje": 3404,
      "▁arasındaki": 3405,
      "▁azından": 3406,
      "dıktan": 3407,
      "▁hizmet": 3408,
      "atın": 3409,
      "▁sıc": 3410,
      "▁mada": 3411,
      "▁evde": 3412,
      "▁kuf": 3413,
      "▁mali": 3414,
      "etti": 3415,
      "▁aga": 3416,
      "▁uyelerinin": 3417,
      "lat": 3418,
      "▁psik": 3419,
      "▁ufak": 3420,
      "us": 3421,
      "maz": 3422,
      "ede": 3423,
      "▁okur": 3424,
      "▁ogrenc": 3425,
      "▁analizciler": 3426,
      "▁ataturk": 3427,
      "aydi": 3428,
      "▁gonlum": 3429,
      "▁anlat": 3430,
      "▁onların": 3431,
      "ızı": 3432,
      "ayan": 3433,
      "▁analistlerin": 3434,
      "anlara": 3435,
      "▁tasarısı": 3436,
      "▁tır": 3437,
      "▁davranıs": 3438,
      "▁takv": 3439,
      "▁--": 3440,
      "▁hakem": 3441,
      "▁ucusta": 3442,
      "▁tuz": 3443,
      "▁cocuga": 3444,
      "▁menf": 3445,
      "emiyor": 3446,
      "alam": 3447,
      "▁planlamam": 3448,
      "▁takdirde": 3449,
      "▁hizmeti": 3450,
      "▁50": 3451,
      "lay": 3452,
      "▁faaliyet": 3453,
      "▁gazeteci": 3454,
      "▁siyah": 3455,
      "mas": 3456,
      "ırk": 3457,
      "▁kadınların": 3458,
      "▁ilgilendi": 3459,
      "▁dc": 3460,
      "▁cav": 3461,
      "eder": 3462,
      "▁yakinlar": 3463,
      "▁city": 3464,
      "▁enf": 3465,
      "▁bunlar": 3466,
      "ında": 3467,
      "▁cıl": 3468,
      "▁25": 3469,
      "▁ilham": 3470,
      "▁fiyatina": 3471,
      "▁tesekkurler": 3472,
      "imleri": 3473,
      "▁plat": 3474,
      "▁deger": 3475,
      "▁tepeden": 3476,
      "agon": 3477,
      "▁etmis": 3478,
      "ge": 3479,
      "▁farklılık": 3480,
      "▁hazin": 3481,
      "yerek": 3482,
      "air": 3483,
      "▁cog": 3484,
      "ou": 3485,
      "▁ali": 3486,
      "▁kredi": 3487,
      "ezi": 3488,
      "usun": 3489,
      "▁pat": 3490,
      "▁etkisi": 3491,
      "▁tekne": 3492,
      "arım": 3493,
      "▁muz": 3494,
      "▁tesisi": 3495,
      "▁bicimi": 3496,
      "▁capında": 3497,
      "▁yonelik": 3498,
      "▁ısı": 3499,
      "▁cevr": 3500,
      "tay": 3501,
      "cılıg": 3502,
      "▁odası": 3503,
      "ami": 3504,
      "▁bekle": 3505,
      "indeydi": 3506,
      "▁ener": 3507,
      "▁hayatın": 3508,
      "▁tamir": 3509,
      "▁uzmanlar": 3510,
      "▁oran": 3511,
      "▁sorular": 3512,
      "▁edebil": 3513,
      "edig": 3514,
      "▁tuketici": 3515,
      "tig": 3516,
      "araj": 3517,
      "▁havayı": 3518,
      "▁alanda": 3519,
      "gıc": 3520,
      "▁arabaya": 3521,
      "▁ortalam": 3522,
      "▁yanına": 3523,
      "▁35": 3524,
      "▁listeleyin": 3525,
      "il": 3526,
      "tat": 3527,
      "▁lakin": 3528,
      "▁lak": 3529,
      "▁yatırımcıların": 3530,
      "leyen": 3531,
      "istan": 3532,
      "▁telef": 3533,
      "▁coc": 3534,
      "▁defter": 3535,
      "ıgına": 3536,
      "▁universit": 3537,
      "▁akrab": 3538,
      "8'de": 3539,
      "detti": 3540,
      "▁ayı": 3541,
      "▁yapılacak": 3542,
      "▁mahkemede": 3543,
      "▁aynı": 3544,
      "▁efendi": 3545,
      "▁ai": 3546,
      "acılara": 3547,
      "/8": 3548,
      "ete": 3549,
      "elir": 3550,
      "▁men": 3551,
      "▁yaklas": 3552,
      "▁teseb": 3553,
      "▁ingil": 3554,
      "▁tarihin": 3555,
      "▁kat": 3556,
      "▁kendisini": 3557,
      "▁yeme": 3558,
      "atıl": 3559,
      "▁sek": 3560,
      "▁devri": 3561,
      "sas": 3562,
      "▁fir": 3563,
      "▁gorunum": 3564,
      "le": 3565,
      "'y": 3566,
      "▁burokrat": 3567,
      "▁yur": 3568,
      "▁duzeyde": 3569,
      "▁olmaz": 3570,
      "asıl": 3571,
      "phia": 3572,
      "▁bug": 3573,
      "▁senaryo": 3574,
      "iligin": 3575,
      "uluyor": 3576,
      "▁arz": 3577,
      "ırtı": 3578,
      "bet": 3579,
      "▁gul": 3580,
      "▁pitts": 3581,
      "▁ch": 3582,
      "bil": 3583,
      "gil": 3584,
      "▁tarihi": 3585,
      "▁can": 3586,
      "▁aksamı": 3587,
      "▁etmeye": 3588,
      "▁begenmedim": 3589,
      "▁piy": 3590,
      "▁bakalım": 3591,
      "▁yatak": 3592,
      "gı": 3593,
      "▁olas": 3594,
      "erin": 3595,
      "▁gunler": 3596,
      "▁sozunu": 3597,
      "▁kendiler": 3598,
      "▁yapmaktan": 3599,
      "ekul": 3600,
      "▁edebilir": 3601,
      "▁kisileri": 3602,
      "▁5'ten": 3603,
      "▁komplek": 3604,
      "▁akl": 3605,
      "▁esv": 3606,
      "▁ucte": 3607,
      "▁anlamıyla": 3608,
      "gıcı": 3609,
      "▁yaptır": 3610,
      "▁internet": 3611,
      "▁temizligi": 3612,
      "iya": 3613,
      "sur": 3614,
      "▁market": 3615,
      "▁kom": 3616,
      "ekti": 3617,
      "arak": 3618,
      "▁elimden": 3619,
      "ilige": 3620,
      "▁haberler": 3621,
      "▁bekledi": 3622,
      "0000": 3623,
      "▁zil": 3624,
      "▁opsiyon": 3625,
      "▁borsası": 3626,
      "▁pol": 3627,
      "▁medya": 3628,
      "▁cezası": 3629,
      "▁mil": 3630,
      "▁falan": 3631,
      "▁yetki": 3632,
      "▁nere": 3633,
      "▁sekl": 3634,
      "▁evlerin": 3635,
      "▁sub": 3636,
      "▁kork": 3637,
      "▁yayın": 3638,
      "larımı": 3639,
      "▁gercekles": 3640,
      "▁yuzey": 3641,
      "▁zeytiny": 3642,
      "▁parc": 3643,
      "▁hosg": 3644,
      "▁gibi": 3645,
      "▁sirketler": 3646,
      "ekl": 3647,
      "▁balık": 3648,
      "▁birdenbire": 3649,
      "mayacak": 3650,
      "▁fıs": 3651,
      "abın": 3652,
      "▁hedefi": 3653,
      "larıyla": 3654,
      "▁milletvekili": 3655,
      "enli": 3656,
      "▁heyec": 3657,
      "alı": 3658,
      "atır": 3659,
      "▁gurult": 3660,
      "▁sikint": 3661,
      "▁rica": 3662,
      "▁onlara": 3663,
      "▁analistler": 3664,
      "▁cevap": 3665,
      "▁istedim": 3666,
      "▁meger": 3667,
      "labilir": 3668,
      "sman": 3669,
      "▁sokakta": 3670,
      "▁kimseyi": 3671,
      "▁durdur": 3672,
      "▁tahk": 3673,
      "▁ruzg": 3674,
      "▁ızdır": 3675,
      "▁komitesi": 3676,
      "ıya": 3677,
      "eki": 3678,
      "cıları": 3679,
      "▁televizyon": 3680,
      "isah": 3681,
      "erk": 3682,
      "▁yonunde": 3683,
      "▁tef": 3684,
      "▁hacmi": 3685,
      "▁yatırımcının": 3686,
      "umun": 3687,
      "▁yani": 3688,
      "arip": 3689,
      "▁laborat": 3690,
      "▁bakıs": 3691,
      "gis": 3692,
      "▁garanti": 3693,
      "cuk": 3694,
      "▁gitmeyi": 3695,
      "▁kendiniz": 3696,
      "▁dortluk": 3697,
      "▁boru": 3698,
      "cum": 3699,
      "▁sof": 3700,
      "▁yılının": 3701,
      "elt": 3702,
      "▁ez": 3703,
      "▁hazine": 3704,
      "ic": 3705,
      "▁olanak": 3706,
      "▁had": 3707,
      "00'den": 3708,
      "yen": 3709,
      "–": 3710,
      "stır": 3711,
      "▁olun": 3712,
      "amaları": 3713,
      "▁aln": 3714,
      "▁reform": 3715,
      "▁noktada": 3716,
      "▁mus": 3717,
      "let": 3718,
      "iyesi": 3719,
      "▁bulun": 3720,
      "▁ortaklık": 3721,
      "▁vali": 3722,
      "erlik": 3723,
      "▁dest": 3724,
      "▁devralma": 3725,
      "▁canlı": 3726,
      "▁duygular": 3727,
      "dugum": 3728,
      "▁yabancı": 3729,
      "▁hakim": 3730,
      "▁tram": 3731,
      "ıv": 3732,
      "▁otek": 3733,
      "▁cizgi": 3734,
      "▁hur": 3735,
      "▁istifade": 3736,
      "▁ekonomisi": 3737,
      "da": 3738,
      "▁ilav": 3739,
      "likle": 3740,
      "▁calısanlar": 3741,
      "▁hayır": 3742,
      "▁baskent": 3743,
      "deydi": 3744,
      "▁vatan": 3745,
      "▁nasıl": 3746,
      "▁bebek": 3747,
      "▁durumu": 3748,
      "▁jandar": 3749,
      "▁cel": 3750,
      "▁karı": 3751,
      "▁li": 3752,
      "▁basıma": 3753,
      "▁mevz": 3754,
      "▁halbuki": 3755,
      "iyetine": 3756,
      "▁kuz": 3757,
      "▁parti": 3758,
      "▁serin": 3759,
      "sın": 3760,
      "▁kuc": 3761,
      "jik": 3762,
      "ıgın": 3763,
      "▁bulus": 3764,
      "▁hizmete": 3765,
      "lugu": 3766,
      "ind": 3767,
      "una": 3768,
      "▁turn": 3769,
      "▁asırı": 3770,
      "▁pet": 3771,
      "erek": 3772,
      "▁tatlı": 3773,
      "▁!..": 3774,
      "▁idar": 3775,
      "▁hayv": 3776,
      "▁halef": 3777,
      "▁konu": 3778,
      "▁baslangıc": 3779,
      "▁gelecekte": 3780,
      "▁dolayi": 3781,
      "▁arama": 3782,
      "▁dogru": 3783,
      "▁sezon": 3784,
      "▁havaalanı'nda": 3785,
      "▁ilan": 3786,
      "▁tasavv": 3787,
      "▁ası": 3788,
      "▁yirmi": 3789,
      "▁cleveland": 3790,
      "▁alıskan": 3791,
      "ikler": 3792,
      "▁hatun": 3793,
      "ice": 3794,
      "▁ucaga": 3795,
      "ıb": 3796,
      "▁ucagı": 3797,
      "ayım": 3798,
      "▁kimseye": 3799,
      "▁ig": 3800,
      "▁kadını": 3801,
      "▁kalk": 3802,
      "$": 3803,
      "▁istek": 3804,
      "▁sayet": 3805,
      "▁sular": 3806,
      "▁kaybetti": 3807,
      "mekt": 3808,
      "▁boyle": 3809,
      "sin": 3810,
      "▁yurut": 3811,
      "▁yad": 3812,
      "▁planı": 3813,
      "▁carsamba": 3814,
      "int": 3815,
      "▁yerlere": 3816,
      "▁dedim": 3817,
      "▁city'e": 3818,
      "rik": 3819,
      "'s": 3820,
      "layacak": 3821,
      "mak": 3822,
      "▁bakar": 3823,
      "▁mar": 3824,
      "▁dur": 3825,
      "kiz": 3826,
      "▁mi": 3827,
      "▁ayakkabı": 3828,
      "▁zey": 3829,
      "▁bence": 3830,
      "\\": 3831,
      "▁zamana": 3832,
      "▁boston": 3833,
      "alarım": 3834,
      "lant": 3835,
      "▁gib": 3836,
      "ec": 3837,
      "▁rap": 3838,
      "▁hol": 3839,
      "▁inek": 3840,
      "edikten": 3841,
      "▁grup": 3842,
      "▁ucunu": 3843,
      "mini": 3844,
      "ktan": 3845,
      "▁getirmek": 3846,
      "▁bel": 3847,
      "▁boy": 3848,
      "r": 3849,
      "anet": 3850,
      "▁12'den": 3851,
      "▁kendimi": 3852,
      "▁yont": 3853,
      "▁dısarıdan": 3854,
      "▁bilgilerini": 3855,
      "▁zayıf": 3856,
      "ıtı": 3857,
      "▁gelisim": 3858,
      "▁anah": 3859,
      "▁yolcu": 3860,
      "▁yelpaz": 3861,
      "▁kacır": 3862,
      "▁ders": 3863,
      "ksa": 3864,
      "▁anne": 3865,
      "▁iht": 3866,
      "▁pisir": 3867,
      "mer": 3868,
      "▁bit": 3869,
      "▁pus": 3870,
      "▁sırtını": 3871,
      "alif": 3872,
      "▁har": 3873,
      "amdan": 3874,
      "▁teor": 3875,
      "mustur": 3876,
      "▁dokuz": 3877,
      "yalar": 3878,
      "▁kala": 3879,
      "etsiz": 3880,
      "mis": 3881,
      "medig": 3882,
      "legi": 3883,
      "▁stokları": 3884,
      "▁yiyecek": 3885,
      "'te": 3886,
      "▁sanatcılar": 3887,
      "yan": 3888,
      "oj": 3889,
      "▁ciftciler": 3890,
      "▁veren": 3891,
      "▁delikan": 3892,
      "▁etkil": 3893,
      "▁teori": 3894,
      "elerini": 3895,
      "▁on": 3896,
      "▁faiz": 3897,
      "ilm": 3898,
      "▁yerde": 3899,
      "▁fal": 3900,
      "▁basta": 3901,
      "angi": 3902,
      "▁doldur": 3903,
      "▁yes": 3904,
      "▁demek": 3905,
      "▁ihtimal": 3906,
      "▁gorevli": 3907,
      "▁fırsat": 3908,
      "▁golge": 3909,
      "▁olmadı": 3910,
      "▁vazgec": 3911,
      "▁tesisten": 3912,
      "anma": 3913,
      "uzluk": 3914,
      "▁cekir": 3915,
      "▁devrim": 3916,
      "▁nedenini": 3917,
      "▁harc": 3918,
      "▁isimler": 3919,
      "sanız": 3920,
      "▁sep": 3921,
      "▁cark": 3922,
      "▁katına": 3923,
      "sini": 3924,
      "'ten": 3925,
      "▁nas": 3926,
      "▁ucusunun": 3927,
      "▁“": 3928,
      "▁yay": 3929,
      "▁an": 3930,
      "▁acıklanmadı": 3931,
      "▁elbet": 3932,
      "▁donemde": 3933,
      "eda": 3934,
      "▁hucr": 3935,
      "▁koyun": 3936,
      "▁vucudu": 3937,
      "▁a.": 3938,
      "▁bayrak": 3939,
      "▁aktiv": 3940,
      "▁yaklasık": 3941,
      "▁tazmin": 3942,
      "▁urun": 3943,
      "▁bazen": 3944,
      "▁rop": 3945,
      "▁girdi": 3946,
      "mel": 3947,
      "▁agzında": 3948,
      "ons": 3949,
      "▁erkegi": 3950,
      "amıyor": 3951,
      "▁tarafına": 3952,
      "amda": 3953,
      "▁koz": 3954,
      "▁defa": 3955,
      "▁beyefendi": 3956,
      "▁turb": 3957,
      ",": 3958,
      "gen": 3959,
      "ift": 3960,
      "▁bet": 3961,
      "▁ekonom": 3962,
      "▁topr": 3963,
      "▁gulery": 3964,
      "▁finanse": 3965,
      "▁okumak": 3966,
      "dı": 3967,
      "▁koku": 3968,
      "▁ekipman": 3969,
      "▁gar": 3970,
      "▁kullan": 3971,
      "▁manzara": 3972,
      "▁sukur": 3973,
      "▁bilinc": 3974,
      "▁dagıt": 3975,
      "▁hattı": 3976,
      "▁hesabı": 3977,
      "▁silah": 3978,
      "▁dizi": 3979,
      "▁herkesin": 3980,
      "anının": 3981,
      "▁kıy": 3982,
      "yal": 3983,
      "ustuk": 3984,
      "▁kuyu": 3985,
      "▁ihtiy": 3986,
      "▁telefonu": 3987,
      "▁rehberimiz": 3988,
      "kinin": 3989,
      "asıyla": 3990,
      "▁uzat": 3991,
      "▁anlasmaya": 3992,
      "▁mut": 3993,
      "elen": 3994,
      "▁ustune": 3995,
      "emiz": 3996,
      "▁kurulunun": 3997,
      "▁yazılım": 3998,
      "▁arkasına": 3999,
      "▁harcam": 4000,
      "yon": 4001,
      "ıyoruz": 4002,
      "alma": 4003,
      "arlar": 4004,
      "▁ucusun": 4005,
      "▁be": 4006,
      "ational": 4007,
      "▁dak": 4008,
      "▁dahil": 4009,
      "▁hareketler": 4010,
      "asını": 4011,
      "▁kalite": 4012,
      "▁sanki": 4013,
      "▁mahall": 4014,
      "▁sureci": 4015,
      "▁sonucları": 4016,
      "▁temiz": 4017,
      "▁mutf": 4018,
      "▁karlar": 4019,
      "▁kaya": 4020,
      "an": 4021,
      "▁muc": 4022,
      "▁metr": 4023,
      "▁n": 4024,
      "▁haval": 4025,
      "▁muzakere": 4026,
      "▁13": 4027,
      "anda": 4028,
      "▁gercegi": 4029,
      "▁beyn": 4030,
      "▁genelde": 4031,
      "▁telefon": 4032,
      "▁pilav": 4033,
      "▁guzellik": 4034,
      "▁yasa": 4035,
      "▁kira": 4036,
      "▁verdi": 4037,
      "▁masasında": 4038,
      "▁ucuslarını": 4039,
      "▁tarihe": 4040,
      "▁actı": 4041,
      "isti": 4042,
      "▁ugras": 4043,
      "▁toprak": 4044,
      "▁kosullar": 4045,
      "▁sut": 4046,
      "▁vardır": 4047,
      "▁yalı": 4048,
      "▁ismini": 4049,
      "▁herhalde": 4050,
      "▁muzik": 4051,
      "▁birinde": 4052,
      "▁projesi": 4053,
      "▁aktor": 4054,
      "ende": 4055,
      "▁calısanları": 4056,
      "▁vucut": 4057,
      "ans": 4058,
      "▁dagdan": 4059,
      "▁em": 4060,
      "▁ut": 4061,
      "▁iktid": 4062,
      "▁ozellikle": 4063,
      "▁dalgalan": 4064,
      "luge": 4065,
      "▁1/": 4066,
      "▁galib": 4067,
      "°": 4068,
      "▁kost": 4069,
      "▁muhal": 4070,
      "▁teklifi": 4071,
      "ediy": 4072,
      "▁sigortası": 4073,
      "▁ihal": 4074,
      "▁rakam": 4075,
      "imde": 4076,
      "orn": 4077,
      "men": 4078,
      "muyor": 4079,
      "cilik": 4080,
      "▁cont": 4081,
      "▁geri": 4082,
      "▁istiyorum": 4083,
      "askanı": 4084,
      "▁attı": 4085,
      "▁hanimdi": 4086,
      "lemeye": 4087,
      "▁sayg": 4088,
      "itesi": 4089,
      "▁ucret": 4090,
      "egi": 4091,
      "et": 4092,
      "▁degilim": 4093,
      "▁topluluk": 4094,
      "▁rezerv": 4095,
      "yle": 4096,
      "▁yurd": 4097,
      "▁edit": 4098,
      "▁belg": 4099,
      "▁kalkıs": 4100,
      "larının": 4101,
      "▁bardagı": 4102,
      "etici": 4103,
      "▁gozle": 4104,
      "▁francisco'dan": 4105,
      "ban": 4106,
      "las": 4107,
      "▁ac": 4108,
      "▁lazım": 4109,
      "▁abla": 4110,
      "▁depremden": 4111,
      "tim": 4112,
      "esinin": 4113,
      "mustu": 4114,
      "▁sendik": 4115,
      "▁bus": 4116,
      "▁genc": 4117,
      "▁anay": 4118,
      "▁cami": 4119,
      "▁yolda": 4120,
      "adet": 4121,
      "▁goster": 4122,
      "▁faturami": 4123,
      "▁lah": 4124,
      "▁gerektir": 4125,
      "anlarda": 4126,
      "uza": 4127,
      "▁denetim": 4128,
      "▁program": 4129,
      "ılma": 4130,
      "lanmıs": 4131,
      "▁soylen": 4132,
      "ındaki": 4133,
      "ecegiz": 4134,
      "▁dolar": 4135,
      "▁icimden": 4136,
      "▁mesaf": 4137,
      "lasma": 4138,
      "mesinin": 4139,
      "▁muhalif": 4140,
      "iyorlardı": 4141,
      "anları": 4142,
      "▁haf": 4143,
      "▁sis": 4144,
      "▁om": 4145,
      "▁kutu": 4146,
      "▁vakıf": 4147,
      "▁arasından": 4148,
      "raber": 4149,
      "▁yanıt": 4150,
      "▁malum": 4151,
      "▁onay": 4152,
      "nem": 4153,
      "▁kısı": 4154,
      "▁ornek": 4155,
      "▁yururluge": 4156,
      "▁;": 4157,
      "▁haberdar": 4158,
      "iligini": 4159,
      "▁vide": 4160,
      "▁geregi": 4161,
      "▁spekulasyon": 4162,
      "ly": 4163,
      "oloji": 4164,
      "▁yılın": 4165,
      "▁insanlardan": 4166,
      "tıklarını": 4167,
      ".6": 4168,
      "u": 4169,
      "sil": 4170,
      "mistir": 4171,
      "diye": 4172,
      "ıma": 4173,
      "ebilir": 4174,
      "▁bayr": 4175,
      "▁mekan": 4176,
      "▁fazl": 4177,
      "▁hizmetler": 4178,
      "▁kuyruk": 4179,
      "▁geciyor": 4180,
      "4": 4181,
      "▁yol": 4182,
      "▁kimi": 4183,
      "▁acıdan": 4184,
      "▁halı": 4185,
      "memek": 4186,
      "▁etmem": 4187,
      "▁bizde": 4188,
      "/4": 4189,
      "▁sohret": 4190,
      "▁stu": 4191,
      "▁pul": 4192,
      "larımızı": 4193,
      "▁olmayan": 4194,
      "▁alım": 4195,
      "▁bilet": 4196,
      "aduf": 4197,
      "'tan": 4198,
      "digini": 4199,
      "▁philadel": 4200,
      "▁parkı": 4201,
      "▁ellerinden": 4202,
      "▁olanakları": 4203,
      "▁misin": 4204,
      "▁etki": 4205,
      "▁altından": 4206,
      "▁gozlerle": 4207,
      "▁tar": 4208,
      "▁gerekir": 4209,
      "▁yonetic": 4210,
      "alarla": 4211,
      "▁masaj": 4212,
      "▁ortagı": 4213,
      "▁tasa": 4214,
      "sizlik": 4215,
      "▁verdigi": 4216,
      "acılıgı": 4217,
      "▁telaf": 4218,
      "▁kred": 4219,
      "▁cocugu": 4220,
      "▁hafif": 4221,
      "9'un": 4222,
      "”": 4223,
      ".8": 4224,
      "▁beyan": 4225,
      "▁etrafı": 4226,
      "▁kenarında": 4227,
      "▁dusmus": 4228,
      "ıcılar": 4229,
      "▁fransız": 4230,
      "▁degi": 4231,
      "▁isini": 4232,
      "▁sertif": 4233,
      "▁kablo": 4234,
      "▁bun": 4235,
      "▁dusuktu": 4236,
      "▁aylık": 4237,
      "▁basarılı": 4238,
      "laya": 4239,
      "turu": 4240,
      "▁olc": 4241,
      "▁kendi": 4242,
      "kili": 4243,
      "uler": 4244,
      "▁planlarını": 4245,
      "yıl": 4246,
      "▁gorevini": 4247,
      "▁planimiz": 4248,
      "▁gid": 4249,
      "▁arkadaslar": 4250,
      "gili": 4251,
      "▁27": 4252,
      "▁kahram": 4253,
      "▁iletisim": 4254,
      "▁kayıplar": 4255,
      "tarak": 4256,
      "▁uluslararası": 4257,
      "▁yerles": 4258,
      "▁elbette": 4259,
      "ler": 4260,
      "▁farklı": 4261,
      "▁dolandır": 4262,
      "▁problem": 4263,
      "▁inan": 4264,
      "▁titr": 4265,
      "▁gur": 4266,
      "▁gun": 4267,
      "▁personeller": 4268,
      "arda": 4269,
      "▁ata": 4270,
      "▁guleryuzlu": 4271,
      "kur": 4272,
      "▁listele": 4273,
      "▁hizmetci": 4274,
      "ncak": 4275,
      "all": 4276,
      "makta": 4277,
      "▁gozlerinin": 4278,
      "▁katana": 4279,
      "▁faturam": 4280,
      "▁balik": 4281,
      "van": 4282,
      "▁tartısma": 4283,
      "embe": 4284,
      "▁sahn": 4285,
      "▁bulas": 4286,
      "▁aramızda": 4287,
      "▁evleri": 4288,
      "izli": 4289,
      "▁art": 4290,
      "▁onem": 4291,
      "▁''": 4292,
      "ust": 4293,
      "▁etk": 4294,
      "▁beye": 4295,
      "▁per": 4296,
      "elik": 4297,
      "▁ocagı": 4298,
      "▁tehdit": 4299,
      "▁sapka": 4300,
      "▁karsıtı": 4301,
      "▁yurur": 4302,
      "▁insan": 4303,
      "▁aylarda": 4304,
      "▁ramaz": 4305,
      "▁birinin": 4306,
      "▁noktasına": 4307,
      "▁olacak": 4308,
      "mıstır": 4309,
      "▁gayet": 4310,
      "▁yasad": 4311,
      "▁umit": 4312,
      "▁yalnızca": 4313,
      "▁rakip": 4314,
      "anların": 4315,
      ".4": 4316,
      "▁sah": 4317,
      "set": 4318,
      "▁avukatı": 4319,
      "▁catı": 4320,
      "▁ziyaret": 4321,
      "ız": 4322,
      "▁gecen": 4323,
      "▁cik": 4324,
      "umda": 4325,
      "▁toplumun": 4326,
      "vas": 4327,
      "▁kıza": 4328,
      "▁ink": 4329,
      "?": 4330,
      "dikleri": 4331,
      "▁45": 4332,
      "▁giris": 4333,
      "▁yukseldi": 4334,
      "▁asagıya": 4335,
      "ırı": 4336,
      "▁talep": 4337,
      "piyon": 4338,
      "larım": 4339,
      "▁cozum": 4340,
      "eciler": 4341,
      "acılar": 4342,
      "▁g": 4343,
      "imden": 4344,
      "▁tarih": 4345,
      "▁prot": 4346,
      "▁olmad": 4347,
      "▁buz": 4348,
      "▁seviye": 4349,
      "imle": 4350,
      "isco": 4351,
      "▁yasıyor": 4352,
      "mayın": 4353,
      "▁bilin": 4354,
      "unun": 4355,
      "▁degiller": 4356,
      "▁lou": 4357,
      "▁kosk": 4358,
      "▁tuk": 4359,
      "lerdi": 4360,
      "▁erk": 4361,
      "ıklık": 4362,
      "▁devam": 4363,
      "▁evlilik": 4364,
      "udu": 4365,
      "▁bolge": 4366,
      "sine": 4367,
      "▁nok": 4368,
      "▁onur": 4369,
      "edigi": 4370,
      "iyorlar": 4371,
      "▁strate": 4372,
      "▁araya": 4373,
      "▁yitir": 4374,
      "▁torb": 4375,
      "▁kullanıyor": 4376,
      "▁soya": 4377,
      "▁sergi": 4378,
      "▁veyahut": 4379,
      "▁agzını": 4380,
      "▁yapmıs": 4381,
      "▁sektor": 4382,
      "▁konuları": 4383,
      "▁toparlan": 4384,
      "▁elinden": 4385,
      "▁isine": 4386,
      "▁gozuyle": 4387,
      "▁atlar": 4388,
      "ıldıgını": 4389,
      "▁uygun": 4390,
      "▁finans": 4391,
      "ber": 4392,
      "▁takdir": 4393,
      "▁sarım": 4394,
      "▁nedenle": 4395,
      "▁gider": 4396,
      "eg": 4397,
      "▁f": 4398,
      "▁kentin": 4399,
      "▁oturu": 4400,
      "▁ilgilen": 4401,
      "▁kampan": 4402,
      "▁ettiler": 4403,
      "▁askı": 4404,
      "▁istir": 4405,
      "mu": 4406,
      "▁yonde": 4407,
      "ımla": 4408,
      "▁kof": 4409,
      "bire": 4410,
      "gur": 4411,
      "esine": 4412,
      "▁vegas": 4413,
      "lantı": 4414,
      "ento": 4415,
      "▁ila": 4416,
      "▁fik": 4417,
      "▁dilek": 4418,
      "▁davası": 4419,
      "▁ruzgar": 4420,
      "larından": 4421,
      "eyaz": 4422,
      "emedi": 4423,
      "▁perde": 4424,
      "hur": 4425,
      "▁1.5": 4426,
      "▁icme": 4427,
      "etle": 4428,
      "▁yemekten": 4429,
      "▁grubu": 4430,
      "egim": 4431,
      "lasyon": 4432,
      "▁meh": 4433,
      "▁ga": 4434,
      "▁nokta": 4435,
      "t": 4436,
      "▁kov": 4437,
      "▁anlayıs": 4438,
      "aj": 4439,
      "▁hangileri": 4440,
      "2'ye": 4441,
      "▁kent": 4442,
      "▁fig": 4443,
      "▁br": 4444,
      "▁5": 4445,
      "▁uyusturucu": 4446,
      "▁bilimin": 4447,
      "▁masraf": 4448,
      "▁olsa": 4449,
      "▁ideal": 4450,
      "cegini": 4451,
      "ikti": 4452,
      "▁uzun": 4453,
      "▁arzu": 4454,
      "▁parki": 4455,
      "▁gozune": 4456,
      "▁bilgis": 4457,
      "meyen": 4458,
      "▁uygulama": 4459,
      "▁izn": 4460,
      "▁yasamını": 4461,
      "isindan": 4462,
      "cih": 4463,
      "▁paylas": 4464,
      "▁cıkar": 4465,
      "▁dukk": 4466,
      "▁kolt": 4467,
      "▁oranda": 4468,
      "ers": 4469,
      "▁tarım": 4470,
      "[PAD]": 4471,
      "▁haziran": 4472,
      "▁ulu": 4473,
      "▁yurum": 4474,
      "▁ucusunu": 4475,
      "▁tabir": 4476,
      "vek": 4477,
      "ıgından": 4478,
      "ıslı": 4479,
      "ıp": 4480,
      "ogu": 4481,
      "▁tarihinde": 4482,
      "▁kerv": 4483,
      "say": 4484,
      "▁alb": 4485,
      "en": 4486,
      "▁nedeniyle": 4487,
      "▁dag": 4488,
      "siniz": 4489,
      "kt": 4490,
      "▁sistemleri": 4491,
      "▁ucaklar": 4492,
      "▁temizlik": 4493,
      "▁geliri": 4494,
      "▁pap": 4495,
      "▁gercek": 4496,
      "▁yuzyıl": 4497,
      "▁kupon": 4498,
      "▁anlasmayı": 4499,
      "▁cevresinde": 4500,
      "esem": 4501,
      "▁piyasa": 4502,
      "▁saldır": 4503,
      "▁samim": 4504,
      "emden": 4505,
      "▁doları'ndan": 4506,
      "▁pansiyon": 4507,
      "▁aca": 4508,
      "▁muhaf": 4509,
      "▁hos": 4510,
      "▁borc": 4511,
      "▁gunleri": 4512,
      "eo": 4513,
      "▁suda": 4514,
      "dizli": 4515,
      "mıyorum": 4516,
      "▁as": 4517,
      "dik": 4518,
      "art": 4519,
      "▁kelimeyle": 4520,
      "▁cos": 4521,
      "idi": 4522,
      "▁komit": 4523,
      "▁aradi": 4524,
      "ustos": 4525,
      "▁doga": 4526,
      "ha": 4527,
      "▁dondu": 4528,
      "usunda": 4529,
      "▁sehirde": 4530,
      "▁hij": 4531,
      "▁surede": 4532,
      "▁anlam": 4533,
      "▁eger": 4534,
      "▁hazır": 4535,
      "tansiy": 4536,
      "larak": 4537,
      "▁transfer": 4538,
      "▁boyunca": 4539,
      "▁haklar": 4540,
      "▁davaya": 4541,
      "▁fatur": 4542,
      "▁para": 4543,
      "▁taslar": 4544,
      "amıza": 4545,
      "▁tadima": 4546,
      "▁birbirlerine": 4547,
      "▁duvar": 4548,
      "▁bolumunu": 4549,
      "▁havaya": 4550,
      "▁dos": 4551,
      "ceyr": 4552,
      "urup": 4553,
      "▁st.": 4554,
      "▁asıl": 4555,
      "▁dususle": 4556,
      "▁oc": 4557,
      "▁kalit": 4558,
      "▁100": 4559,
      "atı": 4560,
      "▁yiyecekler": 4561,
      "▁dieg": 4562,
      "erh": 4563,
      "▁futbol": 4564,
      "▁yerinden": 4565,
      "▁pazar": 4566,
      "akları": 4567,
      "▁aqu": 4568,
      "▁tabii": 4569,
      "▁meyve": 4570,
      "▁cumhurbaskanı": 4571,
      "▁tucc": 4572,
      "▁cas": 4573,
      "▁hız": 4574,
      "▁turden": 4575,
      "▁bulut": 4576,
      "▁tesv": 4577,
      "ev": 4578,
      "▁usul": 4579,
      "▁taklit": 4580,
      "▁konusur": 4581,
      "unde": 4582,
      "▁dem": 4583,
      "▁11": 4584,
      "lag": 4585,
      "▁termal": 4586,
      "▁cum": 4587,
      "ormal": 4588,
      "▁verir": 4589,
      "lam": 4590,
      "▁kultur": 4591,
      "▁kendileri": 4592,
      "▁altı": 4593,
      "▁pır": 4594,
      "ich": 4595,
      "▁duk": 4596,
      "eviz": 4597,
      "eye": 4598,
      "▁uzuntu": 4599,
      "▁iceride": 4600,
      "▁odayı": 4601,
      "izlik": 4602,
      "▁gitti": 4603,
      "kır": 4604,
      "▁sirket": 4605,
      "aret": 4606,
      "▁basımıza": 4607,
      "▁cambaz": 4608,
      "▁oysa": 4609,
      "▁toront": 4610,
      "▁demokr": 4611,
      "▁onlem": 4612,
      "adan": 4613,
      "▁isterim": 4614,
      "▁elinde": 4615,
      "▁pittsburgh": 4616,
      "▁tip": 4617,
      "▁cevre": 4618,
      "likte": 4619,
      "ograf": 4620,
      "’": 4621,
      "▁kesif": 4622,
      "▁portfoy": 4623,
      "▁yesil": 4624,
      "▁bor": 4625,
      "▁sart": 4626,
      "▁gecesi": 4627,
      "ırken": 4628,
      "▁pan": 4629,
      "▁yolcul": 4630,
      "▁saatte": 4631,
      "▁zafer": 4632,
      "▁cekti": 4633,
      "d": 4634,
      "▁yasamak": 4635,
      "▁eh": 4636,
      "▁gostergeleri": 4637,
      "▁deri": 4638,
      "▁ne": 4639,
      "▁mudahal": 4640,
      "▁mav": 4641,
      "▁olaylar": 4642,
      "vet": 4643,
      "▁mekte": 4644,
      "▁cet": 4645,
      "▁yeni": 4646,
      "▁kagı": 4647,
      "▁hayran": 4648,
      "lılık": 4649,
      "▁baska": 4650,
      "▁alman": 4651,
      "▁angel": 4652,
      "lanma": 4653,
      "▁bil": 4654,
      "▁isin": 4655,
      "▁kabil": 4656,
      "▁continental": 4657,
      "▁deney": 4658,
      "▁siyasi": 4659,
      "▁animator": 4660,
      "▁sayısı": 4661,
      "▁gen": 4662,
      "▁bah": 4663,
      "tık": 4664,
      "imizda": 4665,
      "▁degerlendiririm": 4666,
      "▁im": 4667,
      "'t": 4668,
      "tigini": 4669,
      "▁vad": 4670,
      "▁dakikada": 4671,
      "▁phil": 4672,
      "meger": 4673,
      "▁potansiy": 4674,
      "▁geride": 4675,
      "▁belgeleri": 4676,
      "▁yasası": 4677,
      "▁parası": 4678,
      "▁panik": 4679,
      "▁mu": 4680,
      "▁tad": 4681,
      "▁eder": 4682,
      "▁anahtar": 4683,
      "▁ket": 4684,
      "▁milwaukee": 4685,
      "▁kend": 4686,
      "biye": 4687,
      "▁norma": 4688,
      "ktur": 4689,
      "▁yiyecekleri": 4690,
      "▁hiz": 4691,
      "tar": 4692,
      "▁yuz": 4693,
      "▁cif": 4694,
      "▁isciler": 4695,
      "▁cırp": 4696,
      "▁pros": 4697,
      "aco": 4698,
      "▁zira": 4699,
      "▁yonu": 4700,
      "▁halkla": 4701,
      "▁ero": 4702,
      "▁antr": 4703,
      "▁karsılıgında": 4704,
      "▁sask": 4705,
      "▁piyasayı": 4706,
      "▁lut": 4707,
      "▁uretim": 4708,
      "ilecegi": 4709,
      "▁cogunlugu": 4710,
      "▁isabet": 4711,
      "▁stat": 4712,
      "▁bl": 4713,
      "▁epe": 4714,
      "esti": 4715,
      "▁burun": 4716,
      "diklerini": 4717,
      "▁yaln": 4718,
      "meler": 4719,
      "▁$": 4720,
      "▁$'dan": 4721,
      "▁plani": 4722,
      "▁yanak": 4723,
      "▁kek": 4724,
      "a'ya": 4725,
      "▁gunesin": 4726,
      "▁hepsini": 4727,
      "kon": 4728,
      "lo": 4729,
      "▁telefonda": 4730,
      "▁ola": 4731,
      "▁bogazici": 4732,
      "▁vergi": 4733,
      "▁kuralları": 4734,
      "▁cercevesinde": 4735,
      "▁merm": 4736,
      "ain": 4737,
      "▁lider": 4738,
      "▁gidiyor": 4739,
      "▁denet": 4740,
      "▁hat": 4741,
      "▁tap": 4742,
      "▁istey": 4743,
      "▁bul": 4744,
      "▁olayda": 4745,
      "▁parcasını": 4746,
      "▁ozel": 4747,
      "▁evi": 4748,
      "elerle": 4749,
      "▁anayas": 4750,
      "den": 4751,
      "eden": 4752,
      "ecekti": 4753,
      "▁yasında": 4754,
      "▁buy": 4755,
      "ıstı": 4756,
      "▁otelden": 4757,
      "▁tenis": 4758,
      "lenen": 4759,
      "▁karısı": 4760,
      "▁evren": 4761,
      "▁oteki": 4762,
      "agı": 4763,
      "▁business": 4764,
      "▁kosulları": 4765,
      "▁krav": 4766,
      "imi": 4767,
      "▁etraf": 4768,
      "▁eksiklikler": 4769,
      "▁okulu": 4770,
      "▁avukatları": 4771,
      "mada": 4772,
      "▁roportaj": 4773,
      "▁dolarlık": 4774,
      "▁ucreti": 4775,
      "ecegini": 4776,
      "▁hissedar": 4777,
      "▁muslum": 4778,
      "lacak": 4779,
      "inize": 4780,
      "▁isbir": 4781,
      "▁biliyorum": 4782,
      "/8'e": 4783,
      "▁aracı": 4784,
      "▁cıkan": 4785,
      "▁geliyor": 4786,
      "▁dom": 4787,
      "▁maden": 4788,
      "▁kahvalti": 4789,
      "▁gitmek": 4790,
      "muz": 4791,
      "maktan": 4792,
      "▁haberleri": 4793,
      "▁des": 4794,
      "▁kanadı": 4795,
      "▁bay": 4796,
      "▁icin": 4797,
      "odu": 4798,
      "▁tun": 4799,
      "▁parca": 4800,
      "onik": 4801,
      "▁okum": 4802,
      "▁beyin": 4803,
      "▁atese": 4804,
      "▁burn": 4805,
      "▁elbis": 4806,
      "ınız": 4807,
      "maları": 4808,
      "▁odasında": 4809,
      "bat": 4810,
      "dıgından": 4811,
      "▁parcası": 4812,
      "0'": 4813,
      "▁birlik": 4814,
      "unluk": 4815,
      "▁oldular": 4816,
      "▁tas": 4817,
      "ent": 4818,
      "onto": 4819,
      "▁bilmek": 4820,
      "meldi": 4821,
      "oker": 4822,
      "dek": 4823,
      "▁kurumsal": 4824,
      "▁dusur": 4825,
      "▁dunyaya": 4826,
      "egiyle": 4827,
      "▁yası": 4828,
      "▁aldılar": 4829,
      "▁dusunur": 4830,
      "▁gucu": 4831,
      "▁yuruy": 4832,
      "▁fiyatlar": 4833,
      "▁buh": 4834,
      "▁yuzune": 4835,
      "▁vardı": 4836,
      "▁karsiladi": 4837,
      "▁soze": 4838,
      "etim": 4839,
      "▁geriye": 4840,
      "▁kendini": 4841,
      "▁ort": 4842,
      "▁port": 4843,
      "▁etrafına": 4844,
      "▁suru": 4845,
      "▁evvel": 4846,
      "▁kitaplar": 4847,
      "ubet": 4848,
      "▁yaklasimi": 4849,
      "ustugunu": 4850,
      "madı": 4851,
      "▁get": 4852,
      "▁kalabal": 4853,
      "▁tavır": 4854,
      "am": 4855,
      "▁kalacak": 4856,
      "▁tutmak": 4857,
      "▁katır": 4858,
      "▁kuv": 4859,
      "▁baskanın": 4860,
      "▁reviz": 4861,
      "▁eglen": 4862,
      "▁omz": 4863,
      "▁tedirgin": 4864,
      "▁begen": 4865,
      "▁paranın": 4866,
      "der": 4867,
      "▁baskaları": 4868,
      "▁prof": 4869,
      "▁aracları": 4870,
      "▁tuketiciler": 4871,
      "lenme": 4872,
      "▁duvara": 4873,
      "▁durgunluk": 4874,
      "ına": 4875,
      "▁sebeplerden": 4876,
      "ell": 4877,
      "y": 4878,
      "dil": 4879,
      "▁hast": 4880,
      "▁vazif": 4881,
      "▁suz": 4882,
      "ılıs": 4883,
      "▁dibine": 4884,
      "32": 4885,
      "iber": 4886,
      "▁taraftar": 4887,
      "▁zamanda": 4888,
      "▁mutlaka": 4889,
      "▁sorumluluk": 4890,
      "▁haber": 4891,
      "erik": 4892,
      "▁199": 4893,
      "▁degildir": 4894,
      "▁dısına": 4895,
      "▁sakin": 4896,
      "tiy": 4897,
      "▁personelden": 4898,
      "▁hayal": 4899,
      "sen": 4900,
      "▁sec": 4901,
      "ulmus": 4902,
      "ake": 4903,
      "acak": 4904,
      "▁muk": 4905,
      "▁kah": 4906,
      "malıdır": 4907,
      "▁yukseldigini": 4908,
      "▁eyl": 4909,
      "▁yumur": 4910,
      "▁carsaf": 4911,
      "▁devletin": 4912,
      "▁edi": 4913,
      "▁kosesine": 4914,
      "▁calismas": 4915,
      "▁kararı": 4916,
      "▁zav": 4917,
      "lerek": 4918,
      "▁sabahın": 4919,
      "▁yahut": 4920,
      "▁taahh": 4921,
      "lanıyor": 4922,
      "anmıs": 4923,
      "oc": 4924,
      "▁gitmis": 4925,
      "▁edeb": 4926,
      "▁kırk": 4927,
      "dar": 4928,
      "▁gordu": 4929,
      "▁siz": 4930,
      "▁cek": 4931,
      "dukca": 4932,
      "ımdan": 4933,
      "▁herhal": 4934,
      "ıyla": 4935,
      "▁rakamlar": 4936,
      "▁suresi": 4937,
      "▁asam": 4938,
      "erince": 4939,
      "▁istihdam": 4940,
      "▁cev": 4941,
      "▁sim": 4942,
      "▁animasyonlari": 4943,
      "▁mustaf": 4944,
      "▁te": 4945,
      "▁tahmini": 4946,
      "ısık": 4947,
      "▁konusma": 4948,
      "enek": 4949,
      "sa": 4950,
      "▁olum": 4951,
      "tılı": 4952,
      "lul": 4953,
      "▁hukmu": 4954,
      "▁yonetici": 4955,
      "▁gittim": 4956,
      "▁fi": 4957,
      "▁spons": 4958,
      "▁olcu": 4959,
      "▁viski": 4960,
      "▁pahaliydi": 4961,
      "▁sayısını": 4962,
      "▁pac": 4963,
      "eticiler": 4964,
      "len": 4965,
      "▁franc": 4966,
      "▁tren": 4967,
      "▁sal": 4968,
      "▁seni": 4969,
      "▁dallas'a": 4970,
      "ab": 4971,
      "▁yemeklerde": 4972,
      "ıklıgı": 4973,
      "▁tasıy": 4974,
      "▁reng": 4975,
      "uv": 4976,
      "▁makine": 4977,
      "▁suph": 4978,
      "▁uygulamaları": 4979,
      "▁gaz": 4980,
      "ırt": 4981,
      "▁sevgil": 4982,
      "▁parm": 4983,
      "▁vez": 4984,
      "▁ayni": 4985,
      "▁katil": 4986,
      "▁buzdol": 4987,
      "▁hemsir": 4988,
      "▁vol": 4989,
      "el": 4990,
      "▁buyum": 4991,
      "▁8": 4992,
      "▁mart": 4993,
      "▁cares": 4994,
      "▁kalitesi": 4995,
      "atist": 4996,
      "▁arkadasları": 4997,
      "▁cumhuriyetci": 4998,
      "▁yetenek": 4999,
      "▁sigar": 5000,
      "▁\"": 5001,
      "▁kayıp": 5002,
      "madik": 5003,
      "▁harikaydi": 5004,
      "▁yana": 5005,
      "bus": 5006,
      "▁parayı": 5007,
      "▁faaliyeti": 5008,
      "▁esir": 5009,
      "▁avuk": 5010,
      "j": 5011,
      "▁hayatını": 5012,
      "▁birtakım": 5013,
      "▁taz": 5014,
      "▁engel": 5015,
      "▁oranlarının": 5016,
      "l": 5017,
      "eland": 5018,
      "▁elleri": 5019,
      "▁odaya": 5020,
      "▁diz": 5021,
      "alım": 5022,
      "▁aktarmasız": 5023,
      "▁turu": 5024,
      "▁sınıfı": 5025,
      "▁chp": 5026,
      "altı": 5027,
      "▁feda": 5028,
      "▁duvarın": 5029,
      "▁takımı": 5030,
      "▁kendisine": 5031,
      "▁vat": 5032,
      "adem": 5033,
      "▁veririm": 5034,
      "▁verdigim": 5035,
      "▁yemeklerinden": 5036,
      "▁fiyata": 5037,
      "▁mezar": 5038,
      "ıstır": 5039,
      "▁sona": 5040,
      "▁hayat": 5041,
      "▁geleni": 5042,
      "yiz": 5043,
      "▁arıyor": 5044,
      "▁coktu": 5045,
      "▁karn": 5046,
      "▁derin": 5047,
      "▁tav": 5048,
      "▁sozcu": 5049,
      "nak": 5050,
      "iste": 5051,
      "▁turlu": 5052,
      "▁elestiri": 5053,
      "▁ortaya": 5054,
      "obil": 5055,
      "▁clas": 5056,
      "▁borsa": 5057,
      "▁500": 5058,
      "▁neh": 5059,
      "go": 5060,
      "▁surec": 5061,
      "▁sar": 5062,
      "▁gol": 5063,
      "▁utanc": 5064,
      "▁banka": 5065,
      "▁rak": 5066,
      "manın": 5067,
      "▁kup": 5068,
      "agım": 5069,
      "▁tabiat": 5070,
      "▁kız": 5071,
      "▁kib": 5072,
      "▁imkanlar": 5073,
      "▁gos": 5074,
      "▁artısla": 5075,
      "▁gercekl": 5076,
      "▁kıymetler": 5077,
      "▁oteldi": 5078,
      "▁uyku": 5079,
      "▁isleri": 5080,
      "▁j": 5081,
      "▁misaf": 5082,
      "▁aydın": 5083,
      "▁dev": 5084,
      "▁yıld": 5085,
      "▁egit": 5086,
      "▁arkadas": 5087,
      "lenin": 5088,
      "▁bak": 5089,
      "oloj": 5090,
      "▁islemlerde": 5091,
      "▁of": 5092,
      "ai": 5093,
      "uga": 5094,
      "lem": 5095,
      "▁cam": 5096,
      "ılmaz": 5097,
      "▁calısma": 5098,
      "▁seyi": 5099,
      "ayla": 5100,
      "▁yaklasımı": 5101,
      "▁paket": 5102,
      "▁alak": 5103,
      "ard": 5104,
      "▁sorunu": 5105,
      "▁sokaga": 5106,
      "▁olar": 5107,
      "atla": 5108,
      "▁lif": 5109,
      "▁toplantıda": 5110,
      "sel": 5111,
      "▁caba": 5112,
      "▁ardından": 5113,
      "bir": 5114,
      "▁teh": 5115,
      "▁dig": 5116,
      "▁sevk": 5117,
      "▁calismasina": 5118,
      "imin": 5119,
      "▁vası": 5120,
      "acık": 5121,
      "ısının": 5122,
      "▁dalg": 5123,
      "▁city'den": 5124,
      "▁gunku": 5125,
      "m": 5126,
      "▁supur": 5127,
      "▁mater": 5128,
      "q": 5129,
      "▁ork": 5130,
      "▁l": 5131,
      "▁simdiye": 5132,
      "▁saglamak": 5133,
      "▁yuzlu": 5134,
      "▁denizinden": 5135,
      "00'": 5136,
      "mıyor": 5137,
      "▁kapital": 5138,
      "▁sozc": 5139,
      "▁cıkardı": 5140,
      "▁,": 5141,
      "ere": 5142,
      "▁bos": 5143,
      "▁taraf": 5144,
      "▁liraya": 5145,
      "▁onceki": 5146,
      "ızlı": 5147,
      "ettim": 5148,
      "n": 5149,
      "▁ph": 5150,
      "▁hisselerini": 5151,
      "ilmek": 5152,
      "▁imza": 5153,
      "▁ayına": 5154,
      "lulugu": 5155,
      "▁dısarıya": 5156,
      "▁bahc": 5157,
      "▁tut": 5158,
      "ence": 5159,
      "▁nefret": 5160,
      "▁cın": 5161,
      "▁yum": 5162,
      "▁basit": 5163,
      "[CLS]": 5164,
      "▁lake": 5165,
      "▁mekana": 5166,
      "▁musterilere": 5167,
      "▁gerekcesiyle": 5168,
      "▁t": 5169,
      "▁pis": 5170,
      "ersiz": 5171,
      "▁aralarında": 5172,
      "kı": 5173,
      "▁disinda": 5174,
      "▁guleryuzluydu": 5175,
      "▁konuyla": 5176,
      "▁nak": 5177,
      "▁atıs": 5178,
      "▁ithal": 5179,
      "▁programını": 5180,
      "▁oyku": 5181,
      "▁eglenc": 5182,
      "▁goruntu": 5183,
      "▁donemi": 5184,
      "▁so": 5185,
      "otuz": 5186,
      "taj": 5187,
      "▁hakkında": 5188,
      "itler": 5189,
      "▁yet": 5190,
      "abilir": 5191,
      "▁yapı": 5192,
      "▁ucunda": 5193,
      "▁cocukluk": 5194,
      "▁prob": 5195,
      "iger": 5196,
      "▁degildi": 5197,
      "ısma": 5198,
      "▁toren": 5199,
      "alama": 5200,
      "▁kitapta": 5201,
      "lanmasını": 5202,
      "edik": 5203,
      "amaz": 5204,
      "iyordum": 5205,
      "▁daire": 5206,
      "▁hazırlık": 5207,
      "▁tanım": 5208,
      "▁sik": 5209,
      "▁muduru": 5210,
      "▁labor": 5211,
      "▁yuzunde": 5212,
      "▁cur": 5213,
      "▁sam": 5214,
      "▁bolum": 5215,
      "▁soyley": 5216,
      "▁th": 5217,
      "▁bildir": 5218,
      "▁#": 5219,
      "▁ozellik": 5220,
      "abı": 5221,
      "▁mat": 5222,
      "▁gibiydi": 5223,
      "▁normaldi": 5224,
      "▁hastalık": 5225,
      "▁%4": 5226,
      "▁ekonomi": 5227,
      "▁ger": 5228,
      "▁dam": 5229,
      "▁karan": 5230,
      "▁kendisi": 5231,
      "▁idaresi": 5232,
      "cılara": 5233,
      "ıgı": 5234,
      "alet": 5235,
      "eyin": 5236,
      "ugun": 5237,
      "'i": 5238,
      "▁ya": 5239,
      "▁22": 5240,
      "ayacagını": 5241,
      "igi": 5242,
      "samba": 5243,
      "▁tedbir": 5244,
      "▁icr": 5245,
      "▁dolas": 5246,
      "ustan": 5247,
      "▁yiyeceklerin": 5248,
      "tırma": 5249,
      "▁tedarik": 5250,
      "lerine": 5251,
      "▁oyna": 5252,
      "▁ortasına": 5253,
      "▁sıcak": 5254,
      "▁dl": 5255,
      "▁sonuna": 5256,
      "▁ancak": 5257,
      "▁annemin": 5258,
      "masına": 5259,
      "7": 5260,
      "tali": 5261,
      "gimiz": 5262,
      "liyat": 5263,
      "▁musait": 5264,
      "▁bilimi": 5265,
      "▁hijyen": 5266,
      "alarına": 5267,
      "▁imz": 5268,
      "osuna": 5269,
      "▁ofis": 5270,
      "▁mevzuat": 5271,
      "▁muhaseb": 5272,
      "▁emeklilik": 5273,
      "ahat": 5274,
      "▁yasam": 5275,
      "'e": 5276,
      "▁er": 5277,
      "kk": 5278,
      "leniyor": 5279,
      "▁calısanı": 5280,
      "▁satmak": 5281,
      "bilir": 5282,
      "tanbul": 5283,
      "ank": 5284,
      "▁ittif": 5285,
      "▁corap": 5286,
      "▁ısrar": 5287,
      "▁air": 5288,
      "▁uretici": 5289,
      "▁mo": 5290,
      "▁kagıd": 5291,
      "▁sonuclarını": 5292,
      "▁kanser": 5293,
      "▁goz": 5294,
      "▁ucrete": 5295,
      "ket": 5296,
      "▁lokanta": 5297,
      "▁git": 5298,
      "▁21": 5299,
      "ılmaya": 5300,
      "▁tatile": 5301,
      "ısında": 5302,
      "▁ucretin": 5303,
      "▁yatırımcılar": 5304,
      "lendi": 5305,
      "ola": 5306,
      "▁once": 5307,
      "alamak": 5308,
      "ogram": 5309,
      "▁kaygı": 5310,
      "▁ik": 5311,
      "dir": 5312,
      "▁salınc": 5313,
      "▁turkiye": 5314,
      "ısıyla": 5315,
      "▁koyu": 5316,
      "▁alana": 5317,
      "▁yuzunun": 5318,
      "▁saygı": 5319,
      "▁huk": 5320,
      "▁mont": 5321,
      "▁plak": 5322,
      "▁tıras": 5323,
      "▁lı": 5324,
      "apolis": 5325,
      "▁personellerinden": 5326,
      "▁islem": 5327,
      "acag": 5328,
      "cılar": 5329,
      "ımın": 5330,
      "ıltı": 5331,
      "nuz": 5332,
      "▁tarafında": 5333,
      "▁ilk": 5334,
      "asın": 5335,
      "▁tor": 5336,
      "sizligi": 5337,
      "lıydı": 5338,
      "ey": 5339,
      "▁...": 5340,
      "▁cem": 5341,
      "▁dusun": 5342,
      "ilmis": 5343,
      "madan": 5344,
      "▁gazete": 5345,
      "▁for": 5346,
      "▁etmedi": 5347,
      "▁muam": 5348,
      "▁kızları": 5349,
      "▁3/": 5350,
      "erken": 5351,
      "▁teknoloji": 5352,
      "ultu": 5353,
      "tek": 5354,
      "▁kuvvet": 5355,
      "▁kadınları": 5356,
      "▁olurdu": 5357,
      "▁mev": 5358,
      "ılıyor": 5359,
      "▁sekiz": 5360,
      "yız": 5361,
      "erler": 5362,
      "uf": 5363,
      "▁plan": 5364,
      "5'": 5365,
      "▁3'ten": 5366,
      "▁aktarmalı": 5367,
      "▁merk": 5368,
      "▁tahvillerin": 5369,
      "▁istedi": 5370,
      "fer": 5371,
      "▁muay": 5372,
      "osyon": 5373,
      "▁yild": 5374,
      "▁yontem": 5375,
      "▁gosteriyor": 5376,
      "▁agacın": 5377,
      "▁lokma": 5378,
      "det": 5379,
      "▁havuzun": 5380,
      "yo": 5381,
      "▁gerekti": 5382,
      "▁iliskisi": 5383,
      "▁jur": 5384,
      "▁etkisini": 5385,
      "▁pers": 5386,
      "gun": 5387,
      "yı": 5388,
      "▁gundeme": 5389,
      "▁deg": 5390,
      "▁pur": 5391,
      "▁zararı": 5392,
      "▁gorusu": 5393,
      "▁faaliyetleri": 5394,
      "▁yıllarda": 5395,
      "▁raporları": 5396,
      "▁laik": 5397,
      "▁hiss": 5398,
      "▁zemin": 5399,
      "▁sıkıntı": 5400,
      "lama": 5401,
      "▁degerinde": 5402,
      "▁kurulus": 5403,
      "▁cikista": 5404,
      "▁viz": 5405,
      "islari": 5406,
      "▁abon": 5407,
      "▁urunleri": 5408,
      "▁ayıp": 5409,
      "▁gorunuyor": 5410,
      "▁kade": 5411,
      "ar": 5412,
      "tır": 5413,
      "▁skan": 5414,
      "▁korum": 5415,
      "▁2'den": 5416,
      "▁niz": 5417,
      "▁fed": 5418,
      "▁alaka": 5419,
      "▁rakı": 5420,
      "emey": 5421,
      "▁karıstır": 5422,
      "▁temsilci": 5423,
      "▁kurulu": 5424,
      "▁yıgın": 5425,
      "▁degisimi": 5426,
      "▁merkezi": 5427,
      "▁ucagın": 5428,
      "▁ucuslar": 5429,
      "mesine": 5430,
      "▁emek": 5431,
      "▁yuzuk": 5432,
      "▁philadelphia'dan": 5433,
      "▁misiniz": 5434,
      "▁hafız": 5435,
      "▁otuz": 5436,
      "▁ucusa": 5437,
      "▁yasamın": 5438,
      "▁persembe": 5439,
      "misler": 5440,
      "larına": 5441,
      "▁muamel": 5442,
      "▁tok": 5443,
      "o": 5444,
      "ram": 5445,
      "▁dısında": 5446,
      "▁dusundu": 5447,
      "itraj": 5448,
      "ij": 5449,
      "▁tramv": 5450,
      "▁mot": 5451,
      "▁burosu": 5452,
      "dıgını": 5453,
      "▁sikinti": 5454,
      "▁uygar": 5455,
      "▁sozlesme": 5456,
      "▁iskem": 5457,
      "▁odadan": 5458,
      "cinin": 5459,
      "▁lutfen": 5460,
      "▁havuz": 5461,
      "▁suya": 5462,
      "▁aile": 5463,
      "▁sac": 5464,
      "▁vak": 5465,
      "▁gecenin": 5466,
      "▁et": 5467,
      "ımızdan": 5468,
      "▁vaat": 5469,
      "▁alın": 5470,
      "▁endis": 5471,
      "▁fırın": 5472,
      "▁zeytin": 5473,
      "▁harika": 5474,
      "yas": 5475,
      "ugunda": 5476,
      "▁uyk": 5477,
      "cıların": 5478,
      "▁tehlike": 5479,
      "▁baslık": 5480,
      "▁sahis": 5481,
      "▁kongre": 5482,
      "lerimiz": 5483,
      "▁kısm": 5484,
      "▁bankalar": 5485,
      "▁ilgiliydi": 5486,
      "▁sened": 5487,
      "▁mesafe": 5488,
      "▁bes": 5489,
      "▁plaji": 5490,
      "▁ressam": 5491,
      "▁dibinde": 5492,
      "▁fidan": 5493,
      "▁yukse": 5494,
      "▁nob": 5495,
      "▁gormek": 5496,
      "inin": 5497,
      "▁calisanlardan": 5498,
      "▁yasak": 5499,
      "▁istedigini": 5500,
      "▁uzmanları": 5501,
      "▁kisiye": 5502,
      "lup": 5503,
      "gını": 5504,
      "▁tasarruf": 5505,
      "▁fakat": 5506,
      "▁gelecek": 5507,
      "▁itir": 5508,
      "▁olumlu": 5509,
      "▁olmadıgı": 5510,
      "▁beklent": 5511,
      "oroz": 5512,
      "▁yuzde": 5513,
      "erans": 5514,
      "▁kravat": 5515,
      "▁gozleriyle": 5516,
      "▁gelmek": 5517,
      "▁kayık": 5518,
      "emm": 5519,
      "▁la": 5520,
      "▁olmalı": 5521,
      "▁ucuslarla": 5522,
      "▁mobil": 5523,
      "▁memuru": 5524,
      "▁bastan": 5525,
      "▁damar": 5526,
      "▁kenar": 5527,
      "▁palt": 5528,
      "ez": 5529,
      "▁mem": 5530,
      "▁memleket": 5531,
      "&": 5532,
      "▁servis": 5533,
      "ay": 5534,
      "▁41": 5535,
      "0.": 5536,
      "▁burc": 5537,
      "▁arm": 5538,
      "luluk": 5539,
      "▁arkadasım": 5540,
      "as": 5541,
      "▁tesekkur": 5542,
      "▁domates": 5543,
      "sir": 5544,
      "ator": 5545,
      "lesi": 5546,
      "▁kadro": 5547,
      "andı": 5548,
      "▁toplantısında": 5549,
      "makt": 5550,
      "tım": 5551,
      "▁munasebet": 5552,
      "ektedir": 5553,
      "ir": 5554,
      "▁ipot": 5555,
      "▁12": 5556,
      "▁mısır": 5557,
      "▁kavanoz": 5558,
      "▁birlikte": 5559,
      "▁payları": 5560,
      "gin": 5561,
      "▁ailelerin": 5562,
      "▁kıvılc": 5563,
      "▁verin": 5564,
      "▁nitelik": 5565,
      "▁durumun": 5566,
      "▁kalkıyor": 5567,
      "▁alem": 5568,
      "▁civarı": 5569,
      "▁duruyordu": 5570,
      "▁yonetimi": 5571,
      "▁kalitesinden": 5572,
      "▁koltuk": 5573,
      "▁petrol": 5574,
      "▁washington": 5575,
      "▁kulub": 5576,
      "▁soz": 5577,
      "▁iskonto": 5578,
      "lıgını": 5579,
      "▁basv": 5580,
      "▁sasır": 5581,
      "▁umut": 5582,
      "▁operator": 5583,
      "▁sordu": 5584,
      "asi": 5585,
      "▁aldıgını": 5586,
      "▁31": 5587,
      "e": 5588,
      "ie": 5589,
      "akende": 5590,
      "▁universitesi": 5591,
      "▁paz": 5592,
      "▁dere": 5593,
      "▁kal": 5594,
      "▁olabilir": 5595,
      "▁muhendis": 5596,
      "▁ucus": 5597,
      "▁zar": 5598,
      "allas": 5599,
      "ekler": 5600,
      "▁kahval": 5601,
      "▁rut": 5602,
      "▁kanat": 5603,
      "▁havayolları": 5604,
      "▁personeli": 5605,
      "larini": 5606,
      "▁iscileri": 5607,
      "manı": 5608,
      "▁eg": 5609,
      "anti": 5610,
      "lıyordu": 5611,
      "ılık": 5612,
      "ask": 5613,
      "dıgında": 5614,
      "alık": 5615,
      "▁basını": 5616,
      "uzlu": 5617,
      "▁civ": 5618,
      "eginden": 5619,
      "kil": 5620,
      "▁mon": 5621,
      "▁far": 5622,
      "form": 5623,
      "▁eyalet": 5624,
      "▁sinyal": 5625,
      "isle": 5626,
      "▁satısı": 5627,
      "▁annem": 5628,
      "▁atesi": 5629,
      "▁bera": 5630,
      "▁perakende": 5631,
      "▁restor": 5632,
      "yım": 5633,
      "▁dusuncelerini": 5634,
      "igin": 5635,
      "okul": 5636,
      "ut": 5637,
      "▁yarat": 5638,
      "▁danısman": 5639,
      "▁personelin": 5640,
      "dak": 5641,
      "pe": 5642,
      "▁cikis": 5643,
      "▁diye": 5644,
      "▁eb": 5645,
      "▁insa": 5646,
      "diginde": 5647,
      "uma": 5648,
      "▁fon": 5649,
      "▁sorunun": 5650,
      "▁baz": 5651,
      "▁seyin": 5652,
      "emem": 5653,
      "▁sayıda": 5654,
      "▁ilkbah": 5655,
      "▁komisyon": 5656,
      "▁oglan": 5657,
      "▁kas": 5658,
      "h": 5659,
      "uh": 5660,
      "▁dey": 5661,
      "▁fil": 5662,
      "mıslar": 5663,
      "▁durdu": 5664,
      "▁fiyatlarının": 5665,
      "▁ay": 5666,
      "▁asla": 5667,
      "dıkları": 5668,
      "ligine": 5669,
      "▁peynir": 5670,
      "ama": 5671,
      "▁derec": 5672,
      "▁tarihine": 5673,
      "▁aydınlık": 5674,
      "gunu": 5675,
      "▁tavsiye": 5676,
      "kar": 5677,
      "miyordu": 5678,
      "acaktır": 5679,
      "cu": 5680,
      "▁okula": 5681,
      "▁tartıs": 5682,
      "lilig": 5683,
      "▁tramvay": 5684,
      "uyle": 5685,
      "lıların": 5686,
      "▁min": 5687,
      "▁rehber": 5688,
      "▁un": 5689,
      "▁yerine": 5690,
      "▁basladım": 5691,
      "uzları": 5692,
      "▁ugul": 5693,
      "▁bulmak": 5694,
      "uyor": 5695,
      "▁basın": 5696,
      "▁sokaklarda": 5697,
      "▁manev": 5698,
      "▁bankacılık": 5699,
      "▁vermek": 5700,
      "meyi": 5701,
      "▁teyz": 5702,
      "▁ihale": 5703,
      "▁ız": 5704,
      "▁posta": 5705,
      "▁sana": 5706,
      "laydi": 5707,
      "mıstım": 5708,
      "▁uz": 5709,
      "▁konuyu": 5710,
      "iy": 5711,
      "▁pos": 5712,
      "▁ces": 5713,
      "▁yapmaya": 5714,
      "▁anı": 5715,
      "▁avru": 5716,
      "▁sahip": 5717,
      "▁ciz": 5718,
      "▁kontrolu": 5719,
      "▁ekl": 5720,
      "ibi": 5721,
      "▁ce": 5722,
      "lip": 5723,
      "▁sef": 5724,
      "▁haklarını": 5725,
      "▁tezgah": 5726,
      "▁oyk": 5727,
      "▁efend": 5728,
      "▁gelis": 5729,
      "afet": 5730,
      "ieg": 5731,
      "▁kursun": 5732,
      "'n": 5733,
      "liginde": 5734,
      "▁cakmak": 5735,
      "▁kullanı": 5736,
      "▁giden": 5737,
      "▁bilgileri": 5738,
      "▁sene": 5739,
      "▁ogretmen": 5740,
      "ulu": 5741,
      "'ne": 5742,
      "oh": 5743,
      "▁memphis": 5744,
      "▁eski": 5745,
      "▁kıskanc": 5746,
      "kce": 5747,
      "▁org": 5748,
      "eleriyle": 5749,
      "▁duzelt": 5750,
      "yarak": 5751,
      "miyorum": 5752,
      "▁tabak": 5753,
      "fen": 5754,
      "▁mal": 5755,
      "▁kars": 5756,
      "▁ayrılık": 5757,
      "alar": 5758,
      "▁ruy": 5759,
      "iliyor": 5760,
      "▁ing": 5761,
      "▁piyan": 5762,
      "▁kırm": 5763,
      "▁yazarın": 5764,
      "▁arb": 5765,
      "▁sınıfta": 5766,
      "▁istegi": 5767,
      "iler": 5768,
      "▁kilis": 5769,
      "▁clev": 5770,
      "▁ocagın": 5771,
      "▁gormedim": 5772,
      "isk": 5773,
      "▁asık": 5774,
      "▁taham": 5775,
      "▁aldım": 5776,
      "▁koridor": 5777,
      "▁sesler": 5778,
      "▁lezzeti": 5779,
      "▁yeten": 5780,
      "▁meslek": 5781,
      "▁mik": 5782,
      "▁mavi": 5783,
      "▁odun": 5784,
      "▁azalt": 5785,
      "▁muhafaz": 5786,
      "▁vet": 5787,
      "▁konut": 5788,
      "ıf": 5789,
      "▁dok": 5790,
      "▁baskan": 5791,
      "▁donusu": 5792,
      "unda": 5793,
      "▁kesinlikle": 5794,
      "▁ucuza": 5795,
      "lugunun": 5796,
      "▁surekli": 5797,
      "▁ihrac": 5798,
      "▁karsıya": 5799,
      "▁6'dan": 5800,
      "▁kızım": 5801,
      "▁sebep": 5802,
      "▁ilac": 5803,
      "▁evla": 5804,
      "▁ona": 5805,
      "▁cevir": 5806,
      "▁olmaktan": 5807,
      "▁okudu": 5808,
      "lugunda": 5809,
      "iyi": 5810,
      "etleri": 5811,
      "▁sem": 5812,
      "▁oranını": 5813,
      "▁od": 5814,
      "▁guney": 5815,
      "▁ureticileri": 5816,
      "giniz": 5817,
      "▁kans": 5818,
      "▁bır": 5819,
      "acılık": 5820,
      "▁getiri": 5821,
      "▁ayrıl": 5822,
      "▁ceyr": 5823,
      "▁ayak": 5824,
      "▁198": 5825,
      "▁radyo": 5826,
      "▁vade": 5827,
      "▁kılav": 5828,
      "▁komite": 5829,
      "▁guc": 5830,
      "▁ozen": 5831,
      "▁muhtemelen": 5832,
      "▁salı": 5833,
      "▁sonbah": 5834,
      "meleri": 5835,
      "▁sul": 5836,
      "▁temizliginden": 5837,
      "▁altında": 5838,
      "▁oyuncak": 5839,
      "lıdır": 5840,
      "▁basbakan": 5841,
      "▁protest": 5842,
      "tia": 5843,
      "▁sozu": 5844,
      "▁imkanlari": 5845,
      "▁yaban": 5846,
      "▁aras": 5847,
      "▁kral": 5848,
      "▁burokr": 5849,
      "▁onumuz": 5850,
      "ation": 5851,
      "▁davul": 5852,
      "▁listesini": 5853,
      "▁yardımcısı": 5854,
      "▁kapıları": 5855,
      "▁yumus": 5856,
      "lit": 5857,
      "▁anlama": 5858,
      "▁cevabı": 5859,
      "lıkta": 5860,
      "▁gidis": 5861,
      "▁limuzin": 5862,
      "▁ada": 5863,
      "▁yapacak": 5864,
      "▁turkc": 5865,
      "▁otelin": 5866,
      "▁dedikodu": 5867,
      "burg": 5868,
      "▁olayı": 5869,
      "▁toplamda": 5870,
      "▁odak": 5871,
      ".3": 5872,
      "▁hel": 5873,
      "▁evinde": 5874,
      "▁ait": 5875,
      "▁suyun": 5876,
      "▁ber": 5877,
      "▁has": 5878,
      "▁aslında": 5879,
      "tr": 5880,
      "▁cor": 5881,
      "▁saadet": 5882,
      "▁zam": 5883,
      "▁netic": 5884,
      "▁hul": 5885,
      "▁devleti": 5886,
      "▁uzakta": 5887,
      "les": 5888,
      "▁varsa": 5889,
      "▁ucusuna": 5890,
      "▁fen": 5891,
      "▁yine": 5892,
      "▁olumu": 5893,
      "▁merkeze": 5894,
      "▁sonuc": 5895,
      "▁kurt": 5896,
      "gru": 5897,
      "siy": 5898,
      "▁hissed": 5899,
      "▁coz": 5900,
      "▁tes": 5901,
      "▁havuzlari": 5902,
      "ee": 5903,
      "▁si": 5904,
      "▁aleyhine": 5905,
      "▁ankete": 5906,
      "▁delikanlı": 5907,
      "▁bosluk": 5908,
      "▁temin": 5909,
      "▁tehd": 5910,
      "▁gunesi": 5911,
      "ediklerini": 5912,
      "▁karar": 5913,
      "▁cd": 5914,
      "▁sm": 5915,
      "daydi": 5916,
      "melere": 5917,
      "▁merh": 5918,
      "▁ote": 5919,
      "▁evlerine": 5920,
      "lum": 5921,
      "▁bankaların": 5922,
      "▁mis": 5923,
      "istim": 5924,
      "▁seviy": 5925,
      "▁uygundu": 5926,
      "amac": 5927,
      "▁aralık": 5928,
      "▁zor": 5929,
      "▁insanlara": 5930,
      "masından": 5931,
      "urdu": 5932,
      "lari": 5933,
      "lak": 5934,
      "▁menfaat": 5935,
      "edeki": 5936,
      "yacak": 5937,
      "▁mahk": 5938,
      "▁sehrin": 5939,
      "▁direk": 5940,
      "vr": 5941,
      "▁umid": 5942,
      "▁baktı": 5943,
      "idir": 5944,
      "▁kil": 5945,
      "▁elbise": 5946,
      "▁ankar": 5947,
      "▁fotograf": 5948,
      "z": 5949,
      "▁acaba": 5950,
      "▁alev": 5951,
      "uyorlardı": 5952,
      "icisi": 5953,
      "▁yakinlarima": 5954,
      "▁yi": 5955,
      "▁oluyor": 5956,
      "▁alma": 5957,
      "asız": 5958,
      "▁benden": 5959,
      "emi": 5960,
      "▁ustu": 5961,
      "▁tarafta": 5962,
      "▁baslarında": 5963,
      "ecegine": 5964,
      "▁polis": 5965,
      "ıs": 5966,
      "▁danısmanı": 5967,
      "▁yaprak": 5968,
      "▁petr": 5969,
      "▁perform": 5970,
      "ul": 5971,
      "▁herh": 5972,
      "▁kisisel": 5973,
      "▁tulum": 5974,
      "▁mukem": 5975,
      "laması": 5976,
      "uk": 5977,
      "▁ihracları": 5978,
      "ten": 5979,
      "▁pesinde": 5980,
      "'ye": 5981,
      "ege": 5982,
      "ima": 5983,
      "▁sozleri": 5984,
      "▁acısı": 5985,
      "▁gal": 5986,
      "▁yerden": 5987,
      "larımıza": 5988,
      "emli": 5989,
      "yse": 5990,
      "▁bazıları": 5991,
      "▁sahil": 5992,
      "▁ates": 5993,
      "sef": 5994,
      "▁yarad": 5995,
      "mac": 5996,
      "▁sos": 5997,
      "ilmesi": 5998,
      "▁karsi": 5999,
      "▁ortalama": 6000,
      "▁olduguna": 6001,
      "▁pl": 6002,
      "▁p": 6003,
      "▁kelim": 6004,
      "▁edecek": 6005,
      "▁ayır": 6006,
      "▁oyle": 6007,
      "▁mutfak": 6008,
      "▁cuma": 6009,
      "iydi": 6010,
      "usu": 6011,
      "anı": 6012,
      "▁yoktu": 6013,
      "▁ceza": 6014,
      "\\/": 6015,
      "▁sola": 6016,
      "▁evet": 6017,
      "ligin": 6018,
      "em": 6019,
      "▁paranin": 6020,
      "▁fırc": 6021,
      "▁buna": 6022,
      "▁sinir": 6023,
      "▁kalb": 6024,
      "▁16": 6025,
      "▁ulkelerde": 6026,
      "met": 6027,
      "▁anla": 6028,
      "▁boyn": 6029,
      "▁sıf": 6030,
      "▁dernegi": 6031,
      "amadı": 6032,
      "▁kurek": 6033,
      "uydu": 6034,
      "▁kalmaya": 6035,
      "▁ah": 6036,
      "uslar": 6037,
      "▁yapacagını": 6038,
      "▁ban": 6039,
      "▁sabahı": 6040,
      "eklen": 6041,
      "larca": 6042,
      "▁kasabaya": 6043,
      "▁isaret": 6044,
      "▁tac": 6045,
      "ayol": 6046,
      "gec": 6047,
      "'den": 6048,
      "▁fuz": 6049,
      "aket": 6050,
      "lerce": 6051,
      "▁4'ten": 6052,
      "▁yaptıgı": 6053,
      "▁mudur": 6054,
      "sem": 6055,
      "▁hic": 6056,
      "▁gay": 6057,
      "▁superdi": 6058,
      "▁oranında": 6059,
      "mes": 6060,
      "▁se": 6061,
      "▁bilgisay": 6062,
      "▁bulundu": 6063,
      "ley": 6064,
      "/4'e": 6065,
      "▁oglu": 6066,
      "▁almaya": 6067,
      "▁suren": 6068,
      "▁merhaba": 6069,
      "▁mevduat": 6070,
      "tikten": 6071,
      "eli": 6072,
      "▁tekl": 6073,
      "▁cit": 6074,
      "▁oldugundan": 6075,
      "imizde": 6076,
      "▁ustunden": 6077,
      "▁gorevi": 6078,
      "lara": 6079,
      "▁liderleri": 6080,
      "illeri": 6081,
      "▁dis": 6082,
      "▁maliyeti": 6083,
      "▁mermer": 6084,
      "ligiyle": 6085,
      "▁konuk": 6086,
      "▁iyiye": 6087,
      "▁koylu": 6088,
      "medigini": 6089,
      "▁makam": 6090,
      "muyordu": 6091,
      "ren": 6092,
      "▁tahr": 6093,
      "inci": 6094,
      "▁matem": 6095,
      "▁dogrusu": 6096,
      "wa": 6097,
      "ond": 6098,
      "▁vs": 6099,
      "iss": 6100,
      "▁amacı": 6101,
      "itr": 6102,
      "▁esya": 6103,
      "▁gorevlisi": 6104,
      "ster": 6105,
      "igim": 6106,
      "▁ardı": 6107,
      "▁ogret": 6108,
      "▁alkol": 6109,
      "▁miy": 6110,
      "▁saz": 6111,
      "▁boya": 6112,
      "ant": 6113,
      "▁yurt": 6114,
      "▁olmay": 6115,
      "▁sefer": 6116,
      "▁okulun": 6117,
      "▁kavg": 6118,
      "▁yagı": 6119,
      "gi": 6120,
      "▁yapıt": 6121,
      "isyon": 6122,
      "tal": 6123,
      "'nda": 6124,
      "▁son": 6125,
      "▁zengin": 6126,
      "ob": 6127,
      "▁sigara": 6128,
      "▁yıllar": 6129,
      "▁bakanı": 6130,
      "▁goze": 6131,
      "▁sofra": 6132,
      "▁bodr": 6133,
      "▁kedi": 6134,
      "onel": 6135,
      "9'a": 6136,
      "al": 6137,
      "eyen": 6138,
      "▁at": 6139,
      "▁analist": 6140,
      "▁tahvilleri": 6141,
      "▁oyuncular": 6142,
      "▁doktor": 6143,
      "uyorlar": 6144,
      "▁dakik": 6145,
      "/2": 6146,
      "▁yararlan": 6147,
      "▁yab": 6148,
      "▁kitapları": 6149,
      "▁atlan": 6150,
      "▁normal": 6151,
      "▁tez": 6152,
      "▁gokyuz": 6153,
      "▁3": 6154,
      "ib": 6155,
      "▁elektrik": 6156,
      "▁grub": 6157,
      "▁alakasi": 6158,
      "ları": 6159,
      "▁vic": 6160,
      "▁fiyatı": 6161,
      "aga": 6162,
      "▁herkese": 6163,
      "▁biy": 6164,
      "lıklı": 6165,
      "'deki": 6166,
      "iyon": 6167,
      "▁ayv": 6168,
      "▁gerekc": 6169,
      "▁kolay": 6170,
      "▁insanın": 6171,
      "▁makinesi": 6172,
      "▁kahkaha": 6173,
      "akat": 6174,
      "av": 6175,
      "masının": 6176,
      "usundan": 6177,
      "▁yolun": 6178,
      "▁hit": 6179,
      "▁maliyet": 6180,
      "tak": 6181,
      "ken": 6182,
      "lav": 6183,
      "▁havaalan": 6184,
      "ellikle": 6185,
      "▁cap": 6186,
      "▁isi": 6187,
      "ılan": 6188,
      "▁yatırımcıları": 6189,
      "▁sevinc": 6190,
      "▁buk": 6191,
      "inn": 6192,
      "▁derd": 6193,
      "atif": 6194,
      "▁kusur": 6195,
      "ata": 6196,
      "▁gu": 6197,
      "▁digerleri": 6198,
      "atlar": 6199,
      "▁amma": 6200,
      "▁hala": 6201,
      "inda": 6202,
      "▁sahs": 6203,
      "▁kısmını": 6204,
      "▁seref": 6205,
      "▁onun": 6206,
      "▁elb": 6207,
      "▁endek": 6208,
      "▁alama": 6209,
      "ize": 6210,
      "▁taks": 6211,
      "▁derg": 6212,
      "▁misafir": 6213,
      "6'dan": 6214,
      "lbu": 6215,
      "▁chic": 6216,
      "▁gerek": 6217,
      "▁toplantı": 6218,
      "ucc": 6219,
      "▁dagıtım": 6220,
      "▁nevi": 6221,
      "tmek": 6222,
      "istiri": 6223,
      "mıyordu": 6224,
      "▁odeme": 6225,
      "ıgını": 6226,
      "▁tey": 6227,
      "▁kafasına": 6228,
      "▁lafı": 6229,
      "lıgının": 6230,
      "▁ozlem": 6231,
      "erleri": 6232,
      "▁esnada": 6233,
      "etli": 6234,
      "▁soguk": 6235,
      "tir": 6236,
      "▁adlı": 6237,
      "▁sozlerini": 6238,
      "▁aktiviteler": 6239,
      "▁ticaret": 6240,
      "▁jand": 6241,
      "▁menk": 6242,
      "▁kere": 6243,
      "▁avukat": 6244,
      "▁jaguar": 6245,
      "▁calısmaları": 6246,
      "ecek": 6247,
      "▁ulkemiz": 6248,
      "▁kapsamında": 6249,
      "▁ropor": 6250,
      "▁vek": 6251,
      "▁oksur": 6252,
      "▁ha": 6253,
      "▁div": 6254,
      "▁aklıma": 6255,
      "▁atat": 6256,
      "▁%8": 6257,
      "▁ediyor": 6258,
      "ılıgını": 6259,
      "▁vardi": 6260,
      "▁1990'da": 6261,
      "▁denize": 6262,
      "▁hissesini": 6263,
      "aliydi": 6264,
      "it": 6265,
      "▁ked": 6266,
      "▁girmek": 6267,
      "beri": 6268,
      "vi": 6269,
      "ınca": 6270,
      "▁alamadim": 6271,
      "▁soyledi": 6272,
      "▁agac": 6273,
      "mekte": 6274,
      "▁bon": 6275,
      "izin": 6276,
      "turdu": 6277,
      "▁konularda": 6278,
      "istir": 6279,
      "▁kurulusu": 6280,
      "▁ekib": 6281,
      "mam": 6282,
      "ekk": 6283,
      "▁karsılıgı": 6284,
      "▁ilim": 6285,
      "das": 6286,
      "▁usak": 6287,
      "liginin": 6288,
      "▁canı": 6289,
      "▁yav": 6290,
      "ibaren": 6291,
      "▁alk": 6292,
      "seniz": 6293,
      "▁olarak": 6294,
      "▁edilm": 6295,
      "▁ters": 6296,
      "▁uyar": 6297,
      "▁sonraki": 6298,
      "▁dusmanı": 6299,
      "▁gostermek": 6300,
      "▁olmadıgını": 6301,
      "▁icimi": 6302,
      "abaz": 6303,
      "lıktan": 6304,
      "▁kaymak": 6305,
      "▁guzel": 6306,
      "▁sen": 6307,
      "▁burada": 6308,
      "▁epey": 6309,
      "▁civarında": 6310,
      "▁cins": 6311,
      "makla": 6312,
      "▁bakıyor": 6313,
      "ug": 6314,
      "▁san": 6315,
      "▁doneminde": 6316,
      "▁pozisyon": 6317,
      "▁borcun": 6318,
      "▁egil": 6319,
      "lıp": 6320,
      "▁zeka": 6321,
      "▁`": 6322,
      "▁yarar": 6323,
      "▁seviyede": 6324,
      "malı": 6325,
      "▁yil": 6326,
      "▁olmayı": 6327,
      "abor": 6328,
      "▁kazanmak": 6329,
      "ladıgını": 6330,
      "▁gok": 6331,
      "▁ala": 6332,
      "▁ise": 6333,
      "▁tanık": 6334,
      "▁sarf": 6335,
      "ucusu": 6336,
      "▁saclarını": 6337,
      "des": 6338,
      "▁sonlarında": 6339,
      "00'e": 6340,
      "▁denver": 6341,
      "▁yan": 6342,
      "▁tesvik": 6343,
      "▁lis": 6344,
      "▁umur": 6345,
      "orma": 6346,
      "▁gecti": 6347,
      "▁ilgi": 6348,
      "▁degistir": 6349,
      "▁puana": 6350,
      "tıktan": 6351,
      "▁kisilik": 6352,
      "▁urunlerin": 6353,
      "▁turlar": 6354,
      "▁herif": 6355,
      "aklık": 6356,
      "tıkları": 6357,
      "▁bicim": 6358,
      "▁digeri": 6359,
      "lulugunu": 6360,
      "▁diy": 6361,
      "▁otesinde": 6362,
      "▁iplik": 6363,
      "(": 6364,
      "madi": 6365,
      "erhal": 6366,
      "▁elma": 6367,
      "f": 6368,
      "▁gerekiyor": 6369,
      "mesini": 6370,
      "▁protokol": 6371,
      "▁kelep": 6372,
      "▁iki": 6373,
      "▁ihtim": 6374,
      "▁data": 6375,
      "▁dı": 6376,
      "▁holding": 6377,
      "▁cumartesi": 6378,
      "▁ornegin": 6379,
      "▁birkac": 6380,
      "alt": 6381,
      "lac": 6382,
      "▁9'dan": 6383,
      "irmi": 6384,
      "▁tuketim": 6385,
      "▁dikkat": 6386,
      "▁su": 6387,
      "▁direktor": 6388,
      "▁tahvili": 6389,
      "▁ogretmeni": 6390,
      "▁odan": 6391,
      "▁alan": 6392,
      "▁almıs": 6393,
      "▁halkı": 6394,
      "▁orta": 6395,
      "▁1980'": 6396,
      "▁muh": 6397,
      "▁laz": 6398,
      "▁sebebi": 6399,
      "ukee": 6400,
      "▁buyume": 6401,
      "▁ord": 6402,
      "▁merkezine": 6403,
      "til": 6404,
      "▁yakın": 6405,
      "ıga": 6406,
      "▁uf": 6407,
      "▁dusunc": 6408,
      "▁zahmet": 6409,
      "▁amerik": 6410,
      "▁kapanıs": 6411,
      "asindan": 6412,
      "▁kagıtları": 6413,
      "▁apartman": 6414,
      "▁senedi": 6415,
      "larınız": 6416,
      "emde": 6417,
      "▁oradan": 6418,
      "▁bile": 6419,
      "▁ref": 6420,
      "lamadı": 6421,
      "ugunun": 6422,
      "▁gune": 6423,
      "▁tuy": 6424,
      "▁cihaz": 6425,
      "irip": 6426,
      "▁kadr": 6427,
      "digim": 6428,
      "▁kutup": 6429,
      "est": 6430,
      "▁tay": 6431,
      "▁buf": 6432,
      "dıklarını": 6433,
      "▁politikası": 6434,
      "▁cesit": 6435,
      "dim": 6436,
      "▁sandal": 6437,
      "▁temel": 6438,
      "▁hisseye": 6439,
      "▁net": 6440,
      "▁cub": 6441,
      "▁ufuk": 6442,
      "uyla": 6443,
      "▁memnuniyeti": 6444,
      "▁kardesi": 6445,
      "▁baslangıcı": 6446,
      "▁hikay": 6447,
      "▁diplom": 6448,
      "▁meg": 6449,
      "▁kesin": 6450,
      "▁suy": 6451,
      "▁yolunda": 6452,
      "▁v": 6453,
      "▁henuz": 6454,
      "▁acı": 6455,
      "▁cerey": 6456,
      "erindeki": 6457,
      "▁dogal": 6458,
      "▁tepki": 6459,
      "▁sutu": 6460,
      "'d": 6461,
      "lendirme": 6462,
      "ose": 6463,
      "▁ves": 6464,
      "▁ol": 6465,
      "▁ele": 6466,
      "and": 6467,
      "▁huc": 6468,
      "▁cayır": 6469,
      "▁degerlendirmeye": 6470,
      "▁safh": 6471,
      "▁pek": 6472,
      "▁olmasın": 6473,
      "ımız": 6474,
      "▁dunyanın": 6475,
      "▁vb": 6476,
      "▁altın": 6477,
      "▁kaydı": 6478,
      "ilisi": 6479,
      "▁yaslı": 6480,
      "▁karayol": 6481,
      "▁kir": 6482,
      "▁seylerin": 6483,
      "▁mumkun": 6484,
      "8'den": 6485,
      "leriniz": 6486,
      "▁sanayi": 6487,
      "▁ediliyor": 6488,
      "▁ceyrek": 6489,
      "▁kad": 6490,
      "diginden": 6491,
      "▁tesis": 6492,
      "▁halde": 6493,
      "▁birbirine": 6494,
      "▁pal": 6495,
      "▁ric": 6496,
      "▁neler": 6497,
      "eceg": 6498,
      "▁salonda": 6499,
      "▁kos": 6500,
      "▁takip": 6501,
      "▁hisselerinin": 6502,
      "▁ed": 6503,
      "▁koms": 6504,
      "▁duzine": 6505,
      "▁pirinc": 6506,
      "▁car": 6507,
      "▁tutun": 6508,
      "▁sponsor": 6509,
      "▁agacı": 6510,
      "▁reh": 6511,
      "▁olduk": 6512,
      "▁tuf": 6513,
      "cuları": 6514,
      "▁istiyor": 6515,
      "▁yapılandır": 6516,
      "ide": 6517,
      "ota": 6518,
      "era": 6519,
      "▁milliyet": 6520,
      "▁gorgu": 6521,
      "biy": 6522,
      "▁cumhuriyet": 6523,
      "▁sif": 6524,
      "lal": 6525,
      "mine": 6526,
      "▁agzından": 6527,
      "▁poz": 6528,
      "▁bisik": 6529,
      "eme": 6530,
      "▁tahviller": 6531,
      "▁elestir": 6532,
      "▁butun": 6533,
      "▁huzur": 6534,
      "fet": 6535,
      "▁kurk": 6536,
      "digimi": 6537,
      "▁mufet": 6538,
      "uar": 6539,
      "▁ser": 6540,
      "▁cocuklara": 6541,
      "hanede": 6542,
      "alog": 6543,
      "▁ilgilenmedi": 6544,
      "▁gozlerinden": 6545,
      "anan": 6546,
      "▁bors": 6547,
      "▁gorev": 6548,
      "▁aklı": 6549,
      "▁seks": 6550,
      "▁american": 6551,
      "▁hali": 6552,
      "▁konf": 6553,
      "▁dost": 6554,
      "▁bitir": 6555,
      "▁anlamda": 6556,
      "▁kav": 6557,
      "▁personellerin": 6558,
      "▁iliski": 6559,
      "▁sat": 6560,
      "▁olcude": 6561,
      "▁1.": 6562,
      "▁sepet": 6563,
      "ecilik": 6564,
      "▁sapk": 6565,
      "▁sebz": 6566,
      "▁ikiye": 6567,
      "▁sap": 6568,
      "▁geliyordu": 6569,
      "▁ur": 6570,
      "▁fonu": 6571,
      "▁ortalık": 6572,
      "▁islerini": 6573,
      "▁sirk": 6574,
      "▁havaalanı": 6575,
      "▁s": 6576,
      "▁kay": 6577,
      "mayı": 6578,
      "tısı": 6579,
      "okol": 6580,
      "▁temsil": 6581,
      "▁kisilerin": 6582,
      "▁evinin": 6583,
      "▁zay": 6584,
      "ılması": 6585,
      "▁mud": 6586,
      "▁cak": 6587,
      "▁kaliteli": 6588,
      "▁adayı": 6589,
      "ırdı": 6590,
      "eydi": 6591,
      "▁ov": 6592,
      "ımızda": 6593,
      "▁arttı": 6594,
      "▁kasab": 6595,
      "▁kis": 6596,
      "▁tavuk": 6597,
      "▁cunku": 6598,
      "▁anlamı": 6599,
      "▁yemekler": 6600,
      "▁op": 6601,
      "▁butce": 6602,
      "▁ihtil": 6603,
      "▁inter": 6604,
      "dık": 6605,
      "eticisi": 6606,
      "▁gununun": 6607,
      "eceksin": 6608,
      "▁koru": 6609,
      "▁arası": 6610,
      "sim": 6611,
      "cının": 6612,
      "▁sas": 6613,
      "▁egilim": 6614,
      "liydi": 6615,
      "▁duzey": 6616,
      "▁in": 6617,
      "misti": 6618,
      "▁denver'den": 6619,
      "▁olmadi": 6620,
      "▁basarı": 6621,
      "▁incel": 6622,
      "ma": 6623,
      "▁otom": 6624,
      "▁lu": 6625,
      "▁kazan": 6626,
      "ifti": 6627,
      "▁odamdan": 6628,
      "▁hatta": 6629,
      "▁potansiyel": 6630,
      "▁med": 6631,
      "usuyla": 6632,
      "▁bagı": 6633,
      "▁yuv": 6634,
      "▁endise": 6635,
      "▁kendis": 6636,
      "egin": 6637,
      "edef": 6638,
      "▁yoluyla": 6639,
      "ınlık": 6640,
      "▁temettu": 6641,
      "▁ilgililerdi": 6642,
      "▁kalmadim": 6643,
      "orta": 6644,
      "▁sevin": 6645,
      "▁fiyat": 6646,
      "▁bilmiyorum": 6647,
      "▁ozgurluk": 6648,
      "anoz": 6649,
      "▁sevg": 6650,
      "▁baslamak": 6651,
      "▁garsonlar": 6652,
      "ka": 6653,
      "▁hangisi": 6654,
      "▁yıllık": 6655,
      "▁kadeh": 6656,
      "▁sure": 6657,
      "▁palto": 6658,
      "▁hukum": 6659,
      "ledim": 6660,
      "lisi": 6661,
      "ginde": 6662,
      "▁personel": 6663,
      "▁gerceklesti": 6664,
      "▁yoneticisi": 6665,
      "▁ham": 6666,
      "▁gecirmek": 6667,
      "▁birer": 6668,
      "lev": 6669,
      "▁konuda": 6670,
      "▁acıklam": 6671,
      "derken": 6672,
      "digi": 6673,
      "▁yonel": 6674,
      "ark": 6675,
      "▁atol": 6676,
      "▁konusmayı": 6677,
      "▁atlanta'ya": 6678,
      "▁nedir": 6679,
      "▁huzun": 6680,
      "▁belirt": 6681,
      "▁masaya": 6682,
      "mıstı": 6683,
      "▁seri": 6684,
      "▁ayının": 6685,
      "lılıg": 6686,
      "▁kart": 6687,
      "▁cıg": 6688,
      "▁park": 6689,
      "▁listel": 6690,
      "▁sorunların": 6691,
      "▁cocukları": 6692,
      "▁yansıt": 6693,
      "aman": 6694,
      "▁bek": 6695,
      "cisi": 6696,
      "dası": 6697,
      "▁ilgis": 6698,
      "▁oyunlar": 6699,
      "▁birtak": 6700,
      "▁beydi": 6701,
      "▁spekul": 6702,
      "▁kiralama": 6703,
      "leket": 6704,
      "▁oner": 6705,
      "▁dava": 6706,
      "▁yerlerde": 6707,
      "▁evlerinin": 6708,
      "▁sarı": 6709,
      "▁adımlarla": 6710,
      "▁gereksin": 6711,
      "landıgını": 6712,
      "▁kalkıp": 6713,
      "▁alanı": 6714,
      "medi": 6715,
      "▁vil": 6716,
      "▁6": 6717,
      "▁sozcusu": 6718,
      "‘": 6719,
      "▁oakland'a": 6720,
      "▁saatlerini": 6721,
      "▁eksiklik": 6722,
      "▁bisiklet": 6723,
      "▁meydana": 6724,
      "end": 6725,
      "▁harekete": 6726,
      "▁nus": 6727,
      "▁payını": 6728,
      "▁dudak": 6729,
      "▁cadır": 6730,
      "ate": 6731,
      "si": 6732,
      "▁izin": 6733,
      "▁mun": 6734,
      "lesti": 6735,
      "▁sise": 6736,
      "okr": 6737,
      "▁oteli": 6738,
      "▁farkında": 6739,
      "▁sıfır": 6740,
      ".1": 6741,
      "▁tırnak": 6742,
      "acagına": 6743,
      "re": 6744,
      "▁enerji": 6745,
      "alara": 6746,
      "▁tekrar": 6747,
      "▁muhareb": 6748,
      "▁edin": 6749,
      "▁idi": 6750,
      "▁2": 6751,
      "ska": 6752,
      "imiz": 6753,
      "▁buyuk": 6754,
      "▁oraya": 6755,
      "▁yılında": 6756,
      "▁pittsburgh'a": 6757,
      "▁bayan": 6758,
      "▁temizdi": 6759,
      "▁gomleg": 6760,
      "udur": 6761,
      "▁sir": 6762,
      "▁muzak": 6763,
      "▁resepsiyon": 6764,
      "mı": 6765,
      "ehir": 6766,
      "▁general": 6767,
      "▁veg": 6768,
      "▁ucuz": 6769,
      "▁jon": 6770,
      "▁ogrenci": 6771,
      "osunu": 6772,
      "▁bulmaya": 6773,
      "▁dua": 6774,
      "dıgına": 6775,
      "▁yenil": 6776,
      "▁odada": 6777,
      "▁duyuru": 6778,
      "▁bankası": 6779,
      "▁yemek": 6780,
      "▁kapının": 6781,
      "za": 6782,
      "▁edilmesi": 6783,
      "▁kurtar": 6784,
      "uru": 6785,
      "▁got": 6786,
      "▁entar": 6787,
      "▁sizin": 6788,
      "▁ayagına": 6789,
      "▁kaybet": 6790,
      "mekle": 6791,
      "erli": 6792,
      "umde": 6793,
      "▁mademki": 6794,
      "▁otomobil": 6795,
      "▁hap": 6796,
      "▁ve": 6797,
      "▁tık": 6798,
      "▁metal": 6799,
      "▁kizim": 6800,
      "▁sekreter": 6801,
      "▁cin": 6802,
      "▁eskiydi": 6803,
      "▁u": 6804,
      "▁hizmetten": 6805,
      "▁yoldan": 6806,
      "—": 6807,
      "▁basar": 6808,
      "▁kıv": 6809,
      "▁stan": 6810,
      "▁duskun": 6811,
      "▁fiyatlandır": 6812,
      "▁tabur": 6813,
      "▁super": 6814,
      "▁anayasa": 6815,
      "▁pazarda": 6816,
      "'nden": 6817,
      "▁doy": 6818,
      "i": 6819,
      "hane": 6820,
      "ındı": 6821,
      "▁halini": 6822,
      "▁oyunu": 6823,
      "▁olabilirdi": 6824,
      "enleri": 6825,
      "▁pop": 6826,
      "▁dar": 6827,
      "▁karabiber": 6828,
      "dur": 6829,
      "▁kamyon": 6830,
      "▁gecirdi": 6831,
      "▁ca": 6832,
      "▁fut": 6833,
      "esiz": 6834,
      "▁bolumunde": 6835,
      "▁serv": 6836,
      "att": 6837,
      "uy": 6838,
      "▁halinde": 6839,
      "▁degisim": 6840,
      "▁daglar": 6841,
      "▁sistemini": 6842,
      "meyecegini": 6843,
      "▁vucud": 6844,
      "▁saga": 6845,
      "▁camur": 6846,
      "▁fabr": 6847,
      "meyecek": 6848,
      "▁masa": 6849,
      "▁zarf": 6850,
      "▁esk": 6851,
      "▁yerin": 6852,
      "▁yetkililer": 6853,
      "▁olmus": 6854,
      "zet": 6855,
      "▁17": 6856,
      "▁gunlerini": 6857,
      "▁boston'a": 6858,
      "inler": 6859,
      "▁sonucu": 6860,
      "▁muhalef": 6861,
      "▁organ": 6862,
      "uldu": 6863,
      "leyi": 6864,
      "▁gunden": 6865,
      "eledi": 6866,
      "▁binanın": 6867,
      "▁odedigim": 6868,
      "▁kıvıl": 6869,
      "▁geril": 6870,
      "▁yıldan": 6871,
      "▁mad": 6872,
      "▁kalkan": 6873,
      "▁gorur": 6874,
      "'si": 6875,
      "▁.'": 6876,
      "▁depart": 6877,
      "'ni": 6878,
      "lerimizi": 6879,
      "▁cumhurb": 6880,
      "▁alımı": 6881,
      "▁kısmı": 6882,
      "▁wash": 6883,
      "lk": 6884,
      "▁organizasyon": 6885,
      "▁din": 6886,
      "▁ıskar": 6887,
      "▁motor": 6888,
      "gıt": 6889,
      "▁alım-sat": 6890,
      "▁profesor": 6891,
      "ciler": 6892,
      "liy": 6893,
      "▁rutubet": 6894,
      "▁sogu": 6895,
      "▁pazarlık": 6896,
      "gre": 6897,
      "▁som": 6898,
      "▁olmustu": 6899,
      "▁isletmeler": 6900,
      "ının": 6901,
      "▁universite": 6902,
      "▁kazanc": 6903,
      "▁yılda": 6904,
      "▁iy": 6905,
      "pa": 6906,
      "▁care": 6907,
      "lig": 6908,
      "▁kuram": 6909,
      "▁olma": 6910,
      "▁ir": 6911,
      "eyh": 6912,
      "cıya": 6913,
      "▁raporu": 6914,
      "▁yıldızı": 6915,
      "▁teklif": 6916,
      "▁magaza": 6917,
      "vil": 6918,
      "▁gozleri": 6919,
      "▁detay": 6920,
      "uklu": 6921,
      "iyoruz": 6922,
      "▁polisler": 6923,
      "▁guler": 6924,
      "▁sms": 6925,
      "▁indir": 6926,
      "▁demokras": 6927,
      "▁cars": 6928,
      "emeye": 6929,
      "▁geldi": 6930,
      "▁cab": 6931,
      "▁beg": 6932,
      "▁reddetti": 6933,
      "▁yasan": 6934,
      "im": 6935,
      "▁unu": 6936,
      "▁kapıya": 6937,
      "▁hosuma": 6938,
      "▁verildi": 6939,
      "minde": 6940,
      "stı": 6941,
      "dol": 6942,
      "▁borsasında": 6943,
      "▁lezzet": 6944,
      "▁duygu": 6945,
      "tın": 6946,
      "▁gununden": 6947,
      "▁yildizli": 6948,
      "▁ortasında": 6949,
      "▁prens": 6950,
      "▁miktarı": 6951,
      "▁kuvv": 6952,
      "ebilecegini": 6953,
      "▁elestirmen": 6954,
      "▁mulk": 6955,
      "▁..\"": 6956,
      "yip": 6957,
      "uya": 6958,
      "▁mucade": 6959,
      "▁deng": 6960,
      "▁sever": 6961,
      "umlu": 6962,
      "▁corba": 6963,
      "▁depremin": 6964,
      "▁istemiyorum": 6965,
      "▁ısıgı": 6966,
      "▁uyesi": 6967,
      "▁itibariyle": 6968,
      "▁kapsam": 6969,
      "▁uluslar": 6970,
      "▁anlasma": 6971,
      "▁zamandan": 6972,
      "▁yavr": 6973,
      "az": 6974,
      "▁sesle": 6975,
      "▁pad": 6976,
      "▁baban": 6977,
      "▁ekonominin": 6978,
      "▁salonun": 6979,
      "▁itiraz": 6980,
      "▁tom": 6981,
      "cı": 6982,
      "▁darbe": 6983,
      "▁asagı": 6984,
      ".": 6985,
      "▁harit": 6986,
      "bab": 6987,
      "▁peki": 6988,
      "▁sermay": 6989,
      "▁igne": 6990,
      "2": 6991,
      "▁re": 6992,
      "acaklarını": 6993,
      "emez": 6994,
      "▁alır": 6995,
      "▁tercih": 6996,
      "azı": 6997,
      "▁seviyesine": 6998,
      "▁dayak": 6999,
      "▁sirketine": 7000,
      "▁fis": 7001,
      "▁cumhuriyeti": 7002,
      "▁peyn": 7003,
      "▁cehen": 7004,
      "▁gorul": 7005,
      "▁oakland": 7006,
      "lastı": 7007,
      "▁icim": 7008,
      "ecekleri": 7009,
      "ıdır": 7010,
      "ige": 7011,
      "▁ok": 7012,
      "▁tatli": 7013,
      "▁kalem": 7014,
      "dat": 7015,
      "eri": 7016,
      "▁dosya": 7017,
      "▁ayrıntı": 7018,
      "▁etkin": 7019,
      "▁ısıgında": 7020,
      "▁kesi": 7021,
      "oks": 7022,
      "▁orgu": 7023,
      "▁boylece": 7024,
      "▁ayar": 7025,
      "▁0": 7026,
      "▁paran": 7027,
      "▁iyiydi": 7028,
      "▁don": 7029,
      "▁kavram": 7030,
      "▁rast": 7031,
      "unlu": 7032,
      "▁disk": 7033,
      "ılıgı": 7034,
      "▁oturma": 7035,
      "▁kullanım": 7036,
      "atik": 7037,
      "▁calısmak": 7038,
      "antaj": 7039,
      "▁bar": 7040,
      "▁performans": 7041,
      "ucuk": 7042,
      "urlu": 7043,
      "▁ısık": 7044,
      "luguna": 7045,
      "▁ogleden": 7046,
      "lın": 7047,
      "▁ekonomist": 7048,
      "ast": 7049,
      "▁olmasını": 7050,
      "▁oz": 7051,
      "▁muhalefet": 7052,
      "▁kapısı": 7053,
      "▁sayisi": 7054,
      "▁zayifti": 7055,
      "▁dustugunu": 7056,
      "▁tuttu": 7057,
      "ruk": 7058,
      "▁harik": 7059,
      "▁donemin": 7060,
      "▁gey": 7061,
      "aki": 7062,
      "yor": 7063,
      "▁karsilik": 7064,
      "▁gelen": 7065,
      "▁insana": 7066,
      "▁do": 7067,
      "▁bank": 7068,
      "▁gerektigini": 7069,
      "i'nin": 7070,
      "▁animasyon": 7071,
      "▁iyil": 7072,
      "▁kot": 7073,
      "▁aleyh": 7074,
      "dip": 7075,
      "▁ten": 7076,
      "▁donanma": 7077,
      "▁ellerine": 7078,
      "▁endeksi": 7079,
      "gah": 7080,
      "▁bira": 7081,
      "▁basbak": 7082,
      "eren": 7083,
      "▁sistemi": 7084,
      "lamaları": 7085,
      "▁ker": 7086,
      "▁gecer": 7087,
      "▁ozgur": 7088,
      "▁kaldı": 7089,
      "▁agz": 7090,
      "▁nedeni": 7091,
      "ıyorlar": 7092,
      "▁kaz": 7093,
      "▁sebeb": 7094,
      "▁baltimore": 7095,
      "▁fiz": 7096,
      "▁kafası": 7097,
      "▁kutuk": 7098,
      "▁telafi": 7099,
      "▁sultan": 7100,
      "gundu": 7101,
      "▁atıl": 7102,
      "▁hacim": 7103,
      "▁bunun": 7104,
      "▁bolgede": 7105,
      "▁inc": 7106,
      "andan": 7107,
      "▁gr": 7108,
      "▁imal": 7109,
      "▁bu": 7110,
      "▁kapalı": 7111,
      "▁hepsi": 7112,
      "sek": 7113,
      "par": 7114,
      "▁gıda": 7115,
      "▁keyf": 7116,
      "▁karsılık": 7117,
      "dım": 7118,
      "lidir": 7119,
      "▁hayatı": 7120,
      "tikce": 7121,
      "▁bildirdi": 7122,
      "▁calısıyor": 7123,
      "▁boynuna": 7124,
      "▁kab": 7125,
      "▁davr": 7126,
      "bul": 7127,
      "▁nikah": 7128,
      "▁buradan": 7129,
      "▁istasyon": 7130,
      "ci": 7131,
      "▁final": 7132,
      "▁icecekler": 7133,
      "▁kıl": 7134,
      "ited": 7135,
      "▁halat": 7136,
      "▁denizin": 7137,
      "▁kemal": 7138,
      "▁arkasında": 7139,
      "▁hikaye": 7140,
      "edigim": 7141,
      "lek": 7142,
      "▁arkasından": 7143,
      "dum": 7144,
      "▁nedenlerden": 7145,
      "graf": 7146,
      "▁iliskileri": 7147,
      "▁esyalar": 7148,
      "▁omur": 7149,
      "▁degillerdi": 7150,
      "▁pazartesi": 7151,
      "▁ap": 7152,
      "▁yandan": 7153,
      "▁insanları": 7154,
      "▁firmanın": 7155,
      "ımızı": 7156,
      "▁kilo": 7157,
      "▁yanında": 7158,
      "▁muhat": 7159,
      "▁sog": 7160,
      "▁haz": 7161,
      "irleri": 7162,
      "lemesi": 7163,
      "▁dans": 7164,
      "▁sını": 7165,
      "▁benimle": 7166,
      "▁sekreteri": 7167,
      "▁sartları": 7168,
      "▁co.": 7169,
      "▁tarla": 7170,
      "eligi": 7171,
      "▁cok": 7172,
      "▁moda": 7173,
      "▁bizi": 7174,
      "▁islemlerin": 7175,
      "▁kim": 7176,
      "▁yard": 7177,
      "▁sohbet": 7178,
      "anla": 7179,
      "▁koymak": 7180,
      "▁surpr": 7181,
      "▁batı": 7182,
      "▁dekor": 7183,
      "▁tev": 7184,
      "'nin": 7185,
      "▁tanı": 7186,
      "▁han": 7187,
      "▁kısk": 7188,
      "▁sezlon": 7189,
      "▁itibar": 7190,
      "▁15": 7191,
      "▁gelmedi": 7192,
      "▁kontr": 7193,
      "kinden": 7194,
      "gel": 7195,
      "▁andan": 7196,
      "ara": 7197,
      "▁ipotege": 7198,
      "▁kocaman": 7199,
      "▁zorluk": 7200,
      "▁carp": 7201,
      "▁piyasası": 7202,
      "▁ucusu": 7203,
      "abet": 7204,
      "▁sehir": 7205,
      "eb": 7206,
      "▁ama": 7207,
      "▁seydi": 7208,
      "aguar": 7209,
      "▁emr": 7210,
      "▁surdur": 7211,
      "iza": 7212,
      "gar": 7213,
      "▁nakliye": 7214,
      "▁musteriler": 7215,
      "▁edildi": 7216,
      "▁dolu": 7217,
      "▁zır": 7218,
      "▁finansman": 7219,
      "▁medeniyet": 7220,
      "▁olup": 7221,
      "▁tu": 7222,
      "▁kayak": 7223,
      "▁lar": 7224,
      "sak": 7225,
      "▁gozler": 7226,
      "mus": 7227,
      "▁kapısını": 7228,
      "ran": 7229,
      "unu": 7230,
      "mul": 7231,
      "cut": 7232,
      "eksiyon": 7233,
      "anlardan": 7234,
      "▁icecek": 7235,
      "▁biles": 7236,
      "▁kayd": 7237,
      "▁giy": 7238,
      "▁ayın": 7239,
      "▁dagı": 7240,
      "▁mesel": 7241,
      "▁parayi": 7242,
      "▁soylediler": 7243,
      "▁tane": 7244,
      "▁cidd": 7245,
      "▁ipek": 7246,
      "ol": 7247,
      "arı": 7248,
      "▁firmaları": 7249,
      "unuz": 7250,
      "▁aktivit": 7251,
      "larımın": 7252,
      "sam": 7253,
      "▁icap": 7254,
      "▁ant": 7255,
      "▁hisseyi": 7256,
      "tigi": 7257,
      "▁kimsenin": 7258,
      "▁miz": 7259,
      "▁ekip": 7260,
      "▁enist": 7261,
      "▁sırasında": 7262,
      "▁kuru": 7263,
      "ileri": 7264,
      "▁eksik": 7265,
      "▁saun": 7266,
      "▁piyasalar": 7267,
      "▁yerler": 7268,
      "▁konum": 7269,
      "eyi": 7270,
      "▁havayolu": 7271,
      "▁komun": 7272,
      "kler": 7273,
      "▁senet": 7274,
      "▁sofr": 7275,
      "▁senin": 7276,
      "dırım": 7277,
      "yet": 7278,
      "▁yel": 7279,
      "▁sor": 7280,
      "▁buc": 7281,
      "▁parcaları": 7282,
      "▁kenarına": 7283,
      "▁orland": 7284,
      "denin": 7285,
      "▁cercev": 7286,
      "▁cekmek": 7287,
      "▁ciddi": 7288,
      "▁aileye": 7289,
      "uyordum": 7290,
      "leyici": 7291,
      "ah": 7292,
      "▁gelgelelim": 7293,
      "▁sayf": 7294,
      "▁pant": 7295,
      "▁borcunu": 7296,
      "▁peyniri": 7297,
      "▁cuv": 7298,
      "▁kayı": 7299,
      "kları": 7300,
      "▁ingiliz": 7301,
      "▁fener": 7302,
      "▁lisans": 7303,
      "▁reddet": 7304,
      "medik": 7305,
      "▁ayag": 7306,
      "▁kapat": 7307,
      "▁ucu": 7308,
      "▁mıs": 7309,
      "lige": 7310,
      "▁tesp": 7311,
      "areti": 7312,
      "umsal": 7313,
      "▁heykel": 7314,
      "▁gormeye": 7315,
      "▁saray": 7316,
      "▁umud": 7317,
      "▁hareket": 7318,
      "▁yerinde": 7319,
      "gınlık": 7320,
      "▁hakk": 7321,
      "pan": 7322,
      "imci": 7323,
      "▁sorustur": 7324,
      "▁cig": 7325,
      "▁nik": 7326,
      "▁almak": 7327,
      "▁bono": 7328,
      "ep": 7329,
      "evi": 7330,
      "▁ettigini": 7331,
      "isel": 7332,
      "▁baltimore'den": 7333,
      "▁yuzume": 7334,
      "▁ihmal": 7335,
      "ıldıgında": 7336,
      "▁bize": 7337,
      "▁kitabı": 7338,
      "▁norm": 7339,
      "▁verme": 7340,
      "▁ederek": 7341,
      "▁karg": 7342,
      "▁anti": 7343,
      "tiv": 7344,
      "▁ortal": 7345,
      "▁onu": 7346,
      "▁cıglık": 7347,
      "▁kur": 7348,
      "▁sıkı": 7349,
      "▁sok": 7350,
      "▁top": 7351,
      "▁ak": 7352,
      "▁olacagını": 7353,
      "▁disiplin": 7354,
      "▁bilgisayar": 7355,
      "▁dususu": 7356,
      "▁amerikalı": 7357,
      "isine": 7358,
      "▁alanında": 7359,
      "▁charlotte": 7360,
      "lanacak": 7361,
      "iz": 7362,
      "leg": 7363,
      "▁gozlerimi": 7364,
      "▁philadelphia'ya": 7365,
      "▁fery": 7366,
      "ates": 7367,
      "cılıgın": 7368,
      "▁angeles": 7369,
      "ume": 7370,
      "▁isimiz": 7371,
      "▁sil": 7372,
      "▁mehmet": 7373,
      "▁res": 7374,
      "▁kesinti": 7375,
      "▁tasın": 7376,
      "masın": 7377,
      "▁red": 7378,
      "▁beklen": 7379,
      "dem": 7380,
      "▁z": 7381,
      "azla": 7382,
      "▁karargah": 7383,
      "ıla": 7384,
      "▁basladı": 7385,
      "▁her": 7386,
      "▁operasyon": 7387,
      "labil": 7388,
      "▁donan": 7389,
      "lamıs": 7390,
      "▁hacı": 7391,
      "▁fasulye": 7392,
      "▁satısa": 7393,
      "▁kub": 7394,
      "▁agzı": 7395,
      "▁gelecegi": 7396,
      "▁ambar": 7397,
      "▁nelerdir": 7398,
      "▁gelistirme": 7399,
      "▁oldugum": 7400,
      "▁yurudu": 7401,
      "ord": 7402,
      "▁kurul": 7403,
      "ga": 7404,
      "▁politik": 7405,
      "▁gali": 7406,
      "▁fazla": 7407,
      "▁adını": 7408,
      "▁sokak": 7409,
      "▁pes": 7410,
      "▁ettim": 7411,
      "▁satısları": 7412,
      "▁fazlasını": 7413,
      "▁sh": 7414,
      "▁hırsız": 7415,
      "▁ongoru": 7416,
      "inden": 7417,
      "▁sanatcı": 7418,
      "▁bire": 7419,
      "▁kısa": 7420,
      "▁duruyor": 7421,
      "▁bununla": 7422,
      "▁uygul": 7423,
      "ra": 7424,
      "▁hasret": 7425,
      "▁kapas": 7426,
      "baz": 7427,
      "▁animasyonu": 7428,
      "▁daha": 7429,
      "▁ma": 7430,
      "▁soruları": 7431,
      "lattı": 7432,
      "▁istik": 7433,
      "▁eslik": 7434,
      "▁rez": 7435,
      "'yı": 7436,
      "▁yar": 7437,
      "▁koyden": 7438,
      "▁tuccarlar": 7439,
      "dam": 7440,
      "▁aqua": 7441,
      "▁duman": 7442,
      "▁gide": 7443,
      "▁anneme": 7444,
      "ıcılık": 7445,
      "▁animasyonlar": 7446,
      "▁hakaret": 7447,
      "▁araba": 7448,
      "▁ellerini": 7449,
      "▁adama": 7450,
      "sıyla": 7451,
      "▁elini": 7452,
      "▁sars": 7453,
      "▁seviyesinden": 7454,
      "▁sesleri": 7455,
      "ahi": 7456,
      "▁bilir": 7457,
      "ılıg": 7458,
      "▁insanlar": 7459,
      "▁/": 7460,
      "▁amac": 7461,
      "▁senat": 7462,
      "▁bahceye": 7463,
      "▁araz": 7464,
      "0": 7465,
      "▁zamanlar": 7466,
      "▁satısların": 7467,
      "egine": 7468,
      "▁hastal": 7469,
      "anından": 7470,
      "▁ır": 7471,
      "lerimi": 7472,
      "anc": 7473,
      "▁toz": 7474,
      "▁cuz": 7475,
      "\"": 7476,
      "▁dısar": 7477,
      "kat": 7478,
      "▁mimar": 7479,
      "▁yataklar": 7480,
      "▁bardak": 7481,
      "▁ogl": 7482,
      "amız": 7483,
      "▁tarz": 7484,
      "▁col": 7485,
      "▁artır": 7486,
      "▁cuzdan": 7487,
      "▁yaptir": 7488,
      "▁nuf": 7489,
      "▁go": 7490,
      "verdi": 7491,
      "▁konusmak": 7492,
      "dıgım": 7493,
      "▁personellerden": 7494,
      "▁otele": 7495,
      "▁pro": 7496,
      "elerin": 7497,
      "▁tohum": 7498,
      "▁bakım": 7499,
      "▁ton": 7500,
      "▁isgal": 7501,
      "ılacak": 7502,
      "madim": 7503,
      "▁bosa": 7504,
      "▁yılına": 7505,
      "▁bilgilendirilmek": 7506,
      "▁azdi": 7507,
      "▁sikayet": 7508,
      "▁miting": 7509,
      "▁hisseler": 7510,
      "▁kabul": 7511,
      "elig": 7512,
      "▁arbitraj": 7513,
      "cog": 7514,
      "▁karıs": 7515,
      "▁dıs": 7516,
      "▁kec": 7517,
      "ile": 7518,
      "▁kapandı": 7519,
      "▁pir": 7520,
      "arlan": 7521,
      "▁sirketleri": 7522,
      "lelim": 7523,
      "amın": 7524,
      "▁yogurt": 7525,
      "▁soyledik": 7526,
      "mesi": 7527,
      "ardan": 7528,
      "▁degis": 7529,
      "▁duy": 7530,
      "▁kol": 7531,
      "umuzun": 7532,
      "▁29": 7533,
      "rarak": 7534,
      "ustur": 7535,
      "▁onemli": 7536,
      "▁sosy": 7537,
      "ınızda": 7538,
      "▁mag": 7539,
      "▁fazlaydi": 7540,
      "▁fes": 7541,
      "▁sıkıntısı": 7542,
      "▁alıyor": 7543,
      "▁tahmin": 7544,
      "▁size": 7545,
      "▁ter": 7546,
      "▁karın": 7547,
      "▁sevda": 7548,
      "▁asag": 7549,
      "lıg": 7550,
      "duz": 7551,
      "▁sanırım": 7552,
      "elli": 7553,
      "cileri": 7554,
      "▁uyustur": 7555,
      "▁yonetim": 7556,
      "▁diren": 7557,
      "▁olabilecegini": 7558,
      "▁ı": 7559,
      "▁ihtiyacı": 7560,
      "▁bakkal": 7561,
      "▁yen": 7562,
      "▁edilir": 7563,
      "25": 7564,
      "▁kalab": 7565,
      "▁bileti": 7566,
      "▁adalet": 7567,
      "▁okul": 7568,
      "▁kaptan": 7569,
      "▁guz": 7570,
      "▁kuyr": 7571,
      "cev": 7572,
      "land": 7573,
      "▁icinde": 7574,
      "▁ortam": 7575,
      "▁…": 7576,
      "mistim": 7577,
      "▁sır": 7578,
      "▁nis": 7579,
      "▁yemeklerden": 7580,
      "▁imam": 7581,
      "▁sayı": 7582,
      "▁borcu": 7583,
      "likten": 7584,
      "▁unut": 7585,
      "gesi": 7586,
      "▁kenarları": 7587,
      "▁dir": 7588,
      "▁sandık": 7589,
      "▁bagır": 7590,
      "▁performansi": 7591,
      "yar": 7592,
      "▁evden": 7593,
      "▁bal": 7594,
      "sizdi": 7595,
      "▁gez": 7596,
      "▁1/2": 7597,
      "▁isim": 7598,
      "▁birinci": 7599,
      "mızı": 7600,
      "▁diyor": 7601,
      "▁elem": 7602,
      "▁sahili": 7603,
      "▁iliskiler": 7604,
      "▁keleb": 7605,
      "▁toplan": 7606,
      "▁pasif": 7607,
      "imli": 7608,
      "uste": 7609,
      "▁tedar": 7610,
      "▁demokratlar": 7611,
      "▁duzenleme": 7612,
      "▁zinc": 7613,
      "lenir": 7614,
      "▁yuzme": 7615,
      "▁dolayı": 7616,
      "ele": 7617,
      "▁hastan": 7618,
      "▁ureticisi": 7619,
      "▁denizi": 7620,
      "ılım": 7621,
      "▁saati": 7622,
      "▁iyilik": 7623,
      "▁programları": 7624,
      "▁piyasasının": 7625,
      "▁teskil": 7626,
      "▁yollarını": 7627,
      "▁imkanı": 7628,
      "▁uzaktan": 7629,
      "▁satıslarının": 7630,
      "▁may": 7631,
      "▁deprem": 7632,
      "▁cikol": 7633,
      "▁vucu": 7634,
      "▁gonl": 7635,
      "70'": 7636,
      "▁alanlar": 7637,
      "▁harek": 7638,
      "izi": 7639,
      "▁geldim": 7640,
      "▁bahce": 7641,
      "▁adr": 7642,
      "▁karsılastır": 7643,
      "▁kumar": 7644,
      "▁sonrasında": 7645,
      "▁muhtesem": 7646,
      "▁tat": 7647,
      "▁resmi": 7648,
      "dıgın": 7649,
      "▁bırak": 7650,
      "▁insanı": 7651,
      "▁pazarın": 7652,
      "eti": 7653,
      "tı": 7654,
      "▁firması": 7655,
      "▁zorunda": 7656,
      "▁surucu": 7657,
      "▁onc": 7658,
      "▁ayagını": 7659,
      "▁yuks": 7660,
      "▁tarafı": 7661,
      "▁us": 7662,
      "▁sehre": 7663,
      "▁yapti": 7664,
      "▁vers": 7665,
      "iran": 7666,
      "▁yaptı": 7667,
      "▁ajans": 7668,
      "ecekler": 7669,
      "eldi": 7670,
      "▁calgı": 7671,
      "75": 7672,
      "▁kasırg": 7673,
      "▁surecin": 7674,
      "▁olanlar": 7675,
      "un": 7676,
      "ow": 7677,
      "▁barın": 7678,
      "▁bir": 7679,
      "▁boyun": 7680,
      "▁soyl": 7681,
      "▁basamak": 7682,
      "▁to": 7683,
      "▁komisyonlar": 7684,
      "▁cinayet": 7685,
      "▁cıkarmaya": 7686,
      "bar": 7687,
      "ekkur": 7688,
      "▁teker": 7689,
      "▁islemlerinde": 7690,
      "inde": 7691,
      "▁ucundan": 7692,
      "▁dede": 7693,
      "'da": 7694,
      "ine": 7695,
      "'na": 7696,
      "lıgında": 7697,
      "▁islere": 7698,
      "ılı": 7699,
      "▁zaman": 7700,
      "▁rakamları": 7701,
      "▁baslar": 7702,
      "erdi": 7703,
      "▁var": 7704,
      "larımız": 7705,
      "▁devir": 7706,
      "alarının": 7707,
      "▁acent": 7708,
      "▁donemlerde": 7709,
      "▁dunyasında": 7710,
      "▁oldur": 7711,
      "▁not": 7712,
      "▁hastalıgı": 7713,
      "▁tesh": 7714,
      "▁elden": 7715,
      "▁edep": 7716,
      "▁ailenin": 7717,
      "▁yapılanma": 7718,
      "uzel": 7719,
      "▁tayin": 7720,
      "▁yanından": 7721,
      "▁kural": 7722,
      "▁kası": 7723,
      "▁cenaz": 7724,
      "endi": 7725,
      "▁-": 7726,
      "▁baglı": 7727,
      "▁devr": 7728,
      "▁begendim": 7729,
      "uyordu": 7730,
      "▁gir": 7731,
      "▁ihtiyac": 7732,
      "▁milwa": 7733,
      "▁govde": 7734,
      "▁benzin": 7735,
      "▁istif": 7736,
      "lıs": 7737,
      "▁zir": 7738,
      "elemek": 7739,
      "lin": 7740,
      "▁list": 7741,
      "sali": 7742,
      "tla": 7743,
      "▁calis": 7744,
      "▁isk": 7745,
      "▁vap": 7746,
      "ılıgında": 7747,
      "▁kapısına": 7748,
      "▁taraftan": 7749,
      "▁cil": 7750,
      "▁anlamına": 7751,
      "▁olur": 7752,
      "arılı": 7753,
      "▁cukur": 7754,
      "▁ceviz": 7755,
      "▁bakıyordu": 7756,
      "▁mucev": 7757,
      "▁kola": 7758,
      "▁new": 7759,
      "▁devreye": 7760,
      "ıy": 7761,
      "▁ses": 7762,
      "▁tutma": 7763,
      "▁puan": 7764,
      "sk": 7765,
      "'nun": 7766,
      "▁tesebbus": 7767,
      "▁ge": 7768,
      "▁yorgunluk": 7769,
      "▁yetkisi": 7770,
      "▁bez": 7771,
      "▁soh": 7772,
      "▁garson": 7773,
      "paz": 7774,
      "▁anlas": 7775,
      "▁baba": 7776,
      "enlere": 7777,
      "▁birligi": 7778,
      "▁sin": 7779,
      "▁varmak": 7780,
      "ebilirim": 7781,
      "▁malzemeleri": 7782,
      "▁iptal": 7783,
      "geler": 7784,
      "▁konumundan": 7785,
      "▁hev": 7786,
      "▁sonrası": 7787,
      "▁dostluk": 7788,
      "▁oranlar": 7789,
      "▁federal": 7790,
      "eliydi": 7791,
      "agından": 7792,
      "▁gem": 7793,
      "▁stok": 7794,
      "▁bunu": 7795,
      "▁bıc": 7796,
      "lanan": 7797,
      "▁hayatımda": 7798,
      "▁tadını": 7799,
      "▁oyun": 7800,
      "▁fabrik": 7801,
      "▁katilmak": 7802,
      "▁sinem": 7803,
      "▁gayrimenkul": 7804,
      "agın": 7805,
      "▁havada": 7806,
      "▁meyhan": 7807,
      "▁deyim": 7808,
      "▁havuzlar": 7809,
      "▁yarısından": 7810,
      "▁kemik": 7811,
      "▁halbu": 7812,
      "▁kullanmadim": 7813,
      "lamayı": 7814,
      "▁calısması": 7815,
      "▁gerdan": 7816,
      "▁ib": 7817,
      "▁laf": 7818,
      "▁hani": 7819,
      "▁milyona": 7820,
      "▁ettik": 7821,
      "▁cekici": 7822,
      "▁tası": 7823,
      "▁yalnızlık": 7824,
      "yuz": 7825,
      "▁dib": 7826,
      "▁intih": 7827,
      "▁eroin": 7828,
      "▁islemin": 7829,
      "▁tatmin": 7830,
      "ligi": 7831,
      "▁gunes": 7832,
      "▁kıyas": 7833,
      "▁kazanclar": 7834,
      "▁hayata": 7835,
      "▁par": 7836,
      "▁yig": 7837,
      "▁sahada": 7838,
      "▁torun": 7839,
      "▁30": 7840,
      "uktu": 7841,
      "▁etmekten": 7842,
      "▁kosesinde": 7843,
      "▁yuksel": 7844,
      "lenmek": 7845,
      "olu": 7846,
      "▁gore": 7847,
      "▁kıt": 7848,
      "of": 7849,
      "▁alıcılar": 7850,
      "▁hava": 7851,
      "▁agır": 7852,
      "▁derece": 7853,
      "▁dunya": 7854,
      "a'nın": 7855,
      "og": 7856,
      "maması": 7857,
      "▁kak": 7858,
      "▁getirdi": 7859,
      "▁gozluk": 7860,
      "▁ons": 7861,
      "▁denver'e": 7862,
      "▁donus": 7863,
      "▁pu": 7864,
      "▁dogum": 7865,
      "isinden": 7866,
      "▁davet": 7867,
      "min": 7868,
      "▁gru": 7869,
      "▁ucmak": 7870,
      "atları": 7871,
      "usa": 7872,
      "▁kar": 7873,
      "▁odalar": 7874,
      "ıza": 7875,
      "▁kok": 7876,
      "▁ihtiyacları": 7877,
      "▁pencerenin": 7878,
      "▁sakal": 7879,
      "▁protesto": 7880,
      "ist": 7881,
      "▁yoksa": 7882,
      "▁gozden": 7883,
      "ekli": 7884,
      "▁komut": 7885,
      "▁ayaga": 7886,
      "▁yarın": 7887,
      "▁malzemeler": 7888,
      "ıg": 7889,
      "leleri": 7890,
      "▁aktarma": 7891,
      "▁odul": 7892,
      "▁adı": 7893,
      "▁kendilerini": 7894,
      "▁olac": 7895,
      "ela": 7896,
      "▁bulundugu": 7897,
      "▁bahcı": 7898,
      "▁zehir": 7899,
      "▁ilgil": 7900,
      "▁basarıya": 7901,
      "ih": 7902,
      "▁ongor": 7903,
      "▁mahalle": 7904,
      "▁gelenek": 7905,
      "▁kasıgı": 7906,
      "urk": 7907,
      "▁yasına": 7908,
      "sacak": 7909,
      "▁pilot": 7910,
      "▁day": 7911,
      "▁sans": 7912,
      "uvar": 7913,
      "▁vermis": 7914,
      "cek": 7915,
      "sik": 7916,
      "su": 7917,
      "▁yalnız": 7918,
      "▁bocek": 7919,
      "▁tanesi": 7920,
      "▁*": 7921,
      "▁yemegi": 7922,
      "ls": 7923,
      "▁hesaba": 7924,
      "▁personelleri": 7925,
      "▁idare": 7926,
      "ilerdi": 7927,
      "▁ogren": 7928,
      "▁oncesinde": 7929,
      "▁yavas": 7930,
      "▁vakti": 7931,
      "▁evlere": 7932,
      "▁sınıfın": 7933,
      "▁demir": 7934,
      "▁sipar": 7935,
      "▁pr": 7936,
      "sat": 7937,
      "▁renk": 7938,
      "▁gunumuzde": 7939,
      "▁kem": 7940,
      "isinin": 7941,
      "▁ulke": 7942,
      "▁yemeklerin": 7943,
      "esinde": 7944,
      "▁icki": 7945,
      "▁hırs": 7946,
      "▁yuzunden": 7947,
      "▁pak": 7948,
      "▁hepimiz": 7949,
      "▁gorduk": 7950,
      "▁kapı": 7951,
      "▁biri": 7952,
      "▁heves": 7953,
      "▁deve": 7954,
      "▁giysi": 7955,
      "▁seftali": 7956,
      "▁yapma": 7957,
      "maca": 7958,
      "mos": 7959,
      "co": 7960,
      "▁kahvalt": 7961,
      "lastır": 7962,
      "dut": 7963,
      "▁ul": 7964,
      "▁havayollarını": 7965,
      "▁noktası": 7966,
      "▁bilim": 7967,
      "▁rek": 7968,
      "asır": 7969,
      "▁tı": 7970,
      "▁tarl": 7971,
      "▁deli": 7972,
      "▁yeter": 7973,
      "elerden": 7974,
      "ach": 7975,
      "▁fay": 7976,
      "▁teslim": 7977,
      "▁fel": 7978,
      "▁koseye": 7979,
      "▁ceyrekte": 7980,
      "▁orada": 7981,
      "▁egitim": 7982,
      "▁elimi": 7983,
      "lom": 7984,
      "▁soluk": 7985,
      "ho": 7986,
      "▁malz": 7987,
      "▁tarafa": 7988,
      ".ceyr": 7989,
      "▁gonul": 7990,
      "▁indi": 7991,
      "▁metre": 7992,
      "▁birimi": 7993,
      "▁tasarım": 7994,
      "▁bacak": 7995,
      "▁dug": 7996,
      "▁ulus": 7997,
      "mli": 7998,
      "irli": 7999,
      "▁kahkah": 8000,
      "▁alacak": 8001,
      "▁kıyıya": 8002,
      "lukte": 8003,
      "▁gelirleri": 8004,
      "ladılar": 8005,
      "amaya": 8006,
      "▁gorusme": 8007,
      "▁biber": 8008,
      "▁benz": 8009,
      "▁bis": 8010,
      "▁cesitleri": 8011,
      "▁bas": 8012,
      "▁film": 8013,
      "anıs": 8014,
      "▁seb": 8015,
      "▁almayı": 8016,
      "▁nihayet": 8017,
      "k": 8018,
      "▁basından": 8019,
      "▁ofisi": 8020,
      "9'da": 8021,
      "landır": 8022,
      "▁ticari": 8023,
      "▁197": 8024,
      "▁edil": 8025,
      "ts": 8026,
      "▁40": 8027,
      "izm": 8028,
      "▁vuc": 8029,
      "lamam": 8030,
      "▁kapısında": 8031,
      "tıg": 8032,
      "▁model": 8033,
      "lamıstı": 8034,
      "▁havayol": 8035,
      "umuz": 8036,
      "▁yarı": 8037,
      "▁akla": 8038,
      "▁cocuklar": 8039,
      "san": 8040,
      "inceye": 8041,
      "▁hem": 8042,
      "ım": 8043,
      "▁tuv": 8044,
      "inc": 8045,
      "▁evine": 8046,
      "▁parmak": 8047,
      "▁yapılan": 8048,
      "▁degisiklik": 8049,
      "cagı": 8050,
      "▁otlar": 8051,
      "▁uy": 8052,
      "▁dostu": 8053,
      "▁and": 8054,
      "▁degn": 8055,
      "od": 8056,
      "▁kusku": 8057,
      "▁acisindan": 8058,
      "▁saba": 8059,
      "acagız": 8060,
      "▁kef": 8061,
      "▁bag": 8062,
      "▁mez": 8063,
      "▁gond": 8064,
      "▁mutluluk": 8065,
      "rada": 8066,
      "▁tec": 8067,
      "ların": 8068,
      "imen": 8069,
      "ait": 8070,
      "lılıgını": 8071,
      "▁iskel": 8072,
      "0-": 8073,
      "▁key": 8074,
      "▁sey": 8075,
      "▁haline": 8076,
      "▁part": 8077,
      "▁adım": 8078,
      "▁direktoru": 8079,
      "▁sansı": 8080,
      "▁yazar": 8081,
      "▁ulastı": 8082,
      "▁bulgur": 8083,
      "ule": 8084,
      "lardır": 8085,
      "▁hanim": 8086,
      "▁fonların": 8087,
      "▁mide": 8088,
      "▁gecm": 8089,
      "▁rej": 8090,
      "acagını": 8091,
      "hiss": 8092,
      "▁acik": 8093,
      "▁kuvvetleri": 8094,
      "▁restoran": 8095,
      "▁7'den": 8096,
      "▁korid": 8097,
      "▁bo": 8098,
      "▁balt": 8099,
      "▁kaynakları": 8100,
      "▁gomlek": 8101,
      "▁ihtiyat": 8102,
      "▁aks": 8103,
      "▁beyler": 8104,
      "▁mey": 8105,
      "▁mektubu": 8106,
      "▁iler": 8107,
      "▁b": 8108,
      "▁pabuc": 8109,
      "▁varlık": 8110,
      "▁toplant": 8111,
      "ise": 8112,
      "▁kaldik": 8113,
      "▁h": 8114,
      "▁d": 8115,
      "▁kısalt": 8116,
      "▁omuz": 8117,
      "▁mantık": 8118,
      "▁ahlak": 8119,
      "▁dislerini": 8120,
      "mma": 8121,
      "▁ucak": 8122,
      "▁yuzluydu": 8123,
      "▁sair": 8124,
      "▁sendika": 8125,
      "▁ablam": 8126,
      "▁yetis": 8127,
      "▁pantolon": 8128,
      "▁kanıt": 8129,
      "▁bask": 8130,
      "lon": 8131,
      "ag": 8132,
      "▁karsısına": 8133,
      "▁cıktı": 8134,
      "▁hazırlan": 8135,
      "eral": 8136,
      "ısına": 8137,
      "ud": 8138,
      "▁turku": 8139,
      "▁ho": 8140,
      "leme": 8141,
      "▁rah": 8142,
      "▁ols": 8143,
      "▁eda": 8144,
      "ze": 8145,
      "ac": 8146,
      "▁agustos": 8147,
      "▁uzerindeki": 8148,
      "▁grubun": 8149,
      "ınt": 8150,
      "▁veriyorum": 8151,
      "▁havuzu": 8152,
      "estir": 8153,
      "'ta": 8154,
      "▁bufe": 8155,
      "▁hele": 8156,
      "▁seker": 8157,
      "▁yudum": 8158,
      "▁vermeye": 8159,
      "▁zap": 8160,
      "▁grupları": 8161,
      "ti": 8162,
      "▁akıl": 8163,
      "ladım": 8164,
      "lemeyi": 8165,
      "up": 8166,
      "▁isletme": 8167,
      "▁suc": 8168,
      "▁evini": 8169,
      "▁sab": 8170,
      "▁raporda": 8171,
      "▁yazı": 8172,
      "▁kez": 8173,
      "▁donem": 8174,
      "▁ailelere": 8175,
      "▁yuzunu": 8176,
      "▁da": 8177,
      "▁yukselerek": 8178,
      "▁tum": 8179,
      "▁doların": 8180,
      "▁basvuru": 8181,
      "menin": 8182,
      "▁kose": 8183,
      "▁erken": 8184,
      "▁hızlı": 8185,
      "▁sovyet": 8186,
      "kleri": 8187,
      "▁y": 8188,
      "▁el": 8189,
      "s": 8190,
      "▁mutla": 8191
    },
    "merges": [
      [
        "▁piyas",
        "asında"
      ],
      [
        "▁p",
        "ar"
      ],
      [
        "ist",
        "el"
      ],
      [
        "y",
        "dı"
      ],
      [
        "▁kalit",
        "eli"
      ],
      [
        "ay",
        "la"
      ],
      [
        "▁gun",
        "unden"
      ],
      [
        "▁ko",
        "r"
      ],
      [
        "▁ulus",
        "lar"
      ],
      [
        "▁anim",
        "ator"
      ],
      [
        "▁de",
        "met"
      ],
      [
        "▁olabil",
        "ir"
      ],
      [
        "▁car",
        "es"
      ],
      [
        "t",
        "i"
      ],
      [
        "▁dol",
        "ap"
      ],
      [
        "▁kr",
        "em"
      ],
      [
        "▁kon",
        "gr"
      ],
      [
        "▁gid",
        "er"
      ],
      [
        "▁2",
        "00"
      ],
      [
        "▁amerikalı",
        "lar"
      ],
      [
        "▁kon",
        "um"
      ],
      [
        "▁tey",
        "z"
      ],
      [
        "gr",
        "af"
      ],
      [
        "▁8",
        "'den"
      ],
      [
        "▁kil",
        "is"
      ],
      [
        "▁mat",
        "er"
      ],
      [
        "▁as",
        "ırı"
      ],
      [
        "▁h",
        "atır"
      ],
      [
        "or",
        "u"
      ],
      [
        "▁ca",
        "n"
      ],
      [
        "t",
        "en"
      ],
      [
        "l",
        "al"
      ],
      [
        "▁kars",
        "ılık"
      ],
      [
        "ac",
        "a"
      ],
      [
        "m",
        "ay"
      ],
      [
        "▁sa",
        "yet"
      ],
      [
        "▁om",
        "ur"
      ],
      [
        "g",
        "el"
      ],
      [
        "▁altın",
        "a"
      ],
      [
        "▁a",
        "kt"
      ],
      [
        "▁kom",
        "ur"
      ],
      [
        "▁et",
        "tik"
      ],
      [
        "af",
        "et"
      ],
      [
        "▁an",
        "ım"
      ],
      [
        "ıl",
        "dıgında"
      ],
      [
        "▁incel",
        "eme"
      ],
      [
        "▁teh",
        "d"
      ],
      [
        "▁gec",
        "en"
      ],
      [
        "▁k",
        "ub"
      ],
      [
        "et",
        "re"
      ],
      [
        "ın",
        "a"
      ],
      [
        "m",
        "ma"
      ],
      [
        "um",
        "sal"
      ],
      [
        "alar",
        "da"
      ],
      [
        "▁esn",
        "af"
      ],
      [
        "▁il",
        "an"
      ],
      [
        "ar",
        "d"
      ],
      [
        "▁red",
        "det"
      ],
      [
        "▁fasul",
        "ye"
      ],
      [
        "as",
        "ız"
      ],
      [
        "▁v",
        "ade"
      ],
      [
        "▁mey",
        "dan"
      ],
      [
        "a",
        "k"
      ],
      [
        "▁ih",
        "mal"
      ],
      [
        "▁bur",
        "aya"
      ],
      [
        "▁gi",
        "y"
      ],
      [
        "▁kal",
        "dim"
      ],
      [
        "▁s",
        "el"
      ],
      [
        "▁if",
        "ade"
      ],
      [
        "▁bors",
        "ası"
      ],
      [
        "▁tak",
        "v"
      ],
      [
        "ı",
        "ya"
      ],
      [
        "▁ekonom",
        "isi"
      ],
      [
        "▁cık",
        "mıs"
      ],
      [
        "d",
        "ıgını"
      ],
      [
        "▁cevr",
        "esinde"
      ],
      [
        "▁co",
        "."
      ],
      [
        "ekt",
        "edir"
      ],
      [
        "▁f",
        "ot"
      ],
      [
        "m",
        "emek"
      ],
      [
        "▁kr",
        "edi"
      ],
      [
        "▁at",
        "ıs"
      ],
      [
        "▁y",
        "o"
      ],
      [
        "▁ha",
        "k"
      ],
      [
        "▁m",
        "eb"
      ],
      [
        "ak",
        "lı"
      ],
      [
        "▁k",
        "lim"
      ],
      [
        "la",
        "sı"
      ],
      [
        "at",
        "i"
      ],
      [
        "eti",
        "c"
      ],
      [
        "▁sin",
        "ir"
      ],
      [
        "▁eg",
        "em"
      ],
      [
        "▁yud",
        "um"
      ],
      [
        "▁laf",
        "ı"
      ],
      [
        "▁boy",
        "u"
      ],
      [
        "▁y",
        "eme"
      ],
      [
        "▁dok",
        "tor"
      ],
      [
        "▁k",
        "erv"
      ],
      [
        "▁oy",
        "sa"
      ],
      [
        "▁or",
        "ta"
      ],
      [
        "▁gun",
        "lerde"
      ],
      [
        "▁ev",
        "inde"
      ],
      [
        "▁hik",
        "ay"
      ],
      [
        "▁ici",
        "m"
      ],
      [
        "or",
        "d"
      ],
      [
        "▁tez",
        "gah"
      ],
      [
        "▁",
        "ih"
      ],
      [
        "▁v",
        "er"
      ],
      [
        "▁siy",
        "ah"
      ],
      [
        "▁karsı",
        "tı"
      ],
      [
        "▁d",
        "isinda"
      ],
      [
        "▁enf",
        "lasyon"
      ],
      [
        "▁f",
        "it"
      ],
      [
        "la",
        "v"
      ],
      [
        "▁nokt",
        "ası"
      ],
      [
        "▁",
        "meger"
      ],
      [
        "▁sırt",
        "ında"
      ],
      [
        "▁hava",
        "alan"
      ],
      [
        "i",
        "'nin"
      ],
      [
        "ag",
        "ına"
      ],
      [
        "▁tem",
        "izdi"
      ],
      [
        "▁g",
        "emi"
      ],
      [
        "▁bank",
        "alar"
      ],
      [
        "▁ta",
        "ma"
      ],
      [
        "▁sonr",
        "asında"
      ],
      [
        "▁kon",
        "gre"
      ],
      [
        "▁kos",
        "esinde"
      ],
      [
        "▁personel",
        "leri"
      ],
      [
        "▁zek",
        "a"
      ],
      [
        "▁guzel",
        "di"
      ],
      [
        "m",
        "ad"
      ],
      [
        "▁ye",
        "di"
      ],
      [
        "▁il",
        "eri"
      ],
      [
        "ya",
        "cak"
      ],
      [
        "ma",
        "dıgını"
      ],
      [
        "▁ol",
        "du"
      ],
      [
        "▁y",
        "ap"
      ],
      [
        "▁o",
        "k"
      ],
      [
        "▁b",
        "og"
      ],
      [
        "▁ogretmen",
        "i"
      ],
      [
        "▁temizlik",
        "ten"
      ],
      [
        "▁h",
        "o"
      ],
      [
        "▁bak",
        "anı"
      ],
      [
        "ler",
        "imi"
      ],
      [
        "6",
        "'dan"
      ],
      [
        "▁sogu",
        "ktu"
      ],
      [
        "▁oldu",
        "g"
      ],
      [
        "▁yuk",
        "sel"
      ],
      [
        "lik",
        "lerini"
      ],
      [
        "▁mik",
        "tar"
      ],
      [
        "l",
        "ak"
      ],
      [
        "▁tan",
        "k"
      ],
      [
        "▁t",
        "atlı"
      ],
      [
        "▁on",
        "u"
      ],
      [
        "mekt",
        "e"
      ],
      [
        "▁yaptı",
        "gını"
      ],
      [
        "▁v",
        "uc"
      ],
      [
        "▁ta",
        "h"
      ],
      [
        "▁yaklas",
        "imi"
      ],
      [
        "▁anlay",
        "ıs"
      ],
      [
        "▁n",
        "e"
      ],
      [
        "▁ord",
        "u"
      ],
      [
        "▁duzey",
        "de"
      ],
      [
        "▁il",
        "gil"
      ],
      [
        "▁j",
        "aguar"
      ],
      [
        "▁tek",
        "er"
      ],
      [
        "▁a",
        "lın"
      ],
      [
        "▁sef",
        "tali"
      ],
      [
        "ma",
        "ması"
      ],
      [
        "len",
        "mek"
      ],
      [
        "▁bul",
        "ur"
      ],
      [
        "▁kar",
        "lar"
      ],
      [
        "▁sek",
        "tor"
      ],
      [
        "▁kel",
        "ime"
      ],
      [
        "▁l",
        "ist"
      ],
      [
        "▁pla",
        "ji"
      ],
      [
        "▁k",
        "i"
      ],
      [
        "▁do",
        "ları"
      ],
      [
        "▁he",
        "men"
      ],
      [
        "du",
        "r"
      ],
      [
        "▁ya",
        "vas"
      ],
      [
        "▁.",
        "."
      ],
      [
        "▁dere",
        "ce"
      ],
      [
        "▁dok",
        "uz"
      ],
      [
        "ai",
        "r"
      ],
      [
        "▁temet",
        "tu"
      ],
      [
        "▁yol",
        "ları"
      ],
      [
        "al",
        "t"
      ],
      [
        "▁uretici",
        "leri"
      ],
      [
        "▁bekle",
        "digini"
      ],
      [
        "▁boy",
        "un"
      ],
      [
        "▁ko",
        "k"
      ],
      [
        "▁h",
        "ap"
      ],
      [
        "▁!",
        ".."
      ],
      [
        "▁git",
        "ti"
      ],
      [
        "▁bank",
        "acılık"
      ],
      [
        "▁",
        "d"
      ],
      [
        "▁k",
        "en"
      ],
      [
        "▁clas",
        "s"
      ],
      [
        "▁kendis",
        "ine"
      ],
      [
        "▁kad",
        "r"
      ],
      [
        "▁mu",
        "tlu"
      ],
      [
        "▁hak",
        "im"
      ],
      [
        "▁yan",
        "ında"
      ],
      [
        "t",
        "ali"
      ],
      [
        "▁",
        "man"
      ],
      [
        "▁ay",
        "ından"
      ],
      [
        "▁ben",
        "i"
      ],
      [
        "▁pr",
        "os"
      ],
      [
        "▁e",
        "g"
      ],
      [
        "▁buy",
        "um"
      ],
      [
        "▁el",
        "estiri"
      ],
      [
        "▁sars",
        "ıntı"
      ],
      [
        "an",
        "sız"
      ],
      [
        "d",
        "et"
      ],
      [
        "m",
        "ayı"
      ],
      [
        "▁kam",
        "u"
      ],
      [
        "▁soz",
        "c"
      ],
      [
        "▁m",
        "ola"
      ],
      [
        "m",
        "asından"
      ],
      [
        "▁uyustur",
        "ucu"
      ],
      [
        "▁hac",
        "mi"
      ],
      [
        "▁gar",
        "s"
      ],
      [
        "▁",
        "un"
      ],
      [
        "▁is",
        "mini"
      ],
      [
        "▁se",
        "ans"
      ],
      [
        "▁program",
        "ları"
      ],
      [
        "▁bir",
        "inde"
      ],
      [
        "ili",
        "k"
      ],
      [
        "▁leble",
        "bi"
      ],
      [
        "e",
        "da"
      ],
      [
        "▁im",
        "za"
      ],
      [
        "▁ic",
        "ki"
      ],
      [
        "▁c",
        "h"
      ],
      [
        "▁a",
        "n"
      ],
      [
        "▁otel",
        "i"
      ],
      [
        "ot",
        "uz"
      ],
      [
        "ok",
        "s"
      ],
      [
        "o",
        "v"
      ],
      [
        "▁artır",
        "mak"
      ],
      [
        "▁icer",
        "iye"
      ],
      [
        "▁yap",
        "ının"
      ],
      [
        "▁tem",
        "iz"
      ],
      [
        "m",
        "ur"
      ],
      [
        "▁sat",
        "ın"
      ],
      [
        "▁kad",
        "ar"
      ],
      [
        "▁ka",
        "z"
      ],
      [
        "▁or",
        "d"
      ],
      [
        "▁dıs",
        "ar"
      ],
      [
        "▁on",
        "lem"
      ],
      [
        "il",
        "mesini"
      ],
      [
        "▁yap",
        "ma"
      ],
      [
        "d",
        "ig"
      ],
      [
        "▁tav",
        "ır"
      ],
      [
        "▁k",
        "ıy"
      ],
      [
        "▁karar",
        "gah"
      ],
      [
        "▁em",
        "n"
      ],
      [
        "▁or",
        "man"
      ],
      [
        "▁mer",
        "ak"
      ],
      [
        "▁di",
        "yor"
      ],
      [
        "ma",
        "fi"
      ],
      [
        "▁il",
        "k"
      ],
      [
        "▁ıskar",
        "ta"
      ],
      [
        "▁ist",
        "if"
      ],
      [
        "▁",
        "ca"
      ],
      [
        "▁m",
        "ah"
      ],
      [
        "ki",
        "li"
      ],
      [
        "▁ası",
        "rı"
      ],
      [
        "▁dip",
        "lom"
      ],
      [
        "▁ay",
        "agı"
      ],
      [
        "▁tarih",
        "te"
      ],
      [
        "at",
        "es"
      ],
      [
        "▁n",
        "us"
      ],
      [
        "lar",
        "ını"
      ],
      [
        "d",
        "en"
      ],
      [
        "▁ses",
        "ler"
      ],
      [
        "ız",
        "a"
      ],
      [
        "▁onun",
        "den"
      ],
      [
        "▁n",
        "eden"
      ],
      [
        "▁ac",
        "ı"
      ],
      [
        "▁davr",
        "an"
      ],
      [
        "▁z",
        "ev"
      ],
      [
        "▁ar",
        "ama"
      ],
      [
        "▁philadelphia",
        "'dan"
      ],
      [
        "▁ugr",
        "as"
      ],
      [
        "▁iceri",
        "de"
      ],
      [
        "▁lak",
        "e"
      ],
      [
        "▁k",
        "op"
      ],
      [
        "▁sez",
        "on"
      ],
      [
        "▁meh",
        "met"
      ],
      [
        "▁h",
        "ot"
      ],
      [
        "▁ol",
        "us"
      ],
      [
        "g",
        "ul"
      ],
      [
        "▁dig",
        "erleri"
      ],
      [
        "▁ay",
        "agına"
      ],
      [
        "▁mahkem",
        "esi"
      ],
      [
        "▁muhafaz",
        "ak"
      ],
      [
        "▁sos",
        "yal"
      ],
      [
        "▁al",
        "em"
      ],
      [
        "▁n",
        "ormal"
      ],
      [
        "r",
        "ut"
      ],
      [
        "▁sev",
        "k"
      ],
      [
        "▁so",
        "z"
      ],
      [
        "▁personel",
        "lerin"
      ],
      [
        "▁aktiv",
        "it"
      ],
      [
        "▁piyas",
        "ası"
      ],
      [
        "▁g",
        "eldi"
      ],
      [
        "▁etraf",
        "a"
      ],
      [
        "▁a",
        "lan"
      ],
      [
        "c",
        "ının"
      ],
      [
        "▁t",
        "or"
      ],
      [
        "▁demokr",
        "atlar"
      ],
      [
        "▁ma",
        "de"
      ],
      [
        "n",
        "et"
      ],
      [
        "ecekler",
        "ini"
      ],
      [
        "▁b",
        "ana"
      ],
      [
        "m",
        "amıs"
      ],
      [
        "▁en",
        "dek"
      ],
      [
        "ecek",
        "leri"
      ],
      [
        "an",
        "dan"
      ],
      [
        "▁ot",
        "ek"
      ],
      [
        "▁orta",
        "lama"
      ],
      [
        "▁har",
        "ika"
      ],
      [
        "▁bah",
        "cı"
      ],
      [
        "▁egil",
        "im"
      ],
      [
        "▁c",
        "ok"
      ],
      [
        "i",
        "r"
      ],
      [
        "▁bera",
        "ber"
      ],
      [
        "▁otob",
        "us"
      ],
      [
        "▁ak",
        "t"
      ],
      [
        "▁h",
        "it"
      ],
      [
        "▁komp",
        "lek"
      ],
      [
        "g",
        "im"
      ],
      [
        "▁hiss",
        "eyi"
      ],
      [
        "▁aldı",
        "lar"
      ],
      [
        "ad",
        "an"
      ],
      [
        "▁",
        "#"
      ],
      [
        "▁i",
        "lav"
      ],
      [
        "▁ef",
        "end"
      ],
      [
        "eceg",
        "ini"
      ],
      [
        "▁amer",
        "ik"
      ],
      [
        "ı",
        "lık"
      ],
      [
        "▁st",
        "ok"
      ],
      [
        "▁b",
        "us"
      ],
      [
        "▁s",
        "alt"
      ],
      [
        "▁og",
        "le"
      ],
      [
        "▁islet",
        "me"
      ],
      [
        "▁kapı",
        "dan"
      ],
      [
        "▁duy",
        "ar"
      ],
      [
        "▁b",
        "eden"
      ],
      [
        "▁",
        "?"
      ],
      [
        "▁ihtiyac",
        "ım"
      ],
      [
        "▁tuk",
        "eticiler"
      ],
      [
        "lar",
        "ı"
      ],
      [
        "ir",
        "leri"
      ],
      [
        "▁f",
        "ilm"
      ],
      [
        "▁orta",
        "dan"
      ],
      [
        "▁p",
        "ab"
      ],
      [
        "▁k",
        "es"
      ],
      [
        "▁s",
        "im"
      ],
      [
        "▁b",
        "ıc"
      ],
      [
        "un",
        "e"
      ],
      [
        "▁bir",
        "les"
      ],
      [
        "ların",
        "ız"
      ],
      [
        "▁akl",
        "ına"
      ],
      [
        "kler",
        "i"
      ],
      [
        "▁kor",
        "um"
      ],
      [
        "▁is",
        "mi"
      ],
      [
        "▁univers",
        "itesi"
      ],
      [
        "s",
        "et"
      ],
      [
        "▁i",
        "z"
      ],
      [
        "▁tesis",
        "in"
      ],
      [
        "▁dus",
        "man"
      ],
      [
        "▁eglen",
        "ce"
      ],
      [
        "al",
        "eti"
      ],
      [
        "▁s",
        "aat"
      ],
      [
        "▁tur",
        "den"
      ],
      [
        "ha",
        "l"
      ],
      [
        "▁kend",
        "iniz"
      ],
      [
        "▁bulun",
        "du"
      ],
      [
        "▁sahip",
        "tir"
      ],
      [
        "▁yap",
        "ım"
      ],
      [
        "▁f",
        "ig"
      ],
      [
        "▁al",
        "ıyor"
      ],
      [
        "g",
        "oz"
      ],
      [
        "▁hic",
        "bir"
      ],
      [
        "▁bas",
        "ıma"
      ],
      [
        "▁pr",
        "ov"
      ],
      [
        "a",
        "t"
      ],
      [
        "an",
        "i"
      ],
      [
        "▁f",
        "i"
      ],
      [
        "▁ugr",
        "a"
      ],
      [
        "c",
        "e"
      ],
      [
        "▁m",
        "an"
      ],
      [
        "▁dus",
        "un"
      ],
      [
        "▁biz",
        "i"
      ],
      [
        "▁ba",
        "na"
      ],
      [
        "▁",
        "y"
      ],
      [
        "8",
        "'de"
      ],
      [
        "▁2",
        "7"
      ],
      [
        "i",
        "kt"
      ],
      [
        "▁al",
        "a"
      ],
      [
        "▁harik",
        "aydi"
      ],
      [
        "▁gey",
        "ik"
      ],
      [
        "▁s",
        "oz"
      ],
      [
        "▁f",
        "en"
      ],
      [
        "▁kon",
        "us"
      ],
      [
        "al",
        "ı"
      ],
      [
        "▁",
        "lig"
      ],
      [
        "▁basladı",
        "lar"
      ],
      [
        "▁ara",
        "di"
      ],
      [
        "▁og",
        "lu"
      ],
      [
[...]
