{
  "version": "1.0",
  "truncation": null,
  "padding": null,
  "added_tokens": [
    {
      "id": 4930,
      "content": "[SEP]",
      "single_word": false,
      "lstrip": false,
      "rstrip": false,
      "normalized": false,
      "special": true
    },
    {
      "id": 8062,
      "content": "[UNK]",
      "single_word": false,
      "lstrip": false,
      "rstrip": false,
      "normalized": false,
      "special": true
    },
    {
      "id": 10191,
      "content": "[MASK]",
      "single_word": false,
      "lstrip": false,
      "rstrip": false,
      "normalized": false,
      "special": true
    },
    {
      "id": 13199,
      "content": "[PAD]",
      "single_word": false,
      "lstrip": false,
      "rstrip": false,
      "normalized": false,
      "special": true
    },
    {
      "id": 13395,
      "content": "[CLS]",
      "single_word": false,
      "lstrip": false,
      "rstrip": false,
      "normalized": false,
      "special": true
    }
  ],
  "normalizer": {
    "type": "Sequence",
    "normalizers": [
      {
        "type": "NFD"
      },
      {
        "type": "Lowercase"
      },
      {
        "type": "StripAccents"
      }
    ]
  },
  "pre_tokenizer": {
    "type": "Sequence",
    "pretokenizers": [
      {
        "type": "Metaspace",
        "replacement": "▁",
        "prepend_scheme": "always",
        "split": true
      }
    ]
  },
  "post_processor": {
    "type": "TemplateProcessing",
    "single": [
      {
        "SpecialToken": {
          "id": "[CLS]",
          "type_id": 0
        }
      },
      {
        "Sequence": {
          "id": "A",
          "type_id": 0
        }
      },
      {
        "SpecialToken": {
          "id": "[SEP]",
          "type_id": 0
        }
      }
    ],
    "pair": [
      {
        "SpecialToken": {
          "id": "[CLS]",
          "type_id": 0
        }
      },
      {
        "Sequence": {
          "id": "A",
          "type_id": 0
        }
      },
      {
        "SpecialToken": {
          "id": "[SEP]",
          "type_id": 0
        }
      },
      {
        "Sequence": {
          "id": "B",
          "type_id": 1
        }
      },
      {
        "SpecialToken": {
          "id": "[SEP]",
          "type_id": 1
        }
      }
    ],
    "special_tokens": {
      "[CLS]": {
        "id": "[CLS]",
        "ids": [
          13395
        ],
        "tokens": [
          "[CLS]"
        ]
      },
      "[SEP]": {
        "id": "[SEP]",
        "ids": [
          4930
        ],
        "tokens": [
          "[SEP]"
        ]
      }
    }
  },
  "decoder": {
    "type": "Metaspace",
    "replacement": "▁",
    "prepend_scheme": "always",
    "split": true
  },
  "model": {
    "type": "WordPiece",
    "unk_token": "[UNK]",
    "continuing_subword_prefix": "##",
    "max_input_chars_per_word": 100,
    "vocab": {
      "▁dolardı": 0,
      "##lugundan": 1,
      "▁havuzdan": 2,
      "▁%6": 3,
      "▁deleg": 4,
      "##siyon": 5,
      "##tıgında": 6,
      "##yası": 7,
      "##tikce": 8,
      "##ması": 9,
      "▁aldı": 10,
      "▁bolumlerinde": 11,
      "##nl": 12,
      "▁dolusu": 13,
      "▁bahcede": 14,
      "▁borsasında": 15,
      "▁tacirler": 16,
      "▁ceviz": 17,
      "##ecegiz": 18,
      "▁broker": 19,
      "▁hele": 20,
      "▁sch": 21,
      "▁yapmıs": 22,
      "▁iceride": 23,
      "▁calısıyordu": 24,
      "▁piyango": 25,
      "##lem": 26,
      "▁isler": 27,
      "▁duygularının": 28,
      "▁aglamaya": 29,
      "##meti": 30,
      "▁ihtiyaci": 31,
      "▁ruzgarı": 32,
      "##acagını": 33,
      "▁yolcul": 34,
      "▁emek": 35,
      "▁gelecek": 36,
      "▁tepki": 37,
      "##eydi": 38,
      "##cası": 39,
      "▁gelirler": 40,
      "▁general": 41,
      "▁tex": 42,
      "▁boynuna": 43,
      "▁kısmının": 44,
      "▁hek": 45,
      "##ulması": 46,
      "▁ilgiliydiler": 47,
      "##madim": 48,
      "▁tv": 49,
      "▁columbus": 50,
      "▁dansı": 51,
      "▁ocak": 52,
      "▁agaca": 53,
      "▁reklamı": 54,
      "▁dekor": 55,
      "▁yapılması": 56,
      "##iklik": 57,
      "##el": 58,
      "▁ankara": 59,
      "▁kestane": 60,
      "▁hafif": 61,
      "▁vef": 62,
      "▁onsu": 63,
      "▁karargah": 64,
      "##kli": 65,
      "##ona": 66,
      "▁genc": 67,
      "##iyetin": 68,
      "▁samdan": 69,
      "##layı": 70,
      "▁ahsap": 71,
      "##ukca": 72,
      "▁meyhan": 73,
      "▁iki": 74,
      "▁gogsunu": 75,
      "▁degerlerin": 76,
      "▁aksiy": 77,
      "▁sınırlarını": 78,
      "▁32": 79,
      "▁piyasaları": 80,
      "##iel": 81,
      "▁ispir": 82,
      "▁pec": 83,
      "##ebilir": 84,
      "▁yuzdelik": 85,
      "▁zapt": 86,
      "▁sif": 87,
      "##estirdi": 88,
      "▁sogugu": 89,
      "▁kazak": 90,
      "▁yılb": 91,
      "▁yonetimin": 92,
      "▁iklim": 93,
      "▁olduguna": 94,
      "▁ilk": 95,
      "##arip": 96,
      "▁subay": 97,
      "▁om": 98,
      "##etti": 99,
      "▁hatırlattı": 100,
      "##gal": 101,
      "▁etkileri": 102,
      "##uncaya": 103,
      "▁dugum": 104,
      "▁liraya": 105,
      "▁guvencesi": 106,
      "▁boynuz": 107,
      "##yonluk": 108,
      "▁karyol": 109,
      "▁verin": 110,
      "▁bassav": 111,
      "s": 112,
      "▁tartıs": 113,
      "▁oluyordu": 114,
      "▁sadakati": 115,
      "▁hesabı": 116,
      "▁sevgilisini": 117,
      "▁dalı": 118,
      "▁newark'tan": 119,
      "##digine": 120,
      "▁hamlenin": 121,
      "▁oyunc": 122,
      "▁chp": 123,
      "▁on": 124,
      "▁aklım": 125,
      "##deydi": 126,
      "▁beklen": 127,
      "▁atıp": 128,
      "▁city": 129,
      "##sızlıgını": 130,
      "▁gar": 131,
      "##lenmesini": 132,
      "▁dayak": 133,
      "▁ilave": 134,
      "▁hastaneye": 135,
      "▁kurulu'nun": 136,
      "##eti": 137,
      "##tan": 138,
      "▁bırakıp": 139,
      "▁numarası": 140,
      "▁olumden": 141,
      "##ugum": 142,
      "▁cizgiler": 143,
      "▁merakla": 144,
      "##oyla": 145,
      "▁cizm": 146,
      "▁beyni": 147,
      "▁beklentilerimi": 148,
      "##lerindeki": 149,
      "##dv": 150,
      "##gıcı": 151,
      "##'tan": 152,
      "▁siparis": 153,
      "▁degisimin": 154,
      "▁gosterge": 155,
      "▁kars": 156,
      "▁atıs": 157,
      "▁acıklık": 158,
      "▁uzunt": 159,
      "▁tabur": 160,
      "▁olursa": 161,
      "##cagıza": 162,
      "▁ha": 163,
      "##inn": 164,
      "▁pu": 165,
      "m": 166,
      "▁hazırlık": 167,
      "▁pop": 168,
      "▁soyluyor": 169,
      "▁kalkar": 170,
      "▁car": 171,
      "▁satranc": 172,
      "▁sahnenin": 173,
      "▁yoksul": 174,
      "##eler": 175,
      "▁mekte": 176,
      "▁neye": 177,
      "▁birlikte": 178,
      "##udu": 179,
      "▁berbat": 180,
      "▁bahcı": 181,
      "##ade": 182,
      "▁kaynak": 183,
      "##igine": 184,
      "▁islemlerinde": 185,
      "##kul": 186,
      "▁karsil": 187,
      "▁esrar": 188,
      "▁sisteminin": 189,
      "▁suclamalar": 190,
      "▁gecirmek": 191,
      "##ulacak": 192,
      "▁kendine": 193,
      "##tam": 194,
      "▁minimini": 195,
      "▁merk": 196,
      "##'nda": 197,
      "▁tanr": 198,
      "▁tef": 199,
      "▁kızları": 200,
      "▁belediy": 201,
      "▁cent": 202,
      "▁barda": 203,
      "▁fonlarının": 204,
      "▁kentte": 205,
      "▁gorur": 206,
      "▁vasıta": 207,
      "▁adım": 208,
      "▁korkusuyla": 209,
      "▁mıdır": 210,
      "▁olabilirdi": 211,
      "▁kasır": 212,
      "##desi": 213,
      "##iyetleri": 214,
      "##ahlık": 215,
      "▁sinem": 216,
      "▁ogesi": 217,
      "▁kısıtlamasını": 218,
      "▁konsantr": 219,
      "▁bana": 220,
      "▁haklarının": 221,
      "##0'": 222,
      "▁gorul": 223,
      "▁mesel": 224,
      "##arken": 225,
      "▁bulutu": 226,
      "▁sistemleri": 227,
      "##leyi": 228,
      "##lusu": 229,
      "▁iskele": 230,
      "##tır": 231,
      "▁taraftan": 232,
      "▁yasına": 233,
      "▁kaput": 234,
      "▁katından": 235,
      "▁rengini": 236,
      "▁dakika": 237,
      "▁sermayeyi": 238,
      "▁kayıp": 239,
      "▁yaparım": 240,
      "▁sogut": 241,
      "▁toplantılarında": 242,
      "##elerden": 243,
      "▁kralic": 244,
      "▁uzaga": 245,
      "▁tabanca": 246,
      "▁gidebilir": 247,
      "▁saha": 248,
      "##endek": 249,
      "▁odeme": 250,
      "▁dususler": 251,
      "▁faaliyetlerini": 252,
      "▁cılgın": 253,
      "▁-": 254,
      "▁coc": 255,
      "▁unut": 256,
      "##inal": 257,
      "##emek": 258,
      "▁muhendis": 259,
      "▁talebin": 260,
      "▁kasabadan": 261,
      "▁yorumlara": 262,
      "##larımın": 263,
      "▁uretime": 264,
      "▁konusuyor": 265,
      "▁akıllı": 266,
      "▁sebeb": 267,
      "▁calısır": 268,
      "▁genetik": 269,
      "▁bulun": 270,
      "▁verg": 271,
      "##iski": 272,
      "▁agabeyim": 273,
      "##ısının": 274,
      "▁basmak": 275,
      "▁cebinde": 276,
      "▁kilometre": 277,
      "▁ortasına": 278,
      "▁iyi": 279,
      "▁agırlık": 280,
      "▁gozda": 281,
      "▁temet": 282,
      "▁onları": 283,
      "##ha": 284,
      "▁yumurta": 285,
      "##ish": 286,
      "▁projeler": 287,
      "##diginde": 288,
      "▁sahil": 289,
      "▁depremle": 290,
      "▁hayır": 291,
      "▁guver": 292,
      "##ator": 293,
      "▁tac": 294,
      "▁sporcu": 295,
      "##lerimize": 296,
      "▁yavrusu": 297,
      "▁hattının": 298,
      "▁pencere": 299,
      "▁bilhassa": 300,
      "▁biris": 301,
      "▁urun": 302,
      "▁bilmec": 303,
      "##ime": 304,
      "▁kablo": 305,
      "▁cebine": 306,
      "##arak": 307,
      "▁buradan": 308,
      "##ide": 309,
      "▁yapmaya": 310,
      "▁hanim": 311,
      "##tmi": 312,
      "▁oyunlarının": 313,
      "▁butun": 314,
      "▁kırmızı": 315,
      "▁kın": 316,
      "▁mantıklı": 317,
      "▁telekom": 318,
      "##liyordu": 319,
      "▁senenin": 320,
      "▁sorusturma": 321,
      "▁haline": 322,
      "▁koseye": 323,
      "##omu": 324,
      "##lanabilir": 325,
      "▁vak": 326,
      "##ırp": 327,
      "▁ipotekleri": 328,
      "▁hacminde": 329,
      "##bah": 330,
      "▁alımlar": 331,
      "▁savur": 332,
      "##amıza": 333,
      "##’": 334,
      "▁harcama": 335,
      "##eceg": 336,
      "▁havasını": 337,
      "▁sozunde": 338,
      "##aki": 339,
      "▁cig": 340,
      "▁demokr": 341,
      "▁dekorasyon": 342,
      "▁surecin": 343,
      "▁isgucu": 344,
      "##amadıgını": 345,
      "##ili": 346,
      "▁havada": 347,
      "##dugunda": 348,
      "##larındaki": 349,
      "▁partilerin": 350,
      "▁lavan": 351,
      "▁rengine": 352,
      "▁destekli": 353,
      "▁bucak": 354,
      "▁isi": 355,
      "▁mır": 356,
      "▁lideri": 357,
      "##antr": 358,
      "▁okullarda": 359,
      "▁hatıraların": 360,
      "▁ser": 361,
      "##islari": 362,
      "▁rıht": 363,
      "5": 364,
      "▁aldıktan": 365,
      "▁uvey": 366,
      "▁aktr": 367,
      "▁norma": 368,
      "##–": 369,
      "##egor": 370,
      "▁adımı": 371,
      "▁corba": 372,
      "▁hiz": 373,
      "▁mucevher": 374,
      "##ıstır": 375,
      "##ıklık": 376,
      "▁anasının": 377,
      "##ısal": 378,
      "##9'a": 379,
      "▁sahan": 380,
      "##klarını": 381,
      "▁kararıyla": 382,
      "▁hastane": 383,
      "▁muhendislik": 384,
      "▁ucunda": 385,
      "▁tırnak": 386,
      "▁cıg": 387,
      "▁cirkin": 388,
      "▁eder": 389,
      "##rak": 390,
      "▁sermayesini": 391,
      "▁heyet": 392,
      "▁baskos": 393,
      "▁verir": 394,
      "##kik": 395,
      "▁treni": 396,
      "▁doksan": 397,
      "▁tasım": 398,
      "▁hayatını": 399,
      "▁uretimini": 400,
      "▁degisimi": 401,
      "▁bagları": 402,
      "▁magara": 403,
      "▁beyin": 404,
      "▁gelismeler": 405,
      "▁secimlerin": 406,
      "▁olabilecegine": 407,
      "▁konum": 408,
      "▁sampiyon": 409,
      "##yete": 410,
      "▁koy": 411,
      "▁personeline": 412,
      "▁sube": 413,
      "▁yed": 414,
      "▁nehrin": 415,
      "##agı": 416,
      "▁bolg": 417,
      "##oglu": 418,
      "##labil": 419,
      "▁komite": 420,
      "▁miktarı": 421,
      "▁verim": 422,
      "▁must": 423,
      "▁sıkıntıları": 424,
      "▁acıklamasının": 425,
      "▁masallar": 426,
      "##nan": 427,
      "▁birik": 428,
      "▁engelliler": 429,
      "▁asır": 430,
      "▁muzakere": 431,
      "▁kansas": 432,
      "▁oyunda": 433,
      "▁bush": 434,
      "▁dusunuyor": 435,
      "▁bos": 436,
      "▁edin": 437,
      "▁18": 438,
      "▁olmamak": 439,
      "▁ice": 440,
      "▁eserleri": 441,
      "▁delikanlı": 442,
      "▁bakısı": 443,
      "▁kapan": 444,
      "▁kızım": 445,
      "▁bitti": 446,
      "▁reklamcılar": 447,
      "▁birbiriyle": 448,
      "▁yurtdısında": 449,
      "##acılık": 450,
      "▁kulak": 451,
      "x": 452,
      "▁parki": 453,
      "▁suyun": 454,
      "##ve": 455,
      "##aması": 456,
      "▁anlamak": 457,
      "▁rum": 458,
      "▁amcam": 459,
      "##ılmıstır": 460,
      "##ılacak": 461,
      "▁nik": 462,
      "▁mudur": 463,
      "▁500": 464,
      "▁maliyetleri": 465,
      "▁bosal": 466,
      "▁koyar": 467,
      "▁bostan": 468,
      "##oya": 469,
      "▁secimde": 470,
      "▁maddeye": 471,
      "##tt": 472,
      "▁tanıyor": 473,
      "▁tipik": 474,
      "##istler": 475,
      "▁yazıyı": 476,
      "▁kelebek": 477,
      "▁“": 478,
      "##umuza": 479,
      "##suzlugunu": 480,
      "▁ceph": 481,
      "##uge": 482,
      "▁acisindan": 483,
      "▁havayollarıyla": 484,
      "##hti": 485,
      "##ogretim": 486,
      "▁dedesi": 487,
      "▁dususe": 488,
      "▁ikilik": 489,
      "##alara": 490,
      "▁mich": 491,
      "▁etsin": 492,
      "▁muhakk": 493,
      "▁beklentimin": 494,
      "▁harp": 495,
      "▁ızdır": 496,
      "▁nedenleri": 497,
      "▁kapitalist": 498,
      "▁budak": 499,
      "▁hakika": 500,
      "##asini": 501,
      "▁gecip": 502,
      "▁tel": 503,
      "▁noktaları": 504,
      "##mıslardı": 505,
      "▁,": 506,
      "▁etmekten": 507,
      "▁sure": 508,
      "▁kalmadim": 509,
      "▁indi": 510,
      "##gım": 511,
      "▁kazanclara": 512,
      "▁macları": 513,
      "▁ruyamda": 514,
      "▁kendinde": 515,
      "▁toren": 516,
      "▁yuzleri": 517,
      "▁mik": 518,
      "▁yemekte": 519,
      "##ecen": 520,
      "▁pervan": 521,
      "▁gazeteleri": 522,
      "▁resmen": 523,
      "▁cidd": 524,
      "▁mahallede": 525,
      "▁yaslarına": 526,
      "▁hizmetlerini": 527,
      "▁men": 528,
      "▁firmaları": 529,
      "▁gonullu": 530,
      "▁giyim": 531,
      "##de": 532,
      "▁cıkarma": 533,
      "▁edinmek": 534,
      "##yuzlu": 535,
      "##aja": 536,
      "▁mektuplar": 537,
      "▁yetisk": 538,
      "▁cinsel": 539,
      "▁opec": 540,
      "##th": 541,
      "▁batak": 542,
      "▁armagan": 543,
      "▁delta": 544,
      "▁kesil": 545,
      "▁gozuk": 546,
      "▁ark": 547,
      "▁4": 548,
      "▁nuf": 549,
      "▁muhaseb": 550,
      "▁atesten": 551,
      "▁bogazici'nde": 552,
      "▁iliskin": 553,
      "▁sirket": 554,
      "▁buyugu": 555,
      "##gim": 556,
      "▁mekana": 557,
      "▁zor": 558,
      "##.75": 559,
      "##anın": 560,
      "▁bili": 561,
      "▁depreminin": 562,
      "##adet": 563,
      "▁merak": 564,
      "▁sevgili": 565,
      "▁hava": 566,
      "##land": 567,
      "▁diplomasi": 568,
      "▁gormez": 569,
      "##aklar": 570,
      "▁yiyeceklerden": 571,
      "▁temp": 572,
      "▁sattı": 573,
      "▁yadig": 574,
      "▁beyle": 575,
      "##00": 576,
      "▁yır": 577,
      "▁temmuz": 578,
      "▁kazaz": 579,
      "##araj": 580,
      "▁ayın": 581,
      "▁ahbap": 582,
      "▁toronto'dan": 583,
      "▁stand": 584,
      "▁dair": 585,
      "##lıktan": 586,
      "▁oynama": 587,
      "▁haber": 588,
      "##anının": 589,
      "▁tamamlan": 590,
      "▁sizinle": 591,
      "##sinin": 592,
      "##palı": 593,
      "##iz": 594,
      "▁yuzumu": 595,
      "▁gerek": 596,
      "▁tecavuz": 597,
      "▁mısınız": 598,
      "##liginin": 599,
      "▁kartel": 600,
      "▁fitn": 601,
      "▁ornek": 602,
      "▁demek": 603,
      "##undaki": 604,
      "##gunlukla": 605,
      "##atur": 606,
      "▁kalmak": 607,
      "▁veda": 608,
      "▁internetten": 609,
      "##ılan": 610,
      "▁fiyatının": 611,
      "##ina": 612,
      "##eceksin": 613,
      "▁yurum": 614,
      "##bat": 615,
      "▁bolgelerinde": 616,
      "▁ni": 617,
      "▁kendisinin": 618,
      "▁sonuc": 619,
      "▁bankaların": 620,
      "▁oyk": 621,
      "▁bet": 622,
      "▁saniye": 623,
      "▁west": 624,
      "▁sayfa": 625,
      "▁fut": 626,
      "##ass": 627,
      "▁niyetine": 628,
      "▁dow": 629,
      "▁gelin": 630,
      "##ekli": 631,
      "▁sub": 632,
      "##noz": 633,
      "▁olu": 634,
      "##itr": 635,
      "▁1992'de": 636,
      "▁altını": 637,
      "▁prov": 638,
      "▁kalanlar": 639,
      "▁televizyona": 640,
      "▁gond": 641,
      "▁bisiklet": 642,
      "##ed": 643,
      "##odu": 644,
      "▁midir": 645,
      "▁gerceklesti": 646,
      "▁yuzum": 647,
      "▁guclerini": 648,
      "##eyr": 649,
      "##cısı": 650,
      "▁duzen": 651,
      "##ında": 652,
      "##acılar": 653,
      "##phis": 654,
      "▁fiyatlardan": 655,
      "▁gonlu": 656,
      "##70'": 657,
      "▁durumda": 658,
      "▁dile": 659,
      "▁sevg": 660,
      "▁yengec": 661,
      "##yonun": 662,
      "▁gelmeye": 663,
      "▁kaldırılması": 664,
      "▁odanin": 665,
      "▁haberleri": 666,
      "▁sal": 667,
      "▁feder": 668,
      "▁nohut": 669,
      "▁bayramı": 670,
      "▁alabilir": 671,
      "▁ink": 672,
      "▁hareketler": 673,
      "▁yıcı": 674,
      "▁listele": 675,
      "▁sohbet": 676,
      "▁oldur": 677,
      "▁gununu": 678,
      "##inti": 679,
      "▁acıyla": 680,
      "##lasıyor": 681,
      "▁esas": 682,
      "▁sesinden": 683,
      "▁balgam": 684,
      "▁alayı": 685,
      "##maları": 686,
      "▁islemin": 687,
      "▁cıktıgını": 688,
      "▁parmagını": 689,
      "##ıv": 690,
      "▁annec": 691,
      "▁anlıslanabili": 692,
      "##ental": 693,
      "▁yusuf": 694,
      "▁tarihini": 695,
      "▁titizlik": 696,
      "▁acılar": 697,
      "##esi'ne": 698,
      "▁ettigi": 699,
      "▁personelin": 700,
      "▁yası": 701,
      "##dam": 702,
      "▁deligi": 703,
      ",": 704,
      "▁tahv": 705,
      "▁a.b.": 706,
      "##ebi": 707,
      "##masa": 708,
      "##ılar": 709,
      "▁sezonu": 710,
      "##tıgı": 711,
      "▁his": 712,
      "▁munaseb": 713,
      "▁gelmistir": 714,
      "▁karmas": 715,
      "##mazlar": 716,
      "▁boyutta": 717,
      "##amaz": 718,
      "▁baca": 719,
      "▁nah": 720,
      "##47": 721,
      "##hu": 722,
      "▁kurtul": 723,
      "##ciden": 724,
      "▁kardeslik": 725,
      "▁bazda": 726,
      "##iy": 727,
      "▁kapsamı": 728,
      "##masıyla": 729,
      "▁lıgın": 730,
      "##niz": 731,
      "▁sordular": 732,
      "▁oglan": 733,
      "##talık": 734,
      "▁sartlar": 735,
      "▁korsan": 736,
      "▁kısa": 737,
      "▁laf": 738,
      "▁komut": 739,
      "▁metre": 740,
      "▁kararsizim": 741,
      "▁evinin": 742,
      "▁rul": 743,
      "▁dolasmaya": 744,
      "▁alarak": 745,
      "▁cereyan": 746,
      "▁rekabetin": 747,
      "▁teneff": 748,
      "▁tesiri": 749,
      "▁yanıyor": 750,
      "▁okurlar": 751,
      "▁sterlin": 752,
      "▁is": 753,
      "▁hayatta": 754,
      "▁tanrı": 755,
      "▁yumur": 756,
      "##tih": 757,
      "▁oyuncular": 758,
      "▁avans": 759,
      "▁acele": 760,
      "##opter": 761,
      "▁endiselen": 762,
      "▁gazeteci": 763,
      "▁maddeler": 764,
      "▁mater": 765,
      "▁koru": 766,
      "▁gorusmek": 767,
      "##ıf": 768,
      "▁basak": 769,
      "▁bitirmek": 770,
      "##enlerin": 771,
      "▁vucut": 772,
      "▁kuvvetler": 773,
      "▁italyan": 774,
      "##dizli": 775,
      "##b.": 776,
      "▁inc.": 777,
      "▁bakıma": 778,
      "▁yildiz": 779,
      "▁belirt": 780,
      "▁isteklerini": 781,
      "▁pasap": 782,
      "▁mevki": 783,
      "▁izini": 784,
      "▁eserin": 785,
      "▁malzemesi": 786,
      "▁bakı": 787,
      "##tansiy": 788,
      "▁fiyati": 789,
      "▁yılının": 790,
      "▁tutul": 791,
      "▁onune": 792,
      "▁konularında": 793,
      "▁vegas'a": 794,
      "▁kaslarını": 795,
      "▁gosterir": 796,
      "▁beyzbol": 797,
      "▁damat": 798,
      "▁zayıf": 799,
      "##esinde": 800,
      "▁isaretleri": 801,
      "▁durumları": 802,
      "##mistim": 803,
      "▁epey": 804,
      "▁zincir": 805,
      "▁okulda": 806,
      "▁yılını": 807,
      "▁tasıt": 808,
      "▁devamı": 809,
      "▁5'te": 810,
      "▁nefese": 811,
      "##\\/": 812,
      "▁yatıs": 813,
      "##elleri": 814,
      "▁talebi": 815,
      "▁john": 816,
      "▁bitim": 817,
      "##ici": 818,
      "▁esi": 819,
      "▁baslarına": 820,
      "▁vis": 821,
      "▁cevresinde": 822,
      "▁sayesinde": 823,
      "▁balon": 824,
      "▁atom": 825,
      "▁tazmin": 826,
      "▁dinlemek": 827,
      "▁sıralar": 828,
      "##asına": 829,
      "▁macı": 830,
      "##ulur": 831,
      "▁odası": 832,
      "▁saatlerini": 833,
      "▁bilgisayarlar": 834,
      "▁cizgileri": 835,
      "▁ellerimi": 836,
      "▁uzmanları": 837,
      "▁inanıyor": 838,
      "▁listesine": 839,
      "▁renklerin": 840,
      "▁girisimi": 841,
      "##laması": 842,
      "▁9'da": 843,
      "▁hepsini": 844,
      "▁konserv": 845,
      "▁alttan": 846,
      "▁menek": 847,
      "▁bakanı": 848,
      "▁hucum": 849,
      "▁boslukta": 850,
      "▁mah": 851,
      "▁gercegi": 852,
      "##irmi": 853,
      "▁am": 854,
      "▁dusunceler": 855,
      "▁bogaz": 856,
      "▁antika": 857,
      "##cuk": 858,
      "##layabil": 859,
      "▁muzak": 860,
      "▁imalat": 861,
      "▁kayıtları": 862,
      "▁alman": 863,
      "▁yuregi": 864,
      "▁universitesi": 865,
      "##35": 866,
      "##emey": 867,
      "##kat": 868,
      "▁ur": 869,
      "▁tasımaya": 870,
      "▁cıkmıs": 871,
      "▁parc": 872,
      "▁yeni": 873,
      "##amayacag": 874,
      "▁altıda": 875,
      "▁yatırımcılar": 876,
      "▁mintan": 877,
      "▁partiler": 878,
      "▁bankalarının": 879,
      "▁yapabil": 880,
      "▁seyin": 881,
      "▁cıgır": 882,
      "▁genclerin": 883,
      "▁haksızlıgı": 884,
      "▁kızgın": 885,
      "▁muesses": 886,
      "▁kaldıgını": 887,
      "▁80": 888,
      "▁alab": 889,
      "▁toparlan": 890,
      "▁koyde": 891,
      "▁bagımlılık": 892,
      "▁parav": 893,
      "▁elim": 894,
      "##mel": 895,
      "##anlık": 896,
      "▁gucunu": 897,
      "##dil": 898,
      "##sk": 899,
      "##emedim": 900,
      "▁yıgın": 901,
      "▁sahile": 902,
      "▁mac": 903,
      "▁bezi": 904,
      "▁oynat": 905,
      "##ok": 906,
      "▁yeteri": 907,
      "▁mak": 908,
      "▁nis": 909,
      "▁islet": 910,
      "▁goster": 911,
      "▁dalga": 912,
      "▁insanlarla": 913,
      "▁cezve": 914,
      "▁suyunu": 915,
      "▁pir": 916,
      "▁1980'": 917,
      "▁kriz": 918,
      "▁yazım": 919,
      "▁cıkabilir": 920,
      "▁koms": 921,
      "▁teyit": 922,
      "▁istik": 923,
      "▁olusan": 924,
      "▁komuru": 925,
      "▁dolarda": 926,
      "▁ma": 927,
      "▁yoklugunda": 928,
      "##75": 929,
      "▁fazlaydi": 930,
      "##azaran": 931,
      "▁seniz": 932,
      "▁ulus": 933,
      "▁sis": 934,
      "▁kentin": 935,
      "▁stud": 936,
      "##lasmıstı": 937,
      "▁deprem": 938,
      "▁avuk": 939,
      "▁yus": 940,
      "▁ton": 941,
      "▁kokain": 942,
      "▁denizasır": 943,
      "▁degistirmek": 944,
      "##sek": 945,
      "▁istedi": 946,
      "▁olma": 947,
      "▁kuzey": 948,
      "##perv": 949,
      "▁kul": 950,
      "▁teması": 951,
      "▁topladı": 952,
      "▁firmasının": 953,
      "##anlar": 954,
      "▁fab": 955,
      "▁gunluk": 956,
      "##mafih": 957,
      "##lara": 958,
      "##aret": 959,
      "▁sofrasında": 960,
      "▁kazanmaya": 961,
      "▁iade": 962,
      "▁kl": 963,
      "##lav": 964,
      "▁br": 965,
      "##sarak": 966,
      "▁anti": 967,
      "▁telefonu": 968,
      "▁motiv": 969,
      "▁pat": 970,
      "▁telefonuma": 971,
      "▁ofisleri": 972,
      "▁haziran'da": 973,
      "▁cicegi": 974,
      "▁kredisi": 975,
      "##aliforn": 976,
      "▁ev": 977,
      "▁zamandan": 978,
      "▁cıkmayı": 979,
      "▁cin": 980,
      "▁katında": 981,
      "▁anah": 982,
      "▁agustos'ta": 983,
      "##urduk": 984,
      "▁donen": 985,
      "▁baglant": 986,
      "▁dondu": 987,
      "▁liste": 988,
      "▁`": 989,
      "▁fis": 990,
      "▁anac": 991,
      "▁perdeler": 992,
      "▁dusus": 993,
      "▁dul": 994,
      "##ak": 995,
      "▁dine": 996,
      "▁fot": 997,
      "##ick": 998,
      "##esin": 999,
      "▁seher": 1000,
      "▁kon": 1001,
      "##ela": 1002,
      "▁gruba": 1003,
      "▁ifa": 1004,
      "##ektedir": 1005,
      "##ıcıya": 1006,
      "▁yeterli": 1007,
      "▁tarihe": 1008,
      "▁vaziyeti": 1009,
      "##dalı": 1010,
      "▁elbiselerini": 1011,
      "##5'i": 1012,
      "▁acıklaması": 1013,
      "▁davranıs": 1014,
      "▁uzattı": 1015,
      "▁tahl": 1016,
      "##cel": 1017,
      "##lu": 1018,
      "▁hissettim": 1019,
      "▁koymus": 1020,
      "▁cinsiyet": 1021,
      "##ca": 1022,
      "▁olmasın": 1023,
      "▁pasifik": 1024,
      "▁tıkır": 1025,
      "▁toplantısında": 1026,
      "▁takdir": 1027,
      "##latma": 1028,
      "##aren": 1029,
      "▁utu": 1030,
      "▁kemik": 1031,
      "▁anlatmaya": 1032,
      "▁cıl": 1033,
      "▁acıkca": 1034,
      "▁sahilde": 1035,
      "▁calısıyorlar": 1036,
      "▁fren": 1037,
      "▁gubre": 1038,
      "▁od": 1039,
      "▁piyan": 1040,
      "▁savası": 1041,
      "▁gaz": 1042,
      "##adına": 1043,
      "▁bolgede": 1044,
      "##lige": 1045,
      "▁kemer": 1046,
      "▁binanın": 1047,
      "▁inkar": 1048,
      "▁dama": 1049,
      "##arlan": 1050,
      "▁gosterebilir": 1051,
      "##ilya": 1052,
      "▁biliyorsun": 1053,
      "▁kepenk": 1054,
      "▁philadel": 1055,
      "▁akla": 1056,
      "▁bakalım": 1057,
      "##boy": 1058,
      "▁renginde": 1059,
      "▁tok": 1060,
      "▁ap": 1061,
      "▁gov": 1062,
      "▁kıyas": 1063,
      "▁felsefe": 1064,
      "▁ihtim": 1065,
      "##org": 1066,
      "▁kadınların": 1067,
      "##uh": 1068,
      "##aların": 1069,
      "▁goruldu": 1070,
      "▁parayla": 1071,
      "##4'de": 1072,
      "##luy": 1073,
      "▁romanı": 1074,
      "▁kole": 1075,
      "▁franch": 1076,
      "▁tasımacılıgı": 1077,
      "▁safhada": 1078,
      "▁rolunu": 1079,
      "▁hastalıga": 1080,
      "▁izledi": 1081,
      "##ediyor": 1082,
      "▁mum": 1083,
      "▁kendime": 1084,
      "##lılıgını": 1085,
      "▁askerlerle": 1086,
      "##rı": 1087,
      "▁varol": 1088,
      "▁hır": 1089,
      "▁etmesine": 1090,
      "##lardı": 1091,
      "▁ayının": 1092,
      "▁inancı": 1093,
      "▁yanık": 1094,
      "▁brit": 1095,
      "▁tokyo": 1096,
      "▁sozles": 1097,
      "▁kun": 1098,
      "▁odaydi": 1099,
      "▁kredi": 1100,
      "▁akıl": 1101,
      "▁cisim": 1102,
      "▁meselesi": 1103,
      "▁davanın": 1104,
      "▁cek": 1105,
      "▁soylen": 1106,
      "▁kumarhane": 1107,
      "▁ler": 1108,
      "▁tavrını": 1109,
      "▁yuzyıl": 1110,
      "▁urunlerini": 1111,
      "▁49": 1112,
      "▁tuccar": 1113,
      "##denin": 1114,
      "##laya": 1115,
      "##alıyor": 1116,
      "##liginde": 1117,
      "##ırlar": 1118,
      "▁bereket": 1119,
      "▁dinler": 1120,
      "##dır": 1121,
      "##ust": 1122,
      "▁desteklemek": 1123,
      "▁gidis": 1124,
      "▁nisan": 1125,
      "▁tasfiye": 1126,
      "▁zul": 1127,
      "▁merrill": 1128,
      "▁volatil": 1129,
      "##likte": 1130,
      "▁sokaklar": 1131,
      "▁ciger": 1132,
      "▁boylece": 1133,
      "##emize": 1134,
      "▁durusma": 1135,
      "▁fac": 1136,
      "▁helik": 1137,
      "▁lık": 1138,
      "##anmıs": 1139,
      "▁soyluyorlar": 1140,
      "▁isareti": 1141,
      "▁dum": 1142,
      "▁hisselerini": 1143,
      "▁faturamin": 1144,
      "▁detaylar": 1145,
      "▁tarafın": 1146,
      "##trily": 1147,
      "▁tahmin": 1148,
      "▁geldiler": 1149,
      "##ziv": 1150,
      "▁docent": 1151,
      "▁gecirdim": 1152,
      "##enc": 1153,
      "▁fincan": 1154,
      "##aliydi": 1155,
      "▁ifadesini": 1156,
      "▁ymis": 1157,
      "▁kırıklıgına": 1158,
      "▁miralay": 1159,
      "▁veremem": 1160,
      "▁sordum": 1161,
      "##len": 1162,
      "##erindeki": 1163,
      "▁american": 1164,
      "▁salt": 1165,
      "##ektir": 1166,
      "▁faaliyete": 1167,
      "▁kuk": 1168,
      "##t": 1169,
      "▁kopr": 1170,
      "▁kisilig": 1171,
      "▁yayla": 1172,
      "▁dedek": 1173,
      "▁kirliydi": 1174,
      "▁birisini": 1175,
      "▁seref": 1176,
      "▁tuyleri": 1177,
      "▁hapse": 1178,
      "▁rekor": 1179,
      "▁pros": 1180,
      "▁yarısının": 1181,
      "▁mallar": 1182,
      "##sil": 1183,
      "▁mantar": 1184,
      "▁sente": 1185,
      "▁dagları": 1186,
      "▁cıkmaz": 1187,
      "▁calar": 1188,
      "▁gorduk": 1189,
      "▁altından": 1190,
      "▁aklımdan": 1191,
      "▁gucunun": 1192,
      "▁nashville": 1193,
      "▁tip": 1194,
      "▁alıs": 1195,
      "▁hızla": 1196,
      "▁cog": 1197,
      "▁ortası": 1198,
      "▁kubb": 1199,
      "▁yasıyor": 1200,
      "##luge": 1201,
      "##dem": 1202,
      "▁2.7": 1203,
      "##5'ten": 1204,
      "▁bomba": 1205,
      "##anam": 1206,
      "▁milyonu": 1207,
      "▁binlerce": 1208,
      "##akını": 1209,
      "##ket": 1210,
      "▁zey": 1211,
      "##ncu": 1212,
      "##ıktan": 1213,
      "▁becerik": 1214,
      "▁gon": 1215,
      "##leye": 1216,
      "▁merkezinden": 1217,
      "##ucul": 1218,
      "##elle": 1219,
      "▁dede": 1220,
      "##'t": 1221,
      "▁kotuluk": 1222,
      "##ock": 1223,
      "▁keder": 1224,
      "▁sahiptir": 1225,
      "f": 1226,
      "▁cesitleri": 1227,
      "▁erkegi": 1228,
      "▁koken": 1229,
      "▁yuksekten": 1230,
      "▁ucuncu": 1231,
      "▁durumlar": 1232,
      "▁onemli": 1233,
      "▁kollarını": 1234,
      "▁kimi": 1235,
      "##leniyor": 1236,
      "▁ornegin": 1237,
      "▁yandan": 1238,
      "##raz": 1239,
      "▁burnundan": 1240,
      "▁dogr": 1241,
      "▁daima": 1242,
      "▁hasılat": 1243,
      "▁sad": 1244,
      "▁dieg": 1245,
      "▁yarad": 1246,
      "▁kaynaklandıgını": 1247,
      "##7'den": 1248,
      "##ru": 1249,
      "▁isim": 1250,
      "▁ilgilenmedi": 1251,
      "▁mi": 1252,
      "▁degist": 1253,
      "▁aynada": 1254,
      "▁kasab": 1255,
      "▁dinlenmek": 1256,
      "▁ruh": 1257,
      "##alle": 1258,
      "##5'te": 1259,
      "▁boyle": 1260,
      "▁bık": 1261,
      "##tel": 1262,
      "##4'te": 1263,
      "▁yakinlarima": 1264,
      "##cb": 1265,
      "##uvarı": 1266,
      "▁oakland'a": 1267,
      "▁ardından": 1268,
      "▁dib": 1269,
      "##eligini": 1270,
      "▁oynar": 1271,
      "▁uz": 1272,
      "▁hij": 1273,
      "▁kontrolunu": 1274,
      "##lugunde": 1275,
      "##/8'e": 1276,
      "▁nag": 1277,
      "▁olmaktan": 1278,
      "▁cıktı": 1279,
      "▁neyin": 1280,
      "▁hazret": 1281,
      "▁ustunluk": 1282,
      "▁cel": 1283,
      "▁havasında": 1284,
      "##osun": 1285,
      "▁oldugun": 1286,
      "▁hacet": 1287,
      "▁mandır": 1288,
      "▁sayısının": 1289,
      "▁kayanın": 1290,
      "▁hayvanlar": 1291,
      "##ordu": 1292,
      "▁kalf": 1293,
      "▁istil": 1294,
      "##liy": 1295,
      "▁savun": 1296,
      "▁hakk": 1297,
      "▁balik": 1298,
      "▁tarzı": 1299,
      "##isler": 1300,
      "▁suresi": 1301,
      "##ılmasını": 1302,
      "##osunun": 1303,
      "▁bicimde": 1304,
      "▁kıyısında": 1305,
      "▁kadir": 1306,
      "▁anahtarı": 1307,
      "##yabilir": 1308,
      "▁kalabalikti": 1309,
      "▁tetik": 1310,
      "▁protokol": 1311,
      "▁neti": 1312,
      "##ksa": 1313,
      "▁almanya": 1314,
      "##ınıza": 1315,
      "##ucu": 1316,
      "▁gecekon": 1317,
      "▁muzigi": 1318,
      "▁nerede": 1319,
      "▁isimler": 1320,
      "##=": 1321,
      "▁kasık": 1322,
      "▁sapkası": 1323,
      "▁baskent": 1324,
      "▁bardagı": 1325,
      "▁tehdit": 1326,
      "##lıkların": 1327,
      "##dıkca": 1328,
      "▁gurultuye": 1329,
      "▁baslayacagını": 1330,
      "▁ulkemiz": 1331,
      "▁kalacagını": 1332,
      "▁olmayacagını": 1333,
      "▁cumhuriyeti": 1334,
      "##lardan": 1335,
      "▁yayım": 1336,
      "##emiz": 1337,
      "▁pisirin": 1338,
      "##diginin": 1339,
      "##beye": 1340,
      "▁ilgisizdi": 1341,
      "▁reformu": 1342,
      "▁planlarını": 1343,
      "▁oldugumuz": 1344,
      "##tuk": 1345,
      "▁tanım": 1346,
      "▁sanıyorum": 1347,
      "##os": 1348,
      "▁atı": 1349,
      "▁babadan": 1350,
      "▁muayene": 1351,
      "▁sosyalizm": 1352,
      "▁hızı": 1353,
      "▁duskunlugu": 1354,
      "▁beyi": 1355,
      "▁yiyeceklerde": 1356,
      "▁bilez": 1357,
      "▁maas": 1358,
      "▁ekmek": 1359,
      "▁basın": 1360,
      "▁kupeler": 1361,
      "▁gununden": 1362,
      "##ati": 1363,
      "▁surucu": 1364,
      "##gimiz": 1365,
      "▁donemi": 1366,
      "▁vatandaslar": 1367,
      "##ıya": 1368,
      "▁payı": 1369,
      "▁oteli": 1370,
      "▁persembe": 1371,
      "▁kaldı": 1372,
      "▁hazırlıklar": 1373,
      "▁bitmek": 1374,
      "##dugune": 1375,
      "##ırı": 1376,
      "▁yukselen": 1377,
      "▁sadece": 1378,
      "▁doktorun": 1379,
      "i": 1380,
      "▁satısı": 1381,
      "▁lezzetsizdi": 1382,
      "##izasyon": 1383,
      "##engin": 1384,
      "▁yiy": 1385,
      "▁orgutu": 1386,
      "▁bogurt": 1387,
      "##ali": 1388,
      "##ekul": 1389,
      "▁hisselerde": 1390,
      "▁yemekleri": 1391,
      "▁sırada": 1392,
      "##cılıg": 1393,
      "▁odami": 1394,
      "▁calık": 1395,
      "▁sahs": 1396,
      "▁taleplerinin": 1397,
      "▁pound": 1398,
      "▁eline": 1399,
      "▁sekreter": 1400,
      "##iyordum": 1401,
      "▁piyasa": 1402,
      "▁bog": 1403,
      "▁catlak": 1404,
      "##hi": 1405,
      "▁kok": 1406,
      "▁ını": 1407,
      "▁istan": 1408,
      "▁kahv": 1409,
      "##aları": 1410,
      "▁aynı": 1411,
      "##keti": 1412,
      "##omosyon": 1413,
      "▁girince": 1414,
      "▁a.": 1415,
      "##ırtılar": 1416,
      "▁odasında": 1417,
      "##duz": 1418,
      "▁edebiyat": 1419,
      "▁avrupa": 1420,
      "##ıldıgı": 1421,
      "##lanmıstı": 1422,
      "▁nebze": 1423,
      "▁katildim": 1424,
      "▁milyarlar": 1425,
      "##lıklar": 1426,
      "▁basında": 1427,
      "##ıklar": 1428,
      "▁hadis": 1429,
      "##ısında": 1430,
      "▁gazetesi": 1431,
      "##danoz": 1432,
      "▁uzlas": 1433,
      "▁topar": 1434,
      "▁doktu": 1435,
      "▁dirsek": 1436,
      "##cesi": 1437,
      "▁fiili": 1438,
      "##0'a": 1439,
      "▁tamamlanması": 1440,
      "▁ozellik": 1441,
      "▁karnını": 1442,
      "▁mektub": 1443,
      "▁genclere": 1444,
      "▁tom": 1445,
      "##muyorum": 1446,
      "▁saglıgını": 1447,
      "▁sokakta": 1448,
      "▁kuyum": 1449,
      "▁vez": 1450,
      "##ls": 1451,
      "▁tor": 1452,
      "▁1000": 1453,
      "▁ilet": 1454,
      "▁36": 1455,
      "▁keb": 1456,
      "▁kompleksi": 1457,
      "▁hic": 1458,
      "▁yetistir": 1459,
      "▁kilim": 1460,
      "▁kisisel": 1461,
      "##tigini": 1462,
      "▁onlarda": 1463,
      "##lasması": 1464,
      "##ans": 1465,
      "▁tık": 1466,
      "▁gozlerle": 1467,
      "▁fonu": 1468,
      "▁alanı": 1469,
      "##iya": 1470,
      "▁destan": 1471,
      "▁kulakları": 1472,
      "▁gorusmelerin": 1473,
      "▁kagıd": 1474,
      "##musum": 1475,
      "▁gecer": 1476,
      "▁dısında": 1477,
      "▁itiraf": 1478,
      "▁sirketlerinden": 1479,
      "▁hip": 1480,
      "▁carda": 1481,
      "▁engellemek": 1482,
      "##etr": 1483,
      "##ley": 1484,
      "##eyi": 1485,
      "##lın": 1486,
      "▁sureligine": 1487,
      "▁yay": 1488,
      "▁onum": 1489,
      "##ıcı": 1490,
      "▁vuk": 1491,
      "▁ulu": 1492,
      "▁onar": 1493,
      "##ess": 1494,
      "▁moder": 1495,
      "▁tartısmaların": 1496,
      "▁gorevleri": 1497,
      "▁dolayı": 1498,
      "▁yazının": 1499,
      "▁mobilyalar": 1500,
      "▁konusmasını": 1501,
      "##ksiyon": 1502,
      "##meden": 1503,
      "▁tepsi": 1504,
      "##lek": 1505,
      "##iyet": 1506,
      "▁halkı": 1507,
      "▁ucusun": 1508,
      "▁fol": 1509,
      "▁sorgu": 1510,
      "▁perdelerini": 1511,
      "▁makinist": 1512,
      "##imler": 1513,
      "▁gonder": 1514,
      "##ibaren": 1515,
      "▁tarihte": 1516,
      ";": 1517,
      "▁istikrar": 1518,
      "##pan": 1519,
      "##ıydı": 1520,
      "▁temiz": 1521,
      "▁rekabeti": 1522,
      "▁lik": 1523,
      "▁gunumuzde": 1524,
      "▁ipotege": 1525,
      "▁icer": 1526,
      "▁etmektedir": 1527,
      "##diklerinde": 1528,
      "▁denen": 1529,
      "▁miydi": 1530,
      "▁dusunmek": 1531,
      "▁satıcılar": 1532,
      "▁hizmetin": 1533,
      "▁ile": 1534,
      "▁dakikadan": 1535,
      "##ill": 1536,
      "▁tehlik": 1537,
      "▁muf": 1538,
      "▁nedenler": 1539,
      "▁boks": 1540,
      "▁iskence": 1541,
      "▁sekil": 1542,
      "▁kala": 1543,
      "##dıklarını": 1544,
      "▁neh": 1545,
      "##dayım": 1546,
      "##lıydı": 1547,
      "##ısma": 1548,
      "▁ter": 1549,
      "▁kategor": 1550,
      "▁bakımı": 1551,
      "##inceye": 1552,
      "▁ph": 1553,
      "▁kata": 1554,
      "▁curuk": 1555,
      "▁yud": 1556,
      "▁dukkanı": 1557,
      "▁boyn": 1558,
      "▁sonundan": 1559,
      "##araya": 1560,
      "▁degistir": 1561,
      "▁gorunce": 1562,
      "▁baslayacak": 1563,
      "##'ya": 1564,
      "▁bilet": 1565,
      "▁mens": 1566,
      "▁girip": 1567,
      "▁duzene": 1568,
      "▁namus": 1569,
      "##1'den": 1570,
      "▁medeniyeti": 1571,
      "##lah": 1572,
      "▁pan": 1573,
      "##mıslar": 1574,
      "▁gaflet": 1575,
      "▁gas": 1576,
      "▁yabancilara": 1577,
      "▁istemez": 1578,
      "▁incelem": 1579,
      "##atik": 1580,
      "##edeki": 1581,
      "▁tavsiy": 1582,
      "▁zamankinden": 1583,
      "▁irtibat": 1584,
      "▁puan": 1585,
      "▁ayakk": 1586,
      "▁hukumeti": 1587,
      "▁biles": 1588,
      "##ice": 1589,
      "▁ilim": 1590,
      "##itten": 1591,
      "▁meyv": 1592,
      "▁sayisi": 1593,
      "▁yerinin": 1594,
      "▁ka": 1595,
      "▁acıdan": 1596,
      "▁unsuru": 1597,
      "##kum": 1598,
      "▁kop": 1599,
      "e": 1600,
      "▁kısmı": 1601,
      "▁daga": 1602,
      "▁erkekleri": 1603,
      "▁gittikce": 1604,
      "##arya": 1605,
      "▁cikiyordu": 1606,
      "▁yuzden": 1607,
      "▁gorev": 1608,
      "▁sual": 1609,
      "▁elci": 1610,
      "▁patiska": 1611,
      "▁amacı": 1612,
      "▁siyasi": 1613,
      "▁surat": 1614,
      "▁ayakları": 1615,
      "##uru": 1616,
      "▁yap": 1617,
      "▁degillerdi": 1618,
      "▁topluma": 1619,
      "##isiniz": 1620,
      "▁cocuklu": 1621,
      "▁anlatıyor": 1622,
      "▁hisselerine": 1623,
      "▁ilginc": 1624,
      "▁odulu": 1625,
      "▁ucusla": 1626,
      "▁kitap": 1627,
      "##ipler": 1628,
      "##sızca": 1629,
      "▁olumunden": 1630,
      "▁avantajı": 1631,
      "▁alıskanlık": 1632,
      "##yosu": 1633,
      "▁soyler": 1634,
      "▁basvuru": 1635,
      "▁vek": 1636,
      "▁geldim": 1637,
      "##turu": 1638,
      "▁dayanıs": 1639,
      "##kit": 1640,
      "▁tep": 1641,
      "##ikatur": 1642,
      "▁ince": 1643,
      "▁anlıslanabilirlik": 1644,
      "##ikti": 1645,
      "▁hulya": 1646,
      "##esi'nde": 1647,
      "▁otede": 1648,
      "▁atlet": 1649,
      "▁malın": 1650,
      "▁mukellef": 1651,
      "▁bera": 1652,
      "▁surer": 1653,
      "##unuzu": 1654,
      "▁gordug": 1655,
      "##emle": 1656,
      "▁bolgenin": 1657,
      "▁egilimleri": 1658,
      "▁gecmek": 1659,
      "▁mim": 1660,
      "##acıklar": 1661,
      "▁baglan": 1662,
      "▁islerini": 1663,
      "▁teshis": 1664,
      "▁sarf": 1665,
      "▁makin": 1666,
      "▁ekonomisi": 1667,
      "##satı": 1668,
      "▁ucusların": 1669,
      "▁ikinc": 1670,
      "##8": 1671,
      "▁busbutun": 1672,
      "▁olmuyor": 1673,
      "##lenme": 1674,
      "▁oturuyordu": 1675,
      "▁inc": 1676,
      "▁kızını": 1677,
      "▁ogretmen": 1678,
      "▁teslimat": 1679,
      "▁ahmet": 1680,
      "▁kardesinin": 1681,
      "▁meyvelerini": 1682,
      "▁sanık": 1683,
      "▁anda": 1684,
      "##let": 1685,
      "▁yakında": 1686,
      "▁vaka": 1687,
      "▁odaları": 1688,
      "▁cemaat": 1689,
      "▁kam": 1690,
      "▁tek": 1691,
      "▁diyerek": 1692,
      "▁benzet": 1693,
      "##alt": 1694,
      "##malar": 1695,
      "▁bahis": 1696,
      "▁her": 1697,
      "▁hizmet": 1698,
      "▁karton": 1699,
      "##piyat": 1700,
      "▁oranının": 1701,
      "▁yazılı": 1702,
      "▁istegi": 1703,
      "▁pusul": 1704,
      "##izm": 1705,
      "▁zemin": 1706,
      "▁alım-sat": 1707,
      "##men": 1708,
      "▁emirleri": 1709,
      "▁itibari": 1710,
      "▁otesi": 1711,
      "▁kalıp": 1712,
      "▁ulkelerden": 1713,
      "##yn": 1714,
      "▁tev": 1715,
      "▁kursu": 1716,
      "▁hatta": 1717,
      "▁sehri": 1718,
      "▁birahan": 1719,
      "▁siv": 1720,
      "▁detroit": 1721,
      "▁sakak": 1722,
      "##imizin": 1723,
      "▁bagı": 1724,
      "▁konusmak": 1725,
      "▁secimin": 1726,
      "▁kuslar": 1727,
      "▁kadınlardan": 1728,
      "▁continental": 1729,
      "▁ettim": 1730,
      "▁tak": 1731,
      "▁telefonla": 1732,
      "▁agrı": 1733,
      "▁ber": 1734,
      "##ble": 1735,
      "▁ex": 1736,
      "▁maliyetinin": 1737,
      "##acaklar": 1738,
      "▁sukun": 1739,
      "▁gayret": 1740,
      "##manlık": 1741,
      "▁cope": 1742,
      "▁atmayı": 1743,
      "##so": 1744,
      "▁seneden": 1745,
      "▁maden": 1746,
      "##ekk": 1747,
      "▁kez": 1748,
      "▁senet": 1749,
      "##duksiyon": 1750,
      "▁rit": 1751,
      "▁sekline": 1752,
      "▁louis": 1753,
      "▁yanı": 1754,
      "▁vb": 1755,
      "▁yut": 1756,
      "##metik": 1757,
      "▁sakaya": 1758,
      "##yal": 1759,
      "▁odunc": 1760,
      "##reti": 1761,
      "##ırak": 1762,
      "▁mucadele": 1763,
      "▁kardesimin": 1764,
      "▁nar": 1765,
      "▁baslangıc": 1766,
      "▁seyle": 1767,
      "▁okur": 1768,
      "▁komun": 1769,
      "▁cocuklarının": 1770,
      "##tık": 1771,
      "▁istiyordu": 1772,
      "▁rakipler": 1773,
      "▁diregi": 1774,
      "▁yardım": 1775,
      "▁karsiligi": 1776,
      "##ununun": 1777,
      "▁fed": 1778,
      "▁bogazici": 1779,
      "▁etmek": 1780,
      "▁teseb": 1781,
      "▁bilimin": 1782,
      "▁isimlerini": 1783,
      "##ence": 1784,
      "▁hosuma": 1785,
      "▁rivayet": 1786,
      "##kon": 1787,
      "##izme": 1788,
      "▁okula": 1789,
      "▁kord": 1790,
      "▁zarf": 1791,
      "##alarda": 1792,
      "▁takipsizlik": 1793,
      "▁kisiyle": 1794,
      "▁kayg": 1795,
      "▁kadın": 1796,
      "▁atar": 1797,
      "▁kemal": 1798,
      "▁kuralları": 1799,
      "▁rıhtım": 1800,
      "##ayacak": 1801,
      "▁cad": 1802,
      "▁cumhurb": 1803,
      "##liyor": 1804,
      "▁ailesini": 1805,
      "▁verileri": 1806,
      "▁cim": 1807,
      "##.9": 1808,
      "▁cizgi": 1809,
      "##6": 1810,
      "##uar": 1811,
      "▁gelisimi": 1812,
      "▁gorustuk": 1813,
      "▁kuvveti": 1814,
      "▁ont": 1815,
      "▁yagm": 1816,
      "▁yoluyla": 1817,
      "▁marj": 1818,
      "▁serp": 1819,
      "▁soyledik": 1820,
      "##lenmis": 1821,
      "▁temizdi": 1822,
      "▁golf": 1823,
      "##lit": 1824,
      "##ini": 1825,
      "▁halkalar": 1826,
      "▁bankaları": 1827,
      "▁muhtac": 1828,
      "▁kisiden": 1829,
      "##eratif": 1830,
      "▁sahipligi": 1831,
      "▁taks": 1832,
      "▁dı": 1833,
      "▁dev": 1834,
      "▁araclar": 1835,
      "▁kampanyası": 1836,
      "##esim": 1837,
      "▁kisilere": 1838,
      "▁uzan": 1839,
      "##ugun": 1840,
      "▁agac": 1841,
      "##gre": 1842,
      "▁herkese": 1843,
      "▁gayri": 1844,
      "▁faci": 1845,
      "▁dusuncenin": 1846,
      "▁gormek": 1847,
      "▁pazar": 1848,
      "▁perdeleri": 1849,
      "▁nere": 1850,
      "▁ahkam": 1851,
      "▁kavram": 1852,
      "▁angel": 1853,
      "▁net": 1854,
      "▁cadır": 1855,
      "##lardır": 1856,
      "▁gelgelelim": 1857,
      "▁hicbir": 1858,
      "▁kosar": 1859,
      "##liydi": 1860,
      "▁onemini": 1861,
      "▁al": 1862,
      "▁sız": 1863,
      "▁koyun": 1864,
      "##cuları": 1865,
      "##derek": 1866,
      "##ılmak": 1867,
      "▁dusmus": 1868,
      "▁kons": 1869,
      "▁niye": 1870,
      "▁fasulyesi": 1871,
      "▁turnuv": 1872,
      "▁ozellikle": 1873,
      "▁istasyon": 1874,
      "▁frans": 1875,
      "▁maglub": 1876,
      "▁islerine": 1877,
      "▁istikamet": 1878,
      "▁traf": 1879,
      "▁suruleri": 1880,
      "▁topraktan": 1881,
      "▁mahkeme": 1882,
      "▁sarhos": 1883,
      "▁sırtından": 1884,
      "▁sebepleri": 1885,
      "▁pozisyon": 1886,
      "▁aksam": 1887,
      "##alı": 1888,
      "▁daire": 1889,
      "▁birlestir": 1890,
      "▁belirterek": 1891,
      "▁kumsali": 1892,
      "▁ise": 1893,
      "▁yabanci": 1894,
      "▁kızgınlık": 1895,
      "▁samar": 1896,
      "▁likidit": 1897,
      "##'i": 1898,
      "▁paranin": 1899,
      "▁muhafaz": 1900,
      "▁binalar": 1901,
      "▁odemesini": 1902,
      "##itlik": 1903,
      "▁reklamların": 1904,
      "▁sonucu": 1905,
      "▁pers": 1906,
      "##isk": 1907,
      "##indeki": 1908,
      "##asi": 1909,
      "▁finan": 1910,
      "▁francisco'ya": 1911,
      "▁bufe": 1912,
      "##bur": 1913,
      "▁cekici": 1914,
      "##'la": 1915,
      "▁cevabı": 1916,
      "▁satımı": 1917,
      "▁mevdu": 1918,
      "▁geriye": 1919,
      "▁alcak": 1920,
      "▁mesele": 1921,
      "▁surec": 1922,
      "▁kendimde": 1923,
      "▁kapılarını": 1924,
      "##bire": 1925,
      "▁kuvv": 1926,
      "##eciler": 1927,
      "▁yargıclar": 1928,
      "▁minn": 1929,
      "##lugunu": 1930,
      "▁isra": 1931,
      "▁tahr": 1932,
      "▁hid": 1933,
      "##yetli": 1934,
      "##ardan": 1935,
      "##lay": 1936,
      "▁yansıtıyor": 1937,
      "▁menk": 1938,
      "▁giderek": 1939,
      "##u'nun": 1940,
      "▁yanıt": 1941,
      "##abaz": 1942,
      "▁tahta": 1943,
      "▁ruy": 1944,
      "##eller": 1945,
      "▁donup": 1946,
      "▁tavrı": 1947,
      "▁''": 1948,
      "▁vardiy": 1949,
      "##ecik": 1950,
      "▁ucretine": 1951,
      "▁efendim": 1952,
      "▁ucakları": 1953,
      "▁uzerinden": 1954,
      "▁41": 1955,
      "▁oya": 1956,
      "▁harman": 1957,
      "##armıs": 1958,
      "▁cayı": 1959,
      "##alarındaki": 1960,
      "▁filmin": 1961,
      "▁biliyorum": 1962,
      "▁cizg": 1963,
      "##name": 1964,
      "▁birkac": 1965,
      "▁tutam": 1966,
      "▁bisik": 1967,
      "##'nden": 1968,
      "▁espri": 1969,
      "##ayıf": 1970,
      "##yen": 1971,
      "▁verdi": 1972,
      "##&": 1973,
      "▁pom": 1974,
      "▁olabilecegini": 1975,
      "▁gelmek": 1976,
      "▁and": 1977,
      "▁ek": 1978,
      "▁tehdid": 1979,
      "▁ilmin": 1980,
      "▁yasa": 1981,
      "▁polit": 1982,
      "▁yaratıc": 1983,
      "▁gelis": 1984,
      "▁reper": 1985,
      "▁lafa": 1986,
      "▁war": 1987,
      "▁olayların": 1988,
      "##meler": 1989,
      "▁soylemis": 1990,
      "▁paul": 1991,
      "▁yeryuzunun": 1992,
      "▁vesa": 1993,
      "##'le": 1994,
      "▁karısımı": 1995,
      "▁duvarlara": 1996,
      "▁maddelerin": 1997,
      "▁gercegin": 1998,
      "##ılıklar": 1999,
      "▁ayrılıp": 2000,
      "##uzdu": 2001,
      "##alarımızın": 2002,
      "▁guler": 2003,
      "▁yas": 2004,
      "▁1988'de": 2005,
      "##'nde": 2006,
      "▁hitap": 2007,
      "▁yurut": 2008,
      "▁odedi": 2009,
      "▁ucundan": 2010,
      "▁mayın": 2011,
      "▁kıyafet": 2012,
      "▁yıllarında": 2013,
      "##ılabilir": 2014,
      "##acagim": 2015,
      "▁ateste": 2016,
      "##/32": 2017,
      "▁deli": 2018,
      "▁alındı": 2019,
      "▁mevz": 2020,
      "▁yuruyordu": 2021,
      "▁tekrar": 2022,
      "▁kaynaklarına": 2023,
      "▁endustrileri": 2024,
      "▁moral": 2025,
      "▁hemsir": 2026,
      "▁houston": 2027,
      "▁dalgalanması": 2028,
      "▁keyf": 2029,
      "▁ondan": 2030,
      "▁nasıl": 2031,
      "##evizyon": 2032,
      "▁mahluk": 2033,
      "▁sahipler": 2034,
      "▁fiyatından": 2035,
      "▁komunistler": 2036,
      "##iligi": 2037,
      "▁yırt": 2038,
      "##gine": 2039,
      "##angi": 2040,
      "##lılıgı": 2041,
      "▁bankacılar": 2042,
      "##%": 2043,
      "##cemi": 2044,
      "▁nikah": 2045,
      "▁peyniri": 2046,
      "▁eyl": 2047,
      "▁teli": 2048,
      "##mma": 2049,
      "▁alınması": 2050,
      "▁panik": 2051,
      "▁tarafından": 2052,
      "▁finanse": 2053,
      "▁sogan": 2054,
      "▁ayıp": 2055,
      "▁halt": 2056,
      "##old": 2057,
      "▁orgu": 2058,
      "▁incir": 2059,
      "▁endeksleri": 2060,
      "▁dusurmek": 2061,
      "▁okuldan": 2062,
      "▁pencereleri": 2063,
      "▁ciftlik": 2064,
      "##mesinde": 2065,
      "▁patent": 2066,
      "▁kongr": 2067,
      "▁dusunmuyor": 2068,
      "▁ablam": 2069,
      "▁kactı": 2070,
      "▁satısın": 2071,
      "▁ogrendi": 2072,
      "▁ragmen": 2073,
      "▁nezaret": 2074,
      "▁sıh": 2075,
      "▁str": 2076,
      "##lım": 2077,
      "##umda": 2078,
      "▁getirileri": 2079,
      "##59": 2080,
      "▁vurgun": 2081,
      "▁geril": 2082,
      "##malıyız": 2083,
      "▁kab": 2084,
      "▁karsıl": 2085,
      "##isinden": 2086,
      "▁taslar": 2087,
      "▁yerler": 2088,
      "##anmak": 2089,
      "▁degisime": 2090,
      "▁imkanlar": 2091,
      "▁cocugum": 2092,
      "▁merdivenin": 2093,
      "▁kaldıgı": 2094,
      "▁sirk": 2095,
      "##nı": 2096,
      "▁biraz": 2097,
      "▁gomleg": 2098,
      "▁bulgur": 2099,
      "▁ilisk": 2100,
      "▁balıgı": 2101,
      "▁kıy": 2102,
      "▁aksamın": 2103,
      "▁yt": 2104,
      "##lik": 2105,
      "▁satmayı": 2106,
      "▁orn": 2107,
      "▁katkıda": 2108,
      "▁rej": 2109,
      "▁suren": 2110,
      "▁kıyamet": 2111,
      "▁cekiyordu": 2112,
      "##etin": 2113,
      "##usune": 2114,
      "##tıran": 2115,
      "▁merkezli": 2116,
      "▁siddetle": 2117,
      "▁6": 2118,
      "▁yukumluluk": 2119,
      "▁balıkcı": 2120,
      "##onik": 2121,
      "▁edemez": 2122,
      "▁hucre": 2123,
      "▁kenarına": 2124,
      "▁guzellikleri": 2125,
      "▁parcası": 2126,
      "##.": 2127,
      "▁hes": 2128,
      "▁37": 2129,
      "▁minder": 2130,
      "▁saunayi": 2131,
      "▁kerv": 2132,
      "▁bilimi": 2133,
      "##eceginin": 2134,
      "▁seviyelerde": 2135,
      "##k": 2136,
      "▁git": 2137,
      "##miyorum": 2138,
      "▁masalı": 2139,
      "▁hepsinin": 2140,
      "▁dr.": 2141,
      "##tig": 2142,
      "##tat": 2143,
      "▁ent": 2144,
      "▁turkuler": 2145,
      "##imet": 2146,
      "▁karanfil": 2147,
      "##eyim": 2148,
      "▁ols": 2149,
      "▁new": 2150,
      "##ord": 2151,
      "▁borsada": 2152,
      "▁burnunu": 2153,
      "##ehan": 2154,
      "##ettir": 2155,
      "▁alkıs": 2156,
      "▁mıs": 2157,
      "▁egilimi": 2158,
      "▁bulundu": 2159,
      "▁iktis": 2160,
      "##sulu": 2161,
      "▁filan": 2162,
      "##3'te": 2163,
      "▁evlilik": 2164,
      "▁magazalar": 2165,
      "▁kapılarında": 2166,
      "▁almayı": 2167,
      "▁parca": 2168,
      "▁aletler": 2169,
      "▁kasar": 2170,
      "▁site": 2171,
      "▁dilden": 2172,
      "▁endustri": 2173,
      "▁inek": 2174,
      "▁oynad": 2175,
      "▁istemedi": 2176,
      "▁model": 2177,
      "▁100'e": 2178,
      "▁oda": 2179,
      "▁lond": 2180,
      "▁derslerinde": 2181,
      "▁zavallının": 2182,
      "▁etrafında": 2183,
      "##ardı": 2184,
      "▁riskine": 2185,
      "##ens": 2186,
      "▁hıckır": 2187,
      "##tadır": 2188,
      "▁diyen": 2189,
      "▁kanıt": 2190,
      "##iyetli": 2191,
      "▁direksiyon": 2192,
      "▁san": 2193,
      "▁sokaklarında": 2194,
      "▁siyaset": 2195,
      "##aladıgını": 2196,
      "▁ulkeye": 2197,
      "▁kesin": 2198,
      "▁yok": 2199,
      "##ıl": 2200,
      "▁laborat": 2201,
      "▁saatte": 2202,
      "▁hizli": 2203,
      "▁titriyordu": 2204,
      "▁oakland'dan": 2205,
      "▁yanakları": 2206,
      "▁sozlerini": 2207,
      "▁gecelerde": 2208,
      "##iyordu": 2209,
      "▁tet": 2210,
      "▁cocuga": 2211,
      "▁kahvaltisi": 2212,
      "▁toplantı": 2213,
      "▁kaya": 2214,
      "##lamasının": 2215,
      "▁ediyordu": 2216,
      "▁refah": 2217,
      "▁elestiri": 2218,
      "##ecektim": 2219,
      "##okol": 2220,
      "▁ucaklar": 2221,
      "▁suc": 2222,
      "▁birtakım": 2223,
      "▁teskil": 2224,
      "▁sorunların": 2225,
      "▁yavaslama": 2226,
      "##luyor": 2227,
      "##ılırsa": 2228,
      "▁tepeden": 2229,
      "##ektif": 2230,
      "▁olmadıgına": 2231,
      "##egimizi": 2232,
      "▁kızlarla": 2233,
      "▁yapılacak": 2234,
      "▁tanıgı": 2235,
      "##edigini": 2236,
      "▁3\\/8": 2237,
      "▁temer": 2238,
      "▁planladıgını": 2239,
      "▁araplar": 2240,
      "##ahat": 2241,
      "▁otelden": 2242,
      "▁olanaklari": 2243,
      "▁bask": 2244,
      "▁hissediyor": 2245,
      "▁rota": 2246,
      "▁yatagı": 2247,
      "▁ornekler": 2248,
      "▁ahlak": 2249,
      "▁esyalar": 2250,
      "##ırlı": 2251,
      "##fet": 2252,
      "▁sikayet": 2253,
      "▁gorunuse": 2254,
      "▁bekler": 2255,
      "▁beden": 2256,
      "▁lezz": 2257,
      "▁aklının": 2258,
      "▁kullanmak": 2259,
      "▁oneririm": 2260,
      "▁konularda": 2261,
      "▁begendik": 2262,
      "▁beyden": 2263,
      "##ansiyon": 2264,
      "▁yemis": 2265,
      "▁goruntusu": 2266,
      "▁okumak": 2267,
      "▁pot": 2268,
      "▁ziyan": 2269,
      "##ayi": 2270,
      "▁iddialar": 2271,
      "▁bere": 2272,
      "▁tadı": 2273,
      "▁pak": 2274,
      "▁10": 2275,
      "▁banka": 2276,
      "▁ikti": 2277,
      "▁yapıt": 2278,
      "▁ai": 2279,
      "##eklen": 2280,
      "##oh": 2281,
      "##lerden": 2282,
      "▁katılımcı": 2283,
      "▁sirketinden": 2284,
      "##lılıg": 2285,
      "▁taraf": 2286,
      "▁direk": 2287,
      "▁yelpaz": 2288,
      "##estr": 2289,
      "▁muc": 2290,
      "▁partn": 2291,
      "##?": 2292,
      "▁ipotek": 2293,
      "##lıp": 2294,
      "▁asist": 2295,
      "▁etleri": 2296,
      "##landır": 2297,
      "##abilir": 2298,
      "▁inan": 2299,
      "##lug": 2300,
      "▁dususle": 2301,
      "▁alıcıları": 2302,
      "##arını": 2303,
      "##tıras": 2304,
      "▁sınıfa": 2305,
      "##inlere": 2306,
      "▁etek": 2307,
      "##juv": 2308,
      "##dılar": 2309,
      "##ugunda": 2310,
      "▁#": 2311,
      "▁alım-satım": 2312,
      "▁anayas": 2313,
      "▁eksik": 2314,
      "▁olmay": 2315,
      "▁tarifeleri": 2316,
      "▁hi": 2317,
      "##lanta": 2318,
      "▁dostlar": 2319,
      "▁ihal": 2320,
      "▁yurd": 2321,
      "▁musluman": 2322,
      "▁vurgu": 2323,
      "▁did": 2324,
      "▁cal": 2325,
      "##lamasına": 2326,
      "▁kizim": 2327,
      "##dukten": 2328,
      "▁spekulasyonlar": 2329,
      "▁aln": 2330,
      "▁zinc": 2331,
      "▁teklifini": 2332,
      "▁birimin": 2333,
      "▁namına": 2334,
      "▁buhar": 2335,
      "▁duygularını": 2336,
      "▁ordunun": 2337,
      "▁evladı": 2338,
      "##indir": 2339,
      "▁annesini": 2340,
      "▁sanırım": 2341,
      "▁cantasında": 2342,
      "▁pasaport": 2343,
      "##diklerini": 2344,
      "▁acil": 2345,
      "▁ugr": 2346,
      "▁misafirimize": 2347,
      "▁francisco'dan": 2348,
      "▁caddeye": 2349,
      "##siz": 2350,
      "▁jur": 2351,
      "▁tuk": 2352,
      "▁pet": 2353,
      "▁dist": 2354,
      "▁yuklen": 2355,
      "▁kapıda": 2356,
      "▁salona": 2357,
      "▁ipotekler": 2358,
      "▁dam": 2359,
      "▁oksuruk": 2360,
      "▁sirkette": 2361,
      "▁dayanık": 2362,
      "▁anlamını": 2363,
      "▁imalatcısı": 2364,
      "##ost": 2365,
      "▁sini": 2366,
      "▁aracılı": 2367,
      "▁ekib": 2368,
      "▁geciyordu": 2369,
      "▁yonlerden": 2370,
      "▁minibar": 2371,
      "▁kostek": 2372,
      "▁akıs": 2373,
      "▁ozur": 2374,
      "▁bildirim": 2375,
      "▁sendika": 2376,
      "▁dub": 2377,
      "##olis": 2378,
      "▁maliyeti": 2379,
      "##lendirme": 2380,
      "▁yasaya": 2381,
      "▁oncu": 2382,
      "▁dolasır": 2383,
      "##leyip": 2384,
      "▁bankanın": 2385,
      "▁adına": 2386,
      "▁kusu": 2387,
      "▁romanc": 2388,
      "▁ti": 2389,
      "▁memnun": 2390,
      "▁degilse": 2391,
      "▁kediyi": 2392,
      "▁kacırmak": 2393,
      "▁asker": 2394,
      "##medik": 2395,
      "▁emper": 2396,
      "▁varil": 2397,
      "▁yuks": 2398,
      "▁hesaba": 2399,
      "▁beklenenden": 2400,
      "##olo": 2401,
      "##usu": 2402,
      "▁hissine": 2403,
      "▁$": 2404,
      "▁feryat": 2405,
      "▁goren": 2406,
      "##memis": 2407,
      "##dıktan": 2408,
      "##enlere": 2409,
      "▁gorevine": 2410,
      "▁yemeklerin": 2411,
      "##uc": 2412,
      "▁almalar": 2413,
      "##ex": 2414,
      "▁kadrosu": 2415,
      "##usunu": 2416,
      "▁doviz": 2417,
      "▁televizyonu": 2418,
      "▁kofte": 2419,
      "▁otesinde": 2420,
      "##lasın": 2421,
      "▁istihbar": 2422,
      "▁gecen": 2423,
      "▁elektron": 2424,
      "▁dili": 2425,
      "##olojik": 2426,
      "##fer": 2427,
      "▁ıskarta": 2428,
      "▁baslarında": 2429,
      "▁hatıra": 2430,
      "##meye": 2431,
      "##atla": 2432,
      "##n": 2433,
      "▁karab": 2434,
      "##mıstır": 2435,
      "##anından": 2436,
      "▁benzer": 2437,
      "##aylon": 2438,
      "▁fikirler": 2439,
      "▁issizlik": 2440,
      "▁volta": 2441,
      "##arlandı": 2442,
      "▁albumu": 2443,
      "▁diego'dan": 2444,
      "▁derginin": 2445,
      "▁akrab": 2446,
      "##abiliyor": 2447,
      "##ilmisti": 2448,
      "▁gurultusu": 2449,
      "▁artıs": 2450,
      "▁kabın": 2451,
      "##tanı": 2452,
      "▁ayagında": 2453,
      "▁list": 2454,
      "▁sorunlarının": 2455,
      "▁nad": 2456,
      "##aralı": 2457,
      "▁za": 2458,
      "##-f": 2459,
      "▁maksat": 2460,
      "▁corb": 2461,
      "▁kucuktu": 2462,
      "##'de": 2463,
      "##iti": 2464,
      "##kez": 2465,
      "##etci": 2466,
      "##taj": 2467,
      "▁bilgilerini": 2468,
      "▁babasına": 2469,
      "▁sirketlere": 2470,
      "##dde": 2471,
      "▁konusmayı": 2472,
      "▁cesedi": 2473,
      "▁ikisini": 2474,
      "▁kılık": 2475,
      "##eksu": 2476,
      "▁mil": 2477,
      "▁konferans": 2478,
      "▁denir": 2479,
      "▁kırık": 2480,
      "▁brok": 2481,
      "▁suphe": 2482,
      "##mıstık": 2483,
      "▁mas": 2484,
      "▁yanl": 2485,
      "▁ogretim": 2486,
      "▁genel": 2487,
      "▁lezzetleri": 2488,
      "##bak": 2489,
      "▁plak": 2490,
      "##ulmesi": 2491,
      "##ydi": 2492,
      "▁gozunun": 2493,
      "▁teg": 2494,
      "▁deter": 2495,
      "▁dedikleri": 2496,
      "▁olmakla": 2497,
      "▁endustrisinin": 2498,
      "▁tahvillerin": 2499,
      "##elemek": 2500,
      "▁resmi": 2501,
      "▁israil": 2502,
      "▁okyan": 2503,
      "▁onunuz": 2504,
      "▁sevgi": 2505,
      "▁guresci": 2506,
      "##dog": 2507,
      "▁ihalesi": 2508,
      "▁cesme": 2509,
      "##cıs": 2510,
      "▁ortaklıgı": 2511,
      "##aza": 2512,
      "▁ogl": 2513,
      "▁sıkıntısını": 2514,
      "▁ugul": 2515,
      "▁ayrılır": 2516,
      "▁kayaların": 2517,
      "▁actı": 2518,
      "▁tem": 2519,
      "▁papaz": 2520,
      "##cagı": 2521,
      "##urlar": 2522,
      "##bilir": 2523,
      "▁minimum": 2524,
      "▁ogretmeni": 2525,
      "▁seker": 2526,
      "##amızın": 2527,
      "▁personellerden": 2528,
      "##ınızda": 2529,
      "▁otobusun": 2530,
      "##fur": 2531,
      "▁sınıfın": 2532,
      "▁kendilig": 2533,
      "##estiler": 2534,
      "▁burum": 2535,
      "▁subat": 2536,
      "▁olayda": 2537,
      "▁belirtildi": 2538,
      "##gul": 2539,
      "▁agzından": 2540,
      "▁tohumları": 2541,
      "▁olası": 2542,
      "▁izni": 2543,
      "▁halb": 2544,
      "▁terzi": 2545,
      "▁ekip": 2546,
      "▁cogunun": 2547,
      "▁itfa": 2548,
      "▁ortalam": 2549,
      "▁bildir": 2550,
      "##duguna": 2551,
      "##unlu": 2552,
      "▁eylemi": 2553,
      "##gi": 2554,
      "▁gozlu": 2555,
      "▁nizam": 2556,
      "##ilar": 2557,
      "##iden": 2558,
      "▁teblig": 2559,
      "##memi": 2560,
      "▁yıllık": 2561,
      "##layacagını": 2562,
      "▁etk": 2563,
      "▁sevkiyat": 2564,
      "▁dikis": 2565,
      "▁oyle": 2566,
      "▁58": 2567,
      "##asındaki": 2568,
      "##itraj": 2569,
      "▁dekoru": 2570,
      "▁projeleri": 2571,
      "##lastır": 2572,
      "▁seylere": 2573,
      "▁koltuklar": 2574,
      "▁onunla": 2575,
      "▁sıcaklık": 2576,
      "▁2.4": 2577,
      "▁elle": 2578,
      "▁yoktur": 2579,
      "##erli": 2580,
      "▁bonoları": 2581,
      "##lama": 2582,
      "▁madem": 2583,
      "▁portf": 2584,
      "▁saka": 2585,
      "##mıyla": 2586,
      "##ılımı": 2587,
      "▁yuzbası": 2588,
      "▁gazoz": 2589,
      "▁mukav": 2590,
      "▁idar": 2591,
      "##rap": 2592,
      "▁dusuncesini": 2593,
      "▁izn": 2594,
      "▁randev": 2595,
      "##lendirmek": 2596,
      "▁sıgın": 2597,
      "▁kırlangıc": 2598,
      "▁th": 2599,
      "##atıcı": 2600,
      "▁yatagına": 2601,
      "##ilen": 2602,
      "▁yarattı": 2603,
      "▁sipar": 2604,
      "▁cekilm": 2605,
      "▁balıklar": 2606,
      "##ont": 2607,
      "##usunden": 2608,
      "▁baslayan": 2609,
      "##un": 2610,
      "▁muhafazakar": 2611,
      "▁hotel": 2612,
      "##emin": 2613,
      "▁olume": 2614,
      "▁mulkiyet": 2615,
      "▁yargıcı": 2616,
      "▁kası": 2617,
      "▁dahiliye": 2618,
      "▁mes": 2619,
      "##unlar": 2620,
      "▁gerceklik": 2621,
      "▁yetmis": 2622,
      "##emezsiniz": 2623,
      "▁57": 2624,
      "▁serisi": 2625,
      "##elerce": 2626,
      "##nc": 2627,
      "▁bire": 2628,
      "▁inis": 2629,
      "▁hosg": 2630,
      "▁evimizde": 2631,
      "##bab": 2632,
      "##uk": 2633,
      "▁han": 2634,
      "▁hayatın": 2635,
      "▁hafiflet": 2636,
      "▁guzelim": 2637,
      "▁ayaklarının": 2638,
      "▁gag": 2639,
      "##reet": 2640,
      "▁yıldızı": 2641,
      "▁edi": 2642,
      "▁verildi": 2643,
      "##etik": 2644,
      "▁diktator": 2645,
      "▁muttef": 2646,
      "▁nabz": 2647,
      "##emez": 2648,
      "▁asam": 2649,
      "▁kazancını": 2650,
      "▁bono": 2651,
      "▁fener": 2652,
      "▁islemci": 2653,
      "##nost": 2654,
      "▁sorunu": 2655,
      "▁geldi": 2656,
      "▁duzenlem": 2657,
      "▁yasayıs": 2658,
      "▁kultur": 2659,
      "▁kahvehan": 2660,
      "##ezi": 2661,
      "##nuz": 2662,
      "▁gay": 2663,
      "▁yaslar": 2664,
      "##eleme": 2665,
      "▁havalimanı'na": 2666,
      "▁ucusuna": 2667,
      "▁ayrılmak": 2668,
      "▁suruk": 2669,
      "▁emperyalizm": 2670,
      "▁yapacagını": 2671,
      "▁erkegin": 2672,
      "##izlik": 2673,
      "g": 2674,
      "##ahi": 2675,
      "##lali": 2676,
      "▁ustlen": 2677,
      "▁taahh": 2678,
      "▁turde": 2679,
      "##ate": 2680,
      "##yım": 2681,
      "▁kendilerine": 2682,
      "▁esnaf": 2683,
      "▁columbia": 2684,
      "▁mevduat": 2685,
      "▁guzeli": 2686,
      "▁adamla": 2687,
      "▁lynch": 2688,
      "##lesi": 2689,
      "▁y": 2690,
      "▁dep": 2691,
      "▁adama": 2692,
      "▁gezegen": 2693,
      "▁yasları": 2694,
      "▁s": 2695,
      "▁hazırladı": 2696,
      "##ala": 2697,
      "▁cd": 2698,
      "▁koylerde": 2699,
      "##ırtıcı": 2700,
      "▁havaalanı'na": 2701,
      "##s": 2702,
      "▁62": 2703,
      "▁huzun": 2704,
      "▁mend": 2705,
      "▁palas": 2706,
      "▁camı": 2707,
      "▁kredilerin": 2708,
      "▁mısır": 2709,
      "▁sıralarda": 2710,
      "▁tefer": 2711,
      "▁destek": 2712,
      "##oj": 2713,
      "▁yalı": 2714,
      "▁ortamı": 2715,
      "##neti": 2716,
      "▁psikiyatri": 2717,
      "▁teor": 2718,
      "##ane": 2719,
      "▁2.5": 2720,
      "▁vaat": 2721,
      "##mamız": 2722,
      "▁katlı": 2723,
      "▁ayrılık": 2724,
      "▁sorununun": 2725,
      "▁dalgalar": 2726,
      "▁toplantıda": 2727,
      "▁yapacak": 2728,
      "▁elestirmen": 2729,
      "▁kalitede": 2730,
      "▁ozgur": 2731,
      "▁donemine": 2732,
      "▁tesir": 2733,
      "##kin": 2734,
      "▁hosgoru": 2735,
      "##lere": 2736,
      "▁temsilcisi": 2737,
      "##tern": 2738,
      "▁elma": 2739,
      "▁yabanc": 2740,
      "▁sirketlerden": 2741,
      "##maca": 2742,
      "▁durumlarda": 2743,
      "▁havaalan": 2744,
      "▁marangoz": 2745,
      "##emli": 2746,
      "▁malz": 2747,
      "▁acıl": 2748,
      "▁itibariyle": 2749,
      "▁mavisi": 2750,
      "▁kral": 2751,
      "##amayacagını": 2752,
      "▁ucagının": 2753,
      "##ile": 2754,
      "▁zav": 2755,
      "##ad": 2756,
      "▁tuketici": 2757,
      "▁yıllarca": 2758,
      "▁yaptir": 2759,
      "##luler": 2760,
      "▁kapali": 2761,
      "▁yasamında": 2762,
      "▁patatesleri": 2763,
      "▁bolumde": 2764,
      "##lerisi": 2765,
      "▁varlıkları": 2766,
      "▁surdurdu": 2767,
      "▁deneyler": 2768,
      "▁mukemm": 2769,
      "▁hizmetinden": 2770,
      "##gara": 2771,
      "▁piyasasının": 2772,
      "▁etegi": 2773,
      "##anya": 2774,
      "▁omru": 2775,
      "##ksan": 2776,
      "##untu": 2777,
      "▁bahtiyar": 2778,
      "▁kuralların": 2779,
      "▁musterinin": 2780,
      "▁gecirir": 2781,
      "▁rahatti": 2782,
      "##rih": 2783,
      "▁par": 2784,
      "▁herhal": 2785,
      "##bac": 2786,
      "##tili": 2787,
      "##ılıgını": 2788,
      "▁sistemine": 2789,
      "▁bilgisini": 2790,
      "▁acan": 2791,
      "##ata": 2792,
      "▁yalan": 2793,
      "▁degisiklikler": 2794,
      "▁kalsın": 2795,
      "##esem": 2796,
      "▁insanog": 2797,
      "▁yur": 2798,
      "▁islemlere": 2799,
      "##isiydi": 2800,
      "▁edemey": 2801,
      "##bere": 2802,
      "##54": 2803,
      "▁kontrol": 2804,
      "▁idare": 2805,
      "▁sh": 2806,
      "▁zorunda": 2807,
      "##izma": 2808,
      "▁yasama": 2809,
      "▁birbirimizi": 2810,
      "▁delikanl": 2811,
      "▁basarili": 2812,
      "##bası": 2813,
      "▁devrim": 2814,
      "▁pittsburgh": 2815,
      "▁tarh": 2816,
      "▁cocugunun": 2817,
      "▁patronu": 2818,
      "▁peyn": 2819,
      "▁harf": 2820,
      "▁bugunden": 2821,
      "##cılarının": 2822,
      "▁madam": 2823,
      "▁yemeni": 2824,
      "▁baba": 2825,
      "▁kutup": 2826,
      "▁hostes": 2827,
      "##larla": 2828,
      "▁sıkınt": 2829,
      "##guna": 2830,
      "##orta": 2831,
      "▁denizciler": 2832,
      "▁ata": 2833,
      "▁zavall": 2834,
      "▁altındaki": 2835,
      "▁tuttum": 2836,
      "▁sarkı": 2837,
      "▁alnının": 2838,
      "▁hokk": 2839,
      "▁merhal": 2840,
      "▁degis": 2841,
      "▁yoluna": 2842,
      "▁golgesi": 2843,
      "##dular": 2844,
      "▁muhabir": 2845,
      "▁uzer": 2846,
      "▁golg": 2847,
      "▁aktarmasız": 2848,
      "▁olmadı": 2849,
      "##sıp": 2850,
      "##lerimizin": 2851,
      "▁bilgil": 2852,
      "▁gelirin": 2853,
      "▁segment": 2854,
      "##tesi": 2855,
      "▁1980'lerin": 2856,
      "▁cerceveyi": 2857,
      "▁kakao": 2858,
      "▁ibar": 2859,
      "▁partinin": 2860,
      "▁ayrıntıları": 2861,
      "▁amc": 2862,
      "##kart": 2863,
      "▁kılıc": 2864,
      "▁derecelen": 2865,
      "▁beygir": 2866,
      "##.5'e": 2867,
      "▁gizem": 2868,
      "▁muzaker": 2869,
      "##.8": 2870,
      "▁g": 2871,
      "▁yukse": 2872,
      "▁po": 2873,
      "▁planı": 2874,
      "##malıyım": 2875,
      "▁turdan": 2876,
      "▁yıllarda": 2877,
      "▁avru": 2878,
      "▁onumuzde": 2879,
      "▁tavır": 2880,
      "##ncak": 2881,
      "▁bic": 2882,
      "▁gosteren": 2883,
      "##yıp": 2884,
      "##eyn": 2885,
      "▁eylul": 2886,
      "▁11": 2887,
      "##sizdi": 2888,
      "▁oldular": 2889,
      "▁kuyruk": 2890,
      "▁ingiltere": 2891,
      "▁sasırtıcı": 2892,
      "▁seviyesinde": 2893,
      "##ayık": 2894,
      "▁aza": 2895,
      "##teri": 2896,
      "▁sansur": 2897,
      "▁zar": 2898,
      "▁oldugumu": 2899,
      "##'deki": 2900,
      "▁islemini": 2901,
      "##sap": 2902,
      "▁secimler": 2903,
      "▁hab": 2904,
      "##ıgına": 2905,
      "▁emisyon": 2906,
      "▁yazısı": 2907,
      "▁rak": 2908,
      "##ucc": 2909,
      "▁bonolar": 2910,
      "▁fazla": 2911,
      "▁kahvenin": 2912,
      "##ılmasına": 2913,
      "▁elleriyle": 2914,
      "▁katına": 2915,
      "##p": 2916,
      "▁eyleme": 2917,
      "▁gelistiri": 2918,
      "▁derslerine": 2919,
      "##chell": 2920,
      "▁aldigim": 2921,
      "##yol": 2922,
      "▁durumuna": 2923,
      "##igi": 2924,
      "▁hizmetler": 2925,
      "▁ucusa": 2926,
      "##ograf": 2927,
      "##-": 2928,
      "▁valisi": 2929,
      "▁onerdi": 2930,
      "##ayım": 2931,
      "▁dudakları": 2932,
      "▁avucuna": 2933,
      "▁yenic": 2934,
      "▁korumak": 2935,
      "▁misafirleri": 2936,
      "▁gurur": 2937,
      "▁turlar": 2938,
      "▁garant": 2939,
      "▁sacları": 2940,
      "▁$'dan": 2941,
      "▁cıkıs": 2942,
      "##acaat": 2943,
      "##dadı": 2944,
      "▁degerlendir": 2945,
      "▁artır": 2946,
      "▁kazanclarını": 2947,
      "▁tırn": 2948,
      "▁sıv": 2949,
      "▁evden": 2950,
      "▁48": 2951,
      "▁zihninde": 2952,
      "##dıkları": 2953,
      "▁temmuzda": 2954,
      "▁tepsiye": 2955,
      "##>": 2956,
      "##ebilecegi": 2957,
      "##ımızın": 2958,
      "▁icerde": 2959,
      "▁ucuslarını": 2960,
      "▁ciddiye": 2961,
      "▁sip": 2962,
      "▁fizik": 2963,
      "▁damar": 2964,
      "▁ihtiyacımız": 2965,
      "▁dumanı": 2966,
      "▁dc'den": 2967,
      "▁sırayla": 2968,
      "▁luks": 2969,
      "▁peki": 2970,
      "▁tabir": 2971,
      "▁bugun": 2972,
      "▁uyarı": 2973,
      "▁hayali": 2974,
      "▁mekteb": 2975,
      "##ımdan": 2976,
      "▁oran": 2977,
      "▁var": 2978,
      "▁toplum": 2979,
      "▁phoeni": 2980,
      "▁tasarı": 2981,
      "▁mutfagın": 2982,
      "▁yunus": 2983,
      "▁karmasık": 2984,
      "▁kararın": 2985,
      "▁gazeteciler": 2986,
      "▁pekmez": 2987,
      "▁kurulunda": 2988,
      "▁egemen": 2989,
      "▁bası": 2990,
      "##msal": 2991,
      "▁gerci": 2992,
      "▁charl": 2993,
      "▁av": 2994,
      "##inize": 2995,
      "▁cagrı": 2996,
      "##afet": 2997,
      "▁yepyeni": 2998,
      "##ukle": 2999,
      "▁nedenlerden": 3000,
      "▁bolgeyi": 3001,
      "▁teraz": 3002,
      "▁cap": 3003,
      "##lerdeki": 3004,
      "##lum": 3005,
      "▁yataklar": 3006,
      "▁anladım": 3007,
      "▁sozlesmeler": 3008,
      "▁hın": 3009,
      "▁amaca": 3010,
      "▁birey": 3011,
      "▁planda": 3012,
      "▁teyze": 3013,
      "▁dayalı": 3014,
      "▁ailelerin": 3015,
      "▁kale": 3016,
      "##ilendir": 3017,
      "▁taf": 3018,
      "##cok": 3019,
      "▁sidde": 3020,
      "▁tohum": 3021,
      "##telik": 3022,
      "▁mendil": 3023,
      "▁tasa": 3024,
      "▁getirdi": 3025,
      "▁karam": 3026,
      "▁sid": 3027,
      "▁odasi": 3028,
      "▁zuh": 3029,
      "▁teknolojiye": 3030,
      "##tası": 3031,
      "▁icerir": 3032,
      "▁anı": 3033,
      "▁bakısları": 3034,
      "▁polon": 3035,
      "▁ucusu": 3036,
      "▁okumaya": 3037,
      "▁olagand": 3038,
      "##up": 3039,
      "▁butc": 3040,
      "▁guleryuzluydu": 3041,
      "▁goreve": 3042,
      "##ıldıgını": 3043,
      "▁sovyet": 3044,
      "##iyatri": 3045,
      "▁bulunur": 3046,
      "##ktu": 3047,
      "▁fırında": 3048,
      "▁dakikasında": 3049,
      "▁sor": 3050,
      "##izik": 3051,
      "##eleriyle": 3052,
      "▁dayanısma": 3053,
      "▁gorunusu": 3054,
      "▁parcaya": 3055,
      "▁basımda": 3056,
      "▁altinda": 3057,
      "##lasarak": 3058,
      "▁inter": 3059,
      "▁nazaran": 3060,
      "▁kadınları": 3061,
      "▁savunu": 3062,
      "▁cıkmak": 3063,
      "▁tasıdı": 3064,
      "▁biz": 3065,
      "▁masanın": 3066,
      "▁boy": 3067,
      "##'yi": 3068,
      "▁cıkarmaya": 3069,
      "▁agzının": 3070,
      "##aklık": 3071,
      "▁agustos": 3072,
      "##larıyla": 3073,
      "▁caddeyi": 3074,
      "▁birlik": 3075,
      "##eci": 3076,
      "▁yalnızlık": 3077,
      "##lasa": 3078,
      "▁kend": 3079,
      "##ban": 3080,
      "▁ra": 3081,
      "▁acık": 3082,
      "▁avukatlar": 3083,
      "▁fenerleri": 3084,
      "p": 3085,
      "##sızlık": 3086,
      "▁senato": 3087,
      "▁ruya": 3088,
      "▁gitar": 3089,
      "▁dogrusunu": 3090,
      "▁kadınlar": 3091,
      "▁vefat": 3092,
      "▁kus": 3093,
      "▁haftalık": 3094,
      "▁mumk": 3095,
      "##log": 3096,
      "▁varlıga": 3097,
      "▁curut": 3098,
      "▁kullanıyor": 3099,
      "▁muteahh": 3100,
      "##ilerini": 3101,
      "▁alakaliydi": 3102,
      "▁hizmetlerinden": 3103,
      "##acak": 3104,
      "▁emlak": 3105,
      "▁oynadıgını": 3106,
      "▁olurdu": 3107,
      "▁avlu": 3108,
      "##ud": 3109,
      "▁hakkinda": 3110,
      "▁birbirler": 3111,
      "▁dizginleri": 3112,
      "##asyon": 3113,
      "##ıver": 3114,
      "▁muhend": 3115,
      "▁kalbine": 3116,
      "▁ucusunu": 3117,
      "▁tasavv": 3118,
      "▁yokusu": 3119,
      "##ememis": 3120,
      "▁koc": 3121,
      "▁kanıtları": 3122,
      "▁kokusunu": 3123,
      "▁lutfen": 3124,
      "▁olabilir": 3125,
      "▁tamamladı": 3126,
      "▁suz": 3127,
      "▁musteriler": 3128,
      "##ırt": 3129,
      "▁giderler": 3130,
      "▁yakası": 3131,
      "▁tozu": 3132,
      "▁saclarına": 3133,
      "▁rus": 3134,
      "▁acıklanmadı": 3135,
      "##suzlugu": 3136,
      "##masında": 3137,
      "▁1.": 3138,
      "##ılıyordu": 3139,
      "##mesi": 3140,
      "▁nus": 3141,
      "##culugu": 3142,
      "▁tasar": 3143,
      "▁benden": 3144,
      "▁risk": 3145,
      "##urn": 3146,
      "▁olusturmak": 3147,
      "▁hınc": 3148,
      "▁musterilere": 3149,
      "##ıc": 3150,
      "▁barısı": 3151,
      "##etini": 3152,
      "##'yı": 3153,
      "▁kolayca": 3154,
      "▁listenin": 3155,
      "▁hukuka": 3156,
      "##gag": 3157,
      "▁burcu": 3158,
      "▁tesvik": 3159,
      "##agımı": 3160,
      "▁tavsiye": 3161,
      "▁sayısı": 3162,
      "▁hekim": 3163,
      "▁borclanma": 3164,
      "▁ıskar": 3165,
      "▁ceb": 3166,
      "▁hukuku": 3167,
      "▁anne": 3168,
      "▁fuz": 3169,
      "▁materyalizm": 3170,
      "##aseb": 3171,
      "▁1992": 3172,
      "##izden": 3173,
      "▁parcaları": 3174,
      "▁genislet": 3175,
      "▁degerlerine": 3176,
      "▁sandıg": 3177,
      "▁uyelerin": 3178,
      "▁sozlerine": 3179,
      "▁ulkesi": 3180,
      "##kce": 3181,
      "▁phil": 3182,
      "▁cey": 3183,
      "▁yemegine": 3184,
      "▁mahkemesinde": 3185,
      "▁zah": 3186,
      "▁oranı": 3187,
      "▁cerey": 3188,
      "##masın": 3189,
      "##ılmıs": 3190,
      "▁hak": 3191,
      "▁nazik": 3192,
      "▁istihbarat": 3193,
      "▁tetkik": 3194,
      "▁avrupalı": 3195,
      "##iyesini": 3196,
      "▁benz": 3197,
      "##anoz": 3198,
      "▁muhabiri": 3199,
      "▁1.7": 3200,
      "▁akl": 3201,
      "##oc": 3202,
      "▁hong": 3203,
      "▁ode": 3204,
      "▁trib": 3205,
      "##dugum": 3206,
      "▁alacaklılara": 3207,
      "▁aradan": 3208,
      "▁anlattı": 3209,
      "▁degildi": 3210,
      "##ultu": 3211,
      "▁evine": 3212,
      "▁ormanları": 3213,
      "▁ısıkları": 3214,
      "▁gosteri": 3215,
      "▁newark": 3216,
      "##kları": 3217,
      "▁donuste": 3218,
      "▁bolumune": 3219,
      "▁aynanın": 3220,
      "▁kartal": 3221,
      "▁dizustu": 3222,
      "▁balkon": 3223,
      "▁cm": 3224,
      "▁pahal": 3225,
      "▁orland": 3226,
      "▁yo": 3227,
      "▁1991'de": 3228,
      "##larımı": 3229,
      "▁ant": 3230,
      "▁kafayı": 3231,
      "▁soylenir": 3232,
      "▁ısıgında": 3233,
      "##lge": 3234,
      "▁secil": 3235,
      "▁loc": 3236,
      "▁arar": 3237,
      "##ların": 3238,
      "▁artırma": 3239,
      "▁saglar": 3240,
      "▁kalmadigim": 3241,
      "##ginde": 3242,
      "▁airlines'in": 3243,
      "▁soylemeye": 3244,
      "▁1989": 3245,
      "##tle": 3246,
      "▁gruplar": 3247,
      "_": 3248,
      "##egiyle": 3249,
      "▁ortalık": 3250,
      "##etle": 3251,
      "▁ureticisi": 3252,
      "▁dairesine": 3253,
      "▁inanmak": 3254,
      "##demli": 3255,
      "▁oyunun": 3256,
      "▁cumhurbaskanı": 3257,
      "##lerimin": 3258,
      "▁sers": 3259,
      "▁uzaklarda": 3260,
      "##esinin": 3261,
      "▁den": 3262,
      "▁yirmi": 3263,
      "##o'ya": 3264,
      "▁onayını": 3265,
      "▁obj": 3266,
      "▁pik": 3267,
      "▁tımar": 3268,
      "▁anlasması": 3269,
      "▁canavar": 3270,
      "##h": 3271,
      "▁yerel": 3272,
      "▁cıkmadı": 3273,
      "▁klima": 3274,
      "##ırtı": 3275,
      "▁suda": 3276,
      "▁futbolcu": 3277,
      "▁mikrofon": 3278,
      "▁dosyada": 3279,
      "▁planimiz": 3280,
      "▁kapıya": 3281,
      "▁vic": 3282,
      "##imden": 3283,
      "▁japonların": 3284,
      "##emon": 3285,
      "▁gizlemek": 3286,
      "##irim": 3287,
      "▁aral": 3288,
      "##etro": 3289,
      "▁deneyim": 3290,
      "▁kesinlik": 3291,
      "##inizi": 3292,
      "▁tezgahı": 3293,
      "▁elbise": 3294,
      "▁kitaplarda": 3295,
      "▁gozlerimin": 3296,
      "▁washington'dan": 3297,
      "▁entr": 3298,
      "▁milyondan": 3299,
      "▁duvara": 3300,
      "▁kat": 3301,
      "▁isletmeleri": 3302,
      "▁kestir": 3303,
      "▁panc": 3304,
      "▁sefere": 3305,
      "##fih": 3306,
      "▁tatb": 3307,
      "▁prosedur": 3308,
      "▁asklar": 3309,
      "▁kosul": 3310,
      "▁sonbaharı": 3311,
      "▁toronto": 3312,
      "▁gitmis": 3313,
      "▁gelenler": 3314,
      "▁menkul": 3315,
      "▁onlerinde": 3316,
      "##ilecek": 3317,
      "▁washington": 3318,
      "▁dısarıdan": 3319,
      "##cut": 3320,
      "▁at": 3321,
      "▁saglık": 3322,
      "##ville": 3323,
      "##ılıgına": 3324,
      "▁reh": 3325,
      "▁cul": 3326,
      "▁pey": 3327,
      "▁zir": 3328,
      "▁gomlegi": 3329,
      "▁ters": 3330,
      "▁sair": 3331,
      "▁...\"": 3332,
      "▁kuyu": 3333,
      "▁kediye": 3334,
      "▁bak": 3335,
      "▁oldu": 3336,
      "##erlik": 3337,
      "▁oyuncu": 3338,
      "▁saskın": 3339,
      "▁gan": 3340,
      "▁direkt": 3341,
      "▁yasamının": 3342,
      "▁rehberi": 3343,
      "##indeyiz": 3344,
      "##ilmesine": 3345,
      "▁yon": 3346,
      "▁din": 3347,
      "▁iyisi": 3348,
      "▁ihmal": 3349,
      "▁mı": 3350,
      "##ıdır": 3351,
      "##luga": 3352,
      "▁tahminini": 3353,
      "▁incel": 3354,
      "▁ucusta": 3355,
      "▁3/8": 3356,
      "▁baslamıs": 3357,
      "▁dor": 3358,
      "##ileb": 3359,
      "▁bulabil": 3360,
      "▁otele": 3361,
      "▁uretimin": 3362,
      "##jur": 3363,
      "▁malzem": 3364,
      "▁tufek": 3365,
      "▁uygundu": 3366,
      "▁cor": 3367,
      "▁pac": 3368,
      "▁haksızlık": 3369,
      "▁yaslarda": 3370,
      "▁plaj": 3371,
      "▁ekmekle": 3372,
      "▁eda": 3373,
      "▁secimleri": 3374,
      "##elli": 3375,
      "▁gunah": 3376,
      "▁istif": 3377,
      "▁sorunum": 3378,
      "▁acente": 3379,
      "##tlu": 3380,
      "▁onceki": 3381,
      "▁azalarak": 3382,
      "▁dagıtım": 3383,
      "▁iri": 3384,
      "▁cesmenin": 3385,
      "▁itibar": 3386,
      "▁irade": 3387,
      "▁limon": 3388,
      "▁ayrıntı": 3389,
      "?": 3390,
      "##yl": 3391,
      "▁icme": 3392,
      "▁yuzyılın": 3393,
      "##ebilirdi": 3394,
      "▁yukarı": 3395,
      "▁ardında": 3396,
      "▁gerektiriyor": 3397,
      "▁er": 3398,
      "▁vadeli": 3399,
      "▁almak": 3400,
      "##das": 3401,
      "▁ayna": 3402,
      "▁hemen": 3403,
      "##dugu": 3404,
      "▁yurdu": 3405,
      "▁baskanlıgında": 3406,
      "▁isbası": 3407,
      "▁satıs": 3408,
      "▁yiyeceklerin": 3409,
      "▁sekerleme": 3410,
      "##emsiz": 3411,
      "##abele": 3412,
      "▁basarılar": 3413,
      "▁seyler": 3414,
      "▁urunler": 3415,
      "$": 3416,
      "▁komitesi": 3417,
      "▁tasla": 3418,
      "▁patlıcan": 3419,
      "▁apartmanın": 3420,
      "##ey": 3421,
      "▁aracılıgıyla": 3422,
      "##agıyla": 3423,
      "▁tavsiyesi": 3424,
      "##hayet": 3425,
      "▁ne": 3426,
      "##itesi": 3427,
      "▁ihtiyacım": 3428,
      "▁hırsız": 3429,
      "##for": 3430,
      "▁gormezden": 3431,
      "▁kullanmayı": 3432,
      "▁hocam": 3433,
      "##gan": 3434,
      "▁hasan": 3435,
      "▁teknik": 3436,
      "▁tespit": 3437,
      "▁zem": 3438,
      "##lestirdi": 3439,
      "▁kod": 3440,
      "▁yalancı": 3441,
      "▁yanına": 3442,
      "▁saglayacak": 3443,
      "▁im": 3444,
      "▁cos": 3445,
      "▁yavasti": 3446,
      "##sıyor": 3447,
      "▁muduru": 3448,
      "▁kırlarda": 3449,
      "▁beceri": 3450,
      "##arlıgı": 3451,
      "##5": 3452,
      "▁vazife": 3453,
      "▁diken": 3454,
      "▁baglantılı": 3455,
      "▁kullanı": 3456,
      "▁rengi": 3457,
      "▁ormanı": 3458,
      "▁deplasman": 3459,
      "▁vermedi": 3460,
      "▁dediler": 3461,
      "▁olg": 3462,
      "##ligimin": 3463,
      "▁otomobiller": 3464,
      "▁aras": 3465,
      "##cilerin": 3466,
      "▁nereler": 3467,
      "▁ucretler": 3468,
      "▁etmiyordu": 3469,
      "▁elinde": 3470,
      "▁kambiy": 3471,
      "▁amacla": 3472,
      "▁kazanım": 3473,
      "▁kem": 3474,
      "▁corbayı": 3475,
      "##urcuk": 3476,
      "▁bilmiyordu": 3477,
      "▁yaparak": 3478,
      "▁omz": 3479,
      "▁iltifat": 3480,
      "▁soylediler": 3481,
      "▁senaryo": 3482,
      "▁formul": 3483,
      "▁mon": 3484,
      "##idi": 3485,
      "▁sonlarında": 3486,
      "##tasıyla": 3487,
      "▁butce": 3488,
      "▁alkol": 3489,
      "▁baslamıstı": 3490,
      "▁ucusları": 3491,
      "▁196": 3492,
      "▁dilerim": 3493,
      "##mem": 3494,
      "▁yazı": 3495,
      "▁uykusu": 3496,
      "▁vermis": 3497,
      "##mis": 3498,
      "▁cid": 3499,
      "▁oglu": 3500,
      "▁adeta": 3501,
      "▁jandarma": 3502,
      "▁bardagın": 3503,
      "▁redde": 3504,
      "##ta": 3505,
      "▁sokaga": 3506,
      "▁resep": 3507,
      "▁baskanlık": 3508,
      "▁sivrisin": 3509,
      "▁bis": 3510,
      "▁cakıl": 3511,
      "▁odamdan": 3512,
      "##cin": 3513,
      "▁1988'in": 3514,
      "▁mcb": 3515,
      "##kuz": 3516,
      "▁dolardır": 3517,
      "##ıldıktan": 3518,
      "▁sınırlı": 3519,
      "▁endustrisi": 3520,
      "##ist": 3521,
      "▁toplumu": 3522,
      "▁munak": 3523,
      "▁sonrasına": 3524,
      "##isim": 3525,
      "▁dusmesine": 3526,
      "##ede": 3527,
      "▁wh": 3528,
      "▁tursu": 3529,
      "▁kokusu": 3530,
      "▁hoca": 3531,
      "▁aran": 3532,
      "▁fırtın": 3533,
      "▁verenler": 3534,
      "▁giderim": 3535,
      "▁zamana": 3536,
      "##attı": 3537,
      "▁merkezine": 3538,
      "▁cozumler": 3539,
      "▁saglıgına": 3540,
      "##uv": 3541,
      "▁emrini": 3542,
      "▁keresinde": 3543,
      "▁ordu": 3544,
      "▁gir": 3545,
      "▁temsilcileri": 3546,
      "▁tezk": 3547,
      "▁kova": 3548,
      "▁mukemmeldi": 3549,
      "▁tesisten": 3550,
      "▁duduk": 3551,
      "##vas": 3552,
      "▁unu": 3553,
      "##er": 3554,
      "##alamak": 3555,
      "▁konumunu": 3556,
      "▁ce": 3557,
      "##esindeki": 3558,
      "▁dunyaya": 3559,
      "▁ait": 3560,
      "▁anim": 3561,
      "##ulu": 3562,
      "▁ayrım": 3563,
      "##iyenin": 3564,
      "▁kahvalti": 3565,
      "▁kapsam": 3566,
      "▁kazası": 3567,
      "##ganlık": 3568,
      "▁cezalan": 3569,
      "▁ucus": 3570,
      "▁kag": 3571,
      "##ulmaz": 3572,
      "▁ikmal": 3573,
      "##sef": 3574,
      "▁bura": 3575,
      "▁sebze": 3576,
      "▁yeri": 3577,
      "▁odadan": 3578,
      "▁sekl": 3579,
      "▁olayın": 3580,
      "▁leblebi": 3581,
      "▁icten": 3582,
      "▁masasında": 3583,
      "▁kanep": 3584,
      "▁hanımı": 3585,
      "▁askerin": 3586,
      "▁eksikler": 3587,
      "▁alakadar": 3588,
      "▁ceo": 3589,
      "▁tercihimiz": 3590,
      "▁sorunlar": 3591,
      "▁digerine": 3592,
      "▁mutfag": 3593,
      "▁okka": 3594,
      "▁cob": 3595,
      "##kilerden": 3596,
      "▁gokyuzunde": 3597,
      "▁toplantılar": 3598,
      "##cılık": 3599,
      "▁gazetecilik": 3600,
      "▁herhangi": 3601,
      "▁kafa": 3602,
      "##dırdı": 3603,
      "▁ithalatı": 3604,
      "▁etti": 3605,
      "▁gorevden": 3606,
      "▁vali": 3607,
      "▁imk": 3608,
      "▁esvap": 3609,
      "▁alın": 3610,
      "##makt": 3611,
      "▁mutlul": 3612,
      "▁halden": 3613,
      "▁mucadeleyi": 3614,
      "▁sicak": 3615,
      "▁beyazın": 3616,
      "▁garsonlar": 3617,
      "▁konseyi": 3618,
      "##tıyor": 3619,
      "▁karakol": 3620,
      "##ersiz": 3621,
      "▁verdigimiz": 3622,
      "##mazdı": 3623,
      "##lenmesi": 3624,
      "##ibin": 3625,
      "▁geldigi": 3626,
      "##mektedir": 3627,
      "##asti": 3628,
      "##alıklar": 3629,
      "▁turlari": 3630,
      "▁gelme": 3631,
      "▁arabaya": 3632,
      "▁karsıdan": 3633,
      "▁havlu": 3634,
      "▁saatinde": 3635,
      "▁guzergah": 3636,
      "▁gol": 3637,
      "▁orayı": 3638,
      "▁degerlendirmeye": 3639,
      "▁hafız": 3640,
      "##biri": 3641,
      "▁soruları": 3642,
      "▁bulunmaktadır": 3643,
      "▁philadelphia": 3644,
      "##umuze": 3645,
      "▁gozlemcileri": 3646,
      "▁vergisi": 3647,
      "▁anlıyor": 3648,
      "▁muht": 3649,
      "##liyorum": 3650,
      "▁ısıl": 3651,
      "▁gozlerini": 3652,
      "▁fr": 3653,
      "=": 3654,
      "▁demokratlar": 3655,
      "##essum": 3656,
      "▁operasyonu": 3657,
      "▁cins": 3658,
      "##anıt": 3659,
      "▁birligi": 3660,
      "▁fırca": 3661,
      "▁gazetesinin": 3662,
      "▁fil": 3663,
      "▁cak": 3664,
      "▁burokrat": 3665,
      "▁gorevi": 3666,
      "▁tampa'dan": 3667,
      "##sti": 3668,
      "▁hasıl": 3669,
      "▁evlilig": 3670,
      "▁muhal": 3671,
      "▁elmayı": 3672,
      "▁sabaha": 3673,
      "▁mad": 3674,
      "▁kampanyalarla": 3675,
      "##ayan": 3676,
      "▁dayan": 3677,
      "▁salkım": 3678,
      "▁hicbirinin": 3679,
      "▁yururlukte": 3680,
      "▁avucunun": 3681,
      "▁milyonlarca": 3682,
      "▁kontratı": 3683,
      "##isiyle": 3684,
      "▁ansiklop": 3685,
      "▁seydir": 3686,
      "▁uykusuna": 3687,
      "▁gormedi": 3688,
      "▁yuzunun": 3689,
      "▁ucagına": 3690,
      "▁1'e": 3691,
      "▁kalmaya": 3692,
      "▁seviyesinin": 3693,
      "▁ıs": 3694,
      "▁enflasyona": 3695,
      "▁kadıncagız": 3696,
      "▁zam": 3697,
      "##cının": 3698,
      "▁mesleg": 3699,
      "▁kira": 3700,
      "##luya": 3701,
      "▁yasındaki": 3702,
      "▁rok": 3703,
      "▁pırlanta": 3704,
      "▁falan": 3705,
      "▁alanın": 3706,
      "▁salonuna": 3707,
      "▁sarısı": 3708,
      "▁cleveland'a": 3709,
      "▁yoldası": 3710,
      "▁komplo": 3711,
      "▁manzar": 3712,
      "▁gazetecileri": 3713,
      "▁cana": 3714,
      "▁toplumlar": 3715,
      "▁sanayicileri": 3716,
      "▁riskini": 3717,
      "▁hayvanların": 3718,
      "▁mizac": 3719,
      "▁manası": 3720,
      "##leyiciler": 3721,
      "▁cıkacagını": 3722,
      "▁bahcesi": 3723,
      "▁yapabilir": 3724,
      "##masına": 3725,
      "▁tasv": 3726,
      "▁mutla": 3727,
      "▁yollarda": 3728,
      "##bon": 3729,
      "▁gunlerde": 3730,
      "▁filozof": 3731,
      "▁davalarda": 3732,
      "▁sonbah": 3733,
      "▁yazarlarının": 3734,
      "▁asama": 3735,
      "▁sorunlarını": 3736,
      "▁kapısını": 3737,
      "▁kesilmis": 3738,
      "▁yolda": 3739,
      "▁haziran": 3740,
      "▁gunleri": 3741,
      "▁cum": 3742,
      "▁olanlar": 3743,
      "▁kulub": 3744,
      "##her": 3745,
      "▁doktorların": 3746,
      "▁odasından": 3747,
      "▁muamele": 3748,
      "▁degildir": 3749,
      "##kika": 3750,
      "▁miktar": 3751,
      "##lacagını": 3752,
      "▁mekanizm": 3753,
      "▁beta": 3754,
      "▁elde": 3755,
      "▁yaktı": 3756,
      "▁atıl": 3757,
      "▁ogrenmek": 3758,
      "##alad": 3759,
      "▁iyilik": 3760,
      "▁fery": 3761,
      "▁sozune": 3762,
      "▁ceyrege": 3763,
      "▁mek": 3764,
      "▁tuh": 3765,
      "▁dusunmedigini": 3766,
      "▁alar": 3767,
      "▁yatırımcıları": 3768,
      "▁memnuniyeti": 3769,
      "▁satıcı": 3770,
      "▁bede": 3771,
      "▁masal": 3772,
      "▁cocuklarına": 3773,
      "##cil": 3774,
      "▁istirak": 3775,
      "▁dille": 3776,
      "▁tasların": 3777,
      "▁cumhuriyetcilerin": 3778,
      "##ge": 3779,
      "▁parcayı": 3780,
      "▁taahhut": 3781,
      "▁kurtar": 3782,
      "▁kadar": 3783,
      "▁cen": 3784,
      "▁bakar": 3785,
      "▁oyu": 3786,
      "▁mufet": 3787,
      "▁ressam": 3788,
      "▁etkin": 3789,
      "##ılıga": 3790,
      "▁merh": 3791,
      "▁fiy": 3792,
      "▁surpriz": 3793,
      "▁ertel": 3794,
      "▁azade": 3795,
      "▁partiyi": 3796,
      "▁mikr": 3797,
      "▁ispan": 3798,
      "##alandır": 3799,
      "▁huzursuzluk": 3800,
      "▁yuzle": 3801,
      "##is": 3802,
      "▁halk": 3803,
      "▁dusurdu": 3804,
      "▁kurtulmak": 3805,
      "▁kalemi": 3806,
      "##inan": 3807,
      "▁gazetelerin": 3808,
      "##ecegim": 3809,
      "##set": 3810,
      "▁ucretlerini": 3811,
      "##emenin": 3812,
      "▁alfab": 3813,
      "▁oneri": 3814,
      "▁insanlardan": 3815,
      "▁nort": 3816,
      "▁ciftci": 3817,
      "▁iskan": 3818,
      "##ıntılı": 3819,
      "▁ucuslar": 3820,
      "##ikt": 3821,
      "▁amacıyla": 3822,
      "##izdir": 3823,
      "▁uzeri": 3824,
      "▁sektorunde": 3825,
      "▁1987": 3826,
      "▁hel": 3827,
      "##ner": 3828,
      "▁magazası": 3829,
      "▁kilit": 3830,
      "▁kazanmak": 3831,
      "##aden": 3832,
      "▁kirec": 3833,
      "▁kızın": 3834,
      "▁iclerinde": 3835,
      "▁gecmis": 3836,
      "▁kut": 3837,
      "##ustu": 3838,
      "▁izin": 3839,
      "▁aqu": 3840,
      "##am": 3841,
      "▁adr": 3842,
      "▁sunnet": 3843,
      "▁oak": 3844,
      "▁demeye": 3845,
      "▁bekledigimden": 3846,
      "▁suikast": 3847,
      "▁vad": 3848,
      "▁ucurt": 3849,
      "##iligini": 3850,
      "▁sozcuk": 3851,
      "▁davasını": 3852,
      "▁varlıkların": 3853,
      "▁acım": 3854,
      "▁ihtimal": 3855,
      "##ni": 3856,
      "▁insanlık": 3857,
      "##amaya": 3858,
      "▁fas": 3859,
      "▁yetkililerinin": 3860,
      "▁hepimiz": 3861,
      "▁yasamın": 3862,
      "▁cezasına": 3863,
      "▁um": 3864,
      "▁hisseleri": 3865,
      "▁duygu": 3866,
      "##in": 3867,
      "##ıgım": 3868,
      "##alım": 3869,
      "▁he": 3870,
      "##mez": 3871,
      "▁beklenti": 3872,
      "▁yukunu": 3873,
      "▁parti": 3874,
      "▁ulastırma": 3875,
      "▁gerektigine": 3876,
      "▁pın": 3877,
      "▁ilerleme": 3878,
      "▁dalg": 3879,
      "▁satıslardan": 3880,
      "▁yiyor": 3881,
      "▁bug": 3882,
      "▁bilgisay": 3883,
      "▁yerli": 3884,
      "▁yasan": 3885,
      "▁radyo": 3886,
      "▁arasında": 3887,
      "▁dokmek": 3888,
      "▁yav": 3889,
      "▁cocug": 3890,
      "##iydi": 3891,
      "▁sehre": 3892,
      "▁kahyası": 3893,
      "▁babası": 3894,
      "▁hec": 3895,
      "▁ster": 3896,
      "▁kurk": 3897,
      "▁cifti": 3898,
      "▁kurulusunun": 3899,
      "▁kazasında": 3900,
      "▁gormem": 3901,
      "▁gerekti": 3902,
      "▁0.": 3903,
      "▁icindir": 3904,
      "▁bırakmıs": 3905,
      "▁atları": 3906,
      "▁muhalif": 3907,
      "▁donusu": 3908,
      "##asyonu": 3909,
      "▁boynunda": 3910,
      "▁65": 3911,
      "▁alınan": 3912,
      "▁montreal'a": 3913,
      "▁yumurt": 3914,
      "##ac": 3915,
      "##umuzu": 3916,
      "▁izlemek": 3917,
      "▁nut": 3918,
      "##cuların": 3919,
      "▁asab": 3920,
      "▁toprakları": 3921,
      "▁kaymak": 3922,
      "▁kahvelerin": 3923,
      "▁sairleri": 3924,
      "▁hijyenikti": 3925,
      "▁hızlıca": 3926,
      "▁kendisinde": 3927,
      "▁yavrum": 3928,
      "▁ihracat": 3929,
      "▁kavgası": 3930,
      "▁eliyle": 3931,
      "▁hipot": 3932,
      "▁mesaj": 3933,
      "##iledi": 3934,
      "▁mus": 3935,
      "▁derg": 3936,
      "▁kokuları": 3937,
      "▁kaldırdı": 3938,
      "##lamak": 3939,
      "▁oil": 3940,
      "▁faaliyetlerine": 3941,
      "▁eksi": 3942,
      "##luyordu": 3943,
      "▁kazancı": 3944,
      "##diler": 3945,
      "▁meger": 3946,
      "▁ic": 3947,
      "▁kabul": 3948,
      "▁anlay": 3949,
      "##umuzun": 3950,
      "▁sular": 3951,
      "▁yonunde": 3952,
      "▁olmustu": 3953,
      "##mul": 3954,
      "▁randevu": 3955,
      "▁kupe": 3956,
      "##amaları": 3957,
      "▁gotur": 3958,
      "▁hasta": 3959,
      "▁donuyor": 3960,
      "▁tiyatroya": 3961,
      "▁artısı": 3962,
      "▁esyasını": 3963,
      "▁huv": 3964,
      "##ladıklarını": 3965,
      "▁rast": 3966,
      "▁grev": 3967,
      "##mekle": 3968,
      "▁askerler": 3969,
      "▁isgali": 3970,
      "▁kasket": 3971,
      "▁katilmak": 3972,
      "▁izliyor": 3973,
      "▁pazarının": 3974,
      "##naya": 3975,
      "▁kel": 3976,
      "▁beraber": 3977,
      "▁annesinin": 3978,
      "##par": 3979,
      "▁sigor": 3980,
      "▁dısarıya": 3981,
      "▁acmak": 3982,
      "▁geldiniz": 3983,
      "▁suzgec": 3984,
      "▁tay": 3985,
      "▁zorla": 3986,
      "##legen": 3987,
      "▁ko": 3988,
      "▁kurumsal": 3989,
      "▁ekibinin": 3990,
      "▁dergi": 3991,
      "##'sine": 3992,
      "▁misin": 3993,
      "▁yiyecekler": 3994,
      "##zen": 3995,
      "▁=": 3996,
      "▁vermek": 3997,
      "▁gosterin": 3998,
      "▁milliyetci": 3999,
      "▁egzersiz": 4000,
      "▁financi": 4001,
      "▁elinizde": 4002,
      "▁bitirdi": 4003,
      "▁anlasmaları": 4004,
      "▁esnasında": 4005,
      "▁menfaat": 4006,
      "▁kararları": 4007,
      "▁vol": 4008,
      "▁en": 4009,
      "▁vadesi": 4010,
      "▁amacları": 4011,
      "▁zay": 4012,
      "##hiz": 4013,
      "▁muhendisi": 4014,
      "▁ısır": 4015,
      "▁ettir": 4016,
      "▁leri": 4017,
      "▁kan": 4018,
      "▁hatirlamiyorum": 4019,
      "##ira": 4020,
      "▁olumune": 4021,
      "##atesi": 4022,
      "▁aylarında": 4023,
      "▁ırk": 4024,
      "▁tuccarı": 4025,
      "▁tiyatr": 4026,
      "▁ahen": 4027,
      "▁beklentileri": 4028,
      "▁tuyu": 4029,
      "▁cıkısı": 4030,
      "##anları": 4031,
      "##cli": 4032,
      "▁konuları": 4033,
      "##umuzda": 4034,
      "▁duvarlar": 4035,
      "▁garson": 4036,
      "▁rakamlar": 4037,
      "▁son": 4038,
      "##'luk": 4039,
      "▁vah": 4040,
      "▁hastalıkların": 4041,
      "##ellikle": 4042,
      "##aparki": 4043,
      "▁bilgi": 4044,
      "▁kırıklıgı": 4045,
      "▁cocuk": 4046,
      "▁seneye": 4047,
      "##ebiliyor": 4048,
      "##meyi": 4049,
      "▁kıc": 4050,
      "▁vardır": 4051,
      "▁iktidara": 4052,
      "##ehir": 4053,
      "▁atlan": 4054,
      "##lendim": 4055,
      "▁izah": 4056,
      "▁burokrasi": 4057,
      "▁donan": 4058,
      "▁kelimelere": 4059,
      "▁cagında": 4060,
      "▁kokulu": 4061,
      "##inlerin": 4062,
      "▁aleyhinde": 4063,
      "▁dilinden": 4064,
      "▁karanlık": 4065,
      "▁dusundu": 4066,
      "▁iste": 4067,
      "▁dram": 4068,
      "##4": 4069,
      "▁atıf": 4070,
      "▁yurttas": 4071,
      "▁ilkbah": 4072,
      "▁yakalama": 4073,
      "##9": 4074,
      "▁for": 4075,
      "▁eastern": 4076,
      "▁odenek": 4077,
      "▁edilm": 4078,
      "▁aks": 4079,
      "▁sozlesmesini": 4080,
      "##0'da": 4081,
      "▁kimseler": 4082,
      "##ıntı": 4083,
      "▁hocamız": 4084,
      "##derken": 4085,
      "##menin": 4086,
      "▁ansik": 4087,
      "▁hediyesi": 4088,
      "##sel": 4089,
      "##ule": 4090,
      "▁olagan": 4091,
      "▁ruhunun": 4092,
      "▁muharr": 4093,
      "▁ebe": 4094,
      "##hanede": 4095,
      "##arc": 4096,
      "▁bırakmak": 4097,
      "##uki": 4098,
      "##11": 4099,
      "▁efsanesi": 4100,
      "▁kapak": 4101,
      "▁acaba": 4102,
      "▁bolun": 4103,
      "▁yararlan": 4104,
      "▁ves": 4105,
      "▁55": 4106,
      "▁cırak": 4107,
      "##dikleri": 4108,
      "▁sut": 4109,
      "▁bolgeleri": 4110,
      "▁eziyet": 4111,
      "▁dairesi": 4112,
      "▁ifadeler": 4113,
      "▁oldugunda": 4114,
      "▁dibinden": 4115,
      "▁vucudun": 4116,
      "▁kaybeden": 4117,
      "▁aksamları": 4118,
      "##dirde": 4119,
      "##yas": 4120,
      "##enn": 4121,
      "▁gencliginde": 4122,
      "▁caz": 4123,
      "▁3/4": 4124,
      "▁prensesi": 4125,
      "▁gazetesinde": 4126,
      "▁fa": 4127,
      "▁kural": 4128,
      "▁beg": 4129,
      "▁pit": 4130,
      "##lemisti": 4131,
      "##tik": 4132,
      "▁systems": 4133,
      "▁evvela": 4134,
      "▁isbir": 4135,
      "▁gerekcesiyle": 4136,
      "▁sahaya": 4137,
      "##uston": 4138,
      "▁isini": 4139,
      "##zırda": 4140,
      "##arım": 4141,
      "▁gelmesi": 4142,
      "##ika": 4143,
      "▁may": 4144,
      "▁pant": 4145,
      "▁3.6": 4146,
      "▁yemeye": 4147,
      "▁dalkav": 4148,
      "▁kitapcı": 4149,
      "▁sed": 4150,
      "▁ihtiyacı": 4151,
      "▁odu": 4152,
      "▁vuruyor": 4153,
      "##anlarim": 4154,
      "▁buldu": 4155,
      "▁kafesi": 4156,
      "##lukte": 4157,
      "▁bankacı": 4158,
      "##.2": 4159,
      "▁heyetin": 4160,
      "##butun": 4161,
      "##mıstım": 4162,
      "▁veren": 4163,
      "▁gorusme": 4164,
      "▁araclara": 4165,
      "▁bul": 4166,
      "▁yetkilisi": 4167,
      "▁izlenim": 4168,
      "▁temettu": 4169,
      "▁oturt": 4170,
      "▁felsefesi": 4171,
      "▁yuzuk": 4172,
      "▁vot": 4173,
      "▁bitis": 4174,
      "▁cesidi": 4175,
      "▁umur": 4176,
      "▁yasal": 4177,
      "▁mab": 4178,
      "▁dalgalan": 4179,
      "##zav": 4180,
      "▁binayı": 4181,
      "##0000": 4182,
      "▁kalor": 4183,
      "▁sorustur": 4184,
      "▁cikista": 4185,
      "▁gecirdik": 4186,
      "▁mahkumu": 4187,
      "▁puanlama": 4188,
      "▁cesitliligi": 4189,
      "##rur": 4190,
      "▁gelmiyor": 4191,
      "▁gozuyle": 4192,
      "▁klas": 4193,
      "▁icin": 4194,
      "##isme": 4195,
      "▁et": 4196,
      "▁mode": 4197,
      "##ifi": 4198,
      "##.1": 4199,
      "▁ların": 4200,
      "▁yarı": 4201,
      "▁yatırımcılara": 4202,
      "▁zer": 4203,
      "▁islere": 4204,
      "▁degismedi": 4205,
      "▁poyraz": 4206,
      "▁taklit": 4207,
      "▁elimden": 4208,
      "▁'": 4209,
      "▁espr": 4210,
      "##stu": 4211,
      "▁vurdu": 4212,
      "##ecekler": 4213,
      "##ag": 4214,
      "▁sigortası": 4215,
      "▁1.8": 4216,
      "▁hizmette": 4217,
      "##isleri": 4218,
      "▁sahn": 4219,
      "▁yoneticiler": 4220,
      "▁ır": 4221,
      "▁oturdu": 4222,
      "▁saadet": 4223,
      "▁yapmaları": 4224,
      "▁sera": 4225,
      "▁birer": 4226,
      "▁sahnede": 4227,
      "▁kalab": 4228,
      "##isyon": 4229,
      "▁emel": 4230,
      "▁denizden": 4231,
      "▁tehlike": 4232,
      "##lamaları": 4233,
      "▁kafamda": 4234,
      "▁hazin": 4235,
      "▁goruluyor": 4236,
      "▁animasyon": 4237,
      "##form": 4238,
      "▁cıkarıyor": 4239,
      "▁azaldı": 4240,
      "▁7.8": 4241,
      "▁soruyor": 4242,
      "▁bolge": 4243,
      "▁gittik": 4244,
      "▁ankete": 4245,
      "▁kadif": 4246,
      "▁yaptılar": 4247,
      "▁gugum": 4248,
      "▁mecliste": 4249,
      "▁tatile": 4250,
      "▁sevinc": 4251,
      "▁berab": 4252,
      "▁hekimi": 4253,
      "▁arasına": 4254,
      "▁sektorun": 4255,
      "▁koruy": 4256,
      "##asıdır": 4257,
      "▁ticaretinde": 4258,
      "▁kendini": 4259,
      "▁laz": 4260,
      "##acagına": 4261,
      "##div": 4262,
      "▁peters": 4263,
      "▁sıf": 4264,
      "▁ceyrekte": 4265,
      "▁grup": 4266,
      "▁yız": 4267,
      "##ortusu": 4268,
      "▁kork": 4269,
      "▁bırakarak": 4270,
      "##madım": 4271,
      "▁isti": 4272,
      "▁boston'a": 4273,
      "##edigi": 4274,
      "##acan": 4275,
      "##gut": 4276,
      "▁pozisyonu": 4277,
      "▁americ": 4278,
      "▁kov": 4279,
      "▁fakult": 4280,
      "▁bitkiler": 4281,
      "▁mal": 4282,
      "##ilmeye": 4283,
      "▁tahminlerinin": 4284,
      "▁indianapolis": 4285,
      "##dıgımı": 4286,
      "##ihat": 4287,
      "▁kusagının": 4288,
      "##mıyorlar": 4289,
      "▁sokaklara": 4290,
      "▁tayin": 4291,
      "▁muhit": 4292,
      "▁ortak": 4293,
      "▁olduk": 4294,
      "▁secen": 4295,
      "‘": 4296,
      "##akat": 4297,
      "▁sınavı": 4298,
      "▁haft": 4299,
      "▁suya": 4300,
      "▁kada": 4301,
      "▁avantaj": 4302,
      "▁karsiladi": 4303,
      "▁psilyum": 4304,
      "##ılıgın": 4305,
      "▁cekiyor": 4306,
      "▁agr": 4307,
      "▁poh": 4308,
      "▁arkad": 4309,
      "##se": 4310,
      "▁kucuk": 4311,
      "▁otopark": 4312,
      "▁havalimanından": 4313,
      "▁fiyatlandır": 4314,
      "▁mutfakta": 4315,
      "▁avcı": 4316,
      "▁proje": 4317,
      "▁aracların": 4318,
      "▁tavan": 4319,
      "▁diye": 4320,
      "▁olsun": 4321,
      "▁sokakları": 4322,
      "▁mud": 4323,
      "▁elestir": 4324,
      "##oglanı": 4325,
      "##unuz": 4326,
      "▁maliyetlerinin": 4327,
      "##ou": 4328,
      "##ıklarını": 4329,
      "▁tarihten": 4330,
      "▁fenalık": 4331,
      "▁sindir": 4332,
      "##iv": 4333,
      "▁guzeldi": 4334,
      "▁yukar": 4335,
      "▁ort": 4336,
      "▁nesil": 4337,
      "##iyetle": 4338,
      "▁gitmeyi": 4339,
      "▁yataga": 4340,
      "▁fiyatın": 4341,
      "▁yabancı": 4342,
      "▁sesle": 4343,
      "▁tarlaları": 4344,
      "##eginin": 4345,
      "▁koyu": 4346,
      "##tere": 4347,
      "▁soylemek": 4348,
      "▁kred": 4349,
      "▁ankar": 4350,
      "▁edilir": 4351,
      "▁istifaya": 4352,
      "▁uns": 4353,
      "▁karakter": 4354,
      "▁kahkaha": 4355,
      "▁degerler": 4356,
      "##enizin": 4357,
      "▁kazananlar": 4358,
      "##lo": 4359,
      "▁yargıc": 4360,
      "▁gurbet": 4361,
      "▁onayı": 4362,
      "##dra": 4363,
      "##lar": 4364,
      "##kunc": 4365,
      "##acaktır": 4366,
      "▁sebepler": 4367,
      "▁isimleri": 4368,
      "▁ozunde": 4369,
      "▁nor": 4370,
      "▁tug": 4371,
      "▁ticaretinin": 4372,
      "▁satmaya": 4373,
      "▁nal": 4374,
      "▁yaz": 4375,
      "##ustur": 4376,
      "▁halini": 4377,
      "▁yolculuk": 4378,
      "▁simgesi": 4379,
      "▁siddetli": 4380,
      "▁yumr": 4381,
      "##ez": 4382,
      "▁gunlerinden": 4383,
      "▁usak": 4384,
      "▁kasabanın": 4385,
      "▁satıyor": 4386,
      "▁babamın": 4387,
      "▁hakikaten": 4388,
      "▁pamuk": 4389,
      "▁teknolojisini": 4390,
      "##25": 4391,
      "##lanı": 4392,
      "▁oturu": 4393,
      "▁yes": 4394,
      "▁yıgını": 4395,
      "▁kendisi": 4396,
      "▁yazılar": 4397,
      "▁kısıtlamalar": 4398,
      "##gı": 4399,
      "▁cenaz": 4400,
      "##meyecek": 4401,
      "▁ing": 4402,
      "▁haftalarda": 4403,
      "##tmeye": 4404,
      "##lacak": 4405,
      "▁rut": 4406,
      "##0": 4407,
      "▁sıcr": 4408,
      "▁kafes": 4409,
      "▁yasamadim": 4410,
      "##masız": 4411,
      "▁soyun": 4412,
      "##mekt": 4413,
      "▁yurutme": 4414,
      "##umus": 4415,
      "▁hırs": 4416,
      "▁konusunu": 4417,
      "▁oncesi": 4418,
      "▁iht": 4419,
      "▁dolay": 4420,
      "##bas": 4421,
      "▁oldukları": 4422,
      "▁sıg": 4423,
      "##medigini": 4424,
      "##aydı": 4425,
      "▁mahkemesinin": 4426,
      "▁kitaplarını": 4427,
      "##sis": 4428,
      "▁donemin": 4429,
      "▁icine": 4430,
      "▁olusu": 4431,
      "▁yuruyus": 4432,
      "▁gecekondu": 4433,
      "▁salın": 4434,
      "##tıkları": 4435,
      "▁gonlunu": 4436,
      "▁kayna": 4437,
      "▁geyikleri": 4438,
      "▁konuyu": 4439,
      "▁kirpik": 4440,
      "▁baglılık": 4441,
      "##sınız": 4442,
      "▁skan": 4443,
      "▁seslerini": 4444,
      "▁klini": 4445,
      "##iyorsunuz": 4446,
      "▁kapatma": 4447,
      "▁ileri": 4448,
      "▁dunyasından": 4449,
      "▁nimet": 4450,
      "▁sayı": 4451,
      "▁nihayet": 4452,
      "▁gun": 4453,
      "▁tarafı": 4454,
      "▁ilgililerdi": 4455,
      "▁tarafa": 4456,
      "▁duzine": 4457,
      "▁yede": 4458,
      "▁paylar": 4459,
      "##luguna": 4460,
      "▁jap": 4461,
      "▁evde": 4462,
      "▁kelime": 4463,
      "▁deme": 4464,
      "▁bilgisayarı": 4465,
      "##hane": 4466,
      "▁ayrica": 4467,
      "##eyle": 4468,
      "▁dereden": 4469,
      "##2'ye": 4470,
      "##labilir": 4471,
      "▁iddia": 4472,
      "▁gez": 4473,
      "▁ucak": 4474,
      "##cılara": 4475,
      "▁memnunum": 4476,
      "##taki": 4477,
      "▁patron": 4478,
      "▁caresizlik": 4479,
      "▁cagdas": 4480,
      "▁toplantının": 4481,
      "▁alanına": 4482,
      "▁merkeze": 4483,
      "▁pos": 4484,
      "▁sop": 4485,
      "▁cıglık": 4486,
      "▁odenmesi": 4487,
      "▁islemi": 4488,
      "##erh": 4489,
      "▁gece": 4490,
      "##anlarla": 4491,
      "##undur": 4492,
      "▁tavana": 4493,
      "▁kullandim": 4494,
      "##,": 4495,
      "▁dagın": 4496,
      "▁notu": 4497,
      "▁kabus": 4498,
      "▁uyu": 4499,
      "▁3'ten": 4500,
      "▁yaprakları": 4501,
      "▁kıskan": 4502,
      "##ıyorlardı": 4503,
      "▁denize": 4504,
      "▁performanstan": 4505,
      "▁magaz": 4506,
      "▁sm": 4507,
      "▁haberler": 4508,
      "▁nasihat": 4509,
      "##ledik": 4510,
      "▁hareketin": 4511,
      "▁lod": 4512,
      "▁kapının": 4513,
      "▁cami": 4514,
      "▁bagımsız": 4515,
      "▁cub": 4516,
      "▁dususun": 4517,
      "▁sıkıntısı": 4518,
      "##elere": 4519,
      "▁mehtap": 4520,
      "##ef": 4521,
      "##lunun": 4522,
      "▁bayır": 4523,
      "##ku": 4524,
      "▁yerde": 4525,
      "▁ih": 4526,
      "▁ontar": 4527,
      "▁alıyor": 4528,
      "##adım": 4529,
      "##lasmıs": 4530,
      "▁hin": 4531,
      "▁sivrisinek": 4532,
      "##enler": 4533,
      "▁sonraki": 4534,
      "▁isaret": 4535,
      "▁patlıc": 4536,
      "▁kucucuk": 4537,
      "▁baskanlıgı": 4538,
      "▁buro": 4539,
      "▁yetersizligi": 4540,
      "▁slog": 4541,
      "▁gre": 4542,
      "▁denizasırı": 4543,
      "▁mekan": 4544,
      "▁karısını": 4545,
      "▁dilek": 4546,
      "▁tuccarlar": 4547,
      "▁bagın": 4548,
      "▁alan": 4549,
      "▁turunu": 4550,
      "▁hazine": 4551,
      "▁dugmeleri": 4552,
      "##osunda": 4553,
      "##larda": 4554,
      "▁kagıt": 4555,
      "▁bakanlıgı'nın": 4556,
      "##ımızı": 4557,
      "▁listeleyin": 4558,
      "##langıc": 4559,
      "▁pis": 4560,
      "▁yillardir": 4561,
      "▁st.": 4562,
      "▁onlardan": 4563,
      "##gisi": 4564,
      "▁degerlendiririm": 4565,
      "▁seattle'ye": 4566,
      "▁sas": 4567,
      "▁ilgilenmediler": 4568,
      "▁merdivenlerden": 4569,
      "▁bilgisayar": 4570,
      "▁havalarda": 4571,
      "▁saldırgan": 4572,
      "##eket": 4573,
      "▁olanakları": 4574,
      "▁layık": 4575,
      "▁senede": 4576,
      "▁bulunuyor": 4577,
      "▁hicbirini": 4578,
      "▁edebil": 4579,
      "##'nu": 4580,
      "▁kalmamıs": 4581,
      "▁ucuslarla": 4582,
      "▁d": 4583,
      "▁a": 4584,
      "▁soluk": 4585,
      "▁elimi": 4586,
      "▁ekibine": 4587,
      "▁butceye": 4588,
      "▁misyon": 4589,
      "▁millet": 4590,
      "▁kardesim": 4591,
      "▁iliskilerini": 4592,
      "##istlerin": 4593,
      "▁vazo": 4594,
      "▁muzigini": 4595,
      "▁pav": 4596,
      "##otif": 4597,
      "▁amca": 4598,
      "▁ikaz": 4599,
      "▁mig": 4600,
      "▁tezgahın": 4601,
      "▁saglıklı": 4602,
      "▁biyoloji": 4603,
      "▁kerem": 4604,
      "▁isyan": 4605,
      "▁markaları": 4606,
      "▁capında": 4607,
      "▁derece": 4608,
      "▁.\"": 4609,
      "▁ederdi": 4610,
      "▁izley": 4611,
      "##dırıyor": 4612,
      "▁kitabın": 4613,
      "▁asci": 4614,
      "▁nesne": 4615,
      "##lerin": 4616,
      "▁kullanmadim": 4617,
      "▁ekmegi": 4618,
      "▁ro": 4619,
      "▁ciro": 4620,
      "▁vur": 4621,
      "▁acel": 4622,
      "▁uyelik": 4623,
      "▁damarı": 4624,
      "▁elden": 4625,
      "##lıc": 4626,
      "▁cephe": 4627,
      "▁tahkim": 4628,
      "▁parlam": 4629,
      "▁kimseye": 4630,
      "▁yarıs": 4631,
      "▁azdi": 4632,
      "##yap": 4633,
      "▁panel": 4634,
      "▁duydu": 4635,
      "▁dayanır": 4636,
      "▁hakikat": 4637,
      "▁operasyonları": 4638,
      "▁torba": 4639,
      "##ılabil": 4640,
      "##kanlı": 4641,
      "##eliginde": 4642,
      "▁sona": 4643,
      "▁bitiyor": 4644,
      "##lendi": 4645,
      "▁olcusu": 4646,
      "▁piyasada": 4647,
      "##zer": 4648,
      "▁medy": 4649,
      "##izligi": 4650,
      "▁gazino": 4651,
      "▁yahut": 4652,
      "▁karsıla": 4653,
      "##ediklerini": 4654,
      "▁bilimleri": 4655,
      "▁sım": 4656,
      "▁beyn": 4657,
      "▁degisim": 4658,
      "##*": 4659,
      "▁sık": 4660,
      "▁bilg": 4661,
      "▁boyunda": 4662,
      "▁birbirimize": 4663,
      "▁salata": 4664,
      "▁kapısına": 4665,
      "▁teknoloj": 4666,
      "##kes": 4667,
      "▁yıldan": 4668,
      "▁sıgır": 4669,
      "▁felsef": 4670,
      "▁parlak": 4671,
      "▁can": 4672,
      "▁anneme": 4673,
      "▁ısık": 4674,
      "##iyon": 4675,
      "▁cocuklar": 4676,
      "▁kongre": 4677,
      "▁ozgurluk": 4678,
      "▁kayd": 4679,
      "▁ufakti": 4680,
      "▁iktisat": 4681,
      "▁gerceklestir": 4682,
      "##‘": 4683,
      "▁;": 4684,
      "▁soguktu": 4685,
      "▁markanın": 4686,
      "▁dog": 4687,
      "▁universit": 4688,
      "▁izleri": 4689,
      "▁modeli": 4690,
      "▁kesiminin": 4691,
      "▁ortadan": 4692,
      "▁olsa": 4693,
      "▁muthis": 4694,
      "▁klim": 4695,
      "▁bahs": 4696,
      "▁aksama": 4697,
      "##ilme": 4698,
      "##dım": 4699,
      "▁seylerle": 4700,
      "▁unif": 4701,
      "▁yamac": 4702,
      "▁meydana": 4703,
      "▁camasır": 4704,
      "▁kontr": 4705,
      "▁buk": 4706,
      "▁sektore": 4707,
      "▁kım": 4708,
      "▁karıstı": 4709,
      "▁bayan": 4710,
      "##almaya": 4711,
      "▁da": 4712,
      "▁ceketinin": 4713,
      "##say": 4714,
      "▁kaps": 4715,
      "▁tukuruk": 4716,
      "▁mef": 4717,
      "▁maliyet": 4718,
      "▁operasyon": 4719,
      "##akki": 4720,
      "▁peygam": 4721,
      "▁pudra": 4722,
      "▁darbuk": 4723,
      "▁depr": 4724,
      "▁hot": 4725,
      "▁dugmesini": 4726,
      "▁/": 4727,
      "▁yaglı": 4728,
      "▁sıkıstır": 4729,
      "▁ayrık": 4730,
      "▁terbiy": 4731,
      "▁bakla": 4732,
      "▁universitelerin": 4733,
      "▁talimat": 4734,
      "z": 4735,
      "▁caddenin": 4736,
      "▁hedefi": 4737,
      "##uza": 4738,
      "##lemek": 4739,
      "▁zirv": 4740,
      "▁memphis": 4741,
      "▁tif": 4742,
      "▁buyume": 4743,
      "▁aklına": 4744,
      "▁kavak": 4745,
      "##alarını": 4746,
      "▁kaydetti": 4747,
      "▁grafik": 4748,
      "▁rehberim": 4749,
      "▁yumusak": 4750,
      "▁diego'ya": 4751,
      "▁agzı": 4752,
      "▁muddet": 4753,
      "▁yıllardır": 4754,
      "▁alıskanlıgı": 4755,
      "▁kak": 4756,
      "▁edebiyatın": 4757,
      "▁mask": 4758,
      "##ington": 4759,
      "▁ora": 4760,
      "▁edemiyor": 4761,
      "##anıyla": 4762,
      "▁dusman": 4763,
      "▁renkli": 4764,
      "▁revize": 4765,
      "▁duyurdu": 4766,
      "▁kurumu": 4767,
      "▁faizini": 4768,
      "▁mevzuatı": 4769,
      "▁suyu": 4770,
      "▁damlac": 4771,
      "▁konular": 4772,
      "▁yaka": 4773,
      "▁cık": 4774,
      "▁duvarlarına": 4775,
      "▁stan": 4776,
      "▁tavr": 4777,
      "##letti": 4778,
      "▁azı": 4779,
      "▁gazetenin": 4780,
      "▁soguk": 4781,
      "▁a.b.d.": 4782,
      "▁kontrolu": 4783,
      "##kini": 4784,
      "▁get": 4785,
      "▁birbirine": 4786,
      "##unuzun": 4787,
      "▁yontemi": 4788,
      "▁kısmını": 4789,
      "▁cıgırt": 4790,
      "▁cesitlendirme": 4791,
      "▁engelleri": 4792,
      "▁yn": 4793,
      "##oz": 4794,
      "▁toz": 4795,
      "▁kaka": 4796,
      "▁2.6": 4797,
      "▁guncel": 4798,
      "▁pırıltı": 4799,
      "▁sonraları": 4800,
      "▁fen": 4801,
      "##mes": 4802,
      "▁verime": 4803,
      "▁aleyh": 4804,
      "▁gecmiste": 4805,
      "▁burbank": 4806,
      "▁gozalt": 4807,
      "▁yukseltti": 4808,
      "▁kullanıl": 4809,
      "▁yakasına": 4810,
      "▁margar": 4811,
      "##ormal": 4812,
      "▁tarihin": 4813,
      "▁pic": 4814,
      "▁saat": 4815,
      "▁bulma": 4816,
      "▁kısıt": 4817,
      "##icisi": 4818,
      "▁bar": 4819,
      "▁tebessum": 4820,
      "▁heg": 4821,
      "##uluk": 4822,
      "▁ramazan": 4823,
      "##mar": 4824,
      "▁ihracatı": 4825,
      "##alli": 4826,
      "▁karmasası": 4827,
      "▁kendileri": 4828,
      "##dıgım": 4829,
      "##.000": 4830,
      "▁gelebilir": 4831,
      "▁nes": 4832,
      "##vetli": 4833,
      "▁varacak": 4834,
      "▁1\\/4": 4835,
      "▁konustu": 4836,
      "##ant": 4837,
      "▁ralli": 4838,
      "▁orman": 4839,
      "▁konusu": 4840,
      "▁de": 4841,
      "▁hast": 4842,
      "▁25": 4843,
      "▁tar": 4844,
      "▁kurtarma": 4845,
      "▁ibm": 4846,
      "▁data": 4847,
      "▁olmadigini": 4848,
      "▁sp": 4849,
      "▁kil": 4850,
      "▁benim": 4851,
      "▁uykuya": 4852,
      "▁kelep": 4853,
      "▁egitimi": 4854,
      "▁yanlıs": 4855,
      "▁ayrılan": 4856,
      "▁figur": 4857,
      "##iyorlardı": 4858,
      "▁hane": 4859,
      "▁altern": 4860,
      "▁sorunlarına": 4861,
      "▁sinirlerini": 4862,
      "▁dır": 4863,
      "▁cer": 4864,
      "▁murekk": 4865,
      "▁duyuyor": 4866,
      "▁gozler": 4867,
      "▁buyum": 4868,
      "##eceklerini": 4869,
      "▁vade": 4870,
      "▁guzellik": 4871,
      "##ceklerini": 4872,
      "##bardım": 4873,
      "##ale": 4874,
      "▁kunda": 4875,
      "▁kahve": 4876,
      "##gu": 4877,
      "▁nitelikte": 4878,
      "▁isimiz": 4879,
      "▁apartmana": 4880,
      "▁semt": 4881,
      "▁tekn": 4882,
      "▁bankalar": 4883,
      "▁etkinlik": 4884,
      "▁ormanın": 4885,
      "▁arama": 4886,
      "##biy": 4887,
      "▁dola": 4888,
      "▁edildi": 4889,
      "▁salı": 4890,
      "▁alaka": 4891,
      "▁esliginde": 4892,
      "▁korkudan": 4893,
      "▁aleyhine": 4894,
      "##'in": 4895,
      "▁kaldırma": 4896,
      "▁yerleri": 4897,
      "▁satırları": 4898,
      "▁denetimi": 4899,
      "▁gelir": 4900,
      "▁dergileri": 4901,
      "▁esnada": 4902,
      "▁ilcesine": 4903,
      "▁agabey": 4904,
      "▁meze": 4905,
      "▁duvarlarında": 4906,
      "▁konak": 4907,
      "▁yurtdisinda": 4908,
      "##larımızda": 4909,
      "▁york": 4910,
      "##ilebilir": 4911,
      "▁turklerin": 4912,
      "##'un": 4913,
      "##adır": 4914,
      "▁konuyla": 4915,
      "▁cakı": 4916,
      "▁noktada": 4917,
      "▁alanlar": 4918,
      "▁sektor": 4919,
      "##desinde": 4920,
      "▁kanser": 4921,
      "▁fit": 4922,
      "▁madal": 4923,
      "##larlar": 4924,
      "▁deg": 4925,
      "▁hubub": 4926,
      "▁sıkıya": 4927,
      "▁degisiyor": 4928,
      "▁kader": 4929,
      "[SEP]": 4930,
      "▁fay": 4931,
      "▁ellerim": 4932,
      "▁dolabın": 4933,
      "▁kktc": 4934,
      "▁eseri": 4935,
      "▁fonlarına": 4936,
      "▁acıyor": 4937,
      "▁omuzlarını": 4938,
      "▁traktor": 4939,
      "##em": 4940,
      "▁epeyce": 4941,
      "▁sonuclara": 4942,
      "▁cabalarını": 4943,
      "▁ister": 4944,
      "##bol": 4945,
      "▁ustun": 4946,
      "▁!..": 4947,
      "▁almadim": 4948,
      "▁sar": 4949,
      "▁kuması": 4950,
      "▁kalmayı": 4951,
      "▁gorusmedim": 4952,
      "▁halbuki": 4953,
      "▁ner": 4954,
      "▁baskalarının": 4955,
      "▁bulundur": 4956,
      "▁tur": 4957,
      "▁sır": 4958,
      "▁lara": 4959,
      "##tıgını": 4960,
      "##rib": 4961,
      "▁arkamdan": 4962,
      "▁hade": 4963,
      "▁babasının": 4964,
      "##son": 4965,
      "▁seyh": 4966,
      "##omatik": 4967,
      "▁iyims": 4968,
      "▁karsılas": 4969,
      "▁siiri": 4970,
      "##uyen": 4971,
      "▁olacagını": 4972,
      "▁tarihleri": 4973,
      "▁bazıları": 4974,
      "▁rady": 4975,
      "##tısı": 4976,
      "▁ulkeyi": 4977,
      "▁destekley": 4978,
      "▁si": 4979,
      "##tes": 4980,
      "▁cuma": 4981,
      "▁performans": 4982,
      "▁faydası": 4983,
      "▁bahcenin": 4984,
      "▁tenc": 4985,
      "##yla": 4986,
      "##mli": 4987,
      "▁perakende": 4988,
      "▁prim": 4989,
      "▁acıklıyor": 4990,
      "▁boyu": 4991,
      "▁versin": 4992,
      "##mayın": 4993,
      "▁tul": 4994,
      "▁derhal": 4995,
      "##ometr": 4996,
      "▁delikanlının": 4997,
      "▁satı": 4998,
      "▁aniden": 4999,
      "▁sark": 5000,
      "##ilini": 5001,
      "##5'": 5002,
      "▁dakikada": 5003,
      "##ee": 5004,
      "##c": 5005,
      "▁daglara": 5006,
      "▁istiyor": 5007,
      "##ren": 5008,
      "▁dogruya": 5009,
      "▁yapmadıgını": 5010,
      "▁birbirinin": 5011,
      "##lugunun": 5012,
      "▁tamir": 5013,
      "##ceye": 5014,
      "▁az": 5015,
      "▁kısı": 5016,
      "▁komutan": 5017,
      "▁kendimiz": 5018,
      "▁rastlantı": 5019,
      "##cuyu": 5020,
      "▁1991": 5021,
      "▁milletvek": 5022,
      "▁fonlarını": 5023,
      "▁oks": 5024,
      "▁ifadesi": 5025,
      "▁cocukların": 5026,
      "▁surdu": 5027,
      "▁durdu": 5028,
      "▁il": 5029,
      "▁ileriye": 5030,
      "▁ailesinin": 5031,
      "▁piyasalarını": 5032,
      "▁oranda": 5033,
      "##iller": 5034,
      "##lanmayı": 5035,
      "##if": 5036,
      "▁denli": 5037,
      "▁tı": 5038,
      "▁dilleri": 5039,
      "▁bacaklarını": 5040,
      "▁kasa": 5041,
      "▁mustaf": 5042,
      "▁gelmez": 5043,
      "▁golgesinde": 5044,
      "▁dusundugunu": 5045,
      "▁ayakta": 5046,
      "▁las": 5047,
      "▁dallarında": 5048,
      "▁siir": 5049,
      "▁sok": 5050,
      "▁aksak": 5051,
      "▁calısmaya": 5052,
      "▁zorunlu": 5053,
      "▁uyardı": 5054,
      "▁sanatın": 5055,
      "▁turistlerin": 5056,
      "▁aranmak": 5057,
      "▁kurumların": 5058,
      "▁tahtası": 5059,
      "▁yerinde": 5060,
      "##isinde": 5061,
      "▁varmıs": 5062,
      "▁soyadı": 5063,
      "▁bekcisi": 5064,
      "▁etkili": 5065,
      "##uzlu": 5066,
      "▁kaldım": 5067,
      "##ozit": 5068,
      "##sekse": 5069,
      "##inden": 5070,
      "▁koku": 5071,
      "▁nav": 5072,
      "▁ustumuze": 5073,
      "▁mutfagi": 5074,
      "▁ortasında": 5075,
      "##lılık": 5076,
      "▁getirilerinin": 5077,
      "▁bankasının": 5078,
      "##r": 5079,
      "▁mıyım": 5080,
      "▁insanı": 5081,
      "▁vatan": 5082,
      "##larıdır": 5083,
      "▁anım": 5084,
      "▁yemekler": 5085,
      "▁tehd": 5086,
      "▁balıkları": 5087,
      "▁or": 5088,
      "▁ihtiyacimiz": 5089,
      "▁yag": 5090,
      "##mb": 5091,
      "▁makinesi": 5092,
      "▁disleri": 5093,
      "▁riskleri": 5094,
      "▁mut": 5095,
      "▁cevaplar": 5096,
      "##eder": 5097,
      "▁camları": 5098,
      "▁end": 5099,
      "▁digeri": 5100,
      "▁yudum": 5101,
      "▁urunlerde": 5102,
      "##cunun": 5103,
      "▁dilde": 5104,
      "##ırdı": 5105,
      "—": 5106,
      "▁keyfini": 5107,
      "▁alana": 5108,
      "▁hepsi": 5109,
      "▁antikor": 5110,
      "▁yapmayı": 5111,
      "▁karsiligini": 5112,
      "▁sandal": 5113,
      "▁ticarette": 5114,
      "▁yıl": 5115,
      "▁icecekler": 5116,
      "▁birbirleri": 5117,
      "##ba": 5118,
      "▁kodunu": 5119,
      "▁civarında": 5120,
      "▁mart": 5121,
      "▁haykır": 5122,
      "##eren": 5123,
      "##tıktan": 5124,
      "▁calisanlardan": 5125,
      "▁elimizde": 5126,
      "▁yukarıda": 5127,
      "##ait": 5128,
      "▁almıs": 5129,
      "▁bıcagı": 5130,
      "▁yedir": 5131,
      "▁dususu": 5132,
      "▁acak": 5133,
      "##sizligi": 5134,
      "▁serin": 5135,
      "##uzları": 5136,
      "▁viraj": 5137,
      "▁uzun": 5138,
      "▁sagda": 5139,
      "▁ver": 5140,
      "▁kaleci": 5141,
      "▁sorun": 5142,
      "▁magdur": 5143,
      "▁diyet": 5144,
      "▁cocuklardan": 5145,
      "▁soyu": 5146,
      "▁gideri": 5147,
      "▁yerden": 5148,
      "##si": 5149,
      "▁niyet": 5150,
      "▁kendin": 5151,
      "##ecileri": 5152,
      "##esap": 5153,
      "##cilik": 5154,
      "▁uyeleri": 5155,
      "▁bulgu": 5156,
      "▁luzum": 5157,
      "##kca": 5158,
      "▁secmek": 5159,
      "▁bagımlılıgı": 5160,
      "##alik": 5161,
      "▁ulusal": 5162,
      "▁ceviri": 5163,
      "▁kızların": 5164,
      "▁donemden": 5165,
      "▁gitmeli": 5166,
      "▁ucu": 5167,
      "▁sah": 5168,
      "▁lez": 5169,
      "▁fıstık": 5170,
      "▁kitaptan": 5171,
      "▁zamanla": 5172,
      "▁erkek": 5173,
      "##mser": 5174,
      "▁yanlısı": 5175,
      "▁sırtı": 5176,
      "▁kapısında": 5177,
      "▁attım": 5178,
      "▁uzaklas": 5179,
      "▁ulkenin": 5180,
      "▁kulturune": 5181,
      "▁elimde": 5182,
      "▁yukselmesini": 5183,
      "▁cifte": 5184,
      "▁havayı": 5185,
      "##enili": 5186,
      "▁tis": 5187,
      "▁arap": 5188,
      "▁kadını": 5189,
      "▁yurumek": 5190,
      "##uverdi": 5191,
      "##cu": 5192,
      "▁organı": 5193,
      "▁yerine": 5194,
      "▁fındık": 5195,
      "▁isada": 5196,
      "##dıgını": 5197,
      "▁litre": 5198,
      "▁mortgage": 5199,
      "▁elbis": 5200,
      "##tti": 5201,
      "▁yaptıgını": 5202,
      "▁kayı": 5203,
      "▁se": 5204,
      "▁nakliye": 5205,
      "▁oturumda": 5206,
      "##amın": 5207,
      "▁bile": 5208,
      "##agın": 5209,
      "##imen": 5210,
      "▁siparisleri": 5211,
      "▁dilim": 5212,
      "▁sınırı": 5213,
      "▁degerlendirmek": 5214,
      "##van": 5215,
      "▁yeng": 5216,
      "##sim": 5217,
      "##atlı": 5218,
      "▁kaldırımda": 5219,
      "▁chic": 5220,
      "##sul": 5221,
      "▁calı": 5222,
      "##jde": 5223,
      "▁gorusler": 5224,
      "▁kumarbaz": 5225,
      "▁sert": 5226,
      "##ından": 5227,
      "▁glob": 5228,
      "▁tatildi": 5229,
      "▁lı": 5230,
      "▁planın": 5231,
      "▁selef": 5232,
      "▁gittim": 5233,
      "▁tuf": 5234,
      "▁hanım": 5235,
      "▁vardı": 5236,
      "▁bizleri": 5237,
      "▁arıtma": 5238,
      "▁mor": 5239,
      "▁boynu": 5240,
      "▁atolye": 5241,
      "▁cemiyet": 5242,
      "▁ses": 5243,
      "▁secenegi": 5244,
      "▁damg": 5245,
      "##ınc": 5246,
      "▁konsolos": 5247,
      "▁birbirlerinin": 5248,
      "▁amac": 5249,
      "▁koca": 5250,
      "▁kinden": 5251,
      "▁halkına": 5252,
      "▁plajda": 5253,
      "▁horm": 5254,
      "##abor": 5255,
      "▁mufett": 5256,
      "▁sandalye": 5257,
      "▁tung": 5258,
      "▁yetenekleri": 5259,
      "▁nazır": 5260,
      "▁genelkurmay": 5261,
      "▁sevimli": 5262,
      "▁tabak": 5263,
      "▁saraydan": 5264,
      "##var": 5265,
      "▁adamakıllı": 5266,
      "▁ekonomisini": 5267,
      "▁telaf": 5268,
      "##iver": 5269,
      "##eledi": 5270,
      "##-sat": 5271,
      "▁yetersiz": 5272,
      "##sunuz": 5273,
      "▁sayfaları": 5274,
      "▁kalitesi": 5275,
      "##outh": 5276,
      "▁viski": 5277,
      "▁pay": 5278,
      "▁aktiv": 5279,
      "##nun": 5280,
      "▁vasıtasıyla": 5281,
      "▁olanak": 5282,
      "▁onay": 5283,
      "▁mektebe": 5284,
      "▁corp.": 5285,
      "▁yapılıyor": 5286,
      "▁ama": 5287,
      "▁japonlar": 5288,
      "▁deftere": 5289,
      "##acılara": 5290,
      "▁1986": 5291,
      "##hal": 5292,
      "▁yasam": 5293,
      "▁mada": 5294,
      "▁20": 5295,
      "▁getirmek": 5296,
      "▁listesini": 5297,
      "##eger": 5298,
      "##ındır": 5299,
      "▁payını": 5300,
      "▁gorunen": 5301,
      "▁yurek": 5302,
      "▁yılına": 5303,
      "▁sart": 5304,
      "##landıgını": 5305,
      "##asur": 5306,
      "▁ar": 5307,
      "▁bat": 5308,
      "▁ayrıntılarıyla": 5309,
      "▁kilidi": 5310,
      "▁ydi": 5311,
      "##lamadı": 5312,
      "▁bunca": 5313,
      "▁degisiklikleri": 5314,
      "▁hep": 5315,
      "##uzel": 5316,
      "▁gonderdi": 5317,
      "▁gazetelerde": 5318,
      "▁filmleri": 5319,
      "##ligini": 5320,
      "▁misafirimizle": 5321,
      "▁ipuc": 5322,
      "▁keyif": 5323,
      "▁agrıları": 5324,
      "▁santim": 5325,
      "##cuya": 5326,
      "▁yedi": 5327,
      "##iyla": 5328,
      "▁yarıda": 5329,
      "▁spekul": 5330,
      "▁bilgiyi": 5331,
      "▁asagıl": 5332,
      "▁ailelere": 5333,
      "▁eh": 5334,
      "▁sanat": 5335,
      "▁sukur": 5336,
      "▁yapmak": 5337,
      "##larını": 5338,
      "▁ola": 5339,
      "▁asa": 5340,
      "▁ikide": 5341,
      "▁saglıgı": 5342,
      "▁musterilerin": 5343,
      "▁turku": 5344,
      "▁agzım": 5345,
      "▁cerr": 5346,
      "##usudur": 5347,
      "▁ehemm": 5348,
      "▁iscileri": 5349,
      "▁bakmak": 5350,
      "##tın": 5351,
      "▁ley": 5352,
      "▁planlar": 5353,
      "##udur": 5354,
      "##cılıgın": 5355,
      "▁kisiligi": 5356,
      "▁kendinin": 5357,
      "▁atıyor": 5358,
      "##irleri": 5359,
      "▁raporlar": 5360,
      "▁salatası": 5361,
      "▁kristal": 5362,
      "▁gosterileri": 5363,
      "▁arkadasa": 5364,
      "▁sifir": 5365,
      "▁fırın": 5366,
      "▁hangileri": 5367,
      "▁hukumleri": 5368,
      "▁gozlerine": 5369,
      "##veri": 5370,
      "▁naf": 5371,
      "▁evrenin": 5372,
      "▁bahset": 5373,
      "▁rolu": 5374,
      "▁maf": 5375,
      "▁kapısı": 5376,
      "▁vatanın": 5377,
      "▁baskan": 5378,
      "▁baslangıcı": 5379,
      "##larımdan": 5380,
      "▁basrol": 5381,
      "▁gelistir": 5382,
      "##ktadır": 5383,
      "▁edici": 5384,
      "▁memnuniyetini": 5385,
      "▁onayladı": 5386,
      "▁coktan": 5387,
      "##uklar": 5388,
      "▁mermi": 5389,
      "▁kin": 5390,
      "▁ihtimalini": 5391,
      "▁federal": 5392,
      "##kleri": 5393,
      "▁komunist": 5394,
      "▁tuzu": 5395,
      "▁imkan": 5396,
      "##ılım": 5397,
      "▁artan": 5398,
      "##les": 5399,
      "##digimden": 5400,
      "##lamiyorum": 5401,
      "▁farkında": 5402,
      "▁kuy": 5403,
      "▁gazi": 5404,
      "▁artısla": 5405,
      "▁saldır": 5406,
      "▁seh": 5407,
      "##av": 5408,
      "▁zorun": 5409,
      "▁hız": 5410,
      "▁yaptim": 5411,
      "▁rom": 5412,
      "▁uretim": 5413,
      "##kanlıgı": 5414,
      "##ımızda": 5415,
      "▁borc": 5416,
      "▁razı": 5417,
      "▁askerleri": 5418,
      "▁baskanının": 5419,
      "▁nobet": 5420,
      "##ilecegi": 5421,
      "▁kokuyordu": 5422,
      "##e'nin": 5423,
      "▁yonet": 5424,
      "##ezz": 5425,
      "##ılıgında": 5426,
      "▁gormus": 5427,
      "##slı": 5428,
      "▁ideoloj": 5429,
      "▁karsısına": 5430,
      "##ulmustu": 5431,
      "▁yureginde": 5432,
      "▁gosterdi": 5433,
      "▁kazada": 5434,
      "▁koltugun": 5435,
      "##lamaz": 5436,
      "##.6": 5437,
      "▁mutluluk": 5438,
      "##kah": 5439,
      "▁lezzet": 5440,
      "▁defterleri": 5441,
      "▁eroin": 5442,
      "▁odamiz": 5443,
      "▁199": 5444,
      "▁hayatına": 5445,
      "▁bahceler": 5446,
      "▁kahval": 5447,
      "▁tamamı": 5448,
      "▁binbası": 5449,
      "▁gayrimenkul": 5450,
      "▁refakat": 5451,
      "▁beye": 5452,
      "▁sel": 5453,
      "▁norm": 5454,
      "▁tuy": 5455,
      "▁olcekli": 5456,
      "▁bilim": 5457,
      "▁yasası": 5458,
      "▁yiyecek": 5459,
      "▁12": 5460,
      "▁katk": 5461,
      "##acıları": 5462,
      "##40": 5463,
      "▁baltimore'ye": 5464,
      "▁vermesini": 5465,
      "▁komisyonu'nun": 5466,
      "▁hassas": 5467,
      "▁alacak": 5468,
      "▁faturami": 5469,
      "##akti": 5470,
      "▁masrafı": 5471,
      "▁planlıyor": 5472,
      "▁hul": 5473,
      "##en": 5474,
      "▁oruc": 5475,
      "▁hayatımızın": 5476,
      "▁meteor": 5477,
      "▁yeryuz": 5478,
      "##eli": 5479,
      "##oker": 5480,
      "##anıklıgı": 5481,
      "▁recep": 5482,
      "▁bulutlar": 5483,
      "▁ustelik": 5484,
      "▁ulkede": 5485,
      "▁aleminde": 5486,
      "▁cekmis": 5487,
      "##leyici": 5488,
      "▁vegas": 5489,
      "▁aramıza": 5490,
      "##uyor": 5491,
      "▁mustes": 5492,
      "▁ucuyor": 5493,
      "▁anket": 5494,
      "▁istem": 5495,
      "##lerimizden": 5496,
      "▁fare": 5497,
      "▁temelde": 5498,
      "▁satıslarda": 5499,
      "▁kulup": 5500,
      "▁ta": 5501,
      "##anlardan": 5502,
      "▁ogrenciler": 5503,
      "##yacag": 5504,
      "▁yukseldi": 5505,
      "▁spor": 5506,
      "▁duvarda": 5507,
      "▁kud": 5508,
      "▁duzenleme": 5509,
      "▁ogrenim": 5510,
      "##man": 5511,
      "##yarak": 5512,
      "▁guvenini": 5513,
      "▁yıldız": 5514,
      "▁150": 5515,
      "▁yasayı": 5516,
      "▁duzel": 5517,
      "▁gostermeye": 5518,
      "##use": 5519,
      "▁tasdik": 5520,
      "▁dayı": 5521,
      "##ger": 5522,
      "▁sinc": 5523,
      "▁tum": 5524,
      "▁avukat": 5525,
      "▁adlı": 5526,
      "▁masraf": 5527,
      "▁labor": 5528,
      "▁.'": 5529,
      "▁amiri": 5530,
      "▁gor": 5531,
      "▁arkadaslar": 5532,
      "▁kızar": 5533,
      "▁muhur": 5534,
      "▁bayiler": 5535,
      "▁yans": 5536,
      "▁duruma": 5537,
      "▁ilkokul": 5538,
      "▁anlasılıyor": 5539,
      "▁mev": 5540,
      "▁edecegim": 5541,
      "##celi": 5542,
      "▁kesiti": 5543,
      "##edi": 5544,
      "▁andan": 5545,
      "▁7": 5546,
      "##irdi": 5547,
      "▁gectigini": 5548,
      "▁baskal": 5549,
      "##ind": 5550,
      "▁konut": 5551,
      "▁yoz": 5552,
      "##ıyla": 5553,
      "▁aklı": 5554,
      "▁satısa": 5555,
      "▁subv": 5556,
      "▁tatli": 5557,
      "▁lap": 5558,
      "▁gelisme": 5559,
      "▁ucları": 5560,
      "▁sizi": 5561,
      "▁civ": 5562,
      "▁toplamda": 5563,
      "▁medeniyet": 5564,
      "▁oturum": 5565,
      "▁sokagı": 5566,
      "▁olculere": 5567,
      "▁oteden": 5568,
      "▁felce": 5569,
      "▁allah": 5570,
      "▁teri": 5571,
      "▁verdim": 5572,
      "##unde": 5573,
      "▁calisanlarin": 5574,
      "▁yazıları": 5575,
      "▁kullanıldıgını": 5576,
      "▁karsıs": 5577,
      "▁makineler": 5578,
      "▁temizlikte": 5579,
      "▁alabilmek": 5580,
      "▁aracı": 5581,
      "1": 5582,
      "▁bilgilendirilmek": 5583,
      "▁uykuda": 5584,
      "▁zum": 5585,
      "▁ikisinin": 5586,
      "▁gorec": 5587,
      "▁insaat": 5588,
      "▁maydanoz": 5589,
      "▁becer": 5590,
      "▁varmak": 5591,
      "▁editoru": 5592,
      "▁alacaklılar": 5593,
      "▁dolaptan": 5594,
      "▁alev": 5595,
      "▁kuzu": 5596,
      "▁kariyer": 5597,
      "##ugunu": 5598,
      "##ullu": 5599,
      "▁sozler": 5600,
      "▁gaf": 5601,
      "▁mont": 5602,
      "▁dinam": 5603,
      "▁kaldırıma": 5604,
      "▁?..": 5605,
      "▁orne": 5606,
      "##izlerdi": 5607,
      "##gel": 5608,
      "▁hik": 5609,
      "▁ardı": 5610,
      "▁icecek": 5611,
      "▁hus": 5612,
      "▁dil": 5613,
      "▁buzdol": 5614,
      "▁geleceg": 5615,
      "▁durum": 5616,
      "▁danıs": 5617,
      "##malarına": 5618,
      "▁dun": 5619,
      "▁havaalanlarını": 5620,
      "##nu": 5621,
      "▁yemeklerini": 5622,
      "##ekl": 5623,
      "▁aklından": 5624,
      "▁inkılap": 5625,
      "▁lir": 5626,
      "▁davet": 5627,
      "▁ingil": 5628,
      "▁teskilat": 5629,
      "▁koprunun": 5630,
      "▁ala": 5631,
      "▁kullanımını": 5632,
      "##gar": 5633,
      "▁kisilerle": 5634,
      "▁muhab": 5635,
      "##lanacak": 5636,
      "▁duran": 5637,
      "▁aktor": 5638,
      "##ırken": 5639,
      "▁barikat": 5640,
      "##cak": 5641,
      "##pe": 5642,
      "▁valilik": 5643,
      "##ustugunu": 5644,
      "##erince": 5645,
      "▁uzmanların": 5646,
      "▁alet": 5647,
      "▁spons": 5648,
      "▁listede": 5649,
      "▁adam": 5650,
      "▁doner": 5651,
      "▁tenkit": 5652,
      "▁sacak": 5653,
      "▁kaybet": 5654,
      "##landıgında": 5655,
      "▁disiplin": 5656,
      "##ını": 5657,
      "▁fiyatların": 5658,
      "▁kıymetleriyle": 5659,
      "##layıp": 5660,
      "##ize": 5661,
      "▁istiyoruz": 5662,
      "▁tane": 5663,
      "##ilmez": 5664,
      "▁asıl": 5665,
      "▁yaptır": 5666,
      "▁kalmaz": 5667,
      "▁renklerde": 5668,
      "▁boston'dan": 5669,
      "▁karısıklık": 5670,
      "##ıklarından": 5671,
      "##desinin": 5672,
      "▁tesiste": 5673,
      "▁tahmini": 5674,
      "▁sokagın": 5675,
      "##10": 5676,
      "▁gibidir": 5677,
      "▁zamanı": 5678,
      "▁konfor": 5679,
      "▁girisi": 5680,
      "▁isgal": 5681,
      "##emb": 5682,
      "▁zaman": 5683,
      "▁dortluk": 5684,
      "▁geldik": 5685,
      "▁uzerinde": 5686,
      "##lerinin": 5687,
      "▁usulca": 5688,
      "▁memlekete": 5689,
      "▁isliyor": 5690,
      "▁strate": 5691,
      "▁rıh": 5692,
      "▁doktorlar": 5693,
      "▁zab": 5694,
      "##ıyım": 5695,
      "##a'ya": 5696,
      "▁uyelerini": 5697,
      "▁esy": 5698,
      "▁kad": 5699,
      "▁ipi": 5700,
      "▁govdes": 5701,
      "▁bakim": 5702,
      "▁fat": 5703,
      "▁birbirleriyle": 5704,
      "##ısına": 5705,
      "▁birlesimi": 5706,
      "▁dolastı": 5707,
      "▁kavus": 5708,
      "▁mahs": 5709,
      "▁ihan": 5710,
      "▁ind": 5711,
      "▁lt": 5712,
      "▁iz": 5713,
      "▁istanbul": 5714,
      "##larca": 5715,
      "▁problemi": 5716,
      "▁yetenegi": 5717,
      "▁talihsizlik": 5718,
      "##ildigini": 5719,
      "▁kaliteyi": 5720,
      "▁0": 5721,
      "▁sehr": 5722,
      "▁os": 5723,
      "▁sunu": 5724,
      "##uyorlar": 5725,
      "▁sosyal": 5726,
      "▁bulbul": 5727,
      "▁merhaba": 5728,
      "▁bicim": 5729,
      "▁bastan": 5730,
      "▁maliyetler": 5731,
      "▁isabet": 5732,
      "##bank": 5733,
      "##lamur": 5734,
      "▁borek": 5735,
      "▁sek": 5736,
      "##agon": 5737,
      "▁istinaden": 5738,
      "▁politikası": 5739,
      "▁pansiyonda": 5740,
      "▁ekmegini": 5741,
      "▁kurmaya": 5742,
      "▁aydınlık": 5743,
      "##ildi": 5744,
      "▁but": 5745,
      "▁kasırga": 5746,
      "##asta": 5747,
      "▁cet": 5748,
      "▁yazarların": 5749,
      "▁mazhar": 5750,
      "▁recete": 5751,
      "##bir": 5752,
      "▁huc": 5753,
      "▁icini": 5754,
      "▁tatlı": 5755,
      "▁sade": 5756,
      "▁%3": 5757,
      "▁selam": 5758,
      "▁beklemiyor": 5759,
      "▁buh": 5760,
      "▁yapraklar": 5761,
      "▁pantolon": 5762,
      "▁duygusunu": 5763,
      "▁gordun": 5764,
      "▁lak": 5765,
      "▁pah": 5766,
      "▁sevgil": 5767,
      "▁cinayet": 5768,
      "##yalizm": 5769,
      "##ılap": 5770,
      "##o'dan": 5771,
      "▁sofra": 5772,
      "▁karı": 5773,
      "▁dedik": 5774,
      "▁dusmeye": 5775,
      "▁tesekkurler": 5776,
      "▁elektrik": 5777,
      "▁muhim": 5778,
      "▁gorevl": 5779,
      "▁insanla": 5780,
      "▁tahvillerinin": 5781,
      "▁olmustur": 5782,
      "▁hocası": 5783,
      "▁yonelik": 5784,
      "▁darı": 5785,
      "▁blogu": 5786,
      "▁dısına": 5787,
      "▁kadavra": 5788,
      "▁kendisiyle": 5789,
      "▁bahceden": 5790,
      "▁icleri": 5791,
      "▁calismasi": 5792,
      "▁dest": 5793,
      "▁yetersizdi": 5794,
      "▁infil": 5795,
      "▁sacların": 5796,
      "▁krizi": 5797,
      "##madi": 5798,
      "▁kilom": 5799,
      "▁osmanlı": 5800,
      "▁ilaclar": 5801,
      "▁kolt": 5802,
      "▁iskeleye": 5803,
      "##ledim": 5804,
      "▁kaybol": 5805,
      "▁memleketin": 5806,
      "##ıcılık": 5807,
      "▁bekledigim": 5808,
      "▁sayın": 5809,
      "▁ayaklarıyla": 5810,
      "▁kontak": 5811,
      "▁gayrimen": 5812,
      "▁du": 5813,
      "##agını": 5814,
      "▁dahi": 5815,
      "▁sendromu": 5816,
      "▁milyardan": 5817,
      "##lugunda": 5818,
      "▁vizyon": 5819,
      "▁caddesi": 5820,
      "▁alamet": 5821,
      "▁miz": 5822,
      "▁kapıları": 5823,
      "▁indirimi": 5824,
      "##ekte": 5825,
      "##iyeleri": 5826,
      "##ktır": 5827,
      "▁atıldı": 5828,
      "▁ogren": 5829,
      "▁odam": 5830,
      "##.3": 5831,
      "▁olabil": 5832,
      "▁ulkeden": 5833,
      "▁bulten": 5834,
      "##edigim": 5835,
      "▁sıcak": 5836,
      "▁ov": 5837,
      "##adde": 5838,
      "##)": 5839,
      "▁mutfaga": 5840,
      "▁agı": 5841,
      "##ho": 5842,
      "▁yerlerini": 5843,
      "▁buraya": 5844,
      "▁imtiyaz": 5845,
      "▁sat": 5846,
      "▁glas": 5847,
      "##emis": 5848,
      "▁birisine": 5849,
      "▁dısarıda": 5850,
      "▁sucu": 5851,
      "▁rub": 5852,
      "##lemis": 5853,
      "▁keskin": 5854,
      "▁sektorde": 5855,
      "##ih": 5856,
      "##lanan": 5857,
      "▁yuvarlak": 5858,
      "##gimde": 5859,
      "▁gazel": 5860,
      "▁fisk": 5861,
      "▁strateji": 5862,
      "▁bakkal": 5863,
      "▁kısalt": 5864,
      "##eligi": 5865,
      "##indi": 5866,
      "▁bunlar": 5867,
      "▁birde": 5868,
      "▁kerp": 5869,
      "▁hazırlanısı": 5870,
      "▁do": 5871,
      "▁hizm": 5872,
      "▁anay": 5873,
      "▁yemegini": 5874,
      "▁acen": 5875,
      "▁sayet": 5876,
      "▁sened": 5877,
      "##eg": 5878,
      "▁resim": 5879,
      "##iniz": 5880,
      "▁delikan": 5881,
      "##”": 5882,
      "▁dususunu": 5883,
      "▁basarı": 5884,
      "▁davranmak": 5885,
      "##asinda": 5886,
      "▁geride": 5887,
      "▁biber": 5888,
      "##eticiler": 5889,
      "##amet": 5890,
      "▁malını": 5891,
      "▁tadını": 5892,
      "▁antr": 5893,
      "▁ucretleri": 5894,
      "▁ogretmenim": 5895,
      "▁ed": 5896,
      "▁istikbal": 5897,
      "▁buyumenin": 5898,
      "▁masaj": 5899,
      "▁piyasasında": 5900,
      "▁c": 5901,
      "▁yasad": 5902,
      "▁tadimiza": 5903,
      "##otuz": 5904,
      "▁pence": 5905,
      "▁metaller": 5906,
      "▁oper": 5907,
      "##usun": 5908,
      "▁gencin": 5909,
      "▁sorar": 5910,
      "##'nin": 5911,
      "▁pasta": 5912,
      "▁piyanonun": 5913,
      "▁yuzlerini": 5914,
      "▁fırtına": 5915,
      "▁cumhuriyet": 5916,
      "▁hadise": 5917,
      "▁olun": 5918,
      "▁tarafına": 5919,
      "▁atmak": 5920,
      "##etsiz": 5921,
      "▁macında": 5922,
      "▁enerji": 5923,
      "▁enflasyonu": 5924,
      "▁degistiriyor": 5925,
      "▁ampul": 5926,
      "▁gorme": 5927,
      "▁93": 5928,
      "▁protesto": 5929,
      "▁sebeplerden": 5930,
      "▁birbirlerine": 5931,
      "▁gecir": 5932,
      "##vel": 5933,
      "▁kanunu": 5934,
      "▁hamle": 5935,
      "▁mevsim": 5936,
      "▁kına": 5937,
      "▁hizmetine": 5938,
      "▁60": 5939,
      "▁reklam": 5940,
      "▁impar": 5941,
      "▁durumunu": 5942,
      "▁dogdu": 5943,
      "▁kazayla": 5944,
      "▁kavramının": 5945,
      "##ıp": 5946,
      "▁lokanta": 5947,
      "▁kafese": 5948,
      "▁sehirde": 5949,
      "##izdi": 5950,
      "▁sıc": 5951,
      "▁begendim": 5952,
      "▁oranlarının": 5953,
      "##amız": 5954,
      "▁artarak": 5955,
      "▁dusunuyoruz": 5956,
      "##ımla": 5957,
      "▁bayragı": 5958,
      "▁yuf": 5959,
      "▁olay": 5960,
      "##esyon": 5961,
      "▁onemi": 5962,
      "##00000": 5963,
      "##mıl": 5964,
      "▁geregini": 5965,
      "▁kamuya": 5966,
      "▁hayatım": 5967,
      "▁nan": 5968,
      "##tım": 5969,
      "##apolis": 5970,
      "▁merdiven": 5971,
      "▁herif": 5972,
      "▁ense": 5973,
      "▁kalabalıgı": 5974,
      "▁3.ceyrek": 5975,
      "▁hareketleri": 5976,
      "▁dedemin": 5977,
      "▁un": 5978,
      "▁met": 5979,
      "▁bolumunu": 5980,
      "##ims": 5981,
      "▁sonucunu": 5982,
      "▁yaklastı": 5983,
      "##ilerdi": 5984,
      "##utlu": 5985,
      "▁yumruk": 5986,
      "##larım": 5987,
      "##sman": 5988,
      "▁kapat": 5989,
      "▁fast": 5990,
      "▁aska": 5991,
      "▁kadınlara": 5992,
      "▁aktarma": 5993,
      "##do": 5994,
      "▁tehlikeye": 5995,
      "▁tempo": 5996,
      "▁basket": 5997,
      "▁gunde": 5998,
      "▁karıstır": 5999,
      "▁zeytin": 6000,
      "▁rev": 6001,
      "▁kadına": 6002,
      "##edig": 6003,
      "▁otellerin": 6004,
      "▁tribun": 6005,
      "▁dedikodu": 6006,
      "##'n": 6007,
      "▁tespih": 6008,
      "▁dersiniz": 6009,
      "▁keleb": 6010,
      "▁dardi": 6011,
      "##isidir": 6012,
      "▁hayrete": 6013,
      "▁tartısmayı": 6014,
      "▁derdi": 6015,
      "▁turden": 6016,
      "▁istedigim": 6017,
      "▁enstit": 6018,
      "▁sehirler": 6019,
      "▁ruba": 6020,
      "▁duzeyi": 6021,
      "##ara": 6022,
      "##rat": 6023,
      "▁restor": 6024,
      "##celeri": 6025,
      "▁arkadasını": 6026,
      "##a'nın": 6027,
      "▁ogeleri": 6028,
      "##meni": 6029,
      "▁ard": 6030,
      "##emiydi": 6031,
      "##sas": 6032,
      "▁yılki": 6033,
      "▁satmak": 6034,
      "▁etrafımda": 6035,
      "##otte": 6036,
      "▁muzigin": 6037,
      "▁yonden": 6038,
      "##ding": 6039,
      "▁buyur": 6040,
      "▁akım": 6041,
      "▁demiri": 6042,
      "▁sahipleri": 6043,
      "▁baskasının": 6044,
      "▁)": 6045,
      "▁guleryuzlulerdi": 6046,
      "▁aydınlat": 6047,
      "▁memuriyet": 6048,
      "▁yangın": 6049,
      "▁yumuk": 6050,
      "▁profesoru": 6051,
      "▁personelinden": 6052,
      "##mamıs": 6053,
      "▁tanıt": 6054,
      "##ska": 6055,
      "▁seklinde": 6056,
      "▁raporda": 6057,
      "▁istanbul'un": 6058,
      "▁hissed": 6059,
      "##irligi": 6060,
      "▁trav": 6061,
      "▁donmus": 6062,
      "▁soylemedi": 6063,
      "▁hamam": 6064,
      "▁cas": 6065,
      "##erdi": 6066,
      "▁basları": 6067,
      "▁vekili": 6068,
      "▁mufettis": 6069,
      "▁havayollarını": 6070,
      "▁no": 6071,
      "▁sunum": 6072,
      "##tiklerini": 6073,
      "▁oyn": 6074,
      "▁pazarda": 6075,
      "▁buyumesini": 6076,
      "▁odada": 6077,
      "▁santimetre": 6078,
      "▁dayanagı": 6079,
      "##irin": 6080,
      "##zır": 6081,
      "▁sutu": 6082,
      "##tar": 6083,
      "▁maddesi": 6084,
      "▁colde": 6085,
      "▁otelin": 6086,
      "▁soluc": 6087,
      "▁tahakkuk": 6088,
      "▁guclerin": 6089,
      "##tıldı": 6090,
      "▁oyley": 6091,
      "▁havayolunun": 6092,
      "▁musik": 6093,
      "▁girdiler": 6094,
      "##ssa": 6095,
      "▁kenarı": 6096,
      "##lege": 6097,
      "▁fonların": 6098,
      "▁ropor": 6099,
      "▁arastırmacılar": 6100,
      "▁secimlerde": 6101,
      "▁ihtis": 6102,
      "▁arttıgını": 6103,
      "▁atlanta": 6104,
      "##ldi": 6105,
      "▁akın": 6106,
      "▁mutfaktan": 6107,
      "▁sizlere": 6108,
      "▁ekonomisinin": 6109,
      "##ulmustur": 6110,
      "##'ni": 6111,
      "▁propag": 6112,
      "▁cicek": 6113,
      "▁sabahları": 6114,
      "##uttu": 6115,
      "▁cabayı": 6116,
      "##gun": 6117,
      "▁orada": 6118,
      "▁agzını": 6119,
      "▁bıyıkları": 6120,
      "▁bıy": 6121,
      "▁isciler": 6122,
      "▁enst": 6123,
      "▁bakanlıgı": 6124,
      "▁ciddiyet": 6125,
      "##bay": 6126,
      "##masi": 6127,
      "▁dordu": 6128,
      "▁gozume": 6129,
      "▁saldırı": 6130,
      "▁birinde": 6131,
      "##desine": 6132,
      "▁ozen": 6133,
      "▁fist": 6134,
      "▁ann": 6135,
      "##red": 6136,
      "▁ef": 6137,
      "▁sırt": 6138,
      "▁aldır": 6139,
      "##as": 6140,
      "##ına": 6141,
      "▁tasın": 6142,
      "▁buyukel": 6143,
      "▁bilgim": 6144,
      "▁ın": 6145,
      "▁kıs": 6146,
      "##duy": 6147,
      "▁yılı": 6148,
      "##unuyor": 6149,
      "▁cenesine": 6150,
      "▁hakkın": 6151,
      "##an": 6152,
      "▁kayb": 6153,
      "▁ism": 6154,
      "▁kulliyat": 6155,
      "▁endise": 6156,
      "##tıklarını": 6157,
      "##ersey": 6158,
      "▁agzında": 6159,
      "▁muh": 6160,
      "▁korid": 6161,
      "▁ruhu": 6162,
      "▁topr": 6163,
      "▁ihtiras": 6164,
      "▁vas": 6165,
      "##liginden": 6166,
      "▁eden": 6167,
      "▁yelek": 6168,
      "▁parka": 6169,
      "▁hos": 6170,
      "▁hangisi": 6171,
      "##ume": 6172,
      "▁lambaları": 6173,
      "##lenmek": 6174,
      "▁kimisi": 6175,
      "▁olasılıgı": 6176,
      "▁istatistik": 6177,
      "▁kızcagız": 6178,
      "▁edilemez": 6179,
      "▁3": 6180,
      "##dası": 6181,
      "▁ayakkabı": 6182,
      "▁okulu": 6183,
      "▁sakınca": 6184,
      "▁mini": 6185,
      "##ları": 6186,
      "▁toparlanma": 6187,
      "▁piz": 6188,
      "▁ekonominin": 6189,
      "▁suresini": 6190,
      "##3'e": 6191,
      "##ısız": 6192,
      "▁zih": 6193,
      "▁iliskisini": 6194,
      "▁got": 6195,
      "▁baslattı": 6196,
      "##nıp": 6197,
      "▁alması": 6198,
      "▁kalabalık": 6199,
      "##lıgım": 6200,
      "▁yaralan": 6201,
      "▁adalet": 6202,
      "▁aramızda": 6203,
      "▁dumana": 6204,
      "▁daya": 6205,
      "▁basınc": 6206,
      "▁dunyasına": 6207,
      "▁salıncak": 6208,
      "▁mucev": 6209,
      "▁nisp": 6210,
      "▁oc": 6211,
      "▁sebep": 6212,
      "▁karsıtı": 6213,
      "▁yapt": 6214,
      "##iyetine": 6215,
      "##larken": 6216,
      "##onel": 6217,
      "##onya": 6218,
      "▁mısın": 6219,
      "▁aldat": 6220,
      "▁ilcesinde": 6221,
      "▁o": 6222,
      "▁ucreti": 6223,
      "▁hamlede": 6224,
      "▁havl": 6225,
      "##+": 6226,
      "▁satar": 6227,
      "##ıcak": 6228,
      "▁ileride": 6229,
      "▁noktasına": 6230,
      "▁yazın": 6231,
      "▁hikay": 6232,
      "▁lamb": 6233,
      "▁olması": 6234,
      "▁giydi": 6235,
      "▁gidiyorum": 6236,
      "▁degi": 6237,
      "##eviz": 6238,
      "▁katalog": 6239,
      "▁hal": 6240,
      "▁hareket": 6241,
      "##larının": 6242,
      "▁sehrine": 6243,
      "▁tereddut": 6244,
      "▁insanlara": 6245,
      "▁cih": 6246,
      "▁roportajda": 6247,
      "▁birincisi": 6248,
      "##lari": 6249,
      "▁personeli": 6250,
      "##ımcı": 6251,
      "▁buyut": 6252,
      "##asa": 6253,
      "▁krizinden": 6254,
      "▁cesi": 6255,
      "##abet": 6256,
      "▁helv": 6257,
      "▁fin": 6258,
      "▁burun": 6259,
      "▁ayrıca": 6260,
      "▁baslama": 6261,
      "▁tahammul": 6262,
      "▁yapardı": 6263,
      "▁sermaye": 6264,
      "▁lav": 6265,
      "##urarak": 6266,
      "▁rez": 6267,
      "▁gozleriyle": 6268,
      "▁gozet": 6269,
      "##yken": 6270,
      "▁15": 6271,
      "▁yerdi": 6272,
      "##ecilerin": 6273,
      "▁finansmanı": 6274,
      "▁kanada": 6275,
      "##esizdi": 6276,
      "▁sahis": 6277,
      "▁bahc": 6278,
      "▁artıyor": 6279,
      "▁kurulun": 6280,
      "▁borclarını": 6281,
      "▁gemiler": 6282,
      "▁beklenen": 6283,
      "▁manzarasi": 6284,
      "▁keci": 6285,
      "▁sorunla": 6286,
      "▁arkadas": 6287,
      "▁ittifak": 6288,
      "▁rakamları": 6289,
      "▁33": 6290,
      "▁anlar": 6291,
      "▁ri": 6292,
      "▁illet": 6293,
      "▁savundu": 6294,
      "▁degn": 6295,
      "▁artcı": 6296,
      "▁kabil": 6297,
      "▁na": 6298,
      "▁kosesine": 6299,
      "▁yapılan": 6300,
      "▁sanal": 6301,
      "▁daha": 6302,
      "▁hub": 6303,
      "​": 6304,
      "▁sirketine": 6305,
      "▁igne": 6306,
      "▁yanıl": 6307,
      "##arki": 6308,
      "▁daireleri": 6309,
      "▁canlı": 6310,
      "▁arayısı": 6311,
      "▁sayılır": 6312,
      "▁tahminle": 6313,
      "▁hikaye": 6314,
      "▁maliyetlerin": 6315,
      "▁cogunu": 6316,
      "▁agab": 6317,
      "▁kulu": 6318,
      "▁brosur": 6319,
      "▁muhafaza": 6320,
      "▁lut": 6321,
      "▁daktil": 6322,
      "▁abi": 6323,
      "▁kredinin": 6324,
      "▁gec": 6325,
      "##lenmesine": 6326,
      "##agına": 6327,
      "▁bizden": 6328,
      "▁bakımdan": 6329,
      "▁ail": 6330,
      "▁evlere": 6331,
      "▁yurtd": 6332,
      "##ılıp": 6333,
      "▁insanoglu": 6334,
      "▁karara": 6335,
      "##yıl": 6336,
      "▁pazarlarda": 6337,
      "▁pansiyon": 6338,
      "▁i": 6339,
      "▁senar": 6340,
      "▁ekonomistler": 6341,
      "▁12'den": 6342,
      "▁astar": 6343,
      "▁tabancayı": 6344,
      "##tay": 6345,
      "##dur": 6346,
      "▁odalarin": 6347,
      "▁kıvr": 6348,
      "▁silah": 6349,
      "▁ki": 6350,
      "▁yemek": 6351,
      "#": 6352,
      "▁donus": 6353,
      "▁kır": 6354,
      "▁zat": 6355,
      "▁oglak": 6356,
      "##eceksiniz": 6357,
      "▁cokusunden": 6358,
      "▁seyirciler": 6359,
      "▁suyunun": 6360,
      "▁99": 6361,
      "▁istasyonu": 6362,
      "▁cagır": 6363,
      "##emedi": 6364,
      "▁yıla": 6365,
      "▁soyledi": 6366,
      "▁co": 6367,
      "▁el": 6368,
      "▁musunuz": 6369,
      "▁boylu": 6370,
      "##eginiz": 6371,
      "▁sın": 6372,
      "▁iceceklerden": 6373,
      "▁bez": 6374,
      "▁yemekten": 6375,
      "▁dallas'tan": 6376,
      "▁gunlere": 6377,
      "##west": 6378,
      "▁satıslarının": 6379,
      "▁karıstırın": 6380,
      "##cag": 6381,
      "▁guzelligini": 6382,
      "▁cagrısı": 6383,
      "▁havası": 6384,
      "##al'ın": 6385,
      "▁dava": 6386,
      "▁hayv": 6387,
      "▁hay": 6388,
      "##ılmaz": 6389,
      "▁yumus": 6390,
      "▁agzımı": 6391,
      "▁cıkarlarını": 6392,
      "##tıgına": 6393,
      "##acıların": 6394,
      "▁babanın": 6395,
      "▁hur": 6396,
      "▁eli": 6397,
      "▁bulan": 6398,
      "▁cene": 6399,
      "▁mahalle": 6400,
      "▁birimleri": 6401,
      "▁fotograflar": 6402,
      "▁mimar": 6403,
      "▁onur": 6404,
      "▁herkesin": 6405,
      "▁ogrenci": 6406,
      "▁etmey": 6407,
      "##lenecek": 6408,
      "##lerinizi": 6409,
      "▁isletmelere": 6410,
      "▁hizmetlerinin": 6411,
      "##e": 6412,
      "▁hareketinin": 6413,
      "##ameti": 6414,
      "▁dos": 6415,
      "▁torbaya": 6416,
      "▁yapı": 6417,
      "▁kof": 6418,
      "▁fırc": 6419,
      "▁kacındı": 6420,
      "▁kutuk": 6421,
      "##za": 6422,
      "▁zeytiny": 6423,
      "▁yerlerinde": 6424,
      "▁koltuguna": 6425,
      "▁olgun": 6426,
      "▁krok": 6427,
      "▁lirayı": 6428,
      "▁kit": 6429,
      "▁kampanyalar": 6430,
      "▁te": 6431,
      "▁tedarik": 6432,
      "▁ick": 6433,
      "##bar": 6434,
      "##ızın": 6435,
      "▁bolumu": 6436,
      "▁bebegi": 6437,
      "▁sorunun": 6438,
      "▁konf": 6439,
      "▁asık": 6440,
      "▁kavga": 6441,
      "##eapolis": 6442,
      "##oy": 6443,
      "##ult": 6444,
      "▁parmaklarını": 6445,
      "▁bilegini": 6446,
      "##gn": 6447,
      "▁muamelesi": 6448,
      "▁1985": 6449,
      "▁yardımına": 6450,
      "▁doları": 6451,
      "▁dunyanın": 6452,
      "▁caminin": 6453,
      "▁ticari": 6454,
      "▁kamuoy": 6455,
      "##abili": 6456,
      "##yak": 6457,
      "▁degerleri": 6458,
      "▁sıhh": 6459,
      "##pu": 6460,
      "##las": 6461,
      "▁soyledim": 6462,
      "▁atalarımızın": 6463,
      "▁tenek": 6464,
      "##tc": 6465,
      "▁kıvıl": 6466,
      "▁oldugum": 6467,
      "▁kasaba": 6468,
      "▁vererek": 6469,
      "▁turs": 6470,
      "▁gelen": 6471,
      "▁apart": 6472,
      "▁tutuk": 6473,
      "▁yıg": 6474,
      "##eysel": 6475,
      "▁46": 6476,
      "▁dere": 6477,
      "▁mumu": 6478,
      "▁dukkanları": 6479,
      "##uz": 6480,
      "▁onunde": 6481,
      "▁biri": 6482,
      "▁katkı": 6483,
      "▁sozcu": 6484,
      "▁fal": 6485,
      "##iyesi": 6486,
      "▁misali": 6487,
      "▁sacı": 6488,
      "▁salonunda": 6489,
      "##ızda": 6490,
      "▁isit": 6491,
      "▁1990'": 6492,
      "▁stat": 6493,
      "▁hayalet": 6494,
      "##saat": 6495,
      "▁hayaller": 6496,
      "▁satıslar": 6497,
      "##ıstı": 6498,
      "##tali": 6499,
      "▁dol": 6500,
      "##ciler": 6501,
      "▁iltif": 6502,
      "▁teklifi": 6503,
      "▁gormedim": 6504,
      "##aya": 6505,
      "▁evin": 6506,
      "▁havayolları'nın": 6507,
      "▁gercekte": 6508,
      "▁kopuk": 6509,
      "▁sıcagı": 6510,
      "▁kravat": 6511,
      "##ıyoruz": 6512,
      "▁hap": 6513,
      "▁bakıcı": 6514,
      "▁ayık": 6515,
      "▁islerde": 6516,
      "▁doları'nda": 6517,
      "▁ortalaması": 6518,
      "##caya": 6519,
      "▁fonun": 6520,
      "▁sirketinin": 6521,
      "▁hoslan": 6522,
      "##arı": 6523,
      "▁guzelligin": 6524,
      "▁bany": 6525,
      "▁durak": 6526,
      "##tırmak": 6527,
      "▁ertelen": 6528,
      "▁tadima": 6529,
      "##cegini": 6530,
      "▁buf": 6531,
      "##lattı": 6532,
      "##ilmis": 6533,
      "▁sizin": 6534,
      "▁fiyata": 6535,
      "▁topragın": 6536,
      "▁nedenlerle": 6537,
      "##lon": 6538,
      "▁alanında": 6539,
      "▁prensip": 6540,
      "▁basvur": 6541,
      "▁ali": 6542,
      "▁fazl": 6543,
      "▁dovus": 6544,
      "▁bekl": 6545,
      "▁olcum": 6546,
      "##elek": 6547,
      "##mini": 6548,
      "▁etmeli": 6549,
      "▁icimi": 6550,
      "▁kalabal": 6551,
      "▁cakmak": 6552,
      "▁gunune": 6553,
      "▁surgun": 6554,
      "▁mikro": 6555,
      "▁kagıdı": 6556,
      "▁yemeklerden": 6557,
      "▁olcu": 6558,
      "▁gorevlisi": 6559,
      "##mer": 6560,
      "▁siparisini": 6561,
      "▁telefona": 6562,
      "▁kıraat": 6563,
      "▁olmus": 6564,
      "▁atların": 6565,
      "##asindan": 6566,
      "##alarımızı": 6567,
      "▁sahip": 6568,
      "▁fasul": 6569,
      "▁ideal": 6570,
      "▁futbol": 6571,
      "▁kemanla": 6572,
      "▁telefonun": 6573,
      "▁yatır": 6574,
      "▁tezker": 6575,
      "▁gucle": 6576,
      "▁van": 6577,
      "▁suk": 6578,
      "##yum": 6579,
      "##dikten": 6580,
      "▁ucte": 6581,
      "▁aldıgı": 6582,
      "##dın": 6583,
      "##ebiliriz": 6584,
      "▁direnc": 6585,
      "▁duk": 6586,
      "▁yılan": 6587,
      "▁sonradan": 6588,
      "##tmis": 6589,
      "▁kaz": 6590,
      "▁yukselerek": 6591,
      "▁tanıklık": 6592,
      "##ent": 6593,
      "▁kendinize": 6594,
      "##burgh": 6595,
      "▁yatagında": 6596,
      "##suz": 6597,
      "▁dukkan": 6598,
      "▁basının": 6599,
      "▁geldig": 6600,
      "▁maliye": 6601,
      "▁degisti": 6602,
      "▁yansı": 6603,
      "▁doruk": 6604,
      "▁onem": 6605,
      "▁ucretini": 6606,
      "▁arazi": 6607,
      "▁bah": 6608,
      "▁patates": 6609,
      "▁yuregini": 6610,
      "▁kararına": 6611,
      "▁sene": 6612,
      "▁yolları": 6613,
      "##innati": 6614,
      "▁depol": 6615,
      "▁degilim": 6616,
      "▁faturam": 6617,
      "##lası": 6618,
      "##muz": 6619,
      "▁basbakan": 6620,
      "▁metni": 6621,
      "▁dogrultusunda": 6622,
      "▁editor": 6623,
      "▁yan": 6624,
      "▁bahan": 6625,
      "▁operator": 6626,
      "▁avize": 6627,
      "▁redd": 6628,
      "##ıntısı": 6629,
      "▁gitti": 6630,
      "▁dini": 6631,
      "▁uygun": 6632,
      "▁yenilg": 6633,
      "##gr": 6634,
      "##ıverdi": 6635,
      "▁kabin": 6636,
      "▁birbir": 6637,
      "▁camasırları": 6638,
      "▁ustalık": 6639,
      "▁hastaları": 6640,
      "##ilisi": 6641,
      "▁yard": 6642,
      "▁sıvı": 6643,
      "▁has": 6644,
      "▁postacı": 6645,
      "▁reasurans": 6646,
      "▁nereye": 6647,
      "▁enerj": 6648,
      "##egen": 6649,
      "▁beni": 6650,
      "▁okuz": 6651,
      "▁pazarlam": 6652,
      "a": 6653,
      "▁senat": 6654,
      "▁kazanarak": 6655,
      "▁tanesi": 6656,
      "▁business": 6657,
      "##bil": 6658,
      "##allas": 6659,
      "##gıyla": 6660,
      "##iyeler": 6661,
      "▁gulu": 6662,
      "▁romat": 6663,
      "##6'sı": 6664,
      "▁vazgec": 6665,
      "▁kıyaslandıgında": 6666,
      "##ıldıgına": 6667,
      "▁heyeti": 6668,
      "##adetin": 6669,
      "▁otellerden": 6670,
      "▁be": 6671,
      "▁jand": 6672,
      "▁genelinde": 6673,
      "▁donanım": 6674,
      "▁hissede": 6675,
      "▁alnında": 6676,
      "▁abd": 6677,
      "▁faal": 6678,
      "▁ric": 6679,
      "▁akr": 6680,
      "▁saygısız": 6681,
      "▁analist": 6682,
      "▁olayı": 6683,
      "▁hain": 6684,
      "▁sarımsak": 6685,
      "▁yenil": 6686,
      "##ith": 6687,
      "▁havay": 6688,
      "▁ilgisini": 6689,
      "▁kurumları": 6690,
      "▁tarihine": 6691,
      "▁gokyuzu": 6692,
      "▁sunuyor": 6693,
      "▁derecede": 6694,
      "▁hakkı": 6695,
      "▁tahminleri": 6696,
      "▁tank": 6697,
      "▁topuk": 6698,
      "▁olmak": 6699,
      "▁cok": 6700,
      "▁akar": 6701,
      "▁yuzyılda": 6702,
      "▁kurulunu": 6703,
      "▁nakliy": 6704,
      "▁arkadaslarından": 6705,
      "##i'nin": 6706,
      "+": 6707,
      "▁turkiye": 6708,
      "▁numaralı": 6709,
      "##ıyorum": 6710,
      "##melere": 6711,
      "▁saun": 6712,
      "▁milwa": 6713,
      "▁minibus": 6714,
      "▁sogu": 6715,
      "▁taz": 6716,
      "▁meydan": 6717,
      "▁reak": 6718,
      "▁sesinin": 6719,
      "▁bilgisayarlarının": 6720,
      "▁isinde": 6721,
      "▁arkasında": 6722,
      "▁jo": 6723,
      "▁manzum": 6724,
      "▁klasik": 6725,
      "▁kisisi": 6726,
      "▁cıkmam": 6727,
      "▁ilacı": 6728,
      "▁tuketiciler": 6729,
      "▁mademki": 6730,
      "▁yild": 6731,
      "▁artırmaya": 6732,
      "▁boston": 6733,
      "▁soldan": 6734,
      "▁neticesinde": 6735,
      "▁yurdun": 6736,
      "▁hıc": 6737,
      "##esindeydi": 6738,
      "##dini": 6739,
      "▁chat": 6740,
      "▁iliskilerinde": 6741,
      "▁olarak": 6742,
      "▁dallas'ta": 6743,
      "▁indirimlerden": 6744,
      "▁del": 6745,
      "▁sicakti": 6746,
      "▁veya": 6747,
      "▁sozcugu": 6748,
      "▁cam": 6749,
      "##f": 6750,
      "▁sıkıntıya": 6751,
      "▁ekonomik": 6752,
      "▁mizah": 6753,
      "▁birkacı": 6754,
      "▁bildi": 6755,
      "▁kalp": 6756,
      "▁yemeklerde": 6757,
      "▁gezeg": 6758,
      "##elendi": 6759,
      "▁5'ten": 6760,
      "▁ulasımını": 6761,
      "##-pr": 6762,
      "▁acmıs": 6763,
      "▁yavas": 6764,
      "▁ascı": 6765,
      "▁geliri": 6766,
      "▁dunku": 6767,
      "▁cabası": 6768,
      "▁mat": 6769,
      "▁atat": 6770,
      "▁odaya": 6771,
      "##lıgından": 6772,
      "▁farz": 6773,
      "▁aygıt": 6774,
      "▁uyum": 6775,
      "▁islem": 6776,
      "▁rakipleri": 6777,
      "▁hob": 6778,
      "▁duyguların": 6779,
      "##icinin": 6780,
      "▁iyiligini": 6781,
      "▁telef": 6782,
      "▁sit": 6783,
      "▁amerikalıların": 6784,
      "▁zekası": 6785,
      "▁oturan": 6786,
      "▁miy": 6787,
      "▁dısar": 6788,
      "▁kaldik": 6789,
      "▁turizm": 6790,
      "▁ederim": 6791,
      "##larına": 6792,
      "▁yapıyor": 6793,
      "▁hamuru": 6794,
      "##oları": 6795,
      "##elerin": 6796,
      "▁kosk": 6797,
      "▁hediy": 6798,
      "▁kahkah": 6799,
      "##melerini": 6800,
      "▁dolandırıcılık": 6801,
      "##stı": 6802,
      "▁sus": 6803,
      "▁cesaret": 6804,
      "▁di": 6805,
      "▁kararı": 6806,
      "▁aqua": 6807,
      "▁gozyas": 6808,
      "▁karsıma": 6809,
      "##tac": 6810,
      "▁had": 6811,
      "▁yapamaz": 6812,
      "▁oncelikle": 6813,
      "▁soyleyebilir": 6814,
      "▁serveti": 6815,
      "▁sepet": 6816,
      "▁huzur": 6817,
      "▁asırı": 6818,
      "▁verilmesi": 6819,
      "▁vapurun": 6820,
      "##isti": 6821,
      "▁nufuz": 6822,
      "▁basla": 6823,
      "▁kıvılcım": 6824,
      "##ılık": 6825,
      "▁toplu": 6826,
      "▁uyar": 6827,
      "▁aquaparki": 6828,
      "##chester": 6829,
      "##asır": 6830,
      "▁yana": 6831,
      "▁she": 6832,
      "##unikasyon": 6833,
      "▁duygusal": 6834,
      "▁leble": 6835,
      "▁kurallarına": 6836,
      "▁dalgın": 6837,
      "▁karsilama": 6838,
      "▁georg": 6839,
      "▁guven": 6840,
      "##igimi": 6841,
      "▁say": 6842,
      "▁pasaj": 6843,
      "▁munasebet": 6844,
      "##ob": 6845,
      "▁ofk": 6846,
      "▁ihtiyat": 6847,
      "▁kısmet": 6848,
      "▁lokma": 6849,
      "▁balık": 6850,
      "▁first": 6851,
      "▁sıfır": 6852,
      "▁konsol": 6853,
      "▁senden": 6854,
      "▁beach": 6855,
      "##atli": 6856,
      "▁top": 6857,
      "##lal": 6858,
      "##fes": 6859,
      "▁satıslarını": 6860,
      "▁dolayi": 6861,
      "▁oteller": 6862,
      "▁tekerlek": 6863,
      "▁kızının": 6864,
      "##abiliriz": 6865,
      "▁uzakti": 6866,
      "▁arabasına": 6867,
      "▁cıkması": 6868,
      "▁tazminat": 6869,
      "▁bayragını": 6870,
      "▁boru": 6871,
      "▁lanet": 6872,
      "##usunun": 6873,
      "▁mecl": 6874,
      "##rah": 6875,
      "▁ureticilerinin": 6876,
      "▁yetkililer": 6877,
      "##amad": 6878,
      "▁elektr": 6879,
      "▁cambaz": 6880,
      "##aleti": 6881,
      "▁kibr": 6882,
      "##iginde": 6883,
      "▁halihazırda": 6884,
      "▁cogun": 6885,
      "##enek": 6886,
      "▁alımına": 6887,
      "##ledigini": 6888,
      "##kan": 6889,
      "▁musabak": 6890,
      "▁besin": 6891,
      "##jyen": 6892,
      "▁kosullar": 6893,
      "▁sef": 6894,
      "▁konumu": 6895,
      "##anan": 6896,
      "▁biliyoruz": 6897,
      "▁giden": 6898,
      "▁7.9": 6899,
      "▁seg": 6900,
      "▁hissesine": 6901,
      "▁sev": 6902,
      "▁karp": 6903,
      "▁astr": 6904,
      "▁varlıgın": 6905,
      "▁erkeklere": 6906,
      "▁adinaydi": 6907,
      "▁ozel": 6908,
      "▁197": 6909,
      "▁%1": 6910,
      "▁aclıktan": 6911,
      "▁kullandı": 6912,
      "▁oburune": 6913,
      "▁otoy": 6914,
      "▁gelmedi": 6915,
      "##iyetinde": 6916,
      "##lık": 6917,
      "▁as": 6918,
      "▁simdiye": 6919,
      "▁seans": 6920,
      "##artım": 6921,
      "▁yatırımları": 6922,
      "▁sarmas": 6923,
      "▁rahip": 6924,
      "▁kumastan": 6925,
      "##-p": 6926,
      "▁gerekiyordu": 6927,
      "▁tencere": 6928,
      "▁nu": 6929,
      "▁3\\/4": 6930,
      "##irmen": 6931,
      "##des": 6932,
      "##ilet": 6933,
      "▁temel": 6934,
      "▁lu": 6935,
      "##`": 6936,
      "▁yat": 6937,
      "▁195": 6938,
      "##emeyi": 6939,
      "▁ikin": 6940,
      "▁tit": 6941,
      "▁savunma": 6942,
      "▁dav": 6943,
      "▁corp": 6944,
      "▁merte": 6945,
      "▁suph": 6946,
      "▁milletinin": 6947,
      "▁odalarında": 6948,
      "▁akımı": 6949,
      "▁iceriye": 6950,
      "▁plastik": 6951,
      "▁guvertede": 6952,
      "##abeti": 6953,
      "▁sonuclarının": 6954,
      "▁yanisi": 6955,
      "▁durumunda": 6956,
      "▁ebeveynler": 6957,
      "▁feo": 6958,
      "▁masrafları": 6959,
      "▁cogunlugu": 6960,
      "▁karsılık": 6961,
      "##ada": 6962,
      "▁bircok": 6963,
      "▁haziranda": 6964,
      "▁ruzg": 6965,
      "▁ikna": 6966,
      "▁dc": 6967,
      "▁apıs": 6968,
      "▁gidecek": 6969,
      "▁ikinci": 6970,
      "▁dizay": 6971,
      "▁cezası": 6972,
      "▁newark'a": 6973,
      "##az": 6974,
      "▁cincinnati": 6975,
      "▁vapur": 6976,
      "▁islerin": 6977,
      "▁faizleri": 6978,
      "▁carptı": 6979,
      "▁birinc": 6980,
      "▁cikolat": 6981,
      "▁firma": 6982,
      "▁yararlı": 6983,
      "##es": 6984,
      "▁olanaklarını": 6985,
      "▁uzerindeydi": 6986,
      "▁gecenin": 6987,
      "▁altı": 6988,
      "##malıdır": 6989,
      "▁romatizm": 6990,
      "▁tesaduf": 6991,
      "▁usul": 6992,
      "▁hacim": 6993,
      "▁saygıyla": 6994,
      "▁kapı": 6995,
      "##cın": 6996,
      "▁kaymakam": 6997,
      "##x": 6998,
      "▁feslegen": 6999,
      "▁davranısları": 7000,
      "▁koalisyon": 7001,
      "##eff": 7002,
      "▁ayak": 7003,
      "▁kesmek": 7004,
      "▁olanı": 7005,
      "▁delikten": 7006,
      "##rek": 7007,
      "##ugu": 7008,
      "▁koseyi": 7009,
      "##ion": 7010,
      "##ımları": 7011,
      "##altı": 7012,
      "##ikleri": 7013,
      "▁1\\/8": 7014,
      "▁mehmet": 7015,
      "##tikten": 7016,
      "▁halleri": 7017,
      "##unluk": 7018,
      "▁musteri": 7019,
      "▁kilise": 7020,
      "▁bizler": 7021,
      "##ktan": 7022,
      "##ılıgı": 7023,
      "▁yurudu": 7024,
      "▁civarı": 7025,
      "▁north": 7026,
      "▁darb": 7027,
      "##lat": 7028,
      "##iyatr": 7029,
      "▁yasaların": 7030,
      "▁varsay": 7031,
      "##gili": 7032,
      "▁hastalıgı": 7033,
      "##alma": 7034,
      "##mamacasına": 7035,
      "##emizi": 7036,
      "##tarken": 7037,
      "##batı": 7038,
      "##imle": 7039,
      "▁leh": 7040,
      "▁bedel": 7041,
      "▁konunun": 7042,
      "##alarında": 7043,
      "##eyecek": 7044,
      "##iyorlar": 7045,
      "▁beyaz": 7046,
      "▁acısından": 7047,
      "▁urk": 7048,
      "▁devrimi": 7049,
      "##bet": 7050,
      "▁10'dan": 7051,
      "▁onc": 7052,
      "▁guvence": 7053,
      "▁onun": 7054,
      "##akta": 7055,
      "##te": 7056,
      "▁yen": 7057,
      "##amayı": 7058,
      "##umlu": 7059,
      "▁kuvvetli": 7060,
      "▁bilgiye": 7061,
      "▁iscilerin": 7062,
      "▁zember": 7063,
      "▁odalar": 7064,
      "▁cincinnati'den": 7065,
      "▁eczan": 7066,
      "▁hibe": 7067,
      "▁yonetim": 7068,
      "▁tutun": 7069,
      "▁tavırla": 7070,
      "▁dokundu": 7071,
      "▁onculuk": 7072,
      "##lilik": 7073,
      "▁ucmak": 7074,
      "▁koruması": 7075,
      "▁ellerini": 7076,
      "▁boyutu": 7077,
      "▁sozunu": 7078,
      "▁hareketle": 7079,
      "##yonel": 7080,
      "▁yapr": 7081,
      "▁vermez": 7082,
      "▁ceyr": 7083,
      "▁kisilerin": 7084,
      "▁sevin": 7085,
      "▁yapıldıgını": 7086,
      "▁yeraltı": 7087,
      "▁iftir": 7088,
      "##.25": 7089,
      "##afeti": 7090,
      "▁portakal": 7091,
      "▁artısları": 7092,
      "▁%70'": 7093,
      "##'ndan": 7094,
      "▁post": 7095,
      "▁duruyordu": 7096,
      "▁stratejisi": 7097,
      "▁calıs": 7098,
      "▁havayolları": 7099,
      "▁yeme": 7100,
      "▁eklen": 7101,
      "▁veril": 7102,
      "##tıs": 7103,
      "▁geriledi": 7104,
      "▁istim": 7105,
      "▁artı": 7106,
      "▁kostur": 7107,
      "▁pirinc": 7108,
      "##lemeler": 7109,
      "##kun": 7110,
      "▁elemanlar": 7111,
      "▁basbakanı": 7112,
      "▁azaltma": 7113,
      "##lis": 7114,
      "##umun": 7115,
      "##lamanın": 7116,
      "▁partisinin": 7117,
      "▁yansıttıgını": 7118,
      "▁eski": 7119,
      "##ited": 7120,
      "▁zabit": 7121,
      "`": 7122,
      "▁gom": 7123,
      "▁bırak": 7124,
      "▁goruyoruz": 7125,
      "##uslu": 7126,
      "▁lev": 7127,
      "▁gunahı": 7128,
      "▁sefi": 7129,
      "▁dayım": 7130,
      "▁baglı": 7131,
      "▁dustugunu": 7132,
      "▁domatesleri": 7133,
      "▁renkleri": 7134,
      "▁aydan": 7135,
      "▁aylık": 7136,
      "▁nazar": 7137,
      "▁sitem": 7138,
      "▁baksana": 7139,
      "▁kalabalıgın": 7140,
      "▁cografy": 7141,
      "##dik": 7142,
      "##emedik": 7143,
      "▁farklılık": 7144,
      "▁tahminler": 7145,
      "▁bilanc": 7146,
      "▁fersah": 7147,
      "##luk": 7148,
      "▁cevabını": 7149,
      "##isle": 7150,
      "##acısı": 7151,
      "▁19": 7152,
      "▁bahcesinde": 7153,
      "▁yalnızca": 7154,
      "▁kampanya": 7155,
      "▁surpr": 7156,
      "##um": 7157,
      "##imum": 7158,
      "▁cıkardı": 7159,
      "▁asagılık": 7160,
      "▁ert": 7161,
      "##0'ı": 7162,
      "▁korkut": 7163,
      "##onra": 7164,
      "▁meydanı": 7165,
      "##lamıslar": 7166,
      "▁ib": 7167,
      "▁reis": 7168,
      "▁nane": 7169,
      "##ikasyon": 7170,
      "##imiza": 7171,
      "▁yun": 7172,
      "▁pad": 7173,
      "▁med": 7174,
      "##eginden": 7175,
      "▁olacaktı": 7176,
      "▁bahsediyor": 7177,
      "▁vermektedir": 7178,
      "▁padisah": 7179,
      "▁verici": 7180,
      "▁sahtek": 7181,
      "▁topraga": 7182,
      "##dız": 7183,
      "##ınızı": 7184,
      "##ulatif": 7185,
      "▁lin": 7186,
      "##00'den": 7187,
      "▁fotograf": 7188,
      "▁masaya": 7189,
      "▁kazancları": 7190,
      "##lı": 7191,
      "##ons": 7192,
      "▁suik": 7193,
      "##unc": 7194,
      "▁ens": 7195,
      "▁gitmek": 7196,
      "##madigim": 7197,
      "▁altında": 7198,
      "▁ytl": 7199,
      "##andan": 7200,
      "▁ırmak": 7201,
      "▁nice": 7202,
      "▁varlıgı": 7203,
      "▁yukselisle": 7204,
      "▁bodrum": 7205,
      "▁yatırımcıların": 7206,
      "▁hosumuza": 7207,
      "▁coktu": 7208,
      "▁isletme": 7209,
      "▁telgraf": 7210,
      "▁hastanın": 7211,
      "##ır": 7212,
      "▁piyasasını": 7213,
      "▁garanti": 7214,
      "▁cıktısı": 7215,
      "▁arkadaslarıyla": 7216,
      "▁tanıtım": 7217,
      "▁kr": 7218,
      "▁sirketten": 7219,
      "▁yardımcıs": 7220,
      "▁sarayın": 7221,
      "▁analizi": 7222,
      "▁dern": 7223,
      "▁ayagını": 7224,
      "▁taksim": 7225,
      "▁iskonto": 7226,
      "##gor": 7227,
      "▁gerekir": 7228,
      "▁sizden": 7229,
      "▁ramaz": 7230,
      "▁yazma": 7231,
      "▁cekilmis": 7232,
      "▁haberdar": 7233,
      "##lin": 7234,
      "##aat": 7235,
      "▁pasif": 7236,
      "▁teknenin": 7237,
      "▁cebinden": 7238,
      "##lanmıstır": 7239,
      "▁belirtmek": 7240,
      "▁performansı": 7241,
      "▁kadında": 7242,
      "▁keman": 7243,
      "▁mimarlık": 7244,
      "▁ulasımı": 7245,
      "▁finc": 7246,
      "##leket": 7247,
      "▁olmadıgını": 7248,
      "▁reorgan": 7249,
      "▁programına": 7250,
      "##-a": 7251,
      "▁cesitli": 7252,
      "▁ceyreginde": 7253,
      "▁kara": 7254,
      "▁musterilerini": 7255,
      "▁u": 7256,
      "▁gorusu": 7257,
      "▁ucuna": 7258,
      "▁soru": 7259,
      "▁donemde": 7260,
      "▁izleme": 7261,
      "##asının": 7262,
      "##zet": 7263,
      "##igini": 7264,
      "▁rahatsızlık": 7265,
      "▁aslına": 7266,
      "▁kiler": 7267,
      "▁derec": 7268,
      "▁kosullarda": 7269,
      "▁dallas'a": 7270,
      "##ann": 7271,
      "▁turlu": 7272,
      "▁okullar": 7273,
      "▁haket": 7274,
      "##duklarını": 7275,
      "▁cizgisini": 7276,
      "##ılma": 7277,
      "▁yaslarında": 7278,
      "▁temeller": 7279,
      "▁arkadan": 7280,
      "▁cekmec": 7281,
      "##layınca": 7282,
      "▁doldur": 7283,
      "▁unvan": 7284,
      "▁ulasimi": 7285,
      "▁kurum": 7286,
      "▁marka": 7287,
      "▁damla": 7288,
      "##elige": 7289,
      "##ıldıgında": 7290,
      "▁bahar": 7291,
      "▁degirmen": 7292,
      "▁vermisti": 7293,
      "▁kitapların": 7294,
      "▁tasarrufu": 7295,
      "▁kurulunun": 7296,
      "▁yanda": 7297,
      "▁goz": 7298,
      "▁iftih": 7299,
      "##landırıyor": 7300,
      "▁iy": 7301,
      "▁keh": 7302,
      "▁universiteden": 7303,
      "▁kısın": 7304,
      "▁ihtiy": 7305,
      "▁gru": 7306,
      "▁dl": 7307,
      "▁klor": 7308,
      "▁yerlesim": 7309,
      "▁belki": 7310,
      "▁soyluyordu": 7311,
      "##int": 7312,
      "##.50": 7313,
      "▁ziyaret": 7314,
      "##gini": 7315,
      "##tiniz": 7316,
      "▁akrep": 7317,
      "▁reng": 7318,
      "▁kuyr": 7319,
      "▁basbakanlık": 7320,
      "▁sizler": 7321,
      "▁havalimanı": 7322,
      "##iren": 7323,
      "▁kanunlar": 7324,
      "##larımızı": 7325,
      "▁nicin": 7326,
      "▁demiryol": 7327,
      "▁kasla": 7328,
      "##8'den": 7329,
      "##uyu": 7330,
      "##anti": 7331,
      "▁hakaret": 7332,
      "▁ederek": 7333,
      "▁rap": 7334,
      "##4'e": 7335,
      "##larınızı": 7336,
      "##80'": 7337,
      "▁sofr": 7338,
      "▁mar": 7339,
      "##he": 7340,
      "▁tabi": 7341,
      "▁ihtilal": 7342,
      "##bek": 7343,
      "▁olmasına": 7344,
      "▁memuru": 7345,
      "▁korkusu": 7346,
      "▁adamların": 7347,
      "##erik": 7348,
      "▁ve": 7349,
      "▁basımıza": 7350,
      "▁destegini": 7351,
      "▁anlatım": 7352,
      "▁ortalamasından": 7353,
      "▁milletten": 7354,
      "▁bırakıyor": 7355,
      "▁duser": 7356,
      "▁cember": 7357,
      "▁arkadasları": 7358,
      "▁bankası": 7359,
      "▁final": 7360,
      "▁reklamları": 7361,
      "▁hayatı": 7362,
      "▁pahali": 7363,
      "▁yadigar": 7364,
      "▁varsa": 7365,
      "▁gozle": 7366,
      "▁buz": 7367,
      "▁kal": 7368,
      "▁askı": 7369,
      "▁gelistirme": 7370,
      "##aver": 7371,
      "▁ihrac": 7372,
      "▁sıkıntı": 7373,
      "▁:": 7374,
      "▁fiz": 7375,
      "▁ucunu": 7376,
      "##kt": 7377,
      "▁bahceleri": 7378,
      "▁dorduncu": 7379,
      "▁deney": 7380,
      "▁edilmisti": 7381,
      "▁aksi": 7382,
      "▁etkisiyle": 7383,
      "##cesine": 7384,
      "▁dak": 7385,
      "▁cesitler": 7386,
      "▁sistemin": 7387,
      "▁sonucların": 7388,
      "▁uyk": 7389,
      "▁temizlik": 7390,
      "▁takımı": 7391,
      "▁bırakır": 7392,
      "▁icat": 7393,
      "▁34": 7394,
      "▁reisi": 7395,
      "##ekon": 7396,
      "▁zararı": 7397,
      "▁hıckırık": 7398,
      "##lıklı": 7399,
      "▁doların": 7400,
      "▁otelde": 7401,
      "▁seninle": 7402,
      "##elin": 7403,
      "▁pencereye": 7404,
      "▁biliyor": 7405,
      "▁ticaret": 7406,
      "▁calısanlar": 7407,
      "▁kasıgı": 7408,
      "##ının": 7409,
      "##ro": 7410,
      "▁arastırmada": 7411,
      "▁veterin": 7412,
      "▁basladılar": 7413,
      "##une": 7414,
      "▁cif": 7415,
      "▁menf": 7416,
      "▁kalkın": 7417,
      "▁baskısı": 7418,
      "▁olumsuzluk": 7419,
      "##ıtı": 7420,
      "▁kapıyı": 7421,
      "##ece": 7422,
      "##kor": 7423,
      "▁kaybedenleri": 7424,
      "##.ceyr": 7425,
      "▁etmeye": 7426,
      "▁surecini": 7427,
      "▁izlen": 7428,
      "▁gole": 7429,
      "##ıla": 7430,
      "##lamıs": 7431,
      "##dugumdan": 7432,
      "▁anlatır": 7433,
      "▁pl": 7434,
      "▁talebinin": 7435,
      "▁muhac": 7436,
      "▁eyaleti": 7437,
      "▁prens": 7438,
      "▁umut": 7439,
      "▁yesil": 7440,
      "##cilikten": 7441,
      "▁bekleme": 7442,
      "▁heykel": 7443,
      "##tr": 7444,
      "▁sirketler": 7445,
      "##ekti": 7446,
      "▁isinin": 7447,
      "▁mız": 7448,
      "▁gem": 7449,
      "##uga": 7450,
      "▁&": 7451,
      "▁eklem": 7452,
      "▁ihtimalle": 7453,
      "▁hareketini": 7454,
      "▁ustune": 7455,
      "##misler": 7456,
      "▁babaları": 7457,
      "▁bagladı": 7458,
      "▁bulasık": 7459,
      "##are": 7460,
      "▁kendimize": 7461,
      "##enlerden": 7462,
      "▁kati": 7463,
      "##ash": 7464,
      "▁sinema": 7465,
      "▁oku": 7466,
      "▁cıkınca": 7467,
      "##ustum": 7468,
      "##madı": 7469,
      "▁dagıt": 7470,
      "▁acıklamayı": 7471,
      "▁yankı": 7472,
      "▁calisirim": 7473,
      "▁potansiy": 7474,
      "▁almıstı": 7475,
      "▁ciftciler": 7476,
      "▁qx": 7477,
      "##cagızı": 7478,
      "▁adımlar": 7479,
      "▁limuzin": 7480,
      "▁kenara": 7481,
      "##lam": 7482,
      "▁hayata": 7483,
      "##erhal": 7484,
      "▁beklentim": 7485,
      "▁arz": 7486,
      "▁surum": 7487,
      "##ci": 7488,
      "▁taze": 7489,
      "ı": 7490,
      "▁bıcakla": 7491,
      "▁onumuz": 7492,
      "▁harca": 7493,
      "▁perdeden": 7494,
      "▁buyukelci": 7495,
      "##go": 7496,
      "▁kucagına": 7497,
      "▁esitlik": 7498,
      "▁vil": 7499,
      "▁aktiviteleri": 7500,
      "▁zevkimize": 7501,
      "▁kahvesi": 7502,
      "▁tasarısı": 7503,
      "▁fez": 7504,
      "▁takdim": 7505,
      "▁cekildi": 7506,
      "##'na": 7507,
      "▁sıkı": 7508,
      "##eldi": 7509,
      "##endi": 7510,
      "##iyle": 7511,
      "▁bazi": 7512,
      "▁kas": 7513,
      "▁sms": 7514,
      "▁banyo": 7515,
      "##30": 7516,
      "▁lahana": 7517,
      "▁seyahat": 7518,
      "##'unu": 7519,
      "##arif": 7520,
      "▁hakkında": 7521,
      "▁levh": 7522,
      "##mesiyle": 7523,
      "▁agacların": 7524,
      "▁muhakkak": 7525,
      "##cık": 7526,
      "▁ku": 7527,
      "▁basit": 7528,
      "##dir": 7529,
      "▁esyalarını": 7530,
      "▁niyeti": 7531,
      "▁opsiyonu": 7532,
      "▁paydos": 7533,
      "▁tuttu": 7534,
      "▁kılav": 7535,
      "▁bahsetti": 7536,
      "▁ucretlerin": 7537,
      "▁mey": 7538,
      "##sızlıgı": 7539,
      "▁bilgiler": 7540,
      "▁les": 7541,
      "▁olanaklarini": 7542,
      "▁tadina": 7543,
      "▁sevdi": 7544,
      "▁arkadaslarına": 7545,
      "▁boyut": 7546,
      "▁ruyasında": 7547,
      "##lemeyi": 7548,
      "▁raf": 7549,
      "▁bunlara": 7550,
      "▁tasarruf": 7551,
      "▁kacır": 7552,
      "▁yorgan": 7553,
      "##ete": 7554,
      "▁gali": 7555,
      "##tmek": 7556,
      "##ilmedi": 7557,
      "▁degiller": 7558,
      "##ediy": 7559,
      "▁pilavı": 7560,
      "▁baslar": 7561,
      "▁fon": 7562,
      "##lerde": 7563,
      "▁300": 7564,
      "▁kahveler": 7565,
      "▁sabahı": 7566,
      "##dırmak": 7567,
      "▁belirtiyor": 7568,
      "▁ıcı": 7569,
      "▁getirmeye": 7570,
      "▁mide": 7571,
      ":": 7572,
      "▁yarat": 7573,
      "▁sayılı": 7574,
      "##goz": 7575,
      "▁sıtma": 7576,
      "##esine": 7577,
      "4": 7578,
      "▁bulus": 7579,
      "▁verdik": 7580,
      "▁almanlar": 7581,
      "▁analizciler": 7582,
      "##agan": 7583,
      "▁avukatı": 7584,
      "▁harcamaları": 7585,
      "▁yakıt": 7586,
      "▁cıkmaya": 7587,
      "▁sınav": 7588,
      "▁trak": 7589,
      "▁gozunu": 7590,
      "▁8'den": 7591,
      "▁askeri": 7592,
      "▁hit": 7593,
      "▁ozelligi": 7594,
      "▁calısanı": 7595,
      "▁havadan": 7596,
      "▁yara": 7597,
      "▁calısanların": 7598,
      "▁sebebiyle": 7599,
      "▁kimligini": 7600,
      "▁diren": 7601,
      "▁harmanı": 7602,
      "▁gozum": 7603,
      "▁karsılastırıldıgında": 7604,
      "▁deyip": 7605,
      "▁defasında": 7606,
      "▁keser": 7607,
      "▁pisti": 7608,
      "▁clas": 7609,
      "▁odamın": 7610,
      "##dana": 7611,
      "▁tren": 7612,
      "##emeyecek": 7613,
      "▁gerilim": 7614,
      "##ub": 7615,
      "▁yum": 7616,
      "▁org": 7617,
      "▁yandı": 7618,
      "▁politikaya": 7619,
      "##sanız": 7620,
      "▁ofke": 7621,
      "▁erkege": 7622,
      "▁simsek": 7623,
      "▁ye": 7624,
      "##seniz": 7625,
      "▁erken": 7626,
      "##dikler": 7627,
      "▁ugras": 7628,
      "##lanmasını": 7629,
      "▁onlemek": 7630,
      "▁kostu": 7631,
      "▁.)": 7632,
      "▁guclu": 7633,
      "▁kalan": 7634,
      "▁ucmam": 7635,
      "▁gectigimiz": 7636,
      "▁istis": 7637,
      "▁revizyon": 7638,
      "▁columb": 7639,
      "▁ger": 7640,
      "▁pırıl": 7641,
      "##ısır": 7642,
      "▁birinci": 7643,
      "##it": 7644,
      "▁sofor": 7645,
      "▁tic": 7646,
      "▁kıta": 7647,
      "##ıyorsun": 7648,
      "##'lik": 7649,
      "▁saf": 7650,
      "▁yapıların": 7651,
      "▁ruhundan": 7652,
      "▁22": 7653,
      "##pr": 7654,
      "▁ik": 7655,
      "##to": 7656,
      "##minin": 7657,
      "##teler": 7658,
      "▁marif": 7659,
      "▁yog": 7660,
      "▁sezlong": 7661,
      "▁sahib": 7662,
      "##ırım": 7663,
      "▁7'de": 7664,
      "▁aktivite": 7665,
      "▁masasının": 7666,
      "▁umdugunu": 7667,
      "▁dinle": 7668,
      "##rne": 7669,
      "▁skandal": 7670,
      "▁pitts": 7671,
      "▁badan": 7672,
      "▁tın": 7673,
      "▁doz": 7674,
      "▁secmen": 7675,
      "▁ihracı": 7676,
      "##ince": 7677,
      "▁ceza": 7678,
      "▁yanak": 7679,
      "##umluydu": 7680,
      "##lıgıma": 7681,
      "▁yıllara": 7682,
      "▁neler": 7683,
      "▁karısı": 7684,
      "▁takımının": 7685,
      "##rar": 7686,
      "▁merdiv": 7687,
      "▁olag": 7688,
      "##aldı": 7689,
      "▁stad": 7690,
      "▁topa": 7691,
      "▁stratejiler": 7692,
      "##erler": 7693,
      "##hn": 7694,
      "##eliyor": 7695,
      "▁birisi": 7696,
      "▁ucusunuz": 7697,
      "##sına": 7698,
      "▁gozunde": 7699,
      "##isinda": 7700,
      "▁nakit": 7701,
      "▁ocagı": 7702,
      "##00'e": 7703,
      "▁sper": 7704,
      "▁yapıyorlar": 7705,
      "▁cocukları": 7706,
      "▁liradan": 7707,
      "▁giysiler": 7708,
      "▁yoneticisi": 7709,
      "▁zeka": 7710,
      "▁gorusmeyi": 7711,
      "▁beklemeye": 7712,
      "▁iyiles": 7713,
      "▁kesildi": 7714,
      "▁kapasit": 7715,
      "▁bilek": 7716,
      "▁tekl": 7717,
      "▁fir": 7718,
      "##lirken": 7719,
      "##ılt": 7720,
      "▁ep": 7721,
      "▁kendi": 7722,
      "▁yal": 7723,
      "▁olmayı": 7724,
      "##alın": 7725,
      "▁bag": 7726,
      "##ieg": 7727,
      "▁yunan": 7728,
      "▁anlama": 7729,
      "▁havaalanının": 7730,
      "▁seviyeye": 7731,
      "▁deh": 7732,
      "▁toh": 7733,
      "▁egz": 7734,
      "▁istediklerini": 7735,
      "▁dem": 7736,
      "▁yapısı": 7737,
      "▁karbon": 7738,
      "▁tuhaf": 7739,
      "▁sırrı": 7740,
      "▁cogunlukla": 7741,
      "▁hind": 7742,
      "##orm": 7743,
      "▁telesk": 7744,
      "▁bıyık": 7745,
      "▁savcılar": 7746,
      "▁alakasi": 7747,
      "▁teb": 7748,
      "##irerek": 7749,
      "▁hok": 7750,
      "##lesme": 7751,
      "##ustuk": 7752,
      "▁yapacagı": 7753,
      "▁ad": 7754,
      "▁kapasitesine": 7755,
      "▁rezerv": 7756,
      "##lac": 7757,
      "▁muhaliflerin": 7758,
      "##lemeye": 7759,
      "▁soyley": 7760,
      "##islerden": 7761,
      "▁ellerine": 7762,
      "▁cihazlar": 7763,
      "##emm": 7764,
      "▁yogurt": 7765,
      "##mısım": 7766,
      "▁silk": 7767,
      "▁tarif": 7768,
      "▁gereginden": 7769,
      "▁celik": 7770,
      "▁korkunc": 7771,
      "▁asın": 7772,
      "▁gormuyor": 7773,
      "▁alama": 7774,
      "▁gen": 7775,
      "▁birim": 7776,
      "##anların": 7777,
      "##ari": 7778,
      "▁itibaren": 7779,
      "▁isletmeler": 7780,
      "##ah": 7781,
      "▁mucadelenin": 7782,
      "##otekn": 7783,
      "▁ordusu": 7784,
      "▁cevapları": 7785,
      "##eniz": 7786,
      "▁elime": 7787,
      "▁oykuler": 7788,
      "▁profesyonel": 7789,
      "▁sirketlerine": 7790,
      "▁kusk": 7791,
      "▁bab": 7792,
      "▁parası": 7793,
      "▁baz": 7794,
      "▁asagıda": 7795,
      "##kındaki": 7796,
      "▁yaptık": 7797,
      "##tigim": 7798,
      "▁sirketlerin": 7799,
      "▁bekleniyor": 7800,
      "##amı": 7801,
      "▁duyg": 7802,
      "▁gozlerinden": 7803,
      "▁oncesinde": 7804,
      "▁biriktir": 7805,
      "▁bileti": 7806,
      "▁oncelik": 7807,
      "▁gost": 7808,
      "▁gonlum": 7809,
      "##lest": 7810,
      "▁yeter": 7811,
      "▁1/2'den": 7812,
      "▁yuz": 7813,
      "▁nota": 7814,
      "▁yatırımcının": 7815,
      "▁kazanın": 7816,
      "▁olacagına": 7817,
      "##anla": 7818,
      "▁nedenle": 7819,
      "▁durdur": 7820,
      "##rken": 7821,
      "▁rot": 7822,
      "▁macın": 7823,
      "##ıgını": 7824,
      "##erisi": 7825,
      "▁iliskiye": 7826,
      "▁pus": 7827,
      "##eo": 7828,
      "▁con": 7829,
      "##cilerle": 7830,
      "▁dizisi": 7831,
      "▁artık": 7832,
      "▁calısıyor": 7833,
      "▁uzuntu": 7834,
      "\\": 7835,
      "▁berber": 7836,
      "▁serviste": 7837,
      "##mı": 7838,
      "▁sayi": 7839,
      "##;": 7840,
      "##diye": 7841,
      "##'si": 7842,
      "▁yaslı": 7843,
      "▁kirem": 7844,
      "##luye": 7845,
      "▁sureci": 7846,
      "▁wall": 7847,
      "▁gunesten": 7848,
      "▁show": 7849,
      "▁satıcıları": 7850,
      "##siyi": 7851,
      "▁derken": 7852,
      "##ukluk": 7853,
      "▁heyecanı": 7854,
      "##malık": 7855,
      "▁gorun": 7856,
      "▁sans": 7857,
      "▁restoran": 7858,
      "▁kap": 7859,
      "▁ted": 7860,
      "▁goruslerini": 7861,
      "▁tepe": 7862,
      "▁ust": 7863,
      "▁76": 7864,
      "▁form": 7865,
      "▁tunel": 7866,
      "▁istey": 7867,
      "▁seattle": 7868,
      "▁omer": 7869,
      "##0.": 7870,
      "▁dedim": 7871,
      "▁isy": 7872,
      "▁efsan": 7873,
      "▁ey": 7874,
      "▁yapmadim": 7875,
      "▁cumleleri": 7876,
      "##day": 7877,
      "▁veto": 7878,
      "##abileceginden": 7879,
      "▁havuc": 7880,
      "▁doktoru": 7881,
      "▁misaf": 7882,
      "▁kahveyi": 7883,
      "▁babama": 7884,
      "▁kosulları": 7885,
      "▁yasamaya": 7886,
      "▁satılan": 7887,
      "▁kampanyalardan": 7888,
      "##y": 7889,
      "▁iceri": 7890,
      "▁dans": 7891,
      "##osunu": 7892,
      "▁hanımef": 7893,
      "▁sıkıs": 7894,
      "▁hafıza": 7895,
      "▁havacılık": 7896,
      "##iss": 7897,
      "▁re": 7898,
      "▁saray": 7899,
      "▁ogrenme": 7900,
      "▁sıy": 7901,
      "▁lim": 7902,
      "▁yarısı": 7903,
      "##7'de": 7904,
      "▁dusuyor": 7905,
      "▁miras": 7906,
      "▁cir": 7907,
      "▁gam": 7908,
      "▁isley": 7909,
      "##usundan": 7910,
      "##ark": 7911,
      "▁pencerenin": 7912,
      "##'sini": 7913,
      "##may": 7914,
      "▁tov": 7915,
      "##malıydı": 7916,
      "▁lezzetliydi": 7917,
      "▁tasıyor": 7918,
      "##°": 7919,
      "▁tarihlerinde": 7920,
      "▁icti": 7921,
      "▁luz": 7922,
      "▁liberal": 7923,
      "▁huner": 7924,
      "▁mahz": 7925,
      "▁artırmayı": 7926,
      "▁rezervasyonlardan": 7927,
      "▁gozun": 7928,
      "▁takip": 7929,
      "▁sanatcı": 7930,
      "▁bunun": 7931,
      "▁kamuoyuna": 7932,
      "▁carsıda": 7933,
      "y": 7934,
      "▁basketbol": 7935,
      "▁pro": 7936,
      "▁baskanları": 7937,
      "##alarıyla": 7938,
      "▁vasatti": 7939,
      "▁set": 7940,
      "##cagını": 7941,
      "##ire": 7942,
      "▁kiralama": 7943,
      "▁tutmaya": 7944,
      "▁idaresi": 7945,
      "##sana": 7946,
      "▁polisler": 7947,
      "▁merkezlerini": 7948,
      "▁alıcılar": 7949,
      "##iye": 7950,
      "▁polis": 7951,
      "##ayol": 7952,
      "##ibe": 7953,
      "▁cinsten": 7954,
      "▁adi": 7955,
      "▁denilen": 7956,
      "▁tesv": 7957,
      "▁iktidarı": 7958,
      "##ranc": 7959,
      "▁milletin": 7960,
      "▁arkadası": 7961,
      "▁iyiydi": 7962,
      "▁neredeyse": 7963,
      "…": 7964,
      "▁kazandım": 7965,
      "▁evimize": 7966,
      "▁endustriler": 7967,
      "▁islevi": 7968,
      "▁sabun": 7969,
      "▁milletvekili": 7970,
      "▁puanlarim": 7971,
      "▁gokyuzunu": 7972,
      "▁imam": 7973,
      "##mamak": 7974,
      "▁ortalıgı": 7975,
      "▁ureticileri": 7976,
      "▁tasarısını": 7977,
      "▁karlı": 7978,
      "▁isleminin": 7979,
      "▁secime": 7980,
      "▁kusuru": 7981,
      "##umuz": 7982,
      "##me": 7983,
      "▁yah": 7984,
      "▁sevda": 7985,
      "▁evi": 7986,
      "##adını": 7987,
      "▁patr": 7988,
      "▁uzerine": 7989,
      "▁mustafa": 7990,
      "▁gecikme": 7991,
      "▁imzaladı": 7992,
      "▁sergi": 7993,
      "▁karının": 7994,
      "▁elli": 7995,
      "▁yasanan": 7996,
      "##isin": 7997,
      "▁gurultu": 7998,
      "▁mark": 7999,
      "▁istemiyorum": 8000,
      "##iginin": 8001,
      "▁evini": 8002,
      "▁bahtiy": 8003,
      "▁hangi": 8004,
      "▁kelimelerle": 8005,
      "##gam": 8006,
      "▁pazarına": 8007,
      "▁oldug": 8008,
      "▁baktı": 8009,
      "▁kapital": 8010,
      "##imde": 8011,
      "▁biriyle": 8012,
      "▁salat": 8013,
      "▁karlar": 8014,
      "▁poy": 8015,
      "▁oglum": 8016,
      "▁tipi": 8017,
      "▁kanun": 8018,
      "▁suclar": 8019,
      "▁geciriyor": 8020,
      "▁donuk": 8021,
      "##uf": 8022,
      "##medig": 8023,
      "##lendigini": 8024,
      "▁cezbet": 8025,
      "▁yapraklarını": 8026,
      "▁masraflar": 8027,
      "▁sozlerden": 8028,
      "▁parmakları": 8029,
      "▁verebilir": 8030,
      "▁kutu": 8031,
      "▁yarar": 8032,
      "▁televizyon": 8033,
      "▁profesor": 8034,
      "▁2'ye": 8035,
      "▁carte": 8036,
      "▁hastalıktan": 8037,
      "▁carsı": 8038,
      "▁pencereden": 8039,
      "▁okun": 8040,
      "▁yagmurun": 8041,
      "▁kokuyor": 8042,
      "▁erdi": 8043,
      "▁sekli": 8044,
      "##ber": 8045,
      "▁sorusuna": 8046,
      "▁uretic": 8047,
      "▁kesti": 8048,
      "##art": 8049,
      "▁konsept": 8050,
      "▁kendimi": 8051,
      "▁samimiyet": 8052,
      "##orma": 8053,
      "▁gey": 8054,
      "▁ajansın": 8055,
      "##beri": 8056,
      "▁vapura": 8057,
      "▁uygulan": 8058,
      "▁sozun": 8059,
      "▁kullanılan": 8060,
      "▁mesa": 8061,
      "[UNK]": 8062,
      "▁sesiyle": 8063,
      "▁sivil": 8064,
      "▁ulkeleri": 8065,
      "▁kahveye": 8066,
      "▁goc": 8067,
      "▁bakısta": 8068,
      "▁devre": 8069,
      "▁gelistirmek": 8070,
      "##ivers": 8071,
      "##ıslan": 8072,
      "▁henuz": 8073,
      "▁ign": 8074,
      "##ga": 8075,
      "▁tarz": 8076,
      "##ack": 8077,
      "▁karsi": 8078,
      "▁seyahate": 8079,
      "##.23": 8080,
      "▁kendiler": 8081,
      "▁cagın": 8082,
      "▁teslim": 8083,
      "▁muzisy": 8084,
      "##tugunu": 8085,
      "##emmel": 8086,
      "▁bilmek": 8087,
      "##isel": 8088,
      "▁toprakta": 8089,
      "▁haklarına": 8090,
      "▁ask": 8091,
      "▁bulacak": 8092,
      "▁kurtarmak": 8093,
      "▁aktif": 8094,
      "▁seyiyle": 8095,
      "##mesinin": 8096,
      "▁giy": 8097,
      "##ett": 8098,
      "▁arıyor": 8099,
      "▁avuc": 8100,
      "##egini": 8101,
      "▁parmak": 8102,
      "▁universitede": 8103,
      "▁beyan": 8104,
      "▁lazımdır": 8105,
      "##amul": 8106,
      "▁cunku": 8107,
      "##aca": 8108,
      "##cı": 8109,
      "▁kayıt": 8110,
      "▁oluyor": 8111,
      "▁yuksel": 8112,
      "▁dedig": 8113,
      "▁gerisi": 8114,
      "▁ogr": 8115,
      "##imore": 8116,
      "▁seyr": 8117,
      "▁utan": 8118,
      "▁isv": 8119,
      "▁pınar": 8120,
      "▁haf": 8121,
      "▁koyden": 8122,
      "##suzluk": 8123,
      "##ilim": 8124,
      "▁duman": 8125,
      "▁kalkıyor": 8126,
      "▁yenilen": 8127,
      "▁burn": 8128,
      "▁vatandas": 8129,
      "▁aga": 8130,
      "▁cuh": 8131,
      "▁serv": 8132,
      "▁demet": 8133,
      "▁suratı": 8134,
      "▁korudu": 8135,
      "▁27": 8136,
      "▁tartı": 8137,
      "▁polem": 8138,
      "▁kahkahalar": 8139,
      "▁iktidar": 8140,
      "▁jon": 8141,
      "▁paraya": 8142,
      "▁ucmanın": 8143,
      "##'da": 8144,
      "▁ulası": 8145,
      "▁zihn": 8146,
      "▁bitki": 8147,
      "▁hasret": 8148,
      "▁hurr": 8149,
      "##lerinde": 8150,
      "▁uygu": 8151,
      "##il": 8152,
      "▁prof": 8153,
      "▁zengin": 8154,
      "▁haval": 8155,
      "▁universiteyi": 8156,
      "▁dudak": 8157,
      "##ebilirsiniz": 8158,
      "▁hesaptan": 8159,
      "##anlı": 8160,
      "##ımın": 8161,
      "▁bıcak": 8162,
      "▁stratej": 8163,
      "▁adamı": 8164,
      "▁gununde": 8165,
      "▁secim": 8166,
      "▁baktım": 8167,
      "##lastırmak": 8168,
      "▁parktan": 8169,
      "##unda": 8170,
      "▁yazınız": 8171,
      "##sey": 8172,
      "▁guz": 8173,
      "▁kapattı": 8174,
      "▁direktoru": 8175,
      "▁varlıklar": 8176,
      "##ze": 8177,
      "##sa": 8178,
      "▁reklamlar": 8179,
      "▁gorunuyordu": 8180,
      "##tem": 8181,
      "▁engel": 8182,
      "▁ofise": 8183,
      "▁tim": 8184,
      "▁atın": 8185,
      "▁minar": 8186,
      "▁hayatımda": 8187,
      "##detti": 8188,
      "▁seylerin": 8189,
      "▁kapas": 8190,
      "▁tabagına": 8191,
      "##diyen": 8192,
      "▁bır": 8193,
      "▁seviyelerinde": 8194,
      "##esmen": 8195,
      "▁yonetimi": 8196,
      "▁tesisi": 8197,
      "▁acent": 8198,
      "▁fuar": 8199,
      "▁enf": 8200,
      "▁twa": 8201,
      "▁k": 8202,
      "▁mudahale": 8203,
      "▁sultan": 8204,
      "##6'dan": 8205,
      "▁guller": 8206,
      "##id": 8207,
      "##misti": 8208,
      "▁kotuye": 8209,
      "##ug": 8210,
      "▁sosyalist": 8211,
      "▁tedavul": 8212,
      "▁urunlerin": 8213,
      "▁adamının": 8214,
      "▁mutlulugu": 8215,
      "▁gidiyordu": 8216,
      "▁tucc": 8217,
      "▁kafil": 8218,
      "▁bes": 8219,
      "▁ulkelerde": 8220,
      "▁oncul": 8221,
      "▁etmekte": 8222,
      "▁yapmayacagını": 8223,
      "##memistim": 8224,
      "##isindan": 8225,
      "▁kondu": 8226,
      "##lesini": 8227,
      "##daki": 8228,
      "▁sigorta": 8229,
      "▁tesekkur": 8230,
      "▁muhtesem": 8231,
      "##gide": 8232,
      "##…": 8233,
      "▁golge": 8234,
      "▁kızlar": 8235,
      "##acaktı": 8236,
      "▁oynamak": 8237,
      "▁agaclar": 8238,
      "▁yarısına": 8239,
      "▁kırk": 8240,
      "▁kavur": 8241,
      "▁makb": 8242,
      "▁detayları": 8243,
      "▁merkezi": 8244,
      "▁komis": 8245,
      "▁etkisi": 8246,
      "▁3.1": 8247,
      "▁asagıya": 8248,
      "##must": 8249,
      "▁w": 8250,
      "▁ibraz": 8251,
      "▁kızına": 8252,
      "##acaksın": 8253,
      "▁saatlerinde": 8254,
      "▁lid": 8255,
      "▁tedav": 8256,
      "##ribut": 8257,
      "▁kurnaz": 8258,
      "▁lou": 8259,
      "▁dım": 8260,
      "▁sahıs": 8261,
      "▁varıncaya": 8262,
      "##abilmek": 8263,
      "##usa": 8264,
      "▁dısı": 8265,
      "▁ceh": 8266,
      "▁hastalar": 8267,
      "▁yili": 8268,
      "##cinin": 8269,
      "▁9'dan": 8270,
      "##iness": 8271,
      "▁ag": 8272,
      "▁acılım": 8273,
      "▁testere": 8274,
      "▁soya": 8275,
      "▁sag": 8276,
      "##olu": 8277,
      "##kel": 8278,
      "▁bro": 8279,
      "▁prob": 8280,
      "##lıgında": 8281,
      "##edildi": 8282,
      "▁surece": 8283,
      "▁fotografta": 8284,
      "▁topraklar": 8285,
      "▁acısıyla": 8286,
      "▁hayvanlara": 8287,
      "▁idam": 8288,
      "▁seni": 8289,
      "▁magazaları": 8290,
      "▁bakimsizdi": 8291,
      "##makıllı": 8292,
      "##ento": 8293,
      "▁duvarın": 8294,
      "▁ikiye": 8295,
      "▁sinir": 8296,
      "##likten": 8297,
      "▁edec": 8298,
      "##suzdu": 8299,
      "▁alma": 8300,
      "▁bulabilir": 8301,
      "▁sabahında": 8302,
      "▁yatırımcı": 8303,
      "▁olustur": 8304,
      "▁ital": 8305,
      "##ebilecegini": 8306,
      "▁magazaların": 8307,
      "▁kıymetleri": 8308,
      "##isine": 8309,
      "##imize": 8310,
      "▁demokras": 8311,
      "▁duvarları": 8312,
      "▁kaliteye": 8313,
      "##azla": 8314,
      "▁mutema": 8315,
      "##eri": 8316,
      "▁veyahut": 8317,
      "▁belir": 8318,
      "▁hareketi": 8319,
      "▁olmadan": 8320,
      "▁ayına": 8321,
      "▁kurus": 8322,
      "##egimiz": 8323,
      "▁guvensizlik": 8324,
      "▁vakti": 8325,
      "▁fiyatlarının": 8326,
      "##ork": 8327,
      "▁telefonda": 8328,
      "▁dort": 8329,
      "▁bakanlar": 8330,
      "▁cik": 8331,
      "▁sikintimiz": 8332,
      "▁aslı": 8333,
      "##oca": 8334,
      "##layan": 8335,
      "▁dusunuyordu": 8336,
      "▁havlular": 8337,
      "▁sil": 8338,
      "▁ig": 8339,
      "##gumuz": 8340,
      "##ilerle": 8341,
      "▁tencereyi": 8342,
      "▁boynunu": 8343,
      "▁kaset": 8344,
      "▁gulery": 8345,
      "▁vitr": 8346,
      "▁icmek": 8347,
      "▁gogsune": 8348,
      "##uncusu": 8349,
      "▁cihazı": 8350,
      "##ınlık": 8351,
      "▁lisans": 8352,
      "##tıgımı": 8353,
      "▁fer": 8354,
      "##eyaz": 8355,
      "▁mahk": 8356,
      "▁yavr": 8357,
      "▁cleveland'dan": 8358,
      "▁cıktılar": 8359,
      "▁jener": 8360,
      "▁hayatının": 8361,
      "▁uretiminde": 8362,
      "▁fazlası": 8363,
      "▁elleri": 8364,
      "▁gib": 8365,
      "▁islemlerini": 8366,
      "##va": 8367,
      "▁listeler": 8368,
      "▁olmalıydı": 8369,
      "▁koyluler": 8370,
      "▁uygarlık": 8371,
      "##larımızın": 8372,
      "##yuz": 8373,
      "▁lot": 8374,
      "▁sars": 8375,
      "▁n": 8376,
      "▁yararı": 8377,
      "▁pantol": 8378,
      "▁insaf": 8379,
      "▁arız": 8380,
      "▁5": 8381,
      "▁kor": 8382,
      "##lob": 8383,
      "▁alanını": 8384,
      "▁bagımlı": 8385,
      "##mazlık": 8386,
      "##likle": 8387,
      "##uler": 8388,
      "▁seytan": 8389,
      "▁grub": 8390,
      "▁karıs": 8391,
      "▁olanlara": 8392,
      "▁tasır": 8393,
      "▁hacmi": 8394,
      "▁istiklal": 8395,
      "##rupalı": 8396,
      "▁gecerli": 8397,
      "▁ureticisinin": 8398,
      "##gınız": 8399,
      "▁kalitesine": 8400,
      "▁aynısını": 8401,
      "▁hizmetten": 8402,
      "##ildigi": 8403,
      "##(": 8404,
      "▁casus": 8405,
      "##esemdi": 8406,
      "▁mahkem": 8407,
      "▁ibret": 8408,
      "▁dolu": 8409,
      "▁city'e": 8410,
      "▁arasındaki": 8411,
      "##masının": 8412,
      "▁pisir": 8413,
      "▁saglama": 8414,
      "▁ithalat": 8415,
      "▁konusur": 8416,
      "##1": 8417,
      "▁gorevlileri": 8418,
      "▁kazandı": 8419,
      "▁yig": 8420,
      "▁yazarın": 8421,
      "##ınız": 8422,
      "▁seyrediyordu": 8423,
      "▁sesler": 8424,
      "##usten": 8425,
      "##digim": 8426,
      "▁dengesi": 8427,
      "▁anlatmak": 8428,
      "##amay": 8429,
      "▁arabanın": 8430,
      "▁devrinde": 8431,
      "▁pen": 8432,
      "▁cuzdan": 8433,
      "##impiyat": 8434,
      "▁birimini": 8435,
      "##din": 8436,
      "▁kıt": 8437,
      "▁endis": 8438,
      "▁ihti": 8439,
      "▁cumle": 8440,
      "▁olacagı": 8441,
      "▁gorusmeleri": 8442,
      "▁istiyorlar": 8443,
      "▁mesela": 8444,
      "▁don": 8445,
      "▁yapmanın": 8446,
      "o": 8447,
      "##ibi": 8448,
      "▁mektup": 8449,
      "▁ogrencilere": 8450,
      "▁malları": 8451,
      "▁kurtaj": 8452,
      "##ırıl": 8453,
      "▁paylasım": 8454,
      "▁battan": 8455,
      "▁bolgeye": 8456,
      "▁oraya": 8457,
      "▁chicago'ya": 8458,
      "▁koruk": 8459,
      "##kım": 8460,
      "▁kazanc": 8461,
      "▁annemle": 8462,
      "##ılır": 8463,
      "##sine": 8464,
      "▁isp": 8465,
      "▁mobil": 8466,
      "▁sabrı": 8467,
      "▁cesitliydi": 8468,
      "▁aramaya": 8469,
      "▁tut": 8470,
      "▁saatlere": 8471,
      "▁tacirleri": 8472,
      "▁projesi": 8473,
      "▁turkc": 8474,
      "##etleri": 8475,
      "▁ickiye": 8476,
      "##nci": 8477,
      "##gru": 8478,
      "##.4": 8479,
      "##emeye": 8480,
      "▁meht": 8481,
      "▁koyn": 8482,
      "▁surun": 8483,
      "▁130.": 8484,
      "▁national": 8485,
      "▁kelimeler": 8486,
      "##paz": 8487,
      "##mik": 8488,
      "▁hapis": 8489,
      "▁koptu": 8490,
      "▁fatura": 8491,
      "▁mulakat": 8492,
      "▁erkekler": 8493,
      "▁ozlem": 8494,
      "▁analiz": 8495,
      "▁sakal": 8496,
      "##000": 8497,
      "▁sıcram": 8498,
      "##fen": 8499,
      "##gını": 8500,
      "▁korun": 8501,
      "▁zavallı": 8502,
      "▁devam": 8503,
      "▁tramv": 8504,
      "##o'nun": 8505,
      "▁olaylara": 8506,
      "▁cekmeye": 8507,
      "▁gogsu": 8508,
      "▁ref": 8509,
      "▁gokyuzune": 8510,
      "##meniz": 8511,
      "▁kaynakları": 8512,
      "▁calıstım": 8513,
      "##uydu": 8514,
      "##cal": 8515,
      "▁oylama": 8516,
      "▁pa": 8517,
      "##gın": 8518,
      "▁havuz": 8519,
      "##mustum": 8520,
      "▁ecz": 8521,
      "##ırmak": 8522,
      "▁genclik": 8523,
      "▁devreye": 8524,
      "▁atmosfer": 8525,
      "▁serit": 8526,
      "##asında": 8527,
      "▁sansı": 8528,
      "##lıyordu": 8529,
      "▁etmisler": 8530,
      "▁saunadan": 8531,
      "▁kurulu": 8532,
      "##ımı": 8533,
      "▁gunlerinde": 8534,
      "▁gerec": 8535,
      "##iret": 8536,
      "▁vakit": 8537,
      "▁calıstıklarını": 8538,
      "▁divan": 8539,
      "▁bomb": 8540,
      "▁tedavulde": 8541,
      "##ij": 8542,
      "##ard": 8543,
      "▁yukum": 8544,
      "##inizin": 8545,
      "▁islemlerin": 8546,
      "▁gelirlerinin": 8547,
      "▁tarlayı": 8548,
      "##sarken": 8549,
      "▁burada": 8550,
      "##endinin": 8551,
      "▁zaferi": 8552,
      "##ur": 8553,
      "##lamam": 8554,
      "▁onlugu": 8555,
      "▁35": 8556,
      "▁borsanın": 8557,
      "▁sanduk": 8558,
      "##uyordum": 8559,
      "▁gucluk": 8560,
      "▁arası": 8561,
      "▁ihtilaf": 8562,
      "▁yapmadı": 8563,
      "▁man": 8564,
      "##isy": 8565,
      "▁20.": 8566,
      "▁cuk": 8567,
      "##acagımı": 8568,
      "▁sarkının": 8569,
      "▁liseyi": 8570,
      "##iyeri": 8571,
      "▁yapti": 8572,
      "▁milyonluk": 8573,
      "▁nedeniyle": 8574,
      "▁urunleri": 8575,
[...]
