{
  "version": "1.0",
  "truncation": null,
  "padding": null,
  "added_tokens": [
    {
      "id": 775,
      "content": "[SEP]",
      "single_word": false,
      "lstrip": false,
      "rstrip": false,
      "normalized": false,
      "special": true
    },
    {
      "id": 3131,
      "content": "[CLS]",
      "single_word": false,
      "lstrip": false,
      "rstrip": false,
      "normalized": false,
      "special": true
    },
    {
      "id": 12217,
      "content": "[UNK]",
      "single_word": false,
      "lstrip": false,
      "rstrip": false,
      "normalized": false,
      "special": true
    },
    {
      "id": 13465,
      "content": "[MASK]",
      "single_word": false,
      "lstrip": false,
      "rstrip": false,
      "normalized": false,
      "special": true
    },
    {
      "id": 14267,
      "content": "[PAD]",
      "single_word": false,
      "lstrip": false,
      "rstrip": false,
      "normalized": false,
      "special": true
    }
  ],
  "normalizer": {
    "type": "Sequence",
    "normalizers": [
      {
        "type": "NFD"
      },
      {
        "type": "Lowercase"
      },
      {
        "type": "StripAccents"
      }
    ]
  },
  "pre_tokenizer": {
    "type": "Sequence",
    "pretokenizers": [
      {
        "type": "Metaspace",
        "replacement": "▁",
        "prepend_scheme": "always",
        "split": true
      }
    ]
  },
  "post_processor": {
    "type": "TemplateProcessing",
    "single": [
      {
        "SpecialToken": {
          "id": "[CLS]",
          "type_id": 0
        }
      },
      {
        "Sequence": {
          "id": "A",
          "type_id": 0
        }
      },
      {
        "SpecialToken": {
          "id": "[SEP]",
          "type_id": 0
        }
      }
    ],
    "pair": [
      {
        "SpecialToken": {
          "id": "[CLS]",
          "type_id": 0
        }
      },
      {
        "Sequence": {
          "id": "A",
          "type_id": 0
        }
      },
      {
        "SpecialToken": {
          "id": "[SEP]",
          "type_id": 0
        }
      },
      {
        "Sequence": {
          "id": "B",
          "type_id": 1
        }
      },
      {
        "SpecialToken": {
          "id": "[SEP]",
          "type_id": 1
        }
      }
    ],
    "special_tokens": {
      "[CLS]": {
        "id": "[CLS]",
        "ids": [
          3131
        ],
        "tokens": [
          "[CLS]"
        ]
      },
      "[SEP]": {
        "id": "[SEP]",
        "ids": [
          775
        ],
        "tokens": [
          "[SEP]"
        ]
      }
    }
  },
  "decoder": {
    "type": "Metaspace",
    "replacement": "▁",
    "prepend_scheme": "always",
    "split": true
  },
  "model": {
    "type": "WordPiece",
    "unk_token": "[UNK]",
    "continuing_subword_prefix": "##",
    "max_input_chars_per_word": 100,
    "vocab": {
      "▁karısına": 0,
      "##hwest": 1,
      "##ıyorlar": 2,
      "▁muthis": 3,
      "▁sentten": 4,
      "▁adamların": 5,
      "▁minibus": 6,
      "▁ucretle": 7,
      "▁araba": 8,
      "▁yaslarda": 9,
      "▁ekledi": 10,
      "▁giderek": 11,
      "▁biriminin": 12,
      "##enizi": 13,
      "##io": 14,
      "##essus": 15,
      "▁yil": 16,
      "▁yasası": 17,
      "▁yaptıgını": 18,
      "▁donemin": 19,
      "▁vakıf": 20,
      "▁araclar": 21,
      "##digimiz": 22,
      "▁ceyrege": 23,
      "▁degillerdi": 24,
      "▁tahsil": 25,
      "▁cevresinin": 26,
      "▁universitesi": 27,
      "##naz": 28,
      "▁kurs": 29,
      "▁bıcak": 30,
      "▁mevsim": 31,
      "▁yonetime": 32,
      "▁yasaları": 33,
      "▁olas": 34,
      "▁al": 35,
      "▁sorusu": 36,
      "▁dev": 37,
      "▁halkı": 38,
      "▁yılb": 39,
      "▁ureticisinin": 40,
      "▁kongre": 41,
      "▁oldugumuz": 42,
      "##ligin": 43,
      "▁kıraat": 44,
      "▁memlekete": 45,
      "▁tasıt": 46,
      "▁cevrede": 47,
      "▁&": 48,
      "▁seher": 49,
      "▁parkı": 50,
      "▁kıymetleriyle": 51,
      "▁kosullarına": 52,
      "▁metaller": 53,
      "▁bucagından": 54,
      "##ustum": 55,
      "▁yetkililerinin": 56,
      "▁yalnızlık": 57,
      "▁patronu": 58,
      "##can": 59,
      "▁bosu": 60,
      "▁mi": 61,
      "▁ramazan": 62,
      "▁munaseb": 63,
      "##lılara": 64,
      "▁mutlaka": 65,
      "▁dini": 66,
      "##ip": 67,
      "##ort": 68,
      "▁surecte": 69,
      "▁dısa": 70,
      "▁iyice": 71,
      "▁istem": 72,
      "▁tahminleri": 73,
      "▁toprakta": 74,
      "▁icaz": 75,
      "▁karanlıkta": 76,
      "##er": 77,
      "▁ucuslara": 78,
      "##usudur": 79,
      "▁ulkenin": 80,
      "▁tul": 81,
      "▁endiselen": 82,
      "▁bib": 83,
      "##diklerinde": 84,
      "▁tek": 85,
      "▁dilber": 86,
      "▁subat": 87,
      "▁kazan": 88,
      "##malık": 89,
      "▁salınc": 90,
      "▁koken": 91,
      "▁hukum": 92,
      "##ılıgına": 93,
      "▁maddenin": 94,
      "▁arama": 95,
      "##d.": 96,
      "▁rezalet": 97,
      "▁ucretini": 98,
      "##dıran": 99,
      "▁duzgun": 100,
      "▁dolusu": 101,
      "▁yaralan": 102,
      "▁dansı": 103,
      "▁basınc": 104,
      "▁erkegi": 105,
      "▁basyaz": 106,
      "▁uzuntu": 107,
      "##abiliyor": 108,
      "##erv": 109,
      "▁gelisme": 110,
      "▁feda": 111,
      "▁golgesi": 112,
      "##yayı": 113,
      "▁sikinti": 114,
      "▁koyden": 115,
      "▁gerekli": 116,
      "▁gelirlerinin": 117,
      "▁sozc": 118,
      "##isinda": 119,
      "▁dogrul": 120,
      "▁bekl": 121,
      "▁pazar": 122,
      "▁sınırlar": 123,
      "▁gemiler": 124,
      "▁tutacak": 125,
      "##ruf": 126,
      "▁isimlerini": 127,
      "▁sordular": 128,
      "▁tik": 129,
      "▁23": 130,
      "d": 131,
      "▁ortadan": 132,
      "##ers": 133,
      "▁obu": 134,
      "##gımız": 135,
      "▁aranmak": 136,
      "▁atesi": 137,
      "▁kutlama": 138,
      "▁bankalarının": 139,
      "##end": 140,
      "▁amel": 141,
      "▁cak": 142,
      "▁meydana": 143,
      "▁fark": 144,
      "▁sera": 145,
      "▁pazara": 146,
      "##iligin": 147,
      "▁merdivenin": 148,
      "▁per": 149,
      "##ebilirim": 150,
      "▁cozumler": 151,
      "▁aksamın": 152,
      "##all": 153,
      "▁ayni": 154,
      "▁ismini": 155,
      "▁memurları": 156,
      "▁kart": 157,
      "##imde": 158,
      "▁surum": 159,
      "▁temizligini": 160,
      "▁renklerin": 161,
      "▁basarısız": 162,
      "▁yasından": 163,
      "▁hissesine": 164,
      "▁gelistiri": 165,
      "▁cesi": 166,
      "##palı": 167,
      "##eyn": 168,
      "▁redingot": 169,
      "##ap": 170,
      "▁gormedigini": 171,
      "▁dagdan": 172,
      "▁tesisi": 173,
      "##fes": 174,
      "▁romatizm": 175,
      "▁oldugundan": 176,
      "▁%1": 177,
      "▁nedeniyle": 178,
      "▁gozlerle": 179,
      "▁gorusu": 180,
      "▁lig": 181,
      "▁birco": 182,
      "##lu": 183,
      "▁ilgilenmediler": 184,
      "▁altından": 185,
      "▁kuvvetli": 186,
      "##lanta": 187,
      "##mar": 188,
      "▁oyunları": 189,
      "##ksiyon": 190,
      "##esem": 191,
      "▁izni": 192,
      "▁fakul": 193,
      "▁donemi": 194,
      "##tanın": 195,
      "▁endustrisinin": 196,
      "▁arasına": 197,
      "▁ayak": 198,
      "▁klasik": 199,
      "##verdi": 200,
      "▁oglunun": 201,
      "▁onlerine": 202,
      "▁etkisi": 203,
      "▁unvan": 204,
      "##are": 205,
      "▁birinde": 206,
      "##elig": 207,
      "##.5'e": 208,
      "▁dunyası": 209,
      "▁cozum": 210,
      "▁bankacılar": 211,
      "▁icti": 212,
      "##imize": 213,
      "▁beye": 214,
      "▁garanti": 215,
      "▁fazlaydi": 216,
      "▁hit": 217,
      "##ogramı": 218,
      "▁yonetimin": 219,
      "▁bolgelerinde": 220,
      "▁acıklanmadı": 221,
      "▁tut": 222,
      "▁bav": 223,
      "▁kasa": 224,
      "▁bakıyor": 225,
      "▁ez": 226,
      "▁birbirimiz": 227,
      "▁kalemleri": 228,
      "▁kacırdı": 229,
      "##acılıgı": 230,
      "##lerine": 231,
      "▁yerel": 232,
      "▁oteye": 233,
      "▁tezk": 234,
      "▁eyalette": 235,
      "▁asagida": 236,
      "▁der": 237,
      "▁etegi": 238,
      "▁saldır": 239,
      "▁acik": 240,
      "▁elbis": 241,
      "▁yazık": 242,
      "##elemek": 243,
      "▁adliye": 244,
      "▁davranmak": 245,
      "6": 246,
      "##asıydı": 247,
      "▁avans": 248,
      "▁cevaplar": 249,
      "▁intih": 250,
      "##80": 251,
      "##detti": 252,
      "▁karsısına": 253,
      "##unuz": 254,
      "▁nah": 255,
      "##9'a": 256,
      "##ake": 257,
      "▁degiller": 258,
      "▁mort": 259,
      "▁sirketten": 260,
      "▁kestir": 261,
      "##lendir": 262,
      "▁aynı": 263,
      "##ilerini": 264,
      "▁meselesi": 265,
      "▁vuk": 266,
      "▁onune": 267,
      "▁kulliyat": 268,
      "##lararası": 269,
      "##tuz": 270,
      "▁must": 271,
      "##isiyle": 272,
      "▁bircok": 273,
      "▁hassas": 274,
      "▁sevimli": 275,
      "▁getirilerinin": 276,
      "▁yonune": 277,
      "▁birileri": 278,
      "▁hastal": 279,
      "▁uydur": 280,
      "##ızlı": 281,
      "▁dısisleri": 282,
      "▁ov": 283,
      "▁pirz": 284,
      "▁meydan": 285,
      "▁ai": 286,
      "▁cocukluk": 287,
      "▁cakı": 288,
      "▁guver": 289,
      "##mediler": 290,
      "##’": 291,
      "▁kis": 292,
      "▁9'dan": 293,
      "▁caz": 294,
      "▁guvensizlik": 295,
      "▁kapsamında": 296,
      "##muyor": 297,
      "▁davranislari": 298,
      "▁glob": 299,
      "##ise": 300,
      "##aman": 301,
      "▁gozet": 302,
      "▁lokasyonu": 303,
      "▁kazancın": 304,
      "▁belg": 305,
      "▁reformu": 306,
      "▁his": 307,
      "##imiz": 308,
      "▁kupon": 309,
      "▁bagım": 310,
      "▁osmanlı": 311,
      "▁cope": 312,
      "▁kac": 313,
      "▁leble": 314,
      "▁sahipligi": 315,
      "##arya": 316,
      "▁muav": 317,
      "##yıp": 318,
      "##otu": 319,
      "▁doku": 320,
      "▁gencliginde": 321,
      "▁oteller": 322,
      "##ex": 323,
      "▁kadar": 324,
      "▁dı": 325,
      "▁aksine": 326,
      "▁dip": 327,
      "▁odu": 328,
      "▁artıslarına": 329,
      "▁bıyıkları": 330,
      "##art": 331,
      "▁hotel": 332,
      "##ali": 333,
      "▁uzaklarda": 334,
      "▁vatanı": 335,
      "▁yapıldı": 336,
      "▁avru": 337,
      "▁maclarda": 338,
      "##ce": 339,
      "▁test": 340,
      "##igim": 341,
      "##isine": 342,
      "▁yalı": 343,
      "▁kahram": 344,
      "▁yit": 345,
      "▁kalf": 346,
      "▁gotur": 347,
      "▁pilotlar": 348,
      "▁wall": 349,
      "##ith": 350,
      "##mamı": 351,
      "##lestirdi": 352,
      "▁bolgeleri": 353,
      "▁kosullarda": 354,
      "##ısa": 355,
      "##ılar": 356,
      "▁darbukasını": 357,
      "▁kaput": 358,
      "▁rok": 359,
      "▁cekir": 360,
      "▁icerde": 361,
      "▁yonlendirdi": 362,
      "▁buyumenin": 363,
      "▁konsol": 364,
      "▁bahcı": 365,
      "▁yasak": 366,
      "▁itiraf": 367,
      "▁yiyecekler": 368,
      "▁iliskilerini": 369,
      "▁ozgu": 370,
      "##lige": 371,
      "##itten": 372,
      "▁cekic": 373,
      "▁insan": 374,
      "▁yarısı": 375,
      "▁hakika": 376,
      "▁senden": 377,
      "##alog": 378,
      "##anda": 379,
      "▁yolculuk": 380,
      "▁agzımı": 381,
      "▁memlekette": 382,
      "▁rot": 383,
      "▁cesaretini": 384,
      "##amıza": 385,
      "▁ya": 386,
      "▁haber": 387,
      "▁digerine": 388,
      "▁barut": 389,
      "▁danısmanlık": 390,
      "▁almasını": 391,
      "##uzel": 392,
      "▁konuya": 393,
      "▁sehrinde": 394,
      "▁cıkıs": 395,
      "▁temmuz'da": 396,
      "▁kod": 397,
      "▁devi": 398,
      "▁genelkurmay": 399,
      "##oloj": 400,
      "▁imz": 401,
      "▁birbirler": 402,
      "▁sayısını": 403,
      "##umuzda": 404,
      "▁silahı": 405,
      "▁hafta": 406,
      "▁kuvv": 407,
      "▁fut": 408,
      "▁ulastı": 409,
      ">": 410,
      "▁yaptıgı": 411,
      "▁kapsam": 412,
      "▁zev": 413,
      "▁bash": 414,
      "r": 415,
      "▁kuzey": 416,
      "▁heyecanla": 417,
      "▁gun": 418,
      "▁onunla": 419,
      "▁louis'e": 420,
      "▁secimlerde": 421,
      "▁kıymetleri": 422,
      "▁havasını": 423,
      "▁genc": 424,
      "▁hazir": 425,
      "▁evr": 426,
      "▁tatbik": 427,
      "▁cekti": 428,
      "▁ediyorlar": 429,
      "▁pec": 430,
      "▁oranı": 431,
      "▁heps": 432,
      "▁askına": 433,
      "▁toz": 434,
      "▁olanlar": 435,
      "▁yoldan": 436,
      "▁oksur": 437,
      "▁yapabil": 438,
      "▁bizler": 439,
      "▁konusur": 440,
      "▁aylık": 441,
      "▁yapı": 442,
      "##usunuz": 443,
      "▁gorgu": 444,
      "▁birin": 445,
      "##estirdi": 446,
      "▁tazmin": 447,
      "▁okuldan": 448,
      "##.0": 449,
      "##ediye": 450,
      "▁nobet": 451,
      "##esini": 452,
      "▁muhakkak": 453,
      "▁oncelikle": 454,
      "##ts": 455,
      "▁ailesinin": 456,
      "▁kazanım": 457,
      "▁kalın": 458,
      "##ırak": 459,
      "##memistir": 460,
      "##iye": 461,
      "▁manzar": 462,
      "##ardı": 463,
      "▁adında": 464,
      "##agoz": 465,
      "▁100000": 466,
      "##otif": 467,
      "▁hatırlattı": 468,
      "##kac": 469,
      "▁cıkmaya": 470,
      "▁boga": 471,
      "▁yerinin": 472,
      "▁yedikten": 473,
      "▁parlamento": 474,
      "##lerken": 475,
      "##imci": 476,
      "##isi": 477,
      "▁ucrete": 478,
      "▁st": 479,
      "▁onsu": 480,
      "##lamanın": 481,
      "▁turkiye": 482,
      "▁gorusleri": 483,
      "▁baskı": 484,
      "##lenmesini": 485,
      "▁demec": 486,
      "##duktan": 487,
      "▁limanda": 488,
      "##ması": 489,
      "▁spekulator": 490,
      "##edig": 491,
      "▁komplek": 492,
      "▁genclerin": 493,
      "▁kayıplar": 494,
      "▁yurtd": 495,
      "▁cisim": 496,
      "##ezler": 497,
      "##ke": 498,
      "##saat": 499,
      "##irerek": 500,
      "▁yurum": 501,
      "▁iskonto": 502,
      "▁londra": 503,
      "▁girisimi": 504,
      "##ug": 505,
      "▁sunları": 506,
      "##iss": 507,
      "▁ibm": 508,
      "##dıgın": 509,
      "▁katına": 510,
      "▁ogrencilerin": 511,
      "▁rotar": 512,
      "##enti": 513,
      "▁yuregim": 514,
      "▁hacmi": 515,
      "▁yaparım": 516,
      "▁mahkum": 517,
      "▁calıstır": 518,
      "▁terbiy": 519,
      "▁fast": 520,
      "▁askerlik": 521,
      "▁uyelik": 522,
      "▁cıktıktan": 523,
      "▁cıkmıstı": 524,
      "▁kl": 525,
      "▁gal": 526,
      "##layalım": 527,
      "▁tarla": 528,
      "▁fik": 529,
      "▁kosede": 530,
      "▁insanlıga": 531,
      "▁efsane": 532,
      "▁ambargo": 533,
      "▁isletmelere": 534,
      "▁karı": 535,
      "##memi": 536,
      "##eklen": 537,
      "▁beb": 538,
      "▁yatır": 539,
      "▁lirayı": 540,
      "▁fonlarının": 541,
      "▁savasta": 542,
      "▁risk": 543,
      "▁dunyayı": 544,
      "▁gunese": 545,
      "##ukca": 546,
      "▁odedi": 547,
      "▁getiri": 548,
      "▁katır": 549,
      "▁ihtiyar": 550,
      "▁yukseliyor": 551,
      "▁ureticileri": 552,
      ";": 553,
      "▁akıllı": 554,
      "▁arb": 555,
      "▁sı": 556,
      "▁govdes": 557,
      "▁avize": 558,
      "##.75": 559,
      "▁iyisi": 560,
      "##cılar": 561,
      "##lasır": 562,
      "▁dedim": 563,
      "▁evrenin": 564,
      "▁kin": 565,
      "▁telas": 566,
      "▁cozul": 567,
      "▁odasının": 568,
      "▁nebze": 569,
      "▁dostu": 570,
      "▁hediye": 571,
      "▁yumuk": 572,
      "▁kend": 573,
      "##larımdan": 574,
      "▁kam": 575,
      "▁muhtac": 576,
      "▁montreal'a": 577,
      "▁parc": 578,
      "▁faaliyetlerinin": 579,
      "▁elmas": 580,
      "▁ipotekleri": 581,
      "▁1\\/2": 582,
      "▁tacir": 583,
      "▁gormek": 584,
      "▁arayısı": 585,
      "▁siy": 586,
      "▁yardimci": 587,
      "▁za": 588,
      "▁dirsek": 589,
      "##'ne": 590,
      "▁kendilerinden": 591,
      "▁baslarda": 592,
      "▁firması": 593,
      "▁islemlere": 594,
      "▁salas": 595,
      "▁12'si": 596,
      "▁dusurmeye": 597,
      "▁a.b.": 598,
      "▁diplomat": 599,
      "##ligine": 600,
      "##lamur": 601,
      "▁masrafları": 602,
      "▁tahkikat": 603,
      "▁itim": 604,
      "▁ihr": 605,
      "▁odenek": 606,
      "##5'ten": 607,
      "▁ekim": 608,
      "▁bayiler": 609,
      "▁kıymet": 610,
      "▁ofisi": 611,
      "▁!": 612,
      "▁konusmaya": 613,
      "▁merak": 614,
      "##celeri": 615,
      "##lastır": 616,
      "##and": 617,
      "▁paranın": 618,
      "▁musluman": 619,
      "▁gormezden": 620,
      "▁adı": 621,
      "▁defter": 622,
      "▁personellerinden": 623,
      "▁tarih": 624,
      "▁kadınla": 625,
      "▁the": 626,
      "▁parcasını": 627,
      "##meli": 628,
      "##erdeki": 629,
      "▁enflasyonun": 630,
      "▁adamının": 631,
      "##lanmaya": 632,
      "##al'ın": 633,
      "▁gordug": 634,
      "▁liseyi": 635,
      "##imet": 636,
      "▁sırtını": 637,
      "##kar": 638,
      "##sat": 639,
      "▁cekip": 640,
      "##masından": 641,
      "▁isciler": 642,
      "▁benimle": 643,
      "▁kanun": 644,
      "##lanması": 645,
      "##lemis": 646,
      "▁tahminlerinin": 647,
      "▁ramp": 648,
      "##dut": 649,
      "▁soyle": 650,
      "▁binbası": 651,
      "▁istil": 652,
      "$": 653,
      "▁sır": 654,
      "▁basarılar": 655,
      "▁davasında": 656,
      "▁rahatti": 657,
      "▁kulaklarına": 658,
      "▁ert": 659,
      "▁gozumun": 660,
      "▁enstit": 661,
      "##7'nin": 662,
      "▁mich": 663,
      "▁bakı": 664,
      "▁tavsiy": 665,
      "▁malzemesi": 666,
      "##aylon": 667,
      "##abi": 668,
      "##lerini": 669,
      "##liginde": 670,
      "▁gomlek": 671,
      "▁istegi": 672,
      "▁suik": 673,
      "▁tasarım": 674,
      "▁kabugu": 675,
      "▁gencin": 676,
      "▁kurtardı": 677,
      "##emez": 678,
      "▁prensesi": 679,
      "##ucusu": 680,
      "▁ugur": 681,
      "##yonel": 682,
      "▁cihazı": 683,
      "##tt": 684,
      "##sı": 685,
      "##saca": 686,
      "▁zeytiny": 687,
      "▁yarattı": 688,
      "▁ep": 689,
      "▁mukabele": 690,
      "▁albay": 691,
      "▁halihazırda": 692,
      "▁kahvelerin": 693,
      "##iliyor": 694,
      "▁burnundan": 695,
      "▁milli": 696,
      "▁yazdı": 697,
      "▁yılları": 698,
      "▁uluslararası": 699,
      "▁kampanyalar": 700,
      "##diye": 701,
      "##este": 702,
      "##ayık": 703,
      "▁ofiste": 704,
      "▁programlarının": 705,
      "▁karsısında": 706,
      "▁golgesinde": 707,
      "##asız": 708,
      "##irler": 709,
      "▁bildigini": 710,
      "▁titriyordu": 711,
      "▁hekimi": 712,
      "▁reddetti": 713,
      "▁persembe": 714,
      "▁ailesini": 715,
      "▁gag": 716,
      "▁ucuz": 717,
      "▁ontar": 718,
      "▁odemek": 719,
      "##arson": 720,
      "▁kolayca": 721,
      "▁bizle": 722,
      "##ahan": 723,
      "##eyi": 724,
      "##ilmesini": 725,
      "▁yaptirmadim": 726,
      "▁ırmak": 727,
      "▁ice": 728,
      "▁baslık": 729,
      "▁kullanılıyor": 730,
      "▁vucudunu": 731,
      "▁goruyoruz": 732,
      "▁yakında": 733,
      "##od": 734,
      "▁orgut": 735,
      "▁dusunmuyor": 736,
      "##yacag": 737,
      "▁etkileri": 738,
      "▁sayısının": 739,
      "##lay": 740,
      "▁geldiginde": 741,
      "▁gecerli": 742,
      "▁sozune": 743,
      "##ısıklı": 744,
      "▁fırının": 745,
      "##sir": 746,
      "▁kap": 747,
      "▁tatmin": 748,
      "▁yabanci": 749,
      "▁subay": 750,
      "▁sist": 751,
      "▁bosal": 752,
      "▁20.": 753,
      "##lelim": 754,
      "##des": 755,
      "▁bilgiye": 756,
      "▁muslum": 757,
      "▁cen": 758,
      "##ems": 759,
      "▁oturuyor": 760,
      "▁deger": 761,
      "▁odasindan": 762,
      "▁bolgede": 763,
      "▁edilmedi": 764,
      "▁loc": 765,
      "▁dogum": 766,
      "▁traj": 767,
      "##uston": 768,
      "##emiyorum": 769,
      "▁mallar": 770,
      "▁memnunuz": 771,
      "▁kitabın": 772,
      "▁yaptirdi": 773,
      "##haneyi": 774,
      "[SEP]": 775,
      "▁duyuyorum": 776,
      "##mafih": 777,
      "##et": 778,
      "▁yururlukte": 779,
      "##ang": 780,
      "▁zamanlar": 781,
      "##nl": 782,
      "▁ok": 783,
      "▁gelmisti": 784,
      "##gunuz": 785,
      "▁lez": 786,
      "##liydi": 787,
      "▁pencereyi": 788,
      "▁kamar": 789,
      "▁planim": 790,
      "▁icer": 791,
      "▁sınıfı": 792,
      "##etli": 793,
      "▁isgucu": 794,
      "▁plana": 795,
      "▁doları'na": 796,
      "▁donemine": 797,
      "▁ihtiyacımız": 798,
      "▁dola": 799,
      "▁kırık": 800,
      "▁teseb": 801,
      "▁kadifeden": 802,
      "##5'de": 803,
      "▁kuvvet": 804,
      "▁yaptıg": 805,
      "▁hıy": 806,
      "##eyim": 807,
      "▁bayramı": 808,
      "▁kanunlar": 809,
      "▁agaclardan": 810,
      "▁erdog": 811,
      "▁avantajı": 812,
      "▁tok": 813,
      "▁gucuyle": 814,
      "▁obj": 815,
      "##iciye": 816,
      "▁sıf": 817,
      "▁gerileme": 818,
      "▁alır": 819,
      "▁adamı": 820,
      "▁dine": 821,
      "▁olumu": 822,
      "##dırmak": 823,
      "▁bakanlıgı'nın": 824,
      "▁tarlaları": 825,
      "▁kabukları": 826,
      "##ecegim": 827,
      "▁otesi": 828,
      "▁hay": 829,
      "▁kargasa": 830,
      "##izme": 831,
      "▁olu": 832,
      "▁nedenler": 833,
      "▁palt": 834,
      "▁yazarlarının": 835,
      "▁yapraklar": 836,
      "##emesi": 837,
      "▁yurttas": 838,
      "##ıldıktan": 839,
      "▁davulu": 840,
      "##ada": 841,
      "##ansiyon": 842,
      "▁ilcesinde": 843,
      "▁kafil": 844,
      "▁tabiat": 845,
      "##turu": 846,
      "▁lid": 847,
      "▁davul": 848,
      "▁pazarının": 849,
      "▁hicbirini": 850,
      "##gıc": 851,
      "##hanede": 852,
      "▁kavur": 853,
      "##el": 854,
      "▁sutu": 855,
      "▁fiyatlara": 856,
      "▁ri": 857,
      "▁ilgilendiler": 858,
      "▁borek": 859,
      "##ılmasını": 860,
      "▁girip": 861,
      "▁seyin": 862,
      "▁koymus": 863,
      "▁kestane": 864,
      "▁dusus": 865,
      "▁gorusmeleri": 866,
      "▁ispirto": 867,
      "▁hac": 868,
      "▁sivil": 869,
      "##eyin": 870,
      "▁koymak": 871,
      "▁du": 872,
      "▁dusurdu": 873,
      "▁biri": 874,
      "▁siparisini": 875,
      "▁seviyorum": 876,
      "▁uygulan": 877,
      "▁kisinin": 878,
      "##ozof": 879,
      "▁pop": 880,
      "▁gerceklesti": 881,
      "##esik": 882,
      "▁etmeye": 883,
      "▁ons": 884,
      "▁rezervasyonlardan": 885,
      "##perv": 886,
      "▁hedef": 887,
      "##ilm": 888,
      "▁ideal": 889,
      "##klarını": 890,
      "3": 891,
      "▁idar": 892,
      "▁mıydı": 893,
      "▁calis": 894,
      "##ont": 895,
      "##uga": 896,
      "▁omru": 897,
      "##kor": 898,
      "▁merrill": 899,
      "▁ekonomisi": 900,
      "▁karsıma": 901,
      "##ikasyon": 902,
      "▁lev": 903,
      "▁rak": 904,
      "▁secildi": 905,
      "▁phoeni": 906,
      "▁studyo": 907,
      "▁islet": 908,
      "▁yazınız": 909,
      "##isler": 910,
      "▁yapmadim": 911,
      "▁cekmeye": 912,
      "▁degirmen": 913,
      "▁kisisel": 914,
      "▁deve": 915,
      "▁balıkcı": 916,
      "▁kavramlar": 917,
      "▁verdim": 918,
      "▁destekl": 919,
      "▁newark": 920,
      "▁cag": 921,
      "▁yargıc": 922,
      "▁sevinc": 923,
      "▁yataklar": 924,
      "▁gununden": 925,
      "▁istikrar": 926,
      "▁cıkarken": 927,
      "▁digerleri": 928,
      "▁hocamız": 929,
      "▁guvenc": 930,
      "▁cekis": 931,
      "##makıllı": 932,
      "▁havuzu": 933,
      "##asini": 934,
      "▁yukunu": 935,
      "##cılara": 936,
      "▁vucu": 937,
      "▁istedi": 938,
      "▁cekmek": 939,
      "▁universitede": 940,
      "##kine": 941,
      "▁mutlul": 942,
      "▁sic": 943,
      "▁basından": 944,
      "▁mudafa": 945,
      "▁cazib": 946,
      "▁doneminde": 947,
      "▁olgun": 948,
      "▁islemler": 949,
      "▁teyp": 950,
      "▁onceden": 951,
      "▁unu": 952,
      "▁tamamıyla": 953,
      "##ebiliriz": 954,
      "##itleri": 955,
      "▁ulasimi": 956,
      "##lesinde": 957,
      "##yn": 958,
      "▁1970'": 959,
      "##ayıf": 960,
      "▁se": 961,
      "▁maddeye": 962,
      "▁ucretlerini": 963,
      "##igin": 964,
      "▁havuzlari": 965,
      "##og": 966,
      "▁peki": 967,
      "▁deri": 968,
      "▁dagı": 969,
      "##kiz": 970,
      "##gul": 971,
      "▁durumunda": 972,
      "▁kapılar": 973,
      "▁lik": 974,
      "##kse": 975,
      "▁adama": 976,
      "▁vazife": 977,
      "▁akla": 978,
      "▁sube": 979,
      "▁raporunu": 980,
      "##tı": 981,
      "▁kimin": 982,
      "##larca": 983,
      "▁sabaha": 984,
      "▁sorunları": 985,
      "▁oyunlarının": 986,
      "##amda": 987,
      "▁ihtiy": 988,
      "▁cihazlar": 989,
      "▁tedavulde": 990,
      "▁vasıta": 991,
      "▁yemeginden": 992,
      "##tis": 993,
      "▁alabilir": 994,
      "▁infil": 995,
      "##imlari": 996,
      "##ftadır": 997,
      "▁bir": 998,
      "▁felsefesi": 999,
      "##tle": 1000,
      "▁17": 1001,
      "▁tuketic": 1002,
      "▁borcunu": 1003,
      "▁zer": 1004,
      "##ler": 1005,
      "▁soz": 1006,
      "▁cabayı": 1007,
      "##eliydi": 1008,
      "▁odanın": 1009,
      "▁yakalama": 1010,
      "▁sevki": 1011,
      "##enlere": 1012,
      "▁finc": 1013,
      "##civert": 1014,
      "▁tel": 1015,
      "▁los": 1016,
      "##arını": 1017,
      "▁taahh": 1018,
      "##on'un": 1019,
      "▁ucusun": 1020,
      "▁stratejiyi": 1021,
      "▁pas": 1022,
      "##derek": 1023,
      "▁yakıt": 1024,
      "##ach": 1025,
      "▁odanin": 1026,
      "▁giysi": 1027,
      "▁verg": 1028,
      "##gım": 1029,
      "▁yal": 1030,
      "##.5": 1031,
      "##acagına": 1032,
      "##\\/8'e": 1033,
      "▁halatlar": 1034,
      "▁katılımcı": 1035,
      "▁odasından": 1036,
      "▁misafirleri": 1037,
      "##emb": 1038,
      "▁bu": 1039,
      "▁gozunu": 1040,
      "▁kuny": 1041,
      "▁ogesi": 1042,
      "##mad": 1043,
      "▁onunu": 1044,
      "▁kimliklerini": 1045,
      "▁yonunde": 1046,
      "▁degi": 1047,
      "▁kostur": 1048,
      "▁kilogram": 1049,
      "##lali": 1050,
      "▁endiseleri": 1051,
      "▁konak": 1052,
      "▁gelis": 1053,
      "▁yuksel": 1054,
      "##ene": 1055,
      "▁bahceleri": 1056,
      "▁restoran": 1057,
      "▁mul": 1058,
      "▁hacmin": 1059,
      "▁gazel": 1060,
      "▁belgeler": 1061,
      "▁minneapolis": 1062,
      "▁arkadan": 1063,
      "▁buyukluk": 1064,
      "▁orgutun": 1065,
      "▁katil": 1066,
      "▁torba": 1067,
      "▁rekabet": 1068,
      "▁duz": 1069,
      "##allas": 1070,
      "▁irmik": 1071,
      "▁eristi": 1072,
      "▁arabaya": 1073,
      "▁tahvil": 1074,
      "▁puani": 1075,
      "▁zehir": 1076,
      "▁golg": 1077,
      "▁kalite": 1078,
      "▁guv": 1079,
      "▁zann": 1080,
      "▁dekorasyon": 1081,
      "▁simsek": 1082,
      "▁menkul": 1083,
      "##layı": 1084,
      "▁piy": 1085,
      "▁tahminler": 1086,
      "▁kapasit": 1087,
      "▁bolgenin": 1088,
      "▁yaslar": 1089,
      "▁dolaptan": 1090,
      "▁alıcılar": 1091,
      "▁olum": 1092,
      "▁dısı": 1093,
      "▁sandıgı": 1094,
      "▁havayı": 1095,
      "▁seref": 1096,
      "##ım": 1097,
      "▁doları'ndan": 1098,
      "▁secenekler": 1099,
      "▁yapmak": 1100,
      "▁derecelen": 1101,
      "▁tur": 1102,
      "▁satımında": 1103,
      "▁set": 1104,
      "▁yonlerden": 1105,
      "##tadır": 1106,
      "##phis": 1107,
      "▁denir": 1108,
      "▁beline": 1109,
      "▁tepki": 1110,
      "▁bolumunu": 1111,
      "▁mac": 1112,
      "▁kısı": 1113,
      "▁soylediler": 1114,
      "▁hatun": 1115,
      "▁puan": 1116,
      "▁izin": 1117,
      "▁yiyeceklerden": 1118,
      "▁noktaya": 1119,
      "##set": 1120,
      "▁komuru": 1121,
      "▁kucagına": 1122,
      "##egin": 1123,
      "##kli": 1124,
      "##tanı": 1125,
      "▁rej": 1126,
      "##yol": 1127,
      "▁getiren": 1128,
      "▁kayı": 1129,
      "▁kosk": 1130,
      "▁paydos": 1131,
      "▁arab": 1132,
      "##asal": 1133,
      "▁artık": 1134,
      "▁kullanılan": 1135,
      "▁gayet": 1136,
      "##ılıyordu": 1137,
      "▁kasar": 1138,
      "##ro": 1139,
      "##du": 1140,
      "▁elden": 1141,
      "▁verdigimiz": 1142,
      "▁bonosu": 1143,
      "▁bolgesine": 1144,
      "▁cıkarmayı": 1145,
      "##lob": 1146,
      "▁asans": 1147,
      "▁piyasalarda": 1148,
      "▁zamankinden": 1149,
      "▁yagı": 1150,
      "▁domatesleri": 1151,
      "##lısı": 1152,
      "▁atlanta'dan": 1153,
      "##katli": 1154,
      "▁fıs": 1155,
      "##tlar": 1156,
      "▁bucuk": 1157,
      "▁kat": 1158,
      "▁takdim": 1159,
      "▁isleme": 1160,
      "▁firma": 1161,
      "▁agız": 1162,
      "##a'ya": 1163,
      "▁kullanarak": 1164,
      "▁silahlı": 1165,
      "##etre": 1166,
      "▁sidd": 1167,
      "▁milyonluk": 1168,
      "▁ayse": 1169,
      "▁fol": 1170,
      "▁hazır": 1171,
      "##arlı": 1172,
      "▁acıkladı": 1173,
      "▁mahall": 1174,
      "▁divan": 1175,
      "▁medy": 1176,
      "p": 1177,
      "▁yerlestir": 1178,
      "▁sudan": 1179,
      "##bs": 1180,
      "##‘": 1181,
      "▁bık": 1182,
      "▁girer": 1183,
      "##5'": 1184,
      "▁dayı": 1185,
      "##mur": 1186,
      "▁kitleye": 1187,
      "##tern": 1188,
      "▁vermeyi": 1189,
      "▁seviyesine": 1190,
      "▁kapıya": 1191,
      "▁sirketlerinden": 1192,
      "▁hissine": 1193,
      "▁kıta": 1194,
      "▁macın": 1195,
      "▁kufur": 1196,
      "▁ortusu": 1197,
      "▁soy": 1198,
      "▁hol": 1199,
      "▁ileride": 1200,
      "▁muda": 1201,
      "▁sınıfın": 1202,
      "▁tın": 1203,
      "▁kurus": 1204,
      "▁kadir": 1205,
      "▁port": 1206,
      "##kleri": 1207,
      "##emm": 1208,
      "▁protokol": 1209,
      "▁vaktinde": 1210,
      "##gr": 1211,
      "##mistir": 1212,
      "▁levazım": 1213,
      "▁cerceve": 1214,
      "▁garip": 1215,
      "▁mermer": 1216,
      "▁yazıyı": 1217,
      "##istal": 1218,
      "▁yuks": 1219,
      "▁kimyasal": 1220,
      "▁ink": 1221,
      "▁konfor": 1222,
      "▁kalitesini": 1223,
      "▁kavanoz": 1224,
      "##ekte": 1225,
      "▁getirilerin": 1226,
      "▁turistlerin": 1227,
      "▁bassav": 1228,
      "▁usta": 1229,
      "▁expr": 1230,
      "##iv": 1231,
      "▁huner": 1232,
      "▁komunist": 1233,
      "▁normaldi": 1234,
      "▁aklınız": 1235,
      "▁politikası": 1236,
      "▁kusku": 1237,
      "▁secimi": 1238,
      "▁rahmet": 1239,
      "▁aza": 1240,
      "▁sesleri": 1241,
      "▁tep": 1242,
      "▁hucum": 1243,
      "▁feder": 1244,
      "▁aleyhinde": 1245,
      "##ur": 1246,
      "▁istihbar": 1247,
      "▁fabrikası": 1248,
      "▁tarafında": 1249,
      "▁cav": 1250,
      "▁alamadik": 1251,
      "▁aile": 1252,
      "▁yukseltti": 1253,
      "▁hazırlanısı": 1254,
      "▁yaz": 1255,
      "##beri": 1256,
      "▁mahal": 1257,
      "##isidir": 1258,
      "▁memur": 1259,
      "▁piyasanın": 1260,
      "▁pilotların": 1261,
      "▁yse": 1262,
      "▁isveren": 1263,
      "▁tereddut": 1264,
      "▁analizciler": 1265,
      "▁milwaukee'den": 1266,
      "▁isteklerimizi": 1267,
      "##eye": 1268,
      "▁parcaları": 1269,
      "##antaj": 1270,
      "▁parki": 1271,
      "▁isti": 1272,
      "▁hasret": 1273,
      "▁ulkemizde": 1274,
      "##bank": 1275,
      "▁fiyatı": 1276,
      "▁kaybetti": 1277,
      "##azaran": 1278,
      "▁turkler": 1279,
      "▁sezlong": 1280,
      "▁ciger": 1281,
      "##taki": 1282,
      "▁oya": 1283,
      "##lıkları": 1284,
      "▁davayı": 1285,
      "▁tanıt": 1286,
      "▁asagı": 1287,
      "▁yaklasimi": 1288,
      "▁doksan": 1289,
      "##ladı": 1290,
      "##ılır": 1291,
      "▁beyzbol": 1292,
      "▁sin": 1293,
      "▁hissedar": 1294,
      "▁borcun": 1295,
      "##bay": 1296,
      "▁yedir": 1297,
      "##islik": 1298,
      "▁aslında": 1299,
      "▁penceresinden": 1300,
      "▁kisilerle": 1301,
      "##abaz": 1302,
      "▁pis": 1303,
      "▁guclerin": 1304,
      "▁korkusu": 1305,
      "▁dogruya": 1306,
      "▁bedeli": 1307,
      "▁gazetesinde": 1308,
      "▁soguk": 1309,
      "▁olgu": 1310,
      "▁yurek": 1311,
      "▁farkına": 1312,
      "▁kapmak": 1313,
      "▁krok": 1314,
      "▁istasyon": 1315,
      "▁dizlerine": 1316,
      "▁vucuda": 1317,
      "##amadım": 1318,
      "▁kalabalık": 1319,
      "▁cerr": 1320,
      "▁oteli": 1321,
      "##irgin": 1322,
      "▁planlıyor": 1323,
      "▁eldiven": 1324,
      "##oy": 1325,
      "▁grub": 1326,
      "“": 1327,
      "▁bayi": 1328,
      "▁hisselerine": 1329,
      "▁kanto": 1330,
      "▁hayli": 1331,
      "▁cant": 1332,
      "▁opucuk": 1333,
      "▁nasihat": 1334,
      "▁sıkıntısını": 1335,
      "▁kazaz": 1336,
      "▁entr": 1337,
      "▁dukkanları": 1338,
      "▁endustri": 1339,
      "▁cesaret": 1340,
      "▁gerektigine": 1341,
      "▁ziyade": 1342,
      "▁gozalt": 1343,
      "▁kilo": 1344,
      "▁cocugunu": 1345,
      "##ors": 1346,
      "##eket": 1347,
      "##lacagını": 1348,
      "▁basbakanı": 1349,
      "▁sade": 1350,
      "##av": 1351,
      "▁teknik": 1352,
      "▁ucuza": 1353,
      "▁yelken": 1354,
      "▁kib": 1355,
      "▁toplantı": 1356,
      "##lemesi": 1357,
      "▁uzan": 1358,
      "##kları": 1359,
      "▁suru": 1360,
      "▁business": 1361,
      "▁havalimanı'nda": 1362,
      "▁sonundan": 1363,
      "▁ucusunu": 1364,
      "▁memleketin": 1365,
      "▁caresizlik": 1366,
      "▁burcu": 1367,
      "▁arkadasimla": 1368,
      "▁toplumunun": 1369,
      "##itliydi": 1370,
      "▁maymun": 1371,
      "▁halefi": 1372,
      "▁entari": 1373,
      "▁kurtulus": 1374,
      "▁ihtiyat": 1375,
      "▁izledi": 1376,
      "##ıp": 1377,
      "##uya": 1378,
      "▁ayrıntılarıyla": 1379,
      "##izden": 1380,
      "▁sabun": 1381,
      "##aat": 1382,
      "▁yetisk": 1383,
      "▁yapıt": 1384,
      "▁beklem": 1385,
      "▁tersine": 1386,
      "▁acılım": 1387,
      "##acaktır": 1388,
      "▁havası": 1389,
      "▁herhangi": 1390,
      "▁gecip": 1391,
      "▁hesap": 1392,
      "##ıcılık": 1393,
      "▁falan": 1394,
      "##5$": 1395,
      "▁filan": 1396,
      "##ustu": 1397,
      "​": 1398,
      "▁acak": 1399,
      "▁talebin": 1400,
      "##atmak": 1401,
      "▁soyadı": 1402,
      "▁senetleri": 1403,
      "▁a": 1404,
      "▁dilenci": 1405,
      "▁1991'de": 1406,
      "▁boynu": 1407,
      "▁pazarlarda": 1408,
      "▁tepe": 1409,
      "##lesinin": 1410,
      "▁havaalanı'na": 1411,
      "▁atın": 1412,
      "▁kitab": 1413,
      "▁dagları": 1414,
      "▁acılıyor": 1415,
      "▁vakit": 1416,
      "▁karn": 1417,
      "▁mangal": 1418,
      "##iyim": 1419,
      "▁sebeplerden": 1420,
      "▁sipar": 1421,
      "▁yuzbası": 1422,
      "▁kapıcı": 1423,
      "##izik": 1424,
      "##iyoruz": 1425,
      "▁sonucta": 1426,
      "▁kadında": 1427,
      "▁hak": 1428,
      "▁hafifce": 1429,
      "▁yeni": 1430,
      "▁kıyıda": 1431,
      "▁buf": 1432,
      "▁animasyonlari": 1433,
      "▁maddes": 1434,
      "▁donemden": 1435,
      "▁pest": 1436,
      "▁bilgilerine": 1437,
      "▁gerdan": 1438,
      "▁hid": 1439,
      "▁istemis": 1440,
      "▁gorunen": 1441,
      "▁tim": 1442,
      "▁kullanmadik": 1443,
      "▁cıv": 1444,
      "▁sente": 1445,
      "##co": 1446,
      "##lanmasını": 1447,
      "▁onemli": 1448,
      "▁haklarına": 1449,
      "▁sessizce": 1450,
      "##cılık": 1451,
      "▁oyuna": 1452,
      "▁aff": 1453,
      "▁kıyamet": 1454,
      "▁kume": 1455,
      "▁bır": 1456,
      "##adan": 1457,
      "▁tet": 1458,
      "▁olmuyor": 1459,
      "y": 1460,
      "▁olanaklari": 1461,
      "▁serg": 1462,
      "▁atılım": 1463,
      "▁buyum": 1464,
      "##uzları": 1465,
      "▁surpriz": 1466,
      "▁kıc": 1467,
      "##erince": 1468,
      "##ildik": 1469,
      "▁mimarlık": 1470,
      "▁kazanclar": 1471,
      "▁baskanlıgı": 1472,
      "▁37": 1473,
      "▁edebilir": 1474,
      "##madıgı": 1475,
      "▁duvarlarında": 1476,
      "▁gorus": 1477,
      "▁yildiz": 1478,
      "▁tav": 1479,
      "##umuzun": 1480,
      "##elerin": 1481,
      "▁sacların": 1482,
      "▁birbirine": 1483,
      "▁hosg": 1484,
      "▁ote": 1485,
      "▁zorun": 1486,
      "▁otlar": 1487,
      "▁sıcrama": 1488,
      "▁emrini": 1489,
      "▁atese": 1490,
      "##sal": 1491,
      "▁yuzuk": 1492,
      "▁istinaden": 1493,
      "##ken": 1494,
      "▁telef": 1495,
      "▁gozunden": 1496,
      "▁sp": 1497,
      "▁roman": 1498,
      "▁ordusunun": 1499,
      "▁gunlerin": 1500,
      "▁masaj": 1501,
      "▁buyumeye": 1502,
      "##ranı": 1503,
      "▁hazin": 1504,
      "▁cikista": 1505,
      "▁nisan": 1506,
      "##kam": 1507,
      "##ord": 1508,
      "▁bahtiy": 1509,
      "▁cevabı": 1510,
      "##'i": 1511,
      "##sadı": 1512,
      "##aen": 1513,
      "▁fonların": 1514,
      "▁alısveris": 1515,
      "▁azade": 1516,
      "▁ilac": 1517,
      "▁y": 1518,
      "▁ki": 1519,
      "▁hokk": 1520,
      "▁iftih": 1521,
      "▁canlı": 1522,
      "▁cul": 1523,
      "##meyerek": 1524,
      "##jyen": 1525,
      "▁takımın": 1526,
      "▁goruntu": 1527,
      "##urn": 1528,
      "▁donustu": 1529,
      "##izin": 1530,
      "▁sad": 1531,
      "▁benzin": 1532,
      "▁temmuzda": 1533,
      "▁imkanlari": 1534,
      "▁tutmaya": 1535,
      "▁miktarı": 1536,
      "▁gereken": 1537,
      "▁meht": 1538,
      "▁idaresi": 1539,
      "▁apartmana": 1540,
      "▁sım": 1541,
      "▁dardi": 1542,
      "▁mekan": 1543,
      "▁teg": 1544,
      "▁insanlara": 1545,
      "##aydi": 1546,
      "▁insaatı": 1547,
      "▁koltuguna": 1548,
      "▁kahkaha": 1549,
      "▁pat": 1550,
      "▁ederken": 1551,
      "▁yardımı": 1552,
      "▁toplumun": 1553,
      "▁kit": 1554,
      "##ılmasına": 1555,
      "▁sanmıyorum": 1556,
      "5": 1557,
      "##mekten": 1558,
      "▁zek": 1559,
      "##obil": 1560,
      "##ahat": 1561,
      "▁hemsire": 1562,
      "▁adeta": 1563,
      "##edir": 1564,
      "▁birden": 1565,
      "▁sessiz": 1566,
      "##iyorlar": 1567,
      "▁kord": 1568,
      "▁in": 1569,
      "▁toplantılarda": 1570,
      "▁derken": 1571,
      "▁kazanmak": 1572,
      "▁tecessus": 1573,
      "▁istir": 1574,
      "▁nice": 1575,
      "▁dısına": 1576,
      "▁memuru": 1577,
      "##undan": 1578,
      "▁acık": 1579,
      "▁kosesinde": 1580,
      "▁baskanın": 1581,
      "▁inek": 1582,
      "▁seyahate": 1583,
      "▁karyol": 1584,
      "##gene": 1585,
      "▁sofrasında": 1586,
      "▁ekib": 1587,
      "▁wash": 1588,
      "▁antik": 1589,
      "▁muhafazakar": 1590,
      "▁giren": 1591,
      "##gec": 1592,
      "##lerinize": 1593,
      "▁kapandıktan": 1594,
      "▁efsanesi": 1595,
      "▁nakliy": 1596,
      "▁markaları": 1597,
      "▁saatlere": 1598,
      "▁telefonla": 1599,
      "▁yus": 1600,
      "▁parayi": 1601,
      "▁suclamaları": 1602,
      "##anıs": 1603,
      "▁karar": 1604,
      "▁mantık": 1605,
      "▁karlı": 1606,
      "▁meh": 1607,
      "▁sıtma": 1608,
      "▁sıcaktan": 1609,
      "▁pacaları": 1610,
      "▁yetersizligi": 1611,
      "▁mab": 1612,
      "▁sairleri": 1613,
      "▁ucları": 1614,
      "▁ipotekler": 1615,
      "▁yagmur": 1616,
      "▁gorusunu": 1617,
      "##embe": 1618,
      "##suna": 1619,
      "##'nu": 1620,
      "▁onumuz": 1621,
      "▁hasta": 1622,
      "▁gozune": 1623,
      "▁olma": 1624,
      "▁kans": 1625,
      "▁ide": 1626,
      "▁kurk": 1627,
      "▁suyun": 1628,
      "▁ikisi": 1629,
      "▁kızın": 1630,
      "▁durumuna": 1631,
      "##ko": 1632,
      "##lıgı": 1633,
      "▁mahkem": 1634,
      "▁fiyatina": 1635,
      "▁arm": 1636,
      "▁kaptan": 1637,
      "▁tehdid": 1638,
      "▁omrunde": 1639,
      "##mesinde": 1640,
      "▁bunlardan": 1641,
      "##ıyordu": 1642,
      "##piyat": 1643,
      "▁universiteyi": 1644,
      "▁birtak": 1645,
      "▁insaat": 1646,
      "▁gog": 1647,
      "▁fa": 1648,
      "▁ulu": 1649,
      "▁mıyım": 1650,
      "##mayacagını": 1651,
      "▁alınması": 1652,
      "▁1/4": 1653,
      "▁kel": 1654,
      "▁isk": 1655,
      "▁fin": 1656,
      "▁zan": 1657,
      "##ıv": 1658,
      "▁ruya": 1659,
      "▁sapma": 1660,
      "▁planda": 1661,
      "▁verdig": 1662,
      "▁kompleksi": 1663,
      "▁yapmaya": 1664,
      "▁basla": 1665,
      "▁sch": 1666,
      "▁hukm": 1667,
      "▁birlesimi": 1668,
      "▁sonucların": 1669,
      "##umlu": 1670,
      "▁usulca": 1671,
      "▁yildizli": 1672,
      "##ama": 1673,
      "▁hizmette": 1674,
      "▁sart": 1675,
      "▁yiyecekleri": 1676,
      "▁tahkik": 1677,
      "▁giriyor": 1678,
      "▁yemeni": 1679,
      "##egimizi": 1680,
      "▁asist": 1681,
      "▁disinda": 1682,
      "▁kadınlardan": 1683,
      "▁koop": 1684,
      "▁yuzluydu": 1685,
      "▁denizden": 1686,
      "▁siddete": 1687,
      "▁zem": 1688,
      "##ville": 1689,
      "▁kaybe": 1690,
      "▁dusmanı": 1691,
      "▁surun": 1692,
      "##tla": 1693,
      "▁ucunu": 1694,
      "▁utu": 1695,
      "##eyif": 1696,
      "▁ster": 1697,
      "▁mend": 1698,
      "##eb": 1699,
      "▁gunlerinin": 1700,
      "▁aleme": 1701,
      "▁dun": 1702,
      "##mayı": 1703,
      "▁yasanan": 1704,
      "▁babasından": 1705,
      "▁hava": 1706,
      "▁buny": 1707,
      "▁kanada": 1708,
      "##ulur": 1709,
      "▁ruzgarı": 1710,
      "▁zeytinyagı": 1711,
      "##unikasyon": 1712,
      "▁ine": 1713,
      "▁koyar": 1714,
      "▁muhafaza": 1715,
      "##sekse": 1716,
      "▁maddesi": 1717,
      "▁taze": 1718,
      "##ları": 1719,
      "##mislerdir": 1720,
      "##amızın": 1721,
      "▁hocası": 1722,
      "▁yapmadıgını": 1723,
      "▁edemey": 1724,
      "##irin": 1725,
      "##son": 1726,
      "##tator": 1727,
      "▁destegi": 1728,
      "##ıg": 1729,
      "▁binanın": 1730,
      "##dir": 1731,
      "▁memnun": 1732,
      "▁ann": 1733,
      "▁tat": 1734,
      "▁geride": 1735,
      "b": 1736,
      "▁charlotte'den": 1737,
      "▁sırada": 1738,
      "▁etmenin": 1739,
      "▁fan": 1740,
      "▁car": 1741,
      "##inci": 1742,
      "▁soluk": 1743,
      "▁ebe": 1744,
      "▁derg": 1745,
      "▁muay": 1746,
      "##inden": 1747,
      "▁liraya": 1748,
      "▁tepk": 1749,
      "▁islemlerinin": 1750,
      "▁ekibinin": 1751,
      "▁itirazlar": 1752,
      "▁satıslarda": 1753,
      "▁arabayı": 1754,
      "▁tadına": 1755,
      "▁burosu": 1756,
      "▁muhac": 1757,
      "▁mutlu": 1758,
      "▁kenarında": 1759,
      "##etik": 1760,
      "##ıldıgını": 1761,
      "▁anlamına": 1762,
      "▁dususu": 1763,
      "▁seniz": 1764,
      "##agımı": 1765,
      "▁kayg": 1766,
      "▁kımıl": 1767,
      "▁bekleniyor": 1768,
      "▁ofisleri": 1769,
      "▁pencereye": 1770,
      "▁hayatın": 1771,
      "##luler": 1772,
      "##ecegimiz": 1773,
      "##imen": 1774,
      "▁yapıp": 1775,
      "▁arastır": 1776,
      "##ad": 1777,
      "▁lezzeti": 1778,
      "▁rehberden": 1779,
      "▁dis": 1780,
      "▁cırp": 1781,
      "▁kalkan": 1782,
      "▁gali": 1783,
      "▁tutar": 1784,
      "##ıyorsun": 1785,
      "##iklik": 1786,
      "▁yabanc": 1787,
      "##tin": 1788,
      "▁por": 1789,
      "▁vermis": 1790,
      "##ivers": 1791,
      "▁kaliteliydi": 1792,
      "▁oksuz": 1793,
      "▁resep": 1794,
      "##layacagını": 1795,
      "▁giderken": 1796,
      "▁kadavra": 1797,
      "▁parmaklarıyla": 1798,
      "▁kosul": 1799,
      "▁maliyetlerin": 1800,
      "▁sirke": 1801,
      "▁keder": 1802,
      "▁ardı": 1803,
      "▁otesinde": 1804,
      "▁gordun": 1805,
      "▁artısın": 1806,
      "##yon": 1807,
      "▁malz": 1808,
      "##caya": 1809,
      "##lerimize": 1810,
      "▁kizim": 1811,
      "▁dakik": 1812,
      "▁mutfak": 1813,
      "▁sesle": 1814,
      "##ist": 1815,
      "##miyordu": 1816,
      "##ınır": 1817,
      "▁koprunun": 1818,
      "▁amca": 1819,
      "▁temin": 1820,
      "▁saglama": 1821,
      "▁lamb": 1822,
      "▁biraz": 1823,
      "##9'un": 1824,
      "▁ozellikle": 1825,
      "##lek": 1826,
      "##alarda": 1827,
      "▁ulasılamadı": 1828,
      "▁dusunceleri": 1829,
      "▁gosterisi": 1830,
      "##ikli": 1831,
      "▁vasıf": 1832,
      "▁ucuslarınız": 1833,
      "##mma": 1834,
      "▁gecmesi": 1835,
      "▁piyasaya": 1836,
      "▁hamuru": 1837,
      "▁misafirimize": 1838,
      "▁bahseder": 1839,
      "▁gecmisi": 1840,
      "▁karının": 1841,
      "▁kova": 1842,
      "▁korudu": 1843,
      "▁olmayı": 1844,
      "▁teyit": 1845,
      "##ite": 1846,
      "##kili": 1847,
      "▁gerekse": 1848,
      "##lal": 1849,
      "▁kızıl": 1850,
      "▁usak": 1851,
      "▁zarf": 1852,
      "##acılara": 1853,
      "▁parmakları": 1854,
      "▁iyiligini": 1855,
      "▁melek": 1856,
      "##det": 1857,
      "▁verilir": 1858,
      "▁cene": 1859,
      "▁macında": 1860,
      "▁mudurlugu": 1861,
      "▁kapsamlı": 1862,
      "▁dede": 1863,
      "##lasabilir": 1864,
      "▁indirimi": 1865,
      "▁normal": 1866,
      "▁urunu": 1867,
      "▁onayı": 1868,
      "▁kapanısına": 1869,
      "▁soh": 1870,
      "▁kooperatif": 1871,
      "▁tavana": 1872,
      "▁tasvir": 1873,
      "▁senetlerinin": 1874,
      "▁bizleri": 1875,
      "▁evlat": 1876,
      "▁kisilerin": 1877,
      "▁parcacıklar": 1878,
      "▁ik": 1879,
      "▁cumle": 1880,
      "##lıg": 1881,
      "##as": 1882,
      "##fil": 1883,
      "##aben": 1884,
      "▁istek": 1885,
      "##essum": 1886,
      "▁sarayın": 1887,
      "##ere": 1888,
      "▁hediy": 1889,
      "##meyecek": 1890,
      "##e'nin": 1891,
      "▁kayd": 1892,
      "▁yazılmıs": 1893,
      "▁hissetti": 1894,
      "▁mamafih": 1895,
      "▁zarfın": 1896,
      "▁sını": 1897,
      "##cuların": 1898,
      "##inaen": 1899,
      "▁iste": 1900,
      "##astır": 1901,
      "##v": 1902,
      "##dıgından": 1903,
      "▁farz": 1904,
      "▁dunyaya": 1905,
      "▁aktivite": 1906,
      "##alt": 1907,
      "▁7.8": 1908,
      "▁fincanı": 1909,
      "▁sarkıcı": 1910,
      "##madik": 1911,
      "##baz": 1912,
      "##oker": 1913,
      "##latma": 1914,
      "▁tunel": 1915,
      "▁cız": 1916,
      "▁departman": 1917,
      "▁yanisi": 1918,
      "▁oglak": 1919,
      "▁ziyaret": 1920,
      "▁hile": 1921,
      "▁madem": 1922,
      "▁hob": 1923,
      "▁kazanclara": 1924,
      "▁sultan": 1925,
      "▁vergiler": 1926,
      "▁cıkarmak": 1927,
      "##iyetle": 1928,
      "▁istanbul": 1929,
      "▁esv": 1930,
      "▁gozler": 1931,
      "##'ı": 1932,
      "##iller": 1933,
      "▁taz": 1934,
      "▁muhaseb": 1935,
      "▁damla": 1936,
      "▁genelde": 1937,
      "▁bulacak": 1938,
      "##afet": 1939,
      "▁cicek": 1940,
      "▁hub": 1941,
      "▁mahsul": 1942,
      "▁``": 1943,
      "▁vis": 1944,
      "▁gecimini": 1945,
      "▁faizleri": 1946,
      "##ılırsa": 1947,
      "▁sipahi": 1948,
      "▁kolay": 1949,
      "##tat": 1950,
      "▁bırakıyor": 1951,
      "▁kuruluslar": 1952,
      "▁kitap": 1953,
      "▁diyor": 1954,
      "▁degis": 1955,
      "##metik": 1956,
      "▁puandan": 1957,
      "▁islemlerin": 1958,
      "▁gelismeler": 1959,
      "▁ortamına": 1960,
      "▁enistemiz": 1961,
      "##lasının": 1962,
      "▁hayvan": 1963,
      "##lerimizin": 1964,
      "▁ortalama": 1965,
      "▁sened": 1966,
      "▁armagan": 1967,
      "▁denizi": 1968,
      "##adın": 1969,
      "▁piyasa": 1970,
      "▁teklifini": 1971,
      "▁birik": 1972,
      "##lugunda": 1973,
      "▁oden": 1974,
      "▁efendi": 1975,
      "▁kofte": 1976,
      "▁eksikler": 1977,
      "▁kurumlar": 1978,
      "▁bakla": 1979,
      "▁zemin": 1980,
      "▁gormuyor": 1981,
      "▁karan": 1982,
      "▁yanıt": 1983,
      "▁kostum": 1984,
      "c": 1985,
      "▁yolcu": 1986,
      "▁ogleden": 1987,
      "▁yılı": 1988,
      "▁dalgalan": 1989,
      "▁lav": 1990,
      "##emedik": 1991,
      "▁piyango": 1992,
      "▁kimseye": 1993,
      "▁gogsunun": 1994,
      "##tur": 1995,
      "▁kapatmak": 1996,
      "▁hataları": 1997,
      "▁seneden": 1998,
      "▁ayrı": 1999,
      "▁yasay": 2000,
      "▁eskiydi": 2001,
      "##tigi": 2002,
      "##tigimiz": 2003,
      "▁sak": 2004,
      "▁gereksin": 2005,
      "▁zavallı": 2006,
      "▁adıyla": 2007,
      "##sak": 2008,
      "▁mevcut": 2009,
      "▁bildir": 2010,
      "▁yazıları": 2011,
      "▁serveti": 2012,
      "##ımız": 2013,
      "▁balta": 2014,
      "##ndeki": 2015,
      "##ilim": 2016,
      "▁muess": 2017,
      "##acılık": 2018,
      "##dukca": 2019,
      "▁hapis": 2020,
      "▁olaydan": 2021,
      "▁sanıyorum": 2022,
      "▁yede": 2023,
      "▁yukselise": 2024,
      "##desi": 2025,
      "▁cirit": 2026,
      "##mısım": 2027,
      "▁bilez": 2028,
      "▁seb": 2029,
      "▁fuze": 2030,
      "▁cinsiyet": 2031,
      "▁gecenin": 2032,
      "##asıdır": 2033,
      "▁toren": 2034,
      "▁derde": 2035,
      "##'": 2036,
      "▁okyan": 2037,
      "##sul": 2038,
      "▁yemeklerden": 2039,
      "▁acılar": 2040,
      "▁ulasımı": 2041,
      "▁tov": 2042,
      "▁fiyatından": 2043,
      "##>": 2044,
      "▁rek": 2045,
      "▁tutul": 2046,
      "##edav": 2047,
      "##\\/8": 2048,
      "▁$'dan": 2049,
      "▁gul": 2050,
      "▁tas": 2051,
      "▁cumhuriyet": 2052,
      "##dik": 2053,
      "▁gider": 2054,
      "▁eserin": 2055,
      "▁koru": 2056,
      "▁ilim": 2057,
      "##ulan": 2058,
      "##aklıgı": 2059,
      "▁sise": 2060,
      "▁defa": 2061,
      "▁aktarmasız": 2062,
      "##45": 2063,
      "▁cic": 2064,
      "▁borsada": 2065,
      "▁kısın": 2066,
      "▁cıkarları": 2067,
      "▁odul": 2068,
      "▁ula": 2069,
      "▁tarifesini": 2070,
      "▁yangından": 2071,
      "▁deneyim": 2072,
      "▁karak": 2073,
      "▁cocugu": 2074,
      "▁antikor": 2075,
      "##kus": 2076,
      "▁201": 2077,
      "▁kalab": 2078,
      "▁sahan": 2079,
      "▁siyaset": 2080,
      "##alın": 2081,
      "##kil": 2082,
      "▁gordu": 2083,
      "##dır": 2084,
      "▁nam": 2085,
      "▁depremi": 2086,
      "▁depremde": 2087,
      "▁bakanlar": 2088,
      "##'deki": 2089,
      "##masız": 2090,
      "▁deng": 2091,
      "▁kılıc": 2092,
      "##alı": 2093,
      "▁1'de": 2094,
      "▁vakfı": 2095,
      "▁mademki": 2096,
      "▁sabahları": 2097,
      "▁muhend": 2098,
      "▁sofraya": 2099,
      "▁van": 2100,
      "▁basvur": 2101,
      "##ometr": 2102,
      "▁donum": 2103,
      "▁tavuk": 2104,
      "▁malları": 2105,
      "▁endek": 2106,
      "▁gitmeye": 2107,
      "##elerim": 2108,
      "▁tak": 2109,
      "##ırıp": 2110,
      "▁''": 2111,
      "▁zum": 2112,
      "▁alıs": 2113,
      "▁sicak": 2114,
      "##kını": 2115,
      "▁aramak": 2116,
      "▁turs": 2117,
      "▁kopr": 2118,
      "##ısır": 2119,
      "▁sayfa": 2120,
      "▁ekl": 2121,
      "##yap": 2122,
      "▁kazanc": 2123,
      "▁pittsburgh": 2124,
      "▁havayolları": 2125,
      "▁mek": 2126,
      "##endek": 2127,
      "▁paylasım": 2128,
      "▁yorgunluktan": 2129,
      "▁dallas": 2130,
      "▁alttan": 2131,
      "▁astı": 2132,
      "▁karsilama": 2133,
      "##agından": 2134,
      "▁ihmal": 2135,
      "▁karmasası": 2136,
      "▁ikiye": 2137,
      "##eor": 2138,
      "##'e": 2139,
      "▁par": 2140,
      "▁senenin": 2141,
      "##ustuk": 2142,
      "▁mesaj": 2143,
      "▁darb": 2144,
      "##ıgına": 2145,
      "▁dag": 2146,
      "▁beyefendi": 2147,
      "▁verdik": 2148,
      "▁kelim": 2149,
      "▁kurnaz": 2150,
      "▁degerler": 2151,
      "▁dim": 2152,
      "▁topraga": 2153,
      "▁arabul": 2154,
      "##alım": 2155,
      "▁getirdi": 2156,
      "▁bilimleri": 2157,
      "▁hakkinda": 2158,
      "##say": 2159,
      "▁kisiye": 2160,
      "▁sucu": 2161,
      "▁bakımdan": 2162,
      "▁haklar": 2163,
      "▁mimar": 2164,
      "##asyonu": 2165,
      "▁problemleri": 2166,
      "▁ihale": 2167,
      "▁piyanonun": 2168,
      "##lev": 2169,
      "##ırlı": 2170,
      "▁zamandır": 2171,
      "▁ocagın": 2172,
      "▁kabiliyeti": 2173,
      "▁ona": 2174,
      "##mal": 2175,
      "▁canavar": 2176,
      "▁boru": 2177,
      "##lip": 2178,
      "▁cinsten": 2179,
      "▁tahvili": 2180,
      "##era": 2181,
      "▁mar": 2182,
      "▁m": 2183,
      "▁aldılar": 2184,
      "▁haric": 2185,
      "▁1.0": 2186,
      "##ılımı": 2187,
      "▁lam": 2188,
      "▁gonderdi": 2189,
      "▁satılan": 2190,
      "▁bayan": 2191,
      "▁ayrica": 2192,
      "##ydi": 2193,
      "▁kadr": 2194,
      "▁yerleri": 2195,
      "▁laborat": 2196,
      "▁kotums": 2197,
      "▁ettig": 2198,
      "▁cikol": 2199,
      "▁geciyor": 2200,
      "▁ekonomisini": 2201,
      "▁duvar": 2202,
      "▁etmemek": 2203,
      "##suzlugunu": 2204,
      "▁emegi": 2205,
      "##.7": 2206,
      "▁oldugumu": 2207,
      "▁birbirlerini": 2208,
      "▁anla": 2209,
      "▁cub": 2210,
      "##lardir": 2211,
      "##”": 2212,
      "▁birbiri": 2213,
      "▁tacirler": 2214,
      "▁etiket": 2215,
      "▁yurtdısında": 2216,
      "▁universiteye": 2217,
      "▁kacak": 2218,
      "▁ayının": 2219,
      "▁kuralları": 2220,
      "▁havasında": 2221,
      "##me": 2222,
      "▁saatlerinde": 2223,
      "▁soyley": 2224,
      "▁bicimi": 2225,
      "▁odemeler": 2226,
      "▁sapkasını": 2227,
      "▁goruntusu": 2228,
      "▁kazancı": 2229,
      "▁bur": 2230,
      "▁cad": 2231,
      "▁potansiy": 2232,
      "▁sacmalık": 2233,
      "▁boz": 2234,
      "▁riv": 2235,
      "▁seni": 2236,
      "▁nesne": 2237,
      "##abında": 2238,
      "▁tuzu": 2239,
      "▁konuları": 2240,
      "▁1/4'e": 2241,
      "▁yek": 2242,
      "##ans": 2243,
      "▁espr": 2244,
      "▁kırıs": 2245,
      "##kten": 2246,
      "▁savunmak": 2247,
      "▁sporcu": 2248,
      "▁sabahı": 2249,
      "▁tumuyle": 2250,
      "##atik": 2251,
      "##uyor": 2252,
      "▁agacların": 2253,
      "▁performansa": 2254,
      "▁numara": 2255,
      "▁bilhassa": 2256,
      "▁kulaga": 2257,
      "▁uygulamaları": 2258,
      "##agan": 2259,
      "▁kazak": 2260,
      "##kes": 2261,
      "▁ısıgı": 2262,
      "▁kulagına": 2263,
      "▁pey": 2264,
      "▁kahveden": 2265,
      "▁rengini": 2266,
      "▁toplan": 2267,
      "▁olmadıgına": 2268,
      "▁bilgisayar-programı": 2269,
      "▁anladı": 2270,
      "▁calısıyorum": 2271,
      "▁alıskan": 2272,
      "▁havadan": 2273,
      "##eller": 2274,
      "▁boldu": 2275,
      "▁tuz": 2276,
      "##amayacagını": 2277,
      "▁kimseyi": 2278,
      "▁oku": 2279,
      "▁ileriye": 2280,
      "▁senedinin": 2281,
      "##amızda": 2282,
      "▁dusuncesini": 2283,
      "##'nda": 2284,
      "##ell": 2285,
      "▁haberim": 2286,
      "▁kurulu'nun": 2287,
      "##eff": 2288,
      "▁fel": 2289,
      "▁goruyordu": 2290,
      "▁beton": 2291,
      "▁muhallebi": 2292,
      "▁isten": 2293,
      "▁nohut": 2294,
      "▁semt": 2295,
      "▁dort": 2296,
      "▁esitlik": 2297,
      "▁sakinleri": 2298,
      "▁sıra": 2299,
      "##enek": 2300,
      "▁yatırımcıların": 2301,
      "▁tarihe": 2302,
      "▁denver'de": 2303,
      "▁romanc": 2304,
      "▁ruhundan": 2305,
      "▁dususe": 2306,
      "▁sahası": 2307,
      "▁tezgah": 2308,
      "##gi": 2309,
      "##ayıp": 2310,
      "▁nereye": 2311,
      "##ilet": 2312,
      "▁elleriyle": 2313,
      "▁piyade": 2314,
      "▁birisini": 2315,
      "▁vicdan": 2316,
      "##cısı": 2317,
      "▁minder": 2318,
      "##cagızı": 2319,
      "▁adi": 2320,
      "▁odenmesi": 2321,
      "=": 2322,
      "▁kapıs": 2323,
      "▁buldular": 2324,
      "▁arzı": 2325,
      "▁ansik": 2326,
      "##lamalarını": 2327,
      "▁tarafından": 2328,
      "▁kuz": 2329,
      "▁plaj": 2330,
      "##sızca": 2331,
      "▁telif": 2332,
      "▁telefonu": 2333,
      "▁sidde": 2334,
      "▁duzenli": 2335,
      "▁evi": 2336,
      "▁edebiyatı": 2337,
      "##rem": 2338,
      "▁ydi": 2339,
      "▁sirketlerine": 2340,
      "▁agırlıgında": 2341,
      "▁lavanta": 2342,
      "▁edildigini": 2343,
      "##mik": 2344,
      "##ten": 2345,
      "▁etrafta": 2346,
      "▁yut": 2347,
      "▁uygulamaya": 2348,
      "##n": 2349,
      "▁kıyafet": 2350,
      "▁1988": 2351,
      "▁gulu": 2352,
      "##kı": 2353,
      "▁basbakan": 2354,
      "▁yelpaz": 2355,
      "▁kalktı": 2356,
      "##iger": 2357,
      "▁tucc": 2358,
      "##luguna": 2359,
      "▁tasa": 2360,
      "▁buyuy": 2361,
      "▁istiyorum": 2362,
      "▁kalmadı": 2363,
      "▁ardından": 2364,
      "▁degerlendiril": 2365,
      "##mustur": 2366,
      "##iyat": 2367,
      "▁yapmaktan": 2368,
      "▁fatura": 2369,
      "▁pu": 2370,
      "▁kısım": 2371,
      "▁oyununa": 2372,
      "▁hisseyle": 2373,
      "▁yasları": 2374,
      "##dos": 2375,
      "▁4": 2376,
      "##ult": 2377,
      "##o": 2378,
      "▁aracılık": 2379,
      "▁ısır": 2380,
      "▁serb": 2381,
      "##unuyor": 2382,
      "▁q": 2383,
      "▁hekim": 2384,
      "##hi": 2385,
      "▁kov": 2386,
      "▁kabuk": 2387,
      "▁sizden": 2388,
      "▁analiz": 2389,
      "▁merkeze": 2390,
      "▁bana": 2391,
      "▁fant": 2392,
      "##isti": 2393,
      "▁kucak": 2394,
      "▁yıldızlar": 2395,
      "▁gaz": 2396,
      "▁kos": 2397,
      "▁daire": 2398,
      "▁bakarak": 2399,
      "##attle": 2400,
      "▁sor": 2401,
      "▁birligi": 2402,
      "▁ir": 2403,
      "▁sayıda": 2404,
      "▁acentamiza": 2405,
      "▁yorumu": 2406,
      "▁amerika": 2407,
      "##alarında": 2408,
      "▁yemekte": 2409,
      "▁evler": 2410,
      "!": 2411,
      "▁duzel": 2412,
      "▁sehr": 2413,
      "▁taraftan": 2414,
      "▁kıl": 2415,
      "▁otorite": 2416,
      "▁caddesi": 2417,
      "##maktır": 2418,
      "▁calıs": 2419,
      "▁soruları": 2420,
      "▁konuyla": 2421,
      "##teler": 2422,
      "▁saclarına": 2423,
      "▁dergisi": 2424,
      "▁saunadan": 2425,
      "▁3.1": 2426,
      "▁ick": 2427,
      "▁koyde": 2428,
      "▁balkon": 2429,
      "▁eczacı": 2430,
      "▁dervis": 2431,
      "▁oldukca": 2432,
      "▁yaslarında": 2433,
      "##diler": 2434,
      "##ari": 2435,
      "▁tenis": 2436,
      "##ran": 2437,
      "##he": 2438,
      "▁artırma": 2439,
      "▁dogal": 2440,
      "▁agrı": 2441,
      "▁40": 2442,
      "▁turist": 2443,
      "▁ozellikleri": 2444,
      "▁esy": 2445,
      "▁noktaları": 2446,
      "▁louis": 2447,
      "##ims": 2448,
      "▁genis": 2449,
      "▁detaylar": 2450,
      "▁arap": 2451,
      "▁sum": 2452,
      "▁tef": 2453,
      "▁aclık": 2454,
      "▁belirsiz": 2455,
      "▁gormez": 2456,
      "##suzlugun": 2457,
      "▁gecirdim": 2458,
      "▁arkadasım": 2459,
      "##inlerin": 2460,
      "▁yarısının": 2461,
      "▁talepte": 2462,
      "▁bisiklet": 2463,
      "▁gokyuzunde": 2464,
      "##leleri": 2465,
      "##dog": 2466,
      "▁programına": 2467,
      "▁ucusunun": 2468,
      "▁gercekles": 2469,
      "▁ormanda": 2470,
      "##lamıstı": 2471,
      "▁havayolları'nın": 2472,
      "##7'den": 2473,
      "▁kahvalti": 2474,
      "▁iddialar": 2475,
      "▁kim": 2476,
      "▁yazın": 2477,
      "##ekom": 2478,
      "##abilmek": 2479,
      "▁olasılıgı": 2480,
      "▁gom": 2481,
      "▁baskasın": 2482,
      "▁giyin": 2483,
      "##ledigini": 2484,
      "▁telaf": 2485,
      "▁cemaat": 2486,
      "▁boh": 2487,
      "##usuz": 2488,
      "▁depart": 2489,
      "▁adımları": 2490,
      "##tıldı": 2491,
      "▁kasımda": 2492,
      "▁ların": 2493,
      "▁degerlerine": 2494,
      "##imli": 2495,
      "▁bera": 2496,
      "▁patlıc": 2497,
      "▁sicakti": 2498,
      "##iliyordu": 2499,
      "▁kor": 2500,
      "▁teblig": 2501,
      "##esine": 2502,
      "##lıgını": 2503,
      "▁alıyor": 2504,
      "▁cocug": 2505,
      "▁tuttum": 2506,
      "##larıdır": 2507,
      "▁prop": 2508,
      "▁araplar": 2509,
      "▁kaldırdı": 2510,
      "▁dibi": 2511,
      "##gunlukla": 2512,
      "▁ideoloj": 2513,
      "▁kilis": 2514,
      "▁cezaev": 2515,
      "▁aktr": 2516,
      "▁konumu": 2517,
      "##lıgında": 2518,
      "▁yankı": 2519,
      "▁buyume": 2520,
      "##usuyla": 2521,
      "▁etek": 2522,
      "##eciye": 2523,
      "▁benziyor": 2524,
      "▁imkanları": 2525,
      "▁basın": 2526,
      "##ındı": 2527,
      "▁mevdu": 2528,
      "##unuzun": 2529,
      "▁be": 2530,
      "##allı": 2531,
      "▁ima": 2532,
      "▁boyle": 2533,
      "▁eb": 2534,
      "##tem": 2535,
      "▁binalar": 2536,
      "▁makarn": 2537,
      "▁bog": 2538,
      "▁kahve": 2539,
      "▁14": 2540,
      "▁sınırlarını": 2541,
      "▁seklinde": 2542,
      "▁toplantıdan": 2543,
      "▁iadesi": 2544,
      "▁konsolos": 2545,
      "▁sirketin": 2546,
      "▁orland": 2547,
      "▁kalmaya": 2548,
      "▁sozu": 2549,
      "##lumu": 2550,
      "▁doz": 2551,
      "▁degistiriyor": 2552,
      "##inle": 2553,
      "##les": 2554,
      "##lendirdi": 2555,
      "##aparki": 2556,
      "##iel": 2557,
      "##eda": 2558,
      "▁cin": 2559,
      "▁airlines": 2560,
      "▁1987'de": 2561,
      "▁merkezinde": 2562,
      "##ol": 2563,
      "▁miydi": 2564,
      "▁tarihini": 2565,
      "▁olurdu": 2566,
      "▁vurusu": 2567,
      "▁anlama": 2568,
      "▁uygar": 2569,
      "▁kaliteyi": 2570,
      "▁komisyonu'na": 2571,
      "##itler": 2572,
      "##lasın": 2573,
      "▁servisten": 2574,
      "▁oksuruk": 2575,
      "##luga": 2576,
      "▁pitts": 2577,
      "##anma": 2578,
      "▁cocugum": 2579,
      "▁soyledi": 2580,
      "▁gorusmedik": 2581,
      "▁bagırsak": 2582,
      "##lıklı": 2583,
      "▁tatilimi": 2584,
      "##di": 2585,
      "##mı": 2586,
      "▁mana": 2587,
      "▁tavan": 2588,
      "▁ger": 2589,
      "▁potansiyel": 2590,
      "##—": 2591,
      "▁onlerinde": 2592,
      "##ligini": 2593,
      "▁yazıya": 2594,
      "▁ton": 2595,
      "▁rıht": 2596,
      "▁tv": 2597,
      "##ıyorum": 2598,
      "##mamacasına": 2599,
      "▁taslar": 2600,
      "▁egit": 2601,
      "▁kı": 2602,
      "▁yonetm": 2603,
      "▁olaya": 2604,
      "▁yanda": 2605,
      "##otiv": 2606,
      "▁gunlerden": 2607,
      "▁pansiyonda": 2608,
      "▁bo": 2609,
      "▁testi": 2610,
      "##lıktan": 2611,
      "##lasması": 2612,
      "▁saman": 2613,
      "▁zamana": 2614,
      "##dırma": 2615,
      "▁*": 2616,
      "▁bastır": 2617,
      "▁varlıgına": 2618,
      "▁ucus": 2619,
      "▁yanını": 2620,
      "▁universitelerin": 2621,
      "##ini": 2622,
      "▁kale": 2623,
      "##ıla": 2624,
      "▁kurban": 2625,
      "▁ana": 2626,
      "▁gideri": 2627,
      "▁konusmalar": 2628,
      "▁yılında": 2629,
      "▁hikayeler": 2630,
      "▁otob": 2631,
      "▁demir": 2632,
      "##esli": 2633,
      "▁huy": 2634,
      "▁tuhaf": 2635,
      "▁yarısından": 2636,
      "▁!..": 2637,
      "▁kardesleri": 2638,
      "▁yolun": 2639,
      "▁hastane": 2640,
      "▁midem": 2641,
      "▁dernek": 2642,
      "▁krizi": 2643,
      "▁doktorun": 2644,
      "▁miami'den": 2645,
      "▁pesine": 2646,
      "▁beceri": 2647,
      "##ecilerin": 2648,
      "##yonun": 2649,
      "▁ense": 2650,
      "▁ilmin": 2651,
      "▁dediler": 2652,
      "##–": 2653,
      "▁evin": 2654,
      "▁kucuktu": 2655,
      "▁bank": 2656,
      "##lulugunu": 2657,
      "▁iyisini": 2658,
      "▁cekmis": 2659,
      "▁div": 2660,
      "▁bulur": 2661,
      "##iyeti": 2662,
      "▁sakin": 2663,
      "▁vadede": 2664,
      "##sın": 2665,
      "▁verilen": 2666,
      "▁twa": 2667,
      "▁ayr": 2668,
      "##iness": 2669,
      "▁populer": 2670,
      "▁yıldan": 2671,
      "▁soganı": 2672,
      "▁kaynak": 2673,
      "▁tabanc": 2674,
      "▁buyumesi": 2675,
      "##'nin": 2676,
      "▁tuccarlar": 2677,
      "▁uvey": 2678,
      "▁isim": 2679,
      "▁sozler": 2680,
      "▁denet": 2681,
      "▁isciyi": 2682,
      "▁tanıyor": 2683,
      "▁karısını": 2684,
      "##ucc": 2685,
      "##'li": 2686,
      "▁calisan": 2687,
      "▁faizi": 2688,
      "▁gucleri": 2689,
      "▁baslayacak": 2690,
      "##/8'e": 2691,
      "##kurmay": 2692,
      "▁caddeyi": 2693,
      "##malıyız": 2694,
      "▁evrende": 2695,
      "▁yuf": 2696,
      "▁gunku": 2697,
      "##isleri": 2698,
      "##ucu": 2699,
      "▁gunduz": 2700,
      "▁olcusu": 2701,
      "▁gittik": 2702,
      "▁uygarlık": 2703,
      "▁bilgi": 2704,
      "▁operasyonu": 2705,
      "▁gozlerine": 2706,
      "##yıf": 2707,
      "▁farkın": 2708,
      "##uver": 2709,
      "▁islerde": 2710,
      "##ational": 2711,
      "▁doviz": 2712,
      "##emle": 2713,
      "▁canlandır": 2714,
      "▁grubu": 2715,
      "▁ar": 2716,
      "v": 2717,
      "##mem": 2718,
      "▁kokusu": 2719,
      "▁teknolojisinin": 2720,
      "▁konustu": 2721,
      "▁levh": 2722,
      "▁iler": 2723,
      "▁kurumsal": 2724,
      "▁gezer": 2725,
      "▁baskent": 2726,
      "##latır": 2727,
      "▁rakipler": 2728,
      "▁misafirler": 2729,
      "▁uret": 2730,
      "▁anlasmazlık": 2731,
      "▁kılav": 2732,
      "▁yetkililere": 2733,
      "▁rezerve": 2734,
      "##dat": 2735,
      "##eh": 2736,
      "▁zihn": 2737,
      "▁manasıyla": 2738,
      "▁dogur": 2739,
      "▁yazarın": 2740,
      "▁bahis": 2741,
      "▁sıkıya": 2742,
      "▁muhabiri": 2743,
      "##ingi": 2744,
      "##'nun": 2745,
      "▁istemedi": 2746,
      "▁arif": 2747,
      "##o'ya": 2748,
      "▁kanunla": 2749,
      "▁ickiler": 2750,
      "▁adam": 2751,
      "▁dram": 2752,
      "▁operasyonlarını": 2753,
      "##dip": 2754,
      "▁haline": 2755,
      "▁gazi": 2756,
      "▁noktada": 2757,
      "▁italyan": 2758,
      "▁motiv": 2759,
      "▁keman": 2760,
      "▁gugum": 2761,
      "▁kurt": 2762,
      "▁pazarın": 2763,
      "▁hareketini": 2764,
      "##erhal": 2765,
      "▁sofra": 2766,
      "##lugundan": 2767,
      "▁olacagını": 2768,
      "▁viz": 2769,
      "▁departmanı": 2770,
      "▁bicimde": 2771,
      "##cesi": 2772,
      "▁west": 2773,
      "▁tedbir": 2774,
      "▁sordu": 2775,
      "▁franch": 2776,
      "##amı": 2777,
      "▁programlar": 2778,
      "▁almanlar": 2779,
      "▁sendika": 2780,
      "▁senetlerini": 2781,
      "▁umuduyla": 2782,
      "▁kosu": 2783,
      "▁yansıt": 2784,
      "▁davranmaya": 2785,
      "##dık": 2786,
      "▁dahil": 2787,
      "▁gurult": 2788,
      "▁cos": 2789,
      "▁kuy": 2790,
      "##ette": 2791,
      "##lendirmek": 2792,
      "▁macer": 2793,
      "▁savas": 2794,
      "▁deplasmanda": 2795,
      "##ıcak": 2796,
      "▁yılda": 2797,
      "▁musunuz": 2798,
      "##dugumu": 2799,
      "##liginin": 2800,
      "▁gumus": 2801,
      "##akını": 2802,
      "▁seviyelerde": 2803,
      "##59": 2804,
      "▁sevgisini": 2805,
      "▁yanımda": 2806,
      "▁destekli": 2807,
      "##lerdi": 2808,
      "##imin": 2809,
      "▁mahkemesi": 2810,
      "▁dinlen": 2811,
      "##urt": 2812,
      "▁elimden": 2813,
      "▁ucusla": 2814,
      "##diginde": 2815,
      "▁oyku": 2816,
      "▁iyiden": 2817,
      "##maların": 2818,
      "▁gıda": 2819,
      "▁bulbul": 2820,
      "▁ezber": 2821,
      "▁biriyle": 2822,
      "▁yed": 2823,
      "▁kısıtlama": 2824,
      "▁hakkı": 2825,
      "▁sıkıstır": 2826,
      "▁gunden": 2827,
      "▁pırlanta": 2828,
      "▁20": 2829,
      "▁kaliforn": 2830,
      "##ysa": 2831,
      "##rupalı": 2832,
      "▁babasıyla": 2833,
      "▁yemege": 2834,
      "##iben": 2835,
      "▁dikkatle": 2836,
      "▁ucmak": 2837,
      "##vet": 2838,
      "▁gubre": 2839,
      "##alarını": 2840,
      "▁muayen": 2841,
      "##eldir": 2842,
      "▁video": 2843,
      "##kit": 2844,
      "▁fist": 2845,
      "▁listede": 2846,
      "▁oldugun": 2847,
      "▁alısver": 2848,
      "##za": 2849,
      "▁pozisyonları": 2850,
      "▁aklıma": 2851,
      "▁motorun": 2852,
      "##len": 2853,
      "▁gururunu": 2854,
      "##use": 2855,
      "▁tadı": 2856,
      "▁bomba": 2857,
      "▁getirmeye": 2858,
      "##ain": 2859,
      "▁federal": 2860,
      "##diginden": 2861,
      "##asında": 2862,
      "▁bebek": 2863,
      "▁yanıtını": 2864,
      "▁edilemez": 2865,
      "▁ters": 2866,
      "▁halef": 2867,
      "▁ny": 2868,
      "##tam": 2869,
      "▁cet": 2870,
      "▁cekirdek": 2871,
      "▁midir": 2872,
      "▁lakırt": 2873,
      "▁lider": 2874,
      "▁askeri": 2875,
      "▁jo": 2876,
      "▁herkesi": 2877,
      "▁yapıyor": 2878,
      "▁gozlerden": 2879,
      "▁kalıyor": 2880,
      "▁postacı": 2881,
      "▁zirv": 2882,
      "▁camı": 2883,
      "▁gerekiyor": 2884,
      "▁adımı": 2885,
      "▁civi": 2886,
      "▁sunu": 2887,
      "▁dolma": 2888,
      "▁birbiriyle": 2889,
      "##leyiciler": 2890,
      "▁sed": 2891,
      "▁yaslı": 2892,
      "##arın": 2893,
      "▁hastalıktan": 2894,
      "▁acıkca": 2895,
      "▁kıvıl": 2896,
      "▁cayır": 2897,
      "▁faaliyete": 2898,
      "▁aleyhine": 2899,
      "##ir": 2900,
      "##em": 2901,
      "▁ablası": 2902,
      "▁yokus": 2903,
      "▁oyla": 2904,
      "▁sigor": 2905,
      "▁catı": 2906,
      "##ask": 2907,
      "▁ro": 2908,
      "▁yoktu": 2909,
      "▁buyudu": 2910,
      "▁bilgisi": 2911,
      "##ıyordum": 2912,
      "▁cincinnati": 2913,
      "▁esnaf": 2914,
      "▁akraba": 2915,
      "▁ettigini": 2916,
      "▁bolgesi": 2917,
      "▁cimen": 2918,
      "▁civ": 2919,
      "▁ankete": 2920,
      "##asta": 2921,
      "▁pasaj": 2922,
      "▁temizligi": 2923,
      "▁iceriye": 2924,
      "▁burn": 2925,
      "▁isinin": 2926,
      "▁cıktık": 2927,
      "▁anlıyor": 2928,
      "▁isaret": 2929,
      "##isy": 2930,
      "▁cleveland'dan": 2931,
      "##izligi": 2932,
      "▁arkasından": 2933,
      "▁itaat": 2934,
      "▁gecit": 2935,
      "▁mut": 2936,
      "▁basta": 2937,
      "▁birbirlerine": 2938,
      "##nam": 2939,
      "▁polit": 2940,
      "▁ulastırma": 2941,
      "##lidir": 2942,
      "▁balon": 2943,
      "▁york'tan": 2944,
      "▁kente": 2945,
      "##orma": 2946,
      "▁anti": 2947,
      "▁doktoru": 2948,
      "▁kaymakam": 2949,
      "▁azaltmak": 2950,
      "▁borclanma": 2951,
      "▁ambar": 2952,
      "▁personelinden": 2953,
      "▁amacla": 2954,
      "▁sıcagı": 2955,
      "▁okullar": 2956,
      "▁nazar": 2957,
      "▁politik": 2958,
      "▁olanagı": 2959,
      "▁lakırtı": 2960,
      "##imizde": 2961,
      "▁edecegim": 2962,
      "▁ispir": 2963,
      "▁inanıyor": 2964,
      "##udu": 2965,
      "##mamız": 2966,
      "▁gencler": 2967,
      "▁sauna": 2968,
      "▁arastırma": 2969,
      "##'de": 2970,
      "##enlerin": 2971,
      "▁anlayislari": 2972,
      "▁burokras": 2973,
      "##pul": 2974,
      "▁guvercin": 2975,
      "##dikten": 2976,
      "▁sınıfta": 2977,
      "▁mag": 2978,
      "##itli": 2979,
      "##acıkta": 2980,
      "##dayım": 2981,
      "##ki": 2982,
      "▁satma": 2983,
      "##sef": 2984,
      "##umuzde": 2985,
      "▁calısması": 2986,
      "▁inc": 2987,
      "▁olarak": 2988,
      "##va": 2989,
      "▁torb": 2990,
      "##ver": 2991,
      "▁iyil": 2992,
      "##eceginden": 2993,
      "▁tung": 2994,
      "▁ogul": 2995,
      "▁saldırgan": 2996,
      "##ıydı": 2997,
      "▁nav": 2998,
      "▁egilimleri": 2999,
      "▁tavır": 3000,
      "▁esrar": 3001,
      "▁41": 3002,
      "▁cercev": 3003,
      "▁yagmurun": 3004,
      "▁dokum": 3005,
      "##duksiyon": 3006,
      "▁askerler": 3007,
      "##ırt": 3008,
      "▁havuzun": 3009,
      "▁kıvır": 3010,
      "▁ariz": 3011,
      "##lıgımız": 3012,
      "▁cıkınca": 3013,
      "▁cevap": 3014,
      "▁paralar": 3015,
      "▁yanl": 3016,
      "▁dikkatini": 3017,
      "▁mil": 3018,
      "▁odun": 3019,
      "##eyip": 3020,
      "▁tumu": 3021,
      "▁tesiri": 3022,
      "▁karsil": 3023,
      "▁engellemek": 3024,
      "▁prenses": 3025,
      "▁hareket": 3026,
      "▁yanlıs": 3027,
      "▁magaza": 3028,
      "▁gormem": 3029,
      "##emiydi": 3030,
      "▁yuzlerini": 3031,
      "▁olası": 3032,
      "##eger": 3033,
      "▁seydi": 3034,
      "##sti": 3035,
      "##'ten": 3036,
      "▁ortalıgı": 3037,
      "▁lod": 3038,
      "▁tabl": 3039,
      "▁karsılıgını": 3040,
      "##ında": 3041,
      "▁oldugunu": 3042,
      "▁puanlarim": 3043,
      "▁havuzlar": 3044,
      "▁kısmı": 3045,
      "▁mudur": 3046,
      "▁kazanmıs": 3047,
      "▁gelge": 3048,
      "▁gayrimenkul": 3049,
      "▁yazarlar": 3050,
      "▁degildi": 3051,
      "▁kalkar": 3052,
      "##eniz": 3053,
      "▁kuslar": 3054,
      "▁edilebilir": 3055,
      "▁heg": 3056,
      "▁sordum": 3057,
      "▁ter": 3058,
      "▁express": 3059,
      "▁tutam": 3060,
      "##endinin": 3061,
      "▁fran": 3062,
      "▁mahk": 3063,
      "##amaya": 3064,
      "##ons": 3065,
      "▁plat": 3066,
      "##hisse": 3067,
      "▁gerilim": 3068,
      "▁piyasaları": 3069,
      "▁zinciri": 3070,
      "▁oynuyor": 3071,
      "##6'dan": 3072,
      "▁aska": 3073,
      "▁bilgilerini": 3074,
      "▁boyu": 3075,
      "##ec": 3076,
      "▁hey": 3077,
      "▁sabahın": 3078,
      "▁babamın": 3079,
      "▁dorduncu": 3080,
      "▁yollarda": 3081,
      "▁guvenli": 3082,
      "▁aramaya": 3083,
      "##sor": 3084,
      "▁reasur": 3085,
      "▁karaya": 3086,
      "▁cevapları": 3087,
      "##rib": 3088,
      "▁gectigimiz": 3089,
      "▁eden": 3090,
      "▁fener": 3091,
      "▁dilek": 3092,
      "▁kumas": 3093,
      "▁damar": 3094,
      "▁doneminden": 3095,
      "▁teraz": 3096,
      "▁tl": 3097,
      "▁cıktı": 3098,
      "▁berbat": 3099,
      "##tırma": 3100,
      "▁juri": 3101,
      "##akal": 3102,
      "▁calısanları": 3103,
      "▁arka": 3104,
      "▁lezzetini": 3105,
      "##bac": 3106,
      "▁bilgil": 3107,
      "▁temelinde": 3108,
      "▁spekulasyon": 3109,
      "▁dım": 3110,
      "▁arkasında": 3111,
      "▁part": 3112,
      "##tesi": 3113,
      "▁hastalıga": 3114,
      "▁krav": 3115,
      "▁ekipmanı": 3116,
      "▁charlotte": 3117,
      "▁beta": 3118,
      "▁ayaklarını": 3119,
      "▁hastan": 3120,
      "##'in": 3121,
      "##mazdı": 3122,
      "▁yerlerde": 3123,
      "▁kadınlarla": 3124,
      "##ıllı": 3125,
      "▁uzmanı": 3126,
      "##int": 3127,
      "##daydı": 3128,
      "▁badem": 3129,
      "▁#": 3130,
      "[CLS]": 3131,
      "▁getirileri": 3132,
      "▁murat": 3133,
      "▁turden": 3134,
      "▁birbirimizi": 3135,
      "▁tecavuz": 3136,
      "▁kusak": 3137,
      "▁temerrut": 3138,
      "▁cevir": 3139,
      "##ıgından": 3140,
      "##tıgında": 3141,
      "##ızın": 3142,
      "▁tarh": 3143,
      "▁ruhu": 3144,
      "▁santimetre": 3145,
      "▁elektr": 3146,
      "▁istedigi": 3147,
      "##hangi": 3148,
      "▁ithal": 3149,
      "▁vek": 3150,
      "##abilecek": 3151,
      "▁etkilen": 3152,
      "##lıgım": 3153,
      "▁bolumlerinde": 3154,
      "▁yeryuz": 3155,
      "▁bonolarının": 3156,
      "▁tabagına": 3157,
      "▁guler": 3158,
      "▁kaldırımda": 3159,
      "##bol": 3160,
      "▁doy": 3161,
      "▁cıglık": 3162,
      "▁yuruyus": 3163,
      "▁ısıl": 3164,
      "##eapolis": 3165,
      "▁okula": 3166,
      "▁birini": 3167,
      "▁uf": 3168,
      "##leyin": 3169,
      "▁delikanlı": 3170,
      "##nd": 3171,
      "▁faaliyeti": 3172,
      "▁pittsburgh'a": 3173,
      "▁kafayı": 3174,
      "▁past": 3175,
      "##0000": 3176,
      "##ant": 3177,
      "▁mintan": 3178,
      "##'ndaki": 3179,
      "##ıstır": 3180,
      "▁bogazici": 3181,
      "▁onceki": 3182,
      "##ekt": 3183,
      "##ersey": 3184,
      "▁varır": 3185,
      "▁zil": 3186,
      "▁vekil": 3187,
      "##tmis": 3188,
      "▁vurgun": 3189,
      "▁hek": 3190,
      "▁basladılar": 3191,
      "▁duvarların": 3192,
      "▁dinliyor": 3193,
      "▁versiyonu": 3194,
      "##layabilir": 3195,
      "▁buhar": 3196,
      "##ografi": 3197,
      "▁rah": 3198,
      "##leket": 3199,
      "▁faal": 3200,
      "▁piyasayı": 3201,
      "▁mukemmeldi": 3202,
      "▁yurumeye": 3203,
      "▁rop": 3204,
      "▁mekteb": 3205,
      "▁atlanta'ya": 3206,
      "j": 3207,
      "▁makin": 3208,
      "▁ofis": 3209,
      "▁ayrildik": 3210,
      "▁ug": 3211,
      "▁calıstıklarını": 3212,
      "▁gitmisti": 3213,
      "▁ucaklar": 3214,
      "▁halkını": 3215,
      "##yen": 3216,
      "▁hastaya": 3217,
      "▁anac": 3218,
      "▁hizmetleri": 3219,
      "▁havalimanı": 3220,
      "▁yasaların": 3221,
      "▁pot": 3222,
      "▁cezası": 3223,
      "▁seyret": 3224,
      "▁duyguların": 3225,
      "##fer": 3226,
      "▁manzum": 3227,
      "▁gorunmuyor": 3228,
      "▁yegen": 3229,
      "##yin": 3230,
      "▁ilg": 3231,
      "▁kafayla": 3232,
      "▁kusun": 3233,
      "▁memuriyet": 3234,
      "▁binası": 3235,
      "▁olmasıdır": 3236,
      "▁amacıyla": 3237,
      "##iyetli": 3238,
      "▁alanı": 3239,
      "▁mektebe": 3240,
      "▁neye": 3241,
      "▁adımda": 3242,
      "▁bulmaya": 3243,
      "▁varlıkların": 3244,
      "##bi": 3245,
      "▁intik": 3246,
      "▁koz": 3247,
      "▁dav": 3248,
      "▁icr": 3249,
      "▁muhakk": 3250,
      "▁neti": 3251,
      "▁kurtarma": 3252,
      "##estiler": 3253,
      "▁ıcı": 3254,
      "▁kararlar": 3255,
      "▁gune": 3256,
      "▁lahana": 3257,
      "##..": 3258,
      "▁agzı": 3259,
      "##esemdi": 3260,
      "##ırlar": 3261,
      "##lanmayı": 3262,
      "▁pahali": 3263,
      "▁baslangıcı": 3264,
      "▁cesitli": 3265,
      "▁okuy": 3266,
      "##lerim": 3267,
      "▁karbon": 3268,
      "▁biletlerini": 3269,
      "▁kulagımdan": 3270,
      "▁ara": 3271,
      "▁odama": 3272,
      "▁birbir": 3273,
      "▁carptı": 3274,
      "▁sebze": 3275,
      "##larının": 3276,
      "▁endeksi": 3277,
      "▁jurnal": 3278,
      "▁baslangıcta": 3279,
      "▁fed": 3280,
      "▁yaygın": 3281,
      "##lanmıs": 3282,
      "▁kar": 3283,
      "▁bulmus": 3284,
      "▁yene": 3285,
      "▁agaclarının": 3286,
      "▁kudret": 3287,
      "▁yogun": 3288,
      "▁bakır": 3289,
      "▁hareketiyle": 3290,
      "▁elektronik": 3291,
      "▁denizciler": 3292,
      "##lık": 3293,
      "▁biy": 3294,
      "▁gemi": 3295,
      "▁sat": 3296,
      "▁200": 3297,
      "##briy": 3298,
      "▁ayaklarına": 3299,
      "▁les": 3300,
      "##luluk": 3301,
      "▁vucudu": 3302,
      "##cok": 3303,
      "▁elem": 3304,
      "▁hisselerinin": 3305,
      "##ade": 3306,
      "▁bahcenin": 3307,
      "▁bacakları": 3308,
      "▁cehen": 3309,
      "▁1980'lerin": 3310,
      "▁tetik": 3311,
      "▁inci": 3312,
      "▁yakın": 3313,
      "▁skan": 3314,
      "▁pır": 3315,
      "▁net": 3316,
      "##-a": 3317,
      "▁oranlar": 3318,
      "##lunun": 3319,
      "▁neyse": 3320,
      "▁yerles": 3321,
      "▁%6": 3322,
      "▁veremem": 3323,
      "▁piyasaların": 3324,
      "▁geliyor": 3325,
      "▁edebil": 3326,
      "▁kendisiyle": 3327,
      "▁sid": 3328,
      "##!": 3329,
      "▁beg": 3330,
      "▁alfab": 3331,
      "▁kafamı": 3332,
      "▁amacı": 3333,
      "&": 3334,
      "▁bankaları": 3335,
      "▁ye": 3336,
      "##ciligi": 3337,
      "▁almak": 3338,
      "▁kalkarak": 3339,
      "##miyor": 3340,
      "▁kirliydi": 3341,
      "##uldum": 3342,
      "▁ucret": 3343,
      "▁cocuklarının": 3344,
      "▁emper": 3345,
      "▁yoldası": 3346,
      "▁imam": 3347,
      "▁saygısız": 3348,
      "▁husus": 3349,
      "▁stat": 3350,
      "▁atolye": 3351,
      "▁cef": 3352,
      "▁turkce": 3353,
      "▁soyl": 3354,
      "▁kursu": 3355,
      "##t": 3356,
      "▁genel": 3357,
      "##acılar": 3358,
      "▁cont": 3359,
      "▁oldugum": 3360,
      "##larımız": 3361,
      "##ij": 3362,
      "▁merkezi": 3363,
      "▁bunal": 3364,
      "▁panc": 3365,
      "##ha": 3366,
      "▁igne": 3367,
      "▁iliskiye": 3368,
      "▁kesinti": 3369,
      "▁kendimiz": 3370,
      "▁salvar": 3371,
      "▁vermektedir": 3372,
      "##hal": 3373,
      "▁isada": 3374,
      "▁sanırım": 3375,
      "▁isletmeler": 3376,
      "##da": 3377,
      "▁cuh": 3378,
      "▁askın": 3379,
      "##uyu": 3380,
      "▁kararını": 3381,
      "▁anımsa": 3382,
      "▁yerin": 3383,
      "▁ızdır": 3384,
      "▁serbest": 3385,
      "▁asf": 3386,
      "▁grubunun": 3387,
      "▁okumaya": 3388,
      "▁edildi": 3389,
      "▁isimizi": 3390,
      "▁kuf": 3391,
      "▁veriliyor": 3392,
      "▁ign": 3393,
      "##lik": 3394,
      "▁guclu": 3395,
      "▁kozmetik": 3396,
      "▁gunumuzde": 3397,
      "##lemeyi": 3398,
      "##kkat": 3399,
      "##imler": 3400,
      "##ida": 3401,
      "##amızı": 3402,
      "▁colde": 3403,
      "▁salata": 3404,
      "▁devreye": 3405,
      "▁sınavı": 3406,
      "▁para": 3407,
      "▁tiyatr": 3408,
      "▁kafesi": 3409,
      "▁talih": 3410,
      "▁kocak": 3411,
      "▁memphis": 3412,
      "▁odasına": 3413,
      "▁cın": 3414,
      "▁cuk": 3415,
      "▁ozlem": 3416,
      "▁gecirir": 3417,
      "▁kesiminin": 3418,
      "##orleri": 3419,
      "##sarı": 3420,
      "##8'de": 3421,
      "▁bomb": 3422,
      "▁uygun": 3423,
      "▁atalarımızın": 3424,
      "▁surucu": 3425,
      "▁engin": 3426,
      "▁ceviz": 3427,
      "##ziv": 3428,
      "▁onerdi": 3429,
      "▁goruyorum": 3430,
      "##ersah": 3431,
      "▁1986": 3432,
      "▁bakım": 3433,
      "▁trans": 3434,
      "▁haftalarda": 3435,
      "▁kendini": 3436,
      "▁yayla": 3437,
      "▁gozume": 3438,
      "▁gemilere": 3439,
      "▁yuklu": 3440,
      "▁ulkeye": 3441,
      "▁liber": 3442,
      "▁kumsali": 3443,
      "▁ayın": 3444,
      "▁isliyor": 3445,
      "##agat": 3446,
      "▁hatıraları": 3447,
      "▁nashville'den": 3448,
      "▁tezgahın": 3449,
      "▁bekliyordu": 3450,
      "##alarımızı": 3451,
      "▁1969'un": 3452,
      "▁azından": 3453,
      "##abıyla": 3454,
      "▁seyde": 3455,
      "▁muster": 3456,
      "▁birimini": 3457,
      "▁asci": 3458,
      "▁hoslan": 3459,
      "▁orne": 3460,
      "▁gozlerinde": 3461,
      "▁rezerv": 3462,
      "##iyordum": 3463,
      "##uncusu": 3464,
      "##oeni": 3465,
      "▁kıt": 3466,
      "▁eserini": 3467,
      "▁8'den": 3468,
      "▁tasıdı": 3469,
      "▁haksızlık": 3470,
      "▁agızlarına": 3471,
      "▁durmadan": 3472,
      "##elt": 3473,
      "▁yasamı": 3474,
      "▁lafı": 3475,
      "▁bulan": 3476,
      "##izler": 3477,
      "▁ateste": 3478,
      "▁nasıl": 3479,
      "▁oper": 3480,
      "##est": 3481,
      "▁kem": 3482,
      "▁gunde": 3483,
      "▁mız": 3484,
      "▁nazaran": 3485,
      "▁degistirdi": 3486,
      "▁yarıya": 3487,
      "▁satısa": 3488,
      "▁hic": 3489,
      "▁cekirde": 3490,
      "##andev": 3491,
      "##itre": 3492,
      "##tıs": 3493,
      "▁gorustuk": 3494,
      "▁ucundan": 3495,
      "▁delikanl": 3496,
      "▁fiyatlardan": 3497,
      "▁pound": 3498,
      "▁blok": 3499,
      "▁kutusu": 3500,
      "▁onayını": 3501,
      "▁tahvilin": 3502,
      "▁verip": 3503,
      "▁testere": 3504,
      "▁aslı": 3505,
      "▁epeyce": 3506,
      "▁yonunu": 3507,
      "▁dusundu": 3508,
      "▁neredeyse": 3509,
      "▁agırlık": 3510,
      "##dadır": 3511,
      "##kini": 3512,
      "▁fiyatlarında": 3513,
      "▁terazi": 3514,
      "▁kimi": 3515,
      "▁cuz": 3516,
      "▁anlıslanabili": 3517,
      "▁ilerleme": 3518,
      "▁d": 3519,
      "▁kocasıyla": 3520,
      "▁ul": 3521,
      "▁cabalar": 3522,
      "##op": 3523,
      "▁yapr": 3524,
      "▁yanakları": 3525,
      "▁eleman": 3526,
      "##larla": 3527,
      "▁tereyagı": 3528,
      "▁vic": 3529,
      "▁agr": 3530,
      "▁denges": 3531,
      "##sizce": 3532,
      "##ıcısı": 3533,
      "▁acısı": 3534,
      "▁dizinin": 3535,
      "▁dilde": 3536,
      "▁suk": 3537,
      "▁for": 3538,
      "▁kayıpların": 3539,
      "▁doneme": 3540,
      "▁sıfır": 3541,
      "▁dallarında": 3542,
      "▁faturamin": 3543,
      "▁keyif": 3544,
      "##yuz": 3545,
      "##uste": 3546,
      "▁houston": 3547,
      "▁gecirmek": 3548,
      "▁yetkilisi": 3549,
      "▁rejim": 3550,
      "##sında": 3551,
      "▁vuruyor": 3552,
      "##icisi": 3553,
      "▁vapura": 3554,
      "▁sosyalist": 3555,
      "▁gonlunu": 3556,
      "▁doneminin": 3557,
      "▁surdurmek": 3558,
      "▁olmamak": 3559,
      "▁vergi": 3560,
      "▁omuzlarını": 3561,
      "##culuk": 3562,
      "▁yıllık": 3563,
      "▁berab": 3564,
      "##asından": 3565,
      "▁acmayı": 3566,
      "##inal": 3567,
      "▁cıkmak": 3568,
      "▁100": 3569,
      "##emey": 3570,
      "▁tanesi": 3571,
      "▁vucuduna": 3572,
      "▁gulery": 3573,
      "▁basvuru": 3574,
      "▁verdi": 3575,
      "▁bırakın": 3576,
      "▁bolge": 3577,
      "▁gazino": 3578,
      "▁br": 3579,
      "##tım": 3580,
      "##sarken": 3581,
      "▁toplumu": 3582,
      "▁karabors": 3583,
      "▁yardımc": 3584,
      "##leyi": 3585,
      "▁stand": 3586,
      "▁salonu": 3587,
      "▁sakalı": 3588,
      "▁deterj": 3589,
      "▁odamın": 3590,
      "▁duygus": 3591,
      "▁japonlar": 3592,
      "▁plaji": 3593,
      "▁ziraat": 3594,
      "▁televizyon": 3595,
      "▁bekledigini": 3596,
      "▁birbirlerinin": 3597,
      "▁konusu": 3598,
      "▁ma": 3599,
      "##miyorum": 3600,
      "##ezi": 3601,
      "▁3.5": 3602,
      "▁mide": 3603,
      "▁durumu": 3604,
      "▁kattan": 3605,
      "▁ampul": 3606,
      "▁agacının": 3607,
      "▁kırıklıgı": 3608,
      "▁tiyatroda": 3609,
      "▁redd": 3610,
      "▁kagıdı": 3611,
      "▁onca": 3612,
      "▁tefer": 3613,
      "▁kapatma": 3614,
      "▁acel": 3615,
      "▁aya": 3616,
      "▁.'": 3617,
      "▁hizmete": 3618,
      "▁olusan": 3619,
      "▁parmak": 3620,
      "##culugu": 3621,
      "▁bekleme": 3622,
      "▁benzer": 3623,
      "▁millet": 3624,
      "▁mecl": 3625,
      "▁bolgeye": 3626,
      "▁corbayı": 3627,
      "▁gecis": 3628,
      "▁?": 3629,
      "▁politikasını": 3630,
      "▁memleket": 3631,
      "▁hissesinin": 3632,
      "▁yaptım": 3633,
      "▁18": 3634,
      "▁sahaya": 3635,
      "▁vegas'tan": 3636,
      "▁cip": 3637,
      "▁havayolunun": 3638,
      "▁duzey": 3639,
      "##cilikle": 3640,
      "##ence": 3641,
      "▁olac": 3642,
      "▁evrak": 3643,
      "▁yemeklerde": 3644,
      "▁uyusturucu": 3645,
      "▁olduk": 3646,
      "##ıldıgı": 3647,
      "▁kus": 3648,
      "▁baki": 3649,
      "##nu": 3650,
      "##tigim": 3651,
      "▁itibariyle": 3652,
      "▁havalarda": 3653,
      "▁kesinlik": 3654,
      "▁do": 3655,
      "▁kesildi": 3656,
      "▁karton": 3657,
      "▁verilmesi": 3658,
      "▁hayal": 3659,
      "▁uzay": 3660,
      "##ıgında": 3661,
      "▁39": 3662,
      "##\\": 3663,
      "▁cocugun": 3664,
      "▁katkı": 3665,
      "▁bagımsız": 3666,
      "▁dondu": 3667,
      "▁one": 3668,
      "s": 3669,
      "▁boc": 3670,
      "▁kurtulmak": 3671,
      "▁lisansını": 3672,
      "▁cabasına": 3673,
      "▁efsan": 3674,
      "▁agzının": 3675,
      "▁taleplerinin": 3676,
      "▁etkinlikler": 3677,
      "▁salonda": 3678,
      "▁yapragı": 3679,
      "▁pozisyon": 3680,
      "▁tarihleri": 3681,
      "▁puf": 3682,
      "▁aydınlat": 3683,
      "▁sasırtıcı": 3684,
      "▁ada": 3685,
      "▁phoenix": 3686,
      "##vr": 3687,
      "▁nedenle": 3688,
      "▁oralarda": 3689,
      "##iyatr": 3690,
      "▁gergin": 3691,
      "##ai": 3692,
      "▁dururdu": 3693,
      "▁parka": 3694,
      "▁yuksekten": 3695,
      "▁kayıp": 3696,
      "▁havuza": 3697,
      "▁sınırı": 3698,
      "▁terlik": 3699,
      "▁satımı": 3700,
      "▁sırasında": 3701,
      "▁ocagı": 3702,
      "▁muk": 3703,
      "▁egilim": 3704,
      "##temelen": 3705,
      "▁hijyen": 3706,
      "▁oz": 3707,
      "##usten": 3708,
      "##lar": 3709,
      "▁sundu": 3710,
      "▁edeb": 3711,
      "▁o": 3712,
      "▁pilavı": 3713,
      "▁dalgalanma": 3714,
      "▁hayat": 3715,
      "▁onlardan": 3716,
      "##umb": 3717,
      "##urduk": 3718,
      "##angoz": 3719,
      "##landırıyor": 3720,
      "▁13": 3721,
      "▁yetk": 3722,
      "▁tesisten": 3723,
      "▁ozellik": 3724,
      "▁bulas": 3725,
      "▁onlarda": 3726,
      "▁hamil": 3727,
      "▁ıslah": 3728,
      "▁dokmek": 3729,
      "▁gorevlisi": 3730,
      "▁donanımı": 3731,
      "▁donusum": 3732,
      "▁yetkilileri": 3733,
      "##9'da": 3734,
      "▁cekil": 3735,
      "▁dinlem": 3736,
      "##lıyorum": 3737,
      "▁fazilet": 3738,
      "▁fal": 3739,
      "▁davası": 3740,
      "##amet": 3741,
      "▁devletler": 3742,
      "▁mahp": 3743,
      "▁emel": 3744,
      "▁oykuler": 3745,
      "▁sehirleri": 3746,
      "▁yaratır": 3747,
      "##ca": 3748,
      "##kez": 3749,
      "▁oranları": 3750,
      "▁biciminde": 3751,
      "▁bilgilerin": 3752,
      "▁hayatımızın": 3753,
      "▁hec": 3754,
      "▁tartısmaya": 3755,
      "▁amiri": 3756,
      "▁bilinc": 3757,
      "▁ta": 3758,
      "▁harekete": 3759,
      "##atil": 3760,
      "##adetin": 3761,
      "▁ankar": 3762,
      "▁tesisin": 3763,
      "▁kayak": 3764,
      "▁asla": 3765,
      "▁lyn": 3766,
      "7": 3767,
      "▁dolastı": 3768,
      "▁yayın": 3769,
      "▁muamel": 3770,
      "##adde": 3771,
      "▁petrol": 3772,
      "▁gulus": 3773,
      "▁dususler": 3774,
      "▁surdur": 3775,
      "##larlar": 3776,
      "##es": 3777,
      "▁herkesten": 3778,
      "▁kalmadik": 3779,
      "▁annesinin": 3780,
      "##araya": 3781,
      "▁ec": 3782,
      "▁izah": 3783,
      "▁anlamiyla": 3784,
      "▁oturum": 3785,
      "▁etken": 3786,
      "##ılıgıyla": 3787,
      "▁uzere": 3788,
      "##ates": 3789,
      "##ılık": 3790,
      "▁taraf": 3791,
      "▁inat": 3792,
      "▁aday": 3793,
      "▁te": 3794,
      "▁ayrım": 3795,
      "▁havalimanından": 3796,
      "▁sandıg": 3797,
      "▁ap": 3798,
      "▁ustu": 3799,
      "##le": 3800,
      "##malı": 3801,
      "##amad": 3802,
      "▁hukumleri": 3803,
      "##ihat": 3804,
      "##oludur": 3805,
      "▁eline": 3806,
      "▁halk": 3807,
      "▁vermedi": 3808,
      "▁kinden": 3809,
      "▁basarısı": 3810,
      "▁munasebetsizlik": 3811,
      "▁denen": 3812,
      "##lasa": 3813,
      "▁ruyalar": 3814,
      "▁boynunu": 3815,
      "▁kopruler": 3816,
      "▁telefon": 3817,
      "▁pencerenin": 3818,
      "▁ayrılan": 3819,
      "▁tecru": 3820,
      "▁bom": 3821,
      "▁ortagı": 3822,
      "▁muhur": 3823,
      "##etidir": 3824,
      "▁roportajda": 3825,
      "▁sevk": 3826,
      "##lest": 3827,
      "▁ak": 3828,
      "▁kırk": 3829,
      "▁zafer": 3830,
      "▁teshir": 3831,
      "##mamıstı": 3832,
      "▁kaygı": 3833,
      "▁muhasebe": 3834,
      "▁parmagı": 3835,
      "▁docent": 3836,
      "▁yavasti": 3837,
      "▁mily": 3838,
      "▁sem": 3839,
      "▁oto": 3840,
      "▁cogun": 3841,
      "▁nak": 3842,
      "▁tuh": 3843,
      "##lom": 3844,
      "##aseb": 3845,
      "▁varlıklarını": 3846,
      "▁sozlesmesi": 3847,
      "▁seslere": 3848,
      "▁bilimin": 3849,
      "##izdi": 3850,
      "▁ingiliz": 3851,
      "▁org": 3852,
      "▁ortaklık": 3853,
      "##b": 3854,
      "▁sigort": 3855,
      "▁sper": 3856,
      "▁milletten": 3857,
      "▁saga": 3858,
      "▁gorur": 3859,
      "▁anlaya": 3860,
      "▁esim": 3861,
      "##sen": 3862,
      "▁gizem": 3863,
      "▁aran": 3864,
      "▁beklenenden": 3865,
      "##a'da": 3866,
      "▁gecin": 3867,
      "##ılıgını": 3868,
      "▁oyk": 3869,
      "##ginde": 3870,
      "▁sozlesmeler": 3871,
      "▁iliskilerinde": 3872,
      "▁kenarına": 3873,
      "▁olaylara": 3874,
      "▁topragı": 3875,
      "▁milyon": 3876,
      "##oru": 3877,
      "##rat": 3878,
      "▁idareye": 3879,
      "▁dolayısıyla": 3880,
      "▁baskan": 3881,
      "▁ogrenildi": 3882,
      "▁karanlık": 3883,
      "##usunden": 3884,
      "▁oturmus": 3885,
      "▁milwaukee": 3886,
      "▁mutfag": 3887,
      "▁asker": 3888,
      "▁kopuk": 3889,
      "▁a.b.d.": 3890,
      "▁sanız": 3891,
      "▁koku": 3892,
      "▁kurul": 3893,
      "▁1988'de": 3894,
      "▁ır": 3895,
      "##goz": 3896,
      "▁pak": 3897,
      "▁rezervasyonlar": 3898,
      "##ılmak": 3899,
      "▁fıstık": 3900,
      "▁pasa": 3901,
      "##il": 3902,
      "##atla": 3903,
      "▁kaldik": 3904,
      "##ık": 3905,
      "##asıl": 3906,
      "▁aletleri": 3907,
      "▁ederler": 3908,
      "▁kut": 3909,
      "##utmak": 3910,
      "▁temp": 3911,
      "##lerde": 3912,
      "##illerin": 3913,
      "▁milletvek": 3914,
      "##azım": 3915,
      "▁giden": 3916,
      "▁kıymetler": 3917,
      "▁kosullar": 3918,
      "▁ahbap": 3919,
      "▁otomobiller": 3920,
      "▁asama": 3921,
      "▁iklim": 3922,
      "##iktir": 3923,
      "▁satımda": 3924,
      "▁ozgurluk": 3925,
      "▁birlesik": 3926,
      "##ibar": 3927,
      "▁evinden": 3928,
      "▁boslugu": 3929,
      "▁carsı": 3930,
      "##ich": 3931,
      "▁oran": 3932,
      "▁ellerini": 3933,
      "##mekt": 3934,
      "##'te": 3935,
      "##ay": 3936,
      "▁olabilecegine": 3937,
      "▁aldı": 3938,
      "##agını": 3939,
      "▁cins": 3940,
      "▁kurumun": 3941,
      "▁okka": 3942,
      "##enili": 3943,
      "▁kisiyle": 3944,
      "##aga": 3945,
      "▁babam": 3946,
      "▁hanımlar": 3947,
      "▁turkuler": 3948,
      "▁gorusmelerin": 3949,
      "▁inter": 3950,
      "▁gur": 3951,
      "##l": 3952,
      "▁tazminat": 3953,
      "▁celik": 3954,
      "##laması": 3955,
      "▁patates": 3956,
      "▁actı": 3957,
      "▁1.4": 3958,
      "▁tasarımı": 3959,
      "▁oncu": 3960,
      "▁evvel": 3961,
      "▁ilgilenmedi": 3962,
      "▁istasyonu": 3963,
      "▁birbirleriyle": 3964,
      "▁kıyaslandıgında": 3965,
      "▁iyiles": 3966,
      "▁atmayı": 3967,
      "##ba": 3968,
      "▁cebinden": 3969,
      "▁sinyal": 3970,
      "▁gundem": 3971,
      "##ster": 3972,
      "▁hep": 3973,
      "▁karsiligi": 3974,
      "##afor": 3975,
      "▁piyasasına": 3976,
      "▁yaptıktan": 3977,
      "▁yola": 3978,
      "▁seks": 3979,
      "▁caydan": 3980,
      "##lukla": 3981,
      "▁dısarıdan": 3982,
      "▁muzayede": 3983,
      "▁damg": 3984,
      "▁ucusa": 3985,
      "▁kaz": 3986,
      "▁oradan": 3987,
      "▁hakkın": 3988,
      "▁islemini": 3989,
      "##bap": 3990,
      "##ındır": 3991,
      "##tak": 3992,
      "##mesine": 3993,
      "▁yumruk": 3994,
      "▁surecini": 3995,
      "▁markanın": 3996,
      "▁mısınız": 3997,
      "▁olasılıkla": 3998,
      "##mektir": 3999,
      "▁muhalefet": 4000,
      "▁mizac": 4001,
      "##dugumuz": 4002,
      "▁kalmıs": 4003,
      "▁kubb": 4004,
      "▁cakal": 4005,
      "##hut": 4006,
      "▁lıgı": 4007,
      "##anların": 4008,
      "▁dizgin": 4009,
      "▁tug": 4010,
      "▁sonucunu": 4011,
      "##ursuz": 4012,
      "▁sektorun": 4013,
      "##ektr": 4014,
      "▁otomobilin": 4015,
      "##anlarim": 4016,
      "▁kapali": 4017,
      "▁sende": 4018,
      "##manının": 4019,
      "▁fotografı": 4020,
      "▁havalimanı'na": 4021,
      "##tası": 4022,
      "▁grupları": 4023,
      "▁ses": 4024,
      "▁atesle": 4025,
      "▁prov": 4026,
      "▁okulun": 4027,
      "▁gol": 4028,
      "##ile": 4029,
      "▁acıklıyor": 4030,
      "▁yatak": 4031,
      "▁karav": 4032,
      "▁yumus": 4033,
      "▁anında": 4034,
      "##avr": 4035,
      "▁esas": 4036,
      "▁ovgu": 4037,
      "▁caminin": 4038,
      "▁sek": 4039,
      "▁kocasının": 4040,
      "▁kokusunu": 4041,
      "▁birligi'nin": 4042,
      "▁yaklasım": 4043,
      "▁davetliler": 4044,
      "▁nok": 4045,
      "▁hasıl": 4046,
      "▁artıslar": 4047,
      "▁bitim": 4048,
      "▁iskar": 4049,
      "▁tencerede": 4050,
      "▁yapacagını": 4051,
      "▁yabancilara": 4052,
      "▁sokaklarında": 4053,
      "▁kendilig": 4054,
      "▁otomotiv": 4055,
      "▁alması": 4056,
      "▁oldug": 4057,
      "▁cırak": 4058,
      "▁sar": 4059,
      "▁gelistirmeye": 4060,
      "##6'sı": 4061,
      "▁muzigin": 4062,
      "##leye": 4063,
      "▁yapıl": 4064,
      "##st": 4065,
      "▁ogrenci": 4066,
      "▁reisi": 4067,
      "▁dokunul": 4068,
      "▁planın": 4069,
      "▁peygam": 4070,
      "▁jose": 4071,
      "▁kesf": 4072,
      "▁seyrediyordu": 4073,
      "▁olmaz": 4074,
      "▁olusturdu": 4075,
      "▁da": 4076,
      "▁sanatcılar": 4077,
      "▁ozenle": 4078,
      "##abele": 4079,
      "▁indirdi": 4080,
      "▁karsıtı": 4081,
      "##ıldı": 4082,
      "▁yolunda": 4083,
      "##lanı": 4084,
      "▁canını": 4085,
      "▁satısların": 4086,
      "▁olayda": 4087,
      "▁zapt": 4088,
      "▁meblag": 4089,
      "▁sırf": 4090,
      "▁dek": 4091,
      "▁sebebi": 4092,
      "▁aglamaya": 4093,
      "▁bizden": 4094,
      "##-b": 4095,
      "##gal": 4096,
      "▁mutlulugu": 4097,
      "▁yonde": 4098,
      "▁koruk": 4099,
      "▁toronto": 4100,
      "▁cumhuriyetcilerin": 4101,
      "t": 4102,
      "▁fuz": 4103,
      "##boy": 4104,
      "▁cumhurb": 4105,
      "##ifti": 4106,
      "▁ısıgın": 4107,
      "▁trak": 4108,
      "▁klima": 4109,
      "##aba": 4110,
      "▁etmey": 4111,
      "▁artısının": 4112,
      "▁alan": 4113,
      "▁karsiladi": 4114,
      "▁ipot": 4115,
      "▁agaca": 4116,
      "▁roz": 4117,
      "▁havayollarıyla": 4118,
      "▁raf": 4119,
      "##hassa": 4120,
      "##iyel": 4121,
      "▁kutuk": 4122,
      "##yosu": 4123,
      "▁dikkat": 4124,
      "▁feragat": 4125,
      "▁gelince": 4126,
      "▁dir": 4127,
      "▁cenaze": 4128,
      "▁alakaliydi": 4129,
      "▁geldig": 4130,
      "▁2'ye": 4131,
      "▁arbitraj": 4132,
      "▁nag": 4133,
      "▁kaps": 4134,
      "▁oyna": 4135,
      "▁kokteyl": 4136,
      "▁hazırlıklar": 4137,
      "##elleri": 4138,
      "▁gezin": 4139,
      "▁yonlendir": 4140,
      "▁katip": 4141,
      "▁kocasını": 4142,
      "▁olmasını": 4143,
      "▁beyef": 4144,
      "▁profesor": 4145,
      "##rol": 4146,
      "##emizde": 4147,
      "▁ufuk": 4148,
      "▁yadig": 4149,
      "▁omer": 4150,
      "▁subv": 4151,
      "▁karab": 4152,
      "▁boslukta": 4153,
      "▁tasım": 4154,
      "▁ucuyor": 4155,
      "▁haberde": 4156,
      "##eratif": 4157,
      "▁basbak": 4158,
      "##.3": 4159,
      "▁coz": 4160,
      "▁soyledik": 4161,
      "▁urun": 4162,
      "▁guzel": 4163,
      "▁ani": 4164,
      "##sim": 4165,
      "##leriyle": 4166,
      "▁evini": 4167,
      "▁odalarin": 4168,
      "▁madde": 4169,
      "▁genclere": 4170,
      "##g": 4171,
      "##kart": 4172,
      "▁leri": 4173,
      "##land": 4174,
      "##'ta": 4175,
      "▁bitirmek": 4176,
      "▁bang": 4177,
      "▁yuzum": 4178,
      "##tay": 4179,
      "##madi": 4180,
      "▁yaglı": 4181,
      "▁katilmak": 4182,
      "▁istik": 4183,
      "##cıdır": 4184,
      "▁otuz": 4185,
      "▁kahkahalar": 4186,
      "##daki": 4187,
      "▁kec": 4188,
      "▁bulamac": 4189,
      "##jik": 4190,
      "##atesi": 4191,
      "▁yapardı": 4192,
      "##ital": 4193,
      "▁niyet": 4194,
      "▁yetki": 4195,
      "▁tal": 4196,
      "▁talim": 4197,
      "▁tavla": 4198,
      "▁sebep": 4199,
      "▁oysa": 4200,
      "▁taahhut": 4201,
      "▁karsılıklı": 4202,
      "▁sahıs": 4203,
      "##cog": 4204,
      "▁komunistler": 4205,
      "▁toplant": 4206,
      "▁iliskin": 4207,
      "▁personel": 4208,
      "▁oranlarını": 4209,
      "##kur": 4210,
      "##ustral": 4211,
      "##dim": 4212,
      "##pa": 4213,
      "▁merdiven": 4214,
      "▁havlu": 4215,
      "##'yı": 4216,
      "▁tatb": 4217,
      "▁veterin": 4218,
      "##eland": 4219,
      "▁olar": 4220,
      "▁ını": 4221,
      "▁uza": 4222,
      "▁selam": 4223,
      "▁bazilari": 4224,
      "##alarına": 4225,
      "▁karısının": 4226,
      "##deri": 4227,
      "▁otobusun": 4228,
      "▁gelmesi": 4229,
      "▁otelden": 4230,
      "##'ndan": 4231,
      "▁beri": 4232,
      "▁tahv": 4233,
      "##leniyor": 4234,
      "▁cocukların": 4235,
      "##yanın": 4236,
      "▁dog": 4237,
      "##cıs": 4238,
      "▁dusurmek": 4239,
      "##asın": 4240,
      "##ıver": 4241,
      "▁elbiselerini": 4242,
      "▁parca": 4243,
      "##onlar": 4244,
      "▁suzgec": 4245,
      "▁alıntı": 4246,
      "▁ustesinden": 4247,
      "##luye": 4248,
      "▁kadın": 4249,
      "▁musterilere": 4250,
      "▁coluk": 4251,
      "▁guzelim": 4252,
      "▁kasla": 4253,
      "##.23": 4254,
      "▁degilim": 4255,
      "▁cihaz": 4256,
      "▁saglamayı": 4257,
      "▁verdigini": 4258,
      "▁zaf": 4259,
      "▁duygusal": 4260,
      "##ilya": 4261,
      "##adına": 4262,
      "##isle": 4263,
      "▁demeye": 4264,
      "▁dedikleri": 4265,
      "▁kapısında": 4266,
      "▁has": 4267,
      "▁bilimi": 4268,
      "▁gerekir": 4269,
      "##ınıyor": 4270,
      "▁zahmet": 4271,
      "▁trene": 4272,
      "▁halıları": 4273,
      "▁end": 4274,
      "##olojisi": 4275,
      "##lerinden": 4276,
      "▁beni": 4277,
      "▁hacmine": 4278,
      "▁ekonomi": 4279,
      "▁bira": 4280,
      "▁yuzleri": 4281,
      "▁lezzet": 4282,
      "▁mudahal": 4283,
      "▁hemen": 4284,
      "▁kategor": 4285,
      "##-p": 4286,
      "▁yuzunden": 4287,
      "##irip": 4288,
      "▁alaka": 4289,
      "▁yumurta": 4290,
      "▁clev": 4291,
      "##dıgım": 4292,
      "▁hissediyor": 4293,
      "##sulu": 4294,
      "▁sorumlu": 4295,
      "▁icimi": 4296,
      "▁olculere": 4297,
      "▁tecrub": 4298,
      "##lıkların": 4299,
      ",": 4300,
      "▁sahiptir": 4301,
      "▁hostes": 4302,
      "##dikce": 4303,
      "▁degisir": 4304,
      "##sis": 4305,
      "▁zay": 4306,
      "▁70": 4307,
      "▁kendinize": 4308,
      "##irdi": 4309,
      "▁had": 4310,
      "▁basrol": 4311,
      "▁saraydan": 4312,
      "##larak": 4313,
      "▁programın": 4314,
      "##at": 4315,
      "▁aldıgı": 4316,
      "▁kagıtları": 4317,
      "##irmi": 4318,
      "▁60": 4319,
      "##.ceyrek": 4320,
      "▁tekstil": 4321,
      "##yaları": 4322,
      "▁yarının": 4323,
      "##'ni": 4324,
      "##a'nın": 4325,
      "▁neb": 4326,
      "▁degerine": 4327,
      "▁dunyasına": 4328,
      "▁getirdigini": 4329,
      "▁mit": 4330,
      "▁tesisler": 4331,
      "##ettir": 4332,
      "▁durak": 4333,
      "▁yuzunu": 4334,
      "##adar": 4335,
      "▁etmekte": 4336,
      "▁satısın": 4337,
      "▁`": 4338,
      "▁hırsız": 4339,
      "##te": 4340,
      "▁chicago'dan": 4341,
      "▁derste": 4342,
      "▁hoc": 4343,
      "▁tı": 4344,
      "##eri": 4345,
      "▁sandaly": 4346,
      "##osu": 4347,
      "▁sep": 4348,
      "▁pro": 4349,
      "▁guncel": 4350,
      "▁rec": 4351,
      "▁vucud": 4352,
      "▁metr": 4353,
      "▁programını": 4354,
      "▁mujde": 4355,
      "▁bakıyordu": 4356,
      "##digimi": 4357,
      "▁beyn": 4358,
      "▁denli": 4359,
      "▁gerceklik": 4360,
      "▁arastırmada": 4361,
      "▁dogu": 4362,
      "▁yemek": 4363,
      "▁gelmis": 4364,
      "▁yukselen": 4365,
      "##ıntıları": 4366,
      "▁yepyeni": 4367,
      "▁slog": 4368,
      "▁kabiliyet": 4369,
      "▁anl": 4370,
      "▁denizde": 4371,
      "▁navl": 4372,
      "▁mayın": 4373,
      "▁endust": 4374,
      "▁kendisinden": 4375,
      "##egi": 4376,
      "▁irf": 4377,
      "##enin": 4378,
      "▁kullanıl": 4379,
      "▁uzaga": 4380,
      "▁bek": 4381,
      "▁davasını": 4382,
      "##tarak": 4383,
      "▁lokant": 4384,
      "▁azap": 4385,
      "##cilerin": 4386,
      "##madigim": 4387,
      "##atları": 4388,
      "▁dolardı": 4389,
      "▁kesi": 4390,
      "▁evliligin": 4391,
      "▁terliklerini": 4392,
      "▁farklılık": 4393,
      "▁ilc": 4394,
      "▁ugultu": 4395,
      "▁hukmu": 4396,
      "▁savasının": 4397,
      "▁macta": 4398,
      "▁fiyatlarla": 4399,
      "▁sıkıntısı": 4400,
      "▁agustos": 4401,
      "▁ortaydi": 4402,
      "▁sozlesme": 4403,
      "##rily": 4404,
      "##amadı": 4405,
      "▁yatırımcı": 4406,
      "##om": 4407,
      "▁yım": 4408,
      "▁oglan": 4409,
      "##ucular": 4410,
      "▁kayda": 4411,
      "▁muhatap": 4412,
      "##batı": 4413,
      "▁girdim": 4414,
      "▁alet": 4415,
      "▁ortasından": 4416,
      "##asındaki": 4417,
      "▁g": 4418,
      "##ye": 4419,
      "▁ustun": 4420,
      "▁turizm": 4421,
      "▁gorusmeler": 4422,
      "▁malı": 4423,
      "▁hong": 4424,
      "##legi": 4425,
      "▁yengec": 4426,
      "▁kabin": 4427,
      "▁li": 4428,
      "##ılıp": 4429,
      "▁aldim": 4430,
      "▁kurallara": 4431,
      "▁otellerin": 4432,
      "▁ero": 4433,
      "▁baslarında": 4434,
      "▁tetkik": 4435,
      "##se": 4436,
      "▁oldugunda": 4437,
      "▁kilom": 4438,
      "▁iskele": 4439,
      "▁patr": 4440,
      "▁analist": 4441,
      "▁bunlara": 4442,
      "##lig": 4443,
      "##la": 4444,
      "▁guney": 4445,
      "▁varil": 4446,
      "▁depremden": 4447,
      "▁veren": 4448,
      "##?": 4449,
      "▁did": 4450,
      "▁eglence": 4451,
      "▁olmayabilir": 4452,
      "▁leblebi": 4453,
      "▁yalnızca": 4454,
      "##ton": 4455,
      "▁algı": 4456,
      "##ıslı": 4457,
      "▁zayıf": 4458,
      "▁bazen": 4459,
      "▁muhat": 4460,
      "▁gereginden": 4461,
      "▁,": 4462,
      "▁borsası": 4463,
      "▁kaval": 4464,
      "##isten": 4465,
      "##47": 4466,
      "▁hayalleri": 4467,
      "▁suyunu": 4468,
      "▁kendiniz": 4469,
      "▁uykuya": 4470,
      "##melerde": 4471,
      "▁hucre": 4472,
      "▁kurtu": 4473,
      "▁maruz": 4474,
      "##ass": 4475,
      "▁engelleri": 4476,
      "▁unsuru": 4477,
      "▁ker": 4478,
      "▁tık": 4479,
      "▁yetkisi": 4480,
      "▁york'a": 4481,
      "▁dukkanlar": 4482,
      "▁an": 4483,
      "▁takımları": 4484,
      "##tia": 4485,
      "▁okul": 4486,
      "##mb": 4487,
      "▁ayaz": 4488,
      "▁simdi": 4489,
      "##tikten": 4490,
      "▁sevin": 4491,
      "##ek": 4492,
      "▁misali": 4493,
      "##mez": 4494,
      "▁barın": 4495,
      "▁etrafı": 4496,
      "▁satısı": 4497,
      "▁amerikan": 4498,
      "▁surec": 4499,
      "▁buk": 4500,
      "▁hamlenin": 4501,
      "##met": 4502,
      "▁patatesleri": 4503,
      "##meyi": 4504,
      "▁kullandim": 4505,
      "▁otomobil": 4506,
      "▁tomurcuk": 4507,
      "▁yazılım": 4508,
      "▁onunden": 4509,
      "▁tesir": 4510,
      "##naya": 4511,
      "##ildi": 4512,
      "##rtl": 4513,
      "▁tablo": 4514,
      "▁kanadı": 4515,
      "▁performanstan": 4516,
      "▁oner": 4517,
      "▁ucretin": 4518,
      "▁cıkarlarını": 4519,
      "##emedi": 4520,
      "##ıklarını": 4521,
      "▁teklifine": 4522,
      "▁almıstım": 4523,
      "▁ihalesi": 4524,
      "▁sonucları": 4525,
      "▁artırmayı": 4526,
      "▁yıldız": 4527,
      "▁kullanma": 4528,
      "##luy": 4529,
      "▁kovustur": 4530,
      "▁balay": 4531,
      "▁derslerinde": 4532,
      "▁muht": 4533,
      "▁asagıl": 4534,
      "▁animator": 4535,
      "##odr": 4536,
      "▁otele": 4537,
      "##memis": 4538,
      "##may": 4539,
      "▁olabil": 4540,
      "▁islemlerini": 4541,
      "▁seviyelerinde": 4542,
      "##ayıcı": 4543,
      "▁calısma": 4544,
      "▁seydir": 4545,
      "▁tarcın": 4546,
      "▁pantolonunu": 4547,
      "▁teknolojisini": 4548,
      "▁aktif": 4549,
      "▁tahminle": 4550,
      "▁minar": 4551,
      "▁baltimore'den": 4552,
      "▁fasulye": 4553,
      "##lenmesi": 4554,
      "▁muzaker": 4555,
      "▁geleni": 4556,
      "▁orası": 4557,
      "▁oynad": 4558,
      "##dukları": 4559,
      "▁dereden": 4560,
      "▁bazilar": 4561,
      "▁aksaklik": 4562,
      "##ayacak": 4563,
      "##imi": 4564,
      "▁karsılıgında": 4565,
      "##unce": 4566,
      "##digini": 4567,
      "▁but": 4568,
      "▁itibari": 4569,
      "##lugune": 4570,
      "##ciligin": 4571,
      "▁omzuna": 4572,
      "▁ayrılır": 4573,
      "▁hel": 4574,
      "##dogu": 4575,
      "▁izlemek": 4576,
      "▁dayan": 4577,
      "##mes": 4578,
      "##yp": 4579,
      "##lem": 4580,
      "▁profes": 4581,
      "▁mıs": 4582,
      "##ale": 4583,
      "▁boynuna": 4584,
      "▁takdir": 4585,
      "▁dondum": 4586,
      "▁po": 4587,
      "##dız": 4588,
      "”": 4589,
      "▁katıldı": 4590,
      "▁indian": 4591,
      "▁hindistan": 4592,
      "▁prosed": 4593,
      "▁sırtı": 4594,
      "▁kurulus": 4595,
      "▁pesinde": 4596,
      "▁zaten": 4597,
      "▁hisse": 4598,
      "▁konusma": 4599,
      "▁georg": 4600,
      "▁tarzı": 4601,
      "##etin": 4602,
      "▁tepeden": 4603,
      "▁120": 4604,
      "##magını": 4605,
      "▁iddi": 4606,
      "▁yukseldi": 4607,
      "▁zevk": 4608,
      "▁hepimizi": 4609,
      "##ayım": 4610,
      "4": 4611,
      "##turdu": 4612,
      "▁dergisinde": 4613,
      "##ilige": 4614,
      "##elendir": 4615,
      "##umus": 4616,
      "▁bası": 4617,
      "▁hurr": 4618,
      "##umda": 4619,
      "▁satısının": 4620,
      "▁yeng": 4621,
      "##uzin": 4622,
      "▁gam": 4623,
      "▁chat": 4624,
      "##uslu": 4625,
      "▁yeme": 4626,
      "▁konuyu": 4627,
      "##sınız": 4628,
      "▁baslar": 4629,
      "▁donemlerde": 4630,
      "▁1.8": 4631,
      "▁ulkesi": 4632,
      "##ew": 4633,
      "▁el": 4634,
      "▁depr": 4635,
      "▁katıl": 4636,
      "▁gıc": 4637,
      "▁ilave": 4638,
      "▁katılım": 4639,
      "▁ayrıntıları": 4640,
      "▁havl": 4641,
      "▁talep": 4642,
      "##medig": 4643,
      "▁girince": 4644,
      "##ızı": 4645,
      "▁sakaya": 4646,
      "▁tarlada": 4647,
      "▁soluc": 4648,
      "▁sevgisi": 4649,
      "##alarının": 4650,
      "▁espri": 4651,
      "▁islerinde": 4652,
      "##unluk": 4653,
      "▁bulut": 4654,
      "▁orani": 4655,
      "▁calıstı": 4656,
      "##ettim": 4657,
      "▁dedek": 4658,
      "▁ytl": 4659,
      "##gumuz": 4660,
      "▁geceler": 4661,
      "▁oyunun": 4662,
      "▁vet": 4663,
      "##ktan": 4664,
      "##alarımızın": 4665,
      "##siyi": 4666,
      "▁haksızlıgı": 4667,
      "▁ticaretinde": 4668,
      "▁baktım": 4669,
      "▁civarı": 4670,
      "▁tesvik": 4671,
      "▁kullanılır": 4672,
      "▁alıyorlar": 4673,
      "▁varlıgı": 4674,
      "▁tedbiri": 4675,
      "▁liste": 4676,
      "▁47": 4677,
      "▁yonelikti": 4678,
      "▁gelene": 4679,
      "▁hakikat": 4680,
      "▁eti": 4681,
      "##lım": 4682,
      "##3'": 4683,
      "▁ant": 4684,
      "▁degistirmek": 4685,
      "▁jones": 4686,
      "▁yumurt": 4687,
      "▁kacır": 4688,
      "▁etik": 4689,
      "▁ob": 4690,
      "▁kesif": 4691,
      "▁aram": 4692,
      "##50'": 4693,
      "▁omur": 4694,
      "▁ıs": 4695,
      "▁sof": 4696,
      "▁islere": 4697,
      "▁yaban": 4698,
      "▁mezar": 4699,
      "##ik": 4700,
      "▁musteriler": 4701,
      "▁planının": 4702,
      "##esinde": 4703,
      "▁ne": 4704,
      "▁isaretleri": 4705,
      "##0'": 4706,
      "▁adamdan": 4707,
      "▁anlamı": 4708,
      "▁haftada": 4709,
      "##ildigini": 4710,
      "▁sınıf": 4711,
      "▁karıstırın": 4712,
      "▁fon": 4713,
      "##bal": 4714,
      "▁belirten": 4715,
      "▁aynada": 4716,
      "##landıgında": 4717,
      "▁insana": 4718,
      "▁kuvvetleri": 4719,
      "▁kulturu": 4720,
      "▁tercum": 4721,
      "▁mutfagi": 4722,
      "▁veril": 4723,
      "▁sistemini": 4724,
      "▁egr": 4725,
      "##ladıkları": 4726,
      "▁tanıgı": 4727,
      "▁suph": 4728,
      "▁davar": 4729,
      "▁2": 4730,
      "▁kullanmaya": 4731,
      "▁memnuniyet": 4732,
      "▁iceceklerden": 4733,
      "▁sırtından": 4734,
      "▁rus": 4735,
      "##abiliriz": 4736,
      "▁kagıt": 4737,
      "##lıklarını": 4738,
      "▁pal": 4739,
      "▁mucade": 4740,
      "▁modelleri": 4741,
      "▁konusmayı": 4742,
      "##lası": 4743,
      "##de": 4744,
      "▁dusunce": 4745,
      "▁re": 4746,
      "▁asın": 4747,
      "▁cesit": 4748,
      "▁ucurt": 4749,
      "▁yolculuga": 4750,
      "▁koalisyon": 4751,
      "▁tiyatro": 4752,
      "▁fırında": 4753,
      "▁islevi": 4754,
      "▁yolcul": 4755,
      "##yacak": 4756,
      "##ilen": 4757,
      "▁cekildi": 4758,
      "##elli": 4759,
      "▁surecinin": 4760,
      "▁gurur": 4761,
      "▁sef": 4762,
      "##mesi": 4763,
      "▁bankaların": 4764,
      "▁ortaklıgı": 4765,
      "▁kediye": 4766,
      "▁spor": 4767,
      "##ose": 4768,
      "##id": 4769,
      "▁nut": 4770,
      "▁magazaların": 4771,
      "▁hibe": 4772,
      "##ınt": 4773,
      "▁toplantıya": 4774,
      "##ekul": 4775,
      "▁sorunlardan": 4776,
      "▁doktorlar": 4777,
      "▁soyledim": 4778,
      "▁haberdar": 4779,
      "▁direktoru": 4780,
      "##lerimin": 4781,
      "##ıcıya": 4782,
      "##malarına": 4783,
      "▁piyas": 4784,
      "▁inc.": 4785,
      "▁etmiyor": 4786,
      "▁belirt": 4787,
      "##esinin": 4788,
      "##lantılı": 4789,
      "▁sonuclar": 4790,
      "▁hepimizin": 4791,
      "▁duran": 4792,
      "##ner": 4793,
      "##edik": 4794,
      "▁genisleme": 4795,
      "##yumda": 4796,
      "##lerindeki": 4797,
      "▁ortalaması": 4798,
      "▁armag": 4799,
      "▁yarından": 4800,
      "▁hayv": 4801,
      "▁talebe": 4802,
      "▁dekor": 4803,
      "##emiyordu": 4804,
      "▁yerlerinden": 4805,
      "▁civarında": 4806,
      "##elerde": 4807,
      "▁tesise": 4808,
      "▁arar": 4809,
      "▁kırım": 4810,
      "▁kapıyı": 4811,
      "▁harcam": 4812,
      "▁tekn": 4813,
      "▁yılın": 4814,
      "##une": 4815,
      "##abak": 4816,
      "▁cent": 4817,
      "▁genelinde": 4818,
      "▁kaydet": 4819,
      "▁etmek": 4820,
      "##nci": 4821,
      "▁mater": 4822,
      "▁duman": 4823,
      "▁cesme": 4824,
      "##izi": 4825,
      "▁vot": 4826,
      "▁tedavi": 4827,
      "▁kez": 4828,
      "▁guclerini": 4829,
      "▁herhalde": 4830,
      "▁saclarının": 4831,
      "▁bahce": 4832,
      "▁yararlan": 4833,
      "▁sinemaya": 4834,
      "##etlerini": 4835,
      "▁dahiliye": 4836,
      "▁baskanlıgında": 4837,
      "▁bakımından": 4838,
      "▁perde": 4839,
      "▁kapılarında": 4840,
      "▁mudure": 4841,
      "▁dunyada": 4842,
      "▁konusan": 4843,
      "##ribut": 4844,
      "▁brok": 4845,
      "##aclı": 4846,
      "##kca": 4847,
      "##liye": 4848,
      "##ut": 4849,
      "##dirdi": 4850,
      "##7'de": 4851,
      "▁yud": 4852,
      "▁kaf": 4853,
      "▁iceriyor": 4854,
      "▁ilgililerdi": 4855,
      "▁miras": 4856,
      "##ldi": 4857,
      "▁kurmak": 4858,
      "▁hırs": 4859,
      "▁baskal": 4860,
      "▁davet": 4861,
      "▁saniye": 4862,
      "▁plak": 4863,
      "▁antren": 4864,
      "▁trafigi": 4865,
      "▁hisseleri": 4866,
      "▁babamla": 4867,
      "▁yiyor": 4868,
      "▁band": 4869,
      "##casına": 4870,
      "▁kalor": 4871,
      "▁reklam": 4872,
      "##fa": 4873,
      "▁co": 4874,
      "##mezdi": 4875,
      "▁girisim": 4876,
      "▁altındaki": 4877,
      "▁kullanıcı": 4878,
      "▁kalan": 4879,
      "▁charl": 4880,
      "▁bilgiler": 4881,
      "##urup": 4882,
      "▁lezz": 4883,
      "▁tatilimden": 4884,
      "▁atmosfer": 4885,
      "▁yeterli": 4886,
      "▁deli": 4887,
      "▁bunyesinde": 4888,
      "▁apıs": 4889,
      "▁\"": 4890,
      "##irmen": 4891,
      "▁lıgın": 4892,
      "▁kapısının": 4893,
      "▁yazısı": 4894,
      "▁acen": 4895,
      "▁durusma": 4896,
      "▁tuk": 4897,
      "▁halen": 4898,
      "▁gitmek": 4899,
      "▁hastaneye": 4900,
      "▁etleri": 4901,
      "▁devrimci": 4902,
      "▁hayatı": 4903,
      "▁yalnız": 4904,
      "##imini": 4905,
      "▁carsıda": 4906,
      "▁dogrudan": 4907,
      "▁avuk": 4908,
      "▁mesaf": 4909,
      "▁akar": 4910,
      "▁ayna": 4911,
      "▁ti": 4912,
      "##tarken": 4913,
      "▁bat": 4914,
      "##mediklerini": 4915,
      "##ılım": 4916,
      "▁editoru": 4917,
      "##abileceg": 4918,
      "▁vegas": 4919,
      "▁gitgide": 4920,
      "▁corb": 4921,
      "▁onda": 4922,
      "##egimiz": 4923,
      "▁senede": 4924,
      "▁kemer": 4925,
      "▁aylarda": 4926,
      "##cakti": 4927,
      "▁soylemedi": 4928,
      "▁konusunda": 4929,
      "▁kelimesinin": 4930,
      "##ilisi": 4931,
      "▁problem": 4932,
      "▁guvenlik": 4933,
      "▁ley": 4934,
      "▁tenkit": 4935,
      "▁cumleleri": 4936,
      "##asyon": 4937,
      "▁mulakat": 4938,
      "▁star": 4939,
      "▁keser": 4940,
      "▁havuz": 4941,
      "▁fazl": 4942,
      "##sk": 4943,
      "▁saz": 4944,
      "▁santim": 4945,
      "▁hazırlıkları": 4946,
      "▁boyuna": 4947,
      "▁sifir": 4948,
      "##acagı": 4949,
      "▁sacı": 4950,
      "##eveyn": 4951,
      "##mun": 4952,
      "▁denver'e": 4953,
      "▁kendinden": 4954,
      "▁olduktan": 4955,
      "##okr": 4956,
      "▁duygularının": 4957,
      "▁ortalık": 4958,
      "##estr": 4959,
      "▁bakın": 4960,
      "▁romanı": 4961,
      "▁secimlerin": 4962,
      "▁kısm": 4963,
      "##kilere": 4964,
      "▁donen": 4965,
      "▁burokrasi": 4966,
      "##ka": 4967,
      "▁uyeligi": 4968,
      "▁kararıyla": 4969,
      "##ıklar": 4970,
      "▁kaynaklar": 4971,
      "▁hazırlan": 4972,
      "▁ret": 4973,
      "▁agrısı": 4974,
      "▁gorevleri": 4975,
      "▁isareti": 4976,
      "▁sefer": 4977,
      "▁olabilecegini": 4978,
      "##liyordu": 4979,
      "▁ruz": 4980,
      "▁takımı": 4981,
      "▁tabana": 4982,
      "▁ba": 4983,
      "▁kisiligi": 4984,
      "▁anlıslanabilirlik": 4985,
      "##mesin": 4986,
      "▁yont": 4987,
      "▁gorunce": 4988,
      "▁baslangıc": 4989,
      "▁benden": 4990,
      "▁muhendisi": 4991,
      "▁aki": 4992,
      "▁v": 4993,
      "##irken": 4994,
      "▁nihai": 4995,
      "▁kavg": 4996,
      "▁kuruldu": 4997,
      "▁cabalarını": 4998,
      "▁post": 4999,
      "##ayan": 5000,
      "▁diken": 5001,
      "▁mesajı": 5002,
      "▁ark": 5003,
      "##anları": 5004,
      "##sin": 5005,
      "▁zab": 5006,
      "▁%3": 5007,
      "▁kendilerine": 5008,
      "▁korkuya": 5009,
      "▁faktor": 5010,
      "▁duzine": 5011,
      "▁agb": 5012,
      "▁bilgisayarlarda": 5013,
      "##ılda": 5014,
      "▁saun": 5015,
      "▁gok": 5016,
      "▁kapa": 5017,
      "▁yeryuzunde": 5018,
      "▁ornegi": 5019,
      "▁eli": 5020,
      "▁ondan": 5021,
      "▁bı": 5022,
      "▁dama": 5023,
      "▁almanya": 5024,
      "▁kalp": 5025,
      "▁dibinde": 5026,
      "▁dumanı": 5027,
      "▁yıg": 5028,
      "▁karabiber": 5029,
      "▁yerlerini": 5030,
      "▁sarkının": 5031,
      "▁odada": 5032,
      "##ator": 5033,
      "##dv": 5034,
      "▁sınır": 5035,
      "▁harcamalardan": 5036,
      "▁vaktini": 5037,
      "▁mı": 5038,
      "▁gormus": 5039,
      "▁geyik": 5040,
      "▁enf": 5041,
      "▁belleg": 5042,
      "▁gecekondu": 5043,
      "▁biletleri": 5044,
      "##hakk": 5045,
      "▁cagında": 5046,
      "▁bi": 5047,
      "▁siddetini": 5048,
      "▁isletme": 5049,
      "▁1.7": 5050,
      "▁hala": 5051,
      "##'yi": 5052,
      "▁isine": 5053,
      "▁miktarda": 5054,
      "▁yatırımı": 5055,
      "▁keyf": 5056,
      "▁di": 5057,
      "▁cocuga": 5058,
      "▁listeleri": 5059,
      "▁say": 5060,
      "##in": 5061,
      "▁tansiyon": 5062,
      "▁kahvehan": 5063,
      "##elendi": 5064,
      "▁bilegi": 5065,
      "▁24": 5066,
      "▁getiriyor": 5067,
      "▁erkeklere": 5068,
      "▁itimat": 5069,
      "▁multeci": 5070,
      "▁guresci": 5071,
      "▁harcama": 5072,
      "▁lu": 5073,
      "▁tren": 5074,
      "▁oyun": 5075,
      "▁bilmek": 5076,
      "▁farklı": 5077,
      "▁olmadı": 5078,
      "##uzluydu": 5079,
      "▁dikkate": 5080,
      "▁iyimser": 5081,
      "##alıyor": 5082,
      "▁argum": 5083,
      "▁kay": 5084,
      "▁sezonu": 5085,
      "##isim": 5086,
      "▁bagr": 5087,
      "▁dısarı": 5088,
      "▁eserler": 5089,
      "##uh": 5090,
      "##ulmesi": 5091,
      "▁yan": 5092,
      "▁balık": 5093,
      "▁gogs": 5094,
      "▁kıyas": 5095,
      "k": 5096,
      "▁gecirdik": 5097,
      "▁sez": 5098,
      "▁gelsin": 5099,
      "▁basmak": 5100,
      "▁sakak": 5101,
      "▁iznini": 5102,
      "▁ayrılıp": 5103,
      "##sizlik": 5104,
      "▁konusuyla": 5105,
      "##umluydu": 5106,
      "▁saldırı": 5107,
      "▁gozda": 5108,
      "▁mavi": 5109,
      "▁rov": 5110,
      "##metler": 5111,
      "▁cıkarmıs": 5112,
      "▁gelecekteki": 5113,
      "##kulu": 5114,
      "▁sahis": 5115,
      "##attı": 5116,
      "##sey": 5117,
      "##alarındaki": 5118,
      "▁kisiden": 5119,
      "##tes": 5120,
      "▁musluk": 5121,
      "▁harbi": 5122,
      "▁yılından": 5123,
      "▁ogle": 5124,
      "##dug": 5125,
      "##alama": 5126,
      "▁tahvillerinin": 5127,
      "▁erdi": 5128,
      "##ladi": 5129,
      "▁yatırımcının": 5130,
      "▁si": 5131,
      "▁sapka": 5132,
      "▁mecmu": 5133,
      "▁3/4'e": 5134,
      "▁suruleri": 5135,
      "▁ekonominin": 5136,
      "##erans": 5137,
      "▁subvansiyon": 5138,
      "▁rahatsız": 5139,
      "▁romancının": 5140,
      "##adı": 5141,
      "▁kambiyo": 5142,
      "▁cıplak": 5143,
      "▁coc": 5144,
      "▁ekip": 5145,
      "▁oakland": 5146,
      "▁anlatmak": 5147,
      "▁yetkili": 5148,
      "##div": 5149,
      "▁uyum": 5150,
      "▁okulda": 5151,
      "▁gazeteciler": 5152,
      "▁haps": 5153,
      "▁patiska": 5154,
      "▁niyetinde": 5155,
      "▁sıklıkla": 5156,
      "▁okulunda": 5157,
      "##uyle": 5158,
      "▁ol": 5159,
      "▁konut": 5160,
      "▁hesaba": 5161,
      "##er'in": 5162,
      "▁girmek": 5163,
      "▁bad": 5164,
      "▁havaya": 5165,
      "##muz": 5166,
      "▁em": 5167,
      "▁pemb": 5168,
      "▁sekiz": 5169,
      "▁felsefe": 5170,
      "▁tarlaya": 5171,
      "##ılıga": 5172,
      "##mıyordu": 5173,
      "▁muamele": 5174,
      "##9'dan": 5175,
      "##m": 5176,
      "##lemek": 5177,
      "▁genclik": 5178,
      "▁dayanagı": 5179,
      "▁seyiyle": 5180,
      "▁yenilg": 5181,
      "▁arttı": 5182,
      "▁varıncaya": 5183,
      "▁dokuz": 5184,
      "##ımla": 5185,
      "▁aktiviteler": 5186,
      "##unca": 5187,
      "▁borsası'nda": 5188,
      "▁ozen": 5189,
      "▁kimisi": 5190,
      "▁geril": 5191,
      "▁analizi": 5192,
      "▁saglık": 5193,
      "##istiri": 5194,
      "##iyorsunuz": 5195,
      "▁ortaya": 5196,
      "▁orgu": 5197,
      "##ment": 5198,
      "▁ataturk": 5199,
      "▁guzelligine": 5200,
      "▁yt": 5201,
      "##uruz": 5202,
      "▁hasılat": 5203,
      "u": 5204,
      "##endir": 5205,
      "▁oynadıgını": 5206,
      "▁kayalar": 5207,
      "▁alacaklılar": 5208,
      "▁gitti": 5209,
      "h": 5210,
      "▁kurek": 5211,
      "▁birde": 5212,
      "##eceginin": 5213,
      "▁uykusu": 5214,
      "▁olduguna": 5215,
      "▁rica": 5216,
      "##of": 5217,
      "▁firmaları": 5218,
      "▁dille": 5219,
      "▁hicbirinin": 5220,
      "▁sebeb": 5221,
      "▁istemez": 5222,
      "▁uzakta": 5223,
      "▁kulce": 5224,
      "▁harik": 5225,
      "▁ettik": 5226,
      "▁umit": 5227,
      "##amba": 5228,
      "▁uy": 5229,
      "▁karnını": 5230,
      "▁kafasına": 5231,
      "##estir": 5232,
      "▁balk": 5233,
      "##lesiyor": 5234,
      "▁yukarıya": 5235,
      "▁yel": 5236,
      "▁okumak": 5237,
      "▁gununde": 5238,
      "▁hediyesi": 5239,
      "##zav": 5240,
      "▁kotu": 5241,
      "▁canak": 5242,
      "▁suy": 5243,
      "▁reasurans": 5244,
      "▁camur": 5245,
      "▁bekledi": 5246,
      "▁teknede": 5247,
      "▁fig": 5248,
      "▁baglilik": 5249,
      "##romu": 5250,
      "##6's": 5251,
      "▁elektron": 5252,
      "▁arada": 5253,
      "▁or": 5254,
      "▁armut": 5255,
      "##organ": 5256,
      "▁razı": 5257,
      "▁damarı": 5258,
      "▁sefere": 5259,
      "▁buro": 5260,
      "▁kag": 5261,
      "##y": 5262,
      "▁dul": 5263,
      "▁kızının": 5264,
      "▁yavasca": 5265,
      "▁teker": 5266,
      "▁kacın": 5267,
      "▁marj": 5268,
      "▁polem": 5269,
      "##estiri": 5270,
      "##anlarda": 5271,
      "▁mahkemeler": 5272,
      "▁kanaat": 5273,
      "▁kredileri": 5274,
      "▁ailelere": 5275,
      "##lav": 5276,
      "▁durmamacasına": 5277,
      "▁kenarı": 5278,
      "▁elli": 5279,
      "##oc": 5280,
      "▁temizliginden": 5281,
      "▁calısmaları": 5282,
      "##ukee": 5283,
      "▁fiyatını": 5284,
      "▁h": 5285,
      "▁olmayan": 5286,
      "▁evren": 5287,
      "▁cesedi": 5288,
      "▁koruması": 5289,
      "▁ala": 5290,
      "▁sahipleri": 5291,
      "▁sıcram": 5292,
      "▁guvencesi": 5293,
      "▁etki": 5294,
      "▁bono": 5295,
      "▁fas": 5296,
      "▁kongr": 5297,
      "▁makar": 5298,
      "▁tarihte": 5299,
      "##inin": 5300,
      "##unuza": 5301,
      "##laya": 5302,
      "▁kurucusu": 5303,
      "▁programda": 5304,
      "▁acisindan": 5305,
      "▁bacak": 5306,
      "##her": 5307,
      "▁sahn": 5308,
      "▁islemlerde": 5309,
      "##acakları": 5310,
      "▁amaca": 5311,
      "▁kızlar": 5312,
      "▁alabilecegini": 5313,
      "##cegini": 5314,
      "▁kala": 5315,
      "▁kelimelerle": 5316,
      "▁12'den": 5317,
      "▁matba": 5318,
      "##cal": 5319,
      "▁huzur": 5320,
      "▁oteden": 5321,
      "##orth": 5322,
      "▁gelmez": 5323,
      "▁terbiye": 5324,
      "##ılma": 5325,
      "▁degerlendirme": 5326,
      "▁secimleri": 5327,
      "▁idi": 5328,
      "▁avcı": 5329,
      "##ag": 5330,
      "▁iscileri": 5331,
      "▁artısa": 5332,
      "▁cocuklarına": 5333,
      "▁belinde": 5334,
      "▁cirkin": 5335,
      "▁ders": 5336,
      "▁kisilik": 5337,
      "▁turlarina": 5338,
      "##lat": 5339,
      "▁banyosu": 5340,
      "▁dosy": 5341,
      "▁nesil": 5342,
      "▁devre": 5343,
      "▁cogunlugu": 5344,
      "▁murekk": 5345,
      "▁rıhtım": 5346,
      "##akları": 5347,
      "▁teslim": 5348,
      "▁gazetecileri": 5349,
      "##_": 5350,
      "▁savundu": 5351,
      "##diyen": 5352,
      "▁odası": 5353,
      "##stık": 5354,
      "▁a.m": 5355,
      "▁yanıtlar": 5356,
      "▁kontrol": 5357,
      "▁esir": 5358,
      "▁kapasitesi": 5359,
      "▁bush": 5360,
      "##imizle": 5361,
      "▁satısını": 5362,
      "▁toplumsal": 5363,
      "▁semsiye": 5364,
      "▁65": 5365,
      "▁diline": 5366,
      "##1'den": 5367,
      "▁herkes": 5368,
      "▁meseleyi": 5369,
      "##acak": 5370,
      "▁modeller": 5371,
      "▁dogdu": 5372,
      "▁anad": 5373,
      "▁alakadar": 5374,
      "▁talebi": 5375,
      "▁ev": 5376,
      "▁siv": 5377,
      "▁ifade": 5378,
      "▁duy": 5379,
      "##lulerin": 5380,
      "▁sozlerle": 5381,
      "▁sularda": 5382,
      "▁may": 5383,
      "▁kurulu'nda": 5384,
      "▁dedig": 5385,
      "▁kahvaltida": 5386,
      "▁lut": 5387,
      "▁uzerinde": 5388,
      "▁yapılanma": 5389,
      "▁yuk": 5390,
      "##lugunun": 5391,
      "##ing": 5392,
      "▁tulbent": 5393,
      "▁muz": 5394,
      "▁kurulusu": 5395,
      "▁(": 5396,
      "##malıdır": 5397,
      "▁balt": 5398,
      "▁milliyetci": 5399,
      "▁gokyuzune": 5400,
      "▁cıkacagını": 5401,
      "▁edilecek": 5402,
      "▁olan": 5403,
      "▁1": 5404,
      "▁delikanlının": 5405,
      "▁randev": 5406,
      "▁revizyon": 5407,
      "▁binada": 5408,
      "▁yo": 5409,
      "▁gurultu": 5410,
      "▁solda": 5411,
      "▁konuma": 5412,
      "▁nih": 5413,
      "##uk": 5414,
      "▁sorum": 5415,
      "▁dusuk": 5416,
      "##orlu": 5417,
      "##ısıyla": 5418,
      "▁karsılık": 5419,
      "##cagız": 5420,
      "##liklerini": 5421,
      "▁birisi": 5422,
      "▁kaya": 5423,
      "##mu": 5424,
      "▁kusları": 5425,
      "▁kararına": 5426,
      "##egiyle": 5427,
      "▁cizgisini": 5428,
      "##leyicisi": 5429,
      "▁kazayla": 5430,
      "##lesme": 5431,
      "▁sablon": 5432,
      "##manın": 5433,
      "##kav": 5434,
      "▁karıs": 5435,
      "▁padisah": 5436,
      "▁zekası": 5437,
      "▁sogut": 5438,
      "▁suları": 5439,
      "▁baglam": 5440,
      "##iyetinde": 5441,
      "▁noktalarına": 5442,
      "▁izleri": 5443,
      "▁vekili": 5444,
      "▁destekle": 5445,
      "▁durdum": 5446,
      "▁kazanıyor": 5447,
      "▁day": 5448,
      "▁keten": 5449,
      "▁hayalet": 5450,
      "f": 5451,
      "▁gosteren": 5452,
      "▁kuk": 5453,
      "▁hizmetlerinden": 5454,
      "##tema": 5455,
      "▁vaktim": 5456,
      "▁endustriler": 5457,
      "▁komun": 5458,
      "▁kucucuk": 5459,
      "▁listeleyin": 5460,
      "▁kabul": 5461,
      "▁yasındaki": 5462,
      "▁finansal": 5463,
      "▁uzakti": 5464,
      "▁yili": 5465,
      "##ener": 5466,
      "##atıl": 5467,
      "▁ogretmeni": 5468,
      "##ıldım": 5469,
      "##asti": 5470,
      "▁israil": 5471,
      "▁vız": 5472,
      "▁saatini": 5473,
      "##arlık": 5474,
      "##eti": 5475,
      "##uttu": 5476,
      "##liyorum": 5477,
      "▁seviyesinden": 5478,
      "▁beach": 5479,
      "▁kalmadim": 5480,
      "▁asırı": 5481,
      "##bur": 5482,
      "▁pap": 5483,
      "▁apart": 5484,
      "▁zinc": 5485,
      "▁kodu": 5486,
      "##elir": 5487,
      "▁kredilere": 5488,
      "▁rob": 5489,
      "##mesinin": 5490,
      "▁kaldıgını": 5491,
      "▁safh": 5492,
      "▁yoktur": 5493,
      "▁alama": 5494,
      "▁okum": 5495,
      "▁tir": 5496,
      "##egen": 5497,
      "▁pros": 5498,
      "▁anlasmayı": 5499,
      "▁bircogu": 5500,
      "▁temizlikte": 5501,
      "▁od": 5502,
      "▁tor": 5503,
      "▁odayı": 5504,
      "▁urunler": 5505,
      "▁geriye": 5506,
      "▁toky": 5507,
      "##maca": 5508,
      "##cası": 5509,
      "##ırdı": 5510,
      "▁savcılar": 5511,
      "▁kavga": 5512,
      "▁kullanımını": 5513,
      "##innati": 5514,
      "▁kızar": 5515,
      "▁ilk": 5516,
      "▁masayı": 5517,
      "▁tadima": 5518,
      "▁mevs": 5519,
      "▁hasarı": 5520,
      "##agu": 5521,
      "▁toplantılarında": 5522,
      "▁kaldırma": 5523,
      "▁kitaba": 5524,
      "▁isver": 5525,
      "▁teyz": 5526,
      "▁verici": 5527,
      "##abz": 5528,
      "▁ihtiyacım": 5529,
      "▁dugun": 5530,
      "▁..": 5531,
      "▁temb": 5532,
      "▁yumur": 5533,
      "▁klim": 5534,
      "▁anlamda": 5535,
      "▁erken": 5536,
      "▁sineye": 5537,
      "▁yapmakta": 5538,
      "▁duda": 5539,
      "▁kullanıyor": 5540,
      "▁manev": 5541,
      "▁depremle": 5542,
      "▁olag": 5543,
      "▁beklentilerimi": 5544,
      "▁aygıt": 5545,
      "▁gec": 5546,
      "▁tasımacılıgı": 5547,
      "▁yarı": 5548,
      "▁yeri": 5549,
      "▁gerektir": 5550,
      "▁sorunlarının": 5551,
      "▁yazılar": 5552,
      "▁kardeslik": 5553,
      "##=": 5554,
      "▁gobek": 5555,
      "▁boynunda": 5556,
      "▁farkında": 5557,
      "##uvarı": 5558,
      "##4": 5559,
      "▁birim": 5560,
      "▁etsin": 5561,
      "▁kub": 5562,
      "##ukla": 5563,
      "▁tapın": 5564,
      "▁solunum": 5565,
      "▁fikirleri": 5566,
      "##esi'nde": 5567,
      "▁onların": 5568,
      "##lacak": 5569,
      "▁oturmak": 5570,
      "##iyor": 5571,
      "▁indi": 5572,
      "▁hocam": 5573,
      "▁tasf": 5574,
      "##mistik": 5575,
      "▁yuzde": 5576,
      "▁etmektedir": 5577,
      "##5'te": 5578,
      "▁kaldırılması": 5579,
      "##sunuz": 5580,
      "▁alımının": 5581,
      "▁orayı": 5582,
      "##unu": 5583,
      "##desinde": 5584,
      "▁kredi": 5585,
      "▁buldum": 5586,
      "▁aks": 5587,
      "▁partiyi": 5588,
      "▁bicimine": 5589,
      "▁tanrı": 5590,
      "▁aldat": 5591,
      "##anoz": 5592,
      "▁edilmis": 5593,
      "▁perdeden": 5594,
      "▁agzını": 5595,
      "▁isra": 5596,
      "▁yerlerden": 5597,
      "##sali": 5598,
      "▁zul": 5599,
      "▁kamuoy": 5600,
      "▁yeterliydi": 5601,
      "▁evimize": 5602,
      "▁ste": 5603,
      "▁muammayı": 5604,
      "▁yapmadı": 5605,
      "▁bildigi": 5606,
      "▁geregi": 5607,
      "▁musterinin": 5608,
      "▁gelistirme": 5609,
      "##lamaya": 5610,
      "▁yapraklarını": 5611,
      "##isk": 5612,
      "##aretle": 5613,
      "##'yu": 5614,
      "##ladıgı": 5615,
      "▁havayollarında": 5616,
      "▁sokagı": 5617,
      "▁personelleri": 5618,
      "▁kalacak": 5619,
      "▁gelecekte": 5620,
      "▁kazananlar": 5621,
      "▁alakasi": 5622,
      "▁faaliyetinde": 5623,
      "▁asa": 5624,
      "##muyordu": 5625,
      "##ktadır": 5626,
      "▁soba": 5627,
      "▁anasının": 5628,
      "▁aynısını": 5629,
      "▁giz": 5630,
      "▁1\\/4": 5631,
      "▁koyuldu": 5632,
      "▁onume": 5633,
      "##eksel": 5634,
      "▁dususle": 5635,
      "▁esi": 5636,
      "▁camek": 5637,
      "▁haklı": 5638,
      "##madık": 5639,
      "▁sıc": 5640,
      "##esk": 5641,
      "▁8": 5642,
      "▁simdilik": 5643,
      "##iri": 5644,
      "▁iptal": 5645,
      "▁aklımdan": 5646,
      "▁okuma": 5647,
      "▁turunu": 5648,
      "▁salonuna": 5649,
      "▁key": 5650,
      "▁yavru": 5651,
      "▁evimizde": 5652,
      "▁mir": 5653,
      "▁versiyon": 5654,
      "▁yollardan": 5655,
      "▁cesmenin": 5656,
      "▁ettiginde": 5657,
      "##andır": 5658,
      "▁karam": 5659,
      "▁yahudi": 5660,
      "▁deneme": 5661,
      "▁alım-sat": 5662,
      "▁samimiyet": 5663,
      "##log": 5664,
      "▁nasip": 5665,
      "▁gay": 5666,
      "▁ucunda": 5667,
      "▁grubuna": 5668,
      "▁yar": 5669,
      "▁hıckırık": 5670,
      "▁umut": 5671,
      "##ibine": 5672,
      "▁renk": 5673,
      "▁cevre": 5674,
      "▁mahkemesinde": 5675,
      "##isel": 5676,
      "▁varmak": 5677,
      "▁agzım": 5678,
      "▁omz": 5679,
      "##yken": 5680,
      "##dev": 5681,
      "▁so": 5682,
      "▁suya": 5683,
      "▁uzmanlar": 5684,
      "▁esk": 5685,
      "▁ikam": 5686,
      "##lıydı": 5687,
      "▁mevc": 5688,
      "▁sub": 5689,
      "▁sınav": 5690,
      "▁dusmeye": 5691,
      "▁magazada": 5692,
      "##iyla": 5693,
      "▁parayla": 5694,
      "▁dudakları": 5695,
      "▁long": 5696,
      "▁degildir": 5697,
      "▁inis": 5698,
      "▁yabancıların": 5699,
      "▁gunluk": 5700,
      "##gınız": 5701,
      "▁icimden": 5702,
      "▁haykır": 5703,
      "▁doları'nda": 5704,
      "##izmi": 5705,
      "▁cıkıp": 5706,
      "##enler": 5707,
      "##kındaki": 5708,
      "▁holding": 5709,
      "▁attılar": 5710,
      "▁baskanları": 5711,
      "▁karıstı": 5712,
      "▁olay": 5713,
      "▁hijyenik": 5714,
      "▁vezn": 5715,
      "▁aracılar": 5716,
      "▁seviyesinin": 5717,
      "##ıl": 5718,
      "▁yız": 5719,
      "##akta": 5720,
      "##mam": 5721,
      "##anıyla": 5722,
      "▁kazık": 5723,
      "▁asamasında": 5724,
      "▁bodrum": 5725,
      "▁kısıtlamalar": 5726,
      "##ret": 5727,
      "▁beklentimin": 5728,
      "▁faaliyet": 5729,
      "▁sonlarında": 5730,
      "▁kapıdan": 5731,
      "##50": 5732,
      "▁sonraki": 5733,
      "▁cakmak": 5734,
      "▁oks": 5735,
      "##utlu": 5736,
      "▁bakıyorum": 5737,
      "▁elimizde": 5738,
      "##ami": 5739,
      "▁otellerden": 5740,
      "▁tarifeleri": 5741,
      "▁guzelligin": 5742,
      "▁rap": 5743,
      "▁gelisim": 5744,
      "▁ilgisizlik": 5745,
      "▁hareketlerini": 5746,
      "##ley": 5747,
      "▁cuzdanı": 5748,
      "##urdum": 5749,
      "▁baskumandan": 5750,
      "▁carpan": 5751,
      "▁islemi": 5752,
      "▁kata": 5753,
      "##dadı": 5754,
      "##mustu": 5755,
      "##eyr": 5756,
      "##larımda": 5757,
      "##kileri": 5758,
      "▁lokma": 5759,
      "▁ilkokul": 5760,
      "▁kokain": 5761,
      "▁tarihlerinde": 5762,
      "▁boyun": 5763,
      "▁baba": 5764,
      "▁hapishane": 5765,
      "▁adin": 5766,
      "##ham": 5767,
      "▁biridir": 5768,
      "##jde": 5769,
      "▁eki": 5770,
      "▁bunu": 5771,
      "▁ırk": 5772,
      "▁incelem": 5773,
      "▁iri": 5774,
      "▁tamam": 5775,
      "▁maydanoz": 5776,
      "##ehir": 5777,
      "##igine": 5778,
      "▁olumle": 5779,
      "▁tah": 5780,
      "▁servis": 5781,
      "▁takım": 5782,
      "▁sayın": 5783,
      "▁anlas": 5784,
      "▁degisimi": 5785,
      "▁kına": 5786,
      "##irli": 5787,
      "▁inancı": 5788,
      "##cuh": 5789,
      "##dur": 5790,
      "▁giriste": 5791,
      "▁olmaya": 5792,
      "▁dairesine": 5793,
      "▁dusunmek": 5794,
      "▁sonuclarının": 5795,
      "▁tarihli": 5796,
      "▁muhabbet": 5797,
      "▁calisanlari": 5798,
      "##mak": 5799,
      "▁pudra": 5800,
      "▁de": 5801,
      "##ru": 5802,
      "##ecen": 5803,
      "▁kentin": 5804,
      "##rlik": 5805,
      "▁rolu": 5806,
      "##cılıg": 5807,
      "▁zincirinin": 5808,
      "▁mesru": 5809,
      "##abını": 5810,
      "▁meg": 5811,
      "##etle": 5812,
      "##acaat": 5813,
      "▁odemesini": 5814,
      "▁uretiyor": 5815,
      "▁satırları": 5816,
      "▁bar": 5817,
      "▁egilimi": 5818,
      "▁durur": 5819,
      "▁baslat": 5820,
      "##anlı": 5821,
      "▁annesiyle": 5822,
      "▁muy": 5823,
      "##abın": 5824,
      "##ıtı": 5825,
      "▁ailenin": 5826,
      "▁raporlar": 5827,
      "▁reorgan": 5828,
      "▁yorgun": 5829,
      "▁hayatta": 5830,
      "▁agzına": 5831,
      "▁cantasında": 5832,
      "▁isv": 5833,
      "##eyh": 5834,
      "▁ata": 5835,
      "▁guzelligi": 5836,
      "▁'lı": 5837,
      "▁bolum": 5838,
      "▁gitmeyi": 5839,
      "##gimde": 5840,
      "##uza": 5841,
      "##chell": 5842,
      "▁dongu": 5843,
      "▁bos": 5844,
      "▁fev": 5845,
      "▁unvanını": 5846,
      "▁anlatım": 5847,
      "▁imtiyaz": 5848,
      "▁yapılacak": 5849,
      "▁mısın": 5850,
      "##ceye": 5851,
      "▁ruhunun": 5852,
      "▁saglıklı": 5853,
      "##ların": 5854,
      "##gulu": 5855,
      "▁haberin": 5856,
      "▁mizah": 5857,
      "▁imkanı": 5858,
      "▁peh": 5859,
      "▁hazırladı": 5860,
      "▁-": 5861,
      "▁istiyordu": 5862,
      "▁goze": 5863,
      "▁dusunur": 5864,
      "▁rejimi": 5865,
      "z": 5866,
      "▁giy": 5867,
      "▁hanim": 5868,
      "▁karısık": 5869,
      "▁misafiri": 5870,
      "##eksu": 5871,
      "▁acıklaması": 5872,
      "▁pus": 5873,
      "▁yarına": 5874,
      "▁bilanc": 5875,
      "▁yet": 5876,
      "▁altern": 5877,
      "▁yanından": 5878,
      "▁acmak": 5879,
      "▁bayr": 5880,
      "##ılabil": 5881,
      "▁oneririm": 5882,
      "▁sene": 5883,
      "▁edebiyatın": 5884,
      "▁12.5": 5885,
      "▁yapildi": 5886,
      "##cileri": 5887,
      "##tali": 5888,
      "##mız": 5889,
      "▁washington": 5890,
      "##uklar": 5891,
      "▁uzerime": 5892,
      "▁ın": 5893,
      "▁misin": 5894,
      "▁seyir": 5895,
      "▁muharr": 5896,
      "##asıyla": 5897,
      "▁sehri": 5898,
      "▁rota": 5899,
      "▁takı": 5900,
      "▁cilek": 5901,
      "▁nufuz": 5902,
      "▁yudum": 5903,
      "##w": 5904,
      "##ri": 5905,
      "##gin": 5906,
      "▁degerli": 5907,
      "▁biliyor": 5908,
      "▁bilezik": 5909,
      "▁birimleri": 5910,
      "##lamaz": 5911,
      "▁yasında": 5912,
      "▁seh": 5913,
      "▁rev": 5914,
      "▁duruyor": 5915,
      "▁gectigini": 5916,
      "▁amir": 5917,
      "▁duruma": 5918,
      "##real": 5919,
      "▁iskenc": 5920,
      "▁buy": 5921,
      "▁mel": 5922,
      "▁tahk": 5923,
      "▁yavrum": 5924,
      "▁personeline": 5925,
      "▁lak": 5926,
      "▁iktis": 5927,
      "▁benziyordu": 5928,
      "▁yana": 5929,
      "##mıs": 5930,
      "▁kısa": 5931,
      "▁temasa": 5932,
      "##lerce": 5933,
      "##igini": 5934,
      "##mayla": 5935,
      "##lıga": 5936,
      "▁esvap": 5937,
      "▁piyasası": 5938,
      "▁davetiye": 5939,
      "▁reaksiyon": 5940,
      "▁gelecegini": 5941,
      "▁odayi": 5942,
      "▁dantel": 5943,
      "▁sonradan": 5944,
      "##emize": 5945,
      "▁duruyordu": 5946,
      "##esti": 5947,
      "▁ut": 5948,
      "▁yoneticilerin": 5949,
      "##ilmaz": 5950,
      "▁yiyeceklerin": 5951,
      "##onik": 5952,
      "▁bus": 5953,
      "▁yonetim": 5954,
      "▁gelmek": 5955,
      "##yas": 5956,
      "▁etkilerini": 5957,
      "▁devlet": 5958,
      "▁.": 5959,
      "▁fabrikasının": 5960,
      "▁yollar": 5961,
      "▁icermektedir": 5962,
      "##ılmaz": 5963,
      "##irlik": 5964,
      "▁meb": 5965,
      "▁ayagın": 5966,
      "▁planını": 5967,
      "▁maya": 5968,
      "▁karsımıza": 5969,
      "▁soyleyebilir": 5970,
      "▁hedefleri": 5971,
      "▁kaydetti": 5972,
      "▁lanet": 5973,
      "▁omrunun": 5974,
      "▁vaj": 5975,
      "▁kanser": 5976,
      "▁sozcukleri": 5977,
      "▁ayık": 5978,
      "▁rakamları": 5979,
      "▁dogrusu": 5980,
      "▁medya": 5981,
      "▁begendim": 5982,
      "▁osman": 5983,
      "##1'de": 5984,
      "▁versin": 5985,
      "##sel": 5986,
      "▁sureci": 5987,
      "▁degisimin": 5988,
      "##oj": 5989,
      "▁ku": 5990,
      "▁profesoru": 5991,
      "▁gomlegini": 5992,
      "##den": 5993,
      "##anmak": 5994,
      "▁havada": 5995,
      "▁dans": 5996,
      "##ladık": 5997,
      "▁klor": 5998,
      "##.": 5999,
      "##etti": 6000,
      "▁ugra": 6001,
      "▁gosterin": 6002,
      "▁musteri": 6003,
      "▁kitapları": 6004,
      "▁sup": 6005,
      "##ola": 6006,
      "▁kara": 6007,
      "▁payı": 6008,
      "▁gozunun": 6009,
      "▁ederek": 6010,
      "▁york'ta": 6011,
      "▁herh": 6012,
      "▁davasının": 6013,
      "##lanmıstır": 6014,
      "▁icindir": 6015,
      "▁sirketidir": 6016,
      "▁olasılıgını": 6017,
      "▁buranın": 6018,
      "▁sayesinde": 6019,
      "▁tev": 6020,
      "▁esde": 6021,
      "▁kırlangıc": 6022,
      "##lulerdi": 6023,
      "▁oldular": 6024,
      "▁silah": 6025,
      "▁bilmiyor": 6026,
      "▁satıcılar": 6027,
      "▁toront": 6028,
      "▁harman": 6029,
      "▁62": 6030,
      "▁tarifeler": 6031,
      "▁sekreter": 6032,
      "▁dilden": 6033,
      "##lis": 6034,
      "▁duskun": 6035,
      "▁hukumete": 6036,
      "▁tehdidi": 6037,
      "▁senetlerine": 6038,
      "▁ucuslarının": 6039,
      "▁huzun": 6040,
      "##sık": 6041,
      "▁ayından": 6042,
      "▁yaparak": 6043,
      "▁esyaları": 6044,
      "##eyecek": 6045,
      "▁dum": 6046,
      "▁spot": 6047,
      "##lastı": 6048,
      "▁maddeler": 6049,
      "##uktu": 6050,
      "##cılarının": 6051,
      "▁adım": 6052,
      "▁tuyu": 6053,
      "▁kalmaz": 6054,
      "▁zaman": 6055,
      "▁seviyesinde": 6056,
      "▁sıvı": 6057,
      "▁fonksiyon": 6058,
      "▁cozumu": 6059,
      "w": 6060,
      "▁kardes": 6061,
      "▁golu": 6062,
      "▁cemiyet": 6063,
      "▁muhtemelen": 6064,
      "▁ulkesinde": 6065,
      "▁ilcesine": 6066,
      "▁boyunca": 6067,
      "▁agaclar": 6068,
      "▁sponsor": 6069,
      "##anan": 6070,
      "▁dan": 6071,
      "▁parti": 6072,
      "▁memnuniyetini": 6073,
      "▁herkese": 6074,
      "##usunde": 6075,
      "▁ciftligi": 6076,
      "##lerle": 6077,
      "▁isletmeleri": 6078,
      "▁iflah": 6079,
      "▁sallan": 6080,
      "▁meden": 6081,
      "▁yapt": 6082,
      "▁seyh": 6083,
      "▁ulusal": 6084,
      "▁yatagına": 6085,
      "##siz": 6086,
      "▁gelenek": 6087,
      "##akar": 6088,
      "▁1.5": 6089,
      "##ih": 6090,
      "##gara": 6091,
      "▁magara": 6092,
      "▁gitmem": 6093,
      "▁sosyal": 6094,
      "▁oruc": 6095,
      "▁ha": 6096,
      "##fab": 6097,
      "##ısının": 6098,
      "▁alanını": 6099,
      "▁asagılık": 6100,
      "▁hukumdar": 6101,
      "▁yıldızları": 6102,
      "▁esnada": 6103,
      "▁gorevlerini": 6104,
      "▁nesesi": 6105,
      "▁sanduk": 6106,
      "▁neyi": 6107,
      "##obili": 6108,
      "▁aracların": 6109,
      "▁dusur": 6110,
      "▁digeri": 6111,
      "▁temas": 6112,
      "▁tebessum": 6113,
      "▁3.": 6114,
      "▁begenmedik": 6115,
      "▁kendilerinin": 6116,
      "▁mad": 6117,
      "▁barınagı": 6118,
      "▁beyden": 6119,
      "▁yone": 6120,
      "##abilir": 6121,
      "##for": 6122,
      "▁cıktıgını": 6123,
      "▁halinden": 6124,
      "▁cıkma": 6125,
      "▁ayır": 6126,
      "▁elimde": 6127,
      "##masıyla": 6128,
      "▁dusundum": 6129,
      "▁yaklas": 6130,
      "▁aracı": 6131,
      "▁kendisine": 6132,
      "▁alanları": 6133,
      "##artma": 6134,
      "▁direnis": 6135,
      "##das": 6136,
      "##uu": 6137,
      "▁ederim": 6138,
      "▁sarh": 6139,
      "▁resmini": 6140,
      "▁deme": 6141,
      "▁secim": 6142,
      "▁ed": 6143,
      "▁oyunu": 6144,
      "##org": 6145,
      "▁ogrenc": 6146,
      "▁kilit": 6147,
      "##bin": 6148,
      "▁secime": 6149,
      "▁yaratıc": 6150,
      "▁fit": 6151,
      "▁pl": 6152,
      "▁huzursuzluk": 6153,
      "▁katında": 6154,
      "▁cog": 6155,
      "▁efend": 6156,
      "▁endise": 6157,
      "##klerini": 6158,
      "##ugun": 6159,
      "▁alıyordu": 6160,
      "##ırtıcı": 6161,
      "##indan": 6162,
      "▁yır": 6163,
      "▁otede": 6164,
      "▁evv": 6165,
      "▁geldikleri": 6166,
      "▁sansı": 6167,
      "▁iyimserlik": 6168,
      "##vas": 6169,
      "▁dug": 6170,
      "▁mevzuatı": 6171,
      "##ılıg": 6172,
      "##tikce": 6173,
      "▁coban": 6174,
      "▁ilav": 6175,
      "▁petersburg": 6176,
      "▁ustunu": 6177,
      "▁hızla": 6178,
      "##cıyı": 6179,
      "▁sıy": 6180,
      "▁pınar": 6181,
      "▁deplasman": 6182,
      "##d": 6183,
      "▁elini": 6184,
      "▁entar": 6185,
      "▁birbirleri": 6186,
      "▁alacak": 6187,
      "▁satıs": 6188,
      "▁senaryo": 6189,
      "▁alt": 6190,
      "▁tukur": 6191,
      "▁bany": 6192,
      "▁etmisti": 6193,
      "▁degerini": 6194,
      "▁operasyonlarına": 6195,
      "▁cikis": 6196,
      "▁belir": 6197,
      "##atsız": 6198,
      "▁ciftci": 6199,
      "▁iman": 6200,
      "▁fu": 6201,
      "##ilerle": 6202,
      "▁parcayı": 6203,
      "▁1'den": 6204,
      "▁58": 6205,
      "▁yuku": 6206,
      "▁sinem": 6207,
      "▁burbank": 6208,
      "▁cesidi": 6209,
      "▁faturam": 6210,
      "▁dah": 6211,
      "##rar": 6212,
      "▁sanatlar": 6213,
      "▁sorusturma": 6214,
      "▁kararın": 6215,
      "▁neler": 6216,
      "▁sorunum": 6217,
      "▁siparisleri": 6218,
      "▁yatırımcılar": 6219,
      "▁incel": 6220,
      "▁radyoyu": 6221,
      "▁rahat": 6222,
      "▁ipotege": 6223,
      "##egor": 6224,
      "▁yıl": 6225,
      "▁esyayı": 6226,
      "▁gelin": 6227,
      "▁genellikle": 6228,
      "##ahlık": 6229,
      "##inde": 6230,
      "##oya": 6231,
      "▁dısar": 6232,
      "▁1991": 6233,
      "▁partisinin": 6234,
      "▁muhar": 6235,
      "▁yontemi": 6236,
      "▁bostan": 6237,
      "▁acıl": 6238,
      "▁sebek": 6239,
      ".": 6240,
      "▁gorun": 6241,
      "▁yatırım": 6242,
      "##agıyla": 6243,
      "##par": 6244,
      "##ob": 6245,
      "▁spekul": 6246,
      "▁acıyla": 6247,
      "▁sinirlerini": 6248,
      "##ullu": 6249,
      "▁tavuklar": 6250,
      "##ırp": 6251,
      "▁egz": 6252,
      "##asa": 6253,
      "▁imtiy": 6254,
      "##sam": 6255,
      "0": 6256,
      "##maktan": 6257,
      "▁kapak": 6258,
      "▁hukumeti": 6259,
      "▁sayf": 6260,
      "▁moral": 6261,
      "▁ekmekle": 6262,
      "▁mukem": 6263,
      "▁notu": 6264,
      "▁mo": 6265,
      "▁kaldim": 6266,
      "▁satın": 6267,
      "▁ekonomistler": 6268,
      "##sızlıgını": 6269,
      "▁kendisi": 6270,
      "##usa": 6271,
      "▁ikimiz": 6272,
      "▁masraflar": 6273,
      "▁komitesi": 6274,
      "▁ayagı": 6275,
      "▁cleveland": 6276,
      "##lardaki": 6277,
      "▁bizde": 6278,
      "▁tedbirler": 6279,
      "▁seyle": 6280,
      "▁tec": 6281,
      "▁heyetin": 6282,
      "▁miralay": 6283,
      "▁corp.": 6284,
      "##bek": 6285,
      "##enuz": 6286,
      "##gis": 6287,
      "▁erk": 6288,
      "##ıktı": 6289,
      "▁yes": 6290,
      "##elek": 6291,
      "▁santr": 6292,
      "▁tartı": 6293,
      "▁misyon": 6294,
      "▁olumden": 6295,
      "▁beyanat": 6296,
      "##cep": 6297,
      "▁bastan": 6298,
      "▁sarkıları": 6299,
      "##tu": 6300,
      "▁koc": 6301,
      "▁yardıma": 6302,
      "##kal": 6303,
      "##su": 6304,
      "##ul": 6305,
      "▁sab": 6306,
      "▁sakat": 6307,
      "##usup": 6308,
      "▁kaldı": 6309,
      "▁jon": 6310,
      "▁suruk": 6311,
      "▁sapı": 6312,
      "##arlar": 6313,
      "l": 6314,
      "##esiyle": 6315,
      "▁bes": 6316,
      "##yiz": 6317,
      "▁nefese": 6318,
      "▁tum": 6319,
      "▁aramızda": 6320,
      "▁basv": 6321,
      "▁evlilik": 6322,
      "▁vadeli": 6323,
      "▁defne": 6324,
      "▁99": 6325,
      "▁rady": 6326,
      "▁oak": 6327,
      "▁yogurt": 6328,
      "▁maliyetlerini": 6329,
      "▁sosyalizm": 6330,
      "▁rol": 6331,
      "##lantı": 6332,
      "▁yargı": 6333,
      "▁utanc": 6334,
      "▁gir": 6335,
      "▁surekli": 6336,
      "▁sıkıntı": 6337,
      "##landırdı": 6338,
      "▁tab": 6339,
      "##adıgı": 6340,
      "##alardan": 6341,
      "▁delta": 6342,
      "##atch": 6343,
      "▁bilmez": 6344,
      "▁verecegini": 6345,
      "##ımdır": 6346,
      "▁gunumuz": 6347,
      "##anla": 6348,
      "▁sal": 6349,
      "▁stan": 6350,
      "▁3.ceyrek": 6351,
      "##mayız": 6352,
      "##'a": 6353,
      "▁konusmak": 6354,
      "##ah": 6355,
      "##ogram": 6356,
      "▁hız": 6357,
      "##hanenin": 6358,
      "##larımızdan": 6359,
      "▁anlay": 6360,
      "▁sıgır": 6361,
      "##engin": 6362,
      "▁francisco'ya": 6363,
      "▁lezzetli": 6364,
      "▁goz": 6365,
      "##inda": 6366,
      "‘": 6367,
      "▁taraftar": 6368,
      "▁koseye": 6369,
      "▁degisti": 6370,
      "▁sert": 6371,
      "▁murekkep": 6372,
      "##dını": 6373,
      "▁kurustan": 6374,
      "▁yataga": 6375,
      "▁bulun": 6376,
      "▁sif": 6377,
      "▁yetkililerine": 6378,
      "▁duzeni": 6379,
      "##erleri": 6380,
      "▁sevgili": 6381,
      "▁chp": 6382,
      "▁belediye": 6383,
      "▁soktu": 6384,
      "▁turp": 6385,
      "▁milyara": 6386,
      "▁gidip": 6387,
      "▁tenc": 6388,
      "▁bankanın": 6389,
      "▁felc": 6390,
      "##lt": 6391,
      "▁yarıs": 6392,
      "▁eder": 6393,
      "▁paraları": 6394,
      "▁karargah": 6395,
      "▁yosun": 6396,
      "▁yatagında": 6397,
      "▁personelin": 6398,
      "▁yılki": 6399,
      "▁kok": 6400,
      "▁bulus": 6401,
      "▁uretimi": 6402,
      "▁10": 6403,
      "▁guc": 6404,
      "##gar": 6405,
      "▁mol": 6406,
      "##lasman": 6407,
      "▁olcut": 6408,
      "▁33": 6409,
      "▁cık": 6410,
      "▁gecir": 6411,
      "▁nakliye": 6412,
      "▁sorununa": 6413,
      "##amıs": 6414,
      "▁odemesi": 6415,
      "▁1\\/8": 6416,
      "▁vaktiyle": 6417,
      "▁kuyruk": 6418,
      "▁cıg": 6419,
      "▁ticari": 6420,
      "▁basladı": 6421,
      "▁cerey": 6422,
      "▁ligin": 6423,
      "▁memnunum": 6424,
      "▁tahminini": 6425,
      "▁kelime": 6426,
      "▁bilgileri": 6427,
      "▁edit": 6428,
      "▁oda": 6429,
      "▁hepsinin": 6430,
      "▁edilen": 6431,
      "##agının": 6432,
      "▁kazandı": 6433,
      "##ram": 6434,
      "▁saka": 6435,
      "▁bakısı": 6436,
      "▁vad": 6437,
      "▁/": 6438,
      "##gıcı": 6439,
      "▁misafirimizle": 6440,
      "▁malumat": 6441,
      "▁bilirdi": 6442,
      "▁?..": 6443,
      "▁yardımıyla": 6444,
      "▁salon": 6445,
      "▁urunlerinin": 6446,
      "▁ongordu": 6447,
      "▁musiki": 6448,
      "▁bogaz": 6449,
      "##32": 6450,
      "▁bagrı": 6451,
      "▁resesyon": 6452,
      "##nak": 6453,
      "▁dalı": 6454,
      "▁uslu": 6455,
      "▁gucunu": 6456,
      "▁dususun": 6457,
      "▁saglar": 6458,
      "▁hissedarların": 6459,
      "▁cıkarıp": 6460,
      "▁76": 6461,
      "▁anadolu": 6462,
      "▁eyaletler": 6463,
      "▁ortalamanın": 6464,
      "▁bugune": 6465,
      "▁kafam": 6466,
      "▁cıkıyordu": 6467,
      "▁gozunde": 6468,
      "▁fabr": 6469,
      "##gn": 6470,
      "▁kimden": 6471,
      "##enn": 6472,
      "▁uyelerini": 6473,
      "▁sehirde": 6474,
      "▁gurultuye": 6475,
      "▁arad": 6476,
      "▁sorusuna": 6477,
      "▁hik": 6478,
      "▁kapsamına": 6479,
      "▁kesin": 6480,
      "##yalizm": 6481,
      "▁eksi": 6482,
      "▁acıklama": 6483,
      "▁ihtis": 6484,
      "▁tay": 6485,
      "##antr": 6486,
      "##etro": 6487,
      "▁demokrat": 6488,
      "▁hanimdi": 6489,
      "▁ailesi": 6490,
      "▁suren": 6491,
      "##emsiz": 6492,
      "▁odev": 6493,
      "▁yolunu": 6494,
      "▁gucle": 6495,
      "▁44": 6496,
      "▁gaflet": 6497,
      "##dalı": 6498,
      "▁duygularını": 6499,
      "##ıb": 6500,
      "▁ayakta": 6501,
      "▁ulkeyi": 6502,
      "▁cem": 6503,
      "▁kızım": 6504,
      "▁nash": 6505,
      "▁alanlar": 6506,
      "▁gozetim": 6507,
      "▁deter": 6508,
      "▁tasdik": 6509,
      "▁yemis": 6510,
      "▁pasap": 6511,
      "▁issizlik": 6512,
      "▁yazma": 6513,
      "▁ettikten": 6514,
      "##ern": 6515,
      "▁faturami": 6516,
      "▁ucreti": 6517,
      "▁boyutu": 6518,
      "▁art": 6519,
      "▁bitir": 6520,
      "▁revize": 6521,
      "##ısık": 6522,
      "▁izleme": 6523,
      "▁yapma": 6524,
      "▁makam": 6525,
      "##edil": 6526,
      "▁kasırga": 6527,
      "▁besin": 6528,
      "▁ettiklerini": 6529,
      "▁psil": 6530,
      "▁kontrolu": 6531,
      "▁olunca": 6532,
      "▁hamlesi": 6533,
      "▁propaganda": 6534,
      "▁sıralarda": 6535,
      "▁serisi": 6536,
      "▁sola": 6537,
      "▁uykudan": 6538,
      "##akende": 6539,
      "▁nereden": 6540,
      "##muyorum": 6541,
      "▁kurtar": 6542,
      "▁hij": 6543,
      "▁tavrı": 6544,
      "▁ciftlerine": 6545,
      "▁tahrik": 6546,
      "▁uykuda": 6547,
      "▁hes": 6548,
      "▁saatine": 6549,
      "##af": 6550,
      "##emeyi": 6551,
      "▁birincisi": 6552,
      "##unda": 6553,
      "▁aracları": 6554,
      "▁yapıldıgını": 6555,
      "▁istedigim": 6556,
      "##ev": 6557,
      "▁fatur": 6558,
      "▁kardesi": 6559,
      "▁almıstı": 6560,
      "▁deyisle": 6561,
      "▁united": 6562,
      "##ıma": 6563,
      "▁asagıda": 6564,
      "▁derv": 6565,
      "▁etrafını": 6566,
      "▁ayri": 6567,
      "▁alıskanlıgı": 6568,
      "▁dukkanında": 6569,
      "▁dem": 6570,
      "##larında": 6571,
      "▁ogren": 6572,
      "##alari": 6573,
      "##acan": 6574,
      "▁acısıyla": 6575,
      "##imdi": 6576,
      "▁ora": 6577,
      "▁yakınında": 6578,
      "▁dalgın": 6579,
      "▁korid": 6580,
      "▁hissedarlar": 6581,
      "▁calısmaya": 6582,
      "▁gercekl": 6583,
      "▁cagr": 6584,
      "▁imkanlarindan": 6585,
      "▁ulas": 6586,
      "▁konus": 6587,
      "▁gozden": 6588,
      "▁partiler": 6589,
      "▁sabır": 6590,
      "##luk": 6591,
      "▁tahmininde": 6592,
      "▁saatlerini": 6593,
      "▁vade": 6594,
      "▁basladıgını": 6595,
      "▁biriktir": 6596,
      "▁uzerinden": 6597,
      "▁0": 6598,
      "▁seyinden": 6599,
      "##mızı": 6600,
      "▁gırt": 6601,
      "▁sorunun": 6602,
      "▁altını": 6603,
      "##hane": 6604,
      "▁bakimsizdi": 6605,
      "▁elinizde": 6606,
      "▁olaganustu": 6607,
      "▁adamın": 6608,
      "▁gecik": 6609,
      "▁hucr": 6610,
      "▁gide": 6611,
      "▁refah": 6612,
      "▁sozcugu": 6613,
      "##dası": 6614,
      "▁sis": 6615,
      "▁yuruy": 6616,
      "▁yuruyordu": 6617,
      "▁oynat": 6618,
      "##lerisi": 6619,
      "▁nisp": 6620,
      "##lasyon": 6621,
      "▁katilmadim": 6622,
      "▁kr": 6623,
      "▁misafirimiz": 6624,
      "▁iyiye": 6625,
      "▁mev": 6626,
      "▁hade": 6627,
      "▁dolar": 6628,
      "▁meyv": 6629,
      "▁odalarda": 6630,
      "▁insanlarla": 6631,
      "▁cekici": 6632,
      "##iyet": 6633,
      "▁gozleri": 6634,
      "##nuz": 6635,
      "▁konusunu": 6636,
      "▁tehdidini": 6637,
      "▁basbakanlık": 6638,
      "▁tatlilar": 6639,
      "▁con": 6640,
      "▁idare": 6641,
      "▁temizleme": 6642,
      "▁tarafın": 6643,
      "▁cıkar": 6644,
      "▁donemlerinde": 6645,
      "▁edelim": 6646,
      "▁imkan": 6647,
      "▁dislerini": 6648,
      "▁sebepleri": 6649,
      "▁'li": 6650,
      "▁devleti": 6651,
      "▁hırsızlar": 6652,
      "##pan": 6653,
      "▁sorunlar": 6654,
      "▁konf": 6655,
      "▁vasatti": 6656,
      "▁kalitesine": 6657,
      "▁tam": 6658,
      "▁dokundu": 6659,
      "##(": 6660,
      "##lanan": 6661,
      "▁daima": 6662,
      "▁franchise": 6663,
      "##cak": 6664,
      "▁kullanmayı": 6665,
      "▁saf": 6666,
      "▁kadına": 6667,
      "▁bekcisi": 6668,
      "##digi": 6669,
      "▁ehemm": 6670,
      "##ortu": 6671,
      "▁hastaları": 6672,
      "▁american": 6673,
      "▁uyelerinin": 6674,
      "▁muf": 6675,
      "##ıltı": 6676,
      "##imizden": 6677,
      "'": 6678,
      "##esindeki": 6679,
      "##bir": 6680,
      "▁eylul": 6681,
      "▁yang": 6682,
      "▁vatandaslar": 6683,
      "▁daya": 6684,
      "##ahh": 6685,
      "▁hangisi": 6686,
      "▁dib": 6687,
      "▁ciddiyet": 6688,
      "▁anlasmaya": 6689,
      "▁etmisler": 6690,
      "##tıgımı": 6691,
      "▁parlak": 6692,
      "▁73": 6693,
      "▁likidit": 6694,
      "▁pasif": 6695,
      "▁pantol": 6696,
      "▁cebinde": 6697,
      "▁nor": 6698,
      "▁yasıyor": 6699,
      "▁oncesi": 6700,
      "▁casusluk": 6701,
      "▁girisimleri": 6702,
      "▁mevz": 6703,
      "▁girisimde": 6704,
      "▁yedi": 6705,
      "▁neticesinde": 6706,
      "▁ahen": 6707,
      "▁kirec": 6708,
      "▁ustune": 6709,
      "▁tanıs": 6710,
      "##acagız": 6711,
      "▁tahkim": 6712,
      "▁nevi": 6713,
      "▁bagdas": 6714,
      "▁hesabı": 6715,
      "▁renklerde": 6716,
      "▁odalardan": 6717,
      "▁ciftlikleri": 6718,
      "##mıyorum": 6719,
      "▁aslına": 6720,
      "▁=": 6721,
      "▁yig": 6722,
      "▁kil": 6723,
      "##sız": 6724,
      "##'ın": 6725,
      "▁sozcusu": 6726,
      "▁hızlıca": 6727,
      "▁katı": 6728,
      "##00'": 6729,
      "▁istifa": 6730,
      "▁masalı": 6731,
      "##elerce": 6732,
      "▁riskini": 6733,
      "▁iceriden": 6734,
      "▁secimde": 6735,
      "▁satıslarının": 6736,
      "##lıgından": 6737,
      "▁yasadık": 6738,
      "▁referans": 6739,
      "##seksen": 6740,
      "▁war": 6741,
      "▁iktid": 6742,
      "▁bahsetti": 6743,
      "▁sayı": 6744,
      "▁eldiv": 6745,
      "▁siir": 6746,
      "▁yonu": 6747,
      "▁viraj": 6748,
      "▁acıklamada": 6749,
      "▁beklenti": 6750,
      "##z": 6751,
      "▁dilim": 6752,
      "▁ual": 6753,
      "▁birahan": 6754,
      "▁kalma": 6755,
      "▁onum": 6756,
      "▁500": 6757,
      "▁elbet": 6758,
      "▁25": 6759,
      "##misti": 6760,
      "▁odulu": 6761,
      "##ate": 6762,
      "▁arkada": 6763,
      "▁sohret": 6764,
      "▁yeryuzunun": 6765,
      "▁gozlemcileri": 6766,
      "▁1/2": 6767,
      "▁olanı": 6768,
      "▁avukatı": 6769,
      "##ogretim": 6770,
      "▁tarihinden": 6771,
      "▁val": 6772,
      "▁calismas": 6773,
      "▁rehberim": 6774,
      "▁tahvillerin": 6775,
      "▁pasta": 6776,
      "##ee": 6777,
      "▁devletin": 6778,
      "▁hattı": 6779,
      "##lın": 6780,
      "##ımızdan": 6781,
      "▁bask": 6782,
      "▁kasım": 6783,
      "▁un": 6784,
      "▁pantolon": 6785,
      "##'den": 6786,
      "##ın": 6787,
      "##phia": 6788,
      "▁sınıfa": 6789,
      "▁bucak": 6790,
      "##ekler": 6791,
      "##ıda": 6792,
      "▁diy": 6793,
      "▁cıkardı": 6794,
      "▁mektupta": 6795,
      "▁yaratmaya": 6796,
      "▁rakı": 6797,
      "▁tesaduf": 6798,
      "##umuzu": 6799,
      "▁sikintilardan": 6800,
      "##larını": 6801,
      "##lac": 6802,
      "▁kade": 6803,
      "▁mahs": 6804,
      "▁kapasitesine": 6805,
      "▁karsımda": 6806,
      "▁montreal": 6807,
      "##andan": 6808,
      "##dinden": 6809,
      "##ılıyor": 6810,
      "▁ga": 6811,
      "▁yukarıda": 6812,
      "▁olcekli": 6813,
      "▁suc": 6814,
      "▁hicbirine": 6815,
      "▁ısıgını": 6816,
      "▁yarad": 6817,
      "##b.": 6818,
      "▁yukselt": 6819,
      "▁donmus": 6820,
      "▁sektorde": 6821,
      "▁uslup": 6822,
      "▁halkla": 6823,
      "▁mesgul": 6824,
      "▁sesiyle": 6825,
      "##.12": 6826,
      "▁olmasa": 6827,
      "▁gavur": 6828,
      "▁karsın": 6829,
      "▁guleryuzlulerdi": 6830,
      "▁konforlu": 6831,
      "▁sehre": 6832,
      "▁mustesar": 6833,
      "##lanmadı": 6834,
      "##ess": 6835,
      "▁9": 6836,
      "▁80": 6837,
      "▁tırman": 6838,
      "▁kadıncagız": 6839,
      "▁iyilik": 6840,
      "▁kerv": 6841,
      "▁sayisi": 6842,
      "##onel": 6843,
      "▁rich": 6844,
      "##maması": 6845,
      "▁denge": 6846,
      "▁fak": 6847,
      "▁kalanlar": 6848,
      "##manız": 6849,
      "▁tesekkur": 6850,
      "##larınızı": 6851,
      "▁calısıyordu": 6852,
      "▁cunku": 6853,
      "▁gumruk": 6854,
      "▁elbiseler": 6855,
      "▁ickiye": 6856,
      "▁askerin": 6857,
      "▁tarif": 6858,
      "▁yavas": 6859,
      "▁vesik": 6860,
      "##sik": 6861,
      "▁oyunc": 6862,
      "##uverdi": 6863,
      "##askanı": 6864,
      "▁zincir": 6865,
      "▁ikinc": 6866,
      "##egim": 6867,
      "##raf": 6868,
      "##cilerle": 6869,
      "▁girmis": 6870,
      "##6'da": 6871,
      "▁oncelik": 6872,
      "▁birlestir": 6873,
      "▁yaptik": 6874,
      "▁savasa": 6875,
      "▁ihracı": 6876,
      "▁gulmeye": 6877,
      "▁eser": 6878,
      "▁oldur": 6879,
      "▁bankacılıgı": 6880,
      "▁gostermeye": 6881,
      "▁silk": 6882,
      "##iyetine": 6883,
      "▁yurt": 6884,
      "##alik": 6885,
      "▁komite": 6886,
      "##layabil": 6887,
      "##gmen": 6888,
      "▁dedem": 6889,
      "##°": 6890,
      "▁sonuna": 6891,
      "▁doldurdu": 6892,
      "▁sirketinin": 6893,
      "▁lı": 6894,
      "##danın": 6895,
      "▁kadro": 6896,
      "▁ibar": 6897,
      "▁heyeti": 6898,
      "##culer": 6899,
      "▁olasılık": 6900,
      "▁carte": 6901,
      "▁akıs": 6902,
      "##allah": 6903,
      "▁mef": 6904,
      "▁pırıl": 6905,
      "▁ekonomist": 6906,
      "▁i": 6907,
      "▁fikir": 6908,
      "▁enist": 6909,
      "▁man": 6910,
      "▁yaka": 6911,
      "▁kurtarmak": 6912,
      "▁1988'in": 6913,
      "▁alana": 6914,
      "▁kors": 6915,
      "▁degisiklikler": 6916,
      "▁7\\/8": 6917,
      "▁haket": 6918,
      "▁yas": 6919,
      "▁viski": 6920,
      "▁yag": 6921,
      "▁temmuz": 6922,
      "▁ipotek": 6923,
      "▁kazada": 6924,
      "▁adina": 6925,
      "▁istey": 6926,
      "▁lise": 6927,
      "▁degisikligi": 6928,
      "▁vatandas": 6929,
      "▁baskanlık": 6930,
      "▁izini": 6931,
      "▁grafik": 6932,
      "##mamak": 6933,
      "##alık": 6934,
      "▁3": 6935,
      "##esi'ne": 6936,
      "▁bitis": 6937,
      "▁korf": 6938,
      "▁cezve": 6939,
      "▁kasap": 6940,
      "▁notlar": 6941,
      "▁kazandım": 6942,
      "##lemeye": 6943,
      "▁vide": 6944,
      "▁animasyonu": 6945,
      "’": 6946,
      "▁ortalamasından": 6947,
      "▁kasıgı": 6948,
      "##eydi": 6949,
      "▁satmaya": 6950,
      "##islerden": 6951,
      "▁ifadeler": 6952,
      "▁hacminde": 6953,
      "##tir": 6954,
      "▁dostum": 6955,
      "##zen": 6956,
      "▁kahveci": 6957,
      "▁yarar": 6958,
      "▁pasifik": 6959,
      "▁dizi": 6960,
      "▁fis": 6961,
      "▁baz": 6962,
      "▁daglar": 6963,
      "▁market": 6964,
      "▁cekilm": 6965,
      "##amaları": 6966,
      "▁ithalatı": 6967,
      "▁sn": 6968,
      "▁saglıyor": 6969,
      "▁panjur": 6970,
      "▁mig": 6971,
      "▁mortgage": 6972,
      "##digimden": 6973,
      "▁kravat": 6974,
      "▁kasım'da": 6975,
      "▁komisyonu'nun": 6976,
      "▁jur": 6977,
      "▁artarak": 6978,
      "▁agzından": 6979,
      "▁tar": 6980,
      "▁ord": 6981,
      "▁sertif": 6982,
      "▁rakamlar": 6983,
      "▁lar": 6984,
      "▁indirimlerden": 6985,
      "▁yuksekti": 6986,
      "▁dayanısma": 6987,
      "##ılıgında": 6988,
      "▁halı": 6989,
      "▁onlarla": 6990,
      "▁edilmesi": 6991,
      "▁yemegini": 6992,
      "▁pit": 6993,
      "▁ortaokul": 6994,
      "▁alk": 6995,
      "##umdan": 6996,
      "▁illet": 6997,
      "##imizin": 6998,
      "##iyeleri": 6999,
      "▁annemin": 7000,
      "▁kalabal": 7001,
      "▁kesil": 7002,
      "▁diye": 7003,
      "▁otor": 7004,
      "▁vurguladı": 7005,
      "▁valisi": 7006,
      "▁iskeleye": 7007,
      "▁hijy": 7008,
      "▁cadır": 7009,
      "▁hamal": 7010,
      "▁diyen": 7011,
      "▁faydalan": 7012,
      "##h": 7013,
      "▁kızlarla": 7014,
      "▁fac": 7015,
      "##rin": 7016,
      "▁dikkatimi": 7017,
      "##ustugunu": 7018,
      "▁mini": 7019,
      "▁seylerle": 7020,
      "▁yetenegine": 7021,
      "▁kendinde": 7022,
      "▁edecek": 7023,
      "▁silahlarını": 7024,
      "▁erkekler": 7025,
      "▁hayata": 7026,
      "▁mesafe": 7027,
      "▁belirlen": 7028,
      "▁hayvanları": 7029,
      "▁olacaktır": 7030,
      "##aze": 7031,
      "▁toplantının": 7032,
      "▁veri": 7033,
      "▁etmiyorum": 7034,
      "▁uluslar": 7035,
      "▁plani": 7036,
      "▁yardımcıs": 7037,
      "▁gormedim": 7038,
      "▁gerekcesiyle": 7039,
      "▁tiyatroya": 7040,
      "▁capında": 7041,
      "▁kalitesinden": 7042,
      "##anın": 7043,
      "▁dovus": 7044,
      "▁del": 7045,
      "##hur": 7046,
      "▁saatleri": 7047,
      "▁mahkeme": 7048,
      "▁tesp": 7049,
      "▁magdur": 7050,
      "##br": 7051,
      "##ununun": 7052,
      "##dıgımı": 7053,
      "▁havuc": 7054,
      "▁giris": 7055,
      "▁sehrin": 7056,
      "▁hayran": 7057,
      "▁ascı": 7058,
      "##tugu": 7059,
      "▁muhaf": 7060,
      "▁kalb": 7061,
      "##nıp": 7062,
      "▁som": 7063,
      "##edildi": 7064,
      "##asının": 7065,
      "▁resim": 7066,
      "▁peynirleri": 7067,
      "▁lokasyon": 7068,
      "##gundu": 7069,
      "▁ediyordu": 7070,
      "##hiz": 7071,
      "▁kaynaklarına": 7072,
      "▁tutum": 7073,
      "▁cizgi": 7074,
      "##illi": 7075,
      "▁na": 7076,
      "##'n": 7077,
      "▁oglu": 7078,
      "▁sizinle": 7079,
      "▁ihrac": 7080,
      "▁kaba": 7081,
      "▁adinaydi": 7082,
      "▁borsa": 7083,
      "▁ehl": 7084,
      "▁duskunlugu": 7085,
      "##anet": 7086,
      "▁milyar": 7087,
      "▁olmalıdır": 7088,
      "▁pers": 7089,
      "▁gundeme": 7090,
      "▁cift-a": 7091,
      "##0": 7092,
      "▁yanına": 7093,
      "▁isimiz": 7094,
      "##ihan": 7095,
      "▁havayollarının": 7096,
      "▁yatırımları": 7097,
      "▁durumunun": 7098,
      "▁stres": 7099,
      "▁onlemek": 7100,
      "▁bileti": 7101,
      "▁hain": 7102,
      "▁mahkemede": 7103,
      "##olog": 7104,
      "▁yuzyıllar": 7105,
      "##emir": 7106,
      "▁yapılandır": 7107,
      "▁sonuca": 7108,
      "##tti": 7109,
      "▁kerp": 7110,
      "▁hususta": 7111,
      "▁bebegi": 7112,
      "▁tad": 7113,
      "##lerimizden": 7114,
      "##iyorlardi": 7115,
      "▁evlerin": 7116,
      "▁mucev": 7117,
      "▁anah": 7118,
      "##inti": 7119,
      "▁carpıs": 7120,
      "▁yakin": 7121,
      "▁adamla": 7122,
      "▁asl": 7123,
      "##lıları": 7124,
      "▁seyrediyor": 7125,
      "▁kred": 7126,
      "##u'nun": 7127,
      "▁yardımcısı": 7128,
      "▁vermez": 7129,
      "##eder": 7130,
      "▁edecekti": 7131,
      "▁ihti": 7132,
      "▁soruyu": 7133,
      "▁savcılık": 7134,
      "##aklar": 7135,
      "▁gonlum": 7136,
      "▁damlac": 7137,
      "▁iliskisini": 7138,
      "▁kendiler": 7139,
      "▁filmleri": 7140,
      "▁kasabada": 7141,
      "▁kendimde": 7142,
      "▁bakıs": 7143,
      "▁yasant": 7144,
      "▁maarif": 7145,
      "▁alac": 7146,
      "▁sermaye": 7147,
      "▁uzaklas": 7148,
      "▁sedir": 7149,
      "▁p": 7150,
      "▁egzersiz": 7151,
      "▁sefalet": 7152,
      "▁biris": 7153,
      "▁kalmad": 7154,
      "▁ebeveynler": 7155,
      "##ısında": 7156,
      "▁biletin": 7157,
      "▁problemi": 7158,
      "▁gerisinde": 7159,
      "▁kuvvetin": 7160,
      "▁unut": 7161,
      "▁yonetici": 7162,
      "▁no": 7163,
      "▁filmi": 7164,
      "▁yuva": 7165,
      "▁skandal": 7166,
      "▁yukselmesini": 7167,
      "▁geciriyor": 7168,
      "▁hasar": 7169,
      "▁merkez": 7170,
      "▁fiyat": 7171,
      "▁agrıları": 7172,
      "▁oy": 7173,
      "▁koyluler": 7174,
      "▁bozdu": 7175,
      "##.6": 7176,
      "▁yeter": 7177,
      "▁menf": 7178,
      "▁istedig": 7179,
      "▁paz": 7180,
      "▁milyarlar": 7181,
      "▁demet": 7182,
      "##iyi": 7183,
      "▁dolarlık": 7184,
      "▁baslayan": 7185,
      "##azla": 7186,
      "▁tarafına": 7187,
      "##ısı": 7188,
      "▁kenarda": 7189,
      "▁tahtası": 7190,
      "▁secenekleri": 7191,
      "▁yen": 7192,
      "##.ceyr": 7193,
      "▁olmadan": 7194,
      "▁vergiyi": 7195,
      "▁ayn": 7196,
      "##lub": 7197,
      "▁kanalı": 7198,
      "▁seylerden": 7199,
      "▁begen": 7200,
      "▁kızına": 7201,
      "##uler": 7202,
      "##bul": 7203,
      "▁acıyor": 7204,
      "▁acele": 7205,
      "▁baraj": 7206,
      "##ebe": 7207,
      "▁adına": 7208,
      "▁ars": 7209,
      "▁ekonomik": 7210,
      "▁bolumu": 7211,
      "▁teması": 7212,
      "▁usulu": 7213,
      "▁karısımı": 7214,
      "▁sekline": 7215,
      "▁colum": 7216,
      "▁ken": 7217,
      "##'lik": 7218,
      "▁yemegine": 7219,
      "▁cıkmayı": 7220,
      "▁dengesi": 7221,
      "▁pul": 7222,
      "▁baskanının": 7223,
      "▁ogrencilere": 7224,
      "▁agır": 7225,
      "▁yenilen": 7226,
      "▁teor": 7227,
      "##yla": 7228,
      "▁maske": 7229,
      "▁harc": 7230,
      "▁ekipman": 7231,
      "▁ted": 7232,
      "▁cıkarmaya": 7233,
      "▁vas": 7234,
      "▁boyut": 7235,
      "▁hanımef": 7236,
      "▁altına": 7237,
      "▁kırmız": 7238,
      "▁kırmızı": 7239,
      "▁gerc": 7240,
      "▁kom": 7241,
      "▁heyecanı": 7242,
      "▁artısla": 7243,
      "##ediy": 7244,
      "▁bıcakla": 7245,
      "▁yapmıs": 7246,
      "##zet": 7247,
      "▁halleri": 7248,
      "▁alev": 7249,
      "▁orta": 7250,
      "▁list": 7251,
      "▁kitaplarını": 7252,
      "▁cm": 7253,
      "▁sovyet": 7254,
      "##asindan": 7255,
      "▁tehlik": 7256,
      "##tıkları": 7257,
      "▁degerlerin": 7258,
      "▁numaralı": 7259,
      "##azı": 7260,
      "##orn": 7261,
      "▁dibe": 7262,
      "##do": 7263,
      "▁icecekleri": 7264,
      "▁ym": 7265,
      "▁zamanlarını": 7266,
      "▁olsa": 7267,
      "##seniz": 7268,
      "▁vapurun": 7269,
      "▁dusmanları": 7270,
      "▁edilmisti": 7271,
      "▁samar": 7272,
      "##elikle": 7273,
      "##ledik": 7274,
      "▁milletinin": 7275,
      "▁gozlerini": 7276,
      "▁koleksiyon": 7277,
      "▁sarap": 7278,
      "##antı": 7279,
      "▁kelimesi": 7280,
      "##uy": 7281,
      "##00'den": 7282,
      "##ding": 7283,
      "▁nefret": 7284,
      "▁zamanlama": 7285,
      "▁kıskanclık": 7286,
      "▁hisseden": 7287,
      "▁muhim": 7288,
      "##lanıp": 7289,
      "▁arkadasının": 7290,
      "▁satır": 7291,
      "▁philadelphia": 7292,
      "▁gidisat": 7293,
      "▁cit": 7294,
      "▁dibinden": 7295,
      "▁isbası": 7296,
      "▁yol": 7297,
      "▁kedi": 7298,
      "▁9'da": 7299,
      "##ucul": 7300,
      "##lasma": 7301,
      "▁enerj": 7302,
      "▁saglayacak": 7303,
      "##lisi": 7304,
      "▁hissettim": 7305,
      "##yle": 7306,
      "▁sermayesi": 7307,
      "▁sikintim": 7308,
      "##ifer": 7309,
      "##cilere": 7310,
      "▁transfer": 7311,
      "▁seattle": 7312,
      "▁diregi": 7313,
      "▁kuram": 7314,
      "##ati": 7315,
      "▁miami'ye": 7316,
      "▁teh": 7317,
      "▁hukumetinin": 7318,
      "▁cehennem": 7319,
      "▁gosterir": 7320,
      "▁merhal": 7321,
      "▁cikolata": 7322,
      "##i": 7323,
      "▁sorunumuz": 7324,
      "▁vir": 7325,
      "▁nizam": 7326,
      "▁emin": 7327,
      "▁kansas": 7328,
      "▁zamanında": 7329,
      "▁topları": 7330,
      "▁sapk": 7331,
      "▁tamamı": 7332,
      "##agına": 7333,
      "▁park": 7334,
      "▁tipini": 7335,
      "▁goc": 7336,
      "▁sozcu": 7337,
      "▁prote": 7338,
      "▁zat": 7339,
      "▁istasyonun": 7340,
      "▁cat": 7341,
      "▁dinler": 7342,
      "▁cerceveyi": 7343,
      "▁etkisiyle": 7344,
      "##ulması": 7345,
      "▁aracılı": 7346,
      "▁mukellef": 7347,
      "▁kuyu": 7348,
      "▁sektor": 7349,
      "▁gorevl": 7350,
      "▁kahramanlık": 7351,
      "▁fiya": 7352,
      "▁karsiligini": 7353,
      "▁kodunu": 7354,
      "▁muhafaz": 7355,
      "##urk": 7356,
      "▁desteklemek": 7357,
      "▁amerik": 7358,
      "▁tahviller": 7359,
      "▁gru": 7360,
      "▁basladıgında": 7361,
      "▁mevcuttur": 7362,
      "▁tursu": 7363,
      "▁rezervasyonu": 7364,
      "▁dakikasında": 7365,
      "▁sahipti": 7366,
      "##nem": 7367,
      "▁hisselerde": 7368,
      "▁bas": 7369,
      "▁zorlu": 7370,
      "##%": 7371,
      "▁duvarı": 7372,
      "▁kocasından": 7373,
      "▁gole": 7374,
      "▁istanbul'a": 7375,
      "##ıyor": 7376,
      "▁acıgı": 7377,
      "▁suratı": 7378,
      "▁havaalanı'ndan": 7379,
      "▁yarın": 7380,
      "▁artı": 7381,
      "▁aquaparki": 7382,
      "▁dunyasından": 7383,
      "▁hiddet": 7384,
      "##6": 7385,
      "▁siyasete": 7386,
      "##yst": 7387,
      "▁fiyatlar": 7388,
      "##asinda": 7389,
      "▁calıyor": 7390,
      "▁hatları": 7391,
      "▁islev": 7392,
      "##eyle": 7393,
      "▁gozluk": 7394,
      "▁kalkıp": 7395,
      "##ina": 7396,
      "▁artır": 7397,
      "▁ayakları": 7398,
      "▁yesil": 7399,
      "▁ust": 7400,
      "▁eglenceli": 7401,
      "▁geldim": 7402,
      "▁siirde": 7403,
      "##yacagı": 7404,
      "▁mart": 7405,
      "▁cenesine": 7406,
      "##itti": 7407,
      "▁mimarisi": 7408,
      "▁parktan": 7409,
      "▁cehalet": 7410,
      "▁bildirildi": 7411,
      "▁istanbul'da": 7412,
      "▁bayrak": 7413,
      "▁icleri": 7414,
      "##bere": 7415,
      "▁yuklen": 7416,
      "▁seylere": 7417,
      "▁tebrik": 7418,
      "##reti": 7419,
      "##lag": 7420,
      "▁piyasadan": 7421,
      "▁pom": 7422,
      "▁oglunu": 7423,
      "##ark": 7424,
      "▁tuvaletler": 7425,
      "##gage": 7426,
      "▁katkıda": 7427,
      "▁aksiy": 7428,
      "##lugu": 7429,
      "▁kurulunda": 7430,
      "▁fırc": 7431,
      "▁bula": 7432,
      "▁niteliginde": 7433,
      "▁insul": 7434,
      "##ıyı": 7435,
      "▁aileye": 7436,
      "##00000": 7437,
      "▁calısanlarının": 7438,
      "▁bereket": 7439,
      "▁kimlik": 7440,
      "▁yururluge": 7441,
      "▁yetistir": 7442,
      "##erisi": 7443,
      "##pe": 7444,
      "▁birinden": 7445,
      "##etini": 7446,
      "▁kesiti": 7447,
      "▁sanayi": 7448,
      "▁yukarı": 7449,
      "▁tartıs": 7450,
      "▁onem": 7451,
      "▁kaybına": 7452,
      "▁kıs": 7453,
      "▁dinin": 7454,
      "▁general": 7455,
      "##emizi": 7456,
      "##aldı": 7457,
      "▁cir": 7458,
      "▁80'": 7459,
      "▁etkili": 7460,
      "▁aqu": 7461,
      "##pektif": 7462,
      "▁kazancını": 7463,
      "▁basına": 7464,
      "##mezse": 7465,
      "▁55": 7466,
      "▁kararnam": 7467,
      "▁satım": 7468,
      "▁saati": 7469,
      "##unden": 7470,
      "▁kost": 7471,
      "▁hızını": 7472,
      "▁mobilyalar": 7473,
      "▁nota": 7474,
      "##emis": 7475,
      "##osyon": 7476,
      "▁erkenden": 7477,
      "▁muam": 7478,
      "▁vaziyeti": 7479,
      "▁kak": 7480,
      "▁kosulların": 7481,
      "▁firmanın": 7482,
      "▁gelen": 7483,
      "▁biyoloji": 7484,
      "▁yer": 7485,
      "▁j": 7486,
      "▁mah": 7487,
      "▁boyunda": 7488,
      "##*": 7489,
      "▁tarihine": 7490,
      "▁olmaması": 7491,
      "▁adamakıllı": 7492,
      "▁ilgisini": 7493,
      "▁ciftlik": 7494,
      "▁dusunuyordu": 7495,
      "▁etmistir": 7496,
      "▁tr": 7497,
      "▁nine": 7498,
      "▁ikibin": 7499,
      "##aliforn": 7500,
      "##uyordum": 7501,
      "##8": 7502,
      "##amıyor": 7503,
      "▁sınıfları": 7504,
      "▁staj": 7505,
      "▁kitapcı": 7506,
      "##meti": 7507,
      "▁universite": 7508,
      "▁kıy": 7509,
      "▁iliskilerin": 7510,
      "▁doktor": 7511,
      "▁tası": 7512,
      "▁baslan": 7513,
      "▁dusuyor": 7514,
      "▁amcam": 7515,
      "▁raporda": 7516,
      "▁mekana": 7517,
      "##dıkca": 7518,
      "▁57": 7519,
      "▁operator": 7520,
      "##acık": 7521,
      "▁kurum": 7522,
      "▁ogretmenim": 7523,
      "##zı": 7524,
      "▁yunus": 7525,
      "▁kardesinin": 7526,
      "▁arıyorum": 7527,
      "##dirde": 7528,
      "▁dol": 7529,
      "##.2": 7530,
      "##elerinin": 7531,
      "▁hatırım": 7532,
      "▁cıktısı": 7533,
      "▁listesini": 7534,
      "▁varsay": 7535,
      "▁alanın": 7536,
      "##emiz": 7537,
      "▁arastırmalar": 7538,
      "▁muc": 7539,
      "▁sorunlarını": 7540,
      "##ımcı": 7541,
      "▁finan": 7542,
      "▁tes": 7543,
      "▁arzusu": 7544,
      "▁go": 7545,
      "##chester": 7546,
      "▁hayatımız": 7547,
      "##ecegi": 7548,
      "▁harika": 7549,
      "▁bakıcı": 7550,
      "▁rahip": 7551,
      "▁ilgisi": 7552,
      "▁ilgisinden": 7553,
      "▁papaz": 7554,
      "▁arabadan": 7555,
      "▁donuk": 7556,
      "##ya": 7557,
      "▁gerektiriyor": 7558,
      "##ebilir": 7559,
      "▁sırrı": 7560,
      "##arken": 7561,
      "▁dey": 7562,
      "▁duyuru": 7563,
      "▁imza": 7564,
      "▁yatırımcıları": 7565,
      "▁pahalı": 7566,
      "##inizin": 7567,
      "##atist": 7568,
      "▁birlikte": 7569,
      "▁gasp": 7570,
      "▁cambaz": 7571,
      "▁metrek": 7572,
      "▁yasa": 7573,
      "▁tencereyi": 7574,
      "▁mendil": 7575,
      "##cuları": 7576,
      "▁gercege": 7577,
      "▁hin": 7578,
      "▁duydum": 7579,
      "▁secil": 7580,
      "▁bab": 7581,
      "##cut": 7582,
      "▁esnasında": 7583,
      "▁yuzunde": 7584,
      "▁kılavuz": 7585,
      "##tiklerini": 7586,
      "▁niye": 7587,
      "▁stop": 7588,
      "▁arabalar": 7589,
      "##ekti": 7590,
      "▁oranında": 7591,
      "▁dok": 7592,
      "▁yanı": 7593,
      "▁odamdan": 7594,
      "▁hata": 7595,
      "##alle": 7596,
      "▁sesinin": 7597,
      "▁yıldırım": 7598,
      "▁tasarrufu": 7599,
      "##umla": 7600,
      "##lasarak": 7601,
      "▁yaptim": 7602,
      "▁fr": 7603,
      "▁tarafını": 7604,
      "##ilerdi": 7605,
      "▁degisiklikleri": 7606,
      "▁secimler": 7607,
      "##yse": 7608,
      "▁partinin": 7609,
      "##gre": 7610,
      "▁duygusunu": 7611,
      "▁gonder": 7612,
      "##ibi": 7613,
      "##desine": 7614,
      "▁sag": 7615,
      "▁yetersizdi": 7616,
      "▁insanlardan": 7617,
      "▁calisanlardan": 7618,
      "▁baglı": 7619,
      "▁lap": 7620,
      "▁tahr": 7621,
      "##sıp": 7622,
      "▁calık": 7623,
      "▁kanunu": 7624,
      "##“": 7625,
      "▁performans": 7626,
      "▁anladım": 7627,
      "▁ulkeler": 7628,
      "▁tatildi": 7629,
      "##lekler": 7630,
      "▁tarafı": 7631,
      "▁musait": 7632,
      "##enli": 7633,
      "▁atıp": 7634,
      "▁milyonu": 7635,
      "▁dallarını": 7636,
      "▁gorunuse": 7637,
      "▁hisselerin": 7638,
      "##ilmedi": 7639,
      "▁yataktan": 7640,
      "▁isterseniz": 7641,
      "▁havale": 7642,
      "▁uygu": 7643,
      "▁kulak": 7644,
      "##p": 7645,
      "##ıgını": 7646,
      "##lamada": 7647,
      "▁vurmak": 7648,
      "▁diplomasi": 7649,
      "▁zaaf": 7650,
      "▁istemem": 7651,
      "##anti": 7652,
      "▁gozum": 7653,
      "##ikti": 7654,
      "▁tehlikesi": 7655,
      "##ota": 7656,
      "##aco": 7657,
      "▁denizasır": 7658,
      "▁derd": 7659,
      "▁hanima": 7660,
      "▁avrupa": 7661,
      "▁temettu": 7662,
      "▁pencerelere": 7663,
      "▁hulya": 7664,
      "▁degist": 7665,
      "##$": 7666,
      "▁sohbet": 7667,
      "▁duzen": 7668,
      "▁ucuna": 7669,
      "▁romant": 7670,
      "▁rakib": 7671,
      "##dıktan": 7672,
      "▁masanın": 7673,
      "##ht": 7674,
      "##inizi": 7675,
      "▁satıslarını": 7676,
      "▁toplantısı": 7677,
      "▁marat": 7678,
      "▁teminat": 7679,
      "▁cosk": 7680,
      "##tıklarını": 7681,
      "▁kaldım": 7682,
      "##ti": 7683,
      "##enik": 7684,
      "▁elemanlar": 7685,
      "▁arastırmacı": 7686,
      "▁hizmetlerinin": 7687,
      "▁telkin": 7688,
      "▁sovyetlerin": 7689,
      "▁agabeyim": 7690,
      "▁bagırdı": 7691,
      "▁internet": 7692,
      "##enleri": 7693,
      "##gum": 7694,
      "▁anlattım": 7695,
      "▁odaları": 7696,
      "▁birinci": 7697,
      "▁soze": 7698,
      "▁kapısına": 7699,
      "▁ekipleri": 7700,
      "▁ikide": 7701,
      "##tıktan": 7702,
      "##lah": 7703,
      "##tih": 7704,
      "▁tuketici": 7705,
      "##lastırıyor": 7706,
      "▁sov": 7707,
      "▁carsamba": 7708,
      "##3'te": 7709,
      "▁des": 7710,
      "▁super": 7711,
      "▁bilgisay": 7712,
      "▁gorevden": 7713,
      "##ieg": 7714,
      "▁alkol": 7715,
      "##egini": 7716,
      "▁simdiye": 7717,
      "▁senedi": 7718,
      "▁parav": 7719,
      "▁tumunu": 7720,
      "▁cob": 7721,
      "##edigi": 7722,
      "▁tuketim": 7723,
      "▁rıza": 7724,
      "##ela": 7725,
      "▁arastırmaları": 7726,
      "▁program": 7727,
      "▁talebini": 7728,
      "▁kızını": 7729,
      "▁konu": 7730,
      "▁kimse": 7731,
      "▁kadif": 7732,
      "▁silahlar": 7733,
      "##cusu": 7734,
      "##'y": 7735,
      "##amac": 7736,
      "▁tamamen": 7737,
      "▁sam": 7738,
      "▁karsılastırıldıgında": 7739,
      "▁ipucu": 7740,
      "▁kitaplara": 7741,
      "▁lacivert": 7742,
      "##ırmak": 7743,
      "▁ulkelerde": 7744,
      "▁manevra": 7745,
      "▁cevabını": 7746,
      "▁anlasma": 7747,
      "▁yazmak": 7748,
      "▁ucagını": 7749,
      "▁idrak": 7750,
      "▁erkege": 7751,
      "▁kahval": 7752,
      "▁gecelerde": 7753,
      "##olo": 7754,
      "▁demokratik": 7755,
      "##arım": 7756,
      "▁babasını": 7757,
      "##medigini": 7758,
      "▁ornek": 7759,
      "▁kupe": 7760,
      "▁oranla": 7761,
      "▁serviste": 7762,
      "▁kole": 7763,
      "##2'de": 7764,
      "##eligi": 7765,
      "▁yenden": 7766,
      "##ranc": 7767,
      "▁aqua": 7768,
      "▁kasır": 7769,
      "▁takımının": 7770,
      "▁kardesim": 7771,
      "##omosyon": 7772,
      "##ırtı": 7773,
      "▁taban": 7774,
      "▁deftere": 7775,
      "▁halini": 7776,
      "▁ates": 7777,
      "▁gosteriyordu": 7778,
      "##tere": 7779,
      "▁varan": 7780,
      "▁saclarını": 7781,
      "▁gaf": 7782,
      "▁okulu": 7783,
      "##kırı": 7784,
      "▁iliski": 7785,
      "▁gorevini": 7786,
      "▁kıvr": 7787,
      "▁sız": 7788,
      "▁bize": 7789,
      "▁hakları": 7790,
      "▁kitaplarda": 7791,
      "▁limuzin": 7792,
      "▁bozuk": 7793,
      "▁yak": 7794,
      "▁dusen": 7795,
      "▁olmasi": 7796,
      "▁babasının": 7797,
      "▁kum": 7798,
      "▁ornegin": 7799,
      "▁cih": 7800,
      "▁katildim": 7801,
      "▁sirketine": 7802,
      "▁asab": 7803,
      "##ektif": 7804,
      "▁iyi": 7805,
      "▁zararları": 7806,
      "▁tekne": 7807,
      "▁tasların": 7808,
      "▁olumlu": 7809,
      "##oza": 7810,
      "▁kosulları": 7811,
      "▁boya": 7812,
      "▁alabil": 7813,
      "##ga": 7814,
      "▁carsıya": 7815,
      "▁site": 7816,
      "▁kardesimin": 7817,
      "##imum": 7818,
      "▁yemekten": 7819,
      "▁ge": 7820,
      "##esinden": 7821,
      "▁lideri": 7822,
      "▁krizinden": 7823,
      "▁kapat": 7824,
      "▁duduk": 7825,
      "▁hepsi": 7826,
      "##mesidir": 7827,
      "▁bıc": 7828,
      "x": 7829,
      "▁maks": 7830,
      "▁mesafeyi": 7831,
      "▁phoenix'den": 7832,
      "▁indust": 7833,
      "▁yılan": 7834,
      "##cegi": 7835,
      "▁sabrı": 7836,
      "▁ustanın": 7837,
      "▁bakısta": 7838,
      "▁defterleri": 7839,
      "▁bunda": 7840,
      "▁metre": 7841,
      "▁dusmanın": 7842,
      "▁ucakları": 7843,
      "▁hemsir": 7844,
      "##osunun": 7845,
      "▁atların": 7846,
      "▁ucretlerin": 7847,
      "▁kendime": 7848,
      "##tmi": 7849,
      "▁kalemi": 7850,
      "▁bitmek": 7851,
      "▁daga": 7852,
      "##umk": 7853,
      "▁ibadet": 7854,
      "##dırıyor": 7855,
      "▁nedenini": 7856,
      "▁grupların": 7857,
      "▁analistler": 7858,
      "##stım": 7859,
      "▁seans": 7860,
      "▁artısına": 7861,
      "▁dakikada": 7862,
      "▁keresinde": 7863,
      "▁secenek": 7864,
      "▁figur": 7865,
      "▁gazetelerde": 7866,
      "▁anlamak": 7867,
      "▁eyaleti": 7868,
      "▁termin": 7869,
      "##landıgı": 7870,
      "▁klas": 7871,
      "▁dokun": 7872,
      "▁fisk": 7873,
      "▁kamp": 7874,
      "▁med": 7875,
      "▁kars": 7876,
      "▁vucudunun": 7877,
      "▁utop": 7878,
      "##ibe": 7879,
      "▁hafiflet": 7880,
      "▁bulunuyor": 7881,
      "▁hisselerini": 7882,
      "▁denizin": 7883,
      "▁planı": 7884,
      "▁sosyete": 7885,
      "##larımla": 7886,
      "▁surgun": 7887,
      "▁cezasını": 7888,
      "▁kust": 7889,
      "▁bagı": 7890,
      "▁129": 7891,
      "▁mal": 7892,
      "▁cama": 7893,
      "▁gidiyorum": 7894,
      "▁baskasının": 7895,
      "▁pahal": 7896,
      "▁tıp": 7897,
      "▁pazarına": 7898,
      "o": 7899,
      "▁boyutta": 7900,
      "▁hizmetin": 7901,
      "##amıyorum": 7902,
      "▁savunma": 7903,
      "▁egitmen": 7904,
      "##ikler": 7905,
      "▁22": 7906,
      "##osunu": 7907,
      "▁baca": 7908,
      "▁artısları": 7909,
      "▁dam": 7910,
      "▁tram": 7911,
      "▁merkezli": 7912,
      "▁dusun": 7913,
      "▁b.": 7914,
      "▁hayattan": 7915,
      "##alarımız": 7916,
      "▁kasırg": 7917,
      "##ona": 7918,
      "▁arkadaslarıyla": 7919,
      "▁tarafa": 7920,
      "▁z": 7921,
      "▁gonul": 7922,
      "▁tered": 7923,
      "▁restoranlar": 7924,
      "▁doner": 7925,
      "▁dusunuyor": 7926,
      "▁evet": 7927,
      "##mer": 7928,
      "##mis": 7929,
      "▁mustaf": 7930,
      "##siyle": 7931,
      "▁num": 7932,
      "▁kaynakları": 7933,
      "##uzluktan": 7934,
      "▁asık": 7935,
      "##vec": 7936,
      "▁hissede": 7937,
      "▁yuzeyinde": 7938,
      "▁olumune": 7939,
      "▁hızlı": 7940,
      "▁ertesi": 7941,
      "▁ulkelerin": 7942,
      "▁universit": 7943,
      "▁ihracının": 7944,
      "▁tarihinin": 7945,
      "##guluyor": 7946,
      "▁korumak": 7947,
      "▁kuması": 7948,
      "##ını": 7949,
      "▁havay": 7950,
      "▁goruslerini": 7951,
      "▁cez": 7952,
      "▁tedav": 7953,
      "▁politikaya": 7954,
      "▁birimi": 7955,
      "▁alıcı": 7956,
      "▁embriy": 7957,
      "▁me": 7958,
      "▁kazasında": 7959,
      "▁sark": 7960,
      "▁cami": 7961,
      "▁airlin": 7962,
      "▁hakkında": 7963,
      "▁etrafımda": 7964,
      "▁cevresi": 7965,
      "▁magrur": 7966,
      "##ph": 7967,
      "▁gozlerim": 7968,
      "▁opsiyonu": 7969,
      "##net": 7970,
      "▁avrupalı": 7971,
      "▁isaretler": 7972,
      "##dım": 7973,
      "▁hatirlamiyorum": 7974,
      "▁og": 7975,
      "▁geleceg": 7976,
      "▁olmakla": 7977,
      "##tiler": 7978,
      "▁semp": 7979,
      "##ndaki": 7980,
      "▁sorgu": 7981,
      "▁mor": 7982,
      "▁bulabil": 7983,
      "▁don": 7984,
      "▁26": 7985,
      "##maktadırlar": 7986,
      "▁sartları": 7987,
      "##tif": 7988,
      "##veri": 7989,
      "▁first": 7990,
      "▁teb": 7991,
      "▁cesitler": 7992,
      "▁kızı": 7993,
      "▁oncesinde": 7994,
      "##abına": 7995,
      "##kanlıgı": 7996,
      "▁dyp": 7997,
      "▁cas": 7998,
      "▁tatli": 7999,
      "▁degilsin": 8000,
      "▁yakından": 8001,
      "▁dolayı": 8002,
      "▁eroin": 8003,
      "▁atmaya": 8004,
      "##iber": 8005,
      "##layın": 8006,
      "▁isinde": 8007,
      "##alandır": 8008,
      "##mini": 8009,
      "##lileri": 8010,
      "▁degisik": 8011,
      "▁turev": 8012,
      "##ktur": 8013,
      "▁bırakır": 8014,
      "▁tuy": 8015,
      "▁tahakk": 8016,
      "▁yadigar": 8017,
      "▁dekorasyonu": 8018,
      "▁ozunde": 8019,
      "##dugumdan": 8020,
      "##lıca": 8021,
      "▁ureticisi": 8022,
      "▁riski": 8023,
      "▁yapar": 8024,
      "##etr": 8025,
      "▁bıcagı": 8026,
      "▁brit": 8027,
      "▁ci": 8028,
      "##haneye": 8029,
      "##nal": 8030,
      "##idin": 8031,
      "▁suların": 8032,
      "▁elestirmenler": 8033,
      "▁elestirmen": 8034,
      "▁olmadi": 8035,
      "##itmek": 8036,
      "▁belirtmek": 8037,
      "▁termal": 8038,
      "▁seylerin": 8039,
      "▁kızgınlık": 8040,
      "##ledigi": 8041,
      "##layınca": 8042,
      "▁34": 8043,
      "▁tasarı": 8044,
      "##adını": 8045,
      "##on": 8046,
      "▁tama": 8047,
      "##'u": 8048,
      "▁belgeleri": 8049,
      "▁bulten": 8050,
      "▁yetenekleri": 8051,
      "▁ticaretin": 8052,
      "▁etut": 8053,
      "▁kotuluk": 8054,
      "▁cekilmis": 8055,
      "▁deligi": 8056,
      "▁metni": 8057,
      "▁celiski": 8058,
      "▁traktor": 8059,
      "▁kast": 8060,
      "##alıklar": 8061,
      "▁tramvay": 8062,
      "▁tersan": 8063,
      "▁engel": 8064,
      "▁tarafta": 8065,
      "▁impar": 8066,
      "▁karsıla": 8067,
      "▁kosesinden": 8068,
      "▁kese": 8069,
      "▁hukuka": 8070,
      "▁bulundur": 8071,
      "##ıcı": 8072,
      "▁sogan": 8073,
      "▁yuvar": 8074,
      "##undur": 8075,
      "▁vardı": 8076,
      "▁heyecan": 8077,
      "##anlardan": 8078,
      "##yete": 8079,
      "▁analistlerin": 8080,
      "▁ihtilal": 8081,
      "##memize": 8082,
      "▁usul": 8083,
      "##alisyon": 8084,
      "▁dist": 8085,
      "▁if": 8086,
      "##uar": 8087,
      "▁kırıklıgına": 8088,
      "##nın": 8089,
      "▁suphe": 8090,
      "▁rengine": 8091,
      "▁soldan": 8092,
      "▁ex": 8093,
      "▁selef": 8094,
      "▁kurulunu": 8095,
      "▁yapıyı": 8096,
      "▁kahvaltisi": 8097,
      "▁programında": 8098,
      "▁ayrıntı": 8099,
      "▁havlular": 8100,
      "▁birinc": 8101,
      "▁otobus": 8102,
      "▁kur": 8103,
      "▁aksam": 8104,
      "▁tun": 8105,
      "▁kusların": 8106,
      "▁ister": 8107,
      "▁kent": 8108,
      "▁senin": 8109,
      "▁donmek": 8110,
      "▁cihan": 8111,
      "▁zey": 8112,
      "▁yapabilir": 8113,
      "▁isini": 8114,
      "##.4": 8115,
      "▁city": 8116,
      "▁bakanlıgı": 8117,
      "▁durmak": 8118,
      "▁olmadıgını": 8119,
      "▁gozlerinin": 8120,
      "▁pusul": 8121,
      "▁akım": 8122,
      "▁isleri": 8123,
      "▁birer": 8124,
      "▁kesti": 8125,
      "▁ertel": 8126,
      "##ume": 8127,
      "▁musik": 8128,
      "▁likor": 8129,
      "##unlar": 8130,
      "▁tavaf": 8131,
      "▁uzerindeki": 8132,
      "▁seviy": 8133,
      "▁olmas": 8134,
      "▁riskleri": 8135,
      "##ograf": 8136,
      "▁allah": 8137,
      "▁cekisme": 8138,
      "▁temsilcisi": 8139,
      "▁zeyt": 8140,
      "##tik": 8141,
      "▁saatte": 8142,
      "▁46": 8143,
      "##ikatur": 8144,
      "▁onarım": 8145,
      "##iste": 8146,
      "▁saatlerce": 8147,
      "▁limon": 8148,
      "▁kahkah": 8149,
      "▁titr": 8150,
      "▁degismedi": 8151,
      "##ligimin": 8152,
      "▁arkadaslarından": 8153,
      "▁planlarını": 8154,
      "▁bl": 8155,
      "▁tuccar": 8156,
      "▁dugmeleri": 8157,
      "##lilerden": 8158,
      "▁financi": 8159,
      "▁fiyatlandır": 8160,
      "▁olmak": 8161,
      "▁formul": 8162,
      "▁kılıf": 8163,
      "▁surdurdu": 8164,
      "▁kazancları": 8165,
      "##amayı": 8166,
      "▁hikay": 8167,
      "##ub": 8168,
      "##yince": 8169,
      "▁malzem": 8170,
      "▁yanında": 8171,
      "##edikleri": 8172,
      "▁hale": 8173,
      "▁tanık": 8174,
      "▁celal": 8175,
      "▁ipin": 8176,
      "##acıklar": 8177,
      "##ende": 8178,
      "▁aykırı": 8179,
      "##larini": 8180,
      "##masında": 8181,
      "▁parmaklarını": 8182,
      "▁gidil": 8183,
      "▁beyi": 8184,
      "▁ayagında": 8185,
      "##urg": 8186,
      "▁baslı": 8187,
      "▁perakendeciler": 8188,
      "##li": 8189,
      "##ast": 8190,
      "##landıgını": 8191,
      "▁w": 8192,
      "▁ard": 8193,
      "▁minnet": 8194,
      "▁carda": 8195,
      "▁rum": 8196,
      "▁kaldırmak": 8197,
      "▁terzi": 8198,
      "▁soylenti": 8199,
      "▁bende": 8200,
      "▁sefi": 8201,
      "▁sevmek": 8202,
      "▁kokuyor": 8203,
      "▁teyze": 8204,
      "##lenecek": 8205,
      "▁gum": 8206,
      "▁davada": 8207,
      "▁bisik": 8208,
      "▁kayaların": 8209,
      "▁dosyayı": 8210,
      "▁abim": 8211,
      "##iret": 8212,
      "▁huzurlu": 8213,
      "▁ortasında": 8214,
      "##lardı": 8215,
      "▁inanmak": 8216,
      "▁sekerleme": 8217,
      "▁servisi": 8218,
      "▁uretimin": 8219,
      "▁komplo": 8220,
      "▁odagı": 8221,
      "▁ureticilerinin": 8222,
      "▁boks": 8223,
      "▁nedeni": 8224,
      "▁32": 8225,
      "▁kosulu": 8226,
      "▁kredilerin": 8227,
      "▁avukatlar": 8228,
      "##rken": 8229,
      "▁izliyor": 8230,
      "##ayi": 8231,
      "▁iade": 8232,
      "▁kafasını": 8233,
      "▁hot": 8234,
      "▁hatası": 8235,
      "▁hatir": 8236,
      "▁olmasın": 8237,
      "##ellik": 8238,
      "▁numarası": 8239,
      "▁haf": 8240,
      "▁baklav": 8241,
      "▁horm": 8242,
      "▁salat": 8243,
      "▁kuraklık": 8244,
      "▁iddia": 8245,
      "▁sıkıntıları": 8246,
      "##usune": 8247,
      "▁epe": 8248,
      "▁adını": 8249,
      "##ıklıgı": 8250,
      "##lesti": 8251,
      "▁makaleye": 8252,
      "▁ralli": 8253,
      "##emeyecek": 8254,
      "##lılıgı": 8255,
      "▁politikacılar": 8256,
      "##istin": 8257,
      "▁bilegini": 8258,
      "▁cares": 8259,
      "##ladım": 8260,
      "▁satıslardan": 8261,
      "▁suyuna": 8262,
      "▁yalan": 8263,
      "▁gunlerinden": 8264,
      "▁fiili": 8265,
      "▁28": 8266,
      "▁mecliste": 8267,
      "▁sekreteri": 8268,
      "▁kisisi": 8269,
      "##lanarak": 8270,
      "▁suretle": 8271,
      "##sev": 8272,
      "▁calismasi": 8273,
      "▁nitelik": 8274,
      "▁kesmek": 8275,
      "▁tu": 8276,
      "▁lun": 8277,
      "▁yazarlık": 8278,
      "▁gogsu": 8279,
      "▁52": 8280,
      "▁cırpıda": 8281,
      "▁agızları": 8282,
      "▁keyifli": 8283,
      "▁golf": 8284,
      "▁oburune": 8285,
      "##landır": 8286,
      "##madıgını": 8287,
      "▁ustelik": 8288,
      "▁havaalanı": 8289,
      "▁yaklasık": 8290,
      "##bus": 8291,
      "##alamaya": 8292,
      "▁alamadim": 8293,
      "▁uzum": 8294,
      "▁lobi": 8295,
      "▁vez": 8296,
      "▁muesses": 8297,
      "▁yapmaları": 8298,
      "▁prens": 8299,
      "▁suclamalar": 8300,
      "##ittir": 8301,
      "▁mode": 8302,
      "▁atlanta": 8303,
      "##tmeye": 8304,
      "▁geceyi": 8305,
      "▁pahaliydi": 8306,
      "▁bankacı": 8307,
      "▁..\"": 8308,
      "▁seyleri": 8309,
      "▁iliskisi": 8310,
      "▁rusvet": 8311,
      "▁bulunan": 8312,
      "▁olmasına": 8313,
      "▁yerlere": 8314,
      "▁cocuklara": 8315,
      "▁ceyrek": 8316,
      "▁once": 8317,
      "##sek": 8318,
      "▁sevgil": 8319,
      "##tuk": 8320,
      "▁zenginlik": 8321,
      "▁kocasına": 8322,
      "▁ilgiyle": 8323,
      "##masa": 8324,
      "▁sec": 8325,
      "▁devr": 8326,
      "##na": 8327,
      "▁supurge": 8328,
      "▁elestiri": 8329,
      "##sini": 8330,
      "▁ilgis": 8331,
      "▁sahneye": 8332,
      "▁hastalıgı": 8333,
      "▁destan": 8334,
      "▁air": 8335,
      "▁sigarasını": 8336,
      "▁75": 8337,
      "##ından": 8338,
      "▁sansur": 8339,
      "▁soyleyin": 8340,
      "▁esn": 8341,
      "##asur": 8342,
      "▁imal": 8343,
      "##var": 8344,
      "▁hus": 8345,
      "##isinden": 8346,
      "##stu": 8347,
      "##ecekler": 8348,
      "▁yasam": 8349,
      "##anının": 8350,
      "▁antr": 8351,
      "▁durdur": 8352,
      "▁telesk": 8353,
      "▁asistan": 8354,
      "##51": 8355,
      "▁zor": 8356,
      "▁keskin": 8357,
      "▁um": 8358,
      "##urlar": 8359,
      "▁istedim": 8360,
      "▁sofr": 8361,
      "▁ceh": 8362,
      "▁kendi": 8363,
      "▁onur": 8364,
      "##1'e": 8365,
      "▁ediyorlardı": 8366,
      "▁ziyan": 8367,
      "▁donusu": 8368,
      "▁kolayını": 8369,
      "##lastik": 8370,
      "▁cop": 8371,
      "##gunu": 8372,
      "##izli": 8373,
      "▁kasket": 8374,
      "▁hurmet": 8375,
      "▁kandil": 8376,
      "##lıdır": 8377,
      "▁yad": 8378,
      "##giniz": 8379,
      "▁hizmetler": 8380,
      "▁mahsulu": 8381,
      "▁hızı": 8382,
      "▁ustunden": 8383,
      "▁fazlasını": 8384,
      "▁baglan": 8385,
      "▁mufett": 8386,
      "▁munak": 8387,
      "▁fikri": 8388,
      "▁red": 8389,
      "a": 8390,
      "▁mot": 8391,
      "##ot": 8392,
      "▁ugruna": 8393,
      "▁verir": 8394,
      "##lasan": 8395,
      "##ud": 8396,
      "▁siddet": 8397,
      "▁muhareb": 8398,
      "▁eyalet": 8399,
      "##eliler": 8400,
      "▁oyley": 8401,
      "▁duzenleyici": 8402,
      "▁hayatını": 8403,
      "▁konum": 8404,
      "▁kompozit": 8405,
      "##larımın": 8406,
      "▁mektep": 8407,
      "▁61": 8408,
      "▁yara": 8409,
      "##sem": 8410,
      "##ait": 8411,
      "▁terfi": 8412,
      "▁mars": 8413,
      "##ilecek": 8414,
      "▁kitapların": 8415,
      "##vil": 8416,
      "▁olacak": 8417,
      "▁iv": 8418,
      "▁t": 8419,
      "▁faydalar": 8420,
      "▁senato": 8421,
      "##melidir": 8422,
      "##sagı": 8423,
      "▁edil": 8424,
      "▁nesi": 8425,
      "▁sorumlulugunu": 8426,
      "▁tutuk": 8427,
      "##melerine": 8428,
      "▁daktilo": 8429,
      "▁uye": 8430,
      "▁degeri": 8431,
      "▁talip": 8432,
      "##ıntısı": 8433,
      "▁hakem": 8434,
      "▁yapımını": 8435,
      "▁yusuf": 8436,
      "##ligim": 8437,
      "▁planladıgını": 8438,
      "▁titizlik": 8439,
      "▁oakland'dan": 8440,
      "##ydı": 8441,
      "▁organı": 8442,
      "▁anlıslan": 8443,
      "▁balo": 8444,
      "▁ikilik": 8445,
      "▁duk": 8446,
      "▁gorusmedim": 8447,
      "##teki": 8448,
      "▁kulturune": 8449,
      "▁siyah": 8450,
      "▁hepsinden": 8451,
      "+": 8452,
      "▁kumastan": 8453,
      "▁kesilmis": 8454,
      "▁kelimeleri": 8455,
      "▁yetenegi": 8456,
      "▁poh": 8457,
      "▁alakali": 8458,
      "▁destegini": 8459,
      "▁mektup": 8460,
      "▁onumuze": 8461,
      "▁lob": 8462,
      "▁takiben": 8463,
      "##uyoruz": 8464,
      "▁bis": 8465,
      "▁gecim": 8466,
      "▁ziy": 8467,
      "▁dortyuz": 8468,
      "##telik": 8469,
      "##elin": 8470,
      "▁abla": 8471,
      "▁kims": 8472,
      "▁nefer": 8473,
      "▁temelini": 8474,
      "▁cebine": 8475,
      "##lum": 8476,
      "▁bug": 8477,
      "##raz": 8478,
      "▁param": 8479,
      "▁yarım": 8480,
      "▁hipot": 8481,
      "##oları": 8482,
      "▁bilimsel": 8483,
      "▁pes": 8484,
      "▁nufusu": 8485,
      "▁aktivit": 8486,
      "▁ulkeden": 8487,
      "▁olmus": 8488,
      "▁care": 8489,
      "▁haftalık": 8490,
      "▁tarihinde": 8491,
      "▁satı": 8492,
      "▁mazhar": 8493,
      "▁yeraltı": 8494,
      "▁sevda": 8495,
      "▁agz": 8496,
      "▁mucevher": 8497,
      "##'tan": 8498,
      "▁agab": 8499,
      "##ındık": 8500,
      "▁gozyasları": 8501,
      "▁milletin": 8502,
      "▁guven": 8503,
      "▁kapıda": 8504,
      "▁ucakların": 8505,
      "▁havalimanlarından": 8506,
      "▁fot": 8507,
      "▁hazırlık": 8508,
      "▁yasaya": 8509,
      "▁paul": 8510,
      "▁evlerine": 8511,
      "▁kaymak": 8512,
      "▁muzak": 8513,
      "##umde": 8514,
      "▁kambiy": 8515,
      "▁gorunusu": 8516,
      "▁yuzmek": 8517,
      "▁maf": 8518,
      "##umandan": 8519,
      "▁sirketlerden": 8520,
      "▁kanunun": 8521,
      "▁varlıkları": 8522,
      "##liler": 8523,
      "▁bitkiler": 8524,
      "##uc": 8525,
      "▁ilgin": 8526,
      "▁ofise": 8527,
      "▁international": 8528,
      "▁mayıs": 8529,
      "▁mekte": 8530,
      "▁endiseler": 8531,
      "▁mani": 8532,
      "▁samdan": 8533,
      "▁paket": 8534,
      "▁mahluk": 8535,
      "▁alındıgında": 8536,
      "▁ey": 8537,
      "##erk": 8538,
      "▁kamıs": 8539,
      "##leriniz": 8540,
      "▁dısında": 8541,
      "▁oturdu": 8542,
      "▁rehberi": 8543,
      "▁temizdi": 8544,
      "▁olmam": 8545,
      "▁gunah": 8546,
      "▁detay": 8547,
      "##azlık": 8548,
      "▁adamına": 8549,
      "▁fert": 8550,
      "##beye": 8551,
      "##ust": 8552,
      "▁bardak": 8553,
      "▁keb": 8554,
      "▁yurtdısına": 8555,
      "##2'ye": 8556,
      "▁oranlarına": 8557,
      "▁duzelt": 8558,
      "##maya": 8559,
      "##bon": 8560,
      "##unc": 8561,
      "▁romancı": 8562,
      "▁surat": 8563,
      "▁duzeyinde": 8564,
      "##usun": 8565,
      "##emezsiniz": 8566,
      "▁icki": 8567,
      "▁devri": 8568,
      "▁mucadelesi": 8569,
      "▁teklifleri": 8570,
      "▁karsıladı": 8571,
      "##imizda": 8572,
[...]
