{
  "version": "1.0",
  "truncation": null,
  "padding": null,
  "added_tokens": [
    {
      "id": 301,
      "content": "[MASK]",
      "single_word": false,
      "lstrip": false,
      "rstrip": false,
      "normalized": false,
      "special": true
    },
    {
      "id": 757,
      "content": "[PAD]",
      "single_word": false,
      "lstrip": false,
      "rstrip": false,
      "normalized": false,
      "special": true
    },
    {
      "id": 2214,
      "content": "[CLS]",
      "single_word": false,
      "lstrip": false,
      "rstrip": false,
      "normalized": false,
      "special": true
    },
    {
      "id": 2423,
      "content": "[UNK]",
      "single_word": false,
      "lstrip": false,
      "rstrip": false,
      "normalized": false,
      "special": true
    },
    {
      "id": 2612,
      "content": "[SEP]",
      "single_word": false,
      "lstrip": false,
      "rstrip": false,
      "normalized": false,
      "special": true
    }
  ],
  "normalizer": {
    "type": "Sequence",
    "normalizers": [
      {
        "type": "NFD"
      },
      {
        "type": "Lowercase"
      },
      {
        "type": "StripAccents"
      }
    ]
  },
  "pre_tokenizer": {
    "type": "Sequence",
    "pretokenizers": [
      {
        "type": "Metaspace",
        "replacement": "▁",
        "prepend_scheme": "always",
        "split": true
      }
    ]
  },
  "post_processor": {
    "type": "TemplateProcessing",
    "single": [
      {
        "SpecialToken": {
          "id": "[CLS]",
          "type_id": 0
        }
      },
      {
        "Sequence": {
          "id": "A",
          "type_id": 0
        }
      },
      {
        "SpecialToken": {
          "id": "[SEP]",
          "type_id": 0
        }
      }
    ],
    "pair": [
      {
        "SpecialToken": {
          "id": "[CLS]",
          "type_id": 0
        }
      },
      {
        "Sequence": {
          "id": "A",
          "type_id": 0
        }
      },
      {
        "SpecialToken": {
          "id": "[SEP]",
          "type_id": 0
        }
      },
      {
        "Sequence": {
          "id": "B",
          "type_id": 1
        }
      },
      {
        "SpecialToken": {
          "id": "[SEP]",
          "type_id": 1
        }
      }
    ],
    "special_tokens": {
      "[CLS]": {
        "id": "[CLS]",
        "ids": [
          2214
        ],
        "tokens": [
          "[CLS]"
        ]
      },
      "[SEP]": {
        "id": "[SEP]",
        "ids": [
          2612
        ],
        "tokens": [
          "[SEP]"
        ]
      }
    }
  },
  "decoder": {
    "type": "Metaspace",
    "replacement": "▁",
    "prepend_scheme": "always",
    "split": true
  },
  "model": {
    "type": "WordPiece",
    "unk_token": "[UNK]",
    "continuing_subword_prefix": "##",
    "max_input_chars_per_word": 100,
    "vocab": {
      "▁tek": 0,
      "##x": 1,
      "▁gorusuldu": 2,
      "▁son": 3,
      "##ali": 4,
      "##abilir": 5,
      "▁sigara": 6,
      "##elir": 7,
      "▁fer": 8,
      "▁yıllar": 9,
      "▁bakanı": 10,
      "▁goze": 11,
      "▁geri": 12,
      "▁istiyorum": 13,
      "##layacak": 14,
      "▁dort": 15,
      "##ılık": 16,
      "##ınlık": 17,
      "▁attı": 18,
      "▁hanimdi": 19,
      "▁sayg": 20,
      "▁ucret": 21,
      "▁hav": 22,
      "##cegini": 23,
      "▁gars": 24,
      "##tal": 25,
      "##yal": 26,
      "##tun": 27,
      "▁at": 28,
      "▁tahvilleri": 29,
      "▁analist": 30,
      "▁giriste": 31,
      "##liginin": 32,
      "▁doktor": 33,
      "▁rezerv": 34,
      "▁memur": 35,
      "▁dakik": 36,
      "##​": 37,
      "##mak": 38,
      "▁yab": 39,
      "▁akr": 40,
      "▁atlan": 41,
      "##ah": 42,
      "##kin": 43,
      "▁tez": 44,
      "▁lir": 45,
      "▁yapar": 46,
      "▁gokyuz": 47,
      "##atik": 48,
      "##ta": 49,
      "▁hicbir": 50,
      "▁3": 51,
      "##igim": 52,
      "▁bardagı": 53,
      "##adel": 54,
      "##gim": 55,
      "▁elektrik": 56,
      "▁grub": 57,
      "##ılır": 58,
      "▁ilgisi": 59,
      "▁ellerinde": 60,
      "##yacak": 61,
      "▁sık": 62,
      "▁ile": 63,
      "▁boz": 64,
      "▁roman": 65,
      "##alım": 66,
      "##gili": 67,
      "##ca": 68,
      "▁ac": 69,
      "▁fiyatı": 70,
      "▁gec": 71,
      "▁dengesi": 72,
      "▁hoc": 73,
      "##daki": 74,
      "##etr": 75,
      "##yon": 76,
      "##p": 77,
      "▁esim": 78,
      "▁zamanı": 79,
      "##ark": 80,
      "##gar": 81,
      "▁kısıt": 82,
      "##yor": 83,
      "##uslar": 84,
      "▁genc": 85,
      "▁hamam": 86,
      "▁insanın": 87,
      "##ıcak": 88,
      "▁anay": 89,
      "▁artıs": 90,
      "▁penc": 91,
      "▁yolda": 92,
      "▁ide": 93,
      "##larda": 94,
      "##evizyon": 95,
      "▁goster": 96,
      "g": 97,
      "##manın": 98,
      "▁seh": 99,
      "##be": 100,
      "▁bina": 101,
      "▁maliyet": 102,
      "▁hit": 103,
      "##tıktan": 104,
      "##manlar": 105,
      "##ez": 106,
      "##udu": 107,
      "▁ediyordu": 108,
      "▁cap": 109,
      "▁program": 110,
      "▁kagıt": 111,
      "▁isi": 112,
      "▁herkes": 113,
      "▁8'den": 114,
      "##ek": 115,
      "▁dolar": 116,
      "▁dav": 117,
      "▁kuy": 118,
      "▁mesaf": 119,
      "▁kusur": 120,
      "##mis": 121,
      "##rar": 122,
      "##ru": 123,
      "##abil": 124,
      "▁fiyati": 125,
      "▁gu": 126,
      "##lere": 127,
      "▁ucuslarının": 128,
      "##arda": 129,
      "▁digerleri": 130,
      "▁haf": 131,
      "▁baskanı": 132,
      "▁francisco": 133,
      "##sizlik": 134,
      "##anma": 135,
      "##mur": 136,
      "##aması": 137,
      "▁sis": 138,
      "▁om": 139,
      "##ket": 140,
      "▁onun": 141,
      "▁bog": 142,
      "▁ted": 143,
      "▁yanıt": 144,
      "▁elb": 145,
      "##siyon": 146,
      "▁onay": 147,
      "▁endek": 148,
      "▁kısı": 149,
      "##madı": 150,
      "▁oyuncu": 151,
      "▁ornek": 152,
      "##7": 153,
      "▁di": 154,
      "▁;": 155,
      "##kun": 156,
      "▁alama": 157,
      "*": 158,
      "▁kırık": 159,
      "▁bakanlıgı": 160,
      "▁misafir": 161,
      "##stır": 162,
      "##egi": 163,
      "##lıklar": 164,
      "##tiler": 165,
      "##ig": 166,
      "▁yılın": 167,
      "▁ulasımı": 168,
      "▁gerek": 169,
      "##dugu": 170,
      "u": 171,
      "▁toplantı": 172,
      "▁ilg": 173,
      "▁yapıyor": 174,
      "▁memnun": 175,
      "▁hapis": 176,
      "##medigini": 177,
      "##must": 178,
      "▁mul": 179,
      "▁mode": 180,
      "▁cadde": 181,
      "##aların": 182,
      "▁oy": 183,
      "▁odeme": 184,
      "▁fazl": 185,
      "##w": 186,
      "##lılık": 187,
      "▁tey": 188,
      "##hut": 189,
      "▁nokt": 190,
      "4": 191,
      "▁yok": 192,
      "▁lim": 193,
      "##ılı": 194,
      "▁yol": 195,
      "▁etme": 196,
      "▁kimi": 197,
      "▁mek": 198,
      "##iye": 199,
      "##vr": 200,
      "##unuz": 201,
      "##aki": 202,
      "▁dep": 203,
      "##imizde": 204,
      "▁tr": 205,
      "▁dek": 206,
      "▁kaliteye": 207,
      "▁etmem": 208,
      "▁kayb": 209,
      "▁dolara": 210,
      "##gah": 211,
      "▁yas": 212,
      "▁heyecan": 213,
      "▁bede": 214,
      "##detti": 215,
      "##nız": 216,
      "▁e": 217,
      "▁alım": 218,
      "▁bilet": 219,
      "▁philadel": 220,
      "##mız": 221,
      "##`": 222,
      "▁ticaret": 223,
      "▁oper": 224,
      "▁kere": 225,
      "##ab": 226,
      "▁toplam": 227,
      "▁doviz": 228,
      "▁avukat": 229,
      "##ile": 230,
      "▁dustu": 231,
      "▁york": 232,
      "▁olanakları": 233,
      "▁etki": 234,
      "##acagını": 235,
      "##alarla": 236,
      "▁delik": 237,
      "▁indirim": 238,
      "##>": 239,
      "▁altından": 240,
      "▁ha": 241,
      "▁tar": 242,
      "##agında": 243,
      "##(": 244,
      "##ent": 245,
      "##ılıg": 246,
      "▁ortak": 247,
      "▁satır": 248,
      "##erleri": 249,
      "▁ediyor": 250,
      "##lilik": 251,
      "▁lira": 252,
      "▁vardi": 253,
      "▁konus": 254,
      "▁camasır": 255,
      "▁denize": 256,
      "▁buldu": 257,
      "▁sid": 258,
      "▁cocugu": 259,
      "▁diger": 260,
      "▁sın": 261,
      "##miyor": 262,
      "##lige": 263,
      "▁ist": 264,
      "##edik": 265,
      "▁gor": 266,
      "”": 267,
      "##ib": 268,
      "▁makal": 269,
      "▁prot": 270,
      "▁altına": 271,
      "▁savas": 272,
      "##yla": 273,
      "▁i": 274,
      "##agını": 275,
      "▁yerini": 276,
      "##eyr": 277,
      "##iydi": 278,
      "##mustu": 279,
      "▁otelde": 280,
      "▁kac": 281,
      "▁fayda": 282,
      "##ver": 283,
      "▁stratej": 284,
      "▁alamadim": 285,
      "▁soyledi": 286,
      "▁isini": 287,
      "▁fiyatları": 288,
      "▁agac": 289,
      "▁bun": 290,
      "▁bon": 291,
      "##em": 292,
      "▁geyik": 293,
      "▁aylık": 294,
      "##hane": 295,
      "▁kahvaltı": 296,
      "▁girisim": 297,
      "▁olsun": 298,
      "▁olc": 299,
      "▁ucusları": 300,
      "[MASK]": 301,
      "▁kendi": 302,
      "##aları": 303,
      "##ttı": 304,
      "##sel": 305,
      "##ton": 306,
      "▁tel": 307,
      "▁karsı": 308,
      "##stu": 309,
      "##tıl": 310,
      "▁olması": 311,
      "▁lezzetleri": 312,
      "##siniz": 313,
      "##liligi": 314,
      "▁bugun": 315,
      "▁kr": 316,
      "##luydu": 317,
      "▁eve": 318,
      "▁fas": 319,
      "▁uzak": 320,
      "▁gid": 321,
      "##hu": 322,
      "▁arkadaslar": 323,
      "##he": 324,
      "##amam": 325,
      "##ında": 326,
      "▁den": 327,
      "##amet": 328,
      "▁manzarasi": 329,
      "##nak": 330,
      "▁yav": 331,
      "▁artık": 332,
      "▁alk": 333,
      "▁olarak": 334,
      "##ladı": 335,
      "▁ilgilendiler": 336,
      "##elig": 337,
      "##ldi": 338,
      "▁iletisim": 339,
      "▁satıs": 340,
      "▁acık": 341,
      "▁inan": 342,
      "▁problem": 343,
      "▁ters": 344,
      "▁gur": 345,
      "▁aileler": 346,
      "##ısının": 347,
      "▁gun": 348,
      "▁personeller": 349,
      "##os": 350,
      "▁yıldız": 351,
      "##dırım": 352,
      "▁olmadıgını": 353,
      "▁degisiklikler": 354,
      "##kan": 355,
      "##eceg": 356,
      "▁guleryuzlu": 357,
      "##masına": 358,
      "▁alısver": 359,
      "▁guzel": 360,
      "▁sen": 361,
      "##r": 362,
      "▁tatil": 363,
      "▁listele": 364,
      "##emez": 365,
      "▁burada": 366,
      "▁civarında": 367,
      "▁cins": 368,
      "##vek": 369,
      "##dıgını": 370,
      "##alarını": 371,
      "▁san": 372,
      "▁saglık": 373,
      "▁doneminde": 374,
      "▁dilim": 375,
      "▁faturam": 376,
      "▁sıra": 377,
      "##eyin": 378,
      "▁pozisyon": 379,
      "▁tartısma": 380,
      "▁yatırımcı": 381,
      "▁sahn": 382,
      "▁bekliyor": 383,
      "▁lob": 384,
      "##op": 385,
      "▁`": 386,
      "▁tedavul": 387,
      "▁gom": 388,
      "▁sak": 389,
      "▁savunma": 390,
      "▁mill": 391,
      "▁arac": 392,
      "▁kum": 393,
      "▁gecir": 394,
      "▁fran": 395,
      "▁yil": 396,
      "▁art": 397,
      "▁''": 398,
      "##ıyordu": 399,
      "##ındaki": 400,
      "##ilen": 401,
      "▁onem": 402,
      "▁etk": 403,
      "##ud": 404,
      "▁kayn": 405,
      "▁per": 406,
      "▁sahibi": 407,
      "▁beye": 408,
      "▁degerlendir": 409,
      "▁numar": 410,
      "▁gok": 411,
      "▁ala": 412,
      "##ekti": 413,
      "##larım": 414,
      "▁ise": 415,
      "▁tehdit": 416,
      "▁eline": 417,
      "##unda": 418,
      "▁iz": 419,
      "##'ya": 420,
      "##edi": 421,
      "▁darb": 422,
      "##ediye": 423,
      "▁insan": 424,
      "▁nefes": 425,
      "▁olacak": 426,
      "▁denver": 427,
      "##enler": 428,
      "##onom": 429,
      "▁gayet": 430,
      "▁yan": 431,
      "##ore": 432,
      "▁kaldim": 433,
      "▁tesvik": 434,
      "##gı": 435,
      "##amak": 436,
      "##cag": 437,
      "##leri": 438,
      "▁lis": 439,
      "▁gosterdi": 440,
      "▁depr": 441,
      "▁kut": 442,
      "▁gecti": 443,
      "▁pantol": 444,
      "▁rakip": 445,
      "##uzel": 446,
      "▁ilgi": 447,
      "▁sah": 448,
      "▁degistir": 449,
      "##ıldı": 450,
      "▁mak": 451,
      "##ize": 452,
      "##leriyle": 453,
      "▁asker": 454,
      "##mem": 455,
      "##obil": 456,
      "▁vaz": 457,
      "##ast": 458,
      "##gal": 459,
      "▁kisilik": 460,
      "▁...\"": 461,
      "▁herif": 462,
      "▁olacagını": 463,
      "▁ziyaret": 464,
      "▁bicim": 465,
      "▁gecen": 466,
      "##ad": 467,
      "▁cik": 468,
      "▁diy": 469,
      "##5": 470,
      "(": 471,
      "?": 472,
      "##or": 473,
      "▁sig": 474,
      "▁hangi": 475,
      "▁huz": 476,
      "##ne": 477,
      "▁ana": 478,
      "f": 479,
      "##iyor": 480,
      "##siye": 481,
      "▁giris": 482,
      "▁gerekiyor": 483,
      "##0": 484,
      "▁yukseldi": 485,
      "##isten": 486,
      "▁iki": 487,
      "▁talep": 488,
      "▁ihtim": 489,
      "##amın": 490,
      "##andır": 491,
      "▁ic": 492,
      "▁cozum": 493,
      "##lı": 494,
      "##gin": 495,
      "##lık": 496,
      "▁ornegin": 497,
      "▁birkac": 498,
      "▁cumartesi": 499,
      "c": 500,
      "▁kumas": 501,
      "##uye": 502,
      "▁g": 503,
      "▁ustunde": 504,
      "▁bogaz": 505,
      "▁dikkat": 506,
      "##ıgına": 507,
      "▁su": 508,
      "##uktu": 509,
      "▁tarih": 510,
      "▁direktor": 511,
      "▁vakt": 512,
      "▁odan": 513,
      "##ij": 514,
      "▁it": 515,
      "▁alan": 516,
      "▁eks": 517,
      "▁buz": 518,
      "##is": 519,
      "▁cift": 520,
      "▁seviye": 521,
      "▁ben": 522,
      "▁orta": 523,
      "▁olmad": 524,
      "▁suyu": 525,
      "▁halkı": 526,
      "##dam": 527,
      "▁du": 528,
      "▁muh": 529,
      "▁ucuyor": 530,
      "▁lik": 531,
      "▁konforu": 532,
      "▁buyume": 533,
      "▁ord": 534,
      "▁merkezine": 535,
      "##ıf": 536,
      "##5'ten": 537,
      "##mayı": 538,
      "▁yakın": 539,
      "##okr": 540,
      "▁enflasyon": 541,
      "▁tuk": 542,
      "▁uf": 543,
      "▁erk": 544,
      "##asır": 545,
      "▁durumunda": 546,
      "▁ba": 547,
      "▁devlet": 548,
      "##ıgın": 549,
      "▁beb": 550,
      "##'nda": 551,
      "▁amerik": 552,
      "▁dusunc": 553,
      "▁ucretleri": 554,
      "8": 555,
      "▁devam": 556,
      "##ens": 557,
      "▁bolge": 558,
      "▁cer": 559,
      "##ur": 560,
      "##ep": 561,
      "▁buraya": 562,
      "▁miktar": 563,
      "▁sonr": 564,
      "▁nok": 565,
      "##alarına": 566,
      "##tan": 567,
      "▁senedi": 568,
      "▁strate": 569,
      "▁araya": 570,
      "##ada": 571,
      "▁bile": 572,
      "▁ref": 573,
      "▁oldug": 574,
      "##bol": 575,
      "▁endustr": 576,
      "▁gune": 577,
      "▁cihaz": 578,
      "▁sonra": 579,
      "##tay": 580,
      "##eginde": 581,
      "▁sektor": 582,
      "##ub": 583,
      "▁basına": 584,
      "##…": 585,
      "▁elinden": 586,
      "##larımızı": 587,
      "##ag": 588,
      "##alar": 589,
      "▁dum": 590,
      "▁tay": 591,
      "##yl": 592,
      "▁za": 593,
      "▁uygun": 594,
      "▁buf": 595,
      "##endi": 596,
      "▁finans": 597,
      "▁takdir": 598,
      "▁sekret": 599,
      "▁fabrika": 600,
      "▁nedenle": 601,
      "▁po": 602,
      "▁gider": 603,
      "▁cesit": 604,
      "▁f": 605,
      "▁adina": 606,
      "▁mevzu": 607,
      "▁kulak": 608,
      "▁turk": 609,
      "▁cat": 610,
      "▁ilgilen": 611,
      "##pr": 612,
      "▁sandal": 613,
      "##lara": 614,
      "▁kampan": 615,
      "5": 616,
      "▁kodu": 617,
      "##imdi": 618,
      "▁temel": 619,
      "▁hisseye": 620,
      "##?": 621,
      "▁etmek": 622,
      "▁piyasaya": 623,
      "▁endustri": 624,
      "▁net": 625,
      "##”": 626,
      "▁bi": 627,
      "##ımız": 628,
      "▁burası": 629,
      "▁babası": 630,
      "##anda": 631,
      "##acak": 632,
      "##tir": 633,
      "▁karsıl": 634,
      "▁yuk": 635,
      "##tik": 636,
      "▁kotuydu": 637,
      "##div": 638,
      "▁ila": 639,
      "▁mark": 640,
      "##ırt": 641,
      "▁fik": 642,
      "##ıkları": 643,
      "▁yag": 644,
      "▁hikay": 645,
      "▁ruzgar": 646,
      "▁aday": 647,
      "▁suy": 648,
      "##ız": 649,
      "##eger": 650,
      "▁perde": 651,
      "▁v": 652,
      "▁kucuk": 653,
      "▁sun": 654,
      "##iklik": 655,
      "▁icme": 656,
      "▁acı": 657,
      "##ıma": 658,
      "##eleri": 659,
      "-": 660,
      "##uklu": 661,
      "##den": 662,
      "▁bakan": 663,
      "▁naz": 664,
      "▁``": 665,
      "##ucc": 666,
      "##gıc": 667,
      "##land": 668,
      "▁tepki": 669,
      "##itr": 670,
      "▁icer": 671,
      "▁hey": 672,
      "▁'": 673,
      "▁grubu": 674,
      "##cisi": 675,
      "▁piyasanın": 676,
      "##:": 677,
      "▁il": 678,
      "##d": 679,
      "▁durus": 680,
      "▁masanın": 681,
      "▁belir": 682,
      "▁icine": 683,
      "▁nokta": 684,
      "t": 685,
      "▁benim": 686,
      "▁kov": 687,
      "▁le": 688,
      "▁ol": 689,
      "▁en": 690,
      "##maz": 691,
      "##stım": 692,
      "##agı": 693,
      "▁ele": 694,
      "▁huc": 695,
      "▁makaleye": 696,
      "▁ves": 697,
      "▁kent": 698,
      "▁tahta": 699,
      "▁hukuk": 700,
      "▁gunde": 701,
      ":": 702,
      "▁pek": 703,
      "##leme": 704,
      "▁seyden": 705,
      "▁5": 706,
      "▁dunyanın": 707,
      "▁br": 708,
      "▁ocak": 709,
      "▁etrafında": 710,
      "▁ard": 711,
      "▁yolculuk": 712,
      "▁altın": 713,
      "##if": 714,
      "▁masraf": 715,
      "▁olsa": 716,
      "##eyim": 717,
      "▁karayol": 718,
      "▁kir": 719,
      "##ımın": 720,
      "▁ilet": 721,
      "▁banyo": 722,
      "▁uzun": 723,
      "▁hanimla": 724,
      "▁otobus": 725,
      "▁ikinci": 726,
      "▁bilgis": 727,
      "##idi": 728,
      "▁kucuktu": 729,
      "▁sanayi": 730,
      "▁siir": 731,
      "▁uygulama": 732,
      "##larında": 733,
      "##°": 734,
      "▁kad": 735,
      "▁ceyrek": 736,
      "▁tesis": 737,
      "##aklı": 738,
      "##rı": 739,
      "▁sp": 740,
      "▁cıkar": 741,
      "▁dukk": 742,
      "##st": 743,
      "▁arab": 744,
      "##uyu": 745,
      "▁kolt": 746,
      "##lıgın": 747,
      "##ellikle": 748,
      "▁sorun": 749,
      "##&": 750,
      "▁yon": 751,
      "▁halde": 752,
      "▁konak": 753,
      "##lar": 754,
      "##bilir": 755,
      "▁pal": 756,
      "[PAD]": 757,
      "##isi": 758,
      "▁ucusların": 759,
      "##artesi": 760,
      "▁neler": 761,
      "##kler": 762,
      "##oyu": 763,
      "##ını": 764,
      "▁kos": 765,
      "▁takip": 766,
      "##lemeye": 767,
      "▁muhend": 768,
      "##lıgı": 769,
      "##uk": 770,
      "!": 771,
      "'": 772,
      "▁ed": 773,
      "##lıyor": 774,
      "##li": 775,
      "▁pay": 776,
      "…": 777,
      "##iyi": 778,
      "##ce": 779,
      "##0'dan": 780,
      "▁ulasım": 781,
      "▁neden": 782,
      "▁ode": 783,
      "▁tarihinde": 784,
      "▁dusman": 785,
      "▁isci": 786,
      "▁": 787,
      "▁guv": 788,
      "▁gunun": 789,
      "▁alb": 790,
      "##isti": 791,
      "##mıslar": 792,
      "▁zamanlarda": 793,
      "▁nedeniyle": 794,
      "▁havaalanından": 795,
      "▁car": 796,
      "▁korku": 797,
      "▁tutun": 798,
      "▁ucretlerini": 799,
      "▁ikti": 800,
      "▁dag": 801,
      "##akat": 802,
      "##;": 803,
      "▁reh": 804,
      "▁olduk": 805,
      "##yan": 806,
      "▁istiyor": 807,
      "▁temizlik": 808,
      "▁adamları": 809,
      "##van": 810,
      "##lem": 811,
      "▁mucadele": 812,
      "▁geliri": 813,
      "##ıp": 814,
      "▁seye": 815,
      "##b": 816,
      "▁butu": 817,
      "▁.)": 818,
      "▁gercek": 819,
      "▁kadınlar": 820,
      "▁yuzyıl": 821,
      "▁bur": 822,
      "##arı": 823,
      "▁calıs": 824,
      "##cileri": 825,
      "▁bayram": 826,
      "##onel": 827,
      "##mek": 828,
      "##gıt": 829,
      "▁piyasa": 830,
      "▁hanım": 831,
      "▁saldır": 832,
      "##labilir": 833,
      "▁tem": 834,
      "▁yuzu": 835,
      "▁cumhuriyet": 836,
      "##an": 837,
      "▁doları'ndan": 838,
      "▁odam": 839,
      "▁sif": 840,
      "▁muhaf": 841,
      "##ak": 842,
      "▁hos": 843,
      "▁borc": 844,
      "##i": 845,
      "▁gunleri": 846,
      "▁sermaye": 847,
      "##cılıg": 848,
      "▁poz": 849,
      "▁bisik": 850,
      "##lemek": 851,
      "▁tahviller": 852,
      "##ikti": 853,
      "▁bıraktı": 854,
      "##ebilir": 855,
      "▁butun": 856,
      "▁huzur": 857,
      "##g": 858,
      "▁odasına": 859,
      "+": 860,
      "▁as": 861,
      "▁10'dan": 862,
      "##askanı": 863,
      "##kul": 864,
      "▁ser": 865,
      "▁cocuklara": 866,
      "▁zek": 867,
      "▁cocuklu": 868,
      "##ort": 869,
      "▁ayda": 870,
      "▁cal": 871,
      "▁ayrıca": 872,
      "▁aradi": 873,
      "▁itiraf": 874,
      "##kon": 875,
      "##elerden": 876,
      "##mer": 877,
      "##uv": 878,
      "▁bors": 879,
      "▁gorev": 880,
      "▁ab": 881,
      "▁mas": 882,
      "##isyon": 883,
      "##amı": 884,
      "▁aklı": 885,
      "▁hali": 886,
      "##m": 887,
      "▁konf": 888,
      "▁cop": 889,
      "▁anlam": 890,
      "▁dakika": 891,
      "▁eger": 892,
      "##ızı": 893,
      "▁c": 894,
      "##erv": 895,
      "##siz": 896,
      "▁dost": 897,
      "##kal": 898,
      "##arlar": 899,
      "▁hazır": 900,
      "##alama": 901,
      "▁anlamda": 902,
      "▁kav": 903,
      "▁personellerin": 904,
      "▁alıcı": 905,
      "▁iliski": 906,
      "##anının": 907,
      "▁yor": 908,
      "▁sat": 909,
      "▁ilisk": 910,
      "▁emir": 911,
      "▁tur": 912,
      "##isin": 913,
      "▁olcude": 914,
      "▁ortadan": 915,
      "##ti": 916,
      "▁sap": 917,
      "##etim": 918,
      "▁gel": 919,
      "##meye": 920,
      "▁fatur": 921,
      "▁para": 922,
      "▁ur": 923,
      "##sın": 924,
      "##igini": 925,
      "▁rahat": 926,
      "##ene": 927,
      "▁islerini": 928,
      "##mustur": 929,
      "▁sonuclar": 930,
      "▁sirk": 931,
      "▁lezz": 932,
      "##..": 933,
      "▁havaalanı": 934,
      "▁odalari": 935,
      "▁karsiligini": 936,
      "▁s": 937,
      "▁kay": 938,
      "▁or": 939,
      "▁kaldırım": 940,
      "##urg": 941,
      "▁.\"": 942,
      "▁duvar": 943,
      "▁temsil": 944,
      "##'na": 945,
      "▁ins": 946,
      "▁cak": 947,
      "▁oldugunu": 948,
      "▁ister": 949,
      "▁yuksek": 950,
      "▁dos": 951,
      "##liye": 952,
      "▁ov": 953,
      "▁av": 954,
      "▁kafa": 955,
      "▁dususle": 956,
      "##iz": 957,
      "##emli": 958,
      "▁oc": 959,
      "▁arttı": 960,
      "▁kasab": 961,
      "▁kis": 962,
      "▁tavuk": 963,
      "▁cunku": 964,
      "##asıl": 965,
      "▁kalit": 966,
      "##ug": 967,
      "▁kon": 968,
      "▁yemekler": 969,
      "▁yiyecekler": 970,
      "▁asagıda": 971,
      "##edef": 972,
      "##ikat": 973,
      "##lam": 974,
      "▁cumle": 975,
      "▁op": 976,
      "▁butce": 977,
      "▁futbol": 978,
      "▁yerinden": 979,
      "▁met": 980,
      "▁pazar": 981,
      "##esini": 982,
      "##imde": 983,
      "▁aqu": 984,
      "▁inter": 985,
      "▁meyve": 986,
      "##isco": 987,
      "##o": 988,
      "▁tucc": 989,
      "▁m": 990,
      "▁hız": 991,
      "##ern": 992,
      "##ik": 993,
      "▁ayakta": 994,
      "▁bulut": 995,
      "▁tesv": 996,
      "##alardan": 997,
      "▁dert": 998,
      "▁elektr": 999,
      "##mini": 1000,
      "▁arası": 1001,
      "▁eser": 1002,
      "▁tamam": 1003,
      "▁cih": 1004,
      "▁merdiven": 1005,
      "▁yetkili": 1006,
      "▁atlanta": 1007,
      "▁ayr": 1008,
      "▁soyluyor": 1009,
      "##ecegim": 1010,
      "##ersiz": 1011,
      "##eticiler": 1012,
      "▁dem": 1013,
      "▁duzey": 1014,
      "▁in": 1015,
      "##amaları": 1016,
      "##digini": 1017,
      "▁kıymet": 1018,
      "▁menkul": 1019,
      "▁kisi": 1020,
      "▁sacları": 1021,
      "##inc": 1022,
      "▁maz": 1023,
      "▁denver'den": 1024,
      "##dil": 1025,
      "▁olmadi": 1026,
      "▁cum": 1027,
      "▁basarı": 1028,
      "##ip": 1029,
      "▁dair": 1030,
      "▁incel": 1031,
      "##ınt": 1032,
      "▁alay": 1033,
      "##eri": 1034,
      "▁olan": 1035,
      "##ay": 1036,
      "##ni": 1037,
      "##'dan": 1038,
      "▁otom": 1039,
      "▁kultur": 1040,
      "##sim": 1041,
      "▁sırada": 1042,
      "##es": 1043,
      "##eg": 1044,
      "▁yolunu": 1045,
      "▁lu": 1046,
      "▁kazan": 1047,
      "##ht": 1048,
      "▁duk": 1049,
      "▁merak": 1050,
      "##lacak": 1051,
      "▁nes": 1052,
      "▁uzman": 1053,
      "▁piyasada": 1054,
      "▁hatta": 1055,
      "▁potansiyel": 1056,
      "##anıt": 1057,
      "▁med": 1058,
      "##areti": 1059,
      "##isinin": 1060,
      "##madan": 1061,
      "▁temmuz": 1062,
      "##izdi": 1063,
      "▁gitti": 1064,
      "▁yuv": 1065,
      "▁sirket": 1066,
      "▁edebiyat": 1067,
      "##ciler": 1068,
      "▁firma": 1069,
      "▁endise": 1070,
      "##atı": 1071,
      "▁ipotek": 1072,
      "##manı": 1073,
      "##sil": 1074,
      "##usunu": 1075,
      "▁demokr": 1076,
      "##ates": 1077,
      "▁ede": 1078,
      "▁kalmadim": 1079,
      "##'": 1080,
      "▁elinde": 1081,
      "##medim": 1082,
      "▁pittsburgh": 1083,
      "##anın": 1084,
      "▁tip": 1085,
      "▁cevre": 1086,
      "##phia": 1087,
      "##tig": 1088,
      "▁fot": 1089,
      "##ıh": 1090,
      "’": 1091,
      "▁fiyat": 1092,
      "▁sevg": 1093,
      "▁teb": 1094,
      "##len": 1095,
      "▁st": 1096,
      "▁kara": 1097,
      "##lugun": 1098,
      "▁portfoy": 1099,
      "▁bor": 1100,
      "▁sart": 1101,
      "▁es": 1102,
      "##et": 1103,
      "▁lam": 1104,
      "▁gecesi": 1105,
      "##ulmus": 1106,
      "▁soru": 1107,
      "▁yıllık": 1108,
      "▁pan": 1109,
      "▁yolcul": 1110,
      "▁sure": 1111,
      "▁cekti": 1112,
      "##elim": 1113,
      "d": 1114,
      "▁bana": 1115,
      "▁annesi": 1116,
      "▁hukum": 1117,
      "▁uye": 1118,
      "##ind": 1119,
      "##makt": 1120,
      "▁yıla": 1121,
      "▁hukumetin": 1122,
      "##ilendir": 1123,
      "▁ne": 1124,
      "▁personel": 1125,
      "##6": 1126,
      "##dikleri": 1127,
      "##dı": 1128,
      "6": 1129,
      "##ısız": 1130,
      "▁ham": 1131,
      "▁pit": 1132,
      "##makta": 1133,
      "##alan": 1134,
      "▁mekte": 1135,
      "▁birer": 1136,
      "▁salon": 1137,
      "▁konuda": 1138,
      "##likle": 1139,
      "▁acıklam": 1140,
      "▁yeni": 1141,
      "▁kagı": 1142,
      "##andan": 1143,
      "##izm": 1144,
      "##lıg": 1145,
      "▁danıs": 1146,
      "▁baska": 1147,
      "▁barda": 1148,
      "##s": 1149,
      "▁nedir": 1150,
      "▁mim": 1151,
      "##ster": 1152,
      "▁bil": 1153,
      "##larını": 1154,
      "##im": 1155,
      "##l": 1156,
      "▁isin": 1157,
      "##kur": 1158,
      "▁belirt": 1159,
      "##isinde": 1160,
      "▁kart": 1161,
      "##lek": 1162,
      "##+": 1163,
      "▁w": 1164,
      "▁sark": 1165,
      "▁cıg": 1166,
      "▁park": 1167,
      "##yi": 1168,
      "▁must": 1169,
      "▁listel": 1170,
      "##ugunu": 1171,
      "##lum": 1172,
      "▁deney": 1173,
      "##ıga": 1174,
      "▁olay": 1175,
      "##imen": 1176,
      "▁sayısı": 1177,
      "▁gen": 1178,
      "▁servisi": 1179,
      "##imden": 1180,
      "##lerdi": 1181,
      "▁bah": 1182,
      "▁katılım": 1183,
      "▁cocukları": 1184,
      "▁im": 1185,
      "##kt": 1186,
      "▁vad": 1187,
      "▁nakit": 1188,
      "##unun": 1189,
      "▁phil": 1190,
      "▁potansiy": 1191,
      "##y": 1192,
      "▁bek": 1193,
      "▁numara": 1194,
      "##ikler": 1195,
      "▁kims": 1196,
      "▁mu": 1197,
      "##digim": 1198,
      "▁tad": 1199,
      "▁birtak": 1200,
      "▁ziy": 1201,
      "##en": 1202,
      "▁beydi": 1203,
      "▁der": 1204,
      "▁eder": 1205,
      "##el": 1206,
      "▁ayn": 1207,
      "##menin": 1208,
      "▁dedi": 1209,
      "▁oner": 1210,
      "▁kend": 1211,
      "▁dava": 1212,
      "▁getir": 1213,
      "▁yapmak": 1214,
      "▁konusu": 1215,
      "##ımızın": 1216,
      "##embe": 1217,
      "##og": 1218,
      "##lugu": 1219,
      "##cısı": 1220,
      "##ayol": 1221,
      "##ır": 1222,
      "▁fikir": 1223,
      "▁yuz": 1224,
      "##erin": 1225,
      "▁cif": 1226,
      "##go": 1227,
      "▁6": 1228,
      "▁halka": 1229,
      "▁musteri": 1230,
      "##det": 1231,
      "##erk": 1232,
      "▁sozcusu": 1233,
      "‘": 1234,
      "##enleri": 1235,
      "▁azal": 1236,
      "▁yalan": 1237,
      "▁meydana": 1238,
      ";": 1239,
      "▁de": 1240,
      "▁sov": 1241,
      "##lig": 1242,
      "▁bası": 1243,
      "##maları": 1244,
      "##esinden": 1245,
      "▁harekete": 1246,
      "##od": 1247,
      "▁fiyatlarını": 1248,
      "▁dudak": 1249,
      "▁lut": 1250,
      "▁izin": 1251,
      "▁mun": 1252,
      "▁?..": 1253,
      "▁oyunc": 1254,
      "##asıyla": 1255,
      "▁oteli": 1256,
      "▁uretim": 1257,
      "##na": 1258,
      "▁farkında": 1259,
      "##iyordu": 1260,
      "##ograf": 1261,
      "##adı": 1262,
      "##sızlık": 1263,
      "▁ar": 1264,
      "▁pil": 1265,
      "▁bl": 1266,
      "▁enerji": 1267,
      "▁yurtd": 1268,
      "▁kahv": 1269,
      "##fen": 1270,
      "##kil": 1271,
      "##imi": 1272,
      "▁yaln": 1273,
      "▁duny": 1274,
      "▁edin": 1275,
      "▁$": 1276,
      "▁2": 1277,
      "##suz": 1278,
      "##ıyorlar": 1279,
      "▁$'dan": 1280,
      "##etli": 1281,
      "▁plani": 1282,
      "##us": 1283,
      "▁ec": 1284,
      "▁hasar": 1285,
      "▁buyuk": 1286,
      "##sız": 1287,
      "▁yılında": 1288,
      "##e": 1289,
      "##tıs": 1290,
      "##yalar": 1291,
      "▁bayan": 1292,
      "▁temizdi": 1293,
      "▁fr": 1294,
      "▁bugune": 1295,
      "▁esy": 1296,
      "▁ola": 1297,
      "▁ara": 1298,
      "▁vergi": 1299,
      "▁ka": 1300,
      "##anların": 1301,
      "▁makin": 1302,
      "▁yarıs": 1303,
      "▁degeri": 1304,
      "##amız": 1305,
      "▁doları'na": 1306,
      "##ts": 1307,
      "▁sir": 1308,
      "▁muzak": 1309,
      "▁bircok": 1310,
      "▁gidiyor": 1311,
      "▁yog": 1312,
      "▁iyi": 1313,
      "##oz": 1314,
      "▁beni": 1315,
      "▁sist": 1316,
      "▁hat": 1317,
      "##isleri": 1318,
      "▁(": 1319,
      "▁veril": 1320,
      "##ugun": 1321,
      "▁cicek": 1322,
      "▁ucuz": 1323,
      "▁eli": 1324,
      "▁bul": 1325,
      "##andı": 1326,
      "##ih": 1327,
      "▁iddi": 1328,
      "▁ozel": 1329,
      "▁ogrenci": 1330,
      "▁gogs": 1331,
      "▁ceb": 1332,
      "▁evi": 1333,
      "##emiyor": 1334,
      "▁agız": 1335,
      "▁bazı": 1336,
      "##adan": 1337,
      "▁ula": 1338,
      "▁odada": 1339,
      "▁bankası": 1340,
      "##diginde": 1341,
      "▁yemek": 1342,
      "▁kapının": 1343,
      "##umuz": 1344,
      "▁dogr": 1345,
      "▁kit": 1346,
      "▁hes": 1347,
      "▁yasında": 1348,
      "##ktu": 1349,
      "##at": 1350,
      "▁buy": 1351,
      "▁otelden": 1352,
      "##il": 1353,
      "##ekler": 1354,
      "▁japon": 1355,
      "##anıs": 1356,
      "##asa": 1357,
      "▁malzem": 1358,
      "▁hemen": 1359,
      "▁kamu": 1360,
      "▁otomobil": 1361,
      "▁hap": 1362,
      "▁ve": 1363,
      "▁mola": 1364,
      "▁he": 1365,
      "▁duz": 1366,
      "▁sa": 1367,
      "##ede": 1368,
      "▁kosulları": 1369,
      "▁bic": 1370,
      "▁etraf": 1371,
      "▁tasım": 1372,
      "▁bıy": 1373,
      "▁bolumu": 1374,
      "##ley": 1375,
      "##ili": 1376,
      "▁sur": 1377,
      "▁vadeli": 1378,
      "▁cin": 1379,
      "▁eskiydi": 1380,
      "##ey": 1381,
      "▁rapor": 1382,
      "##c": 1383,
      "▁sip": 1384,
      "▁dolarlık": 1385,
      "▁bizim": 1386,
      "▁gob": 1387,
      "▁u": 1388,
      "▁hizmetten": 1389,
      "▁ucreti": 1390,
      "▁sahipleri": 1391,
      "▁end": 1392,
      "—": 1393,
      "##mıs": 1394,
      "▁olanaklari": 1395,
      "▁basar": 1396,
      "##landır": 1397,
      "▁kıv": 1398,
      "▁ust": 1399,
      "##izli": 1400,
      "▁insanların": 1401,
      "▁geliyor": 1402,
      "##ması": 1403,
      "##ic": 1404,
      "p": 1405,
      "##dıg": 1406,
      "▁sefer": 1407,
      "▁ruz": 1408,
      "▁rad": 1409,
      "▁kızı": 1410,
      "▁kahvalti": 1411,
      "▁dom": 1412,
      "▁bahs": 1413,
      "i": 1414,
      "▁gitmek": 1415,
      "▁gazet": 1416,
      "▁sanat": 1417,
      "##ıl": 1418,
      "▁gidi": 1419,
      "##lugunu": 1420,
      "##enk": 1421,
      "##ların": 1422,
      "▁bay": 1423,
      "▁lid": 1424,
      "##ımıza": 1425,
      "##larına": 1426,
      "▁icin": 1427,
      "##dugunu": 1428,
      "▁oyunu": 1429,
      "▁olabilirdi": 1430,
      "##ger": 1431,
      "▁dusus": 1432,
      "▁derecede": 1433,
      "▁dar": 1434,
      "##ok": 1435,
      "▁parca": 1436,
      "▁kamyon": 1437,
      "#": 1438,
      "▁fut": 1439,
      "▁okum": 1440,
      "##ekli": 1441,
      "##1": 1442,
      "##ri": 1443,
      "▁anket": 1444,
      "▁beyin": 1445,
      "▁burn": 1446,
      "▁soy": 1447,
      "▁elbis": 1448,
      "##ırım": 1449,
      "▁serv": 1450,
      "##lerim": 1451,
      "##gum": 1452,
      "▁piyas": 1453,
      "##siy": 1454,
      "▁halinde": 1455,
      "▁parcası": 1456,
      "▁birlik": 1457,
      "##‘": 1458,
      "▁degisim": 1459,
      "##iligini": 1460,
      "▁tas": 1461,
      "▁is": 1462,
      "▁vucud": 1463,
      "▁ih": 1464,
      "▁insaat": 1465,
      "▁fabr": 1466,
      "##art": 1467,
      "##iyon": 1468,
      "▁siyas": 1469,
      "▁bilmek": 1470,
      "##larla": 1471,
      "▁masa": 1472,
      "▁esk": 1473,
      "▁saat": 1474,
      "##ısı": 1475,
      "▁gelir": 1476,
      "▁cay": 1477,
      "▁mes": 1478,
      "▁alt": 1479,
      "##lik": 1480,
      "▁bey": 1481,
      "▁dusur": 1482,
      "▁dunyaya": 1483,
      "▁olmus": 1484,
      "##irdi": 1485,
      "▁karak": 1486,
      "##nc": 1487,
      "##eyi": 1488,
      "##ıntı": 1489,
      "##malar": 1490,
      "▁pla": 1491,
      "##ers": 1492,
      "##unku": 1493,
      "▁portf": 1494,
      "▁ef": 1495,
      "▁gucu": 1496,
      "##acılık": 1497,
      "▁patlıc": 1498,
      "▁bin": 1499,
      "##lıktan": 1500,
      "##9": 1501,
      "▁fiyatlar": 1502,
      "##00'": 1503,
      "##'y": 1504,
      "▁sonucu": 1505,
      "##ork": 1506,
      ">": 1507,
      "▁organ": 1508,
      "##yum": 1509,
      "▁belki": 1510,
      "##cul": 1511,
      "▁gunden": 1512,
      "##dik": 1513,
      "▁ark": 1514,
      "##mes": 1515,
      "##mekt": 1516,
      "##iligi": 1517,
      "▁satım": 1518,
      "▁hab": 1519,
      "▁endust": 1520,
      "▁evin": 1521,
      "▁gi": 1522,
      "▁yuzune": 1523,
      "##ere": 1524,
      "▁mer": 1525,
      "▁vardı": 1526,
      "▁kalkan": 1527,
      "##est": 1528,
      "##lıkları": 1529,
      "##“": 1530,
      "▁.'": 1531,
      "▁hesap": 1532,
      "##masız": 1533,
      "##mey": 1534,
      "##tı": 1535,
      "##'in": 1536,
      "▁ort": 1537,
      "▁geriye": 1538,
      "##lerinden": 1539,
      "##emin": 1540,
      "▁port": 1541,
      "▁cumhurb": 1542,
      "▁ifade": 1543,
      "▁wash": 1544,
      "▁suru": 1545,
      "▁kısmı": 1546,
      "##emek": 1547,
      "##hur": 1548,
      "##esti": 1549,
      "▁ask": 1550,
      "##meyi": 1551,
      "##lardı": 1552,
      "##ran": 1553,
      "▁din": 1554,
      "##tırmak": 1555,
      "▁motor": 1556,
      "▁mevdu": 1557,
      "##elerde": 1558,
      "##iri": 1559,
      "▁mektu": 1560,
      "▁ta": 1561,
      "▁yaklasimi": 1562,
      "▁polit": 1563,
      "▁sınav": 1564,
      "▁elde": 1565,
      "▁gordum": 1566,
      "▁=": 1567,
      "▁olursa": 1568,
      "▁get": 1569,
      "##estir": 1570,
      "▁r": 1571,
      "##leyi": 1572,
      "▁kır": 1573,
      "▁id": 1574,
      "##lul": 1575,
      "▁yılı": 1576,
      "a": 1577,
      "▁belediye": 1578,
      "##dıgın": 1579,
      "▁tavır": 1580,
      "##'s": 1581,
      "▁..": 1582,
      "##emi": 1583,
      "▁kuv": 1584,
      "##oy": 1585,
      "##eler": 1586,
      "##irim": 1587,
      "▁vatand": 1588,
      "▁eglen": 1589,
      "▁fa": 1590,
      "▁universite": 1591,
      "▁kazanc": 1592,
      "▁yılda": 1593,
      "▁iy": 1594,
      "##des": 1595,
      "▁milyondan": 1596,
      "▁suk": 1597,
      "▁kan": 1598,
      "▁yatırım": 1599,
      "▁begen": 1600,
      "▁olma": 1601,
      "▁ir": 1602,
      "▁paranın": 1603,
      "##alık": 1604,
      "▁kam": 1605,
      "▁prof": 1606,
      "▁teklif": 1607,
      "▁arada": 1608,
      "▁oranları": 1609,
      "##lerinde": 1610,
      "##masından": 1611,
      "▁koy": 1612,
      "▁kaf": 1613,
      "▁gozleri": 1614,
      "▁havaal": 1615,
      "▁toh": 1616,
      "▁detay": 1617,
      "##'nde": 1618,
      "▁kitap": 1619,
      "▁guler": 1620,
      "▁indir": 1621,
      "▁ail": 1622,
      "##eyh": 1623,
      "▁cars": 1624,
      "##ıklık": 1625,
      "▁sozles": 1626,
      "##imize": 1627,
      "▁geldi": 1628,
      "▁cab": 1629,
      "▁beg": 1630,
      "▁kop": 1631,
      "##agından": 1632,
      "y": 1633,
      "▁hast": 1634,
      "##gini": 1635,
      "##akları": 1636,
      "▁unu": 1637,
      "##inci": 1638,
      "▁bugday": 1639,
      "##rne": 1640,
      "##ete": 1641,
      "▁zamanda": 1642,
      "##ımı": 1643,
      "▁sorumluluk": 1644,
      "▁ordu": 1645,
      "▁nisan": 1646,
      "##tor": 1647,
      "▁satın": 1648,
      "▁haber": 1649,
      "▁199": 1650,
      "▁lezzet": 1651,
      "▁yapım": 1652,
      "▁hayal": 1653,
      "##imizin": 1654,
      "▁duygu": 1655,
      "##ıs": 1656,
      "##ınız": 1657,
      "▁hisse": 1658,
      "##bil": 1659,
      "▁ortasında": 1660,
      "▁sec": 1661,
      "▁pencer": 1662,
      "##ol": 1663,
      "▁tahv": 1664,
      "▁misafirimiz": 1665,
      "▁prens": 1666,
      "##ont": 1667,
      "▁kuvv": 1668,
      "▁raf": 1669,
      "▁kayıt": 1670,
      "▁francisco'ya": 1671,
      "##misti": 1672,
      "▁kah": 1673,
      "▁muk": 1674,
      "▁mulk": 1675,
      "▁aj": 1676,
      "▁..\"": 1677,
      "##gun": 1678,
      "▁yumur": 1679,
      "##tansiy": 1680,
      "▁kotu": 1681,
      "▁dil": 1682,
      "##and": 1683,
      "##ık": 1684,
      "▁mucade": 1685,
      "##ırtı": 1686,
      "▁devletin": 1687,
      "▁carsaf": 1688,
      "▁edi": 1689,
      "##sur": 1690,
      "##arak": 1691,
      "▁corba": 1692,
      "▁dol": 1693,
      "##aga": 1694,
      "▁istemiyorum": 1695,
      "##ume": 1696,
      "##'ın": 1697,
      "▁guzeldi": 1698,
      "▁kararı": 1699,
      "▁itibariyle": 1700,
      "##aca": 1701,
      "##ba": 1702,
      "▁kapsam": 1703,
      "▁anlasma": 1704,
      "##eyen": 1705,
      "▁adamın": 1706,
      "▁sadece": 1707,
      "##mesini": 1708,
      "▁olmaya": 1709,
      "▁yahut": 1710,
      "▁boston'dan": 1711,
      "▁itiraz": 1712,
      "##estiri": 1713,
      "##sef": 1714,
      "▁edeb": 1715,
      "▁politika": 1716,
      "▁gayr": 1717,
      "▁gordu": 1718,
      "▁cek": 1719,
      "▁istem": 1720,
      "▁cogu": 1721,
      "▁cocukların": 1722,
      "##urt": 1723,
      "▁iste": 1724,
      "▁darbe": 1725,
      "##uz": 1726,
      "##in": 1727,
      "▁asagı": 1728,
      ".": 1729,
      "▁rakamlar": 1730,
      "▁istihdam": 1731,
      "▁cev": 1732,
      "▁sim": 1733,
      "▁gum": 1734,
      "▁sermay": 1735,
      "##san": 1736,
      "##al": 1737,
      "2": 1738,
      "##ane": 1739,
      "##n": 1740,
      "▁re": 1741,
      "▁te": 1742,
      "##um": 1743,
      "##undan": 1744,
      "▁alır": 1745,
      "▁kaldır": 1746,
      "▁tercih": 1747,
      "▁icra": 1748,
      "##aj": 1749,
      "##gil": 1750,
      "##rt": 1751,
      "▁seviyesine": 1752,
      "▁gozu": 1753,
      "▁risk": 1754,
      "▁olum": 1755,
      "##landı": 1756,
      "##ash": 1757,
      "▁hedef": 1758,
      "##lestir": 1759,
      "▁yonetici": 1760,
      "##indan": 1761,
      "▁tab": 1762,
      "▁lez": 1763,
      "##acı": 1764,
      "▁akt": 1765,
      "▁peyn": 1766,
      "##f": 1767,
      "##allas": 1768,
      "##lanıyor": 1769,
      "##ola": 1770,
      "▁olcu": 1771,
      "▁nam": 1772,
      "▁faz": 1773,
      "▁hizmetinden": 1774,
      "▁ok": 1775,
      "▁kalem": 1776,
      "##de": 1777,
      "▁onlar": 1778,
      "##bak": 1779,
      "▁arastır": 1780,
      "▁zaf": 1781,
      "▁istih": 1782,
      "▁franc": 1783,
      "▁komisyonu": 1784,
      "▁gayrimen": 1785,
      "##burg": 1786,
      "▁univers": 1787,
      "##isim": 1788,
      "▁adet": 1789,
      "▁ekm": 1790,
      "▁tren": 1791,
      "▁sal": 1792,
      "▁yemeklerde": 1793,
      "▁paran": 1794,
      "▁iyiydi": 1795,
      "▁don": 1796,
      "▁kavram": 1797,
      "▁makine": 1798,
      "▁ko": 1799,
      "##kat": 1800,
      "##anti": 1801,
      "▁dun": 1802,
      "▁gaz": 1803,
      "##istel": 1804,
      "▁hukumeti": 1805,
      "##lerden": 1806,
      "##ans": 1807,
      "▁ticarette": 1808,
      "▁beklenti": 1809,
      "▁bar": 1810,
      "▁performans": 1811,
      "##'ten": 1812,
      "##ise": 1813,
      "##5'": 1814,
      "▁katil": 1815,
      "▁yaz": 1816,
      "▁nef": 1817,
      "▁genel": 1818,
      "▁ısık": 1819,
      "##dek": 1820,
      "▁tahvil": 1821,
      "▁buyum": 1822,
      "▁ogleden": 1823,
      "##alarda": 1824,
      "##mı": 1825,
      "▁8": 1826,
      "▁mart": 1827,
      "##lav": 1828,
      "##ları": 1829,
      "##re": 1830,
      "▁hay": 1831,
      "▁kalitesi": 1832,
      "▁ayında": 1833,
      "▁philadelphia": 1834,
      "##'un": 1835,
      "▁ofk": 1836,
      "▁herhangi": 1837,
      "▁milyardan": 1838,
      "▁\"": 1839,
      "▁a": 1840,
      "##etici": 1841,
      "▁oz": 1842,
      "▁bat": 1843,
      "▁kayıp": 1844,
      "▁yana": 1845,
      "##let": 1846,
      "##ama": 1847,
      "##lamak": 1848,
      "▁parayı": 1849,
      "▁olm": 1850,
      "##uga": 1851,
      "##diye": 1852,
      "##eyn": 1853,
      "▁istifa": 1854,
      "▁durumda": 1855,
      "##luga": 1856,
      "▁katkıda": 1857,
      "▁avuk": 1858,
      "##inlik": 1859,
      "j": 1860,
      "▁birtakım": 1861,
      "▁calisanlar": 1862,
      "##gi": 1863,
      "▁engel": 1864,
      "▁taz": 1865,
      "l": 1866,
      "##ogram": 1867,
      "##dık": 1868,
      "▁elleri": 1869,
      "▁gey": 1870,
      "▁odaya": 1871,
      "▁diz": 1872,
      "##lari": 1873,
      "##lerini": 1874,
      "▁aktarmasız": 1875,
      "▁gelen": 1876,
      "▁sınıfı": 1877,
      "▁insana": 1878,
      "▁ev": 1879,
      "▁do": 1880,
      "▁bank": 1881,
      "▁gerektigini": 1882,
      "##ari": 1883,
      "▁yak": 1884,
      "▁animasyon": 1885,
      "▁dunyada": 1886,
      "##aydi": 1887,
      "▁ogrenmek": 1888,
      "##onra": 1889,
      "ı": 1890,
      "##uf": 1891,
      "▁kot": 1892,
      "▁gosterin": 1893,
      "▁vat": 1894,
      "▁veririm": 1895,
      "▁siy": 1896,
      "##eket": 1897,
      "##lanır": 1898,
      "▁aleyh": 1899,
      "##tiv": 1900,
      "##ımda": 1901,
      "▁yemeklerinden": 1902,
      "▁ten": 1903,
      "▁alıs": 1904,
      "▁endeksi": 1905,
      "##ucu": 1906,
      "▁fiyata": 1907,
      "##ından": 1908,
      "▁mezar": 1909,
      "▁adamı": 1910,
      "▁ek": 1911,
      "▁basbak": 1912,
      "▁rekabet": 1913,
      "##erh": 1914,
      "##ska": 1915,
      "▁hissesi": 1916,
      "##ele": 1917,
      "▁sistemi": 1918,
      "▁sona": 1919,
      "▁hayat": 1920,
      "##edir": 1921,
      "##*": 1922,
      "▁duzen": 1923,
      "▁hizmetleri": 1924,
      "##aba": 1925,
      "▁ker": 1926,
      "##lk": 1927,
      "##erlik": 1928,
      "▁anim": 1929,
      "##dir": 1930,
      "##mus": 1931,
      "##lanı": 1932,
      "##lerle": 1933,
      "▁tep": 1934,
      "▁adam": 1935,
      "##atlar": 1936,
      "▁otob": 1937,
      "▁ozgur": 1938,
      "▁rezervasyon": 1939,
      "▁karn": 1940,
      "▁agz": 1941,
      "▁kaldı": 1942,
      "##umuzde": 1943,
      "##maya": 1944,
      "▁nedeni": 1945,
      "▁tav": 1946,
      "▁yetkilileri": 1947,
      "▁sozcu": 1948,
      "▁yardimci": 1949,
      "▁kaz": 1950,
      "▁elestiri": 1951,
      "▁baltimore": 1952,
      "▁sebeb": 1953,
      "##digi": 1954,
      "▁ortaya": 1955,
      "▁borsa": 1956,
      "▁clas": 1957,
      "▁send": 1958,
      "##zet": 1959,
      "##unu": 1960,
      "▁yapmayı": 1961,
      "##atır": 1962,
      "▁surec": 1963,
      "▁dog": 1964,
      "▁yetk": 1965,
      "##lerde": 1966,
      "▁sar": 1967,
      "##erken": 1968,
      "▁gol": 1969,
      "▁hacim": 1970,
      "▁gunah": 1971,
      "▁seyleri": 1972,
      "▁inc": 1973,
      "##tif": 1974,
      "▁gr": 1975,
      "▁mah": 1976,
      "##eci": 1977,
      "▁ihr": 1978,
      "▁rak": 1979,
      "▁banka": 1980,
      "##gın": 1981,
      "▁kup": 1982,
      "▁limon": 1983,
      "##iden": 1984,
      "▁kız": 1985,
      "##as": 1986,
      "▁imal": 1987,
      "▁bu": 1988,
      "##ruf": 1989,
      "▁nit": 1990,
      "▁ikram": 1991,
      "##mayan": 1992,
      "_": 1993,
      "##min": 1994,
      "##isinden": 1995,
      "▁imkanlar": 1996,
      "▁karsılık": 1997,
      "▁bicimde": 1998,
      "▁gos": 1999,
      "▁artısla": 2000,
      "##lay": 2001,
      "▁ederim": 2002,
      "▁rezervasyonu": 2003,
      "##abet": 2004,
      "▁hayatı": 2005,
      "▁gercekl": 2006,
      "▁cir": 2007,
      "▁kıymetler": 2008,
      "▁anlattı": 2009,
      "▁hac": 2010,
      "▁oteldi": 2011,
      "▁kab": 2012,
      "▁hayvan": 2013,
      "##attı": 2014,
      "▁uyku": 2015,
      "##atif": 2016,
      "▁isleri": 2017,
      "##ime": 2018,
      "▁j": 2019,
      "▁misaf": 2020,
      "##ıda": 2021,
      "▁istasyon": 2022,
      "▁dev": 2023,
      "##ının": 2024,
      "▁basında": 2025,
      "▁deniz": 2026,
      "▁egit": 2027,
      "▁mahkem": 2028,
      "▁yıld": 2029,
      "▁dov": 2030,
      "##dug": 2031,
      "▁icecekler": 2032,
      "▁arkadas": 2033,
      "##eki": 2034,
      "▁!": 2035,
      "▁bak": 2036,
      "▁kıl": 2037,
      "▁gunduz": 2038,
      "▁uzerine": 2039,
      "▁kampanyalar": 2040,
      "##ekl": 2041,
      "▁yanl": 2042,
      "▁uyum": 2043,
      "▁iflas": 2044,
      "▁kus": 2045,
      "##ilm": 2046,
      "▁of": 2047,
      "##abilecegini": 2048,
      "##masın": 2049,
      "##unc": 2050,
      "▁cam": 2051,
      "▁arkasından": 2052,
      "▁az": 2053,
      "▁ikisi": 2054,
      "▁calısma": 2055,
      "▁nedenlerden": 2056,
      "▁seyi": 2057,
      "▁kul": 2058,
      "x": 2059,
      "##ısını": 2060,
      "▁paket": 2061,
      "▁takım": 2062,
      "##gunu": 2063,
      "▁alak": 2064,
      "▁pazartesi": 2065,
      "▁sorunu": 2066,
      "##cının": 2067,
      "v": 2068,
      "##imore": 2069,
      "▁ap": 2070,
      "▁yandan": 2071,
      "▁senetleri": 2072,
      "▁insanları": 2073,
      "##adem": 2074,
      "▁oldugu": 2075,
      "▁cumhur": 2076,
      "▁kimse": 2077,
      "▁yanında": 2078,
      "▁yolu": 2079,
      "##ıcılar": 2080,
      "▁sog": 2081,
      "▁haz": 2082,
      "##dıgı": 2083,
      "▁oda": 2084,
      "##stı": 2085,
      "##lasyon": 2086,
      "##ade": 2087,
      "▁dergi": 2088,
      "▁saatlerinde": 2089,
      "##ladım": 2090,
      "▁dans": 2091,
      "▁inanc": 2092,
      "##ut": 2093,
      "##ibar": 2094,
      "▁sını": 2095,
      "▁tesisti": 2096,
      "▁cık": 2097,
      "##ide": 2098,
      "##uyle": 2099,
      "▁caba": 2100,
      "▁ardından": 2101,
      "▁tarla": 2102,
      "##gu": 2103,
      "▁cok": 2104,
      "##imin": 2105,
      "##all": 2106,
      "##larından": 2107,
      "▁moda": 2108,
      "▁dig": 2109,
      "▁teh": 2110,
      "▁kim": 2111,
      "▁sevk": 2112,
      "▁ad": 2113,
      "▁yard": 2114,
      "##ılıgı": 2115,
      "##suzluk": 2116,
      "##oj": 2117,
      "▁.": 2118,
      "▁baslan": 2119,
      "##etic": 2120,
      "▁dalg": 2121,
      "▁$'a": 2122,
      "▁ici": 2123,
      "m": 2124,
      "##ledi": 2125,
      "▁sohbet": 2126,
      "##emiz": 2127,
      "##eldi": 2128,
      "▁bagım": 2129,
      "##layan": 2130,
      "##yuz": 2131,
      "▁zincir": 2132,
      "▁uretimi": 2133,
      "##8": 2134,
      "q": 2135,
      "▁dekor": 2136,
      "▁sınır": 2137,
      "###": 2138,
      "##izasyon": 2139,
      "▁l": 2140,
      "▁simdiye": 2141,
      "##masını": 2142,
      "▁tanı": 2143,
      "▁han": 2144,
      "▁katk": 2145,
      "##azla": 2146,
      "▁acısından": 2147,
      "##ruk": 2148,
      "▁itibar": 2149,
      "##angi": 2150,
      "▁sozc": 2151,
      "9": 2152,
      "##erek": 2153,
      "▁,": 2154,
      "##mez": 2155,
      "▁bos": 2156,
      "▁hafta": 2157,
      "▁kontr": 2158,
      "##it": 2159,
      "▁kurum": 2160,
      "▁kaynak": 2161,
      "▁taraf": 2162,
      "▁gorus": 2163,
      "##eda": 2164,
      "##ısından": 2165,
      "##of": 2166,
      "▁onceki": 2167,
      "##elli": 2168,
      "▁milyon": 2169,
      "n": 2170,
      "▁ph": 2171,
      "▁genis": 2172,
      "##tır": 2173,
      "▁kardes": 2174,
      "##lit": 2175,
      "▁gunlerde": 2176,
      "##'tan": 2177,
      "▁zorluk": 2178,
      "##larımız": 2179,
      "▁ken": 2180,
      "▁patates": 2181,
      "▁piyasası": 2182,
      "▁rekor": 2183,
      "▁kor": 2184,
      "▁ucusu": 2185,
      "▁ver": 2186,
      "▁guven": 2187,
      "▁cen": 2188,
      "##bir": 2189,
      "▁sehir": 2190,
      "▁avuc": 2191,
      "▁ama": 2192,
      "▁rom": 2193,
      "##v": 2194,
      "▁bahc": 2195,
      "▁tut": 2196,
      "##aat": 2197,
      "▁gunu": 2198,
      "▁kisiler": 2199,
      "##ecekler": 2200,
      "##leg": 2201,
      "▁taleb": 2202,
      "▁birim": 2203,
      "##ing": 2204,
      "▁edildi": 2205,
      "▁aksama": 2206,
      "▁fak": 2207,
      "##ecegine": 2208,
      "▁yum": 2209,
      "▁sav": 2210,
      "##ildi": 2211,
      "▁sorum": 2212,
      "▁oyunun": 2213,
      "[CLS]": 2214,
      "▁satıslar": 2215,
      "▁tu": 2216,
      "▁mec": 2217,
      "##dar": 2218,
      "▁niyet": 2219,
      "▁gozler": 2220,
      "##erler": 2221,
      "▁hasta": 2222,
      "1": 2223,
      "▁konumu": 2224,
      "##madik": 2225,
      "▁t": 2226,
      "▁sesi": 2227,
      "##—": 2228,
      "▁mektup": 2229,
      "▁yeri": 2230,
      "▁icecek": 2231,
      "▁nak": 2232,
      "▁giy": 2233,
      "▁ayakk": 2234,
      "▁tan": 2235,
      "▁sup": 2236,
      "▁ann": 2237,
      "▁mesel": 2238,
      "▁ithal": 2239,
      "▁oyku": 2240,
      "▁ailesi": 2241,
      "##cılar": 2242,
      "▁tane": 2243,
      "▁bol": 2244,
      "##ımızda": 2245,
      "##alarının": 2246,
      "##cak": 2247,
      "▁am": 2248,
      "##yası": 2249,
      "▁madde": 2250,
      "▁so": 2251,
      "▁hakkında": 2252,
      "▁parasını": 2253,
      "##arlan": 2254,
      "▁yet": 2255,
      "▁ip": 2256,
      "▁uzerinden": 2257,
      "▁aktivit": 2258,
      "##isiyle": 2259,
      "▁yapı": 2260,
      "▁tak": 2261,
      "▁cocugun": 2262,
      "▁bilg": 2263,
      "▁sıkınt": 2264,
      "▁ayrı": 2265,
      "%": 2266,
      "▁prob": 2267,
      "▁etti": 2268,
      "##2": 2269,
      "▁fin": 2270,
      "▁but": 2271,
      "▁kimsenin": 2272,
      "##ant": 2273,
      "##par": 2274,
      "##cıların": 2275,
      "##yuzlu": 2276,
      "##si": 2277,
      "▁ekip": 2278,
      "▁dik": 2279,
      "▁sırasında": 2280,
      "▁dugun": 2281,
      "##'nun": 2282,
      "##me": 2283,
      "##'de": 2284,
      "##ram": 2285,
      "▁ayd": 2286,
      "▁cesaret": 2287,
      "▁simdi": 2288,
      "▁sik": 2289,
      "▁muduru": 2290,
      "▁eksik": 2291,
      "▁komp": 2292,
      "##sak": 2293,
      "▁kadının": 2294,
      "▁yerler": 2295,
      "▁k": 2296,
      "▁konum": 2297,
      "▁havayolu": 2298,
      "▁sam": 2299,
      "▁dayan": 2300,
      "##unde": 2301,
      "▁bolum": 2302,
      "▁soyley": 2303,
      "##sınız": 2304,
      "▁senet": 2305,
      "▁sofr": 2306,
      "▁bildir": 2307,
      "▁#": 2308,
      "▁vapur": 2309,
      "▁ozellik": 2310,
      "▁cep": 2311,
      "▁ihal": 2312,
      "##tıgı": 2313,
      "##lıgına": 2314,
      "▁mat": 2315,
      "##ınc": 2316,
      "▁kitab": 2317,
      "▁yel": 2318,
      "▁hastalık": 2319,
      "##bet": 2320,
      "▁yardımcı": 2321,
      "▁sor": 2322,
      "▁ey": 2323,
      "▁buc": 2324,
      "▁manzar": 2325,
      "▁ekibi": 2326,
      "▁co": 2327,
      "w": 2328,
      "▁ekonomi": 2329,
      "▁soyle": 2330,
      "▁sigorta": 2331,
      "▁ger": 2332,
      "▁ruh": 2333,
      "▁yat": 2334,
      "▁dam": 2335,
      "##uma": 2336,
      "##iyorum": 2337,
      "##lastı": 2338,
      "##lastır": 2339,
      "##la": 2340,
      "##denin": 2341,
      "▁ogle": 2342,
      "##=": 2343,
      "##anı": 2344,
      "▁dolardan": 2345,
      "▁tasar": 2346,
      "▁cercev": 2347,
      "▁havalim": 2348,
      "▁yumurta": 2349,
      "▁cag": 2350,
      "▁pas": 2351,
      "▁terk": 2352,
      "▁muda": 2353,
      "▁sayf": 2354,
      "##ım": 2355,
      "▁pant": 2356,
      "▁ya": 2357,
      "▁tedav": 2358,
      "▁kayı": 2359,
      "▁arasına": 2360,
      "##ga": 2361,
      "▁kalabalık": 2362,
      "▁ren": 2363,
      "▁destek": 2364,
      "▁yanı": 2365,
      "##asına": 2366,
      "▁oglen": 2367,
      "▁tedbir": 2368,
      "##ilig": 2369,
      "##ya": 2370,
      "##meleri": 2371,
      "▁str": 2372,
      "##dal": 2373,
      "▁ucu": 2374,
      "##adar": 2375,
      "##una": 2376,
      "▁sıcak": 2377,
      "▁beyaz": 2378,
      "▁tiyatr": 2379,
      "▁sorunları": 2380,
      "##iyat": 2381,
      "▁sonuna": 2382,
      "=": 2383,
      "▁varan": 2384,
      "▁ancak": 2385,
      "▁annemin": 2386,
      "##ncak": 2387,
      "##bu": 2388,
      "▁mikr": 2389,
      "7": 2390,
      "##to": 2391,
      "▁magaz": 2392,
      "##arın": 2393,
      "▁tesp": 2394,
      "▁yal": 2395,
      "▁yo": 2396,
      "##up": 2397,
      "▁def": 2398,
      "▁al": 2399,
      "▁yagmur": 2400,
      "▁kel": 2401,
      "▁imz": 2402,
      "▁ofis": 2403,
      "▁babam": 2404,
      "▁baskı": 2405,
      "▁milletvek": 2406,
      "▁hareket": 2407,
      "▁kopek": 2408,
      "▁emeklilik": 2409,
      "▁tehlik": 2410,
      "▁ilgili": 2411,
      "##ekkur": 2412,
      "##elere": 2413,
      "▁yerinde": 2414,
      "▁boyu": 2415,
      "▁iddia": 2416,
      "##'ndan": 2417,
      "▁hakk": 2418,
      "▁cic": 2419,
      "▁felaket": 2420,
      "##4": 2421,
      "▁yasam": 2422,
      "[UNK]": 2423,
      "▁hizm": 2424,
      "##az": 2425,
      "▁er": 2426,
      "▁sorustur": 2427,
      "▁kadar": 2428,
      "##nun": 2429,
      "▁mecl": 2430,
      "▁deneme": 2431,
      "##iber": 2432,
      "▁otel": 2433,
      "##sa": 2434,
      "##ecegi": 2435,
      "▁almak": 2436,
      "▁tiyatro": 2437,
      "▁bono": 2438,
      "##ilmis": 2439,
      "##isk": 2440,
      "##onu": 2441,
      "▁cez": 2442,
      "▁cent": 2443,
      "▁alısveris": 2444,
      "▁ettigini": 2445,
      "##erli": 2446,
      "##asyon": 2447,
      "▁ısrar": 2448,
      "##net": 2449,
      "▁uretici": 2450,
      "▁mo": 2451,
      "▁sus": 2452,
      "▁hik": 2453,
      "▁vur": 2454,
      "▁olustur": 2455,
      "▁goz": 2456,
      "▁kitabı": 2457,
      "##av": 2458,
      "▁ucrete": 2459,
      "▁havayollarının": 2460,
      "▁eden": 2461,
      "##0'da": 2462,
      "▁git": 2463,
      "▁ortal": 2464,
      "▁guvenlik": 2465,
      "##di": 2466,
      "▁yatırımcılar": 2467,
      "▁ucretin": 2468,
      "▁kur": 2469,
      "▁hep": 2470,
      "▁sok": 2471,
      "##mas": 2472,
      "▁beyle": 2473,
      "▁&": 2474,
      "##ılan": 2475,
      "##am": 2476,
      "▁ak": 2477,
      "▁top": 2478,
      "▁hak": 2479,
      "▁eylul": 2480,
      "▁yorum": 2481,
      "▁yere": 2482,
      "▁hal": 2483,
      "##asını": 2484,
      "##izi": 2485,
      "▁bilgisayar": 2486,
      "▁hale": 2487,
      "▁amerikalı": 2488,
      "##'d": 2489,
      "▁hisseleri": 2490,
      "▁once": 2491,
      "▁if": 2492,
      "##dak": 2493,
      "▁1": 2494,
      "▁ik": 2495,
      "▁onunde": 2496,
      "##tr": 2497,
      "##edigini": 2498,
      "▁fikr": 2499,
      "▁huk": 2500,
      "▁karayolu": 2501,
      "▁icerisinde": 2502,
      "▁gorun": 2503,
      "▁ki": 2504,
      "##gel": 2505,
      "▁merkez": 2506,
      "▁tul": 2507,
      "▁veya": 2508,
      "▁personellerinden": 2509,
      "▁islem": 2510,
      "▁ilave": 2511,
      "▁yapıl": 2512,
      "▁sehr": 2513,
      "▁kurs": 2514,
      "▁topu": 2515,
      "##gan": 2516,
      "##cılık": 2517,
      "▁sev": 2518,
      "▁sil": 2519,
      "##ki": 2520,
      "▁res": 2521,
      "▁mur": 2522,
      "▁ilk": 2523,
      "▁ulk": 2524,
      "▁veriyor": 2525,
      "▁aldı": 2526,
      "▁kıs": 2527,
      "##'a": 2528,
      "▁ceh": 2529,
      "▁tor": 2530,
      "▁tarif": 2531,
      "##eydi": 2532,
      "▁kontrol": 2533,
      "▁dısarı": 2534,
      "##larımı": 2535,
      "##asyonu": 2536,
      "▁...": 2537,
      "▁cem": 2538,
      "▁sevgi": 2539,
      "##ayan": 2540,
      "▁red": 2541,
      "▁dusun": 2542,
      "##lo": 2543,
      "##ot": 2544,
      "▁beklen": 2545,
      "##ısına": 2546,
      "▁z": 2547,
      "▁tic": 2548,
      "▁gazete": 2549,
      "▁hoca": 2550,
      "##ge": 2551,
      "▁muam": 2552,
      "▁)": 2553,
      "##iyatr": 2554,
      "##egini": 2555,
      "▁basladı": 2556,
      "▁her": 2557,
      "##geleri": 2558,
      "`": 2559,
      "▁operasyon": 2560,
      "b": 2561,
      "##iyle": 2562,
      "▁tesisin": 2563,
      "▁teknoloj": 2564,
      "▁teknoloji": 2565,
      "▁gozlerini": 2566,
      "▁yetersizdi": 2567,
      "▁tah": 2568,
      "##ıt": 2569,
      "▁tarafından": 2570,
      "▁man": 2571,
      "##apon": 2572,
      "▁kuvvet": 2573,
      "▁yoneticileri": 2574,
      "▁mev": 2575,
      "##aseb": 2576,
      "##alma": 2577,
      "▁nelerdir": 2578,
      "##daydi": 2579,
      "##tu": 2580,
      "▁kurul": 2581,
      "##ayı": 2582,
      "▁plan": 2583,
      "▁haftada": 2584,
      "▁sarkı": 2585,
      "##ısında": 2586,
      "▁politik": 2587,
      "▁sınıf": 2588,
      "▁merk": 2589,
      "##ıy": 2590,
      "▁fazla": 2591,
      "▁adını": 2592,
      "▁sokak": 2593,
      "▁islet": 2594,
      "▁istedi": 2595,
      "▁proj": 2596,
      "▁reklam": 2597,
      "##ia": 2598,
      "▁davran": 2599,
      "##qu": 2600,
      "▁manz": 2601,
      "▁test": 2602,
      "▁spor": 2603,
      "▁kelime": 2604,
      "▁hır": 2605,
      "▁ettim": 2606,
      "▁satısları": 2607,
      "▁faal": 2608,
      "##ye": 2609,
      "▁gozlem": 2610,
      "▁ulas": 2611,
      "[SEP]": 2612,
      "▁mail": 2613,
      "▁savun": 2614,
      "▁uc": 2615,
      "##lon": 2616,
      "▁kısa": 2617,
      "▁pers": 2618,
      "▁deg": 2619,
      "##ul": 2620,
      "▁fab": 2621,
      "▁dal": 2622,
      "▁uygul": 2623,
      "▁kardesim": 2624,
      "▁kosul": 2625,
      "▁seyler": 2626,
      "##ist": 2627,
      "##ina": 2628,
      "##mel": 2629,
      "##lerimi": 2630,
      "##ma": 2631,
      "▁kapas": 2632,
      "▁yıllarda": 2633,
      "##ilim": 2634,
      "▁hiss": 2635,
      "##oh": 2636,
      "▁sıkıntı": 2637,
      "▁daha": 2638,
      "▁ma": 2639,
      "▁ulkenin": 2640,
      "▁istik": 2641,
      "▁mahkeme": 2642,
      "##leket": 2643,
      "▁kurulus": 2644,
      "▁yuzden": 2645,
      "▁urunleri": 2646,
      "▁rez": 2647,
      "##deki": 2648,
      "▁yar": 2649,
      "▁oglum": 2650,
      "##j": 2651,
      "▁anlay": 2652,
      "▁kade": 2653,
      "##er": 2654,
      "##ilmesi": 2655,
      "▁korum": 2656,
      "▁duman": 2657,
      "##lerimizi": 2658,
      "▁anal": 2659,
      "▁ediyorum": 2660,
      "▁alaka": 2661,
      "▁animasyonlar": 2662,
      "##imiz": 2663,
      "##agın": 2664,
      "##ıdır": 2665,
      "▁araba": 2666,
      "##ası": 2667,
      "▁yap": 2668,
      "##madim": 2669,
      "▁kurulu": 2670,
      "▁ellerini": 2671,
      "##abı": 2672,
      "▁mily": 2673,
      "▁duyg": 2674,
      "▁merkezi": 2675,
      "▁millet": 2676,
      "▁elini": 2677,
      "▁ucuslar": 2678,
      "▁yiy": 2679,
      "##anlık": 2680,
      "▁emek": 2681,
      "▁seviyesinden": 2682,
      "##uzlu": 2683,
      "##ımızı": 2684,
      "##mekten": 2685,
      "▁sesleri": 2686,
      "##istir": 2687,
      "▁kı": 2688,
      "##_": 2689,
      "▁ucusa": 2690,
      "▁persembe": 2691,
      "▁haft": 2692,
      "▁insanlar": 2693,
      "▁tok": 2694,
      "▁bıcak": 2695,
      "o": 2696,
      "▁/": 2697,
      "▁amac": 2698,
      "##lıgında": 2699,
      "▁yemekleri": 2700,
      "▁esn": 2701,
      "▁dısında": 2702,
      "▁araz": 2703,
      "▁eglence": 2704,
      "0": 2705,
      "▁zamanlar": 2706,
      "▁mot": 2707,
      "##dıgında": 2708,
      "▁arkad": 2709,
      "▁hastal": 2710,
      "▁sikinti": 2711,
      "##ima": 2712,
      "▁seklinde": 2713,
      "▁zevk": 2714,
      "▁toz": 2715,
      "##larıyla": 2716,
      "▁sozlesme": 2717,
      "\"": 2718,
      "▁odadan": 2719,
      "▁orne": 2720,
      "##'den": 2721,
      "▁lutfen": 2722,
      "▁havuz": 2723,
      "▁suya": 2724,
      "▁mimar": 2725,
      "▁aile": 2726,
      "▁sac": 2727,
      "▁bardak": 2728,
      "▁vak": 2729,
      "▁kes": 2730,
      "##adıgını": 2731,
      "##lu": 2732,
      "▁ogl": 2733,
      "▁tarz": 2734,
      "▁et": 2735,
      "##’": 2736,
      "▁duv": 2737,
      "##itesi": 2738,
      "▁col": 2739,
      "▁yaptir": 2740,
      "##ve": 2741,
      "▁nuf": 2742,
      "##iv": 2743,
      "▁artır": 2744,
      "##bul": 2745,
      "##igi": 2746,
      "##cı": 2747,
      "▁go": 2748,
      "▁alın": 2749,
      "▁endis": 2750,
      "▁zeytin": 2751,
      ")": 2752,
      "▁sekil": 2753,
      "##umda": 2754,
      "##ıc": 2755,
      "##lama": 2756,
      "▁karsısında": 2757,
      "▁sent": 2758,
      "▁dusunce": 2759,
      "▁mac": 2760,
      "▁uyk": 2761,
      "▁personellerden": 2762,
      "##biy": 2763,
      "▁icinden": 2764,
      "▁otele": 2765,
      "##anlar": 2766,
      "▁ıs": 2767,
      "▁kongre": 2768,
      "▁cocuk": 2769,
      "▁bakım": 2770,
      "▁basla": 2771,
      "▁kısm": 2772,
      "▁ton": 2773,
      "##iyeti": 2774,
      "▁ilgiliydi": 2775,
      "▁bilgi": 2776,
      "##lerin": 2777,
      "##ef": 2778,
      "▁bes": 2779,
      "##te": 2780,
      "▁plaji": 2781,
      "##raf": 2782,
      "▁imk": 2783,
      "##esinde": 2784,
      "▁sistem": 2785,
      "▁azdi": 2786,
      "▁sikayet": 2787,
      "▁arasındaki": 2788,
      "▁azından": 2789,
      "▁hizmet": 2790,
      "▁hisseler": 2791,
      "▁kabul": 2792,
      "▁gormek": 2793,
      "##tık": 2794,
      "▁evde": 2795,
      "▁kuf": 2796,
      "##anları": 2797,
      "##enc": 2798,
      "▁karıs": 2799,
      "▁dıs": 2800,
      "##sen": 2801,
      "##osu": 2802,
      "##emedi": 2803,
      "▁kahve": 2804,
      "▁kapandı": 2805,
      "##tur": 2806,
      "▁pir": 2807,
      "##esinin": 2808,
      "▁sirketleri": 2809,
      "▁o": 2810,
      "▁fakat": 2811,
      "▁gelecek": 2812,
      "▁itir": 2813,
      "##se": 2814,
      "▁degis": 2815,
      "##'n": 2816,
      "▁duy": 2817,
      "▁kol": 2818,
      "▁olmasi": 2819,
      "▁tasarruf": 2820,
      "▁aktivite": 2821,
      "##isle": 2822,
      "▁cad": 2823,
      "##q": 2824,
      "▁anlat": 2825,
      "▁beklent": 2826,
      "▁ithalat": 2827,
      "▁yuzde": 2828,
      "▁yer": 2829,
      "##alet": 2830,
      "▁onemli": 2831,
      "##urk": 2832,
      "▁mag": 2833,
      "▁tır": 2834,
      "▁davranıs": 2835,
      "▁tahmin": 2836,
      "##onun": 2837,
      "▁--": 2838,
      "##inin": 2839,
      "▁ter": 2840,
      "▁la": 2841,
      "▁ag": 2842,
      "##bah": 2843,
      "▁asag": 2844,
      "▁olmalı": 2845,
      "▁tuz": 2846,
      "▁mobil": 2847,
      "##uyor": 2848,
      "##ch": 2849,
      "##ektr": 2850,
      "▁kenar": 2851,
      "▁yonetim": 2852,
      "▁hizmeti": 2853,
      "▁gece": 2854,
      "##elerin": 2855,
      "▁mem": 2856,
      "&": 2857,
      "▁memleket": 2858,
      "##duz": 2859,
      "▁gazeteci": 2860,
      "▁faaliyet": 2861,
      "##medi": 2862,
      "▁ihtiyacı": 2863,
      "▁yen": 2864,
      "▁servis": 2865,
      "▁kalab": 2866,
      "▁bileti": 2867,
      "▁islemler": 2868,
      "▁okul": 2869,
      "##ku": 2870,
      "##ret": 2871,
      "▁guz": 2872,
      "▁ilgilendi": 2873,
      "▁domates": 2874,
      "##k": 2875,
      "▁tesekkur": 2876,
      "▁dip": 2877,
      "▁rol": 2878,
      "##til": 2879,
      "▁icinde": 2880,
      "##iss": 2881,
      "▁…": 2882,
      "▁enf": 2883,
      "▁ortam": 2884,
      "##emey": 2885,
      "##mesine": 2886,
      "##ington": 2887,
      "##ebil": 2888,
      "▁fiyatina": 2889,
      "##fer": 2890,
      "▁gelistir": 2891,
      "▁tesekkurler": 2892,
      "▁deger": 2893,
      "▁ipot": 2894,
      "▁sır": 2895,
      "▁nis": 2896,
      "▁12": 2897,
      "▁etmis": 2898,
      "▁yemeklerden": 2899,
      "##umu": 2900,
      "##ediyor": 2901,
      "##ibi": 2902,
      "##ılması": 2903,
      "▁toplum": 2904,
      "▁sayı": 2905,
      "##ligine": 2906,
      "##ici": 2907,
      "▁acıl": 2908,
      "▁cog": 2909,
      "##ov": 2910,
      "▁uzer": 2911,
      "▁kredi": 2912,
      "▁unut": 2913,
      "▁veri": 2914,
      "##ken": 2915,
      "##uzluydu": 2916,
      "##za": 2917,
      "##muyor": 2918,
      "▁felsef": 2919,
      "▁havayollarında": 2920,
      "▁pat": 2921,
      "▁dir": 2922,
      "##uyordu": 2923,
      "▁dah": 2924,
      "▁civarı": 2925,
      "▁etkisi": 2926,
      "▁yonetimi": 2927,
      "##asının": 2928,
      "▁koltuk": 2929,
      "▁evden": 2930,
      "▁bal": 2931,
      "▁petrol": 2932,
      "▁kriz": 2933,
      "▁washington": 2934,
      "▁gez": 2935,
      "▁kulub": 2936,
      "▁muz": 2937,
      "▁soz": 2938,
      "▁isim": 2939,
      "##id": 2940,
      "▁tesisi": 2941,
      "▁diyor": 2942,
      "##)": 2943,
      "▁elem": 2944,
      "▁durum": 2945,
      "▁dus": 2946,
      "##yo": 2947,
      "▁secim": 2948,
      "##rak": 2949,
      "##agına": 2950,
      "▁toplan": 2951,
      "▁cevr": 2952,
      "##ess": 2953,
      "##bar": 2954,
      "▁basv": 2955,
      "##usunun": 2956,
      "##liydi": 2957,
      "##'nın": 2958,
      "##sizdi": 2959,
      "▁sigort": 2960,
      "##mıyor": 2961,
      "##meler": 2962,
      "▁eylem": 2963,
      "▁zinc": 2964,
      "▁gosteri": 2965,
      "##h": 2966,
      "##ayi": 2967,
      "▁umut": 2968,
      "▁abd": 2969,
      "##aydı": 2970,
      "▁sordu": 2971,
      "▁bekle": 2972,
      "##isini": 2973,
      "▁yuzme": 2974,
      "▁hastan": 2975,
      "▁kap": 2976,
      "▁ener": 2977,
      "##lat": 2978,
      "##ılıyor": 2979,
      "##eye": 2980,
      "▁ureticisi": 2981,
      "▁denizi": 2982,
      "##etin": 2983,
      "▁form": 2984,
      "##.": 2985,
      "##tak": 2986,
      "▁saati": 2987,
      "##\\": 2988,
      "e": 2989,
      "##ka": 2990,
      "▁sol": 2991,
      "▁hayatın": 2992,
      "▁tamir": 2993,
      "▁koc": 2994,
      "##ayacagını": 2995,
      "##erans": 2996,
      "▁dısı": 2997,
      "▁kalp": 2998,
      "▁oran": 2999,
      "##elen": 3000,
      "▁paz": 3001,
      "##alt": 3002,
      "▁bazi": 3003,
      "##reti": 3004,
      "##lerine": 3005,
      "▁sı": 3006,
      "##udur": 3007,
      "▁tuketici": 3008,
      "##eni": 3009,
      "▁kal": 3010,
      "▁olabilir": 3011,
      "▁ince": 3012,
      "##ec": 3013,
      "▁alanda": 3014,
      "▁may": 3015,
      "##bası": 3016,
      "##oloj": 3017,
      "▁deprem": 3018,
      "▁kapıyı": 3019,
      "##ızın": 3020,
      "##mad": 3021,
      "▁vucu": 3022,
      "##erik": 3023,
      "▁ucus": 3024,
      "▁barıs": 3025,
      "▁gonl": 3026,
      "▁yanına": 3027,
      "▁harek": 3028,
      "##sik": 3029,
      "▁zar": 3030,
      "/": 3031,
      "##egin": 3032,
      "##eti": 3033,
      "▁listeleyin": 3034,
      "##eden": 3035,
      "▁bahce": 3036,
      "##irler": 3037,
      "##amaya": 3038,
      "##may": 3039,
      "▁kahval": 3040,
      "##co": 3041,
      "▁iceri": 3042,
      "▁sonu": 3043,
      "▁lak": 3044,
      "▁kumar": 3045,
      "##ini": 3046,
      "▁sonrasında": 3047,
      "▁tat": 3048,
      "##lug": 3049,
      "▁havayolları": 3050,
      "##ahat": 3051,
      "▁personeli": 3052,
      "▁yatırımcıların": 3053,
      "▁telef": 3054,
      "▁coc": 3055,
      "▁defter": 3056,
      "▁universit": 3057,
      "▁eg": 3058,
      "##ecek": 3059,
      "▁ayı": 3060,
      "##ıyorum": 3061,
      "▁aynı": 3062,
      "▁bırak": 3063,
      "##ugu": 3064,
      "▁efendi": 3065,
      "▁calı": 3066,
      "▁insanı": 3067,
      "##urlu": 3068,
      "▁firması": 3069,
      "▁zorunda": 3070,
      "##tigi": 3071,
      "▁onc": 3072,
      "##dim": 3073,
      "▁yuks": 3074,
      "▁basını": 3075,
      "▁men": 3076,
      "▁us": 3077,
      "##esine": 3078,
      "▁yaklas": 3079,
      "▁civ": 3080,
      "##inti": 3081,
      "##lantı": 3082,
      "▁oranı": 3083,
      "▁tarafı": 3084,
      "▁yapti": 3085,
      "##han": 3086,
      "▁ingil": 3087,
      "▁kat": 3088,
      "##ra": 3089,
      "▁biz": 3090,
      "▁yaptı": 3091,
      "▁dukkan": 3092,
      "▁yeme": 3093,
      "▁far": 3094,
      "##ecilik": 3095,
      "##ustos": 3096,
      "▁ajans": 3097,
      "▁sek": 3098,
      "▁mevcut": 3099,
      "▁eyalet": 3100,
      "▁satısı": 3101,
      "▁fir": 3102,
      "▁annem": 3103,
      "##cev": 3104,
      "##dur": 3105,
      "##asın": 3106,
      "##ıyı": 3107,
      "▁kanun": 3108,
      "▁yur": 3109,
      "▁restor": 3110,
      "##ban": 3111,
      "▁olanlar": 3112,
      "▁olmaz": 3113,
      "▁bir": 3114,
      "▁yarat": 3115,
      "##las": 3116,
      "▁danısman": 3117,
      "▁boyun": 3118,
      "##ir": 3119,
      "▁personelin": 3120,
      "▁soyl": 3121,
      "▁to": 3122,
      "▁hus": 3123,
      "▁profes": 3124,
      "▁herk": 3125,
      "▁bug": 3126,
      "##ana": 3127,
      "##edav": 3128,
      "##ısıyla": 3129,
      "▁insa": 3130,
      "##mıstır": 3131,
      "##ımdan": 3132,
      "▁fon": 3133,
      "▁arz": 3134,
      "▁sorunun": 3135,
      "▁islemlerinde": 3136,
      "▁baz": 3137,
      "▁seyin": 3138,
      "##acag": 3139,
      "▁sayıda": 3140,
      "##ate": 3141,
      "▁verim": 3142,
      "▁gul": 3143,
      "▁pitts": 3144,
      "▁ch": 3145,
      "##cek": 3146,
      "▁komisyon": 3147,
      "▁dede": 3148,
      "▁seyir": 3149,
      "##elik": 3150,
      "▁tarihi": 3151,
      "▁oglan": 3152,
      "▁kas": 3153,
      "▁can": 3154,
      "h": 3155,
      "▁aksamı": 3156,
      "##ayla": 3157,
      "▁etmeye": 3158,
      "##sat": 3159,
      "▁begenmedim": 3160,
      "▁dey": 3161,
      "##ivers": 3162,
      "##gre": 3163,
      "▁piy": 3164,
      "▁fil": 3165,
      "##ısır": 3166,
      "▁yatak": 3167,
      "▁zaman": 3168,
      "▁olas": 3169,
      "▁var": 3170,
      "▁ay": 3171,
      "▁devir": 3172,
      "▁gunler": 3173,
      "▁acent": 3174,
      "▁peynir": 3175,
      "##oksa": 3176,
      "▁derec": 3177,
      "##oru": 3178,
      "##sal": 3179,
      "##dan": 3180,
      "##lisi": 3181,
      "▁tavsiye": 3182,
      "##yle": 3183,
      "##malı": 3184,
      "##isindan": 3185,
      "▁5'ten": 3186,
      "▁basa": 3187,
      "▁not": 3188,
      "##liginde": 3189,
      "##asi": 3190,
      "▁elden": 3191,
      "▁olmak": 3192,
      "▁akl": 3193,
      "▁bab": 3194,
      "##kk": 3195,
      "▁tartıs": 3196,
      "▁imkan": 3197,
      "##lıga": 3198,
      "▁temizligi": 3199,
      "▁internet": 3200,
      "##ıcı": 3201,
      "##iy": 3202,
      "▁min": 3203,
      "▁rehber": 3204,
      "▁kural": 3205,
      "▁un": 3206,
      "##aket": 3207,
      "##eli": 3208,
      "▁kası": 3209,
      "▁-": 3210,
      "▁kom": 3211,
      "##,": 3212,
      "▁yerine": 3213,
      "▁tenc": 3214,
      "▁mir": 3215,
      "##du": 3216,
      "▁devr": 3217,
      "▁begendim": 3218,
      "▁gir": 3219,
      "▁bulmak": 3220,
      "##uh": 3221,
      "▁ihtiyac": 3222,
      "▁basın": 3223,
      "##uc": 3224,
      "▁borsası": 3225,
      "▁pol": 3226,
      "##kah": 3227,
      "▁mil": 3228,
      "▁istif": 3229,
      "##aret": 3230,
      "##'da": 3231,
      "##larak": 3232,
      "▁ot": 3233,
      "▁sekl": 3234,
      "▁zir": 3235,
      "▁arasında": 3236,
      "▁sub": 3237,
      "▁seyahat": 3238,
      "##le": 3239,
      "▁list": 3240,
      "▁yayın": 3241,
      "▁kork": 3242,
      "▁calis": 3243,
      "▁vermek": 3244,
      "▁isk": 3245,
      "▁vap": 3246,
      "##cıları": 3247,
      "▁parc": 3248,
      "▁posta": 3249,
      "▁gibi": 3250,
      "▁cil": 3251,
      "▁anlamına": 3252,
      "▁olur": 3253,
      "▁sirketler": 3254,
      "##maktadır": 3255,
      "▁uz": 3256,
      "▁sekilde": 3257,
      "##ılım": 3258,
      "▁konuyu": 3259,
      "##ask": 3260,
      "▁balık": 3261,
      "▁pos": 3262,
      "▁new": 3263,
      "▁ces": 3264,
      "▁ses": 3265,
      "▁yapmaya": 3266,
      "▁puan": 3267,
      "##asındaki": 3268,
      "▁sahip": 3269,
      "▁ciz": 3270,
      "##eb": 3271,
      "▁uzerinde": 3272,
      "##uyorum": 3273,
      "▁konumunu": 3274,
      "▁ekl": 3275,
      "##ev": 3276,
      "▁heyec": 3277,
      "▁sef": 3278,
      "▁tekn": 3279,
      "▁tezgah": 3280,
      "##imizi": 3281,
      "▁ge": 3282,
      "##ust": 3283,
      "##ator": 3284,
      "▁bez": 3285,
      "▁analistler": 3286,
      "▁soh": 3287,
      "▁gelis": 3288,
      "▁garson": 3289,
      "▁oyn": 3290,
      "▁kokusu": 3291,
      "▁anlas": 3292,
      "▁baba": 3293,
      "▁komsu": 3294,
      "##ırdı": 3295,
      "▁cevap": 3296,
      "▁birligi": 3297,
      "▁sin": 3298,
      "##end": 3299,
      "##edigim": 3300,
      "▁anda": 3301,
      "##uler": 3302,
      "##mamıs": 3303,
      "▁vakit": 3304,
      "##alle": 3305,
      "▁mesaj": 3306,
      "##eviz": 3307,
      "▁televizyon": 3308,
      "▁uret": 3309,
      "▁sonrası": 3310,
      "##ileri": 3311,
      "##usu": 3312,
      "▁hacmi": 3313,
      "▁giden": 3314,
      "▁gem": 3315,
      "##lan": 3316,
      "▁sene": 3317,
      "▁yani": 3318,
      "▁ogretmen": 3319,
      "▁stok": 3320,
      "▁bakıs": 3321,
      "##ter": 3322,
      "▁eski": 3323,
      "##eyaz": 3324,
      "▁garanti": 3325,
      "##madıgını": 3326,
      "▁org": 3327,
      "▁dortluk": 3328,
      "##isler": 3329,
      "▁tabak": 3330,
      "##af": 3331,
      "##cu": 3332,
      "##ydi": 3333,
      "▁oyun": 3334,
      "##les": 3335,
      "▁sof": 3336,
      "▁fabrik": 3337,
      "▁?": 3338,
      "▁yılının": 3339,
      "▁mal": 3340,
      "▁hazine": 3341,
      "▁sinem": 3342,
      "▁gayrimenkul": 3343,
      "▁havada": 3344,
      "▁ez": 3345,
      "▁olanak": 3346,
      "##iste": 3347,
      "▁kars": 3348,
      "▁had": 3349,
      "##dig": 3350,
      "▁sez": 3351,
      "##8'de": 3352,
      "▁kullanmadim": 3353,
      "–": 3354,
      "▁19": 3355,
      "▁ib": 3356,
      "▁ruy": 3357,
      "##iyorlar": 3358,
      "▁aln": 3359,
      "##ika": 3360,
      "▁reform": 3361,
      "▁dallas": 3362,
      "▁laf": 3363,
      "▁saatlerde": 3364,
      "▁piyan": 3365,
      "▁yargıc": 3366,
      "▁savası": 3367,
      "▁mus": 3368,
      "▁otur": 3369,
      "▁sag": 3370,
      "▁tası": 3371,
      "▁bulun": 3372,
      "▁dib": 3373,
      "##ıla": 3374,
      "##sı": 3375,
      "##cilerin": 3376,
      "##lerimiz": 3377,
      "▁dest": 3378,
      "##day": 3379,
      "##teri": 3380,
      "▁devralma": 3381,
      "▁goc": 3382,
      "##ıya": 3383,
      "##yet": 3384,
      "##ars": 3385,
      "▁gunes": 3386,
      "##\"": 3387,
      "##hangi": 3388,
      "▁lezzeti": 3389,
      "##iler": 3390,
      "▁damak": 3391,
      "▁hayata": 3392,
      "▁par": 3393,
      "##su": 3394,
      "▁yıl": 3395,
      "▁paraya": 3396,
      "▁mik": 3397,
      "▁meslek": 3398,
      "▁odun": 3399,
      "##cut": 3400,
      "▁hakim": 3401,
      "▁azalt": 3402,
      "▁hatır": 3403,
      "▁masal": 3404,
      "##iniz": 3405,
      "▁muhafaz": 3406,
      "▁vet": 3407,
      "▁sabah": 3408,
      "##met": 3409,
      "##aya": 3410,
      "##ber": 3411,
      "▁af": 3412,
      "##lıgını": 3413,
      "##ksa": 3414,
      "▁dok": 3415,
      "▁baskan": 3416,
      "▁konut": 3417,
      "▁cizgi": 3418,
      "▁yuksel": 3419,
      "▁hur": 3420,
      "##mi": 3421,
      "▁ilav": 3422,
      "##un": 3423,
      "##ıklar": 3424,
      "▁ihrac": 3425,
      "▁gore": 3426,
      "▁katilmak": 3427,
      "▁6'dan": 3428,
      "▁sade": 3429,
      "▁kavg": 3430,
      "▁sebep": 3431,
      "▁”": 3432,
      "##ar": 3433,
      "▁hava": 3434,
      "▁agır": 3435,
      "▁derece": 3436,
      "##ıgı": 3437,
      "▁hayır": 3438,
      "▁ilac": 3439,
      "##laması": 3440,
      "##inize": 3441,
      "▁dunya": 3442,
      "##uya": 3443,
      "##lak": 3444,
      "▁doları": 3445,
      "▁nasıl": 3446,
      "##miyorum": 3447,
      "▁bebek": 3448,
      "▁durumu": 3449,
      "▁cel": 3450,
      "▁kadın": 3451,
      "##tigini": 3452,
      "▁haric": 3453,
      "▁karı": 3454,
      "▁bekl": 3455,
      "▁donus": 3456,
      "▁amc": 3457,
      "##oc": 3458,
      "##cok": 3459,
      "▁pu": 3460,
      "##tıg": 3461,
      "▁mevz": 3462,
      "▁dogum": 3463,
      "##uru": 3464,
      "▁davet": 3465,
      "▁kuz": 3466,
      "▁gru": 3467,
      "▁ucmak": 3468,
      "##lim": 3469,
      "▁sem": 3470,
      "▁parti": 3471,
      "##ıza": 3472,
      "##edig": 3473,
      "▁kar": 3474,
      "▁odamiz": 3475,
      "##uguna": 3476,
      "▁od": 3477,
      "▁odalar": 3478,
      "▁kuc": 3479,
      "▁kok": 3480,
      "▁merdiv": 3481,
      "3": 3482,
      "▁arastırma": 3483,
      "▁hizmete": 3484,
      "▁bır": 3485,
      "##alarım": 3486,
      "▁getiri": 3487,
      "▁hukumet": 3488,
      "▁yoksa": 3489,
      "##ligi": 3490,
      "##une": 3491,
      "▁gozden": 3492,
      "▁programı": 3493,
      "▁ayrıl": 3494,
      "▁!..": 3495,
      "▁ceyr": 3496,
      "▁ayak": 3497,
      "▁198": 3498,
      "▁komut": 3499,
      "▁radyo": 3500,
      "##yas": 3501,
      "▁vade": 3502,
      "▁idar": 3503,
      "▁yarın": 3504,
      "▁malzemeler": 3505,
      "▁hakkı": 3506,
      "##mal": 3507,
      "▁hayv": 3508,
      "▁konu": 3509,
      "▁baslangıc": 3510,
      "##ydı": 3511,
      "▁guc": 3512,
      "▁aktarma": 3513,
      "▁salı": 3514,
      "▁yardım": 3515,
      "▁tal": 3516,
      "▁dogru": 3517,
      "▁sul": 3518,
      "##ıstır": 3519,
      "▁sonbah": 3520,
      "▁adı": 3521,
      "▁altında": 3522,
      "▁dusunuyor": 3523,
      "##lamıs": 3524,
      "▁basbakan": 3525,
      "▁olac": 3526,
      "▁sezon": 3527,
      "▁ilan": 3528,
      "▁telefonla": 3529,
      "▁sozu": 3530,
      "▁ihtiyacım": 3531,
      "▁imkanlari": 3532,
      "##!": 3533,
      "▁yaban": 3534,
      "▁zarar": 3535,
      "▁kral": 3536,
      "▁halk": 3537,
      "▁burokr": 3538,
      "▁ilgil": 3539,
      "▁zev": 3540,
      "##inden": 3541,
      "▁ugr": 3542,
      "##atın": 3543,
      "▁ucaga": 3544,
      "##afet": 3545,
      "##uydu": 3546,
      "##tıgını": 3547,
      "▁mahalle": 3548,
      "##etleri": 3549,
      "##ustu": 3550,
      "▁kasıgı": 3551,
      "▁listesini": 3552,
      "##iyet": 3553,
      "##ten": 3554,
      "▁pilot": 3555,
      "▁yardımcısı": 3556,
      "##ustur": 3557,
      "▁day": 3558,
      "▁sans": 3559,
      "▁kalk": 3560,
      "▁um": 3561,
      "$": 3562,
      "▁ig": 3563,
      "▁kadını": 3564,
      "▁istek": 3565,
      "##meden": 3566,
      "##'ye": 3567,
      "##ende": 3568,
      "##raz": 3569,
      "▁yalnız": 3570,
      "##kar": 3571,
      "▁anlama": 3572,
      "▁saf": 3573,
      "##ph": 3574,
      "##ardı": 3575,
      "▁gidis": 3576,
      "▁haberi": 3577,
      "▁meydan": 3578,
      "▁boyle": 3579,
      "▁ada": 3580,
      "▁*": 3581,
      "“": 3582,
      "▁yemegi": 3583,
      "##da": 3584,
      "▁otelin": 3585,
      "▁planı": 3586,
      "▁personelleri": 3587,
      "▁aksam": 3588,
      "▁oldu": 3589,
      "▁idare": 3590,
      "##ha": 3591,
      "​": 3592,
      "##masının": 3593,
      "▁dedim": 3594,
      "▁ogren": 3595,
      "##ding": 3596,
      "##dır": 3597,
      "▁ber": 3598,
      "▁has": 3599,
      "##ıyor": 3600,
      "▁mar": 3601,
      "▁dur": 3602,
      "▁gemi": 3603,
      "▁demir": 3604,
      "▁sipar": 3605,
      "##ulu": 3606,
      "##sin": 3607,
      "▁cor": 3608,
      "▁ayakkabı": 3609,
      "▁zam": 3610,
      "##alı": 3611,
      "▁pr": 3612,
      "##ap": 3613,
      "▁zey": 3614,
      "##ligini": 3615,
      "▁say": 3616,
      "▁renk": 3617,
      "##gr": 3618,
      "##uy": 3619,
      "##liyor": 3620,
      "##uyorlar": 3621,
      "▁kem": 3622,
      "\\": 3623,
      "▁kurtaj": 3624,
      "▁boston": 3625,
      "▁yine": 3626,
      "▁fen": 3627,
      "▁ekim": 3628,
      "▁ulke": 3629,
      "▁merkeze": 3630,
      "▁sonuc": 3631,
      "▁kurt": 3632,
      "##umun": 3633,
      "▁yemeklerin": 3634,
      "▁fır": 3635,
      "##elerle": 3636,
      "▁rap": 3637,
      "##ren": 3638,
      "▁hissed": 3639,
      "▁hol": 3640,
      "▁yık": 3641,
      "▁coz": 3642,
      "▁tes": 3643,
      "##imci": 3644,
      "▁grup": 3645,
      "##int": 3646,
      "##ji": 3647,
      "▁aracı": 3648,
      "##larının": 3649,
      "##a": 3650,
      "▁gerc": 3651,
      "▁9": 3652,
      "▁icki": 3653,
      "##uyla": 3654,
      "##lendi": 3655,
      "▁yuzunden": 3656,
      "##egine": 3657,
      "▁bel": 3658,
      "▁boy": 3659,
      "##ince": 3660,
      "▁kapı": 3661,
      "▁%": 3662,
      "▁si": 3663,
      "##ligin": 3664,
      "##ult": 3665,
      "r": 3666,
      "##mistir": 3667,
      "▁ankete": 3668,
      "##tar": 3669,
      "▁biri": 3670,
      "##asından": 3671,
      "▁yont": 3672,
      "##gul": 3673,
      "▁temin": 3674,
      "▁tehd": 3675,
      "##cih": 3676,
      "##kel": 3677,
      "▁erkek": 3678,
      "##cilik": 3679,
      "##tin": 3680,
      "##esi": 3681,
      "▁yolcu": 3682,
      "##mıstı": 3683,
      "##maktan": 3684,
      "▁karar": 3685,
      "##on": 3686,
      "##adde": 3687,
      "##enlerin": 3688,
      "▁ders": 3689,
      "##agının": 3690,
      "##'e": 3691,
      "▁kahvalt": 3692,
      "▁merh": 3693,
      "▁yeniden": 3694,
      "▁mis": 3695,
      "▁iht": 3696,
      "▁ul": 3697,
      "▁anne": 3698,
      "▁seviy": 3699,
      "▁havayollarını": 3700,
      "##ardan": 3701,
      "▁bit": 3702,
      "##inda": 3703,
      "▁aralık": 3704,
      "▁analiz": 3705,
      "▁zor": 3706,
      "▁bilim": 3707,
      "▁rek": 3708,
      "▁har": 3709,
      "▁yeter": 3710,
      "▁insanlara": 3711,
      "▁rengi": 3712,
      "▁teor": 3713,
      "▁fay": 3714,
      "▁teslim": 3715,
      "▁fel": 3716,
      "##uluk": 3717,
      "▁ceyrekte": 3718,
      "##unden": 3719,
      "▁egitim": 3720,
      "▁orada": 3721,
      "##eyle": 3722,
      "▁mahk": 3723,
      "▁malz": 3724,
      "▁sehrin": 3725,
      "▁direk": 3726,
      "##laya": 3727,
      "##etti": 3728,
      "▁gonul": 3729,
      "▁baktı": 3730,
      "▁yiyecek": 3731,
      "▁kil": 3732,
      "▁elbise": 3733,
      "▁bacak": 3734,
      "▁dug": 3735,
      "##pan": 3736,
      "##idir": 3737,
      "▁fotograf": 3738,
      "▁kahkah": 3739,
      "▁delikan": 3740,
      "▁alacak": 3741,
      "z": 3742,
      "▁sirketi": 3743,
      "##t": 3744,
      "▁on": 3745,
      "▁faiz": 3746,
      "##form": 3747,
      "▁bolg": 3748,
      "▁yerde": 3749,
      "##eral": 3750,
      "##ı": 3751,
      "##ılmıs": 3752,
      "##astır": 3753,
      "▁lok": 3754,
      "▁benz": 3755,
      "▁gorusme": 3756,
      "▁bis": 3757,
      "▁cesitleri": 3758,
      "▁kons": 3759,
      "▁bas": 3760,
      "##indi": 3761,
      "▁doldur": 3762,
      "▁basta": 3763,
      "##enek": 3764,
      "▁demek": 3765,
      "▁oluyor": 3766,
      "▁film": 3767,
      "▁alma": 3768,
      "▁seb": 3769,
      "##/": 3770,
      "▁konusunda": 3771,
      "▁fırsat": 3772,
      "##eder": 3773,
      "▁ustu": 3774,
      "▁og": 3775,
      "##–": 3776,
      "k": 3777,
      "##eklen": 3778,
      "##arında": 3779,
      "▁basından": 3780,
      "▁tesisten": 3781,
      "▁polis": 3782,
      "##man": 3783,
      "▁yaprak": 3784,
      "##burgh": 3785,
      "▁petr": 3786,
      "▁gelmis": 3787,
      "▁harc": 3788,
      "##liginden": 3789,
      "▁olu": 3790,
      "##usuna": 3791,
      "▁perform": 3792,
      "##urdu": 3793,
      "▁edil": 3794,
      "##u": 3795,
      "▁herh": 3796,
      "▁yonet": 3797,
      "##ata": 3798,
      "▁sep": 3799,
      "##gesi": 3800,
      "▁vuc": 3801,
      "##men": 3802,
      "##bi": 3803,
      "##inde": 3804,
      "▁“": 3805,
      "▁model": 3806,
      "▁sozleri": 3807,
      "▁yay": 3808,
      "▁an": 3809,
      "▁havayol": 3810,
      "▁gal": 3811,
      "▁yerden": 3812,
      "▁ekmek": 3813,
      "▁donemde": 3814,
      "▁yarı": 3815,
      "▁koyun": 3816,
      "▁cocuklar": 3817,
      "▁yaklasık": 3818,
      "▁aktiv": 3819,
      "##lerinin": 3820,
      "##enin": 3821,
      "▁urun": 3822,
      "▁hem": 3823,
      "▁amerikan": 3824,
      "▁boyut": 3825,
      "▁girdi": 3826,
      "▁ates": 3827,
      "##ston": 3828,
      "▁gog": 3829,
      "▁evine": 3830,
      "▁parmak": 3831,
      "▁sos": 3832,
      "▁karsi": 3833,
      "▁sirketin": 3834,
      "▁ortalama": 3835,
      "▁karab": 3836,
      "▁olduguna": 3837,
      "▁degisiklik": 3838,
      "##ob": 3839,
      "▁tam": 3840,
      "▁p": 3841,
      "##gunluk": 3842,
      "##muz": 3843,
      "▁uy": 3844,
      "▁dostu": 3845,
      "##kac": 3846,
      "▁kelim": 3847,
      "##sam": 3848,
      "▁oyle": 3849,
      "▁edecek": 3850,
      "▁artısı": 3851,
      "▁acisindan": 3852,
      "▁cuma": 3853,
      "##0'": 3854,
      "▁fark": 3855,
      "##gisi": 3856,
      "▁defa": 3857,
      "##amaz": 3858,
      ",": 3859,
      "##lardan": 3860,
      "▁yoktu": 3861,
      "▁ceza": 3862,
      "▁bag": 3863,
      "##aliydi": 3864,
      "▁ekonom": 3865,
      "▁biraz": 3866,
      "▁topr": 3867,
      "▁7": 3868,
      "▁evet": 3869,
      "▁zih": 3870,
      "▁gulery": 3871,
      "##mam": 3872,
      "▁mez": 3873,
      "▁gond": 3874,
      "▁koku": 3875,
      "##anından": 3876,
      "##emem": 3877,
      "▁gar": 3878,
      "▁kullan": 3879,
      "▁sinir": 3880,
      "▁tec": 3881,
      "▁mahkemesi": 3882,
      "▁kampanyalardan": 3883,
      "##sunuz": 3884,
      "##ege": 3885,
      "▁isler": 3886,
      "▁kalb": 3887,
      "##lıkta": 3888,
      "##3": 3889,
      "##ıgını": 3890,
      "▁dagıt": 3891,
      "##ayet": 3892,
      "##erdi": 3893,
      "##lıkla": 3894,
      "##8'e": 3895,
      "##z": 3896,
      "▁ogr": 3897,
      "▁anla": 3898,
      "▁silah": 3899,
      "▁boyn": 3900,
      "##-": 3901,
      "##asında": 3902,
      "▁key": 3903,
      "##ci": 3904,
      "▁sey": 3905,
      "▁dizi": 3906,
      "▁herkesin": 3907,
      "▁kıy": 3908,
      "▁haline": 3909,
      "▁orman": 3910,
      "##uluyor": 3911,
      "▁ihtiy": 3912,
      "##dum": 3913,
      "▁part": 3914,
      "▁rehberimiz": 3915,
      "##usunda": 3916,
      "##ilik": 3917,
      "##eme": 3918,
      "▁adım": 3919,
      "▁onune": 3920,
      "▁yazar": 3921,
      "##eticisi": 3922,
      "##nam": 3923,
      "##ırak": 3924,
      "▁ah": 3925,
      "##ıyla": 3926,
      "▁resim": 3927,
      "▁mut": 3928,
      "##yen": 3929,
      "##%": 3930,
      "▁ustune": 3931,
      "▁hanim": 3932,
      "▁ban": 3933,
      "▁mide": 3934,
      "▁sabahı": 3935,
      "##luluk": 3936,
      "▁gecm": 3937,
      "▁rej": 3938,
      "##ansiyon": 3939,
      "▁orn": 3940,
      "▁ucusun": 3941,
      "##ler": 3942,
      "▁isaret": 3943,
      "▁acik": 3944,
      "##evi": 3945,
      "▁dak": 3946,
      "▁dahil": 3947,
      "▁tac": 3948,
      "##esiyle": 3949,
      "▁kisinin": 3950,
      "##ıg": 3951,
      "##luk": 3952,
      "▁kalite": 3953,
      "▁num": 3954,
      "▁bo": 3955,
      "##iski": 3956,
      "▁balt": 3957,
      "▁mey": 3958,
      "▁iler": 3959,
      "▁sonucları": 3960,
      "▁b": 3961,
      "##taj": 3962,
      "▁temiz": 3963,
      "▁mudur": 3964,
      "##duk": 3965,
      "▁hic": 3966,
      "▁mutf": 3967,
      "▁gay": 3968,
      "▁varlık": 3969,
      "##om": 3970,
      "▁toplant": 3971,
      "▁kaldik": 3972,
      "▁h": 3973,
      "▁disi": 3974,
      "##lanmıs": 3975,
      "##lendir": 3976,
      "▁d": 3977,
      "##ecegini": 3978,
      "▁ileri": 3979,
      "▁muc": 3980,
      "▁metr": 3981,
      "▁4": 3982,
      "##hal": 3983,
      "▁oranında": 3984,
      "▁omuz": 3985,
      "▁n": 3986,
      "▁haval": 3987,
      "##ite": 3988,
      "▁bilgisay": 3989,
      "▁bulundu": 3990,
      "▁ucak": 3991,
      "##ine": 3992,
      "##ac": 3993,
      "▁sair": 3994,
      "▁sendika": 3995,
      "▁first": 3996,
      "##der": 3997,
      "▁sel": 3998,
      "▁telefon": 3999,
      "▁genelde": 4000,
      "▁guzellik": 4001,
      "▁bask": 4002,
      "##lin": 4003,
      "▁yasa": 4004,
      "##orta": 4005,
      "##isine": 4006,
      "##eh": 4007,
      "▁tekl": 4008,
      "##yıl": 4009,
      "▁verdi": 4010,
      "▁cıktı": 4011,
      "##istler": 4012,
      "▁ucuslarını": 4013,
      "▁payı": 4014,
      "##lac": 4015,
      "▁actı": 4016,
      "##ed": 4017,
      "##dım": 4018,
      "##ara": 4019,
      "##tih": 4020,
      "##00": 4021,
      "▁toprak": 4022,
      "##ın": 4023,
      "▁ho": 4024,
      "##sun": 4025,
      "▁turku": 4026,
      "▁dis": 4027,
      "▁rah": 4028,
      "▁maliyeti": 4029,
      "##lıc": 4030,
      "▁sut": 4031,
      "▁yem": 4032,
      "▁vardır": 4033,
      "▁agustos": 4034,
      "▁veriyorum": 4035,
      "▁muzik": 4036,
      "▁yola": 4037,
      "##lamaya": 4038,
      "▁havuzu": 4039,
      "▁koylu": 4040,
      "▁hele": 4041,
      "▁seker": 4042,
      "##mesi": 4043,
      "##uldu": 4044,
      "##acılar": 4045,
      "▁matem": 4046,
      "##gur": 4047,
      "▁akıl": 4048,
      "▁class": 4049,
      "▁vucut": 4050,
      "##anc": 4051,
      "▁:": 4052,
      "▁isletme": 4053,
      "▁suc": 4054,
      "▁em": 4055,
      "▁sab": 4056,
      "##ına": 4057,
      "##orm": 4058,
      "▁yazı": 4059,
      "▁kez": 4060,
      "##atur": 4061,
      "##dıktan": 4062,
      "▁birles": 4063,
      "▁donem": 4064,
      "▁ailelere": 4065,
      "▁1/": 4066,
      "▁esya": 4067,
      "▁yuzunu": 4068,
      "▁da": 4069,
      "▁dusuk": 4070,
      "▁tum": 4071,
      "°": 4072,
      "##$": 4073,
      "##'nin": 4074,
      "▁endeks": 4075,
      "▁muhab": 4076,
      "▁ardı": 4077,
      "▁ogret": 4078,
      "▁hamle": 4079,
      "▁muhal": 4080,
      "▁aktar": 4081,
      "▁gon": 4082,
      "▁erken": 4083,
      "▁yurt": 4084,
      "▁traf": 4085,
      "▁sovyet": 4086,
      "##nd": 4087,
      "▁y": 4088,
      "▁teklifi": 4089,
      "▁el": 4090,
      "##izlik": 4091,
      "s": 4092,
      "##mektedir": 4093,
      "▁rakam": 4094,
      "▁sırt": 4095
    }
  }
}