{
  "version": "1.0",
  "truncation": null,
  "padding": null,
  "added_tokens": [
    {
      "id": 1106,
      "content": "[UNK]",
      "single_word": false,
      "lstrip": false,
      "rstrip": false,
      "normalized": false,
      "special": true
    },
    {
      "id": 1634,
      "content": "[MASK]",
      "single_word": false,
      "lstrip": false,
      "rstrip": false,
      "normalized": false,
      "special": true
    },
    {
      "id": 8652,
      "content": "[CLS]",
      "single_word": false,
      "lstrip": false,
      "rstrip": false,
      "normalized": false,
      "special": true
    },
    {
      "id": 11385,
      "content": "[SEP]",
      "single_word": false,
      "lstrip": false,
      "rstrip": false,
      "normalized": false,
      "special": true
    },
    {
      "id": 12131,
      "content": "[PAD]",
      "single_word": false,
      "lstrip": false,
      "rstrip": false,
      "normalized": false,
      "special": true
    }
  ],
  "normalizer": {
    "type": "Sequence",
    "normalizers": [
      {
        "type": "NFD"
      },
      {
        "type": "Lowercase"
      },
      {
        "type": "StripAccents"
      }
    ]
  },
  "pre_tokenizer": {
    "type": "Sequence",
    "pretokenizers": [
      {
        "type": "Metaspace",
        "replacement": "▁",
        "prepend_scheme": "always",
        "split": true
      }
    ]
  },
  "post_processor": {
    "type": "TemplateProcessing",
    "single": [
      {
        "SpecialToken": {
          "id": "[CLS]",
          "type_id": 0
        }
      },
      {
        "Sequence": {
          "id": "A",
          "type_id": 0
        }
      },
      {
        "SpecialToken": {
          "id": "[SEP]",
          "type_id": 0
        }
      }
    ],
    "pair": [
      {
        "SpecialToken": {
          "id": "[CLS]",
          "type_id": 0
        }
      },
      {
        "Sequence": {
          "id": "A",
          "type_id": 0
        }
      },
      {
        "SpecialToken": {
          "id": "[SEP]",
          "type_id": 0
        }
      },
      {
        "Sequence": {
          "id": "B",
          "type_id": 1
        }
      },
      {
        "SpecialToken": {
          "id": "[SEP]",
          "type_id": 1
        }
      }
    ],
    "special_tokens": {
      "[CLS]": {
        "id": "[CLS]",
        "ids": [
          8652
        ],
        "tokens": [
          "[CLS]"
        ]
      },
      "[SEP]": {
        "id": "[SEP]",
        "ids": [
          11385
        ],
        "tokens": [
          "[SEP]"
        ]
      }
    }
  },
  "decoder": {
    "type": "Metaspace",
    "replacement": "▁",
    "prepend_scheme": "always",
    "split": true
  },
  "model": {
    "type": "Unigram",
    "unk_id": 1106,
    "vocab": [
      [
        "▁yuzun",
        -8.65490567855096
      ],
      [
        "▁40",
        -6.045535918803367
      ],
      [
        "▁gelmedi",
        -7.833635371475548
      ],
      [
        "▁biyo",
        -11.04761207332287
      ],
      [
        "▁yaptırma",
        -11.106467788740318
      ],
      [
        "▁k",
        -7.042883632118129
      ],
      [
        "▁kutle",
        -11.102347616058426
      ],
      [
        "▁1/4'",
        -10.162198889014231
      ],
      [
        "▁trafik",
        -9.327656515294393
      ],
      [
        "▁reviz",
        -10.164065520142545
      ],
      [
        "▁guler",
        -7.599162004620792
      ],
      [
        "▁rol",
        -8.790794998204642
      ],
      [
        "▁sunger",
        -10.464270978414365
      ],
      [
        "▁elbet",
        -6.771714475515565
      ],
      [
        "▁girmesi",
        -9.684719979761828
      ],
      [
        "▁mektupları",
        -11.027675424501796
      ],
      [
        "▁dudak",
        -10.713687603163374
      ],
      [
        "▁planl",
        -9.445688463179287
      ],
      [
        "▁yer",
        -6.694881241380509
      ],
      [
        "ha",
        -8.752005402359181
      ],
      [
        "▁tarlaları",
        -10.407402224714229
      ],
      [
        "▁yansıtıyor",
        -8.869144445714058
      ],
      [
        "▁bulamac",
        -10.899686778303478
      ],
      [
        "▁rahmin",
        -11.098987358071438
      ],
      [
        "▁takimi",
        -11.099591567897317
      ],
      [
        "▁mevsim",
        -9.898040965412665
      ],
      [
        "▁kampanyalarda",
        -9.393546701726454
      ],
      [
        "▁birimi",
        -9.562204741790769
      ],
      [
        "▁referans",
        -10.589219242222402
      ],
      [
        "▁krenz",
        -8.654174855599255
      ],
      [
        "▁aks",
        -10.48994027006173
      ],
      [
        "ydu",
        -8.855694608903821
      ],
      [
        "▁mıydı",
        -5.937353458778416
      ],
      [
        "▁baskanlıgında",
        -10.62355851600848
      ],
      [
        "ar",
        -7.493436261772175
      ],
      [
        "▁yatı",
        -10.502379033274691
      ],
      [
        "tasıy",
        -7.833408465297406
      ],
      [
        "▁anahtar",
        -9.715441881314721
      ],
      [
        "▁tanrı",
        -9.288758395919707
      ],
      [
        "▁hangisini",
        -8.709945569911232
      ],
      [
        "▁baklava",
        -10.353474821852117
      ],
      [
        "▁paralı",
        -9.296467422947414
      ],
      [
        "▁deniz",
        -6.70524179794094
      ],
      [
        "tıg",
        -10.674037302681592
      ],
      [
        "l",
        -6.569307647131929
      ],
      [
        "▁kamuoyun",
        -10.71360933259333
      ],
      [
        "nin",
        -5.602560080978107
      ],
      [
        "▁munf",
        -9.545641594201893
      ],
      [
        "lig",
        -8.914653940775828
      ],
      [
        "▁toplum",
        -8.897090138550798
      ],
      [
        "▁danısmanları",
        -10.419200263397883
      ],
      [
        "▁suratı",
        -10.61278663095182
      ],
      [
        "▁duyul",
        -9.512814932015749
      ],
      [
        "▁ovaları",
        -10.98466695583734
      ],
      [
        "▁italya",
        -8.601002737835934
      ],
      [
        "▁asistan",
        -11.081069218639065
      ],
      [
        "▁kuba",
        -8.979221918151952
      ],
      [
        "▁adamdı",
        -8.616312934350969
      ],
      [
        "▁altın",
        -7.628482634274402
      ],
      [
        "s'in",
        -8.432533293423905
      ],
      [
        "▁dusuncesi",
        -10.231879656379927
      ],
      [
        "▁yasadı",
        -8.33059310468889
      ],
      [
        "▁yel",
        -9.928072888161262
      ],
      [
        "ter",
        -8.60355042778215
      ],
      [
        "▁yasama",
        -9.239135733798527
      ],
      [
        "▁ala",
        -10.653642944700746
      ],
      [
        "ta",
        -6.309472583087412
      ],
      [
        "▁yanın",
        -8.808855507883324
      ],
      [
        "▁service",
        -8.884216716069346
      ],
      [
        "▁cekme",
        -9.559497285288467
      ],
      [
        "▁cıglık",
        -9.965300921243148
      ],
      [
        "▁marcos",
        -9.012419238293038
      ],
      [
        "yim",
        -8.070603348884784
      ],
      [
        "▁icti",
        -8.960747319941051
      ],
      [
        "▁inter",
        -8.45543501840923
      ],
      [
        "▁tencerey",
        -10.383590675425406
      ],
      [
        "▁oturu",
        -8.138288562191022
      ],
      [
        "▁tedbir",
        -10.09263617461231
      ],
      [
        "▁tasar",
        -10.79959753798234
      ],
      [
        "▁dudaklarım",
        -11.12751007448139
      ],
      [
        "▁garson",
        -9.682640150119699
      ],
      [
        "▁konut",
        -8.787111018095244
      ],
      [
        "lanması",
        -10.359603905291229
      ],
      [
        "a",
        -12.802702672349763
      ],
      [
        "▁yaklasıyor",
        -9.60960345800296
      ],
      [
        "▁finansmanı",
        -10.317204590145801
      ],
      [
        "ettin",
        -8.564120140395024
      ],
      [
        "▁onayladı",
        -8.865808845791921
      ],
      [
        "▁val",
        -8.754715665115816
      ],
      [
        "▁calis",
        -9.642536049055963
      ],
      [
        "▁36",
        -7.7368198595319555
      ],
      [
        "▁teknigi",
        -10.876096098698927
      ],
      [
        "▁elinde",
        -7.382576021561307
      ],
      [
        "▁sahibi",
        -9.619661983562182
      ],
      [
        "ye",
        -7.60897417522296
      ],
      [
        "▁konusu",
        -8.390875649261556
      ],
      [
        "▁bir",
        -1.2266873658587887
      ],
      [
        "▁guzelligin",
        -10.016833124622703
      ],
      [
        "▁komiser",
        -10.898744744034166
      ],
      [
        "▁toronto",
        -10.589219079965353
      ],
      [
        "▁eglence",
        -8.476005748206358
      ],
      [
        "▁to",
        -8.373878989344888
      ],
      [
        "▁kasıgı",
        -8.570716544797879
      ],
      [
        "▁surdu",
        -8.164213254784288
      ],
      [
        "▁pusu",
        -11.119069857562128
      ],
      [
        "▁aynısı",
        -10.93085146838869
      ],
      [
        "▁sezlong",
        -9.78944386405065
      ],
      [
        "▁canım",
        -9.042320808531882
      ],
      [
        "▁proje",
        -8.861269110217574
      ],
      [
        "▁odakl",
        -9.539641346049166
      ],
      [
        "▁yucel",
        -8.798909557340426
      ],
      [
        "▁salıncak",
        -10.732110527644963
      ],
      [
        "sızlıg",
        -10.970611748517893
      ],
      [
        "▁et",
        -8.146792872748023
      ],
      [
        "▁calkala",
        -9.148098381269094
      ],
      [
        "▁havası",
        -9.243205368071937
      ],
      [
        "▁vurgu",
        -10.512408074888409
      ],
      [
        "▁mersi",
        -11.103914345368345
      ],
      [
        "▁ala",
        -8.093254663736081
      ],
      [
        "▁turlerini",
        -10.555614328901122
      ],
      [
        "▁yorumunu",
        -10.942155037739184
      ],
      [
        "▁sav",
        -9.782131060563213
      ],
      [
        "▁arasında",
        -6.07117041101955
      ],
      [
        "ger",
        -3.133136128089496
      ],
      [
        "▁olmalıdır",
        -8.745491816416173
      ],
      [
        "▁yudum",
        -9.491262987797654
      ],
      [
        "▁partiler",
        -10.085074307743405
      ],
      [
        "▁bardaklar",
        -10.546925538355854
      ],
      [
        "bele",
        -10.708610075982573
      ],
      [
        "▁fırsat",
        -9.120271535565562
      ],
      [
        "▁fiyatlarında",
        -10.588849764193094
      ],
      [
        "▁destekl",
        -7.771508578799349
      ],
      [
        "▁sokaklarında",
        -10.608746170383766
      ],
      [
        "▁prosedurleri",
        -10.68267173935957
      ],
      [
        "▁kurulan",
        -9.027004090010305
      ],
      [
        "▁tebessum",
        -10.732077977246565
      ],
      [
        "▁yazmak",
        -10.383297310716635
      ],
      [
        "p",
        -4.215807387704473
      ],
      [
        "kin",
        -5.764318754693728
      ],
      [
        "diy",
        -8.935304806481303
      ],
      [
        "y",
        -9.699613634584775
      ],
      [
        "▁du",
        -8.633377315617889
      ],
      [
        "ymıs",
        -8.191309879534352
      ],
      [
        "▁munakasa",
        -10.732076223216637
      ],
      [
        "▁pasta",
        -10.529082328386707
      ],
      [
        "▁tedirginlik",
        -11.10239712474378
      ],
      [
        "▁oteliniz",
        -10.80320617550945
      ],
      [
        "▁kulakları",
        -10.543584080163903
      ],
      [
        "▁etkiley",
        -9.426858229901232
      ],
      [
        "▁setin",
        -10.944765078764267
      ],
      [
        "▁gidilebil",
        -9.630196515012518
      ],
      [
        "▁tutturu",
        -9.76479399545336
      ],
      [
        "hasılı",
        -9.78515525601182
      ],
      [
        "▁isbirligi",
        -9.508741178128897
      ],
      [
        "▁biyoloji",
        -10.589230203502837
      ],
      [
        "▁bekleye",
        -8.896729944215993
      ],
      [
        "▁yarat",
        -9.41616422859978
      ],
      [
        "▁geni",
        -10.86442490322344
      ],
      [
        "▁istemisti",
        -9.541192689152052
      ],
      [
        "im",
        -9.712386067520356
      ],
      [
        "▁20",
        -5.2040630633608735
      ],
      [
        "▁teblig",
        -10.253136182991788
      ],
      [
        "▁e",
        -9.331930869741191
      ],
      [
        "olalı",
        -9.31161471959604
      ],
      [
        "▁yan",
        -8.376526855088763
      ],
      [
        "yil",
        -8.126759085737312
      ],
      [
        "▁nobetci",
        -10.084647093538358
      ],
      [
        "▁agzın",
        -9.04934001924738
      ],
      [
        "▁aralık",
        -7.542248708489103
      ],
      [
        "▁kırlarda",
        -10.767350107767603
      ],
      [
        "▁mart'ta",
        -8.89914827322485
      ],
      [
        "▁cazibe",
        -11.04129584931922
      ],
      [
        "▁sıralar",
        -10.13728752802846
      ],
      [
        "▁yolcular",
        -10.472564262866149
      ],
      [
        "▁h",
        -8.380132185159235
      ],
      [
        "orlu",
        -9.157599023258111
      ],
      [
        "av",
        -10.194207870528562
      ],
      [
        "▁alıyordu",
        -8.676136001773859
      ],
      [
        "%",
        -4.15274950330704
      ],
      [
        "▁guzellikleri",
        -10.98863206600525
      ],
      [
        "▁uzerim",
        -10.56819565077258
      ],
      [
        "▁pilavı",
        -10.51338459634484
      ],
      [
        "▁istikametin",
        -11.126085710694554
      ],
      [
        "▁edilmeli",
        -9.333579873570425
      ],
      [
        "▁borcu",
        -9.311614013494292
      ],
      [
        "▁agustos",
        -8.241755171939118
      ],
      [
        "▁numarası",
        -10.136601151087659
      ],
      [
        "▁biliyorsun",
        -8.499263673790248
      ],
      [
        "▁salca",
        -10.901714013255493
      ],
      [
        "▁hicbirimiz",
        -8.997904256886198
      ],
      [
        "▁oynamak",
        -10.96335669243026
      ],
      [
        "▁sarhoslugu",
        -11.099003917438505
      ],
      [
        "▁hanım",
        -8.598307320444402
      ],
      [
        "ask",
        -5.901277785160477
      ],
      [
        "▁yıla",
        -9.214803748431622
      ],
      [
        "▁ede",
        -8.332088230500652
      ],
      [
        "▁edecekti",
        -8.647247482711206
      ],
      [
        "▁geri",
        -7.181883455722312
      ],
      [
        "▁asker",
        -8.74362205374729
      ],
      [
        "ak",
        -8.1590688120904
      ],
      [
        "▁arabalar",
        -9.23945606759834
      ],
      [
        "▁liderleri",
        -9.812978370232099
      ],
      [
        "▁mar",
        -10.20644582783337
      ],
      [
        "▁nes",
        -8.78591188916262
      ],
      [
        "▁universitey",
        -10.808516716510232
      ],
      [
        "▁surdur",
        -11.004511297606786
      ],
      [
        "ikasyon",
        -10.451667869709146
      ],
      [
        "▁maruz",
        -11.098749068421416
      ],
      [
        "▁1/",
        -5.763313856350588
      ],
      [
        "▁hayati",
        -9.655776974279108
      ],
      [
        "▁oturu",
        -8.69156486689153
      ],
      [
        "klı",
        -8.389136496097425
      ],
      [
        "▁yas",
        -9.500219933938922
      ],
      [
        "▁komsular",
        -10.740543583674437
      ],
      [
        "▁patent",
        -10.58923637637673
      ],
      [
        "▁boslugun",
        -10.801783284583523
      ],
      [
        "▁bugunku",
        -10.601354116767466
      ],
      [
        "▁gorme",
        -9.360756541026173
      ],
      [
        "▁calısanlar",
        -9.538035672261946
      ],
      [
        "▁kesimin",
        -10.836719727238945
      ],
      [
        "▁westinghouse",
        -8.798256336019259
      ],
      [
        "▁fotograflarını",
        -10.931266179997138
      ],
      [
        "▁donmus",
        -8.666165590686226
      ],
      [
        "▁kedi",
        -8.848594785286302
      ],
      [
        "▁gozle",
        -9.650307705129004
      ],
      [
        "▁nevi",
        -9.809808854025043
      ],
      [
        "▁cocugu",
        -8.464482906350312
      ],
      [
        "▁kayna",
        -9.008781536000571
      ],
      [
        "▁dusman",
        -9.311463415038308
      ],
      [
        "▁banyosu",
        -9.612102171395204
      ],
      [
        "▁milliyet",
        -10.351984992568074
      ],
      [
        "▁talih",
        -10.33052498418931
      ],
      [
        "▁sattıgın",
        -10.934936026070394
      ],
      [
        "▁avukatı",
        -9.824427426230066
      ],
      [
        "▁kazancları",
        -9.22606639994322
      ],
      [
        "▁tavanı",
        -11.035024462471071
      ],
      [
        "▁zararları",
        -10.753185033093256
      ],
      [
        "bi",
        -9.420406601210182
      ],
      [
        "▁bagdas",
        -10.900897790817295
      ],
      [
        "▁duymadi",
        -9.651300806345368
      ],
      [
        "▁der",
        -10.369724325700183
      ],
      [
        "▁acı",
        -8.163002790520888
      ],
      [
        "▁karları",
        -10.262431361670956
      ],
      [
        "tır",
        -6.766149102960735
      ],
      [
        "▁adları",
        -10.611012456617193
      ],
      [
        "▁iktidarın",
        -11.090833851519115
      ],
      [
        "▁ugultusu",
        -10.659095134620117
      ],
      [
        "ley",
        -8.09942688615328
      ],
      [
        "▁yetis",
        -9.380711704215894
      ],
      [
        "▁bono",
        -10.209357016491664
      ],
      [
        "▁ciftcileri",
        -10.845768583078268
      ],
      [
        "▁gule",
        -9.488785547814683
      ],
      [
        "▁cakıl",
        -10.464864511066684
      ],
      [
        "▁kadeh",
        -9.520784374255957
      ],
      [
        "▁dalları",
        -10.290046530349686
      ],
      [
        "▁doktorlar",
        -9.582410810121244
      ],
      [
        "▁cikiyor",
        -9.085675067508488
      ],
      [
        "▁1980",
        -7.73474019746069
      ],
      [
        "▁bilmeye",
        -9.433429746263695
      ],
      [
        "▁pazarda",
        -10.04208098864109
      ],
      [
        "taki",
        -7.906016675487488
      ],
      [
        "▁is",
        -3.0359727194443247
      ],
      [
        "▁gitmek",
        -8.218571004193022
      ],
      [
        "▁havuzun",
        -10.392612384585217
      ],
      [
        "▁g.",
        -9.047681233475757
      ],
      [
        "▁haber",
        -7.78637618520162
      ],
      [
        "dan",
        -7.068713376293524
      ],
      [
        "▁iceriyor",
        -7.899443876560197
      ],
      [
        "▁modelleri",
        -10.709919887582862
      ],
      [
        "▁kitapların",
        -10.535994059970623
      ],
      [
        "▁sovyet",
        -9.09310172260052
      ],
      [
        "▁annesin",
        -10.459944590771926
      ],
      [
        "▁onum",
        -10.391074851980735
      ],
      [
        "▁kusur",
        -8.597400942839396
      ],
      [
        "▁duser",
        -8.161663015630484
      ],
      [
        "▁boyunda",
        -10.428962924789657
      ],
      [
        "ifir",
        -9.43901724527771
      ],
      [
        "▁ligde",
        -10.94080009891509
      ],
      [
        "er",
        -6.344730511987983
      ],
      [
        "▁listesi",
        -10.538387024712971
      ],
      [
        "landıgı",
        -10.323442418422346
      ],
      [
        "▁valisi",
        -11.0644729394477
      ],
      [
        "▁meclis",
        -8.920838097613919
      ],
      [
        "▁yiyecek",
        -7.9526458648965095
      ],
      [
        "▁ahmet",
        -7.460731861142552
      ],
      [
        "▁yak",
        -8.87399421397755
      ],
      [
        "▁iddia",
        -8.054902716093714
      ],
      [
        "▁tuhaf",
        -9.988569684975394
      ],
      [
        "▁promosyonları",
        -11.108576971414909
      ],
      [
        "▁oyu",
        -10.284110859189894
      ],
      [
        "▁1979",
        -8.076031964180125
      ],
      [
        "r",
        -3.023477297952499
      ],
      [
        "▁politikacı",
        -11.076455682722056
      ],
      [
        "▁muhtac",
        -11.098782401957143
      ],
      [
        "▁kalkısları",
        -11.127302297747368
      ],
      [
        "▁gorusemedi",
        -9.513800336927542
      ],
      [
        "▁fed",
        -8.333756907682446
      ],
      [
        "▁sasır",
        -9.511953677354766
      ],
      [
        "▁meyveleri",
        -10.798093602570415
      ],
      [
        "▁deneme",
        -8.690940955384955
      ],
      [
        "▁ugradı",
        -8.578564402853452
      ],
      [
        "▁inanılma",
        -9.274006070466196
      ],
      [
        "▁acısın",
        -8.626426967605592
      ],
      [
        "▁anlatır",
        -8.729529385443229
      ],
      [
        "▁ailesini",
        -9.953762466178485
      ],
      [
        "boy",
        -9.336408938206505
      ],
      [
        "▁cabası",
        -10.028740216272837
      ],
      [
        "▁model",
        -9.74358008790874
      ],
      [
        "▁borek",
        -10.658204446474512
      ],
      [
        "zi",
        -9.901658465207191
      ],
      [
        "nedi",
        -9.521771312324441
      ],
      [
        "▁zar",
        -9.493410164453543
      ],
      [
        "▁milyon",
        -3.278490722863072
      ],
      [
        "onun",
        -7.534328467502998
      ],
      [
        "▁otur",
        -10.958582379730768
      ],
      [
        "▁tepki",
        -8.734138648929592
      ],
      [
        "▁performansı",
        -10.44263852746294
      ],
      [
        "▁dısarıda",
        -9.025771118364892
      ],
      [
        "▁anı",
        -9.40458413568092
      ],
      [
        "▁yoneticilerin",
        -9.92097322952347
      ],
      [
        "▁mahkum",
        -10.772468048639698
      ],
      [
        "▁usul",
        -9.00808931913662
      ],
      [
        "▁evlerini",
        -10.029216159044466
      ],
      [
        "▁yayıncılar",
        -10.43741093842068
      ],
      [
        "▁kalitesini",
        -9.666058116802805
      ],
      [
        "i",
        -5.429547822392264
      ],
      [
        "▁petrol",
        -8.045744135222211
      ],
      [
        "▁dikme",
        -10.616422213540591
      ],
      [
        "▁resource",
        -8.898275567163315
      ],
      [
        "▁hedef",
        -8.9046678329255
      ],
      [
        "▁yazarın",
        -9.629960001339729
      ],
      [
        "▁nihat",
        -8.562125669888513
      ],
      [
        "▁pınar",
        -10.732096133609536
      ],
      [
        "▁biraz",
        -4.687763168436832
      ],
      [
        "▁hukumetleri",
        -11.046682368535729
      ],
      [
        "▁kol",
        -8.714777017177475
      ],
      [
        "▁basımız",
        -9.843555764135713
      ],
      [
        "▁ikizler",
        -10.733103693157428
      ],
      [
        "rasın",
        -9.899731043873167
      ],
      [
        "▁ned",
        -8.78321354616227
      ],
      [
        "▁romanı",
        -9.823510751716336
      ],
      [
        "ah",
        -8.435195336558095
      ],
      [
        "▁ba",
        -10.862362165488445
      ],
      [
        "▁darbe",
        -8.765084605568077
      ],
      [
        "▁geldigi",
        -8.825769745898913
      ],
      [
        "▁fer",
        -11.061170329288283
      ],
      [
        "▁acıl",
        -9.421517186969519
      ],
      [
        "▁gel",
        -8.892626683111722
      ],
      [
        "▁12",
        -5.275039660619872
      ],
      [
        "▁sınıfı",
        -8.233361380940078
      ],
      [
        "▁eksi",
        -9.529987339581917
      ],
      [
        "▁usul",
        -9.575782475052662
      ],
      [
        "▁gorun",
        -10.847052273827346
      ],
      [
        "▁sp",
        -10.876621649710135
      ],
      [
        "▁oldugumuz",
        -9.16642978098173
      ],
      [
        "▁yesil",
        -10.850837741241222
      ],
      [
        "▁kapagı",
        -9.864462590945674
      ],
      [
        "▁binası",
        -10.361610519254434
      ],
      [
        "▁kitabını",
        -10.199762705077676
      ],
      [
        "asa",
        -9.4927320551571
      ],
      [
        "▁bilgisini",
        -10.842941843806825
      ],
      [
        "▁pop",
        -11.095641748565631
      ],
      [
        "▁hosum",
        -9.254613828975128
      ],
      [
        "▁onu",
        -3.8180555155698697
      ],
      [
        "▁rezervler",
        -11.10663400563456
      ],
      [
        "▁beyin",
        -8.831844546392286
      ],
      [
        "▁degistirdi",
        -8.747167262377925
      ],
      [
        "▁imtihan",
        -10.898745071264448
      ],
      [
        "▁yak",
        -10.940878376367039
      ],
      [
        "▁yakı",
        -9.706540007160221
      ],
      [
        "▁yasa",
        -8.44160695791037
      ],
      [
        "il",
        -8.173817287568653
      ],
      [
        "▁tas",
        -7.769951234426223
      ],
      [
        "▁kazan",
        -8.069428999623325
      ],
      [
        "▁agabey",
        -9.750942879586905
      ],
      [
        "▁olanagı",
        -10.111595381686776
      ],
      [
        "▁hazırlan",
        -10.5030277716045
      ],
      [
        "ist",
        -8.724220420575483
      ],
      [
        "histi",
        -9.410836522427966
      ],
      [
        "▁formul",
        -10.430461132472024
      ],
      [
        "▁gasp",
        -10.898743500760187
      ],
      [
        "▁beraber",
        -11.09073191215938
      ],
      [
        "▁he",
        -10.546813440427512
      ],
      [
        "▁egil",
        -9.605089697958451
      ],
      [
        "▁degisikligin",
        -10.997696064430807
      ],
      [
        "▁sokaklarda",
        -9.838412183134931
      ],
      [
        "▁bilgilerin",
        -9.628671063802788
      ],
      [
        "uzlu",
        -9.247903973257936
      ],
      [
        "mesini",
        -8.598908199490385
      ],
      [
        "▁sure",
        -8.439721005658491
      ],
      [
        "▁daralma",
        -10.735183215615915
      ],
      [
        "▁bilemiyor",
        -9.615336734954052
      ],
      [
        "▁burokratlar",
        -10.9287839987452
      ],
      [
        "80",
        -8.12612620538985
      ],
      [
        "▁calısan",
        -8.46280319227702
      ],
      [
        "▁haftada",
        -9.20095775390958
      ],
      [
        "▁ates",
        -8.097457371288762
      ],
      [
        "▁sırada",
        -8.220102409187438
      ],
      [
        "▁olurlar",
        -8.986618617119284
      ],
      [
        "▁borusu",
        -11.097017800075719
      ],
      [
        "▁koyma",
        -10.500817156303528
      ],
      [
        ".",
        -11.199601737652316
      ],
      [
        "▁sıcakta",
        -10.48030432878166
      ],
      [
        "▁ikimiz",
        -8.192797663683141
      ],
      [
        "▁industrial",
        -8.624324183486053
      ],
      [
        "▁sahibi",
        -7.909024547622053
      ],
      [
        "▁mitsubishi",
        -8.626984156340537
      ],
      [
        "▁kaybed",
        -8.422957492860599
      ],
      [
        "duz",
        -9.443318958867772
      ],
      [
        "▁durusma",
        -9.626773629937006
      ],
      [
        "▁saglıgı",
        -9.929407632942922
      ],
      [
        "▁1969'",
        -10.16221204134145
      ],
      [
        "▁li",
        -5.934253238643644
      ],
      [
        "▁ankara",
        -7.346777313838826
      ],
      [
        "▁kac",
        -9.069158393663654
      ],
      [
        "▁sarkıları",
        -10.810128679786551
      ],
      [
        "▁telekom",
        -10.253108001175768
      ],
      [
        "▁omru",
        -10.432985983214108
      ],
      [
        "▁inanc",
        -10.19780864511203
      ],
      [
        "▁ugra",
        -9.695351273713412
      ],
      [
        "▁fırtına",
        -9.406171229121949
      ],
      [
        "▁ocakları",
        -10.819251943796978
      ],
      [
        "▁anlayısı",
        -10.469665345014224
      ],
      [
        "▁toronto",
        -8.034445559699723
      ],
      [
        "▁bas",
        -8.423869119465175
      ],
      [
        "ze",
        -8.759505892932506
      ],
      [
        "gin",
        -9.118315037239439
      ],
      [
        "▁yem",
        -9.963969376941343
      ],
      [
        "sız",
        -7.68390184486632
      ],
      [
        "▁asagı",
        -8.030071702686872
      ],
      [
        "▁sirke",
        -10.011192751803538
      ],
      [
        "▁rezalet",
        -10.353108038880926
      ],
      [
        "▁tepkisini",
        -11.115606579634033
      ],
      [
        "▁konferans",
        -9.96127674457906
      ],
      [
        "▁sisman",
        -11.121751503560164
      ],
      [
        "▁kıkır",
        -9.792035996201026
      ],
      [
        "▁sondaj",
        -10.2531100980813
      ],
      [
        "▁karga",
        -10.467732812078756
      ],
      [
        "▁a",
        -11.666990925470232
      ],
      [
        "▁patla",
        -9.438624053814067
      ],
      [
        "▁imkb",
        -9.009368639899556
      ],
      [
        "▁lambasını",
        -10.767825062400247
      ],
      [
        "▁urunun",
        -11.037032073263973
      ],
      [
        "▁sezer",
        -8.84502097311117
      ],
      [
        "▁sade",
        -8.413972647884538
      ],
      [
        "▁herifi",
        -10.20737710293499
      ],
      [
        "▁taleplerini",
        -10.381043962496644
      ],
      [
        "▁resim",
        -8.822738314177805
      ],
      [
        "▁elestirilerin",
        -11.058864805937208
      ],
      [
        "li",
        -7.25093721435945
      ],
      [
        "▁sirketlerin",
        -9.013671989676709
      ],
      [
        "ol",
        -9.655690792636404
      ],
      [
        "▁parcasını",
        -9.829379991765732
      ],
      [
        "▁edebiyat",
        -8.925924641227077
      ],
      [
        "▁tanık",
        -9.825817082910808
      ],
      [
        "▁gecis",
        -9.431261100294176
      ],
      [
        "▁kepenkler",
        -11.055611518477132
      ],
      [
        "▁a",
        -7.494713518214896
      ],
      [
        "▁cihazı",
        -10.18230208954759
      ],
      [
        "▁sa",
        -7.533453171507169
      ],
      [
        "▁tahviller",
        -8.2697222974009
      ],
      [
        "talı",
        -9.336618569868646
      ],
      [
        "▁rota",
        -9.457555440197707
      ],
      [
        "▁artırma",
        -9.951067189319902
      ],
      [
        "▁ince",
        -9.045521767569728
      ],
      [
        "leme",
        -9.596414739434973
      ],
      [
        "▁devralma",
        -8.980490017509156
      ],
      [
        "▁al",
        -7.921560354734069
      ],
      [
        "vet",
        -10.862053432441211
      ],
      [
        "▁batı",
        -7.674105944717036
      ],
      [
        "▁sonrası",
        -8.942789294340189
      ],
      [
        "▁kalmaz",
        -9.138735963224718
      ],
      [
        "sine",
        -7.151915386099093
      ],
      [
        "▁aday",
        -9.332050368410783
      ],
      [
        "▁aynasın",
        -10.939606408295695
      ],
      [
        "▁koalisyon",
        -10.898742891049187
      ],
      [
        "▁bulanıklı",
        -11.098743846085185
      ],
      [
        "hi",
        -10.103717129124831
      ],
      [
        "ansız",
        -9.202815546012305
      ],
      [
        "▁gecen",
        -8.284165265283239
      ],
      [
        "siniz",
        -5.458119837635438
      ],
      [
        "▁programın",
        -10.007314055827763
      ],
      [
        "tu",
        -9.260106287129076
      ],
      [
        "▁sekil",
        -9.748264159171061
      ],
      [
        "l",
        -5.067017035620295
      ],
      [
        "▁sepet",
        -9.614176089450508
      ],
      [
        "▁canavar",
        -10.82501250635201
      ],
      [
        "▁bitmisti",
        -9.350646425595164
      ],
      [
        "▁yabancıların",
        -10.779429452651472
      ],
      [
        "▁bırakmaz",
        -9.724466700786111
      ],
      [
        "▁er",
        -9.422438990363903
      ],
      [
        "▁cocuklarını",
        -9.735780977597202
      ],
      [
        "▁kart",
        -9.344312961292754
      ],
      [
        "▁ma",
        -7.653124638385439
      ],
      [
        "▁degisim",
        -8.989718703869027
      ],
      [
        "▁diyorsun",
        -9.536974561954176
      ],
      [
        "▁gebe",
        -11.097771764358303
      ],
      [
        "m",
        -3.07230917458263
      ],
      [
        "▁arkadasim",
        -9.188044532323831
      ],
      [
        "▁temsil",
        -8.782755659135798
      ],
      [
        "▁rev",
        -10.5880067581257
      ],
      [
        "sızdı",
        -9.605983511204128
      ],
      [
        "sem",
        -7.580612882548985
      ],
      [
        "▁universitede",
        -10.168299313166173
      ],
      [
        "▁the",
        -10.253218807517815
      ],
      [
        "sı",
        -7.695684531623616
      ],
      [
        "▁adım",
        -7.946837723521723
      ],
      [
        "▁ceyiz",
        -11.090579722729892
      ],
      [
        "u",
        -2.3223596860280313
      ],
      [
        "▁%1",
        -3.829367302077701
      ],
      [
        "▁eylul",
        -7.337048712433888
      ],
      [
        "lanmaya",
        -11.111461838171948
      ],
      [
        "▁stres",
        -10.368361094314794
      ],
      [
        "▁avize",
        -10.58948761958107
      ],
      [
        "▁bolgesinde",
        -10.282788908759759
      ],
      [
        "c",
        -8.29853374149642
      ],
      [
        "kun",
        -6.943139555201732
      ],
      [
        "▁fiyat",
        -6.48714192151173
      ],
      [
        "▁katılımcı",
        -10.850751002582777
      ],
      [
        "▁olmam",
        -8.412902860189503
      ],
      [
        "▁cıkısı",
        -10.52022532169637
      ],
      [
        "▁anlatı",
        -9.680932439791912
      ],
      [
        "▁usta",
        -8.916580827932766
      ],
      [
        "▁falso",
        -10.898779230590666
      ],
      [
        "▁serc",
        -11.008370666573352
      ],
      [
        "▁zorluyor",
        -9.619638046090916
      ],
      [
        "▁ehliyet",
        -10.89879867462668
      ],
      [
        "▁ormanı",
        -10.707619603675361
      ],
      [
        "▁guluyor",
        -9.117188028042003
      ],
      [
        "▁bilek",
        -10.983495470883067
      ],
      [
        "▁mektupların",
        -10.855672179582859
      ],
      [
        "ilk",
        -9.78764867191558
      ],
      [
        "▁kıdem",
        -10.589231572397452
      ],
      [
        "▁uygulaması",
        -10.841236842375915
      ],
      [
        "▁oldugunda",
        -8.330188344526137
      ],
      [
        "▁karda",
        -11.075709778635586
      ],
      [
        "▁tarz",
        -9.587969916146937
      ],
      [
        "▁edep",
        -10.352899296396352
      ],
      [
        "▁azar",
        -11.100150476167023
      ],
      [
        "8",
        -4.0265055199764435
      ],
      [
        "▁davranır",
        -9.60596229547641
      ],
      [
        "▁tesekkurler",
        -8.253572382656614
      ],
      [
        "▁kullanıla",
        -9.091862566627285
      ],
      [
        "tar",
        -10.7368338965804
      ],
      [
        "▁kazancı",
        -9.20891291890275
      ],
      [
        "▁dıs",
        -7.897161349086526
      ],
      [
        "▁eder",
        -6.353771941991869
      ],
      [
        "ler",
        -6.545964428951377
      ],
      [
        "▁ekibin",
        -10.859371517180458
      ],
      [
        "ektedir",
        -9.616726210375742
      ],
      [
        "▁suda",
        -9.823109260914052
      ],
      [
        "▁diz",
        -9.29445976817098
      ],
      [
        "▁tembelli",
        -11.098806844128735
      ],
      [
        "▁tasvir",
        -10.464641217688726
      ],
      [
        "▁orgutleri",
        -11.045245290589358
      ],
      [
        "▁kilim",
        -10.859352804131966
      ],
      [
        "ti",
        -9.518487782928336
      ],
      [
        "▁kab",
        -9.464803300421819
      ],
      [
        "▁civi",
        -9.811060224878023
      ],
      [
        "▁say",
        -7.889436589253908
      ],
      [
        "▁seyahat",
        -8.056336516611918
      ],
      [
        "▁sesler",
        -9.273630729968065
      ],
      [
        "▁kendinde",
        -7.5574632228605765
      ],
      [
        "kten",
        -8.508536247214465
      ],
      [
        "▁yaz",
        -7.926089875289966
      ],
      [
        "▁vergisi",
        -9.397282737972505
      ],
      [
        "▁dudagı",
        -10.630665147315742
      ],
      [
        "▁mukellefi",
        -10.898742889311542
      ],
      [
        "▁il",
        -9.402567935944099
      ],
      [
        "erdi",
        -9.352487927914266
      ],
      [
        "la",
        -6.957578549967413
      ],
      [
        "▁gelmesi",
        -10.677208879717636
      ],
      [
        "▁kuvveti",
        -11.001096187384201
      ],
      [
        "▁turku",
        -9.134382901577577
      ],
      [
        "▁sıcrama",
        -10.589586656255126
      ],
      [
        "▁yoklama",
        -10.361732625602523
      ],
      [
        "ona",
        -8.784433502303932
      ],
      [
        "▁lo",
        -7.2307686568052425
      ],
      [
        "▁bekci",
        -10.26188918392433
      ],
      [
        "▁kalıyordu",
        -9.45799961116282
      ],
      [
        "▁un",
        -9.036362133150654
      ],
      [
        "▁kalı",
        -10.384996563446087
      ],
      [
        "▁olmaya",
        -9.42448259309219
      ],
      [
        "▁iliskisini",
        -10.803699629512025
      ],
      [
        "▁omzun",
        -9.98830819648005
      ],
      [
        "▁sahıslar",
        -10.630811180122862
      ],
      [
        "▁dunyası",
        -9.667921840265473
      ],
      [
        "▁cıt",
        -10.876072619599022
      ],
      [
        "▁bir",
        -3.027951570239419
      ],
      [
        "▁baglıyor",
        -9.391611346703952
      ],
      [
        "da",
        -5.077845021608134
      ],
      [
        "i'ni",
        -7.8121410590960405
      ],
      [
        "tif",
        -9.95191837668456
      ],
      [
        "▁kalfa",
        -10.353136734218573
      ],
      [
        "▁tumun",
        -8.919627659675687
      ],
      [
        "▁ikinci",
        -7.527984601976824
      ],
      [
        "▁sırtında",
        -9.151478960670914
      ],
      [
        "▁temelin",
        -10.721814144491493
      ],
      [
        "▁kahverengi",
        -9.309032357645929
      ],
      [
        "▁dersler",
        -10.123293598423498
      ],
      [
        "▁marangoz",
        -11.098742889389506
      ],
      [
        "▁yayını",
        -10.259392379545435
      ],
      [
        "▁yerin",
        -7.489110257723452
      ],
      [
        "ormusc",
        -9.771084002896407
      ],
      [
        "▁yerim",
        -10.606474303998775
      ],
      [
        "▁yuva",
        -9.917992784489932
      ],
      [
        "▁o",
        -8.605437628909534
      ],
      [
        "▁colum",
        -10.73240650867794
      ],
      [
        "▁duz",
        -9.50285347361229
      ],
      [
        "nik",
        -8.139729787660851
      ],
      [
        "▁kalabalıgın",
        -10.395012662136367
      ],
      [
        "aya",
        -8.979322155521185
      ],
      [
        "irli",
        -8.993601593919257
      ],
      [
        "▁9'da",
        -9.366471975519694
      ],
      [
        "▁hindistan'ı",
        -8.792061938177595
      ],
      [
        "▁bahsetti",
        -8.773541355114665
      ],
      [
        "▁diyarbakır",
        -8.615718311680668
      ],
      [
        "▁fonun",
        -10.603319896795776
      ],
      [
        "▁krediler",
        -10.121712793230085
      ],
      [
        "ler",
        -8.293736253779967
      ],
      [
        "uzeri",
        -9.32618752675365
      ],
      [
        "▁sahi",
        -8.37558660362646
      ],
      [
        "▁zorlama",
        -10.92858662676962
      ],
      [
        "▁cagrısı",
        -10.751131163427404
      ],
      [
        "si'nde",
        -10.9649602574612
      ],
      [
        "▁emanet",
        -10.732076589144874
      ],
      [
        "▁kemal",
        -10.58920205168662
      ],
      [
        "ikt",
        -8.993644293563689
      ],
      [
        "▁ucusu",
        -6.812694292338416
      ],
      [
        "ik",
        -8.366847916826464
      ],
      [
        "rlar",
        -8.593514451729753
      ],
      [
        "▁mayın",
        -10.902865561386285
      ],
      [
        "▁yapıldı",
        -8.353186632788546
      ],
      [
        "da",
        -8.580004578459501
      ],
      [
        "▁dolabın",
        -10.38637811971625
      ],
      [
        "ıp",
        -7.6062273933836835
      ],
      [
        "▁dur",
        -8.282044598869456
      ],
      [
        "▁dogu",
        -9.948789694617268
      ],
      [
        "▁seyi",
        -7.89694106912911
      ],
      [
        "▁acıkl",
        -9.107510547967118
      ],
      [
        "▁tahvil",
        -7.6375459976947635
      ],
      [
        "▁basım",
        -8.878461927263594
      ],
      [
        "0",
        -4.429548908795914
      ],
      [
        "▁akademi",
        -10.464220612269564
      ],
      [
        "▁kanı",
        -9.804895357748114
      ],
      [
        "alım",
        -6.689194724550636
      ],
      [
        "▁ala",
        -9.497816087482008
      ],
      [
        "▁sorumlulugunu",
        -10.163491133238049
      ],
      [
        "▁olamaz",
        -8.251286384626486
      ],
      [
        "▁alacaklılar",
        -10.022074475114248
      ],
      [
        "▁elemanlar",
        -10.414098807234176
      ],
      [
        "▁salonda",
        -9.92326733828611
      ],
      [
        "▁fiyatl",
        -8.982060913612274
      ],
      [
        "▁73",
        -8.08134171634353
      ],
      [
        "▁buyuk",
        -4.679393483842886
      ],
      [
        "▁ede",
        -7.714236608470222
      ],
      [
        "▁baskanları",
        -11.064785534695773
      ],
      [
        "▁imkanı",
        -9.686722630138615
      ],
      [
        "▁otel",
        -6.467086177810073
      ],
      [
        "▁b",
        -6.181687063550272
      ],
      [
        "ya",
        -6.624486546172472
      ],
      [
        "▁arttı",
        -9.558512721818154
      ],
      [
        "▁ta",
        -9.357792784809366
      ],
      [
        "▁kimse",
        -5.611770680556417
      ],
      [
        "▁mus",
        -9.844904436314202
      ],
      [
        "▁eksikti",
        -8.89804193792592
      ],
      [
        "▁magazalar",
        -10.534832868852316
      ],
      [
        "▁sungu",
        -10.905391716476462
      ],
      [
        "▁dans",
        -9.377158376179757
      ],
      [
        "▁yapmıs",
        -8.219391273858278
      ],
      [
        "▁sorun",
        -9.236904210390406
      ],
      [
        "▁yag",
        -8.75080633261224
      ],
      [
        "▁kırık",
        -8.713542532022968
      ],
      [
        "▁leblebi",
        -9.834639722430225
      ],
      [
        "▁leke",
        -9.548637533951897
      ],
      [
        "▁kurulusu",
        -9.572789288085277
      ],
      [
        "eren",
        -8.96638790483414
      ],
      [
        "dyum",
        -10.962341064703011
      ],
      [
        "▁buzdolabı",
        -10.475013553965526
      ],
      [
        "▁tezgahın",
        -10.609981696618476
      ],
      [
        "▁plak",
        -10.167465524905593
      ],
      [
        "▁allah'",
        -8.415080998482463
      ],
      [
        "sa",
        -6.559936724481406
      ],
      [
        "▁gaz",
        -8.758558579426497
      ],
      [
        "▁yapmak",
        -7.5508899528318265
      ],
      [
        "▁kor",
        -9.764583501675165
      ],
      [
        "▁dalgalar",
        -10.127024953188446
      ],
      [
        "▁balıklar",
        -10.086365747978164
      ],
      [
        "▁degerlendirme",
        -9.181550522854806
      ],
      [
        "▁%",
        -9.896916348647695
      ],
      [
        "▁gerektigin",
        -8.213949804544509
      ],
      [
        "▁neler",
        -6.5615336919270835
      ],
      [
        "▁yılan",
        -10.334933152295129
      ],
      [
        "asil",
        -9.55271875747163
      ],
      [
        "▁manda",
        -11.103372230542803
      ],
      [
        "u",
        -12.802702672349787
      ],
      [
        "▁tasıma",
        -10.21913949696209
      ],
      [
        "▁mekteb",
        -10.52757005505348
      ],
      [
        "▁ise",
        -5.47635401040524
      ],
      [
        "▁c",
        -8.632979201027332
      ],
      [
        "▁yasları",
        -10.535082644860097
      ],
      [
        "▁ipin",
        -10.55222461082203
      ],
      [
        "▁alamadi",
        -7.115379217971844
      ],
      [
        "▁evimizi",
        -10.97789594792024
      ],
      [
        "▁bilegin",
        -10.98490561075827
      ],
      [
        "▁istemez",
        -8.717812417151167
      ],
      [
        "▁sayıl",
        -9.646379316445156
      ],
      [
        "▁ger",
        -8.4405385369935
      ],
      [
        "▁v",
        -8.692081206587208
      ],
      [
        "izm",
        -10.120943183726556
      ],
      [
        "▁havale",
        -10.418412916888009
      ],
      [
        "▁vur",
        -8.959055673983514
      ],
      [
        "▁yapmayacagın",
        -11.04388552906123
      ],
      [
        "▁mutfag",
        -10.16861571893825
      ],
      [
        "▁daire",
        -9.361001597377781
      ],
      [
        "▁dalın",
        -10.32841154116938
      ],
      [
        "▁marul",
        -10.732165165558472
      ],
      [
        "▁le",
        -7.9684656035839705
      ],
      [
        "▁toreninde",
        -11.128003077008412
      ],
      [
        "▁yonlendirme",
        -11.100470100253306
      ],
      [
        "▁uc",
        -8.77830831819545
      ],
      [
        "▁salıncag",
        -10.58946157935601
      ],
      [
        "▁gurultusu",
        -10.58814350992746
      ],
      [
        "liler",
        -9.746408772525768
      ],
      [
        "▁secimlerin",
        -10.409635111476062
      ],
      [
        "mek",
        -7.7354959134052415
      ],
      [
        "▁mutluluk",
        -9.536361730917674
      ],
      [
        "▁tabanca",
        -9.854095783108189
      ],
      [
        "▁ortasın",
        -10.02090508511057
      ],
      [
        "▁yarıda",
        -10.542287837618122
      ],
      [
        "▁operasyonlarını",
        -10.061405247605155
      ],
      [
        "▁degerlendirir",
        -8.687808787335655
      ],
      [
        "▁yar",
        -9.175643960228552
      ],
      [
        "▁onumuzde",
        -10.172428327770351
      ],
      [
        "▁uzatma",
        -10.589306037847296
      ],
      [
        "▁ortak",
        -9.264854829276072
      ],
      [
        "▁green",
        -8.727372772718825
      ],
      [
        "▁son",
        -8.601473505539087
      ],
      [
        "▁olus",
        -8.399144376903896
      ],
      [
        "msal",
        -7.709211565662931
      ],
      [
        "ayan",
        -9.502719368899662
      ],
      [
        "▁3",
        -9.53724850994812
      ],
      [
        "▁tam",
        -6.157110276087403
      ],
      [
        "▁baglantı",
        -8.558446525903918
      ],
      [
        "▁esyaları",
        -10.181044596570231
      ],
      [
        "▁tavsiyesi",
        -10.898684277378257
      ],
      [
        "▁uyan",
        -9.288896500295236
      ],
      [
        "▁",
        -3.1693413067501908
      ],
      [
        "▁kurkler",
        -11.037904205360347
      ],
      [
        "▁tavla",
        -10.26248121961001
      ],
      [
        "▁musavir",
        -11.098742911241498
      ],
      [
        "▁donmek",
        -10.370624798064014
      ],
      [
        "▁karısını",
        -10.083543873479062
      ],
      [
        "▁dukkanları",
        -10.368896801881839
      ],
      [
        "▁etme",
        -7.976332795954513
      ],
      [
        "▁yaslar",
        -9.912942344522982
      ],
      [
        "▁yasamıstı",
        -9.63314066438174
      ],
      [
        "me",
        -8.33831701111892
      ],
      [
        "▁burnunu",
        -10.363993402737496
      ],
      [
        "▁bulunuyor",
        -7.704855698590048
      ],
      [
        "▁kisi",
        -9.487341716677227
      ],
      [
        "mekten",
        -9.278529213777878
      ],
      [
        "arika",
        -9.407505892972615
      ],
      [
        "▁bale",
        -10.327571361537803
      ],
      [
        "▁dı",
        -9.28964920298581
      ],
      [
        "▁belir",
        -11.082181591128874
      ],
      [
        "7/",
        -8.163225824093868
      ],
      [
        "▁imparatorlugu",
        -10.576719735561184
      ],
      [
        "▁kuruma",
        -10.971876668543084
      ],
      [
        "▁beach",
        -8.430462692611972
      ],
      [
        "▁birisi",
        -5.941560191445756
      ],
      [
        "▁pancar",
        -11.098743210021029
      ],
      [
        "▁kahvalti",
        -8.660994668703404
      ],
      [
        "▁mudahale",
        -9.54744892219749
      ],
      [
        "▁gu",
        -9.389435927864977
      ],
      [
        "▁beklentimi",
        -9.602811241798378
      ],
      [
        "▁1.4",
        -6.918729662637256
      ],
      [
        "▁hicbirisi",
        -9.105927753122451
      ],
      [
        "▁boyu",
        -8.690324009793352
      ],
      [
        "▁sahipti",
        -8.394117389277794
      ],
      [
        "▁burbank'",
        -8.02300114871696
      ],
      [
        "▁hepiniz",
        -8.40781988619197
      ],
      [
        "▁geride",
        -9.355387691181711
      ],
      [
        "▁kavga",
        -9.17061472128658
      ],
      [
        "dır",
        -6.245549470065421
      ],
      [
        "▁top",
        -8.791269755188685
      ],
      [
        "▁icim",
        -9.330812491994664
      ],
      [
        "▁vatandaslık",
        -11.10484428189168
      ],
      [
        "▁yaptıkları",
        -10.049472783110986
      ],
      [
        "▁derecelendiril",
        -9.714935273336248
      ],
      [
        "▁mac",
        -9.291845139403462
      ],
      [
        "larım",
        -10.169267413206045
      ],
      [
        "▁komur",
        -9.93125700003356
      ],
      [
        "▁imzası",
        -11.000094937992479
      ],
      [
        "▁buyumesi",
        -10.770964431272189
      ],
      [
        "▁tac",
        -10.211007198790362
      ],
      [
        "▁tezini",
        -11.104279426395433
      ],
      [
        "▁kom",
        -8.406286050718897
      ],
      [
        "▁basarılar",
        -10.138649934741387
      ],
      [
        "▁odenmesi",
        -10.734900776458352
      ],
      [
        "▁yenil",
        -11.013096516769204
      ],
      [
        "▁araclar",
        -10.18522689099222
      ],
      [
        "fa",
        -8.236962644876998
      ],
      [
        "rt",
        -9.595664891570266
      ],
      [
        "▁ayrıntılar",
        -10.46274840865345
      ],
      [
        "ısla",
        -9.196939510074667
      ],
      [
        "acaktı",
        -9.185747729351776
      ],
      [
        "yle",
        -5.965541902815372
      ],
      [
        "▁ilac",
        -8.31381460903486
      ],
      [
        "▁parmaklarını",
        -10.046716670875327
      ],
      [
        "▁tatilimde",
        -10.901357253113764
      ],
      [
        "▁ilcesin",
        -10.943426504480117
      ],
      [
        "▁uyandır",
        -11.102569204619838
      ],
      [
        "▁yetis",
        -9.316568680764247
      ],
      [
        "▁yedi",
        -8.485604754967774
      ],
      [
        "▁onu",
        -9.808878721152489
      ],
      [
        "▁yanıtlar",
        -10.960430933436687
      ],
      [
        "▁cıktı",
        -6.116068165317391
      ],
      [
        "▁demiri",
        -10.557506455576469
      ],
      [
        "ında",
        -9.876441737514408
      ],
      [
        "▁bildigini",
        -10.89457695567024
      ],
      [
        "▁animasyon",
        -7.398985391906658
      ],
      [
        "erli",
        -8.855034551292079
      ],
      [
        "ı",
        -5.12761204744464
      ],
      [
        "▁t",
        -8.63893619005369
      ],
      [
        "▁cıkarmıs",
        -9.11386132741204
      ],
      [
        "tur",
        -9.522534598323865
      ],
      [
        "▁kazasında",
        -10.37284948961577
      ],
      [
        "▁ressam",
        -10.025263394884584
      ],
      [
        "▁yatırımcı",
        -8.584036154839104
      ],
      [
        "▁donemin",
        -9.441836467335065
      ],
      [
        "▁yayılma",
        -10.361478530093748
      ],
      [
        "▁saglık",
        -8.308972200964265
      ],
      [
        "▁odulu",
        -10.57952806549293
      ],
      [
        "erek",
        -4.620556824828748
      ],
      [
        "▁yuzler",
        -10.612712474808648
      ],
      [
        "▁yaratıcı",
        -11.09256015345364
      ],
      [
        "▁belir",
        -7.5840970746139265
      ],
      [
        "gu",
        -8.766929790591
      ],
      [
        "▁ce",
        -8.630760411379411
      ],
      [
        "▁etsin",
        -9.349131975407925
      ],
      [
        "▁ayakkabı",
        -9.21513145327023
      ],
      [
        "▁problem",
        -8.57825616518942
      ],
      [
        "▁masaların",
        -10.879271394611902
      ],
      [
        "ırıl",
        -9.171073999052668
      ],
      [
        "ılacak",
        -9.520352121961801
      ],
      [
        "▁icraat",
        -10.743919828868297
      ],
      [
        "▁gelene",
        -10.718647752922445
      ],
      [
        "▁5.9",
        -8.178237638861681
      ],
      [
        "▁secme",
        -9.638110908285036
      ],
      [
        "y",
        -6.016951674088136
      ],
      [
        "▁esas",
        -9.072347818182294
      ],
      [
        "▁saldırıların",
        -11.041261114571146
      ],
      [
        "▁ucuslar",
        -6.133115250310938
      ],
      [
        "▁cuma",
        -7.756825305405965
      ],
      [
        "deydi",
        -8.358394564002321
      ],
      [
        "▁sitesi",
        -10.755921483855898
      ],
      [
        "▁yazar",
        -8.839070793632544
      ],
      [
        "▁ed",
        -10.47502974795316
      ],
      [
        "▁olacagı",
        -8.328823418776542
      ],
      [
        "▁alabilirdi",
        -9.423182302429357
      ],
      [
        "▁hanende",
        -11.100635818811867
      ],
      [
        "▁nesesi",
        -10.651982503702632
      ],
      [
        "▁yetenekleri",
        -10.125344338360094
      ],
      [
        "▁mut",
        -7.576081653053345
      ],
      [
        "▁naz",
        -10.402086795871575
      ],
      [
        "▁2.",
        -6.760491276534013
      ],
      [
        "▁kırmızıbiber",
        -11.098742889356908
      ],
      [
        "▁lard",
        -10.44428861211333
      ],
      [
        "▁kacırma",
        -10.170657860606365
      ],
      [
        "▁verici",
        -10.193188919305125
      ],
      [
        "▁bagrın",
        -11.019511041872686
      ],
      [
        "▁agırlıgında",
        -11.101344642211945
      ],
      [
        "ın",
        -7.1382036613530975
      ],
      [
        "▁almadı",
        -9.671707160485775
      ],
      [
        "▁dusen",
        -8.814960296946525
      ],
      [
        "▁kumas",
        -8.545171930911652
      ],
      [
        "▁'t",
        -9.009793981272665
      ],
      [
        "▁yaptıgını",
        -9.013996324956473
      ],
      [
        "▁yun",
        -9.187602999020815
      ],
      [
        "▁hayatın",
        -8.665513584176171
      ],
      [
        "▁bagırdı",
        -9.097463300351254
      ],
      [
        "▁satıcıları",
        -10.80979953095719
      ],
      [
        "▁gruplar",
        -10.414047368441812
      ],
      [
        "▁tacoma'da",
        -8.547222249612606
      ],
      [
        "▁bende",
        -10.928205698616317
      ],
      [
        "▁ayrımcılıgı",
        -11.12651658662554
      ],
      [
        "lemeye",
        -10.24571638102599
      ],
      [
        "ıkca",
        -7.569260549122383
      ],
      [
        "duklarını",
        -11.071896716527661
      ],
      [
        "p",
        -10.485673599386624
      ],
      [
        "▁gideri",
        -9.590722279421325
      ],
      [
        "▁mixte",
        -9.009368820341287
      ],
      [
        "ecegini",
        -9.035085915583089
      ],
      [
        "▁bulbul",
        -9.612750755814089
      ],
      [
        "▁sarsıntı",
        -10.39430643492122
      ],
      [
        "▁markaları",
        -10.551986581788304
      ],
      [
        "h",
        -9.587384348551964
      ],
      [
        "▁kısas",
        -11.10002639190872
      ],
      [
        "ler",
        -5.989519692619042
      ],
      [
        "▁pamuk",
        -9.584142927559848
      ],
      [
        "▁caz",
        -10.079275981896151
      ],
      [
        "▁baltimore",
        -6.988389840421726
      ],
      [
        "▁cogunlugu",
        -9.786596405928323
      ],
      [
        "▁adamların",
        -10.496105675016159
      ],
      [
        "▁plan",
        -8.130376530061246
      ],
      [
        "▁evim",
        -10.121453640031609
      ],
      [
        "▁telefonu",
        -9.790153598986823
      ],
      [
        "▁muster",
        -9.239283906377793
      ],
      [
        "ta",
        -6.648425320178735
      ],
      [
        "▁turkiye'",
        -7.00172363747034
      ],
      [
        "▁trust",
        -8.038755782515096
      ],
      [
        "▁tanıyor",
        -9.242953753426534
      ],
      [
        "▁odev",
        -10.893309013249503
      ],
      [
        "▁yagmuru",
        -11.085143608063957
      ],
      [
        "▁sayı",
        -8.049930564720723
      ],
      [
        "▁goc",
        -9.504960153577095
      ],
      [
        "bizim",
        -8.81398627475595
      ],
      [
        "▁cezasını",
        -10.39063494461496
      ],
      [
        "2'de",
        -9.690934983238702
      ],
      [
        "▁baslama",
        -9.724835764953255
      ],
      [
        "▁hare",
        -10.77457275857711
      ],
      [
        "ff",
        -10.814283107803462
      ],
      [
        "▁calısı",
        -9.305473720356929
      ],
      [
        "f",
        -8.0582613373701
      ],
      [
        "▁gorusuldu",
        -5.56507771915234
      ],
      [
        "▁sefir",
        -10.909531804721517
      ],
      [
        "▁ipoteg",
        -9.863847301913683
      ],
      [
        "▁oyle",
        -7.3329560468483335
      ],
      [
        "yacagını",
        -9.881416972531381
      ],
      [
        "tigi",
        -8.99215936912502
      ],
      [
        "▁dip",
        -9.55133396023692
      ],
      [
        "▁hakik",
        -9.227536132375318
      ],
      [
        "▁hayvan",
        -9.207882967091733
      ],
      [
        "im",
        -8.301033159635747
      ],
      [
        "uza",
        -10.690929091156725
      ],
      [
        "pesinde",
        -9.132328427910473
      ],
      [
        "▁gur",
        -8.754298629300687
      ],
      [
        "▁dahi",
        -9.629446482352133
      ],
      [
        "▁firma",
        -9.61950414544729
      ],
      [
        "▁depremle",
        -10.608999121931763
      ],
      [
        "▁calıstıkların",
        -10.737475088662514
      ],
      [
        "▁sairleri",
        -10.948846485727676
      ],
      [
        "▁gosterileri",
        -10.3623435053528
      ],
      [
        "▁esi",
        -8.815857509160333
      ],
      [
        "nde",
        -8.378991300973894
      ],
      [
        "cilikte",
        -10.837410027888755
      ],
      [
        "▁dordu",
        -6.775844926385021
      ],
      [
        "▁ata",
        -9.50327515307281
      ],
      [
        "yu",
        -9.885733217074922
      ],
      [
        "▁paylas",
        -9.480466217898167
      ],
      [
        "▁zamanda",
        -7.80118567632804
      ],
      [
        "▁prenses",
        -10.14207941765219
      ],
      [
        "▁boston",
        -5.725254465815135
      ],
      [
        "▁kay",
        -10.042439963456061
      ],
      [
        "biri",
        -7.795027831883359
      ],
      [
        "▁tepsi",
        -10.330468172998668
      ],
      [
        "▁guven",
        -8.852910362751942
      ],
      [
        "▁yasamını",
        -9.669805044988582
      ],
      [
        "▁umudu",
        -10.217977264996755
      ],
      [
        "▁ornegin",
        -10.19255820763036
      ],
      [
        "▁kasar",
        -10.873841828311384
      ],
      [
        "ligi",
        -8.121041969578469
      ],
      [
        "▁richard",
        -8.203039213365276
      ],
      [
        "▁kısın",
        -10.576466267450364
      ],
      [
        "▁girisimler",
        -10.919937619606792
      ],
      [
        "o",
        -6.336011923027603
      ],
      [
        "▁basını",
        -8.141517672429028
      ],
      [
        "▁koltukları",
        -10.837364388940411
      ],
      [
        "▁fevkal",
        -9.118314701152038
      ],
      [
        "▁temsilci",
        -9.707238831380742
      ],
      [
        "likle",
        -4.864519917768543
      ],
      [
        "▁arkadasları",
        -9.307061001268462
      ],
      [
        "▁insanlık",
        -10.406110433795394
      ],
      [
        "'te",
        -7.4383271455888815
      ],
      [
        "▁mah",
        -10.886173997143896
      ],
      [
        "▁temiz",
        -9.85791386505085
      ],
      [
        "▁isareti",
        -10.188690798700486
      ],
      [
        "▁temmuz",
        -7.357692698517294
      ],
      [
        "▁oturuyor",
        -8.870399182869964
      ],
      [
        "▁aynı",
        -9.523999472074955
      ],
      [
        "▁tatli",
        -10.727426742683875
      ],
      [
        "▁yakindi",
        -8.561396562623367
      ],
      [
        "▁sene",
        -8.047000242491155
      ],
      [
        "evi",
        -9.337770615436549
      ],
      [
        "▁arıyordu",
        -10.898929185612804
      ],
      [
        "eyi",
        -9.5178479421331
      ],
      [
        "▁uykuda",
        -10.01589818330557
      ],
      [
        "▁kuram",
        -10.03770934004487
      ],
      [
        "▁tuvaletler",
        -10.791844469333276
      ],
      [
        "▁ısıl",
        -9.505774093017823
      ],
      [
        "▁atlar",
        -9.625055767625472
      ],
      [
        "▁kutsa",
        -9.261830535474024
      ],
      [
        "▁gayret",
        -9.980307480074803
      ],
      [
        "'yi",
        -7.535730970715371
      ],
      [
        "daydı",
        -9.45479636872891
      ],
      [
        "▁sutun",
        -11.056402746301007
      ],
      [
        "▁oldugum",
        -8.810928729659222
      ],
      [
        "▁boldu",
        -9.094601493804596
      ],
      [
        "ana",
        -9.764480425195908
      ],
      [
        "▁gozun",
        -9.704170081466222
      ],
      [
        "t",
        -5.881101381461162
      ],
      [
        "▁baslamıstı",
        -7.931055736318276
      ],
      [
        "▁dahili",
        -10.347537584649874
      ],
      [
        "▁hak",
        -7.729205598386269
      ],
      [
        "▁ihracları",
        -9.628295957384553
      ],
      [
        "lim",
        -8.67987432482553
      ],
      [
        "▁meslektas",
        -11.002234307164738
      ],
      [
        "▁vur",
        -8.667016132592863
      ],
      [
        "▁genclerin",
        -10.483621451070142
      ],
      [
        "▁yazarlar",
        -9.902145406682274
      ],
      [
        "▁ajansın",
        -10.757236885973807
      ],
      [
        "to",
        -9.873916983629147
      ],
      [
        "▁1961",
        -8.313426206804428
      ],
      [
        "▁istemiyordu",
        -9.706359441554888
      ],
      [
        "▁alanın",
        -9.937337173507922
      ],
      [
        "▁verebilir",
        -8.75133654132398
      ],
      [
        "▁yasaya",
        -10.973530820626232
      ],
      [
        "nacak",
        -9.608031231628273
      ],
      [
        "▁pilotu",
        -10.720914620522779
      ],
      [
        "▁telif",
        -10.732623885319343
      ],
      [
        "▁yaratır",
        -9.2146655193236
      ],
      [
        "▁dusun",
        -8.899888978553655
      ],
      [
        "▁atladı",
        -8.869006159879502
      ],
      [
        "▁havasında",
        -10.77856626179164
      ],
      [
        "esme",
        -8.08943949446739
      ],
      [
        "▁onun",
        -8.016983368995357
      ],
      [
        "▁kus",
        -9.172033836666294
      ],
      [
        "▁imkanları",
        -10.762545984194963
      ],
      [
        "▁can",
        -8.005984347688981
      ],
      [
        "▁tavrı",
        -9.846122302900293
      ],
      [
        "ah",
        -9.74152942759214
      ],
      [
        "▁arguman",
        -10.761120673405207
      ],
      [
        "▁isleme",
        -9.323678633366585
      ],
      [
        "▁girdik",
        -8.850969309119977
      ],
      [
        "mıs",
        -5.402299570920754
      ],
      [
        "▁birl",
        -8.456773045245946
      ],
      [
        "▁kalın",
        -7.871277273894357
      ],
      [
        "ral",
        -7.850009928623745
      ],
      [
        "▁am",
        -10.510233426277454
      ],
      [
        "▁temsilcisi",
        -9.902189691422652
      ],
      [
        "▁jaguar",
        -8.186284359692328
      ],
      [
        "▁yukseltti",
        -8.452410628729046
      ],
      [
        "▁ister",
        -9.606331903939168
      ],
      [
        "liklerin",
        -11.087593492346137
      ],
      [
        "▁butun",
        -5.344965932495676
      ],
      [
        "▁devri",
        -9.24623662140451
      ],
      [
        "▁arasında",
        -6.2655857169807705
      ],
      [
        "▁yıkama",
        -10.589657178981861
      ],
      [
        "▁8.3",
        -8.326364006999562
      ],
      [
        "▁tasarruf",
        -8.979600725935516
      ],
      [
        "▁hamal",
        -10.369298307633182
      ],
      [
        "mızı",
        -8.674922991715253
      ],
      [
        "▁karsılastı",
        -9.288690536934112
      ],
      [
        "▁cık",
        -10.440340109741841
      ],
      [
        "▁kıvılcım",
        -10.259624348148762
      ],
      [
        "▁kayıplar",
        -9.407992281574238
      ],
      [
        "▁sur",
        -9.535128044494567
      ],
      [
        "▁zaptiye",
        -11.098833458081614
      ],
      [
        "▁kitaplarını",
        -10.723025046836144
      ],
      [
        "▁turist",
        -10.180676871536162
      ],
      [
        "▁y",
        -5.85013649866564
      ],
      [
        "▁gecirdik",
        -8.457984196389846
      ],
      [
        "▁tuz",
        -9.335280824364593
      ],
      [
        "▁tanıstı",
        -9.521812485988843
      ],
      [
        "▁ab'",
        -10.89993234131091
      ],
      [
        "▁anadolu",
        -7.548407391738422
      ],
      [
        "▁50'",
        -10.716809003488486
      ],
      [
        "obur",
        -7.915910986663735
      ],
      [
        "▁beyle",
        -8.177183717129381
      ],
      [
        "▁park",
        -8.941543906607727
      ],
      [
        "▁tri",
        -11.094306204985422
      ],
      [
        "▁sponsor",
        -10.03617949496517
      ],
      [
        "▁ilerle",
        -9.012667241556965
      ],
      [
        "▁yetersiz",
        -6.863319499207189
      ],
      [
        "▁getirildi",
        -8.789847307143656
      ],
      [
        "▁yalı",
        -9.432117810864007
      ],
      [
        "▁lot",
        -10.89989098056692
      ],
      [
        "▁niteligi",
        -9.975625344673452
      ],
      [
        "▁kendileri",
        -6.4584490618068315
      ],
      [
        "t",
        -6.625822831814791
      ],
      [
        "▁zayıflık",
        -10.710112046939779
      ],
      [
        "▁oyuncak",
        -9.77851540163087
      ],
      [
        "▁resepsiyon",
        -9.979010964864697
      ],
      [
        "▁kurumlarını",
        -11.066922882737146
      ],
      [
        "▁tavuk",
        -9.343216338727274
      ],
      [
        "▁est",
        -8.764129702775492
      ],
      [
        "▁zirvesi",
        -10.987767329174968
      ],
      [
        "▁seci",
        -10.497514784392688
      ],
      [
        "▁in",
        -8.52834500238243
      ],
      [
        "▁kaymak",
        -11.099708682134807
      ],
      [
        "▁lisede",
        -10.744265115251086
      ],
      [
        "▁acık",
        -7.077738448004128
      ],
      [
        "▁zevk",
        -8.76190260070302
      ],
      [
        "▁sesini",
        -9.204229209756072
      ],
      [
        "▁soyledikleri",
        -10.789965420056884
      ],
      [
        "▁ma",
        -8.229336250571645
      ],
      [
        "▁odemesi",
        -10.727898952235755
      ],
      [
        "▁f",
        -8.908024795394835
      ],
      [
        "▁on",
        -9.987844754457068
      ],
      [
        "▁yakinlarim",
        -9.840288064890306
      ],
      [
        "▁car",
        -9.07836201986278
      ],
      [
        "▁gecirdi",
        -7.698503917734086
      ],
      [
        "▁hissedarların",
        -10.451661586984153
      ],
      [
        "▁mekanizması",
        -11.024520061534586
      ],
      [
        "▁soylenir",
        -9.143562032092273
      ],
      [
        "[UNK]",
        0.0
      ],
      [
        "▁sınıfta",
        -9.579787391227237
      ],
      [
        "▁geleni",
        -9.368004527666839
      ],
      [
        "▁doner",
        -8.334650247019008
      ],
      [
        "▁bahcesinde",
        -10.600245753252876
      ],
      [
        "irlik",
        -5.69607855368877
      ],
      [
        "▁minibus",
        -10.899095829994483
      ],
      [
        "▁tayin",
        -9.803150904127575
      ],
      [
        "▁kehanet",
        -11.09874291665708
      ],
      [
        "▁huzur",
        -8.335024299760093
      ],
      [
        "▁cas",
        -11.103612150631402
      ],
      [
        "on",
        -8.553878951677497
      ],
      [
        "▁ailesi",
        -8.804017908792865
      ],
      [
        "▁fev",
        -10.93682041287638
      ],
      [
        "▁gul",
        -9.271106550419756
      ],
      [
        "▁yıkıldı",
        -9.410903831734817
      ],
      [
        "▁uzlasma",
        -9.528107021869609
      ],
      [
        "▁katibi",
        -10.968577024551914
      ],
      [
        "▁mustafa",
        -6.756573711528863
      ],
      [
        "47",
        -8.293572597258125
      ],
      [
        "▁biri",
        -4.3695795693712105
      ],
      [
        "▁gelenleri",
        -10.280921115058202
      ],
      [
        "▁hocası",
        -10.760744776820523
      ],
      [
        "▁havalimanı'n",
        -11.061928453389633
      ],
      [
        "▁sosyal",
        -7.120592372210748
      ],
      [
        "▁manto",
        -11.098752682520585
      ],
      [
        "mak",
        -7.900435840908149
      ],
      [
        "▁alındı",
        -8.286022148662813
      ],
      [
        "▁kıymetin",
        -10.71482803203821
      ],
      [
        "▁listey",
        -10.565886877038846
      ],
      [
        "▁27'",
        -11.098749846924546
      ],
      [
        "▁uyarısın",
        -10.838060187176636
      ],
      [
        "▁tanımla",
        -9.550658344839713
      ],
      [
        "▁genclik",
        -9.407108197152517
      ],
      [
        "ri",
        -8.788363242963092
      ],
      [
        "▁tehlikeli",
        -8.887407038080452
      ],
      [
        "cıların",
        -10.211516793900692
      ],
      [
        "▁prof",
        -8.679255097979478
      ],
      [
        "▁istemem",
        -9.191895149338546
      ],
      [
        "▁ortalama",
        -8.786515745869476
      ],
      [
        "▁gorevlisi",
        -9.455685457342202
      ],
      [
        "▁gorulme",
        -10.898744805462423
      ],
      [
        "▁1991",
        -6.854734288346393
      ],
      [
        "▁konularında",
        -10.942070752452945
      ],
      [
        "▁nakliye",
        -9.776858434453922
      ],
      [
        "kte",
        -7.35037593173012
      ],
      [
        "▁yok",
        -7.186177588248405
      ],
      [
        "▁egitim",
        -8.220291458873309
      ],
      [
        "▁kamara",
        -10.464816540165135
      ],
      [
        "▁zammı",
        -10.90327277372687
      ],
      [
        "▁alabildigi",
        -11.098743018840457
      ],
      [
        "▁atalarımız",
        -10.743361628726573
      ],
      [
        "▁oluler",
        -10.901915357310806
      ],
      [
        "▁belgeleri",
        -10.097948776982001
      ],
      [
        "▁tanıkları",
        -10.514323712280138
      ],
      [
        "▁ulku",
        -10.732373875760729
      ],
      [
        "▁gerektigin",
        -8.582731737792448
      ],
      [
        "rika",
        -9.134928970307167
      ],
      [
        "d",
        -6.04252831463764
      ],
      [
        "ot",
        -9.65400311893377
      ],
      [
        "▁toreni",
        -9.876375345482296
      ],
      [
        "▁vadesi",
        -9.655746829634856
      ],
      [
        "▁arka",
        -7.766725027347814
      ],
      [
        "▁enerjisi",
        -11.01991303574281
      ],
      [
        "▁dura",
        -7.954299185685494
      ],
      [
        "▁etken",
        -10.860504924885522
      ],
      [
        "▁toplu",
        -9.766404342746569
      ],
      [
        "▁185",
        -8.17186412094681
      ],
      [
        "-",
        -6.957239872677067
      ],
      [
        "▁adını",
        -8.595926031573029
      ],
      [
        "gel",
        -7.946391005262723
      ],
      [
        "▁mutfagi",
        -10.8170312224268
      ],
      [
        "▁yara",
        -8.708211392320127
      ],
      [
        "▁kupeler",
        -10.9797468600104
      ],
      [
        "ing",
        -8.127706819579522
      ],
      [
        "madı",
        -7.9237536705796305
      ],
      [
        "▁a",
        -7.85191059858527
      ],
      [
        "▁suclu",
        -8.889564851011599
      ],
      [
        "▁karsısın",
        -9.48374216524009
      ],
      [
        "▁kopuk",
        -10.353148638177675
      ],
      [
        "▁safha",
        -10.350244196927811
      ],
      [
        "▁cihan",
        -10.464220902823124
      ],
      [
        "▁yemeklerin",
        -8.81799397001363
      ],
      [
        "▁psilyum",
        -10.464219079942085
      ],
      [
        "▁yetmis",
        -7.281993076538758
      ],
      [
        "▁zaferin",
        -11.102052088742422
      ],
      [
        "ya",
        -8.255055954866739
      ],
      [
        "▁eyalet",
        -9.097237063631608
      ],
      [
        "▁diego'da",
        -7.712745988696155
      ],
      [
        "▁karanlıkları",
        -10.961514965950697
      ],
      [
        "gerek",
        -11.723165890820209
      ],
      [
        "▁bucagın",
        -11.116665298678411
      ],
      [
        "▁atolye",
        -10.297085806843912
      ],
      [
        "▁kentler",
        -10.422757517623879
      ],
      [
        "▁rahat",
        -8.30828836050418
      ],
      [
        "▁6'da",
        -8.82365496734452
      ],
      [
        "▁yeniceri",
        -11.098743094152859
      ],
      [
        "▁south",
        -8.394558518122407
      ],
      [
        "▁kir",
        -8.65723746422646
      ],
      [
        "▁cagımız",
        -10.750719573960847
      ],
      [
        "▁ruhunda",
        -10.944624553604221
      ],
      [
        "▁sivil",
        -10.898534186689977
      ],
      [
        "▁nedenini",
        -9.983765188800177
      ],
      [
        "▁biliyordu",
        -8.672549889735345
      ],
      [
        "▁yardımını",
        -11.113271615112492
      ],
      [
        "ada",
        -9.424767190970815
      ],
      [
        "▁sevdigi",
        -8.939553872990182
      ],
      [
        "▁kupon",
        -9.901947078076656
      ],
      [
        "▁as",
        -8.500653068140817
      ],
      [
        "▁soganı",
        -10.788583084841806
      ],
      [
        "▁ayaklarını",
        -9.342844512343722
      ],
      [
        "▁yerde",
        -7.370215540873947
      ],
      [
        "▁kumarhane",
        -10.35847850480354
      ],
      [
        "▁mantık",
        -10.075772145490275
      ],
      [
        "▁azı",
        -8.731091212658692
      ],
      [
        "▁kontrol",
        -8.219023470863853
      ],
      [
        "niz",
        -8.780010999454355
      ],
      [
        "▁del",
        -10.638625742678652
      ],
      [
        "▁boylesin",
        -10.772320204476731
      ],
      [
        "▁sove",
        -10.932088675656393
      ],
      [
        "▁dusun",
        -10.546441287069662
      ],
      [
        "▁yaratıcılıgı",
        -11.004218904631667
      ],
      [
        "▁agabeyim",
        -10.731112117068527
      ],
      [
        "ir",
        -8.609165314965319
      ],
      [
        "luk",
        -7.3279065542286155
      ],
      [
        "▁uyuma",
        -10.851547914873038
      ],
      [
        "u",
        -6.171224191710348
      ],
      [
        "▁marka",
        -8.891915257196684
      ],
      [
        "▁hapis",
        -9.742607552783454
      ],
      [
        "larını",
        -8.53913733463688
      ],
      [
        "▁tasarlama",
        -11.115785993823014
      ],
      [
        "▁on",
        -4.304254523933001
      ],
      [
        "▁notu",
        -10.466185541509724
      ],
      [
        "▁tecrube",
        -10.48152273175597
      ],
      [
        "▁turlu",
        -9.930395174273766
      ],
      [
        "▁sabahın",
        -9.469590597832173
      ],
      [
        "er",
        -8.715359999120345
      ],
      [
        "▁60",
        -6.569104616035265
      ],
      [
        "▁kolayın",
        -11.051719166471905
      ],
      [
        "▁asag",
        -10.157868811311355
      ],
      [
        "▁guleryuzluydu",
        -7.422967873461411
      ],
      [
        "▁kosulların",
        -10.329086962289663
      ],
      [
        "▁alımlar",
        -10.566187709955889
      ],
      [
        "▁anaların",
        -11.119681696013535
      ],
      [
        "▁dolu",
        -8.822147800344982
      ],
      [
        "▁du",
        -8.655167188486178
      ],
      [
        "▁ha",
        -7.625962682190958
      ],
      [
        "▁per",
        -10.242927295412468
      ],
      [
        "dayım",
        -10.875173334343218
      ],
      [
        "▁paketi",
        -10.47598070982976
      ],
      [
        "▁is",
        -6.452709605661608
      ],
      [
        "▁katıldı",
        -8.439624158361982
      ],
      [
        "▁gorev",
        -7.900622119253048
      ],
      [
        "▁hazine'",
        -11.116517596415285
      ],
      [
        "▁zarar",
        -9.074055261566535
      ],
      [
        "▁eda",
        -9.884617475513094
      ],
      [
        "▁satmay",
        -9.934159449355931
      ],
      [
        "arlık",
        -8.986337902015936
      ],
      [
        "▁makaleler",
        -11.098791030100903
      ],
      [
        "itap",
        -9.222733565048745
      ],
      [
        "▁korkar",
        -9.596188041836715
      ],
      [
        "▁avukat",
        -8.897897004522111
      ],
      [
        "▁tuf",
        -9.028626959478887
      ],
      [
        "▁sozunde",
        -10.821881883462275
      ],
      [
        "yen",
        -9.024481390552147
      ],
      [
        "▁sozcu",
        -7.964786271837662
      ],
      [
        "▁insanı",
        -8.674199804436345
      ],
      [
        "c",
        -4.853219729400437
      ],
      [
        "▁goruldu",
        -9.404579183035052
      ],
      [
        "mur",
        -8.98919425639048
      ],
      [
        "▁sanmıyoru",
        -9.185065579716237
      ],
      [
        "▁ic",
        -8.3812777897339
      ],
      [
        "▁1.0",
        -7.658540597071802
      ],
      [
        "▁goru",
        -8.201515277214732
      ],
      [
        "▁yabancı",
        -6.776956764796946
      ],
      [
        "lerimiz",
        -9.029794073383398
      ],
      [
        "▁hay",
        -7.9578980602846805
      ],
      [
        "▁usx",
        -9.01465798110983
      ],
      [
        "▁ibm",
        -8.101680442143891
      ],
      [
        "▁yapacag",
        -9.699464400833765
      ],
      [
        "▁sure",
        -7.178789539008516
      ],
      [
        "▁nezaret",
        -10.5759443544783
      ],
      [
        "▁devrinde",
        -10.747807635615358
      ],
      [
        "▁motorun",
        -11.081955091872041
      ],
      [
        "birinde",
        -10.01131417222551
      ],
      [
        "▁birimin",
        -10.679070333595819
      ],
      [
        "▁musaade",
        -10.464226787502401
      ],
      [
        "▁ilk",
        -6.030188554215659
      ],
      [
        "▁beklentimizi",
        -10.732633913988176
      ],
      [
        "▁omuz",
        -9.574037270404125
      ],
      [
        "▁kongre",
        -8.577890964798142
      ],
      [
        "▁bilmiyordu",
        -9.037400847540894
      ],
      [
        "ını",
        -7.032706241959731
      ],
      [
        "▁onem",
        -8.310666856680344
      ],
      [
        "▁sın",
        -7.444227167618117
      ],
      [
        "▁taraf",
        -8.443953586082909
      ],
      [
        "▁temiz",
        -6.883520983663528
      ],
      [
        "▁gecim",
        -9.930966583676772
      ],
      [
        "▁koltugunu",
        -10.968554398641064
      ],
      [
        "▁varlıklarını",
        -10.083554279577712
      ],
      [
        "▁erisim",
        -10.253159260306559
      ],
      [
        "▁kulagın",
        -10.049571829535125
      ],
      [
        "▁ismi",
        -9.355236957443005
      ],
      [
        "▁salomon",
        -8.713398682050203
      ],
      [
        "▁veren",
        -8.394669301761867
      ],
      [
        "ludur",
        -8.900693738051274
      ],
      [
        "▁hisselerde",
        -10.974417407448172
      ],
      [
        "▁hattı",
        -9.687741103677197
      ],
      [
        "sal",
        -6.949778621849322
      ],
      [
        "▁jose'",
        -7.937863731996809
      ],
      [
        "si",
        -8.538105399174867
      ],
      [
        "▁cildi",
        -11.100509904022008
      ],
      [
        "▁kadın",
        -7.1380847048377465
      ],
      [
        "▁yapın",
        -8.835750512736894
      ],
      [
        "▁gid",
        -7.611832682912436
      ],
      [
        "▁planlar",
        -10.125592767330392
      ],
      [
        "▁munasebet",
        -10.990838577408622
      ],
      [
        "lerden",
        -7.644766339401999
      ],
      [
        "▁zamanın",
        -10.993458137603094
      ],
      [
        "▁cavusu",
        -10.737472762291713
      ],
      [
        "▁basortu",
        -10.898754978240932
      ],
      [
        "▁ya",
        -7.800671762227191
      ],
      [
        "akla",
        -8.858922963390514
      ],
      [
        "▁kaput",
        -11.100053635464404
      ],
      [
        "▁guve",
        -11.074683319145334
      ],
      [
        "▁dogrultu",
        -11.090588319309301
      ],
      [
        "im",
        -5.927512662840696
      ],
      [
        "▁inan",
        -8.640492168401927
      ],
      [
        "▁bili",
        -9.463042096934538
      ],
      [
        "▁sıkıntı",
        -9.352918901938402
      ],
      [
        "y",
        -6.74979235167266
      ],
      [
        "▁yıldırım",
        -10.90129373925398
      ],
      [
        "▁ısrar",
        -9.217465565865501
      ],
      [
        "digi",
        -9.403236521009415
      ],
      [
        "▁sanıklar",
        -11.021558655203139
      ],
      [
        "▁urunlerde",
        -11.061852299451136
      ],
      [
        "▁gazeteleri",
        -11.076587941361469
      ],
      [
        "▁mes",
        -7.913471993062716
      ],
      [
        "▁sorusturması",
        -10.761890734567709
      ],
      [
        "▁ekmegi",
        -9.806927998173146
      ],
      [
        "▁yorma",
        -10.898933831226325
      ],
      [
        "▁acıkca",
        -7.836464028264578
      ],
      [
        "▁yerler",
        -8.610901974603442
      ],
      [
        "is",
        -9.536430054437192
      ],
      [
        "▁sektorunde",
        -9.82280992055494
      ],
      [
        "▁tahminleri",
        -10.16301773383704
      ],
      [
        "▁2.2",
        -7.972851417486632
      ],
      [
        "▁onda",
        -5.624473296084898
      ],
      [
        "▁ikna",
        -9.447800265508942
      ],
      [
        "▁yastık",
        -10.793075279306896
      ],
      [
        "▁etrafın",
        -9.9858825484364
      ],
      [
        "▁yunus",
        -10.899036630889581
      ],
      [
        "▁13'",
        -10.910918234778684
      ],
      [
        "▁kactı",
        -8.348673635529305
      ],
      [
        "▁karsımız",
        -10.47496728736148
      ],
      [
        "▁bir",
        -8.128846427857315
      ],
      [
        "▁etmiyordu",
        -8.96920329700978
      ],
      [
        "▁cıkaracak",
        -9.558724314586316
      ],
      [
        "gıy",
        -8.2890619212006
      ],
      [
        "▁cirkin",
        -8.643477938749065
      ],
      [
        "▁gununu",
        -9.463753739958236
      ],
      [
        "larınız",
        -10.636514491657087
      ],
      [
        "▁saglaya",
        -9.599930527265514
      ],
      [
        "land",
        -8.598545596444872
      ],
      [
        "▁belleginde",
        -11.104965654665962
      ],
      [
        "▁insaat",
        -8.462511553857102
      ],
      [
        "uc",
        -7.358803221942155
      ],
      [
        "▁emrini",
        -10.783616909707339
      ],
      [
        "▁yuvası",
        -10.84109591713816
      ],
      [
        "▁kurtlar",
        -11.043031228430722
      ],
      [
        "▁catal",
        -10.00208351736211
      ],
      [
        "▁ilacı",
        -10.243674389444237
      ],
      [
        "▁bura",
        -8.627745509352419
      ],
      [
        "▁agır",
        -6.5087600341821235
      ],
      [
        "▁ja",
        -9.942669196750465
      ],
      [
        "▁benc",
        -9.370728313668055
      ],
      [
        "▁gece",
        -9.464838383008178
      ],
      [
        "▁belirleme",
        -10.665356598118956
      ],
      [
        "▁yo",
        -5.081569992204334
      ],
      [
        "▁sehrin",
        -8.598471987970909
      ],
      [
        "▁edemez",
        -9.037145754766156
      ],
      [
        "▁herkes",
        -4.990935261703556
      ],
      [
        "▁bıyık",
        -10.721937362630573
      ],
      [
        "▁deyis",
        -10.253492583164931
      ],
      [
        "▁degisti",
        -8.678573073429728
      ],
      [
        "ilece",
        -9.64716641239708
      ],
      [
        "▁gencliginde",
        -10.619597750387246
      ],
      [
        "▁muz",
        -9.637896270813059
      ],
      [
        "▁gorevli",
        -9.310367042519447
      ],
      [
        "▁tası",
        -9.244136898061184
      ],
      [
        "▁kısaltması",
        -10.734275342591568
      ],
      [
        "▁gormez",
        -10.16959700768488
      ],
      [
        "▁0",
        -11.08623867932786
      ],
      [
        "▁alnı",
        -10.324102695950913
      ],
      [
        "▁inanma",
        -10.822668008109689
      ],
      [
        "▁sedirin",
        -11.113328133568569
      ],
      [
        "▁duyar",
        -8.415167039492392
      ],
      [
        "▁arazisini",
        -11.115936677138023
      ],
      [
        "erken",
        -9.82859201530854
      ],
      [
        "▁calisanlarin",
        -9.552817723872277
      ],
      [
        "▁bun",
        -4.95641735510991
      ],
      [
        "▁edebilecegini",
        -10.598615524492162
      ],
      [
        "▁tokyo'da",
        -8.0894890395314
      ],
      [
        "c",
        -6.430645875655387
      ],
      [
        "▁gormey",
        -10.22478694347179
      ],
      [
        "aki",
        -10.219220411210179
      ],
      [
        "▁ekledi",
        -7.387931290508155
      ],
      [
        "▁okuyan",
        -9.348444971702765
      ],
      [
        "▁saldırgan",
        -10.896204014988296
      ],
      [
        "▁disiplin",
        -9.60412881641668
      ],
      [
        "▁iskemle",
        -10.480766963695839
      ],
      [
        "▁secer",
        -9.554014846675726
      ],
      [
        "▁ayse",
        -7.510401831356775
      ],
      [
        "▁ogretim",
        -10.905326602044846
      ],
      [
        "▁dog",
        -9.12921878368292
      ],
      [
        "▁saatler",
        -8.947808153072328
      ],
      [
        "▁nerde",
        -9.520186705689845
      ],
      [
        "▁kıvra",
        -9.547234519350319
      ],
      [
        "▁gez",
        -9.388374291428734
      ],
      [
        "▁done",
        -8.549931206463363
      ],
      [
        "guz",
        -9.003256598535097
      ],
      [
        "▁krem",
        -10.549428209872579
      ],
      [
        "▁hulya",
        -7.704783676304173
      ],
      [
        "▁bulvar",
        -10.732076652305661
      ],
      [
        "▁sınırları",
        -10.018611296913342
      ],
      [
        "▁kontrat",
        -10.590173235565484
      ],
      [
        "lemek",
        -9.600854553144947
      ],
      [
        "▁satısta",
        -10.848150076768016
      ],
      [
        "▁inanmak",
        -10.570161326886256
      ],
      [
        "▁ediyorsun",
        -9.48963343302449
      ],
      [
        "▁sar",
        -9.37571694858982
      ],
      [
        "sadık",
        -8.785851219264412
      ],
      [
        "▁anlasmazlık",
        -10.353290104687595
      ],
      [
        "▁dokuma",
        -10.723562947597415
      ],
      [
        "▁fatih",
        -10.732076462985738
      ],
      [
        "▁han",
        -8.220608278298114
      ],
      [
        "▁calismasin",
        -9.885398459928062
      ],
      [
        "▁mesai",
        -10.74061211625774
      ],
      [
        "▁musu",
        -8.715051533902182
      ],
      [
        "▁asamasın",
        -10.294505292151884
      ],
      [
        "ms",
        -9.234830415597383
      ],
      [
        "▁sırasın",
        -9.070005241130623
      ],
      [
        "▁olu",
        -7.840553772823892
      ],
      [
        "cıları",
        -9.445994421709642
      ],
      [
        "5",
        -9.640243127096157
      ],
      [
        "▁kadını",
        -8.85451184000446
      ],
      [
        "▁kredilerin",
        -10.800136031179186
      ],
      [
        "▁atlanta'da",
        -5.474516033211378
      ],
      [
        "▁sepetin",
        -11.12257519027743
      ],
      [
        "sap",
        -9.526625186086399
      ],
      [
        "▁ev",
        -9.237298423591197
      ],
      [
        "c",
        -8.828483204966615
      ],
      [
        "▁dumanı",
        -10.020656660414254
      ],
      [
        "▁ut",
        -11.1011899726722
      ],
      [
        "▁okuyor",
        -9.196920095084089
      ],
      [
        "▁turk",
        -6.29239673085937
      ],
      [
        "▁cıglıklar",
        -10.963678901436548
      ],
      [
        "ger",
        -8.664410020472456
      ],
      [
        "▁uzerinde",
        -7.335585220165018
      ],
      [
        "▁gordu",
        -6.473052353973305
      ],
      [
        "▁york'",
        -7.743241407897624
      ],
      [
        "▁o",
        -6.656188534955952
      ],
      [
        "▁ogrencisi",
        -10.749917312297253
      ],
      [
        "▁organ",
        -10.326190746114413
      ],
      [
        "▁ucuncu",
        -10.525799880666714
      ],
      [
        "▁mudurun",
        -10.697576788172105
      ],
      [
        "▁i",
        -8.621022105971047
      ],
      [
        "▁buyu",
        -8.834982713735291
      ],
      [
        "▁bası",
        -8.103350337493644
      ],
      [
        "▁belli",
        -6.73284087628194
      ],
      [
        "▁risk",
        -8.916658141718472
      ],
      [
        "▁davası",
        -9.40094635196563
      ],
      [
        "▁yanındaki",
        -9.075245767463944
      ],
      [
        "▁balo",
        -10.442644827417823
      ],
      [
        "▁l.",
        -8.244531548830729
      ],
      [
        "▁simgesi",
        -10.589219427963064
      ],
      [
        "biraz",
        -9.767652072829224
      ],
      [
        "▁yuze",
        -9.8590873725026
      ],
      [
        "▁teli",
        -10.90918219828253
      ],
      [
        "▁onlemler",
        -10.950366397270368
      ],
      [
        "▁arıyoru",
        -8.603199684571463
      ],
      [
        "▁yas",
        -7.6627350208943135
      ],
      [
        "▁azal",
        -8.084599415076477
      ],
      [
        "▁calıstıgı",
        -9.419508929551979
      ],
      [
        "di",
        -6.312665811588268
      ],
      [
        "▁muzigin",
        -10.651013652930747
      ],
      [
        "▁arap",
        -10.892861576468142
      ],
      [
        "▁ort",
        -9.349912369176996
      ],
      [
        "▁okumak",
        -9.811620210194919
      ],
      [
        "▁kagıtlar",
        -10.574872296051547
      ],
      [
        "▁1990'",
        -11.12165929764796
      ],
      [
        "▁yakalandı",
        -9.452307620698392
      ],
      [
        "▁derinligi",
        -11.099872403995118
      ],
      [
        "▁hikayesin",
        -10.953995630456873
      ],
      [
        "▁hoca",
        -8.604133739958929
      ],
      [
        "ji",
        -10.218788201139159
      ],
      [
        "▁5.",
        -8.150355332504565
      ],
      [
        "▁adliye",
        -10.353215417840946
      ],
      [
        "▁tasındı",
        -9.322582025261898
      ],
      [
        "▁islemi",
        -9.268995792584466
      ],
      [
        "▁surpriz",
        -10.078865544500045
      ],
      [
        "▁sozcugunu",
        -10.924510427260822
      ],
      [
        "ev",
        -11.802702672349788
      ],
      [
        "▁bob",
        -8.73619183989438
      ],
      [
        "▁18",
        -6.19934010069746
      ],
      [
        "▁bakıyordu",
        -8.021371742532127
      ],
      [
        "▁sagla",
        -8.916241419016313
      ],
      [
        "▁pars",
        -11.109534348372664
      ],
      [
        "▁calısmak",
        -9.604736118531422
      ],
      [
        "▁riskin",
        -10.663902652340763
      ],
      [
        "imiz",
        -7.9083879381754425
      ],
      [
        "▁uygun",
        -5.712330602846942
      ],
      [
        "▁sus",
        -9.412000884432233
      ],
      [
        "▁duru",
        -7.994628757533107
      ],
      [
        "yin",
        -5.784995693197709
      ],
      [
        "ı",
        -5.39340979290086
      ],
      [
        "▁erkan",
        -11.089552068181549
      ],
      [
        "▁gider",
        -9.559081885089094
      ],
      [
        "▁satacak",
        -9.628587821486214
      ],
      [
        "▁cır",
        -10.454234492530741
      ],
      [
        "▁korunma",
        -10.627607135928349
      ],
      [
        "▁performans",
        -7.683806935546718
      ],
      [
        "▁onumuzde",
        -6.668482556610607
      ],
      [
        "▁degistirme",
        -10.680177307326064
      ],
      [
        "▁temizlendi",
        -9.525627386111333
      ],
      [
        "▁sepetleri",
        -10.911923896414166
      ],
      [
        "artı",
        -8.787528220340041
      ],
      [
        "bel",
        -8.628873896812383
      ],
      [
        "▁cansu",
        -8.900361475485491
      ],
      [
        "sine",
        -9.334618143189005
      ],
      [
        "▁gerektiriyor",
        -8.965139998205974
      ],
      [
        "▁gucle",
        -10.761749214488002
      ],
      [
        "▁aralıgın",
        -11.028043499805012
      ],
      [
        "▁gelenegi",
        -10.465161336580447
      ],
      [
        "▁iddialarını",
        -10.54781614081687
      ],
      [
        "▁kandil",
        -10.353294567230503
      ],
      [
        "▁doviz",
        -8.98049428132153
      ],
      [
        "aya",
        -10.706060638458467
      ],
      [
        "▁ifadeler",
        -10.824582762900233
      ],
      [
        "▁insan",
        -9.49832564530935
      ],
      [
        "▁ayrılı",
        -7.428865757157178
      ],
      [
        "▁ucu",
        -8.70722415950488
      ],
      [
        "▁gozunu",
        -8.93919563017265
      ],
      [
        "▁buruklu",
        -11.098815721812535
      ],
      [
        "▁etmeye",
        -8.517072904809254
      ],
      [
        "▁dersleri",
        -11.065028372200427
      ],
      [
        "▁mal",
        -7.972902752334396
      ],
      [
        "▁adin",
        -8.726676279029732
      ],
      [
        "▁kumu",
        -10.969877961044048
      ],
      [
        "▁baraj",
        -11.058785045943626
      ],
      [
        "▁valla",
        -9.76595308700335
      ],
      [
        "▁kasım",
        -7.35180394814709
      ],
      [
        "▁tahta",
        -8.540975213102287
      ],
      [
        "kca",
        -8.16539287037112
      ],
      [
        "▁yukseli",
        -8.66601270666713
      ],
      [
        "▁haps",
        -10.315787827824973
      ],
      [
        "▁tuttugu",
        -9.544462500489798
      ],
      [
        "▁ettigi",
        -8.442980410037462
      ],
      [
        "▁zaferi",
        -10.810191135925988
      ],
      [
        "▁bankacılık",
        -9.636131349287686
      ],
      [
        "▁seref",
        -9.951096776867116
      ],
      [
        "▁geyikleri",
        -10.51783584139332
      ],
      [
        "iste",
        -11.100877666904472
      ],
      [
        "▁bulu",
        -8.929195554867057
      ],
      [
        "▁ter",
        -9.332920032669858
      ],
      [
        "▁mu",
        -8.936653791735633
      ],
      [
        "bel",
        -9.06693790141456
      ],
      [
        "▁tok",
        -9.187684996216444
      ],
      [
        "▁izin",
        -8.039933127652404
      ],
      [
        "▁yonetici",
        -9.030979949289542
      ],
      [
        "kik",
        -10.262463624299553
      ],
      [
        "▁destekleme",
        -9.825376897578035
      ],
      [
        "▁ısıkları",
        -10.113084921309232
      ],
      [
        "▁bakar",
        -8.391798449487462
      ],
      [
        "▁ayakların",
        -11.002669061982024
      ],
      [
        "9'",
        -9.431557839181924
      ],
      [
        "▁siddet",
        -8.144050475235517
      ],
      [
        "la",
        -9.407996616393934
      ],
      [
        "a",
        -3.607399753821804
      ],
      [
        "▁kusku",
        -9.292282744898088
      ],
      [
        "▁koyde",
        -9.66247167836267
      ],
      [
        "▁gor",
        -10.384159834998096
      ],
      [
        "▁6",
        -10.312757027724881
      ],
      [
        "▁ayarlama",
        -10.38460198853194
      ],
      [
        "▁billur",
        -9.308915935283462
      ],
      [
        "▁cıkarı",
        -10.807115938362033
      ],
      [
        "▁islemin",
        -10.028653975550373
      ],
      [
        "_",
        -10.816260684484101
      ],
      [
        "ye",
        -5.48050625196987
      ],
      [
        "▁liderler",
        -10.661111598445402
      ],
      [
        "▁esi",
        -9.519706869934787
      ],
      [
        "▁kundura",
        -11.080908327853301
      ],
      [
        "d",
        -2.8362636927302933
      ],
      [
        "▁cıkmak",
        -9.33221241378732
      ],
      [
        "▁parmakları",
        -9.75085011584474
      ],
      [
        "▁ust",
        -9.126257563496061
      ],
      [
        "▁arastırma",
        -8.71069554732377
      ],
      [
        "▁",
        -3.0610943902395027
      ],
      [
        "▁kullanıldı",
        -9.730120879160328
      ],
      [
        "▁tabur",
        -10.373556512484889
      ],
      [
        "▁yatır",
        -9.607806062911568
      ],
      [
        "▁boru",
        -9.371511663212836
      ],
      [
        "125",
        -7.299233959202321
      ],
      [
        "▁ettiginde",
        -10.487499417034028
      ],
      [
        "▁politikasını",
        -9.976847021569984
      ],
      [
        "▁coluk",
        -9.68727591348758
      ],
      [
        "▁an",
        -9.464907472976373
      ],
      [
        "▁mah",
        -7.958157901483875
      ],
      [
        "▁kalkar",
        -8.90790770462581
      ],
      [
        "▁yazılar",
        -10.531236399349522
      ],
      [
        "▁yataga",
        -10.464228313157864
      ],
      [
        "leri",
        -9.01281862406928
      ],
      [
        "▁ara",
        -8.846238200314849
      ],
      [
        "▁olsaydı",
        -8.382848799661296
      ],
      [
        "▁anlıyor",
        -9.091238319818682
      ],
      [
        "▁mektup",
        -9.383331010017038
      ],
      [
        "stik",
        -11.122159365232294
      ],
      [
        "▁arkasında",
        -8.539778689059515
      ],
      [
        "dur",
        -9.294263284481898
      ],
      [
        "▁bura",
        -9.610796097063448
      ],
      [
        "▁hi",
        -4.718511553182138
      ],
      [
        "▁hal",
        -8.884454898643357
      ],
      [
        "▁pantolon",
        -9.726633463517015
      ],
      [
        "▁jandarma",
        -10.241149590110542
      ],
      [
        "ce",
        -8.031136205152576
      ],
      [
        "gının",
        -10.995109015891389
      ],
      [
        "▁ab",
        -7.913838431680318
      ],
      [
        "▁karı",
        -8.412802421705635
      ],
      [
        "[MASK]",
        0.0
      ],
      [
        "▁market",
        -10.333305683429272
      ],
      [
        "▁ogesi",
        -10.9003022910293
      ],
      [
        "▁ve",
        -10.157971682530286
      ],
      [
        "▁usak",
        -9.994509291038796
      ],
      [
        "▁hazırladıgı",
        -9.546131825875023
      ],
      [
        "▁babamı",
        -9.107728210629823
      ],
      [
        "▁arkasın",
        -9.160750568204822
      ],
      [
        "su",
        -7.924619150497522
      ],
      [
        "▁basbakan",
        -8.980901858463604
      ],
      [
        "▁sehirler",
        -9.942404625433896
      ],
      [
        "▁detaylar",
        -10.236236408385675
      ],
      [
        "▁gec",
        -6.671592612544241
      ],
      [
        "▁de",
        -8.531491132931682
      ],
      [
        "▁fazlası",
        -9.675610543458294
      ],
      [
        "▁acayip",
        -9.034935076256758
      ],
      [
        "b",
        -4.519809914103928
      ],
      [
        "▁katil",
        -9.175861373291651
      ],
      [
        "▁ana",
        -6.921880696346016
      ],
      [
        "▁baba",
        -8.073104059876469
      ],
      [
        "▁sin",
        -8.576966242332723
      ],
      [
        "▁verecek",
        -8.302192830074013
      ],
      [
        "▁michael",
        -8.23485118517964
      ],
      [
        "▁ogeler",
        -10.917256530804424
      ],
      [
        "▁tug",
        -8.713008186528256
      ],
      [
        "gi",
        -8.337290656112316
      ],
      [
        "▁vucudun",
        -10.233931626888387
      ],
      [
        "▁islemini",
        -10.182689358122344
      ],
      [
        "▁ol",
        -10.244567568795757
      ],
      [
        "gunluk",
        -7.899583056749842
      ],
      [
        "▁tarihleri",
        -10.213567348523112
      ],
      [
        "▁bizde",
        -5.95228552226769
      ],
      [
        "▁nesi",
        -10.188255707798946
      ],
      [
        "m",
        -5.717587004693732
      ],
      [
        "▁daim",
        -9.423950755751726
      ],
      [
        "▁miami",
        -8.334919779298076
      ],
      [
        "▁ayrıl",
        -9.563698568282275
      ],
      [
        "▁hokkabaz",
        -10.590199862156286
      ],
      [
        "c",
        -12.802702672349787
      ],
      [
        "sız",
        -5.222971193390283
      ],
      [
        "lan",
        -8.50762550026656
      ],
      [
        "▁yeterli",
        -9.620515762287019
      ],
      [
        "▁karanlıg",
        -11.053357556755383
      ],
      [
        "▁pazartesi",
        -8.74411908672075
      ],
      [
        "▁",
        -1.1272729554258527
      ],
      [
        "▁miktarı",
        -10.058252506499326
      ],
      [
        "digini",
        -8.835173364594402
      ],
      [
        "▁sorunum",
        -10.942889376240206
      ],
      [
        "▁verilir",
        -9.043263701146781
      ],
      [
        "▁memleket",
        -9.120133258257336
      ],
      [
        "▁talepler",
        -10.634414196014749
      ],
      [
        "▁havasını",
        -10.740582501085168
      ],
      [
        "▁durdu",
        -7.579611738729993
      ],
      [
        "▁orta",
        -7.921611910538365
      ],
      [
        "asırı",
        -10.718778275974664
      ],
      [
        "▁rakipleri",
        -10.66753893647705
      ],
      [
        "▁baskısı",
        -9.657712897294505
      ],
      [
        "▁calısan",
        -9.798752775061681
      ],
      [
        "▁burokrasi",
        -10.253107973560319
      ],
      [
        "▁tereyagı",
        -10.253109004525898
      ],
      [
        "▁konumu",
        -6.4020646095569145
      ],
      [
        "gı",
        -9.946781938701653
      ],
      [
        "▁11",
        -5.81939966074291
      ],
      [
        "▁anlasılıyor",
        -9.093433472444108
      ],
      [
        "▁mantıgı",
        -10.958692920439091
      ],
      [
        "▁gorgu",
        -10.002050590382783
      ],
      [
        "▁aclıgı",
        -10.975842805770297
      ],
      [
        "▁franchis",
        -10.898253410986815
      ],
      [
        "▁gelme",
        -8.405286920219678
      ],
      [
        "▁hazırlama",
        -10.894956196233046
      ],
      [
        "▁yazısı",
        -10.049407166691429
      ],
      [
        "leri",
        -9.259862925321352
      ],
      [
        "▁has",
        -8.726625874575694
      ],
      [
        "▁kosu",
        -9.37994927393307
      ],
      [
        "▁kapıldı",
        -9.732419123844114
      ],
      [
        "▁tumor",
        -11.102270591821062
      ],
      [
        "▁heyecan",
        -9.208212721612645
      ],
      [
        "▁bıyıkları",
        -10.029064276340833
      ],
      [
        "▁newark",
        -8.322903132594115
      ],
      [
        "▁serseri",
        -11.09890896552246
      ],
      [
        "▁sunma",
        -10.25683058364741
      ],
      [
        "▁bel",
        -9.429531231150083
      ],
      [
        "lılar",
        -10.234887641933934
      ],
      [
        "▁alabilme",
        -10.162297637561206
      ],
      [
        "▁ozdemir",
        -8.798347132000153
      ],
      [
        "nı",
        -8.954778442175572
      ],
      [
        "▁dolarl",
        -7.883214119606064
      ],
      [
        "▁coktu",
        -8.034051074114092
      ],
      [
        "▁mahmut",
        -8.349867822604647
      ],
      [
        "▁olcusu",
        -10.593446590291887
      ],
      [
        "▁dalkavuklar",
        -11.037728055856897
      ],
      [
        "▁hun",
        -10.78338892610423
      ],
      [
        "sıp",
        -9.394632303663434
      ],
      [
        "▁denetleme",
        -10.898744022385733
      ],
      [
        "g",
        -7.954734784177553
      ],
      [
        "▁salt",
        -6.502997576983729
      ],
      [
        "▁guneste",
        -10.506124081390071
      ],
      [
        "▁biriy",
        -10.706400478320845
      ],
      [
        "▁tamir",
        -9.217945620246397
      ],
      [
        "▁a.b.d.",
        -7.883420276119656
      ],
      [
        "▁vermedi",
        -8.265930370506409
      ],
      [
        "▁el",
        -9.637036638992786
      ],
      [
        "▁iyilesme",
        -10.591259455981213
      ],
      [
        "▁asfalt",
        -10.589221502939816
      ],
      [
        "leri",
        -9.417518230062159
      ],
      [
        "▁ocak'ta",
        -9.010414415552585
      ],
      [
        "▁geri",
        -5.740966921982887
      ],
      [
        "▁suresini",
        -10.386141498705626
      ],
      [
        "▁meclis",
        -9.378022565154343
      ],
      [
        "ımla",
        -10.713086629771562
      ],
      [
        "ek",
        -11.259134604801089
      ],
      [
        "▁12'de",
        -9.220508519385799
      ],
      [
        "▁kendim",
        -6.106222814598596
      ],
      [
        "▁sube",
        -9.961337477179818
      ],
      [
        "▁calismasi",
        -10.546145615769692
      ],
      [
        "▁nak",
        -10.736896328477838
      ],
      [
        "▁lunapark",
        -10.253107968662022
      ],
      [
        "▁zi",
        -10.198078796745662
      ],
      [
        "mız",
        -8.820949798883857
      ],
      [
        "▁b",
        -7.353749772085949
      ],
      [
        "▁hucreleri",
        -10.437398633555343
      ],
      [
        "▁alıskanlıgı",
        -10.683319010256161
      ],
      [
        "▁olayı",
        -9.352268093290432
      ],
      [
        "▁pembe",
        -10.253108300543749
      ],
      [
        "▁degildi",
        -2.1591214805820806
      ],
      [
        "▁bulasık",
        -10.266073638358517
      ],
      [
        "▁kapasitesin",
        -10.55455386782639
      ],
      [
        "▁acıklamasını",
        -10.699199418445573
      ],
      [
        "▁malın",
        -10.433722638638608
      ],
      [
        "?",
        -7.234115120256197
      ],
      [
        "▁ablası",
        -10.14097888999897
      ],
      [
        "▁taklit",
        -9.863848273276226
      ],
      [
        "▁yapa",
        -7.878229298172798
      ],
      [
        "▁olimpiyatlar",
        -10.794307817773257
      ],
      [
        "▁tutuyor",
        -8.290725679796633
      ],
      [
        "▁kisilik",
        -9.077334500289561
      ],
      [
        "▁2.7",
        -6.961798254303082
      ],
      [
        "▁houston",
        -7.917246887274478
      ],
      [
        "▁aldıgı",
        -8.678174464274196
      ],
      [
        "▁fenerleri",
        -10.624635083561937
      ],
      [
        "▁enflasyonun",
        -10.277645200787532
      ],
      [
        "malı",
        -7.911962755465249
      ],
      [
        "▁antalya",
        -8.552414031301359
      ],
      [
        "▁randevu",
        -10.353107968693372
      ],
      [
        "os",
        -8.513349149053266
      ],
      [
        "▁terzi",
        -9.863945756189302
      ],
      [
        "izi",
        -9.289134934642897
      ],
      [
        "▁5\\/",
        -7.490278875194841
      ],
      [
        "kırmızı",
        -9.611340950986683
      ],
      [
        "▁hasta",
        -9.271194426063847
      ],
      [
        "▁kutu",
        -9.297103156927978
      ],
      [
        "▁ellerin",
        -10.103204895114912
      ],
      [
        "ıyorsun",
        -9.346976176035325
      ],
      [
        "▁durmus",
        -9.675545416367862
      ],
      [
        "▁zı",
        -10.538442708911196
      ],
      [
        "▁pes",
        -10.181347609933749
      ],
      [
        "▁bekliyor",
        -7.378807240648136
      ],
      [
        "▁aldigim",
        -7.999018699062792
      ],
      [
        "▁yapılma",
        -10.670133088173406
      ],
      [
        "▁platform",
        -11.088218506044333
      ],
      [
        "▁patates",
        -9.093278313755647
      ],
      [
        "▁elin",
        -8.74583840893159
      ],
      [
        "▁buzl",
        -9.659432947963628
      ],
      [
        "▁gitme",
        -9.678511890129661
      ],
      [
        "▁kitaplar",
        -9.192477069328516
      ],
      [
        "▁kapa",
        -8.776832361799215
      ],
      [
        "1'de",
        -7.9281538476138556
      ],
      [
        "▁mahallesinde",
        -11.105005968245655
      ],
      [
        "▁ata",
        -9.492607593702372
      ],
      [
        "▁topla",
        -10.135606801014152
      ],
      [
        "▁arazi",
        -9.15950138019085
      ],
      [
        "▁iman",
        -10.353929715680907
      ],
      [
        "▁meydan",
        -8.076466570434402
      ],
      [
        "▁gunumuz",
        -9.361422161852877
      ],
      [
        "u",
        -4.295690201514403
      ],
      [
        "▁2",
        -9.437640702750038
      ],
      [
        "▁meclisin",
        -11.063386195243556
      ],
      [
        "once",
        -8.201754415952724
      ],
      [
        "meger",
        -11.466125186009307
      ],
      [
        "▁tadi",
        -9.949638995782095
      ],
      [
        "deta",
        -6.817374011480661
      ],
      [
        "▁dondurma",
        -10.72460368716791
      ],
      [
        "▁recel",
        -10.253113590439554
      ],
      [
        "▁faydalanma",
        -11.11596885719348
      ],
      [
        "▁artısla",
        -7.822388321930127
      ],
      [
        "▁iri",
        -7.672692456991397
      ],
      [
        "▁bez",
        -10.161552475419334
      ],
      [
        "▁tv",
        -7.8500461917645055
      ],
      [
        "!",
        -5.67393291373121
      ],
      [
        "ki",
        -6.163275855025009
      ],
      [
        "▁okuya",
        -9.22832791728519
      ],
      [
        "▁rehber",
        -8.527058612670402
      ],
      [
        "▁mer",
        -8.451092911855579
      ],
      [
        "e",
        -2.992640360500946
      ],
      [
        "▁politikası",
        -9.663914032834228
      ],
      [
        "▁noriega",
        -8.157756258636748
      ],
      [
        ";",
        -5.873728944142089
      ],
      [
        "aydi",
        -9.200138920123308
      ],
      [
        "▁mesguldu",
        -9.619724916247806
      ],
      [
        "▁seviyelerinde",
        -10.928777705177913
      ],
      [
        "▁pis",
        -7.848255553532131
      ],
      [
        "ser",
        -10.24681322141774
      ],
      [
        "▁yonetmen",
        -10.405836031342965
      ],
      [
        "▁tarihinde",
        -8.708593934792376
      ],
      [
        "ter",
        -9.525134765356468
      ],
      [
        "▁sık",
        -6.294492815396526
      ],
      [
        "▁kalacak",
        -8.212928893708089
      ],
      [
        "▁dogdu",
        -9.150377305410146
      ],
      [
        "mıslar",
        -10.603940859169843
      ],
      [
        "anan",
        -7.995654658330354
      ],
      [
        "▁toplan",
        -8.965138828332762
      ],
      [
        "▁oksuruk",
        -10.353188448061449
      ],
      [
        "▁atıs",
        -10.906685504182661
      ],
      [
        "▁koyun",
        -9.580855032669866
      ],
      [
        "▁tuccar",
        -10.147937459473193
      ],
      [
        "▁odamda",
        -10.292809897948121
      ],
      [
        "▁ekonomi",
        -6.9467799020503
      ],
      [
        "▁ikaz",
        -10.589222970516278
      ],
      [
        "▁dısı",
        -8.499374474181135
      ],
      [
        "▁kalıyor",
        -8.144357170958894
      ],
      [
        "▁evle",
        -10.847998943418846
      ],
      [
        "▁karsılas",
        -11.088331779029547
      ],
      [
        "▁kurulu'n",
        -9.75723962345298
      ],
      [
        "▁otlar",
        -10.134896501464334
      ],
      [
        "▁ceki",
        -10.285062095396327
      ],
      [
        "▁tasarruflar",
        -11.002477570968278
      ],
      [
        "yet",
        -9.584102373363804
      ],
      [
        "os",
        -10.528313213703356
      ],
      [
        "▁barikat",
        -10.898743321477008
      ],
      [
        "▁cesidi",
        -9.447784894805416
      ],
      [
        "▁kelebek",
        -9.863847372532431
      ],
      [
        "▁aklımız",
        -10.90335246092166
      ],
      [
        "▁defterleri",
        -10.98829175373246
      ],
      [
        "▁201",
        -7.22957117844715
      ],
      [
        "▁philadelphia'",
        -5.795188323964599
      ],
      [
        "▁izini",
        -10.644163584422436
      ],
      [
        "▁topuk",
        -11.09326245601304
      ],
      [
        "▁hocamız",
        -10.745009847137716
      ],
      [
        "▁beynim",
        -10.93723540935282
      ],
      [
        "▁damarı",
        -10.749518295180097
      ],
      [
        "▁suleyman",
        -8.171091438037156
      ],
      [
        "nc",
        -8.425730389423945
      ],
      [
        "▁denge",
        -8.365464385128696
      ],
      [
        "a",
        -7.245905658753116
      ],
      [
        "▁ne",
        -3.7234659756415116
      ],
      [
        "esik",
        -8.186275057097657
      ],
      [
        "▁yatakta",
        -9.995996796430193
      ],
      [
        "nlerde",
        -8.912275575803731
      ],
      [
        "▁kapitalizm",
        -11.09874289144278
      ],
      [
        "▁ydı",
        -4.64779151718307
      ],
      [
        "▁dumen",
        -10.46433366306919
      ],
      [
        "▁yanıyor",
        -8.662798029600603
      ],
      [
        "▁yuklenici",
        -10.732076882936992
      ],
      [
        "▁zamanı",
        -8.617638079123713
      ],
      [
        "▁teklifler",
        -9.409294427136674
      ],
      [
        "▁giyme",
        -10.90569489469293
      ],
      [
        "ca",
        -4.628700976346801
      ],
      [
        "▁faaliyetleri",
        -9.744078765378738
      ],
      [
        "▁ayrıla",
        -8.541486726465003
      ],
      [
        "larındaki",
        -8.04462031994002
      ],
      [
        "▁planlıyor",
        -8.113823608429437
      ],
      [
        "▁hareketin",
        -10.612412513967227
      ],
      [
        "▁aglar",
        -10.976834829325107
      ],
      [
        "▁dokule",
        -9.264751104204125
      ],
      [
        "ımlı",
        -8.741268454258853
      ],
      [
        "▁isti",
        -7.843478824552783
      ],
      [
        "▁soyleye",
        -9.382314222486814
      ],
      [
        "▁sanatkar",
        -11.057391565438742
      ],
      [
        "▁re",
        -10.066555673795257
      ],
      [
        "▁durgunluk",
        -9.337483423329138
      ],
      [
        "▁miktarın",
        -10.29007721425389
      ],
      [
        "▁adayları",
        -10.103950461243102
      ],
      [
        "▁kayalar",
        -10.408423788179105
      ],
      [
        "▁yahudi",
        -10.46423308039273
      ],
      [
        "▁ro",
        -8.39270543727789
      ],
      [
        "▁albay",
        -10.589343692726024
      ],
      [
        "▁tam",
        -6.196690295557846
      ],
      [
        "▁gunes",
        -8.113118918524897
      ],
      [
        "kim",
        -8.26198940192859
      ],
      [
        "▁dagılmıs",
        -9.667508228699313
      ],
      [
        "▁basladık",
        -9.30646804858384
      ],
      [
        "▁roman",
        -9.028481313078219
      ],
      [
        "▁dedigi",
        -9.022876238112449
      ],
      [
        "▁kanat",
        -9.806291921211692
      ],
      [
        "▁golgesi",
        -10.198035017348888
      ],
      [
        "▁bunun",
        -4.410861678317182
      ],
      [
        "kendisi",
        -9.553163458168317
      ],
      [
        "▁olma",
        -7.931604073014842
      ],
      [
        "▁uyanı",
        -9.251872102135689
      ],
      [
        "▁bileti",
        -8.764765526574621
      ],
      [
        "▁olmadıgı",
        -9.732740812309036
      ],
      [
        "▁17",
        -6.060985725555577
      ],
      [
        "▁senede",
        -10.259101472636129
      ],
      [
        "▁hakkın",
        -10.42912677269648
      ],
      [
        "▁sevk",
        -9.15049531910136
      ],
      [
        "lıklı",
        -8.655911197312777
      ],
      [
        "▁kemik",
        -10.688364198845541
      ],
      [
        "▁her",
        -6.384114116204266
      ],
      [
        "1.9",
        -8.265703530508523
      ],
      [
        "▁ev",
        -9.75601175892874
      ],
      [
        "▁damarın",
        -11.100485513109739
      ],
      [
        "tım",
        -8.945367856450623
      ],
      [
        "3'u",
        -10.616760963936628
      ],
      [
        "▁adil",
        -9.009264520086084
      ],
      [
        "▁erken",
        -10.994540806712243
      ],
      [
        "▁satımı",
        -10.048709654600717
      ],
      [
        "kurmay",
        -10.729696465181808
      ],
      [
        "▁sayfasını",
        -11.107871123347248
      ],
      [
        "▁",
        -3.611816305408839
      ],
      [
        "▁isverenler",
        -11.045074628792818
      ],
      [
        "▁arabacı",
        -10.143917060357646
      ],
      [
        "▁evlenme",
        -9.441143218760292
      ],
      [
        "▁kılıf",
        -11.09878627147441
      ],
      [
        "▁elde",
        -7.461006573902346
      ],
      [
        "▁bin",
        -9.89887978099321
      ],
      [
        "▁iade",
        -10.294649048886352
      ],
      [
        "guzel",
        -9.2226553352338
      ],
      [
        "▁dalgalanma",
        -10.069810985034348
      ],
      [
        "▁6",
        -4.8583629380426645
      ],
      [
        "▁samdan",
        -10.74522069257797
      ],
      [
        "▁nesli",
        -10.732382719575433
      ],
      [
        "▁elestir",
        -9.471795888852299
      ],
      [
        "▁hos",
        -7.4533846115195175
      ],
      [
        "▁ortaklıgı",
        -10.165426789457115
      ],
      [
        "▁zaman",
        -6.042871115359283
      ],
      [
        "▁imkan",
        -9.421831634696716
      ],
      [
        "el",
        -10.025638889085528
      ],
      [
        "▁yemin",
        -10.01604230403662
      ],
      [
        "▁or",
        -9.536262128753258
      ],
      [
        "▁ortaklık",
        -10.077435868632142
      ],
      [
        "▁duzenleme",
        -9.710618533943922
      ],
      [
        "▁gelistirmek",
        -10.625775336519974
      ],
      [
        "▁sir",
        -9.52165271620513
      ],
      [
        "▁dert",
        -9.737648494143707
      ],
      [
        "▁kesmek",
        -10.489152713826192
      ],
      [
        "▁basarı",
        -7.371442093705887
      ],
      [
        "▁gucunu",
        -9.567201937159659
      ],
      [
        "ni",
        -8.671290069092883
      ],
      [
        "▁sinirleri",
        -10.152877200612666
      ],
      [
        "mert",
        -9.31699111516361
      ],
      [
        "▁tarafını",
        -10.052166937696647
      ],
      [
        "▁130",
        -7.629725418103316
      ],
      [
        "▁chemical",
        -8.91382224026689
      ],
      [
        "yi",
        -9.273093689880234
      ],
      [
        "▁kesintiler",
        -10.761406421035819
      ],
      [
        "at",
        -8.414145194516927
      ],
      [
        "▁kar",
        -8.661770229349568
      ],
      [
        "▁acılıyor",
        -8.920699669440262
      ],
      [
        "▁im",
        -7.790436672609875
      ],
      [
        "ern",
        -8.897908908637906
      ],
      [
        "'n",
        -9.400415275833463
      ],
      [
        "▁satırı",
        -10.951590142852579
      ],
      [
        "▁bosalma",
        -10.898955143908417
      ],
      [
        ".2",
        -7.8770613473907005
      ],
      [
        "▁ah",
        -9.065234594033965
      ],
      [
        "▁ajanları",
        -11.102391071828444
      ],
      [
        "▁ellerde",
        -11.126390717149743
      ],
      [
        "▁girer",
        -8.047292840370904
      ],
      [
        "▁and",
        -10.204876877280253
      ],
      [
        "▁kapısı",
        -9.63885196952735
      ],
      [
        "▁ko",
        -8.436188161531723
      ],
      [
        "▁bırakmadı",
        -9.348891923441618
      ],
      [
        "▁dostlugu",
        -10.983394109893627
      ],
      [
        "▁etrafı",
        -9.703177475245093
      ],
      [
        "▁icimiz",
        -10.599860890117462
      ],
      [
        "▁yigitlik",
        -11.100095293580852
      ],
      [
        "▁guclendirme",
        -10.73671496535435
      ],
      [
        "▁sayılır",
        -9.036166823804978
      ],
      [
        "▁vermez",
        -9.265852405759173
      ],
      [
        "▁3.4",
        -8.22035603992964
      ],
      [
        "▁sigorta",
        -8.367598497618655
      ],
      [
        "▁konuda",
        -8.317869509998156
      ],
      [
        "▁araba",
        -7.375483013385602
      ],
      [
        "▁sok",
        -9.355294180720243
      ],
      [
        "▁yukselme",
        -10.321054391530584
      ],
      [
        "▁adamları",
        -8.683338855786909
      ],
      [
        "▁karanlık",
        -8.182000264629504
      ],
      [
        "▁dur",
        -4.965681247810773
      ],
      [
        "k",
        -3.753664422982186
      ],
      [
        "▁besin",
        -10.170371187096976
      ],
      [
        "▁birileri",
        -7.533993563251414
      ],
      [
        "mazdı",
        -8.812500534069283
      ],
      [
        "▁sehirlerde",
        -10.584131924325243
      ],
      [
        "abilirdi",
        -8.770862248958405
      ],
      [
        "▁tarafta",
        -8.967503698568345
      ],
      [
        "▁jo",
        -10.732890702584768
      ],
      [
        "▁teknolojileri",
        -11.096257284803482
      ],
      [
        "▁cok",
        -5.414069203518935
      ],
      [
        "sinde",
        -7.3805668975433765
      ],
      [
        "▁klor",
        -10.734292259593655
      ],
      [
        "la",
        -8.564281887977364
      ],
      [
        "▁talebin",
        -10.28563100180293
      ],
      [
        "▁parcacıklar",
        -10.353525822098895
      ],
      [
        "▁sirk",
        -10.734322840995361
      ],
      [
        "▁ucusunda",
        -9.640451133364976
      ],
      [
        "▁sarsıntıda",
        -10.95716503057758
      ],
      [
        "▁polisi",
        -10.65913475719397
      ],
      [
        "emez",
        -9.486551093641403
      ],
      [
        "▁kır",
        -8.73559310947396
      ],
      [
        "▁mola",
        -8.765750307601849
      ],
      [
        "▁icini",
        -9.47492425952366
      ],
      [
        "▁terazi",
        -10.162213118426386
      ],
      [
        "▁ort",
        -9.537109257399958
      ],
      [
        "siydi",
        -9.331021603958156
      ],
      [
        "▁kadındı",
        -9.51178088726645
      ],
      [
        "▁eliniz",
        -10.571127886937846
      ],
      [
        "▁sevda",
        -9.762684806418726
      ],
      [
        "sekiz",
        -7.187399372377987
      ],
      [
        "▁fazlasın",
        -10.943054825357525
      ],
      [
        "nen",
        -8.589195314917719
      ],
      [
        "▁sartlar",
        -10.012830554551044
      ],
      [
        "▁osmanlı",
        -10.078865641880173
      ],
      [
        "▁kamcı",
        -10.904469358680542
      ],
      [
        "ebilecegini",
        -9.22672353297114
      ],
      [
        "tıklarını",
        -10.599516461313417
      ],
      [
        "dur",
        -7.252100887883036
      ],
      [
        "▁bir",
        -4.592889084469568
      ],
      [
        "▁gulusu",
        -11.03971930704314
      ],
      [
        "daki",
        -5.614571492439549
      ],
      [
        "▁hatice",
        -8.887508997895862
      ],
      [
        "▁bitme",
        -10.119234100683807
      ],
      [
        "▁sokaklar",
        -10.041624407307769
      ],
      [
        "▁acık",
        -6.410109475772573
      ],
      [
        "▁is",
        -9.62191074842904
      ],
      [
        "▁buyuyor",
        -9.526494253119733
      ],
      [
        "▁basmak",
        -10.925143791861442
      ],
      [
        "▁yapa",
        -6.83511149287275
      ],
      [
        "iz",
        -5.780786808737579
      ],
      [
        "gen",
        -10.132146503394324
      ],
      [
        "▁bicim",
        -9.575361261836225
      ],
      [
        "▁odasını",
        -10.684328942919649
      ],
      [
        "▁degisikligi",
        -10.150152014480419
      ],
      [
        "▁gazete",
        -8.190931532112044
      ],
      [
        "▁amacı",
        -8.878671192718736
      ],
      [
        "lti",
        -10.722530833865594
      ],
      [
        "▁1/2'",
        -10.078865741702852
      ],
      [
        "▁istedigi",
        -10.434212663330314
      ],
      [
        "▁bel",
        -5.7176907548495475
      ],
      [
        "▁yanında",
        -8.460470702022391
      ],
      [
        "▁oakland'",
        -6.623636348334859
      ],
      [
        "▁saglamay",
        -10.595797121422905
      ],
      [
        "▁siparisler",
        -10.437570834181027
      ],
      [
        "▁lohusa",
        -11.098742889309715
      ],
      [
        "▁mutlulugu",
        -10.686111406115858
      ],
      [
        "▁dansı",
        -10.50571496130673
      ],
      [
        "▁ordek",
        -10.633069767248863
      ],
      [
        "▁genis",
        -6.394814429886786
      ],
      [
        "▁ab",
        -10.45182657287977
      ],
      [
        "▁mikrofon",
        -10.732239332934903
      ],
      [
        "leri",
        -6.24116818408501
      ],
      [
        "▁g",
        -7.539574150770843
      ],
      [
        "▁maymun",
        -10.464220937697704
      ],
      [
        "▁gidiyor",
        -6.988402445379826
      ],
      [
        "▁topa",
        -10.487726416604373
      ],
      [
        "bol",
        -10.635198909225558
      ],
      [
        "las",
        -8.9610614273222
      ],
      [
        "▁uyudu",
        -9.526080950841699
      ],
      [
        "▁olanaklari",
        -8.110646840794946
      ],
      [
        "▁tarifesi",
        -10.393143076280381
      ],
      [
        "▁sikayetleri",
        -10.650237762145862
      ],
      [
        "▁isteme",
        -9.253206003014594
      ],
      [
        "▁demekti",
        -8.052729377854998
      ],
      [
        "▁tahvilin",
        -10.75038593009386
      ],
      [
        "▁doktora",
        -10.123640808146884
      ],
      [
        "▁yapacak",
        -7.689412909299719
      ],
      [
        "ci",
        -6.394586723850148
      ],
      [
        "▁okurlar",
        -10.612340321855475
      ],
      [
        "▁carptı",
        -9.11722724199323
      ],
      [
        "▁liderlik",
        -10.735243321823196
      ],
      [
        "▁bembeyaz",
        -9.308181112197959
      ],
      [
        "▁gorduk",
        -8.119405791779613
      ],
      [
        "▁verir",
        -7.5090331573904505
      ],
      [
        "▁ulas",
        -8.81954456049914
      ],
      [
        "▁oruc",
        -10.73237425478801
      ],
      [
        "▁yaban",
        -9.724637962637493
      ],
      [
        "▁dergiler",
        -10.003756551066889
      ],
      [
        "bunlar",
        -9.181736799155647
      ],
      [
        "en",
        -9.169665169496012
      ],
      [
        "▁ali'",
        -8.799392567992886
      ],
      [
        "▁anti",
        -10.068180978297825
      ],
      [
        "▁as",
        -8.247342389652362
      ],
      [
        "▁vanilya",
        -10.898742920500043
      ],
      [
        "▁ekipman",
        -9.71820993001287
      ],
      [
        "▁nesil",
        -9.832150095547778
      ],
      [
        "ustur",
        -9.03230136137262
      ],
      [
        "▁tev",
        -11.108589404225043
      ],
      [
        "den",
        -4.933138988705829
      ],
      [
        "▁maasın",
        -10.815566037634397
      ],
      [
        "▁deyim",
        -10.489049190700769
      ],
      [
        "bur",
        -9.444997847649093
      ],
      [
        "▁corap",
        -10.121292993028952
      ],
      [
        "▁yonelikti",
        -8.956740725977967
      ],
      [
        "memisti",
        -9.459267049752569
      ],
      [
        "mizda",
        -10.657379423266725
      ],
      [
        "▁bilgilendirme",
        -10.163181876576468
      ],
      [
        "▁beach'",
        -7.723797446186319
      ],
      [
        "▁sektoru",
        -9.537632251348796
      ],
      [
        "ne",
        -6.372458135960013
      ],
      [
        "▁rapor",
        -8.349981916411185
      ],
      [
        "▁soyler",
        -7.625395146330746
      ],
      [
        "erler",
        -10.995737566408708
      ],
      [
        "▁profesorun",
        -11.007655328542835
      ],
      [
        "▁tedavulde",
        -9.18708909170939
      ],
      [
        "▁dogru",
        -6.176161593885435
      ],
      [
        "▁var",
        -7.218446326693829
      ],
      [
        "▁yuruyordu",
        -8.964962333150089
      ],
      [
        "▁yıl",
        -6.152619563910045
      ],
      [
        "▁hayri",
        -8.813109171029478
      ],
      [
        "▁boynun",
        -9.563933381821505
      ],
      [
        "▁kimsey",
        -9.871203586362283
      ],
      [
        "▁aktar",
        -8.868596283183884
      ],
      [
        "yacak",
        -9.476213899102827
      ],
      [
        "▁programı",
        -8.646389034836416
      ],
      [
        "meli",
        -9.10389111524048
      ],
      [
        "▁acıklamada",
        -11.051935578642851
      ],
      [
        "▁g",
        -5.746819020120408
      ],
      [
        "▁reformlar",
        -11.096841364310604
      ],
      [
        "▁cozme",
        -10.09254128692243
      ],
      [
        "ne",
        -8.670205081013911
      ],
      [
        "▁gemi",
        -8.109333382095294
      ],
      [
        "▁kuzey",
        -8.404421094313163
      ],
      [
        "ıktır",
        -9.730673567621958
      ],
      [
        "▁yaratıyor",
        -9.288951910732957
      ],
      [
        "▁cinayeti",
        -10.989833022521058
      ],
      [
        "▁tomb",
        -9.419973333962869
      ],
      [
        "▁olmaları",
        -9.574717722290838
      ],
      [
        "▁otların",
        -10.696058302456624
      ],
      [
        "▁duvar",
        -8.440510891564148
      ],
      [
        "ildir",
        -9.503150857180517
      ],
      [
        "▁capa",
        -10.778953447244499
      ],
      [
        "▁sucu",
        -10.023076533194057
      ],
      [
        "▁kalkan",
        -10.25334306431135
      ],
      [
        "luyor",
        -9.709015214142644
      ],
      [
        "▁varlıkları",
        -10.5928434676174
      ],
      [
        "▁tiyatroda",
        -11.033190522430102
      ],
      [
        "niz",
        -8.810865236268366
      ],
      [
        "▁kadına",
        -10.50352913239665
      ],
      [
        "▁sarkı",
        -8.70925591014181
      ],
      [
        "▁hepimiz",
        -6.275153793410539
      ],
      [
        "▁lacivert",
        -8.643565974139694
      ],
      [
        "▁bulan",
        -9.258497622292321
      ],
      [
        "▁soyledigi",
        -10.685935091809158
      ],
      [
        "▁bereket",
        -10.253108902733873
      ],
      [
        "▁ce",
        -10.507902487241811
      ],
      [
        "▁toprak",
        -8.489745413190828
      ],
      [
        "▁las",
        -6.336200179646652
      ],
      [
        "i",
        -5.232806598761162
      ],
      [
        "karsı",
        -8.672606795851351
      ],
      [
        "▁barmen",
        -11.099103580542856
      ],
      [
        "▁tum",
        -9.042511170874754
      ],
      [
        "umuz",
        -9.783801706744903
      ],
      [
        "▁cantasında",
        -10.639618387884084
      ],
      [
        "▁anlat",
        -7.934107037127927
      ],
      [
        "▁kitaplarda",
        -10.482775334237353
      ],
      [
        "▁hayvanları",
        -10.78140590195418
      ],
      [
        "▁kullan",
        -8.103839210606088
      ],
      [
        "muz",
        -8.85723601299256
      ],
      [
        "▁beste",
        -10.353295830301871
      ],
      [
        "▁hanım",
        -7.660419018851054
      ],
      [
        "▁isletmeler",
        -9.688590390519261
      ],
      [
        "▁avaz",
        -10.253321199805178
      ],
      [
        "'da",
        -9.771353405504778
      ],
      [
        "▁trafigi",
        -10.46399201249394
      ],
      [
        "ttıgı",
        -8.920023401214241
      ],
      [
        "▁beklenti",
        -10.516956481836122
      ],
      [
        "▁'di",
        -7.783819529870545
      ],
      [
        "▁yollar",
        -9.324275543321802
      ],
      [
        "▁ozveri",
        -10.732092652356709
      ],
      [
        "▁46",
        -7.535870789687818
      ],
      [
        "▁75",
        -7.581183556368481
      ],
      [
        "▁ihtilaf",
        -10.720736472550314
      ],
      [
        "▁dik",
        -9.172933677908429
      ],
      [
        "▁tatili",
        -10.421475363904662
      ],
      [
        "▁reform",
        -9.96050632063078
      ],
      [
        "▁en",
        -3.960848580067064
      ],
      [
        "▁digerlerinde",
        -10.771096645112765
      ],
      [
        "▁brezilya",
        -8.926718390471194
      ],
      [
        "▁memnunu",
        -7.323404541423491
      ],
      [
        "▁soyleyecek",
        -9.603006939980611
      ],
      [
        "▁hızın",
        -10.65139590900977
      ],
      [
        "▁33",
        -7.896917029261568
      ],
      [
        "▁sebeke",
        -10.831099177603765
      ],
      [
        "▁kufe",
        -10.960417879408464
      ],
      [
        "iniz",
        -8.30316611001676
      ],
      [
        "▁fenerbahce",
        -8.642301674061889
      ],
      [
        "▁birinci",
        -9.761631451813047
      ],
      [
        "▁baslaması",
        -10.124791616507139
      ],
      [
        "▁zihnin",
        -10.413469425353295
      ],
      [
        "▁mis",
        -10.53041986379491
      ],
      [
        "'ı",
        -7.531868235774581
      ],
      [
        "▁cra",
        -8.710348249057624
      ],
      [
        "▁hazırlıgı",
        -11.100161927664733
      ],
      [
        "▁rakibini",
        -10.36846990790729
      ],
      [
        "leti",
        -10.990453602847092
      ],
      [
        "▁sif",
        -10.401494994480998
      ],
      [
        "▁sel",
        -8.853564235100038
      ],
      [
        "▁yek",
        -11.05602392000643
      ],
      [
        "▁39",
        -7.370096993076277
      ],
      [
        "▁tencere",
        -10.199483572936657
      ],
      [
        "▁h",
        -10.36850861167564
      ],
      [
        "▁eksik",
        -10.642656545047975
      ],
      [
        "erim",
        -9.24350895241884
      ],
      [
        "▁sunu",
        -6.508308482124722
      ],
      [
        "▁seviyoru",
        -9.72686716077269
      ],
      [
        "▁kiler",
        -5.651095447333789
      ],
      [
        "▁gercekleri",
        -10.858925142195991
      ],
      [
        "▁doseme",
        -11.126291404605436
      ],
      [
        "k",
        -7.6999088048560616
      ],
      [
        "▁kalem",
        -8.773130127460208
      ],
      [
        "▁olusturuyor",
        -9.010897918694187
      ],
      [
        "▁demisti",
        -9.191125971055653
      ],
      [
        "mel",
        -6.735596847557808
      ],
      [
        "zin",
        -9.641793122512002
      ],
      [
        "▁11.",
        -8.302229323487445
      ],
      [
        "▁matbaa",
        -10.844854163585403
      ],
      [
        "▁faaliyetlerini",
        -10.233018309676993
      ],
      [
        "▁elli",
        -6.208347808831624
      ],
      [
        "▁sogugu",
        -10.90107885669398
      ],
      [
        "▁kufur",
        -10.784281089660436
      ],
      [
        "▁ısık",
        -8.691963118230525
      ],
      [
        "▁atım",
        -10.797382008949963
      ],
      [
        "▁hangisi",
        -5.9097176655688965
      ],
      [
        "▁tasımacılıgı",
        -9.865611043120996
      ],
      [
        "▁ahlakı",
        -11.095089757470104
      ],
      [
        "esine",
        -8.638187463584957
      ],
      [
        "▁hazırlanı",
        -8.749592517711614
      ],
      [
        "1",
        -10.311905525741397
      ],
      [
        "▁vesile",
        -10.25312088972145
      ],
      [
        "▁edilme",
        -10.606763346458274
      ],
      [
        "▁bilgiler",
        -9.632287491027398
      ],
      [
        "▁siir",
        -9.007955034533975
      ],
      [
        "▁kazada",
        -10.361986945256392
      ],
      [
        "▁carsıy",
        -11.0830268505375
      ],
      [
        "▁kahvede",
        -10.791529810622395
      ],
      [
        "▁etkileri",
        -10.077811649404886
      ],
      [
        "▁vefat",
        -10.46500696888693
      ],
      [
        "▁keci",
        -10.15386734618582
      ],
      [
        "▁kralı",
        -10.382525845042835
      ],
      [
        "▁kubbe",
        -10.428956894998654
      ],
      [
        "▁42",
        -6.850838654741995
      ],
      [
        "▁islem",
        -7.538532828350596
      ],
      [
        "▁damda",
        -10.639809077193213
      ],
      [
        "▁eserin",
        -11.03459942911841
      ],
      [
        "▁cekil",
        -9.60373445212977
      ],
      [
        "▁zek",
        -8.85832404812406
      ],
      [
        "▁basvuru",
        -10.226589942863136
      ],
      [
        "▁0.9",
        -7.9042528719062535
      ],
      [
        "deli",
        -8.805753695423384
      ],
      [
        "▁mujde",
        -10.898745094594034
      ],
      [
        "▁nashville'",
        -8.158896956107267
      ],
      [
        "▁masraflar",
        -10.71083420064106
      ],
      [
        "▁yakin",
        -10.470652260605107
      ],
      [
        "▁not",
        -9.427186891717522
      ],
      [
        "▁sallantı",
        -10.589219136476876
      ],
      [
        "▁kilimler",
        -10.963542431449987
      ],
      [
        "▁huzurun",
        -11.017612596799934
      ],
      [
        "▁bosaltma",
        -10.73207851122293
      ],
      [
        "▁indirimler",
        -10.69565136537902
      ],
      [
        "larla",
        -7.072148487323994
      ],
      [
        "big",
        -8.397002554661107
      ],
      [
        "tma",
        -9.629294612924383
      ],
      [
        "▁fayda",
        -9.530232652287218
      ],
      [
        "lıgın",
        -9.033047954604509
      ],
      [
        "000",
        -5.453798378371451
      ],
      [
        "▁aradı",
        -8.99359701568709
      ],
      [
        "'li",
        -9.501379903322782
      ],
      [
        "▁halde",
        -7.68513371078781
      ],
      [
        "z",
        -7.384597776793819
      ],
      [
        "▁basamak",
        -10.535209886725308
      ],
      [
        "▁gokyuzunu",
        -10.260575347987063
      ],
      [
        "▁tarla",
        -9.308820471996295
      ],
      [
        "▁fonlar",
        -9.0551088285899
      ],
      [
        "▁pence",
        -10.406032795263894
      ],
      [
        "▁2.6",
        -7.411926299767766
      ],
      [
        "▁borsacılar",
        -9.96377383456961
      ],
      [
        "▁kalkmıs",
        -9.614185945564351
      ],
      [
        "▁gelin",
        -9.08711926861815
      ],
      [
        "▁pro",
        -11.00846523110784
      ],
      [
        "da",
        -6.760170719648695
      ],
      [
        "tigini",
        -10.267081283737568
      ],
      [
        "▁er",
        -9.225897782961376
      ],
      [
        "▁karıstırma",
        -10.59686841798818
      ],
      [
        "▁temizlikte",
        -9.559265494958463
      ],
      [
        "▁reng",
        -10.989641703347488
      ],
      [
        "▁cingene",
        -11.098745843677506
      ],
      [
        "▁soforu",
        -10.680488579529005
      ],
      [
        "▁munasebetsizlik",
        -10.901066029703873
      ],
      [
        "▁gitmem",
        -10.279101783279895
      ],
      [
        "▁haftalı",
        -8.124062166503307
      ],
      [
        "▁kendisi",
        -5.0164946613251225
      ],
      [
        "▁oz",
        -9.379689553655565
      ],
      [
        "▁bolge",
        -9.1918953309007
      ],
      [
        "▁olacak",
        -11.091960021900691
      ],
      [
        "ik",
        -8.436932914756806
      ],
      [
        "▁gazetesini",
        -10.1419314192113
      ],
      [
        "ese",
        -10.439353389978015
      ],
      [
        "r",
        -8.379793470514926
      ],
      [
        "▁artısı",
        -9.063182070328649
      ],
      [
        "▁ib",
        -9.38772116217762
      ],
      [
        "▁tepsiy",
        -10.548225629158019
      ],
      [
        "▁aldıgın",
        -9.530135576233567
      ],
      [
        "▁bilgi",
        -6.831415312564064
      ],
      [
        "▁robert",
        -7.895259777079192
      ],
      [
        "deydi",
        -9.002217072973666
      ],
      [
        "▁oglu",
        -9.223328877266793
      ],
      [
        "▁deneyim",
        -9.65767820091841
      ],
      [
        "onları",
        -8.727200049969378
      ],
      [
        "▁cozul",
        -9.543711832111436
      ],
      [
        "▁pembe",
        -8.497597246521899
      ],
      [
        "▁donemi",
        -9.09227536024358
      ],
      [
        "▁beni",
        -4.178270586993837
      ],
      [
        "▁sistemi",
        -8.629750946535477
      ],
      [
        "▁yalnızlık",
        -9.965507632337344
      ],
      [
        "▁kazandı",
        -7.276032152778351
      ],
      [
        "▁nu",
        -8.517905852172216
      ],
      [
        "▁bolges",
        -8.931680170920519
      ],
      [
        "nizi",
        -9.287715957179504
      ],
      [
        "▁i",
        -8.93431410189357
      ],
      [
        "▁i",
        -10.719126777139204
      ],
      [
        "▁depolama",
        -10.911715241764796
      ],
      [
        "▁7.",
        -8.257306022793935
      ],
      [
        "▁yil",
        -9.787124244265225
      ],
      [
        "edilen",
        -8.950360766434613
      ],
      [
        "tan",
        -8.270755903086206
      ],
      [
        "▁secimde",
        -10.36264923016639
      ],
      [
        "▁yurudu",
        -8.073291347275415
      ],
      [
        "babı",
        -10.767634141348063
      ],
      [
        "b",
        -9.418324782834134
      ],
      [
        "▁doku",
        -9.560770243869136
      ],
      [
        "▁bitirme",
        -10.174492311648628
      ],
      [
        "▁kızlar",
        -9.188648323935627
      ],
      [
        "▁fail",
        -11.09891393585214
      ],
      [
        "▁ayırma",
        -10.18775774343935
      ],
      [
        "9",
        -12.802702672349787
      ],
      [
        "▁uyandır",
        -9.4997754947005
      ],
      [
        "▁gunahı",
        -10.35340991048471
      ],
      [
        "▁para",
        -8.84681256838626
      ],
      [
        "▁cu",
        -10.557629160232889
      ],
      [
        "▁pazarı",
        -9.479966534085355
      ],
      [
        "▁projesi",
        -9.938342763016376
      ],
      [
        "ginde",
        -9.25235853384293
      ],
      [
        "▁olumu",
        -9.619492879806387
      ],
      [
        "l",
        -7.755569990872565
      ],
      [
        "▁g",
        -9.078627178562964
      ],
      [
        "▁muh",
        -10.512304943956979
      ],
      [
        "▁ayı",
        -8.31416700243236
      ],
      [
        "lenmis",
        -9.545395337393721
      ],
      [
        "malıyı",
        -8.750599827999974
      ],
      [
        "▁doktor",
        -8.618040063999782
      ],
      [
        "▁paya",
        -10.687768704182616
      ],
      [
        "▁farklı",
        -6.676524239915737
      ],
      [
        "ka",
        -11.937217247345504
      ],
      [
        "siniz",
        -6.7800785987794
      ],
      [
        "▁etkenleri",
        -10.887329364106188
      ],
      [
        "▁listeley",
        -6.290222718821956
      ],
      [
        "▁kisiligi",
        -10.538667840508484
      ],
      [
        "▁biles",
        -10.998769289461519
      ],
      [
        "lıkları",
        -10.466068654845891
      ],
      [
        "▁geciyor",
        -7.732986696869652
      ],
      [
        "▁sohbet",
        -9.123331894156067
      ],
      [
        "▁onunu",
        -10.490444501281063
      ],
      [
        "▁bos",
        -9.304613062535887
      ],
      [
        "mı",
        -6.850188499010792
      ],
      [
        "iyetli",
        -8.76819856306355
      ],
      [
        "▁kalabalık",
        -9.188768719440894
      ],
      [
        "▁ilkeleri",
        -10.154413912890227
      ],
      [
        "ırım",
        -10.21020698555717
      ],
      [
        "lerin",
        -8.987652753585088
      ],
      [
        "▁imparatorluk",
        -10.732391797896058
      ],
      [
        "▁kitap",
        -8.263128533471061
      ],
      [
        "▁taktı",
        -9.63286201096566
      ],
      [
        "▁peri",
        -11.094180956158386
      ],
      [
        "▁olum",
        -8.517813991263285
      ],
      [
        "▁tartısma",
        -9.45706376958626
      ],
      [
        "▁burunları",
        -10.769798867606728
      ],
      [
        "▁kimi",
        -5.800937397148718
      ],
      [
        "▁alm",
        -9.257133033282356
      ],
      [
        "▁seyler",
        -7.403838695282114
      ],
      [
        "▁baslık",
        -9.793386022712847
      ],
      [
        "▁bere",
        -11.127903983683442
      ],
      [
        "luluk",
        -9.975302117277163
      ],
      [
        "▁tarım",
        -10.004056650407412
      ],
      [
        "▁fikirler",
        -9.97120409718594
      ],
      [
        "▁yok",
        -5.684098178948602
      ],
      [
        "▁tampa'",
        -8.04256393082669
      ],
      [
        "▁portre",
        -11.024304840189869
      ],
      [
        "▁fikri",
        -9.150666619093464
      ],
      [
        "▁tip",
        -9.412772985177245
      ],
      [
        "▁vuru",
        -9.436110506156915
      ],
      [
        "▁kafes",
        -10.066957853250246
      ],
      [
        "▁rea",
        -10.641804303982234
      ],
      [
        "▁emin",
        -7.957651102672362
      ],
      [
        "▁dizlerin",
        -10.752970392194005
      ],
      [
        "hakk",
        -9.471631013235356
      ],
      [
        "▁ozur",
        -9.801513499884468
      ],
      [
        "ar",
        -7.789969017039488
      ],
      [
        "ger",
        -10.259287854071067
      ],
      [
        "▁sanır",
        -8.29515864578821
      ],
      [
        "▁duyu",
        -9.066085243341808
      ],
      [
        "▁maddelerin",
        -10.591133240089352
      ],
      [
        "▁il",
        -8.96691352276546
      ],
      [
        "▁nine",
        -9.902639729715599
      ],
      [
        "1",
        -4.618758539404045
      ],
      [
        "▁bezi",
        -10.14738845591567
      ],
      [
        "▁ilkesi",
        -10.667486483270975
      ],
      [
        "▁yen",
        -8.662922996093439
      ],
      [
        "▁getirme",
        -10.891995967210748
      ],
      [
        "▁pir",
        -10.925042020616717
      ],
      [
        "▁inkılabı",
        -11.098742889315783
      ],
      [
        "▁beygir",
        -11.050911752915829
      ],
      [
        "▁net",
        -8.077903785958835
      ],
      [
        "▁baltimore'de",
        -5.9201318121674325
      ],
      [
        "▁angeles",
        -7.726528662700389
      ],
      [
        "▁kim",
        -8.612603231965428
      ],
      [
        "▁bahsediyor",
        -9.267547119627936
      ],
      [
        "▁hamallar",
        -10.337932189914447
      ],
      [
        "▁kardesim",
        -9.109049374285336
      ],
      [
        "▁cevresinde",
        -9.694943904630712
      ],
      [
        "▁ucunu",
        -9.755584289526476
      ],
      [
        "ben",
        -7.409524854259412
      ],
      [
        "▁otelde",
        -8.301786048454499
      ],
      [
        "▁gonder",
        -9.030734889313027
      ],
      [
        "ım",
        -12.137025695733549
      ],
      [
        "gru",
        -8.985719511832492
      ],
      [
        "▁biri",
        -8.132717912808479
      ],
      [
        "▁se",
        -7.921130552514963
      ],
      [
        "dizli",
        -7.5921693520752385
      ],
      [
        "mekle",
        -10.76845806268413
      ],
      [
        "▁rengini",
        -10.783093083262134
      ],
      [
        "▁havaalanında",
        -9.025660402035006
      ],
      [
        "mayın",
        -8.930131541273918
      ],
      [
        "▁noksan",
        -11.098743201652908
      ],
      [
        "▁yasına",
        -9.638032316845718
      ],
      [
        "cileri",
        -10.065163106277675
      ],
      [
        "▁hayvanı",
        -10.077642222336168
      ],
      [
        "▁televizyonda",
        -10.41153022698099
      ],
      [
        "▁yumurta",
        -8.754300408480006
      ],
      [
        "▁komitesi",
        -9.399996099771492
      ],
      [
        "▁tut",
        -7.995860866800918
      ],
      [
        "▁montaj",
        -10.589411199506564
      ],
      [
        "▁lokantalar",
        -10.752603741583888
      ],
      [
        "▁sanat",
        -8.66484346759852
      ],
      [
        "gını",
        -8.14158609195981
      ],
      [
        "▁savunma",
        -8.553326045297183
      ],
      [
        "▁ucretlerini",
        -8.878803272422667
      ],
      [
        "▁ellerini",
        -8.78090207335095
      ],
      [
        "▁borsası'n",
        -9.241057530235617
      ],
      [
        "▁guzelligini",
        -10.624539923764184
      ],
      [
        "▁buro",
        -10.22762283635119
      ],
      [
        "▁alan",
        -8.297622208325881
      ],
      [
        "▁okullar",
        -9.767645981575152
      ],
      [
        "▁etkisini",
        -9.823236292161372
      ],
      [
        "▁sessiz",
        -8.168404297102164
      ],
      [
        "▁don",
        -8.594968907651552
      ],
      [
        "ersah",
        -11.099095404833271
      ],
      [
        "▁uzumler",
        -11.024232366381224
      ],
      [
        "ice",
        -9.645071295647874
      ],
      [
        "▁sonuc",
        -9.14760979782066
      ],
      [
        "rugu",
        -10.864131148422796
      ],
      [
        "ları",
        -8.642392733446677
      ],
      [
        "▁b.",
        -8.433591002124137
      ],
      [
        "▁hucre",
        -9.632949433467115
      ],
      [
        "esinde",
        -8.037033013156538
      ],
      [
        "▁toplantı",
        -8.989139248092219
      ],
      [
        "▁oteldi",
        -7.336627100644453
      ],
      [
        "▁ilgilenmedi",
        -7.781757350022888
      ],
      [
        "mesin",
        -9.45685009833977
      ],
      [
        "▁seyrediyordu",
        -9.160413989879215
      ],
      [
        "lik",
        -7.12132428535424
      ],
      [
        "▁yalan",
        -9.64927714623305
      ],
      [
        "ında",
        -7.43386223466814
      ],
      [
        "▁ver",
        -7.757383306895422
      ],
      [
        "▁hanımefendi",
        -10.464322710748451
      ],
      [
        "▁tuketiciler",
        -9.780202392280822
      ],
      [
        "▁istismar",
        -11.0987429099166
      ],
      [
        "▁hormon",
        -10.732076263596737
      ],
      [
        "▁gunesin",
        -9.515885729729263
      ],
      [
        "▁buralar",
        -10.53808766323542
      ],
      [
        "▁catır",
        -9.312709422253363
      ],
      [
        "▁yerlerin",
        -10.68306572842677
      ],
      [
        "▁ayagını",
        -10.138884791196077
      ],
      [
        "▁temyiz",
        -9.801353203602739
      ],
      [
        "lerinin",
        -7.6255748830699925
      ],
      [
        "▁ediyor",
        -5.545224064847297
      ],
      [
        "▁dus",
        -8.074622497849719
      ],
      [
        "ık",
        -9.675863662942442
      ],
      [
        "▁derde",
        -10.082281943364702
      ],
      [
        "▁alanlarda",
        -10.294854362710765
      ],
      [
        "▁kıyıy",
        -10.627138342933502
      ],
      [
        "▁kosulları",
        -8.866750235249459
      ],
      [
        "▁vatandas",
        -10.08267321597105
      ],
      [
        "▁baltimore'",
        -5.677488900809902
      ],
      [
        "▁tutacak",
        -9.253094178188839
      ],
      [
        "▁cevaplar",
        -10.689008865213392
      ],
      [
        "▁etrafımda",
        -10.735370003439664
      ],
      [
        "▁sah",
        -10.231503218827072
      ],
      [
        "▁din",
        -8.772571516085511
      ],
      [
        "▁uzeri",
        -9.859069617067671
      ],
      [
        "▁imf",
        -10.898761102993372
      ],
      [
        "▁halini",
        -9.837944598375518
      ],
      [
        "ilecek",
        -9.180783034315807
      ],
      [
        "eki",
        -7.37202748704168
      ],
      [
        "▁196",
        -7.2077126022460485
      ],
      [
        "▁bi",
        -10.636626068922244
      ],
      [
        "▁golgesin",
        -10.643486255174738
      ],
      [
        "▁zul",
        -10.466041099091584
      ],
      [
        "▁ruyalar",
        -10.259245354602989
      ],
      [
        "h",
        -12.178637598550253
      ],
      [
        "▁hanım'ı",
        -8.619918032669052
      ],
      [
        "rans",
        -10.361277744192886
      ],
      [
        "as",
        -8.813336144343062
      ],
      [
        "▁patlıcanı",
        -10.545276290718355
      ],
      [
        "th",
        -10.841149439248726
      ],
      [
        "▁yuruyu",
        -9.19544075741663
      ],
      [
        "▁digeri",
        -9.712292722577121
      ],
      [
        "▁imkanlari",
        -8.099556306883898
      ],
      [
        "▁mudafaa",
        -11.098742905228045
      ],
      [
        "temiz",
        -8.736503455565757
      ],
      [
        "▁turkiye'de",
        -7.000061765398926
      ],
      [
        "▁berber",
        -11.09874333652937
      ],
      [
        "nuz",
        -8.720004268055186
      ],
      [
        "▁kaliforniya",
        -7.288443125848875
      ],
      [
        "▁projey",
        -11.071551370634275
      ],
      [
        "▁rumeli",
        -8.572352037210699
      ],
      [
        "▁saydı",
        -9.168955955166728
      ],
      [
        "▁muamele",
        -9.986530975569863
      ],
      [
        "▁yakın",
        -8.747019906385535
      ],
      [
        "▁masrafları",
        -10.840285399977903
      ],
      [
        "▁sualler",
        -11.099454646117632
      ],
      [
        "▁yasamıs",
        -9.651659882660915
      ],
      [
        "2'",
        -9.119381859814382
      ],
      [
        "▁yukseldi",
        -6.120971979284883
      ],
      [
        "▁sıhhat",
        -10.898742890330741
      ],
      [
        "a",
        -3.3062409507640718
      ],
      [
        "lar",
        -7.8303096889727435
      ],
      [
        "▁otesin",
        -9.475185548589444
      ],
      [
        "▁acısını",
        -10.446743083400312
      ],
      [
        "▁bogu",
        -9.430927975065169
      ],
      [
        "dur",
        -7.963461038635122
      ],
      [
        "ri",
        -8.564658674161267
      ],
      [
        "▁'li",
        -7.839626404640395
      ],
      [
        "▁ote",
        -9.144235764559738
      ],
      [
        "▁imalatcı",
        -10.965308095992347
      ],
      [
        "▁dikkatl",
        -8.745355815666466
      ],
      [
        "caktı",
        -8.822642918470995
      ],
      [
        "a",
        -3.09665466283172
      ],
      [
        "▁lezzetleri",
        -8.721586907754283
      ],
      [
        "▁tava",
        -9.550625643841062
      ],
      [
        "▁oner",
        -8.947238590618117
      ],
      [
        "▁konseyi",
        -10.598660535682308
      ],
      [
        "▁ornekleri",
        -10.83588820670793
      ],
      [
        "▁k",
        -8.701054755598935
      ],
      [
        "▁anlayamadı",
        -9.694705296145237
      ],
      [
        "▁seviyede",
        -9.463813683491223
      ],
      [
        "▁degisimin",
        -10.338942380392657
      ],
      [
        "▁tulumba",
        -10.471467986222901
      ],
      [
        "▁yazı",
        -8.684929340423267
      ],
      [
        "▁kim",
        -8.915171975551662
      ],
      [
        "▁havaalanı'n",
        -10.625963402525523
      ],
      [
        "▁yardım",
        -7.710468762699982
      ],
      [
        "'e",
        -6.643965634587967
      ],
      [
        "▁kadehini",
        -11.11468986155892
      ],
      [
        "umuzu",
        -10.635438553885333
      ],
      [
        "▁gonderdi",
        -8.588249795210118
      ],
      [
        "bu",
        -7.536628892704085
      ],
      [
        "▁kulu",
        -10.776698574320424
      ],
      [
        "▁bırakır",
        -8.868787634310582
      ],
      [
        "ırlar",
        -11.106946581257219
      ],
      [
        "▁kontrolu",
        -9.580152665790218
      ],
      [
        "▁ust",
        -7.1185545875493945
      ],
      [
        "▁farkında",
        -8.963220187155489
      ],
      [
        "▁taraftarları",
        -10.852232503087514
      ],
      [
        "▁tabiri",
        -11.119718034129653
      ],
      [
        "▁omrunu",
        -10.492400102696992
      ],
      [
        "▁kullanı",
        -9.512253427012912
      ],
      [
        "▁zar",
        -10.22390356309778
      ],
      [
        "▁teni",
        -10.81027063721621
      ],
      [
        "▁eden",
        -8.837452760972091
      ],
      [
        "▁komisyonu'n",
        -10.712049169666514
      ],
      [
        "▁gelirleri",
        -9.588329805364603
      ],
      [
        "▁edilmesi",
        -9.539387496687684
      ],
      [
        "▁so",
        -8.823848671637887
      ],
      [
        "▁sizi",
        -5.685998760825111
      ],
      [
        "▁yala",
        -9.681872954216269
      ],
      [
        "▁yazdıgı",
        -9.216892536079811
      ],
      [
        "rif",
        -9.532873853548764
      ],
      [
        "▁hastane",
        -9.473806196331006
      ],
      [
        "bilecegini",
        -10.022723414451693
      ],
      [
        "▁odayd",
        -7.473546875784823
      ],
      [
        "▁benzini",
        -10.999852938491475
      ],
      [
        "▁acıyor",
        -8.693302771973773
      ],
      [
        "▁kıyısında",
        -10.163615118860987
      ],
      [
        "▁cuha",
        -10.589316090303482
      ],
      [
        "sat",
        -9.502979100635056
      ],
      [
        "▁one",
        -9.335866727380289
      ],
      [
        "…",
        -11.802702672349788
      ],
      [
        "▁kamyon",
        -8.962446022999252
      ],
      [
        "▁karsıt",
        -9.545464576689213
      ],
      [
        "▁muhasebe",
        -9.750608824301171
      ],
      [
        "▁topunuz",
        -9.485677446831392
      ],
      [
        "a",
        -3.4131311993495173
      ],
      [
        "90",
        -8.12388973197764
      ],
      [
        "▁omzum",
        -11.098743818290561
      ],
      [
        "▁laf",
        -8.635911610528686
      ],
      [
        "▁cete",
        -10.611783552076867
      ],
      [
        "▁simsek",
        -10.253109181897022
      ],
      [
        "▁600",
        -7.786927650045376
      ],
      [
        "▁(",
        -11.099064201356313
      ],
      [
        "v",
        -8.961232844137596
      ],
      [
        "▁alısılm",
        -9.218825567479847
      ],
      [
        "▁esyalar",
        -9.850698737741327
      ],
      [
        "▁gostergeler",
        -11.067588013733921
      ],
      [
        "▁kavramlar",
        -10.334685136921127
      ],
      [
        "si",
        -6.160743120187302
      ],
      [
        "▁cumhuriyet",
        -8.551680082047902
      ],
      [
        "▁toplar",
        -9.715777745792282
      ],
      [
        "nmak",
        -10.763504200078247
      ],
      [
        "▁nor",
        -10.76727016366031
      ],
      [
        "madıgını",
        -9.214777236741467
      ],
      [
        "▁ilerledi",
        -9.201552994826228
      ],
      [
        "▁d",
        -7.19538326670285
      ],
      [
        "▁ilan",
        -8.40676281995227
      ],
      [
        "▁hatır",
        -10.424172956929109
      ],
      [
        "▁gerekiyor",
        -7.139974538689381
      ],
      [
        "▁sur",
        -8.777907615600565
      ],
      [
        "▁kalitey",
        -9.55713281785301
      ],
      [
        "▁ogeleri",
        -10.92405178712805
      ],
      [
        "▁kelimesi",
        -10.058836067496133
      ],
      [
        "▁sal",
        -9.13956983108741
      ],
      [
        "▁diyen",
        -9.02121688220513
      ],
      [
        "▁inkılap",
        -10.898742889597775
      ],
      [
        "▁yollarını",
        -9.53345413044033
      ],
      [
        "▁paha",
        -10.463911158641505
      ],
      [
        "▁organı",
        -10.286578534603505
      ],
      [
        "▁calıs",
        -8.954883184892408
      ],
      [
        "▁sıg",
        -10.742900122562073
      ],
      [
        "▁c",
        -9.5522208269846
      ],
      [
        "▁egiliminde",
        -9.620678122163309
      ],
      [
        "em",
        -11.24164467511393
      ],
      [
        "▁muslumanlar",
        -10.777923002189926
      ],
      [
        "▁fazlayd",
        -7.7845284467178715
      ],
      [
        "▁acılıs",
        -9.745082064724304
      ],
      [
        "bit",
        -7.884899262457655
      ],
      [
        "▁isvicre",
        -8.758524073871659
      ],
      [
        "▁sardı",
        -9.517934422677554
      ],
      [
        "lardan",
        -7.652760611047711
      ],
      [
        "▁edile",
        -6.753902923589754
      ],
      [
        "▁efendi",
        -8.809956354907174
      ],
      [
        "▁yolculuk",
        -9.226953795389656
      ],
      [
        "▁dograyı",
        -9.327609745406075
      ],
      [
        "▁dort",
        -10.324653654945028
      ],
      [
        "▁alım",
        -7.561624670126887
      ],
      [
        "▁anlami",
        -10.734536782016542
      ],
      [
        "▁k",
        -7.400253612310261
      ],
      [
        "▁deneyler",
        -10.372437051168774
      ],
      [
        "▁satmak",
        -9.87658531020614
      ],
      [
        "▁kimligini",
        -10.404757333414338
      ],
      [
        "▁sukunet",
        -10.732076298482173
      ],
      [
        "maktan",
        -9.439344523901188
      ],
      [
        "▁genler",
        -11.126176663861958
      ],
      [
        "▁tuta",
        -9.5735557487729
      ],
      [
        "▁gerisi",
        -10.773418734040188
      ],
      [
        "isidir",
        -9.648762773819897
      ],
      [
        "▁mayıs",
        -7.853242583760244
      ],
      [
        "▁geregin",
        -10.846200259023075
      ],
      [
        "▁kereste",
        -11.098871113382396
      ],
      [
        "▁havayolu",
        -9.555668980488868
      ],
      [
        "▁bugu",
        -11.04240908256825
      ],
      [
        "▁halı",
        -9.47774490504867
      ],
      [
        "▁iliski",
        -8.72898489854618
      ],
      [
        "▁duygusunu",
        -10.090122975257405
      ],
      [
        "▁yahudi",
        -8.854026443439391
      ],
      [
        "▁gelirler",
        -9.480751147467068
      ],
      [
        "▁reklamları",
        -10.215415566006696
      ],
      [
        "▁olursa",
        -7.093553414983489
      ],
      [
        "▁ilgisizlik",
        -10.5918917336802
      ],
      [
        "r",
        -7.237811496623017
      ],
      [
        "▁yokus",
        -10.082901070372422
      ],
      [
        "▁siparis",
        -9.664940827568431
      ],
      [
        "▁kadar",
        -2.999792704414248
      ],
      [
        "▁kup",
        -10.730952984596158
      ],
      [
        "▁koylulerin",
        -10.869461083063415
      ],
      [
        "▁umit",
        -9.58438353552933
      ],
      [
        "▁vali",
        -9.515688798762266
      ],
      [
        "▁yet",
        -8.233933546499006
      ],
      [
        "▁durtu",
        -11.098959426324834
      ],
      [
        "▁huy",
        -10.817405210314181
      ],
      [
        "▁bilgileri",
        -9.447909863105142
      ],
      [
        "▁iste",
        -6.53043461090222
      ],
      [
        "▁soluk",
        -9.807029231387801
      ],
      [
        "▁aracılıgı",
        -10.4666606342777
      ],
      [
        "▁sikayetimiz",
        -11.106596983167224
      ],
      [
        "▁kulce",
        -10.591708305599006
      ],
      [
        "▁rubailer",
        -11.098803380885172
      ],
      [
        "dum",
        -7.919986846406744
      ],
      [
        "▁dinleme",
        -10.2447287803116
      ],
      [
        "▁onları",
        -4.32931003779788
      ],
      [
        "▁salladı",
        -9.469862283892418
      ],
      [
        "mi",
        -8.918657595756954
      ],
      [
        "▁cezbetme",
        -11.099899732013004
      ],
      [
        "resmi",
        -7.411034989182304
      ],
      [
        "lerinde",
        -7.953111759744623
      ],
      [
        "▁detroit",
        -8.640914326914734
      ],
      [
        "▁ciftligi",
        -10.184237590390293
      ],
      [
        "cagı",
        -9.653810111938252
      ],
      [
        "▁kasık",
        -9.953420084038058
      ],
      [
        "▁birbirimizi",
        -7.931464907644399
      ],
      [
        "▁dıs",
        -7.3237373920557545
      ],
      [
        "▁zihni",
        -10.736144930728207
      ],
      [
        "lay",
        -9.790598636775993
      ],
      [
        "▁misafirin",
        -10.821245501899636
      ],
      [
        "3.9",
        -8.070915407330402
      ],
      [
        "ligimi",
        -9.485678035655123
      ],
      [
        "▁uyardı",
        -9.264382395669845
      ],
      [
        "▁gazetelerde",
        -10.150495798468025
      ],
      [
        "▁verildi",
        -7.947660374751354
      ],
      [
        "lerde",
        -7.883651144811565
      ],
      [
        "▁adın",
        -9.063908379198153
      ],
      [
        "▁yaptıgı",
        -9.520610456418213
      ],
      [
        "▁eseri",
        -9.691443773372866
      ],
      [
        "ak",
        -8.45976873452598
      ],
      [
        "▁tekrar",
        -5.767848238720847
      ],
      [
        "ini",
        -7.199619792175417
      ],
      [
        "▁spot",
        -9.801533080795574
      ],
      [
        "▁alacak",
        -8.147536555445146
      ],
      [
        "▁dayan",
        -10.565289364945203
      ],
      [
        "▁veriliyor",
        -9.224711391335536
      ],
      [
        "▁5'te",
        -8.575243974917342
      ],
      [
        "▁ici",
        -7.979605189535266
      ],
      [
        "bil",
        -10.46615802699192
      ],
      [
        "▁sansur",
        -10.255506735009977
      ],
      [
        "▁tugla",
        -10.353108149734322
      ],
      [
        "▁yasayı",
        -10.881967989789745
      ],
      [
        "pa",
        -10.362380933867328
      ],
      [
        "▁ney",
        -7.091303821092808
      ],
      [
        "▁noktasında",
        -10.566878472155638
      ],
      [
        "ciligi",
        -10.767272183786703
      ],
      [
        "▁becerik",
        -11.1044286060432
      ],
      [
        "▁talim",
        -10.89921798039898
      ],
      [
        "▁havuzu",
        -7.3796381898347425
      ],
      [
        "▁the",
        -8.031754556602847
      ],
      [
        "▁avlu",
        -9.742998489702064
      ],
      [
        "▁gunu",
        -6.175807141060536
      ],
      [
        "▁navlun",
        -10.898746318876348
      ],
      [
        "▁inat",
        -10.25458985115883
      ],
      [
        "▁agrıyor",
        -9.660955814763152
      ],
      [
        "▁kavim",
        -10.992670727364636
      ],
      [
        "▁mutsuzlugu",
        -11.100434168834811
      ],
      [
        "▁vah",
        -9.216663772970067
      ],
      [
        "yle",
        -8.775129653391309
      ],
      [
        "port",
        -11.091839752287065
      ],
      [
        "▁bostan",
        -9.755427577914514
      ],
      [
        "▁memnuniyet",
        -10.599553544828314
      ],
      [
        "▁yoksulluk",
        -10.353129038087241
      ],
      [
        "▁denizci",
        -10.954045896108212
      ],
      [
        "im",
        -6.016458627655229
      ],
      [
        "▁duyuyoru",
        -9.36939703697331
      ],
      [
        "▁iki",
        -9.527290292582855
      ],
      [
        "▁kose",
        -8.858001821099995
      ],
      [
        "▁milwaukee'",
        -6.945673137830503
      ],
      [
        "▁car",
        -8.537913030948506
      ],
      [
        "▁buzlanma",
        -9.408293078749319
      ],
      [
        "▁kadrosu",
        -10.597584834541191
      ],
      [
        "▁sirketlerini",
        -10.050227317622193
      ],
      [
        "▁kanunun",
        -10.715720222191518
      ],
      [
        "▁antrenor",
        -11.098744039818907
      ],
      [
        "▁kocası",
        -9.397947242163339
      ],
      [
        "▁ongoru",
        -10.985252631314022
      ],
      [
        "▁istifa",
        -8.528118272731039
      ],
      [
        "ndek",
        -8.781845562392556
      ],
      [
        "▁sakınca",
        -10.464355977920777
      ],
      [
        "▁hoca",
        -8.780033052126079
      ],
      [
        "▁inci",
        -10.368302719717704
      ],
      [
        "g",
        -12.03594578210268
      ],
      [
        "▁2.4",
        -7.54829737846009
      ],
      [
        "▁makası",
        -10.659301064051874
      ],
      [
        "▁tutmay",
        -10.947917007598585
      ],
      [
        "▁sevin",
        -9.525545753432972
      ],
      [
        "▁ogrendi",
        -8.794283601051998
      ],
      [
        "▁uzlasma",
        -9.801373651955803
      ],
      [
        "▁ozellikleri",
        -9.772261884392506
      ],
      [
        "▁olmadıgı",
        -8.12799028499981
      ],
      [
        "▁karım",
        -10.953821116879158
      ],
      [
        "▁kazanc",
        -7.8912085107784105
      ],
      [
        "▁fal",
        -10.524437808722794
      ],
      [
        "▁kurban",
        -9.441274185011627
      ],
      [
        "▁margarin",
        -11.098744894046611
      ],
      [
        "▁bakısların",
        -10.942565344531257
      ],
      [
        "▁muhafazakarlar",
        -10.599599086859081
      ],
      [
        "▁kanunlar",
        -10.472096679131806
      ],
      [
        "▁grubun",
        -9.418263285245203
      ],
      [
        "▁onemi",
        -9.835917676565021
      ],
      [
        "▁sabır",
        -10.078822374762487
      ],
      [
        "▁bulun",
        -7.25441672514749
      ],
      [
        "▁faaliyetler",
        -10.424834370283595
      ],
      [
        "▁haberi",
        -9.047322724508758
      ],
      [
        "▁heyecanla",
        -10.586124153978467
      ],
      [
        "▁kanunu",
        -9.697611562627767
      ],
      [
        "▁mimar",
        -10.112763364838042
      ],
      [
        "▁cemil",
        -8.768533841446601
      ],
      [
        "▁gorus",
        -9.004562101111835
      ],
      [
        "gını",
        -9.738887372621008
      ],
      [
        "▁cantam",
        -11.127521888101324
      ],
      [
        "▁varlıkların",
        -10.425991653811455
      ],
      [
        "▁var",
        -8.58994014183725
      ],
      [
        "▁satıl",
        -9.05781046834328
      ],
      [
        "▁olcu",
        -9.685451588338006
      ],
      [
        "▁muhte",
        -7.212527407828399
      ],
      [
        "▁8'de",
        -8.892699335800195
      ],
      [
        "▁olduk",
        -8.782395557141427
      ],
      [
        "bu",
        -5.9800526379311565
      ],
      [
        "▁abd",
        -5.865467032327615
      ],
      [
        "▁balayi",
        -9.187151739723435
      ],
      [
        "▁bulmustu",
        -8.846907862579885
      ],
      [
        "▁toparlanma",
        -9.499831256528271
      ],
      [
        "▁baskanı",
        -7.430383240254851
      ],
      [
        "▁kusagı",
        -10.085346265827924
      ],
      [
        "▁kopru",
        -8.993791476783375
      ],
      [
        "▁alabilecegi",
        -10.95482555818461
      ],
      [
        "veren",
        -7.632551302984505
      ],
      [
        "▁alanda",
        -9.001644201738326
      ],
      [
        "▁kaldı",
        -6.80359750391721
      ],
      [
        "▁mutl",
        -7.604344951822323
      ],
      [
        "▁yerlestiri",
        -9.648286292444073
      ],
      [
        "▁ayrıl",
        -9.525849234516771
      ],
      [
        "▁yetkisi",
        -9.745897808649003
      ],
      [
        "▁dayanır",
        -8.655481215502643
      ],
      [
        "▁hissesini",
        -9.72032829947246
      ],
      [
        "▁fare",
        -9.98141216458426
      ],
      [
        "▁kat",
        -9.49250095639891
      ],
      [
        "▁asya",
        -8.51797930191077
      ],
      [
        "nuz",
        -7.987974011257943
      ],
      [
        "▁diyebiliri",
        -9.270760041872354
      ],
      [
        "sarılı",
        -9.402152346716086
      ],
      [
        "▁cıkma",
        -10.354269711283184
      ],
      [
        "▁grupların",
        -10.781353108855528
      ],
      [
        "▁gecme",
        -9.225573386754402
      ],
      [
        "abet",
        -9.612438206756561
      ],
      [
        "▁kisilerin",
        -9.56402567682645
      ],
      [
        "▁azam",
        -9.334926893676341
      ],
      [
        "seni",
        -8.922478759361853
      ],
      [
        "j",
        -8.591226222357394
      ],
      [
        "▁surede",
        -9.651003982445445
      ],
      [
        "▁kazanı",
        -9.5080149172477
      ],
      [
        "▁sait",
        -8.786720480385988
      ],
      [
        "▁go",
        -8.993009611862526
      ],
      [
        "▁mem",
        -11.018724553163766
      ],
      [
        "▁mustesar",
        -10.55904765817635
      ],
      [
        "▁ayrıntıları",
        -10.410148828796512
      ],
      [
        "u",
        -6.08159213831759
      ],
      [
        "▁koy",
        -7.9879025532711685
      ],
      [
        "▁karsiligi",
        -8.09256963303922
      ],
      [
        "▁yitirmis",
        -9.727422983653467
      ],
      [
        "▁icinde",
        -6.7321078423567275
      ],
      [
        "▁hep",
        -5.352880005653416
      ],
      [
        "▁itiraf",
        -9.187089825633397
      ],
      [
        "▁abc",
        -8.780198032290173
      ],
      [
        "▁olus",
        -10.850763920469111
      ],
      [
        "▁r",
        -7.410864347944156
      ],
      [
        "▁giden",
        -8.485533019195746
      ],
      [
        "li",
        -6.581330916874292
      ],
      [
        "▁bitkiler",
        -10.2952286400831
      ],
      [
        "▁demek",
        -8.50134191261293
      ],
      [
        "▁asil",
        -8.765996421951185
      ],
      [
        "▁dagın",
        -9.77369733316872
      ],
      [
        "▁yapması",
        -9.219317440632663
      ],
      [
        "▁duruyordu",
        -8.173821807793358
      ],
      [
        "▁anladıgın",
        -11.099109558398055
      ],
      [
        "▁bunda",
        -5.599372556045785
      ],
      [
        "▁spa",
        -10.728841545562986
      ],
      [
        "▁tabir",
        -10.236820658594093
      ],
      [
        "urekli",
        -6.170784925687602
      ],
      [
        "altı",
        -6.945780996775762
      ],
      [
        "▁koruma",
        -8.839845500959834
      ],
      [
        "▁erzurum",
        -9.00494460660047
      ],
      [
        "▁ikisi",
        -8.870351530125022
      ],
      [
        "▁kalemler",
        -10.95984881960204
      ],
      [
        "yuzelli",
        -8.090689166735284
      ],
      [
        "▁gece",
        -5.900191116805786
      ],
      [
        "▁gecelik",
        -10.682133764025886
      ],
      [
        "▁gundu",
        -8.900392984362279
      ],
      [
        "▁14",
        -6.17135977860693
      ],
      [
        "▁pa",
        -9.25798196502888
      ],
      [
        "ullah",
        -8.958727335158155
      ],
      [
        "▁gezdi",
        -9.216143766241043
      ],
      [
        "▁isin",
        -7.915393778325161
      ],
      [
        "▁yasama",
        -8.455671470847976
      ],
      [
        "▁orgutu",
        -10.489792871930888
      ],
      [
        "▁kolun",
        -10.374897405644745
      ],
      [
        "▁boz",
        -9.332543378531195
      ],
      [
        "▁kur",
        -9.175021919607106
      ],
      [
        "▁dilin",
        -9.820575835181593
      ],
      [
        "zi",
        -8.873223794541317
      ],
      [
        "▁cizgiler",
        -10.912822228019921
      ],
      [
        "▁sose",
        -10.989638393030631
      ],
      [
        "bası",
        -9.635506195941733
      ],
      [
        "▁kaynakl",
        -9.476614636882314
      ],
      [
        "▁100",
        -5.485529480805205
      ],
      [
        "▁kurk",
        -10.703934150509092
      ],
      [
        "▁1.3",
        -6.781587815894188
      ],
      [
        "cuların",
        -10.82025612143494
      ],
      [
        "▁nazır",
        -11.09995108918666
      ],
      [
        "▁duzey",
        -8.843671959386135
      ],
      [
        "dikte",
        -10.01777685422211
      ],
      [
        "▁gerisin",
        -10.50725879928327
      ],
      [
        "▁reddediyor",
        -9.511772330332791
      ],
      [
        "▁ydu",
        -5.652411369949245
      ],
      [
        "▁bayragın",
        -10.743541952595207
      ],
      [
        "▁politikaları",
        -10.782084350494937
      ],
      [
        "▁huznu",
        -10.732092859919026
      ],
      [
        "▁peni",
        -10.46602317295931
      ],
      [
        "▁papaz",
        -11.079852540225058
      ],
      [
        "▁borcunu",
        -10.016929075736753
      ],
      [
        "▁tabi",
        -6.9922903682893205
      ],
      [
        "▁onc",
        -8.378922882909404
      ],
      [
        "▁hissedar",
        -10.430544008043643
      ],
      [
        "▁ruh",
        -9.160100615177793
      ],
      [
        "▁long",
        -7.475427347950381
      ],
      [
        "▁merv",
        -8.57044099775723
      ],
      [
        "▁istisna",
        -10.589220484895673
      ],
      [
        "▁tuk",
        -10.72964896907473
      ],
      [
        "in",
        -8.211738689545989
      ],
      [
        "▁agabeyi",
        -11.068182658199897
      ],
      [
        "▁vah",
        -10.533780134359866
      ],
      [
        "ton",
        -7.6226007165899015
      ],
      [
        "zgin",
        -9.336895627434853
      ],
      [
        "▁cok",
        -2.7145552025289366
      ],
      [
        "▁oldugum",
        -9.471210478366185
      ],
      [
        "▁cicek",
        -8.82127719880031
      ],
      [
        "▁solda",
        -9.96111121218188
      ],
      [
        "▁a.s",
        -8.24939069284674
      ],
      [
        "▁tasarım",
        -10.415879289304453
      ],
      [
        "ilde",
        -9.765991350500304
      ],
      [
        "▁bitki",
        -9.622965499928158
      ],
      [
        "▁savundu",
        -9.098748101475262
      ],
      [
        "▁gencin",
        -10.405542745386846
      ],
      [
        "▁askerlik",
        -10.182450358970826
      ],
      [
        "▁lin",
        -8.431546735501257
      ],
      [
        "▁dr",
        -8.891257438833092
      ],
      [
        "▁yonetimini",
        -10.551935144889455
      ],
      [
        "▁islemciler",
        -10.223170754713669
      ],
      [
        "▁planlarını",
        -9.730698575378867
      ],
      [
        "▁etrafta",
        -10.266049098297636
      ],
      [
        "▁kardesimi",
        -10.31780886209263
      ],
      [
        "▁corba",
        -8.608209846182568
      ],
      [
        "▁co",
        -6.63193344196444
      ],
      [
        "▁isimlerini",
        -10.965028459392832
      ],
      [
        "▁likor",
        -10.46430456956714
      ],
      [
        "▁kendi",
        -11.098747551065166
      ],
      [
        "arı",
        -7.8898253505434965
      ],
      [
        "▁celik",
        -9.68454028015664
      ],
      [
        "lıgı",
        -8.061280999418395
      ],
      [
        "▁sayı",
        -9.580192838587648
      ],
      [
        "▁bıyıgın",
        -11.121701409133777
      ],
      [
        "c",
        -6.519041070915973
      ],
      [
        "sret",
        -8.937832143594704
      ],
      [
        "▁akvaryum",
        -11.098742889324939
      ],
      [
        "10",
        -10.18579754896341
      ],
      [
        "▁saflıgı",
        -11.039526545384561
      ],
      [
        "▁istedigi",
        -8.723563181094184
      ],
      [
        "▁t",
        -7.020996493100862
      ],
      [
        "▁kal",
        -6.383922691378059
      ],
      [
        "▁tahıl",
        -10.00194248148656
      ],
      [
        "ydı",
        -7.752806817138216
      ],
      [
        "▁bilimin",
        -9.564810011300976
      ],
      [
        "▁ani",
        -8.28649486386787
      ],
      [
        "ıları",
        -10.498009970238348
      ],
      [
        "▁tırman",
        -9.75674905534917
      ],
      [
        "iyor",
        -6.455750071827854
      ],
      [
        "▁sever",
        -8.324262739572493
      ],
      [
        "▁kalemi",
        -10.095123289581679
      ],
      [
        "▁veto",
        -9.1548598924761
      ],
      [
        "▁odene",
        -9.16563136641501
      ],
      [
        "▁dolar",
        -5.922150929201806
      ],
      [
        "▁odenek",
        -10.391178559728566
      ],
      [
        "perver",
        -10.8987431459205
      ],
      [
        "▁ayakta",
        -8.83196849435746
      ],
      [
        "en",
        -5.482431047333141
      ],
      [
        "▁agızların",
        -10.579294139133971
      ],
      [
        "▁?",
        -9.528807987385584
      ],
      [
        "▁davranısını",
        -10.65245301163769
      ],
      [
        "▁laboratuvar",
        -11.072306224104343
      ],
      [
        "▁sona",
        -8.127624219583089
      ],
      [
        "▁kocasını",
        -9.641347009861274
      ],
      [
        "▁odalar",
        -7.850541904540477
      ],
      [
        "▁mazi",
        -10.897128144367452
      ],
      [
        "▁projelerin",
        -10.65319835031731
      ],
      [
        "▁yayınlan",
        -9.550994558181555
      ],
      [
        "▁olmaz",
        -7.07632010378245
      ],
      [
        "▁gelistiriciler",
        -10.59794283460008
      ],
      [
        "▁yelek",
        -10.464539366666695
      ],
      [
        "eter",
        -7.8667924199507695
      ],
      [
        "▁kalk",
        -8.560142168543234
      ],
      [
        "▁soruları",
        -9.97173512669726
      ],
      [
        "▁kesi",
        -8.977164011197232
      ],
      [
        "▁omrumu",
        -10.943082419565979
      ],
      [
        "sıy",
        -9.717121197671686
      ],
      [
        "▁vaktinde",
        -10.750798467048558
      ],
      [
        "▁tekliflerin",
        -10.887652777930649
      ],
      [
        "▁ciddiyet",
        -10.349987235006699
      ],
      [
        "▁bitirmis",
        -9.731199185989603
      ],
      [
        "▁ayrılır",
        -9.242774863611993
      ],
      [
        "▁tavsan",
        -10.898879135332525
      ],
      [
        "▁dedigin",
        -11.041933273125862
      ],
      [
        "▁ekol",
        -11.099254733570021
      ],
      [
        "sen",
        -9.452834908802526
      ],
      [
        "▁cıkarıyor",
        -8.506269938409343
      ],
      [
        "t",
        -7.3052182129502725
      ],
      [
        "▁bitki",
        -9.545826499632723
      ],
      [
        "▁koleksiyon",
        -11.075118716820398
      ],
      [
        "▁olmuslardı",
        -9.55264501157873
      ],
      [
        "▁yaza",
        -9.049163423996802
      ],
      [
        "▁rastladı",
        -9.603216394288982
      ],
      [
        "▁orkestra",
        -10.250047614905053
      ],
      [
        "▁muhata",
        -10.589264201221708
      ],
      [
        "▁12.",
        -7.837993252661398
      ],
      [
        "etli",
        -7.679016588071063
      ],
      [
        "▁gecir",
        -10.621518637163165
      ],
      [
        "▁gokte",
        -10.826626963313096
      ],
      [
        "▁birin",
        -10.530065208951772
      ],
      [
        "▁istila",
        -10.355649626030454
      ],
      [
        "▁nasip",
        -11.099279314395064
      ],
      [
        "▁benzi",
        -10.97945040209354
      ],
      [
        "▁isadamları",
        -11.098743635960718
      ],
      [
        "▁seyre",
        -9.01618930819221
      ],
      [
        "▁katkısı",
        -10.797188095475235
      ],
      [
        "▁masu",
        -9.25306412811602
      ],
      [
        "5'te",
        -9.4364086343445
      ],
      [
        "▁kollarını",
        -9.705065173696124
      ],
      [
        "▁s.",
        -8.818750805044413
      ],
      [
        "▁karısı",
        -8.954295546412174
      ],
      [
        "▁havalimanında",
        -10.042842646753483
      ],
      [
        "birli",
        -7.476480969195897
      ],
      [
        "▁izledi",
        -8.644186952277256
      ],
      [
        "▁oynaklıgı",
        -11.103923869907375
      ],
      [
        "digi",
        -7.767683567975881
      ],
      [
        "▁degiller",
        -6.357911091308022
      ],
      [
        "▁kogus",
        -10.435559589817053
      ],
      [
        "▁dolduru",
        -9.536688083226617
      ],
      [
        "▁otele",
        -9.035290196710704
      ],
      [
        "izli",
        -10.448393888477998
      ],
      [
        "▁4",
        -4.732260125815868
      ],
      [
        "niz",
        -7.335350596415703
      ],
      [
        "▁s&p",
        -7.841850890772225
      ],
      [
        "▁sirketleri",
        -8.658725350098894
      ],
      [
        "▁goruluyor",
        -8.608791748467096
      ],
      [
        "▁korudu",
        -9.345086755838663
      ],
      [
        "dıgını",
        -7.618235718131659
      ],
      [
        "▁annesini",
        -9.32543059848571
      ],
      [
        "▁konular",
        -9.554487368654154
      ],
      [
        "▁eczacı",
        -10.59038682132222
      ],
      [
        "urası",
        -8.877931566582209
      ],
      [
        "▁da",
        -6.4410868306485405
      ],
      [
        "gini",
        -9.537333936284867
      ],
      [
        "▁kotu",
        -9.342038608375091
      ],
      [
        "eldir",
        -9.5783198341051
      ],
      [
        "▁teknoloji",
        -8.483386874606108
      ],
      [
        "▁atı",
        -9.84494920651861
      ],
      [
        "▁aile",
        -7.072115119286627
      ],
      [
        "▁no",
        -9.760776782222536
      ],
      [
        "za",
        -9.197715938097067
      ],
      [
        "▁gri",
        -8.79177908488022
      ],
      [
        "▁cocuklugun",
        -11.090084436425993
      ],
      [
        "▁salkım",
        -10.353125068923266
      ],
      [
        "▁durdurma",
        -10.35982686601695
      ],
      [
        "▁sozlerini",
        -9.548416986928684
      ],
      [
        "▁nereler",
        -8.402931740133155
      ],
      [
        "▁bankacı",
        -10.743954561360486
      ],
      [
        "ahane",
        -9.445172527505097
      ],
      [
        "▁persembe",
        -7.890832615382652
      ],
      [
        "▁milwaukee'de",
        -6.77260024927041
      ],
      [
        "t.",
        -8.517005915346704
      ],
      [
        "▁kendilerini",
        -5.975809907058947
      ],
      [
        "▁da",
        -9.215057508143701
      ],
      [
        "▁gunduz",
        -9.613997000983122
      ],
      [
        "▁ne",
        -6.069177927996385
      ],
      [
        "▁shearson",
        -7.729454416255125
      ],
      [
        "▁seridi",
        -10.893015094377756
      ],
      [
        "▁pahal",
        -8.089972728583186
      ],
      [
        "▁erg",
        -10.664863916927537
      ],
      [
        "▁baslangıcında",
        -10.939201663546864
      ],
      [
        "▁arkası",
        -10.261798535578315
      ],
      [
        "press",
        -10.464914656683629
      ],
      [
        "▁gozlem",
        -9.405680981065702
      ],
      [
        "▁saptı",
        -9.196987451796609
      ],
      [
        "/",
        -11.25927492062213
      ],
      [
        "bizi",
        -9.71365388761291
      ],
      [
        "▁kaldırdı",
        -8.696993431549256
      ],
      [
        "▁kasları",
        -10.573665995055554
      ],
      [
        "▁opsiyonu",
        -10.304050069439379
      ],
      [
        "▁sen",
        -10.610496802343075
      ],
      [
        "lukta",
        -10.659302925336746
      ],
      [
        "▁iyisi",
        -10.675305264988534
      ],
      [
        "arı",
        -10.966794253222274
      ],
      [
        "ta",
        -7.511362580751778
      ],
      [
        "su",
        -8.783364631491013
      ],
      [
        "▁konumunu",
        -9.076334005275903
      ],
      [
        "▁iletisimi",
        -10.719549885202202
      ],
      [
        "▁isimleri",
        -10.787965216528416
      ],
      [
        "leri",
        -9.04804115995917
      ],
      [
        "▁sektor",
        -8.707164721348136
      ],
      [
        "▁ideal",
        -10.667811314362295
      ],
      [
        "▁calısma",
        -8.287936718348346
      ],
      [
        "▁satıslarını",
        -9.911756696723103
      ],
      [
        "▁benim",
        -4.0962344854904496
      ],
      [
        "▁ceki",
        -8.25258121538745
      ],
      [
        "▁hap",
        -9.860152634176616
      ],
      [
        "▁nitelik",
        -9.989889198825264
      ],
      [
        "▁uzuntusu",
        -10.948847826646928
      ],
      [
        "lenme",
        -10.05244185847818
      ],
      [
        "ip",
        -6.160296091166794
      ],
      [
        "▁atmak",
        -10.007665632667237
      ],
[...]
