{
  "version": "1.0",
  "truncation": null,
  "padding": null,
  "added_tokens": [
    {
      "id": 538,
      "content": "[CLS]",
      "single_word": false,
      "lstrip": false,
      "rstrip": false,
      "normalized": false,
      "special": true
    },
    {
      "id": 946,
      "content": "[SEP]",
      "single_word": false,
      "lstrip": false,
      "rstrip": false,
      "normalized": false,
      "special": true
    },
    {
      "id": 2295,
      "content": "[PAD]",
      "single_word": false,
      "lstrip": false,
      "rstrip": false,
      "normalized": false,
      "special": true
    },
    {
      "id": 3458,
      "content": "[MASK]",
      "single_word": false,
      "lstrip": false,
      "rstrip": false,
      "normalized": false,
      "special": true
    },
    {
      "id": 3656,
      "content": "[UNK]",
      "single_word": false,
      "lstrip": false,
      "rstrip": false,
      "normalized": false,
      "special": true
    }
  ],
  "normalizer": {
    "type": "Sequence",
    "normalizers": [
      {
        "type": "NFD"
      },
      {
        "type": "Lowercase"
      },
      {
        "type": "StripAccents"
      }
    ]
  },
  "pre_tokenizer": {
    "type": "Sequence",
    "pretokenizers": [
      {
        "type": "Metaspace",
        "replacement": "▁",
        "prepend_scheme": "always",
        "split": true
      }
    ]
  },
  "post_processor": {
    "type": "TemplateProcessing",
    "single": [
      {
        "SpecialToken": {
          "id": "[CLS]",
          "type_id": 0
        }
      },
      {
        "Sequence": {
          "id": "A",
          "type_id": 0
        }
      },
      {
        "SpecialToken": {
          "id": "[SEP]",
          "type_id": 0
        }
      }
    ],
    "pair": [
      {
        "SpecialToken": {
          "id": "[CLS]",
          "type_id": 0
        }
      },
      {
        "Sequence": {
          "id": "A",
          "type_id": 0
        }
      },
      {
        "SpecialToken": {
          "id": "[SEP]",
          "type_id": 0
        }
      },
      {
        "Sequence": {
          "id": "B",
          "type_id": 1
        }
      },
      {
        "SpecialToken": {
          "id": "[SEP]",
          "type_id": 1
        }
      }
    ],
    "special_tokens": {
      "[CLS]": {
        "id": "[CLS]",
        "ids": [
          538
        ],
        "tokens": [
          "[CLS]"
        ]
      },
      "[SEP]": {
        "id": "[SEP]",
        "ids": [
          946
        ],
        "tokens": [
          "[SEP]"
        ]
      }
    }
  },
  "decoder": {
    "type": "Metaspace",
    "replacement": "▁",
    "prepend_scheme": "always",
    "split": true
  },
  "model": {
    "type": "WordPiece",
    "unk_token": "[UNK]",
    "continuing_subword_prefix": "##",
    "max_input_chars_per_word": 100,
    "vocab": {
      "▁milyardan": 0,
      "▁agız": 1,
      "▁pr": 2,
      "▁etmek": 3,
      "▁ureticisi": 4,
      "▁cum": 5,
      "##?": 6,
      "▁sif": 7,
      "##eci": 8,
      "▁!..": 9,
      "▁as": 10,
      "##to": 11,
      "▁gorun": 12,
      "▁alamadim": 13,
      "▁\"": 14,
      "##nd": 15,
      "▁hast": 16,
      "▁artık": 17,
      "▁ad": 18,
      "▁hanimla": 19,
      "▁duy": 20,
      "##aklı": 21,
      "▁ise": 22,
      "▁tezgah": 23,
      "##dugunu": 24,
      "##elim": 25,
      "##larıyla": 26,
      "##tigini": 27,
      "##lacak": 28,
      "▁gom": 29,
      "##ıga": 30,
      "▁ec": 31,
      "##ımdan": 32,
      "##ici": 33,
      "▁ha": 34,
      "▁must": 35,
      "##lıkları": 36,
      "##tay": 37,
      "▁form": 38,
      "▁tedav": 39,
      "##ulmus": 40,
      "##una": 41,
      "##)": 42,
      "▁seviyesinden": 43,
      "##ding": 44,
      "▁sek": 45,
      "▁ihal": 46,
      "##ik": 47,
      "▁.)": 48,
      "▁rekor": 49,
      "##b": 50,
      "▁sırada": 51,
      "▁sarkı": 52,
      "##aga": 53,
      "▁dukkan": 54,
      "##anının": 55,
      "▁kapıyı": 56,
      "▁haric": 57,
      "▁gor": 58,
      "▁vaz": 59,
      "##ant": 60,
      "##ag": 61,
      "▁etrafında": 62,
      "▁gars": 63,
      "▁gez": 64,
      "▁satın": 65,
      "##mistir": 66,
      "▁ipotek": 67,
      "…": 68,
      "##'dan": 69,
      "▁dib": 70,
      "##ilim": 71,
      "▁kelim": 72,
      "▁yont": 73,
      "▁aklı": 74,
      "▁uretici": 75,
      "▁esn": 76,
      "##ına": 77,
      "▁niyet": 78,
      "▁karsısında": 79,
      "##asır": 80,
      "▁ayr": 81,
      "▁coz": 82,
      "▁sorunun": 83,
      "##siyon": 84,
      "##uga": 85,
      "##ruk": 86,
      "▁yat": 87,
      "##larında": 88,
      "▁siyas": 89,
      "##lk": 90,
      "##mad": 91,
      "##ud": 92,
      "▁veri": 93,
      "▁yeniden": 94,
      "▁dus": 95,
      "▁otelde": 96,
      "##mustur": 97,
      "'": 98,
      "▁verdi": 99,
      "▁artıs": 100,
      "▁muduru": 101,
      "▁tak": 102,
      "##lıgını": 103,
      "▁buy": 104,
      "##lasyon": 105,
      "##gini": 106,
      "▁indir": 107,
      "▁dar": 108,
      "##lık": 109,
      "▁plan": 110,
      "▁guz": 111,
      "##elik": 112,
      "##ısına": 113,
      "▁arasında": 114,
      "▁yerinde": 115,
      "▁otele": 116,
      "▁ulasımı": 117,
      "▁y": 118,
      "▁yuzunu": 119,
      "▁ap": 120,
      "▁ib": 121,
      "▁yur": 122,
      "▁olmaz": 123,
      "▁olustur": 124,
      "▁alacak": 125,
      "▁kaliteye": 126,
      "##lıkla": 127,
      "##tluk": 128,
      "▁konum": 129,
      "▁col": 130,
      "▁gazete": 131,
      "▁ulas": 132,
      "▁operasyon": 133,
      "▁kr": 134,
      "▁yaz": 135,
      "▁ph": 136,
      "▁heyec": 137,
      "##han": 138,
      "▁arastır": 139,
      "▁yalan": 140,
      "##mek": 141,
      "▁nasıl": 142,
      "##eri": 143,
      "▁buc": 144,
      "▁genis": 145,
      "▁u": 146,
      "##alarda": 147,
      "##cih": 148,
      "▁ka": 149,
      "##luk": 150,
      "##'nde": 151,
      "▁rehberimiz": 152,
      "▁ekibi": 153,
      "▁yum": 154,
      "▁so": 155,
      "▁genc": 156,
      "▁clas": 157,
      "##izlik": 158,
      "▁once": 159,
      "▁sey": 160,
      "▁yab": 161,
      "##in": 162,
      "▁kurs": 163,
      "▁rez": 164,
      "▁kut": 165,
      "##lar": 166,
      "▁arab": 167,
      "##mıstır": 168,
      "▁mily": 169,
      "▁sırasında": 170,
      "▁ciz": 171,
      "▁alay": 172,
      "▁yolcul": 173,
      "##etic": 174,
      "##agın": 175,
      "▁mar": 176,
      "▁iletisim": 177,
      "##layan": 178,
      "##dım": 179,
      "▁ilgilendi": 180,
      "##—": 181,
      "▁bilgisayar": 182,
      "##lac": 183,
      "##madı": 184,
      "▁ısrar": 185,
      "▁ne": 186,
      "##ilik": 187,
      "▁karak": 188,
      "▁tedavul": 189,
      "##gın": 190,
      "▁ince": 191,
      "▁giris": 192,
      "##ıla": 193,
      "▁tesp": 194,
      "▁yerinden": 195,
      "##hur": 196,
      "##tir": 197,
      "▁yaptir": 198,
      "▁gelis": 199,
      "▁universit": 200,
      "##iste": 201,
      "▁ithalat": 202,
      "▁doları": 203,
      "▁sınır": 204,
      "▁ton": 205,
      "##kin": 206,
      "▁vucut": 207,
      "##inc": 208,
      "▁tar": 209,
      "##yal": 210,
      "##cut": 211,
      "▁kahvalti": 212,
      "▁endust": 213,
      "##ıf": 214,
      "##iniz": 215,
      "▁sir": 216,
      "▁iste": 217,
      "▁adı": 218,
      "▁hizmetinden": 219,
      "##ilendir": 220,
      "▁ov": 221,
      "##5'": 222,
      "▁asagı": 223,
      "▁buyum": 224,
      "▁ak": 225,
      "##ası": 226,
      "##larak": 227,
      "##alı": 228,
      "–": 229,
      "▁first": 230,
      "▁uretim": 231,
      "▁anne": 232,
      "▁yog": 233,
      "▁basarı": 234,
      "##'in": 235,
      "##lerine": 236,
      "▁bacak": 237,
      "##allas": 238,
      "▁temel": 239,
      "##lıgına": 240,
      "▁ifade": 241,
      "##uldu": 242,
      "▁patlıc": 243,
      "##ekler": 244,
      "##un": 245,
      "▁mucadele": 246,
      "##sınız": 247,
      "##imizin": 248,
      "▁deprem": 249,
      "▁sehr": 250,
      "▁gozler": 251,
      "▁anket": 252,
      "##oru": 253,
      "▁dagıt": 254,
      "##emli": 255,
      "▁yolda": 256,
      "▁ortal": 257,
      "▁balık": 258,
      "▁hal": 259,
      "▁nam": 260,
      "▁boy": 261,
      "▁cift": 262,
      "▁;": 263,
      "▁onay": 264,
      "##masına": 265,
      "▁ayı": 266,
      "▁tac": 267,
      "▁tok": 268,
      "##stu": 269,
      "##itesi": 270,
      "▁tesisten": 271,
      "##y": 272,
      "▁enflasyon": 273,
      "##se": 274,
      "▁seyahat": 275,
      "##miyor": 276,
      "▁spor": 277,
      "▁bag": 278,
      "##gil": 279,
      "▁tum": 280,
      "▁if": 281,
      "▁kardes": 282,
      "▁annem": 283,
      "▁duyg": 284,
      "▁kent": 285,
      "▁akl": 286,
      "▁piyasası": 287,
      "▁oc": 288,
      "##imore": 289,
      "▁hakkı": 290,
      "▁artısı": 291,
      "▁bicim": 292,
      "▁in": 293,
      "▁muk": 294,
      "▁imkanlari": 295,
      "▁farkında": 296,
      "##isinden": 297,
      "▁kitabı": 298,
      "▁yel": 299,
      "▁yan": 300,
      "▁peynir": 301,
      "▁acıklam": 302,
      "##lerdi": 303,
      "##'": 304,
      "▁iki": 305,
      "▁mat": 306,
      "##met": 307,
      "▁cem": 308,
      "▁ugr": 309,
      "▁den": 310,
      "##um": 311,
      "##erik": 312,
      "▁j": 313,
      "##tır": 314,
      "▁onune": 315,
      "##iklik": 316,
      "▁at": 317,
      "▁ala": 318,
      "▁anlay": 319,
      "▁elbise": 320,
      "##ikti": 321,
      "##ram": 322,
      "▁yetersizdi": 323,
      "##lemeye": 324,
      "r": 325,
      "▁yakın": 326,
      "##isk": 327,
      "▁mektup": 328,
      "▁lezz": 329,
      "##og": 330,
      "##egine": 331,
      "▁akıl": 332,
      "▁altında": 333,
      "▁derec": 334,
      "##dir": 335,
      "##eyle": 336,
      "##tif": 337,
      "▁gayr": 338,
      "##su": 339,
      "▁madde": 340,
      "▁malzem": 341,
      "##8'de": 342,
      "▁yapti": 343,
      "▁sayısı": 344,
      "##ır": 345,
      "##cilerin": 346,
      "▁kalk": 347,
      "##lo": 348,
      "▁aradi": 349,
      "##iyon": 350,
      "▁kaldır": 351,
      "▁universite": 352,
      "▁yemekler": 353,
      "▁gunleri": 354,
      "▁istif": 355,
      "##adde": 356,
      "##muyor": 357,
      "▁uzman": 358,
      "▁ayında": 359,
      "▁ipot": 360,
      "▁kafa": 361,
      "▁ir": 362,
      "##elerde": 363,
      ":": 364,
      "##asi": 365,
      "▁otomobil": 366,
      "▁damak": 367,
      "▁dogr": 368,
      "▁prot": 369,
      "##ge": 370,
      "▁imal": 371,
      "▁p": 372,
      "▁isi": 373,
      "##unde": 374,
      "▁w": 375,
      "▁ces": 376,
      "##lantı": 377,
      "##ucc": 378,
      "▁bolumu": 379,
      "▁sozc": 380,
      "▁lu": 381,
      "##'tan": 382,
      "##dan": 383,
      "##ite": 384,
      "▁dal": 385,
      "▁hasta": 386,
      "##kun": 387,
      "▁kredi": 388,
      "##\"": 389,
      "▁siy": 390,
      "##lig": 391,
      "▁gerek": 392,
      "▁bircok": 393,
      "##ult": 394,
      "##yan": 395,
      "##esine": 396,
      "##ad": 397,
      "▁yuzune": 398,
      "##om": 399,
      "##co": 400,
      "”": 401,
      "▁di": 402,
      "##form": 403,
      "▁vak": 404,
      "▁bon": 405,
      "▁ruy": 406,
      "▁baskan": 407,
      "▁kapının": 408,
      "▁vat": 409,
      "▁seviyesine": 410,
      "▁yasa": 411,
      "▁bildir": 412,
      "▁bilmek": 413,
      "▁bır": 414,
      "##ydi": 415,
      "##arın": 416,
      "▁nedeni": 417,
      "▁yetk": 418,
      "▁ceza": 419,
      "▁dugun": 420,
      "▁evden": 421,
      "▁dip": 422,
      "##liye": 423,
      "##gı": 424,
      "o": 425,
      "▁tarafından": 426,
      "##ımıza": 427,
      "##cılıg": 428,
      "##is": 429,
      "##mer": 430,
      "▁kokusu": 431,
      "▁gond": 432,
      "▁ik": 433,
      "▁alıcı": 434,
      "▁gru": 435,
      "##mesini": 436,
      "▁sevg": 437,
      "▁idar": 438,
      "▁sınav": 439,
      "▁merh": 440,
      "##ızı": 441,
      "▁fiyat": 442,
      "▁rap": 443,
      "##cıları": 444,
      "ı": 445,
      "▁odam": 446,
      "▁artır": 447,
      "▁br": 448,
      "▁hep": 449,
      "$": 450,
      "▁deniz": 451,
      "▁kim": 452,
      "▁ders": 453,
      "##en": 454,
      "▁%": 455,
      "▁3": 456,
      "▁yetkilileri": 457,
      "##up": 458,
      "▁.": 459,
      "##uyle": 460,
      "▁tut": 461,
      "▁hayal": 462,
      "▁yaptı": 463,
      "▁milletvek": 464,
      "▁sim": 465,
      "▁baslangıc": 466,
      "##inin": 467,
      "▁doneminde": 468,
      "▁alısveris": 469,
      "▁tren": 470,
      "v": 471,
      "▁tavsiye": 472,
      "▁cocuklar": 473,
      "##emedi": 474,
      "▁oglen": 475,
      "▁pu": 476,
      "##agını": 477,
      "▁ayn": 478,
      "▁yardım": 479,
      "▁prob": 480,
      "▁sov": 481,
      "##…": 482,
      "##ıstır": 483,
      "▁yasında": 484,
      "##yası": 485,
      "▁derecede": 486,
      "##muz": 487,
      "▁ihtim": 488,
      "▁kimsenin": 489,
      "##ia": 490,
      "▁etmeye": 491,
      "##daki": 492,
      "▁..": 493,
      "##'ye": 494,
      "▁iceri": 495,
      "▁av": 496,
      "##andan": 497,
      "▁koyun": 498,
      "▁o": 499,
      "▁seker": 500,
      "##ern": 501,
      "##asıyla": 502,
      "##inize": 503,
      "▁itibariyle": 504,
      "▁mah": 505,
      "▁ask": 506,
      "▁isleri": 507,
      "▁yukseldi": 508,
      "▁dev": 509,
      "▁itiraf": 510,
      "▁devlet": 511,
      "▁inan": 512,
      "▁pla": 513,
      "▁muh": 514,
      "▁it": 515,
      "###": 516,
      "▁kuv": 517,
      "##gar": 518,
      "▁masal": 519,
      "##sızlık": 520,
      "##ic": 521,
      "##am": 522,
      "▁hisseleri": 523,
      "##lan": 524,
      "▁ornegin": 525,
      "▁urunleri": 526,
      "##areti": 527,
      "▁birles": 528,
      "##ılıyor": 529,
      "##aket": 530,
      "▁cent": 531,
      "▁kurtaj": 532,
      "▁ucuslarının": 533,
      "▁.'": 534,
      "▁istemiyorum": 535,
      "##alar": 536,
      "▁oz": 537,
      "[CLS]": 538,
      "▁nisan": 539,
      "▁toplantı": 540,
      "▁begenmedim": 541,
      "▁guv": 542,
      "##uy": 543,
      "▁savun": 544,
      "▁gunah": 545,
      "▁ab": 546,
      "▁yatırımcı": 547,
      "##asında": 548,
      "▁veririm": 549,
      "##tıl": 550,
      "▁servisi": 551,
      "▁sar": 552,
      "##iss": 553,
      "##par": 554,
      "##lem": 555,
      "▁sayg": 556,
      "▁evi": 557,
      "▁dustu": 558,
      "##ane": 559,
      "▁yol": 560,
      "##fer": 561,
      "##os": 562,
      "##'a": 563,
      "##lıyor": 564,
      "▁mark": 565,
      "▁yanl": 566,
      "##luydu": 567,
      "▁diger": 568,
      "##ark": 569,
      "▁calis": 570,
      "##ti": 571,
      "▁orne": 572,
      "▁goze": 573,
      "▁sel": 574,
      "##iz": 575,
      "▁ilg": 576,
      "##gre": 577,
      "##mayı": 578,
      "##bil": 579,
      "▁yasam": 580,
      "▁strate": 581,
      "##erek": 582,
      "▁herif": 583,
      "▁muz": 584,
      "##eticisi": 585,
      "▁arastırma": 586,
      "▁sade": 587,
      "▁yardımcısı": 588,
      "▁ulke": 589,
      "▁bah": 590,
      "▁eli": 591,
      "##ızın": 592,
      "##kon": 593,
      "##tıs": 594,
      "##ecekler": 595,
      "##lugun": 596,
      "▁onceki": 597,
      "▁buyume": 598,
      "▁biri": 599,
      "▁kes": 600,
      "▁nak": 601,
      "##ırım": 602,
      "▁ceyrek": 603,
      "##erh": 604,
      "▁zevk": 605,
      "▁azalt": 606,
      "▁basladı": 607,
      "##ki": 608,
      "▁sofr": 609,
      "▁ordu": 610,
      "##ugunu": 611,
      "▁kend": 612,
      "##amam": 613,
      "▁dam": 614,
      "##ında": 615,
      "▁n": 616,
      "##ah": 617,
      "▁sorum": 618,
      "▁vergi": 619,
      "▁cap": 620,
      "##edik": 621,
      "##yıl": 622,
      "##00": 623,
      "##kar": 624,
      "▁tad": 625,
      "▁iz": 626,
      "▁gulery": 627,
      "##izasyon": 628,
      "##imen": 629,
      "▁arac": 630,
      "##adem": 631,
      "▁basv": 632,
      "▁cuma": 633,
      "##eder": 634,
      "▁sı": 635,
      "##uma": 636,
      "▁sure": 637,
      "▁mucade": 638,
      "▁gozu": 639,
      "##ustu": 640,
      "▁uretimi": 641,
      "##l": 642,
      "▁asagıda": 643,
      "▁cev": 644,
      "##ji": 645,
      "▁sid": 646,
      "▁4": 647,
      "▁gonl": 648,
      "▁azal": 649,
      "▁bulmak": 650,
      "▁kars": 651,
      "▁toplam": 652,
      "##man": 653,
      "▁kom": 654,
      "▁uy": 655,
      "▁fotograf": 656,
      "▁kaldırım": 657,
      "▁istihdam": 658,
      "▁avukat": 659,
      "▁bulut": 660,
      "##eceg": 661,
      "▁tenc": 662,
      "▁icra": 663,
      "##enlerin": 664,
      "##lanıyor": 665,
      "▁bıraktı": 666,
      "▁gel": 667,
      "▁listel": 668,
      "▁ettigini": 669,
      "▁motor": 670,
      "▁adamı": 671,
      "▁tarafı": 672,
      "▁simdi": 673,
      "▁potansiyel": 674,
      "▁han": 675,
      "▁barda": 676,
      "##sin": 677,
      "▁dortluk": 678,
      "▁19": 679,
      "▁sirketin": 680,
      "▁puan": 681,
      "▁oyunun": 682,
      "▁kotuydu": 683,
      "##sef": 684,
      "▁surec": 685,
      "▁hayata": 686,
      "##ruf": 687,
      "##alarının": 688,
      "##etr": 689,
      "▁silah": 690,
      "▁yıllarda": 691,
      "▁gucu": 692,
      "##alet": 693,
      "##nam": 694,
      "▁adam": 695,
      "▁daha": 696,
      "##adı": 697,
      "▁bul": 698,
      "▁dogum": 699,
      "##ep": 700,
      "▁kahvaltı": 701,
      "▁sav": 702,
      "▁topr": 703,
      "▁mimar": 704,
      "▁manzarasi": 705,
      "▁aksamı": 706,
      "▁savas": 707,
      "▁kural": 708,
      "▁petr": 709,
      "##il": 710,
      "##9": 711,
      "▁yaban": 712,
      "##eyn": 713,
      "##ustos": 714,
      "▁bayram": 715,
      "▁teh": 716,
      "##bar": 717,
      "##ledi": 718,
      "##ograf": 719,
      "▁insanları": 720,
      "##ari": 721,
      "▁eline": 722,
      "▁matem": 723,
      "##lastır": 724,
      "▁beb": 725,
      "▁cumartesi": 726,
      "##ım": 727,
      "▁faturam": 728,
      "▁acisindan": 729,
      "▁seh": 730,
      "##ı": 731,
      "▁gorusuldu": 732,
      "▁gecesi": 733,
      "▁stok": 734,
      "▁sil": 735,
      "##malar": 736,
      "##ıklar": 737,
      "▁etmis": 738,
      "▁islerini": 739,
      "##kler": 740,
      "▁yemegi": 741,
      "▁bes": 742,
      "▁fiyata": 743,
      "##inti": 744,
      "##eket": 745,
      "b": 746,
      "▁hamle": 747,
      "##`": 748,
      "▁pilot": 749,
      "▁ko": 750,
      "##mal": 751,
      "▁saatlerde": 752,
      "##lanır": 753,
      "##ısıyla": 754,
      "▁tutun": 755,
      "##angi": 756,
      "▁gelistir": 757,
      "▁aksam": 758,
      "▁cek": 759,
      "##ildi": 760,
      "▁bahce": 761,
      "▁mu": 762,
      "##eyin": 763,
      "▁oglum": 764,
      "▁listeleyin": 765,
      "▁park": 766,
      "▁tekn": 767,
      "▁ogrenci": 768,
      "▁ki": 769,
      "▁but": 770,
      "▁kurulus": 771,
      "##ve": 772,
      "##tor": 773,
      "▁sıra": 774,
      "▁duzen": 775,
      "▁oluyor": 776,
      "▁avuk": 777,
      "▁traf": 778,
      "▁doları'ndan": 779,
      "##ger": 780,
      "▁alma": 781,
      "##ılı": 782,
      "▁giriste": 783,
      "##8": 784,
      "▁salı": 785,
      "▁yoksa": 786,
      "##uya": 787,
      "▁fikir": 788,
      "▁hizmeti": 789,
      "▁denver": 790,
      "▁manz": 791,
      "##orta": 792,
      "▁basbak": 793,
      "▁cevre": 794,
      "##ru": 795,
      "▁ada": 796,
      "▁bay": 797,
      "##be": 798,
      "▁okul": 799,
      "##ılan": 800,
      "▁sabahı": 801,
      "▁teknoloj": 802,
      "▁cop": 803,
      "▁ogren": 804,
      "##ısı": 805,
      "##ınlık": 806,
      "▁ısık": 807,
      "▁idare": 808,
      "##ilmesi": 809,
      "▁mac": 810,
      "▁muam": 811,
      "▁sig": 812,
      "##ayla": 813,
      "▁mevz": 814,
      "##em": 815,
      "▁araba": 816,
      "▁verim": 817,
      "▁tahmin": 818,
      "▁orta": 819,
      "▁basından": 820,
      "##luga": 821,
      "▁listele": 822,
      "▁magaz": 823,
      "##lerin": 824,
      "##isini": 825,
      "▁olduguna": 826,
      "▁huzur": 827,
      "##ine": 828,
      "▁co": 829,
      "▁gerektigini": 830,
      "▁dor": 831,
      "▁derece": 832,
      "▁say": 833,
      "##ibar": 834,
      "##et": 835,
      "▁dusus": 836,
      "##aj": 837,
      "▁med": 838,
      "▁donem": 839,
      "▁guven": 840,
      "▁saati": 841,
      "##may": 842,
      "▁duman": 843,
      "▁performans": 844,
      "▁yonetici": 845,
      "▁komisyon": 846,
      "##ya": 847,
      "▁hap": 848,
      "##iyat": 849,
      "▁ayrıca": 850,
      "▁edildi": 851,
      "▁tavır": 852,
      "▁hukumet": 853,
      "▁doları'na": 854,
      "##ada": 855,
      "▁dolara": 856,
      "▁ihtiyac": 857,
      "▁gokyuz": 858,
      "▁olmalı": 859,
      "▁kisilik": 860,
      "##ıkları": 861,
      "▁yuk": 862,
      "▁anlamda": 863,
      "##cının": 864,
      "▁tartıs": 865,
      "▁saglık": 866,
      "▁soyledi": 867,
      "▁men": 868,
      "##uluk": 869,
      "▁guler": 870,
      "▁elb": 871,
      "▁gunu": 872,
      "▁umut": 873,
      "##siz": 874,
      "▁darbe": 875,
      "▁ger": 876,
      "▁toprak": 877,
      "▁resim": 878,
      "##evizyon": 879,
      "▁yani": 880,
      "▁fabrik": 881,
      "##ator": 882,
      "##dı": 883,
      "▁girisim": 884,
      "▁yolu": 885,
      "▁ihtiyacım": 886,
      "▁son": 887,
      "▁gunden": 888,
      "▁mill": 889,
      "▁dunya": 890,
      "▁guzellik": 891,
      "##gal": 892,
      "##'ın": 893,
      "##e": 894,
      "▁domates": 895,
      "##ok": 896,
      "▁parti": 897,
      "##urt": 898,
      "▁muda": 899,
      "▁cesitleri": 900,
      "##ing": 901,
      "▁pal": 902,
      "▁koy": 903,
      "▁satıs": 904,
      "▁sist": 905,
      "##anı": 906,
      "▁babam": 907,
      "▁penc": 908,
      "▁piyasa": 909,
      "▁evde": 910,
      "##sal": 911,
      "##nc": 912,
      "▁icer": 913,
      "▁ey": 914,
      "▁gune": 915,
      "▁degis": 916,
      "▁mesaf": 917,
      "▁benz": 918,
      "##z": 919,
      "▁fot": 920,
      "▁kampanyalar": 921,
      "▁hur": 922,
      "▁mevzu": 923,
      "▁soru": 924,
      "▁hak": 925,
      "##du": 926,
      "##leriyle": 927,
      "▁yuz": 928,
      "▁gercekl": 929,
      "##lin": 930,
      "##mi": 931,
      "##ap": 932,
      "▁cag": 933,
      "▁ilgisi": 934,
      "▁dik": 935,
      "▁rezervasyonu": 936,
      "▁boston": 937,
      "▁elde": 938,
      "▁moda": 939,
      "▁a": 940,
      "▁tarz": 941,
      "▁piyasanın": 942,
      "▁yapı": 943,
      "##ligin": 944,
      "▁yonetimi": 945,
      "[SEP]": 946,
      "##ları": 947,
      "▁hayatın": 948,
      "▁bina": 949,
      "▁portf": 950,
      "▁digerleri": 951,
      "▁dov": 952,
      "▁rakamlar": 953,
      "▁elinden": 954,
      "▁duv": 955,
      "*": 956,
      "##lugunu": 957,
      "▁almak": 958,
      "##lamıs": 959,
      "▁ailesi": 960,
      "##oh": 961,
      "##j": 962,
      "▁kıymetler": 963,
      "▁temizligi": 964,
      "##atı": 965,
      "▁istih": 966,
      "##ligine": 967,
      "##dum": 968,
      "▁uye": 969,
      "##asyonu": 970,
      "▁muhafaz": 971,
      "##ston": 972,
      "▁cesit": 973,
      "##mes": 974,
      "▁kayıt": 975,
      "▁kampan": 976,
      "▁tahvil": 977,
      "▁gogs": 978,
      "▁uygulama": 979,
      "▁f": 980,
      "##ılıg": 981,
      "##gim": 982,
      "▁elbis": 983,
      "▁hab": 984,
      "▁egit": 985,
      "▁mir": 986,
      "##isinin": 987,
      "##van": 988,
      "▁alın": 989,
      "▁bal": 990,
      "▁prof": 991,
      "▁kısıt": 992,
      "##gr": 993,
      "▁kalb": 994,
      "▁acısından": 995,
      "▁ucreti": 996,
      "▁lira": 997,
      "▁taraf": 998,
      "▁fark": 999,
      "▁evin": 1000,
      "▁sab": 1001,
      "▁hukumeti": 1002,
      "▁bardak": 1003,
      "▁oldug": 1004,
      "▁ruh": 1005,
      "▁tul": 1006,
      "▁muhend": 1007,
      "##ayı": 1008,
      "▁du": 1009,
      "##larından": 1010,
      "##igi": 1011,
      "##imize": 1012,
      "▁fr": 1013,
      "##asını": 1014,
      "##ch": 1015,
      "▁ann": 1016,
      "▁pant": 1017,
      "▁ardından": 1018,
      "▁vardi": 1019,
      "##yle": 1020,
      "▁olacagını": 1021,
      "##gin": 1022,
      "▁yolcu": 1023,
      "##te": 1024,
      "▁konus": 1025,
      "▁teklifi": 1026,
      "▁yana": 1027,
      "##lıga": 1028,
      "##alardan": 1029,
      "▁posta": 1030,
      "▁bel": 1031,
      "▁aile": 1032,
      "##sız": 1033,
      "##esti": 1034,
      "▁lid": 1035,
      "##ardan": 1036,
      "▁kat": 1037,
      "▁isk": 1038,
      "▁ilgilen": 1039,
      "▁olması": 1040,
      "▁he": 1041,
      "##tan": 1042,
      "▁dav": 1043,
      "▁fikr": 1044,
      "▁doldur": 1045,
      "▁hayır": 1046,
      "▁cizgi": 1047,
      "▁alk": 1048,
      "##at": 1049,
      "▁faiz": 1050,
      "▁olmadi": 1051,
      "##sı": 1052,
      "▁ortaya": 1053,
      "##erk": 1054,
      "▁ark": 1055,
      "##larının": 1056,
      "▁icki": 1057,
      "##bol": 1058,
      "▁akr": 1059,
      "▁olmad": 1060,
      "▁merkezi": 1061,
      "▁merkez": 1062,
      "▁guzeldi": 1063,
      "▁yak": 1064,
      "▁aktarma": 1065,
      "▁arkadaslar": 1066,
      "▁defa": 1067,
      "▁hanım": 1068,
      "▁piy": 1069,
      "##ort": 1070,
      "▁olm": 1071,
      "##3": 1072,
      "##of": 1073,
      "▁sez": 1074,
      "##lugu": 1075,
      "▁koltuk": 1076,
      "##uler": 1077,
      "▁fiyatlar": 1078,
      "▁kumas": 1079,
      "▁benim": 1080,
      ".": 1081,
      "▁kumar": 1082,
      "##asın": 1083,
      "▁arkad": 1084,
      "▁karayol": 1085,
      "▁nef": 1086,
      "▁oy": 1087,
      "##as": 1088,
      "▁fon": 1089,
      "▁kultur": 1090,
      "▁oranı": 1091,
      "▁burada": 1092,
      "▁komut": 1093,
      "▁nelerdir": 1094,
      "##alarla": 1095,
      "##digi": 1096,
      "▁tur": 1097,
      "##leket": 1098,
      "##lerinin": 1099,
      "##lul": 1100,
      "▁bulun": 1101,
      "▁yuzyıl": 1102,
      "▁um": 1103,
      "▁kral": 1104,
      "##ırdı": 1105,
      "z": 1106,
      "▁?..": 1107,
      "##lige": 1108,
      "▁hafta": 1109,
      "▁avuc": 1110,
      "▁mahkemesi": 1111,
      "▁kor": 1112,
      "▁aldı": 1113,
      "▁bu": 1114,
      "▁dest": 1115,
      "▁sermay": 1116,
      "▁gr": 1117,
      "▁hanim": 1118,
      "##dar": 1119,
      "##isinde": 1120,
      "▁tanı": 1121,
      "##dug": 1122,
      "▁6": 1123,
      "##lara": 1124,
      "▁ma": 1125,
      "##dıgı": 1126,
      "##eyr": 1127,
      "##ısından": 1128,
      "▁zih": 1129,
      "▁cocugun": 1130,
      "##erlik": 1131,
      "##lek": 1132,
      "▁aktar": 1133,
      "##iyor": 1134,
      "##ın": 1135,
      "##tıgı": 1136,
      "##elere": 1137,
      "▁dusuk": 1138,
      "▁5'ten": 1139,
      "▁soyluyor": 1140,
      "▁sen": 1141,
      "▁not": 1142,
      "▁satısı": 1143,
      "▁aktiv": 1144,
      "▁kuvvet": 1145,
      "▁mudur": 1146,
      "▁im": 1147,
      "▁bekliyor": 1148,
      "▁ihr": 1149,
      "▁zaman": 1150,
      "▁ederim": 1151,
      "##gisi": 1152,
      "▁garson": 1153,
      "##sak": 1154,
      "▁baktı": 1155,
      "▁amerikalı": 1156,
      "▁mekte": 1157,
      "##eki": 1158,
      "##makta": 1159,
      "▁boyn": 1160,
      "▁gal": 1161,
      "▁bun": 1162,
      "##sen": 1163,
      "▁icin": 1164,
      "▁ba": 1165,
      "##o": 1166,
      "▁fiyati": 1167,
      "▁ted": 1168,
      "▁ah": 1169,
      "▁alanda": 1170,
      "##liginden": 1171,
      "##bası": 1172,
      "##ecegim": 1173,
      "▁iddi": 1174,
      "##tig": 1175,
      "##m": 1176,
      "▁nokt": 1177,
      "##dim": 1178,
      "▁ruz": 1179,
      "▁nis": 1180,
      "▁vap": 1181,
      "##amaları": 1182,
      "▁aynı": 1183,
      "▁yon": 1184,
      "▁konusu": 1185,
      "##agından": 1186,
      "▁may": 1187,
      "##lıktan": 1188,
      "▁hapis": 1189,
      "▁kuy": 1190,
      "▁ilav": 1191,
      "▁h": 1192,
      "##al": 1193,
      "##ci": 1194,
      "▁dilim": 1195,
      "##esini": 1196,
      "▁sozcu": 1197,
      "##ide": 1198,
      "▁kap": 1199,
      "##isine": 1200,
      "▁dost": 1201,
      "▁cık": 1202,
      "##ten": 1203,
      "##ıcı": 1204,
      "##burgh": 1205,
      "▁islemler": 1206,
      "##must": 1207,
      "▁fer": 1208,
      "▁po": 1209,
      "##alım": 1210,
      "▁rekabet": 1211,
      "▁sendika": 1212,
      "▁yerler": 1213,
      "▁millet": 1214,
      "##erdi": 1215,
      "▁metr": 1216,
      "▁dey": 1217,
      "▁ayrıl": 1218,
      "▁zamanı": 1219,
      "##erv": 1220,
      "▁eski": 1221,
      "▁kem": 1222,
      "▁``": 1223,
      "▁edebiyat": 1224,
      "▁giy": 1225,
      "▁profes": 1226,
      "▁serv": 1227,
      "▁ucusların": 1228,
      "▁lok": 1229,
      "▁dah": 1230,
      "▁bugday": 1231,
      "▁sık": 1232,
      "▁dig": 1233,
      "▁isletme": 1234,
      "##ore": 1235,
      "▁katkıda": 1236,
      "##'un": 1237,
      "▁hoc": 1238,
      "##menin": 1239,
      "▁yar": 1240,
      "▁bankası": 1241,
      "▁komp": 1242,
      "▁emeklilik": 1243,
      "▁aracı": 1244,
      "##irdi": 1245,
      "▁gon": 1246,
      "▁dostu": 1247,
      "3": 1248,
      "##meye": 1249,
      "▁tesekkurler": 1250,
      "##us": 1251,
      "▁tez": 1252,
      "##gun": 1253,
      "▁end": 1254,
      "▁personeli": 1255,
      "▁otelden": 1256,
      "▁tasar": 1257,
      "▁guvenlik": 1258,
      "##w": 1259,
      "▁sirketler": 1260,
      "▁veriyor": 1261,
      "##‘": 1262,
      "##ektr": 1263,
      "▁dedi": 1264,
      "▁hic": 1265,
      "##ket": 1266,
      "##ar": 1267,
      "##le": 1268,
      "▁kısm": 1269,
      "▁hır": 1270,
      "▁altın": 1271,
      "▁ort": 1272,
      "▁gayrimenkul": 1273,
      "##lardı": 1274,
      "##irim": 1275,
      "##cegini": 1276,
      "▁num": 1277,
      "##eden": 1278,
      "##hal": 1279,
      "▁banyo": 1280,
      "▁beni": 1281,
      "##ısında": 1282,
      "##ık": 1283,
      ",": 1284,
      "▁tas": 1285,
      "▁tartısma": 1286,
      "▁bakanı": 1287,
      "▁boyun": 1288,
      "▁fır": 1289,
      "##arı": 1290,
      "##stım": 1291,
      "##ımın": 1292,
      "`": 1293,
      "▁yiyecekler": 1294,
      "##asının": 1295,
      "▁cunku": 1296,
      "##eldi": 1297,
      "##masından": 1298,
      "▁erk": 1299,
      "##ni": 1300,
      "▁listesini": 1301,
      "▁cesaret": 1302,
      "▁cocuklu": 1303,
      "▁delik": 1304,
      "▁od": 1305,
      "##ıyorum": 1306,
      "##anma": 1307,
      "▁aylık": 1308,
      "▁ithal": 1309,
      "##lamaya": 1310,
      "##'nun": 1311,
      "▁seyler": 1312,
      "##erleri": 1313,
      "▁odun": 1314,
      "▁birtakım": 1315,
      "▁telef": 1316,
      "##'nın": 1317,
      "▁cocugu": 1318,
      "▁etki": 1319,
      "##dil": 1320,
      "▁cog": 1321,
      "▁istik": 1322,
      "▁fazla": 1323,
      "▁bırak": 1324,
      "▁oyle": 1325,
      "▁personeller": 1326,
      "▁sin": 1327,
      "##raf": 1328,
      "▁lutfen": 1329,
      "▁artısla": 1330,
      "▁hat": 1331,
      "▁ettim": 1332,
      "▁alır": 1333,
      "##”": 1334,
      "▁zeytin": 1335,
      "##ulu": 1336,
      "▁bic": 1337,
      "▁git": 1338,
      "▁mey": 1339,
      "▁kanun": 1340,
      "▁direktor": 1341,
      "##masını": 1342,
      "▁icine": 1343,
      "▁sonr": 1344,
      "▁programı": 1345,
      "##ımda": 1346,
      "▁odeme": 1347,
      "▁dukk": 1348,
      "▁ekonom": 1349,
      "▁bilim": 1350,
      "▁hiss": 1351,
      "▁demek": 1352,
      "##mıstı": 1353,
      "▁etk": 1354,
      "▁seyin": 1355,
      "▁kızı": 1356,
      "▁arkadas": 1357,
      "▁gun": 1358,
      "▁bilgisay": 1359,
      "▁7": 1360,
      "▁iyiydi": 1361,
      "▁rahat": 1362,
      "▁icerisinde": 1363,
      "/": 1364,
      "##anda": 1365,
      "▁dusunc": 1366,
      "▁islem": 1367,
      "▁masanın": 1368,
      "▁anda": 1369,
      "=": 1370,
      "##ıya": 1371,
      "▁ilan": 1372,
      "▁geri": 1373,
      "##masının": 1374,
      "▁6'dan": 1375,
      "▁konu": 1376,
      "▁felaket": 1377,
      "▁ellerinde": 1378,
      "##lav": 1379,
      "▁la": 1380,
      "▁tatil": 1381,
      "▁kahvalt": 1382,
      "##ed": 1383,
      "▁sec": 1384,
      "▁dakika": 1385,
      "▁el": 1386,
      "▁dok": 1387,
      "▁yandan": 1388,
      "##all": 1389,
      "▁olarak": 1390,
      "▁adım": 1391,
      "▁hastalık": 1392,
      "▁gu": 1393,
      "▁uzer": 1394,
      "▁hicbir": 1395,
      "▁bıy": 1396,
      "▁mo": 1397,
      "▁ogl": 1398,
      "##ist": 1399,
      "▁duny": 1400,
      "▁perde": 1401,
      "▁yılının": 1402,
      "##iyle": 1403,
      "##ekti": 1404,
      "▁seviy": 1405,
      "▁”": 1406,
      "##tin": 1407,
      "▁sun": 1408,
      "▁karab": 1409,
      "##ediyor": 1410,
      "▁alım": 1411,
      "▁k": 1412,
      "##kat": 1413,
      "▁pazartesi": 1414,
      "▁seyir": 1415,
      "##ıcılar": 1416,
      "▁kit": 1417,
      "##ub": 1418,
      "##ga": 1419,
      "▁ekm": 1420,
      "▁tic": 1421,
      "##sur": 1422,
      "▁belir": 1423,
      "▁harc": 1424,
      "▁ajans": 1425,
      "▁temizlik": 1426,
      "▁gidiyor": 1427,
      "▁pencer": 1428,
      "▁fabrika": 1429,
      "▁kuf": 1430,
      "▁engel": 1431,
      "▁reh": 1432,
      "##adan": 1433,
      "▁dekor": 1434,
      "▁un": 1435,
      "▁sınıfı": 1436,
      "▁yapmak": 1437,
      "▁basında": 1438,
      "##gunu": 1439,
      "##miyorum": 1440,
      "▁ekmek": 1441,
      "▁tasım": 1442,
      "▁takdir": 1443,
      "##onom": 1444,
      "▁ser": 1445,
      "▁olas": 1446,
      "▁sip": 1447,
      "▁guzel": 1448,
      "▁ortam": 1449,
      "▁12": 1450,
      "##ısır": 1451,
      "▁kir": 1452,
      "▁oda": 1453,
      "▁gunes": 1454,
      "##san": 1455,
      "▁dol": 1456,
      "▁ay": 1457,
      "##duk": 1458,
      "##!": 1459,
      "##isyon": 1460,
      "▁der": 1461,
      "▁yurt": 1462,
      "##sizlik": 1463,
      "##bet": 1464,
      "##'ndan": 1465,
      "##uv": 1466,
      "▁faal": 1467,
      "▁goster": 1468,
      "▁fran": 1469,
      "u": 1470,
      "▁seb": 1471,
      "▁sozleri": 1472,
      "▁omuz": 1473,
      "##larımızı": 1474,
      "▁hayvan": 1475,
      "##ılır": 1476,
      "##av": 1477,
      "##ang": 1478,
      "##ıda": 1479,
      "##gel": 1480,
      "▁ucak": 1481,
      "##arda": 1482,
      "▁kaf": 1483,
      "▁uzak": 1484,
      "▁diy": 1485,
      "▁ikti": 1486,
      "▁unut": 1487,
      "▁sinem": 1488,
      "▁bebek": 1489,
      "▁ola": 1490,
      "▁car": 1491,
      "▁bono": 1492,
      "▁temizdi": 1493,
      "▁animasyon": 1494,
      "▁zorunda": 1495,
      "##lat": 1496,
      "##alık": 1497,
      "▁francisco'ya": 1498,
      "▁elden": 1499,
      "▁topu": 1500,
      "▁ulasım": 1501,
      "##andır": 1502,
      "▁kok": 1503,
      "▁sozcusu": 1504,
      "▁merkezine": 1505,
      "▁kıv": 1506,
      "▁rakam": 1507,
      "▁yumur": 1508,
      "▁dusunce": 1509,
      "▁dahil": 1510,
      "▁yetkili": 1511,
      "▁kullanmadim": 1512,
      "▁enerji": 1513,
      "##amın": 1514,
      "▁onem": 1515,
      "▁yaprak": 1516,
      "▁caba": 1517,
      "▁$'a": 1518,
      "##ıs": 1519,
      "▁de": 1520,
      "##mas": 1521,
      "▁kaynak": 1522,
      "▁seviye": 1523,
      "▁za": 1524,
      "▁donus": 1525,
      "##ind": 1526,
      "##mez": 1527,
      "▁lim": 1528,
      "##ley": 1529,
      "▁yaklasimi": 1530,
      "▁kalabalık": 1531,
      "▁mulk": 1532,
      "▁olanaklari": 1533,
      "##ahat": 1534,
      "▁zev": 1535,
      "##;": 1536,
      "##masın": 1537,
      "##lama": 1538,
      "▁guc": 1539,
      "▁grup": 1540,
      "▁esya": 1541,
      "▁dep": 1542,
      "▁naz": 1543,
      "▁mide": 1544,
      "▁tehlik": 1545,
      "▁tesekkur": 1546,
      "##malı": 1547,
      "##liginin": 1548,
      "▁ekip": 1549,
      "##digini": 1550,
      "▁duzey": 1551,
      "##liligi": 1552,
      "##agında": 1553,
      "▁istedi": 1554,
      "##masız": 1555,
      "##bi": 1556,
      "t": 1557,
      "##gan": 1558,
      "##okr": 1559,
      "##eydi": 1560,
      "▁mik": 1561,
      "▁bekl": 1562,
      "##liydi": 1563,
      "▁tası": 1564,
      "##dıgını": 1565,
      "▁atlan": 1566,
      "▁sirketi": 1567,
      "▁sırt": 1568,
      "▁sene": 1569,
      "##inlik": 1570,
      "##larına": 1571,
      "▁orman": 1572,
      "▁endek": 1573,
      "##dugu": 1574,
      "▁boyut": 1575,
      "“": 1576,
      "##ka": 1577,
      "▁kadın": 1578,
      "▁yard": 1579,
      "▁kayb": 1580,
      "##dikleri": 1581,
      "▁dısında": 1582,
      "▁para": 1583,
      "▁kalab": 1584,
      "##mayan": 1585,
      "▁ur": 1586,
      "##ız": 1587,
      "▁bask": 1588,
      "▁hareket": 1589,
      "▁suyu": 1590,
      "▁hız": 1591,
      "##madıgını": 1592,
      "▁icinden": 1593,
      "&": 1594,
      "▁hissesi": 1595,
      "##ade": 1596,
      "##ligini": 1597,
      "▁sistem": 1598,
      "▁ucret": 1599,
      "▁kons": 1600,
      "▁anlattı": 1601,
      "▁bugune": 1602,
      "▁nuf": 1603,
      "▁sub": 1604,
      "▁oglan": 1605,
      "▁hizmetten": 1606,
      "▁etmem": 1607,
      "▁hisseler": 1608,
      "▁sayı": 1609,
      "▁tat": 1610,
      "▁pit": 1611,
      "▁tır": 1612,
      "▁oyuncu": 1613,
      "##lerim": 1614,
      "▁ucusa": 1615,
      "##lu": 1616,
      "##ek": 1617,
      "##ini": 1618,
      "##larımız": 1619,
      "▁ucmak": 1620,
      "##*": 1621,
      "▁ucuslar": 1622,
      "▁edil": 1623,
      "##yo": 1624,
      "▁analistler": 1625,
      "▁kendi": 1626,
      "▁bez": 1627,
      "▁isim": 1628,
      "##iye": 1629,
      "##>": 1630,
      "▁2": 1631,
      "▁cogu": 1632,
      "▁#": 1633,
      "##apon": 1634,
      "▁onunde": 1635,
      "▁temsil": 1636,
      "▁teor": 1637,
      "▁=": 1638,
      "▁key": 1639,
      "▁misafirimiz": 1640,
      "▁haftada": 1641,
      "##ington": 1642,
      "p": 1643,
      "▁cir": 1644,
      "▁anim": 1645,
      "##$": 1646,
      "##tun": 1647,
      "▁te": 1648,
      "▁ceh": 1649,
      "##osu": 1650,
      "▁musteri": 1651,
      "##ugun": 1652,
      "▁kagıt": 1653,
      "##emez": 1654,
      "▁degeri": 1655,
      "▁of": 1656,
      "##mıyor": 1657,
      "▁net": 1658,
      "▁yine": 1659,
      "▁grub": 1660,
      "##ıklık": 1661,
      "▁dusur": 1662,
      "▁endustr": 1663,
      "##elen": 1664,
      "▁oyun": 1665,
      "▁sah": 1666,
      "▁vatand": 1667,
      "▁insanın": 1668,
      "##mem": 1669,
      "▁bile": 1670,
      "▁cel": 1671,
      "##artesi": 1672,
      "▁yo": 1673,
      "▁izin": 1674,
      "##lerden": 1675,
      "▁olcude": 1676,
      "▁tavuk": 1677,
      "▁cins": 1678,
      "▁ayda": 1679,
      "▁telefonla": 1680,
      "##ıldı": 1681,
      "##sunuz": 1682,
      "▁rak": 1683,
      "▁baz": 1684,
      "▁mem": 1685,
      "##alle": 1686,
      "##'n": 1687,
      "##egi": 1688,
      "▁yoneticileri": 1689,
      "##lamak": 1690,
      "##eli": 1691,
      "▁ticarette": 1692,
      "▁bors": 1693,
      "▁enf": 1694,
      "▁ilave": 1695,
      "▁beklen": 1696,
      "▁istifa": 1697,
      "▁yuzden": 1698,
      "▁yap": 1699,
      "##atif": 1700,
      "##etti": 1701,
      "▁rom": 1702,
      "##iyeti": 1703,
      "▁atlanta": 1704,
      "▁*": 1705,
      "▁sehir": 1706,
      "▁zamanda": 1707,
      "▁masa": 1708,
      "▁sın": 1709,
      "▁planı": 1710,
      "▁sahibi": 1711,
      "##uyorlar": 1712,
      "##uslar": 1713,
      "▁yemeklerde": 1714,
      "▁eyalet": 1715,
      "▁belirt": 1716,
      "##elli": 1717,
      "▁kup": 1718,
      "▁sent": 1719,
      "▁ekonomi": 1720,
      "▁gozden": 1721,
      "▁meydana": 1722,
      "##tih": 1723,
      "##ime": 1724,
      "##kım": 1725,
      "▁inanc": 1726,
      "##er": 1727,
      "▁tuk": 1728,
      "▁kosulları": 1729,
      "##lum": 1730,
      "▁lob": 1731,
      "▁hac": 1732,
      "▁gelecek": 1733,
      "▁8": 1734,
      "##ster": 1735,
      "▁yolculuk": 1736,
      "##edigim": 1737,
      "▁giden": 1738,
      "▁koylu": 1739,
      "##uluyor": 1740,
      "▁bakım": 1741,
      "▁elestiri": 1742,
      "▁univers": 1743,
      "##teri": 1744,
      "##sat": 1745,
      "##unden": 1746,
      "▁takip": 1747,
      "▁kıl": 1748,
      "▁haberi": 1749,
      "##bah": 1750,
      "▁anay": 1751,
      "▁kart": 1752,
      "q": 1753,
      "▁imz": 1754,
      "▁hakk": 1755,
      "##eklen": 1756,
      "▁kur": 1757,
      "##rne": 1758,
      "▁bat": 1759,
      "▁yardimci": 1760,
      "▁def": 1761,
      "▁tabak": 1762,
      "##ımız": 1763,
      "▁gecir": 1764,
      "##'d": 1765,
      "▁dur": 1766,
      "##men": 1767,
      "▁devletin": 1768,
      "▁tiyatr": 1769,
      "▁mul": 1770,
      "▁mer": 1771,
      "▁bizim": 1772,
      "##agına": 1773,
      "##estir": 1774,
      "##labilir": 1775,
      "▁hanimdi": 1776,
      "▁kenar": 1777,
      "##lere": 1778,
      "▁sevgi": 1779,
      "▁denizi": 1780,
      "##emek": 1781,
      "d": 1782,
      "##ydı": 1783,
      "▁d": 1784,
      "▁cif": 1785,
      "▁kı": 1786,
      "▁ediyordu": 1787,
      "##ivers": 1788,
      "▁mus": 1789,
      "##amı": 1790,
      "##eyim": 1791,
      "▁katk": 1792,
      "##esinde": 1793,
      "##si": 1794,
      "▁cicek": 1795,
      "##day": 1796,
      "▁konuda": 1797,
      "##akları": 1798,
      "##ars": 1799,
      "▁tal": 1800,
      "▁yarat": 1801,
      "##cısı": 1802,
      "##maya": 1803,
      "▁eksik": 1804,
      "▁camasır": 1805,
      "##imi": 1806,
      "▁pil": 1807,
      "▁t": 1808,
      "##ılması": 1809,
      "▁lezzetleri": 1810,
      "▁cekti": 1811,
      "##larda": 1812,
      "▁uyum": 1813,
      "2": 1814,
      "▁vucud": 1815,
      "##uzlu": 1816,
      "▁tekl": 1817,
      "▁gecm": 1818,
      "##istel": 1819,
      "##esi": 1820,
      "▁pas": 1821,
      "▁elini": 1822,
      "▁lir": 1823,
      "▁acent": 1824,
      "▁bakanlıgı": 1825,
      "##ken": 1826,
      "▁soyl": 1827,
      "##egini": 1828,
      "##1": 1829,
      "▁anlama": 1830,
      "▁yola": 1831,
      "▁tepki": 1832,
      "##izm": 1833,
      "▁ust": 1834,
      "▁malzemeler": 1835,
      "▁ihtiy": 1836,
      "▁mahkem": 1837,
      "▁katılım": 1838,
      "▁dunyada": 1839,
      "▁cocukları": 1840,
      "▁vardı": 1841,
      "##&": 1842,
      "##ıcak": 1843,
      "▁acıl": 1844,
      "▁eder": 1845,
      "▁kalem": 1846,
      "##aret": 1847,
      "▁sını": 1848,
      "##amak": 1849,
      "▁mektu": 1850,
      "▁fen": 1851,
      "##usuna": 1852,
      "▁veya": 1853,
      "##_": 1854,
      "▁yapıyor": 1855,
      "▁sefer": 1856,
      "▁ustu": 1857,
      "##eni": 1858,
      "▁yatırım": 1859,
      "▁olsun": 1860,
      "##if": 1861,
      "▁alısver": 1862,
      "▁cumle": 1863,
      "▁oranları": 1864,
      "▁gitmek": 1865,
      "▁isler": 1866,
      "##irler": 1867,
      "##uzel": 1868,
      "##kı": 1869,
      "▁annemin": 1870,
      "▁dakik": 1871,
      "##akat": 1872,
      "##dırım": 1873,
      "##da": 1874,
      "▁gonul": 1875,
      "##alma": 1876,
      "▁analiz": 1877,
      "▁beyle": 1878,
      "▁tr": 1879,
      "##hut": 1880,
      "▁huz": 1881,
      "▁bogaz": 1882,
      "##ra": 1883,
      "▁yok": 1884,
      "▁merk": 1885,
      "##eme": 1886,
      "▁alaka": 1887,
      "▁paraya": 1888,
      "▁gunduz": 1889,
      "##imci": 1890,
      "▁gorev": 1891,
      "0": 1892,
      "°": 1893,
      "##0'": 1894,
      "##div": 1895,
      "##gum": 1896,
      "▁makin": 1897,
      "▁poz": 1898,
      "##lerimi": 1899,
      "▁bıcak": 1900,
      "▁katilmak": 1901,
      "▁kac": 1902,
      "##ecek": 1903,
      "▁insanlara": 1904,
      "▁ev": 1905,
      "##yas": 1906,
      "▁sog": 1907,
      "’": 1908,
      "##lerde": 1909,
      "##emey": 1910,
      "▁kucuk": 1911,
      "▁en": 1912,
      "▁simdiye": 1913,
      "##ilm": 1914,
      "▁art": 1915,
      "▁kosul": 1916,
      "##\\": 1917,
      "##ban": 1918,
      "▁sekil": 1919,
      "▁karsi": 1920,
      "▁gar": 1921,
      "▁sat": 1922,
      "##der": 1923,
      "##ens": 1924,
      "##ta": 1925,
      "▁kara": 1926,
      "▁seyleri": 1927,
      "##ımızı": 1928,
      "##yalar": 1929,
      "##let": 1930,
      "##larım": 1931,
      "▁aralık": 1932,
      "##eginde": 1933,
      "##atik": 1934,
      "▁payı": 1935,
      "▁goc": 1936,
      "▁sesi": 1937,
      "▁dug": 1938,
      "▁olc": 1939,
      "▁nedir": 1940,
      "▁esim": 1941,
      "▁tahvilleri": 1942,
      "##li": 1943,
      "▁fa": 1944,
      "▁bede": 1945,
      "▁kararı": 1946,
      "▁saf": 1947,
      "▁personellerin": 1948,
      "▁analist": 1949,
      "▁es": 1950,
      "▁milyondan": 1951,
      "k": 1952,
      "▁birligi": 1953,
      "▁soyley": 1954,
      "▁duk": 1955,
      "▁roman": 1956,
      "##yum": 1957,
      "##ce": 1958,
      "▁tem": 1959,
      "##el": 1960,
      "▁taleb": 1961,
      "▁alak": 1962,
      "##erler": 1963,
      "##ug": 1964,
      "##'ya": 1965,
      "▁tercih": 1966,
      "▁ok": 1967,
      "▁fazl": 1968,
      "▁kaldik": 1969,
      "▁piyan": 1970,
      "▁internet": 1971,
      "##sel": 1972,
      "##unku": 1973,
      "##leri": 1974,
      "▁otelin": 1975,
      "▁azından": 1976,
      "▁`": 1977,
      "▁arada": 1978,
      "▁vapur": 1979,
      "5": 1980,
      "##amaya": 1981,
      "▁iyi": 1982,
      "▁hasar": 1983,
      "▁gormek": 1984,
      "##ma": 1985,
      "##ikler": 1986,
      "##stı": 1987,
      "▁kul": 1988,
      "▁ilk": 1989,
      "▁edeb": 1990,
      "▁cumhuriyet": 1991,
      "▁hale": 1992,
      "▁hey": 1993,
      "▁firma": 1994,
      "▁oldu": 1995,
      "▁kriz": 1996,
      "▁basın": 1997,
      "▁merdiv": 1998,
      "▁ilgili": 1999,
      "##lastı": 2000,
      "▁sis": 2001,
      "▁onlar": 2002,
      "##anıs": 2003,
      "▁iflas": 2004,
      "##tu": 2005,
      "▁yık": 2006,
      "##aların": 2007,
      "##ekkur": 2008,
      "▁banka": 2009,
      "##cılık": 2010,
      "▁ogr": 2011,
      "▁go": 2012,
      "▁eve": 2013,
      "▁merdiven": 2014,
      "▁piyas": 2015,
      "▁borsası": 2016,
      "▁1/": 2017,
      "##rar": 2018,
      "##acagını": 2019,
      "▁parasını": 2020,
      "##ıyor": 2021,
      "▁eylul": 2022,
      "▁muc": 2023,
      "▁agustos": 2024,
      "▁oyku": 2025,
      "##mus": 2026,
      "▁lik": 2027,
      "##lıgında": 2028,
      "▁ama": 2029,
      "▁list": 2030,
      "##imdi": 2031,
      "▁yorum": 2032,
      "▁doviz": 2033,
      "▁sır": 2034,
      "▁sof": 2035,
      "▁sanayi": 2036,
      "##laması": 2037,
      "l": 2038,
      "▁herkesin": 2039,
      "▁sans": 2040,
      "##dıg": 2041,
      "##aya": 2042,
      "▁ters": 2043,
      "##imden": 2044,
      "##mamıs": 2045,
      "▁kav": 2046,
      "▁varan": 2047,
      "▁direk": 2048,
      "▁karayolu": 2049,
      "▁tarihi": 2050,
      "▁ayak": 2051,
      "▁esk": 2052,
      "▁aksama": 2053,
      "▁mahkeme": 2054,
      "##aat": 2055,
      "▁goz": 2056,
      "▁istiyor": 2057,
      "##ciler": 2058,
      "▁kontr": 2059,
      "▁bazı": 2060,
      "▁secim": 2061,
      "##emiyor": 2062,
      "▁kab": 2063,
      "▁hikay": 2064,
      "▁cin": 2065,
      "##ncak": 2066,
      "▁ulk": 2067,
      "▁ogleden": 2068,
      "▁dum": 2069,
      "##ate": 2070,
      "##imde": 2071,
      "▁bit": 2072,
      "##re": 2073,
      "▁elleri": 2074,
      "▁restor": 2075,
      "##abilir": 2076,
      "##eler": 2077,
      "▁otur": 2078,
      "▁fil": 2079,
      "##usunu": 2080,
      "##etici": 2081,
      "▁dısı": 2082,
      "▁garanti": 2083,
      "▁uc": 2084,
      "▁can": 2085,
      "##uyla": 2086,
      "▁degisiklik": 2087,
      "▁yet": 2088,
      "▁sut": 2089,
      "▁ref": 2090,
      "▁basına": 2091,
      "▁sınıf": 2092,
      "▁&": 2093,
      "##siniz": 2094,
      "##aydı": 2095,
      "▁zaf": 2096,
      "▁rehber": 2097,
      "▁olcu": 2098,
      "##ugu": 2099,
      "▁sik": 2100,
      "##ayet": 2101,
      "▁oner": 2102,
      "▁abd": 2103,
      "▁bazi": 2104,
      "▁lam": 2105,
      "▁ez": 2106,
      "▁ken": 2107,
      "##iv": 2108,
      "▁cay": 2109,
      "▁fay": 2110,
      "▁bekle": 2111,
      "##ibi": 2112,
      "##alt": 2113,
      "▁ceyr": 2114,
      "▁yılı": 2115,
      "##agının": 2116,
      "▁sorustur": 2117,
      "▁piyasaya": 2118,
      "▁hemen": 2119,
      "▁cat": 2120,
      "▁hisseye": 2121,
      "##aki": 2122,
      "▁hem": 2123,
      "##yla": 2124,
      "##lay": 2125,
      "##izi": 2126,
      "▁pozisyon": 2127,
      "▁detay": 2128,
      "##umda": 2129,
      "##ika": 2130,
      "▁devralma": 2131,
      "▁tah": 2132,
      "▁konforu": 2133,
      "▁kazanc": 2134,
      "▁oteli": 2135,
      "##cisi": 2136,
      "##eda": 2137,
      "##stır": 2138,
      "▁meydan": 2139,
      "▁iddia": 2140,
      "##isleri": 2141,
      "▁ayakta": 2142,
      "##uyordu": 2143,
      "##lendi": 2144,
      "▁acik": 2145,
      "▁sirketleri": 2146,
      "▁dogru": 2147,
      "▁muhaf": 2148,
      "▁beyaz": 2149,
      "▁baskanı": 2150,
      "##manın": 2151,
      "▁diz": 2152,
      "##undan": 2153,
      "▁test": 2154,
      "##tl": 2155,
      "▁...": 2156,
      "##aba": 2157,
      "##00'": 2158,
      "▁beyin": 2159,
      "▁birer": 2160,
      "▁gelir": 2161,
      "##ot": 2162,
      "##sun": 2163,
      "##gıc": 2164,
      "##emi": 2165,
      "▁endeksi": 2166,
      "▁parca": 2167,
      "▁bi": 2168,
      "▁sark": 2169,
      "##indan": 2170,
      "##umun": 2171,
      "▁insa": 2172,
      "##lerini": 2173,
      "▁nok": 2174,
      "▁sonucları": 2175,
      "##bir": 2176,
      "▁ip": 2177,
      "▁ruzgar": 2178,
      "##ans": 2179,
      "##iyi": 2180,
      "##ıyorlar": 2181,
      "##min": 2182,
      "##esinden": 2183,
      "▁yarı": 2184,
      "▁islet": 2185,
      "%": 2186,
      "▁devr": 2187,
      "##aları": 2188,
      "##sil": 2189,
      "▁kahkah": 2190,
      "▁sonra": 2191,
      "##acak": 2192,
      "▁yonetim": 2193,
      "##leyi": 2194,
      "##mur": 2195,
      "##burg": 2196,
      "##amaz": 2197,
      "▁ayrı": 2198,
      "▁gordu": 2199,
      "▁zamanlar": 2200,
      "▁kıy": 2201,
      "▁id": 2202,
      "▁org": 2203,
      "##cılar": 2204,
      "##ume": 2205,
      "##ecegi": 2206,
      "▁tahviller": 2207,
      "▁yerine": 2208,
      "▁aday": 2209,
      "▁bolge": 2210,
      "##eyi": 2211,
      "▁begendim": 2212,
      "##'nin": 2213,
      "▁kavg": 2214,
      "▁kadınlar": 2215,
      "▁tesvik": 2216,
      "▁odada": 2217,
      "8": 2218,
      "##landır": 2219,
      "▁lezzeti": 2220,
      "##bul": 2221,
      "▁kad": 2222,
      "##anlık": 2223,
      "▁si": 2224,
      "▁sermaye": 2225,
      "##acılık": 2226,
      "▁cak": 2227,
      "##larımı": 2228,
      "▁sonucu": 2229,
      "▁piyasada": 2230,
      "##aca": 2231,
      "▁yuksek": 2232,
      "##ab": 2233,
      "##inda": 2234,
      "##bilir": 2235,
      "##alarını": 2236,
      "##orm": 2237,
      "▁mez": 2238,
      "▁sezon": 2239,
      "##ork": 2240,
      "▁komisyonu": 2241,
      "▁tesv": 2242,
      "▁futbol": 2243,
      "▁suc": 2244,
      "▁halk": 2245,
      "##embe": 2246,
      ">": 2247,
      "▁deneme": 2248,
      "▁ogret": 2249,
      "▁var": 2250,
      "▁alt": 2251,
      "##dıgın": 2252,
      "##ktu": 2253,
      "##onel": 2254,
      "▁buf": 2255,
      "▁ord": 2256,
      "▁otom": 2257,
      "##mey": 2258,
      "##za": 2259,
      "▁man": 2260,
      "▁anal": 2261,
      "##enin": 2262,
      "##meler": 2263,
      "▁finans": 2264,
      "##ess": 2265,
      "##gıt": 2266,
      "▁cocuk": 2267,
      "▁asker": 2268,
      "▁zarar": 2269,
      "▁saldır": 2270,
      "▁sonbah": 2271,
      "▁franc": 2272,
      "▁gecti": 2273,
      "##ayan": 2274,
      "▁ins": 2275,
      "▁babası": 2276,
      "##uyor": 2277,
      "##isiyle": 2278,
      "##uydu": 2279,
      "▁adını": 2280,
      "##ey": 2281,
      "##gur": 2282,
      "▁kapı": 2283,
      "▁sıkınt": 2284,
      "▁yıl": 2285,
      "##ustur": 2286,
      "▁bilet": 2287,
      "▁siir": 2288,
      "▁sahipleri": 2289,
      "▁amerik": 2290,
      "▁fir": 2291,
      "##anıt": 2292,
      "▁ozel": 2293,
      "##til": 2294,
      "[PAD]": 2295,
      "▁mes": 2296,
      "▁uzerine": 2297,
      "▁carsaf": 2298,
      "##alarım": 2299,
      "▁pek": 2300,
      "▁ener": 2301,
      "▁geyik": 2302,
      "▁yuzde": 2303,
      "▁dag": 2304,
      "▁biz": 2305,
      "▁parayı": 2306,
      "▁had": 2307,
      "▁dolarlık": 2308,
      "▁1": 2309,
      "▁birim": 2310,
      "▁ede": 2311,
      "▁hol": 2312,
      "▁alan": 2313,
      "▁yem": 2314,
      "▁bilg": 2315,
      "##diye": 2316,
      "▁zamanlarda": 2317,
      "▁kitab": 2318,
      "▁eser": 2319,
      "▁personel": 2320,
      "▁annesi": 2321,
      "▁devam": 2322,
      "##urg": 2323,
      "##inden": 2324,
      "▁neden": 2325,
      "▁burn": 2326,
      "##ol": 2327,
      "▁..\"": 2328,
      "▁yatırımcılar": 2329,
      "▁kıs": 2330,
      "##alan": 2331,
      "▁philadelphia": 2332,
      "##usunun": 2333,
      "▁ileri": 2334,
      "▁dolar": 2335,
      "▁onun": 2336,
      "▁peyn": 2337,
      "##ut": 2338,
      "▁yılın": 2339,
      "▁has": 2340,
      "##ılım": 2341,
      "▁kulub": 2342,
      "▁sovyet": 2343,
      "▁basar": 2344,
      "▁eglen": 2345,
      "▁ucaga": 2346,
      "▁anlamına": 2347,
      "##lerle": 2348,
      "▁endis": 2349,
      "▁civarı": 2350,
      "##taj": 2351,
      "▁imkan": 2352,
      "##istir": 2353,
      "##eh": 2354,
      "▁ziyaret": 2355,
      "##acag": 2356,
      "▁tamir": 2357,
      "##elerin": 2358,
      "##g": 2359,
      "▁kil": 2360,
      "▁hoca": 2361,
      "▁huk": 2362,
      "▁vakt": 2363,
      "▁gunun": 2364,
      "▁bil": 2365,
      "▁gunler": 2366,
      "##atır": 2367,
      "▁konak": 2368,
      "##tık": 2369,
      "▁dolardan": 2370,
      "▁teslim": 2371,
      "##ılmıs": 2372,
      "▁dun": 2373,
      "▁zincir": 2374,
      "▁hastal": 2375,
      "##lıkta": 2376,
      "▁birkac": 2377,
      "▁ses": 2378,
      "▁sonuc": 2379,
      "▁vadeli": 2380,
      "▁basını": 2381,
      "##iber": 2382,
      "▁tep": 2383,
      "▁re": 2384,
      "▁kırık": 2385,
      "▁misaf": 2386,
      "▁makal": 2387,
      "▁sep": 2388,
      "▁francisco": 2389,
      "▁hayv": 2390,
      "##ıdır": 2391,
      "##ıma": 2392,
      "##leme": 2393,
      "▁mal": 2394,
      "▁butun": 2395,
      "##eb": 2396,
      "▁fiyatları": 2397,
      "##cak": 2398,
      "##mektedir": 2399,
      "▁tucc": 2400,
      "##lestir": 2401,
      "▁pittsburgh": 2402,
      "▁wash": 2403,
      "##umuzde": 2404,
      "▁da": 2405,
      "##ri": 2406,
      "▁yal": 2407,
      "▁ıs": 2408,
      "##tırmak": 2409,
      "▁mobil": 2410,
      "▁yas": 2411,
      "▁petrol": 2412,
      "##diginde": 2413,
      "▁ucuz": 2414,
      "##arlan": 2415,
      "▁yag": 2416,
      "▁og": 2417,
      "▁oldugu": 2418,
      "▁bas": 2419,
      "##isi": 2420,
      "##abı": 2421,
      "▁get": 2422,
      "▁ker": 2423,
      "▁uygul": 2424,
      "▁civ": 2425,
      "▁l": 2426,
      "▁adet": 2427,
      "▁hakkında": 2428,
      "▁sorumluluk": 2429,
      "▁kalite": 2430,
      "▁uf": 2431,
      "▁havayol": 2432,
      "▁herh": 2433,
      "▁durumda": 2434,
      "##x": 2435,
      "##azla": 2436,
      "▁yer": 2437,
      "▁yaklas": 2438,
      "▁dallas": 2439,
      "##lı": 2440,
      "▁kot": 2441,
      "##ret": 2442,
      "▁dıs": 2443,
      "▁ol": 2444,
      "##hangi": 2445,
      "▁oldugunu": 2446,
      "▁karsiligini": 2447,
      "##ecegine": 2448,
      "▁radyo": 2449,
      "▁baba": 2450,
      "##end": 2451,
      "##larla": 2452,
      "##ts": 2453,
      "▁sanat": 2454,
      "▁zorluk": 2455,
      "▁arasındaki": 2456,
      "▁ul": 2457,
      "▁cik": 2458,
      "▁teb": 2459,
      "▁pir": 2460,
      "▁s": 2461,
      "##edi": 2462,
      "▁oran": 2463,
      "▁sekl": 2464,
      "▁asag": 2465,
      "▁pay": 2466,
      "##lerinden": 2467,
      "▁disi": 2468,
      "▁mek": 2469,
      "▁tedbir": 2470,
      "▁mut": 2471,
      "▁tay": 2472,
      "##ina": 2473,
      "▁sok": 2474,
      "▁hacmi": 2475,
      "9": 2476,
      "▁evine": 2477,
      "##duz": 2478,
      "##tıktan": 2479,
      "▁tuketici": 2480,
      "▁kahv": 2481,
      "##kal": 2482,
      "▁ardı": 2483,
      "▁diyor": 2484,
      "▁mec": 2485,
      "##uye": 2486,
      "▁degisim": 2487,
      "▁bagım": 2488,
      "▁bug": 2489,
      "##astır": 2490,
      "##elir": 2491,
      "##ers": 2492,
      "▁din": 2493,
      "##ımızın": 2494,
      "##las": 2495,
      "▁dis": 2496,
      "▁butce": 2497,
      "▁ancak": 2498,
      "▁tel": 2499,
      "▁198": 2500,
      "▁v": 2501,
      "▁uyku": 2502,
      "▁pantol": 2503,
      "▁kolt": 2504,
      "##ima": 2505,
      "##-": 2506,
      "##lendir": 2507,
      "▁dem": 2508,
      "▁ucus": 2509,
      "##etim": 2510,
      "##enk": 2511,
      "▁sistemi": 2512,
      "▁bilgis": 2513,
      "▁saatlerinde": 2514,
      "▁paran": 2515,
      "▁san": 2516,
      ")": 2517,
      "▁sozu": 2518,
      "▁deg": 2519,
      "##det": 2520,
      "▁pitts": 2521,
      "▁hizmet": 2522,
      "##oyu": 2523,
      "▁ucretleri": 2524,
      "▁yaklasık": 2525,
      "▁kopek": 2526,
      "▁ziy": 2527,
      "▁korku": 2528,
      "##atın": 2529,
      "##acılar": 2530,
      "##im": 2531,
      "▁dedim": 2532,
      "▁koc": 2533,
      "##ıp": 2534,
      "▁tey": 2535,
      "##qu": 2536,
      "##iligi": 2537,
      "▁rej": 2538,
      "▁send": 2539,
      "##usunda": 2540,
      "▁kası": 2541,
      "▁sirket": 2542,
      "##ımı": 2543,
      "##di": 2544,
      "▁olum": 2545,
      "▁personellerden": 2546,
      "▁aleyh": 2547,
      "▁ofk": 2548,
      "##suzluk": 2549,
      "▁kabul": 2550,
      "▁bugun": 2551,
      "##ayi": 2552,
      "▁gum": 2553,
      "##d": 2554,
      "▁lez": 2555,
      "▁...\"": 2556,
      "▁teklif": 2557,
      "##lon": 2558,
      "▁cozum": 2559,
      "##ıc": 2560,
      "▁kapas": 2561,
      "▁vakit": 2562,
      "##ha": 2563,
      "##op": 2564,
      "▁deney": 2565,
      "##ip": 2566,
      "-": 2567,
      "▁sozles": 2568,
      "▁dalg": 2569,
      "▁onc": 2570,
      "##uh": 2571,
      "▁kalp": 2572,
      "##atur": 2573,
      "##uk": 2574,
      "\\": 2575,
      "▁kotu": 2576,
      "▁ayd": 2577,
      "##'nda": 2578,
      "▁kimse": 2579,
      "▁fiyatı": 2580,
      "▁vade": 2581,
      "1": 2582,
      "▁sair": 2583,
      "▁dudak": 2584,
      "▁ofis": 2585,
      "##’": 2586,
      "##ac": 2587,
      "▁cevr": 2588,
      "##tıg": 2589,
      "##itr": 2590,
      "▁par": 2591,
      "##ince": 2592,
      "▁iliski": 2593,
      "▁sona": 2594,
      "##anti": 2595,
      "##ng": 2596,
      "▁ortalama": 2597,
      "##ak": 2598,
      "▁uygun": 2599,
      "▁sigara": 2600,
      "##af": 2601,
      "▁yeri": 2602,
      "▁etkisi": 2603,
      "##uklu": 2604,
      "##raz": 2605,
      "▁hav": 2606,
      "▁kurul": 2607,
      "##mak": 2608,
      "##une": 2609,
      "##p": 2610,
      "▁hizmetleri": 2611,
      "▁milyon": 2612,
      "▁herkes": 2613,
      "##dal": 2614,
      "▁paranın": 2615,
      "▁ortasında": 2616,
      "##–": 2617,
      "▁danıs": 2618,
      "▁senet": 2619,
      "▁destek": 2620,
      "▁mun": 2621,
      "▁kurum": 2622,
      "▁kapsam": 2623,
      "##edir": 2624,
      "▁iht": 2625,
      "▁arz": 2626,
      "▁fab": 2627,
      "▁kasab": 2628,
      "##aseb": 2629,
      "▁basta": 2630,
      "▁burası": 2631,
      "##ton": 2632,
      "▁olac": 2633,
      "▁ten": 2634,
      "##ından": 2635,
      "▁ilisk": 2636,
      "▁uzerinde": 2637,
      "▁adina": 2638,
      "##erli": 2639,
      "▁ren": 2640,
      "##hu": 2641,
      "▁zam": 2642,
      "▁paz": 2643,
      "##me": 2644,
      "##alarına": 2645,
      "▁icecek": 2646,
      "▁imk": 2647,
      "▁oteldi": 2648,
      "##ansiyon": 2649,
      "##'y": 2650,
      "##ogram": 2651,
      "▁ayakkabı": 2652,
      "▁cıg": 2653,
      "y": 2654,
      "##iyet": 2655,
      "▁ihrac": 2656,
      "##meyi": 2657,
      "▁hos": 2658,
      "▁cor": 2659,
      "##afet": 2660,
      "##mız": 2661,
      "▁basa": 2662,
      "##unda": 2663,
      "▁istasyon": 2664,
      "##ıy": 2665,
      "##lıklar": 2666,
      "▁rapor": 2667,
      "▁ben": 2668,
      "▁kalkan": 2669,
      "▁hele": 2670,
      "▁tarif": 2671,
      "▁genel": 2672,
      "▁mas": 2673,
      "▁,": 2674,
      "▁kız": 2675,
      "▁yerde": 2676,
      "▁kaz": 2677,
      "##edav": 2678,
      "##oc": 2679,
      "▁evet": 2680,
      "▁kuvv": 2681,
      "▁inter": 2682,
      "##ecegini": 2683,
      "▁donemde": 2684,
      "▁polit": 2685,
      "▁renk": 2686,
      "##ınız": 2687,
      "##egin": 2688,
      "▁dek": 2689,
      "##nız": 2690,
      "▁dil": 2691,
      "##ekli": 2692,
      "##isim": 2693,
      "▁tehd": 2694,
      "##eral": 2695,
      "▁insan": 2696,
      "##aması": 2697,
      "##hane": 2698,
      "▁?": 2699,
      "##ması": 2700,
      "##urlu": 2701,
      "##lug": 2702,
      "▁eglence": 2703,
      "▁olan": 2704,
      "##gili": 2705,
      "▁ates": 2706,
      "▁makine": 2707,
      "▁gosterdi": 2708,
      "▁duvar": 2709,
      "▁hedef": 2710,
      "▁getir": 2711,
      "##asından": 2712,
      "##cilik": 2713,
      "▁sikayet": 2714,
      "▁rad": 2715,
      "▁amerikan": 2716,
      "▁emir": 2717,
      "##inde": 2718,
      "▁kims": 2719,
      "▁televizyon": 2720,
      "▁ortadan": 2721,
      "##ali": 2722,
      "##misti": 2723,
      "▁sordu": 2724,
      "▁balt": 2725,
      "##uguna": 2726,
      "▁sirk": 2727,
      "▁anla": 2728,
      "##iyorum": 2729,
      "▁gozleri": 2730,
      "##lanı": 2731,
      "▁malz": 2732,
      "##mıs": 2733,
      "▁coc": 2734,
      "▁rezervasyon": 2735,
      "▁sebeb": 2736,
      "▁yuzme": 2737,
      "▁temin": 2738,
      "▁fin": 2739,
      "▁ide": 2740,
      "##ıgına": 2741,
      "▁indirim": 2742,
      "##ısız": 2743,
      "▁zor": 2744,
      "##nun": 2745,
      "##ran": 2746,
      "##kul": 2747,
      "##isco": 2748,
      "▁meyve": 2749,
      "##ardı": 2750,
      "▁uzerinden": 2751,
      "▁yuzunden": 2752,
      "##uyorum": 2753,
      "▁yıld": 2754,
      "▁yıldız": 2755,
      "▁yemek": 2756,
      "▁baskı": 2757,
      "▁ana": 2758,
      "▁plani": 2759,
      "▁yardımcı": 2760,
      "▁sozlesme": 2761,
      "##fen": 2762,
      "▁bilgi": 2763,
      "▁amc": 2764,
      "e": 2765,
      "▁gid": 2766,
      "▁efendi": 2767,
      "▁haft": 2768,
      "▁endustri": 2769,
      "▁tu": 2770,
      "▁yeni": 2771,
      "▁dengesi": 2772,
      "▁cadde": 2773,
      "▁konut": 2774,
      "##ındaki": 2775,
      "▁an": 2776,
      "—": 2777,
      "▁maliyet": 2778,
      "▁davranıs": 2779,
      "##ib": 2780,
      "##ırt": 2781,
      "##8'e": 2782,
      "▁yatırımcıların": 2783,
      "##a": 2784,
      "##rak": 2785,
      "##on": 2786,
      "▁mev": 2787,
      "##izdi": 2788,
      "▁vad": 2789,
      "▁kongre": 2790,
      "▁yıla": 2791,
      "##'da": 2792,
      "▁gemi": 2793,
      "▁seyi": 2794,
      "▁acı": 2795,
      "##'e": 2796,
      "##ene": 2797,
      "▁mecl": 2798,
      "##dık": 2799,
      "##dıktan": 2800,
      "##​": 2801,
      "▁york": 2802,
      "▁fabr": 2803,
      "##eticiler": 2804,
      "▁hacim": 2805,
      "▁belki": 2806,
      "▁res": 2807,
      "▁tesisin": 2808,
      "▁heyecan": 2809,
      "##vr": 2810,
      "##ama": 2811,
      "▁tesis": 2812,
      "##ılıgı": 2813,
      "▁yıllar": 2814,
      "▁nokta": 2815,
      "##ola": 2816,
      "▁geldi": 2817,
      "▁ortak": 2818,
      "▁her": 2819,
      "▁mag": 2820,
      "▁turku": 2821,
      "▁ucuslarını": 2822,
      "▁yerden": 2823,
      "##unc": 2824,
      "▁ot": 2825,
      "▁yanı": 2826,
      "##tansiy": 2827,
      "▁am": 2828,
      "▁halde": 2829,
      "▁gozlerini": 2830,
      "▁aileler": 2831,
      "▁dava": 2832,
      "##ede": 2833,
      "##ellikle": 2834,
      "w": 2835,
      "##net": 2836,
      "▁bardagı": 2837,
      "▁makaleye": 2838,
      "##art": 2839,
      "▁dog": 2840,
      "▁olanak": 2841,
      "▁sonuna": 2842,
      "##q": 2843,
      "▁islemlerinde": 2844,
      "##cev": 2845,
      "▁ist": 2846,
      "▁ustune": 2847,
      "▁olabilir": 2848,
      "▁attı": 2849,
      "▁corba": 2850,
      "▁gozlem": 2851,
      "▁dert": 2852,
      "▁hit": 2853,
      "▁bar": 2854,
      "##esiyle": 2855,
      "▁ilet": 2856,
      "▁konumu": 2857,
      "▁insanların": 2858,
      "▁fas": 2859,
      "##adel": 2860,
      "▁str": 2861,
      "##lıgın": 2862,
      "▁savası": 2863,
      "##lit": 2864,
      "▁agır": 2865,
      "##edef": 2866,
      "##emem": 2867,
      "▁sonrası": 2868,
      "▁kon": 2869,
      "##+": 2870,
      "▁halkı": 2871,
      "##ıg": 2872,
      "▁organ": 2873,
      "▁mart": 2874,
      "▁b": 2875,
      "▁kere": 2876,
      "▁hay": 2877,
      "▁eden": 2878,
      "##idi": 2879,
      "##umu": 2880,
      "▁le": 2881,
      "▁zir": 2882,
      "▁suy": 2883,
      "▁ucusun": 2884,
      "▁gazeteci": 2885,
      "▁pazar": 2886,
      "##yet": 2887,
      "▁patates": 2888,
      "▁gos": 2889,
      "▁kelime": 2890,
      "##ont": 2891,
      "+": 2892,
      ";": 2893,
      "▁cıktı": 2894,
      "!": 2895,
      "▁sus": 2896,
      "▁hatta": 2897,
      "▁suk": 2898,
      "▁kaldı": 2899,
      "▁katil": 2900,
      "##nak": 2901,
      "▁temiz": 2902,
      "##%": 2903,
      "▁sup": 2904,
      "▁salon": 2905,
      "▁danısman": 2906,
      "▁ge": 2907,
      "▁hastan": 2908,
      "▁olmasi": 2909,
      "##isten": 2910,
      "##ete": 2911,
      "▁yargıc": 2912,
      "##tur": 2913,
      "##lardan": 2914,
      "▁mesel": 2915,
      "##digim": 2916,
      "▁zinc": 2917,
      "▁gider": 2918,
      "▁bos": 2919,
      "▁personelin": 2920,
      "▁ar": 2921,
      "##lerimizi": 2922,
      "▁sap": 2923,
      "##ikat": 2924,
      "##mis": 2925,
      "▁oper": 2926,
      "▁gen": 2927,
      "▁havalim": 2928,
      "##ent": 2929,
      "##abilecegini": 2930,
      "##ef": 2931,
      "▁em": 2932,
      "##sik": 2933,
      "▁part": 2934,
      "▁aktarmasız": 2935,
      "▁komsu": 2936,
      "▁reform": 2937,
      "##biy": 2938,
      "▁fiyatlarını": 2939,
      "▁erken": 2940,
      "▁sevk": 2941,
      "▁altından": 2942,
      "##etin": 2943,
      "▁tarih": 2944,
      "▁olu": 2945,
      "▁terk": 2946,
      "▁ediyorum": 2947,
      "▁hakim": 2948,
      "▁sayf": 2949,
      "##onra": 2950,
      "▁sur": 2951,
      "▁--": 2952,
      "▁beg": 2953,
      "▁kayıp": 2954,
      "x": 2955,
      "▁mur": 2956,
      "▁koku": 2957,
      "##isler": 2958,
      "▁olma": 2959,
      "▁sonu": 2960,
      "▁gayet": 2961,
      "▁sehrin": 2962,
      "▁kontrol": 2963,
      "▁firması": 2964,
      "▁tehdit": 2965,
      "▁gir": 2966,
      "▁arası": 2967,
      "▁etraf": 2968,
      "▁hissed": 2969,
      "▁olmaya": 2970,
      "▁insanlar": 2971,
      "##de": 2972,
      "##dak": 2973,
      "##ile": 2974,
      "▁isaret": 2975,
      "##u": 2976,
      "▁kullan": 2977,
      "▁vermek": 2978,
      "▁hangi": 2979,
      "▁gunde": 2980,
      "##enek": 2981,
      "##kt": 2982,
      "▁cihaz": 2983,
      "▁sul": 2984,
      "▁senedi": 2985,
      "##ende": 2986,
      "##ecilik": 2987,
      "##iligini": 2988,
      "▁karıs": 2989,
      "##imiz": 2990,
      "▁satım": 2991,
      "##meleri": 2992,
      "▁eylem": 2993,
      "##gu": 2994,
      "##asa": 2995,
      "▁beye": 2996,
      "##eleri": 2997,
      "##liyor": 2998,
      "##kac": 2999,
      "m": 3000,
      "▁getiri": 3001,
      "▁otobus": 3002,
      "▁satır": 3003,
      "▁dergi": 3004,
      "▁mail": 3005,
      "▁mim": 3006,
      "▁genelde": 3007,
      "▁zey": 3008,
      "▁kısmı": 3009,
      "▁bek": 3010,
      "##ılık": 3011,
      "▁anlat": 3012,
      "▁plaji": 3013,
      "▁ode": 3014,
      "▁don": 3015,
      "##ırak": 3016,
      "▁istek": 3017,
      "##maları": 3018,
      "▁karsıl": 3019,
      "▁sa": 3020,
      "▁vardır": 3021,
      "##anından": 3022,
      "##ska": 3023,
      "▁demir": 3024,
      "▁kisinin": 3025,
      "##cul": 3026,
      "##ere": 3027,
      "▁hik": 3028,
      "##ask": 3029,
      "▁aj": 3030,
      "▁oyunc": 3031,
      "j": 3032,
      "▁5": 3033,
      "▁herk": 3034,
      "▁ac": 3035,
      "▁olacak": 3036,
      "▁risk": 3037,
      "▁orada": 3038,
      "##'s": 3039,
      "##aydi": 3040,
      "▁bo": 3041,
      "▁gob": 3042,
      "##lemek": 3043,
      "▁et": 3044,
      "▁(": 3045,
      "▁parmak": 3046,
      "▁sak": 3047,
      "▁rol": 3048,
      "▁turk": 3049,
      "▁mutf": 3050,
      "##unun": 3051,
      "▁sonrasında": 3052,
      "▁yapmayı": 3053,
      "##ize": 3054,
      "▁darb": 3055,
      "▁havaalanından": 3056,
      "▁ed": 3057,
      "▁cic": 3058,
      "▁ekl": 3059,
      "##ec": 3060,
      "▁sandal": 3061,
      "▁sorunu": 3062,
      "##urdu": 3063,
      "▁muzik": 3064,
      "▁is": 3065,
      "▁oranında": 3066,
      "▁.\"": 3067,
      "▁borc": 3068,
      "▁sev": 3069,
      "▁kay": 3070,
      "##amet": 3071,
      "▁st": 3072,
      "##lerinde": 3073,
      "▁kampanyalardan": 3074,
      "##mel": 3075,
      "▁akt": 3076,
      "▁pat": 3077,
      "##gi": 3078,
      "▁cumhur": 3079,
      "▁durum": 3080,
      "▁yemekleri": 3081,
      "▁olay": 3082,
      "##lerimiz": 3083,
      "▁yumurta": 3084,
      "##istler": 3085,
      "▁cocukların": 3086,
      "▁havayollarında": 3087,
      "▁bisik": 3088,
      "▁ucretin": 3089,
      "##'de": 3090,
      "##kah": 3091,
      "##and": 3092,
      "##ını": 3093,
      "##yi": 3094,
      "##mesi": 3095,
      "▁beydi": 3096,
      "▁:": 3097,
      "##id": 3098,
      "▁gayrimen": 3099,
      "##dur": 3100,
      "▁or": 3101,
      "▁manzar": 3102,
      "▁gey": 3103,
      "▁misafir": 3104,
      "▁defter": 3105,
      "▁er": 3106,
      "##yen": 3107,
      "▁havuz": 3108,
      "##4": 3109,
      "##ne": 3110,
      "▁ef": 3111,
      "▁bakıs": 3112,
      "##imin": 3113,
      "▁menkul": 3114,
      "▁yeter": 3115,
      "▁kucuktu": 3116,
      "##udur": 3117,
      "▁girdi": 3118,
      "▁vucu": 3119,
      "▁butu": 3120,
      "▁uret": 3121,
      "▁haf": 3122,
      "▁bolum": 3123,
      "▁yanıt": 3124,
      "▁eger": 3125,
      "▁eks": 3126,
      "▁yatak": 3127,
      "▁basla": 3128,
      "▁tasarruf": 3129,
      "▁dans": 3130,
      "▁nakit": 3131,
      "▁": 3132,
      "▁min": 3133,
      "▁edecek": 3134,
      "▁model": 3135,
      "#": 3136,
      "▁do": 3137,
      "▁8'den": 3138,
      "##eg": 3139,
      "▁yiy": 3140,
      "▁kurulu": 3141,
      "▁fut": 3142,
      "▁burokr": 3143,
      "▁$": 3144,
      "##igini": 3145,
      "▁gaz": 3146,
      "▁ter": 3147,
      "##abil": 3148,
      "▁imkanlar": 3149,
      "▁mot": 3150,
      "##lam": 3151,
      "##6": 3152,
      "▁kus": 3153,
      "##ayacagını": 3154,
      "▁kardesim": 3155,
      "▁faz": 3156,
      "▁laf": 3157,
      "▁buz": 3158,
      "▁kisiler": 3159,
      "▁yoktu": 3160,
      "##ebilir": 3161,
      "▁teknoloji": 3162,
      "▁gi": 3163,
      "▁merak": 3164,
      "▁bulundu": 3165,
      "##lak": 3166,
      "▁hayat": 3167,
      "▁yarıs": 3168,
      "##den": 3169,
      "▁bileti": 3170,
      "▁paket": 3171,
      "▁kısa": 3172,
      "##ver": 3173,
      "##i": 3174,
      "##medim": 3175,
      "▁toz": 3176,
      "##ların": 3177,
      "##uz": 3178,
      "g": 3179,
      "##..": 3180,
      "▁kel": 3181,
      "▁us": 3182,
      "▁rah": 3183,
      "▁sipar": 3184,
      "▁durumunda": 3185,
      "##lıgı": 3186,
      "##isin": 3187,
      "##iden": 3188,
      "##:": 3189,
      "▁ici": 3190,
      "▁hazine": 3191,
      "▁$'dan": 3192,
      "▁raf": 3193,
      "▁ta": 3194,
      "##obil": 3195,
      "▁gorus": 3196,
      "▁unu": 3197,
      "▁gosterin": 3198,
      "▁calısma": 3199,
      "##'ten": 3200,
      "▁muhal": 3201,
      "##amız": 3202,
      "▁ucretlerini": 3203,
      "▁bab": 3204,
      "▁bir": 3205,
      "▁olsa": 3206,
      "##kur": 3207,
      "▁merkeze": 3208,
      "##v": 3209,
      "##sam": 3210,
      "▁edi": 3211,
      "▁personelleri": 3212,
      "▁il": 3213,
      "▁yazar": 3214,
      "▁onemli": 3215,
      "▁aktivite": 3216,
      "▁muhab": 3217,
      "##ih": 3218,
      "▁huc": 3219,
      "▁yahut": 3220,
      "▁sacları": 3221,
      "▁nedenle": 3222,
      "##enler": 3223,
      "##usu": 3224,
      "▁ister": 3225,
      "▁kıymet": 3226,
      "▁'": 3227,
      "▁mevdu": 3228,
      "##dır": 3229,
      "##0'dan": 3230,
      "▁yen": 3231,
      "▁mesaj": 3232,
      "▁birta": 3233,
      "##ilmis": 3234,
      "▁endeks": 3235,
      "##urk": 3236,
      "##imizi": 3237,
      "▁ikram": 3238,
      "▁incel": 3239,
      "##adıgını": 3240,
      "▁gur": 3241,
      "▁ucusları": 3242,
      "##lilik": 3243,
      "▁rengi": 3244,
      "▁ucuyor": 3245,
      "▁gecen": 3246,
      "▁agac": 3247,
      "▁borsa": 3248,
      "▁odamiz": 3249,
      "▁mikr": 3250,
      "▁havaalanı": 3251,
      "▁yil": 3252,
      "▁soz": 3253,
      "##etleri": 3254,
      "##ph": 3255,
      "▁ula": 3256,
      "▁ilac": 3257,
      "##ttı": 3258,
      "▁dunyanın": 3259,
      "▁dikkat": 3260,
      "▁sol": 3261,
      "▁kimi": 3262,
      "▁ban": 3263,
      "▁felsef": 3264,
      "##gunluk": 3265,
      "▁persembe": 3266,
      "▁ag": 3267,
      "▁tav": 3268,
      "▁seklinde": 3269,
      "##meden": 3270,
      "▁sadece": 3271,
      "▁dusun": 3272,
      "▁ila": 3273,
      "##lılık": 3274,
      "##f": 3275,
      "▁yılında": 3276,
      "▁orn": 3277,
      "▁gidis": 3278,
      "##ates": 3279,
      "▁yılda": 3280,
      "▁olursa": 3281,
      "▁hayatı": 3282,
      "▁itir": 3283,
      "##detti": 3284,
      "▁suru": 3285,
      "▁adamın": 3286,
      "▁basbakan": 3287,
      "##igim": 3288,
      "▁cok": 3289,
      "##sın": 3290,
      "##unu": 3291,
      "▁tec": 3292,
      "▁gosteri": 3293,
      "▁sor": 3294,
      "▁mevcut": 3295,
      "##/": 3296,
      "▁gog": 3297,
      "▁ozgur": 3298,
      "▁doktor": 3299,
      "▁af": 3300,
      "▁tek": 3301,
      "▁r": 3302,
      "▁halinde": 3303,
      "▁cab": 3304,
      "▁haz": 3305,
      "▁ves": 3306,
      "##uktu": 3307,
      "▁dair": 3308,
      "▁kitap": 3309,
      "##ediye": 3310,
      "▁ya": 3311,
      "▁ceb": 3312,
      "##cileri": 3313,
      "▁gece": 3314,
      "##eger": 3315,
      "##2": 3316,
      "##tik": 3317,
      "▁kez": 3318,
      "##n": 3319,
      "##siy": 3320,
      "##zet": 3321,
      "##.": 3322,
      "▁kasıgı": 3323,
      "▁suya": 3324,
      "##est": 3325,
      "▁odasına": 3326,
      "##luluk": 3327,
      "▁soyle": 3328,
      "##lıc": 3329,
      "▁kam": 3330,
      "▁boyle": 3331,
      "▁kan": 3332,
      "▁ekim": 3333,
      "▁dak": 3334,
      "▁sag": 3335,
      "##land": 3336,
      "##ekl": 3337,
      "▁pos": 3338,
      "▁nedeniyle": 3339,
      "▁denize": 3340,
      "(": 3341,
      "##5": 3342,
      "▁hazır": 3343,
      "▁yapmaya": 3344,
      "##cıların": 3345,
      "##larını": 3346,
      "▁yagmur": 3347,
      "▁savunma": 3348,
      "▁kodu": 3349,
      "▁alb": 3350,
      "▁kop": 3351,
      "##agı": 3352,
      "▁olmadıgını": 3353,
      "▁kadının": 3354,
      "##makt": 3355,
      "▁dususle": 3356,
      "##iydi": 3357,
      "▁kadını": 3358,
      "##etli": 3359,
      "▁yay": 3360,
      "▁herhangi": 3361,
      "##ir": 3362,
      "▁fatur": 3363,
      "▁etti": 3364,
      "▁ard": 3365,
      "▁tesisi": 3366,
      "##eviz": 3367,
      "▁inc": 3368,
      "▁bakan": 3369,
      "▁karn": 3370,
      "▁adamları": 3371,
      "▁ulkenin": 3372,
      "##aliydi": 3373,
      "▁dizi": 3374,
      "▁yor": 3375,
      "##cag": 3376,
      "▁kalitesi": 3377,
      "▁depr": 3378,
      "▁devir": 3379,
      "▁arttı": 3380,
      "▁dede": 3381,
      "▁temmuz": 3382,
      "##dıgında": 3383,
      "##maz": 3384,
      "##ev": 3385,
      "▁haval": 3386,
      "▁sabah": 3387,
      "▁yiyecek": 3388,
      "▁sam": 3389,
      "▁elem": 3390,
      "▁vuc": 3391,
      "##imizde": 3392,
      "##iski": 3393,
      "▁talep": 3394,
      "▁numar": 3395,
      "▁olduk": 3396,
      "##=": 3397,
      "##ayol": 3398,
      "▁gem": 3399,
      "##ladı": 3400,
      "▁bası": 3401,
      "▁elektrik": 3402,
      "##cu": 3403,
      "▁kol": 3404,
      "##7": 3405,
      "▁sebep": 3406,
      "▁hukum": 3407,
      "##rı": 3408,
      "▁belediye": 3409,
      "▁beklent": 3410,
      "4": 3411,
      "▁kayı": 3412,
      "##h": 3413,
      "##inci": 3414,
      "▁ikinci": 3415,
      "▁bahc": 3416,
      "▁mil": 3417,
      "▁gay": 3418,
      "▁polis": 3419,
      "##erken": 3420,
      "▁iy": 3421,
      "▁tarla": 3422,
      "##iyatr": 3423,
      "##mekten": 3424,
      "▁iler": 3425,
      "▁aqu": 3426,
      "▁cocuklara": 3427,
      "##umuz": 3428,
      "▁cen": 3429,
      "▁baslan": 3430,
      "▁kusur": 3431,
      "##anlar": 3432,
      "7": 3433,
      "▁buraya": 3434,
      "▁program": 3435,
      "▁film": 3436,
      "##(": 3437,
      "▁tip": 3438,
      "▁ilgi": 3439,
      "▁isci": 3440,
      "▁phil": 3441,
      "▁10'dan": 3442,
      "▁yuv": 3443,
      "##kil": 3444,
      "▁havuzu": 3445,
      "##lim": 3446,
      "▁kamyon": 3447,
      "▁rek": 3448,
      "##izli": 3449,
      "▁sıcak": 3450,
      "▁arkasından": 3451,
      "▁sesleri": 3452,
      "##onu": 3453,
      "▁parc": 3454,
      "▁telefon": 3455,
      "▁emek": 3456,
      "##mini": 3457,
      "[MASK]": 3458,
      "▁ayakk": 3459,
      "▁tarihinde": 3460,
      "▁havayollarını": 3461,
      "##ob": 3462,
      "▁ustunde": 3463,
      "▁buldu": 3464,
      "▁kis": 3465,
      "▁ailelere": 3466,
      "##dam": 3467,
      "▁yanına": 3468,
      "##mıslar": 3469,
      "▁fakat": 3470,
      "▁gul": 3471,
      "▁boston'dan": 3472,
      "▁kamu": 3473,
      "▁satısları": 3474,
      "##ldi": 3475,
      "▁yonet": 3476,
      "▁seye": 3477,
      "▁ogrenmek": 3478,
      "▁-": 3479,
      "##ıgın": 3480,
      "▁cal": 3481,
      "▁elektr": 3482,
      "▁harekete": 3483,
      "▁seyden": 3484,
      "##indi": 3485,
      "▁bak": 3486,
      "▁yemeklerin": 3487,
      "##udu": 3488,
      "▁bolg": 3489,
      "▁baltimore": 3490,
      "▁memnun": 3491,
      "##gul": 3492,
      "▁tor": 3493,
      "?": 3494,
      "##yuzlu": 3495,
      "▁cumhurb": 3496,
      "▁sorunları": 3497,
      "▁gordum": 3498,
      "▁''": 3499,
      "▁sal": 3500,
      "##edigini": 3501,
      "##medi": 3502,
      "▁servis": 3503,
      "▁elinde": 3504,
      "▁day": 3505,
      "i": 3506,
      "▁i": 3507,
      "▁masraf": 3508,
      "##attı": 3509,
      "##ısının": 3510,
      "##ren": 3511,
      "##ıgını": 3512,
      "▁soh": 3513,
      "▁urun": 3514,
      "▁reklam": 3515,
      "▁odalari": 3516,
      "##ter": 3517,
      "▁class": 3518,
      "##od": 3519,
      "▁erkek": 3520,
      "▁mahalle": 3521,
      "▁ozellik": 3522,
      "##tr": 3523,
      "##ast": 3524,
      "##andı": 3525,
      "▁sahn": 3526,
      "▁dos": 3527,
      "▁memleket": 3528,
      "▁olanlar": 3529,
      "▁ber": 3530,
      "▁fik": 3531,
      "▁limon": 3532,
      "▁azdi": 3533,
      "##az": 3534,
      "▁ogle": 3535,
      "▁ucusu": 3536,
      "▁per": 3537,
      "_": 3538,
      "▁kar": 3539,
      "▁fel": 3540,
      "s": 3541,
      "##idir": 3542,
      "▁otob": 3543,
      "▁olmak": 3544,
      "##reti": 3545,
      "▁!": 3546,
      "▁cıkar": 3547,
      "##leg": 3548,
      "▁sekret": 3549,
      "##ıgı": 3550,
      "▁…": 3551,
      "▁cad": 3552,
      "▁dusunuyor": 3553,
      "▁om": 3554,
      "▁mezar": 3555,
      "##ez": 3556,
      "▁toplum": 3557,
      "##arak": 3558,
      "▁bey": 3559,
      "▁buyuk": 3560,
      "▁uz": 3561,
      "▁tam": 3562,
      "▁vet": 3563,
      "##ig": 3564,
      "▁proj": 3565,
      "▁kahve": 3566,
      "▁boz": 3567,
      "▁karar": 3568,
      "##alama": 3569,
      "▁degistir": 3570,
      "▁yerini": 3571,
      "##gah": 3572,
      "▁rezerv": 3573,
      "▁memur": 3574,
      "▁tiyatro": 3575,
      "f": 3576,
      "▁bahs": 3577,
      "▁acık": 3578,
      "▁hali": 3579,
      "▁olur": 3580,
      "▁sigorta": 3581,
      "##tar": 3582,
      "▁gibi": 3583,
      "▁cercev": 3584,
      "▁guleryuzlu": 3585,
      "▁aln": 3586,
      "▁dir": 3587,
      "##madim": 3588,
      "▁ediyor": 3589,
      "##oy": 3590,
      "▁davet": 3591,
      "▁meslek": 3592,
      "▁gec": 3593,
      "▁harek": 3594,
      "▁calıs": 3595,
      "##abet": 3596,
      "▁toplant": 3597,
      "##ligi": 3598,
      "▁demokr": 3599,
      "▁davran": 3600,
      "##mustu": 3601,
      "▁haber": 3602,
      "##kk": 3603,
      "##ul": 3604,
      "▁kulak": 3605,
      "##maktadır": 3606,
      "##pan": 3607,
      "##ısını": 3608,
      "▁havayolu": 3609,
      "▁sigort": 3610,
      "▁amac": 3611,
      "##eyen": 3612,
      "▁altına": 3613,
      "▁sohbet": 3614,
      "▁yuzu": 3615,
      "▁sıkıntı": 3616,
      "##ileri": 3617,
      "▁fiyatina": 3618,
      "▁actı": 3619,
      "##erin": 3620,
      "\"": 3621,
      "▁ho": 3622,
      "▁yalnız": 3623,
      "▁araz": 3624,
      "##na": 3625,
      "##elerle": 3626,
      "a": 3627,
      "##ata": 3628,
      "##erans": 3629,
      "▁oyn": 3630,
      "▁gore": 3631,
      "##ler": 3632,
      "##siye": 3633,
      "▁ham": 3634,
      "▁kagı": 3635,
      "##tıgını": 3636,
      "##an": 3637,
      "##ilig": 3638,
      "▁takım": 3639,
      "##uyu": 3640,
      "▁dusman": 3641,
      "▁olanakları": 3642,
      "▁calı": 3643,
      "▁havada": 3644,
      "▁toh": 3645,
      "▁m": 3646,
      "##“": 3647,
      "▁tuz": 3648,
      "##daydi": 3649,
      "▁hizm": 3650,
      "##lıg": 3651,
      "##yon": 3652,
      "##lari": 3653,
      "##anların": 3654,
      "##lanmıs": 3655,
      "[UNK]": 3656,
      "▁uzun": 3657,
      "▁yazı": 3658,
      "▁politik": 3659,
      "▁konusunda": 3660,
      "##asındaki": 3661,
      "▁ile": 3662,
      "▁ankete": 3663,
      "##yacak": 3664,
      "▁havaal": 3665,
      "##he": 3666,
      "##kel": 3667,
      "▁rakip": 3668,
      "##adar": 3669,
      "▁gunlerde": 3670,
      "##arlar": 3671,
      "##elerden": 3672,
      "▁ucrete": 3673,
      "▁sef": 3674,
      "##5'ten": 3675,
      "##cok": 3676,
      "▁ig": 3677,
      "▁arasına": 3678,
      "▁ve": 3679,
      "▁hesap": 3680,
      "▁begen": 3681,
      "▁bog": 3682,
      "▁vur": 3683,
      "▁sart": 3684,
      "##mesine": 3685,
      "▁ocak": 3686,
      "▁mode": 3687,
      "▁tahv": 3688,
      "▁cil": 3689,
      "##iyordu": 3690,
      "##ise": 3691,
      "▁lezzet": 3692,
      "▁/": 3693,
      "▁olmus": 3694,
      "▁yemeklerinden": 3695,
      "##atlar": 3696,
      "▁sikinti": 3697,
      "##lisi": 3698,
      "▁kazan": 3699,
      "6": 3700,
      "▁yemeklerden": 3701,
      "▁konumunu": 3702,
      "▁isini": 3703,
      "▁numara": 3704,
      "##emiz": 3705,
      "▁varlık": 3706,
      "▁egitim": 3707,
      "##ının": 3708,
      "##isle": 3709,
      "▁yolunu": 3710,
      "▁g": 3711,
      "▁otel": 3712,
      "##or": 3713,
      "##asıl": 3714,
      "▁duz": 3715,
      "##ba": 3716,
      "▁hatır": 3717,
      "##ımızda": 3718,
      "##bu": 3719,
      "##asına": 3720,
      "##asyon": 3721,
      "##eti": 3722,
      "▁alıs": 3723,
      "▁lis": 3724,
      "▁yanında": 3725,
      "##iler": 3726,
      "▁tes": 3727,
      "##len": 3728,
      "▁istiyorum": 3729,
      "##yuz": 3730,
      "##medigini": 3731,
      "▁gercek": 3732,
      "▁bana": 3733,
      "▁veril": 3734,
      "##iri": 3735,
      "▁boyu": 3736,
      "▁havayollarının": 3737,
      "##landı": 3738,
      "##ladım": 3739,
      "▁ic": 3740,
      "▁geliri": 3741,
      "##enc": 3742,
      "▁delikan": 3743,
      "▁bur": 3744,
      "▁hukuk": 3745,
      "##elig": 3746,
      "▁muzak": 3747,
      "▁kapandı": 3748,
      "▁gerekiyor": 3749,
      "▁kalmadim": 3750,
      "▁itibar": 3751,
      "▁ellerini": 3752,
      "▁bol": 3753,
      "▁sahip": 3754,
      "##tiler": 3755,
      "##la": 3756,
      "▁pan": 3757,
      "▁anlasma": 3758,
      "▁ver": 3759,
      "▁nefes": 3760,
      "▁havayolları": 3761,
      "##iyorlar": 3762,
      "##oj": 3763,
      "##laya": 3764,
      "▁agz": 3765,
      "▁geliyor": 3766,
      "▁met": 3767,
      "##mı": 3768,
      "##°": 3769,
      "▁bin": 3770,
      "▁problem": 3771,
      "##int": 3772,
      "▁yav": 3773,
      "▁ara": 3774,
      "##eye": 3775,
      "▁az": 3776,
      "▁perform": 3777,
      "▁anlas": 3778,
      "##ur": 3779,
      "▁ail": 3780,
      "##ber": 3781,
      "▁yapar": 3782,
      "▁kal": 3783,
      "▁sac": 3784,
      "▁sokak": 3785,
      "▁top": 3786,
      "▁kah": 3787,
      "▁odalar": 3788,
      "▁ilgil": 3789,
      "▁tan": 3790,
      "##isti": 3791,
      "##emin": 3792,
      "##ınt": 3793,
      "##evi": 3794,
      "▁gelmis": 3795,
      "##pr": 3796,
      "▁tamam": 3797,
      "▁faaliyet": 3798,
      "▁dom": 3799,
      "▁hamam": 3800,
      "▁kum": 3801,
      "▁yapıl": 3802,
      "▁new": 3803,
      "▁miktar": 3804,
      "##edig": 3805,
      "▁mola": 3806,
      "▁har": 3807,
      "##iy": 3808,
      "▁gidi": 3809,
      "##yor": 3810,
      "▁eg": 3811,
      "##esinin": 3812,
      "##dig": 3813,
      "▁odan": 3814,
      "▁sp": 3815,
      "▁durus": 3816,
      "▁dunyaya": 3817,
      "##ege": 3818,
      "▁degerlendir": 3819,
      "▁etme": 3820,
      "▁mak": 3821,
      "▁9": 3822,
      "▁199": 3823,
      "▁uyk": 3824,
      "▁“": 3825,
      "##es": 3826,
      "▁yarın": 3827,
      "##ash": 3828,
      "▁ch": 3829,
      "##lik": 3830,
      "▁al": 3831,
      "▁cam": 3832,
      "▁maliyeti": 3833,
      "##askanı": 3834,
      "##k": 3835,
      "▁ceyrekte": 3836,
      "##eyaz": 3837,
      "##ay": 3838,
      "▁konuyu": 3839,
      "▁su": 3840,
      "▁kov": 3841,
      "##kan": 3842,
      "▁neler": 3843,
      "▁haline": 3844,
      "▁ucu": 3845,
      "##uzluydu": 3846,
      "##oz": 3847,
      "▁esy": 3848,
      "▁beklenti": 3849,
      "▁pers": 3850,
      "##ara": 3851,
      "▁yaln": 3852,
      "##dek": 3853,
      "▁icme": 3854,
      "▁dısarı": 3855,
      "▁aktivit": 3856,
      "##sa": 3857,
      "▁yeme": 3858,
      "##ıt": 3859,
      "▁kisi": 3860,
      "##phia": 3861,
      "▁gorusme": 3862,
      "##ili": 3863,
      "▁taz": 3864,
      "##ana": 3865,
      "▁hus": 3866,
      "▁ikisi": 3867,
      "▁ornek": 3868,
      "▁barıs": 3869,
      "##c": 3870,
      "▁zek": 3871,
      "▁sos": 3872,
      "n": 3873,
      "▁ticaret": 3874,
      "▁cih": 3875,
      "▁durumu": 3876,
      "▁pol": 3877,
      "▁sinir": 3878,
      "▁halka": 3879,
      "▁fayda": 3880,
      "▁satıslar": 3881,
      "▁istem": 3882,
      "▁sayıda": 3883,
      "▁denver'den": 3884,
      "▁yayın": 3885,
      "##uf": 3886,
      "##'na": 3887,
      "##madan": 3888,
      "▁edin": 3889,
      "▁cez": 3890,
      "▁karı": 3891,
      "▁sonuclar": 3892,
      "▁icinde": 3893,
      "▁kalit": 3894,
      "##ucu": 3895,
      "▁sekilde": 3896,
      "▁parcası": 3897,
      "▁bl": 3898,
      "▁itiraz": 3899,
      "##'den": 3900,
      "##tı": 3901,
      "▁ele": 3902,
      "▁fırsat": 3903,
      "▁kade": 3904,
      "##ilen": 3905,
      "▁toplan": 3906,
      "▁)": 3907,
      "##unuz": 3908,
      "##r": 3909,
      "▁insanı": 3910,
      "▁alama": 3911,
      "▁kork": 3912,
      "▁politika": 3913,
      "##oloj": 3914,
      "▁yuksel": 3915,
      "▁kayn": 3916,
      "▁lut": 3917,
      "▁sem": 3918,
      "▁hukumetin": 3919,
      "##geleri": 3920,
      "▁kos": 3921,
      "▁to": 3922,
      "##ele": 3923,
      "▁kavram": 3924,
      "##uru": 3925,
      "▁yurtd": 3926,
      "##des": 3927,
      "##deki": 3928,
      "##anları": 3929,
      "▁e": 3930,
      "##mekt": 3931,
      "▁prens": 3932,
      "▁odaya": 3933,
      "##onun": 3934,
      "##madik": 3935,
      "##ıyordu": 3936,
      "##ku": 3937,
      "▁hisse": 3938,
      "▁deger": 3939,
      "##dik": 3940,
      "▁tesisti": 3941,
      "▁veriyorum": 3942,
      "▁nit": 3943,
      "▁cer": 3944,
      "##cek": 3945,
      "▁kas": 3946,
      "▁karsılık": 3947,
      "▁zar": 3948,
      "▁senetleri": 3949,
      "##ij": 3950,
      "▁ek": 3951,
      "##isindan": 3952,
      "##0": 3953,
      "▁c": 3954,
      "##anın": 3955,
      "▁kısı": 3956,
      "##liginde": 3957,
      "▁gerc": 3958,
      "##ov": 3959,
      "▁sektor": 3960,
      "▁tahta": 3961,
      "​": 3962,
      "▁endise": 3963,
      "##ca": 3964,
      "##manlar": 3965,
      "▁tab": 3966,
      "▁gazet": 3967,
      "▁gelen": 3968,
      "c": 3969,
      "▁korum": 3970,
      "##ht": 3971,
      "▁nes": 3972,
      "##ersiz": 3973,
      "▁personellerinden": 3974,
      "▁icecekler": 3975,
      "▁isin": 3976,
      "##ınc": 3977,
      "▁kurt": 3978,
      "▁dayan": 3979,
      "##les": 3980,
      "▁cevap": 3981,
      "▁olabilirdi": 3982,
      "▁bicimde": 3983,
      "▁okum": 3984,
      "▁grubu": 3985,
      "##tal": 3986,
      "▁eskiydi": 3987,
      "##endi": 3988,
      "##ıyı": 3989,
      "▁lak": 3990,
      "▁ilgilendiler": 3991,
      "▁baska": 3992,
      "##layacak": 3993,
      "▁karsı": 3994,
      "▁bis": 3995,
      "##s": 3996,
      "▁japon": 3997,
      "▁yere": 3998,
      "▁ogretmen": 3999,
      "▁yuks": 4000,
      "##cı": 4001,
      "##acı": 4002,
      "‘": 4003,
      "▁gitti": 4004,
      "##bak": 4005,
      "##sizdi": 4006,
      "##manı": 4007,
      "▁saat": 4008,
      "▁sorun": 4009,
      "▁hizmete": 4010,
      "▁nedenlerden": 4011,
      "▁maz": 4012,
      "▁animasyonlar": 4013,
      "##ye": 4014,
      "▁kuz": 4015,
      "▁kadar": 4016,
      "▁yapım": 4017,
      "▁op": 4018,
      "▁ilgiliydi": 4019,
      "##0'da": 4020,
      "##sim": 4021,
      "##vek": 4022,
      "##suz": 4023,
      "▁fak": 4024,
      "▁birlik": 4025,
      "▁degisiklikler": 4026,
      "##it": 4027,
      "▁civarında": 4028,
      "▁kahval": 4029,
      "▁on": 4030,
      "▁hava": 4031,
      "▁cars": 4032,
      "▁red": 4033,
      "##ebil": 4034,
      "##denin": 4035,
      "▁insana": 4036,
      "##,": 4037,
      "##t": 4038,
      "▁philadel": 4039,
      "##estiri": 4040,
      "▁ingil": 4041,
      "▁ih": 4042,
      "▁konf": 4043,
      "##maktan": 4044,
      "▁washington": 4045,
      "##ıyla": 4046,
      "##arında": 4047,
      "▁z": 4048,
      "▁anlam": 4049,
      "▁portfoy": 4050,
      "##likle": 4051,
      "##ıza": 4052,
      "##go": 4053,
      "##tigi": 4054,
      "h": 4055,
      "▁odadan": 4056,
      "▁bank": 4057,
      "▁tane": 4058,
      "▁yıllık": 4059,
      "▁kır": 4060,
      "▁potansiy": 4061,
      "▁biraz": 4062,
      "##eyh": 4063,
      "▁geriye": 4064,
      "▁araya": 4065,
      "▁hes": 4066,
      "##ust": 4067,
      "▁mis": 4068,
      "##ıl": 4069,
      "▁calisanlar": 4070,
      "▁bayan": 4071,
      "▁gol": 4072,
      "##gesi": 4073,
      "▁mahk": 4074,
      "▁kaldim": 4075,
      "▁bor": 4076,
      "▁oyunu": 4077,
      "##ırtı": 4078,
      "##anc": 4079,
      "▁gok": 4080,
      "##uc": 4081,
      "##ıntı": 4082,
      "##tiv": 4083,
      "▁far": 4084,
      "##ıh": 4085,
      "▁port": 4086,
      "▁soy": 4087,
      "##st": 4088,
      "▁ihtiyacı": 4089,
      "▁cep": 4090,
      "##enleri": 4091,
      "▁kuc": 4092,
      "▁insaat": 4093,
      "##mam": 4094,
      "▁duygu": 4095
    }
  }
}