{
  "version": "1.0",
  "truncation": null,
  "padding": null,
  "added_tokens": [
    {
      "id": 8090,
      "content": "[UNK]",
      "single_word": false,
      "lstrip": false,
      "rstrip": false,
      "normalized": false,
      "special": true
    },
    {
      "id": 8891,
      "content": "[CLS]",
      "single_word": false,
      "lstrip": false,
      "rstrip": false,
      "normalized": false,
      "special": true
    },
    {
      "id": 9199,
      "content": "[SEP]",
      "single_word": false,
      "lstrip": false,
      "rstrip": false,
      "normalized": false,
      "special": true
    },
    {
      "id": 13835,
      "content": "[MASK]",
      "single_word": false,
      "lstrip": false,
      "rstrip": false,
      "normalized": false,
      "special": true
    },
    {
      "id": 16098,
      "content": "[PAD]",
      "single_word": false,
      "lstrip": false,
      "rstrip": false,
      "normalized": false,
      "special": true
    }
  ],
  "normalizer": {
    "type": "Sequence",
    "normalizers": [
      {
        "type": "NFD"
      },
      {
        "type": "Lowercase"
      },
      {
        "type": "StripAccents"
      }
    ]
  },
  "pre_tokenizer": {
    "type": "Sequence",
    "pretokenizers": [
      {
        "type": "Metaspace",
        "replacement": "▁",
        "prepend_scheme": "always",
        "split": true
      }
    ]
  },
  "post_processor": {
    "type": "TemplateProcessing",
    "single": [
      {
        "SpecialToken": {
          "id": "[CLS]",
          "type_id": 0
        }
      },
      {
        "Sequence": {
          "id": "A",
          "type_id": 0
        }
      },
      {
        "SpecialToken": {
          "id": "[SEP]",
          "type_id": 0
        }
      }
    ],
    "pair": [
      {
        "SpecialToken": {
          "id": "[CLS]",
          "type_id": 0
        }
      },
      {
        "Sequence": {
          "id": "A",
          "type_id": 0
        }
      },
      {
        "SpecialToken": {
          "id": "[SEP]",
          "type_id": 0
        }
      },
      {
        "Sequence": {
          "id": "B",
          "type_id": 1
        }
      },
      {
        "SpecialToken": {
          "id": "[SEP]",
          "type_id": 1
        }
      }
    ],
    "special_tokens": {
      "[CLS]": {
        "id": "[CLS]",
        "ids": [
          8891
        ],
        "tokens": [
          "[CLS]"
        ]
      },
      "[SEP]": {
        "id": "[SEP]",
        "ids": [
          9199
        ],
        "tokens": [
          "[SEP]"
        ]
      }
    }
  },
  "decoder": {
    "type": "Metaspace",
    "replacement": "▁",
    "prepend_scheme": "always",
    "split": true
  },
  "model": {
    "type": "Unigram",
    "unk_id": 8090,
    "vocab": [
      [
        "▁v",
        -8.692081206587208
      ],
      [
        "ma",
        -7.885474611994246
      ],
      [
        "▁tabir",
        -10.236820658594093
      ],
      [
        "▁10.",
        -8.301472213220208
      ],
      [
        "rt",
        -9.595664891570264
      ],
      [
        "▁muharrir",
        -10.898742890239834
      ],
      [
        "▁a",
        -3.903267146263205
      ],
      [
        "▁senedi",
        -7.504705214628929
      ],
      [
        "▁cocugum",
        -10.424985835193795
      ],
      [
        "yecegini",
        -9.916143844248625
      ],
      [
        "li",
        -6.581330916874292
      ],
      [
        "▁sallan",
        -9.564839391051692
      ],
      [
        "▁t",
        -7.355080114010372
      ],
      [
        "▁kızgın",
        -8.448632793234832
      ],
      [
        "▁konular",
        -9.554487368654154
      ],
      [
        "le",
        -6.887670592142281
      ],
      [
        "▁girecek",
        -9.457540131244208
      ],
      [
        "kan",
        -10.07300082787973
      ],
      [
        "▁alnı",
        -10.324102695950913
      ],
      [
        "▁artısların",
        -10.701506272547482
      ],
      [
        "ton",
        -10.653424092842902
      ],
      [
        "▁olur",
        -6.1682712966751065
      ],
      [
        "▁bakısları",
        -9.944858122289375
      ],
      [
        "▁ayak",
        -9.563914423574342
      ],
      [
        "▁olmadı",
        -7.986015424290535
      ],
      [
        "▁kolordu",
        -11.09874300207345
      ],
      [
        "▁guler",
        -7.599162004620792
      ],
      [
        "▁parmakları",
        -9.75085011584474
      ],
      [
        "▁gelis",
        -7.943382877162252
      ],
      [
        "ada",
        -9.424767190970815
      ],
      [
        "▁ilerleme",
        -9.746141914442116
      ],
      [
        "▁otekinde",
        -8.996221837263676
      ],
      [
        "▁cocuk",
        -8.93154074160365
      ],
      [
        "▁faaliyetlerin",
        -10.441633649220226
      ],
      [
        "▁deyim",
        -10.489049190700769
      ],
      [
        "▁hissetti",
        -8.555413051097144
      ],
      [
        "▁sa",
        -8.944369765543822
      ],
      [
        "▁getirisini",
        -10.851080112315053
      ],
      [
        "▁dahi",
        -9.629446482352133
      ],
      [
        "▁edildi",
        -7.139347202228309
      ],
      [
        "▁k",
        -6.137620659531643
      ],
      [
        "▁magrur",
        -10.898742895606013
      ],
      [
        "▁kayıt",
        -9.271000595034192
      ],
      [
        "▁illa",
        -8.631037449064294
      ],
      [
        "kırmızı",
        -9.611340950986683
      ],
      [
        "▁bucagı",
        -11.081404883091743
      ],
      [
        "'nun",
        -6.178313541810417
      ],
      [
        "▁halkalar",
        -10.712204731963402
      ],
      [
        "▁perdeler",
        -10.643601917572916
      ],
      [
        "▁degerl",
        -7.960113259088484
      ],
      [
        "abilirdi",
        -8.770862248958405
      ],
      [
        "▁atlar",
        -9.625055767625472
      ],
      [
        "▁yansıtıyor",
        -8.869144445714058
      ],
      [
        "▁carp",
        -9.519901936767521
      ],
      [
        "▁cingene",
        -11.098745843677506
      ],
      [
        "▁dostlugun",
        -10.69180238166255
      ],
      [
        "ik",
        -8.837021963833827
      ],
      [
        "▁antika",
        -10.464600590562497
      ],
      [
        "▁sivil",
        -10.898534186689977
      ],
      [
        "▁oburu",
        -11.098750196841625
      ],
      [
        "▁kesi",
        -9.520326567146453
      ],
      [
        "▁kadar",
        -8.620746066990364
      ],
      [
        "▁he",
        -9.926427091418343
      ],
      [
        "▁dogruldu",
        -9.411623228653365
      ],
      [
        "▁belir",
        -7.5840970746139265
      ],
      [
        "▁donmustu",
        -9.020125745585979
      ],
      [
        "cılar",
        -8.718633913898621
      ],
      [
        "▁kalan",
        -8.425080748862554
      ],
      [
        "▁okuma",
        -9.654536672285763
      ],
      [
        "▁yasamıstı",
        -9.63314066438174
      ],
      [
        "gı",
        -8.890200282843502
      ],
      [
        "▁korunma",
        -10.627607135928349
      ],
      [
        "▁mektubun",
        -10.823857947374085
      ],
      [
        "▁3.4",
        -8.22035603992964
      ],
      [
        "▁meseley",
        -11.014204488935226
      ],
      [
        "▁ortalama",
        -8.786515745869476
      ],
      [
        "▁yogunluk",
        -10.732076731499692
      ],
      [
        "▁ro",
        -8.39270543727789
      ],
      [
        "▁ibm'in",
        -8.485310056827913
      ],
      [
        "gunu",
        -9.13463618454016
      ],
      [
        "▁agını",
        -11.107354779806036
      ],
      [
        "▁kadeh",
        -9.520784374255957
      ],
      [
        "▁david",
        -8.039645432221675
      ],
      [
        "▁yaglı",
        -8.374836103730527
      ],
      [
        "▁bulu",
        -8.599103413617508
      ],
      [
        "lık",
        -6.8596474322881065
      ],
      [
        "▁hedef",
        -8.9046678329255
      ],
      [
        "▁odedigim",
        -6.715099991319124
      ],
      [
        "▁fır",
        -11.056264337358652
      ],
      [
        "ıldıgı",
        -10.978967709126355
      ],
      [
        "▁atısları",
        -11.102406599253442
      ],
      [
        "▁ciddiye",
        -10.347620563736973
      ],
      [
        "▁lık",
        -7.543427626244069
      ],
      [
        "perver",
        -10.8987431459205
      ],
      [
        "▁uste",
        -9.183247697928772
      ],
      [
        "▁fes",
        -10.483922043770065
      ],
      [
        "▁haziranda",
        -11.021676808261075
      ],
      [
        "▁bolumde",
        -10.317297801144576
      ],
      [
        "▁atlanta'da",
        -5.474516033211378
      ],
      [
        "▁yukarıda",
        -10.682532582440862
      ],
      [
        "oru",
        -9.694431277895061
      ],
      [
        "sını",
        -6.90342527436048
      ],
      [
        "▁damda",
        -10.639809077193213
      ],
      [
        "e",
        -3.054524576694323
      ],
      [
        "▁m",
        -8.567339466644851
      ],
      [
        "butun",
        -7.746934219802042
      ],
      [
        "▁icerisin",
        -8.831485723495796
      ],
      [
        "▁damak",
        -8.684806551115543
      ],
      [
        "nacak",
        -9.608031231628273
      ],
      [
        "▁rezalet",
        -10.353108038880926
      ],
      [
        "▁durak",
        -10.079059938069982
      ],
      [
        "▁tasın",
        -10.160911027969554
      ],
      [
        "▁orada",
        -6.679303596995425
      ],
      [
        "▁acmak",
        -9.636258644950392
      ],
      [
        "▁kazanıyor",
        -8.689062561687013
      ],
      [
        "ligimi",
        -9.485678035655123
      ],
      [
        "▁bakım",
        -8.76036620547372
      ],
      [
        "▁yuzuk",
        -10.052222301795428
      ],
      [
        "▁kendi",
        -11.098747551065166
      ],
      [
        "▁esi",
        -8.815857509160333
      ],
      [
        "▁belirttigi",
        -8.71073857022654
      ],
      [
        "▁yaptık",
        -8.652684214003884
      ],
      [
        "▁katibi",
        -10.968577024551914
      ],
      [
        "▁deli",
        -7.876917093199866
      ],
      [
        "ucu",
        -8.345145413273505
      ],
      [
        "▁gucunu",
        -9.567201937159659
      ],
      [
        "una",
        -9.506768456424819
      ],
      [
        "▁dusmustu",
        -8.743361400922172
      ],
      [
        "▁uc",
        -9.284728711532095
      ],
      [
        "▁pes",
        -9.444933402709445
      ],
      [
        "▁yontemi",
        -10.053079658672699
      ],
      [
        "▁tabaklar",
        -10.527963410028919
      ],
      [
        "▁emin",
        -10.737602333335413
      ],
      [
        "▁ufakt",
        -8.561791415378535
      ],
      [
        "▁fitne",
        -11.099499814951871
      ],
      [
        "▁gazeteler",
        -9.969993239561871
      ],
      [
        "adır",
        -9.436848779844958
      ],
      [
        "▁beylik",
        -10.855301868238996
      ],
      [
        "mek",
        -7.7354959134052415
      ],
      [
        "▁komplo",
        -10.46421908062451
      ],
      [
        "▁havayolu",
        -9.555668980488868
      ],
      [
        "▁serisi",
        -9.989887918222113
      ],
      [
        "rli",
        -9.601991864778526
      ],
      [
        "▁guzel",
        -8.23111534209698
      ],
      [
        "▁elestiri",
        -9.5849926510921
      ],
      [
        "▁roportaj",
        -9.447784712675608
      ],
      [
        "▁girisi",
        -10.97300810174758
      ],
      [
        "▁sis",
        -9.3446107704502
      ],
      [
        "isleri",
        -10.912748216779447
      ],
      [
        "▁bakim",
        -8.830475993340073
      ],
      [
        "▁s.",
        -8.818750805044413
      ],
      [
        "▁superdi",
        -7.641162198946157
      ],
      [
        "ınca",
        -6.707064326619587
      ],
      [
        "arı",
        -10.966794253222274
      ],
      [
        "▁goster",
        -8.718733337352766
      ],
      [
        "▁ihrac",
        -9.062575380925031
      ],
      [
        "uza",
        -10.690929091156725
      ],
      [
        "▁merkezi",
        -8.286609967084111
      ],
      [
        "▁tasındı",
        -9.322582025261896
      ],
      [
        "▁acılım",
        -10.89883023854698
      ],
      [
        "kimi",
        -10.985748173163978
      ],
      [
        "▁telefonun",
        -10.55669077379866
      ],
      [
        "▁yılmaz",
        -8.917055525510706
      ],
      [
        "▁vaktini",
        -10.650745149938125
      ],
      [
        "▁altinda",
        -10.905296357078374
      ],
      [
        "▁sin",
        -9.655390832873856
      ],
      [
        "▁dir",
        -4.563511654215546
      ],
      [
        "dım",
        -7.998325249484283
      ],
      [
        "▁iste",
        -9.596026316383613
      ],
      [
        "▁ilkel",
        -9.028092576545527
      ],
      [
        "▁dagın",
        -9.77369733316872
      ],
      [
        "▁altında",
        -7.226090525796954
      ],
      [
        "▁cesitli",
        -8.739485783740289
      ],
      [
        "le",
        -8.669888006096533
      ],
      [
        "yacak",
        -9.476213899102827
      ],
      [
        "▁bela",
        -9.649509207065767
      ],
      [
        "▁bos",
        -6.966195874127998
      ],
      [
        "▁sonucların",
        -9.713410433037618
      ],
      [
        "▁calısıyorlar",
        -8.795378031153225
      ],
      [
        "▁kongre",
        -8.61134168341707
      ],
      [
        "▁huzur",
        -9.571642719259874
      ],
      [
        "tur",
        -10.103164696243192
      ],
      [
        "ra",
        -8.932676757935745
      ],
      [
        "▁almanya'da",
        -8.090421037547184
      ],
      [
        "▁giren",
        -8.956459090328794
      ],
      [
        "▁pat",
        -9.923173746188116
      ],
      [
        "r",
        -11.302702672349785
      ],
      [
        "▁faydalar",
        -11.068014796419446
      ],
      [
        "▁zek",
        -8.85832404812406
      ],
      [
        "▁cezası",
        -9.639633950681477
      ],
      [
        "▁degilsin",
        -7.773018329716753
      ],
      [
        "▁ugrasma",
        -11.074344015165098
      ],
      [
        "▁sim",
        -9.034741066582114
      ],
      [
        "yim",
        -8.070603348884784
      ],
      [
        "▁turban",
        -10.732675065790946
      ],
      [
        "▁belirl",
        -7.873679259010714
      ],
      [
        "▁so",
        -10.840222820833079
      ],
      [
        "…",
        -11.802702672349788
      ],
      [
        "▁or",
        -9.53626212875326
      ],
      [
        "▁i",
        -8.934314101893568
      ],
      [
        "▁sofray",
        -10.82059170587379
      ],
      [
        "▁kelimesini",
        -10.614681688855812
      ],
      [
        "▁cesitleri",
        -8.889070461360774
      ],
      [
        "top",
        -10.901969495038271
      ],
      [
        "▁temsil",
        -8.782755659135798
      ],
      [
        "▁davranislari",
        -10.356281346084245
      ],
      [
        "▁co",
        -6.843950054630211
      ],
      [
        "▁titreme",
        -11.10668131016211
      ],
      [
        "▁",
        -4.9884859387069485
      ],
      [
        "▁pazarlarda",
        -10.628552755386266
      ],
      [
        "▁zengin",
        -7.073573728941109
      ],
      [
        ".50",
        -7.749267556175533
      ],
      [
        "▁gogsunde",
        -10.653522243878193
      ],
      [
        "▁tempo",
        -10.282553665207535
      ],
      [
        "▁bicimde",
        -8.860164264294399
      ],
      [
        "▁gercekles",
        -8.949708447323436
      ],
      [
        "?",
        -8.82882341872089
      ],
      [
        "▁bulundugu",
        -8.182635574567593
      ],
      [
        "▁tam",
        -6.157110276087403
      ],
      [
        "▁onlar",
        -4.15628502075879
      ],
      [
        "▁47",
        -7.711223668926096
      ],
      [
        "elik",
        -7.316834905725904
      ],
      [
        "▁artıs",
        -8.281819652966128
      ],
      [
        "▁adamı",
        -8.49461624903499
      ],
      [
        "▁sepet",
        -9.614176089450508
      ],
      [
        "▁alet",
        -9.609365529344153
      ],
      [
        "dir",
        -7.005721053756499
      ],
      [
        "▁baskaların",
        -9.797290864914842
      ],
      [
        "▁haldun",
        -9.009375260483925
      ],
      [
        "▁mu",
        -8.874830932321231
      ],
      [
        "▁biber",
        -9.406118050083492
      ],
      [
        "▁gorusmedi",
        -8.48412283513543
      ],
      [
        "▁reddedil",
        -9.459791094230278
      ],
      [
        "man",
        -10.557896541030765
      ],
      [
        "sizligin",
        -11.01739142492224
      ],
      [
        "▁degili",
        -4.9352643412096375
      ],
      [
        "▁verdik",
        -8.280559047205497
      ],
      [
        "▁arkada",
        -9.582488757244814
      ],
      [
        "▁cokuyor",
        -9.728208242989252
      ],
      [
        "erkan",
        -8.857899221420547
      ],
      [
        "▁hamil",
        -10.78454236980101
      ],
      [
        "▁arta",
        -7.919814251811303
      ],
      [
        "ist",
        -8.724220420575483
      ],
      [
        "▁yil",
        -8.673921592207703
      ],
      [
        "▁inc",
        -6.94299459218671
      ],
      [
        "▁paul'",
        -7.571377764242304
      ],
      [
        "▁kalfa",
        -10.353136734218573
      ],
      [
        "▁soku",
        -9.094401019995795
      ],
      [
        "'li",
        -9.172782689453415
      ],
      [
        "▁ettigim",
        -9.312585001680715
      ],
      [
        "▁donum",
        -10.23993269568618
      ],
      [
        "▁satmay",
        -9.934159449355931
      ],
      [
        "▁geciriyor",
        -9.131466605130651
      ],
      [
        "▁magazası",
        -10.550535751573864
      ],
      [
        "▁saldırgan",
        -10.896204014988296
      ],
      [
        "▁karınca",
        -10.901692379148175
      ],
      [
        "▁adını",
        -8.595926031573029
      ],
      [
        "▁artıslar",
        -10.502164554883539
      ],
      [
        "onda",
        -10.63537386717591
      ],
      [
        "ınızı",
        -10.069487603720095
      ],
      [
        "yorlar",
        -8.455230317796142
      ],
      [
        "▁talebini",
        -10.527160926268362
      ],
      [
        "▁tesisti",
        -5.84280446430693
      ],
      [
        "lım",
        -9.157971929014987
      ],
      [
        "▁gıda",
        -9.22049549252843
      ],
      [
        "▁sahte",
        -10.8971599114137
      ],
      [
        "▁egilimi",
        -10.081745499721242
      ],
      [
        "▁cantam",
        -11.127521888101324
      ],
      [
        "arca",
        -9.766754463471807
      ],
      [
        "▁kitaplarını",
        -10.723025046836144
      ],
      [
        "ebilecegini",
        -9.22672353297114
      ],
      [
        "▁in",
        -9.11582223285136
      ],
      [
        "▁gulun",
        -9.468716960297787
      ],
      [
        "a",
        -6.240650828353713
      ],
      [
        "▁pilav",
        -10.671302516886783
      ],
      [
        "▁yapamayacag",
        -9.64333082942827
      ],
      [
        "▁uzunluk",
        -10.898747018211578
      ],
      [
        ",",
        -11.199613634584775
      ],
      [
        "▁bezi",
        -10.14738845591567
      ],
      [
        "▁musu",
        -8.715051533902182
      ],
      [
        "▁buz",
        -9.44678153299422
      ],
      [
        "▁nedeni",
        -8.117627738305625
      ],
      [
        "▁stres",
        -10.368361094314794
      ],
      [
        "▁tutam",
        -10.162263496456557
      ],
      [
        "▁getiren",
        -9.253227025540815
      ],
      [
        "▁toparlanma",
        -9.499831256528271
      ],
      [
        "▁tatbik",
        -11.098160324663779
      ],
      [
        "▁nam",
        -10.06587209515886
      ],
      [
        "▁de",
        -8.304880478641218
      ],
      [
        "n",
        -3.3061660798050543
      ],
      [
        "mesin",
        -9.45685009833977
      ],
      [
        "▁binalar",
        -10.754947851223355
      ],
      [
        "▁bitirme",
        -10.174492311648631
      ],
      [
        "misler",
        -9.258607888299847
      ],
      [
        "▁guldu",
        -8.66496070707213
      ],
      [
        "▁iskemle",
        -10.480766963695839
      ],
      [
        "▁ısıgın",
        -10.831725186211868
      ],
      [
        "▁savası'nda",
        -11.099388302323941
      ],
      [
        "gen",
        -10.132146503394326
      ],
      [
        "▁les",
        -10.173929974898284
      ],
      [
        "▁gorun",
        -9.405999975217513
      ],
      [
        "▁annesi",
        -8.646127301452543
      ],
      [
        "sin",
        -6.9993471808312675
      ],
      [
        "▁odene",
        -9.16563136641501
      ],
      [
        "▁and",
        -10.204876877280253
      ],
      [
        "▁dukkanını",
        -11.099297971989758
      ],
      [
        "▁sav",
        -9.782131060563213
      ],
      [
        "▁arastırmaları",
        -10.480214004600233
      ],
      [
        "▁kitabın",
        -10.04403941641528
      ],
      [
        "▁ucagı",
        -9.511970595146169
      ],
      [
        "▁yatar",
        -9.65142099677842
      ],
      [
        "▁basımda",
        -10.377926390995508
      ],
      [
        "tas",
        -9.619745592181305
      ],
      [
        "am",
        -8.20305343986586
      ],
      [
        "▁mobilya",
        -10.126160180884362
      ],
      [
        "v",
        -8.098783892429132
      ],
      [
        "▁annemi",
        -9.179045327941937
      ],
      [
        "alıp",
        -8.996016071762602
      ],
      [
        "▁gidilir",
        -9.627771148582678
      ],
      [
        "▁oldugum",
        -7.761207621413908
      ],
      [
        "▁oder",
        -9.478328339040656
      ],
      [
        "▁ettigi",
        -9.621870448743639
      ],
      [
        "▁kagıdı",
        -9.499812276956746
      ],
      [
        "a",
        -6.06983656308197
      ],
      [
        "▁ankara'y",
        -8.510359156994447
      ],
      [
        "▁olma",
        -7.931604073014841
      ],
      [
        "digimi",
        -10.755121970002483
      ],
      [
        "▁memur",
        -9.266999676353343
      ],
      [
        "▁sorun",
        -9.378352818292381
      ],
      [
        "▁gidi",
        -8.028749344772264
      ],
      [
        "▁promosyonları",
        -11.108576971414909
      ],
      [
        "▁vatanın",
        -10.590994101054719
      ],
      [
        "▁renk",
        -8.621282702067369
      ],
      [
        "▁karsısında",
        -8.340710661550004
      ],
      [
        "▁ez",
        -8.519130447258377
      ],
      [
        "▁be",
        -8.504947737710792
      ],
      [
        "uzlu",
        -9.247903973257936
      ],
      [
        "▁oran",
        -8.230589887650595
      ],
      [
        "▁gerilim",
        -10.262512954066128
      ],
      [
        "▁oluyor",
        -6.699826708232303
      ],
      [
        "▁nebze",
        -10.589219123969027
      ],
      [
        "▁karsilas",
        -9.764718692229765
      ],
      [
        "▁egri",
        -10.589328814931594
      ],
      [
        "▁tuttugu",
        -9.544462500489798
      ],
      [
        "▁asfalt",
        -10.589221502939814
      ],
      [
        "▁anlamak",
        -9.472163464879596
      ],
      [
        "▁sup",
        -7.614106068843844
      ],
      [
        "▁engelleme",
        -10.290805960802665
      ],
      [
        "▁isleme",
        -9.622949818703104
      ],
      [
        "▁industries",
        -8.129913594326528
      ],
      [
        "▁kulaklarım",
        -10.774165287076476
      ],
      [
        "▁otekiler",
        -11.113708763133028
      ],
      [
        "▁er",
        -8.748343172413863
      ],
      [
        "▁gore",
        -9.704402113741812
      ],
      [
        "▁de",
        -9.604033937844175
      ],
      [
        "▁arttır",
        -9.366667167415537
      ],
      [
        "▁gum",
        -10.680026475318252
      ],
      [
        "yel",
        -8.565582910227288
      ],
      [
        "▁fırca",
        -9.742656788349748
      ],
      [
        "▁orta",
        -7.921611910538365
      ],
      [
        "dugu",
        -8.336275553530566
      ],
      [
        "▁yuksel",
        -6.724838392089302
      ],
      [
        "▁phoenix'de",
        -7.104343983014943
      ],
      [
        "▁hic",
        -4.7912109296688214
      ],
      [
        "▁kadınla",
        -10.314322781508332
      ],
      [
        "▁begendi",
        -6.795334310641017
      ],
      [
        "▁cıglıgı",
        -10.834594109075097
      ],
      [
        "▁ustu",
        -8.185164797090874
      ],
      [
        "b",
        -7.087749311720764
      ],
      [
        "▁muhtıra",
        -11.098747998920937
      ],
      [
        "▁turev",
        -10.899691231674723
      ],
      [
        "▁sirketini",
        -9.818668848982217
      ],
      [
        "▁ajansın",
        -10.757236885973807
      ],
      [
        "▁gostere",
        -8.567719247690754
      ],
      [
        "▁olanı",
        -10.271159603920925
      ],
      [
        "beni",
        -8.634569746757018
      ],
      [
        "▁ysan",
        -8.0237624935476
      ],
      [
        "▁baslangıcta",
        -9.945881987610418
      ],
      [
        "▁sistemi",
        -8.629750946535477
      ],
      [
        "▁yas",
        -8.512682856801387
      ],
      [
        "▁alan",
        -8.297622208325881
      ],
      [
        "▁ro",
        -10.459959549267369
      ],
      [
        "▁yagı",
        -9.289902802405908
      ],
      [
        "▁ors",
        -10.74291073051638
      ],
      [
        "▁g",
        -7.539574150770843
      ],
      [
        "▁dus",
        -6.205217174489008
      ],
      [
        "▁dahili",
        -10.347537584649874
      ],
      [
        "▁birbirini",
        -6.541637450514566
      ],
      [
        "▁olacak",
        -11.091960021900691
      ],
      [
        "▁verilir",
        -9.043263701146781
      ],
      [
        "▁otur",
        -9.424166568802827
      ],
      [
        "▁dal",
        -9.096085616456657
      ],
      [
        "▁tavugu",
        -11.098743969624708
      ],
      [
        "▁3.",
        -5.926069570258965
      ],
      [
        "▁pansiyon",
        -10.159750015457991
      ],
      [
        "▁kariyer",
        -10.520829904475306
      ],
      [
        "▁kaza",
        -9.013850004678076
      ],
      [
        "▁houston'",
        -7.473895534382342
      ],
      [
        "▁cıkma",
        -9.102182825816069
      ],
      [
        "10",
        -10.18579754896341
      ],
      [
        "▁cıkıs",
        -9.436133794628118
      ],
      [
        "▁bitirmis",
        -9.731199185989603
      ],
      [
        "▁sembol",
        -10.455741275574596
      ],
      [
        "▁iddialarını",
        -10.54781614081687
      ],
      [
        "el",
        -9.087829601770332
      ],
      [
        "▁avın",
        -10.792983523455458
      ],
      [
        "▁hepimizi",
        -7.106313200253321
      ],
      [
        "ye",
        -7.60897417522296
      ],
      [
        "▁yasıyor",
        -7.967392645640046
      ],
      [
        "▁yuzlerini",
        -10.659192945280513
      ],
      [
        "▁doların",
        -9.225886661886399
      ],
      [
        "▁okur",
        -10.119981395582965
      ],
      [
        "ındaki",
        -6.092440581840933
      ],
      [
        "▁mana",
        -9.510090823079803
      ],
      [
        "▁gitar",
        -10.73203877565662
      ],
      [
        "▁deneyimi",
        -10.543239309668714
      ],
      [
        "▁cevrede",
        -10.628942538094769
      ],
      [
        "▁bu",
        -9.2212377029967
      ],
      [
        "▁tas",
        -8.269863544147771
      ],
      [
        "▁gosteri",
        -9.223051125449295
      ],
      [
        "▁muhtar",
        -10.239895098291358
      ],
      [
        "▁icat",
        -9.687924230529255
      ],
      [
        "▁donanım",
        -10.389082910365794
      ],
      [
        "▁anadolu'da",
        -8.529193878426984
      ],
      [
        "▁kızları",
        -9.756641513161739
      ],
      [
        "los",
        -6.830333516071331
      ],
      [
        "▁teknede",
        -10.42418996231963
      ],
      [
        "▁robert",
        -7.895259777079192
      ],
      [
        "▁aramak",
        -10.640857828005561
      ],
      [
        "ır",
        -8.318480313622686
      ],
      [
        "▁gunahı",
        -10.35340991048471
      ],
      [
        "▁d",
        -7.02374409345008
      ],
      [
        "iyet",
        -10.117623948809115
      ],
      [
        "▁kredisi",
        -10.411214264884691
      ],
      [
        "▁calmay",
        -10.217063866425812
      ],
      [
        "▁karmasası",
        -10.530126662816865
      ],
      [
        "k",
        -4.044470171830262
      ],
      [
        "▁uyudu",
        -9.526080950841699
      ],
      [
        "▁mevzuat",
        -9.910027740071172
      ],
      [
        "▁jandarma",
        -10.241149590110542
      ],
      [
        "▁zorlama",
        -10.92858662676962
      ],
      [
        "▁istedigim",
        -10.95583205799244
      ],
      [
        "▁konusmak",
        -9.671733692150198
      ],
      [
        "▁hud",
        -8.901977272836533
      ],
      [
        "▁calismasi",
        -10.546145615769692
      ],
      [
        "▁ailelerin",
        -9.631935701673036
      ],
      [
        "tigini",
        -10.267081283737568
      ],
      [
        "▁kanepe",
        -10.253111022005287
      ],
      [
        "▁anlasma",
        -7.738990951697572
      ],
      [
        "▁cebinde",
        -9.279792705589772
      ],
      [
        "▁saki",
        -6.997830724557234
      ],
      [
        "milyon",
        -7.731352045643797
      ],
      [
        "▁simdil",
        -9.635198282112885
      ],
      [
        "▁dr",
        -8.891257438833094
      ],
      [
        "▁olabilir",
        -5.896557524552606
      ],
      [
        "▁67",
        -8.123453458739185
      ],
      [
        "▁edep",
        -10.352899296396352
      ],
      [
        "▁24",
        -6.263247141229067
      ],
      [
        "▁donuk",
        -8.251428758321687
      ],
      [
        "▁gereke",
        -8.279110484610474
      ],
      [
        "▁getirilerini",
        -10.63581166437065
      ],
      [
        "▁ureticilerin",
        -10.964470873905485
      ],
      [
        "▁ayda",
        -9.119076714790879
      ],
      [
        "▁yarı",
        -9.433997132215225
      ],
      [
        "▁aralık'ta",
        -7.801440471665967
      ],
      [
        "▁7.",
        -8.257306022793935
      ],
      [
        "▁etkilerini",
        -10.66764854968795
      ],
      [
        "▁kabukları",
        -10.532396239999482
      ],
      [
        "▁acık",
        -6.410109475772573
      ],
      [
        "▁cirkin",
        -11.07120113263923
      ],
      [
        "abe",
        -8.567426442434614
      ],
      [
        "▁anlatıyor",
        -8.761427300797981
      ],
      [
        "▁hasladı",
        -9.689689467817377
      ],
      [
        "▁bekar",
        -10.430233247456663
      ],
      [
        "▁dah",
        -8.480184938324264
      ],
      [
        "▁bilimi",
        -9.993181943176271
      ],
      [
        "bazıları",
        -10.392545928745626
      ],
      [
        "▁pazarlamacılar",
        -10.753018380970627
      ],
      [
        "▁giderler",
        -10.229711176079988
      ],
      [
        "▁bankacılıgı",
        -10.733845143760007
      ],
      [
        "▁harita",
        -9.798914371780947
      ],
      [
        "▁muzayede",
        -10.732077534235447
      ],
      [
        "tek",
        -9.645305247964746
      ],
      [
        "▁tehdidi",
        -10.153234551420407
      ],
      [
        "dokuz",
        -8.258690066936506
      ],
      [
        "ler",
        -6.545964428951377
      ],
      [
        "▁dusunu",
        -8.838640855762765
      ],
      [
        "▁problem",
        -8.57825616518942
      ],
      [
        "▁dalgı",
        -9.038168100235989
      ],
      [
        "▁ola",
        -3.676043512832143
      ],
      [
        "▁kısın",
        -8.365500774839033
      ],
      [
        "▁san",
        -4.252714316006625
      ],
      [
        "▁olmayabilir",
        -9.321134294339434
      ],
      [
        "▁karaborsa",
        -10.828979135774622
      ],
      [
        "▁sundu",
        -8.913114996629078
      ],
      [
        "▁alınmıstı",
        -9.544909878198785
      ],
      [
        "▁kuf",
        -10.039587849243127
      ],
      [
        "▁aygıtlar",
        -11.098896962455544
      ],
      [
        "o",
        -7.77720322345715
      ],
      [
        "▁dusmanı",
        -10.10818018307153
      ],
      [
        "▁sıralarda",
        -10.260972840301083
      ],
      [
        "▁temsilcileri",
        -9.991572796786683
      ],
      [
        "▁soguk",
        -7.14116228744034
      ],
      [
        "▁gogus",
        -9.824795625625725
      ],
      [
        "▁cocukların",
        -8.790181971231123
      ],
      [
        "▁onlar",
        -7.358829322235774
      ],
      [
        "▁pisir",
        -9.569895014924938
      ],
      [
        "▁bakıslar",
        -11.050959612291349
      ],
      [
        "▁tedirginlik",
        -11.10239712474378
      ],
      [
        "▁yat",
        -8.849823343473737
      ],
      [
        "▁196",
        -7.207712602246048
      ],
      [
        "▁dır",
        -4.287573368195668
      ],
      [
        "▁gitmey",
        -9.500926758255659
      ],
      [
        "▁kokleri",
        -11.110553778175827
      ],
      [
        "▁gelecek",
        -7.968610117532005
      ],
      [
        "▁macera",
        -10.162220469947307
      ],
      [
        "meye",
        -7.389797605555886
      ],
      [
        "▁akıl",
        -8.810568894068135
      ],
      [
        "▁tesisin",
        -7.618412223583805
      ],
      [
        "mis",
        -6.347888680277905
      ],
      [
        "▁magazin",
        -10.253107970363251
      ],
      [
        "amayacak",
        -9.694727329678377
      ],
      [
        "degildi",
        -6.026328461764027
      ],
      [
        "▁murekke",
        -10.353107969289706
      ],
      [
        "▁koru",
        -9.530772835516238
      ],
      [
        "▁sirke",
        -10.011192751803538
      ],
      [
        "▁salonlarında",
        -11.113110262914399
      ],
      [
        "▁evladı",
        -10.151602664333046
      ],
      [
        "ok",
        -11.972366785461768
      ],
      [
        "▁tarifeleri",
        -10.412003585415993
      ],
      [
        "▁artı",
        -8.581293221837413
      ],
      [
        "▁sili",
        -9.437186887339038
      ],
      [
        "ilmi",
        -9.656133443422714
      ],
      [
        "▁d",
        -9.995414436185875
      ],
      [
        "dari",
        -9.361888183096333
      ],
      [
        "▁parmagı",
        -10.18285240625967
      ],
      [
        "▁agres",
        -9.319321390374053
      ],
      [
        "▁alma",
        -8.855958064310595
      ],
      [
        "▁olurdu",
        -7.791669779447872
      ],
      [
        "▁aklınızda",
        -11.076405838041135
      ],
      [
        "5000",
        -7.739843722105653
      ],
      [
        "▁merdivenleri",
        -10.171418476582588
      ],
      [
        "▁alacak",
        -9.284497420083515
      ],
      [
        "▁garsonlar",
        -9.540458596918626
      ],
      [
        "▁engelli",
        -11.034202424066727
      ],
      [
        "▁yufka",
        -10.46421908247975
      ],
      [
        "▁paralar",
        -10.2837479828545
      ],
      [
        "▁cekil",
        -9.60373445212977
      ],
      [
        "▁es",
        -8.308701657809824
      ],
      [
        "▁gitmedi",
        -8.724300407142602
      ],
      [
        "an",
        -8.145310038240687
      ],
      [
        "▁olmaları",
        -9.574717722290838
      ],
      [
        "▁getirmisti",
        -9.219437243881806
      ],
      [
        "sı",
        -7.695684531623616
      ],
      [
        "mi",
        -8.398528929653352
      ],
      [
        "zu",
        -10.455679859822466
      ],
      [
        "ler",
        -8.293736253779967
      ],
      [
        "▁yatırımcılar",
        -8.021584723263244
      ],
      [
        "▁sana",
        -5.075330108084433
      ],
      [
        "unuz",
        -10.023813282184637
      ],
      [
        "▁it",
        -10.409063280281586
      ],
      [
        "a",
        -3.8394838638049187
      ],
      [
        "▁rahat",
        -9.481696463121617
      ],
      [
        "▁vadede",
        -9.635122016499409
      ],
      [
        "▁kendim",
        -6.106222814598597
      ],
      [
        "▁lisan",
        -10.162096302806404
      ],
      [
        "an",
        -5.165519414905496
      ],
      [
        "ze",
        -10.367844327651936
      ],
      [
        "▁tenkit",
        -11.09874483578838
      ],
      [
        "▁karsılas",
        -9.307454548481683
      ],
      [
        "▁takas",
        -11.116820436261568
      ],
      [
        "ledi",
        -9.234290975988667
      ],
      [
        "▁makyaj",
        -11.098742917755606
      ],
      [
        "▁istihbarat",
        -10.162198887420228
      ],
      [
        "▁ceyrek",
        -8.05390827729964
      ],
      [
        "▁cıkacak",
        -8.421362773231149
      ],
      [
        "▁iltifat",
        -10.353108041379006
      ],
      [
        "▁carpar",
        -9.612769144879495
      ],
      [
        "▁kayb",
        -11.012432837599537
      ],
      [
        "lamasını",
        -10.762578334944514
      ],
      [
        "mme",
        -8.46388241452652
      ],
      [
        "mayı",
        -9.7388484642945
      ],
      [
        "▁adam",
        -8.475984371500044
      ],
      [
        "▁akord",
        -11.098764053693772
      ],
      [
        "ndan",
        -6.766076046760257
      ],
      [
        "▁kesti",
        -8.413305300365177
      ],
      [
        "▁hikayesi",
        -9.91183226477921
      ],
      [
        "▁olan",
        -6.013053923143989
      ],
      [
        "▁icerde",
        -10.642571214729186
      ],
      [
        "▁cumhuriyet",
        -9.270398578193625
      ],
      [
        "▁cop",
        -9.147210340432693
      ],
      [
        "▁kayda",
        -10.261352149184969
      ],
      [
        "▁sat",
        -9.4013937565701
      ],
      [
        "▁memnunu",
        -9.863901080986903
      ],
      [
        "▁baktı",
        -7.271614441841624
      ],
      [
        "▁yıgını",
        -10.577647842898111
      ],
      [
        "tı",
        -8.911214811714785
      ],
      [
        "▁dudakları",
        -10.025987855894588
      ],
      [
        "▁newark'",
        -7.324007278679551
      ],
      [
        "larını",
        -8.53913733463688
      ],
      [
        "▁eyaleti",
        -10.655984228109862
      ],
      [
        "▁hukumleri",
        -10.548364449695223
      ],
      [
        "\"",
        -9.551382640195548
      ],
      [
        "▁tereddut",
        -10.353107968681512
      ],
      [
        "▁tatbikat",
        -10.899221688139932
      ],
      [
        "▁tef",
        -9.92752784640301
      ],
      [
        "▁cıka",
        -7.995320739530353
      ],
      [
        "▁kafası",
        -9.624786037610889
      ],
      [
        "en",
        -8.333530082193722
      ],
      [
        "▁yo",
        -5.081569992204334
      ],
      [
        "▁masraf",
        -9.65304567369512
      ],
      [
        "lo",
        -8.76995647449261
      ],
      [
        "▁yasama",
        -8.455671470847976
      ],
      [
        "▁tepki",
        -8.734138648929592
      ],
      [
        "▁ajanları",
        -11.102391071828444
      ],
      [
        "▁sefer",
        -9.432524293974817
      ],
      [
        "▁yunus",
        -10.899036630889581
      ],
      [
        "▁organ",
        -10.326190746114412
      ],
      [
        "▁egitim",
        -8.608605471742159
      ],
      [
        "▁umut",
        -9.21981472645442
      ],
      [
        "▁kom",
        -11.096492035000571
      ],
      [
        "▁temizleme",
        -10.086816459017996
      ],
      [
        "▁",
        -3.6118163054088397
      ],
      [
        "▁uzer",
        -10.08372679436448
      ],
      [
        "▁sekil",
        -9.748264159171061
      ],
      [
        "▁karsıladı",
        -8.863313040957808
      ],
      [
        "▁suları",
        -9.466367961765556
      ],
      [
        "▁hicbirinde",
        -9.545218562396931
      ],
      [
        "▁kaybetme",
        -9.642095552894686
      ],
      [
        "▁gormuyor",
        -9.349768531152748
      ],
      [
        "▁ontario'",
        -8.450110893428377
      ],
      [
        "▁mırıl",
        -11.098742970474378
      ],
      [
        "▁imaj",
        -10.555240876451588
      ],
      [
        "▁cel",
        -10.396356743921412
      ],
      [
        "▁seyre",
        -9.531556805761328
      ],
      [
        "▁gucle",
        -10.761749214488002
      ],
      [
        "▁ettigim",
        -9.59301140162187
      ],
      [
        "▁saatinde",
        -10.501523531067864
      ],
      [
        "▁kararlar",
        -10.155143901713691
      ],
      [
        "▁benzini",
        -10.999852938491475
      ],
      [
        "▁fonlar",
        -9.0551088285899
      ],
      [
        "▁biletin",
        -10.868222927516438
      ],
      [
        "▁is",
        -6.452709605661608
      ],
      [
        "▁kendimiz",
        -6.381187203357939
      ],
      [
        "▁co",
        -8.89639960851453
      ],
      [
        "▁hissediyor",
        -9.017638905327795
      ],
      [
        "▁birimler",
        -10.808795207347778
      ],
      [
        "in",
        -6.699953591494115
      ],
      [
        "▁yarın",
        -7.696468994744157
      ],
      [
        "▁yattı",
        -9.033256655099436
      ],
      [
        "▁hari",
        -7.715060009443443
      ],
      [
        "▁elde",
        -7.461006573902346
      ],
      [
        "▁bankaların",
        -10.032173075911073
      ],
      [
        "▁edil",
        -8.580978956221816
      ],
      [
        "▁gozlem",
        -9.405680981065702
      ],
      [
        "▁acıklamasını",
        -10.699199418445573
      ],
      [
        "▁cekiyor",
        -8.588150009677486
      ],
      [
        "▁doları",
        -7.710799978035839
      ],
      [
        "▁seviyelerde",
        -10.614000229721208
      ],
      [
        "ktan",
        -7.654230975094041
      ],
      [
        "▁yangın",
        -9.246013094750262
      ],
      [
        "▁tv",
        -7.8500461917645055
      ],
      [
        "▁kabak",
        -10.934923436373662
      ],
      [
        "ut",
        -7.534273502585786
      ],
      [
        "▁kopu",
        -9.187964297737874
      ],
      [
        "▁dolapta",
        -10.639437044373071
      ],
      [
        "▁kapsamın",
        -10.453904636831837
      ],
      [
        "gimiz",
        -9.222165825747538
      ],
      [
        "75",
        -6.51104329968174
      ],
      [
        "▁unlu",
        -10.590086728807195
      ],
      [
        "▁kavga",
        -9.17061472128658
      ],
      [
        "▁k",
        -6.177711871566743
      ],
      [
        "cusu",
        -8.655945843098744
      ],
      [
        "▁cilt",
        -10.254568226180691
      ],
      [
        "▁kosar",
        -8.545452459367537
      ],
      [
        "▁tuttu",
        -7.713696386582987
      ],
      [
        "▁katı",
        -9.489353793165773
      ],
      [
        "'li",
        -9.501379903322782
      ],
      [
        "aydır",
        -9.034877669951646
      ],
      [
        "▁basla",
        -10.60004854398324
      ],
      [
        "▁ayn",
        -8.14989803709778
      ],
      [
        "▁kuvvetin",
        -10.820640442105509
      ],
      [
        "▁tencerey",
        -10.383590675425406
      ],
      [
        "▁co",
        -7.606645075847941
      ],
      [
        "▁olusu",
        -9.457283243492556
      ],
      [
        "▁iyi",
        -4.128386314809931
      ],
      [
        "▁buyume",
        -9.27461449118903
      ],
      [
        "▁attı",
        -7.25322987330236
      ],
      [
        "ya",
        -7.487244857637893
      ],
      [
        "▁dallas'ta",
        -5.771591626541849
      ],
      [
        "his",
        -8.33901680755023
      ],
      [
        "▁75",
        -7.581183556368481
      ],
      [
        "▁so",
        -8.309792448383982
      ],
      [
        "▁kilimler",
        -10.963542431449987
      ],
      [
        "▁dus",
        -8.897064479356064
      ],
      [
        "▁nere",
        -7.87386553786739
      ],
      [
        "aksız",
        -9.030210291030311
      ],
      [
        "h",
        -9.58738434855196
      ],
      [
        "▁saati",
        -9.22235749452048
      ],
      [
        "▁blok",
        -10.960632915372052
      ],
      [
        "▁sessiz",
        -7.411728800344441
      ],
      [
        "▁oncesinde",
        -9.90729800929556
      ],
      [
        "▁felaketin",
        -10.829803818362729
      ],
      [
        "▁gaflet",
        -10.89880275928137
      ],
      [
        "▁herkes",
        -4.990935261703556
      ],
      [
        "▁sergile",
        -9.655445398990196
      ],
      [
        "▁gm",
        -8.454675240671016
      ],
      [
        "▁park",
        -8.941543906607727
      ],
      [
        "▁kurul",
        -9.236160089244667
      ],
      [
        "▁koyler",
        -10.82407588756923
      ],
      [
        "▁okuyor",
        -9.196920095084089
      ],
      [
        "▁umum",
        -9.045380790119365
      ],
      [
        "▁agac",
        -8.605180669019786
      ],
      [
        "▁nes",
        -8.785911889162616
      ],
      [
        "▁secim",
        -8.379410671128163
      ],
      [
        "▁",
        -0.7087938101118976
      ],
      [
        "▁edebilme",
        -10.898819049366185
      ],
      [
        "▁zat",
        -10.59416729465338
      ],
      [
        "▁koyuldu",
        -8.89875671324944
      ],
      [
        "▁aktor",
        -9.802979810035513
      ],
      [
        "▁siddetin",
        -10.567434138314393
      ],
      [
        "▁bagımsızlık",
        -10.73207674422731
      ],
      [
        "▁duz",
        -9.50285347361229
      ],
      [
        "▁ayrıl",
        -11.080674671550346
      ],
      [
        "▁senin",
        -5.127217236835529
      ],
      [
        "▁basım",
        -8.878461927263594
      ],
      [
        "▁internette",
        -10.143387693071421
      ],
      [
        "▁goruldu",
        -9.404579183035052
      ],
      [
        "▁kapasitesin",
        -10.55455386782639
      ],
      [
        "▁pilotu",
        -10.720914620522779
      ],
      [
        "▁g",
        -9.078627178562964
      ],
      [
        "▁okullar",
        -9.767645981575152
      ],
      [
        "▁ulasma",
        -9.32256231393304
      ],
      [
        "▁anlatmaya",
        -9.370417672083455
      ],
      [
        "▁a.b.d.",
        -7.883420276119656
      ],
      [
        "▁sikayet",
        -9.030657953916057
      ],
      [
        "▁iddiaların",
        -10.669658562152003
      ],
      [
        "▁fu",
        -8.703028569628252
      ],
      [
        "▁pancar",
        -11.098743210021029
      ],
      [
        "▁eldiven",
        -10.46421909563648
      ],
      [
        "▁vadi",
        -10.587075486768477
      ],
      [
        "▁matematik",
        -9.490867444343651
      ],
      [
        "niye",
        -7.497200092075518
      ],
      [
        "▁gozetim",
        -10.589954887837848
      ],
      [
        "yle",
        -5.965541902815372
      ],
      [
        "▁gozyası",
        -10.002303903827755
      ],
      [
        "▁yazmay",
        -10.771438151892973
      ],
      [
        "▁sorunlarını",
        -9.961019039761394
      ],
      [
        "▁k",
        -10.063072332257288
      ],
      [
        "lu",
        -5.7724310591815975
      ],
      [
        "▁dayana",
        -8.799917782294369
      ],
      [
        "▁bilgilendirilme",
        -9.80134723266193
      ],
      [
        "ev",
        -10.918069553244798
      ],
      [
        "▁hayra",
        -10.896242996022854
      ],
      [
        "▁som",
        -10.789015116681185
      ],
      [
        "▁kısmın",
        -10.514180161978652
      ],
      [
        "nın",
        -7.557663351227015
      ],
      [
        "▁katında",
        -9.836857927698363
      ],
      [
        "▁hukuk",
        -8.631349520553679
      ],
      [
        "▁cocuktu",
        -9.31737394316933
      ],
      [
        "▁guresci",
        -10.738260392044564
      ],
      [
        "▁askeri",
        -10.652522597211
      ],
      [
        "siz",
        -9.867433989931861
      ],
      [
        "▁gaziantep",
        -9.009391369544685
      ],
      [
        "masını",
        -8.295029023417266
      ],
      [
        "▁bakıs",
        -9.238825031548396
      ],
      [
        "▁ikili",
        -9.58151124521824
      ],
      [
        "▁acı",
        -8.163002790520887
      ],
      [
        "▁fısıl",
        -10.898807310083509
      ],
      [
        "▁cember",
        -10.944967115091838
      ],
      [
        "▁titrey",
        -8.773352059059905
      ],
      [
        "vası",
        -7.7579027535534415
      ],
      [
        "▁imparator",
        -11.097722262426988
      ],
      [
        "▁karsı",
        -6.153679112273401
      ],
      [
        "izm",
        -10.120943183726556
      ],
      [
        "▁yasaların",
        -10.433801193404053
      ],
      [
        "▁mekan",
        -9.111083749082232
      ],
      [
        "▁duzenlen",
        -9.284050694508311
      ],
      [
        "re",
        -4.844554200876263
      ],
      [
        "▁gectik",
        -10.464360515566696
      ],
      [
        "▁erkeg",
        -10.874229634107104
      ],
      [
        "▁kes",
        -10.574112962275727
      ],
      [
        "▁koltuk",
        -9.322664769275736
      ],
      [
        "▁talepte",
        -10.972011388468333
      ],
      [
        "▁ustlen",
        -9.305446198659494
      ],
      [
        "▁mus",
        -9.844904436314202
      ],
      [
        "▁doldurdu",
        -8.343803890317679
      ],
      [
        "▁otomobilin",
        -10.384054943729994
      ],
      [
        "▁c",
        -6.895016804484409
      ],
      [
        "dik",
        -8.13981050282566
      ],
      [
        "sızı",
        -8.737819875985311
      ],
      [
        "si",
        -6.160743120187302
      ],
      [
        "▁kabugu",
        -10.359635015921947
      ],
      [
        "▁geldigi",
        -8.825769745898913
      ],
      [
        "▁istemem",
        -9.191895149338546
      ],
      [
        "▁gumus",
        -8.45347510151566
      ],
      [
        "▁li",
        -8.862000220964086
      ],
      [
        "▁aralarında",
        -9.191413816217004
      ],
      [
        "lestirme",
        -10.426968545781401
      ],
      [
        "▁2.6",
        -7.411926299767766
      ],
      [
        "▁1961",
        -8.313426206804428
      ],
      [
        "ern",
        -8.897908908637907
      ],
      [
        "▁dusur",
        -9.421173285221858
      ],
      [
        "'nu",
        -9.049754453189497
      ],
      [
        "▁saglıgın",
        -10.385469887356674
      ],
      [
        "▁konuları",
        -9.933464505787292
      ],
      [
        "▁der",
        -7.849971682503481
      ],
      [
        "▁faaliyetleri",
        -9.744078765378738
      ],
      [
        "▁toplumu",
        -10.323847004894468
      ],
      [
        "▁karısma",
        -10.218957035880813
      ],
      [
        "▁opsiyonu",
        -10.304050069439379
      ],
      [
        "▁inek",
        -10.028129385111804
      ],
      [
        "▁kansas",
        -6.518973960745943
      ],
      [
        "▁kalmadı",
        -8.07885053771076
      ],
      [
        "▁cıkarların",
        -10.845707583144979
      ],
      [
        "▁gordugum",
        -10.740582979502909
      ],
      [
        "▁oteki",
        -9.692115125740024
      ],
      [
        "uydu",
        -7.92503089221419
      ],
      [
        "▁ulasımı",
        -8.00385691314715
      ],
      [
        "▁girer",
        -8.047292840370904
      ],
      [
        "▁sanat",
        -8.07719333470969
      ],
      [
        "▁bin",
        -9.321965960833829
      ],
      [
        "▁mas",
        -10.444628660386353
      ],
      [
        "▁kahkaha",
        -9.539767290230193
      ],
      [
        "igi",
        -9.77836931493195
      ],
      [
        "▁7\\/",
        -6.8180399467908055
      ],
      [
        "▁sır",
        -9.143795561577488
      ],
      [
        "▁kas",
        -8.944697817678689
      ],
      [
        "▁adın",
        -9.063908379198153
      ],
      [
        "▁kervan",
        -10.673468118734892
      ],
      [
        "▁komur",
        -9.545087091509055
      ],
      [
        "▁dayanagı",
        -10.732193905066316
      ],
      [
        "kalan",
        -8.291973658772934
      ],
      [
        "▁dinliyordu",
        -9.42567537767907
      ],
      [
        "▁vesika",
        -10.810452586846116
      ],
      [
        "▁hep",
        -5.352880005653416
      ],
      [
        "adın",
        -8.996840684776823
      ],
      [
        "▁cesitlilik",
        -9.255945985729307
      ],
      [
        "▁california'da",
        -8.308713773943015
      ],
      [
        "▁fransızlar",
        -10.939367164243151
      ],
      [
        "▁seyim",
        -10.778407859309814
      ],
      [
        "legen",
        -11.104062084901653
      ],
      [
        "▁yapacagı",
        -9.425790165847344
      ],
      [
        "▁tavan",
        -9.448846129537332
      ],
      [
        "▁gonlu",
        -10.42368404212563
      ],
      [
        "▁sessizligi",
        -10.959399578177674
      ],
      [
        "▁'",
        -6.637335732928985
      ],
      [
        "sizligini",
        -10.601102136950082
      ],
      [
        "▁trans",
        -10.899388415590602
      ],
      [
        "▁kemal",
        -10.58920205168662
      ],
      [
        "hepsi",
        -9.45073239399945
      ],
      [
        "likleri",
        -10.684461977672438
      ],
      [
        ".",
        -10.816260684444153
      ],
      [
        "▁maruz",
        -11.098749068421416
      ],
      [
        "▁isaretler",
        -10.242735209105524
      ],
      [
        "ilk",
        -9.787648671915584
      ],
      [
        "▁kosuyor",
        -9.330250448657148
      ],
      [
        "▁aday",
        -9.332050368410783
      ],
      [
        "▁samar",
        -10.899220086388906
      ],
      [
        "verecegini",
        -10.266895428572763
      ],
      [
        "▁hali",
        -7.346246457342755
      ],
      [
        "▁boslugun",
        -10.801783284583523
      ],
      [
        "▁ana",
        -8.306232647575513
      ],
      [
        "▁louis'",
        -7.6848737944468155
      ],
      [
        "▁gucunde",
        -11.006165382294306
      ],
      [
        "▁tarh",
        -10.353595659292338
      ],
      [
        "▁catma",
        -10.741780689236972
      ],
      [
        "▁kul",
        -9.386515611669667
      ],
      [
        "▁hat",
        -6.713593743546249
      ],
      [
        "▁calisi",
        -9.576921723524043
      ],
      [
        "ig",
        -8.93184387745744
      ],
      [
        "▁yaparı",
        -9.612474555844104
      ],
      [
        "▁ayrı",
        -10.437421300160278
      ],
      [
        "▁nisan",
        -8.878914561304736
      ],
      [
        "▁yaptirmadi",
        -7.644390026186295
      ],
      [
        "▁ceset",
        -11.035480675453169
      ],
      [
        "j",
        -9.38279836777088
      ],
      [
        "00",
        -5.835146209538178
      ],
      [
        "ten",
        -6.001337085484257
      ],
      [
        "▁almalar",
        -10.19361282644823
      ],
      [
        "▁miami",
        -8.334919779298076
      ],
      [
        "▁reddetti",
        -7.3475373174665854
      ],
      [
        "▁mantık",
        -10.075772145490273
      ],
      [
        "▁agacların",
        -10.205549319611343
      ],
      [
        "▁marul",
        -10.732165165558472
      ],
      [
        "gal",
        -7.36865630030424
      ],
      [
        "▁gercekleri",
        -10.858925142195991
      ],
      [
        "likt",
        -6.5852774385037165
      ],
      [
        "25000",
        -8.327069118263115
      ],
      [
        "▁asistan",
        -11.081069218639065
      ],
      [
        "▁gunah",
        -9.37779468328998
      ],
      [
        "▁arama",
        -9.097370473768617
      ],
      [
        "▁sosyal",
        -7.120592372210748
      ],
      [
        "r",
        -3.585362620231244
      ],
      [
        "▁fiyatları",
        -7.427975687224656
      ],
      [
        "▁reklamcılar",
        -10.364866363783701
      ],
      [
        "u",
        -5.3681920564335766
      ],
      [
        "▁31",
        -5.9613495351198695
      ],
      [
        "dır",
        -8.532590384402205
      ],
      [
        "▁doneminde",
        -8.898990294174082
      ],
      [
        "▁kendilerinde",
        -8.111357562464656
      ],
      [
        "▁ailece",
        -8.422302921951637
      ],
      [
        "lem",
        -9.615981339856884
      ],
      [
        "unu",
        -8.022496143720709
      ],
      [
        "▁davranıyor",
        -9.572868274219527
      ],
      [
        "ecegimizi",
        -11.007892903513605
      ],
      [
        "▁or",
        -8.424261484288385
      ],
      [
        "lerini",
        -6.612929543293869
      ],
      [
        "kca",
        -8.16539287037112
      ],
      [
        "▁satıcı",
        -9.545370828932253
      ],
      [
        "▁yaprakları",
        -9.96578070545365
      ],
      [
        "▁yayın",
        -8.974456429133053
      ],
      [
        "▁derecelendirme",
        -10.464809068953137
      ],
      [
        "gini",
        -9.537333936284867
      ],
      [
        "▁milleti",
        -9.657825040770323
      ],
      [
        "▁sıcrama",
        -10.589586656255126
      ],
      [
        "▁aklı",
        -8.809342328310105
      ],
      [
        "▁kadınlar",
        -8.045951921437148
      ],
      [
        "▁corry",
        -8.902012342926124
      ],
      [
        "▁izlenme",
        -11.107979708427123
      ],
      [
        "▁sus",
        -9.133398331875254
      ],
      [
        "▁donem",
        -8.735127299430943
      ],
      [
        "irler",
        -9.528346203668901
      ],
      [
        "▁hanım",
        -7.660419018851054
      ],
      [
        "▁calısır",
        -8.709353994313098
      ],
      [
        "▁hangisi",
        -10.589330383811681
      ],
      [
        "▁durgunluk",
        -9.337483423329138
      ],
      [
        "▁1992",
        -7.209051499194875
      ],
      [
        "▁duzeyi",
        -10.719639693834809
      ],
      [
        "▁saz",
        -9.36797514413226
      ],
      [
        "▁radyo",
        -8.743906473168796
      ],
      [
        "▁verilen",
        -8.347901649426191
      ],
      [
        "kadem",
        -9.421803818800512
      ],
      [
        "▁burnunda",
        -10.299594112533082
      ],
      [
        "k",
        -1.4604408798163275
      ],
      [
        "▁ogun",
        -10.900181849310718
      ],
      [
        "asagı",
        -7.350576247561033
      ],
      [
        "▁ortusu",
        -10.46614048157315
      ],
      [
        "▁alayı",
        -10.31849079381938
      ],
      [
        "▁eskid",
        -7.508059908398208
      ],
      [
        "ıllı",
        -8.372088614477219
      ],
      [
        "▁alaturka",
        -9.544290266706405
      ],
      [
        "▁bizleri",
        -7.670619926103663
      ],
      [
        "den",
        -7.569599634146188
      ],
      [
        "▁mudahaleler",
        -11.049209957467495
      ],
      [
        "▁ocak'ta",
        -9.010414415552585
      ],
      [
        "▁sıkı",
        -10.413298977503894
      ],
      [
        "▁bu",
        -3.2396197333277525
      ],
      [
        "▁bazı",
        -7.174522301574614
      ],
      [
        "yedek",
        -8.888581514531916
      ],
      [
        "▁on",
        -6.089300112861576
      ],
      [
        "▁yıllarda",
        -8.5082177276621
      ],
      [
        "▁bulma",
        -8.13161450699616
      ],
      [
        "▁bıyık",
        -10.721937362630573
      ],
      [
        "un",
        -7.2185606346720235
      ],
      [
        "▁istegi",
        -9.649732675445032
      ],
      [
        "en",
        -3.7741492745105623
      ],
      [
        "▁itaat",
        -10.464114377948686
      ],
      [
        "mayacagını",
        -9.615309750567
      ],
      [
        "▁sozlesmesi",
        -9.373035910310465
      ],
      [
        "ge",
        -8.622042178127915
      ],
      [
        "▁sınavı",
        -10.698477610245265
      ],
      [
        "▁kıdem",
        -10.589231572397452
      ],
      [
        "▁zihniyet",
        -11.098778683444037
      ],
      [
        "▁olan",
        -4.305715080017117
      ],
      [
        "▁sandalye",
        -9.54364445307521
      ],
      [
        "▁universiteler",
        -10.705551137656514
      ],
      [
        "▁kırıs",
        -10.951799257604684
      ],
      [
        "▁burosunda",
        -10.364774366581768
      ],
      [
        "▁hafif",
        -7.869072630271415
      ],
      [
        "▁bugunu",
        -9.793722713240008
      ],
      [
        "▁bircogunu",
        -8.407429037175746
      ],
      [
        "onun",
        -11.118767629440848
      ],
      [
        "su",
        -8.783364631491013
      ],
      [
        "▁yasana",
        -8.920887339502036
      ],
      [
        "▁kargo",
        -10.353664128851683
      ],
      [
        "▁yasında",
        -8.351062449213538
      ],
      [
        "▁o",
        -3.956108734297758
      ],
      [
        "▁gundu",
        -8.900392984362277
      ],
      [
        "▁calıs",
        -8.848146597542119
      ],
      [
        "▁temizlikte",
        -9.559265494958463
      ],
      [
        "rlik",
        -10.218215489745543
      ],
      [
        "▁baslıyor",
        -7.948286599352066
      ],
      [
        "▁sondaj",
        -10.2531100980813
      ],
      [
        "▁dans",
        -9.377158376179757
      ],
      [
        "▁vurus",
        -10.716647022933747
      ],
      [
        "▁gir",
        -8.638802532608926
      ],
      [
        "▁muhalefet",
        -9.67315188525682
      ],
      [
        "▁sapkalı",
        -9.545889989975723
      ],
      [
        "▁piyasalarında",
        -10.83354453993274
      ],
      [
        "▁deger",
        -7.75318640391371
      ],
      [
        "ade",
        -9.068565073948998
      ],
      [
        "▁takımları",
        -10.087435796340857
      ],
      [
        "l",
        -5.464349539545049
      ],
      [
        "▁bek",
        -10.597640619152017
      ],
      [
        "▁suclamaları",
        -11.022877835257406
      ],
      [
        "ının",
        -7.820043567992588
      ],
      [
        "▁secimlerde",
        -10.415650572278492
      ],
      [
        "▁degistirmek",
        -10.088910668664159
      ],
      [
        "▁kurdel",
        -11.102670569769952
      ],
      [
        "▁hastalıkta",
        -10.875664439840712
      ],
      [
        "▁der",
        -10.369724325700183
      ],
      [
        "▁neseli",
        -9.423825886615433
      ],
      [
        "▁atı",
        -9.84494920651861
      ],
      [
        "▁uyesi",
        -9.12564686170092
      ],
      [
        "▁valisi",
        -11.0644729394477
      ],
      [
        "▁sesleri",
        -8.94845744676894
      ],
      [
        "w",
        -10.561340443143326
      ],
      [
        "▁merci",
        -10.737140756163715
      ],
      [
        "▁ser",
        -9.382725264693695
      ],
      [
        "/",
        -11.25927492062213
      ],
      [
        "▁yokus",
        -10.082901070372422
      ],
      [
        "▁ardı",
        -9.002504245993636
      ],
      [
        "▁zararlar",
        -10.752874032887616
      ],
      [
        "▁beklenmedi",
        -9.067017568248506
      ],
      [
        "bia",
        -10.845521755650587
      ],
      [
        "▁sarayın",
        -10.956010654466073
      ],
      [
        "▁duyar",
        -8.934508568706839
      ],
      [
        "▁f",
        -8.473558932323812
      ],
      [
        "▁kullanılacak",
        -9.622683040901904
      ],
      [
        "▁sigortacılar",
        -10.314240376117912
      ],
      [
        "luydu",
        -8.028777864101114
      ],
      [
        "▁lakırtıları",
        -10.793105636877568
      ],
      [
        "▁kanı",
        -9.804895357748112
      ],
      [
        "▁olmad",
        -7.939023621311465
      ],
      [
        "▁onde",
        -9.133746028462957
      ],
      [
        "▁degillerdi",
        -5.210354841089645
      ],
      [
        "▁yuzunu",
        -8.611361293375555
      ],
      [
        "▁koydugu",
        -10.899378386714922
      ],
      [
        "▁fransızca",
        -10.733052823325243
      ],
      [
        "d",
        -8.69271594281879
      ],
      [
        "▁71",
        -8.195740086240166
      ],
      [
        "▁fre",
        -8.87530506274416
      ],
      [
        "▁charlotte'",
        -7.562305075097724
      ],
      [
        "▁kaba",
        -9.847283311242913
      ],
      [
        "▁devlet",
        -7.3680553057014775
      ],
      [
        "tka",
        -11.117177621041503
      ],
      [
        "▁kozm",
        -10.427453130193387
      ],
      [
        "urekli",
        -6.170784925687602
      ],
      [
        "▁fasulye",
        -9.254905223387906
      ],
      [
        "▁turkiye'y",
        -7.808037361817595
      ],
      [
        "▁ogrenim",
        -10.649263019315429
      ],
      [
        "▁buyu",
        -10.047935183187418
      ],
      [
        "▁sert",
        -7.1538297241196025
      ],
      [
        "▁bir",
        -10.251317762645535
      ],
      [
        "▁konfor",
        -8.84208169442549
      ],
      [
        "▁parki",
        -9.61031782029366
      ],
      [
        "▁yapımcı",
        -10.641805268801708
      ],
      [
        "▁koylu",
        -8.887172504778068
      ],
      [
        "lardı",
        -6.1954087240990185
      ],
      [
        "▁gizli",
        -7.175718993405508
      ],
      [
        "_",
        -10.816260684484101
      ],
      [
        "▁savas",
        -8.39206097511519
      ],
      [
        "▁1/4'",
        -10.162198889014231
      ],
      [
        "▁ramiz",
        -8.214293832917615
      ],
      [
        "▁otellerde",
        -10.359437694818512
      ],
      [
        "inda",
        -7.030220148536347
      ],
      [
        "▁paylar",
        -10.28679217212027
      ],
      [
        "eli",
        -7.901174086956097
      ],
      [
        "▁elbiseleri",
        -10.994888673013016
      ],
      [
        "▁yer",
        -6.694881241380509
      ],
      [
        "erli",
        -8.855034551292079
      ],
      [
        "▁t",
        -7.020996493100862
      ],
      [
        "leri",
        -9.01281862406928
      ],
      [
        "▁hazırlanı",
        -8.749592517711612
      ],
      [
        "▁fatih",
        -7.956502252507361
      ],
      [
        "▁adamla",
        -10.458702554721944
      ],
      [
        "▁devi",
        -10.605772320630678
      ],
      [
        "▁basınc",
        -10.644335186233333
      ],
      [
        "acagım",
        -10.91139347996098
      ],
      [
        "▁seyh",
        -11.122404627501577
      ],
      [
        "▁sıcakta",
        -10.48030432878166
      ],
      [
        "▁kalkmıs",
        -9.614185945564351
      ],
      [
        "▁baskan",
        -8.311889032106556
      ],
      [
        "▁borsa",
        -8.899174746014282
      ],
      [
        "▁munakasa",
        -10.732076223216637
      ],
      [
        "▁lig",
        -10.764163899698099
      ],
      [
        "acıkta",
        -10.590651194235146
      ],
      [
        "▁anlamıs",
        -9.668727311032955
      ],
      [
        "atlı",
        -7.8514276154019305
      ],
      [
        "▁vucut",
        -9.475095768476486
      ],
      [
        "▁teksas",
        -8.360013284145381
      ],
      [
        "ara",
        -10.792139968346396
      ],
      [
        "▁minder",
        -10.563919824091842
      ],
      [
        "romu",
        -10.898847750223908
      ],
      [
        "▁nahiye",
        -11.09874291423126
      ],
      [
        "▁duvarın",
        -9.737682356608651
      ],
      [
        "▁anla",
        -8.784910381925224
      ],
      [
        "▁ongoru",
        -10.985252631314022
      ],
      [
        "▁sablon",
        -11.09874288933882
      ],
      [
        "izi",
        -10.26581317548928
      ],
      [
        "▁da",
        -6.5733829391589484
      ],
      [
        "▁kitapların",
        -10.535994059970623
      ],
      [
        "▁cabasın",
        -11.11346741988421
      ],
      [
        "▁saflıgı",
        -11.039526545384561
      ],
      [
        "▁gazı",
        -10.73399323881409
      ],
      [
        "▁gecmisin",
        -10.626578430744516
      ],
      [
        "▁cıkması",
        -10.47064156713458
      ],
      [
        "▁abd'",
        -7.5057070778701505
      ],
      [
        "▁senede",
        -10.259101472636129
      ],
      [
        "▁mac",
        -7.834295339697015
      ],
      [
        "▁davul",
        -10.797332703232804
      ],
      [
        "▁gomlegi",
        -10.568972165136342
      ],
      [
        "▁hacim",
        -8.535894972618621
      ],
      [
        "▁konumunu",
        -9.076334005275903
      ],
      [
        "mez",
        -8.041593612944164
      ],
      [
        "▁2003",
        -8.154411264281709
      ],
      [
        "▁oyuncular",
        -9.490811747305134
      ],
      [
        "ertesi",
        -11.105860603660147
      ],
      [
        "▁gorme",
        -8.87820444716288
      ],
      [
        "ustu",
        -8.194458491228332
      ],
      [
        "▁heves",
        -9.883187758572305
      ],
      [
        "▁alındıgında",
        -10.468978403097788
      ],
      [
        "le",
        -7.2319893104787205
      ],
      [
        "gında",
        -11.073570718074365
      ],
      [
        "▁tamamlan",
        -9.694874488840714
      ],
      [
        "000",
        -5.453798378371451
      ],
      [
        "▁gene",
        -7.985532383849426
      ],
      [
        "▁gizlemek",
        -11.105927805795444
      ],
      [
        "▁olusturuyor",
        -9.010897918694187
      ],
      [
        "bel",
        -9.24844972659115
      ],
      [
        "▁kitab",
        -10.698551635750162
      ],
      [
        "▁casus",
        -10.078939975648156
      ],
      [
        "uslu",
        -9.202517585732535
      ],
      [
        "▁odenmesi",
        -10.734900776458352
      ],
      [
        "u'nun",
        -8.879420768315137
      ],
      [
        "▁bili",
        -9.463042096934538
      ],
      [
        "leri",
        -9.259862925321352
      ],
      [
        "▁milli",
        -6.88701508521391
      ],
      [
        "▁guleryuzlu",
        -11.058651773876182
      ],
      [
        "▁cirkin",
        -8.643477938749065
      ],
      [
        "▁saatler",
        -7.57708540844906
      ],
      [
        "▁bazıları",
        -5.5918974405545265
      ],
      [
        "▁kesiyor",
        -9.34739955519163
      ],
      [
        "▁sıgın",
        -9.524371581019722
      ],
      [
        "▁il",
        -8.96691352276546
      ],
      [
        "▁gogsun",
        -10.424760542453946
      ],
      [
        "maya",
        -7.022055951291881
      ],
      [
        "▁olum",
        -8.517813991263285
      ],
      [
        "▁oluk",
        -10.642450876989633
      ],
      [
        "▁gecirir",
        -9.149504860531186
      ],
      [
        "▁bulundugun",
        -10.587974656724672
      ],
      [
        "▁leri",
        -8.23078403741966
      ],
      [
        "asında",
        -8.166110055285735
      ],
      [
        "▁varlıklar",
        -9.35636244849529
      ],
      [
        "▁cek",
        -8.242561340524285
      ],
      [
        "▁kecisi",
        -11.120799807402397
      ],
      [
        "▁aylık",
        -8.605405261884497
      ],
      [
        "▁duygusu",
        -9.800195866190908
      ],
      [
        "▁kazananlar",
        -10.267330920816253
      ],
      [
        "eci",
        -9.3662426510143
      ],
      [
        "▁il",
        -6.111403265351347
      ],
      [
        "▁arastırmada",
        -11.014447205662906
      ],
      [
        "▁konusuyor",
        -8.082919942047734
      ],
      [
        "▁takvim",
        -10.927291658661288
      ],
      [
        "▁randevu",
        -10.353107968693372
      ],
      [
        "▁kıyafetleri",
        -10.955849877154684
      ],
      [
        "▁gazetesinde",
        -10.474653658449345
      ],
      [
        "▁kupe",
        -9.957524256101134
      ],
      [
        "▁icer",
        -11.009150088829603
      ],
      [
        "▁erdi",
        -8.489459703800637
      ],
      [
        "▁hurriyet",
        -9.86247189881118
      ],
      [
        "▁sur",
        -8.777907615600563
      ],
      [
        "▁rehin",
        -11.071346162437232
      ],
      [
        "▁54",
        -8.057824180982944
      ],
      [
        "fiil",
        -9.766718655239575
      ],
      [
        "▁hatıralar",
        -10.71794709497192
      ],
      [
        "▁odemek",
        -10.204832888371865
      ],
      [
        "deger",
        -9.470992962577347
      ],
      [
        "mizde",
        -9.72104532918399
      ],
      [
        "▁kimse",
        -5.611770680556417
      ],
      [
        "▁gonderil",
        -9.506424027438998
      ],
      [
        "b",
        -2.3576107270349222
      ],
      [
        "▁dukkanlar",
        -10.675182776003167
      ],
      [
        "▁tablosu",
        -10.751009233637895
      ],
      [
        "k",
        -3.753664422982186
      ],
      [
        "▁onunde",
        -7.891866653735921
      ],
      [
        "▁kaplı",
        -9.250838899932402
      ],
      [
        "▁yuru",
        -9.311115130652656
      ],
      [
        "▁yolculugun",
        -10.758421233045166
      ],
      [
        "▁hav",
        -9.56938124777784
      ],
      [
        "▁kurk",
        -10.703934150509092
      ],
      [
        "▁sarsıntılar",
        -10.971790145017927
      ],
      [
        "▁olmak",
        -7.548573255514634
      ],
      [
        "▁sube",
        -9.961337477179818
      ],
      [
        "▁yuru",
        -8.13104721426283
      ],
      [
        "▁kesesin",
        -10.94480840269443
      ],
      [
        "▁ve",
        -9.608398509125141
      ],
      [
        "▁calı",
        -9.46828357605775
      ],
      [
        "▁fidan",
        -11.01571969258174
      ],
      [
        "▁takıl",
        -9.016072030033978
      ],
      [
        "▁artması",
        -10.961341422319462
      ],
      [
        "▁politikacılar",
        -10.551387602591912
      ],
      [
        "tu",
        -9.260106287129076
      ],
      [
        "▁komisyonlar",
        -9.428232712347498
      ],
      [
        "▁transfer",
        -9.858564077797238
      ],
      [
        "▁vo",
        -11.08866781568368
      ],
      [
        "▁bakkal",
        -10.250444411317305
      ],
      [
        "▁eti",
        -9.296381338148505
      ],
      [
        "her",
        -6.241321517692774
      ],
      [
        "▁duvar",
        -8.440510891564148
      ],
      [
        "▁ekonomist",
        -10.431459292491933
      ],
      [
        "dısı",
        -9.629813904935734
      ],
      [
        "▁dergileri",
        -10.08290893278961
      ],
      [
        "▁erzurum",
        -9.00494460660047
      ],
      [
        "▁onunde",
        -7.6757174923975535
      ],
      [
        "ele",
        -12.03594578210268
      ],
      [
        "▁mantar",
        -10.25310976413509
      ],
      [
        "▁hacı",
        -9.639601055949123
      ],
      [
        "ime",
        -8.639604694817013
      ],
      [
        "▁gitmisti",
        -8.767901498780606
      ],
      [
        "▁yakası",
        -10.1693882811331
      ],
      [
        "▁silkin",
        -9.798037293756137
      ],
      [
        "▁tanıklık",
        -10.262829233946173
      ],
      [
        "▁neyi",
        -6.48632542834872
      ],
      [
        "▁sorun",
        -9.236904210390406
      ],
      [
        "▁yapı",
        -8.070770407087547
      ],
      [
        "▁gorebilir",
        -9.100108935165284
      ],
      [
        "▁tasıyıcı",
        -10.644448114181543
      ],
      [
        "▁koyar",
        -9.098876619395838
      ],
      [
        "▁tıbbi",
        -8.886687311149451
      ],
      [
        "▁gelin",
        -8.955980698925284
      ],
      [
        "▁kısmet",
        -10.464582496081022
      ],
      [
        "▁orası",
        -10.560163825414252
      ],
      [
        "ice",
        -8.482527239851917
      ],
      [
        "▁milwaukee'de",
        -6.77260024927041
      ],
      [
        "▁birinde",
        -6.609824599980316
      ],
      [
        "▁simgesi",
        -10.589219427963064
      ],
      [
        "▁dolastı",
        -8.68470814184278
      ],
      [
        "▁kızgınlık",
        -11.099042272781556
      ],
      [
        "▁turklerin",
        -10.429635203743072
      ],
      [
        "▁devrimi",
        -10.864266638831353
      ],
      [
        "▁bekledik",
        -9.40323157734745
      ],
      [
        "▁balkonda",
        -10.772418843152826
      ],
      [
        "▁sabah",
        -9.054093432860887
      ],
      [
        "ot",
        -9.65400311893377
      ],
      [
        "kler",
        -10.187876016547072
      ],
      [
        "▁tehlikeler",
        -10.766055324098538
      ],
      [
        "▁yaz",
        -8.08157541652814
      ],
      [
        "▁degisiklik",
        -9.062268941221019
      ],
      [
        "▁annemle",
        -9.883177960492334
      ],
      [
        "▁onları",
        -4.32931003779788
      ],
      [
        "▁mallar",
        -9.914711284538555
      ],
      [
        "'u",
        -8.448602475857284
      ],
      [
        "▁icinde",
        -6.905940125060715
      ],
      [
        "▁uykusu",
        -10.989975249186307
      ],
      [
        "▁kılma",
        -11.051117514349123
      ],
      [
        "sela",
        -9.525500822199067
      ],
      [
        "▁montreal'da",
        -8.263105489212075
      ],
      [
        "mada",
        -6.606015577227643
      ],
      [
        "▁delikanlı",
        -9.10210876108714
      ],
      [
        "▁tadilat",
        -10.898949153572202
      ],
      [
        "▁nota",
        -10.708508544689847
      ],
      [
        "▁baglama",
        -9.955430613356967
      ],
      [
        "▁onerir",
        -9.420292615274452
      ],
      [
        "▁aldı",
        -5.959464592992458
      ],
      [
        "hkam",
        -10.904637914174407
      ],
      [
        "▁kosma",
        -10.622074524242146
      ],
      [
        "evre",
        -9.809801060155307
      ],
      [
        "lesme",
        -10.097849182204722
      ],
      [
        "▁levazım",
        -11.098742896403405
      ],
      [
        "▁nerede",
        -6.062949956164146
      ],
      [
        "▁itiraf",
        -9.187089825633397
      ],
      [
        "well",
        -8.857357387547603
      ],
      [
        "▁agzında",
        -9.38026004936957
      ],
      [
        "▁cikis",
        -9.536719178505269
      ],
      [
        "▁keyfi",
        -10.386635347816584
      ],
      [
        "▁oteliniz",
        -10.80320617550945
      ],
      [
        "▁sevk",
        -9.15049531910136
      ],
      [
        "pat",
        -10.220225169490286
      ],
      [
        "▁cicekler",
        -9.831060668573844
      ],
      [
        "▁ozgu",
        -7.912709494579628
      ],
      [
        "▁serseri",
        -11.098908965522458
      ],
      [
        "gen",
        -9.365638724064041
      ],
      [
        "▁ablam",
        -9.940418853085248
      ],
      [
        "▁ciftci",
        -10.063981260693316
      ],
      [
        "tıgı",
        -8.981453279791992
      ],
      [
        "▁evimde",
        -10.43252335874873
      ],
      [
        "▁hınc",
        -10.732527729705126
      ],
      [
        "yım",
        -10.966564902659666
      ],
      [
        "▁gecin",
        -10.887206516331647
      ],
      [
        "▁koprusunde",
        -11.098824381843023
      ],
      [
        "▁yonetici",
        -9.030979949289542
      ],
      [
        "▁puan",
        -6.03342562087988
      ],
      [
        "▁gelir",
        -7.309942872070033
      ],
      [
        "▁par",
        -9.737743630036624
      ],
      [
        "dıgını",
        -7.618235718131659
      ],
      [
        "▁tası",
        -9.244136898061184
      ],
      [
        "gın",
        -7.896431926828197
      ],
      [
        "▁tutmay",
        -10.947917007598587
      ],
      [
        "▁international'",
        -8.562954087467523
      ],
      [
        "▁net",
        -8.077903785958835
      ],
      [
        "▁numarası",
        -10.136601151087657
      ],
      [
        "▁fizigin",
        -10.898743531922424
      ],
      [
        "▁noktası",
        -9.229177185792704
      ],
      [
        "▁etmesini",
        -10.118860317628457
      ],
      [
        "▁gazoz",
        -11.099621568575422
      ],
      [
        "▁insanoglu",
        -10.336250033988891
      ],
      [
        "▁olmuslardı",
        -9.55264501157873
      ],
      [
        "▁hata",
        -9.070384752980235
      ],
      [
        "egi",
        -10.153728538972587
      ],
      [
        "amaz",
        -8.466411519687316
      ],
      [
        "1",
        -11.802702672349785
      ],
      [
        "▁genisti",
        -9.318479496933467
      ],
      [
        "▁tesvik",
        -8.820740230217705
      ],
      [
        "▁breeden",
        -9.016265258815004
      ],
      [
        "▁koyar",
        -8.924990861312768
      ],
      [
        "lan",
        -9.798157731277254
      ],
      [
        "liginde",
        -9.455428756749734
      ],
      [
        "▁gelecegi",
        -10.025515430406857
      ],
      [
        "olan",
        -9.329595148078159
      ],
      [
        "▁dolasır",
        -9.054576652676264
      ],
      [
        "▁gecirdik",
        -8.457984196389846
      ],
      [
        "▁omrumu",
        -10.94308241956598
      ],
      [
        "▁sıfır",
        -10.078865544915024
      ],
      [
        "▁erisim",
        -10.253159260306559
      ],
      [
        "▁ucretin",
        -8.399788600475635
      ],
      [
        "medigi",
        -10.357131175848895
      ],
      [
        "▁musterilerin",
        -10.022186016763818
      ],
      [
        "▁fincan",
        -9.6737674802576
      ],
      [
        "lanta",
        -10.580260629100609
      ],
      [
        "▁dusuyor",
        -8.609803053247989
      ],
      [
        "▁uzuntusu",
        -10.948847826646928
      ],
      [
        "acagı",
        -8.910892149903013
      ],
      [
        "▁yavas",
        -7.42590430231164
      ],
      [
        "▁tesiste",
        -8.43676495347103
      ],
      [
        "▁bedeli",
        -9.9564820374031
      ],
      [
        "lug",
        -10.17206141719766
      ],
      [
        "▁patlıcanı",
        -10.545276290718355
      ],
      [
        "▁olmayı",
        -9.591150394457621
      ],
      [
        "yla",
        -6.609948332917524
      ],
      [
        "▁ici",
        -7.979605189535266
      ],
      [
        "▁oyku",
        -9.225107580420108
      ],
      [
        "▁uslup",
        -10.732077673302943
      ],
      [
        "▁dugmesin",
        -10.445611162875
      ],
      [
        "▁seridi",
        -10.893015094377757
      ],
      [
        "▁lokma",
        -9.327656511303028
      ],
      [
        "▁ucusunda",
        -9.640451133364976
      ],
      [
        "▁merhamet",
        -10.732076237619063
      ],
      [
        "▁asker",
        -8.74362205374729
      ],
      [
        "▁agırlık",
        -9.812694708042581
      ],
      [
        "▁bardagı",
        -8.859077620447957
      ],
      [
        "▁goruntusu",
        -10.507503336647423
      ],
      [
        "▁kahvesi",
        -10.703017251428998
      ],
      [
        "ktır",
        -9.038265371928532
      ],
      [
        "▁maliyet",
        -9.32147370406637
      ],
      [
        "▁yazarlar",
        -9.902145406682273
      ],
      [
        "lik",
        -7.12132428535424
      ],
      [
        "▁sahnede",
        -10.224182120837593
      ],
      [
        "▁nitelik",
        -9.989889198825262
      ],
      [
        "erek",
        -4.620556824828748
      ],
      [
        "▁ucret",
        -9.45081728178909
      ],
      [
        "▁zaaf",
        -10.732077121640371
      ],
      [
        "▁iddiaları",
        -10.11528913941566
      ],
      [
        "aha",
        -9.573299477902129
      ],
      [
        "▁kosk",
        -9.687327416827827
      ],
      [
        "tz",
        -9.055674726445318
      ],
      [
        "▁beyle",
        -8.177183717129381
      ],
      [
        "▁kalkan",
        -10.25334306431135
      ],
      [
        "▁sim",
        -10.3712475049808
      ],
      [
        "▁yıldızları",
        -10.483170367831761
      ],
      [
        "▁nedenleri",
        -10.69377058161832
      ],
      [
        "▁hizmette",
        -8.880693348164424
      ],
      [
        "uzu",
        -11.088101981879577
      ],
      [
        "▁oden",
        -9.728557422785006
      ],
      [
        "▁ed",
        -9.124890905453919
      ],
      [
        "▁beygir",
        -11.050911752915829
      ],
      [
        "▁board",
        -8.29110027533374
      ],
      [
        "▁besyuz",
        -8.138952084841435
      ],
      [
        "▁tepsiy",
        -10.548225629158019
      ],
      [
        "erken",
        -6.4253651959846225
      ],
      [
        "▁meslegin",
        -10.814812297743519
      ],
      [
        "▁varlıkların",
        -10.425991653811455
      ],
      [
        "ıları",
        -10.498009970238348
      ],
      [
        "▁bilgilerin",
        -9.628671063802788
      ],
      [
        "▁olusu",
        -9.719016087363103
      ],
      [
        "f",
        -9.489037254957996
      ],
      [
        "▁degistirdi",
        -8.747167262377925
      ],
      [
        "gil",
        -7.604654609424275
      ],
      [
        "▁alakal",
        -8.205748665914669
      ],
      [
        "▁zorluk",
        -10.145180799176309
      ],
      [
        "▁ar",
        -8.627014902641005
      ],
      [
        "▁bile",
        -8.256598938356543
      ],
      [
        "▁kendimi",
        -5.7344618553965745
      ],
      [
        "▁tat",
        -10.130834652120555
      ],
      [
        "▁tam",
        -6.196690295557846
      ],
      [
        "▁koymus",
        -9.017302232256394
      ],
      [
        "▁yazılmıs",
        -9.268210420732553
      ],
      [
        "▁kurt",
        -8.100519537105876
      ],
      [
        "▁kore",
        -8.751495197280219
      ],
      [
        "▁cam",
        -8.760298441673086
      ],
      [
        "▁otele",
        -9.035290196710704
      ],
      [
        "▁amerika'y",
        -9.031924716983106
      ],
      [
        "▁istasyonu",
        -10.205887060161569
      ],
      [
        "name",
        -10.22980757723083
      ],
      [
        "▁varıyor",
        -8.364550804156496
      ],
      [
        "ovb",
        -10.905548194179817
      ],
      [
        "▁konusuyordu",
        -9.651271574199466
      ],
      [
        "▁kod",
        -10.669519766746848
      ],
      [
        "▁mutfag",
        -10.16861571893825
      ],
      [
        "ack",
        -11.087940881708459
      ],
      [
        "▁ister",
        -9.048033437929709
      ],
      [
        "▁sorular",
        -9.334041718771182
      ],
      [
        "▁kom",
        -8.406286050718897
      ],
      [
        "▁yaslan",
        -9.787148023166505
      ],
      [
        "▁ac",
        -9.927345753710437
      ],
      [
        "▁hadise",
        -9.582760780797674
      ],
      [
        "13",
        -8.316268307282334
      ],
      [
        "▁",
        -3.32808512111051
      ],
      [
        "▁baska",
        -10.48590866487727
      ],
      [
        "▁hanım'ı",
        -8.619918032669052
      ],
      [
        "▁yerin",
        -7.48911025772345
      ],
      [
        "mort",
        -10.773583581407378
      ],
      [
        "▁pahalı",
        -8.022469362426737
      ],
      [
        "▁liderleri",
        -9.812978370232099
      ],
      [
        "▁katkısı",
        -10.797188095475235
      ],
      [
        "▁dalgalanması",
        -11.010691818141964
      ],
      [
        "ırlı",
        -9.131989460826428
      ],
      [
        "▁omur",
        -9.581514692393272
      ],
      [
        "▁karsı",
        -8.825966290289578
      ],
      [
        "▁kusur",
        -8.98605819867967
      ],
      [
        "▁sagla",
        -8.916241419016313
      ],
      [
        "li",
        -4.226068988600278
      ],
      [
        "▁b",
        -8.77332890998689
      ],
      [
        "▁alarm",
        -10.900122694798544
      ],
      [
        "▁vermis",
        -8.051838979183639
      ],
      [
        "▁alay",
        -9.210995705241029
      ],
      [
        "▁tahvil",
        -7.6375459976947635
      ],
      [
        "▁bizler",
        -6.884598609562019
      ],
      [
        "▁cevir",
        -9.187974748962066
      ],
      [
        "▁vucudu",
        -9.846721980549615
      ],
      [
        "▁para",
        -8.84681256838626
      ],
      [
        "▁mezarların",
        -10.763746055725345
      ],
      [
        "ydı",
        -10.07892427968674
      ],
      [
        "bilecek",
        -9.09373396883207
      ],
      [
        "dimi",
        -10.487241196330544
      ],
      [
        "▁oynaya",
        -9.682026019519796
      ],
      [
        "▁sov",
        -10.6383159124639
      ],
      [
        "▁suresi",
        -9.120955876272406
      ],
      [
        "▁askıy",
        -10.866533811783817
      ],
      [
        "▁vatandası",
        -10.428528670039638
      ],
      [
        "▁akraba",
        -10.794589677346245
      ],
      [
        "▁insanlar",
        -7.169049175329686
      ],
      [
        "▁buyuktu",
        -9.410919266358585
      ],
      [
        "▁seneler",
        -9.011146938504794
      ],
      [
        "▁planları",
        -9.619854598035772
      ],
      [
        "▁sanıyoru",
        -9.402072311465998
      ],
      [
        "▁devir",
        -9.484384168586752
      ],
      [
        "za",
        -9.772187970564072
      ],
      [
        "▁sandık",
        -9.79062950594882
      ],
      [
        "ip",
        -6.160296091166794
      ],
      [
        "▁fatih",
        -10.732076462985738
      ],
      [
        "spor",
        -11.096388935050902
      ],
      [
        "▁bahaneler",
        -11.054764624960379
      ],
      [
        "▁buldu",
        -6.96205027725249
      ],
      [
        "▁gelmisti",
        -7.969593909337027
      ],
      [
        "▁girdik",
        -8.850969309119977
      ],
      [
        "▁oynadıgını",
        -11.110333197819738
      ],
      [
        "▁icecek",
        -9.035359749036662
      ],
      [
        "▁gozlu",
        -8.451901347001293
      ],
      [
        "▁ucuyor",
        -7.226806831398758
      ],
      [
        "▁giy",
        -9.348136517479606
      ],
      [
        "▁darı",
        -10.90694444836397
      ],
      [
        "▁elektrikl",
        -8.966854670123103
      ],
      [
        "▁louis",
        -8.193652694080182
      ],
      [
        "▁isyanın",
        -10.98464554018091
      ],
      [
        "me",
        -5.2378659416475815
      ],
      [
        "▁riskini",
        -10.598765056414521
      ],
      [
        "▁sessiz",
        -11.084996161887792
      ],
      [
        "▁cumartesi",
        -7.617833189658602
      ],
      [
        "▁kabin",
        -10.57842463659954
      ],
      [
        "▁bilge",
        -11.09910697424166
      ],
      [
        "▁olanakları",
        -9.029788760572213
      ],
      [
        "▁yenilik",
        -10.688296387610162
      ],
      [
        "birini",
        -9.67239280702591
      ],
      [
        "▁yan",
        -7.701764539820724
      ],
      [
        "▁yok",
        -7.186177588248405
      ],
      [
        "▁pe",
        -11.108101026207837
      ],
      [
        "iba",
        -7.213093955656788
      ],
      [
        "▁cekildi",
        -8.312831926376461
      ],
      [
        "▁vermisler",
        -9.280210924320894
      ],
      [
        "▁temelinde",
        -10.807788167257478
      ],
      [
        "iyim",
        -9.281650412944469
      ],
      [
        "▁baslangıc",
        -9.63658242464065
      ],
      [
        "lestirmek",
        -11.03481501538597
      ],
      [
        "▁kapitalizm",
        -11.09874289144278
      ],
      [
        "▁l.",
        -8.244531548830729
      ],
      [
        "'nda",
        -10.378079929628907
      ],
      [
        "medi",
        -8.37974392483815
      ],
      [
        "dugumuz",
        -9.404098504114192
      ],
      [
        "yle",
        -6.687487082009295
      ],
      [
        "▁kur",
        -7.696678492179027
      ],
      [
        "▁gosteris",
        -9.117845904717955
      ],
      [
        "▁yen'",
        -7.390874940176632
      ],
      [
        "▁yegen",
        -10.609090377364623
      ],
      [
        "▁ifadesi",
        -10.904314426884321
      ],
      [
        "▁geldigin",
        -9.273462568202834
      ],
      [
        "leri",
        -6.24116818408501
      ],
      [
        "▁merdivenlerde",
        -10.945692820456276
      ],
      [
        "▁fırka",
        -11.0989477802453
      ],
      [
        "▁maksim",
        -9.20940090597339
      ],
      [
        "▁mujde",
        -10.898745094594034
      ],
      [
        "hududu",
        -11.098745582023515
      ],
      [
        "▁pro",
        -11.00846523110784
      ],
      [
        "▁gu",
        -9.728811760912734
      ],
      [
        "▁edenler",
        -10.525018268994211
      ],
      [
        "▁yonleri",
        -10.40349349369455
      ],
      [
        "▁vur",
        -8.959055673983514
      ],
      [
        "in",
        -8.070279426108264
      ],
      [
        "▁devri",
        -9.24623662140451
      ],
      [
        "▁muzakerelerin",
        -11.120139494726622
      ],
      [
        "▁yasa",
        -8.871259554397458
      ],
      [
        "▁karsili",
        -9.718663391391374
      ],
      [
        "ikli",
        -9.137269057413185
      ],
      [
        "▁gostergeleri",
        -10.037045146866362
      ],
      [
        "▁iyisini",
        -10.36687271251984
      ],
      [
        "▁col",
        -10.290729435667698
      ],
      [
        "▁kar",
        -8.728697318748502
      ],
      [
        "▁havuzlar",
        -8.668860464291242
      ],
      [
        "▁nuri",
        -8.865200241398906
      ],
      [
        "▁ahlak",
        -8.699058204417298
      ],
      [
        "▁sevin",
        -8.780012182774758
      ],
      [
        "▁birbirimizi",
        -7.931464907644399
      ],
      [
        "▁evlenme",
        -9.441143218760292
      ],
      [
        "▁d",
        -7.195383266702848
      ],
      [
        "▁gu",
        -10.45032905843049
      ],
      [
        "5",
        -9.640243127096157
      ],
      [
        "▁mulk",
        -9.228128774234586
      ],
      [
        "▁arpa",
        -10.002046316785043
      ],
      [
        "▁tanrı'",
        -8.811896515026111
      ],
      [
        "▁kriz",
        -8.652354337693193
      ],
      [
        "▁muht",
        -8.652134073756198
      ],
      [
        "▁pusu",
        -11.11906985756213
      ],
      [
        "▁birl",
        -8.456773045245946
      ],
      [
        "▁hesapların",
        -10.713553598635759
      ],
      [
        "▁kolların",
        -10.935353466845203
      ],
      [
        "▁final",
        -10.037713439427922
      ],
      [
        "▁cıktık",
        -9.19908481589734
      ],
      [
        "▁ted",
        -8.684857678773053
      ],
      [
        "lilik",
        -9.759343831865772
      ],
      [
        "▁ite",
        -10.951921948428096
      ],
      [
        "▁deney",
        -9.12435489664965
      ],
      [
        "▁abim",
        -10.367716503161143
      ],
      [
        "▁gerektir",
        -9.146557270418402
      ],
      [
        "▁havalar",
        -10.527451775602247
      ],
      [
        "▁vurusu",
        -10.20204437493355
      ],
      [
        "gal",
        -10.76990530336873
      ],
      [
        "▁sesin",
        -10.779062105418896
      ],
      [
        "▁ogren",
        -10.767412140612784
      ],
      [
        "ton",
        -7.6226007165899015
      ],
      [
        "▁gelince",
        -9.088213709050503
      ],
      [
        "▁yitirdi",
        -9.70176555617351
      ],
      [
        "▁halde",
        -7.68513371078781
      ],
      [
        "▁silah",
        -9.547070729993914
      ],
      [
        "l",
        -7.755569990872566
      ],
      [
        "okulu",
        -8.878045843167143
      ],
      [
        "▁al",
        -6.866619571249054
      ],
      [
        "▁feryat",
        -10.711481075709717
      ],
      [
        "▁kullanmay",
        -10.137212784965092
      ],
      [
        "▁an",
        -7.322693547970474
      ],
      [
        "▁bekledikleri",
        -11.098880253875219
      ],
      [
        "▁fabrika",
        -8.534800396249908
      ],
      [
        "▁nem",
        -10.60375809326783
      ],
      [
        "▁temmuz",
        -9.195078725690044
      ],
      [
        "ıp",
        -5.680099940697676
      ],
      [
        "▁burnu",
        -9.861928117271322
      ],
      [
        "f",
        -8.77684154095741
      ],
      [
        "▁pens",
        -11.100908226909151
      ],
      [
        "▁vermeye",
        -9.751039413747534
      ],
      [
        "▁rehberimiz",
        -8.981220226356754
      ],
      [
        "▁tehlikesi",
        -10.527633708414342
      ],
      [
        "▁dosyada",
        -10.833494324846285
      ],
      [
        "▁soya",
        -10.208961419689395
      ],
      [
        "▁harp",
        -9.25509058525592
      ],
      [
        "▁ismin",
        -10.320757380457858
      ],
      [
        "▁dugum",
        -11.08744101950991
      ],
      [
        "▁bitim",
        -10.589889543522906
      ],
      [
        "ya",
        -6.624486546172472
      ],
      [
        "▁bakanlar",
        -10.116430027676898
      ],
      [
        "▁yıkama",
        -10.589657178981861
      ],
      [
        "▁olustur",
        -9.42224727212163
      ],
      [
        "▁geni",
        -10.86442490322344
      ],
      [
        "▁sirketleri",
        -8.658725350098894
      ],
      [
        "▁1.7",
        -6.892164186865186
      ],
      [
        "▁solunum",
        -10.465379903989689
      ],
      [
        "▁dedi",
        -5.071429908064555
      ],
      [
        "▁bulunmak",
        -10.887871589411356
      ],
      [
        "▁devredile",
        -9.30838646474239
      ],
      [
        "▁sarhos",
        -8.924749007643126
      ],
      [
        "z",
        -5.741533321333153
      ],
      [
        "larım",
        -10.169267413206043
      ],
      [
        "ili",
        -8.256585716571182
      ],
      [
        "▁or",
        -8.60131286978149
      ],
      [
        ",",
        -11.259274920662083
      ],
      [
        "▁cicegin",
        -10.861870081513466
      ],
      [
        "▁istismar",
        -11.098742909916602
      ],
      [
        "diklerini",
        -9.860362625599755
      ],
      [
        "▁yonetiyor",
        -9.569001752421553
      ],
      [
        "v",
        -8.012914494879144
      ],
      [
        "▁gordu",
        -11.087608966324272
      ],
      [
        "alı",
        -9.716431016066783
      ],
      [
        "▁kavramı",
        -10.061623381402331
      ],
      [
        "▁yapmadi",
        -8.630888389689819
      ],
      [
        "▁olmayanlar",
        -11.10144805644872
      ],
      [
        "▁hasar",
        -8.970780676587363
      ],
      [
        "'te",
        -7.4383271455888815
      ],
      [
        "▁veriliyor",
        -9.224711391335536
      ],
      [
        "▁noktalar",
        -10.904840505758417
      ],
      [
        "▁besmele",
        -11.098742903735141
      ],
      [
        "▁mezarın",
        -11.01037059669677
      ],
      [
        "▁alımın",
        -10.863657140669934
      ],
      [
        "▁y",
        -5.777906907927925
      ],
      [
        "izin",
        -9.640519507891911
      ],
      [
        "▁stokları",
        -9.454047661890868
      ],
      [
        "▁gire",
        -9.231245840065574
      ],
      [
        "izin",
        -10.66459546578533
      ],
      [
        "▁tank",
        -10.835801119212746
      ],
      [
        "▁geli",
        -7.99717862374672
      ],
      [
        "ydi",
        -10.03301478608034
      ],
      [
        "▁sorgu",
        -10.89874340832661
      ],
      [
        "▁ornekler",
        -10.210892779213498
      ],
      [
        "klerini",
        -10.935954584200566
      ],
      [
        "▁metre",
        -9.095147510585445
      ],
      [
        "▁kayna",
        -9.008781536000571
      ],
      [
        "▁ofisi",
        -9.652197709882804
      ],
      [
        "▁arkadaslarımız",
        -10.983788138192478
      ],
      [
        "▁brosur",
        -10.732154141644175
      ],
      [
        "▁kop",
        -9.17563175446178
      ],
      [
        "▁bolge",
        -9.1918953309007
      ],
      [
        "▁derdin",
        -9.819443915397425
      ],
      [
        "port",
        -8.747654285232501
      ],
      [
        "▁yardım",
        -7.710468762699982
      ],
      [
        "▁ilkbahar",
        -10.078871808286188
      ],
      [
        "▁cıkması",
        -9.207941377655061
      ],
      [
        "▁cabuklu",
        -10.898743714025663
      ],
      [
        "▁kimsey",
        -6.6878994019356295
      ],
      [
        "▁ozunde",
        -10.917647678037829
      ],
      [
        "▁planlar",
        -10.125592767330392
      ],
      [
        "▁gercek",
        -9.363570225083057
      ],
      [
        "▁sa",
        -9.528393423623362
      ],
      [
        "ell",
        -8.9468200684012
      ],
      [
        "b",
        -8.138833591377013
      ],
      [
        "▁gorulur",
        -9.330256895153314
      ],
      [
        "mu",
        -10.368099256726904
      ],
      [
        "▁merkez",
        -7.544822209243105
      ],
      [
        "kten",
        -8.508536247214465
      ],
      [
        "▁kıymetler",
        -7.9049338625544285
      ],
      [
        "ınız",
        -9.674230430012038
      ],
      [
        "▁keser",
        -9.349493481827613
      ],
      [
        "▁burosu",
        -10.094266479615605
      ],
      [
        "▁etleri",
        -10.546484023503094
      ],
      [
        "▁mustesar",
        -10.55904765817635
      ],
      [
        "etkili",
        -8.631071817142605
      ],
      [
        "▁orgutu",
        -10.489792871930888
      ],
      [
        "ne",
        -7.295935539686148
      ],
      [
        "▁esas",
        -10.39105768320735
      ],
      [
        "▁hisseleri",
        -7.755932385953378
      ],
      [
        "▁artırma",
        -9.951067189319902
      ],
      [
        "▁tadin",
        -10.008573089267866
      ],
      [
        "cag",
        -10.341625448332383
      ],
      [
        "▁kisi",
        -6.864904861169017
      ],
      [
        "▁zerre",
        -10.898742981361918
      ],
      [
        "▁yasadıgı",
        -10.907663884359446
      ],
      [
        "▁bugun",
        -8.505421484617202
      ],
      [
        "▁cıkar",
        -7.850134360737045
      ],
      [
        "▁muhafaza",
        -9.742465665540667
      ],
      [
        "▁serviste",
        -10.007207336910403
      ],
      [
        "▁yatagın",
        -10.092582189814838
      ],
      [
        "▁ispir",
        -10.73217194375589
      ],
      [
        "▁suruyor",
        -8.158710056288749
      ],
      [
        "iz",
        -8.183355803138426
      ],
      [
        "▁gunduz",
        -9.613997000983122
      ],
      [
        "▁cevirir",
        -9.663906587705814
      ],
      [
        "cıya",
        -9.888986487324985
      ],
      [
        "▁isciler",
        -9.071639528549438
      ],
      [
        "▁",
        -1.6692032132785002
      ],
      [
        "lık",
        -6.994200312939683
      ],
      [
        "▁ucusu",
        -6.812694292338416
      ],
      [
        "abilecegin",
        -10.563509776827619
      ],
      [
        "▁olayla",
        -10.926352834948617
      ],
      [
        "▁ayarlandı",
        -9.518107308753699
      ],
      [
        "▁sandalı",
        -10.68411187767384
      ],
      [
        "▁servisi",
        -8.029707775799501
      ],
      [
        "▁yara",
        -8.708211392320127
      ],
      [
        "▁yiyeceklerde",
        -10.248777588644709
      ],
      [
        "▁teknolojisini",
        -10.427398219390673
      ],
      [
        "▁beyaz",
        -6.453228638200443
      ],
      [
        "▁yardımcısı",
        -8.45072199987634
      ],
      [
        "▁kendimde",
        -7.695269369691355
      ],
      [
        "▁boynuz",
        -10.891226279741185
      ],
      [
        "▁cagdas",
        -10.899872496299507
      ],
      [
        "▁seviyesin",
        -8.290344080967882
      ],
      [
        "▁kuyruk",
        -10.598132839936389
      ],
      [
        "▁meclisi",
        -9.556834857468862
      ],
      [
        "▁dur",
        -9.166818050258739
      ],
      [
        "▁kutusu",
        -10.359791834996981
      ],
      [
        "▁sonraları",
        -11.083589000351441
      ],
      [
        "▁7.6",
        -8.211771536079745
      ],
      [
        "▁tekel",
        -10.646625282953625
      ],
      [
        "▁kanunların",
        -11.014930998692835
      ],
      [
        "▁telas",
        -9.538304025128362
      ],
      [
        "de",
        -8.341909469523005
      ],
      [
        "▁oldugunu",
        -6.60601448185789
      ],
      [
        "▁pırıltı",
        -10.58934168961095
      ],
      [
        "▁cleveland'",
        -6.731610941983823
      ],
      [
        "▁oldurme",
        -10.472057360810734
      ],
      [
        "▁30",
        -5.020739400265071
      ],
      [
        "▁atma",
        -10.886412886497713
      ],
      [
        "▁goruyordu",
        -8.760710698775231
      ],
      [
        "▁dostları",
        -10.292172786949234
      ],
      [
        "▁edersin",
        -9.715930171316808
      ],
      [
        "▁istisna",
        -10.589220484895673
      ],
      [
        "vall",
        -9.620870850353345
      ],
      [
        "▁goster",
        -4.905676656088584
      ],
      [
        "▁magdurları",
        -11.109091652073321
      ],
      [
        "ligini",
        -8.858810792967285
      ],
      [
        "▁salih",
        -8.707825789268409
      ],
      [
        "▁minneapolis",
        -8.971238159385575
      ],
      [
        "ti",
        -7.4168243302059285
      ],
      [
        "▁yaklası",
        -6.023838545224694
      ],
      [
        "▁poyraz",
        -10.73207622275146
      ],
      [
        "▁dayan",
        -8.502706346744434
      ],
      [
        "'nu",
        -9.86307032478333
      ],
      [
        "erine",
        -7.345133478854348
      ],
      [
        "▁eg",
        -10.374359637007826
      ],
      [
        "▁dolas",
        -8.617131810584535
      ],
      [
        "▁oya",
        -10.621595433046744
      ],
      [
        "▁fazlasın",
        -10.943054825357525
      ],
      [
        "▁elbet",
        -6.771714475515565
      ],
      [
        "▁memnuniyet",
        -10.599553544828314
      ],
      [
        "▁20.",
        -7.512346450622075
      ],
      [
        "▁toplulugun",
        -10.635951382757952
      ],
      [
        "ust",
        -9.364124268376145
      ],
      [
        "▁manastır",
        -10.732076512446634
      ],
      [
        "▁gecim",
        -9.930966583676772
      ],
      [
        "▁kalmıstı",
        -8.037621761400809
      ],
      [
        "▁cekilme",
        -9.873218791989967
      ],
      [
        "▁ice",
        -9.494347932434623
      ],
      [
        "▁bulama",
        -10.234750022303706
      ],
      [
        "rek",
        -9.186833073680338
      ],
      [
        "▁saglıklı",
        -11.104218480414666
      ],
      [
        "▁beklentisi",
        -10.763354847306701
      ],
      [
        "gının",
        -10.995109015891389
      ],
      [
        "▁cevresi",
        -10.129928358376695
      ],
      [
        "muzun",
        -10.157243775142055
      ],
      [
        "▁ikibinuc",
        -7.579375390119924
      ],
      [
        "▁sait",
        -8.786720480385988
      ],
      [
        "▁topraklarda",
        -11.067742990131286
      ],
      [
        "2'",
        -9.119381859814382
      ],
      [
        "▁tuz",
        -8.64609143253566
      ],
      [
        "▁seydi",
        -8.334385071691708
      ],
      [
        "▁hafızasın",
        -10.98044298084312
      ],
      [
        "▁yokusu",
        -10.048473128049007
      ],
      [
        "cular",
        -10.717527922735195
      ],
      [
        "▁ustun",
        -7.562469364143011
      ],
      [
        "▁cocuk",
        -6.8794027433163105
      ],
      [
        "▁hamuru",
        -10.095707845834738
      ],
      [
        "▁yakasın",
        -10.511822861635654
      ],
      [
        "sen",
        -8.736290184606178
      ],
      [
        "▁birbiriniz",
        -10.316513189555705
      ],
      [
        "▁mo",
        -8.860968260709669
      ],
      [
        "▁dolası",
        -9.329848881173108
      ],
      [
        "ecegim",
        -8.339823977189365
      ],
      [
        "▁ataturk'u",
        -7.98641216010333
      ],
      [
        "▁m.",
        -8.846743278515353
      ],
      [
        "z",
        -7.384597776793819
      ],
      [
        "▁gencin",
        -10.405542745386846
      ],
      [
        "▁buyudu",
        -8.65148395339186
      ],
      [
        "st",
        -8.899281185320195
      ],
      [
        "▁deterjan",
        -10.8987428894155
      ],
      [
        "hi",
        -10.103717129124831
      ],
      [
        "de",
        -8.004287692131392
      ],
      [
        "▁lar",
        -7.76677043803274
      ],
      [
        "▁dusurdu",
        -8.671693278906229
      ],
      [
        "▁heykel",
        -9.804657898327603
      ],
      [
        "mur",
        -8.98919425639048
      ],
      [
        "▁mart",
        -9.053814133516301
      ],
      [
        "▁vali",
        -9.515688798762266
      ],
      [
        "▁ozelliklerin",
        -10.31680653573589
      ],
      [
        "▁film",
        -8.509623838448974
      ],
      [
        "▁sonucu",
        -8.767523024433608
      ],
      [
        "acagını",
        -8.734277651352016
      ],
      [
        "ydu",
        -8.855694608903823
      ],
      [
        "▁geldigini",
        -9.514660123307536
      ],
      [
        "▁ler",
        -7.3847730793254
      ],
      [
        "▁philadelphia",
        -6.792612375923283
      ],
      [
        "▁gorusmelerin",
        -10.329080869983747
      ],
      [
        "▁etkenler",
        -10.497731201851781
      ],
      [
        "▁murat",
        -7.8009368883497014
      ],
      [
        "▁yiyecek",
        -9.547178508982656
      ],
      [
        "▁ses",
        -8.093341269087894
      ],
      [
        "▁olgu",
        -9.525396386854524
      ],
      [
        "▁ora",
        -8.799534576243087
      ],
      [
        "▁geliri",
        -8.936577540923736
      ],
      [
        "▁partileri",
        -10.51958822777114
      ],
      [
        "▁yukselmisti",
        -9.618802394848169
      ],
      [
        "▁acayip",
        -9.034935076256758
      ],
      [
        "▁o",
        -7.746745249832147
      ],
      [
        "afiyet",
        -11.127450372865908
      ],
      [
        "▁tezgahı",
        -10.986838943700635
      ],
      [
        "▁ora",
        -9.671567346080444
      ],
      [
        "▁planla",
        -10.342307562481157
      ],
      [
        "▁sertifikaları",
        -10.590367031172903
      ],
      [
        "azı",
        -8.843643741851018
      ],
      [
        "▁ali'",
        -8.799392567992886
      ],
      [
        "▁sorunla",
        -10.805131105846439
      ],
      [
        "▁yapmaktadır",
        -9.522437193511792
      ],
      [
        "▁gozukuyor",
        -9.495671559525263
      ],
      [
        "▁olumu",
        -9.619492879806387
      ],
      [
        "rak",
        -3.383613678221411
      ],
      [
        "▁beklenti",
        -10.516956481836122
      ],
      [
        "ınız",
        -8.58580935686656
      ],
      [
        "▁ilkokul",
        -10.563180375905382
      ],
      [
        "▁getir",
        -7.639219042483853
      ],
      [
        "▁yapil",
        -8.70549109615999
      ],
      [
        "▁ulas",
        -8.81954456049914
      ],
      [
        "▁kofteler",
        -10.699552397322174
      ],
      [
        "▁sahnesinde",
        -11.109370618622842
      ],
      [
        "▁cam",
        -8.42113710003153
      ],
      [
        "▁gorevli",
        -9.310367042519447
      ],
      [
        "uluyor",
        -8.844469583225852
      ],
      [
        "▁cig",
        -11.098866623902655
      ],
      [
        "▁uzmanlar",
        -9.73118020412523
      ],
      [
        "▁hizmetlerini",
        -10.463975155550777
      ],
      [
        "m",
        -7.306008514562447
      ],
      [
        "▁yasa",
        -8.44160695791037
      ],
      [
        "▁sınır",
        -9.195021389897004
      ],
      [
        "▁isimler",
        -9.79762144992789
      ],
      [
        "▁cıkmıs",
        -7.71271102542528
      ],
      [
        "▁navlun",
        -10.898746318876348
      ],
      [
        "onluk",
        -8.403771992470638
      ],
      [
        "inizi",
        -10.874068453018655
      ],
      [
        "▁bayrak",
        -9.572772440576879
      ],
      [
        "▁bodrum",
        -8.497306403028857
      ],
      [
        "▁veriyor",
        -6.8753463833787825
      ],
      [
        "▁projey",
        -11.071551370634275
      ],
      [
        "▁otur",
        -8.64822380741516
      ],
      [
        "▁rezervasyonu",
        -8.085466260848188
      ],
      [
        "gun",
        -9.45205317757916
      ],
      [
        "ırım",
        -10.21020698555717
      ],
      [
        "▁hacı",
        -8.987850369031662
      ],
      [
        "larda",
        -7.419791680549609
      ],
      [
        "mıs",
        -9.551155443526799
      ],
      [
        "▁kazasında",
        -10.37284948961577
      ],
      [
        "▁petersburg'",
        -7.199759637875763
      ],
      [
        "▁tahıl",
        -10.00194248148656
      ],
      [
        "▁takdir",
        -9.038246525919545
      ],
      [
        "▁baban",
        -10.473817118373036
      ],
      [
        "▁kır",
        -9.190934656938422
      ],
      [
        "▁borsada",
        -10.049222956717998
      ],
      [
        "▁hissediyordu",
        -9.533677625014892
      ],
      [
        "i",
        -4.682206501659428
      ],
      [
        "▁eliniz",
        -10.571127886937846
      ],
      [
        "ff",
        -10.814283107803464
      ],
      [
        "▁batma",
        -10.90672735419069
      ],
      [
        "vi",
        -8.969008402586814
      ],
      [
        "▁baraj",
        -11.058785045943626
      ],
      [
        "▁girme",
        -9.679200138687595
      ],
      [
        "▁di",
        -4.275857339641559
      ],
      [
        "▁bilincin",
        -10.806025937911404
      ],
      [
        "▁biyoloji",
        -10.589230203502837
      ],
      [
        "hen",
        -7.322566510349346
      ],
      [
        "▁endeks",
        -8.48174911119234
      ],
      [
        "s'in",
        -8.432533293423905
      ],
      [
        "▁bunun",
        -4.410861678317182
      ],
      [
        "▁blogu",
        -10.73207622333569
      ],
      [
        "▁sahi",
        -9.5450281022451
      ],
      [
        "▁diril",
        -10.817996514508057
      ],
      [
        "▁filmleri",
        -10.463208313436056
      ],
      [
        "3.9",
        -8.070915407330402
      ],
      [
        "ırlar",
        -9.473504795587502
      ],
      [
        "▁siper",
        -9.863847787540315
      ],
      [
        "▁ortamı",
        -10.353487160150062
      ],
      [
        "sarılı",
        -9.402152346716086
      ],
      [
        "▁kelimeleri",
        -11.114926320729397
      ],
      [
        "▁sabahı",
        -7.49086915077225
      ],
      [
        "▁onun",
        -8.016983368995357
      ],
      [
        "asına",
        -9.121937131687659
      ],
      [
        "▁pe",
        -8.837012697045974
      ],
      [
        "de",
        -6.946567213525358
      ],
      [
        "▁nispet",
        -10.732120247981108
      ],
      [
        "tıp",
        -7.593361442092817
      ],
      [
        "▁verebilir",
        -8.75133654132398
      ],
      [
        "▁varlık",
        -9.484136434215143
      ],
      [
        "▁vekili",
        -10.271800308174306
      ],
      [
        "▁sokaklarında",
        -10.608746170383766
      ],
      [
        "gru",
        -8.985719511832492
      ],
      [
        "▁bil",
        -10.160037392051876
      ],
      [
        "diyet",
        -10.447510959562862
      ],
      [
        "▁ısıklar",
        -10.307675791597358
      ],
      [
        "▁pratik",
        -9.118201502134607
      ],
      [
        "▁benc",
        -9.370728313668055
      ],
      [
        "▁temsilci",
        -9.707238831380742
      ],
      [
        "▁olacagın",
        -9.98369046127823
      ],
      [
        "ka",
        -9.347353796632493
      ],
      [
        "nc",
        -6.268229403463588
      ],
      [
        "▁can",
        -8.005984347688983
      ],
      [
        "▁yonetmen",
        -10.405836031342965
      ],
      [
        "▁degistirme",
        -9.450931819290536
      ],
      [
        "▁fay",
        -11.082957691337553
      ],
      [
        "▁kurumları",
        -9.706675188802485
      ],
      [
        "▁boyu",
        -8.690324009793352
      ],
      [
        "▁kaldır",
        -9.439316654017805
      ],
      [
        "lıyor",
        -8.689698215724924
      ],
      [
        "▁kahvaltida",
        -10.954804033799672
      ],
      [
        "akki",
        -10.7308821130339
      ],
      [
        "▁bayrakları",
        -10.773056049165108
      ],
      [
        "▁ihtiyacı",
        -8.814515702907368
      ],
      [
        "ma",
        -8.403842852480327
      ],
      [
        "▁sevin",
        -9.525545753432972
      ],
      [
        "▁odemesini",
        -10.943062926062938
      ],
      [
        "▁hay",
        -7.957898060284682
      ],
      [
        "alı",
        -9.668315100558322
      ],
      [
        "▁na",
        -9.26649760528727
      ],
      [
        "▁komsusu",
        -10.746303860765618
      ],
      [
        "▁bicimleri",
        -10.868604375052456
      ],
      [
        "▁tırman",
        -9.75674905534917
      ],
      [
        "▁kaliforniya",
        -7.288443125848875
      ],
      [
        "baz",
        -7.624916523494468
      ],
      [
        "▁mudahale",
        -9.54744892219749
      ],
      [
        "▁ye",
        -9.254666342885143
      ],
      [
        "▁cildi",
        -11.100509904022008
      ],
      [
        "▁gosterir",
        -8.326877619916301
      ],
      [
        "▁fotograflarını",
        -10.931266179997138
      ],
      [
        "▁tahta",
        -8.540975213102287
      ],
      [
        "▁sivri",
        -8.959226193856269
      ],
      [
        "▁indianapolis'te",
        -7.020105383147481
      ],
      [
        "▁ciziyor",
        -9.630929452430198
      ],
      [
        "▁digeri",
        -9.712292722577121
      ],
      [
        "▁deyi",
        -8.076753344353833
      ],
      [
        "nı",
        -9.11854805548513
      ],
      [
        "▁kelebek",
        -9.863847372532431
      ],
      [
        "▁gule",
        -9.629531860442189
      ],
      [
        "ye",
        -5.48050625196987
      ],
      [
        "▁kalıyor",
        -8.144357170958894
      ],
      [
        "▁ozellik",
        -11.020286450993304
      ],
      [
        "▁varlıgını",
        -9.925827453227356
      ],
      [
        "▁fabrikaları",
        -11.0167195682851
      ],
      [
        "▁sozcuk",
        -10.273000157955014
      ],
      [
        "▁suuru",
        -10.954387284401243
      ],
      [
        "▁oldugunu",
        -6.473096515345123
      ],
      [
        "▁selcuk",
        -8.798274129111848
      ],
      [
        "▁ziya",
        -8.901584996433172
      ],
      [
        "▁kepenkler",
        -11.055611518477132
      ],
      [
        "▁karsısında",
        -8.025457157625127
      ],
      [
        "▁ayıp",
        -9.866314251787438
      ],
      [
        "▁acıkladı",
        -7.347591487142226
      ],
      [
        "▁bunalım",
        -10.353181254160779
      ],
      [
        "▁meydan",
        -8.076466570434402
      ],
      [
        "▁duzenleyen",
        -9.620601276362368
      ],
      [
        "▁taht",
        -10.853264556999918
      ],
      [
        "▁butunlugu",
        -10.621517055648233
      ],
      [
        "▁miting",
        -10.165868875302786
      ],
      [
        "▁cekiyordu",
        -8.968096928090304
      ],
      [
        "▁ayın",
        -8.925331933158645
      ],
      [
        "▁500",
        -6.43563984284332
      ],
      [
        "▁dortlu",
        -10.950673192474586
      ],
      [
        "▁etiket",
        -10.35311287278951
      ],
      [
        "▁ote",
        -9.144235764559738
      ],
      [
        "▁zorunlu",
        -8.250197031507545
      ],
      [
        "▁olacaktı",
        -7.466379916501051
      ],
      [
        "di",
        -6.312665811588268
      ],
      [
        "▁ilgisizler",
        -9.242120215869361
      ],
      [
        "▁temmuz'da",
        -7.093763077525752
      ],
      [
        "▁restoran",
        -9.23812852369267
      ],
      [
        "▁paraları",
        -10.029935445259891
      ],
      [
        "▁vicdan",
        -10.003038952697693
      ],
      [
        "▁koz",
        -10.86473455914367
      ],
      [
        "▁dagılımı",
        -11.116853306817118
      ],
      [
        "▁paha",
        -10.463911158641505
      ],
      [
        "▁varması",
        -11.026198795419035
      ],
      [
        "▁bilim",
        -7.977450894698791
      ],
      [
        "▁mısır",
        -9.399224270178957
      ],
      [
        "▁grubunu",
        -10.277316010964098
      ],
      [
        "▁phoenix'",
        -7.466919520995885
      ],
      [
        "▁vurdu",
        -7.930257629841012
      ],
      [
        "▁nissan",
        -8.626823345412179
      ],
      [
        "▁ilkesi",
        -10.667486483270975
      ],
      [
        "▁otura",
        -9.08654128486085
      ],
      [
        "aval",
        -8.662231307535361
      ],
      [
        "▁ritmi",
        -11.0987433302573
      ],
      [
        "▁zamanla",
        -9.438102275553764
      ],
      [
        "▁kokusu",
        -8.878781924113436
      ],
      [
        "▁etkinlik",
        -9.992520041420319
      ],
      [
        "a'da",
        -8.79752361813666
      ],
      [
        "▁klima",
        -9.634468112030437
      ],
      [
        "▁calısma",
        -8.443260306088078
      ],
      [
        "▁yazım",
        -10.907258735512109
      ],
      [
        "▁izgara",
        -11.098746747480018
      ],
      [
        "▁ozen",
        -9.449073669334474
      ],
      [
        "l",
        -7.486030998796175
      ],
      [
        "▁tali",
        -9.66111217320898
      ],
      [
        "▁post",
        -10.468161353630194
      ],
      [
        "▁baglantı",
        -9.282415234822759
      ],
      [
        "▁kullandıgı",
        -9.26725210557025
      ],
      [
        "▁bunda",
        -7.388617737186985
      ],
      [
        "▁degil",
        -2.538634238983531
      ],
      [
        "▁hukumdar",
        -10.250880308923508
      ],
      [
        "▁tatlı",
        -9.867216078278158
      ],
      [
        "▁verme",
        -9.369676291580848
      ],
      [
        "▁yavrusu",
        -10.452218802846852
      ],
      [
        "▁sınıf",
        -7.77329095561456
      ],
      [
        "▁gorse",
        -8.863060994721438
      ],
      [
        "▁uluslararası",
        -9.63434291278764
      ],
      [
        "▁fikrin",
        -10.287419328217561
      ],
      [
        "▁terbiyesi",
        -11.029054563547763
      ],
      [
        "▁westinghouse",
        -8.798256336019259
      ],
      [
        "▁yap",
        -8.16121320876132
      ],
      [
        "▁servis",
        -7.646967136792957
      ],
      [
        "▁hicbirini",
        -7.414469362230415
      ],
      [
        "ip",
        -7.673280800405093
      ],
      [
        "▁elinde",
        -7.382576021561307
      ],
      [
        "▁olacagını",
        -8.395745090908594
      ],
      [
        "▁cıkmak",
        -9.33221241378732
      ],
      [
        "▁hatırın",
        -10.676631290550109
      ],
      [
        "▁duy",
        -8.727625489601778
      ],
      [
        "esi",
        -9.684940229101475
      ],
      [
        "▁izleyici",
        -10.436617202956631
      ],
      [
        "▁muhasebeci",
        -10.873505054537647
      ],
      [
        "▁ozlem",
        -8.70739769770546
      ],
      [
        "▁dogru",
        -7.603731796977202
      ],
      [
        "▁tak",
        -9.394555006868377
      ],
      [
        "▁benim",
        -8.665299185090031
      ],
      [
        "lılar",
        -10.234887641933934
      ],
      [
        "d",
        -6.042528314637639
      ],
      [
        "▁don",
        -8.594968907651552
      ],
      [
        "▁girmesi",
        -9.684719979761828
      ],
      [
        "34'te",
        -11.101474698968081
      ],
      [
        "▁corp.'u",
        -8.85014963860237
      ],
      [
        "▁gogsu",
        -10.829016304170619
      ],
      [
        "▁otların",
        -10.696058302456624
      ],
      [
        "▁gunleri",
        -8.43625917072991
      ],
      [
        "▁agzını",
        -9.133311543777458
      ],
      [
        "ca",
        -4.628700976346801
      ],
      [
        "▁peri",
        -9.216963593152531
      ],
      [
        "ane",
        -9.2936493647865
      ],
      [
        "▁askı",
        -9.338126725113565
      ],
      [
        "▁cansu",
        -8.900361475485491
      ],
      [
        "sizi",
        -9.754994451247393
      ],
      [
        "▁degistir",
        -8.59052840226389
      ],
      [
        "▁er",
        -9.422438990363903
      ],
      [
        "▁dert",
        -9.737648494143707
      ],
      [
        "▁getirdigi",
        -9.422267182257045
      ],
      [
        "▁markalar",
        -10.829834714215696
      ],
      [
        "▁dadı",
        -10.85223931891942
      ],
      [
        "▁cumhuriyet",
        -8.551680082047902
      ],
      [
        "▁sehri",
        -9.21959635640523
      ],
      [
        "uz",
        -7.511655463535279
      ],
      [
        "▁yapılma",
        -10.670133088173406
      ],
      [
        "zası",
        -11.125130849029254
      ],
      [
        "▁yarısın",
        -10.219925681172139
      ],
      [
        "▁class",
        -8.004698867144748
      ],
      [
        "▁s",
        -6.872829076261193
      ],
      [
        "▁tık",
        -9.46423621570848
      ],
      [
        "de",
        -6.701267329750672
      ],
      [
        "tedir",
        -9.386064181541016
      ],
      [
        "▁depremle",
        -10.608999121931763
      ],
      [
        "▁edilmez",
        -9.639548260030374
      ],
      [
        "az",
        -9.832502544261345
      ],
      [
        "▁etmeli",
        -9.010731004495986
      ],
      [
        "▁koltugun",
        -9.826061627540216
      ],
      [
        "▁toplantısı",
        -10.43486105557044
      ],
      [
        "larımızı",
        -8.596500244352153
      ],
      [
        "nın",
        -5.217046183080387
      ],
      [
        "▁pekmez",
        -11.062664547130773
      ],
      [
        "▁besin",
        -10.170371187096976
      ],
      [
        "▁ver",
        -6.707355301758632
      ],
      [
        "▁kogus",
        -10.435559589817053
      ],
      [
        "▁aramız",
        -10.760174598980303
      ],
      [
        "▁komisyonu'nu",
        -10.924140303908993
      ],
      [
        "emez",
        -9.4865510936414
      ],
      [
        "▁kredileri",
        -9.535121925730794
      ],
      [
        "▁deri",
        -8.937020957781005
      ],
      [
        "▁gazetelerde",
        -10.150495798468025
      ],
      [
        "sana",
        -9.759631630461799
      ],
      [
        "'",
        -5.949124632523341
      ],
      [
        "▁gururu",
        -10.348456325861317
      ],
      [
        "▁ekim",
        -7.390394719216669
      ],
      [
        "▁dusmus",
        -8.053195013146944
      ],
      [
        "▁kumsali",
        -10.169936219854772
      ],
      [
        "▁kitaplarda",
        -10.482775334237353
      ],
      [
        "▁uzumler",
        -11.024232366381224
      ],
      [
        "▁ruyalar",
        -10.25924535460299
      ],
      [
        "dakiler",
        -10.493124427059172
      ],
      [
        "▁toprak",
        -8.489745413190828
      ],
      [
        "▁edilmeli",
        -9.333579873570425
      ],
      [
        "▁lot",
        -10.89989098056692
      ],
      [
        "▁b.a.t",
        -8.790043313437089
      ],
      [
        "▁huzurun",
        -11.017612596799934
      ],
      [
        "▁yeryuzun",
        -11.058828904243835
      ],
      [
        "▁onda",
        -8.058578171363468
      ],
      [
        "▁degeri",
        -8.714061965887606
      ],
      [
        "▁yar",
        -9.097172166560098
      ],
      [
        "▁yayma",
        -10.886728008597842
      ],
      [
        "▁siyah",
        -6.842527925617158
      ],
      [
        "▁odakl",
        -9.539641346049166
      ],
      [
        "dınız",
        -9.71247079179907
      ],
      [
        "▁oldugu",
        -6.514803343798484
      ],
      [
        "▁loca",
        -10.626716121420243
      ],
      [
        "▁vucudun",
        -10.233931626888387
      ],
      [
        "▁karım",
        -10.953821116879158
      ],
      [
        "▁yatırımı",
        -10.160763279765812
      ],
      [
        "manız",
        -11.122618564393088
      ],
      [
        "▁ual",
        -7.259611041686999
      ],
      [
        "▁sosyalist",
        -10.353107970585198
      ],
      [
        "▁cesaretini",
        -10.16300204468412
      ],
      [
        "mum",
        -8.30973621921525
      ],
      [
        "▁tatil",
        -7.4078528586584
      ],
      [
        "▁kurtulus",
        -10.464793049715311
      ],
      [
        "▁urunlerin",
        -10.020466072901124
      ],
      [
        "▁yazısı",
        -10.049407166691429
      ],
      [
        "▁verenler",
        -10.415532127849401
      ],
      [
        "▁riski",
        -10.282632648629939
      ],
      [
        "▁haziran'da",
        -7.404441858125582
      ],
      [
        "▁turlerini",
        -10.555614328901122
      ],
      [
        "sin",
        -8.966020597506033
      ],
      [
        "▁muzigini",
        -10.982118807786303
      ],
      [
        "ms",
        -9.234830415597383
      ],
      [
        "fes",
        -8.44847588586754
      ],
      [
        "▁belirtileri",
        -10.594043285642847
      ],
      [
        "▁traktorun",
        -11.11573245735349
      ],
      [
        "▁araplar",
        -10.744163993121587
      ],
      [
        "▁geciri",
        -9.31975150254711
      ],
      [
        "9",
        -4.905248477984599
      ],
      [
        "▁fırlat",
        -9.664734385336997
      ],
      [
        "▁turun",
        -9.660504827856107
      ],
      [
        "is",
        -8.80045618765409
      ],
      [
        "▁gosteri",
        -6.766674628568176
      ],
      [
        "▁aydın",
        -9.466564075782006
      ],
      [
        "▁sokagı",
        -11.013918028535729
      ],
      [
        "▁6",
        -4.8583629380426645
      ],
      [
        "▁komutanlıgı",
        -11.09852694283063
      ],
      [
        "▁bulunabilir",
        -9.584959079382426
      ],
      [
        "▁angeles'",
        -7.507348018654785
      ],
      [
        "ın",
        -8.827495032886455
      ],
      [
        "▁destekciler",
        -10.911234515384077
      ],
      [
        "▁hepsini",
        -5.598394737968925
      ],
      [
        "▁santaj",
        -10.464219668792511
      ],
      [
        "▁dol",
        -8.934777434910057
      ],
      [
        "▁yaratır",
        -9.2146655193236
      ],
      [
        "▁kırılması",
        -10.900951459192239
      ],
      [
        "▁fransız",
        -8.492526700649357
      ],
      [
        "eren",
        -8.96638790483414
      ],
      [
        "▁85",
        -8.162562584727818
      ],
      [
        "a",
        -12.802702672349763
      ],
      [
        "▁bo",
        -7.697034901542983
      ],
      [
        "▁verdigi",
        -7.824939687926765
      ],
      [
        "▁rıza",
        -10.35316286545171
      ],
      [
        "▁kendileri",
        -6.4584490618068315
      ],
      [
        "▁kuması",
        -10.56653569476173
      ],
      [
        "▁etki",
        -8.564285244318832
      ],
      [
        "▁sisman",
        -11.121751503560164
      ],
      [
        "▁saatte",
        -9.20353003652386
      ],
      [
        "cık",
        -9.121051630397353
      ],
      [
        "salt",
        -8.865649547096801
      ],
      [
        "taki",
        -7.906016675487488
      ],
      [
        "▁sevdigi",
        -9.225645773512719
      ],
      [
        "▁ucusunu",
        -8.95786048401247
      ],
      [
        "▁haki",
        -8.822742828862129
      ],
      [
        "▁beta",
        -10.75643045720425
      ],
      [
        "▁alıs",
        -10.323594755240853
      ],
      [
        "▁mimari",
        -9.949332759606413
      ],
      [
        "▁dikis",
        -10.080660059406851
      ],
      [
        "bun",
        -9.672717828123197
      ],
      [
        "▁ipoteg",
        -9.863847301913683
      ],
      [
        "▁sur",
        -9.535128044494567
      ],
      [
        "▁med",
        -10.659596681149203
      ],
      [
        "mayacagı",
        -10.653047752794972
      ],
      [
        "▁sonu",
        -8.840424687555515
      ],
      [
        "c",
        -6.430645875655387
      ],
      [
        "▁kelepce",
        -11.102159960832275
      ],
      [
        "▁ates",
        -8.097457371288762
      ],
      [
        "ilir",
        -8.82432219839334
      ],
      [
        "▁ikamet",
        -11.10782420707907
      ],
      [
        "▁konagın",
        -10.790306801221718
      ],
      [
        "ncak",
        -9.235732636579971
      ],
      [
        "▁kaide",
        -10.898998801944648
      ],
      [
        "▁mesajı",
        -9.922127450477408
      ],
      [
        "ki",
        -5.536838665843374
      ],
      [
        "▁nutku",
        -11.098744380342104
      ],
      [
        "▁sa",
        -4.233276091639059
      ],
      [
        "mıs",
        -6.293224957924123
      ],
      [
        "▁cocuklarını",
        -9.735780977597202
      ],
      [
        "▁gideri",
        -9.590722279421325
      ],
      [
        "▁nazır",
        -11.09995108918666
      ],
      [
        "▁istedi",
        -7.238707431635013
      ],
      [
        "▁rey",
        -10.381001875394421
      ],
      [
        "▁demokrat",
        -7.983744257892762
      ],
      [
        "▁kahyası",
        -10.911499113415314
      ],
      [
        "▁0.7",
        -8.042984572210445
      ],
      [
        "▁akımı",
        -10.553666752664997
      ],
      [
        "tugunu",
        -10.774815678542687
      ],
      [
        "▁ulke",
        -8.084284521042996
      ],
      [
        "▁bell",
        -8.087504603383183
      ],
      [
        "▁45",
        -6.717907508711445
      ],
      [
        "la",
        -6.132318751279013
      ],
      [
        "▁etmiyor",
        -7.956083897896737
      ],
      [
        "▁saklama",
        -11.090627615660946
      ],
      [
        "▁va",
        -8.405399899478365
      ],
      [
        "▁istediler",
        -9.31064118247302
      ],
      [
        "nan",
        -8.835488107489033
      ],
      [
        "▁kara",
        -8.303777694538589
      ],
      [
        "▁intel",
        -8.8213689548277
      ],
      [
        "▁tabakası",
        -10.48246460026361
      ],
      [
        "▁kaldi",
        -5.487903793209691
      ],
      [
        "▁arap",
        -10.892861576468142
      ],
      [
        "c",
        -8.828483204966615
      ],
      [
        "▁analiz",
        -9.620216400766221
      ],
      [
        "▁ic",
        -8.3812777897339
      ],
      [
        "▁derde",
        -10.082281943364702
      ],
      [
        "▁dilini",
        -10.20007731192488
      ],
      [
        "▁aci",
        -8.848015617131738
      ],
      [
        "▁hastane",
        -9.473806196331006
      ],
      [
        "▁ziyareti",
        -10.314113766467308
      ],
      [
        "dılar",
        -7.915950957995643
      ],
      [
        "bire",
        -6.8038767734602335
      ],
      [
        "▁bostan",
        -9.755427577914514
      ],
      [
        "▁onc",
        -8.378922882909404
      ],
      [
        "▁efendi",
        -8.809956354907174
      ],
      [
        "▁karısımı",
        -10.496915577451164
      ],
      [
        "▁vesaire",
        -10.89874293410847
      ],
      [
        "▁ya",
        -4.634008824959308
      ],
      [
        "▁istedigim",
        -8.393325925289368
      ],
      [
        "▁oku",
        -8.754179721479447
      ],
      [
        "▁yalan",
        -9.286280097834133
      ],
      [
        "▁cozme",
        -10.092541286922431
      ],
      [
        "▁sin",
        -8.576966242332723
      ],
      [
        "▁gelme",
        -8.405286920219678
      ],
      [
        "▁kalmıs",
        -7.921193617553888
      ],
      [
        "▁uyma",
        -10.372729952606623
      ],
      [
        "▁kale",
        -9.132961567475022
      ],
      [
        "▁engeller",
        -10.956471430705069
      ],
      [
        "▁hınzır",
        -11.098742889451
      ],
      [
        "hal",
        -9.570451657428913
      ],
      [
        "▁diregi",
        -10.974069108951882
      ],
      [
        "▁sigortası",
        -9.682011106854658
      ],
      [
        "▁yapılaca",
        -7.3771974283079125
      ],
      [
        "▁800",
        -7.93167908129473
      ],
      [
        "tık",
        -9.762621223916373
      ],
      [
        "▁rehber",
        -8.527058612670402
      ],
      [
        "▁etkileri",
        -10.077811649404886
      ],
      [
        "▁belin",
        -10.161364506408106
      ],
      [
        "▁piyasaları",
        -9.150755977767268
      ],
      [
        "▁aks",
        -9.420775382059281
      ],
      [
        "ili",
        -6.820299547520811
      ],
      [
        "▁endiseler",
        -10.743550496785502
      ],
      [
        "dir",
        -5.098808729016515
      ],
      [
        "▁sinirleri",
        -10.152877200612666
      ],
      [
        "▁neresin",
        -10.495552154883924
      ],
      [
        "▁performans",
        -7.683806935546718
      ],
      [
        "▁domuz",
        -9.935398934467246
      ],
      [
        "▁kullan",
        -8.13805008987164
      ],
      [
        "▁bogazici'n",
        -10.254345846633855
      ],
      [
        "▁bahseder",
        -7.955306002242333
      ],
      [
        "▁kazancların",
        -10.103466206387118
      ],
      [
        "▁inanı",
        -9.403603416738214
      ],
      [
        "▁zayıf",
        -11.094048468439887
      ],
      [
        "▁etegi",
        -10.982818010524817
      ],
      [
        "▁yer",
        -7.3712044988055325
      ],
      [
        "▁mu",
        -8.432093979207734
      ],
      [
        "▁detay",
        -10.575744069574592
      ],
      [
        "▁kotu",
        -6.1317576265544735
      ],
      [
        "▁yuva",
        -9.917992784489932
      ],
      [
        "ville",
        -8.753945525857192
      ],
      [
        "▁bayragı",
        -10.862718102313806
      ],
      [
        "uyor",
        -7.614435796642611
      ],
      [
        "▁hissi",
        -11.052387960226524
      ],
      [
        "▁nez",
        -11.098571178270015
      ],
      [
        "▁sandal",
        -10.187575103716679
      ],
      [
        "▁kab",
        -9.464803300421819
      ],
      [
        "▁anket",
        -7.8374814982132595
      ],
      [
        "▁izlemek",
        -10.598808541442816
      ],
      [
        "▁yuze",
        -9.8590873725026
      ],
      [
        "▁guven",
        -7.800065670036667
      ],
      [
        "▁yanını",
        -10.602375742274566
      ],
      [
        "▁sezlong",
        -9.78944386405065
      ],
      [
        "rdi",
        -8.235372689751738
      ],
      [
        "▁dagıtır",
        -9.633527790280874
      ],
      [
        "▁ayaklarında",
        -10.889438157402713
      ],
      [
        "▁olanlar",
        -7.47071913158742
      ],
      [
        "▁ayarlamalarını",
        -11.102788880440265
      ],
      [
        "l",
        -5.218757669442791
      ],
      [
        "▁cesitler",
        -9.590111897960494
      ],
      [
        "siydi",
        -9.331021603958156
      ],
      [
        "▁skandalı",
        -10.685003367852266
      ],
      [
        "▁inanma",
        -10.822668008109689
      ],
      [
        "▁yuksel",
        -8.91108484252042
      ],
      [
        "▁agustos",
        -8.241755171939118
      ],
      [
        "▁ehliyet",
        -10.89879867462668
      ],
      [
        "izim",
        -9.429207404679605
      ],
      [
        "▁secenekler",
        -11.006219245605
      ],
      [
        "▁medeniyeti",
        -10.947087112677687
      ],
      [
        "ilde",
        -9.765991350500304
      ],
      [
        "▁te",
        -9.001305059798904
      ],
      [
        "▁biz",
        -8.47670938884334
      ],
      [
        "▁naci",
        -7.836373764627838
      ],
      [
        "▁tarzı",
        -9.774097364915647
      ],
      [
        "▁80",
        -7.328815330437189
      ],
      [
        "▁8.4",
        -8.04471720368417
      ],
      [
        "▁havuzu",
        -7.3796381898347425
      ],
      [
        "▁sırada",
        -8.220102409187438
      ],
      [
        "▁isini",
        -8.719102658037793
      ],
      [
        "▁destekliyor",
        -9.255077678280978
      ],
      [
        "▁derdi",
        -9.96366312727354
      ],
      [
        "▁bilmem",
        -8.305350569770109
      ],
      [
        "▁ekim'de",
        -8.241055313297913
      ],
      [
        "▁kose",
        -8.858001821099995
      ],
      [
        "▁getirmek",
        -9.749553346166177
      ],
      [
        "▁temel",
        -7.16989134881297
      ],
      [
        "iniz",
        -8.30316611001676
      ],
      [
        "yecegi",
        -10.755535492513381
      ],
      [
        "▁tepesinde",
        -10.942754477430027
      ],
      [
        "▁musteriler",
        -8.903895044796714
      ],
      [
        "▁bilet",
        -8.146927355120992
      ],
      [
        "▁yapmaya",
        -8.64202528866959
      ],
      [
        "▁kuslar",
        -9.520035615718797
      ],
      [
        "▁faturaları",
        -10.779173524091636
      ],
      [
        "▁sene",
        -7.622237901429365
      ],
      [
        "▁itaatsizlik",
        -11.098958280753171
      ],
      [
        "▁tersine",
        -10.167729290137203
      ],
      [
        "▁1999",
        -8.08543405752368
      ],
      [
        "▁hemsire",
        -10.433736179071435
      ],
      [
        "ıs",
        -9.616450236961164
      ],
      [
        "▁benzi",
        -10.97945040209354
      ],
      [
        "▁edemiyor",
        -9.091085381153576
      ],
      [
        "▁muamma",
        -10.464224325339298
      ],
      [
        "▁mandıra",
        -11.098790467328943
      ],
      [
        "▁isten",
        -9.370865786206707
      ],
      [
        "▁yasası",
        -9.553725851091736
      ],
      [
        "d",
        -8.20731061415474
      ],
      [
        "▁magara",
        -10.430867603290453
      ],
      [
        "▁vak",
        -10.230688387591318
      ],
      [
        "▁baslangıcı",
        -9.966757716374246
      ],
      [
        "▁ciz",
        -10.590945113348365
      ],
      [
        "▁kıskac",
        -11.098872529841724
      ],
      [
        "▁tanık",
        -9.825817082910808
      ],
      [
        "▁alıskanlık",
        -10.978923342421155
      ],
      [
        "▁dar",
        -10.474907864182375
      ],
      [
        "▁piyasasında",
        -9.555499731126645
      ],
      [
        "▁marcos",
        -9.012419238293038
      ],
      [
        "oglanı",
        -11.084028307714151
      ],
      [
        "▁ne",
        -9.972767230577535
      ],
      [
        "ar",
        -8.433126013799777
      ],
      [
        "▁vucudunu",
        -10.02847449188955
      ],
      [
        "▁ayrımcılıgı",
        -11.12651658662554
      ],
      [
        "les",
        -8.846020961216237
      ],
      [
        "▁de",
        -4.7753992930642415
      ],
      [
        "▁tulumba",
        -10.471467986222901
      ],
      [
        "▁borsa",
        -8.198264063573205
      ],
      [
        "▁baliklari",
        -11.09923330170623
      ],
      [
        "▁yarısını",
        -9.85372847870175
      ],
      [
        "▁l",
        -8.001456448523463
      ],
      [
        "▁dayanıyor",
        -9.582304384997489
      ],
      [
        "▁gunler",
        -8.535755032459601
      ],
      [
        "un",
        -6.959468783522774
      ],
      [
        "▁tekneler",
        -10.72273005796778
      ],
      [
        "sunda",
        -10.753161803667671
      ],
      [
        "dır",
        -6.245549470065421
      ],
      [
        "▁olamaz",
        -8.251286384626486
      ],
      [
        "▁gene",
        -9.84004856015699
      ],
      [
        "▁buyuk",
        -10.709669595262753
      ],
      [
        "▁dususte",
        -10.290585479199091
      ],
      [
        "hil",
        -10.821216673712165
      ],
      [
        "▁val",
        -11.049465284545514
      ],
      [
        "▁sanatlar",
        -10.921527229973998
      ],
      [
        "lik",
        -7.6912088397564204
      ],
      [
        "▁199",
        -7.246510262211591
      ],
      [
        "▁isleri",
        -8.747171771165153
      ],
      [
        "▁%",
        -3.886665045624931
      ],
      [
        "f",
        -9.393137415879051
      ],
      [
        "▁calısmaları",
        -9.492614714676076
      ],
      [
        "▁camlar",
        -10.26209159649912
      ],
      [
        "▁yabancılar",
        -10.90593986276907
      ],
      [
        "▁tarafında",
        -7.192730535379257
      ],
      [
        "▁fonu",
        -9.72852541042767
      ],
      [
        "▁musamba",
        -10.899367456512978
      ],
      [
        "▁legen",
        -11.101340283632892
      ],
      [
        "▁houston",
        -10.898742891843618
      ],
      [
        "l",
        -8.749613634584774
      ],
      [
        "▁atıyordu",
        -9.260449426633059
      ],
      [
        "▁100'",
        -9.863997688238854
      ],
      [
        "▁sek",
        -10.321781687124162
      ],
      [
        "cı",
        -9.439805212208597
      ],
      [
        "▁doga",
        -7.4439148638797
      ],
      [
        "▁yasamı",
        -9.690108646886696
      ],
      [
        "▁oyunda",
        -10.25130980465252
      ],
      [
        "▁bin",
        -9.89887978099321
      ],
      [
        "sarısın",
        -9.435816334492621
      ],
      [
        "▁getiri",
        -8.300033995827805
      ],
      [
        "▁yurt",
        -8.66319706197312
      ],
      [
        "▁bicme",
        -10.600834162912548
      ],
      [
        "▁gozlemcileri",
        -10.60146999867995
      ],
      [
        "▁degildi",
        -2.1591214805820806
      ],
      [
        "din",
        -10.997333208749605
      ],
      [
        "▁miktarlarda",
        -11.121857502053883
      ],
      [
        "▁heyeti",
        -9.807417123282125
      ],
      [
        "▁bankalar",
        -9.098409855287457
      ],
      [
        "▁donemi",
        -9.09227536024358
      ],
      [
        "▁muster",
        -9.239283906377793
      ],
      [
        "▁resepsiyon",
        -9.979010964864697
      ],
      [
        "▁kapsam",
        -8.331701078668564
      ],
      [
        "▁1.0",
        -7.658540597071802
      ],
      [
        "▁sonra",
        -4.483960125414106
      ],
      [
        "▁halleri",
        -10.119999840855655
      ],
      [
        "iyi",
        -9.31613233380525
      ],
      [
        "c",
        -12.802702672349787
      ],
      [
        "▁yapiyor",
        -9.640633469119978
      ],
      [
        "▁sık",
        -9.436996591701568
      ],
      [
        "▁pul",
        -9.596621968276011
      ],
      [
        "▁dek",
        -10.296904230275741
      ],
      [
        "▁kravat",
        -10.223750821542154
      ],
      [
        "▁kanal",
        -10.474787508146147
      ],
      [
        "▁hep",
        -10.929380793711124
      ],
      [
        "▁ası",
        -9.54720252587377
      ],
      [
        "kara",
        -9.422349384562185
      ],
      [
        "▁parmaklıklar",
        -10.90669983510824
      ],
      [
        "▁mis",
        -5.918581206871204
      ],
      [
        "▁tamam",
        -7.655270434831342
      ],
      [
        "▁abd",
        -9.12400951629936
      ],
      [
        "▁acenta",
        -9.742524868766099
      ],
      [
        "altı",
        -6.945780996775762
      ],
      [
        "▁belir",
        -9.1035971896474
      ],
      [
        "▁issizlik",
        -9.933958028479479
      ],
      [
        "▁gitmek",
        -9.316368473751973
      ],
      [
        "▁salata",
        -9.395616483836521
      ],
      [
        "▁yanı",
        -8.447338164011763
      ],
      [
        "▁kızdı",
        -9.268423583809266
      ],
      [
        "▁ona",
        -4.235995178139032
      ],
      [
        "▁ruzgarı",
        -10.059808024528882
      ],
      [
        "mesini",
        -9.871377066316498
      ],
      [
        "erel",
        -9.018091085770678
      ],
      [
        "▁yasam",
        -8.232680650697969
      ],
      [
        "▁boldu",
        -9.094601493804596
      ],
      [
        "▁cehennem",
        -9.930513896067504
      ],
      [
        "▁tereyagı",
        -10.253109004525898
      ],
      [
        "▁bile",
        -8.56178551161112
      ],
      [
        "e",
        -5.68787879011569
      ],
      [
        "▁savasın",
        -10.366817777214163
      ],
      [
        "st",
        -7.641483134940492
      ],
      [
        "in",
        -5.624826791255621
      ],
      [
        "▁buzdolabı",
        -10.475013553965526
      ],
      [
        "▁oranların",
        -10.838279982194411
      ],
      [
        "▁f",
        -7.967080839754346
      ],
      [
        "3",
        -4.775100445387008
      ],
      [
        "▁rezervasyon",
        -8.326809805903682
      ],
      [
        "▁alır",
        -7.453423378733562
      ],
      [
        "▁kralice",
        -10.464286264074003
      ],
      [
        "▁rahmin",
        -11.09898735807144
      ],
      [
        "▁oburun",
        -8.303320137242117
      ],
      [
        "▁ola",
        -9.191940555025495
      ],
      [
        "▁rahatsızlık",
        -10.253210913059863
      ],
      [
        "bil",
        -10.46615802699192
      ],
      [
        "sine",
        -9.334618143189005
      ],
      [
        "▁gorusunu",
        -10.763106833063443
      ],
      [
        "bizim",
        -8.81398627475595
      ],
      [
        "▁okka",
        -10.353480031444972
      ],
      [
        "▁yapacagın",
        -9.675296313302116
      ],
      [
        "▁kimin",
        -7.5530505528743355
      ],
      [
        "▁beach",
        -8.430462692611972
      ],
      [
        "ir",
        -11.48553880793215
      ],
      [
        "▁kul",
        -8.814594636910675
      ],
      [
        "gim",
        -10.623557933012009
      ],
      [
        "▁gazete",
        -8.190931532112044
      ],
      [
        "▁camasır",
        -9.192106314156886
      ],
      [
        "▁pencere",
        -8.817471965396786
      ],
      [
        "▁hesap",
        -8.69728886976018
      ],
      [
        "60",
        -8.095069994909434
      ],
      [
        "▁delta",
        -6.478642828940246
      ],
      [
        "▁fen",
        -9.759883580011703
      ],
      [
        "▁ka",
        -8.433849711985983
      ],
      [
        "▁tahminle",
        -10.635982933697173
      ],
      [
        "▁kazan",
        -8.782007187408357
      ],
      [
        "▁tokat",
        -10.162201220279695
      ],
      [
        "▁amiri",
        -10.923600520839708
      ],
      [
        "▁bireyi",
        -10.992115635822241
      ],
      [
        "nmak",
        -10.763504200078247
      ],
      [
        "▁serbet",
        -10.997245501449855
      ],
      [
        "▁soylemis",
        -9.299597926937443
      ],
      [
        "▁saye",
        -9.50134764661269
      ],
      [
        "▁52",
        -7.688842963038669
      ],
      [
        "▁izleme",
        -10.50302831414378
      ],
      [
        "▁ifade",
        -7.531398346335536
      ],
      [
        "▁sarması",
        -11.09975534360796
      ],
      [
        "▁alım",
        -7.561624670126887
      ],
      [
        "▁surgun",
        -10.732108702055392
      ],
      [
        "▁degerlendiril",
        -10.89877641122546
      ],
      [
        "▁adamları",
        -8.683338855786909
      ],
      [
        "▁kaldırdı",
        -8.696993431549256
      ],
      [
        "▁22",
        -6.204600493789114
      ],
      [
        "▁'li",
        -7.839626404640395
      ],
      [
        "yum",
        -10.730695380847962
      ],
      [
        "▁maksat",
        -10.732076300111004
      ],
      [
        "▁hapishane",
        -10.075964351934726
      ],
      [
        "▁keyif",
        -8.646195907887032
      ],
      [
        "▁hil",
        -8.840699768290412
      ],
      [
        "▁seytan",
        -10.145865499138
      ],
      [
        "▁tanı",
        -8.502197015348468
      ],
      [
        "▁tesekkurler",
        -8.253572382656614
      ],
      [
        "▁tadi",
        -9.949638995782093
      ],
      [
        "▁sunul",
        -9.675975524237405
      ],
      [
        "▁ker",
        -10.876273671395753
      ],
      [
        "▁edemez",
        -9.037145754766156
      ],
      [
        "▁fonunu",
        -10.647998649440023
      ],
      [
        "ilmek",
        -11.018948755488253
      ],
      [
        "▁kontrat",
        -10.590173235565484
      ],
      [
        "▁asagıda",
        -9.1129117911151
      ],
      [
        "▁romanlar",
        -11.029401871997946
      ],
      [
        "▁olmakta",
        -9.795092366349476
      ],
      [
        "▁asırlar",
        -10.835099840123869
      ],
      [
        "▁davulu",
        -10.905389146451157
      ],
      [
        "▁rahat",
        -8.30828836050418
      ],
      [
        "▁anlasmalar",
        -10.88145862428762
      ],
      [
        "zgin",
        -9.336895627434853
      ],
      [
        "▁39.5",
        -8.26420191012151
      ],
      [
        "▁mev",
        -6.723538293557618
      ],
      [
        "▁ediyorlar",
        -7.720275247735813
      ],
      [
        "▁maymun",
        -10.464220937697704
      ],
      [
        "erim",
        -9.24350895241884
      ],
      [
        "▁hukumlerin",
        -10.87697451347174
      ],
      [
        "▁kurumu",
        -9.666019161969196
      ],
      [
        "▁ne",
        -6.301448313353805
      ],
      [
        "▁japonya",
        -7.316375579672631
      ],
      [
        "▁mutlu",
        -9.534109119470395
      ],
      [
        "▁sigarasını",
        -10.49355853116089
      ],
      [
        "▁seslendi",
        -8.794789061695088
      ],
      [
        "▁ohio",
        -8.889178899301665
      ],
      [
        "▁kupası",
        -11.101900101143839
      ],
      [
        "▁cukur",
        -10.629082317602732
      ],
      [
        "lugunu",
        -9.803604144219522
      ],
      [
        "▁uctu",
        -9.318179134156583
      ],
      [
        "▁herkes",
        -9.764904299380314
      ],
      [
        "▁ihtiyar",
        -7.886401087484883
      ],
      [
        "leri",
        -9.04804115995917
      ],
      [
        "▁hic",
        -9.270823439312151
      ],
      [
        "▁ulasımını",
        -9.640721314399048
      ],
      [
        "▁pilotlar",
        -9.74175094948212
      ],
      [
        "▁kapsamında",
        -9.75282489665134
      ],
      [
        "▁gr",
        -9.796434998983752
      ],
      [
        "▁kapılar",
        -9.855517541454104
      ],
      [
        "ir",
        -7.332362169299999
      ],
      [
        "▁oglun",
        -10.27325892234862
      ],
      [
        "▁ordusunu",
        -10.373160902213804
      ],
      [
        "▁vurgu",
        -10.512408074888409
      ],
      [
        "zi",
        -9.901658465207191
      ],
      [
        "▁problemleri",
        -10.378612172787653
      ],
      [
        "▁a",
        -6.925115723606802
      ],
      [
        "▁dususle",
        -8.628127332384139
      ],
      [
        "lus",
        -10.734477602486447
      ],
      [
        "ayacak",
        -9.373011200179466
      ],
      [
        "▁aksam",
        -8.353179542310087
      ],
      [
        "▁makinesi",
        -9.61602643548899
      ],
      [
        "▁av",
        -9.280794313030782
      ],
      [
        "▁bira",
        -9.216376132335677
      ],
      [
        "izde",
        -10.527547769238616
      ],
      [
        "▁ma",
        -7.653124638385439
      ],
      [
        "▁sanı",
        -9.405773214072035
      ],
      [
        "sa",
        -6.559936724481407
      ],
      [
        "▁j",
        -10.791723377106573
      ],
      [
        "▁namus",
        -9.324341895615083
      ],
      [
        "▁sesi",
        -8.05912395882766
      ],
      [
        "▁ulusu",
        -8.966991739255032
      ],
      [
        "▁renk",
        -9.226255847939537
      ],
      [
        "▁uyum",
        -9.399233928222925
      ],
      [
        "▁dolgun",
        -9.315192103445236
      ],
      [
        "▁adamlar",
        -9.597464242842275
      ],
      [
        "yor",
        -6.792739334769136
      ],
      [
        "▁sık",
        -9.525425921906283
      ],
      [
        "▁sokag",
        -9.150052343044885
      ],
      [
        "ısı",
        -10.03096044413045
      ],
      [
        "▁aklını",
        -10.054330798899313
      ],
      [
        "▁derecelendiril",
        -9.714935273336248
      ],
      [
        "▁sunucu",
        -10.636632877679883
      ],
      [
        "▁tane",
        -7.990750416145958
      ],
      [
        "▁programları",
        -9.45837397317431
      ],
      [
        "▁ticaretini",
        -11.026169972865683
      ],
      [
        "▁bar",
        -8.82175340851035
      ],
      [
        "▁borcun",
        -10.25780647749555
      ],
      [
        "lan",
        -7.373043220940611
      ],
      [
        "lerinden",
        -7.743808517523263
      ],
      [
        "tan",
        -6.7100181245625805
      ],
      [
        "▁personeli",
        -8.071928961954765
      ],
      [
        "▁goller",
        -10.465202971161544
      ],
      [
        "▁du",
        -8.633377315617889
      ],
      [
        "▁klor",
        -10.734292259593655
      ],
      [
        "eden",
        -6.570073607543819
      ],
      [
        "ıldıgında",
        -9.880455406949281
      ],
      [
        "▁kasık",
        -9.953420084038058
      ],
      [
        "▁odev",
        -10.893309013249503
      ],
      [
        "▁gunes",
        -8.113118918524897
      ],
      [
        "▁disleri",
        -10.189927719615003
      ],
      [
        "▁fırsatta",
        -10.51698773586472
      ],
      [
        "▁calıs",
        -8.954883184892408
      ],
      [
        "▁nashville'de",
        -7.653684376333695
      ],
      [
        "▁acı",
        -8.450889146558804
      ],
      [
        "▁degis",
        -8.578058709812273
      ],
      [
        "▁yerde",
        -7.370215540873948
      ],
      [
        "▁sur",
        -7.903491867822824
      ],
      [
        "son",
        -7.531826592809271
      ],
      [
        "▁kol",
        -9.578541811589846
      ],
      [
        "▁umit",
        -9.58438353552933
      ],
      [
        "▁tasdik",
        -11.099356592910569
      ],
      [
        "▁bilgisini",
        -10.842941843806825
      ],
      [
        "▁c",
        -9.552220826984598
      ],
      [
        "▁re",
        -9.227911868363098
      ],
      [
        "▁kazanım",
        -11.026481256374574
      ],
      [
        "▁hewlett-packard",
        -9.009367445891513
      ],
      [
        "▁eylemlerini",
        -11.01643880692655
      ],
      [
        "▁odasın",
        -9.474443761927333
      ],
      [
        "▁kimini",
        -10.782556256470805
      ],
      [
        "▁yapım",
        -10.01742025361177
      ],
      [
        "▁surada",
        -8.985920604141986
      ],
      [
        "▁neler",
        -6.5615336919270835
      ],
      [
        "▁zamanın",
        -10.993458137603094
      ],
      [
        "▁kimligini",
        -10.404757333414338
      ],
      [
        "▁tutumu",
        -10.610615390128874
      ],
      [
        "▁arazisini",
        -11.115936677138023
      ],
      [
        "▁ede",
        -8.332088230500652
      ],
      [
        "madıgını",
        -9.214777236741467
      ],
      [
        "▁yerini",
        -8.489789147186052
      ],
      [
        "▁hostes",
        -10.898768132553247
      ],
      [
        "▁sanatkar",
        -11.057391565438742
      ],
      [
        "'y",
        -7.276589864572724
      ],
      [
        "▁bagımlı",
        -8.906296782251912
      ],
      [
        "▁durdurma",
        -10.359826866016952
      ],
      [
        ".",
        -1.1587881497080552
      ],
      [
        "mazdı",
        -8.812500534069283
      ],
      [
        "m",
        -6.995862214619031
      ],
      [
        "▁ekibin",
        -10.85937151718046
      ],
      [
        "▁ber",
        -8.189873495288287
      ],
      [
        "▁bosluk",
        -9.363108897148514
      ],
      [
        "ras",
        -9.489106800141144
      ],
      [
        "▁uyelerin",
        -10.309797051427466
      ],
      [
        "▁arabası",
        -9.97986764055955
      ],
      [
        "▁sevgilisini",
        -10.372723595571387
      ],
      [
        "▁duzenlemeleri",
        -10.15214336836039
      ],
      [
        "ırıl",
        -9.171073999052668
      ],
      [
        "duru",
        -9.758538849794961
      ],
      [
        "'un",
        -5.705129799005704
      ],
      [
        "▁william",
        -8.133740340470013
      ],
      [
        "▁bosa",
        -9.808120335667674
      ],
      [
        "▁va",
        -10.18485036728822
      ],
      [
        "▁9",
        -10.012702628159118
      ],
      [
        "▁kulubu",
        -9.863860854902883
      ],
      [
        "▁sıgır",
        -10.353153938677318
      ],
      [
        "▁pittsburgh'ta",
        -5.619548745818885
      ],
      [
        "▁balıkcılar",
        -10.703787881511705
      ],
      [
        "▁laf",
        -8.635911610528687
      ],
      [
        "▁ihsan",
        -10.356578798385083
      ],
      [
        "t",
        -5.970918673445824
      ],
      [
        "'nı",
        -10.028220096374465
      ],
      [
        "▁noksan",
        -11.09874320165291
      ],
      [
        "▁borsası",
        -8.700895984341411
      ],
      [
        "▁bolgelerinde",
        -10.511183489640999
      ],
      [
        "▁istiyordu",
        -8.200916572640097
      ],
      [
        "▁kaydeder",
        -9.764979570157271
      ],
      [
        "▁yukseliyor",
        -8.922507096997732
      ],
      [
        "▁sekeri",
        -10.049189042270438
      ],
      [
        "▁ikimiz",
        -10.325769576015354
      ],
      [
        "▁senaryo",
        -9.40611804503627
      ],
      [
        "▁muazz",
        -8.958145241699416
      ],
      [
        "▁direktoru",
        -9.331871362482154
      ],
      [
        "▁davalarda",
        -10.879499795786987
      ],
      [
        "▁vuru",
        -9.436110506156915
      ],
      [
        "▁baslan",
        -8.829810794727031
      ],
      [
        "caklı",
        -9.4971244038305
      ],
      [
        "ektedir",
        -9.616726210375742
      ],
      [
        "▁parla",
        -7.872920519380257
      ],
      [
        "▁gosterdigin",
        -10.756926861709069
      ],
      [
        "▁emrini",
        -10.783616909707339
      ],
      [
        "▁otesin",
        -9.475185548589444
      ],
      [
        "▁11.",
        -8.302229323487445
      ],
      [
        "▁ko",
        -8.436188161531723
      ],
      [
        "miza",
        -9.435347570385105
      ],
      [
        "lemeye",
        -10.24571638102599
      ],
      [
        "▁direkler",
        -10.79632399247607
      ],
      [
        "▁bakır",
        -8.831945693814587
      ],
      [
        "u",
        -4.975797338804984
      ],
      [
        "▁araba",
        -7.375483013385602
      ],
      [
        "▁county",
        -8.986855090658505
      ],
      [
        "▁can",
        -7.731664627365475
      ],
      [
        "▁kaybed",
        -8.422957492860599
      ],
      [
        "▁secenekleri",
        -9.70428789839778
      ],
      [
        "▁suikast",
        -10.162198897904684
      ],
      [
        "▁denetimi",
        -10.673513995255519
      ],
      [
        "seri",
        -10.808438591789828
      ],
      [
        "▁eksi",
        -9.529987339581917
      ],
      [
        "▁citicorp",
        -8.58164341603295
      ],
      [
        "ka",
        -4.814930333216153
      ],
      [
        "▁kaptan",
        -9.448221206668942
      ],
      [
        "▁ikram",
        -9.366077204772829
      ],
      [
        "▁saadet",
        -10.017477167978091
      ],
      [
        "▁komutan",
        -10.83587427507122
      ],
      [
        "▁karanlıg",
        -11.053357556755383
      ],
      [
        "▁saffet",
        -8.493727165082378
      ],
      [
        "▁kilim",
        -10.859352804131966
      ],
      [
        "dayım",
        -10.875173334343218
      ],
      [
        "▁tarifesi",
        -10.393143076280381
      ],
      [
        "acagın",
        -11.004290114284187
      ],
      [
        "▁alacakları",
        -11.010450716567673
      ],
      [
        "▁nakliye",
        -9.776858434453922
      ],
      [
        "▁kazanın",
        -10.576107814646896
      ],
      [
        "▁ogrendi",
        -8.794283601051998
      ],
      [
        "▁cocuklugum",
        -10.81610302534471
      ],
      [
        "▁tacir",
        -11.076720068461405
      ],
      [
        "▁carsafını",
        -11.107446853593295
      ],
      [
        "▁gel",
        -7.265193902617013
      ],
      [
        "▁oranın",
        -10.999542893992965
      ],
      [
        "▁hamallar",
        -10.337932189914447
      ],
      [
        "▁oynamak",
        -10.96335669243026
      ],
      [
        "▁idare",
        -8.423555503611226
      ],
      [
        "▁askın",
        -10.333657577925205
      ],
      [
        "▁hastalıkları",
        -10.440332170036607
      ],
      [
        "▁kapanısın",
        -10.247340687470118
      ],
      [
        "▁fikir",
        -8.755472364316885
      ],
      [
        "▁koyu",
        -9.695124527119555
      ],
      [
        "▁gozlu",
        -10.65896782946137
      ],
      [
        "hepsini",
        -10.448451671567815
      ],
      [
        "neral",
        -8.436613542556437
      ],
      [
        "▁nefer",
        -10.569678983459601
      ],
      [
        "▁herkesi",
        -10.128872118542592
      ],
      [
        "▁sınav",
        -9.65599659180595
      ],
      [
        "▁teyze",
        -9.953487043724074
      ],
      [
        "▁art",
        -9.156754499105146
      ],
      [
        "▁kumsal",
        -9.21965614408818
      ],
      [
        "▁istedikleri",
        -10.437616395291005
      ],
      [
        "▁mahkemesi",
        -9.030842672447948
      ],
      [
        "▁maddelerin",
        -10.59113324008935
      ],
      [
        "▁lacivert",
        -8.643565974139694
      ],
      [
        "asın",
        -10.52206928789985
      ],
      [
        "▁kapadı",
        -8.816616371921096
      ],
      [
        "▁uzak",
        -7.416518726101365
      ],
      [
        "▁hatları",
        -10.075195851004068
      ],
      [
        "▁vatan",
        -9.306250094423607
      ],
      [
        "ter",
        -8.60355042778215
      ],
      [
        "6",
        -10.15850655202444
      ],
      [
        "▁guber",
        -8.898408859570898
      ],
      [
        "▁dogur",
        -9.500745271848434
      ],
      [
        "▁ne",
        -9.042026304396284
      ],
      [
        "▁paul",
        -7.718110480898946
      ],
      [
        "▁guvenligini",
        -10.499597143120223
      ],
      [
        "yle",
        -8.775129653391309
      ],
      [
        "ması",
        -7.2464266973765294
      ],
      [
        "▁beklentim",
        -11.058606625179083
      ],
      [
        "▁zorluklar",
        -9.928890185168036
      ],
      [
        "▁ust",
        -9.126257563496061
      ],
      [
        "▁bulun",
        -8.986789661399596
      ],
      [
        "▁tiyatroda",
        -11.033190522430102
      ],
      [
        "▁1'",
        -10.644638433221965
      ],
      [
        "▁kimi",
        -5.800937397148719
      ],
      [
        "▁satıla",
        -8.673308091097581
      ],
      [
        "▁veri",
        -8.832547001946942
      ],
      [
        "aclı",
        -8.773199229224863
      ],
      [
        "▁kent",
        -9.068031388118637
      ],
      [
        "ligi",
        -8.121041969578469
      ],
      [
        "▁uye",
        -9.368321431177021
      ],
      [
        "▁endeksi",
        -7.77366292456002
      ],
      [
        "dini",
        -9.648552577536071
      ],
      [
        "▁memuru",
        -9.741536123011981
      ],
      [
        "▁",
        -1.722964280954951
      ],
      [
        "▁carsıda",
        -10.382321164689253
      ],
      [
        "▁yok",
        -5.684098178948602
      ],
      [
        "kce",
        -8.941365039378947
      ],
      [
        "▁kimliklerini",
        -10.90307664529988
      ],
      [
        "▁nese",
        -9.847737968208957
      ],
      [
        "▁setin",
        -10.944765078764267
      ],
      [
        "▁guveyi",
        -11.101323723886619
      ],
      [
        "▁karsılıgın",
        -9.568271385066721
      ],
      [
        "▁iliskilerini",
        -10.676267811616889
      ],
      [
        "▁sarıl",
        -9.537965544255488
      ],
      [
        "▁politik",
        -7.996027697662492
      ],
      [
        "▁durmak",
        -10.896859489589934
      ],
      [
        "▁buzlanma",
        -9.408293078749319
      ],
      [
        "▁alanlar",
        -9.893091850212532
      ],
      [
        "diginde",
        -10.096821631124406
      ],
      [
        "itre",
        -10.58871673560031
      ],
      [
        "▁donu",
        -10.985868548499548
      ],
      [
        "▁gorunusu",
        -10.460195195603124
      ],
      [
        "▁korsan",
        -10.464245856587125
      ],
      [
        "▁karsila",
        -10.465851544421747
      ],
      [
        "lanmaya",
        -11.111461838171948
      ],
      [
        "▁mutl",
        -7.186288115784883
      ],
      [
        "▁kendin",
        -6.061141479550905
      ],
      [
        "n",
        -5.575916566983608
      ],
      [
        "▁bocek",
        -9.634857276892554
      ],
      [
        "▁vefat",
        -10.465006968886929
      ],
      [
        "deli",
        -8.805753695423384
      ],
      [
        "▁ermeni",
        -9.007758203033264
      ],
      [
        "▁sakatlıgı",
        -10.740504349992753
      ],
      [
        "ecekleri",
        -10.693621968892083
      ],
      [
        "▁gemi",
        -8.109333382095294
      ],
      [
        "is",
        -8.944388461141315
      ],
      [
        "▁doz",
        -10.812780787809746
      ],
      [
        "▁alkıs",
        -10.078895865256325
      ],
      [
        "▁dalı",
        -9.788656581193983
      ],
      [
        "▁birlestirme",
        -11.065413369430074
      ],
      [
        "▁kesinti",
        -10.310256071292775
      ],
      [
        "▁astı",
        -8.681649117670538
      ],
      [
        "▁oncu",
        -10.773950161469202
      ],
      [
        "▁tasların",
        -10.884737575778427
      ],
      [
        "▁oner",
        -8.744147506028956
      ],
      [
        "▁ara",
        -8.526545406759949
      ],
      [
        "▁toplum",
        -8.897090138550798
      ],
      [
        "▁mudafaa",
        -11.098742905228045
      ],
      [
        "▁cuval",
        -9.892175975334009
      ],
      [
        "▁medya",
        -9.212357070856994
      ],
      [
        "▁almaya",
        -9.530794381394143
      ],
      [
        "▁kokain",
        -10.73224268002949
      ],
      [
        "lardan",
        -7.652760611047711
      ],
      [
        "▁pazartesi",
        -8.74411908672075
      ],
      [
        "er",
        -9.546951139702221
      ],
      [
        "▁olums",
        -9.403841297540968
      ],
      [
        "▁iri",
        -7.672692456991397
      ],
      [
        "▁degerinde",
        -9.524290270166636
      ],
      [
        "▁campeau",
        -8.678236209935159
      ],
      [
        "digini",
        -7.877123278171909
      ],
      [
        "▁i",
        -10.719126777139204
      ],
      [
        "meyi",
        -9.19465187504717
      ],
      [
        "▁ofis",
        -8.902272497219746
      ],
      [
        "▁boncuk",
        -10.001959261921987
      ],
      [
        "i",
        -5.232806598761162
      ],
      [
        "▁puanlama",
        -9.120334316062849
      ],
      [
        "▁duzenleme",
        -9.710618533943922
      ],
      [
        "▁yuzlerin",
        -10.473616110362109
      ],
      [
        "biz",
        -7.9810231857484
      ],
      [
        "f",
        -3.7689506011342524
      ],
      [
        "▁kutuk",
        -10.08966855830957
      ],
      [
        "96",
        -8.229653979245903
      ],
      [
        "kilerin",
        -10.52302293092185
      ],
      [
        "▁kısmı",
        -8.769437110947825
      ],
      [
        "'de",
        -10.369572084041828
      ],
      [
        "▁sallaya",
        -9.634619171746243
      ],
      [
        "▁ruzgarların",
        -11.066960796812028
      ],
      [
        "▁vah",
        -10.533780134359866
      ],
      [
        "▁yudum",
        -9.491262987797654
      ],
      [
        "attin",
        -8.835549891965346
      ],
      [
        "▁parıltı",
        -10.899351302882271
      ],
      [
        "▁politikacı",
        -11.076455682722056
      ],
      [
        "▁gas",
        -8.835120232732889
      ],
      [
        "▁olanaklari",
        -8.110646840794946
      ],
      [
        "▁bilinc",
        -9.689640307487364
      ],
      [
        "▁gomlek",
        -9.220423951593963
      ],
      [
        "▁avcı",
        -10.206821146173606
      ],
      [
        "▁kurek",
        -10.341253967321173
      ],
      [
        "▁barınagı",
        -10.353169142351542
      ],
      [
        "▁ihtiyat",
        -9.930536686513426
      ],
      [
        "erde",
        -9.410608850313285
      ],
      [
        "▁calı",
        -9.587290064126957
      ],
      [
        "▁der",
        -9.235867565899204
      ],
      [
        "▁ayn",
        -7.320358475157959
      ],
      [
        "▁fonların",
        -9.614879576602034
      ],
      [
        "▁topa",
        -10.487726416604374
      ],
      [
        "▁duyar",
        -8.415167039492392
      ],
      [
        "▁japon",
        -8.818426338301107
      ],
      [
        "▁kaymak",
        -11.099708682134807
      ],
      [
        "▁ga",
        -8.354126557654107
      ],
      [
        "▁digerinde",
        -9.48680584214318
      ],
      [
        "▁guluyor",
        -9.117188028042003
      ],
      [
        "▁hız",
        -9.438924411309479
      ],
      [
        "mi",
        -7.2172746650379995
      ],
      [
        "▁kopru",
        -8.993791476783375
      ],
      [
        "▁etrafın",
        -9.9858825484364
      ],
      [
        "▁san",
        -6.23877004096941
      ],
      [
        "yetli",
        -9.033155784352395
      ],
      [
        "ser",
        -10.24681322141774
      ],
      [
        "▁kum",
        -8.874823931986247
      ],
      [
        "▁zay",
        -9.622436745824915
      ],
      [
        "▁erke",
        -10.977410863145403
      ],
      [
        "▁yarısma",
        -10.23415055722274
      ],
      [
        "▁asagı",
        -8.030071702686872
      ],
      [
        "▁ihlal",
        -9.930514051045277
      ],
      [
        "▁kayalar",
        -10.408423788179105
      ],
      [
        "▁pre",
        -8.730008185266898
      ],
      [
        "▁bildiri",
        -10.35190858874356
      ],
      [
        "▁tasar",
        -10.79959753798234
      ],
      [
        "▁bagı",
        -9.492405439472364
      ],
      [
        "▁muhata",
        -10.589264201221704
      ],
      [
        "▁sekerleme",
        -10.899635022265118
      ],
      [
        "▁guvence",
        -9.931705299395725
      ],
      [
        "▁yapı",
        -8.35397825334432
      ],
      [
        "ev",
        -11.802702672349788
      ],
      [
        "ıl",
        -3.439382855904928
      ],
      [
        "▁sekreteri",
        -10.065225424456221
      ],
      [
        "▁isteyen",
        -8.944476463443912
      ],
      [
        "▁erkekler",
        -9.03938975975688
      ],
      [
        "▁adamcagız",
        -10.236095497923298
      ],
      [
        "t",
        -5.498942757749235
      ],
      [
        "▁odeyecek",
        -9.393901312451046
      ],
      [
        "▁ant",
        -10.179068587299314
      ],
      [
        "▁",
        -1.3922668288882338
      ],
      [
        "▁magazalar",
        -10.534832868852316
      ],
      [
        "▁ardın",
        -9.72443541679311
      ],
      [
        "▁projelerin",
        -10.65319835031731
      ],
      [
        "▁karaltı",
        -11.101064155056703
      ],
      [
        "▁39",
        -7.370096993076277
      ],
      [
        "▁baskanlıgı",
        -9.868033515522894
      ],
      [
        "▁utu",
        -10.16488647323943
      ],
      [
        "▁deprem",
        -8.493294362230396
      ],
      [
        "▁ta",
        -8.936814436466697
      ],
      [
        "▁billur",
        -9.308915935283462
      ],
      [
        "atı",
        -9.688178904224559
      ],
      [
        "▁kemer",
        -10.232557014043273
      ],
      [
        "mıslardı",
        -9.359139899636563
      ],
      [
        "mısım",
        -9.254548148090302
      ],
      [
        "▁pece",
        -10.464692159142444
      ],
      [
        "▁indirdi",
        -9.183031428109894
      ],
      [
        "▁okuma",
        -9.544537998842404
      ],
      [
        "▁pop",
        -11.095641748565631
      ],
      [
        "▁husus",
        -9.118148135078899
      ],
      [
        "▁kafes",
        -10.066957853250246
      ],
      [
        "c",
        -4.705204350413797
      ],
      [
        "▁tamir",
        -9.217945620246395
      ],
      [
        "▁erkekleri",
        -10.76929638148727
      ],
      [
        "▁karanlıgın",
        -10.94312744291414
      ],
      [
        "▁sacların",
        -10.130652400709838
      ],
      [
        "▁ceki",
        -9.222657755567258
      ],
      [
        "▁dukkanları",
        -10.368896801881839
      ],
      [
        "▁kadının",
        -8.789058205031324
      ],
      [
        "▁cazibe",
        -11.04129584931922
      ],
      [
        "▁beraber",
        -6.830449956414693
      ],
      [
        "▁dog",
        -9.367936056567562
      ],
      [
        "▁gorunur",
        -9.453878419080647
      ],
      [
        "▁dikkatimi",
        -10.734044369306732
      ],
      [
        "▁yazıhane",
        -10.835802413976483
      ],
      [
        "▁b",
        -7.107083462182722
      ],
      [
        "▁1970'ler",
        -11.084976856259996
      ],
      [
        "▁west",
        -8.545167538070697
      ],
      [
        "▁boyut",
        -9.99418934991947
      ],
      [
        "meye",
        -8.823739549553157
      ],
      [
        "▁satıl",
        -9.595613147708658
      ],
      [
        "dir",
        -6.65097430980568
      ],
      [
        "▁ugur",
        -9.262278956774125
      ],
      [
        "▁olabil",
        -7.555940403340802
      ],
      [
        "m",
        -7.907912427690652
      ],
      [
        "▁nar",
        -10.421207481239776
      ],
      [
        "▁izlenim",
        -10.713301081493892
      ],
      [
        "▁ucusların",
        -8.474893575836763
      ],
      [
        "▁guzelligi",
        -9.969217795990541
      ],
      [
        "▁kars",
        -10.805902516944887
      ],
      [
        "▁1988'",
        -10.875349284115382
      ],
      [
        "tıklarını",
        -10.599516461313417
      ],
      [
        "▁ayrıldı",
        -8.377644923179602
      ],
      [
        "▁boga",
        -10.351849545174016
      ],
      [
        "sına",
        -8.686334125061018
      ],
      [
        "▁gerektiriyor",
        -8.965139998205974
      ],
      [
        "▁karsımız",
        -10.47496728736148
      ],
      [
        "kları",
        -9.019317437209342
      ],
      [
        "▁gereginde",
        -10.815125636193141
      ],
      [
        "▁istemedi",
        -8.99017407128864
      ],
      [
        "▁uzmanları",
        -9.732705160266024
      ],
      [
        "ımızı",
        -10.053380470195261
      ],
      [
        "▁mangal",
        -10.568881763854609
      ],
      [
        "mazsa",
        -9.024743804545256
      ],
      [
        "▁cogunda",
        -9.019218365534577
      ],
      [
        "▁alısveris",
        -8.553063018598525
      ],
      [
        "ıcı",
        -7.088788865289696
      ],
      [
        "gele",
        -9.366155567425386
      ],
      [
        "▁polis",
        -8.615127226769625
      ],
      [
        "▁olmaz",
        -7.07632010378245
      ],
      [
        "▁gid",
        -8.324710101317859
      ],
      [
        "▁gozum",
        -9.521361674517843
      ],
      [
        "▁alıcılar",
        -9.605136885708452
      ],
      [
        "▁masay",
        -9.805624735815941
      ],
      [
        "▁cephane",
        -10.89914569603359
      ],
      [
        "il",
        -8.373542435878292
      ],
      [
        "▁ikincisi",
        -8.063668377265063
      ],
      [
        "▁dusunur",
        -8.429821200733226
      ],
      [
        "▁dısı",
        -8.499374474181135
      ],
      [
        "▁sarkıları",
        -10.810128679786551
      ],
      [
        "▁kulakların",
        -10.587380011600718
      ],
      [
        "▁iki",
        -9.183210763841073
      ],
      [
        "▁alıcıları",
        -10.289451157722986
      ],
      [
        "▁merhaba",
        -9.491262975550192
      ],
      [
        "▁tanım",
        -10.723984049959116
      ],
      [
        "▁yonlendirdi",
        -8.591981459762845
      ],
      [
        "▁gecmek",
        -10.396921137592905
      ],
      [
        "▁sesini",
        -9.204229209756072
      ],
      [
        "celik",
        -8.70922937823941
      ],
      [
        "▁8",
        -9.894044971100161
      ],
      [
        "▁danısmanları",
        -10.419200263397883
      ],
      [
        "▁49",
        -7.1162351191246005
      ],
      [
        "▁elli",
        -6.208347808831623
      ],
      [
        "▁bez",
        -9.16427067534028
      ],
      [
        "▁yuzyılda",
        -10.24979198715172
      ],
      [
        "▁bakan",
        -9.4052729921977
      ],
      [
        "▁mektepte",
        -10.634199160507313
      ],
      [
        "c",
        -4.279370353650242
      ],
      [
        "▁toplam",
        -7.743703829552898
      ],
      [
        "▁den",
        -10.603695754785743
      ],
      [
        "▁hızlı",
        -8.173460503382016
      ],
      [
        "g",
        -3.2365275863870604
      ],
      [
        "▁rovans",
        -11.098744484347668
      ],
      [
        "▁osmanlı",
        -7.553920337047785
      ],
      [
        "▁taze",
        -7.7460431805793695
      ],
      [
        "▁ayag",
        -9.279881019427258
      ],
      [
        "▁mısra",
        -10.782187244607837
      ],
      [
        "▁islerde",
        -10.668072485330416
      ],
      [
        "▁muhendis",
        -9.935771995948002
      ],
      [
        "▁dalgaları",
        -10.896218700145136
      ],
      [
        "▁izini",
        -10.644163584422436
      ],
      [
        "▁ingiltere",
        -8.670410069551181
      ],
      [
        "ledigi",
        -10.938818086669972
      ],
      [
        "▁muamele",
        -9.986530975569863
      ],
      [
        "▁korku",
        -7.751115978817232
      ],
      [
        "nc",
        -8.015339232914753
      ],
      [
        "▁faizini",
        -10.423013492299157
      ],
      [
        "▁89",
        -7.839311882795199
      ],
      [
        "▁alca",
        -8.7105396051646
      ],
      [
        "▁istim",
        -10.610096243848027
      ],
      [
        "▁atın",
        -10.462862871059759
      ],
      [
        "▁soyluyor",
        -6.6618249196724095
      ],
      [
        "▁personellerin",
        -8.423160041334672
      ],
      [
        "▁tulum",
        -9.927877891867588
      ],
      [
        "▁onem",
        -8.310666856680344
      ],
      [
        "▁ayrımın",
        -10.881028772898421
      ],
      [
        "te",
        -8.427401427900064
      ],
      [
        "▁hanim",
        -6.880373291676457
      ],
      [
        "▁kırık",
        -10.168453960876912
      ],
      [
        "▁dogus",
        -11.061991113092464
      ],
      [
        "▁degisme",
        -9.554493504625826
      ],
      [
        "▁bahsede",
        -9.486774224992299
      ],
      [
        "▁eylul",
        -8.501473725800722
      ],
      [
        "▁japon",
        -7.6012635840781595
      ],
      [
        "ecegin",
        -10.565529216298948
      ],
      [
        "ch",
        -8.71633810719033
      ],
      [
        "▁denir",
        -9.07054552355577
      ],
      [
        "▁gel",
        -10.616846456299626
      ],
      [
        "birli",
        -7.476480969195897
      ],
      [
        "▁muhte",
        -7.212527407828399
      ],
      [
        "▁kahve",
        -7.76259897949135
      ],
      [
        "▁odeme",
        -9.26063430889852
      ],
      [
        "▁secimlerin",
        -10.409635111476062
      ],
      [
        "▁istikrar",
        -10.616566356002217
      ],
      [
        "▁faturami",
        -9.510154543583031
      ],
      [
        "▁edildigin",
        -10.165205301729397
      ],
      [
        "▁piyasalar",
        -9.33542243416904
      ],
      [
        "▁neleri",
        -8.946197062173514
      ],
      [
        "▁olduk",
        -8.782395557141427
      ],
      [
        "▁kulag",
        -10.285598073816237
      ],
      [
        "▁lokantalar",
        -10.752603741583888
      ],
      [
        "tur",
        -9.522534598323865
      ],
      [
        "▁long",
        -7.475427347950381
      ],
      [
        "▁goreceli",
        -10.898743241564503
      ],
      [
        "▁netice",
        -10.197806262375273
      ],
      [
        "mamıstı",
        -9.070130424884784
      ],
      [
        "▁uzere",
        -5.048386226996949
      ],
      [
        "▁demiri",
        -10.557506455576469
      ],
      [
        "▁uza",
        -9.279763640448635
      ],
      [
        "▁eve",
        -7.714786596359662
      ],
      [
        "▁uyarlan",
        -9.642879256004878
      ],
      [
        "▁cem",
        -10.97388745816271
      ],
      [
        "▁ol",
        -7.203947071675927
      ],
      [
        "▁eniste",
        -10.676994898408033
      ],
      [
        "▁fazlası",
        -9.675610543458294
      ],
      [
        "ır",
        -3.5456138654332086
      ],
      [
        "▁biri",
        -4.369579569371211
      ],
      [
        "▁yapılan",
        -7.503984260355942
      ],
      [
        "▁fiyatlandırıl",
        -8.800085282428622
      ],
      [
        "▁edilmesi",
        -9.04408620480445
      ],
      [
        "▁tur",
        -8.673507487778625
      ],
      [
        "▁bulutu",
        -10.603131703279232
      ],
      [
        "▁fin",
        -10.507192681084613
      ],
      [
        "▁de",
        -2.1420817504035963
      ],
      [
        "▁alın",
        -9.451169954915098
      ],
      [
        "tur",
        -9.092173444795863
      ],
      [
        "mediler",
        -9.5378906956194
      ],
      [
        "▁istemi",
        -10.990443432179072
      ],
      [
        "▁enerji",
        -8.491856909496633
      ],
      [
        "abilmesi",
        -9.634967753477417
      ],
      [
        "▁boyun",
        -9.25249015614443
      ],
      [
        "▁haberler",
        -9.671669581796243
      ],
      [
        "ul",
        -9.948752466873465
      ],
      [
        "▁iyi",
        -9.065647023666997
      ],
      [
        "▁zorla",
        -9.418596617037352
      ],
      [
        "▁soyu",
        -9.801382354229846
      ],
      [
        "▁geceleri",
        -9.34775718779903
      ],
      [
        "▁toronto",
        -8.034445559699725
      ],
      [
        "imle",
        -6.45089307209828
      ],
      [
        "du",
        -6.548127996053304
      ],
      [
        "▁gol",
        -8.73792569799254
      ],
      [
        "▁zul",
        -10.466041099091584
      ],
      [
        "dur",
        -7.252100887883036
      ],
      [
        "▁corap",
        -10.121292993028954
      ],
      [
        "▁diego",
        -8.336292208352035
      ],
      [
        "▁davranıslar",
        -10.604376588716903
      ],
      [
        "▁kurmay",
        -9.923536899240847
      ],
      [
        "▁anlay",
        -9.198832741025253
      ],
      [
        "ı",
        -6.441841627999206
      ],
      [
        "▁analisti",
        -11.023405799073963
      ],
      [
        "▁rastlantı",
        -10.589219086080302
      ],
      [
        "▁dısisleri",
        -9.634344724924759
      ],
      [
        "▁akla",
        -9.750766710623845
      ],
      [
        "▁ilham",
        -9.801391449562606
      ],
      [
        "▁oksadı",
        -9.677755026685741
      ],
      [
        "▁yaralar",
        -10.831968178083514
      ],
      [
        "▁topragı",
        -10.031921894946343
      ],
      [
        "▁elim",
        -9.438918974779483
      ],
      [
        "ya",
        -5.298682923098358
      ],
      [
        "▁hep",
        -8.65144862922323
      ],
      [
        "sınız",
        -10.82109182704922
      ],
      [
        "▁karıs",
        -9.329950266718349
      ],
      [
        "▁sicil",
        -11.098779942570964
      ],
      [
        "▁araya",
        -8.525755107115026
      ],
      [
        "▁evlat",
        -10.375655120974262
      ],
      [
        "sat",
        -9.502979100635056
      ],
      [
        "ris",
        -8.683058478203009
      ],
      [
        "▁alınması",
        -10.109236974637785
      ],
      [
        "▁yıkıldı",
        -9.410903831734817
      ],
      [
        "▁bakı",
        -8.924367662331408
      ],
      [
        "▁dibin",
        -9.547894494133036
      ],
      [
        "6'",
        -10.46339916120487
      ],
      [
        "▁yılı",
        -8.335619733350114
      ],
      [
        "▁yuzumu",
        -10.756806323594063
      ],
      [
        "▁dolar",
        -5.922150929201807
      ],
      [
        "ut",
        -9.554766872232353
      ],
      [
        "iyorlar",
        -8.586389927088765
      ],
      [
        "▁oldugun",
        -8.974067444248593
      ],
      [
        "▁secimde",
        -10.36264923016639
      ],
      [
        "icin",
        -5.8969885216171365
      ],
      [
        "yım",
        -7.847589662675469
      ],
      [
        "▁val",
        -8.754715665115816
      ],
      [
        "▁acıgı",
        -9.785113870806494
      ],
      [
        "▁etse",
        -9.385366453372926
      ],
      [
        "duz",
        -9.443318958867772
      ],
      [
        "▁havayolları",
        -7.285576876856702
      ],
      [
        "▁kesmis",
        -9.441566167037609
      ],
      [
        "▁zaman",
        -6.042871115359283
      ],
      [
        "▁dusmeye",
        -10.470160913497049
      ],
      [
        "▁mor",
        -10.430318642322376
      ],
      [
        "▁felsefesi",
        -10.886987203995865
      ],
      [
        "▁dis",
        -9.345622639008988
      ],
      [
        "▁balıklar",
        -10.086365747978164
      ],
      [
        "▁hazırlanma",
        -10.957492578536023
      ],
      [
        "▁rezervler",
        -11.10663400563456
      ],
      [
        "▁fi",
        -8.418694578567848
      ],
      [
        "▁kuru",
        -9.320584569868508
      ],
      [
        "▁s",
        -4.608337497691907
      ],
      [
        "▁inci",
        -10.368302719717704
      ],
      [
        "▁secme",
        -9.638110908285036
      ],
      [
        "▁umdugum",
        -10.898744288829608
      ],
      [
        "▁oto",
        -9.405303270148218
      ],
      [
        "▁kurulunu",
        -9.828709326199995
      ],
      [
        "9",
        -8.606645075032603
      ],
      [
        "▁dedikleri",
        -10.852359665144068
      ],
      [
        "bu",
        -7.536628892704085
      ],
      [
        "▁sersem",
        -11.09874924953066
      ],
      [
        "▁korku",
        -8.585239810296532
      ],
      [
        "ie",
        -8.540008142853656
      ],
      [
        "▁topragın",
        -10.083904614290269
      ],
[...]
