{
  "version": "1.0",
  "truncation": null,
  "padding": null,
  "added_tokens": [
    {
      "id": 742,
      "content": "[SEP]",
      "single_word": false,
      "lstrip": false,
      "rstrip": false,
      "normalized": false,
      "special": true
    },
    {
      "id": 817,
      "content": "[PAD]",
      "single_word": false,
      "lstrip": false,
      "rstrip": false,
      "normalized": false,
      "special": true
    },
    {
      "id": 1046,
      "content": "[CLS]",
      "single_word": false,
      "lstrip": false,
      "rstrip": false,
      "normalized": false,
      "special": true
    },
    {
      "id": 1875,
      "content": "[MASK]",
      "single_word": false,
      "lstrip": false,
      "rstrip": false,
      "normalized": false,
      "special": true
    },
    {
      "id": 3926,
      "content": "[UNK]",
      "single_word": false,
      "lstrip": false,
      "rstrip": false,
      "normalized": false,
      "special": true
    }
  ],
  "normalizer": {
    "type": "Sequence",
    "normalizers": [
      {
        "type": "NFD"
      },
      {
        "type": "Lowercase"
      },
      {
        "type": "StripAccents"
      }
    ]
  },
  "pre_tokenizer": {
    "type": "Sequence",
    "pretokenizers": [
      {
        "type": "Metaspace",
        "replacement": "▁",
        "prepend_scheme": "always",
        "split": true
      }
    ]
  },
  "post_processor": {
    "type": "TemplateProcessing",
    "single": [
      {
        "SpecialToken": {
          "id": "[CLS]",
          "type_id": 0
        }
      },
      {
        "Sequence": {
          "id": "A",
          "type_id": 0
        }
      },
      {
        "SpecialToken": {
          "id": "[SEP]",
          "type_id": 0
        }
      }
    ],
    "pair": [
      {
        "SpecialToken": {
          "id": "[CLS]",
          "type_id": 0
        }
      },
      {
        "Sequence": {
          "id": "A",
          "type_id": 0
        }
      },
      {
        "SpecialToken": {
          "id": "[SEP]",
          "type_id": 0
        }
      },
      {
        "Sequence": {
          "id": "B",
          "type_id": 1
        }
      },
      {
        "SpecialToken": {
          "id": "[SEP]",
          "type_id": 1
        }
      }
    ],
    "special_tokens": {
      "[CLS]": {
        "id": "[CLS]",
        "ids": [
          1046
        ],
        "tokens": [
          "[CLS]"
        ]
      },
      "[SEP]": {
        "id": "[SEP]",
        "ids": [
          742
        ],
        "tokens": [
          "[SEP]"
        ]
      }
    }
  },
  "decoder": {
    "type": "Metaspace",
    "replacement": "▁",
    "prepend_scheme": "always",
    "split": true
  },
  "model": {
    "type": "BPE",
    "dropout": null,
    "unk_token": "[UNK]",
    "continuing_subword_prefix": null,
    "end_of_word_suffix": null,
    "fuse_unk": false,
    "byte_fallback": false,
    "ignore_merges": false,
    "vocab": {
      "–": 0,
      "▁etki": 1,
      "▁dısı": 2,
      "▁ceh": 3,
      "▁kisiler": 4,
      "▁aldı": 5,
      "▁ag": 6,
      "▁fa": 7,
      "▁sag": 8,
      "▁beg": 9,
      "▁pit": 10,
      "▁kural": 11,
      "▁tas": 12,
      "▁prob": 13,
      "▁hele": 14,
      "▁isini": 15,
      "dir": 16,
      "▁may": 17,
      "asına": 18,
      "▁dikkat": 19,
      "▁pant": 20,
      "▁indirim": 21,
      "ster": 22,
      "▁sinir": 23,
      "▁isler": 24,
      "▁alma": 25,
      "bet": 26,
      "▁ihtiyacı": 27,
      "egi": 28,
      "izasyon": 29,
      "▁yatırımcı": 30,
      "ustur": 31,
      "▁olustur": 32,
      "▁buldu": 33,
      "ust": 34,
      "▁yolcul": 35,
      "▁emek": 36,
      "▁gelecek": 37,
      "▁tepki": 38,
      "▁kaliteye": 39,
      "'un": 40,
      "arak": 41,
      "▁gorusme": 42,
      "▁bul": 43,
      "▁belir": 44,
      "'ya": 45,
      "▁ocak": 46,
      "▁dort": 47,
      "▁cik": 48,
      "▁dizi": 49,
      "▁dekor": 50,
      "▁fabrika": 51,
      "lak": 52,
      "etin": 53,
      "ilig": 54,
      "▁sil": 55,
      "▁faz": 56,
      "ug": 57,
      "▁ig": 58,
      "▁gulery": 59,
      "▁tası": 60,
      "▁amma": 61,
      "iz": 62,
      "▁genc": 63,
      "▁sorustur": 64,
      "ındaki": 65,
      "▁tes": 66,
      "▁fer": 67,
      "▁mahk": 68,
      "▁iki": 69,
      "ecilik": 70,
      "stı": 71,
      "▁icin": 72,
      "▁elleri": 73,
      "▁et": 74,
      "▁mode": 75,
      "ladım": 76,
      "▁hisseler": 77,
      "▁yarı": 78,
      "▁sif": 79,
      "▁yaln": 80,
      "onelik": 81,
      "▁olduguna": 82,
      "▁n": 83,
      "ap": 84,
      "▁pantol": 85,
      "▁ilk": 86,
      "ane": 87,
      "▁om": 88,
      "▁5": 89,
      "▁kor": 90,
      "acı": 91,
      "▁'": 92,
      "▁agz": 93,
      "▁faaliyet": 94,
      "▁kisi": 95,
      "▁sahn": 96,
      "kun": 97,
      "▁sik": 98,
      "▁grub": 99,
      "▁karıs": 100,
      "s": 101,
      "▁tartıs": 102,
      "▁birer": 103,
      "▁hacmi": 104,
      "▁kalab": 105,
      "▁tır": 106,
      "alardan": 107,
      "▁sınıf": 108,
      "ugun": 109,
      "▁hizmetten": 110,
      "nun": 111,
      "▁mahkem": 112,
      "▁animasyon": 113,
      "▁arasındaki": 114,
      "lasyon": 115,
      "ayı": 116,
      "▁bolge": 117,
      "▁ankete": 118,
      "▁oyunc": 119,
      "▁kent": 120,
      "▁on": 121,
      "▁doneminde": 122,
      "▁col": 123,
      "isler": 124,
      "▁beklen": 125,
      "▁city": 126,
      "▁dengesi": 127,
      "▁arasına": 128,
      "dıktan": 129,
      "▁kitabı": 130,
      "▁sorunları": 131,
      "▁gar": 132,
      "▁ihtiyac": 133,
      "▁ilave": 134,
      "eket": 135,
      "tarak": 136,
      "▁endis": 137,
      "▁p": 138,
      "▁ceyrekte": 139,
      "▁cumle": 140,
      "▁grup": 141,
      "ban": 142,
      "'dan": 143,
      "▁don": 144,
      "▁kork": 145,
      "o": 146,
      "▁mektup": 147,
      "usu": 148,
      "▁matem": 149,
      "▁boston'a": 150,
      "▁kurtaj": 151,
      "ıc": 152,
      "▁kars": 153,
      "▁ifade": 154,
      "▁kov": 155,
      "▁mal": 156,
      "misti": 157,
      "▁kazanc": 158,
      "▁olursa": 159,
      "mel": 160,
      "ene": 161,
      "cıların": 162,
      "▁mobil": 163,
      "▁ha": 164,
      "▁ortak": 165,
      "▁kims": 166,
      "▁olduk": 167,
      "▁tut": 168,
      "‘": 169,
      "▁pu": 170,
      "m": 171,
      "▁haft": 172,
      "▁varlık": 173,
      "▁soyluyor": 174,
      "ga": 175,
      "▁car": 176,
      "▁suya": 177,
      "ıyorlar": 178,
      "▁mekte": 179,
      "▁komsu": 180,
      "▁arkad": 181,
      "▁kucuk": 182,
      "▁ortal": 183,
      "ıt": 184,
      "andı": 185,
      "▁kaynak": 186,
      "ıp": 187,
      "▁makaleye": 188,
      "▁islemlerinde": 189,
      "▁detay": 190,
      "▁sistemi": 191,
      "▁hapis": 192,
      "alar": 193,
      "▁merk": 194,
      "▁diye": 195,
      "▁olsun": 196,
      "▁yuzune": 197,
      "▁h": 198,
      "▁analiz": 199,
      "▁terk": 200,
      "ıyorum": 201,
      "▁cent": 202,
      "▁barda": 203,
      "isco": 204,
      "ecekler": 205,
      "raf": 206,
      "▁adım": 207,
      "▁guzeldi": 208,
      "ans": 209,
      "▁ort": 210,
      "▁olabilirdi": 211,
      "uzluydu": 212,
      "▁ustunde": 213,
      "▁devam": 214,
      "▁sinem": 215,
      "ıklık": 216,
      "▁bana": 217,
      "tay": 218,
      "ma": 219,
      "▁mesel": 220,
      "iyet": 221,
      "▁bakım": 222,
      "len": 223,
      "▁ref": 224,
      "erlik": 225,
      "▁yargıc": 226,
      "ıs": 227,
      "larının": 228,
      "▁havuz": 229,
      "▁dakika": 230,
      "▁potansiyel": 231,
      "▁kayıp": 232,
      "li": 233,
      "▁kurulu": 234,
      "ort": 235,
      "▁gunun": 236,
      "dim": 237,
      "▁vakit": 238,
      "▁yab": 239,
      "▁odeme": 240,
      "▁1": 241,
      "▁yaz": 242,
      "tik": 243,
      "▁-": 244,
      "▁coc": 245,
      "▁unut": 246,
      "▁metr": 247,
      "▁yolculuk": 248,
      "▁tamam": 249,
      "ını": 250,
      "sız": 251,
      "▁sebeb": 252,
      "eticiler": 253,
      "▁burada": 254,
      "▁bulun": 255,
      "cut": 256,
      "▁pek": 257,
      "mekt": 258,
      "▁arası": 259,
      "▁man": 260,
      "larak": 261,
      "▁konusunda": 262,
      "tur": 263,
      "gi": 264,
      "▁efendi": 265,
      "min": 266,
      "▁ısrar": 267,
      "▁iyi": 268,
      "sel": 269,
      "▁yapti": 270,
      "▁nedeniyle": 271,
      "▁urunleri": 272,
      "▁yumurta": 273,
      "uzel": 274,
      "▁yardımcı": 275,
      "day": 276,
      "▁iht": 277,
      "▁dolay": 278,
      "▁boz": 279,
      "▁fel": 280,
      "▁hayır": 281,
      "▁tac": 282,
      "u": 283,
      "▁personel": 284,
      "isti": 285,
      "▁urun": 286,
      "▁durumu": 287,
      "▁icine": 288,
      "▁seyir": 289,
      "inci": 290,
      "▁yapmaya": 291,
      "▁genelde": 292,
      "sik": 293,
      "▁rakam": 294,
      "▁konuyu": 295,
      "▁hanim": 296,
      "▁sozu": 297,
      "▁butun": 298,
      "▁ileri": 299,
      "▁cat": 300,
      "uyorlar": 301,
      "▁yuzunden": 302,
      "▁sayı": 303,
      "andan": 304,
      "▁gun": 305,
      "▁der": 306,
      "▁tarafı": 307,
      "▁film": 308,
      "▁so": 309,
      "▁hol": 310,
      "asında": 311,
      "▁haline": 312,
      "▁evde": 313,
      "▁kelime": 314,
      "▁vak": 315,
      "ısıyla": 316,
      "▁acı": 317,
      "esiyle": 318,
      "iyordu": 319,
      "▁iddia": 320,
      "▁ucak": 321,
      "▁b": 322,
      "▁gez": 323,
      "▁uy": 324,
      "▁elini": 325,
      "oyu": 326,
      "elig": 327,
      "▁gogs": 328,
      "▁bel": 329,
      "▁yılın": 330,
      "▁pos": 331,
      "▁merkeze": 332,
      "▁sırasında": 333,
      "▁gece": 334,
      "lul": 335,
      "▁penc": 336,
      "▁esn": 337,
      "▁yolcu": 338,
      "ina": 339,
      "▁demokr": 340,
      "▁iler": 341,
      "allas": 342,
      "anti": 343,
      "▁bu": 344,
      "ay": 345,
      "andır": 346,
      "▁kitab": 347,
      "gıc": 348,
      "▁fiyatlarını": 349,
      "▁ist": 350,
      "▁havada": 351,
      "▁mektu": 352,
      "▁denize": 353,
      "▁magaz": 354,
      "▁adını": 355,
      "anların": 356,
      "▁kapının": 357,
      "▁isi": 358,
      "▁geri": 359,
      "▁ser": 360,
      "5": 361,
      "▁eser": 362,
      "▁yerde": 363,
      "▁ih": 364,
      "dıg": 365,
      "▁agız": 366,
      "des": 367,
      "siz": 368,
      "▁isaret": 369,
      "usunun": 370,
      "▁yılda": 371,
      "ldi": 372,
      "▁patlıc": 373,
      "▁corba": 374,
      "'nun": 375,
      "▁arttı": 376,
      "cisi": 377,
      "rken": 378,
      "ız": 379,
      "▁yorum": 380,
      "▁alan": 381,
      "▁sep": 382,
      "▁gider": 383,
      "▁gr": 384,
      "▁dogum": 385,
      "▁hazine": 386,
      "▁yazar": 387,
      "▁yakın": 388,
      "ncak": 389,
      "lerde": 390,
      "'t": 391,
      "▁dis": 392,
      "▁kagıt": 393,
      "▁odalari": 394,
      "▁temsil": 395,
      "▁listeleyin": 396,
      "▁soz": 397,
      "▁sol": 398,
      "unuz": 399,
      "o'ya": 400,
      "▁giriste": 401,
      "▁cıg": 402,
      "ekli": 403,
      "▁hukuk": 404,
      "▁acıklam": 405,
      "7": 406,
      "▁eder": 407,
      "ende": 408,
      "▁bilgisayar": 409,
      "▁mot": 410,
      "▁yonetici": 411,
      "▁fır": 412,
      "▁olanakları": 413,
      "▁tasım": 414,
      "▁ettigini": 415,
      "ji": 416,
      "ph": 417,
      "▁beyin": 418,
      "ek": 419,
      "▁mill": 420,
      "▁d": 421,
      "▁a": 422,
      "▁konum": 423,
      "am": 424,
      "uk": 425,
      "liginin": 426,
      "▁koy": 427,
      "▁millet": 428,
      "atlar": 429,
      "▁disi": 430,
      "▁sikinti": 431,
      "▁bolg": 432,
      "▁verim": 433,
      "▁must": 434,
      "kul": 435,
      "▁otob": 436,
      "▁guleryuzlu": 437,
      "iyorum": 438,
      "▁derece": 439,
      "▁.\"": 440,
      "▁tahvilleri": 441,
      "ikler": 442,
      "▁huz": 443,
      "▁sof": 444,
      "▁kullanmadim": 445,
      "▁devlet": 446,
      "▁kopek": 447,
      "▁vur": 448,
      "abı": 449,
      "▁dusunuyor": 450,
      "▁elden": 451,
      "▁bos": 452,
      "anının": 453,
      "▁edin": 454,
      "urlu": 455,
      "atur": 456,
      "j": 457,
      "unda": 458,
      "met": 459,
      "▁yarıs": 460,
      "▁basv": 461,
      "▁ord": 462,
      "▁azdi": 463,
      "de": 464,
      "▁kulak": 465,
      "x": 466,
      "▁borsa": 467,
      "▁oglen": 468,
      "▁vardi": 469,
      "eni": 470,
      "▁sona": 471,
      "▁go": 472,
      "lerin": 473,
      "▁mudur": 474,
      "▁ip": 475,
      "▁not": 476,
      "▁senetleri": 477,
      "▁piyasada": 478,
      "rı": 479,
      "▁olmad": 480,
      "▁yahut": 481,
      "▁ogle": 482,
      "ması": 483,
      "▁“": 484,
      "▁mucade": 485,
      "▁degisim": 486,
      "▁sık": 487,
      "▁bilg": 488,
      "ibar": 489,
      "▁teknoloj": 490,
      "▁acisindan": 491,
      "▁ac": 492,
      "▁tey": 493,
      "ımızda": 494,
      "▁cevr": 495,
      "▁poz": 496,
      "▁kar": 497,
      "▁birles": 498,
      "▁can": 499,
      "▁elem": 500,
      "▁ısık": 501,
      "▁kongre": 502,
      "▁cocuklar": 503,
      "lerinin": 504,
      "co": 505,
      "▁;": 506,
      "▁grubu": 507,
      "▁alır": 508,
      "▁eks": 509,
      "▁dog": 510,
      "▁tel": 511,
      "▁ipot": 512,
      "▁universit": 513,
      "▁satır": 514,
      "iligini": 515,
      "▁,": 516,
      "▁ortadan": 517,
      "▁olsa": 518,
      "▁kay": 519,
      "▁sure": 520,
      "▁kalmadim": 521,
      "▁bahs": 522,
      "▁aksama": 523,
      "ılıg": 524,
      "▁mik": 525,
      "isin": 526,
      "▁hakim": 527,
      "lamıs": 528,
      "▁meydana": 529,
      "▁yak": 530,
      "▁kontr": 531,
      "eldi": 532,
      "▁camasır": 533,
      "san": 534,
      "▁fakat": 535,
      "▁bayan": 536,
      "mıstı": 537,
      "▁men": 538,
      "▁da": 539,
      "▁yatırım": 540,
      "▁fikir": 541,
      "▁sermay": 542,
      "▁takım": 543,
      "sef": 544,
      "▁maliyet": 545,
      "anından": 546,
      "▁operasyon": 547,
      "ah": 548,
      "▁maz": 549,
      "▁diy": 550,
      "tun": 551,
      "ub": 552,
      "luydu": 553,
      "▁esk": 554,
      "▁kup": 555,
      "▁ikisi": 556,
      "▁ark": 557,
      "▁4": 558,
      "▁id": 559,
      "▁ilgilen": 560,
      "▁nuf": 561,
      "▁hukumetin": 562,
      "▁sirket": 563,
      "▁tah": 564,
      "elli": 565,
      "astır": 566,
      "▁hisse": 567,
      "▁depr": 568,
      "▁zor": 569,
      "▁/": 570,
      "isleri": 571,
      "▁merak": 572,
      "▁hava": 573,
      "anma": 574,
      "▁ir": 575,
      "ye": 576,
      "z": 577,
      "▁buyume": 578,
      "▁politika": 579,
      "eklen": 580,
      "▁beyle": 581,
      "▁ekm": 582,
      "▁piyasası": 583,
      "malı": 584,
      "▁temmuz": 585,
      "▁veriyor": 586,
      "mas": 587,
      "▁”": 588,
      "um": 589,
      "eden": 590,
      "isinden": 591,
      "▁dair": 592,
      "▁dusman": 593,
      "▁alısver": 594,
      "ars": 595,
      "eci": 596,
      "▁haber": 597,
      "/8": 598,
      "uz": 599,
      "ınlık": 600,
      "me": 601,
      "▁ayında": 602,
      "▁ediyorum": 603,
      "eyim": 604,
      "▁gerek": 605,
      "it": 606,
      "▁tuz": 607,
      "▁suyu": 608,
      "ekkur": 609,
      "lıklar": 610,
      "▁art": 611,
      "▁omuz": 612,
      "▁cık": 613,
      "▁ornek": 614,
      "▁demek": 615,
      "▁tesisin": 616,
      "▁olmaz": 617,
      "▁edil": 618,
      "ırdı": 619,
      "▁sul": 620,
      "arın": 621,
      "dıgı": 622,
      "▁get": 623,
      "tal": 624,
      "▁harekete": 625,
      "▁sonuc": 626,
      "gel": 627,
      "alama": 628,
      "edi": 629,
      "▁toz": 630,
      "liginde": 631,
      "▁otobus": 632,
      "ul": 633,
      "▁fen": 634,
      "▁fut": 635,
      "▁aleyh": 636,
      "ımıza": 637,
      "ruk": 638,
      "▁sub": 639,
      "madik": 640,
      "▁saat": 641,
      "▁seyleri": 642,
      "▁olu": 643,
      "▁sıra": 644,
      "▁kısıt": 645,
      "▁bar": 646,
      "▁politik": 647,
      "▁gond": 648,
      "▁zamanlar": 649,
      "ruf": 650,
      "ligine": 651,
      "dıgın": 652,
      "alarda": 653,
      "▁nes": 654,
      "anıs": 655,
      "▁duzen": 656,
      "▁aday": 657,
      "▁orman": 658,
      "▁konusu": 659,
      "▁de": 660,
      "▁hast": 661,
      "▁pil": 662,
      "▁tar": 663,
      "▁etraf": 664,
      "▁durumda": 665,
      "▁sevg": 666,
      "▁sp": 667,
      "duz": 668,
      "hu": 669,
      "▁kil": 670,
      "▁benim": 671,
      "▁sal": 672,
      "tluk": 673,
      "ısır": 674,
      "ding": 675,
      "meger": 676,
      "▁listele": 677,
      "▁...": 678,
      "▁f": 679,
      "▁sohbet": 680,
      "▁sam": 681,
      "or": 682,
      "▁komisyon": 683,
      "▁cer": 684,
      "▁gozler": 685,
      "▁buyum": 686,
      "aya": 687,
      "▁vade": 688,
      "▁bıraktı": 689,
      "▁guzellik": 690,
      "emiyor": 691,
      "bah": 692,
      "▁..": 693,
      "▁kahve": 694,
      "▁soy": 695,
      "▁fiyatina": 696,
      "▁aktar": 697,
      "▁sog": 698,
      "▁iddi": 699,
      "hur": 700,
      "yen": 701,
      "▁rah": 702,
      "▁tekn": 703,
      "iyi": 704,
      "▁domates": 705,
      "▁personelin": 706,
      "anlar": 707,
      "▁edildi": 708,
      "▁salı": 709,
      ",": 710,
      "ast": 711,
      "▁tahv": 712,
      "▁alaka": 713,
      "▁heyecan": 714,
      "▁genis": 715,
      "▁ham": 716,
      "▁dal": 717,
      "▁eylem": 718,
      "▁sonrası": 719,
      "▁gelir": 720,
      "egini": 721,
      "▁doktor": 722,
      "ide": 723,
      "▁konak": 724,
      "▁york": 725,
      "▁bey": 726,
      "imin": 727,
      "▁vatand": 728,
      "ograf": 729,
      "▁sektor": 730,
      "ydi": 731,
      "ud": 732,
      "ask": 733,
      "ırak": 734,
      "▁cozum": 735,
      "▁kısa": 736,
      "▁deg": 737,
      "▁laf": 738,
      "estir": 739,
      "▁nokta": 740,
      "▁komut": 741,
      "[SEP]": 742,
      "▁fay": 743,
      "▁cadde": 744,
      "▁makal": 745,
      "▁ceyrek": 746,
      "iki": 747,
      "▁tav": 748,
      "▁franc": 749,
      "ec": 750,
      "▁is": 751,
      "ayet": 752,
      "ucc": 753,
      "▁yumur": 754,
      "▁lam": 755,
      "larıyla": 756,
      "▁hiss": 757,
      "▁icerisinde": 758,
      "mayan": 759,
      "lar": 760,
      "ya": 761,
      "▁ister": 762,
      "emek": 763,
      "▁!..": 764,
      "▁gazeteci": 765,
      "▁sar": 766,
      "tif": 767,
      "ogram": 768,
      "▁halbuki": 769,
      "▁mevzu": 770,
      "uldu": 771,
      "▁gunduz": 772,
      "▁vucut": 773,
      "8": 774,
      "▁yaklas": 775,
      "ılır": 776,
      "▁bon": 777,
      "▁tur": 778,
      "▁sır": 779,
      "ama": 780,
      "gı": 781,
      "'d": 782,
      "▁belirt": 783,
      "▁yani": 784,
      "▁hem": 785,
      "▁ziy": 786,
      "▁!": 787,
      "▁olacagını": 788,
      "▁fiyati": 789,
      "▁yılının": 790,
      "▁onune": 791,
      "▁si": 792,
      "vek": 793,
      "▁cuma": 794,
      "▁performans": 795,
      "edir": 796,
      "masın": 797,
      "daki": 798,
      "▁tenc": 799,
      "▁cars": 800,
      "▁yardimci": 801,
      "▁kazan": 802,
      "ıdır": 803,
      "lara": 804,
      "▁boyu": 805,
      "▁ayn": 806,
      "mesini": 807,
      "▁amer": 808,
      "▁tul": 809,
      "▁hisseye": 810,
      "▁zincir": 811,
      "▁burası": 812,
      "lerdi": 813,
      "ısı": 814,
      "▁yemegi": 815,
      "▁borsası": 816,
      "[PAD]": 817,
      "landır": 818,
      "▁sark": 819,
      "tr": 820,
      "int": 821,
      "erli": 822,
      "gunu": 823,
      "▁bacak": 824,
      "▁paran": 825,
      "▁baltimore": 826,
      "hangi": 827,
      "'nın": 828,
      "▁bit": 829,
      "▁istiyor": 830,
      "▁piyasanın": 831,
      "nam": 832,
      "▁az": 833,
      "kar": 834,
      "▁kısı": 835,
      "na": 836,
      "sınız": 837,
      "▁ders": 838,
      "▁pazartesi": 839,
      "▁milletvek": 840,
      "▁cun": 841,
      "▁senedi": 842,
      "ılmıs": 843,
      "ore": 844,
      "emem": 845,
      "▁cocukların": 846,
      "▁kıymetler": 847,
      "▁il": 848,
      "▁sirketin": 849,
      "ada": 850,
      "'e": 851,
      "▁st": 852,
      "til": 853,
      "▁ellerinde": 854,
      "eler": 855,
      "est": 856,
      "▁muda": 857,
      "▁deger": 858,
      "eye": 859,
      "▁soh": 860,
      "▁bakanı": 861,
      "▁ayakta": 862,
      "▁duvar": 863,
      "gru": 864,
      "▁siir": 865,
      "ık": 866,
      "▁sok": 867,
      "▁air": 868,
      "▁sez": 869,
      "▁endustr": 870,
      "▁esya": 871,
      "▁rakip": 872,
      "tir": 873,
      "ıcılar": 874,
      "▁kaf": 875,
      "isk": 876,
      "▁begenmedim": 877,
      "siy": 878,
      "▁yapar": 879,
      "▁mah": 880,
      "▁yerinde": 881,
      "▁am": 882,
      "▁sonrasında": 883,
      "▁bogaz": 884,
      "▁hav": 885,
      "▁getiri": 886,
      "▁muzak": 887,
      "mur": 888,
      "lam": 889,
      "▁sorum": 890,
      "▁koku": 891,
      "▁misafirimiz": 892,
      "to": 893,
      "▁ortasında": 894,
      "▁finans": 895,
      "akları": 896,
      "ivers": 897,
      "▁ur": 898,
      "▁insanı": 899,
      "dıgını": 900,
      "ti": 901,
      "▁yemekler": 902,
      "▁parc": 903,
      "▁tehd": 904,
      "▁pal": 905,
      "alarını": 906,
      "▁yeni": 907,
      "lıgına": 908,
      "▁or": 909,
      "esini": 910,
      "▁yag": 911,
      "▁yatırımcılar": 912,
      "▁denizi": 913,
      "▁danısman": 914,
      "▁mut": 915,
      "▁seyin": 916,
      "▁sekilde": 917,
      "▁eger": 918,
      "▁end": 919,
      "▁mily": 920,
      "▁kav": 921,
      "▁gu": 922,
      "iste": 923,
      "▁otomobil": 924,
      "lbu": 925,
      ">": 926,
      "—": 927,
      "emez": 928,
      "up": 929,
      "bası": 930,
      "ından": 931,
      "iy": 932,
      "▁yapmayı": 933,
      "ru": 934,
      "▁karsiligini": 935,
      "▁sandal": 936,
      "▁ticarette": 937,
      "▁yıl": 938,
      "ih": 939,
      "▁mac": 940,
      "▁icecekler": 941,
      "▁civarında": 942,
      "unu": 943,
      "ola": 944,
      "mis": 945,
      "▁mak": 946,
      "▁nis": 947,
      "▁islet": 948,
      "▁goster": 949,
      "▁mart": 950,
      "imiz": 951,
      "mayı": 952,
      "manın": 953,
      "▁kriz": 954,
      "▁pir": 955,
      "▁cocuklara": 956,
      "▁ikram": 957,
      "par": 958,
      "▁ara": 959,
      "eda": 960,
      "▁gelmis": 961,
      "*": 962,
      "▁istik": 963,
      "▁uzun": 964,
      "▁ver": 965,
      "▁hayat": 966,
      "▁sorun": 967,
      "▁ma": 968,
      "bar": 969,
      "ni": 970,
      "▁sozcusu": 971,
      "▁yerden": 972,
      "▁niyet": 973,
      "▁cit": 974,
      "▁sis": 975,
      "▁kurs": 976,
      "et": 977,
      "▁deprem": 978,
      "▁cogu": 979,
      "▁avuk": 980,
      "ton": 981,
      "▁ton": 982,
      "▁gi": 983,
      "▁istedi": 984,
      "▁olma": 985,
      "di": 986,
      "▁kul": 987,
      "ısına": 988,
      "▁ucu": 989,
      "mer": 990,
      "eyle": 991,
      "▁sah": 992,
      "▁gunluk": 993,
      "▁lez": 994,
      "ag": 995,
      "▁fab": 996,
      "eral": 997,
      "lerini": 998,
      "itesi": 999,
      "▁animasyonlar": 1000,
      "▁ab": 1001,
      "▁muhaf": 1002,
      "▁cocugun": 1003,
      "ugu": 1004,
      "▁defter": 1005,
      "▁erkek": 1006,
      "▁digerleri": 1007,
      "asyon": 1008,
      "▁br": 1009,
      "kel": 1010,
      "▁ulkenin": 1011,
      "▁pat": 1012,
      "dikleri": 1013,
      "▁ev": 1014,
      "▁kadını": 1015,
      "atif": 1016,
      "▁cin": 1017,
      "▁har": 1018,
      "iyorlar": 1019,
      "▁yerine": 1020,
      "▁deniz": 1021,
      "▁elbis": 1022,
      "elerin": 1023,
      "▁`": 1024,
      "▁kayı": 1025,
      "▁sokak": 1026,
      "▁se": 1027,
      "▁dusunce": 1028,
      "▁z": 1029,
      "▁ancak": 1030,
      "▁durus": 1031,
      "▁dusus": 1032,
      "▁milyon": 1033,
      "ur": 1034,
      "▁fot": 1035,
      "▁sınıfı": 1036,
      "▁uretimi": 1037,
      "▁kon": 1038,
      "▁bile": 1039,
      "▁gorus": 1040,
      "▁eglence": 1041,
      "▁vat": 1042,
      "ati": 1043,
      "gur": 1044,
      "▁dilim": 1045,
      "[CLS]": 1046,
      "▁yer": 1047,
      "▁kim": 1048,
      "iydi": 1049,
      "end": 1050,
      "▁calı": 1051,
      "▁davranıs": 1052,
      "makta": 1053,
      "ıcak": 1054,
      "▁ailesi": 1055,
      "▁salon": 1056,
      "▁ban": 1057,
      "▁takdir": 1058,
      "▁fiyatı": 1059,
      "▁hanım": 1060,
      "▁vardı": 1061,
      "▁kur": 1062,
      "▁8": 1063,
      "ilik": 1064,
      "eh": 1065,
      "▁ses": 1066,
      "imden": 1067,
      "▁tarla": 1068,
      "zir": 1069,
      "▁gerektigini": 1070,
      "▁etmem": 1071,
      "ligini": 1072,
      "▁araba": 1073,
      "▁amac": 1074,
      "dıgında": 1075,
      "▁yuzde": 1076,
      "agından": 1077,
      "▁od": 1078,
      "▁piyan": 1079,
      "lit": 1080,
      "▁imkanlari": 1081,
      "cılıg": 1082,
      "▁savası": 1083,
      "▁gaz": 1084,
      "gesi": 1085,
      "angi": 1086,
      "▁tabak": 1087,
      "lin": 1088,
      "lanır": 1089,
      "▁philadel": 1090,
      "ilmis": 1091,
      "imizde": 1092,
      "▁tok": 1093,
      "sı": 1094,
      "▁ap": 1095,
      "▁azalt": 1096,
      "▁arab": 1097,
      "tiler": 1098,
      "▁ihtim": 1099,
      "▁ulk": 1100,
      "▁kalitesi": 1101,
      "▁pay": 1102,
      "▁aktiv": 1103,
      "▁to": 1104,
      "▁onay": 1105,
      "▁olanak": 1106,
      "▁azından": 1107,
      "▁gordum": 1108,
      "gim": 1109,
      "agına": 1110,
      "▁ama": 1111,
      "ger": 1112,
      "▁yasam": 1113,
      "'nin": 1114,
      "▁hır": 1115,
      "▁tad": 1116,
      "▁listesini": 1117,
      "▁sozles": 1118,
      "▁kredi": 1119,
      "▁onlar": 1120,
      "▁sart": 1121,
      "▁akıl": 1122,
      "▁ar": 1123,
      "▁cek": 1124,
      "▁petrol": 1125,
      "▁bat": 1126,
      "ımızın": 1127,
      "sın": 1128,
      "lerim": 1129,
      "▁": 1130,
      "▁yuzyıl": 1131,
      "ilm": 1132,
      "▁bekliyor": 1133,
      "▁yıld": 1134,
      "▁hep": 1135,
      "▁ul": 1136,
      ".": 1137,
      "▁dusun": 1138,
      "▁herh": 1139,
      "ına": 1140,
      "isindan": 1141,
      "▁zamanda": 1142,
      "▁gidis": 1143,
      "▁ailelere": 1144,
      "▁sanat": 1145,
      "▁nisan": 1146,
      "▁yapmak": 1147,
      "itr": 1148,
      "▁ola": 1149,
      "etici": 1150,
      "ise": 1151,
      "▁cag": 1152,
      "▁gecm": 1153,
      "▁dum": 1154,
      "▁turku": 1155,
      "▁sonr": 1156,
      "▁su": 1157,
      "▁ayd": 1158,
      "lastı": 1159,
      "▁gid": 1160,
      "▁tahmin": 1161,
      "ıyordu": 1162,
      "▁altın": 1163,
      "anlık": 1164,
      "▁plani": 1165,
      "▁diger": 1166,
      "oz": 1167,
      "maya": 1168,
      "eme": 1169,
      "ızı": 1170,
      "ligin": 1171,
      "ayi": 1172,
      "udu": 1173,
      "▁yere": 1174,
      "ımız": 1175,
      "▁rekor": 1176,
      "▁olur": 1177,
      "tor": 1178,
      "▁kuf": 1179,
      "▁yalnız": 1180,
      "un": 1181,
      "▁baskan": 1182,
      "▁hat": 1183,
      "▁japon": 1184,
      "▁gelistir": 1185,
      "▁kullan": 1186,
      "▁tat": 1187,
      "▁altından": 1188,
      "▁yeniden": 1189,
      "ens": 1190,
      "sizdi": 1191,
      "▁alıs": 1192,
      "▁tip": 1193,
      "tık": 1194,
      "ılım": 1195,
      "▁cog": 1196,
      "▁aradi": 1197,
      "▁acıkladı": 1198,
      "▁imkan": 1199,
      "orm": 1200,
      "▁farkında": 1201,
      "▁fark": 1202,
      "▁faiz": 1203,
      "▁kuy": 1204,
      "▁artısla": 1205,
      "▁saldır": 1206,
      "ult": 1207,
      "▁zey": 1208,
      "▁seh": 1209,
      "▁bayram": 1210,
      "ların": 1211,
      "▁kere": 1212,
      "digini": 1213,
      "▁gon": 1214,
      "▁hız": 1215,
      "erv": 1216,
      "▁rom": 1217,
      "▁uretim": 1218,
      "▁kusur": 1219,
      "▁dede": 1220,
      "▁devralma": 1221,
      "▁kumar": 1222,
      "f": 1223,
      "▁yemeklerinden": 1224,
      "▁borc": 1225,
      "sizlik": 1226,
      "▁hizmetleri": 1227,
      "edik": 1228,
      "mesine": 1229,
      "▁cesitleri": 1230,
      "eyr": 1231,
      "▁onemli": 1232,
      "gin": 1233,
      "labilir": 1234,
      "▁sesi": 1235,
      "yle": 1236,
      "▁kimi": 1237,
      "▁annem": 1238,
      "ve": 1239,
      "abilecegini": 1240,
      "▁it": 1241,
      "▁yonet": 1242,
      "▁ornegin": 1243,
      "▁yandan": 1244,
      "▁dogr": 1245,
      "ksa": 1246,
      "▁kisilik": 1247,
      "▁gosterdi": 1248,
      "ren": 1249,
      "▁isim": 1250,
      "ınız": 1251,
      "▁mi": 1252,
      "▁sir": 1253,
      "▁lezzet": 1254,
      "▁kasab": 1255,
      "▁oy": 1256,
      "▁ruh": 1257,
      "▁odamiz": 1258,
      "ediye": 1259,
      "▁199": 1260,
      "edig": 1261,
      "▁havayollarının": 1262,
      "▁boyle": 1263,
      "ecegini": 1264,
      "▁kahval": 1265,
      "▁gayrimenkul": 1266,
      "▁ardından": 1267,
      "▁dib": 1268,
      "uye": 1269,
      "▁uz": 1270,
      "▁reform": 1271,
      "▁beye": 1272,
      "▁gokyuz": 1273,
      "ch": 1274,
      "▁belediye": 1275,
      "siniz": 1276,
      "dak": 1277,
      "▁talep": 1278,
      "ov": 1279,
      "▁cıktı": 1280,
      "▁sel": 1281,
      "▁bilim": 1282,
      "digim": 1283,
      "▁yiyecek": 1284,
      "▁cel": 1285,
      "ade": 1286,
      "▁baltimore'ye": 1287,
      "▁katk": 1288,
      "▁12": 1289,
      "▁dert": 1290,
      "▁ustu": 1291,
      "ran": 1292,
      "imizin": 1293,
      "lik": 1294,
      "▁savun": 1295,
      "eb": 1296,
      "▁alacak": 1297,
      "▁hakk": 1298,
      "(": 1299,
      "dugu": 1300,
      "asi": 1301,
      "▁vuc": 1302,
      "▁bicimde": 1303,
      "▁geyik": 1304,
      "anc": 1305,
      "▁sup": 1306,
      "▁olmalı": 1307,
      "▁…": 1308,
      "l": 1309,
      "alt": 1310,
      "ılması": 1311,
      "▁ucretin": 1312,
      "lerinden": 1313,
      "gr": 1314,
      "ısından": 1315,
      "▁ucuyor": 1316,
      "▁anket": 1317,
      "▁istem": 1318,
      "▁kaldırım": 1319,
      "▁yaklasık": 1320,
      "ika": 1321,
      "▁okul": 1322,
      "▁bardagı": 1323,
      "▁tehdit": 1324,
      "▁ta": 1325,
      "▁havaalanı": 1326,
      "ugunu": 1327,
      "▁yukseldi": 1328,
      "▁spor": 1329,
      "eydi": 1330,
      "ustu": 1331,
      "may": 1332,
      "nız": 1333,
      "emey": 1334,
      "'n": 1335,
      "ce": 1336,
      "yon": 1337,
      "n": 1338,
      "imci": 1339,
      "▁yıldız": 1340,
      "▁veriyorum": 1341,
      "ut": 1342,
      "▁seye": 1343,
      "▁koylu": 1344,
      "iniz": 1345,
      "▁koltuk": 1346,
      "▁arastırma": 1347,
      "kan": 1348,
      "▁ekmek": 1349,
      "▁basın": 1350,
      "b": 1351,
      "▁tum": 1352,
      "▁avukat": 1353,
      "▁masraf": 1354,
      "▁devr": 1355,
      "▁.'": 1356,
      "▁sirketleri": 1357,
      "▁gor": 1358,
      "▁arkadaslar": 1359,
      "▁payı": 1360,
      "▁oteli": 1361,
      "▁persembe": 1362,
      "▁kaldı": 1363,
      "iber": 1364,
      "▁altına": 1365,
      "uy": 1366,
      "▁havaal": 1367,
      "▁yuzunu": 1368,
      "igim": 1369,
      "▁mev": 1370,
      "▁sadece": 1371,
      "orta": 1372,
      "▁fırsat": 1373,
      "i": 1374,
      "▁satısı": 1375,
      "▁7": 1376,
      "▁yine": 1377,
      "▁anlas": 1378,
      "inc": 1379,
      "▁yiy": 1380,
      "▁ayrıl": 1381,
      "▁yemekleri": 1382,
      "▁sırada": 1383,
      "▁konut": 1384,
      "▁aklı": 1385,
      "▁eline": 1386,
      "▁hayata": 1387,
      "▁civ": 1388,
      "sim": 1389,
      "▁piyasa": 1390,
      "▁bog": 1391,
      "man": 1392,
      "▁kok": 1393,
      "▁hayvan": 1394,
      "oy": 1395,
      "▁kahv": 1396,
      "▁tab": 1397,
      "▁aynı": 1398,
      "▁dok": 1399,
      "▁olm": 1400,
      "dırım": 1401,
      "▁plan": 1402,
      "▁aracı": 1403,
      "1": 1404,
      "▁edebiyat": 1405,
      "enin": 1406,
      "▁gunu": 1407,
      "etim": 1408,
      "▁mir": 1409,
      "▁olcude": 1410,
      "▁basında": 1411,
      "▁gazet": 1412,
      "ess": 1413,
      "▁teknoloji": 1414,
      "estiri": 1415,
      "▁insaat": 1416,
      "lerimiz": 1417,
      "▁muk": 1418,
      "cih": 1419,
      "oru": 1420,
      "▁ayr": 1421,
      "▁ilgiliydi": 1422,
      "▁aksamı": 1423,
      "imen": 1424,
      "▁ozellik": 1425,
      "kac": 1426,
      "▁gunler": 1427,
      "▁alak": 1428,
      "▁karayol": 1429,
      "detti": 1430,
      "▁?..": 1431,
      "▁orne": 1432,
      "burg": 1433,
      "▁gecti": 1434,
      "▁sahibi": 1435,
      "▁tor": 1436,
      "mistir": 1437,
      "▁ilet": 1438,
      "▁hik": 1439,
      "▁ardı": 1440,
      "▁icecek": 1441,
      "▁hus": 1442,
      "▁dil": 1443,
      "▁hic": 1444,
      "▁ren": 1445,
      "▁durum": 1446,
      "▁butu": 1447,
      "▁danıs": 1448,
      "▁dun": 1449,
      "ıgın": 1450,
      "▁kampan": 1451,
      "teri": 1452,
      "▁mola": 1453,
      "yan": 1454,
      "▁insanları": 1455,
      "▁ciz": 1456,
      "medigini": 1457,
      "▁lir": 1458,
      "onel": 1459,
      "tu": 1460,
      "osu": 1461,
      "▁davet": 1462,
      "▁dısında": 1463,
      "kur": 1464,
      "mustur": 1465,
      "▁ingil": 1466,
      "▁gercekl": 1467,
      "▁ala": 1468,
      "let": 1469,
      "larımız": 1470,
      "▁ilan": 1471,
      "▁sezon": 1472,
      "▁bo": 1473,
      "sunuz": 1474,
      "lıga": 1475,
      "'": 1476,
      "▁kom": 1477,
      "▁yardımcısı": 1478,
      "ic": 1479,
      "▁gog": 1480,
      "▁gunden": 1481,
      "▁muhab": 1482,
      "uguna": 1483,
      "▁yay": 1484,
      "sin": 1485,
      "za": 1486,
      "cok": 1487,
      "uzlu": 1488,
      "▁fiyat": 1489,
      "▁ula": 1490,
      "alarla": 1491,
      "▁aktivit": 1492,
      "▁topu": 1493,
      "▁adam": 1494,
      "acag": 1495,
      "alık": 1496,
      "tıgı": 1497,
      "▁perde": 1498,
      "der": 1499,
      "cılar": 1500,
      "amam": 1501,
      "▁ofis": 1502,
      "▁ten": 1503,
      "▁halkı": 1504,
      "▁ucusun": 1505,
      "▁fiyatlar": 1506,
      ";": 1507,
      "▁in": 1508,
      "▁kadının": 1509,
      "ki": 1510,
      "larını": 1511,
      "▁tane": 1512,
      "▁tanı": 1513,
      "▁agır": 1514,
      "▁temiz": 1515,
      "ıgını": 1516,
      "ob": 1517,
      "▁iflas": 1518,
      "▁lik": 1519,
      "ıntı": 1520,
      "▁icer": 1521,
      "▁boston'dan": 1522,
      "▁?": 1523,
      "diye": 1524,
      "▁dunya": 1525,
      "▁bulut": 1526,
      "▁ile": 1527,
      "▁zamanı": 1528,
      "▁tehlik": 1529,
      "▁beklent": 1530,
      "uru": 1531,
      "▁kız": 1532,
      "▁zira": 1533,
      "▁sekil": 1534,
      "▁zaman": 1535,
      "▁dortluk": 1536,
      "uyordu": 1537,
      "▁uzerinde": 1538,
      "larımı": 1539,
      "▁veririm": 1540,
      "cısı": 1541,
      "▁strate": 1542,
      "uklu": 1543,
      "lacak": 1544,
      "▁anla": 1545,
      "▁ter": 1546,
      "▁esy": 1547,
      "▁kad": 1548,
      "▁oldugunu": 1549,
      "▁alısveris": 1550,
      "▁ph": 1551,
      "▁boyn": 1552,
      "obil": 1553,
      "agının": 1554,
      "si": 1555,
      "larımızı": 1556,
      "▁degistir": 1557,
      "▁gemi": 1558,
      "▁tu": 1559,
      "▁bilet": 1560,
      "dır": 1561,
      "▁em": 1562,
      "▁iz": 1563,
      "ikti": 1564,
      "iger": 1565,
      "▁seviye": 1566,
      "▁pan": 1567,
      "mey": 1568,
      "▁herk": 1569,
      "▁iliski": 1570,
      "▁sehr": 1571,
      "▁9": 1572,
      "▁cep": 1573,
      "masının": 1574,
      "▁gozlem": 1575,
      "▁bicim": 1576,
      "▁puan": 1577,
      "▁ayakk": 1578,
      "▁hukumeti": 1579,
      "▁servis": 1580,
      "asının": 1581,
      "'ta": 1582,
      "▁sek": 1583,
      "▁duzey": 1584,
      "laya": 1585,
      "▁yaklasimi": 1586,
      "▁hale": 1587,
      "▁ka": 1588,
      "umu": 1589,
      "'s": 1590,
      "ıg": 1591,
      "▁kop": 1592,
      "e": 1593,
      "▁but": 1594,
      "▁kısmı": 1595,
      "▁alıcı": 1596,
      "▁parayı": 1597,
      "▁yuzden": 1598,
      "▁mec": 1599,
      "ret": 1600,
      "▁gorev": 1601,
      "▁huc": 1602,
      "mamıs": 1603,
      "▁sade": 1604,
      "atik": 1605,
      "▁eg": 1606,
      "edef": 1607,
      "dek": 1608,
      "▁sozc": 1609,
      "alet": 1610,
      "larla": 1611,
      "▁yetk": 1612,
      "▁lak": 1613,
      "▁arastır": 1614,
      "▁basa": 1615,
      "▁yap": 1616,
      "▁dunyada": 1617,
      "▁kuc": 1618,
      "▁cocuklu": 1619,
      "▁karı": 1620,
      "▁azal": 1621,
      "ılıgı": 1622,
      "▁tesekkurler": 1623,
      "▁elektrik": 1624,
      "▁donem": 1625,
      "▁kitap": 1626,
      "▁bin": 1627,
      "ansiyon": 1628,
      "▁yonelik": 1629,
      "9": 1630,
      "▁memur": 1631,
      "enlerin": 1632,
      "en": 1633,
      "▁dest": 1634,
      "▁tep": 1635,
      "▁yetersizdi": 1636,
      "▁ince": 1637,
      "▁%": 1638,
      "imore": 1639,
      "kal": 1640,
      "▁198": 1641,
      "lge": 1642,
      "an": 1643,
      "▁demir": 1644,
      "▁kolt": 1645,
      "▁hayal": 1646,
      "▁enflasyon": 1647,
      "▁motor": 1648,
      "▁vucu": 1649,
      "eyn": 1650,
      "ig": 1651,
      "ıl": 1652,
      "▁herkes": 1653,
      "leme": 1654,
      "▁barıs": 1655,
      "▁mim": 1656,
      "ata": 1657,
      "▁ucrete": 1658,
      "▁islerini": 1659,
      "gan": 1660,
      "▁seviyesinden": 1661,
      "▁makin": 1662,
      "▁gayrimen": 1663,
      "▁du": 1664,
      "▁toplan": 1665,
      "▁ucusların": 1666,
      "▁dahi": 1667,
      "▁port": 1668,
      "ecegi": 1669,
      "▁milyardan": 1670,
      "abil": 1671,
      "▁inc": 1672,
      "tigini": 1673,
      "▁ogretmen": 1674,
      "▁damak": 1675,
      "yalar": 1676,
      "▁gorunuyor": 1677,
      "▁yapıl": 1678,
      "▁ogren": 1679,
      "oh": 1680,
      "ıyla": 1681,
      "▁odam": 1682,
      "ee": 1683,
      "▁anda": 1684,
      "▁kamu": 1685,
      "▁ov": 1686,
      "▁iletisim": 1687,
      "deki": 1688,
      "▁sıcak": 1689,
      "▁kam": 1690,
      "▁tek": 1691,
      "ekti": 1692,
      "▁buraya": 1693,
      "▁her": 1694,
      "▁sat": 1695,
      "ed": 1696,
      "▁hizmet": 1697,
      "ilim": 1698,
      "▁red": 1699,
      "lon": 1700,
      "manlar": 1701,
      "▁piyasaya": 1702,
      "▁kis": 1703,
      "istler": 1704,
      "▁harek": 1705,
      "▁ortaya": 1706,
      "must": 1707,
      "biy": 1708,
      "▁ken": 1709,
      "6": 1710,
      "▁aileler": 1711,
      "▁zevk": 1712,
      "zet": 1713,
      "▁bunlar": 1714,
      "▁atlanta'dan": 1715,
      "▁hatta": 1716,
      "ter": 1717,
      "siyon": 1718,
      "hut": 1719,
      "▁do": 1720,
      "▁hizm": 1721,
      "▁anay": 1722,
      "▁resim": 1723,
      "▁delikan": 1724,
      "▁kol": 1725,
      "ılı": 1726,
      "▁uret": 1727,
      "▁basarı": 1728,
      "▁ruzgar": 1729,
      "▁gunes": 1730,
      "▁ogret": 1731,
      "▁ettim": 1732,
      "▁tak": 1733,
      "sat": 1734,
      "▁telefonla": 1735,
      "▁ber": 1736,
      "▁duny": 1737,
      "ecek": 1738,
      "▁uf": 1739,
      "liligi": 1740,
      "af": 1741,
      "w": 1742,
      "▁calisanlar": 1743,
      "▁geliyor": 1744,
      "▁bakıs": 1745,
      "etli": 1746,
      "▁kez": 1747,
      "▁senet": 1748,
      "▁ucretleri": 1749,
      "▁tatil": 1750,
      "▁ed": 1751,
      "▁yanı": 1752,
      "▁nam": 1753,
      "▁c": 1754,
      "▁..\"": 1755,
      "asyonu": 1756,
      "▁mucadele": 1757,
      "▁oper": 1758,
      "▁acik": 1759,
      "▁veri": 1760,
      "ri": 1761,
      "▁baslangıc": 1762,
      "▁numara": 1763,
      "▁us": 1764,
      "▁anlamda": 1765,
      "▁cumhuriyet": 1766,
      "ark": 1767,
      "ıza": 1768,
      "▁yardım": 1769,
      "▁sını": 1770,
      "▁enerji": 1771,
      "▁etmek": 1772,
      "▁key": 1773,
      "aların": 1774,
      "▁yuzu": 1775,
      "▁gecir": 1776,
      "kin": 1777,
      "▁kadın": 1778,
      "'in": 1779,
      "mez": 1780,
      "▁hamle": 1781,
      "larına": 1782,
      "laması": 1783,
      "emin": 1784,
      "▁reklam": 1785,
      "▁cad": 1786,
      "▁cumhurb": 1787,
      "adde": 1788,
      "rada": 1789,
      "sil": 1790,
      "ket": 1791,
      "▁cizgi": 1792,
      "▁ona": 1793,
      "▁begendim": 1794,
      "▁eskiydi": 1795,
      "▁siy": 1796,
      "▁olay": 1797,
      "▁cumhur": 1798,
      "▁kapandı": 1799,
      "▁girdi": 1800,
      "▁satım": 1801,
      "▁buc": 1802,
      "▁temizdi": 1803,
      "izli": 1804,
      "▁basar": 1805,
      "▁gerekiyor": 1806,
      "ladı": 1807,
      "miyorum": 1808,
      "miyor": 1809,
      "▁merdiven": 1810,
      "▁herif": 1811,
      "▁cift": 1812,
      "▁adamları": 1813,
      "cegini": 1814,
      "tigi": 1815,
      "▁dı": 1816,
      "▁dev": 1817,
      "▁ilgilendiler": 1818,
      "▁icinden": 1819,
      "▁un": 1820,
      "▁yol": 1821,
      "▁bugday": 1822,
      "▁met": 1823,
      "▁sem": 1824,
      "▁perform": 1825,
      "▁agac": 1826,
      "▁dip": 1827,
      "▁gars": 1828,
      "ıy": 1829,
      "▁nedir": 1830,
      "uga": 1831,
      "▁tezgah": 1832,
      "▁fabr": 1833,
      "idi": 1834,
      "▁fayda": 1835,
      "▁gormek": 1836,
      "▁pazar": 1837,
      "lendir": 1838,
      "ten": 1839,
      "lıgında": 1840,
      "▁ol": 1841,
      "ellikle": 1842,
      "re": 1843,
      "▁bol": 1844,
      "eviz": 1845,
      "▁kavram": 1846,
      "▁net": 1847,
      "▁hukum": 1848,
      "▁aktarma": 1849,
      "▁hicbir": 1850,
      "ısız": 1851,
      "lem": 1852,
      "ında": 1853,
      "▁al": 1854,
      "ska": 1855,
      "▁gidi": 1856,
      "▁koyun": 1857,
      "▁bardak": 1858,
      "▁tec": 1859,
      "▁gecesi": 1860,
      "ent": 1861,
      "▁gunde": 1862,
      "▁kons": 1863,
      "▁zeytin": 1864,
      "ston": 1865,
      "lim": 1866,
      "▁tartısma": 1867,
      "iden": 1868,
      "▁ozellikle": 1869,
      "▁endeks": 1870,
      "▁istasyon": 1871,
      "▁traf": 1872,
      "▁mahkeme": 1873,
      "▁toplam": 1874,
      "[MASK]": 1875,
      "▁pozisyon": 1876,
      "yum": 1877,
      "▁aksam": 1878,
      "▁sin": 1879,
      "igini": 1880,
      "esinden": 1881,
      "▁calısma": 1882,
      "nc": 1883,
      "▁ise": 1884,
      "▁ada": 1885,
      "▁restor": 1886,
      "iligi": 1887,
      "▁mag": 1888,
      "▁muhafaz": 1889,
      "▁sonra": 1890,
      "las": 1891,
      "yal": 1892,
      "▁sonucu": 1893,
      "▁oysa": 1894,
      "▁pers": 1895,
      "▁duy": 1896,
      "cının": 1897,
      "▁ard": 1898,
      "▁francisco'ya": 1899,
      "ly": 1900,
      "▁sim": 1901,
      "sızlık": 1902,
      "sal": 1903,
      "▁mevdu": 1904,
      "▁geriye": 1905,
      "reti": 1906,
      "isinde": 1907,
      "▁surec": 1908,
      "hal": 1909,
      "▁gok": 1910,
      "▁)": 1911,
      "▁sahipleri": 1912,
      "ist": 1913,
      "▁kuvv": 1914,
      "ustos": 1915,
      "etr": 1916,
      "▁seklinde": 1917,
      "▁es": 1918,
      "'da": 1919,
      "yıl": 1920,
      "▁hissed": 1921,
      "▁hoc": 1922,
      "▁hamam": 1923,
      "okr": 1924,
      "ırt": 1925,
      "▁isci": 1926,
      "▁havayollarını": 1927,
      "ka": 1928,
      "▁odan": 1929,
      "▁oyn": 1930,
      ".5": 1931,
      "▁yanıt": 1932,
      "▁hey": 1933,
      "▁tahta": 1934,
      "▁ruy": 1935,
      "▁''": 1936,
      "▁odada": 1937,
      "▁ila": 1938,
      "usunu": 1939,
      "▁plaji": 1940,
      "uydu": 1941,
      "▁dostu": 1942,
      "▁zaten": 1943,
      "cı": 1944,
      "▁uzerinden": 1945,
      "usunda": 1946,
      "▁bir": 1947,
      "▁per": 1948,
      "suz": 1949,
      "aj": 1950,
      "▁peynir": 1951,
      "madıgını": 1952,
      "▁isleri": 1953,
      "▁alb": 1954,
      "lk": 1955,
      "▁birkac": 1956,
      "▁otelin": 1957,
      "▁sun": 1958,
      "▁bisik": 1959,
      "nd": 1960,
      "▁verdi": 1961,
      "▁yarın": 1962,
      "agın": 1963,
      "▁ek": 1964,
      "anıt": 1965,
      "v": 1966,
      "uma": 1967,
      "atın": 1968,
      "rak": 1969,
      "▁kagı": 1970,
      "▁atlanta": 1971,
      "kler": 1972,
      "▁yasa": 1973,
      "▁polit": 1974,
      "▁gelis": 1975,
      "bil": 1976,
      "\"": 1977,
      "▁cicek": 1978,
      "▁sordu": 1979,
      "yacak": 1980,
      "▁petr": 1981,
      "digi": 1982,
      "▁orada": 1983,
      "suzluk": 1984,
      "▁vergi": 1985,
      "ının": 1986,
      "azla": 1987,
      "▁bıy": 1988,
      "eyin": 1989,
      "▁bakanlıgı": 1990,
      "▁nit": 1991,
      "ba": 1992,
      "▁nefes": 1993,
      "▁mur": 1994,
      "▁guler": 1995,
      "▁yas": 1996,
      "lıc": 1997,
      "meleri": 1998,
      "▁araz": 1999,
      "asındaki": 2000,
      "▁ann": 2001,
      "daydi": 2002,
      "agını": 2003,
      "▁ef": 2004,
      "▁kuvvet": 2005,
      "▁sırt": 2006,
      "▁gozden": 2007,
      "▁amerikalı": 2008,
      "mekten": 2009,
      "aydı": 2010,
      "▁kıs": 2011,
      "burgh": 2012,
      "eti": 2013,
      "oj": 2014,
      "▁mul": 2015,
      "▁yılı": 2016,
      "▁mevz": 2017,
      "ab": 2018,
      "tih": 2019,
      "▁tekrar": 2020,
      "esi": 2021,
      "van": 2022,
      "▁kayb": 2023,
      "pan": 2024,
      "ın": 2025,
      "uler": 2026,
      "▁endise": 2027,
      "5'": 2028,
      "▁tarihi": 2029,
      "▁muh": 2030,
      "▁nasıl": 2031,
      "▁topr": 2032,
      "▁yoksa": 2033,
      "▁eden": 2034,
      "▁min": 2035,
      "▁t": 2036,
      "▁e": 2037,
      "▁hos": 2038,
      "askanı": 2039,
      "▁yılında": 2040,
      "ou": 2041,
      "▁uyku": 2042,
      "▁tesp": 2043,
      "▁sekret": 2044,
      "▁3": 2045,
      "all": 2046,
      "▁kuv": 2047,
      "ra": 2048,
      "▁tarafından": 2049,
      "▁insanların": 2050,
      "▁ayakkabı": 2051,
      "▁programı": 2052,
      "lantı": 2053,
      "q": 2054,
      "▁class": 2055,
      "▁sesleri": 2056,
      "landı": 2057,
      "og": 2058,
      "acak": 2059,
      "▁kum": 2060,
      "▁vakt": 2061,
      "▁zih": 2062,
      "▁mezar": 2063,
      "uf": 2064,
      "▁sav": 2065,
      "alım": 2066,
      "alma": 2067,
      "▁devir": 2068,
      "gul": 2069,
      "enleri": 2070,
      "▁kalabalık": 2071,
      "ol": 2072,
      "▁str": 2073,
      "▁6'dan": 2074,
      "▁dag": 2075,
      "▁sonuclar": 2076,
      "▁kab": 2077,
      "▁inanc": 2078,
      "▁karsıl": 2079,
      "▁oc": 2080,
      "▁sebep": 2081,
      "▁yerler": 2082,
      "▁stok": 2083,
      "▁imkanlar": 2084,
      "▁kimsenin": 2085,
      "▁tez": 2086,
      "▁sirk": 2087,
      "▁internet": 2088,
      "▁biraz": 2089,
      "us": 2090,
      "muyor": 2091,
      "▁ilisk": 2092,
      "▁odasına": 2093,
      "▁kıy": 2094,
      "▁o": 2095,
      "▁ucreti": 2096,
      "uh": 2097,
      "gil": 2098,
      "amın": 2099,
      "ele": 2100,
      "▁toplant": 2101,
      "ayla": 2102,
      "▁orn": 2103,
      "▁kot": 2104,
      "▁hikay": 2105,
      "▁personelleri": 2106,
      "▁katkıda": 2107,
      "▁soyl": 2108,
      "le": 2109,
      "ılıyor": 2110,
      "▁olması": 2111,
      "'nde": 2112,
      "▁indir": 2113,
      "erin": 2114,
      "▁6": 2115,
      "▁hal": 2116,
      "▁hareket": 2117,
      "▁bolum": 2118,
      "▁insanlara": 2119,
      "▁cih": 2120,
      "▁r": 2121,
      "▁parcası": 2122,
      "▁hes": 2123,
      "▁personeli": 2124,
      "▁komisyonu": 2125,
      "gili": 2126,
      "▁dus": 2127,
      "tlu": 2128,
      "stu": 2129,
      "▁yuk": 2130,
      "▁dısarı": 2131,
      "▁git": 2132,
      "dan": 2133,
      "lılık": 2134,
      "aydi": 2135,
      "▁fin": 2136,
      "▁isk": 2137,
      "▁ayrıca": 2138,
      "▁masa": 2139,
      "▁istek": 2140,
      "▁sermaye": 2141,
      "▁new": 2142,
      "▁nokt": 2143,
      "▁firması": 2144,
      "▁rez": 2145,
      "▁suru": 2146,
      "mek": 2147,
      "adan": 2148,
      "▁hazır": 2149,
      "▁cevre": 2150,
      "%": 2151,
      "▁bulundu": 2152,
      "enuz": 2153,
      "ılan": 2154,
      "▁bahc": 2155,
      "▁kenar": 2156,
      "mıslar": 2157,
      "▁alım": 2158,
      "▁rad": 2159,
      "if": 2160,
      "▁if": 2161,
      "alan": 2162,
      "ıya": 2163,
      "▁memleket": 2164,
      "▁manzarasi": 2165,
      "▁arkadas": 2166,
      "▁parca": 2167,
      "▁asag": 2168,
      "▁far": 2169,
      "▁endeksi": 2170,
      "idir": 2171,
      "▁cem": 2172,
      "▁endustri": 2173,
      "”": 2174,
      "gum": 2175,
      "▁model": 2176,
      "gar": 2177,
      "iyeti": 2178,
      "erken": 2179,
      "▁oda": 2180,
      "▁lira": 2181,
      "▁nedeni": 2182,
      "▁etrafında": 2183,
      "▁suy": 2184,
      "ator": 2185,
      "yuz": 2186,
      "ayan": 2187,
      "▁sist": 2188,
      "ef": 2189,
      "▁baskanı": 2190,
      "lugu": 2191,
      "▁san": 2192,
      "'den": 2193,
      "mal": 2194,
      "ad": 2195,
      "▁daha": 2196,
      "▁siyaset": 2197,
      "​": 2198,
      "lestir": 2199,
      "▁yok": 2200,
      "bak": 2201,
      "▁hanimdi": 2202,
      "leg": 2203,
      "ont": 2204,
      "▁toplantı": 2205,
      "▁ediyordu": 2206,
      "ırım": 2207,
      "asından": 2208,
      "lilik": 2209,
      "▁elestiri": 2210,
      "▁lut": 2211,
      "uya": 2212,
      "ilen": 2213,
      "▁babam": 2214,
      "▁suc": 2215,
      "▁birtakım": 2216,
      "▁ekonom": 2217,
      "lardı": 2218,
      "▁uzak": 2219,
      "ulu": 2220,
      "▁gec": 2221,
      "▁portfoy": 2222,
      "dil": 2223,
      "▁ail": 2224,
      "mustu": 2225,
      "▁yurtd": 2226,
      "▁kalem": 2227,
      "▁otelden": 2228,
      "▁olanaklari": 2229,
      "▁bask": 2230,
      "▁i": 2231,
      "▁insanlar": 2232,
      "▁sikayet": 2233,
      "▁soyle": 2234,
      "▁gayr": 2235,
      "▁carsaf": 2236,
      "▁lezz": 2237,
      "▁silah": 2238,
      "▁ki": 2239,
      "▁yemek": 2240,
      "#": 2241,
      "▁donus": 2242,
      "▁kır": 2243,
      "onom": 2244,
      "lendi": 2245,
      "▁dolara": 2246,
      "ima": 2247,
      "▁olacak": 2248,
      "▁otur": 2249,
      "▁10": 2250,
      "▁banka": 2251,
      "▁delik": 2252,
      "▁soyledi": 2253,
      "tin": 2254,
      "▁co": 2255,
      "▁guzel": 2256,
      "▁halbu": 2257,
      "▁el": 2258,
      ")": 2259,
      "▁cevap": 2260,
      "▁yıla": 2261,
      "▁ikti": 2262,
      "▁sın": 2263,
      "▁yel": 2264,
      "larda": 2265,
      "▁imal": 2266,
      "▁bez": 2267,
      "▁taraf": 2268,
      "▁otom": 2269,
      "▁direk": 2270,
      "lemeye": 2271,
      "▁muc": 2272,
      "eginde": 2273,
      "mad": 2274,
      "▁park": 2275,
      "▁bina": 2276,
      "ine": 2277,
      "’": 2278,
      "▁dava": 2279,
      "▁ipotek": 2280,
      "▁hayv": 2281,
      "▁cez": 2282,
      "ley": 2283,
      "▁hay": 2284,
      "▁sus": 2285,
      "av": 2286,
      "▁inan": 2287,
      "▁dususle": 2288,
      "▁hur": 2289,
      "▁eli": 2290,
      "ecegim": 2291,
      "▁etme": 2292,
      "eg": 2293,
      "▁mahalle": 2294,
      "iler": 2295,
      "lama": 2296,
      "aba": 2297,
      "ak": 2298,
      "'ın": 2299,
      "▁#": 2300,
      "°": 2301,
      "▁tarihinde": 2302,
      "enek": 2303,
      "▁eksik": 2304,
      "▁mimar": 2305,
      "su": 2306,
      "▁ihal": 2307,
      "▁herkesin": 2308,
      "lo": 2309,
      "▁yem": 2310,
      "▁ogrenci": 2311,
      "▁saatlerinde": 2312,
      "▁cal": 2313,
      "▁paz": 2314,
      "▁insa": 2315,
      "▁kade": 2316,
      "▁dos": 2317,
      "▁olas": 2318,
      "▁yapı": 2319,
      "dug": 2320,
      "▁cay": 2321,
      "▁carsamba": 2322,
      "▁aln": 2323,
      "ısını": 2324,
      "▁zinc": 2325,
      "▁dur": 2326,
      "ımda": 2327,
      "ha": 2328,
      "▁kit": 2329,
      "▁kampanyalar": 2330,
      "▁te": 2331,
      "▁gune": 2332,
      "▁gidiyor": 2333,
      "▁bun": 2334,
      "▁rek": 2335,
      "▁bolumu": 2336,
      "bul": 2337,
      "▁sorunun": 2338,
      "▁konf": 2339,
      "egine": 2340,
      "“": 2341,
      "▁gerc": 2342,
      "▁ortam": 2343,
      "▁ugr": 2344,
      "▁doları'ndan": 2345,
      "▁yasında": 2346,
      "tiv": 2347,
      "▁doları": 2348,
      "masını": 2349,
      "▁tuk": 2350,
      "▁dunyanın": 2351,
      "div": 2352,
      "▁devletin": 2353,
      "▁oteldi": 2354,
      "lugunu": 2355,
      "▁saatlerde": 2356,
      "▁dam": 2357,
      "cul": 2358,
      "▁sap": 2359,
      "ekl": 2360,
      "ro": 2361,
      "raz": 2362,
      "la": 2363,
      "▁kurt": 2364,
      "op": 2365,
      "▁oranları": 2366,
      "yası": 2367,
      "layan": 2368,
      "▁alk": 2369,
      "▁ho": 2370,
      "▁gelen": 2371,
      "cag": 2372,
      "lemek": 2373,
      "▁l": 2374,
      "▁dahil": 2375,
      "alarım": 2376,
      "▁onunde": 2377,
      "▁biri": 2378,
      "▁sendika": 2379,
      "▁yont": 2380,
      "▁hizmeti": 2381,
      "elerle": 2382,
      "▁maliyeti": 2383,
      "▁sozcu": 2384,
      "▁eglen": 2385,
      "▁satıslar": 2386,
      "ington": 2387,
      "▁dol": 2388,
      "▁*": 2389,
      "▁pla": 2390,
      "▁teklifi": 2391,
      "▁memnun": 2392,
      "▁evin": 2393,
      "▁hala": 2394,
      "▁asker": 2395,
      "▁giris": 2396,
      "on": 2397,
      "▁yuks": 2398,
      "isten": 2399,
      "lıyor": 2400,
      "maz": 2401,
      "▁$": 2402,
      "etti": 2403,
      "ıma": 2404,
      "▁hap": 2405,
      "ucu": 2406,
      "▁temizligi": 2407,
      "ektr": 2408,
      "▁yemeklerin": 2409,
      "sa": 2410,
      "▁doviz": 2411,
      "be": 2412,
      "apon": 2413,
      "▁sınır": 2414,
      "abilir": 2415,
      "▁gecen": 2416,
      "ia": 2417,
      "areti": 2418,
      "▁sayg": 2419,
      "▁insanın": 2420,
      "▁buf": 2421,
      "▁oner": 2422,
      "lerimizi": 2423,
      "▁fiyata": 2424,
      "▁karab": 2425,
      "inin": 2426,
      "▁cocugu": 2427,
      "ardan": 2428,
      "ırtı": 2429,
      "▁fazl": 2430,
      "▁bekl": 2431,
      "amak": 2432,
      "tan": 2433,
      "▁kodu": 2434,
      "endi": 2435,
      "medim": 2436,
      "ep": 2437,
      "▁yemeklerden": 2438,
      "▁artıs": 2439,
      "▁olcu": 2440,
      "▁sirketi": 2441,
      "▁kuz": 2442,
      "lan": 2443,
      "nak": 2444,
      "▁olmus": 2445,
      "madim": 2446,
      "▁list": 2447,
      "ber": 2448,
      "▁kendis": 2449,
      "▁za": 2450,
      "tansiy": 2451,
      "▁sahip": 2452,
      "▁siz": 2453,
      "▁futbol": 2454,
      "▁kucuktu": 2455,
      "se": 2456,
      "▁sefer": 2457,
      "▁bakan": 2458,
      "▁adina": 2459,
      "asa": 2460,
      "▁suk": 2461,
      "▁rekabet": 2462,
      "▁telefon": 2463,
      "iyatr": 2464,
      "▁dar": 2465,
      "acılık": 2466,
      "▁duk": 2467,
      "c": 2468,
      "▁mil": 2469,
      "▁kaz": 2470,
      "▁kalite": 2471,
      "▁kırık": 2472,
      "stım": 2473,
      "▁mas": 2474,
      "▁fatur": 2475,
      "ıla": 2476,
      "▁genel": 2477,
      "▁lezzetleri": 2478,
      "masız": 2479,
      "▁dukkan": 2480,
      "▁yanl": 2481,
      "amba": 2482,
      "dugunu": 2483,
      "▁kıl": 2484,
      "▁elb": 2485,
      "▁sanayi": 2486,
      "▁onem": 2487,
      "▁ekim": 2488,
      "▁korum": 2489,
      "▁gum": 2490,
      "▁bah": 2491,
      "▁patates": 2492,
      "▁durumunda": 2493,
      "▁sene": 2494,
      "▁kurulus": 2495,
      "agında": 2496,
      "▁diz": 2497,
      "eyen": 2498,
      "asın": 2499,
      "mız": 2500,
      "▁baskı": 2501,
      "▁yoneticileri": 2502,
      "erdi": 2503,
      "▁kelim": 2504,
      "▁sevgi": 2505,
      "▁faturam": 2506,
      "▁cihaz": 2507,
      "▁olan": 2508,
      "▁havayolu": 2509,
      "▁basbakan": 2510,
      "▁oldugu": 2511,
      "▁baska": 2512,
      "▁zek": 2513,
      "▁yan": 2514,
      "▁ogl": 2515,
      "▁gitti": 2516,
      "▁uygun": 2517,
      "iyat": 2518,
      "▁oz": 2519,
      "▁dugun": 2520,
      "▁actı": 2521,
      "▁duv": 2522,
      "ayol": 2523,
      "▁birbir": 2524,
      "▁tem": 2525,
      "aliydi": 2526,
      "▁endek": 2527,
      "▁yard": 2528,
      "ver": 2529,
      "▁has": 2530,
      "▁havalim": 2531,
      "▁ilgisi": 2532,
      "▁felaket": 2533,
      "▁yık": 2534,
      "▁seker": 2535,
      "dur": 2536,
      "▁dek": 2537,
      "enler": 2538,
      "▁oakland": 2539,
      "▁personellerden": 2540,
      "▁cıkar": 2541,
      "▁beni": 2542,
      "ku": 2543,
      "dal": 2544,
      "ımızı": 2545,
      "arlar": 2546,
      "denin": 2547,
      "tıg": 2548,
      "a": 2549,
      "▁gur": 2550,
      "▁parasını": 2551,
      "▁personeller": 2552,
      "▁ekip": 2553,
      "▁sey": 2554,
      "▁denver'den": 2555,
      "▁gazete": 2556,
      "lay": 2557,
      "▁muam": 2558,
      "▁bildir": 2559,
      "▁abd": 2560,
      "▁faal": 2561,
      "arlan": 2562,
      "▁akr": 2563,
      "▁analist": 2564,
      "▁yıllık": 2565,
      "▁etk": 2566,
      "▁tesis": 2567,
      "▁sehrin": 2568,
      "▁oyle": 2569,
      "▁temin": 2570,
      "▁proj": 2571,
      "▁hakkı": 2572,
      "▁derecede": 2573,
      "▁annesi": 2574,
      "▁olmak": 2575,
      "▁korku": 2576,
      "▁cok": 2577,
      "▁sevk": 2578,
      "+": 2579,
      "atır": 2580,
      "▁dusuk": 2581,
      "▁bi": 2582,
      "tır": 2583,
      "unc": 2584,
      "▁turkiye": 2585,
      "▁portf": 2586,
      "▁taz": 2587,
      "▁meydan": 2588,
      "▁ekonomi": 2589,
      "ıcı": 2590,
      "▁idar": 2591,
      "▁kardes": 2592,
      "wa": 2593,
      "▁yıllar": 2594,
      "▁kumas": 2595,
      "▁lis": 2596,
      "▁tal": 2597,
      "▁boston": 2598,
      "▁atlanta'ya": 2599,
      "▁sipar": 2600,
      "masına": 2601,
      "▁vap": 2602,
      "▁kavg": 2603,
      "▁olarak": 2604,
      "▁nelerdir": 2605,
      "▁veya": 2606,
      "▁cam": 2607,
      "▁fabrik": 2608,
      "▁sec": 2609,
      "▁olmadi": 2610,
      "▁sonunda": 2611,
      "lerinde": 2612,
      "▁kası": 2613,
      "▁mes": 2614,
      "▁uye": 2615,
      "▁insana": 2616,
      "ıh": 2617,
      "▁anlam": 2618,
      "▁kalp": 2619,
      "▁yemeklerde": 2620,
      "undan": 2621,
      "▁5'ten": 2622,
      "▁gal": 2623,
      "ali": 2624,
      "phia": 2625,
      "▁sayıda": 2626,
      "▁bekle": 2627,
      "ate": 2628,
      "▁geliri": 2629,
      "▁degil": 2630,
      "▁han": 2631,
      "▁mat": 2632,
      "▁hayatın": 2633,
      "▁imz": 2634,
      "▁odaya": 2635,
      "▁uyum": 2636,
      "ij": 2637,
      "▁kart": 2638,
      "▁guv": 2639,
      "▁islem": 2640,
      "▁af": 2641,
      "▁edi": 2642,
      "aga": 2643,
      "tırmak": 2644,
      "▁gul": 2645,
      "tıgını": 2646,
      "▁organ": 2647,
      "▁telef": 2648,
      "▁lob": 2649,
      "0'da": 2650,
      "▁bono": 2651,
      "▁gonul": 2652,
      "ant": 2653,
      "▁kıymet": 2654,
      "▁kaldik": 2655,
      "▁sorunu": 2656,
      "dık": 2657,
      "adı": 2658,
      "▁geldi": 2659,
      "mam": 2660,
      "▁dıs": 2661,
      "▁ederim": 2662,
      "▁yapıyor": 2663,
      "▁ede": 2664,
      "▁num": 2665,
      "ildi": 2666,
      "ligi": 2667,
      "ot": 2668,
      "agı": 2669,
      "▁kultur": 2670,
      "▁uzman": 2671,
      "▁kahkah": 2672,
      "rne": 2673,
      "▁numar": 2674,
      "el": 2675,
      "▁gay": 2676,
      "▁rezervasyon": 2677,
      "manı": 2678,
      "▁yanında": 2679,
      "▁ez": 2680,
      "▁di": 2681,
      "isim": 2682,
      "▁kotuydu": 2683,
      "▁kararı": 2684,
      "ebil": 2685,
      "▁kes": 2686,
      "▁mo": 2687,
      "▁cesaret": 2688,
      "eyi": 2689,
      "▁had": 2690,
      "▁karayolu": 2691,
      "▁caba": 2692,
      "▁huzur": 2693,
      "aseb": 2694,
      "lıgını": 2695,
      "g": 2696,
      "▁basla": 2697,
      "▁dustu": 2698,
      "▁rapor": 2699,
      "lanı": 2700,
      "▁bur": 2701,
      "▁yana": 2702,
      "isle": 2703,
      "alarına": 2704,
      "▁kir": 2705,
      "▁annemin": 2706,
      "urt": 2707,
      "▁y": 2708,
      "▁dep": 2709,
      "▁halde": 2710,
      "▁s": 2711,
      "▁guven": 2712,
      "r": 2713,
      "umuz": 2714,
      "▁say": 2715,
      "▁pilot": 2716,
      "▁adet": 2717,
      "emli": 2718,
      "▁yetkili": 2719,
      "▁ofk": 2720,
      "edigini": 2721,
      "▁balık": 2722,
      "▁first": 2723,
      "fen": 2724,
      "▁oyku": 2725,
      "▁destek": 2726,
      "ari": 2727,
      "▁satın": 2728,
      "'na": 2729,
      "▁girisim": 2730,
      "▁top": 2731,
      "▁naz": 2732,
      "▁dolayi": 2733,
      "iyon": 2734,
      "liyor": 2735,
      "▁teor": 2736,
      "esti": 2737,
      "▁yaprak": 2738,
      "▁univers": 2739,
      "han": 2740,
      "etleri": 2741,
      "▁elinden": 2742,
      "elim": 2743,
      "▁karsı": 2744,
      "▁mecl": 2745,
      "▁roman": 2746,
      "▁ozgur": 2747,
      "cileri": 2748,
      "▁elektr": 2749,
      "ers": 2750,
      "unden": 2751,
      "▁basına": 2752,
      "▁malz": 2753,
      "▁acıl": 2754,
      "▁buy": 2755,
      "▁itibariyle": 2756,
      "medi": 2757,
      "▁kral": 2758,
      "▁sonu": 2759,
      "a'nın": 2760,
      "▁sef": 2761,
      "▁havayollarında": 2762,
      "▁konumu": 2763,
      "▁seviyesine": 2764,
      "▁giden": 2765,
      "▁yaptir": 2766,
      "▁tuketici": 2767,
      "▁sev": 2768,
      "gisi": 2769,
      "▁ozel": 2770,
      "layacak": 2771,
      "▁hizmetinden": 2772,
      "os": 2773,
      "iss": 2774,
      "inde": 2775,
      "▁personellerin": 2776,
      "▁as": 2777,
      "▁tan": 2778,
      "▁ogleden": 2779,
      "▁simdiye": 2780,
      "▁icra": 2781,
      "menin": 2782,
      "▁hastan": 2783,
      "eceg": 2784,
      "▁zev": 2785,
      "oloj": 2786,
      "▁sı": 2787,
      "mektedir": 2788,
      "▁par": 2789,
      "lıgı": 2790,
      "▁def": 2791,
      "▁yagmur": 2792,
      "▁temel": 2793,
      "▁teh": 2794,
      "▁lu": 2795,
      "▁yat": 2796,
      "ebilir": 2797,
      "▁degisiklikler": 2798,
      "st": 2799,
      "▁yalan": 2800,
      "▁savunma": 2801,
      "ekler": 2802,
      "▁dav": 2803,
      "eticisi": 2804,
      "isyon": 2805,
      "luk": 2806,
      "▁yur": 2807,
      "▁kalkan": 2808,
      "likle": 2809,
      "lıg": 2810,
      "▁sig": 2811,
      "▁kontrol": 2812,
      "mes": 2813,
      "tak": 2814,
      "lerimi": 2815,
      "▁yetkilileri": 2816,
      "▁idare": 2817,
      "▁karsılık": 2818,
      "▁bircok": 2819,
      "▁dov": 2820,
      "t": 2821,
      "ımı": 2822,
      "▁dig": 2823,
      "▁zorunda": 2824,
      "ibi": 2825,
      "▁ikinci": 2826,
      "onun": 2827,
      "▁gibi": 2828,
      "▁bugune": 2829,
      "▁hissesi": 2830,
      "▁ener": 2831,
      "▁pittsburgh": 2832,
      "▁hedef": 2833,
      "▁vapur": 2834,
      "imdi": 2835,
      "▁hesap": 2836,
      "▁peyn": 2837,
      "▁firma": 2838,
      "▁bl": 2839,
      "lıkta": 2840,
      "isiyle": 2841,
      "▁sos": 2842,
      "▁baba": 2843,
      "▁ulas": 2844,
      "▁sehir": 2845,
      "ork": 2846,
      "liye": 2847,
      "▁hacim": 2848,
      "▁icinde": 2849,
      "▁kapı": 2850,
      "▁toprak": 2851,
      "adel": 2852,
      "iski": 2853,
      "▁sıkınt": 2854,
      "▁ben": 2855,
      "▁bal": 2856,
      "luluk": 2857,
      "▁ayak": 2858,
      "▁sarkı": 2859,
      "▁sorumluluk": 2860,
      "ısının": 2861,
      "▁degis": 2862,
      "▁harc": 2863,
      "▁tarih": 2864,
      "▁uzer": 2865,
      "▁aktarmasız": 2866,
      "▁musteri": 2867,
      "evi": 2868,
      "▁dik": 2869,
      "▁hastalık": 2870,
      "▁sen": 2871,
      "ıgı": 2872,
      "▁bulmak": 2873,
      "lere": 2874,
      "▁oglan": 2875,
      "▁hastal": 2876,
      "▁gob": 2877,
      "▁civarı": 2878,
      "abet": 2879,
      "eyh": 2880,
      "lı": 2881,
      "▁akt": 2882,
      "▁darb": 2883,
      "▁amc": 2884,
      "umda": 2885,
      "▁ucuz": 2886,
      "▁g": 2887,
      "ne": 2888,
      "'ten": 2889,
      "ing": 2890,
      "▁dakik": 2891,
      "▁basbak": 2892,
      "▁po": 2893,
      "▁planı": 2894,
      "▁dug": 2895,
      "▁beyaz": 2896,
      "uslar": 2897,
      "▁acısından": 2898,
      "▁para": 2899,
      "▁yıllarda": 2900,
      "▁10'dan": 2901,
      "sam": 2902,
      "▁islemler": 2903,
      "▁mu": 2904,
      "▁attı": 2905,
      "▁eylul": 2906,
      "▁onc": 2907,
      "▁bic": 2908,
      "▁begen": 2909,
      "▁onun": 2910,
      "il": 2911,
      "▁asagı": 2912,
      "▁yen": 2913,
      "▁tavır": 2914,
      "▁pittsburgh'tan": 2915,
      "▁yurt": 2916,
      "▁odalar": 2917,
      "▁kos": 2918,
      "▁yonetim": 2919,
      "▁zar": 2920,
      "uyor": 2921,
      "ac": 2922,
      "emi": 2923,
      "▁tutun": 2924,
      "▁dom": 2925,
      "uluyor": 2926,
      "▁hab": 2927,
      "▁amerikan": 2928,
      "ana": 2929,
      "▁ucmak": 2930,
      "indan": 2931,
      "ca": 2932,
      "▁of": 2933,
      "▁rak": 2934,
      "▁ellerini": 2935,
      "▁fazla": 2936,
      "esinin": 2937,
      "bir": 2938,
      "ates": 2939,
      "▁ceyr": 2940,
      "ge": 2941,
      "aat": 2942,
      "▁orta": 2943,
      "akat": 2944,
      "▁calıs": 2945,
      "▁ucusa": 2946,
      "ıf": 2947,
      "yas": 2948,
      "▁havayolları": 2949,
      "▁diyor": 2950,
      "▁yeme": 2951,
      "liydi": 2952,
      "▁veril": 2953,
      "amaya": 2954,
      "lek": 2955,
      "ıga": 2956,
      "▁degeri": 2957,
      "8'de": 2958,
      "asıyla": 2959,
      "▁turk": 2960,
      "iri": 2961,
      "▁yapım": 2962,
      "and": 2963,
      "▁seyden": 2964,
      "imizi": 2965,
      "maları": 2966,
      "▁send": 2967,
      "▁sacları": 2968,
      "▁$'dan": 2969,
      "▁degerlendir": 2970,
      "▁eski": 2971,
      "▁kı": 2972,
      "▁artır": 2973,
      "▁ilgi": 2974,
      "▁evden": 2975,
      "`": 2976,
      "▁deneme": 2977,
      "da": 2978,
      "▁bırak": 2979,
      "▁gom": 2980,
      "lac": 2981,
      "▁getir": 2982,
      "▁ici": 2983,
      "▁komp": 2984,
      "▁insan": 2985,
      "▁ucuslarını": 2986,
      "▁evet": 2987,
      "▁sip": 2988,
      "urdu": 2989,
      "▁og": 2990,
      "▁yuzme": 2991,
      "▁aylık": 2992,
      "▁tr": 2993,
      "umun": 2994,
      "elen": 2995,
      "▁piy": 2996,
      "▁ec": 2997,
      "▁rahat": 2998,
      "artesi": 2999,
      "▁mem": 3000,
      "ızın": 3001,
      "▁arada": 3002,
      "ımdan": 3003,
      "gal": 3004,
      "▁bugun": 3005,
      "unde": 3006,
      "▁yerinden": 3007,
      "▁oran": 3008,
      "▁var": 3009,
      "▁toplum": 3010,
      "cıları": 3011,
      "ınc": 3012,
      "▁sov": 3013,
      "▁alt": 3014,
      "ikat": 3015,
      "▁19": 3016,
      "ttı": 3017,
      "▁kah": 3018,
      "▁bası": 3019,
      "inti": 3020,
      "▁degisiklik": 3021,
      "▁goze": 3022,
      "▁av": 3023,
      "▁ulasım": 3024,
      "▁gercek": 3025,
      "lu": 3026,
      "ları": 3027,
      "lık": 3028,
      "▁karar": 3029,
      "▁ib": 3030,
      "mıstır": 3031,
      "▁ge": 3032,
      "uluk": 3033,
      "ınt": 3034,
      "▁nedenlerden": 3035,
      "▁cap": 3036,
      "od": 3037,
      "▁med": 3038,
      "▁zarar": 3039,
      "▁haberi": 3040,
      "▁res": 3041,
      "ara": 3042,
      "lamaya": 3043,
      "▁fotograf": 3044,
      "▁guc": 3045,
      "▁adı": 3046,
      "▁istih": 3047,
      "▁gitmek": 3048,
      "▁sid": 3049,
      "▁altında": 3050,
      "00'": 3051,
      "ıstır": 3052,
      "atı": 3053,
      "▁ruz": 3054,
      "▁yatırımcıların": 3055,
      "▁dolarlık": 3056,
      "▁ucusu": 3057,
      "▁bay": 3058,
      "ete": 3059,
      "mini": 3060,
      "meye": 3061,
      "d": 3062,
      "▁isletme": 3063,
      "▁pencer": 3064,
      "men": 3065,
      "▁sovyet": 3066,
      "▁garanti": 3067,
      "▁gos": 3068,
      "▁kr": 3069,
      "▁sor": 3070,
      "▁esim": 3071,
      "ime": 3072,
      "▁sab": 3073,
      "ahat": 3074,
      "▁inter": 3075,
      "▁(": 3076,
      "ize": 3077,
      "fer": 3078,
      "▁olum": 3079,
      "arda": 3080,
      "▁rol": 3081,
      "eleri": 3082,
      "adem": 3083,
      "▁la": 3084,
      "yor": 3085,
      "malar": 3086,
      "▁biz": 3087,
      "oc": 3088,
      "aması": 3089,
      "▁masanın": 3090,
      "▁boy": 3091,
      "ir": 3092,
      "▁ilgilendi": 3093,
      "▁ulasımı": 3094,
      "▁edeb": 3095,
      "▁boyun": 3096,
      "▁olmadıgını": 3097,
      "▁agustos": 3098,
      "▁pol": 3099,
      "▁sac": 3100,
      "aca": 3101,
      "'tan": 3102,
      "▁birlik": 3103,
      "▁kend": 3104,
      "onra": 3105,
      "▁acık": 3106,
      "izm": 3107,
      "▁kara": 3108,
      "p": 3109,
      "lisi": 3110,
      "▁kaldır": 3111,
      "▁u": 3112,
      "▁aralık": 3113,
      "ıkları": 3114,
      "▁kadınlar": 3115,
      "larından": 3116,
      "▁kus": 3117,
      "aklı": 3118,
      "▁soru": 3119,
      "▁donemde": 3120,
      "▁ucaga": 3121,
      "izi": 3122,
      "larında": 3123,
      "▁yet": 3124,
      "▁an": 3125,
      "▁derec": 3126,
      "arında": 3127,
      "lug": 3128,
      "▁dallas'a": 3129,
      "▁sent": 3130,
      "▁gorusuldu": 3131,
      "'nda": 3132,
      "▁karak": 3133,
      "ımın": 3134,
      "▁misafir": 3135,
      "ern": 3136,
      "ersiz": 3137,
      "lanmıs": 3138,
      "▁mesaf": 3139,
      "edav": 3140,
      "▁muhend": 3141,
      "diginde": 3142,
      "▁doldur": 3143,
      "aları": 3144,
      "▁koc": 3145,
      "▁ortalama": 3146,
      "▁kurum": 3147,
      "▁mahkemesi": 3148,
      "▁lutfen": 3149,
      "▁olabilir": 3150,
      "▁yayın": 3151,
      "arı": 3152,
      "▁fran": 3153,
      "▁cab": 3154,
      "aket": 3155,
      "-": 3156,
      "▁2": 3157,
      "▁1.": 3158,
      "▁goz": 3159,
      "▁tasar": 3160,
      "▁risk": 3161,
      "ler": 3162,
      "▁--": 3163,
      "▁iy": 3164,
      "▁tesisti": 3165,
      "00": 3166,
      "▁gru": 3167,
      "▁ihtiy": 3168,
      "ıyı": 3169,
      "▁egitim": 3170,
      "▁pr": 3171,
      "imde": 3172,
      "▁vet": 3173,
      "▁hasar": 3174,
      "▁belki": 3175,
      "▁tesvik": 3176,
      "▁tavsiye": 3177,
      "▁ziyaret": 3178,
      "▁sayısı": 3179,
      "▁personellerinden": 3180,
      "▁once": 3181,
      "'ye": 3182,
      "▁anne": 3183,
      "▁teklif": 3184,
      "▁ceb": 3185,
      "bilir": 3186,
      "lig": 3187,
      "emiz": 3188,
      "▁haftada": 3189,
      "ian": 3190,
      "cun": 3191,
      "▁anlat": 3192,
      "alarının": 3193,
      "sak": 3194,
      "▁phil": 3195,
      "▁problem": 3196,
      "▁rap": 3197,
      "land": 3198,
      "▁oranı": 3199,
      "ind": 3200,
      "▁sofr": 3201,
      "▁hak": 3202,
      "izlik": 3203,
      "▁mar": 3204,
      "▁ele": 3205,
      "▁benz": 3206,
      "▁akl": 3207,
      "▁fikr": 3208,
      "▁ve": 3209,
      "▁hafta": 3210,
      "▁ode": 3211,
      "ım": 3212,
      "'a": 3213,
      "▁ba": 3214,
      "▁bankası": 3215,
      "qu": 3216,
      "▁anlattı": 3217,
      "▁degildi": 3218,
      "ini": 3219,
      "▁yaptı": 3220,
      "▁evine": 3221,
      "meler": 3222,
      "▁basından": 3223,
      "▁hayatı": 3224,
      "ram": 3225,
      "uyu": 3226,
      "mus": 3227,
      "al": 3228,
      "cak": 3229,
      "▁kal": 3230,
      "isini": 3231,
      "▁hac": 3232,
      "▁merkez": 3233,
      "▁bor": 3234,
      "▁ihrac": 3235,
      "▁buz": 3236,
      "5'ten": 3237,
      "id": 3238,
      "▁:": 3239,
      "▁dallas": 3240,
      "eder": 3241,
      "▁davran": 3242,
      "▁part": 3243,
      "▁sıkıntı": 3244,
      "kt": 3245,
      "emedi": 3246,
      "▁yo": 3247,
      "▁ak": 3248,
      "▁alay": 3249,
      "▁deney": 3250,
      "amaları": 3251,
      "cilerin": 3252,
      "cev": 3253,
      "▁dak": 3254,
      "▁mis": 3255,
      "elere": 3256,
      "▁listel": 3257,
      "▁uyk": 3258,
      "▁temizlik": 3259,
      "lıgın": 3260,
      "▁cumartesi": 3261,
      "ite": 3262,
      "▁otelde": 3263,
      "_": 3264,
      "mi": 3265,
      "▁ureticisi": 3266,
      "▁ticaret": 3267,
      "▁oyunun": 3268,
      "000": 3269,
      "▁seyi": 3270,
      "madı": 3271,
      "▁kalk": 3272,
      "▁kasıgı": 3273,
      "▁den": 3274,
      "▁denver": 3275,
      "▁ekl": 3276,
      "▁m": 3277,
      "▁cif": 3278,
      "madan": 3279,
      "amet": 3280,
      "▁ucuslarının": 3281,
      "▁oyunu": 3282,
      "ileri": 3283,
      "▁kapıyı": 3284,
      "imi": 3285,
      "▁etmeye": 3286,
      "stır": 3287,
      "ası": 3288,
      "▁gozu": 3289,
      "▁muzik": 3290,
      "▁basta": 3291,
      "ydı": 3292,
      "/": 3293,
      "▁elbise": 3294,
      "▁prens": 3295,
      "▁umut": 3296,
      "2": 3297,
      "▁milyondan": 3298,
      "▁sirketler": 3299,
      "▁bek": 3300,
      "▁kat": 3301,
      "▁yatak": 3302,
      "inlik": 3303,
      "du": 3304,
      "▁&": 3305,
      "asır": 3306,
      "▁gem": 3307,
      "▁ana": 3308,
      "larım": 3309,
      "▁ustune": 3310,
      "kat": 3311,
      "bol": 3312,
      "▁kamyon": 3313,
      "▁konuda": 3314,
      "▁kosul": 3315,
      "irler": 3316,
      "▁menkul": 3317,
      "▁dagıt": 3318,
      "▁washington": 3319,
      "▁v": 3320,
      "alı": 3321,
      "▁mevcut": 3322,
      "meden": 3323,
      "▁potansiy": 3324,
      "▁at": 3325,
      "ilmesi": 3326,
      "▁saglık": 3327,
      "▁bank": 3328,
      "lıktan": 3329,
      "▁sabah": 3330,
      "dik": 3331,
      "▁kaldim": 3332,
      "▁zamanlarda": 3333,
      "erik": 3334,
      "▁reh": 3335,
      "dum": 3336,
      "▁test": 3337,
      "▁ilg": 3338,
      "istel": 3339,
      "ardı": 3340,
      "gini": 3341,
      "▁zir": 3342,
      "▁sayf": 3343,
      "▁ters": 3344,
      "meyi": 3345,
      "▁sair": 3346,
      "indi": 3347,
      "▁...\"": 3348,
      "▁arz": 3349,
      "▁ayda": 3350,
      "inda": 3351,
      "ı": 3352,
      "▁dogru": 3353,
      "atlı": 3354,
      "▁bak": 3355,
      "anları": 3356,
      "▁oldu": 3357,
      "▁oyuncu": 3358,
      "▁profes": 3359,
      "ken": 3360,
      "▁katil": 3361,
      "▁yola": 3362,
      "ili": 3363,
      "▁yil": 3364,
      "▁yon": 3365,
      "▁gayet": 3366,
      "▁din": 3367,
      "om": 3368,
      "▁mı": 3369,
      "mesi": 3370,
      "▁dolar": 3371,
      "▁incel": 3372,
      "▁ilav": 3373,
      "▁anlamına": 3374,
      "▁dor": 3375,
      "lige": 3376,
      "▁bazi": 3377,
      "▁kas": 3378,
      "▁otele": 3379,
      "▁banyo": 3380,
      "kil": 3381,
      "▁seyahat": 3382,
      "▁malzem": 3383,
      "▁hakkında": 3384,
      "tı": 3385,
      "▁cor": 3386,
      "▁savas": 3387,
      "makt": 3388,
      "▁tiyatro": 3389,
      "▁oyun": 3390,
      "▁sigort": 3391,
      "▁yolunu": 3392,
      "▁oranında": 3393,
      "kk": 3394,
      "inden": 3395,
      "▁istif": 3396,
      "anda": 3397,
      "▁gunah": 3398,
      "▁kalit": 3399,
      "iyor": 3400,
      "▁taleb": 3401,
      "▁makine": 3402,
      "▁meyve": 3403,
      "▁mey": 3404,
      "▁onceki": 3405,
      "▁mail": 3406,
      "istir": 3407,
      "▁yerini": 3408,
      "▁kıv": 3409,
      "muz": 3410,
      "uyla": 3411,
      "▁boyut": 3412,
      "▁``": 3413,
      "▁itibar": 3414,
      "▁raf": 3415,
      "▁limon": 3416,
      "?": 3417,
      "▁icme": 3418,
      "gu": 3419,
      "▁bors": 3420,
      "▁tasarruf": 3421,
      "urk": 3422,
      "ledi": 3423,
      "▁haric": 3424,
      "im": 3425,
      "▁.": 3426,
      "amaz": 3427,
      "go": 3428,
      "▁er": 3429,
      "▁kotu": 3430,
      "▁vadeli": 3431,
      "ılık": 3432,
      "gun": 3433,
      "▁istiyorum": 3434,
      "▁anlasma": 3435,
      "▁yar": 3436,
      "▁fon": 3437,
      "▁almak": 3438,
      "▁fik": 3439,
      "▁mer": 3440,
      "▁sabahı": 3441,
      "▁hemen": 3442,
      "▁mun": 3443,
      "mak": 3444,
      ":": 3445,
      "erh": 3446,
      "▁bas": 3447,
      "esine": 3448,
      "▁yaban": 3449,
      "▁yarat": 3450,
      "▁mide": 3451,
      "▁satıs": 3452,
      "▁fak": 3453,
      "▁gucu": 3454,
      "4": 3455,
      "lardan": 3456,
      "▁seyler": 3457,
      "▁sigara": 3458,
      "iklik": 3459,
      "&": 3460,
      "▁itir": 3461,
      "$": 3462,
      "k": 3463,
      "▁sınav": 3464,
      "▁yolu": 3465,
      "attı": 3466,
      "▁8'den": 3467,
      "▁ne": 3468,
      "▁dir": 3469,
      "▁ot": 3470,
      "▁ihtiyacım": 3471,
      "▁simdi": 3472,
      "▁hit": 3473,
      "cılık": 3474,
      "ip": 3475,
      "ht": 3476,
      "▁katılım": 3477,
      "▁sonuna": 3478,
      "lav": 3479,
      "0": 3480,
      "ıda": 3481,
      "▁$'a": 3482,
      "usuna": 3483,
      "ci": 3484,
      "▁yanına": 3485,
      "▁im": 3486,
      "▁ayı": 3487,
      "▁muduru": 3488,
      "leyi": 3489,
      "unun": 3490,
      "▁balt": 3491,
      "▁beydi": 3492,
      "▁clas": 3493,
      "▁tren": 3494,
      "▁dost": 3495,
      "lanıyor": 3496,
      "▁istihdam": 3497,
      "▁odun": 3498,
      "▁yum": 3499,
      "▁paket": 3500,
      "▁org": 3501,
      "▁ucret": 3502,
      "ediyor": 3503,
      "▁rengi": 3504,
      "▁olmaya": 3505,
      "▁buyuk": 3506,
      "▁erken": 3507,
      "asıl": 3508,
      "▁bunu": 3509,
      "he": 3510,
      "▁.)": 3511,
      "iv": 3512,
      "▁satısları": 3513,
      "▁elinde": 3514,
      "▁renk": 3515,
      "acılar": 3516,
      "▁ger": 3517,
      "▁ates": 3518,
      "ıldı": 3519,
      "▁kem": 3520,
      "amı": 3521,
      "▁servisi": 3522,
      "lerine": 3523,
      "▁tic": 3524,
      "leri": 3525,
      "ici": 3526,
      "▁vucud": 3527,
      "▁saf": 3528,
      "▁dey": 3529,
      "▁ik": 3530,
      "▁ajans": 3531,
      "▁yog": 3532,
      "ey": 3533,
      "aset": 3534,
      "ere": 3535,
      "▁sozlesme": 3536,
      "▁aktivite": 3537,
      "▁kızı": 3538,
      "▁pitts": 3539,
      "▁coz": 3540,
      "▁butce": 3541,
      "▁ceza": 3542,
      "▁ucusları": 3543,
      "lum": 3544,
      "▁yazı": 3545,
      "▁neler": 3546,
      "uktu": 3547,
      "mıyor": 3548,
      "▁merdiv": 3549,
      "▁ekibi": 3550,
      "leriyle": 3551,
      "▁rehber": 3552,
      "▁bis": 3553,
      "ciler": 3554,
      "▁lok": 3555,
      "▁konu": 3556,
      "▁nakit": 3557,
      "cek": 3558,
      "▁cocukları": 3559,
      "yo": 3560,
      "ince": 3561,
      "dig": 3562,
      "▁dedi": 3563,
      "▁tekl": 3564,
      "▁fir": 3565,
      "▁yoktu": 3566,
      "▁nok": 3567,
      "▁kendi": 3568,
      "▁yal": 3569,
      "▁hoca": 3570,
      "▁kokusu": 3571,
      "leket": 3572,
      "▁bag": 3573,
      "elik": 3574,
      "▁merkezine": 3575,
      "▁anlama": 3576,
      "▁ihr": 3577,
      "▁ordu": 3578,
      "▁gir": 3579,
      "masından": 3580,
      "▁toh": 3581,
      "▁dem": 3582,
      "uc": 3583,
      "mıs": 3584,
      "te": 3585,
      "▁tesisten": 3586,
      "erler": 3587,
      "'ndan": 3588,
      "ıklar": 3589,
      "▁unu": 3590,
      "▁rehberimiz": 3591,
      "▁olc": 3592,
      "▁nef": 3593,
      "▁konumunu": 3594,
      "▁anim": 3595,
      "▁dunyaya": 3596,
      "▁teb": 3597,
      "irdi": 3598,
      "▁kahvalti": 3599,
      "▁kapsam": 3600,
      "igi": 3601,
      "egin": 3602,
      "kah": 3603,
      "▁ucus": 3604,
      "urg": 3605,
      "▁ad": 3606,
      "sen": 3607,
      "▁rezerv": 3608,
      "▁dukk": 3609,
      "tıl": 3610,
      "▁yeri": 3611,
      "▁odadan": 3612,
      "▁sekl": 3613,
      "pr": 3614,
      "form": 3615,
      "lamak": 3616,
      "▁soyley": 3617,
      "▁ya": 3618,
      "▁tarif": 3619,
      "yet": 3620,
      "▁bebek": 3621,
      "▁cop": 3622,
      "▁alama": 3623,
      "▁gen": 3624,
      "▁ces": 3625,
      "dı": 3626,
      "▁kurul": 3627,
      "▁birim": 3628,
      "amız": 3629,
      "▁manz": 3630,
      "ik": 3631,
      "det": 3632,
      "▁ulke": 3633,
      "▁herhangi": 3634,
      "▁icki": 3635,
      "▁kafa": 3636,
      "▁meslek": 3637,
      "ev": 3638,
      "▁etti": 3639,
      "umuzde": 3640,
      "▁sistem": 3641,
      "▁imk": 3642,
      "▁madde": 3643,
      "▁alın": 3644,
      "eger": 3645,
      "▁bab": 3646,
      "▁hanimla": 3647,
      "▁baz": 3648,
      "ede": 3649,
      "uv": 3650,
      "▁konus": 3651,
      "etic": 3652,
      "isinin": 3653,
      "▁asagıda": 3654,
      "elerde": 3655,
      "es": 3656,
      "isi": 3657,
      "aret": 3658,
      "▁calis": 3659,
      "taj": 3660,
      "ktu": 3661,
      "▁dusunc": 3662,
      "▁duyg": 3663,
      "▁bileti": 3664,
      "▁\"": 3665,
      "▁ker": 3666,
      "ıgına": 3667,
      "▁yeter": 3668,
      "is": 3669,
      "▁kahvalt": 3670,
      "gıt": 3671,
      "▁yuz": 3672,
      "▁gol": 3673,
      "▁aj": 3674,
      "ib": 3675,
      "▁bil": 3676,
      "ısında": 3677,
      "0'": 3678,
      "▁nedenle": 3679,
      "in": 3680,
      "▁philadelphia": 3681,
      "onu": 3682,
      "afet": 3683,
      "▁seb": 3684,
      "esinde": 3685,
      "dım": 3686,
      "maktadır": 3687,
      "eri": 3688,
      "▁artık": 3689,
      "▁karsısında": 3690,
      "as": 3691,
      "▁sur": 3692,
      "\\": 3693,
      "=": 3694,
      "▁gozlerini": 3695,
      "▁fr": 3696,
      "▁istifa": 3697,
      "luga": 3698,
      "▁cins": 3699,
      "▁birligi": 3700,
      "▁amerik": 3701,
      "▁ins": 3702,
      "lastır": 3703,
      "▁fil": 3704,
      "▁cak": 3705,
      "h": 3706,
      "▁mutf": 3707,
      "▁muhal": 3708,
      "▁mez": 3709,
      "evizyon": 3710,
      "aki": 3711,
      "▁dayan": 3712,
      "bu": 3713,
      "▁halka": 3714,
      "▁gorun": 3715,
      "uyle": 3716,
      "▁emeklilik": 3717,
      "lıkla": 3718,
      "▁sans": 3719,
      "▁beb": 3720,
      "at": 3721,
      "▁kisinin": 3722,
      "elerden": 3723,
      "▁kap": 3724,
      "lugun": 3725,
      "▁ted": 3726,
      "alle": 3727,
      "▁bilgis": 3728,
      "imize": 3729,
      "▁ust": 3730,
      "▁ıs": 3731,
      "asını": 3732,
      "▁form": 3733,
      "▁zam": 3734,
      "▁aile": 3735,
      "tig": 3736,
      "erk": 3737,
      "▁dedim": 3738,
      "▁endust": 3739,
      "▁ey": 3740,
      "▁kısm": 3741,
      "er": 3742,
      "ır": 3743,
      "geleri": 3744,
      "▁misaf": 3745,
      "▁manzar": 3746,
      "ta": 3747,
      "▁birtak": 3748,
      "3": 3749,
      "gın": 3750,
      "adar": 3751,
      "▁lezzeti": 3752,
      "▁kosulları": 3753,
      "cu": 3754,
      "▁cic": 3755,
      "▁kampanyalardan": 3756,
      "▁heyec": 3757,
      "hane": 3758,
      "den": 3759,
      "adıgını": 3760,
      "▁iceri": 3761,
      "▁arac": 3762,
      "izdi": 3763,
      "▁dans": 3764,
      "▁etmis": 3765,
      "▁re": 3766,
      "elir": 3767,
      "erek": 3768,
      "▁gunlerde": 3769,
      "erans": 3770,
      "▁sonbah": 3771,
      "oksa": 3772,
      "▁cekti": 3773,
      "▁lim": 3774,
      "▁tahviller": 3775,
      "▁yolda": 3776,
      "▁neden": 3777,
      "▁gunleri": 3778,
      "▁cum": 3779,
      "▁cir": 3780,
      "▁olanlar": 3781,
      "▁kac": 3782,
      "▁huk": 3783,
      "▁kulub": 3784,
      "siye": 3785,
      "▁hatır": 3786,
      "uyorum": 3787,
      "▁tercih": 3788,
      "▁miktar": 3789,
      "▁arkasından": 3790,
      "▁elde": 3791,
      "▁ogrenmek": 3792,
      "▁guvenlik": 3793,
      "eli": 3794,
      "▁bahce": 3795,
      "▁mek": 3796,
      "▁bize": 3797,
      "▁cesit": 3798,
      "▁havuzu": 3799,
      "▁otel": 3800,
      "▁pas": 3801,
      "gre": 3802,
      "▁takip": 3803,
      "▁bunun": 3804,
      "▁ayrı": 3805,
      "▁bede": 3806,
      "mma": 3807,
      "y": 3808,
      "irim": 3809,
      "▁masal": 3810,
      "▁havaalanından": 3811,
      "lerden": 3812,
      "▁nak": 3813,
      "▁dah": 3814,
      "ulmus": 3815,
      "▁kadar": 3816,
      "rar": 3817,
      "▁cen": 3818,
      "▁ah": 3819,
      "▁zaf": 3820,
      "tıktan": 3821,
      "▁analistler": 3822,
      "dar": 3823,
      "▁merh": 3824,
      "ıyor": 3825,
      "▁mikr": 3826,
      "▁polis": 3827,
      "▁basını": 3828,
      "▁tesv": 3829,
      "'y": 3830,
      "▁halk": 3831,
      "▁iyiydi": 3832,
      "…": 3833,
      "▁ucretlerini": 3834,
      "▁tedbir": 3835,
      "▁uygulama": 3836,
      "eyaz": 3837,
      "tar": 3838,
      "..": 3839,
      "▁mulk": 3840,
      "kon": 3841,
      "art": 3842,
      "▁alamadim": 3843,
      "▁ucuslar": 3844,
      "▁j": 3845,
      "▁ilac": 3846,
      "▁denver'e": 3847,
      "ts": 3848,
      "▁gore": 3849,
      "▁dolardan": 3850,
      "▁edecek": 3851,
      "▁evi": 3852,
      "▁gozleri": 3853,
      "hi": 3854,
      "▁uzerine": 3855,
      "▁havayol": 3856,
      "▁kut": 3857,
      "ez": 3858,
      "▁izin": 3859,
      "▁okum": 3860,
      "▁aqu": 3861,
      "▁oak": 3862,
      "▁ide": 3863,
      "▁zorluk": 3864,
      "tıs": 3865,
      "▁ch": 3866,
      "▁vad": 3867,
      "une": 3868,
      "ok": 3869,
      "▁mark": 3870,
      "▁saati": 3871,
      "▁bizim": 3872,
      "0'dan": 3873,
      "▁fas": 3874,
      "▁istemiyorum": 3875,
      "▁program": 3876,
      "▁um": 3877,
      "▁hisseleri": 3878,
      "isine": 3879,
      "▁hangi": 3880,
      "net": 3881,
      "▁olac": 3882,
      "▁duygu": 3883,
      "▁oldug": 3884,
      "▁baktı": 3885,
      "ile": 3886,
      "▁bazı": 3887,
      "▁he": 3888,
      "▁egit": 3889,
      "▁oglum": 3890,
      "▁kanun": 3891,
      "▁burokr": 3892,
      "vr": 3893,
      "erleri": 3894,
      "▁paranın": 3895,
      "▁haz": 3896,
      "▁beklenti": 3897,
      "▁tavuk": 3898,
      "▁parti": 3899,
      "▁kalb": 3900,
      "lıkları": 3901,
      "▁dalg": 3902,
      "▁onu": 3903,
      "dam": 3904,
      "▁bug": 3905,
      "▁tam": 3906,
      "▁bilgisay": 3907,
      "▁radyo": 3908,
      "▁arasında": 3909,
      "▁televizyon": 3910,
      "▁alanda": 3911,
      "▁kimse": 3912,
      "▁yav": 3913,
      "▁vaz": 3914,
      "▁babası": 3915,
      "▁basladı": 3916,
      "▁day": 3917,
      "enc": 3918,
      "▁ediyor": 3919,
      "▁anal": 3920,
      "▁gey": 3921,
      "▁uygul": 3922,
      "enk": 3923,
      "▁cercev": 3924,
      "▁karn": 3925,
      "[UNK]": 3926,
      "▁francisco": 3927,
      "▁goc": 3928,
      "yi": 3929,
      "▁sonucları": 3930,
      "▁dusur": 3931,
      "of": 3932,
      "▁henuz": 3933,
      "▁itiraz": 3934,
      "ecegine": 3935,
      "▁tarz": 3936,
      "▁isin": 3937,
      "▁halinde": 3938,
      "▁mesaj": 3939,
      "▁karsi": 3940,
      "ume": 3941,
      "▁emir": 3942,
      "ilendir": 3943,
      "▁mus": 3944,
      "▁rej": 3945,
      "▁doları'na": 3946,
      "▁prot": 3947,
      "▁teslim": 3948,
      "▁hizmete": 3949,
      "▁ilgili": 3950,
      "▁ay": 3951,
      "mem": 3952,
      "gunluk": 3953,
      "cilik": 3954,
      "ayacagını": 3955,
      "acagını": 3956,
      "▁ithal": 3957,
      "▁meger": 3958,
      "▁ic": 3959,
      "▁kabul": 3960,
      "▁anlay": 3961,
      "▁gosteri": 3962,
      "▁duz": 3963,
      "do": 3964,
      "▁ask": 3965,
      "▁bilmek": 3966,
      "▁rezervasyonu": 3967,
      "▁hasta": 3968,
      "▁varan": 3969,
      "▁artısı": 3970,
      "▁giy": 3971,
      "lerle": 3972,
      "▁avuc": 3973,
      "▁katilmak": 3974,
      "▁cev": 3975,
      "▁parmak": 3976,
      "▁kel": 3977,
      "▁eve": 3978,
      "!": 3979,
      "lari": 3980,
      "▁gel": 3981,
      "▁cil": 3982,
      "▁direktor": 3983,
      "▁sak": 3984,
      "▁hali": 3985,
      "▁op": 3986,
      "udur": 3987,
      "▁cunku": 3988,
      "▁piyas": 3989,
      "▁erk": 3990,
      "▁oluyor": 3991,
      "▁kayıt": 3992,
      "▁yor": 3993,
      "▁yuksel": 3994,
      "iye": 3995,
      "▁ogr": 3996,
      "ar": 3997,
      "iyle": 3998,
      "▁tay": 3999,
      "▁ko": 4000,
      "▁haf": 4001,
      "▁dergi": 4002,
      "az": 4003,
      "anın": 4004,
      "▁yiyecekler": 4005,
      "▁=": 4006,
      "▁vermek": 4007,
      "▁gosterin": 4008,
      "▁duman": 4009,
      "▁burn": 4010,
      "▁yuv": 4011,
      "▁serv": 4012,
      "bi": 4013,
      "▁en": 4014,
      "▁hukumet": 4015,
      "▁sozleri": 4016,
      "▁adamın": 4017,
      "▁kan": 4018,
      "▁olmasi": 4019,
      "▁paraya": 4020,
      "▁le": 4021,
      "▁araya": 4022,
      "▁tiyatr": 4023,
      "gah": 4024,
      "sun": 4025,
      "▁prof": 4026,
      "▁ilgil": 4027,
      "▁haval": 4028,
      "▁milyar": 4029,
      "▁dudak": 4030,
      "edigim": 4031,
      "anı": 4032,
      "▁garson": 4033,
      "▁bıcak": 4034,
      "▁baslan": 4035,
      "▁rakamlar": 4036,
      "▁son": 4037,
      "▁adamı": 4038,
      "▁secim": 4039,
      "embe": 4040,
      "▁seviy": 4041,
      "▁bilgi": 4042,
      "▁cocuk": 4043,
      "▁yuksek": 4044,
      "▁kayn": 4045,
      "▁guz": 4046,
      "▁vardır": 4047,
      "▁tahvil": 4048,
      "▁atlan": 4049,
      "▁engel": 4050,
      "una": 4051,
      "▁wash": 4052,
      "▁kapas": 4053,
      "▁iste": 4054,
      "▁bır": 4055,
      "▁ok": 4056,
      "maktan": 4057,
      "liginden": 4058,
      "▁tesisi": 4059,
      "▁yonetimi": 4060,
      "lat": 4061,
      "eki": 4062,
      "▁acent": 4063,
      "▁enf": 4064,
      "yuzlu": 4065,
      "▁k": 4066,
      "ege": 4067,
      "▁fiyatları": 4068,
      "▁uc": 4069,
      "les": 4070,
      "▁tucc": 4071,
      "▁bes": 4072,
      "▁sa": 4073,
      "em": 4074,
      "ash": 4075,
      "yla": 4076,
      "'de": 4077,
      "▁sigorta": 4078,
      "▁defa": 4079,
      "▁muz": 4080,
      "▁tesekkur": 4081,
      "▁eyalet": 4082,
      "duk": 4083,
      "▁gordu": 4084,
      "▁uretici": 4085,
      "mı": 4086,
      "▁ves": 4087,
      "▁merkezi": 4088,
      "▁sut": 4089,
      "▁bagım": 4090,
      "▁etkisi": 4091,
      "▁w": 4092,
      "sur": 4093,
      "▁lid": 4094,
      "▁tedav": 4095
    },
    "merges": [
      [
        "▁bask",
        "an"
      ],
      [
        "til",
        "er"
      ],
      [
        "▁",
        "uz"
      ],
      [
        "lan",
        "ır"
      ],
      [
        "▁k",
        "as"
      ],
      [
        "▁p",
        "er"
      ],
      [
        "▁telefon",
        "la"
      ],
      [
        "▁e",
        "k"
      ],
      [
        "▁fark",
        "ında"
      ],
      [
        "tık",
        "tan"
      ],
      [
        "i",
        "s"
      ],
      [
        "▁ger",
        "iye"
      ],
      [
        "▁y",
        "ak"
      ],
      [
        "▁di",
        "p"
      ],
      [
        "m",
        "ayan"
      ],
      [
        "▁si",
        "ir"
      ],
      [
        "e",
        "de"
      ],
      [
        "▁m",
        "ec"
      ],
      [
        "▁bar",
        "da"
      ],
      [
        "▁ust",
        "u"
      ],
      [
        "▁bil",
        "eti"
      ],
      [
        "▁degisiklik",
        "ler"
      ],
      [
        "d",
        "ık"
      ],
      [
        "▁p",
        "ort"
      ],
      [
        "▁ar",
        "az"
      ],
      [
        "▁h",
        "oc"
      ],
      [
        "ed",
        "igini"
      ],
      [
        "▁etk",
        "isi"
      ],
      [
        "ımız",
        "da"
      ],
      [
        "▁b",
        "ıcak"
      ],
      [
        "▁vap",
        "ur"
      ],
      [
        "▁k",
        "ir"
      ],
      [
        "▁s",
        "ep"
      ],
      [
        "y",
        "uz"
      ],
      [
        "▁k",
        "el"
      ],
      [
        "▁bo",
        "yle"
      ],
      [
        "alar",
        "dan"
      ],
      [
        "▁mez",
        "ar"
      ],
      [
        "c",
        "ag"
      ],
      [
        "▁y",
        "ılı"
      ],
      [
        "▁d",
        "isi"
      ],
      [
        "l",
        "uydu"
      ],
      [
        "ing",
        "ton"
      ],
      [
        "▁a",
        "z"
      ],
      [
        "▁dus",
        "unc"
      ],
      [
        "▁c",
        "or"
      ],
      [
        "i",
        "den"
      ],
      [
        "▁an",
        "im"
      ],
      [
        "l",
        "eyi"
      ],
      [
        "ak",
        "et"
      ],
      [
        "▁neden",
        "lerden"
      ],
      [
        "▁g",
        "os"
      ],
      [
        "lı",
        "k"
      ],
      [
        "at",
        "if"
      ],
      [
        "un",
        "da"
      ],
      [
        "▁",
        "bi"
      ],
      [
        "▁per",
        "form"
      ],
      [
        "▁calı",
        "s"
      ],
      [
        "i",
        "dir"
      ],
      [
        "▁an",
        "lay"
      ],
      [
        "▁oz",
        "ellikle"
      ],
      [
        "lig",
        "e"
      ],
      [
        "▁fatur",
        "am"
      ],
      [
        "▁dolar",
        "dan"
      ],
      [
        "▁a",
        "t"
      ],
      [
        "ar",
        "s"
      ],
      [
        "tı",
        "r"
      ],
      [
        "▁al",
        "n"
      ],
      [
        "lama",
        "ya"
      ],
      [
        "▁mil",
        "let"
      ],
      [
        "▁ka",
        "lit"
      ],
      [
        "▁tiyatr",
        "o"
      ],
      [
        "▁or",
        "ta"
      ],
      [
        "▁sa",
        "c"
      ],
      [
        "as",
        "ın"
      ],
      [
        "▁dıs",
        "ında"
      ],
      [
        "▁sor",
        "un"
      ],
      [
        "▁ort",
        "am"
      ],
      [
        "▁ba",
        "z"
      ],
      [
        "mek",
        "ten"
      ],
      [
        "a",
        "bil"
      ],
      [
        "▁mu",
        "h"
      ],
      [
        "▁g",
        "ul"
      ],
      [
        "k",
        "ah"
      ],
      [
        "▁o",
        "r"
      ],
      [
        "ec",
        "ek"
      ],
      [
        "▁egit",
        "im"
      ],
      [
        "▁n",
        "uf"
      ],
      [
        "ler",
        "den"
      ],
      [
        "▁amerik",
        "an"
      ],
      [
        "la",
        "ma"
      ],
      [
        "▁mak",
        "al"
      ],
      [
        "▁y",
        "asında"
      ],
      [
        "▁ol",
        "an"
      ],
      [
        "▁bol",
        "um"
      ],
      [
        "laya",
        "cak"
      ],
      [
        "▁do",
        "lara"
      ],
      [
        "▁mahk",
        "em"
      ],
      [
        "u",
        "l"
      ],
      [
        "▁kom",
        "su"
      ],
      [
        "▁ver",
        "mek"
      ],
      [
        "▁oldug",
        "una"
      ],
      [
        "o",
        "s"
      ],
      [
        "▁i",
        "se"
      ],
      [
        "▁arkad",
        "as"
      ],
      [
        "▁bi",
        "r"
      ],
      [
        "▁g",
        "og"
      ],
      [
        "gı",
        "t"
      ],
      [
        "▁m",
        "ay"
      ],
      [
        "▁bug",
        "day"
      ],
      [
        "▁atlanta",
        "'ya"
      ],
      [
        "m",
        "ey"
      ],
      [
        "ık",
        "lık"
      ],
      [
        "▁m",
        "ur"
      ],
      [
        "▁personel",
        "lerden"
      ],
      [
        "▁",
        "um"
      ],
      [
        "▁yas",
        "ında"
      ],
      [
        "▁bas",
        "ka"
      ],
      [
        "lerin",
        "in"
      ],
      [
        "▁",
        "lam"
      ],
      [
        "ı",
        "lık"
      ],
      [
        "▁ag",
        "ır"
      ],
      [
        "▁an",
        "la"
      ],
      [
        "▁mer",
        "h"
      ],
      [
        "▁yan",
        "ında"
      ],
      [
        "▁b",
        "an"
      ],
      [
        "▁il",
        "isk"
      ],
      [
        "▁mi",
        "s"
      ],
      [
        "▁d",
        "ah"
      ],
      [
        "a",
        "m"
      ],
      [
        "ug",
        "una"
      ],
      [
        "▁ba",
        "sa"
      ],
      [
        "▁w",
        "ash"
      ],
      [
        "▁kap",
        "sam"
      ],
      [
        "a",
        "b"
      ],
      [
        "▁i",
        "s"
      ],
      [
        "▁s",
        "a"
      ],
      [
        "▁b",
        "ırak"
      ],
      [
        "m",
        "asını"
      ],
      [
        "▁bah",
        "ce"
      ],
      [
        "▁gun",
        "ler"
      ],
      [
        "▁s",
        "ı"
      ],
      [
        "▁dev",
        "ir"
      ],
      [
        "▁kim",
        "i"
      ],
      [
        "▁but",
        "un"
      ],
      [
        "im",
        "di"
      ],
      [
        "▁cars",
        "amba"
      ],
      [
        "▁ko",
        "l"
      ],
      [
        "▁gir",
        "isim"
      ],
      [
        "t",
        "ıgını"
      ],
      [
        "d",
        "ir"
      ],
      [
        "'n",
        "ın"
      ],
      [
        "▁go",
        "l"
      ],
      [
        "l",
        "a"
      ],
      [
        "▁lezz",
        "eti"
      ],
      [
        "▁guven",
        "lik"
      ],
      [
        "an",
        "dı"
      ],
      [
        "▁aktar",
        "masız"
      ],
      [
        "▁d",
        "e"
      ],
      [
        "m",
        "esi"
      ],
      [
        "y",
        "um"
      ],
      [
        "ıl",
        "ır"
      ],
      [
        "▁b",
        "ası"
      ],
      [
        "▁tas",
        "ı"
      ],
      [
        "ey",
        "az"
      ],
      [
        "▁ins",
        "aat"
      ],
      [
        "▁hes",
        "ap"
      ],
      [
        "▁gec",
        "ti"
      ],
      [
        "uy",
        "a"
      ],
      [
        "un",
        "dan"
      ],
      [
        "▁tasar",
        "ruf"
      ],
      [
        "▁a",
        "da"
      ],
      [
        "▁emek",
        "lilik"
      ],
      [
        "ım",
        "ın"
      ],
      [
        "dı",
        "m"
      ],
      [
        "▁ihtiy",
        "acı"
      ],
      [
        "▁gor",
        "us"
      ],
      [
        "b",
        "ak"
      ],
      [
        "el",
        "en"
      ],
      [
        "ti",
        "h"
      ],
      [
        "▁gru",
        "b"
      ],
      [
        "a",
        "larını"
      ],
      [
        "▁gel",
        "mis"
      ],
      [
        "▁bu",
        "y"
      ],
      [
        "▁",
        "5"
      ],
      [
        "▁kon",
        "umu"
      ],
      [
        "▁t",
        "ar"
      ],
      [
        "m",
        "e"
      ],
      [
        "▁k",
        "ır"
      ],
      [
        "▁hakk",
        "ında"
      ],
      [
        "▁yıl",
        "ında"
      ],
      [
        "▁ucret",
        "in"
      ],
      [
        "▁tar",
        "z"
      ],
      [
        "▁bek",
        "len"
      ],
      [
        "▁in",
        "sa"
      ],
      [
        "'n",
        "de"
      ],
      [
        "k",
        "al"
      ],
      [
        "▁s",
        "o"
      ],
      [
        "▁t",
        "oz"
      ],
      [
        "em",
        "in"
      ],
      [
        "▁av",
        "uc"
      ],
      [
        "▁ho",
        "ca"
      ],
      [
        "▁yuz",
        "unden"
      ],
      [
        "▁har",
        "eket"
      ],
      [
        "ist",
        "en"
      ],
      [
        "▁gi",
        "d"
      ],
      [
        "▁g",
        "r"
      ],
      [
        "en",
        "e"
      ],
      [
        "ind",
        "e"
      ],
      [
        "▁gerc",
        "ekl"
      ],
      [
        "l",
        "o"
      ],
      [
        "▁n",
        "am"
      ],
      [
        "▁o",
        "g"
      ],
      [
        "▁dov",
        "iz"
      ],
      [
        "▁rek",
        "lam"
      ],
      [
        "▁tan",
        "e"
      ],
      [
        "▁sın",
        "ıf"
      ],
      [
        "▁dusun",
        "uyor"
      ],
      [
        "▁olma",
        "dıgını"
      ],
      [
        "▁ola",
        "rak"
      ],
      [
        "iy",
        "e"
      ],
      [
        "▁d",
        "uv"
      ],
      [
        "▁s",
        "il"
      ],
      [
        "▁yon",
        "et"
      ],
      [
        "▁kahval",
        "ti"
      ],
      [
        "▁ara",
        "di"
      ],
      [
        "▁?",
        ".."
      ],
      [
        "▁kor",
        "k"
      ],
      [
        "▁",
        "erk"
      ],
      [
        "▁i",
        "ki"
      ],
      [
        "▁top",
        "r"
      ],
      [
        "d",
        "etti"
      ],
      [
        "▁m",
        "ed"
      ],
      [
        "k",
        "t"
      ],
      [
        "▁ıs",
        "rar"
      ],
      [
        "ek",
        "ler"
      ],
      [
        "▁kar",
        "ar"
      ],
      [
        "▁d",
        "al"
      ],
      [
        "▁ag",
        "z"
      ],
      [
        "ac",
        "a"
      ],
      [
        "l",
        "edi"
      ],
      [
        "▁u",
        "f"
      ],
      [
        "▁ay",
        "ak"
      ],
      [
        "or",
        "u"
      ],
      [
        "ac",
        "ı"
      ],
      [
        "▁as",
        "agı"
      ],
      [
        "▁oda",
        "ya"
      ],
      [
        "z",
        "et"
      ],
      [
        "eceg",
        "ini"
      ],
      [
        "▁ucret",
        "leri"
      ],
      [
        "▁k",
        "ay"
      ],
      [
        "la",
        "stı"
      ],
      [
        "ı",
        "g"
      ],
      [
        "▁tav",
        "siye"
      ],
      [
        "▁sav",
        "as"
      ],
      [
        "▁yuz",
        "me"
      ],
      [
        "t",
        "a"
      ],
      [
        "▁kom",
        "p"
      ],
      [
        "a",
        "tır"
      ],
      [
        "ası",
        "yla"
      ],
      [
        "▁cum",
        "le"
      ],
      [
        "▁guler",
        "yuzlu"
      ],
      [
        "t",
        "ı"
      ],
      [
        "siy",
        "on"
      ],
      [
        "▁haf",
        "ta"
      ],
      [
        "▁t",
        "amam"
      ],
      [
        "▁kıs",
        "ıt"
      ],
      [
        "▁p",
        "ek"
      ],
      [
        "▁bul",
        "un"
      ],
      [
        "la",
        "n"
      ],
      [
        "▁uz",
        "un"
      ],
      [
        "m",
        "al"
      ],
      [
        "▁kav",
        "g"
      ],
      [
        "▁o",
        "lacak"
      ],
      [
        "▁lut",
        "fen"
      ],
      [
        "k",
        "sa"
      ],
      [
        "▁a",
        "lan"
      ],
      [
        "▁o",
        "larak"
      ],
      [
        "▁plan",
        "i"
      ],
      [
        "▁f",
        "iyat"
      ],
      [
        "▁beklen",
        "ti"
      ],
      [
        "ı",
        "yla"
      ],
      [
        "sı",
        "n"
      ],
      [
        "f",
        "er"
      ],
      [
        "▁p",
        "etr"
      ],
      [
        "et",
        "i"
      ],
      [
        "▁g",
        "ru"
      ],
      [
        "'",
        "ta"
      ],
      [
        "tı",
        "k"
      ],
      [
        "▁c",
        "ev"
      ],
      [
        "b",
        "u"
      ],
      [
        "▁",
        "or"
      ],
      [
        "e",
        "ger"
      ],
      [
        "▁",
        "1"
      ],
      [
        "▁v",
        "az"
      ],
      [
        "▁d",
        "ugun"
      ],
      [
        "▁do",
        "m"
      ],
      [
        "▁bun",
        "un"
      ],
      [
        "▁bir",
        "cok"
      ],
      [
        "u",
        "h"
      ],
      [
        "▁cin",
        "s"
      ],
      [
        "▁1",
        "."
      ],
      [
        "▁a",
        "lama"
      ],
      [
        "▁ken",
        "t"
      ],
      [
        "▁derec",
        "ede"
      ],
      [
        "d",
        "ır"
      ],
      [
        "ecegi",
        "m"
      ],
      [
        "▁ka",
        "rı"
      ],
      [
        "▁an",
        "ket"
      ],
      [
        "▁n",
        "az"
      ],
      [
        "▁a",
        "kt"
      ],
      [
        "▁s",
        "ık"
      ],
      [
        "d",
        "eki"
      ],
      [
        "en",
        "d"
      ],
      [
        "▁g",
        "un"
      ],
      [
        "e",
        "gi"
      ],
      [
        "s",
        "e"
      ],
      [
        "▁k",
        "ab"
      ],
      [
        "▁s",
        "ırt"
      ],
      [
        "▁soyl",
        "edi"
      ],
      [
        "▁ol",
        "mus"
      ],
      [
        "▁e",
        "c"
      ],
      [
        "▁yard",
        "ım"
      ],
      [
        "at",
        "lar"
      ],
      [
        "eceg",
        "i"
      ],
      [
        "▁han",
        "im"
      ],
      [
        "▁fir",
        "ması"
      ],
      [
        "▁ha",
        "lbu"
      ],
      [
        "y",
        "or"
      ],
      [
        "e",
        "bil"
      ],
      [
        "ya",
        "cak"
      ],
      [
        "▁k",
        "os"
      ],
      [
        "l",
        "ık"
      ],
      [
        "m",
        "uyor"
      ],
      [
        "▁begen",
        "dim"
      ],
      [
        "▁ic",
        "ki"
      ],
      [
        "▁k",
        "ac"
      ],
      [
        "▁b",
        "er"
      ],
      [
        "▁k",
        "af"
      ],
      [
        "al",
        "t"
      ],
      [
        "lam",
        "ak"
      ],
      [
        "▁olanak",
        "lari"
      ],
      [
        "▁pr",
        "ot"
      ],
      [
        "▁t",
        "on"
      ],
      [
        "ı",
        "k"
      ],
      [
        "▁dek",
        "or"
      ],
      [
        "▁ed",
        "il"
      ],
      [
        "▁il",
        "an"
      ],
      [
        "▁dir",
        "ek"
      ],
      [
        "▁...",
        "\""
      ],
      [
        "▁k",
        "ul"
      ],
      [
        "▁y",
        "o"
      ],
      [
        "▁on",
        "emli"
      ],
      [
        "▁c",
        "ar"
      ],
      [
        "▁",
        "di"
      ],
      [
        "▁el",
        "leri"
      ],
      [
        "▁olabilir",
        "di"
      ],
      [
        "at",
        "tı"
      ],
      [
        "ın",
        "daki"
      ],
      [
        "▁t",
        "uk"
      ],
      [
        "▁c",
        "oz"
      ],
      [
        "▁yol",
        "a"
      ],
      [
        "ya",
        "s"
      ],
      [
        "d",
        "ay"
      ],
      [
        "▁ko",
        "c"
      ],
      [
        "▁k",
        "or"
      ],
      [
        "▁kap",
        "ının"
      ],
      [
        "d",
        "ur"
      ],
      [
        "▁u",
        "ret"
      ],
      [
        "n",
        "i"
      ],
      [
        "▁danıs",
        "man"
      ],
      [
        "tı",
        "l"
      ],
      [
        "▁mo",
        "de"
      ],
      [
        "▁ilgilendi",
        "ler"
      ],
      [
        "o",
        "n"
      ],
      [
        "f",
        "orm"
      ],
      [
        "▁hayat",
        "a"
      ],
      [
        "▁g",
        "elir"
      ],
      [
        "▁o",
        "nun"
      ],
      [
        "tan",
        "siy"
      ],
      [
        "s",
        "ur"
      ],
      [
        "▁ilet",
        "isim"
      ],
      [
        "▁onun",
        "de"
      ],
      [
        "▁y",
        "il"
      ],
      [
        "▁hayat",
        "ı"
      ],
      [
        "m",
        "ız"
      ],
      [
        "▁bu",
        "r"
      ],
      [
        "unu",
        "z"
      ],
      [
        "▁..",
        "."
      ],
      [
        "▁duny",
        "anın"
      ],
      [
        "▁",
        "f"
      ],
      [
        "▁o",
        "l"
      ],
      [
        "asyon",
        "u"
      ],
      [
        "▁le",
        "z"
      ],
      [
        "▁gay",
        "r"
      ],
      [
        "▁im",
        "kan"
      ],
      [
        "▁duz",
        "en"
      ],
      [
        "ede",
        "f"
      ],
      [
        "id",
        "i"
      ],
      [
        "▁toplan",
        "t"
      ],
      [
        "▁ger",
        "ek"
      ],
      [
        "▁ol",
        "duk"
      ],
      [
        "▁gi",
        "di"
      ],
      [
        "t",
        "s"
      ],
      [
        "d",
        "ig"
      ],
      [
        "▁sey",
        "ahat"
      ],
      [
        "▁a",
        "v"
      ],
      [
        "s",
        "al"
      ],
      [
        "▁sey",
        "ler"
      ],
      [
        "c",
        "ılıg"
      ],
      [
        "▁ic",
        "i"
      ],
      [
        "▁c",
        "if"
      ],
      [
        "is",
        "ini"
      ],
      [
        "▁ucus",
        "a"
      ],
      [
        "is",
        "ki"
      ],
      [
        "▁a",
        "lacak"
      ],
      [
        "g",
        "a"
      ],
      [
        "▁",
        "eli"
      ],
      [
        "▁t",
        "ak"
      ],
      [
        "▁i",
        "n"
      ],
      [
        "▁g",
        "ar"
      ],
      [
        "g",
        "ı"
      ],
      [
        "▁yemek",
        "ler"
      ],
      [
        "▁uc",
        "us"
      ],
      [
        "a",
        "y"
      ],
      [
        "▁h",
        "ik"
      ],
      [
        "di",
        "k"
      ],
      [
        "▁yaz",
        "ı"
      ],
      [
        "▁yumur",
        "ta"
      ],
      [
        "▁begen",
        "medim"
      ],
      [
        "▁bi",
        "l"
      ],
      [
        "▁g",
        "oz"
      ],
      [
        "▁a",
        "p"
      ],
      [
        "▁bog",
        "az"
      ],
      [
        "l",
        "as"
      ],
      [
        "▁hoc",
        "a"
      ],
      [
        "▁dogr",
        "u"
      ],
      [
        "▁deg",
        "er"
      ],
      [
        "▁l",
        "id"
      ],
      [
        "▁l",
        "e"
      ],
      [
        "▁insan",
        "lar"
      ],
      [
        "▁bilgisay",
        "ar"
      ],
      [
        "o",
        "j"
      ],
      [
        "▁ask",
        "er"
      ],
      [
        "▁oy",
        "sa"
      ],
      [
        "l",
        "bu"
      ],
      [
        "▁ayr",
        "ı"
      ],
      [
        "▁s",
        "av"
      ],
      [
        "sı",
        "z"
      ],
      [
        "▁gun",
        "es"
      ],
      [
        "ist",
        "ler"
      ],
      [
        "▁v",
        "er"
      ],
      [
        "▁mu",
        "s"
      ],
      [
        "i",
        "z"
      ],
      [
        "▁tem",
        "muz"
      ],
      [
        "▁f",
        "ab"
      ],
      [
        "▁s",
        "el"
      ],
      [
        "la",
        "t"
      ],
      [
        "s",
        "t"
      ],
      [
        "▁kız",
        "ı"
      ],
      [
        "▁t",
        "ren"
      ],
      [
        "l",
        "av"
      ],
      [
        "▁kr",
        "al"
      ],
      [
        "ur",
        "lu"
      ],
      [
        "▁k",
        "up"
      ],
      [
        "▁",
        "w"
      ],
      [
        "▁fiyat",
        "a"
      ],
      [
        "▁ha",
        "s"
      ],
      [
        "▁h",
        "izm"
      ],
      [
        "▁yuz",
        "u"
      ],
      [
        "▁fiyat",
        "ı"
      ],
      [
        "▁b",
        "ana"
      ],
      [
        "g",
        "o"
      ],
      [
        "k",
        "an"
      ],
      [
        "▁",
        "le"
      ],
      [
        "i",
        "t"
      ],
      [
        "▁kar",
        "ak"
      ],
      [
        "ast",
        "ır"
      ],
      [
        "▁o",
        "la"
      ],
      [
        "▁kal",
        "madim"
      ],
      [
        "▁d",
        "am"
      ],
      [
        "▁dav",
        "et"
      ],
      [
        "▁d",
        "us"
      ],
      [
        "▁k",
        "r"
      ],
      [
        "▁y",
        "ık"
      ],
      [
        "▁al",
        "an"
      ],
      [
        "▁seb",
        "ep"
      ],
      [
        "is",
        "i"
      ],
      [
        "▁",
        "ha"
      ],
      [
        "sa",
        "l"
      ],
      [
        "▁m",
        "ev"
      ],
      [
        "▁",
        "ede"
      ],
      [
        "es",
        "i"
      ],
      [
        "▁v",
        "et"
      ],
      [
        "▁",
        "\""
      ],
      [
        "▁mem",
        "ur"
      ],
      [
        "r",
        "az"
      ],
      [
        "▁ogren",
        "ci"
      ],
      [
        "▁g",
        "en"
      ],
      [
        "▁",
        "ta"
      ],
      [
        "▁eglen",
        "ce"
      ],
      [
        "a",
        "larının"
      ],
      [
        "▁g",
        "unden"
      ],
      [
        "▁dallas",
        "'a"
      ],
      [
        "▁on",
        "ce"
      ],
      [
        "'y",
        "a"
      ],
      [
        "ma",
        "dı"
      ],
      [
        "▁kal",
        "dim"
      ],
      [
        "▁sor",
        "unun"
      ],
      [
        "▁otel",
        "i"
      ],
      [
        "m",
        "am"
      ],
      [
        "▁oy",
        "ku"
      ],
      [
        "▁",
        "…"
      ],
      [
        "y",
        "le"
      ],
      [
        "▁n",
        "et"
      ],
      [
        "m",
        "us"
      ],
      [
        "▁i",
        "ht"
      ],
      [
        "▁sist",
        "em"
      ],
      [
        "▁kav",
        "ram"
      ],
      [
        "▁el",
        "lerinde"
      ],
      [
        "▁send",
        "ika"
      ],
      [
        "▁kur",
        "s"
      ],
      [
        "▁kon",
        "um"
      ],
      [
        "▁ede",
        "b"
      ],
      [
        "▁dem",
        "okr"
      ],
      [
        "lu",
        "gun"
      ],
      [
        "en",
        "di"
      ],
      [
        "▁sa",
        "tıs"
      ],
      [
        "an",
        "lar"
      ],
      [
        "▁sor",
        "u"
      ],
      [
        "▁dom",
        "ates"
      ],
      [
        "m",
        "esine"
      ],
      [
        "▁",
        "g"
      ],
      [
        "ı",
        "la"
      ],
      [
        "▁ek",
        "s"
      ],
      [
        "▁par",
        "ca"
      ],
      [
        "▁o",
        "ak"
      ],
      [
        "▁sa",
        "m"
      ],
      [
        "lay",
        "acak"
      ],
      [
        "s",
        "ız"
      ],
      [
        "▁hat",
        "ır"
      ],
      [
        "ar",
        "t"
      ],
      [
        "▁ac",
        "ı"
      ],
      [
        "▁get",
        "iri"
      ],
      [
        "u",
        "yle"
      ],
      [
        "er",
        "lik"
      ],
      [
        "▁sa",
        "b"
      ],
      [
        "h",
        "i"
      ],
      [
        "▁t",
        "u"
      ],
      [
        "si",
        "l"
      ],
      [
        "an",
        "ları"
      ],
      [
        "▁p",
        "ark"
      ],
      [
        "▁ihtiy",
        "ac"
      ],
      [
        "▁on",
        "un"
      ],
      [
        "▁cor",
        "ba"
      ],
      [
        "▁elb",
        "is"
      ],
      [
        "▁n",
        "ok"
      ],
      [
        "il",
        "m"
      ],
      [
        "▁ay",
        "ı"
      ],
      [
        "o",
        "z"
      ],
      [
        "ma",
        "k"
      ],
      [
        "ı",
        "yor"
      ],
      [
        "o",
        "d"
      ],
      [
        "▁rad",
        "yo"
      ],
      [
        "eg",
        "ine"
      ],
      [
        "▁devlet",
        "in"
      ],
      [
        "m",
        "an"
      ],
      [
        "▁sır",
        "ada"
      ],
      [
        "▁sirket",
        "in"
      ],
      [
        "▁hareket",
        "e"
      ],
      [
        "▁m",
        "ar"
      ],
      [
        "▁univers",
        "it"
      ],
      [
        "b",
        "il"
      ],
      [
        "▁ta",
        "v"
      ],
      [
        "▁gazet",
        "eci"
      ],
      [
        "▁il",
        "k"
      ],
      [
        "▁h",
        "as"
      ],
      [
        "▁sın",
        "av"
      ],
      [
        "▁dolay",
        "i"
      ],
      [
        "el",
        "likle"
      ],
      [
        "▁il",
        "er"
      ],
      [
        "as",
        "eb"
      ],
      [
        "▁",
        "dı"
      ],
      [
        "▁hal",
        "ine"
      ],
      [
        "ur",
        "t"
      ],
      [
        "an",
        "ın"
      ],
      [
        "▁d",
        "est"
      ],
      [
        "o",
        "t"
      ],
      [
        "▁k",
        "agı"
      ],
      [
        "t",
        "igini"
      ],
      [
        "▁top",
        "lum"
      ],
      [
        "al",
        "an"
      ],
      [
        "▁is",
        "im"
      ],
      [
        "▁ot",
        "ob"
      ],
      [
        "ik",
        "at"
      ],
      [
        "▁sa",
        "ir"
      ],
      [
        "a",
        "lı"
      ],
      [
        "▁akt",
        "ar"
      ],
      [
        "t",
        "i"
      ],
      [
        "▁bel",
        "ki"
      ],
      [
        "▁i",
        "d"
      ],
      [
        "▁kıs",
        "a"
      ],
      [
        "▁g",
        "on"
      ],
      [
        "▁az",
        "alt"
      ],
      [
        "▁y",
        "as"
      ],
      [
        "m",
        "ası"
      ],
      [
        "▁yeter",
        "sizdi"
      ],
      [
        "▁son",
        "unda"
      ],
      [
        "er",
        "in"
      ],
      [
        "▁a",
        "ile"
      ],
      [
        "▁m",
        "is"
      ],
      [
        "▁h",
        "av"
      ],
      [
        "▁v",
        "ucu"
      ],
      [
        "ec",
        "i"
      ],
      [
        "ec",
        "egi"
      ],
      [
        "▁c",
        "ak"
      ],
      [
        "▁sat",
        "ır"
      ],
      [
        "▁dev",
        "r"
      ],
      [
        "▁ne",
        "f"
      ],
      [
        "▁fa",
        "iz"
      ],
      [
        "▁k",
        "ayı"
      ],
      [
        "▁so",
        "f"
      ],
      [
        "▁uz",
        "ak"
      ],
      [
        "y",
        "dı"
      ],
      [
        "▁olm",
        "asi"
      ],
      [
        "in",
        "i"
      ],
      [
        "▁ik",
        "ram"
      ],
      [
        "▁s",
        "ır"
      ],
      [
        "▁b",
        "ek"
      ],
      [
        "▁il",
        "et"
      ],
      [
        "▁bah",
        "c"
      ],
      [
        "▁yer",
        "inde"
      ],
      [
        "▁civ",
        "arında"
      ],
      [
        "▁y",
        "av"
      ],
      [
        "m",
        "az"
      ],
      [
        "▁inter",
        "net"
      ],
      [
        "▁m",
        "in"
      ],
      [
        "▁hav",
        "a"
      ],
      [
        "ıy",
        "a"
      ],
      [
        "▁ac",
        "ent"
      ],
      [
        "▁y",
        "el"
      ],
      [
        "▁list",
        "esini"
      ],
      [
        "▁kullan",
        "madim"
      ],
      [
        "▁",
        "k"
      ],
      [
        "ıy",
        "ı"
      ],
      [
        "▁f",
        "ut"
      ],
      [
        "▁cum",
        "artesi"
      ],
      [
        "▁anlam",
        "ına"
      ],
      [
        "▁dak",
        "ik"
      ],
      [
        "▁ver",
        "di"
      ],
      [
        "▁sal",
        "ı"
      ],
      [
        "▁ge",
        "z"
      ],
      [
        "eda",
        "v"
      ],
      [
        "▁teh",
        "d"
      ],
      [
        "▁kims",
        "enin"
      ],
      [
        "▁m",
        "en"
      ],
      [
        "a",
        "r"
      ],
      [
        "▁i",
        "lk"
      ],
      [
        "▁do",
        "gr"
      ],
      [
        "▁karayol",
        "u"
      ],
      [
        "ed",
        "iye"
      ],
      [
        "ar",
        "da"
      ],
      [
        "lam",
        "a"
      ],
      [
        "▁yor",
        "um"
      ],
      [
        "▁od",
        "un"
      ],
      [
        "▁al",
        "dı"
      ],
      [
        "uy",
        "e"
      ],
      [
        "s",
        "am"
      ],
      [
        "eler",
        "de"
      ],
      [
        "▁dur",
        "umu"
      ],
      [
        "▁ins",
        "anı"
      ],
      [
        "▁k",
        "ıs"
      ],
      [
        "▁tel",
        "evizyon"
      ],
      [
        "▁yar",
        "ıs"
      ],
      [
        "▁ek",
        "m"
      ],
      [
        "et",
        "ti"
      ],
      [
        "af",
        "et"
      ],
      [
        "▁al",
        "eyh"
      ],
      [
        "▁goz",
        "leri"
      ],
      [
        "▁tak",
        "dir"
      ],
      [
        "uc",
        "c"
      ],
      [
        "er",
        "leri"
      ],
      [
        "▁buy",
        "um"
      ],
      [
        "▁o",
        "kul"
      ],
      [
        "▁c",
        "h"
      ],
      [
        "ladı",
        "m"
      ],
      [
        "am",
        "ız"
      ],
      [
        "▁tuk",
        "etici"
      ],
      [
        "▁",
        "et"
      ],
      [
        "ug",
        "a"
      ],
      [
        "▁ka",
        "b"
      ],
      [
        "▁kol",
        "t"
      ],
      [
        "mı",
        "stır"
      ],
      [
        "uc",
        "u"
      ],
      [
        "u",
        "s"
      ],
      [
        "at",
        "ik"
      ],
      [
        "ık",
        "ları"
      ],
      [
        "▁j",
        "apon"
      ],
      [
        "▁s",
        "ay"
      ],
      [
        "ı",
        "c"
      ],
      [
        "lem",
        "e"
      ],
      [
        "▁",
        ":"
      ],
      [
        "▁yuk",
        "s"
      ],
      [
        "▁m",
        "at"
      ],
      [
        "▁de",
        "v"
      ],
      [
        "e",
        "y"
      ],
      [
        "▁et",
        "meye"
      ],
      [
        "▁s",
        "ur"
      ],
      [
        "c",
        "egini"
      ],
      [
        "ları",
        "m"
      ],
      [
        "▁di",
        "s"
      ],
      [
        "or",
        "m"
      ],
      [
        "▁f",
        "az"
      ],
      [
        "r",
        "et"
      ],
      [
        "▁ceyrek",
        "te"
      ],
      [
        "l",
        "ay"
      ],
      [
        "s",
        "an"
      ],
      [
        "▁si",
        "k"
      ],
      [
        "h",
        "e"
      ],
      [
        "▁al",
        "k"
      ],
      [
        "ir",
        "di"
      ],
      [
        "▁boy",
        "un"
      ],
      [
        "▁e",
        "den"
      ],
      [
        "▁k",
        "ar"
      ],
      [
        "▁dem",
        "ek"
      ],
      [
        "▁bir",
        "az"
      ],
      [
        "▁s",
        "al"
      ],
      [
        "▁",
        "ok"
      ],
      [
        "en",
        "lerin"
      ],
      [
        "▁1",
        "0"
      ],
      [
        "er",
        "ken"
      ],
      [
        "y",
        "et"
      ],
      [
        "▁soy",
        "l"
      ],
      [
        "▁alt",
        "ında"
      ],
      [
        "▁de",
        "p"
      ],
      [
        "▁t",
        "ic"
      ],
      [
        "i",
        "an"
      ],
      [
        "▁sı",
        "ra"
      ],
      [
        "▁hiss",
        "esi"
      ],
      [
        "▁",
        "im"
      ],
      [
        "▁ac",
        "ık"
      ],
      [
        "▁insan",
        "lara"
      ],
      [
        "▁ortal",
        "ama"
      ],
      [
        "▁bu",
        "l"
      ],
      [
        "ında",
        "n"
      ],
      [
        "▁yap",
        "tir"
      ],
      [
        "▁sek",
        "ret"
      ],
      [
        "▁",
        "it"
      ],
      [
        "▁um",
        "ut"
      ],
      [
        "'d",
        "e"
      ],
      [
        "▁mak",
        "ine"
      ],
      [
        "▁kal",
        "ab"
      ],
      [
        "▁s",
        "ag"
      ],
      [
        "ma",
        "sın"
      ],
      [
        "▁ter",
        "s"
      ],
      [
        "▁",
        "9"
      ],
      [
        "k",
        "et"
      ],
      [
        "▁sın",
        "ır"
      ],
      [
        "▁sig",
        "ort"
      ],
      [
        "▁par",
        "ayı"
      ],
      [
        "ımız",
        "ın"
      ],
      [
        "▁k",
        "is"
      ],
      [
        "▁so",
        "g"
      ],
      [
        "▁duy",
        "gu"
      ],
      [
        "▁ilg",
        "isi"
      ],
      [
        "▁gelir",
        "i"
      ],
      [
        "a",
        "ya"
      ],
      [
        "▁ka",
        "til"
      ],
      [
        "▁",
        "emek"
      ],
      [
        "▁yaklas",
        "ık"
      ],
      [
        "▁du",
        "m"
      ],
      [
        "t",
        "e"
      ],
      [
        "▁hiss",
        "e"
      ],
      [
        "da",
        "y"
      ],
      [
        "▁d",
        "er"
      ],
      [
        "▁degis",
        "im"
      ],
      [
        "▁",
        "="
      ],
      [
        "▁neler",
        "dir"
      ],
      [
        "▁acık",
        "ladı"
      ],
      [
        "▁sor",
        "unu"
      ],
      [
        "▁b",
        "iz"
      ],
      [
        "ıl",
        "ıgı"
      ],
      [
        "co",
        "k"
      ],
      [
        "▁hanim",
        "la"
      ],
      [
        "▁mes",
        "lek"
      ],
      [
        "▁kars",
        "i"
      ],
      [
        "▁so",
        "k"
      ],
      [
        "ar",
        "lan"
      ],
      [
        "▁bun",
        "u"
      ],
      [
        "▁kom",
        "isyon"
      ],
      [
        "▁yap",
        "ıl"
      ],
      [
        "▁s",
        "t"
      ],
      [
        "▁ha",
        "n"
      ],
      [
        "du",
        "m"
      ],
      [
        "▁olma",
        "lı"
      ],
      [
        "▁fak",
        "at"
      ],
      [
        "▁h",
        "ır"
      ],
      [
        "▁koy",
        "lu"
      ],
      [
        "ar",
        "dan"
      ],
      [
        "▁s",
        "os"
      ],
      [
        "▁bas",
        "ta"
      ],
      [
        "▁ek",
        "ibi"
      ],
      [
        "▁d",
        "ort"
      ],
      [
        "▁gok",
        "yuz"
      ],
      [
        "▁gid",
        "er"
      ],
      [
        "ama",
        "k"
      ],
      [
        "▁bil",
        "mek"
      ],
      [
        "ad",
        "ıgını"
      ],
      [
        "▁g",
        "erek"
      ],
      [
        "▁l",
        "am"
      ],
      [
        "▁bir",
        "ligi"
      ],
      [
        "in",
        "e"
      ],
      [
        "t",
        "lu"
      ],
      [
        "▁azal",
        "t"
      ],
      [
        "ek",
        "i"
      ],
      [
        "▁",
        "'"
      ],
      [
        "m",
        "er"
      ],
      [
        "▁s",
        "af"
      ],
      [
        "a",
        "g"
      ],
      [
        "e",
        "re"
      ],
      [
        "▁kısm",
        "ı"
      ],
      [
        "▁t",
        "o"
      ],
      [
        "ed",
        "er"
      ],
      [
        "▁kar",
        "a"
      ],
      [
        "lar",
        "dan"
      ],
      [
        "g",
        "isi"
      ],
      [
        "c",
        "ek"
      ],
      [
        "s",
        "iye"
      ],
      [
        "▁sek",
        "tor"
      ],
      [
        "lerin",
        "den"
      ],
      [
        "▁kar",
        "ı"
      ],
      [
        "▁sim",
        "di"
      ],
      [
        "ler",
        "iyle"
      ],
      [
        "ak",
        "i"
      ],
      [
        "▁tahv",
        "il"
      ],
      [
        "ev",
        "i"
      ],
      [
        "ag",
        "a"
      ],
      [
        "▁c",
        "ep"
      ],
      [
        "▁is",
        "lem"
      ],
      [
        "▁tut",
        "un"
      ],
      [
        "▁sev",
        "k"
      ],
      [
        "▁e",
        "m"
      ],
      [
        "ag",
        "ı"
      ],
      [
        "▁den",
        "ver"
      ],
      [
        "▁pitts",
        "burgh"
      ],
      [
        "▁",
        "za"
      ],
      [
        "o",
        "f"
      ],
      [
        "▁kon",
        "f"
      ],
      [
        "▁gun",
        "ah"
      ],
      [
        "▁u",
        "c"
      ],
      [
        "▁",
        "la"
      ],
      [
        "▁anla",
        "t"
      ],
      [
        "▁uy",
        "ku"
      ],
      [
        "▁tel",
        "ef"
      ],
      [
        "▁kon",
        "ut"
      ],
      [
        "de",
        "n"
      ],
      [
        "l",
        "eket"
      ],
      [
        "▁sov",
        "yet"
      ],
      [
        "ıg",
        "ına"
      ],
      [
        "▁top",
        "u"
      ],
      [
        "▁do",
        "r"
      ],
      [
        "▁s",
        "end"
      ],
      [
        "▁mev",
        "cut"
      ],
      [
        "m",
        "et"
      ],
      [
        "ıg",
        "ın"
      ],
      [
        "▁kap",
        "ıyı"
      ],
      [
        "▁du",
        "dak"
      ],
      [
        "▁ab",
        "d"
      ],
      [
        "'de",
        "n"
      ],
      [
        "▁d",
        "ok"
      ],
      [
        "▁",
        "ef"
      ],
      [
        "r",
        "uk"
      ],
      [
        "▁gun",
        "e"
      ],
      [
        "i",
        "v"
      ],
      [
        "▁el",
        "ektr"
      ],
      [
        "▁k",
        "at"
      ],
      [
        "▁kos",
        "ul"
      ],
      [
        "▁h",
        "ay"
      ],
      [
        "d",
        "ar"
      ],
      [
        "▁yar",
        "at"
      ],
      [
        "▁sa",
        "y"
      ],
      [
        "t",
        "al"
      ],
      [
        "▁i",
        "f"
      ],
      [
        "▁sirket",
        "ler"
      ],
      [
        "▁yuz",
        "den"
      ],
      [
        "▁tesekkur",
        "ler"
      ],
      [
        "▁is",
        "let"
      ],
      [
        "▁bir",
        "lik"
      ],
      [
        "▁h",
        "ur"
      ],
      [
        "▁end",
        "is"
      ],
      [
        "▁19",
        "9"
      ],
      [
        "imiz",
        "de"
      ],
      [
        "▁o",
        "yle"
      ],
      [
        "▁gun",
        "lerde"
      ],
      [
        "▁a",
        "ncak"
      ],
      [
        "y",
        "la"
      ],
      [
        "al",
        "et"
      ],
      [
        "er",
        "h"
      ],
      [
        "ac",
        "ag"
      ],
      [
        "▁hal",
        "de"
      ],
      [
        "▁r",
        "ak"
      ],
      [
        "▁",
        "co"
      ],
      [
        "▁par",
        "k"
      ],
      [
        "▁hizmet",
        "ten"
      ],
      [
        "▁ko",
        "m"
      ],
      [
        "▁buyum",
        "e"
      ],
      [
        "▁kı",
        "y"
      ],
      [
        "on",
        "un"
      ],
      [
        "▁coc",
        "ugun"
      ],
      [
        "i",
        "p"
      ],
      [
        "ra",
        "n"
      ],
      [
        "▁y",
        "ay"
      ],
      [
        "la",
        "dı"
      ],
      [
        "▁dı",
        "s"
      ],
      [
        "▁soyl",
        "e"
      ],
      [
        "▁es",
        "ki"
      ],
      [
        "iy",
        "et"
      ],
      [
        "▁kul",
        "lan"
      ],
      [
        "ıs",
        "ı"
      ],
      [
        "▁y",
        "ur"
      ],
      [
        "▁bır",
        "ak"
      ],
      [
        "▁bir",
        "er"
      ],
      [
        "▁goz",
        "ler"
      ],
      [
        "am",
        "ası"
      ],
      [
        "la",
        "rak"
      ],
      [
        "▁sig",
        "orta"
      ],
      [
        "▁sav",
        "un"
      ],
      [
        "▁k",
        "on"
      ],
      [
        "r",
        "ak"
      ],
      [
        "▁har",
        "ek"
      ],
      [
        "▁kum",
        "as"
      ],
      [
        "▁hizm",
        "eti"
      ],
      [
        "▁g",
        "ore"
      ],
      [
        "▁zaman",
        "da"
      ],
      [
        "▁s",
        "ıcak"
      ],
      [
        "▁yem",
        "egi"
      ],
      [
        "▁z",
        "inc"
      ],
      [
        "▁sonr",
        "ası"
      ],
      [
        "▁ort",
        "aya"
      ],
      [
        "in",
        "d"
      ],
      [
        "▁bas",
        "k"
      ],
      [
        "ab",
        "a"
      ],
      [
        "▁c",
        "ic"
      ],
      [
        "ma",
        "ları"
      ],
      [
        "▁mim",
        "ar"
      ],
      [
        "is",
        "yon"
      ],
      [
        "ab",
        "ı"
      ],
      [
        "▁y",
        "ag"
      ],
      [
        "▁d",
        "ib"
      ],
      [
        "g",
        "e"
      ],
      [
        "v",
        "r"
      ],
      [
        "▁ya",
        "v"
      ],
      [
        "▁am",
        "ac"
      ],
      [
        "d",
        "ıgı"
      ],
      [
        "ag",
        "ının"
      ],
      [
        "▁yap",
        "maya"
      ],
      [
        "e",
        "r"
      ],
      [
        "▁kaz",
        "an"
      ],
      [
        "▁h",
        "os"
      ],
      [
        "▁ins",
        "an"
      ],
      [
        "d",
        "en"
      ],
      [
        "▁dol",
        "arı"
      ],
      [
        "▁olma",
        "ya"
      ],
      [
        "▁son",
        "una"
      ],
      [
        "▁gos",
        "teri"
      ],
      [
        "▁yal",
        "nız"
      ],
      [
        "s",
        "en"
      ],
      [
        "▁sen",
        "t"
      ],
      [
        "las",
        "yon"
      ],
      [
        "▁h",
        "af"
      ],
      [
        "▁ger",
        "i"
      ],
      [
        "▁kuvv",
        "et"
      ],
      [
        "▁yay",
        "ın"
      ],
      [
        "▁sek",
        "er"
      ],
      [
        "ır",
        "dı"
      ],
      [
        "▁ha",
        "d"
      ],
      [
        "▁olma",
        "di"
      ],
      [
        "▁barda",
        "gı"
      ],
      [
        "▁mey",
        "ve"
      ],
      [
        "▁kar",
        "s"
      ],
      [
        "▁r",
        "enk"
      ],
      [
        "▁cam",
        "asır"
      ],
      [
        "an",
        "gi"
      ],
      [
        "▁faz",
        "l"
      ],
      [
        "cı",
        "lık"
      ],
      [
        "▁calis",
        "anlar"
      ],
      [
        "▁on",
        "unde"
      ],
      [
        "ilen",
        "dir"
      ],
      [
        "▁mik",
        "r"
      ],
      [
        "▁sey",
        "i"
      ],
      [
        "▁ba",
        "ba"
      ],
      [
        "▁do",
        "g"
      ],
      [
        "▁kur",
        "al"
      ],
      [
        "▁art",
        "ısı"
      ],
      [
        "▁s",
        "am"
      ],
      [
        "▁ha",
        "t"
      ],
      [
        "▁de",
        "st"
      ],
      [
        "eti",
        "c"
      ],
      [
        "▁co",
        "p"
      ],
      [
        "ar",
        "dı"
      ],
      [
        "▁alıs",
        "ver"
      ],
      [
        "lar",
        "dı"
      ],
      [
        "em",
        "em"
      ],
      [
        "o",
        "p"
      ],
      [
        "▁c",
        "o"
      ],
      [
        "▁",
        "c"
      ],
      [
        "el",
        "i"
      ],
      [
        "▁i",
        "yi"
      ],
      [
        "iz",
        "i"
      ],
      [
        "▁og",
        "le"
      ],
      [
        "▁b",
        "oy"
      ],
      [
        "da",
        "r"
      ],
      [
        "l",
        "am"
      ],
      [
        "▁po",
        "lit"
      ],
      [
        "ler",
        "in"
      ],
      [
        "▁cev",
        "re"
      ],
      [
        "▁yurt",
        "d"
      ],
      [
        "▁ev",
        "den"
      ],
      [
        "a",
        "l"
      ],
      [
        "▁oldu",
        "k"
      ],
      [
        "▁ka",
        "y"
      ],
      [
        "ar",
        "eti"
      ],
      [
        "▁ur",
        "un"
      ],
      [
        "▁civ",
        "arı"
      ],
      [
        "▁b",
        "ez"
      ],
      [
        "g",
        "ur"
      ],
      [
        "▁ba",
        "na"
      ],
      [
        "▁",
        "u"
      ],
      [
        "lig",
        "inde"
      ],
      [
        "▁kend",
        "i"
      ],
      [
        "▁huz",
        "ur"
      ],
      [
        "▁k",
        "oc"
      ],
      [
        "in",
        "ti"
      ],
      [
        "▁bil",
        "e"
      ],
      [
        "▁di",
        "n"
      ],
      [
        "a",
        "larına"
      ],
      [
        "▁dum",
        "an"
      ],
      [
        "▁on",
        "c"
      ],
      [
        "▁b",
        "uy"
      ],
      [
        "a",
        "at"
      ],
      [
        "▁yatırım",
        "cılar"
      ],
      [
        "'y",
        "e"
      ],
      [
        "ların",
        "da"
      ],
      [
        "▁c",
        "ent"
      ],
      [
        "▁dur",
        "um"
      ],
      [
        "▁ucus",
        "ların"
      ],
      [
        "▁c",
        "il"
      ],
      [
        "g",
        "al"
      ],
      [
        "▁m",
        "obil"
      ],
      [
        "ik",
        "a"
      ],
      [
        "▁kur",
        "t"
      ],
      [
        "r",
        "u"
      ],
      [
        "▁hast",
        "alık"
      ],
      [
        "▁yer",
        "den"
      ],
      [
        "▁yap",
        "ı"
      ],
      [
        "▁",
        "8"
      ],
      [
        "▁ih",
        "al"
      ],
      [
        "▁on",
        "u"
      ],
      [
        "▁z",
        "ih"
      ],
      [
        "▁mucade",
        "le"
      ],
      [
        "mes",
        "ine"
      ],
      [
        "▁s",
        "ist"
      ],
      [
        "▁tah",
        "ta"
      ],
      [
        "▁t",
        "ers"
      ],
      [
        "▁t",
        "as"
      ],
      [
        "▁al",
        "ım"
      ],
      [
        "▁g",
        "o"
      ],
      [
        "at",
        "ır"
      ],
      [
        "ra",
        "z"
      ],
      [
        "▁a",
        "mma"
      ],
      [
        "▁d",
        "ek"
      ],
      [
        "'",
        "ten"
      ],
      [
        "▁b",
        "ıy"
      ],
      [
        "5",
        "'"
      ],
      [
        "▁og",
        "ret"
      ],
      [
        "▁mas",
        "raf"
      ],
      [
        "▁b",
        "asından"
      ],
      [
        "▁kayı",
        "t"
      ],
      [
        "▁an",
        "ay"
      ],
      [
        "▁",
        "`"
      ],
      [
        "▁c",
        "eyr"
      ],
      [
        "▁olm",
        "ak"
      ],
      [
        "▁us",
        "t"
      ],
      [
        "▁yol",
        "cu"
      ],
      [
        "▁t",
        "av"
      ],
      [
        "▁ya",
        "l"
      ],
      [
        "▁mu",
        "da"
      ],
      [
        "e",
        "g"
      ],
      [
        "▁olm",
        "adıgını"
      ],
      [
        "▁du",
        "y"
      ],
      [
        "▁t",
        "el"
      ],
      [
        "▁b",
        "ol"
      ],
      [
        "▁b",
        "ug"
      ],
      [
        "us",
        "t"
      ],
      [
        "▁ey",
        "lul"
      ],
      [
        "▁es",
        "n"
      ],
      [
        "▁teknoloj",
        "i"
      ],
      [
        "u",
        "lu"
      ],
      [
        "▁r",
        "om"
      ],
      [
        "▁el",
        "em"
      ],
      [
        "▁ar",
        "a"
      ],
      [
        "▁g",
        "iy"
      ],
      [
        "m",
        "ek"
      ],
      [
        "▁sa",
        "r"
      ],
      [
        "or",
        "t"
      ],
      [
        "ust",
        "ur"
      ],
      [
        "▁alak",
        "a"
      ],
      [
        "▁ih",
        "t"
      ],
      [
        "▁kaz",
        "anc"
      ],
      [
        "▁deg",
        "il"
      ],
      [
        "▁se",
        "f"
      ],
      [
        "▁i",
        "k"
      ],
      [
        "men",
        "in"
      ],
      [
        "kt",
        "u"
      ],
      [
        "▁z",
        "ir"
      ],
      [
        "suz",
        "luk"
      ],
      [
        "▁mus",
        "t"
      ],
      [
        "en",
        "ek"
      ],
      [
        "h",
        "ut"
      ],
      [
        "▁",
        "/"
      ],
      [
        "▁sat",
        "ıs"
      ],
      [
        "▁kal",
        "dı"
      ],
      [
        "▁ben",
        "i"
      ],
      [
        "▁al",
        "ın"
      ],
      [
        "▁s",
        "onra"
      ],
      [
        "▁lez",
        "zet"
      ],
      [
        "▁yap",
        "mayı"
      ],
      [
        "h",
        "an"
      ],
      [
        "▁f",
        "ak"
      ],
      [
        "▁du",
        "sun"
      ],
      [
        "▁at",
        "es"
      ],
      [
        "▁az",
        "al"
      ],
      [
        "▁c",
        "ık"
      ],
      [
        "▁ar",
        "tık"
      ],
      [
        "lerin",
        "e"
      ],
      [
        "▁gon",
        "d"
      ],
      [
        "▁erk",
        "en"
      ],
      [
        "▁ann",
        "esi"
      ],
      [
        "c",
        "ının"
      ],
      [
        "▁e",
        "y"
      ],
      [
        "is",
        "le"
      ],
      [
        "i",
        "st"
      ],
      [
        "▁t",
        "iyatr"
      ],
      [
        "▁",
        "mak"
      ],
      [
        "▁s",
        "ap"
      ],
      [
        "in",
        "di"
      ],
      [
        "▁edeb",
        "iyat"
      ],
      [
        "l",
        "iye"
      ],
      [
        "us",
        "unda"
      ],
      [
        "▁.",
        "'"
      ],
      [
        "▁kayn",
        "ak"
      ],
      [
        "▁mevz",
        "u"
      ],
      [
        "▁bak",
        "an"
      ],
      [
        "▁m",
        "a"
      ],
      [
        "ların",
        "dan"
      ],
      [
        "ey",
        "i"
      ],
      [
        "▁yol",
        "da"
      ],
      [
        "▁taraf",
        "ı"
      ],
      [
        "▁19",
        "8"
      ],
      [
        "▁m",
        "ı"
      ],
      [
        "um",
        "un"
      ],
      [
        "▁num",
        "ara"
      ],
      [
        "'d",
        "an"
      ],
      [
        "▁orta",
        "lama"
      ],
      [
        "▁yat",
        "ırım"
      ],
      [
        "i",
        "ydi"
      ],
      [
        "im",
        "den"
      ],
      [
        "▁mu",
        "am"
      ],
      [
        "it",
        "e"
      ],
      [
        "lıg",
        "ını"
      ],
      [
        "t",
        "an"
      ],
      [
        "▁h",
        "enuz"
      ],
      [
        "▁s",
        "tr"
      ],
      [
        "▁kal",
        "k"
      ],
      [
        "▁a",
        "s"
      ],
      [
        "▁tek",
        "n"
      ],
      [
        "'",
        "den"
      ],
      [
        "et",
        "im"
      ],
      [
        "▁alt",
        "ından"
      ],
      [
        "▁kendi",
        "s"
      ],
      [
        "▁yar",
        "dım"
      ],
      [
        "▁mal",
        "z"
      ],
      [
        "▁tur",
        "ku"
      ],
      [
        "eg",
        "ini"
      ],
      [
        "▁s",
        "p"
      ],
      [
        "▁b",
        "i"
      ],
      [
        "u",
        "z"
      ],
      [
        "a",
        "li"
      ],
      [
        "▁cocuk",
        "ları"
      ],
      [
        "e",
        "k"
      ],
      [
        "▁",
        "&"
      ],
      [
        "man",
        "ın"
      ],
      [
        "▁do",
        "l"
      ],
      [
        "▁dost",
        "u"
      ],
      [
        "▁fiyat",
        "ina"
      ],
      [
        "▁heyec",
        "an"
      ],
      [
        "la",
        "ra"
      ],
      [
        "ist",
        "e"
      ],
      [
        "gun",
        "luk"
      ],
      [
        "umuz",
        "de"
      ],
      [
        "▁k",
        "om"
      ],
      [
        "▁ucret",
        "e"
      ],
      [
        "▁a",
        "qu"
      ],
      [
        "▁di",
        "z"
      ],
      [
        "▁coc",
        "uklu"
      ],
      [
        "ra",
        "da"
      ],
      [
        "▁ay",
        "d"
      ],
      [
        "▁yok",
        "sa"
      ],
      [
        "ı",
        "m"
      ],
      [
        "▁d",
        "iz"
      ],
      [
        "▁tahvil",
        "ler"
      ],
      [
        "▁",
        "3"
      ],
      [
        "ad",
        "em"
      ],
      [
        "u",
        "t"
      ],
      [
        "▁m",
        "o"
      ],
      [
        "em",
        "e"
      ],
      [
        "▁ph",
        "il"
      ],
      [
        "ans",
        "iyon"
      ],
      [
        "▁soz",
        "les"
      ],
      [
        "▁eg",
        "er"
      ],
      [
        "▁if",
        "las"
      ],
      [
        "eceg",
        "im"
      ],
      [
        "a",
        "h"
      ],
      [
        "▁num",
        "ar"
      ],
      [
        "▁ha",
        "f"
      ],
      [
        "▁dev",
        "let"
      ],
      [
        "▁par",
        "c"
      ],
      [
        "se",
        "f"
      ],
      [
        "ıg",
        "ını"
      ],
      [
        "▁must",
        "eri"
      ],
      [
        "n",
        "et"
      ],
      [
        "▁go",
        "z"
      ],
      [
        "▁",
        "ust"
      ],
      [
        "▁hab",
        "eri"
      ],
      [
        "▁oda",
        "m"
      ],
      [
        "▁ka",
        "r"
      ],
      [
        "▁c",
        "ars"
      ],
      [
        "i",
        "ler"
      ],
      [
        "▁ak",
        "lı"
      ],
      [
        "▁t",
        "urk"
      ],
      [
        "▁bey",
        "le"
      ],
      [
        "dıg",
        "ın"
      ],
      [
        "y",
        "alar"
      ],
      [
        "▁s",
        "in"
      ],
      [
        "▁hav",
        "al"
      ],
      [
        "▁",
        "“"
      ],
      [
        "sa",
        "m"
      ],
      [
        "▁",
        "unu"
      ],
      [
        "▁",
        "lak"
      ],
      [
        "anın",
        "dan"
      ],
      [
        "▁id",
        "ar"
      ],
      [
        "▁t",
        "ır"
      ],
      [
        "▁lu",
        "t"
      ],
      [
        "▁de",
        "de"
      ],
      [
        "▁s",
        "uya"
      ],
      [
        "▁ko",
        "t"
      ],
      [
        "▁edi",
        "l"
      ],
      [
        "▁b",
        "uc"
      ],
      [
        "en",
        "de"
      ],
      [
        "'n",
        "un"
      ],
      [
        "makt",
        "an"
      ],
      [
        "eg",
        "i"
      ],
      [
        "in",
        "ce"
      ],
      [
        "▁m",
        "es"
      ],
      [
        "l",
        "in"
      ],
      [
        "edi",
        "yor"
      ],
      [
        "▁in",
        "s"
      ],
      [
        "d",
        "aki"
      ],
      [
        "▁s",
        "en"
      ],
      [
        "▁sin",
        "ir"
      ],
      [
        "imiz",
        "i"
      ],
      [
        "▁b",
        "eb"
      ],
      [
        "▁gars",
        "on"
      ],
      [
        "▁t",
        "edav"
      ],
      [
        "iz",
        "asyon"
      ],
      [
        "ıl",
        "ı"
      ],
      [
        "▁c",
        "el"
      ],
      [
        "er",
        "s"
      ],
      [
        "▁hal",
        "i"
      ],
      [
        "▁b",
        "ey"
      ],
      [
        "▁og",
        "lum"
      ],
      [
        "di",
        "m"
      ],
      [
        "▁sil",
        "ah"
      ],
      [
        "▁bar",
        "dak"
      ],
      [
        "▁kal",
        "it"
      ],
      [
        "ir",
        "ler"
      ],
      [
        "▁fel",
        "aket"
      ],
      [
        "l",
        "en"
      ],
      [
        "▁polit",
        "ika"
      ],
      [
        "▁g",
        "em"
      ],
      [
        "▁b",
        "uz"
      ],
      [
        "is",
        "k"
      ],
      [
        "▁onc",
        "eki"
      ],
      [
        "▁tal",
        "eb"
      ],
      [
        "▁yetkili",
        "leri"
      ],
      [
        "▁bu",
        "gun"
      ],
      [
        "▁k",
        "a"
      ],
      [
        "▁dur",
        "us"
      ],
      [
        "▁beg",
        "en"
      ],
      [
        "▁mer",
        "k"
      ],
      [
        "▁ak",
        "r"
      ],
      [
        "▁",
        "il"
      ],
      [
        "ak",
        "lı"
      ],
      [
        "▁k",
        "ı"
      ],
      [
        "▁kur",
        "ulu"
      ],
      [
        "▁",
        "edi"
      ],
      [
        "lay",
        "an"
      ],
      [
        "ru",
        "f"
      ],
      [
        "d",
        "ıgını"
      ],
      [
        "▁el",
        "e"
      ],
      [
        "▁du",
        "r"
      ],
      [
        "at",
        "lı"
      ],
      [
        "▁s",
        "at"
      ],
      [
        "▁d",
        "iger"
      ],
      [
        "ra",
        "f"
      ],
      [
        "i",
        "si"
      ],
      [
        "▁ted",
        "bir"
      ],
      [
        "▁eg",
        "it"
      ],
      [
        "▁b",
        "ah"
      ],
      [
        "▁kul",
        "ub"
      ],
      [
        "▁sermay",
        "e"
      ],
      [
        "▁bask",
        "anı"
      ],
      [
        "▁ediyor",
        "um"
      ],
      [
        "▁muh",
        "al"
      ],
      [
        "▁t",
        "ay"
      ],
      [
        "▁u",
        "m"
      ],
      [
        "ma",
        "dıgını"
      ],
      [
        "l",
        "at"
      ],
      [
        "▁t",
        "ur"
      ],
      [
        "▁dem",
        "ir"
      ],
      [
        "▁ort",
        "adan"
      ],
      [
        "▁ma",
        "il"
      ],
      [
        "g",
        "an"
      ],
      [
        "▁duz",
        "ey"
      ],
      [
        "▁yardım",
        "cısı"
      ],
      [
        "▁port",
        "f"
      ],
      [
        "▁ay",
        "da"
      ],
      [
        "▁deg",
        "istir"
      ],
      [
        "▁h",
        "ar"
      ],
      [
        "s",
        "ın"
      ],
      [
        "sın",
        "ız"
      ],
      [
        "da",
        "l"
      ],
      [
        "▁se",
        "k"
      ],
      [
        "▁or",
        "man"
      ],
      [
        "▁am",
        "erik"
      ],
      [
        "▁en",
        "d"
      ],
      [
        "▁1",
        "9"
      ],
      [
        "ır",
        "ım"
      ],
      [
        "▁yard",
        "imci"
      ],
      [
        "▁ist",
        "em"
      ],
      [
        "▁il",
        "iski"
      ],
      [
        "un",
        "uz"
      ],
      [
        "medi",
        "m"
      ],
      [
        "l",
        "ıc"
      ],
      [
        "▁il",
        "gi"
      ],
      [
        "▁g",
        "uler"
      ],
      [
        "▁sını",
        "f"
      ],
      [
        "ay",
        "a"
      ],
      [
        "▁sık",
        "ınt"
      ],
      [
        "▁bol",
        "umu"
      ],
      [
        "c",
        "i"
      ],
      [
        "▁k",
        "o"
      ],
      [
        "ay",
        "ı"
      ],
      [
        "▁",
        "ik"
      ],
      [
        "▁da",
        "ir"
      ],
      [
        "▁sınıf",
        "ı"
      ],
      [
        "'t",
        "en"
      ],
      [
        "il",
        "mesi"
      ],
      [
        "▁ko",
        "ku"
      ],
      [
        "ın",
        "a"
      ],
      [
        "on",
        "u"
      ],
      [
        "▁ark",
        "ad"
      ],
      [
        "d",
        "ırım"
      ],
      [
        "ın",
        "ı"
      ],
      [
        "len",
        "dir"
      ],
      [
        "▁par",
        "mak"
      ],
      [
        "ını",
        "z"
      ],
      [
        "▁az",
        "di"
      ],
      [
        "▁pat",
        "lıc"
      ],
      [
        "▁cer",
        "cev"
      ],
      [
        "▁kat",
        "k"
      ],
      [
        "er",
        "ans"
      ],
      [
        "l",
        "eri"
      ],
      [
        "▁ha",
        "p"
      ],
      [
        "▁",
        "ekl"
      ],
      [
        "▁dor",
        "tluk"
      ],
      [
        "▁imkanlar",
        "i"
      ],
      [
        "m",
        "ıyor"
      ],
      [
        "▁orne",
        "gin"
      ],
      [
        "m",
        "ust"
      ],
      [
        "▁pil",
        "ot"
      ],
      [
        "asın",
        "a"
      ],
      [
        "▁",
        "ol"
      ],
      [
        "is",
        "im"
      ],
      [
        "lerimiz",
        "i"
      ],
      [
        "▁olm",
        "a"
      ],
      [
        "▁bab",
        "a"
      ],
      [
        "▁tartıs",
        "ma"
      ],
      [
        "asın",
        "ı"
      ],
      [
        "▁in",
        "ter"
      ],
      [
        "m",
        "aya"
      ],
      [
        "ır",
        "tı"
      ],
      [
        "t",
        "er"
      ],
      [
        "▁k",
        "il"
      ],
      [
        "▁donem",
        "inde"
      ],
      [
        "▁",
        "den"
      ],
      [
        "▁muh",
        "af"
      ],
      [
        "▁fir",
        "st"
      ],
      [
        "▁tem",
        "sil"
      ],
      [
        "must",
        "u"
      ],
      [
        "i",
        "de"
      ],
      [
        "▁ek",
        "sik"
      ],
      [
        "▁lez",
        "z"
      ],
      [
        "un",
        "e"
      ],
      [
        "▁ed",
        "en"
      ],
      [
        "▁ger",
        "cek"
      ],
      [
        "▁o",
        "lu"
      ],
      [
        "▁ben",
        "z"
      ],
      [
        "▁t",
        "enc"
      ],
      [
        "▁k",
        "es"
      ],
      [
        "▁tes",
        "ekkur"
      ],
      [
        "▁ark",
        "asından"
      ],
      [
        "ma",
        "m"
      ],
      [
        "▁der",
        "gi"
      ],
      [
        "▁adam",
        "ı"
      ],
      [
        "▁alama",
        "dim"
      ],
      [
        "ar",
        "ın"
      ],
      [
        "t",
        "ıg"
      ],
      [
        "▁karsı",
        "lık"
      ],
      [
        "il",
        "en"
      ],
      [
        "n",
        "ak"
      ],
      [
        "▁her",
        "hangi"
      ],
      [
        "▁personel",
        "lerinden"
      ],
      [
        "▁kel",
        "ime"
      ],
      [
        "ad",
        "e"
      ],
      [
        "b",
        "ası"
      ],
      [
        "▁org",
        "an"
      ],
      [
        "d",
        "a"
      ],
      [
        "▁t",
        "ucc"
      ],
      [
        "▁sa",
        "l"
      ],
      [
        "d",
        "ı"
      ],
      [
        "lar",
        "ına"
      ],
      [
        "▁merkez",
        "ine"
      ],
      [
        "▁kr",
        "iz"
      ],
      [
        "▁m",
        "em"
      ],
      [
        "▁kon",
        "u"
      ],
      [
        "▁muh",
        "end"
      ],
      [
        "lar",
        "ın"
      ],
      [
        "▁p",
        "az"
      ],
      [
        "▁og",
        "ren"
      ],
      [
        "▁baz",
        "ı"
      ],
      [
        "ti",
        "v"
      ],
      [
        "▁s",
        "ub"
      ],
      [
        "▁y",
        "en"
      ],
      [
        "▁p",
        "aket"
      ],
      [
        "▁d",
        "uy"
      ],
      [
        "on",
        "om"
      ],
      [
        "▁sa",
        "at"
      ],
      [
        "▁gec",
        "ir"
      ],
      [
        "▁ic",
        "ra"
      ],
      [
        "e",
        "li"
      ],
      [
        "mas",
        "ız"
      ],
      [
        "▁t",
        "ed"
      ],
      [
        "▁kalit",
        "eye"
      ],
      [
        "▁da",
        "gıt"
      ],
      [
        "'",
        "tan"
      ],
      [
        "▁kar",
        "t"
      ],
      [
        "u",
        "ru"
      ],
      [
        "▁cun",
        "ku"
      ],
      [
        "▁sark",
        "ı"
      ],
      [
        "▁h",
        "at"
      ],
      [
        "▁",
        "mi"
      ],
      [
        "▁elektr",
        "ik"
      ],
      [
        "▁a",
        "n"
      ],
      [
        "▁katil",
        "mak"
      ],
      [
        "▁!",
        ".."
      ],
      [
        "▁",
        "ih"
      ],
      [
        "m",
        "ad"
      ],
      [
        "▁ail",
        "eler"
      ],
      [
        "▁d",
        "ik"
      ],
      [
        "am",
        "ın"
      ],
      [
        "q",
        "u"
      ],
      [
        "▁cık",
        "tı"
      ],
      [
        "▁ad",
        "ı"
      ],
      [
        "▁ip",
        "ot"
      ],
      [
        "▁kit",
        "ap"
      ],
      [
        "▁p",
        "ayı"
      ],
      [
        "▁tam",
        "am"
      ],
      [
        "▁",
        "m"
      ],
      [
        "▁z",
        "or"
      ],
      [
        "d",
        "o"
      ],
      [
        "▁",
        ","
      ],
      [
        "▁y",
        "oksa"
      ],
      [
        "▁y",
        "at"
      ],
      [
        "▁",
        "b"
      ],
      [
        "▁o",
        "z"
      ],
      [
        "ci",
        "leri"
      ],
      [
        "▁ol",
        "sun"
      ],
      [
        "▁o",
        "d"
      ],
      [
        "▁en",
        "gel"
      ],
      [
        "el",
        "di"
      ],
      [
        "iz",
        "di"
      ],
      [
        "▁g",
        "id"
      ],
      [
        "▁g",
        "e"
      ],
      [
        "▁",
        "as"
      ],
      [
        "am",
        "ba"
      ],
      [
        "▁d",
        "ol"
      ],
      [
        "ed",
        "ik"
      ],
      [
        "ız",
        "a"
      ],
      [
        "ı",
        "y"
      ],
      [
        "▁c",
        "ay"
      ],
      [
        "ız",
        "ı"
      ],
      [
        "de",
        "k"
      ],
      [
        "▁her",
        "k"
      ],
      [
        "▁ihr",
        "ac"
      ],
      [
        "▁haval",
        "im"
      ],
      [
        "▁piy",
        "as"
      ],
      [
        "m",
        "asından"
      ],
      [
        "▁o",
        "t"
      ],
      [
        "▁sekil",
        "de"
      ],
      [
        "is",
        "co"
      ],
      [
        "▁ka",
        "rar"
      ],
      [
        "▁personel",
        "ler"
      ],
      [
        "▁yıl",
        "da"
      ],
      [
        "n",
        "c"
      ],
      [
        "e",
        "c"
      ],
      [
        "▁a",
        "j"
      ],
      [
        "▁bi",
        "z"
      ],
      [
        "▁f",
        "il"
      ],
      [
        "ib",
        "er"
      ],
      [
        "▁i",
        "de"
      ],
      [
        "▁",
        "ir"
      ],
      [
        "▁",
        "el"
      ],
      [
        "▁uz",
        "man"
      ],
      [
        "k",
        "i"
      ],
      [
        "y",
        "as"
      ],
      [
        "▁s",
        "ek"
      ],
      [
        "▁b",
        "ab"
      ],
      [
        "cı",
        "lar"
      ],
      [
        "▁satıs",
        "ları"
      ],
      [
        "▁ic",
        "inde"
      ],
      [
        "▁bi",
        "t"
      ],
      [
        "▁hik",
        "ay"
      ],
      [
        "▁kor",
        "ku"
      ],
      [
        "▁b",
        "uf"
      ],
      [
        "▁her",
        "if"
      ],
      [
        "▁franc",
        "isco"
      ],
      [
        "▁cog",
        "u"
      ],
      [
        "▁c",
        "ag"
      ],
      [
        "l",
        "ek"
      ],
      [
        "▁say",
        "f"
      ],
      [
        "▁ist",
        "e"
      ],
      [
        "▁grub",
        "u"
      ],
      [
        "▁n",
        "um"
      ],
      [
        "▁bi",
        "raz"
      ],
      [
        "▁al",
        "b"
      ],
      [
        "a",
        "cak"
      ],
      [
        "lan",
        "dır"
      ],
      [
        "u",
        "v"
      ],
      [
        "er",
        "n"
      ],
      [
        "▁ka",
        "l"
      ],
      [
        "'",
        "ye"
      ],
      [
        "'",
        "y"
      ],
      [
        "▁as",
        "ag"
      ],
      [
        "▁ayn",
        "ı"
      ],
      [
        "▁elb",
        "ise"
      ],
      [
        "▁k",
        "em"
      ],
      [
        "▁m",
        "ey"
      ],
      [
        "▁y",
        "ine"
      ],
      [
        "ah",
        "at"
      ],
      [
        "▁b",
        "ul"
      ],
      [
        "▁f",
        "ik"
      ],
      [
        "▁ban",
        "k"
      ],
      [
        "▁f",
        "ot"
      ],
      [
        "ec",
        "egini"
      ],
      [
        "▁de",
        "mek"
      ],
      [
        "u",
        "p"
      ],
      [
        "▁kon",
        "gre"
      ],
      [
        "▁g",
        "al"
      ],
      [
        "as",
        "h"
      ],
      [
        "▁k",
        "ars"
      ],
      [
        "▁en",
        "f"
      ],
      [
        "▁d",
        "i"
      ],
      [
        "▁yet",
        "er"
      ],
      [
        "makta",
        "dır"
      ],
      [
        "▁yag",
        "mur"
      ],
      [
        "▁sek",
        "il"
      ],
      [
        "▁im",
        "al"
      ],
      [
        "lam",
        "ası"
      ],
      [
        "▁kan",
        "un"
      ],
      [
        "▁.",
        ")"
      ],
      [
        "▁b",
        "or"
      ],
      [
        "▁siy",
        "aset"
      ],
      [
        "▁doları",
        "'ndan"
      ],
      [
        "im",
        "ci"
      ],
      [
        "a",
        "s"
      ],
      [
        "▁sahip",
        "leri"
      ],
      [
        "lem",
        "ek"
      ],
      [
        "▁",
        "st"
      ],
      [
        "▁da",
        "y"
      ],
      [
        "▁say",
        "ısı"
      ],
      [
        "dıg",
        "ını"
      ],
      [
        "ıs",
        "ız"
      ],
      [
        "▁ko",
        "v"
      ],
      [
        "▁far",
        "k"
      ],
      [
        "▁goz",
        "e"
      ],
      [
        "▁ha",
        "st"
      ],
      [
        "er",
        "e"
      ],
      [
        "▁gun",
        "duz"
      ],
      [
        "▁k",
        "av"
      ],
      [
        "ed",
        "i"
      ],
      [
        "m",
        "i"
      ],
      [
        "g",
        "ıc"
      ],
      [
        "▁o",
        "da"
      ],
      [
        "um",
        "u"
      ],
      [
        "▁im",
        "z"
      ],
      [
        "▁ki",
        "si"
      ],
      [
        "ek",
        "et"
      ],
      [
        "is",
        "inde"
      ],
      [
        "▁u",
        "y"
      ],
      [
        "▁ta",
        "n"
      ],
      [
        "▁",
        "eg"
      ],
      [
        "▁def",
        "a"
      ],
      [
        "▁ak",
        "l"
      ],
      [
        "es",
        "inde"
      ],
      [
        "si",
        "z"
      ],
      [
        "▁dedi",
        "m"
      ],
      [
        "▁sa",
        "h"
      ],
      [
        "▁ko",
        "p"
      ],
      [
        "▁a",
        "d"
      ],
      [
        "▁biz",
        "e"
      ],
      [
        "mes",
        "ini"
      ],
      [
        "▁uc",
        "uz"
      ],
      [
        "gi",
        "li"
      ],
      [
        "en",
        "i"
      ],
      [
        "▁sef",
        "er"
      ],
      [
        "al",
        "i"
      ],
      [
        "▁g",
        "enc"
      ],
      [
        "▁if",
        "ade"
      ],
      [
        "▁d",
        "ir"
      ],
      [
        "▁et",
        "me"
      ],
      [
        "▁$",
        "'a"
      ],
      [
        "▁b",
        "alık"
      ],
      [
        "▁kum",
        "ar"
      ],
      [
        "▁dolar",
        "lık"
      ],
      [
        "▁ist",
        "asyon"
      ],
      [
        "▁ipot",
        "ek"
      ],
      [
        "▁",
        "ec"
      ],
      [
        "c",
        "ılık"
      ],
      [
        "iy",
        "i"
      ],
      [
        "▁y",
        "ıl"
      ],
      [
        "00",
        "0"
      ],
      [
        "▁baltimore",
        "'ye"
      ],
      [
        "ı",
        "lı"
      ],
      [
        "▁am",
        "c"
      ],
      [
        "s",
        "iyon"
      ],
      [
        "▁zaman",
        "larda"
      ],
      [
        "ci",
        "h"
      ],
      [
        "▁yuk",
        "sel"
      ],
      [
        "▁bil",
        "et"
      ],
      [
        "▁anket",
        "e"
      ],
      [
        "▁se",
        "c"
      ],
      [
        "▁u",
        "gr"
      ],
      [
        "dı",
        "gın"
      ],
      [
        "ed",
        "ir"
      ],
      [
        "mı",
        "s"
      ],
      [
        "▁ya",
        "s"
      ],
      [
        "▁di",
        "k"
      ],
      [
        "▁yemek",
        "lerin"
      ],
      [
        "st",
        "on"
      ],
      [
        "ey",
        "r"
      ],
      [
        "▁ver",
        "gi"
      ],
      [
        "▁dog",
        "um"
      ],
      [
        "▁tem",
        "el"
      ],
      [
        "eler",
        "le"
      ],
      [
        "▁is",
        "ci"
      ],
      [
        "ı",
        "stır"
      ],
      [
        "▁p",
        "it"
      ],
      [
        "▁bor",
        "c"
      ],
      [
        "▁or",
        "g"
      ],
      [
        "l",
        "arı"
      ],
      [
        "▁is",
        "t"
      ],
      [
        "▁d",
        "uz"
      ],
      [
        "i",
        "ki"
      ],
      [
        "▁soy",
        "ley"
      ],
      [
        "▁8",
        "'den"
      ],
      [
        "▁ar",
        "z"
      ],
      [
        "▁oda",
        "da"
      ],
      [
        "er",
        "al"
      ],
      [
        "▁ar",
        "d"
      ],
      [
        "▁acık",
        "lam"
      ],
      [
        "▁b",
        "r"
      ],
      [
        "▁bir",
        "i"
      ],
      [
        "▁m",
        "ide"
      ],
      [
        "lan",
        "d"
      ],
      [
        "▁c",
        "alı"
      ],
      [
        "i",
        "gi"
      ],
      [
        "▁cih",
        "az"
      ],
      [
        "a",
        "ma"
      ],
      [
        "ma",
        "y"
      ],
      [
        "▁kom",
        "ut"
      ],
      [
        "mes",
        "i"
      ],
      [
        "▁orn",
        "ek"
      ],
      [
        "▁b",
        "ut"
      ],
      [
        "▁etti",
        "m"
      ],
      [
        "▁l",
        "ez"
      ],
      [
        "▁belir",
        "t"
      ],
      [
        "ı",
        "r"
      ],
      [
        "▁f",
        "as"
      ],
      [
        "▁ya",
        "hut"
      ],
      [
        "▁ur",
        "etici"
      ],
      [
        "▁ceyr",
        "ek"
      ],
      [
        "▁hey",
        "ec"
      ],
      [
        "e",
        "yle"
      ],
      [
        "▁it",
        "ibar"
      ],
      [
        "▁go",
        "ster"
      ],
      [
        "▁ar",
        "t"
      ],
      [
        "m",
        "uz"
      ],
      [
        "ay",
        "acagını"
      ],
      [
        "▁otel",
        "de"
      ],
      [
        "▁o",
        "lan"
      ],
      [
        "▁m",
        "al"
      ],
      [
        "▁po",
        "tansiy"
      ],
      [
        "▁z",
        "ev"
      ],
      [
        "▁es",
        "k"
      ],
      [
        "▁cumhur",
        "iyet"
      ],
      [
        "s",
        "ka"
      ],
      [
        "▁o",
        "dan"
      ],
      [
        "▁es",
        "er"
      ],
      [
        "h",
        "angi"
      ],
      [
        "▁d",
        "eg"
      ],
      [
        "l",
        "erin"
      ],
      [
        "▁yap",
        "ti"
      ],
      [
        "▁de",
        "n"
      ],
      [
        "en",
        "uz"
      ],
      [
        "▁amer",
        "ik"
      ],
      [
        "▁l",
        "ob"
      ],
      [
        "l",
        "ı"
      ],
      [
        "t",
        "tı"
      ],
      [
        "▁f",
        "ir"
      ],
      [
        "▁haz",
        "ır"
      ],
      [
        "y",
        "uzlu"
      ],
      [
        "i",
        "ka"
      ],
      [
        "▁f",
        "el"
      ],
      [
        "ge",
        "r"
      ],
      [
        "▁t",
        "op"
      ],
      [
        "▁m",
        "ag"
      ],
      [
        "est",
        "iri"
      ],
      [
        "ey",
        "le"
      ],
      [
        "s",
        "i"
      ],
      [
        "▁potansiy",
        "el"
      ],
      [
        "▁",
        "ay"
      ],
      [
        "▁uy",
        "gun"
      ],
      [
        "▁p",
        "la"
      ],
      [
        "▁bo",
        "s"
      ],
      [
        "el",
        "er"
      ],
      [
        "l",
        "iydi"
      ],
      [
        "▁ka",
        "h"
      ],
      [
        "▁od",
        "asına"
      ],
      [
        "▁kadın",
        "lar"
      ],
      [
        "▁guzel",
        "lik"
      ],
      [
        "▁s",
        "ip"
      ],
      [
        "mey",
        "e"
      ],
      [
        "a",
        "'nın"
      ],
      [
        "▁do",
        "s"
      ],
      [
        "▁aileler",
        "e"
      ],
      [
        "▁devr",
        "alma"
      ],
      [
        "▁",
        "y"
      ],
      [
        "▁",
        "man"
      ],
      [
        "▁dus",
        "us"
      ],
      [
        "▁muhaf",
        "az"
      ],
      [
        "▁de",
        "pr"
      ],
      [
        "▁havaal",
        "anından"
      ],
      [
        "▁ulk",
        "e"
      ],
      [
        "▁b",
        "az"
      ],
      [
        "la",
        "mıs"
      ],
      [
        "▁oda",
        "lari"
      ],
      [
        "▁kar",
        "ıs"
      ],
      [
        "▁dah",
        "i"
      ],
      [
        "▁il",
        "ac"
      ],
      [
        "▁on",
        "ay"
      ],
      [
        "lar",
        "ını"
      ],
      [
        "di",
        "r"
      ],
      [
        "ad",
        "an"
      ],
      [
        "▁ka",
        "c"
      ],
      [
        "▁ha",
        "ber"
      ],
      [
        "▁katk",
        "ıda"
      ],
      [
        "um",
        "a"
      ],
      [
        "▁b",
        "ede"
      ],
      [
        "▁ayr",
        "ıl"
      ],
      [
        "▁z",
        "ar"
      ],
      [
        "▁lezz",
        "et"
      ],
      [
        "▁oldu",
        "gunu"
      ],
      [
        "▁s",
        "ark"
      ],
      [
        "▁sır",
        "asında"
      ],
      [
        "dıgın",
        "da"
      ],
      [
        "ı",
        "ya"
      ],
      [
        "▁ihtiyac",
        "ım"
      ],
      [
        "ir",
        "i"
      ],
      [
        "eti",
        "ci"
      ],
      [
        "▁yıld",
        "ız"
      ],
      [
        "▁oy",
        "n"
      ],
      [
        "▁kot",
        "uydu"
      ],
      [
        "as",
        "a"
      ],
      [
        "▁s",
        "iy"
      ],
      [
        "▁ust",
        "une"
      ],
      [
        "▁en",
        "er"
      ],
      [
        "▁oda",
        "dan"
      ],
      [
        "as",
        "ı"
      ],
      [
        "▁gi",
        "y"
      ],
      [
        "▁da",
        "r"
      ],
      [
        "u",
        "st"
      ],
      [
        "o",
        "'ya"
      ],
      [
        "▁a",
        "ttı"
      ],
      [
        "▁sorum",
        "luluk"
      ],
      [
        "in",
        "iz"
      ],
      [
        "li",
        "g"
      ],
      [
        "in",
        "de"
      ],
      [
        "▁d",
        "um"
      ],
      [
        "▁alan",
        "da"
      ],
      [
        "▁boston",
        "'dan"
      ],
      [
        "▁kon",
        "uyu"
      ],
      [
        "▁al",
        "ay"
      ],
      [
        "ar",
        "i"
      ],
      [
        "st",
        "ım"
      ],
      [
        "▁s",
        "es"
      ],
      [
        "▁yan",
        "l"
      ],
      [
        "▁u",
        "r"
      ],
      [
        "▁s",
        "aat"
      ],
      [
        "▁sen",
        "etleri"
      ],
      [
        "▁r",
        "af"
      ],
      [
        "▁m",
        "uh"
      ],
      [
        "▁uc",
        "uyor"
      ],
      [
        "▁g",
        "eldi"
      ],
      [
        "▁yat",
        "ak"
      ],
      [
        "▁el",
        "inden"
      ],
      [
        "▁ter",
        "cih"
      ],
      [
        "▁y",
        "arı"
      ],
      [
        "▁yal",
        "n"
      ],
      [
        "▁konum",
        "unu"
      ],
      [
        "l",
        "es"
      ],
      [
        "el",
        "im"
      ],
      [
        "ların",
        "a"
      ],
      [
        "anın",
        "ın"
      ],
      [
        "lar",
        "i"
      ],
      [
        "▁k",
        "ur"
      ],
      [
        "ların",
        "ı"
      ],
      [
        "▁tez",
        "gah"
      ],
      [
        "▁t",
        "en"
      ],
      [
        "▁end",
        "ise"
      ],
      [
        "▁o",
        "v"
      ],
      [
        "▁kurul",
        "us"
      ],
      [
        "em",
        "be"
      ],
      [
        "▁sur",
        "u"
      ],
      [
        "on",
        "el"
      ],
      [
        "▁",
        "ul"
      ],
      [
        "ma",
        "lı"
      ],
      [
        "s",
        "uz"
      ],
      [
        "▁otob",
        "us"
      ],
      [
        "▁at",
        "lan"
      ],
      [
        "st",
        "u"
      ],
      [
        "▁h",
        "ic"
      ],
      [
        "▁ode",
        "me"
      ],
      [
        "▁kad",
        "ın"
      ],
      [
        "▁k",
        "al"
      ],
      [
        "▁h",
        "atır"
      ],
      [
        "r",
        "af"
      ],
      [
        "▁istif",
        "a"
      ],
      [
        "▁h",
        "a"
      ],
      [
        "▁r",
        "ed"
      ],
      [
        "▁a",
        "f"
      ],
      [
        "▁di",
        "yor"
      ],
      [
        "c",
        "ut"
      ],
      [
        "▁bur",
        "n"
      ],
      [
        "▁ha",
        "kk"
      ],
      [
        "▁s",
        "oy"
      ],
      [
        "i",
        "n"
      ],
      [
        "▁r",
        "uh"
      ],
      [
        "▁gun",
        "de"
      ],
      [
        "▁o",
        "p"
      ],
      [
        "▁nok",
        "t"
      ],
      [
        "ec",
        "ilik"
      ],
      [
        "▁",
        "ed"
      ],
      [
        "ur",
        "du"
      ],
      [
        "▁sirk",
        "eti"
      ],
      [
        "▁ac",
        "ıl"
      ],
      [
        "▁def",
        "ter"
      ],
      [
        "▁hayat",
        "ın"
      ],
      [
        "▁s",
        "ez"
      ],
      [
        "m",
        "anı"
      ],
      [
        "▁gel",
        "ir"
      ],
      [
        "▁gel",
        "istir"
      ],
      [
        "▁y",
        "a"
      ],
      [
        "le",
        "y"
      ],
      [
        "e",
        "den"
      ],
      [
        "▁ev",
        "in"
      ],
      [
        "▁t",
        "at"
      ],
      [
        "'",
        "un"
      ],
      [
        "▁ulas",
        "ım"
      ],
      [
        "sin",
        "iz"
      ],
      [
        "▁oyun",
        "c"
      ],
      [
        "▁d",
        "ig"
      ],
      [
        "▁oak",
        "land"
      ],
      [
        "d",
        "e"
      ],
      [
        "▁s",
        "uy"
      ],
      [
        "▁bic",
        "imde"
      ],
      [
        "▁cocuk",
        "lar"
      ],
      [
        "▁ar",
        "asındaki"
      ],
      [
        "▁f",
        "ır"
      ],
      [
        "▁son",
        "uc"
      ],
      [
        "▁gor",
        "un"
      ],
      [
        "e",
        "dir"
      ],
      [
        "▁i",
        "b"
      ],
      [
        "▁da",
        "ha"
      ],
      [
        "▁fiyat",
        "lar"
      ],
      [
        "g",
        "ın"
      ],
      [
        "▁is",
        "tik"
      ],
      [
        "▁kay",
        "n"
      ],
      [
        "▁b",
        "irim"
      ],
      [
        "lık",
        "ta"
      ],
      [
        "li",
        "k"
      ],
      [
        "k",
        "ul"
      ],
      [
        "di",
        "g"
      ],
      [
        "larım",
        "ı"
      ],
      [
        "ak",
        "ları"
      ],
      [
        "▁gu",
        "m"
      ],
      [
        "c",
        "ısı"
      ],
      [
        "▁yen",
        "iden"
      ],
      [
        "▁kur",
        "taj"
      ],
      [
        "▁h",
        "o"
      ],
      [
        "us",
        "tu"
      ],
      [
        "▁piyas",
        "aya"
      ],
      [
        "ed",
        "ig"
      ],
      [
        "▁p",
        "u"
      ],
      [
        "▁hak",
        "k"
      ],
      [
        "er",
        "di"
      ],
      [
        "i",
        "j"
      ],
      [
        "ler",
        "di"
      ],
      [
        "▁ag",
        "ız"
      ],
      [
        "▁islem",
        "lerinde"
      ],
      [
        "▁ot",
        "om"
      ],
      [
        "mı",
        "stı"
      ],
      [
        "▁a",
        "rada"
      ],
      [
        "▁gor",
        "ev"
      ],
      [
        "i",
        "bi"
      ],
      [
        "▁yan",
        "ıt"
      ],
      [
        "▁kıymet",
        "ler"
      ],
      [
        "▁saat",
        "lerinde"
      ],
      [
        "▁fir",
        "ma"
      ],
      [
        "▁da",
        "g"
      ],
      [
        "▁kosul",
        "ları"
      ],
      [
        "▁hizmet",
        "leri"
      ],
      [
        "lig",
        "inin"
      ],
      [
        "t",
        "igi"
      ],
      [
        "▁ya",
        "n"
      ],
      [
        "▁ka",
        "dar"
      ],
      [
        "lıg",
        "ında"
      ],
      [
        "▁dog",
        "r"
      ],
      [
        "▁m",
        "us"
      ],
      [
        "▁s",
        "ans"
      ],
      [
        "lı",
        "c"
      ],
      [
        "▁cumhur",
        "b"
      ],
      [
        "▁neden",
        "i"
      ],
      [
        "▁rek",
        "or"
      ],
      [
        "l",
        "ug"
      ],
      [
        "▁pat",
        "ates"
      ],
      [
        "▁k",
        "end"
      ],
      [
        "▁f",
        "ay"
      ],
      [
        "▁kal",
        "b"
      ],
      [
        "ler",
        "e"
      ],
      [
        "▁so",
        "y"
      ],
      [
        "▁in",
        "an"
      ],
      [
        "▁h",
        "es"
      ],
      [
        "▁ag",
        "ustos"
      ],
      [
        "ın",
        "t"
      ],
      [
        "e",
        "m"
      ],
      [
        "▁y",
        "iy"
      ],
      [
        "e",
        "b"
      ],
      [
        "▁enf",
        "lasyon"
      ],
      [
        "▁",
        "r"
      ],
      [
        "▁s",
        "ını"
      ],
      [
        "▁ar",
        "ası"
      ],
      [
        "▁k",
        "ız"
      ],
      [
        "d",
        "al"
      ],
      [
        "▁ol",
        "anlar"
      ],
      [
        "ey",
        "im"
      ],
      [
        "▁bas",
        "bak"
      ],
      [
        "▁gey",
        "ik"
      ],
      [
        "ev",
        "iz"
      ],
      [
        "▁d",
        "or"
      ],
      [
        "▁s",
        "em"
      ],
      [
        "▁",
        "*"
      ],
      [
        "ma",
        "ya"
      ],
      [
        "ul",
        "t"
      ],
      [
        "▁c",
        "in"
      ],
      [
        "l",
        "ge"
      ],
      [
        "▁merdiv",
        "en"
      ],
      [
        "▁d",
        "og"
      ],
      [
        "▁m",
        "an"
      ],
      [
        "dug",
        "unu"
      ],
      [
        "l",
        "em"
      ],
      [
        "▁olan",
        "lar"
      ],
      [
        "yo",
        "r"
      ],
      [
        "ası",
        "l"
      ],
      [
        "▁ek",
        "ip"
      ],
      [
        "▁m",
        "ola"
      ],
      [
        "▁sır",
        "a"
      ],
      [
        "▁k",
        "ade"
      ],
      [
        "▁hal",
        "k"
      ],
      [
        "▁az",
        "ından"
      ],
      [
        "▁mal",
        "iyeti"
      ],
      [
        "▁piyas",
        "ada"
      ],
      [
        "a",
        "ların"
      ],
      [
        "▁soz",
        "cu"
      ],
      [
        "▁v",
        "ar"
      ],
      [
        "▁b",
        "it"
      ],
      [
        "▁c",
        "en"
      ],
      [
        "▁un",
        "ut"
      ],
      [
        "▁kası",
        "gı"
      ],
      [
        "iyat",
        "r"
      ],
      [
        "da",
        "m"
      ],
      [
        "▁in",
        "ce"
      ],
      [
        "ı",
        "l"
      ],
      [
        "▁el",
        "ine"
      ],
      [
        "▁bolg",
        "e"
      ],
      [
        "ade",
        "m"
      ],
      [
        "▁personel",
        "i"
      ],
      [
        "i",
        "d"
      ],
      [
        "im",
        "in"
      ],
      [
        "▁da",
        "k"
      ],
      [
        "▁insan",
        "ları"
      ],
      [
        "▁deg",
        "is"
      ],
      [
        "id",
        "ir"
      ],
      [
        "▁s",
        "i"
      ],
      [
        "a",
        "z"
      ],
      [
        "ik",
        "lik"
      ],
      [
        "▁ev",
        "ine"
      ],
      [
        "▁ger",
        "c"
      ],
      [
        "la",
        "y"
      ],
      [
        "▁deniz",
        "e"
      ],
      [
        "▁sar",
        "k"
      ],
      [
        "'",
        "in"
      ],
      [
        "0",
        "0"
      ],
      [
        "ın",
        "ız"
      ],
      [
        "t",
        "ik"
      ],
      [
        "ab",
        "et"
      ],
      [
        "▁il",
        "g"
      ],
      [
        "l",
        "i"
      ],
      [
        "b",
        "a"
      ],
      [
        "▁aktiv",
        "it"
      ],
      [
        "masın",
        "ın"
      ],
      [
        "▁an",
        "a"
      ],
      [
        "▁zor",
        "unda"
      ],
      [
        "▁f",
        "azla"
      ],
      [
        "im",
        "en"
      ],
      [
        "▁havaal",
        "anı"
      ],
      [
        "ka",
        "c"
      ],
      [
        "▁m",
        "az"
      ],
      [
        "em",
        "ek"
      ],
      [
        "▁merkez",
        "i"
      ],
      [
        "a",
        "t"
      ],
      [
        "▁c",
        "at"
      ],
      [
        "▁kad",
        "ının"
      ],
      [
        "▁ken",
        "di"
      ],
      [
        "▁",
        "ya"
      ],
      [
        "▁yap",
        "rak"
      ],
      [
        "ı",
        "gı"
      ],
      [
        "▁g",
        "er"
      ],
      [
        "▁ko",
        "tu"
      ],
      [
        "ın",
        "da"
      ],
      [
        "▁b",
        "on"
      ],
      [
        "▁im",
        "k"
      ],
      [
        "ıc",
        "ak"
      ],
      [
        "uy",
        "du"
      ],
      [
        "▁dusun",
        "ce"
      ],
      [
        "▁tak",
        "ip"
      ],
      [
        "▁bol",
        "g"
      ],
      [
        "er",
        "v"
      ],
      [
        "▁a",
        "k"
      ],
      [
        "▁il",
        "gil"
      ],
      [
        "l",
        "isi"
      ],
      [
        "▁tes",
        "isti"
      ],
      [
        "▁clas",
        "s"
      ],
      [
        "▁mektu",
        "p"
      ],
      [
        "▁",
        "un"
      ],
      [
        "▁k",
        "am"
      ],
      [
        "asın",
        "da"
      ],
      [
        "le",
        "r"
      ],
      [
        "▁un",
        "ivers"
      ],
      [
        "▁poz",
        "isyon"
      ],
      [
        "ecek",
        "ler"
      ],
      [
        "▁ya",
        "z"
      ],
      [
        "mı",
        "z"
      ],
      [
        "▁edi",
        "n"
      ],
      [
        "▁anal",
        "ist"
      ],
      [
        "must",
        "ur"
      ],
      [
        "▁s",
        "uc"
      ],
      [
        "an",
        "c"
      ],
      [
        "il",
        "mis"
      ],
      [
        "at",
        "a"
      ],
      [
        "▁deger",
        "lendir"
      ],
      [
        "▁in",
        "anc"
      ],
      [
        "▁listel",
        "e"
      ],
      [
        "▁is",
        "in"
      ],
      [
        "at",
        "ı"
      ],
      [
        "▁",
        "eger"
      ],
      [
        "▁sehr",
        "in"
      ],
      [
        "▁he",
        "p"
      ],
      [
        "▁ba",
        "k"
      ],
      [
        "▁ad",
        "ina"
      ],
      [
        "lik",
        "le"
      ],
      [
        "▁se",
        "m"
      ],
      [
        "▁kah",
        "v"
      ],
      [
        "▁",
        "ev"
      ],
      [
        "lerin",
        "de"
      ],
      [
        "▁se",
        "b"
      ],
      [
        "▁ist",
        "er"
      ],
      [
        "▁co",
        "z"
      ],
      [
        "▁s",
        "ey"
      ],
      [
        "▁dil",
        "im"
      ],
      [
        "▁bo",
        "ston"
      ],
      [
        "▁ya",
        "t"
      ],
      [
        "▁h",
        "em"
      ],
      [
        "▁tu",
        "k"
      ],
      [
        "▁oz",
        "el"
      ],
      [
        "▁de",
        "f"
      ],
      [
        "▁uy",
        "e"
      ],
      [
        "b",
        "iy"
      ],
      [
        "▁v",
        "at"
      ],
      [
        "▁k",
        "an"
      ],
      [
        "▁r",
        "ap"
      ],
      [
        "▁",
        "ıs"
      ],
      [
        "l",
        "ey"
      ],
      [
        "▁dıs",
        "arı"
      ],
      [
        "▁eks",
        "ik"
      ],
      [
        "▁b",
        "ak"
      ],
      [
        "▁u",
        "l"
      ],
      [
        "▁d",
        "ısı"
      ],
      [
        "▁n",
        "it"
      ],
      [
        "on",
        "t"
      ],
      [
        "▁aktiv",
        "ite"
      ],
      [
        "s",
        "izdi"
      ],
      [
        "am",
        "aları"
      ],
      [
        "k",
        "un"
      ],
      [
        "▁y",
        "em"
      ],
      [
        "▁ces",
        "aret"
      ],
      [
        "▁an",
        "cak"
      ],
      [
        "o",
        "y"
      ],
      [
        "▁sor",
        "ustur"
      ],
      [
        "▁art",
        "ır"
      ],
      [
        "c",
        "ok"
      ],
      [
        "▁ya",
        "sa"
      ],
      [
        "▁g",
        "eri"
      ],
      [
        "▁s",
        "esi"
      ],
      [
        "a",
        "da"
      ],
      [
        "▁uc",
        "ret"
      ],
      [
        "▁s",
        "ah"
      ],
      [
        "anı",
        "t"
      ],
      [
        "▁k",
        "ası"
      ],
      [
        "▁gidi",
        "yor"
      ],
      [
        "▁olcu",
        "de"
      ],
      [
        "il",
        "igini"
      ],
      [
        "lama",
        "sı"
      ],
      [
        "▁te",
        "n"
      ],
      [
        "▁bab",
        "am"
      ],
      [
        "▁so",
        "r"
      ],
      [
        "il",
        "i"
      ],
      [
        "▁zar",
        "ar"
      ],
      [
        "▁go",
        "nd"
      ],
      [
        "▁is",
        "leri"
      ],
      [
        "▁t",
        "ep"
      ],
      [
        "▁dig",
        "erleri"
      ],
      [
        "ey",
        "h"
      ],
      [
        "▁p",
        "il"
      ],
      [
        "iv",
        "ers"
      ],
      [
        "▁i",
        "y"
      ],
      [
        "ın",
        "dan"
      ],
      [
        "▁guc",
        "u"
      ],
      [
        "m",
        "anın"
      ],
      [
        "as",
        "ındaki"
      ],
      [
        "▁sist",
        "emi"
      ],
      [
        "▁",
        "ar"
      ],
      [
        "ay",
        "an"
      ],
      [
        "▁s",
        "id"
      ],
      [
        "▁s",
        "e"
      ],
      [
        "em",
        "iz"
      ],
      [
        "▁bo",
        "z"
      ],
      [
        "▁",
        "lik"
      ],
      [
        "▁dıs",
        "ı"
      ],
      [
        "▁kap",
        "as"
      ],
      [
        "▁f",
        "r"
      ],
      [
        "▁yen",
        "i"
      ],
      [
        "▁du",
        "s"
      ],
      [
        "mek",
        "t"
      ],
      [
        "▁ur",
        "eticisi"
      ],
      [
        "▁cal",
        "ıs"
      ],
      [
        "m",
        "isti"
      ],
      [
        "l",
        "e"
      ],
      [
        "▁d",
        "un"
      ],
      [
        "▁ol",
        "c"
      ],
      [
        "▁mes",
        "el"
      ],
      [
        "▁nef",
        "es"
      ],
      [
        "▁kad",
        "ını"
      ],
      [
        "asın",
        "dan"
      ],
      [
        "▁mer",
        "div"
      ],
      [
        "▁duk",
        "kan"
      ],
      [
        "▁m",
        "er"
      ],
      [
        "▁g",
        "ucu"
      ],
      [
        "▁olma",
        "z"
      ],
      [
        "t",
        "ir"
      ],
      [
        "▁aksam",
        "a"
      ],
      [
        "r",
        "ar"
      ],
      [
        "▁sig",
        "ara"
      ],
      [
        "at",
        "es"
      ],
      [
        "▁merkez",
        "e"
      ],
      [
        "▁ort",
        "asında"
      ],
      [
        "▁aksam",
        "ı"
      ],
      [
        "▁mi",
        "ly"
      ],
      [
        "al",
        "le"
      ],
      [
        "d",
        "am"
      ],
      [
        "▁soyl",
        "ey"
      ],
      [
        "▁dol",
        "dur"
      ],
      [
        "▁",
        "is"
      ],
      [
        "▁yıl",
        "larda"
      ],
      [
        "▁ord",
        "u"
      ],
      [
        "ı",
        "h"
      ],
      [
        "▁p",
        "lanı"
      ],
      [
        "▁dun",
        "y"
      ],
      [
        "▁kar",
        "sı"
      ],
      [
        "▁ol",
        "u"
      ],
      [
        "▁nak",
        "it"
      ],
      [
        "le",
        "g"
      ],
      [
        "▁b",
        "asında"
      ],
      [
        "▁u",
        "la"
      ],
      [
        "ta",
        "n"
      ],
      [
        "▁b",
        "eye"
      ],
      [
        "▁ek",
        "mek"
      ],
      [
        "▁i",
        "ci"
      ],
      [
        "m",
        "ayı"
      ],
      [
        "▁pr",
        "of"
      ],
      [
        "iy",
        "le"
      ],
      [
        "▁kuc",
        "uktu"
      ],
      [
        "▁k",
        "ap"
      ],
      [
        "▁d",
        "ev"
      ],
      [
        "▁",
        "4"
      ],
      [
        "▁n",
        "ef"
      ],
      [
        "▁uret",
        "imi"
      ],
      [
        "g",
        "ini"
      ],
      [
        "▁yas",
        "a"
      ],
      [
        "o",
        "re"
      ],
      [
        "▁ne",
        "w"
      ],
      [
        "▁e",
        "s"
      ],
      [
        "▁ka",
        "m"
      ],
      [
        "mekt",
        "en"
      ],
      [
        "▁tes",
        "is"
      ],
      [
        "▁ed",
        "eb"
      ],
      [
        "▁yan",
        "a"
      ],
      [
        "▁",
        "in"
      ],
      [
        "k",
        "ar"
      ],
      [
        "▁v",
        "ak"
      ],
      [
        "▁yan",
        "ı"
      ],
      [
        "la",
        "r"
      ],
      [
        "uk",
        "lu"
      ],
      [
        "▁k",
        "op"
      ],
      [
        "▁",
        "ne"
      ],
      [
        "▁bab",
        "ası"
      ],
      [
        "▁r",
        "en"
      ],
      [
        "▁b",
        "u"
      ],
      [
        "k",
        "k"
      ],
      [
        "▁yuz",
        "une"
      ],
      [
        "▁ad",
        "am"
      ],
      [
        "d",
        "an"
      ],
      [
        "ag",
        "ına"
      ],
      [
        "▁par",
        "anın"
      ],
      [
        "▁makal",
        "eye"
      ],
      [
        "▁p",
        "ant"
      ],
      [
        "▁og",
        "len"
      ],
      [
        "▁malz",
        "em"
      ],
      [
        "ag",
        "ın"
      ],
      [
        "▁il",
        "gili"
      ],
      [
        "▁p",
        "ol"
      ],
      [
        "r",
        "eti"
      ],
      [
        "▁sev",
        "g"
      ],
      [
        "▁",
        "en"
      ],
      [
        "▁et",
        "mis"
      ],
      [
        "▁h",
        "ey"
      ],
      [
        "▁n",
        "ak"
      ],
      [
        "i",
        "f"
      ],
      [
        "▁sa",
        "n"
      ],
      [
        "a",
        "lan"
      ],
      [
        "as",
        "ır"
      ],
      [
        "▁komisyon",
        "u"
      ],
      [
        "▁tar",
        "if"
      ],
      [
        "ca",
        "k"
      ],
      [
        "▁a",
        "cı"
      ],
      [
        "r",
        "ne"
      ],
      [
        "a",
        "dan"
      ],
      [
        "▁yatırım",
        "cı"
      ],
      [
        "ta",
        "j"
      ],
      [
        "ler",
        "imi"
      ],
      [
        "▁seviy",
        "esinden"
      ],
      [
        "▁gel",
        "ecek"
      ],
      [
        "▁cal",
        "is"
      ],
      [
        "▁yonet",
        "imi"
      ],
      [
        "l",
        "um"
      ],
      [
        "b",
        "urg"
      ],
      [
        "▁bel",
        "ir"
      ],
      [
        "▁yiyecek",
        "ler"
      ],
      [
        "ag",
        "ından"
      ],
      [
        "uyor",
        "du"
      ],
      [
        "▁el",
        "de"
      ],
      [
        "▁temiz",
        "lik"
      ],
      [
        "r",
        "en"
      ],
      [
        "▁t",
        "a"
      ],
      [
        "▁tic",
        "aret"
      ],
      [
        "▁",
        "l"
      ],
      [
        "ib",
        "i"
      ],
      [
        "▁sik",
        "ayet"
      ],
      [
        "▁hic",
        "bir"
      ],
      [
        "▁denver",
        "'den"
      ],
      [
        "▁ko",
        "s"
      ],
      [
        "▁de",
        "gil"
      ],
      [
        "▁kar",
        "arı"
      ],
      [
        "▁kampanyalar",
        "dan"
      ],
      [
        "▁altın",
        "a"
      ],
      [
        "▁d",
        "ar"
      ],
      [
        "▁zam",
        "anı"
      ],
      [
        "y",
        "en"
      ],
      [
        "an",
        "a"
      ],
      [
        "▁yıl",
        "ı"
      ],
      [
        "lug",
        "u"
      ],
      [
        "an",
        "ı"
      ],
      [
        "sız",
        "lık"
      ],
      [
        "▁yum",
        "ur"
      ],
      [
        "▁depr",
        "em"
      ],
      [
        "▁hakk",
        "ı"
      ],
      [
        "▁a",
        "ra"
      ],
      [
        "▁",
        "at"
      ],
      [
        "▁goz",
        "lerini"
      ],
      [
        "▁milyon",
        "dan"
      ],
      [
        "g",
        "i"
      ],
      [
        "eg",
        "inde"
      ],
      [
        "▁eder",
        "im"
      ],
      [
        "▁bur",
        "ası"
      ],
      [
        "acag",
        "ını"
      ],
      [
        "▁ta",
        "mam"
      ],
      [
        "▁telef",
        "on"
      ],
      [
        "ec",
        "eg"
      ],
      [
        "l",
        "anı"
      ],
      [
        "▁bil",
        "gi"
      ],
      [
        "▁sekl",
        "inde"
      ],
      [
        "ıs",
        "ına"
      ],
      [
        "▁oran",
        "ında"
      ],
      [
        "lıg",
        "ına"
      ],
      [
        "▁hal",
        "inde"
      ],
      [
        "▁kam",
        "yon"
      ],
      [
        "▁t",
        "ip"
      ],
      [
        "lıg",
        "ın"
      ],
      [
        "ıyor",
        "du"
      ],
      [
        "az",
        "la"
      ],
      [
        "▁ham",
        "am"
      ],
      [
        "il",
        "e"
      ],
      [
        "▁h",
        "e"
      ],
      [
        "▁ot",
        "el"
      ],
      [
        "▁yon",
        "etici"
      ],
      [
        "▁ol",
        "mak"
      ],
      [
        "▁ya",
        "lan"
      ],
      [
        "d",
        "iye"
      ],
      [
        "lık",
        "lar"
      ],
      [
        "a",
        "bilir"
      ],
      [
        "ay",
        "dı"
      ],
      [
        "▁tal",
        "ep"
      ],
      [
        "i",
        "le"
      ],
      [
        "l",
        "ılık"
      ],
      [
        "▁zey",
        "tin"
      ],
      [
        "▁an",
        "las"
      ],
      [
        "▁di",
        "ger"
      ],
      [
        "▁sen",
        "e"
      ],
      [
        "▁o",
        "de"
      ],
      [
        "▁vak",
        "t"
      ],
      [
        "▁kok",
        "usu"
      ],
      [
        "edi",
        "r"
      ],
      [
        "hu",
        "t"
      ],
      [
        "al",
        "ar"
      ],
      [
        "▁k",
        "en"
      ],
      [
        "▁den",
        "ey"
      ],
      [
        "▁",
        "on"
      ],
      [
        "▁de",
        "k"
      ],
      [
        "▁gazet",
        "e"
      ],
      [
        "ik",
        "ler"
      ],
      [
        "▁p",
        "art"
      ],
      [
        "en",
        "k"
      ],
      [
        "▁",
        "ken"
      ],
      [
        "enler",
        "in"
      ],
      [
        "▁si",
        "l"
      ],
      [
        "p",
        "r"
      ],
      [
        "▁fiyat",
        "i"
      ],
      [
        "▁kon",
        "usu"
      ],
      [
        "b",
        "i"
      ],
      [
        "dıg",
        "ında"
      ],
      [
        "▁var",
        "dır"
      ],
      [
        "o",
        "r"
      ],
      [
        "un",
        "de"
      ],
      [
        "▁arkadas",
        "lar"
      ],
      [
        "▁pol",
        "is"
      ],
      [
        "▁p",
        "as"
      ],
      [
        "et",
        "r"
      ],
      [
        "▁mem",
        "leket"
      ],
      [
        "▁el",
        "estiri"
      ],
      [
        "▁re",
        "j"
      ],
      [
        "▁is",
        "ler"
      ],
      [
        "▁l",
        "ut"
      ],
      [
        "▁guler",
        "y"
      ],
      [
        "r",
        "ken"
      ],
      [
        "▁hav",
        "ada"
      ],
      [
        "▁co",
        "gu"
      ],
      [
        "mekt",
        "edir"
      ],
      [
        "▁ey",
        "alet"
      ],
      [
        "▁ist",
        "ek"
      ],
      [
        "y",
        "on"
      ],
      [
        "larımız",
        "ı"
      ],
      [
        "▁fabr",
        "ika"
      ],
      [
        "▁kalab",
        "alık"
      ],
      [
        "i",
        "yi"
      ],
      [
        "▁mah",
        "k"
      ],
      [
        "▁ard",
        "ından"
      ],
      [
        "▁t",
        "es"
      ],
      [
        "ad",
        "de"
      ],
      [
        "▁tem",
        "in"
      ],
      [
        "▁ref",
        "orm"
      ],
      [
        "▁i",
        "r"
      ],
      [
        "▁serv",
        "is"
      ],
      [
        "a",
        "v"
      ],
      [
        "▁tar",
        "la"
      ],
      [
        "▁p",
        "ir"
      ],
      [
        "▁f",
        "ar"
      ],
      [
        "▁cek",
        "ti"
      ],
      [
        "el",
        "ik"
      ],
      [
        "em",
        "ez"
      ],
      [
        "▁se",
        "y"
      ],
      [
        "▁se",
        "ye"
      ],
      [
        "▁yanı",
        "t"
      ],
      [
        "▁kars",
        "ısında"
      ],
      [
        "▁bak",
        "anı"
      ],
      [
        "▁yıl",
        "ının"
      ],
      [
        "as",
        "t"
      ],
      [
        "▁fiyat",
        "larını"
      ],
      [
        "k",
        "on"
      ],
      [
        "▁polit",
        "ik"
      ],
      [
        "▁h",
        "al"
      ],
      [
        "c",
        "u"
      ],
      [
        "▁",
        "ak"
      ],
      [
        "▁y",
        "uv"
      ],
      [
        "a",
        "p"
      ],
      [
        "▁s",
        "ade"
      ],
      [
        "▁tat",
        "il"
      ],
      [
        "▁sey",
        "den"
      ],
      [
        "▁sav",
        "ası"
      ],
      [
        "▁soyl",
        "uyor"
      ],
      [
        "er",
        "ler"
      ],
      [
        "▁y",
        "um"
      ],
      [
        "u",
        "du"
      ],
      [
        "▁endek",
        "s"
      ],
      [
        "▁oldu",
        "g"
      ],
      [
        "m",
        "anlar"
      ],
      [
        "▁za",
        "ten"
      ],
      [
        "ac",
        "ılık"
      ],
      [
        "▁",
        "2"
      ],
      [
        "g",
        "esi"
      ],
      [
        "m",
[...]
