{
  "version": "1.0",
  "truncation": null,
  "padding": null,
  "added_tokens": [
    {
      "id": 2663,
      "content": "[PAD]",
      "single_word": false,
      "lstrip": false,
      "rstrip": false,
      "normalized": false,
      "special": true
    },
    {
      "id": 3087,
      "content": "[UNK]",
      "single_word": false,
      "lstrip": false,
      "rstrip": false,
      "normalized": false,
      "special": true
    },
    {
      "id": 3317,
      "content": "[SEP]",
      "single_word": false,
      "lstrip": false,
      "rstrip": false,
      "normalized": false,
      "special": true
    },
    {
      "id": 5477,
      "content": "[CLS]",
      "single_word": false,
      "lstrip": false,
      "rstrip": false,
      "normalized": false,
      "special": true
    },
    {
      "id": 6667,
      "content": "[MASK]",
      "single_word": false,
      "lstrip": false,
      "rstrip": false,
      "normalized": false,
      "special": true
    }
  ],
  "normalizer": {
    "type": "Sequence",
    "normalizers": [
      {
        "type": "NFD"
      },
      {
        "type": "Lowercase"
      },
      {
        "type": "StripAccents"
      }
    ]
  },
  "pre_tokenizer": {
    "type": "Sequence",
    "pretokenizers": [
      {
        "type": "Metaspace",
        "replacement": "▁",
        "prepend_scheme": "always",
        "split": true
      }
    ]
  },
  "post_processor": {
    "type": "TemplateProcessing",
    "single": [
      {
        "SpecialToken": {
          "id": "[CLS]",
          "type_id": 0
        }
      },
      {
        "Sequence": {
          "id": "A",
          "type_id": 0
        }
      },
      {
        "SpecialToken": {
          "id": "[SEP]",
          "type_id": 0
        }
      }
    ],
    "pair": [
      {
        "SpecialToken": {
          "id": "[CLS]",
          "type_id": 0
        }
      },
      {
        "Sequence": {
          "id": "A",
          "type_id": 0
        }
      },
      {
        "SpecialToken": {
          "id": "[SEP]",
          "type_id": 0
        }
      },
      {
        "Sequence": {
          "id": "B",
          "type_id": 1
        }
      },
      {
        "SpecialToken": {
          "id": "[SEP]",
          "type_id": 1
        }
      }
    ],
    "special_tokens": {
      "[CLS]": {
        "id": "[CLS]",
        "ids": [
          5477
        ],
        "tokens": [
          "[CLS]"
        ]
      },
      "[SEP]": {
        "id": "[SEP]",
        "ids": [
          3317
        ],
        "tokens": [
          "[SEP]"
        ]
      }
    }
  },
  "decoder": {
    "type": "Metaspace",
    "replacement": "▁",
    "prepend_scheme": "always",
    "split": true
  },
  "model": {
    "type": "WordPiece",
    "unk_token": "[UNK]",
    "continuing_subword_prefix": "##",
    "max_input_chars_per_word": 100,
    "vocab": {
      "▁odaya": 0,
      "▁efendi": 1,
      "▁kanunu": 2,
      "##dıgını": 3,
      "▁kısa": 4,
      "▁bebek": 5,
      "▁yonetiminin": 6,
      "▁sahneye": 7,
      "▁cocugu": 8,
      "▁cikis": 9,
      "##amıyor": 10,
      "▁fazlaydi": 11,
      "##ston": 12,
      "▁fidan": 13,
      "##3": 14,
      "##ıgının": 15,
      "▁yetis": 16,
      "▁sikint": 17,
      "▁haberleri": 18,
      "▁istemiyorum": 19,
      "▁yargı": 20,
      "▁hissenin": 21,
      "▁bodr": 22,
      "▁reng": 23,
      "##mesinin": 24,
      "##lugunun": 25,
      "▁alıskan": 26,
      "##dugunde": 27,
      "▁seye": 28,
      "▁mesaf": 29,
      "▁sarı": 30,
      "##lerimizi": 31,
      "▁perakende": 32,
      "##istiri": 33,
      "##”": 34,
      "##mamıs": 35,
      "▁mustes": 36,
      "▁sıra": 37,
      "▁baslık": 38,
      "##asına": 39,
      "▁gorevli": 40,
      "##irip": 41,
      "▁had": 42,
      "▁ko": 43,
      "##gel": 44,
      "▁okulun": 45,
      "▁gayet": 46,
      "##idir": 47,
      "▁ag": 48,
      "##imler": 49,
      "▁orland": 50,
      "▁ancak": 51,
      "▁oranı": 52,
      "▁kemik": 53,
      "▁halkı": 54,
      "▁eline": 55,
      "▁devir": 56,
      "##4": 57,
      "▁kerv": 58,
      "▁iddia": 59,
      "▁amel": 60,
      "##mki": 61,
      "▁konusmak": 62,
      "▁pantol": 63,
      "##eme": 64,
      "##ili": 65,
      "##ur": 66,
      "##ti": 67,
      "##iyorlardı": 68,
      "##lk": 69,
      "▁hareketi": 70,
      "▁izlen": 71,
      "▁oc": 72,
      "▁olabilirdi": 73,
      "##eci": 74,
      "▁dis": 75,
      "▁itibar": 76,
      "▁dolandır": 77,
      "▁merkeze": 78,
      "▁soyle": 79,
      "▁pit": 80,
      "▁anlattı": 81,
      "##lamadı": 82,
      "▁kahkah": 83,
      "▁beb": 84,
      "▁muzakere": 85,
      "▁bunu": 86,
      "##sak": 87,
      "▁kuvvetleri": 88,
      "▁piyasa": 89,
      "r": 90,
      "▁idi": 91,
      "▁araya": 92,
      "▁indi": 93,
      "▁karsılık": 94,
      "##mustur": 95,
      "##aj": 96,
      "##nam": 97,
      "▁yurek": 98,
      "##lemeye": 99,
      "▁hava": 100,
      "▁gosterdi": 101,
      "▁yumurta": 102,
      "▁milletvek": 103,
      "▁not": 104,
      "▁ilav": 105,
      "##ırlar": 106,
      "▁toh": 107,
      "▁cır": 108,
      "##emey": 109,
      "▁gozlerim": 110,
      "▁rak": 111,
      "▁alanı": 112,
      "▁takv": 113,
      "▁pesinde": 114,
      "▁)": 115,
      "▁yemeklerden": 116,
      "▁ugruna": 117,
      "▁sul": 118,
      "▁edilm": 119,
      "##liydi": 120,
      "▁yaklasım": 121,
      "▁fot": 122,
      "##bilir": 123,
      "▁zeytin": 124,
      "▁kızın": 125,
      "w": 126,
      "▁doktorlar": 127,
      "▁uzakti": 128,
      "▁toplum": 129,
      "▁ihtil": 130,
      "▁taahh": 131,
      "▁millet": 132,
      "##han": 133,
      "▁kabul": 134,
      "▁suphe": 135,
      "▁chat": 136,
      "##abor": 137,
      "▁tavır": 138,
      "▁ellerini": 139,
      "▁otlar": 140,
      "▁icme": 141,
      "▁organ": 142,
      "▁enf": 143,
      "▁yalan": 144,
      "▁fa": 145,
      "▁nobet": 146,
      "▁redd": 147,
      "▁depr": 148,
      "##per": 149,
      "▁tane": 150,
      "▁hayvanlar": 151,
      "▁oglan": 152,
      "▁gercek": 153,
      "▁=": 154,
      "▁muhareb": 155,
      "▁bilgis": 156,
      "▁aydınlık": 157,
      "##say": 158,
      "▁sebeb": 159,
      "▁sahibinin": 160,
      "▁iyiye": 161,
      "▁aracları": 162,
      "##..": 163,
      "▁hayata": 164,
      "##atır": 165,
      "##lılıgını": 166,
      "▁numar": 167,
      "▁avukat": 168,
      "▁ba": 169,
      "##ıldıgında": 170,
      "▁kor": 171,
      "##iklik": 172,
      "##anoz": 173,
      "▁sh": 174,
      "▁gurult": 175,
      "##kiler": 176,
      "▁kuram": 177,
      "▁arb": 178,
      "▁kr": 179,
      "▁baglantı": 180,
      "▁first": 181,
      "▁muhar": 182,
      "##alı": 183,
      "▁tiyatr": 184,
      "▁yoneticiler": 185,
      "▁kendim": 186,
      "##anıt": 187,
      "##endir": 188,
      "▁kazanclar": 189,
      "▁teseb": 190,
      "▁acıga": 191,
      "##ebilir": 192,
      "##emden": 193,
      "▁sav": 194,
      "▁yaptıgı": 195,
      "▁sınıfı": 196,
      "##onom": 197,
      "##derek": 198,
      "▁oldug": 199,
      "▁analizciler": 200,
      "▁koyu": 201,
      "▁tasımacılıgı": 202,
      "▁otobus": 203,
      "▁corb": 204,
      "▁yıllar": 205,
      "▁onemli": 206,
      "##0'dan": 207,
      "▁olduk": 208,
      "▁krav": 209,
      "##ligi": 210,
      "▁durusma": 211,
      "▁iktis": 212,
      "▁firmaları": 213,
      "▁kadınları": 214,
      "##isyon": 215,
      "▁serisi": 216,
      "▁ev": 217,
      "▁kapıları": 218,
      "▁muhalefet": 219,
      "▁uretimi": 220,
      "▁kendisini": 221,
      "▁gizli": 222,
      "▁tah": 223,
      "##uma": 224,
      "▁ekmek": 225,
      "##eyaz": 226,
      "▁zirv": 227,
      "▁etti": 228,
      "##diginden": 229,
      "▁kafası": 230,
      "▁sorunların": 231,
      "▁talep": 232,
      "▁sakız": 233,
      "▁bayram": 234,
      "▁am": 235,
      "##'daki": 236,
      "▁kesif": 237,
      "▁satır": 238,
      "▁ozelligi": 239,
      "▁baslangıc": 240,
      "▁isci": 241,
      "▁lezz": 242,
      "##meyen": 243,
      "▁kagıdı": 244,
      "▁hatır": 245,
      "▁yurtd": 246,
      "▁dunyanın": 247,
      "▁koyun": 248,
      "##sal": 249,
      "▁sır": 250,
      "##bab": 251,
      "##igini": 252,
      "##adde": 253,
      "▁sorumluluk": 254,
      "▁bul": 255,
      "▁denver'e": 256,
      "▁zem": 257,
      "▁surpr": 258,
      "##ete": 259,
      "##atlar": 260,
      "##'e": 261,
      "▁dere": 262,
      "▁kitaplar": 263,
      "##isiyle": 264,
      "▁$'a": 265,
      "▁kasık": 266,
      "##keti": 267,
      "▁sof": 268,
      "▁baslıyor": 269,
      "▁kurk": 270,
      "▁mes": 271,
      "▁kucuk": 272,
      "▁;": 273,
      "##aklı": 274,
      "▁senedi": 275,
      "▁niyet": 276,
      "##maması": 277,
      "▁oncesi": 278,
      "▁yild": 279,
      "▁buz": 280,
      "##cılara": 281,
      "▁gercekles": 282,
      "▁utanc": 283,
      "##usunda": 284,
      "##unce": 285,
      "##enlere": 286,
      "▁hırs": 287,
      "▁herh": 288,
      "##ca": 289,
      "##met": 290,
      "▁mev": 291,
      "▁yavru": 292,
      "▁hafif": 293,
      "▁yuzme": 294,
      "##larımızın": 295,
      "▁yaptirmadim": 296,
      "▁cami": 297,
      "▁kuzey": 298,
      "▁veril": 299,
      "▁del": 300,
      "▁kuzu": 301,
      "▁dayak": 302,
      "▁boston'a": 303,
      "▁kilo": 304,
      "▁direktoru": 305,
      "▁listesini": 306,
      "▁eglence": 307,
      "##asa": 308,
      "▁muhal": 309,
      "##lının": 310,
      "▁tutum": 311,
      "▁hem": 312,
      "▁dagıtım": 313,
      "▁kodu": 314,
      "##agı": 315,
      "▁ses": 316,
      "▁nihayet": 317,
      "##ılıgında": 318,
      "▁dusunuyor": 319,
      "##temelen": 320,
      "##uya": 321,
      "▁insanı": 322,
      "##liligi": 323,
      "▁akr": 324,
      "▁toz": 325,
      "▁anda": 326,
      "▁berab": 327,
      "▁yumur": 328,
      "##pan": 329,
      "▁pas": 330,
      "##ieg": 331,
      "▁adam": 332,
      "##yım": 333,
      "▁merkezine": 334,
      "▁sırada": 335,
      "##acagını": 336,
      "▁konfor": 337,
      "▁ihrac": 338,
      "▁ucretlerini": 339,
      "##1": 340,
      "##ekler": 341,
      "▁arap": 342,
      "##amdan": 343,
      "▁kıskanc": 344,
      "▁ucretler": 345,
      "▁etrafını": 346,
      "▁ceviri": 347,
      "▁tahsis": 348,
      "▁lok": 349,
      "▁ocagı": 350,
      "##ni": 351,
      "▁korun": 352,
      "▁destek": 353,
      "▁olimpiyat": 354,
      "▁agacın": 355,
      "▁zihn": 356,
      "▁ziy": 357,
      "▁sogan": 358,
      "▁basladı": 359,
      "▁10'dan": 360,
      "▁data": 361,
      "▁olayı": 362,
      "▁etki": 363,
      "##arlar": 364,
      "▁dunyaya": 365,
      "▁cob": 366,
      "▁agzı": 367,
      "▁iler": 368,
      "▁kasabaya": 369,
      "▁bugunun": 370,
      "##igine": 371,
      "▁termal": 372,
      "##lenmis": 373,
      "▁oncelik": 374,
      "▁geride": 375,
      "##laması": 376,
      "##lacak": 377,
      "▁muster": 378,
      "##tarı": 379,
      "▁birimi": 380,
      "##cut": 381,
      "▁unsur": 382,
      "▁edebilir": 383,
      "##siye": 384,
      "▁omr": 385,
      "▁tem": 386,
      "▁dam": 387,
      "▁fabrik": 388,
      "▁olmasın": 389,
      "▁sistem": 390,
      "▁bes": 391,
      "▁yatırımcının": 392,
      "##ge": 393,
      "▁yum": 394,
      "▁kapıyı": 395,
      "▁art": 396,
      "##ens": 397,
      "▁salonu": 398,
      "▁mevdu": 399,
      "##lerimin": 400,
      "▁ink": 401,
      "▁tarihinde": 402,
      "▁hizmette": 403,
      "##elir": 404,
      "▁agaclar": 405,
      "##alarıyla": 406,
      "▁gel": 407,
      "▁dibinde": 408,
      "▁meb": 409,
      "▁penc": 410,
      "▁kal": 411,
      "▁gorunum": 412,
      "▁yemek": 413,
      "##ılma": 414,
      "▁intihar": 415,
      "▁bors": 416,
      "▁alakasi": 417,
      "▁ekonomisi": 418,
      "▁munasebet": 419,
      "▁uzman": 420,
      "▁lakin": 421,
      "▁sıfır": 422,
      "▁dokun": 423,
      "▁bicim": 424,
      "▁gecmiste": 425,
      "##laydi": 426,
      "▁mudur": 427,
      "▁icr": 428,
      "##abı": 429,
      "##etre": 430,
      "▁fiyatlandır": 431,
      "▁anlasmayı": 432,
      "▁atese": 433,
      "▁kardesinin": 434,
      "▁cekilm": 435,
      "▁eseri": 436,
      "▁bilgisi": 437,
      "▁huk": 438,
      "▁benz": 439,
      "##liy": 440,
      "▁degisimi": 441,
      "##lendirmek": 442,
      "▁bulama": 443,
      "##mus": 444,
      "▁fikir": 445,
      "##sı": 446,
      "▁fasul": 447,
      "▁yurum": 448,
      "▁nis": 449,
      "▁fazlası": 450,
      "▁ayag": 451,
      "##medik": 452,
      "▁burc": 453,
      "##ane": 454,
      "##mayan": 455,
      "▁otur": 456,
      "##ecektir": 457,
      "▁balik": 458,
      "▁gerceklesti": 459,
      "##isini": 460,
      "▁universite": 461,
      "##anmıs": 462,
      "▁cıkıyor": 463,
      "▁past": 464,
      "##teri": 465,
      "▁kıyas": 466,
      "▁etkileri": 467,
      "▁kahram": 468,
      "▁guzel": 469,
      "▁suya": 470,
      "▁metal": 471,
      "▁mudahale": 472,
      "##luydu": 473,
      "##ırdı": 474,
      "▁banyosu": 475,
      "▁ilgi": 476,
      "ı": 477,
      "▁hacmi": 478,
      "▁yas": 479,
      "▁beni": 480,
      "▁enerj": 481,
      "##ıma": 482,
      "##umu": 483,
      "▁okula": 484,
      "▁siyaset": 485,
      "▁yedi": 486,
      "▁uygul": 487,
      "▁ulkemiz": 488,
      "▁tac": 489,
      "##tir": 490,
      "▁biber": 491,
      "▁ressam": 492,
      "▁say": 493,
      "▁hastan": 494,
      "▁alay": 495,
      "▁analiz": 496,
      "▁vaat": 497,
      "▁kadar": 498,
      "##lam": 499,
      "▁dagın": 500,
      "▁geregi": 501,
      "▁bufe": 502,
      "▁dolas": 503,
      "▁istedi": 504,
      "##evizyon": 505,
      "▁gorur": 506,
      "##'na": 507,
      "▁izin": 508,
      "▁tahk": 509,
      "▁seyden": 510,
      "##uyordu": 511,
      "▁kahvalt": 512,
      "##ınlık": 513,
      "▁onların": 514,
      "##arında": 515,
      "▁hesabı": 516,
      "##muyor": 517,
      "##dukca": 518,
      "▁babam": 519,
      "##'": 520,
      "##siy": 521,
      "▁cadır": 522,
      "▁karsilama": 523,
      "##z": 524,
      "##/8'e": 525,
      "##gmen": 526,
      "▁andan": 527,
      "##ag": 528,
      "▁sa": 529,
      "▁ken": 530,
      "▁a": 531,
      "##ıkları": 532,
      "▁senaryo": 533,
      "##ıv": 534,
      "▁&": 535,
      "▁goz": 536,
      "##larında": 537,
      "##odr": 538,
      "▁must": 539,
      "▁imz": 540,
      "▁bazi": 541,
      "▁kayık": 542,
      "▁odası": 543,
      "▁sabah": 544,
      "▁evini": 545,
      "##ladıgı": 546,
      "▁damar": 547,
      "##erler": 548,
      "##inc": 549,
      "▁kazancları": 550,
      "▁calisanlarin": 551,
      "▁etmeyi": 552,
      "▁operasyon": 553,
      "▁bitki": 554,
      "##elerinin": 555,
      "▁temettu": 556,
      "▁cık": 557,
      "##onya": 558,
      "##ide": 559,
      "##raz": 560,
      "▁gom": 561,
      "▁cogunlugu": 562,
      "▁yasına": 563,
      "##lerde": 564,
      "▁bus": 565,
      "▁karsiligini": 566,
      "##larımı": 567,
      "##umuzu": 568,
      "▁q": 569,
      "▁varmak": 570,
      "##ileri": 571,
      "▁def": 572,
      "##enek": 573,
      "▁sultan": 574,
      "##tu": 575,
      "▁gozlerle": 576,
      "▁tahv": 577,
      "▁yorgunluk": 578,
      "▁bolumu": 579,
      "▁fiyatlarını": 580,
      "▁gununun": 581,
      "▁tanım": 582,
      "##y": 583,
      "▁savunma": 584,
      "▁video": 585,
      "▁ucusu": 586,
      "▁oranda": 587,
      "▁vermis": 588,
      "▁olan": 589,
      "##asındaki": 590,
      "▁sular": 591,
      "▁kiralama": 592,
      "##ydı": 593,
      "##sali": 594,
      "▁?": 595,
      "▁sıkıntı": 596,
      "▁asırı": 597,
      "##yı": 598,
      "▁fiyatlarının": 599,
      "▁milliyet": 600,
      "▁sekl": 601,
      "▁bogaz": 602,
      "▁dusmanı": 603,
      "▁odalari": 604,
      "▁evlat": 605,
      "▁18": 606,
      "##eleriyle": 607,
      "▁once": 608,
      "▁komisyonları": 609,
      "▁soyledi": 610,
      "▁samim": 611,
      "▁cif": 612,
      "▁entar": 613,
      "▁kazandı": 614,
      "▁ten": 615,
      "▁yasa": 616,
      "▁surec": 617,
      "▁baslamak": 618,
      "▁oakland'a": 619,
      "▁17": 620,
      "▁kalkıp": 621,
      "##ınız": 622,
      "▁kil": 623,
      "##usa": 624,
      "▁piyasasında": 625,
      "▁olsun": 626,
      "▁olaydan": 627,
      "▁12": 628,
      "▁ren": 629,
      "▁hanimdi": 630,
      "▁limuzin": 631,
      "##cılıgın": 632,
      "▁satıs": 633,
      "▁bolumunu": 634,
      "▁kısı": 635,
      "▁kardesi": 636,
      "▁bin": 637,
      "▁zaman": 638,
      "▁dov": 639,
      "▁city": 640,
      "##ima": 641,
      "▁lam": 642,
      "▁gezi": 643,
      "▁doldur": 644,
      "▁maliyet": 645,
      "▁ikisi": 646,
      "▁pisir": 647,
      "▁sevk": 648,
      "▁sor": 649,
      "▁dusundu": 650,
      "▁sayg": 651,
      "▁esyalar": 652,
      "##agını": 653,
      "▁vol": 654,
      "▁alabilir": 655,
      "##mos": 656,
      "▁har": 657,
      "▁tır": 658,
      "▁rezervasyonu": 659,
      "▁otomobiller": 660,
      "▁lob": 661,
      "▁cift": 662,
      "▁gelenek": 663,
      "▁futbol": 664,
      "▁ayagını": 665,
      "0": 666,
      "▁kesin": 667,
      "▁baz": 668,
      "▁ip": 669,
      "##mes": 670,
      "▁turlar": 671,
      "▁dar": 672,
      "▁yarar": 673,
      "▁uc": 674,
      "##irler": 675,
      "▁sar": 676,
      "▁kadın": 677,
      "##kili": 678,
      "▁kalkan": 679,
      "▁ticari": 680,
      "▁h": 681,
      "▁iyi": 682,
      "##esti": 683,
      "▁ici": 684,
      "##lesi": 685,
      "▁neh": 686,
      "##uyle": 687,
      "##jik": 688,
      "##lastır": 689,
      "▁tanesi": 690,
      "▁kans": 691,
      "▁dayan": 692,
      "▁inter": 693,
      "▁saglık": 694,
      "▁mesaj": 695,
      "▁mucev": 696,
      "8": 697,
      "▁esim": 698,
      "##uyu": 699,
      "##ladıgını": 700,
      "▁ingil": 701,
      "##tı": 702,
      "##urdu": 703,
      "▁direktor": 704,
      "▁emir": 705,
      "▁a.": 706,
      "▁ceket": 707,
      "##aba": 708,
      "##cisi": 709,
      "▁kov": 710,
      "▁hizmet": 711,
      "▁kapıya": 712,
      "##abet": 713,
      "▁199": 714,
      "▁final": 715,
      "▁t": 716,
      "▁ortam": 717,
      "##edigim": 718,
      "##meyecegini": 719,
      "##ola": 720,
      "▁onemi": 721,
      "2": 722,
      "▁havuzlar": 723,
      "”": 724,
      "▁program": 725,
      "▁uyar": 726,
      "▁taz": 727,
      "▁yansıt": 728,
      "▁ediliyor": 729,
      "▁cer": 730,
      "▁sayıda": 731,
      "▁sadakat": 732,
      "▁puanlama": 733,
      "▁piyasanın": 734,
      "##yon": 735,
      "▁pesinden": 736,
      "▁dusunuyorum": 737,
      "▁yonde": 738,
      "▁kuyruk": 739,
      "▁icecekleri": 740,
      "▁yoluna": 741,
      "▁umit": 742,
      "##var": 743,
      "##mızı": 744,
      "▁acent": 745,
      "▁dok": 746,
      "▁malı": 747,
      "▁kahval": 748,
      "▁coc": 749,
      "▁yukum": 750,
      "▁olmasa": 751,
      "##izasyon": 752,
      "▁deri": 753,
      "▁esi": 754,
      "▁civ": 755,
      "▁babama": 756,
      "▁rehberlik": 757,
      "▁newark": 758,
      "▁to": 759,
      "##yl": 760,
      "##astır": 761,
      "▁tic": 762,
      "▁muhabbet": 763,
      "##agının": 764,
      "▁mavi": 765,
      "▁arbitraj": 766,
      "▁geri": 767,
      "##isel": 768,
      "▁yat": 769,
      "▁pilotlar": 770,
      "##tan": 771,
      "##ıla": 772,
      "▁parki": 773,
      "▁il": 774,
      "▁fırsatı": 775,
      "▁bilimin": 776,
      "▁kamyon": 777,
      "▁devleti": 778,
      "▁yasındaki": 779,
      "##iyla": 780,
      "##ren": 781,
      "▁dunyası": 782,
      "▁pah": 783,
      "##ısında": 784,
      "##akin": 785,
      "▁sez": 786,
      "##suzluk": 787,
      "##imizi": 788,
      "▁can": 789,
      "▁oteldi": 790,
      "##ındı": 791,
      "▁koylu": 792,
      "##ational": 793,
      "▁cın": 794,
      "▁bununla": 795,
      "▁kost": 796,
      "▁ellerinde": 797,
      "▁inan": 798,
      "▁ima": 799,
      "▁derece": 800,
      "▁urun": 801,
      "▁tuketiciler": 802,
      "▁hissesini": 803,
      "▁yolu": 804,
      "##sinin": 805,
      "▁tabur": 806,
      "▁komite": 807,
      "▁korku": 808,
      "##oj": 809,
      "▁indir": 810,
      "▁nokta": 811,
      "▁gidis": 812,
      "▁sadece": 813,
      "▁ihracları": 814,
      "▁golg": 815,
      "▁cenaz": 816,
      "▁dib": 817,
      "##izin": 818,
      "▁editor": 819,
      "▁sun": 820,
      "▁raporu": 821,
      "▁fig": 822,
      "▁burası": 823,
      "##'nde": 824,
      "##\\/": 825,
      "##5'ten": 826,
      "▁ucusların": 827,
      "▁amc": 828,
      "##ph": 829,
      "▁kendisi": 830,
      "▁karabiber": 831,
      "##70'": 832,
      "##manı": 833,
      "▁gerektigini": 834,
      "▁peki": 835,
      "▁bası": 836,
      "##co": 837,
      "##isk": 838,
      "▁veren": 839,
      "▁kapsam": 840,
      "▁tahvili": 841,
      "▁baslar": 842,
      "▁fener": 843,
      "▁chp": 844,
      "▁oakland": 845,
      "##cu": 846,
      "▁medeniyet": 847,
      "▁vazif": 848,
      "▁ilisk": 849,
      "▁pat": 850,
      "##dim": 851,
      "▁duvarın": 852,
      "▁bogazici": 853,
      "▁meyve": 854,
      "▁vuc": 855,
      "▁kimseyi": 856,
      "▁herif": 857,
      "##mma": 858,
      "▁deg": 859,
      "##amba": 860,
      "▁aradi": 861,
      "▁roman": 862,
      "▁islemlerin": 863,
      "▁yaptı": 864,
      "▁futbolcu": 865,
      "▁topluma": 866,
      "▁meydan": 867,
      "▁isletmeler": 868,
      "▁faktor": 869,
      "▁endise": 870,
      "▁ol": 871,
      "▁devlet": 872,
      "▁mahkemede": 873,
      "▁tesh": 874,
      "▁tav": 875,
      "▁yanında": 876,
      "▁kisiler": 877,
      "▁palt": 878,
      "▁kavg": 879,
      "##rlikte": 880,
      "▁hurr": 881,
      "##dar": 882,
      "▁mez": 883,
      "▁uygundu": 884,
      "▁evet": 885,
      "\\": 886,
      "▁telgraf": 887,
      "▁mahkeme": 888,
      "▁zinc": 889,
      "▁ask": 890,
      "▁toplam": 891,
      "##larımız": 892,
      "▁sikinti": 893,
      "▁hasta": 894,
      "▁yuzlu": 895,
      "▁dıs": 896,
      "▁delta": 897,
      "##lıg": 898,
      "▁hay": 899,
      "##lanacak": 900,
      "##lim": 901,
      "▁sepet": 902,
      "##lanı": 903,
      "##l": 904,
      "▁amac": 905,
      "▁stu": 906,
      "▁sit": 907,
      "▁davran": 908,
      "▁dag": 909,
      "##ınızı": 910,
      "▁norma": 911,
      "▁konusma": 912,
      "##9": 913,
      "▁yemekler": 914,
      "▁at": 915,
      "▁imam": 916,
      "▁kend": 917,
      "##ize": 918,
      "##medim": 919,
      "▁havuz": 920,
      "##ıyorlar": 921,
      "##ern": 922,
      "▁olcu": 923,
      "##hi": 924,
      "▁bilinc": 925,
      "▁tahta": 926,
      "▁proje": 927,
      "##inden": 928,
      "▁seyi": 929,
      "▁dip": 930,
      "▁(": 931,
      "▁orman": 932,
      "▁ediyorum": 933,
      "##ulmus": 934,
      "▁seyir": 935,
      "▁makam": 936,
      "▁sutu": 937,
      "▁sapk": 938,
      "▁reklamlar": 939,
      "▁ote": 940,
      "▁cebinden": 941,
      "▁koruma": 942,
      "##irli": 943,
      "▁ceph": 944,
      "▁varlık": 945,
      "▁v": 946,
      "▁sistemini": 947,
      "▁makinesi": 948,
      "##ler": 949,
      "▁fed": 950,
      "▁kocası": 951,
      "▁ihmal": 952,
      "▁kazanmak": 953,
      "##des": 954,
      "##ince": 955,
      "▁sahis": 956,
      "▁yaptir": 957,
      "▁tesaduf": 958,
      "##ogu": 959,
      "▁dede": 960,
      "##lay": 961,
      "▁gecenin": 962,
      "▁kef": 963,
      "▁tep": 964,
      "##imizin": 965,
      "▁denver'den": 966,
      "##dıgına": 967,
      "▁isbirligi": 968,
      "▁fiyatını": 969,
      "##ıyı": 970,
      "▁topluluk": 971,
      "▁zamanı": 972,
      "▁hizmete": 973,
      "▁taraftar": 974,
      "▁umur": 975,
      "▁sendika": 976,
      "▁iliskisi": 977,
      "▁yemegi": 978,
      "▁tamamen": 979,
      "▁sebze": 980,
      "▁ayrıntı": 981,
      "##il": 982,
      "##ardı": 983,
      "##>": 984,
      "▁ilgilendiler": 985,
      "▁nar": 986,
      "▁yorum": 987,
      "▁kuc": 988,
      "▁pist": 989,
      "▁icerisinde": 990,
      "▁boyutu": 991,
      "##ain": 992,
      "▁ulkede": 993,
      "▁panik": 994,
      "▁kızım": 995,
      "▁fiyata": 996,
      "▁birey": 997,
      "(": 998,
      "##mem": 999,
      "▁piyano": 1000,
      "##okr": 1001,
      "##ırım": 1002,
      "##larımıza": 1003,
      "##eye": 1004,
      "▁yogurt": 1005,
      "▁esv": 1006,
      "##apark": 1007,
      "▁okullar": 1008,
      "▁veyahut": 1009,
      "▁kartı": 1010,
      "▁kadınlara": 1011,
      "##ecegini": 1012,
      "▁balta": 1013,
      "▁sik": 1014,
      "##era": 1015,
      "##orma": 1016,
      "▁bosa": 1017,
      "▁ucusuna": 1018,
      "▁hedefleri": 1019,
      "▁rıht": 1020,
      "▁isg": 1021,
      "▁cograf": 1022,
      "▁vermeye": 1023,
      "▁univers": 1024,
      "▁ruzg": 1025,
      "▁darbe": 1026,
      "▁mevzuat": 1027,
      "▁san": 1028,
      "▁denizde": 1029,
      "▁u": 1030,
      "▁giden": 1031,
      "▁milyondan": 1032,
      "▁havlular": 1033,
      "▁gelmis": 1034,
      "▁avuk": 1035,
      "▁sozcu": 1036,
      "▁hol": 1037,
      "##om": 1038,
      "▁dikkat": 1039,
      "▁iste": 1040,
      "▁teskil": 1041,
      "▁kurek": 1042,
      "▁eb": 1043,
      "▁gene": 1044,
      "##erek": 1045,
      "▁milyardan": 1046,
      "▁sure": 1047,
      "▁cıkar": 1048,
      "▁gon": 1049,
      "▁isaret": 1050,
      "▁duyar": 1051,
      "##tigim": 1052,
      "##istim": 1053,
      "▁kahvalti": 1054,
      "▁huzun": 1055,
      "▁ıs": 1056,
      "▁personelin": 1057,
      "▁seyr": 1058,
      "##uler": 1059,
      "##egiyle": 1060,
      "▁koy": 1061,
      "▁amacı": 1062,
      "##as": 1063,
      "##ara": 1064,
      "##dug": 1065,
      "▁alısver": 1066,
      "▁intik": 1067,
      "##memek": 1068,
      "##lemesi": 1069,
      "▁gunun": 1070,
      "▁kemer": 1071,
      "▁ortal": 1072,
      "▁hadis": 1073,
      "▁ciddi": 1074,
      "▁kurumlar": 1075,
      "▁pabuc": 1076,
      "▁insanları": 1077,
      "##larca": 1078,
      "##sizligi": 1079,
      "▁sokaklarda": 1080,
      "▁hicbir": 1081,
      "▁gid": 1082,
      "##bet": 1083,
      "▁acente": 1084,
      "▁gey": 1085,
      "▁koyde": 1086,
      "▁zamandan": 1087,
      "##mız": 1088,
      "▁yaklasık": 1089,
      "▁gozune": 1090,
      "▁yaln": 1091,
      "▁ayni": 1092,
      "▁gorevi": 1093,
      "▁getirmek": 1094,
      "▁mi": 1095,
      "▁dil": 1096,
      "##9'da": 1097,
      "▁ist": 1098,
      "▁ker": 1099,
      "▁programı": 1100,
      "▁ayakkabı": 1101,
      "##%": 1102,
      "▁kud": 1103,
      "▁kus": 1104,
      "##lendi": 1105,
      "▁sorular": 1106,
      "▁resim": 1107,
      "▁yalı": 1108,
      "▁kem": 1109,
      "▁amerikan": 1110,
      "##land": 1111,
      "▁be": 1112,
      "▁olacagını": 1113,
      "▁aylarda": 1114,
      "▁acisindan": 1115,
      "▁dumanı": 1116,
      "▁dolar": 1117,
      "▁enstit": 1118,
      "▁tası": 1119,
      "▁korumak": 1120,
      "##tis": 1121,
      "▁teyz": 1122,
      "▁durdu": 1123,
      "▁surede": 1124,
      "▁birer": 1125,
      "▁cocuklu": 1126,
      "▁sevg": 1127,
      "▁hikaye": 1128,
      "##ıtma": 1129,
      "▁tucc": 1130,
      "▁kayıp": 1131,
      "▁kadınların": 1132,
      "▁telefonla": 1133,
      "▁sef": 1134,
      "▁dısarı": 1135,
      "##ugunun": 1136,
      "▁pad": 1137,
      "▁bolgenin": 1138,
      "▁agır": 1139,
      "##ayıf": 1140,
      "##mamak": 1141,
      "##laya": 1142,
      "▁indianapolis": 1143,
      "##kur": 1144,
      "##anlık": 1145,
      "▁eylul": 1146,
      "▁sanatcılar": 1147,
      "▁beyin": 1148,
      "▁calısan": 1149,
      "▁ekledi": 1150,
      "▁peynir": 1151,
      "##'dan": 1152,
      "▁cek": 1153,
      "▁1/": 1154,
      "▁boncuk": 1155,
      "▁et": 1156,
      "▁cikol": 1157,
      "##ilerdi": 1158,
      "▁roportaj": 1159,
      "▁calgı": 1160,
      "▁kedi": 1161,
      "##lige": 1162,
      "▁muslum": 1163,
      "▁otob": 1164,
      "▁sir": 1165,
      "##antaj": 1166,
      "##likler": 1167,
      "▁yetkisi": 1168,
      "▁karsın": 1169,
      "▁isleri": 1170,
      "▁sent": 1171,
      "##umus": 1172,
      "▁hic": 1173,
      "##if": 1174,
      "▁projesi": 1175,
      "▁yem": 1176,
      "▁guv": 1177,
      "##sine": 1178,
      "▁icten": 1179,
      "▁--": 1180,
      "▁siddet": 1181,
      "##ıstı": 1182,
      "▁artır": 1183,
      "▁makin": 1184,
      "▁sekreteri": 1185,
      "##kul": 1186,
      "▁ayı": 1187,
      "##urlu": 1188,
      "##dadır": 1189,
      "▁yatak": 1190,
      "▁cuk": 1191,
      "▁bun": 1192,
      "▁hac": 1193,
      "##ktu": 1194,
      "##unun": 1195,
      "▁haval": 1196,
      "##sanız": 1197,
      "▁karsiladi": 1198,
      "▁mikr": 1199,
      "##g": 1200,
      "▁den": 1201,
      "▁hakim": 1202,
      "▁telefon": 1203,
      "##2'ye": 1204,
      "▁yolcul": 1205,
      "▁umut": 1206,
      "▁duzel": 1207,
      "##lon": 1208,
      "▁atılım": 1209,
      "▁tadını": 1210,
      "▁muamele": 1211,
      "##yiz": 1212,
      "▁cant": 1213,
      "▁borcun": 1214,
      "▁kib": 1215,
      "▁tab": 1216,
      "▁”": 1217,
      "▁hukuk": 1218,
      "▁kad": 1219,
      "##sk": 1220,
      "##ısık": 1221,
      "▁fatura": 1222,
      "▁saygı": 1223,
      "▁deli": 1224,
      "▁urunleri": 1225,
      "▁orta": 1226,
      "##meler": 1227,
      "▁bina": 1228,
      "##imci": 1229,
      "##dıklarını": 1230,
      "▁hız": 1231,
      "▁dern": 1232,
      "▁tazmin": 1233,
      "▁gunlerini": 1234,
      "▁haber": 1235,
      "##ho": 1236,
      "▁hani": 1237,
      "▁jo": 1238,
      "▁fi": 1239,
      "▁veya": 1240,
      "▁sacları": 1241,
      "▁bilimi": 1242,
      "▁saga": 1243,
      "▁banka": 1244,
      "▁ye": 1245,
      "▁hosuma": 1246,
      "##ost": 1247,
      "▁anal": 1248,
      "##sman": 1249,
      "▁karar": 1250,
      "##layacagını": 1251,
      "##alarla": 1252,
      "▁kap": 1253,
      "▁tr": 1254,
      "##gam": 1255,
      "##in": 1256,
      "##nd": 1257,
      "##lusu": 1258,
      "▁sınır": 1259,
      "▁hastal": 1260,
      "▁imaj": 1261,
      "▁orada": 1262,
      "▁misin": 1263,
      "c": 1264,
      "▁olanaklari": 1265,
      "▁kaldı": 1266,
      "▁gune": 1267,
      "▁baban": 1268,
      "▁tramv": 1269,
      "▁yerler": 1270,
      "▁gozleri": 1271,
      "▁adeta": 1272,
      "▁acıklama": 1273,
      "▁kimsenin": 1274,
      "▁altından": 1275,
      "▁iskel": 1276,
      "▁bek": 1277,
      "##o'ya": 1278,
      "▁istiklal": 1279,
      "▁sosyal": 1280,
      "▁min": 1281,
      "▁senetlerinin": 1282,
      "▁tanıs": 1283,
      "▁bosluk": 1284,
      "▁lik": 1285,
      "▁hisseye": 1286,
      "▁onc": 1287,
      "▁bacak": 1288,
      "##sas": 1289,
      "▁bili": 1290,
      "▁tesisten": 1291,
      "##mekle": 1292,
      "##sacak": 1293,
      "▁ceyrekte": 1294,
      "▁yud": 1295,
      "▁bilgilendirilmek": 1296,
      "▁inis": 1297,
      "▁gozle": 1298,
      "▁gunes": 1299,
      "##ımı": 1300,
      "##eceksin": 1301,
      "▁iptal": 1302,
      "##alamak": 1303,
      "▁bahar": 1304,
      "##gum": 1305,
      "▁cumle": 1306,
      "▁listeleyin": 1307,
      "##lerce": 1308,
      "▁cic": 1309,
      "▁dort": 1310,
      "▁…": 1311,
      "▁odada": 1312,
      "##ls": 1313,
      "##yol": 1314,
      "▁tuh": 1315,
      "##paz": 1316,
      "▁petrol": 1317,
      "▁ne": 1318,
      "▁kitab": 1319,
      "▁masal": 1320,
      "▁tamir": 1321,
      "▁apartman": 1322,
      "▁fonu": 1323,
      "▁ediyor": 1324,
      "▁japon": 1325,
      "##tih": 1326,
      "▁koye": 1327,
      "##araj": 1328,
      "▁um": 1329,
      "##dikleri": 1330,
      "▁komsu": 1331,
      "▁animasyon": 1332,
      "▁kisiye": 1333,
      "▁kaybetti": 1334,
      "##gis": 1335,
      "▁hukumeti": 1336,
      "▁avrupa": 1337,
      "▁om": 1338,
      "▁nuf": 1339,
      "▁cam": 1340,
      "##tıgı": 1341,
      "▁piyas": 1342,
      "##mini": 1343,
      "▁uste": 1344,
      "▁dey": 1345,
      "▁toprak": 1346,
      "▁rezerv": 1347,
      "▁olup": 1348,
      "▁bahcı": 1349,
      "▁set": 1350,
      "▁duy": 1351,
      "▁strate": 1352,
      "▁hayatın": 1353,
      "##ade": 1354,
      "##anmak": 1355,
      "##vek": 1356,
      "▁yapılandır": 1357,
      "6": 1358,
      "▁baslamıstı": 1359,
      "▁un": 1360,
      "##al": 1361,
      "▁adamın": 1362,
      "▁...": 1363,
      "▁bahce": 1364,
      "▁fabr": 1365,
      "##lıydı": 1366,
      "##erdi": 1367,
      "▁munaseb": 1368,
      "▁fran": 1369,
      "▁tuhaf": 1370,
      "▁duygularını": 1371,
      "▁malz": 1372,
      "▁haric": 1373,
      "▁hus": 1374,
      "▁ucte": 1375,
      "##ydi": 1376,
      "▁gorevlisi": 1377,
      "▁oyunlar": 1378,
      "##ilig": 1379,
      "▁zevk": 1380,
      "▁matematik": 1381,
      "▁sanatcı": 1382,
      "▁kuz": 1383,
      "▁askerler": 1384,
      "▁saglamak": 1385,
      "▁depremden": 1386,
      "▁pir": 1387,
      "▁surat": 1388,
      "##orm": 1389,
      "▁ogrenc": 1390,
      "##zet": 1391,
      "##.0": 1392,
      "▁tasarısı": 1393,
      "▁saati": 1394,
      "▁pittsburgh'tan": 1395,
      "▁durum": 1396,
      "▁sokaga": 1397,
      "▁kenarına": 1398,
      "▁bel": 1399,
      "##cul": 1400,
      "▁yeter": 1401,
      "##takı": 1402,
      "▁ogret": 1403,
      "▁yuze": 1404,
      "▁ode": 1405,
      "▁birlesme": 1406,
      "‘": 1407,
      "▁yılında": 1408,
      "##ınıza": 1409,
      "▁borsası'nda": 1410,
      "##tem": 1411,
      "▁varlıklar": 1412,
      "##istir": 1413,
      "▁ankete": 1414,
      "▁kenara": 1415,
      "▁indian": 1416,
      "##cog": 1417,
      "▁siyas": 1418,
      "▁trafik": 1419,
      "▁res": 1420,
      "▁iliskin": 1421,
      "##'a": 1422,
      "▁duydu": 1423,
      "▁`": 1424,
      "##uza": 1425,
      "▁doktorun": 1426,
      "▁sirketler": 1427,
      "##mektedir": 1428,
      "▁sonucları": 1429,
      "▁aldıgını": 1430,
      "▁isini": 1431,
      "##ginde": 1432,
      "▁mukelle": 1433,
      "##til": 1434,
      "▁terbiye": 1435,
      "▁mufet": 1436,
      "▁mekana": 1437,
      "##oglu": 1438,
      "##ıydı": 1439,
      "▁selam": 1440,
      "##mıyordu": 1441,
      "▁olma": 1442,
      "▁lut": 1443,
      "##!": 1444,
      "##amayacagını": 1445,
      "▁baltimore'ye": 1446,
      "▁ayd": 1447,
      "##dat": 1448,
      "▁gerdan": 1449,
      "##emizin": 1450,
      "##oya": 1451,
      "▁mel": 1452,
      "▁mahk": 1453,
      "▁icimi": 1454,
      "##lık": 1455,
      "▁degerinde": 1456,
      "##fa": 1457,
      "##ısına": 1458,
      "##tum": 1459,
      "▁yun": 1460,
      "▁sok": 1461,
      "▁mode": 1462,
      "##tırmak": 1463,
      "▁sorusturma": 1464,
      "▁oglunun": 1465,
      "▁dunyada": 1466,
      "▁asagıda": 1467,
      "▁kriz": 1468,
      "▁yeteri": 1469,
      "▁basbak": 1470,
      "▁hizmetten": 1471,
      "▁yemeklerini": 1472,
      "▁koru": 1473,
      "▁vadesi": 1474,
      "▁cim": 1475,
      "▁kumas": 1476,
      "##bul": 1477,
      "▁teslim": 1478,
      "▁domates": 1479,
      "##sizdi": 1480,
      "▁uygulama": 1481,
      "▁raf": 1482,
      "##imizden": 1483,
      "▁cumhur": 1484,
      "▁saman": 1485,
      "▁cumhuriyetci": 1486,
      "▁benim": 1487,
      "▁tur": 1488,
      "▁his": 1489,
      "▁asans": 1490,
      "▁genellikle": 1491,
      "▁ailesi": 1492,
      "▁anlamı": 1493,
      "▁pop": 1494,
      "▁bos": 1495,
      "##meden": 1496,
      "▁hat": 1497,
      "▁gunde": 1498,
      "▁eskiydi": 1499,
      "##unlu": 1500,
      "##kt": 1501,
      "##ice": 1502,
      "▁konusmaya": 1503,
      "##lig": 1504,
      "▁musterileri": 1505,
      "▁portfoy": 1506,
      "▁havlu": 1507,
      "▁teb": 1508,
      "▁gulery": 1509,
      "▁corba": 1510,
      "▁mukemmel": 1511,
      "##melere": 1512,
      "▁havuzu": 1513,
      "▁sınav": 1514,
      "▁cayır": 1515,
      "▁avantaj": 1516,
      "▁varlıgını": 1517,
      "##alam": 1518,
      "##emem": 1519,
      "▁sirket": 1520,
      "▁ederek": 1521,
      "▁insanların": 1522,
      "▁ad": 1523,
      "##maktan": 1524,
      "##abını": 1525,
      "▁temizligi": 1526,
      "▁sog": 1527,
      "▁org": 1528,
      "##goz": 1529,
      "##anma": 1530,
      "▁bilgilerini": 1531,
      "▁mum": 1532,
      "▁pencerenin": 1533,
      "▁atlanta'ya": 1534,
      "##olog": 1535,
      "▁koseye": 1536,
      "▁acik": 1537,
      "##asır": 1538,
      "▁kims": 1539,
      "##iy": 1540,
      "▁ozellikle": 1541,
      "▁ilg": 1542,
      "##ikti": 1543,
      "▁donemi": 1544,
      "▁memnunum": 1545,
      "##ib": 1546,
      "▁kalitesi": 1547,
      "##eklen": 1548,
      "▁mikrop": 1549,
      "▁banyo": 1550,
      "▁sonr": 1551,
      "▁sureci": 1552,
      "▁yasıyor": 1553,
      "▁soyledik": 1554,
      "▁mir": 1555,
      "▁oteden": 1556,
      "▁iy": 1557,
      "▁bilin": 1558,
      "▁cizgi": 1559,
      "##tıgını": 1560,
      "▁pac": 1561,
      "##atur": 1562,
      "▁rakamları": 1563,
      "▁baskent": 1564,
      "▁birinde": 1565,
      "##bol": 1566,
      "▁sehri": 1567,
      "##ektr": 1568,
      "▁gozlerimi": 1569,
      "▁calısıyor": 1570,
      "##gım": 1571,
      "▁vurgu": 1572,
      "▁sonraki": 1573,
      "▁ai": 1574,
      "##lanıyor": 1575,
      "##fet": 1576,
      "▁paylas": 1577,
      "▁gorusu": 1578,
      "▁yapması": 1579,
      "▁tal": 1580,
      "▁corap": 1581,
      "▁yemegin": 1582,
      "▁teror": 1583,
      "▁patlıcan": 1584,
      "▁yarad": 1585,
      "▁hattı": 1586,
      "▁ilgisizdi": 1587,
      "▁kapısında": 1588,
      "▁bakkal": 1589,
      "▁hazir": 1590,
      "▁temp": 1591,
      "##mi": 1592,
      "▁sı": 1593,
      "▁kampanyalardan": 1594,
      "##ift": 1595,
      "##ilen": 1596,
      "##isin": 1597,
      "▁tesir": 1598,
      "▁tutma": 1599,
      "▁olus": 1600,
      "▁7'den": 1601,
      "▁kenar": 1602,
      "▁parm": 1603,
      "▁geleni": 1604,
      "▁haberler": 1605,
      "##lama": 1606,
      "##lıgından": 1607,
      "##ou": 1608,
      "▁sif": 1609,
      "▁maas": 1610,
      "▁etrafı": 1611,
      "▁olum": 1612,
      "▁kapanıs": 1613,
      "▁miktar": 1614,
      "▁cevre": 1615,
      "▁cadde": 1616,
      "▁bulgur": 1617,
      "▁varil": 1618,
      "##lılar": 1619,
      "▁planı": 1620,
      "▁odun": 1621,
      "▁yeten": 1622,
      "##yıl": 1623,
      "▁portf": 1624,
      "▁1.": 1625,
      "▁25": 1626,
      "▁kupon": 1627,
      "▁abon": 1628,
      "##ums": 1629,
      "▁cercevesinde": 1630,
      "▁kaldırım": 1631,
      "▁oak": 1632,
      "▁yelpaz": 1633,
      "▁6'dan": 1634,
      "▁ogretmen": 1635,
      "▁buyuk": 1636,
      "##ub": 1637,
      "##ebil": 1638,
      "##verdi": 1639,
      "▁karlar": 1640,
      "▁ula": 1641,
      "▁kim": 1642,
      "▁temiz": 1643,
      "▁esy": 1644,
      "▁oda": 1645,
      "▁sen": 1646,
      "▁uzeri": 1647,
      "##larınız": 1648,
      "▁yakin": 1649,
      "▁philadelphia": 1650,
      "##isler": 1651,
      "▁mahkemesi": 1652,
      "##uzel": 1653,
      "▁karab": 1654,
      "▁yanından": 1655,
      "▁yonu": 1656,
      "▁basvuru": 1657,
      "▁fikr": 1658,
      "▁arm": 1659,
      "▁sekilde": 1660,
      "##masi": 1661,
      "▁etkisi": 1662,
      "▁havayı": 1663,
      "##ımdan": 1664,
      "##iliyor": 1665,
      "##diye": 1666,
      "##alan": 1667,
      "▁yayın": 1668,
      "▁orgut": 1669,
      "▁ortada": 1670,
      "##ic": 1671,
      "▁yurt": 1672,
      "##detti": 1673,
      "▁kulag": 1674,
      "▁gelistirme": 1675,
      "▁orn": 1676,
      "##esil": 1677,
      "##qu": 1678,
      "▁akrab": 1679,
      "##dikler": 1680,
      "▁fil": 1681,
      "##on": 1682,
      "▁temin": 1683,
      "##abilir": 1684,
      "##esiyle": 1685,
      "▁mater": 1686,
      "▁kusk": 1687,
      "##ukca": 1688,
      "▁uzere": 1689,
      "##ord": 1690,
      "▁yana": 1691,
      "##ami": 1692,
      "##ich": 1693,
      "##gıcı": 1694,
      "##leye": 1695,
      "▁kanaat": 1696,
      "▁dizgin": 1697,
      "▁100": 1698,
      "▁nes": 1699,
      "▁tadima": 1700,
      "▁baskı": 1701,
      "▁tercih": 1702,
      "▁katk": 1703,
      "▁cagr": 1704,
      "##iyorum": 1705,
      "▁vb": 1706,
      "▁tespit": 1707,
      "##lamam": 1708,
      "▁odasında": 1709,
      "▁yoluyla": 1710,
      "▁diye": 1711,
      "▁onunden": 1712,
      "##ak": 1713,
      "▁1": 1714,
      "##dıgından": 1715,
      "▁ettik": 1716,
      "▁yakın": 1717,
      "▁dakik": 1718,
      "▁yahut": 1719,
      "▁yuzunde": 1720,
      "▁kadını": 1721,
      "▁camur": 1722,
      "▁varsa": 1723,
      "##dıgın": 1724,
      "▁alternatif": 1725,
      "▁dostu": 1726,
      "▁gelisim": 1727,
      "▁vardi": 1728,
      "h": 1729,
      "5": 1730,
      "▁yuzden": 1731,
      "▁pl": 1732,
      "▁sayfa": 1733,
      "▁id": 1734,
      "▁yabancı": 1735,
      "▁bulur": 1736,
      "▁adamları": 1737,
      "▁dibine": 1738,
      "▁puan": 1739,
      "▁kotu": 1740,
      "##ons": 1741,
      "▁kork": 1742,
      "▁oylama": 1743,
      "▁seferinde": 1744,
      "▁sirkette": 1745,
      "##baz": 1746,
      "▁yanı": 1747,
      "▁ap": 1748,
      "▁tev": 1749,
      "▁send": 1750,
      "▁stat": 1751,
      "▁yetki": 1752,
      "##nin": 1753,
      "▁cıkardı": 1754,
      "##00'den": 1755,
      "##ımları": 1756,
      "▁sonuna": 1757,
      "▁civarı": 1758,
      "▁icini": 1759,
      "▁pap": 1760,
      "##labilir": 1761,
      "##umuza": 1762,
      "▁kun": 1763,
      "▁beyler": 1764,
      "▁tacirler": 1765,
      "##leyici": 1766,
      "▁dak": 1767,
      "▁urunu": 1768,
      "▁konu": 1769,
      "▁sartları": 1770,
      "▁iskem": 1771,
      "▁yası": 1772,
      "▁yonuyle": 1773,
      "▁askı": 1774,
      "##iyorlar": 1775,
      "##ikt": 1776,
      "▁business": 1777,
      "▁iyice": 1778,
      "##gundu": 1779,
      "##zer": 1780,
      "▁mens": 1781,
      "▁unut": 1782,
      "▁tehd": 1783,
      "▁vs": 1784,
      "▁sirk": 1785,
      "##iligi": 1786,
      "##ladı": 1787,
      "##go": 1788,
      "▁10": 1789,
      "▁halen": 1790,
      "▁iliskileri": 1791,
      "▁yolun": 1792,
      "▁birinin": 1793,
      "▁onde": 1794,
      "▁baska": 1795,
      "##tık": 1796,
      "##der": 1797,
      "▁haziran": 1798,
      "▁hasret": 1799,
      "▁yatır": 1800,
      "▁elem": 1801,
      "▁bi": 1802,
      "▁amerikalılar": 1803,
      "▁hep": 1804,
      "##bur": 1805,
      "▁sel": 1806,
      "▁muz": 1807,
      "▁asker": 1808,
      "▁aydın": 1809,
      "▁mantık": 1810,
      "##ecilik": 1811,
      "##ına": 1812,
      "▁hav": 1813,
      "##.5": 1814,
      "▁hareketler": 1815,
      "##onel": 1816,
      "##.2": 1817,
      "##ezi": 1818,
      "▁ve": 1819,
      "##digimi": 1820,
      "▁altın": 1821,
      "▁polis": 1822,
      "▁olaylar": 1823,
      "▁cesaret": 1824,
      "▁kotuydu": 1825,
      "▁eglen": 1826,
      "▁hizmetleri": 1827,
      "▁hemen": 1828,
      "▁odak": 1829,
      "▁vade": 1830,
      "##ıntı": 1831,
      "▁yon": 1832,
      "▁hey": 1833,
      "▁sal": 1834,
      "▁sahiptir": 1835,
      "▁muhab": 1836,
      "▁teknoloji": 1837,
      "▁ver": 1838,
      "▁olmayan": 1839,
      "##gre": 1840,
      "▁bankası": 1841,
      "##leyen": 1842,
      "▁mukemmeldi": 1843,
      "##ya": 1844,
      "▁ilgilenmedi": 1845,
      "▁icer": 1846,
      "##ers": 1847,
      "##bil": 1848,
      "##ıcılar": 1849,
      "▁yollar": 1850,
      "▁malzemeleri": 1851,
      "##luguna": 1852,
      "▁kaptan": 1853,
      "▁co": 1854,
      "##'den": 1855,
      "▁skandal": 1856,
      "▁saka": 1857,
      "▁dest": 1858,
      "▁elleri": 1859,
      "##ze": 1860,
      "▁ch": 1861,
      "##az": 1862,
      "▁calisanlardan": 1863,
      "▁yonetmen": 1864,
      "▁yaklasımı": 1865,
      "▁odadan": 1866,
      "▁dedi": 1867,
      "##anı": 1868,
      "##att": 1869,
      "▁sabahı": 1870,
      "▁sp": 1871,
      "▁planlıyor": 1872,
      "##dig": 1873,
      "▁fan": 1874,
      "▁konusu": 1875,
      "##onelik": 1876,
      "▁olc": 1877,
      "##p": 1878,
      "▁ortalık": 1879,
      "▁eger": 1880,
      "▁olmasına": 1881,
      "##kiz": 1882,
      "▁fab": 1883,
      "▁netic": 1884,
      "▁temsilcisi": 1885,
      "##bar": 1886,
      "##lıların": 1887,
      "▁kredi": 1888,
      "▁cin": 1889,
      "▁kural": 1890,
      "▁harek": 1891,
      "▁bolg": 1892,
      "##'ne": 1893,
      "##ıklıgı": 1894,
      "##landır": 1895,
      "##orn": 1896,
      "##una": 1897,
      "▁yaz": 1898,
      "▁havaalanı": 1899,
      "▁bagı": 1900,
      "##af": 1901,
      "▁on": 1902,
      "▁isinden": 1903,
      "▁dayanıs": 1904,
      "▁hedef": 1905,
      "##estirdi": 1906,
      "▁sask": 1907,
      "▁etmiyor": 1908,
      "▁oyuncak": 1909,
      "▁pasif": 1910,
      "▁kentin": 1911,
      "▁degildi": 1912,
      "▁temer": 1913,
      "▁ipotek": 1914,
      "##rken": 1915,
      "▁konser": 1916,
      "##anın": 1917,
      "##anlar": 1918,
      "▁sozles": 1919,
      "▁aktivite": 1920,
      "##siniz": 1921,
      "▁ortasında": 1922,
      "▁alana": 1923,
      "▁``": 1924,
      "▁sesler": 1925,
      "▁sasır": 1926,
      "▁reklam": 1927,
      "▁tecru": 1928,
      "##liklerini": 1929,
      "##ası": 1930,
      "▁dısına": 1931,
      "▁kulak": 1932,
      "▁yetkili": 1933,
      "▁olmadi": 1934,
      "##ars": 1935,
      "▁ilgiliydi": 1936,
      "▁olabil": 1937,
      "##sek": 1938,
      "▁oy": 1939,
      "▁cocukların": 1940,
      "▁secim": 1941,
      "▁oyunun": 1942,
      "▁beraber": 1943,
      "▁gunler": 1944,
      "▁pır": 1945,
      "##bat": 1946,
      "##meyi": 1947,
      "▁muhend": 1948,
      "▁veriyorum": 1949,
      "▁tartısma": 1950,
      "##ellikle": 1951,
      "▁bazı": 1952,
      "▁alaka": 1953,
      "##ip": 1954,
      "▁cins": 1955,
      "▁ugras": 1956,
      "▁kapısından": 1957,
      "##ikat": 1958,
      "▁agr": 1959,
      "▁dolayi": 1960,
      "▁ab": 1961,
      "▁hayır": 1962,
      "▁mav": 1963,
      "▁mudahal": 1964,
      "▁yarattı": 1965,
      "##ber": 1966,
      "▁uzuntu": 1967,
      "▁vazgec": 1968,
      "▁yolunu": 1969,
      "##ları": 1970,
      "▁parasını": 1971,
      "##-": 1972,
      "▁in": 1973,
      "▁mevki": 1974,
      "▁tavuk": 1975,
      "##uldu": 1976,
      "▁oku": 1977,
      "▁tersine": 1978,
      "▁vakt": 1979,
      "##sınız": 1980,
      "##yas": 1981,
      "▁lan": 1982,
      "▁otelin": 1983,
      "##ncu": 1984,
      "▁gurultu": 1985,
      "##im": 1986,
      "▁elbet": 1987,
      "##lulugu": 1988,
      "▁kapısını": 1989,
      "▁lezzetliydi": 1990,
      "▁etk": 1991,
      "##isti": 1992,
      "▁heyeti": 1993,
      "##ımızı": 1994,
      "##*": 1995,
      "▁uretim": 1996,
      "##larıyla": 1997,
      "▁alıyor": 1998,
      "##leme": 1999,
      "##umuzde": 2000,
      "▁kaliteli": 2001,
      "▁sakat": 2002,
      "##ebilecegini": 2003,
      "##icisi": 2004,
      "▁yıla": 2005,
      "▁ucrete": 2006,
      "▁rah": 2007,
      "▁telefonu": 2008,
      "▁mukem": 2009,
      "▁zır": 2010,
      "▁altına": 2011,
      "##iste": 2012,
      "▁sayisi": 2013,
      "##ukluk": 2014,
      "##miyorum": 2015,
      "▁arabanın": 2016,
      "▁bec": 2017,
      "##taj": 2018,
      "▁tet": 2019,
      "##use": 2020,
      "##ikler": 2021,
      "▁er": 2022,
      "▁parcasını": 2023,
      "▁sorunları": 2024,
      "##ebilecek": 2025,
      "##di": 2026,
      "▁br": 2027,
      "▁dısarıdan": 2028,
      "##ster": 2029,
      "▁arası": 2030,
      "▁oyuna": 2031,
      "▁restor": 2032,
      "##emiz": 2033,
      "▁alan": 2034,
      "▁gencler": 2035,
      "▁yarıs": 2036,
      "▁bakıma": 2037,
      "##ekl": 2038,
      "▁getirdi": 2039,
      "▁listele": 2040,
      "▁26": 2041,
      "▁kir": 2042,
      "▁yabanci": 2043,
      "▁faaliyet": 2044,
      "▁elinde": 2045,
      "▁almaya": 2046,
      "▁butu": 2047,
      "▁jand": 2048,
      "▁ajans": 2049,
      "##2": 2050,
      "▁tutun": 2051,
      "▁makine": 2052,
      "▁gars": 2053,
      "##eler": 2054,
      "##a'da": 2055,
      "▁tahmini": 2056,
      "##alog": 2057,
      "▁basarıya": 2058,
      "##amda": 2059,
      "▁cekim": 2060,
      "▁capında": 2061,
      "##afet": 2062,
      "▁payını": 2063,
      "##dev": 2064,
      "##tur": 2065,
      "##net": 2066,
      "y": 2067,
      "▁karsılıgında": 2068,
      "▁masaj": 2069,
      "##van": 2070,
      "##likte": 2071,
      "▁bog": 2072,
      "##ısın": 2073,
      "▁gozlem": 2074,
      "▁soy": 2075,
      "▁katana": 2076,
      "▁yerlere": 2077,
      "##ind": 2078,
      "▁musterilere": 2079,
      "▁muhtar": 2080,
      "▁darb": 2081,
      "▁birkac": 2082,
      "▁anim": 2083,
      "##ess": 2084,
      "##0'": 2085,
      "▁ihtiyat": 2086,
      "▁patates": 2087,
      "##unluk": 2088,
      "▁de": 2089,
      "##cının": 2090,
      "▁sesini": 2091,
      "##eyim": 2092,
      "▁gir": 2093,
      "▁iflas": 2094,
      "▁duzine": 2095,
      "##etim": 2096,
      "▁itibariyle": 2097,
      "▁kazanc": 2098,
      "##ılmak": 2099,
      "▁karanlık": 2100,
      "▁ornegin": 2101,
      "▁tasıy": 2102,
      "▁fut": 2103,
      "##acagız": 2104,
      "▁ihtiyac": 2105,
      "▁hamle": 2106,
      "▁mart": 2107,
      "▁kontrol": 2108,
      "▁j": 2109,
      "##dırım": 2110,
      "▁yapının": 2111,
      "▁oz": 2112,
      "▁piy": 2113,
      "##kten": 2114,
      "x": 2115,
      "▁davr": 2116,
      "▁bileti": 2117,
      "##ans": 2118,
      "##hu": 2119,
      "##he": 2120,
      "▁herkesin": 2121,
      "##mul": 2122,
      "▁odayı": 2123,
      "▁sonra": 2124,
      "##ısı": 2125,
      "##.1": 2126,
      "▁duz": 2127,
      "##gının": 2128,
      "##aydı": 2129,
      "=": 2130,
      "▁olarak": 2131,
      "▁tedar": 2132,
      "▁odamdan": 2133,
      "##tıkları": 2134,
      "▁gayrimen": 2135,
      "##meleri": 2136,
      "▁don": 2137,
      "▁tavsiye": 2138,
      "##layı": 2139,
      "▁yasamın": 2140,
      "▁cuz": 2141,
      "4": 2142,
      "▁ekip": 2143,
      "▁ilave": 2144,
      "▁si": 2145,
      "▁yasında": 2146,
      "▁umid": 2147,
      "▁konut": 2148,
      "▁arabalar": 2149,
      "▁yaptıgını": 2150,
      "##`": 2151,
      "▁magaza": 2152,
      "▁reddet": 2153,
      "▁isyan": 2154,
      "▁toparlan": 2155,
      "▁calısmak": 2156,
      "##ime": 2157,
      "##ıslar": 2158,
      "▁if": 2159,
      "▁e": 2160,
      "▁kisiyi": 2161,
      "##eleri": 2162,
      "▁haftada": 2163,
      "##imi": 2164,
      "▁pasa": 2165,
      "##tın": 2166,
      "▁hukum": 2167,
      "▁bakıyor": 2168,
      "▁ucus": 2169,
      "▁havuzun": 2170,
      "▁endustrisi": 2171,
      "▁acen": 2172,
      "▁9": 2173,
      "▁faz": 2174,
      "▁ked": 2175,
      "▁tahıl": 2176,
      "▁pur": 2177,
      "##'nı": 2178,
      "▁konuları": 2179,
      "▁beyle": 2180,
      "▁haklarını": 2181,
      "▁ucuslar": 2182,
      "▁amacıyla": 2183,
      "▁cag": 2184,
      "▁arabaya": 2185,
      "▁basladılar": 2186,
      "▁oldukca": 2187,
      "##giniz": 2188,
      "▁aradan": 2189,
      "▁gecm": 2190,
      "##dı": 2191,
      "▁almayı": 2192,
      "▁kimlik": 2193,
      "▁ho": 2194,
      "##oroz": 2195,
      "g": 2196,
      "▁ayakk": 2197,
      "▁polit": 2198,
      "▁stok": 2199,
      "▁meclis": 2200,
      "▁kılıc": 2201,
      "▁kapının": 2202,
      "▁far": 2203,
      "▁,": 2204,
      "▁safh": 2205,
      "▁ameliyat": 2206,
      "▁yitir": 2207,
      "##ama": 2208,
      "▁emeklilik": 2209,
      "▁tanıtım": 2210,
      "▁yerine": 2211,
      "▁cicek": 2212,
      "▁avru": 2213,
      "▁prenses": 2214,
      "▁kıymet": 2215,
      "▁bitir": 2216,
      "▁kalma": 2217,
      "▁baslayacak": 2218,
      "▁kelep": 2219,
      "▁meydana": 2220,
      "▁yavas": 2221,
      "▁durumdan": 2222,
      "▁sipar": 2223,
      "▁ragmen": 2224,
      "▁salt": 2225,
      "▁nakit": 2226,
      "##masını": 2227,
      "▁vardır": 2228,
      "▁hakem": 2229,
      "▁w": 2230,
      "▁planlarını": 2231,
      "##ıgını": 2232,
      "▁fasuly": 2233,
      "▁uzak": 2234,
      "##ma": 2235,
      "▁fiyati": 2236,
      "▁yaban": 2237,
      "▁net": 2238,
      "▁orani": 2239,
      "▁bakan": 2240,
      "##luga": 2241,
      "##fen": 2242,
      "##iyatr": 2243,
      "##mıslar": 2244,
      "▁herk": 2245,
      "▁siper": 2246,
      "▁gov": 2247,
      "▁havaalanından": 2248,
      "##ligini": 2249,
      "▁endust": 2250,
      "▁zafer": 2251,
      "▁onunla": 2252,
      "▁tehlike": 2253,
      "▁yiyecekler": 2254,
      "▁agzını": 2255,
      "▁olmuyor": 2256,
      "▁caz": 2257,
      "▁buyukel": 2258,
      "▁hayal": 2259,
      "##isi": 2260,
      "▁bey": 2261,
      "##izdi": 2262,
      "▁ithalat": 2263,
      "##desi": 2264,
      "▁hayv": 2265,
      "▁iletisim": 2266,
      "▁hazine": 2267,
      "▁cd": 2268,
      "▁ogle": 2269,
      "▁kurulunun": 2270,
      "▁komisyon": 2271,
      "▁konuk": 2272,
      "##larının": 2273,
      "▁fik": 2274,
      "##cılık": 2275,
      "##mam": 2276,
      "▁zamanla": 2277,
      "▁atol": 2278,
      "▁ingiliz": 2279,
      "▁daglar": 2280,
      "▁seytan": 2281,
      "▁ayna": 2282,
      "▁kalb": 2283,
      "▁memur": 2284,
      "▁gore": 2285,
      "▁hangisi": 2286,
      "##ttı": 2287,
      "▁fırsat": 2288,
      "▁borc": 2289,
      "▁ikin": 2290,
      "▁mor": 2291,
      "▁muhafaza": 2292,
      "▁odul": 2293,
      "##ici": 2294,
      "##larına": 2295,
      "▁begenmedim": 2296,
      "##gim": 2297,
      "##yuzlu": 2298,
      "▁duvarda": 2299,
      "▁yavr": 2300,
      "▁sanırım": 2301,
      "##eyr": 2302,
      "▁kuslar": 2303,
      "##bir": 2304,
      "▁telafi": 2305,
      "##stık": 2306,
      "▁kesinlikle": 2307,
      "▁iliskiler": 2308,
      "▁universit": 2309,
      "▁strateji": 2310,
      "▁kalitesinden": 2311,
      "▁arkadasım": 2312,
      "▁odan": 2313,
      "▁dua": 2314,
      "▁hayvan": 2315,
      "▁resepsiyon": 2316,
      "▁torun": 2317,
      "▁oncesine": 2318,
      "##org": 2319,
      "##sunuz": 2320,
      "▁kasaba": 2321,
      "▁egitimi": 2322,
      "▁gece": 2323,
      "##den": 2324,
      "##alif": 2325,
      "▁isbir": 2326,
      "##'lik": 2327,
      "▁oyna": 2328,
      "▁kurallar": 2329,
      "##lanan": 2330,
      "▁kullanmadim": 2331,
      "▁odaydi": 2332,
      "▁he": 2333,
      "##ilir": 2334,
      "▁isimler": 2335,
      "▁olanaklarını": 2336,
      "▁itir": 2337,
      "##ıgı": 2338,
      "##dıgında": 2339,
      "▁guzeldi": 2340,
      "▁duman": 2341,
      "▁birles": 2342,
      "▁seattle": 2343,
      "##muyordu": 2344,
      "▁cezası": 2345,
      "##e": 2346,
      "▁islemler": 2347,
      "▁yıllardır": 2348,
      "▁kot": 2349,
      "##emek": 2350,
      "▁degisiklikleri": 2351,
      "##ket": 2352,
      "▁arkada": 2353,
      "▁gittim": 2354,
      "##eticisi": 2355,
      "▁kez": 2356,
      "▁etmeye": 2357,
      "▁sarap": 2358,
      "▁zih": 2359,
      "▁icra": 2360,
      "▁sandaly": 2361,
      "▁salınc": 2362,
      "▁bom": 2363,
      "▁bolum": 2364,
      "▁keleb": 2365,
      "▁bakım": 2366,
      "▁depart": 2367,
      "##egin": 2368,
      "##amaz": 2369,
      "##altı": 2370,
      "▁lutfen": 2371,
      "▁sapka": 2372,
      "▁piyasasının": 2373,
      "▁cip": 2374,
      "##otte": 2375,
      "▁sabahın": 2376,
      "##bus": 2377,
      "▁edip": 2378,
      "▁kalite": 2379,
      "▁isletme": 2380,
      "##lac": 2381,
      "▁yoktu": 2382,
      "▁ih": 2383,
      "▁zul": 2384,
      "▁ayın": 2385,
      "▁ik": 2386,
      "▁akt": 2387,
      "▁oturma": 2388,
      "▁ziyaret": 2389,
      "##akı": 2390,
      "▁cit": 2391,
      "▁te": 2392,
      "##acaklarını": 2393,
      "▁doların": 2394,
      "▁hiss": 2395,
      "##likten": 2396,
      "##medi": 2397,
      "##fi": 2398,
      "▁oyn": 2399,
      "▁gozunu": 2400,
      "▁za": 2401,
      "▁ekonomist": 2402,
      "▁nedenle": 2403,
      ";": 2404,
      "##na": 2405,
      "▁yog": 2406,
      "▁ticareti": 2407,
      "▁hakikat": 2408,
      "▁gunden": 2409,
      "▁kısk": 2410,
      "▁ust": 2411,
      "▁hucre": 2412,
      "▁bug": 2413,
      "▁memnun": 2414,
      "▁idare": 2415,
      "▁27": 2416,
      "▁pay": 2417,
      "##pa": 2418,
      "##aliydi": 2419,
      "▁agac": 2420,
      "##'n": 2421,
      "##isah": 2422,
      "##irmi": 2423,
      "##ligine": 2424,
      "▁havaya": 2425,
      "▁ayrılık": 2426,
      "▁sırtını": 2427,
      "▁mısır": 2428,
      "▁sorustur": 2429,
      "##mıstım": 2430,
      "▁soylemek": 2431,
      "▁dallas": 2432,
      "##ee": 2433,
      "▁kaydetti": 2434,
      "▁sola": 2435,
      "▁detay": 2436,
      "▁durdur": 2437,
      "▁kaldır": 2438,
      "##'da": 2439,
      "##ledi": 2440,
      "▁ramaz": 2441,
      "▁temel": 2442,
      "▁seviyede": 2443,
      "▁yurd": 2444,
      "▁lobi": 2445,
      "▁vergi": 2446,
      "##ro": 2447,
      "▁guver": 2448,
      "▁teklifi": 2449,
      "▁dr": 2450,
      "▁askeri": 2451,
      "##medigini": 2452,
      "▁saldırı": 2453,
      "▁elini": 2454,
      "▁islemlerinde": 2455,
      "##evi": 2456,
      "▁yaslı": 2457,
      "▁sayı": 2458,
      "▁bulas": 2459,
      "▁tatlilar": 2460,
      "##lug": 2461,
      "▁belki": 2462,
      "▁med": 2463,
      "▁sansur": 2464,
      "##lanması": 2465,
      "▁kapalı": 2466,
      "▁biy": 2467,
      "▁odalardan": 2468,
      "▁gozluk": 2469,
      "##ılım": 2470,
      "##cagı": 2471,
      "▁senetleri": 2472,
      "▁igne": 2473,
      "▁calismasina": 2474,
      "▁uret": 2475,
      "▁tarafına": 2476,
      "##anıs": 2477,
      "▁yuzune": 2478,
      "▁sise": 2479,
      "▁pak": 2480,
      "▁3": 2481,
      "▁gozlerini": 2482,
      "▁secenek": 2483,
      "##ılmıs": 2484,
      "▁tarl": 2485,
      "##i'nin": 2486,
      "▁ekonomik": 2487,
      "▁lezzetleri": 2488,
      "▁geliyor": 2489,
      "▁yansı": 2490,
      "▁kuf": 2491,
      "▁lu": 2492,
      "▁av": 2493,
      "##ısıyla": 2494,
      "▁altern": 2495,
      "▁%2": 2496,
      "7": 2497,
      "▁borsa": 2498,
      "##inde": 2499,
      "▁dalı": 2500,
      "##k": 2501,
      "▁ek": 2502,
      "▁duskun": 2503,
      "##ruk": 2504,
      "▁evin": 2505,
      "##isim": 2506,
      "▁standart": 2507,
      "▁cevr": 2508,
      "▁meclisi": 2509,
      "▁onunde": 2510,
      "##lıkla": 2511,
      "▁mekte": 2512,
      "▁gozlerinin": 2513,
      "▁cekic": 2514,
      "▁orne": 2515,
      "##'te": 2516,
      "▁farklılık": 2517,
      "▁ayagı": 2518,
      "##lik": 2519,
      "▁evvel": 2520,
      "▁tip": 2521,
      "▁vatandas": 2522,
      "##li": 2523,
      "##iren": 2524,
      "##tikce": 2525,
      "▁ele": 2526,
      "▁eyalet": 2527,
      "▁sehrine": 2528,
      "▁gerekiyor": 2529,
      "##erindeki": 2530,
      "▁birini": 2531,
      "▁donuyor": 2532,
      "▁sas": 2533,
      "##len": 2534,
      "▁giriste": 2535,
      "▁zararı": 2536,
      "##vi": 2537,
      "▁kat": 2538,
      "▁anayasa": 2539,
      "▁mola": 2540,
      "##dur": 2541,
      "▁buna": 2542,
      "▁taraf": 2543,
      "▁girmek": 2544,
      "n": 2545,
      "▁dav": 2546,
      "▁agırlık": 2547,
      "##aca": 2548,
      "▁verim": 2549,
      "##-a": 2550,
      "##emiyorum": 2551,
      "##agi": 2552,
      "▁pantolon": 2553,
      "▁tesebbus": 2554,
      "▁hur": 2555,
      "▁hucr": 2556,
      "##'t": 2557,
      "▁ac": 2558,
      "▁azalt": 2559,
      "##2'den": 2560,
      "▁elestir": 2561,
      "▁ciro": 2562,
      "▁yemekten": 2563,
      "▁gunlerde": 2564,
      "▁ortaydi": 2565,
      "▁maliye": 2566,
      "▁konuyla": 2567,
      "▁seyirci": 2568,
      "▁deng": 2569,
      "▁seviyesinde": 2570,
      "▁anlamak": 2571,
      "▁kultur": 2572,
      "▁garson": 2573,
      "▁direk": 2574,
      "▁katıl": 2575,
      "▁ayaklarının": 2576,
      "##alarım": 2577,
      "##macılar": 2578,
      "▁mektep": 2579,
      "##ye": 2580,
      "▁muhasebe": 2581,
      "##avv": 2582,
      "##ansız": 2583,
      "##ldi": 2584,
      "▁cekici": 2585,
      "▁unu": 2586,
      "##fer": 2587,
      "▁maliyeti": 2588,
      "▁gosterin": 2589,
      "▁faiz": 2590,
      "##madı": 2591,
      "▁ihracı": 2592,
      "▁evi": 2593,
      "##gunluk": 2594,
      "▁nas": 2595,
      "▁planın": 2596,
      "▁borcunu": 2597,
      "▁ins": 2598,
      "##ruf": 2599,
      "▁kapan": 2600,
      "▁giyim": 2601,
      "▁kardesim": 2602,
      "▁sozlerine": 2603,
      "▁politikası": 2604,
      "▁kom": 2605,
      "▁parti": 2606,
      "▁tarafını": 2607,
      "▁tutar": 2608,
      "▁sup": 2609,
      "▁rıh": 2610,
      "▁bana": 2611,
      "▁3'ten": 2612,
      "▁teor": 2613,
      "▁tanr": 2614,
      "▁sohbet": 2615,
      "▁dusunceler": 2616,
      "##leriniz": 2617,
      "▁cocuklarını": 2618,
      "##attı": 2619,
      "▁nik": 2620,
      "▁deprem": 2621,
      "▁oyunc": 2622,
      "▁yi": 2623,
      "▁aktor": 2624,
      "▁turlu": 2625,
      "▁yatırımcılar": 2626,
      "▁top": 2627,
      "▁siir": 2628,
      "##cum": 2629,
      "▁bakalım": 2630,
      "##lerle": 2631,
      "$": 2632,
      "▁197": 2633,
      "▁hır": 2634,
      "##ılmaz": 2635,
      "##ılan": 2636,
      "▁getir": 2637,
      "▁kisi": 2638,
      "▁ekm": 2639,
      "##eksiyon": 2640,
      "##pe": 2641,
      "##anlara": 2642,
      "##uktu": 2643,
      "▁terk": 2644,
      "▁ittifak": 2645,
      "▁mobil": 2646,
      "▁boyun": 2647,
      "▁supur": 2648,
      "##uguna": 2649,
      "▁tepki": 2650,
      "##gimiz": 2651,
      "▁kayn": 2652,
      "v": 2653,
      "▁savun": 2654,
      "##c": 2655,
      "▁deney": 2656,
      "▁sahil": 2657,
      "##par": 2658,
      "##ırmak": 2659,
      "##atını": 2660,
      "▁intih": 2661,
      "##erans": 2662,
      "[PAD]": 2663,
      "▁arab": 2664,
      "▁yakinlar": 2665,
      "▁boyu": 2666,
      "▁uyk": 2667,
      "▁karak": 2668,
      "##anlarda": 2669,
      "▁aga": 2670,
      "▁kira": 2671,
      "▁gerek": 2672,
      "▁bizimle": 2673,
      "▁baskaları": 2674,
      "▁muay": 2675,
      "▁kolu": 2676,
      "##nun": 2677,
      "▁eder": 2678,
      "##suz": 2679,
      "▁parca": 2680,
      "##osun": 2681,
      "▁plana": 2682,
      "##hane": 2683,
      "▁oyku": 2684,
      "##dak": 2685,
      "▁tek": 2686,
      "▁cıkarmaya": 2687,
      "▁ulus": 2688,
      "▁gru": 2689,
      "▁zah": 2690,
      "▁bulbul": 2691,
      "▁sayısını": 2692,
      "▁ulasım": 2693,
      "▁francisco": 2694,
      "▁ortaklık": 2695,
      "▁tesisi": 2696,
      "▁oranlarının": 2697,
      "▁serin": 2698,
      "▁edi": 2699,
      "▁guleryuzluydu": 2700,
      "##aseb": 2701,
      "▁havuzlari": 2702,
      "##ev": 2703,
      "▁koku": 2704,
      "▁burun": 2705,
      "▁arkadası": 2706,
      "▁ile": 2707,
      "##iri": 2708,
      "▁birlesik": 2709,
      "▁amcam": 2710,
      "▁yagmur": 2711,
      "▁bunları": 2712,
      "▁ade": 2713,
      "▁yılının": 2714,
      "##dugu": 2715,
      "▁yapma": 2716,
      "▁sıc": 2717,
      "##isco": 2718,
      "##uzlu": 2719,
      "▁yukseldi": 2720,
      "▁gozlerinden": 2721,
      "##tas": 2722,
      "▁sirketleri": 2723,
      "##dıgı": 2724,
      "##ada": 2725,
      "▁arkadaslar": 2726,
      "##ıklar": 2727,
      "▁adım": 2728,
      "▁vali": 2729,
      "##abaz": 2730,
      "▁cep": 2731,
      "##ekti": 2732,
      "▁13": 2733,
      "▁fıs": 2734,
      "▁kup": 2735,
      "▁begendim": 2736,
      "##i": 2737,
      "▁aramız": 2738,
      "##usuyla": 2739,
      "▁sevda": 2740,
      "▁arz": 2741,
      "▁dislerini": 2742,
      "##eginde": 2743,
      "▁kavram": 2744,
      "▁rahat": 2745,
      "##ult": 2746,
      "▁as": 2747,
      "##lardı": 2748,
      "▁zamanda": 2749,
      "▁end": 2750,
      "▁oranını": 2751,
      "&": 2752,
      "##cok": 2753,
      "▁kollarını": 2754,
      "▁oyunu": 2755,
      "##sıyla": 2756,
      "▁devreye": 2757,
      "▁kalıyor": 2758,
      "##gınlık": 2759,
      "##d": 2760,
      "▁grev": 2761,
      "▁em": 2762,
      "▁yemeklerde": 2763,
      "##edik": 2764,
      "##egine": 2765,
      "▁torb": 2766,
      "▁ruy": 2767,
      "▁ic": 2768,
      "##lıgında": 2769,
      "##okul": 2770,
      "▁sınıfın": 2771,
      "▁tarihin": 2772,
      "▁iceriden": 2773,
      "##cılıg": 2774,
      "##itesi": 2775,
      "▁arasındaki": 2776,
      "▁arasından": 2777,
      "▁mek": 2778,
      "##ark": 2779,
      "▁hayatta": 2780,
      "##ay": 2781,
      "▁balkon": 2782,
      "##oloj": 2783,
      "##lendir": 2784,
      "▁dc": 2785,
      "▁cet": 2786,
      "▁muhafazakar": 2787,
      "▁corp.": 2788,
      "##stı": 2789,
      "▁evinin": 2790,
      "##a'ya": 2791,
      "▁yolcu": 2792,
      "▁asık": 2793,
      "##idi": 2794,
      "▁go": 2795,
      "▁seyahat": 2796,
      "▁sana": 2797,
      "▁planlamam": 2798,
      "▁konusuyor": 2799,
      "▁kred": 2800,
      "?": 2801,
      "▁tenis": 2802,
      "▁bugday": 2803,
      "▁luz": 2804,
      "▁olumu": 2805,
      "▁vermedi": 2806,
      "▁onu": 2807,
      "▁ısrar": 2808,
      "##misti": 2809,
      "▁kategor": 2810,
      "▁kent": 2811,
      "▁dır": 2812,
      "▁yesil": 2813,
      "##mine": 2814,
      "▁iktidar": 2815,
      "▁boru": 2816,
      "▁yapmadı": 2817,
      "▁gonder": 2818,
      "##ha": 2819,
      "▁kum": 2820,
      "▁phoeni": 2821,
      "…": 2822,
      "##ıl": 2823,
      "▁tahr": 2824,
      "▁eleman": 2825,
      "▁yardım": 2826,
      "##ograf": 2827,
      "▁yans": 2828,
      "##elig": 2829,
      "▁performansi": 2830,
      "▁ef": 2831,
      "▁yargıc": 2832,
      "▁yasamak": 2833,
      "##lemek": 2834,
      "▁ipot": 2835,
      "##mesine": 2836,
      "▁efendim": 2837,
      "##lasmıs": 2838,
      "##impiyat": 2839,
      "##r": 2840,
      "##eland": 2841,
      "▁rus": 2842,
      "▁ilan": 2843,
      "▁halde": 2844,
      "##satı": 2845,
      "▁dl": 2846,
      "▁ucuslarını": 2847,
      "▁sonuclarını": 2848,
      "▁sermaye": 2849,
      "▁ucusunu": 2850,
      "▁yuksek": 2851,
      "▁milyon": 2852,
      "▁basladım": 2853,
      "▁ozellikleri": 2854,
      "##“": 2855,
      "▁istedig": 2856,
      "▁gıda": 2857,
      "##abilmek": 2858,
      "▁duygu": 2859,
      "##reti": 2860,
      "▁sekil": 2861,
      "▁gur": 2862,
      "▁calısma": 2863,
      "▁cizg": 2864,
      "##tanbul": 2865,
      "▁cas": 2866,
      "▁spekulasyon": 2867,
      "▁ak": 2868,
      "▁imkan": 2869,
      "##estiri": 2870,
      "▁topraga": 2871,
      "##ne": 2872,
      "##kır": 2873,
      "##.3": 2874,
      "##meldi": 2875,
      "▁memlekette": 2876,
      "▁erkek": 2877,
      "▁hayat": 2878,
      "▁y": 2879,
      "##akları": 2880,
      "▁uye": 2881,
      "▁kitapları": 2882,
      "▁digerleri": 2883,
      "▁sov": 2884,
      "▁bon": 2885,
      "▁kalem": 2886,
      "▁sendik": 2887,
      "##'nun": 2888,
      "▁guzelligi": 2889,
      "##wa": 2890,
      "▁ihale": 2891,
      "##leleri": 2892,
      "▁ders": 2893,
      "▁onceki": 2894,
      "##les": 2895,
      "▁ucaklar": 2896,
      "▁ay": 2897,
      "▁doga": 2898,
      "l": 2899,
      "▁ceza": 2900,
      "##ınca": 2901,
      "▁ucuslarla": 2902,
      "▁danısman": 2903,
      "▁odeme": 2904,
      "▁yaprak": 2905,
      "##emde": 2906,
      "▁faaliyetleri": 2907,
      "▁pilav": 2908,
      "▁dekorasyonu": 2909,
      "▁mal": 2910,
      "##am": 2911,
      "▁ceyr": 2912,
      "▁cogunluk": 2913,
      "##ızda": 2914,
      "##ug": 2915,
      "▁dagdan": 2916,
      "▁muhafaz": 2917,
      "▁zay": 2918,
      "▁doktora": 2919,
      "▁cıglık": 2920,
      "##ıyoruz": 2921,
      "##eviz": 2922,
      "##elen": 2923,
      "▁fatur": 2924,
      "▁analistler": 2925,
      "##inlik": 2926,
      "▁kendisine": 2927,
      "▁sab": 2928,
      "##yi": 2929,
      "▁ikiye": 2930,
      "##sil": 2931,
      "##maca": 2932,
      "▁talih": 2933,
      "##acının": 2934,
      "▁ucagın": 2935,
      "▁maliyetleri": 2936,
      "##iza": 2937,
      "▁sterlin": 2938,
      "##ırt": 2939,
      "▁dudak": 2940,
      "##oksa": 2941,
      "▁uygar": 2942,
      "##ıb": 2943,
      "▁kayb": 2944,
      "-": 2945,
      "##eder": 2946,
      "▁finanse": 2947,
      "▁geliyordu": 2948,
      "##uslar": 2949,
      "##usten": 2950,
      "▁aldılar": 2951,
      "##lesti": 2952,
      "▁tatil": 2953,
      "##ecek": 2954,
      "+": 2955,
      "▁zorluk": 2956,
      "##eliginde": 2957,
      "▁alet": 2958,
      "▁olanakları": 2959,
      "▁prot": 2960,
      "▁mevsim": 2961,
      "▁amer": 2962,
      "▁kız": 2963,
      "##adan": 2964,
      "▁taks": 2965,
      "▁turkiye": 2966,
      "▁altı": 2967,
      "##lah": 2968,
      "▁oper": 2969,
      "##u": 2970,
      "▁gununu": 2971,
      "▁gu": 2972,
      "##daki": 2973,
      "▁etek": 2974,
      "▁ız": 2975,
      "##ıgında": 2976,
      "▁birinci": 2977,
      "*": 2978,
      "▁yıllarında": 2979,
      "##memiz": 2980,
      "▁olac": 2981,
      "▁incel": 2982,
      "##irleri": 2983,
      "##'ı": 2984,
      "##tmek": 2985,
      "▁arada": 2986,
      "▁vatan": 2987,
      "▁patron": 2988,
      "##ru": 2989,
      "##iyoruz": 2990,
      "##raber": 2991,
      "▁topr": 2992,
      "–": 2993,
      "▁harp": 2994,
      "##orth": 2995,
      "##uvar": 2996,
      "##udur": 2997,
      "##nem": 2998,
      "##ıyordum": 2999,
      "##unu": 3000,
      "##biye": 3001,
      "##leri": 3002,
      "▁agab": 3003,
      "##cek": 3004,
      "▁chic": 3005,
      "▁cekmek": 3006,
      "##ing": 3007,
      "▁cab": 3008,
      "▁fit": 3009,
      "##'u": 3010,
      "▁yani": 3011,
      "▁isle": 3012,
      "##ildi": 3013,
      "▁gomleg": 3014,
      "##ekt": 3015,
      "##me": 3016,
      "▁som": 3017,
      "▁kapısı": 3018,
      "▁hamam": 3019,
      "##bas": 3020,
      "##eceg": 3021,
      "##mayı": 3022,
      "##tal": 3023,
      "▁dogasi": 3024,
      "▁havayolları": 3025,
      "##eyin": 3026,
      "▁demokratlar": 3027,
      "▁hızı": 3028,
      "##ımız": 3029,
      "▁duruma": 3030,
      "##tik": 3031,
      "##aket": 3032,
      "▁tatlı": 3033,
      "##ıyla": 3034,
      "▁olmaktan": 3035,
      "▁ipek": 3036,
      "##arda": 3037,
      "▁ozur": 3038,
      "##gisi": 3039,
      "▁olmak": 3040,
      "▁degn": 3041,
      "▁acıkladı": 3042,
      "##lerden": 3043,
      "▁kaldik": 3044,
      "▁fir": 3045,
      "▁donem": 3046,
      "▁halef": 3047,
      "▁lezzeti": 3048,
      "##eyle": 3049,
      "##eyen": 3050,
      "##ediy": 3051,
      "##larıma": 3052,
      "##mistim": 3053,
      "▁yuk": 3054,
      "▁eglenc": 3055,
      "##enler": 3056,
      "##'ın": 3057,
      "##lastı": 3058,
      "▁cir": 3059,
      "▁musteriler": 3060,
      "▁kagıt": 3061,
      "q": 3062,
      "▁etmek": 3063,
      "▁bankalar": 3064,
      "▁kod": 3065,
      "##'in": 3066,
      "▁airlines": 3067,
      "▁yumus": 3068,
      "##dım": 3069,
      "##usun": 3070,
      "▁han": 3071,
      "##asından": 3072,
      "##acık": 3073,
      "▁okumak": 3074,
      "##4'e": 3075,
      "▁nedir": 3076,
      "▁sac": 3077,
      "▁buyum": 3078,
      "##ıcılık": 3079,
      "▁cil": 3080,
      "▁gunduz": 3081,
      "##madi": 3082,
      "▁kıl": 3083,
      "▁ind": 3084,
      "▁nitelik": 3085,
      "##etle": 3086,
      "[UNK]": 3087,
      "▁ucunu": 3088,
      "▁yonetici": 3089,
      "▁bulmak": 3090,
      "▁olacak": 3091,
      "▁servet": 3092,
      "##ore": 3093,
      "##dem": 3094,
      "▁tap": 3095,
      "▁planının": 3096,
      "▁vucu": 3097,
      "##atları": 3098,
      "##lat": 3099,
      "▁philadelphia'ya": 3100,
      "▁heps": 3101,
      "▁hissed": 3102,
      "##onto": 3103,
      "▁elbise": 3104,
      "▁alb": 3105,
      "▁mani": 3106,
      "##0.": 3107,
      "▁borsasında": 3108,
      "▁sınırları": 3109,
      "▁d": 3110,
      "▁mud": 3111,
      "##alarda": 3112,
      "##'nda": 3113,
      "▁tut": 3114,
      "▁buradan": 3115,
      "▁prosedur": 3116,
      "▁henuz": 3117,
      "▁kalab": 3118,
      "▁bazıları": 3119,
      "▁duk": 3120,
      "▁sattı": 3121,
      "##erin": 3122,
      "▁kimse": 3123,
      "▁uyum": 3124,
      "▁lider": 3125,
      "▁duzeni": 3126,
      "▁ger": 3127,
      "▁prov": 3128,
      "##edigi": 3129,
      "▁havayollarında": 3130,
      "##mamız": 3131,
      "▁tir": 3132,
      "▁hazin": 3133,
      "##ekk": 3134,
      "##uncu": 3135,
      "▁disi": 3136,
      "▁sehirler": 3137,
      "▁cıkıs": 3138,
      "##6'dan": 3139,
      "▁baslarında": 3140,
      "▁bunlar": 3141,
      "▁anah": 3142,
      "▁kurdu": 3143,
      "▁labor": 3144,
      "▁kaya": 3145,
      "▁paraya": 3146,
      "##imen": 3147,
      "▁tuccar": 3148,
      "▁gorun": 3149,
      "▁bit": 3150,
      "▁buy": 3151,
      "▁giy": 3152,
      "▁risk": 3153,
      "▁hakları": 3154,
      "▁calısanları": 3155,
      "▁arkadasim": 3156,
      "##'d": 3157,
      "▁gos": 3158,
      "▁isler": 3159,
      "▁": 3160,
      "▁yukseldigini": 3161,
      "##uf": 3162,
      "▁demis": 3163,
      "▁ulkenin": 3164,
      "##ıga": 3165,
      "▁beklenti": 3166,
      "▁eski": 3167,
      "##indi": 3168,
      "▁alındı": 3169,
      "▁palto": 3170,
      "▁tasf": 3171,
      "##b": 3172,
      "##tırma": 3173,
      "▁tedirgin": 3174,
      "▁dusmus": 3175,
      "##iyim": 3176,
      "▁ustun": 3177,
      "▁prob": 3178,
      "▁kelimesi": 3179,
      "▁muduru": 3180,
      "▁heves": 3181,
      "##ekkur": 3182,
      "▁grupları": 3183,
      "##ıcının": 3184,
      "##ce": 3185,
      "▁baltimore": 3186,
      "▁psik": 3187,
      "▁insaat": 3188,
      "##ly": 3189,
      "##inler": 3190,
      "▁mil": 3191,
      "##8'e": 3192,
      "▁sesiyle": 3193,
      "▁fery": 3194,
      "##'ten": 3195,
      "▁husus": 3196,
      "##uyoruz": 3197,
      "##iski": 3198,
      "▁potansiyel": 3199,
      "▁cehr": 3200,
      "##agından": 3201,
      "▁balık": 3202,
      "▁anım": 3203,
      "▁beydi": 3204,
      "▁insanlardan": 3205,
      "▁hayatımda": 3206,
      "▁tesvik": 3207,
      "▁mutf": 3208,
      "▁rec": 3209,
      "▁personel": 3210,
      "▁veririm": 3211,
      "▁sm": 3212,
      "▁fal": 3213,
      "▁moda": 3214,
      "▁dava": 3215,
      "▁degerlendir": 3216,
      "▁olmalı": 3217,
      "▁makaleye": 3218,
      "▁evla": 3219,
      "▁isten": 3220,
      "▁alım-sat": 3221,
      "▁oldur": 3222,
      "▁takım": 3223,
      "▁tarafı": 3224,
      "▁bay": 3225,
      "▁uyeleri": 3226,
      "▁harcam": 3227,
      "▁armag": 3228,
      "▁geyik": 3229,
      "▁demokrasi": 3230,
      "▁antr": 3231,
      "▁doviz": 3232,
      "▁konum": 3233,
      "▁yab": 3234,
      "▁aleyh": 3235,
      "▁fen": 3236,
      "##ımda": 3237,
      "##allas": 3238,
      "▁zey": 3239,
      "▁cos": 3240,
      "▁duvarı": 3241,
      "▁8": 3242,
      "▁orgu": 3243,
      "▁yapmıs": 3244,
      "##ılıga": 3245,
      "##cak": 3246,
      "▁gibiydi": 3247,
      "▁gorus": 3248,
      "▁cocukluk": 3249,
      "▁fazlasını": 3250,
      "##ates": 3251,
      "▁beden": 3252,
      "##.6": 3253,
      "▁hakkinda": 3254,
      "▁guclu": 3255,
      "▁manev": 3256,
      "▁suda": 3257,
      "▁muzigi": 3258,
      "##ri": 3259,
      "▁okudu": 3260,
      "▁isimiz": 3261,
      "▁lira": 3262,
      "##lanmak": 3263,
      "▁hel": 3264,
      "##burg": 3265,
      "▁rot": 3266,
      "▁bankacılık": 3267,
      "▁basımıza": 3268,
      "▁cuma": 3269,
      "▁imal": 3270,
      "▁mul": 3271,
      "▁transfer": 3272,
      "▁baskanı": 3273,
      "▁milyona": 3274,
      "##ısından": 3275,
      "▁olanlar": 3276,
      "##yasal": 3277,
      "##sir": 3278,
      "##uyorlar": 3279,
      "▁annesinin": 3280,
      "▁sonuc": 3281,
      "##kat": 3282,
      "▁gordum": 3283,
      "▁alamadim": 3284,
      "▁ols": 3285,
      "##imiz": 3286,
      "▁ail": 3287,
      "▁mer": 3288,
      "▁yuksekti": 3289,
      "▁yagı": 3290,
      "▁komutan": 3291,
      "▁cay": 3292,
      "##inci": 3293,
      "##eveyn": 3294,
      "##eyn": 3295,
      "##ardan": 3296,
      "▁yerden": 3297,
      "##se": 3298,
      "▁gercekl": 3299,
      "▁ayaklarını": 3300,
      "▁biri": 3301,
      "▁hazır": 3302,
      "##sik": 3303,
      "▁feda": 3304,
      "▁canlı": 3305,
      "▁lif": 3306,
      "▁havaalanı'ndan": 3307,
      "▁kar": 3308,
      "▁angel": 3309,
      "##eren": 3310,
      "▁mik": 3311,
      "▁raporda": 3312,
      "▁emniyet": 3313,
      "▁protokol": 3314,
      "##elerle": 3315,
      "▁yil": 3316,
      "[SEP]": 3317,
      "##mamıstı": 3318,
      "▁diyet": 3319,
      "▁manzar": 3320,
      "▁turden": 3321,
      "▁yururluge": 3322,
      "▁neden": 3323,
      "##tansiy": 3324,
      "▁olas": 3325,
      "##ınır": 3326,
      "▁barıs": 3327,
      "▁muhalif": 3328,
      "▁seans": 3329,
      "▁derecede": 3330,
      "##ısını": 3331,
      "##lılıgı": 3332,
      "▁mis": 3333,
      "▁kadınlar": 3334,
      "▁hakk": 3335,
      "▁ulkelerde": 3336,
      "▁tedavi": 3337,
      "▁yetenek": 3338,
      "▁aram": 3339,
      "##madım": 3340,
      "##ır": 3341,
      "▁pamuk": 3342,
      "▁hukumet": 3343,
      "▁mat": 3344,
      "▁girisim": 3345,
      "▁gonl": 3346,
      "▁aqu": 3347,
      "▁nasıl": 3348,
      "▁ortalıgı": 3349,
      "▁piyasaları": 3350,
      "▁cocuga": 3351,
      "▁bulundugu": 3352,
      "##ton": 3353,
      "▁yıldız": 3354,
      "##eldi": 3355,
      "▁en": 3356,
      "▁pencere": 3357,
      "▁hanima": 3358,
      "##arası": 3359,
      "▁vak": 3360,
      "▁noktaya": 3361,
      "▁tabi": 3362,
      "▁odalar": 3363,
      "##ımızda": 3364,
      "##iyordum": 3365,
      "##emiyor": 3366,
      "▁mac": 3367,
      "▁ondan": 3368,
      "▁kurs": 3369,
      "▁yerlerden": 3370,
      "▁pencereden": 3371,
      "▁mo": 3372,
      "▁aras": 3373,
      "▁leblebi": 3374,
      "▁haklar": 3375,
      "##ine": 3376,
      "▁ob": 3377,
      "▁kesi": 3378,
      "▁komit": 3379,
      "##emeye": 3380,
      "▁tuccarlar": 3381,
      "▁kalmak": 3382,
      "▁teh": 3383,
      "▁isleme": 3384,
      "##lestir": 3385,
      "▁ki": 3386,
      "##ter": 3387,
      "##ia": 3388,
      "▁komur": 3389,
      "##lisi": 3390,
      "▁edit": 3391,
      "▁ayrım": 3392,
      "▁yurudu": 3393,
      "▁fiyatina": 3394,
      "##bak": 3395,
      "##ıg": 3396,
      "▁istifa": 3397,
      "▁heyec": 3398,
      "▁mendil": 3399,
      "▁dilim": 3400,
      "▁benzin": 3401,
      "▁hisseler": 3402,
      "▁olanları": 3403,
      "▁temizlikten": 3404,
      "▁bakar": 3405,
      "▁kanser": 3406,
      "▁hatun": 3407,
      "▁iht": 3408,
      "▁muzaker": 3409,
      "##eyi": 3410,
      "▁nerede": 3411,
      "▁satıslar": 3412,
      "▁fin": 3413,
      "##kinin": 3414,
      "▁dah": 3415,
      "##kez": 3416,
      "▁goc": 3417,
      "▁doneminde": 3418,
      "▁dolarlık": 3419,
      "##asız": 3420,
      "▁francisco'dan": 3421,
      "▁veto": 3422,
      "##erk": 3423,
      "▁sektoru": 3424,
      "▁sahn": 3425,
      "▁harc": 3426,
      "▁kırmızı": 3427,
      "##stım": 3428,
      "▁rakı": 3429,
      "##anta": 3430,
      "##anti": 3431,
      "##ırı": 3432,
      "▁ilgisi": 3433,
      "▁30": 3434,
      "▁aqua": 3435,
      "▁hab": 3436,
      "##mekt": 3437,
      "▁hoc": 3438,
      "##er": 3439,
      "##mesi": 3440,
      "▁ustune": 3441,
      "##leriyle": 3442,
      "▁arazi": 3443,
      "▁etkil": 3444,
      "▁medya": 3445,
      "▁goster": 3446,
      "▁verg": 3447,
      "##-sat": 3448,
      "▁yap": 3449,
      "▁evde": 3450,
      "▁her": 3451,
      "▁carsaf": 3452,
      "##unca": 3453,
      "▁misafirimiz": 3454,
      "▁eh": 3455,
      "▁vaz": 3456,
      "##biy": 3457,
      "▁hamal": 3458,
      "##layacak": 3459,
      "##agın": 3460,
      "##tiv": 3461,
      "##dır": 3462,
      "▁yıllık": 3463,
      "▁hasar": 3464,
      "▁neredeyse": 3465,
      "▁aklına": 3466,
      "▁nih": 3467,
      "▁buldu": 3468,
      "▁soguktu": 3469,
      "##dıktan": 3470,
      "▁pazartesi": 3471,
      "▁hacı": 3472,
      "▁salonunda": 3473,
      "▁insa": 3474,
      "▁devralma": 3475,
      "▁pazarda": 3476,
      "##ims": 3477,
      "##din": 3478,
      "##v": 3479,
      "##ıgından": 3480,
      "▁imalat": 3481,
      "▁internet": 3482,
      "##leg": 3483,
      "▁cerey": 3484,
      "▁reddetti": 3485,
      "##iyle": 3486,
      "▁diyor": 3487,
      "##lamayı": 3488,
      "▁persembe": 3489,
      "▁muzak": 3490,
      "##etini": 3491,
      "▁pu": 3492,
      "▁olumlu": 3493,
      "##urg": 3494,
      "▁abla": 3495,
      "▁bakıs": 3496,
      "##aret": 3497,
      "##anlardan": 3498,
      "##rut": 3499,
      "▁rekabet": 3500,
      "▁okulda": 3501,
      "##gı": 3502,
      "##eger": 3503,
      "▁kabil": 3504,
      "▁devri": 3505,
      "▁hastalık": 3506,
      "##iss": 3507,
      "▁pazarlık": 3508,
      "▁?..": 3509,
      "##ited": 3510,
      "▁asagida": 3511,
      "##9'a": 3512,
      "▁simdiye": 3513,
      "▁musteri": 3514,
      "▁miktarda": 3515,
      "▁50": 3516,
      "▁continental": 3517,
      "j": 3518,
      "▁prosed": 3519,
      "▁so": 3520,
      "▁cesitlilik": 3521,
      "▁post": 3522,
      "##burgh": 3523,
      "▁cat": 3524,
      "▁bakıyordu": 3525,
      "▁bis": 3526,
      "▁agz": 3527,
      "▁otelde": 3528,
      "▁yuzu": 3529,
      "##elemek": 3530,
      "##anla": 3531,
      "▁ons": 3532,
      "▁mali": 3533,
      "▁arıyor": 3534,
      "##igim": 3535,
      "▁yapti": 3536,
      "##ahat": 3537,
      "##adem": 3538,
      "▁etmedi": 3539,
      "##bi": 3540,
      "##eg": 3541,
      "▁neyse": 3542,
      "▁$": 3543,
      "▁tam": 3544,
      "▁sın": 3545,
      "▁ozgurluk": 3546,
      "▁cambaz": 3547,
      "▁memleket": 3548,
      "▁charl": 3549,
      "▁geminin": 3550,
      "▁niz": 3551,
      "▁petr": 3552,
      "##andır": 3553,
      "▁yetersizdi": 3554,
      "▁verdigi": 3555,
      "▁getirisi": 3556,
      "▁tari": 3557,
      "▁kazancı": 3558,
      "##ılıgı": 3559,
      "▁dos": 3560,
      "▁ali": 3561,
      "##alama": 3562,
      "▁muhtesem": 3563,
      "▁mevzu": 3564,
      "▁defa": 3565,
      "##ısının": 3566,
      "▁one": 3567,
      "▁aktiviteler": 3568,
      "▁oldugunu": 3569,
      "▁gidi": 3570,
      "▁sınıf": 3571,
      "##imizde": 3572,
      "##lev": 3573,
      "▁bulmaya": 3574,
      "▁yemis": 3575,
      "▁geldi": 3576,
      "▁bugun": 3577,
      "▁nisan": 3578,
      "▁genc": 3579,
      "##edil": 3580,
      "▁iddi": 3581,
      "▁cevir": 3582,
      "▁bonolar": 3583,
      "##ci": 3584,
      "▁tenek": 3585,
      "▁rej": 3586,
      "▁ark": 3587,
      "##en": 3588,
      "▁yarı": 3589,
      "▁yapacagını": 3590,
      "▁tum": 3591,
      "▁hizmeti": 3592,
      "▁maddes": 3593,
      "▁l": 3594,
      "##bu": 3595,
      "▁oldugundan": 3596,
      "##la": 3597,
      "▁gormeye": 3598,
      "▁sahtek": 3599,
      "##j": 3600,
      "▁gunah": 3601,
      "##meye": 3602,
      "▁sozlesme": 3603,
      "▁krem": 3604,
      "▁kadro": 3605,
      "##ana": 3606,
      "▁ulasımını": 3607,
      "▁yenil": 3608,
      "▁nez": 3609,
      "▁ted": 3610,
      "##w": 3611,
      "▁kan": 3612,
      "▁kıymetleri": 3613,
      "##cag": 3614,
      "▁baskan": 3615,
      "▁tahviller": 3616,
      "##lukte": 3617,
      "▁americ": 3618,
      "▁kuralları": 3619,
      "▁aktarmasız": 3620,
      "▁rezervasyon": 3621,
      "▁yetkilileri": 3622,
      "▁icecekler": 3623,
      "##engin": 3624,
      "▁kog": 3625,
      "▁anlamda": 3626,
      "▁parkı": 3627,
      "##yan": 3628,
      "##tigine": 3629,
      "▁hangi": 3630,
      "▁sam": 3631,
      "▁istatist": 3632,
      "▁gostergeleri": 3633,
      "##ekul": 3634,
      "▁ogrenci": 3635,
      "▁duyguları": 3636,
      "▁uzmanlar": 3637,
      "▁vat": 3638,
      "▁yasan": 3639,
      "▁merdiv": 3640,
      "▁lak": 3641,
      "▁zorunda": 3642,
      "▁tanık": 3643,
      "##manlar": 3644,
      "##lum": 3645,
      "▁gonul": 3646,
      "▁olamaz": 3647,
      "##ıyorsun": 3648,
      "▁dahi": 3649,
      "▁finc": 3650,
      "▁st.": 3651,
      "##​": 3652,
      "▁gereksin": 3653,
      "▁hissesi": 3654,
      "▁sırtına": 3655,
      "##ento": 3656,
      "▁sebz": 3657,
      "▁pek": 3658,
      "▁!": 3659,
      "▁insanlar": 3660,
      "▁baskanın": 3661,
      "▁camasır": 3662,
      "▁grubun": 3663,
      "▁oglu": 3664,
      "▁sist": 3665,
      "##'ye": 3666,
      "▁yatırım": 3667,
      "▁cocukları": 3668,
      "▁hesap": 3669,
      "##tıklarını": 3670,
      "▁animator": 3671,
      "▁verdik": 3672,
      "▁kılav": 3673,
      "▁verme": 3674,
      "▁12'den": 3675,
      "▁masasında": 3676,
      "##kilerin": 3677,
      "▁fırt": 3678,
      "▁bahan": 3679,
      "##iyet": 3680,
      "▁komisyonlar": 3681,
      "▁gecesi": 3682,
      "▁bakmak": 3683,
      "▁depo": 3684,
      "##kk": 3685,
      "▁gulums": 3686,
      "##mad": 3687,
      "▁giz": 3688,
      "▁sozlesmesi": 3689,
      "▁girdi": 3690,
      "▁ign": 3691,
      "▁sonunda": 3692,
      "##acılara": 3693,
      "▁yuzyılın": 3694,
      "▁yo": 3695,
      "##atın": 3696,
      "▁cıkmak": 3697,
      "▁suları": 3698,
      "▁ulk": 3699,
      "##ret": 3700,
      "▁sip": 3701,
      "▁gorusmek": 3702,
      "▁imparator": 3703,
      "▁taleb": 3704,
      "▁taklit": 3705,
      "▁defter": 3706,
      "▁sec": 3707,
      "##imdi": 3708,
      "▁istihbar": 3709,
      "▁itibaren": 3710,
      "▁yaptır": 3711,
      "▁yetkilisi": 3712,
      "▁noktası": 3713,
      "▁etkinlik": 3714,
      "##acaktır": 3715,
      "▁kole": 3716,
      "▁tren": 3717,
      "▁hata": 3718,
      "▁dolara": 3719,
      "▁tatile": 3720,
      "▁beyefendi": 3721,
      "▁islere": 3722,
      "▁lir": 3723,
      "▁toplantıda": 3724,
      "▁dr.": 3725,
      "▁protesto": 3726,
      "▁ilgili": 3727,
      "▁sık": 3728,
      "▁dukkan": 3729,
      "▁birbirler": 3730,
      "##iyor": 3731,
      "▁pozisyon": 3732,
      "▁otek": 3733,
      "##adaki": 3734,
      "##lak": 3735,
      "▁babası": 3736,
      "▁sirketlerinin": 3737,
      "▁beri": 3738,
      "▁hisselerini": 3739,
      "##lilig": 3740,
      "▁general": 3741,
      "##000": 3742,
      "▁hukmu": 3743,
      "▁tramvay": 3744,
      "▁saclarını": 3745,
      "##el": 3746,
      "▁ayakta": 3747,
      "##acılar": 3748,
      "▁federal": 3749,
      "▁kaldim": 3750,
      "##ut": 3751,
      "##tarak": 3752,
      "▁rakib": 3753,
      "▁hafız": 3754,
      "##osunda": 3755,
      "##ektedir": 3756,
      "▁tedavulde": 3757,
      "##turdu": 3758,
      "▁yonel": 3759,
      "▁taham": 3760,
      "##lıgı": 3761,
      "▁daima": 3762,
      "▁istedim": 3763,
      "##iran": 3764,
      "▁gob": 3765,
      "▁sezlong": 3766,
      "##‘": 3767,
      "▁cıktı": 3768,
      "##dıgımı": 3769,
      "▁gib": 3770,
      "▁re": 3771,
      "##ıyordu": 3772,
      "▁ona": 3773,
      "##atlı": 3774,
      "▁mim": 3775,
      "##iydi": 3776,
      "▁domuz": 3777,
      "▁cog": 3778,
      "▁telaf": 3779,
      "▁kapasitesi": 3780,
      "▁bar": 3781,
      "▁kilis": 3782,
      "▁eser": 3783,
      "▁potansiy": 3784,
      "▁ortalaması": 3785,
      "▁yıld": 3786,
      "▁yontem": 3787,
      "▁otele": 3788,
      "▁holding": 3789,
      "▁mevduat": 3790,
      "▁gelirleri": 3791,
      "▁kurumu": 3792,
      "##mazlık": 3793,
      "▁biles": 3794,
      "▁duv": 3795,
      "##ant": 3796,
      "▁kaliteye": 3797,
      "▁ayrı": 3798,
      "▁topu": 3799,
      "▁menfaat": 3800,
      "##cev": 3801,
      "▁yapım": 3802,
      "▁ton": 3803,
      "##ız": 3804,
      "▁par": 3805,
      "▁manz": 3806,
      "▁bilmem": 3807,
      "▁dunya": 3808,
      "▁!..": 3809,
      "##ida": 3810,
      "▁mon": 3811,
      "▁sakin": 3812,
      "▁klor": 3813,
      "▁get": 3814,
      "##.m": 3815,
      "##tigi": 3816,
      "▁suru": 3817,
      "▁fuz": 3818,
      "▁denizin": 3819,
      "▁annem": 3820,
      "##artesi": 3821,
      "##oru": 3822,
      "▁tuketici": 3823,
      "##unuz": 3824,
      "▁tutmak": 3825,
      "▁ustunde": 3826,
      "##tat": 3827,
      "▁ilgil": 3828,
      "▁ikide": 3829,
      "##lant": 3830,
      "##mas": 3831,
      "▁inanc": 3832,
      "##h": 3833,
      "▁gecer": 3834,
      "##gunu": 3835,
      "▁maden": 3836,
      "▁ozlem": 3837,
      "▁gazete": 3838,
      "▁dukkanı": 3839,
      "▁kızları": 3840,
      "▁olmad": 3841,
      "▁mektu": 3842,
      "▁rengi": 3843,
      "▁sozunu": 3844,
      "##su": 3845,
      "▁gomlek": 3846,
      "▁kırm": 3847,
      "▁laz": 3848,
      "▁saatte": 3849,
      "##anının": 3850,
      "▁konumu": 3851,
      "▁karsilik": 3852,
      "▁inc.": 3853,
      "##lastik": 3854,
      "▁seklinde": 3855,
      "▁paraları": 3856,
      "▁agrı": 3857,
      "▁oranlar": 3858,
      "▁kon": 3859,
      "##mıstır": 3860,
      "##le": 3861,
      "##kce": 3862,
      "▁ortamda": 3863,
      "▁mutluluk": 3864,
      "▁bak": 3865,
      "▁dieg": 3866,
      "▁nok": 3867,
      "▁haz": 3868,
      "##man": 3869,
      "▁istek": 3870,
      "##.4": 3871,
      "▁icimden": 3872,
      "▁kullan": 3873,
      "▁calısması": 3874,
      "▁ucundan": 3875,
      "▁kayak": 3876,
      "▁hızla": 3877,
      "▁bulut": 3878,
      "▁gay": 3879,
      "▁alın": 3880,
      "▁/": 3881,
      "▁basından": 3882,
      "##maya": 3883,
      "##9'un": 3884,
      "▁onlem": 3885,
      "▁okum": 3886,
      "▁senar": 3887,
      "##'tan": 3888,
      "▁surecin": 3889,
      "▁ogul": 3890,
      "▁patlıc": 3891,
      "▁ruz": 3892,
      "▁iceri": 3893,
      "▁but": 3894,
      "▁performans": 3895,
      "▁belirtti": 3896,
      "##emedi": 3897,
      "▁atıs": 3898,
      "▁uyku": 3899,
      "▁oldugun": 3900,
      "##atik": 3901,
      "▁oncesinde": 3902,
      "▁tarife": 3903,
      "##ki": 3904,
      "▁alt": 3905,
      "▁istiyorum": 3906,
      "▁anla": 3907,
      "▁uyarı": 3908,
      "▁malzemeler": 3909,
      "▁verdigini": 3910,
      "▁fes": 3911,
      "##usunun": 3912,
      "▁gordu": 3913,
      "##eket": 3914,
      "▁olursa": 3915,
      "▁cinayet": 3916,
      "##eh": 3917,
      "##tıl": 3918,
      "▁vide": 3919,
      "##ele": 3920,
      "▁gec": 3921,
      "▁hoca": 3922,
      "▁arkasından": 3923,
      "▁organizasyon": 3924,
      "▁az": 3925,
      "▁cırp": 3926,
      "▁gerekir": 3927,
      "▁sigortası": 3928,
      "▁butc": 3929,
      "▁hesaba": 3930,
      "▁davranıs": 3931,
      "▁laik": 3932,
      "▁kongre": 3933,
      "▁yok": 3934,
      "##'ya": 3935,
      "▁temizlik": 3936,
      "##indan": 3937,
      "▁peyn": 3938,
      "##lugunu": 3939,
      "▁kahkaha": 3940,
      "▁stratej": 3941,
      "▁tv": 3942,
      "##imle": 3943,
      "##ayet": 3944,
      "▁fark": 3945,
      "##unc": 3946,
      "▁vef": 3947,
      "##.7": 3948,
      "▁huy": 3949,
      "▁sebebi": 3950,
      "▁dususu": 3951,
      "##div": 3952,
      "▁kaygı": 3953,
      "▁turb": 3954,
      "##edav": 3955,
      "##cuk": 3956,
      "▁tasv": 3957,
      "▁yonet": 3958,
      "▁pahali": 3959,
      "##cısı": 3960,
      "▁muhtemelen": 3961,
      "##isten": 3962,
      "▁paranın": 3963,
      "##ali": 3964,
      "▁kravat": 3965,
      "▁yonelik": 3966,
      "▁kasıgı": 3967,
      "▁bekledi": 3968,
      "▁ogleden": 3969,
      "▁normaldi": 3970,
      "▁misaf": 3971,
      "▁otede": 3972,
      "▁kansas": 3973,
      "##'nin": 3974,
      "##_": 3975,
      "▁yardimci": 3976,
      "▁iz": 3977,
      "▁yazık": 3978,
      "▁yolunda": 3979,
      "▁yerde": 3980,
      "▁alır": 3981,
      "▁degerlendiririm": 3982,
      "##cinin": 3983,
      "▁baslangıcı": 3984,
      "##lal": 3985,
      "##azı": 3986,
      "▁deh": 3987,
      "▁fakir": 3988,
      "▁kamp": 3989,
      "##sın": 3990,
      "▁ti": 3991,
      "▁ekl": 3992,
      "▁emn": 3993,
      "▁raporları": 3994,
      "▁gerekti": 3995,
      "##yse": 3996,
      "▁sonbah": 3997,
      "▁merkez": 3998,
      "▁yiyeceklerin": 3999,
      "##ınızda": 4000,
      "▁kapat": 4001,
      "##amıs": 4002,
      "▁olmadıgını": 4003,
      "▁kuvvet": 4004,
      "▁do": 4005,
      "##menin": 4006,
      "##ait": 4007,
      "▁mı": 4008,
      "▁lis": 4009,
      "▁ettiler": 4010,
      "▁bono": 4011,
      "▁donemde": 4012,
      "▁iki": 4013,
      "▁degil": 4014,
      "▁dolayı": 4015,
      "▁bakanı": 4016,
      "▁spons": 4017,
      "##ji": 4018,
      "▁bilgisayar": 4019,
      "##piyat": 4020,
      "##ede": 4021,
      "▁agız": 4022,
      "▁pansiyon": 4023,
      "▁govde": 4024,
      "▁tarafından": 4025,
      "##san": 4026,
      "▁vadede": 4027,
      "▁'": 4028,
      "▁kısm": 4029,
      "▁destekl": 4030,
      "##ıcı": 4031,
      "▁pazarı": 4032,
      "▁sonucunda": 4033,
      "▁tabii": 4034,
      "▁dakika": 4035,
      "▁yapı": 4036,
      "▁enflasyon": 4037,
      "▁zen": 4038,
      "▁cihaz": 4039,
      "▁hele": 4040,
      "▁vap": 4041,
      "▁aln": 4042,
      "▁aktivit": 4043,
      "▁cesitliligi": 4044,
      "▁sahili": 4045,
      "▁reviz": 4046,
      "▁birtakım": 4047,
      "##inize": 4048,
      "▁imkanlari": 4049,
      "▁4'ten": 4050,
      "▁kendimi": 4051,
      "▁b": 4052,
      "##agında": 4053,
      "▁yak": 4054,
      "▁hurriyet": 4055,
      "##o'dan": 4056,
      "##ell": 4057,
      "▁odalarin": 4058,
      "▁parayı": 4059,
      "##imizda": 4060,
      "##iyon": 4061,
      "▁bulun": 4062,
      "##inizde": 4063,
      "##klerini": 4064,
      "▁washington": 4065,
      "##ar": 4066,
      "▁ed": 4067,
      "▁bayan": 4068,
      "▁cumartesi": 4069,
      "▁hırsız": 4070,
      "▁eksikligi": 4071,
      "▁uretici": 4072,
      "▁numara": 4073,
      "▁calısmaya": 4074,
      "##andan": 4075,
      "▁gucluk": 4076,
      "##fih": 4077,
      "##atla": 4078,
      "▁edilir": 4079,
      "▁yuks": 4080,
      "▁yeni": 4081,
      "##gin": 4082,
      "▁sonuclar": 4083,
      "##ustan": 4084,
      "##lav": 4085,
      "##lasman": 4086,
      "▁degis": 4087,
      "▁kaz": 4088,
      "▁davası": 4089,
      "▁it": 4090,
      "##hur": 4091,
      "##lemeyi": 4092,
      "▁sid": 4093,
      "##malıdır": 4094,
      "▁operator": 4095,
      "▁toplantısında": 4096,
      "▁fabrika": 4097,
      "##niz": 4098,
      "▁rom": 4099,
      "▁tar": 4100,
      "▁azından": 4101,
      "▁aldıgı": 4102,
      "##ku": 4103,
      "▁icimde": 4104,
      "▁basbakan": 4105,
      "▁cagır": 4106,
      "▁gosteriyor": 4107,
      "##mustum": 4108,
      "##ugum": 4109,
      "▁bolun": 4110,
      "▁tutarında": 4111,
      "▁philadel": 4112,
      "▁col": 4113,
      "▁nere": 4114,
      "▁havayol": 4115,
      "##ısır": 4116,
      "▁kas": 4117,
      "▁acıklanmadı": 4118,
      "▁dusunc": 4119,
      "▁calıs": 4120,
      "▁yuksel": 4121,
      "##cıların": 4122,
      "##sel": 4123,
      "▁satısları": 4124,
      "▁hakkını": 4125,
      "▁asl": 4126,
      "▁teklifini": 4127,
      "▁listel": 4128,
      "▁adımlarla": 4129,
      "▁odanın": 4130,
      "▁sigar": 4131,
      "▁yad": 4132,
      "▁derde": 4133,
      "▁tuvalet": 4134,
      "▁ciz": 4135,
      "##at": 4136,
      "▁poz": 4137,
      "▁sevinc": 4138,
      "##uc": 4139,
      "▁sogu": 4140,
      "▁le": 4141,
      "▁kons": 4142,
      "▁kl": 4143,
      "▁sebep": 4144,
      "▁olmustu": 4145,
      "▁saray": 4146,
      "##alarına": 4147,
      "▁dısarıda": 4148,
      "▁eylem": 4149,
      "##'i": 4150,
      "##eki": 4151,
      "▁cogu": 4152,
      "▁sahipleri": 4153,
      "▁mad": 4154,
      "▁turn": 4155,
      "▁zehir": 4156,
      "##misler": 4157,
      "▁yaptirdi": 4158,
      "▁muam": 4159,
      "▁meg": 4160,
      "▁cıg": 4161,
      "▁ucmak": 4162,
      "▁begen": 4163,
      "##op": 4164,
      "▁buny": 4165,
      "▁bankaları": 4166,
      "##anlı": 4167,
      "##yalar": 4168,
      "▁gar": 4169,
      "▁yolda": 4170,
      "▁pil": 4171,
      "▁harikaydi": 4172,
      "▁franc": 4173,
      "▁seviye": 4174,
      "3": 4175,
      "▁telefonda": 4176,
      "▁kapsamında": 4177,
      "▁agzına": 4178,
      "▁karısının": 4179,
      "▁buldum": 4180,
      "▁cev": 4181,
      "##ah": 4182,
      "##luge": 4183,
      "▁seyleri": 4184,
      "▁jap": 4185,
      "▁konferans": 4186,
      "▁kufur": 4187,
      "▁sektorunde": 4188,
      "##akat": 4189,
      "##tor": 4190,
      "▁gormek": 4191,
      "▁cehen": 4192,
      "##eli": 4193,
      "▁leble": 4194,
      "##larak": 4195,
      "##.": 4196,
      "##tar": 4197,
      "▁istegi": 4198,
      "▁dik": 4199,
      "##geleri": 4200,
      "▁erk": 4201,
      "▁memnuniyeti": 4202,
      "▁firmanın": 4203,
      "▁sesi": 4204,
      "▁temizliginden": 4205,
      "▁men": 4206,
      "▁zayıf": 4207,
      "##ugu": 4208,
      "##urt": 4209,
      "▁onur": 4210,
      "▁yuzunden": 4211,
      "▁pazarın": 4212,
      "▁kaf": 4213,
      "▁hayret": 4214,
      "▁muht": 4215,
      "##makt": 4216,
      "▁beyef": 4217,
      "▁bekledigini": 4218,
      "▁istihdam": 4219,
      "##askanı": 4220,
      "##raf": 4221,
      "▁da": 4222,
      "▁bayr": 4223,
      "e": 4224,
      "▁yolculuk": 4225,
      "▁vers": 4226,
      "##iden": 4227,
      "##iyetine": 4228,
      "##esinde": 4229,
      "##tım": 4230,
      "▁dor": 4231,
      "▁oldugu": 4232,
      "▁yarısı": 4233,
      "##arı": 4234,
      "##lamıstı": 4235,
      "▁duzeyde": 4236,
      "▁konuya": 4237,
      "▁red": 4238,
      "▁kurumları": 4239,
      "##duz": 4240,
      "▁baskalarına": 4241,
      "##anet": 4242,
      "▁topragı": 4243,
      "▁gok": 4244,
      "▁tahvillerin": 4245,
      "▁getiri": 4246,
      "▁tesekkur": 4247,
      "##isleri": 4248,
      "▁temsil": 4249,
      "##larımın": 4250,
      "▁salonda": 4251,
      "##rı": 4252,
      "##makla": 4253,
      "▁endustri": 4254,
      "▁istif": 4255,
      "▁kıt": 4256,
      "▁sozlerini": 4257,
      "##mekte": 4258,
      "▁yasası": 4259,
      "▁beklen": 4260,
      "▁n": 4261,
      "▁key": 4262,
      "▁ilham": 4263,
      "▁hala": 4264,
      "▁memuru": 4265,
      "▁tak": 4266,
      "▁konsol": 4267,
      "▁biz": 4268,
      "▁ustunden": 4269,
      "▁gorgu": 4270,
      "▁havaalanı'nda": 4271,
      "▁inek": 4272,
      "▁rehber": 4273,
      "##erince": 4274,
      "▁esk": 4275,
      "▁toplan": 4276,
      "▁cesidi": 4277,
      "##tiy": 4278,
      "##ayla": 4279,
      "▁cesitleri": 4280,
      "##ilm": 4281,
      "▁tedav": 4282,
      "▁itaat": 4283,
      "##1'e": 4284,
      "▁cey": 4285,
      "▁yenilik": 4286,
      "##7": 4287,
      "▁oglen": 4288,
      "##sekiz": 4289,
      "▁geceleri": 4290,
      "▁parası": 4291,
      "▁eliyle": 4292,
      "▁avukatlar": 4293,
      "##lunun": 4294,
      "##etici": 4295,
      "▁dısar": 4296,
      "▁day": 4297,
      "##mıyorum": 4298,
      "▁kopr": 4299,
      "▁partisi": 4300,
      "▁basarılı": 4301,
      "▁personellerden": 4302,
      "▁sıkınt": 4303,
      "▁kırık": 4304,
      "▁tered": 4305,
      "##iligin": 4306,
      "▁parcası": 4307,
      "▁kapasit": 4308,
      "##gil": 4309,
      "▁gunumuzde": 4310,
      "p": 4311,
      "##rını": 4312,
      "##ige": 4313,
      "##istan": 4314,
      "▁delikanlı": 4315,
      "▁carsı": 4316,
      "##dıgım": 4317,
      "▁sebeplerden": 4318,
      "##s": 4319,
      "▁sabır": 4320,
      "##must": 4321,
      "▁kısım": 4322,
      "▁kurul": 4323,
      "##tıktan": 4324,
      "▁ar": 4325,
      "▁dog": 4326,
      "##ık": 4327,
      "▁kongr": 4328,
      "▁calısanı": 4329,
      "##abın": 4330,
      "▁esnaf": 4331,
      "▁ısı": 4332,
      "▁eli": 4333,
      "▁buc": 4334,
      "##cıya": 4335,
      "▁akl": 4336,
      "##gıc": 4337,
      "##stu": 4338,
      "##uz": 4339,
      "▁dusun": 4340,
      "▁hayatını": 4341,
      "▁durumun": 4342,
      "▁jaguar": 4343,
      "▁seh": 4344,
      "▁evren": 4345,
      "▁hun": 4346,
      "▁kalkıs": 4347,
      "▁dosy": 4348,
      "##yacak": 4349,
      "▁tıp": 4350,
      "▁ayır": 4351,
      "▁finansman": 4352,
      "▁bilet": 4353,
      "##sem": 4354,
      "▁i": 4355,
      "▁yatırımcıların": 4356,
      "▁ge": 4357,
      "▁katı": 4358,
      "##0": 4359,
      "##lendirme": 4360,
      "▁kaydı": 4361,
      "##lıs": 4362,
      "▁kıraat": 4363,
      "▁angeles": 4364,
      "▁sonucu": 4365,
      "▁su": 4366,
      "▁gorusuldu": 4367,
      "##amın": 4368,
      "##ustugunu": 4369,
      "##izli": 4370,
      "▁plat": 4371,
      "▁sayf": 4372,
      "▁cıkan": 4373,
      "▁yuzey": 4374,
      "▁zav": 4375,
      "▁dur": 4376,
      "▁kararı": 4377,
      "▁ig": 4378,
      "##kler": 4379,
      "▁buzdol": 4380,
      "▁ozgur": 4381,
      "▁uzakta": 4382,
      "##enlik": 4383,
      "▁hisselerinin": 4384,
      "▁mutlaka": 4385,
      "▁yerinde": 4386,
      "##imin": 4387,
      "##lıgımı": 4388,
      "##uzluk": 4389,
      "##acılıgı": 4390,
      "▁kalmadim": 4391,
      "▁muh": 4392,
      "##ılmaya": 4393,
      "▁basımı": 4394,
      "▁etmez": 4395,
      "▁hikay": 4396,
      "▁benzer": 4397,
      "▁oyle": 4398,
      "##ıh": 4399,
      "##art": 4400,
      "▁alım": 4401,
      "##ugunu": 4402,
      "##ucuk": 4403,
      "▁tahmin": 4404,
      "▁konak": 4405,
      "▁moral": 4406,
      "▁lafı": 4407,
      "▁kurus": 4408,
      "▁bede": 4409,
      "▁yarın": 4410,
      "▁etmekten": 4411,
      "##ika": 4412,
      "##ılır": 4413,
      "▁tun": 4414,
      "▁bo": 4415,
      "▁argum": 4416,
      "##enc": 4417,
      "▁nedenlerden": 4418,
      "##isine": 4419,
      "##areti": 4420,
      "▁politika": 4421,
      "▁plani": 4422,
      "▁kasır": 4423,
      "▁dem": 4424,
      "##mak": 4425,
      "▁endek": 4426,
      "▁anket": 4427,
      "##ach": 4428,
      "##ladi": 4429,
      "##ese": 4430,
      "##ac": 4431,
      "▁onlara": 4432,
      "##inda": 4433,
      "▁ambar": 4434,
      "##lıgının": 4435,
      "▁iyilik": 4436,
      "▁edecegini": 4437,
      "##angi": 4438,
      "##ite": 4439,
      "##minin": 4440,
      "▁yonetimi": 4441,
      "##ıs": 4442,
      "▁arkasına": 4443,
      "▁elma": 4444,
      "▁bunun": 4445,
      "▁sertif": 4446,
      "▁dep": 4447,
      "▁naz": 4448,
      "▁sampiyon": 4449,
      "##sız": 4450,
      "▁ta": 4451,
      "▁luk": 4452,
      "##ilik": 4453,
      "##sen": 4454,
      "##dın": 4455,
      "##.ceyrek": 4456,
      "▁class": 4457,
      "▁kral": 4458,
      "▁acıklam": 4459,
      "##amıza": 4460,
      "▁pis": 4461,
      "▁fonları": 4462,
      "##ht": 4463,
      "▁yarım": 4464,
      "##erleri": 4465,
      "▁ayrıl": 4466,
      "▁mesafe": 4467,
      "##kları": 4468,
      "##lugunda": 4469,
      "##ugunda": 4470,
      "▁yag": 4471,
      "##rada": 4472,
      "▁kol": 4473,
      "▁ir": 4474,
      "▁yetkililer": 4475,
      "▁yazarın": 4476,
      "▁dusuncelerini": 4477,
      "▁fedakar": 4478,
      "▁lakırtı": 4479,
      "▁ifade": 4480,
      "▁alısveris": 4481,
      "##inin": 4482,
      "##and": 4483,
      "##tern": 4484,
      "##ıstır": 4485,
      "▁tabak": 4486,
      "▁onumuz": 4487,
      "▁gelmek": 4488,
      "▁pul": 4489,
      "##cilik": 4490,
      "▁ikinci": 4491,
      "▁akın": 4492,
      "▁eroin": 4493,
      "▁oden": 4494,
      "▁arastırma": 4495,
      "▁demektir": 4496,
      "##es": 4497,
      "▁kullanım": 4498,
      "##lit": 4499,
      "▁rap": 4500,
      "▁ortaya": 4501,
      "▁tulum": 4502,
      "##ıldıgını": 4503,
      "▁basta": 4504,
      "▁asagı": 4505,
      "▁karg": 4506,
      "▁1988'de": 4507,
      "▁meyhan": 4508,
      "▁sorunu": 4509,
      "##ikleri": 4510,
      "▁avukatları": 4511,
      "▁mem": 4512,
      "b": 4513,
      "▁ilgililerdi": 4514,
      "##rlik": 4515,
      "##masından": 4516,
      "▁karsısına": 4517,
      "▁kızlar": 4518,
      "##maları": 4519,
      "▁anti": 4520,
      "▁belir": 4521,
      "▁geldim": 4522,
      "##itli": 4523,
      "##f": 4524,
      "▁tan": 4525,
      "▁cocuklug": 4526,
      "▁evlere": 4527,
      "▁delik": 4528,
      "▁oturum": 4529,
      "##ımızın": 4530,
      "▁havaalan": 4531,
      "▁kut": 4532,
      "▁yemeklerinden": 4533,
      "▁tezgah": 4534,
      "▁espr": 4535,
      "▁azal": 4536,
      "▁ulastı": 4537,
      "▁alk": 4538,
      "▁rast": 4539,
      "▁yonetim": 4540,
      "▁yeryuz": 4541,
      "##aman": 4542,
      "▁evlerinin": 4543,
      "▁alacak": 4544,
      "##larımızı": 4545,
      "▁tipi": 4546,
      "▁bilg": 4547,
      "▁agacı": 4548,
      "▁gecir": 4549,
      "▁dedikodu": 4550,
      "▁cem": 4551,
      "##elle": 4552,
      "##estir": 4553,
      "##ibar": 4554,
      "▁dı": 4555,
      "▁duruyor": 4556,
      "▁boyunca": 4557,
      "##du": 4558,
      "##ıyor": 4559,
      "▁elbette": 4560,
      "▁artısla": 4561,
      "▁sim": 4562,
      "##apolis": 4563,
      "▁aktif": 4564,
      "##ısız": 4565,
      "▁mill": 4566,
      "▁has": 4567,
      "▁depremin": 4568,
      "▁dus": 4569,
      "▁kars": 4570,
      "▁iscileri": 4571,
      "▁deyim": 4572,
      "▁ata": 4573,
      "▁ticarette": 4574,
      "▁yine": 4575,
      "##us": 4576,
      "▁yirmi": 4577,
      "##miyordu": 4578,
      "▁kelimeyle": 4579,
      "▁karsılastır": 4580,
      "▁giysi": 4581,
      "▁alım-satım": 4582,
      "▁boyle": 4583,
      "▁burn": 4584,
      "##gur": 4585,
      "▁seks": 4586,
      "▁cav": 4587,
      "▁durak": 4588,
      "▁oturdu": 4589,
      "▁tabl": 4590,
      "▁personelleri": 4591,
      "▁hissedar": 4592,
      "▁degerlendirmeye": 4593,
      "▁personeller": 4594,
      "▁evlilik": 4595,
      "▁mun": 4596,
      "▁okulu": 4597,
      "##yen": 4598,
      "##ad": 4599,
      "##ayan": 4600,
      "▁posta": 4601,
      "▁ban": 4602,
      "▁paket": 4603,
      "##em": 4604,
      "▁bildir": 4605,
      "▁aj": 4606,
      "▁ucreti": 4607,
      "▁arkadas": 4608,
      "##or": 4609,
      "##tali": 4610,
      "##eyebilir": 4611,
      "▁aca": 4612,
      "##iyat": 4613,
      "▁koltuklar": 4614,
      "▁tom": 4615,
      "▁baslamıs": 4616,
      "##ıldı": 4617,
      "▁yay": 4618,
      "##mel": 4619,
      "▁kisilik": 4620,
      "▁verildi": 4621,
      "▁yav": 4622,
      "▁sob": 4623,
      "▁gitti": 4624,
      "▁beyan": 4625,
      "▁anayas": 4626,
      "▁kalktı": 4627,
      "▁ner": 4628,
      "##gr": 4629,
      "▁tahminlerinin": 4630,
      "▁sinem": 4631,
      "▁galiba": 4632,
      "▁tarih": 4633,
      "▁dedik": 4634,
      "#": 4635,
      "##6": 4636,
      "▁finans": 4637,
      "##lanır": 4638,
      "▁sıv": 4639,
      "▁heyet": 4640,
      "▁kes": 4641,
      "▁bahceye": 4642,
      "▁yakıt": 4643,
      "▁daha": 4644,
      "##iler": 4645,
      "▁cekir": 4646,
      "▁vegas": 4647,
      "▁yuzume": 4648,
      "▁isinin": 4649,
      "▁suyun": 4650,
      "▁danıs": 4651,
      "▁ortalam": 4652,
      "##eri": 4653,
      "##sim": 4654,
      "▁198": 4655,
      "▁ornek": 4656,
      "▁kardes": 4657,
      "▁dagıt": 4658,
      "▁kaynakları": 4659,
      "▁farkında": 4660,
      "▁kosede": 4661,
      "▁oglum": 4662,
      "▁uzerinden": 4663,
      "▁rakam": 4664,
      "##all": 4665,
      "▁rekor": 4666,
      "▁bahc": 4667,
      "▁sezlon": 4668,
      "▁nesil": 4669,
      "##25": 4670,
      "▁alem": 4671,
      "▁beyn": 4672,
      "▁prens": 4673,
      "##ilim": 4674,
      "▁sop": 4675,
      "##amac": 4676,
      "▁zam": 4677,
      "##ij": 4678,
      "▁turkc": 4679,
      "▁tenc": 4680,
      "▁personellerin": 4681,
      "▁acıdan": 4682,
      "▁fena": 4683,
      "##ger": 4684,
      "▁adına": 4685,
      "▁basamak": 4686,
      "##madan": 4687,
      "##mıs": 4688,
      "##ından": 4689,
      "▁boston": 4690,
      "▁kenarında": 4691,
      "##up": 4692,
      "▁diger": 4693,
      "##lek": 4694,
      "▁lid": 4695,
      "##ten": 4696,
      "##onun": 4697,
      "##erv": 4698,
      "▁yollarını": 4699,
      "▁ordu": 4700,
      "##lardır": 4701,
      "▁ofk": 4702,
      "##gul": 4703,
      "▁uzun": 4704,
      "▁kek": 4705,
      "▁ekim": 4706,
      "▁kutup": 4707,
      "##ıcısı": 4708,
      "▁sembol": 4709,
      "▁baltimore'den": 4710,
      "▁jur": 4711,
      "▁fren": 4712,
      "##cılıgı": 4713,
      "▁bastan": 4714,
      "##sam": 4715,
      "##iyi": 4716,
      "▁kampanyalar": 4717,
      "▁for": 4718,
      "▁im": 4719,
      "▁guz": 4720,
      "▁3/": 4721,
      "▁artısı": 4722,
      "▁kalabal": 4723,
      "▁kis": 4724,
      "▁ener": 4725,
      "▁caba": 4726,
      "▁bira": 4727,
      "##tr": 4728,
      "▁ora": 4729,
      "▁tehlik": 4730,
      "▁laborat": 4731,
      "▁coktu": 4732,
      "▁gerekcesiyle": 4733,
      "▁sark": 4734,
      "##alara": 4735,
      "▁pa": 4736,
      "▁kagıd": 4737,
      "##un": 4738,
      "▁hukumdar": 4739,
      "▁harit": 4740,
      "##dirme": 4741,
      "▁gozuyle": 4742,
      "▁tahvil": 4743,
      "##teki": 4744,
      "▁kosulları": 4745,
      "▁plaji": 4746,
      "▁superdi": 4747,
      "▁eda": 4748,
      "▁tarif": 4749,
      "##eciler": 4750,
      "##ıf": 4751,
      "▁anay": 4752,
      "▁krizi": 4753,
      "▁dair": 4754,
      "##arlan": 4755,
      "##lenen": 4756,
      "▁is": 4757,
      "##lılık": 4758,
      "▁hedefi": 4759,
      "▁turist": 4760,
      "▁erken": 4761,
      "▁bilim": 4762,
      "▁ardında": 4763,
      "##erken": 4764,
      "▁anlam": 4765,
      "▁alıs": 4766,
      "▁tufek": 4767,
      "▁yeterince": 4768,
      "▁yık": 4769,
      "##gal": 4770,
      "##ındaki": 4771,
      "▁dilek": 4772,
      "##uyor": 4773,
      "##deki": 4774,
      "##aliforn": 4775,
      "▁cıkmıs": 4776,
      "▁uz": 4777,
      "▁tadimiza": 4778,
      "##tek": 4779,
      "##esini": 4780,
      "▁edil": 4781,
      "▁kec": 4782,
      "▁cel": 4783,
      "##lip": 4784,
      "▁dogr": 4785,
      "##cilerin": 4786,
      "▁basıma": 4787,
      "▁kanat": 4788,
      "##ep": 4789,
      "##asyon": 4790,
      "##mafih": 4791,
      "▁lah": 4792,
      "▁8'den": 4793,
      "▁nelerdir": 4794,
      "##uste": 4795,
      "▁div": 4796,
      "##egi": 4797,
      "▁yanlıs": 4798,
      "##lerinin": 4799,
      "▁sonda": 4800,
      "▁hediy": 4801,
      "##ınc": 4802,
      "▁kosesinde": 4803,
      "##tılı": 4804,
      "▁mallar": 4805,
      "▁ilk": 4806,
      "▁yudum": 4807,
      "▁21": 4808,
      "▁perde": 4809,
      "▁kayıt": 4810,
      "▁sarf": 4811,
      "▁seref": 4812,
      "##emin": 4813,
      "##mesinden": 4814,
      "▁oteli": 4815,
      "##t": 4816,
      "▁itiraf": 4817,
      "▁ter": 4818,
      "▁karın": 4819,
      "▁kasabanın": 4820,
      "##izi": 4821,
      "9": 4822,
      "▁yastık": 4823,
      "▁almıs": 4824,
      "▁satım": 4825,
      "##ilendir": 4826,
      "▁komplek": 4827,
      "▁7": 4828,
      "▁nedeniyle": 4829,
      "▁sekreter": 4830,
      "▁sehirde": 4831,
      "##lamıs": 4832,
      "##iyer": 4833,
      "▁lig": 4834,
      "##ıda": 4835,
      "▁mayıs": 4836,
      "▁cidd": 4837,
      "▁kosesine": 4838,
      "▁okuyucu": 4839,
      "##usuna": 4840,
      "▁haberdar": 4841,
      "##0'da": 4842,
      "##mekten": 4843,
      "▁kahvaltı": 4844,
      "##irgin": 4845,
      "##5'": 4846,
      "▁kanı": 4847,
      "▁herkes": 4848,
      "▁anlas": 4849,
      "▁galib": 4850,
      "##ecegi": 4851,
      "##ların": 4852,
      "▁kısmı": 4853,
      "##od": 4854,
      "##mada": 4855,
      "##ıklarını": 4856,
      "▁tabir": 4857,
      "▁onem": 4858,
      "▁beklent": 4859,
      "▁grub": 4860,
      "▁gal": 4861,
      "##aları": 4862,
      "▁surekli": 4863,
      "▁gorev": 4864,
      "▁suph": 4865,
      "▁agzından": 4866,
      "##lag": 4867,
      "▁farkı": 4868,
      "▁bıc": 4869,
      "▁ulke": 4870,
      "▁eks": 4871,
      "▁cumhurb": 4872,
      "##mar": 4873,
      "##ı": 4874,
      "▁tadı": 4875,
      "▁dagı": 4876,
      "▁sıg": 4877,
      "##ibe": 4878,
      "▁kahve": 4879,
      "▁bulgu": 4880,
      "▁sauna": 4881,
      "##ond": 4882,
      "▁bilmiyorum": 4883,
      "▁bank": 4884,
      "##urk": 4885,
      "##lantı": 4886,
      "▁cumhurbaskanı": 4887,
      "▁inc": 4888,
      "▁kitapta": 4889,
      "▁ası": 4890,
      "▁herkesi": 4891,
      "▁oluyordu": 4892,
      "▁kalemi": 4893,
      "▁tiyatrosu": 4894,
      "▁oteki": 4895,
      "▁pazarlama": 4896,
      "▁yanına": 4897,
      "##ver": 4898,
      "▁cocuklara": 4899,
      "▁havayollarını": 4900,
      "##maz": 4901,
      "▁guleryuzlu": 4902,
      "##x": 4903,
      "▁vet": 4904,
      "▁yili": 4905,
      "▁%": 4906,
      "▁ka": 4907,
      "▁yes": 4908,
      "▁kaza": 4909,
      "▁kuru": 4910,
      "▁adr": 4911,
      "##mek": 4912,
      "##alle": 4913,
      "▁vurdu": 4914,
      "▁haft": 4915,
      "▁satmak": 4916,
      "▁pros": 4917,
      "▁ucak": 4918,
      "▁uslu": 4919,
      "▁merm": 4920,
      "##acak": 4921,
      "##lerimi": 4922,
      "▁kurulus": 4923,
      "▁borsası": 4924,
      "▁ufak": 4925,
      "▁ucusunun": 4926,
      "▁ga": 4927,
      "▁etrafına": 4928,
      "▁olu": 4929,
      "▁basarı": 4930,
      "##imli": 4931,
      "##adet": 4932,
      "▁anlamına": 4933,
      "▁ucret": 4934,
      "▁kala": 4935,
      "▁ufuk": 4936,
      "##ork": 4937,
      "▁kıymetler": 4938,
      "▁duserek": 4939,
      "##iniz": 4940,
      "▁14": 4941,
      "▁fır": 4942,
      "▁bile": 4943,
      "▁kasım": 4944,
      "##elerden": 4945,
      "▁harekete": 4946,
      "##;": 4947,
      "▁ucuna": 4948,
      "▁deneyim": 4949,
      "▁kuvv": 4950,
      "▁ogrenciler": 4951,
      "▁tatmin": 4952,
      "▁gev": 4953,
      "▁kontr": 4954,
      "▁doları'ndan": 4955,
      "▁kuv": 4956,
      "▁kadr": 4957,
      "▁ero": 4958,
      "##ust": 4959,
      "▁idar": 4960,
      "▁satıcı": 4961,
      "##usunu": 4962,
      "▁geliri": 4963,
      "▁lun": 4964,
      "##graf": 4965,
      "##uklu": 4966,
      "▁atlanta": 4967,
      "▁turuna": 4968,
      "▁bankanın": 4969,
      "##3'e": 4970,
      "▁icecek": 4971,
      "▁titr": 4972,
      "##ifti": 4973,
      "##cegini": 4974,
      "##alma": 4975,
      "▁ozen": 4976,
      "▁fiyat": 4977,
      "▁ikna": 4978,
      "##liyat": 4979,
      "▁portakal": 4980,
      "▁yapılanma": 4981,
      "▁tarla": 4982,
      "▁lideri": 4983,
      "▁kur": 4984,
      "▁lisans": 4985,
      "▁ilgilen": 4986,
      "##umuze": 4987,
      "▁cevabı": 4988,
      "▁masaya": 4989,
      "▁dedim": 4990,
      "▁sonu": 4991,
      "▁parc": 4992,
      "▁soyley": 4993,
      "▁basvur": 4994,
      "▁ydı": 4995,
      "▁sandık": 4996,
      "▁isciler": 4997,
      "▁dısisleri": 4998,
      "##re": 4999,
      "▁butce": 5000,
      "▁hucum": 5001,
      "▁kok": 5002,
      "▁aks": 5003,
      "▁gelecegi": 5004,
      "▁tarafında": 5005,
      "##de": 5006,
      "##ina": 5007,
      "##gili": 5008,
      "##aması": 5009,
      "▁alma": 5010,
      "▁ureticileri": 5011,
      "▁aralarında": 5012,
      "##pr": 5013,
      "▁rutub": 5014,
      "▁cesit": 5015,
      "▁sırt": 5016,
      "▁eslik": 5017,
      "▁basım": 5018,
      "##ustu": 5019,
      "##embe": 5020,
      "##sur": 5021,
      "##asın": 5022,
      "▁taslar": 5023,
      "▁silah": 5024,
      "▁halat": 5025,
      "▁baglant": 5026,
      "▁pet": 5027,
      "▁gerekse": 5028,
      "##meyecek": 5029,
      "▁koz": 5030,
      "▁yakinlarima": 5031,
      "▁tanrı": 5032,
      "▁veri": 5033,
      "##gah": 5034,
      "▁asam": 5035,
      "▁olması": 5036,
      "▁gum": 5037,
      "▁zeka": 5038,
      "▁tuz": 5039,
      "▁dek": 5040,
      "##ladık": 5041,
      "▁eti": 5042,
      "##ve": 5043,
      "▁daire": 5044,
      "##st": 5045,
      "##uga": 5046,
      "▁duygusu": 5047,
      "▁ekonominin": 5048,
      "▁hatta": 5049,
      "##gıl": 5050,
      "▁degildir": 5051,
      "▁hepimiz": 5052,
      "▁tı": 5053,
      "##kun": 5054,
      "▁siv": 5055,
      "##uyorlardı": 5056,
      "▁dernegi": 5057,
      "▁azdi": 5058,
      "▁bedeli": 5059,
      "▁dısı": 5060,
      "##hanede": 5061,
      "##alım": 5062,
      "▁adet": 5063,
      "##oz": 5064,
      "▁yazarı": 5065,
      "▁olduklarını": 5066,
      "##tluk": 5067,
      "##landıgında": 5068,
      "##alıgı": 5069,
      "▁sistemleri": 5070,
      "▁baskanlık": 5071,
      "▁bab": 5072,
      "▁hazırlan": 5073,
      "▁sonbahar": 5074,
      "##asıl": 5075,
      "▁alev": 5076,
      "▁mademki": 5077,
      "▁senat": 5078,
      "▁oksur": 5079,
      "▁4": 5080,
      "▁nefret": 5081,
      "##ian": 5082,
      "##ını": 5083,
      "▁pr": 5084,
      "##ımızdan": 5085,
      "##ayol": 5086,
      "▁bankaların": 5087,
      "▁taht": 5088,
      "▁bıcak": 5089,
      "▁egil": 5090,
      "▁edilmesi": 5091,
      "▁adama": 5092,
      "##illeri": 5093,
      "▁kulub": 5094,
      "▁ecz": 5095,
      "▁ilkbah": 5096,
      "▁isgal": 5097,
      "##eligini": 5098,
      "▁hastalıgı": 5099,
      "##agon": 5100,
      "▁radyo": 5101,
      "▁isine": 5102,
      "▁ileri": 5103,
      "▁dısında": 5104,
      "▁iskonto": 5105,
      "▁kapas": 5106,
      "▁hisselerin": 5107,
      "##q": 5108,
      "##imini": 5109,
      "▁kaybet": 5110,
      "##mıyor": 5111,
      "##elim": 5112,
      "▁okul": 5113,
      "▁arastır": 5114,
      "▁actı": 5115,
      "▁stan": 5116,
      "##ıy": 5117,
      "▁ihtiyacım": 5118,
      "▁komut": 5119,
      "▁icin": 5120,
      "▁olun": 5121,
      "▁alıp": 5122,
      "▁seyinden": 5123,
      "▁balayi": 5124,
      "▁mumkun": 5125,
      "##ogram": 5126,
      "▁vek": 5127,
      "▁po": 5128,
      "▁manzarasi": 5129,
      "##ul": 5130,
      "##dan": 5131,
      "▁hapis": 5132,
      "##lamaya": 5133,
      "▁yuzluydu": 5134,
      "▁gelmedi": 5135,
      "##acagım": 5136,
      "▁kacak": 5137,
      "▁vermek": 5138,
      "▁temsilcileri": 5139,
      "▁carte": 5140,
      "▁alıcılar": 5141,
      "##dıg": 5142,
      "##00": 5143,
      "▁goturdu": 5144,
      "▁zira": 5145,
      "▁efsan": 5146,
      "▁uyan": 5147,
      "▁sahip": 5148,
      "##°": 5149,
      "▁kopek": 5150,
      "▁kıyıya": 5151,
      "##tia": 5152,
      "▁animasyonu": 5153,
      "▁politik": 5154,
      "##stır": 5155,
      "##esinden": 5156,
      "▁zincir": 5157,
      "▁tatli": 5158,
      "▁muddet": 5159,
      "▁miting": 5160,
      "▁boz": 5161,
      "▁barın": 5162,
      "▁bahsederim": 5163,
      "##lugu": 5164,
      "▁arkad": 5165,
      "▁ayda": 5166,
      "▁metre": 5167,
      "##ile": 5168,
      "▁anne": 5169,
      "▁islem": 5170,
      "##est": 5171,
      "##ılıs": 5172,
      "▁ediyordu": 5173,
      "##ast": 5174,
      "▁teklifin": 5175,
      "▁yasamını": 5176,
      "##ciler": 5177,
      "▁ihr": 5178,
      "▁evinde": 5179,
      "##alardan": 5180,
      "##lemis": 5181,
      "▁dinlemek": 5182,
      "▁sigort": 5183,
      "▁dost": 5184,
      "▁istis": 5185,
      "▁semt": 5186,
      "▁bilgileri": 5187,
      "▁uzmanları": 5188,
      "▁geril": 5189,
      "##air": 5190,
      "▁gide": 5191,
      "▁eksiklik": 5192,
      "▁arkadasları": 5193,
      "▁vakıf": 5194,
      "##izma": 5195,
      "##etr": 5196,
      "▁ayıp": 5197,
      "▁hak": 5198,
      "##ts": 5199,
      "▁seg": 5200,
      "▁prop": 5201,
      "▁onayına": 5202,
      "▁gelistir": 5203,
      "▁ettim": 5204,
      "▁ahlak": 5205,
      "▁stand": 5206,
      "▁emek": 5207,
      "▁yola": 5208,
      "▁gun": 5209,
      "▁milletin": 5210,
      "▁piyasalar": 5211,
      "##oy": 5212,
      "##ladım": 5213,
      "##lerini": 5214,
      "▁karsıtı": 5215,
      "▁sut": 5216,
      "▁ort": 5217,
      "▁saadet": 5218,
      "▁dev": 5219,
      "▁temet": 5220,
      "▁sahit": 5221,
      "▁altında": 5222,
      "▁lev": 5223,
      "▁ortalama": 5224,
      "##ıyorum": 5225,
      "##ez": 5226,
      "▁0.": 5227,
      "▁tuv": 5228,
      "▁tedarik": 5229,
      "▁bicimde": 5230,
      "▁dolap": 5231,
      "▁canı": 5232,
      "##rak": 5233,
      "##ilmesini": 5234,
      "▁tamamı": 5235,
      "▁zarf": 5236,
      "▁birik": 5237,
      "▁teknoloj": 5238,
      "##osyon": 5239,
      "▁anlasma": 5240,
      "##inceye": 5241,
      "▁ofis": 5242,
      "##mı": 5243,
      "##muz": 5244,
      "##do": 5245,
      "▁vic": 5246,
      "▁tamam": 5247,
      "##ucusu": 5248,
      "▁sozler": 5249,
      "▁buraya": 5250,
      "▁kirpik": 5251,
      "##kah": 5252,
      "##lelim": 5253,
      "▁karsı": 5254,
      "##eledi": 5255,
      "▁islemlerde": 5256,
      "▁sahne": 5257,
      "##amı": 5258,
      "▁cez": 5259,
      "▁ediyoruz": 5260,
      "##lerimiz": 5261,
      "##emmel": 5262,
      "▁ettigi": 5263,
      "##ligin": 5264,
      "▁personellerinden": 5265,
      "▁mahkum": 5266,
      "▁ongor": 5267,
      "▁gaf": 5268,
      "##vr": 5269,
      "▁subat": 5270,
      "▁kirp": 5271,
      "##ok": 5272,
      "▁yer": 5273,
      "▁diy": 5274,
      "##ulur": 5275,
      "▁para": 5276,
      "##inti": 5277,
      "▁piyasada": 5278,
      "▁danısmanı": 5279,
      "▁durumu": 5280,
      "▁cig": 5281,
      "▁gaz": 5282,
      "▁otelden": 5283,
      "▁borcu": 5284,
      "▁turk": 5285,
      "##ani": 5286,
      "▁kenarları": 5287,
      "##an": 5288,
      "▁yang": 5289,
      "▁ham": 5290,
      "▁icinde": 5291,
      "##masız": 5292,
      "▁almak": 5293,
      "▁airlin": 5294,
      "##—": 5295,
      "▁uzer": 5296,
      "▁hosg": 5297,
      "▁puandan": 5298,
      "▁temyiz": 5299,
      "▁kosullar": 5300,
      "▁ser": 5301,
      "##imde": 5302,
      "▁sefer": 5303,
      "▁siparisini": 5304,
      "##ong": 5305,
      "▁pam": 5306,
      "▁atesi": 5307,
      "▁gozler": 5308,
      "▁yanıt": 5309,
      "##emez": 5310,
      "▁kafa": 5311,
      "##asıyla": 5312,
      "##ow": 5313,
      "▁gibi": 5314,
      "▁istem": 5315,
      "▁yuzyıl": 5316,
      "▁ucuyor": 5317,
      "▁%8": 5318,
      "##tun": 5319,
      "▁kopru": 5320,
      "▁planını": 5321,
      "▁og": 5322,
      "▁hizmetinden": 5323,
      "##liler": 5324,
      "##eliydi": 5325,
      "▁suresi": 5326,
      "▁1990'da": 5327,
      "▁kel": 5328,
      "▁kalabalık": 5329,
      "▁seydi": 5330,
      "▁terbiy": 5331,
      "▁dum": 5332,
      "▁market": 5333,
      "▁cozum": 5334,
      "##cılar": 5335,
      "##eti": 5336,
      "▁miras": 5337,
      "##gini": 5338,
      "##dut": 5339,
      "▁urunlerin": 5340,
      "▁birligi": 5341,
      "▁tencer": 5342,
      "▁ok": 5343,
      "##ılıyor": 5344,
      "▁atlanta'dan": 5345,
      "▁tekn": 5346,
      "##ash": 5347,
      "##iyete": 5348,
      "▁hayatı": 5349,
      "##elik": 5350,
      "##cuları": 5351,
      "▁karı": 5352,
      "##vet": 5353,
      "▁op": 5354,
      "▁ismi": 5355,
      "##isle": 5356,
      "▁sırtında": 5357,
      "▁kimi": 5358,
      "▁sol": 5359,
      "▁yoksa": 5360,
      "##yosu": 5361,
      "▁yiyecek": 5362,
      "▁davaya": 5363,
      "▁komp": 5364,
      "▁ciftciler": 5365,
      "▁dogrudan": 5366,
      "▁fel": 5367,
      "##cih": 5368,
      "▁aktar": 5369,
      "▁ince": 5370,
      "▁yapmayı": 5371,
      "▁dert": 5372,
      "▁sayısı": 5373,
      "▁hizm": 5374,
      "▁yatırımcı": 5375,
      "▁plastik": 5376,
      "▁duvar": 5377,
      "▁karsıya": 5378,
      "▁co.": 5379,
      "##sat": 5380,
      "##rik": 5381,
      "##onu": 5382,
      "##isinda": 5383,
      "▁hip": 5384,
      "▁edebil": 5385,
      "▁kolunu": 5386,
      "▁olmus": 5387,
      "▁tekrar": 5388,
      "▁soylediler": 5389,
      "▁esir": 5390,
      ",": 5391,
      "▁kalmadı": 5392,
      "▁ekib": 5393,
      "▁sair": 5394,
      "##uluk": 5395,
      "▁ittif": 5396,
      "▁olmayacak": 5397,
      "▁demokras": 5398,
      "▁teori": 5399,
      "##emis": 5400,
      "##aki": 5401,
      "▁ceh": 5402,
      "▁hitap": 5403,
      "##hiss": 5404,
      "##lul": 5405,
      "##oloji": 5406,
      "##macı": 5407,
      "▁skan": 5408,
      "▁genel": 5409,
      "▁las": 5410,
      "▁edep": 5411,
      "▁guverte": 5412,
      "▁milwaukee": 5413,
      "▁onceden": 5414,
      "▁devr": 5415,
      "##ud": 5416,
      "▁acıldı": 5417,
      "▁semp": 5418,
      "##lıktan": 5419,
      "##dek": 5420,
      "▁-": 5421,
      "##lar": 5422,
      "▁tas": 5423,
      "▁yazı": 5424,
      "##a'nın": 5425,
      "▁pes": 5426,
      "▁sovyetler": 5427,
      "##usune": 5428,
      "▁sak": 5429,
      "▁birdenbire": 5430,
      "##egen": 5431,
      "##likle": 5432,
      "▁bakır": 5433,
      "##ate": 5434,
      "▁ves": 5435,
      "▁nob": 5436,
      "▁genis": 5437,
      "▁konustu": 5438,
      "##a": 5439,
      "▁bostan": 5440,
      "▁yasak": 5441,
      "▁kayıplar": 5442,
      "▁varan": 5443,
      "▁sehr": 5444,
      "▁bocek": 5445,
      "▁dunyayı": 5446,
      "▁soluk": 5447,
      "▁ilac": 5448,
      "▁aday": 5449,
      "▁yılından": 5450,
      "▁kak": 5451,
      "##nız": 5452,
      "▁pazar": 5453,
      "##yuz": 5454,
      "▁egilim": 5455,
      "▁duyg": 5456,
      "▁united": 5457,
      "▁arzu": 5458,
      "##ol": 5459,
      "▁tekl": 5460,
      "▁anası": 5461,
      "▁gor": 5462,
      "▁fırc": 5463,
      "▁halbuki": 5464,
      "▁tıras": 5465,
      "▁yardımcısı": 5466,
      "▁elimden": 5467,
      "##ig": 5468,
      "▁devam": 5469,
      "##kon": 5470,
      "##digine": 5471,
      "##enleri": 5472,
      "▁halk": 5473,
      "▁rakamlar": 5474,
      "▁atmak": 5475,
      "##amiza": 5476,
      "[CLS]": 5477,
      "▁memleketin": 5478,
      "’": 5479,
      "▁ama": 5480,
      "▁wash": 5481,
      "▁suc": 5482,
      "##mal": 5483,
      "##daydı": 5484,
      "##alet": 5485,
      "▁pus": 5486,
      "##o": 5487,
      "▁yukselerek": 5488,
      "##mayın": 5489,
      "##eticiler": 5490,
      "##ecekler": 5491,
      "▁sandal": 5492,
      "▁peyniri": 5493,
      "▁annemin": 5494,
      "▁ardına": 5495,
      "##ot": 5496,
      "##lıklı": 5497,
      "##erlik": 5498,
      "▁mu": 5499,
      "##lan": 5500,
      "▁sizi": 5501,
      "▁soya": 5502,
      "▁gunluk": 5503,
      "▁asır": 5504,
      "##liginden": 5505,
      "▁ice": 5506,
      "##meli": 5507,
      "##ham": 5508,
      "▁gazin": 5509,
      "##usu": 5510,
      "▁zamanlarda": 5511,
      "▁takdir": 5512,
      "##yar": 5513,
      "▁hal": 5514,
      "▁fabrikası": 5515,
      "▁uygulam": 5516,
      "##irk": 5517,
      "▁malzeme": 5518,
      "▁dahil": 5519,
      "▁uy": 5520,
      "▁faturami": 5521,
      "▁turku": 5522,
      "▁es": 5523,
      "▁ucmam": 5524,
      "▁cumhuriyet": 5525,
      "##eginden": 5526,
      "▁teklif": 5527,
      "▁savas": 5528,
      "▁gider": 5529,
      "▁mahall": 5530,
      "##mer": 5531,
      "##larını": 5532,
      "1": 5533,
      "▁edin": 5534,
      "##lanma": 5535,
      "▁profes": 5536,
      "##etik": 5537,
      "▁egit": 5538,
      "▁ec": 5539,
      "▁aslan": 5540,
      "▁milyar": 5541,
      "##ende": 5542,
      "##tak": 5543,
      "##emedim": 5544,
      "▁sekiz": 5545,
      "▁isterim": 5546,
      "##cık": 5547,
      "▁arttıgını": 5548,
      "▁yıl": 5549,
      "▁yerini": 5550,
      "▁bolge": 5551,
      "▁gormedim": 5552,
      "▁evlerin": 5553,
      "##tla": 5554,
      "##yız": 5555,
      "▁meyv": 5556,
      "▁oyuncusu": 5557,
      "##si": 5558,
      "▁tarihe": 5559,
      "▁karmas": 5560,
      "▁faal": 5561,
      "▁kalit": 5562,
      "▁yukselisle": 5563,
      "▁ana": 5564,
      "▁gorul": 5565,
      "▁gemi": 5566,
      "##umuzun": 5567,
      "##'de": 5568,
      "▁boston'dan": 5569,
      "▁eksiklikler": 5570,
      "▁kolon": 5571,
      "▁aktarma": 5572,
      "▁veg": 5573,
      "▁ayrıca": 5574,
      "▁kayı": 5575,
      "▁hiz": 5576,
      "▁ekonomi": 5577,
      "##bah": 5578,
      "##tıgına": 5579,
      "▁agabey": 5580,
      "##amet": 5581,
      "▁sanat": 5582,
      "▁kanal": 5583,
      "▁sona": 5584,
      "▁ilgis": 5585,
      "▁cesaretini": 5586,
      "▁limon": 5587,
      "▁kumandan": 5588,
      "▁kisisel": 5589,
      "▁icap": 5590,
      "##ncak": 5591,
      "▁odanin": 5592,
      "▁ulu": 5593,
      "▁iceriyor": 5594,
      "▁tarafa": 5595,
      "▁kı": 5596,
      "▁yetk": 5597,
      "##digim": 5598,
      "▁soz": 5599,
      "▁olgu": 5600,
      "▁kilit": 5601,
      "▁kırıklıgı": 5602,
      "▁denet": 5603,
      "▁basa": 5604,
      "▁soru": 5605,
      "##dık": 5606,
      "##ormal": 5607,
      "▁ilet": 5608,
      "##acag": 5609,
      "▁guzellik": 5610,
      "▁kendi": 5611,
      "▁olcude": 5612,
      "▁zek": 5613,
      "▁badem": 5614,
      "##etic": 5615,
      "▁kokusu": 5616,
      "▁yetkililerine": 5617,
      "▁vil": 5618,
      "▁el": 5619,
      "▁vur": 5620,
      "▁dikkate": 5621,
      "##ecegiz": 5622,
      "▁vapur": 5623,
      "▁seviy": 5624,
      "▁ederiz": 5625,
      "▁dusunce": 5626,
      "▁suz": 5627,
      "▁eden": 5628,
      "##makta": 5629,
      "▁resmi": 5630,
      "▁tanı": 5631,
      "▁5'ten": 5632,
      "▁tasa": 5633,
      "▁geldigini": 5634,
      "▁sorum": 5635,
      "##cular": 5636,
      "▁etmis": 5637,
      "▁bugune": 5638,
      "▁normal": 5639,
      "▁tef": 5640,
      "▁kisilerin": 5641,
      "##lendirdi": 5642,
      "▁vakit": 5643,
      "▁yonunde": 5644,
      "▁ithal": 5645,
      "##acıları": 5646,
      "▁''": 5647,
      "▁#": 5648,
      "▁ates": 5649,
      "▁gokyuz": 5650,
      "##ırtı": 5651,
      "▁seni": 5652,
      "##leniyor": 5653,
      "▁kısmını": 5654,
      "##madıgını": 5655,
      "▁bulunan": 5656,
      "▁20": 5657,
      "▁care": 5658,
      "▁ucusa": 5659,
      "​": 5660,
      "▁duyuru": 5661,
      "▁yurut": 5662,
      "▁olayda": 5663,
      "##larım": 5664,
      "##edef": 5665,
      "##ta": 5666,
      "▁basar": 5667,
      "▁soyl": 5668,
      "##eydi": 5669,
      "▁yuzunun": 5670,
      "##osunu": 5671,
      "▁nokt": 5672,
      "▁havayollarının": 5673,
      "▁ayar": 5674,
      "##iz": 5675,
      "▁konusur": 5676,
      "▁kızı": 5677,
      "▁cesitli": 5678,
      "▁senet": 5679,
      "▁neler": 5680,
      "##alt": 5681,
      "▁ısıgında": 5682,
      "▁bekle": 5683,
      "▁gunku": 5684,
      "▁usul": 5685,
      "▁dosya": 5686,
      "▁harcama": 5687,
      "▁annesi": 5688,
      "▁merkezi": 5689,
      "▁tekne": 5690,
      "▁koltuga": 5691,
      "▁korid": 5692,
      "##okol": 5693,
      "▁ebeveyn": 5694,
      "▁karısı": 5695,
      "▁hatt": 5696,
      "▁boynuna": 5697,
      "▁yalnızlık": 5698,
      "▁gunesi": 5699,
      "▁american": 5700,
      "▁dunyasında": 5701,
      "▁kalacak": 5702,
      "##lenir": 5703,
      "##id": 5704,
      "▁uygu": 5705,
      "▁ozellik": 5706,
      "▁temmuz": 5707,
      "▁ucuz": 5708,
      "▁takip": 5709,
      "▁zaf": 5710,
      "▁gormez": 5711,
      "▁gerceklestir": 5712,
      "▁katkı": 5713,
      "▁noktasına": 5714,
      "▁dans": 5715,
      "▁gunleri": 5716,
      "▁rol": 5717,
      "▁dogrult": 5718,
      "▁tu": 5719,
      "▁mucade": 5720,
      "▁sah": 5721,
      "▁soze": 5722,
      "▁fakult": 5723,
      "▁saldır": 5724,
      "##nc": 5725,
      "▁tey": 5726,
      "▁mini": 5727,
      "##ake": 5728,
      "##'ta": 5729,
      "##ahi": 5730,
      "##son": 5731,
      "d": 5732,
      "▁impar": 5733,
      "▁oranında": 5734,
      "▁ugr": 5735,
      "##0'a": 5736,
      "▁15": 5737,
      "▁mulk": 5738,
      "▁mahkem": 5739,
      "▁gond": 5740,
      "##arlandı": 5741,
      "▁evler": 5742,
      "▁yararlan": 5743,
      "▁felsef": 5744,
      "▁vucudu": 5745,
      "▁dondu": 5746,
      "▁adalet": 5747,
      "##sini": 5748,
      "▁bilgisay": 5749,
      "▁devletin": 5750,
      "▁degisiklik": 5751,
      "▁istan": 5752,
      "▁ot": 5753,
      "▁mit": 5754,
      "▁kam": 5755,
      "▁adlı": 5756,
      "▁hepsi": 5757,
      "▁geriye": 5758,
      "▁bardak": 5759,
      "##egim": 5760,
      "▁oradan": 5761,
      "▁donan": 5762,
      "▁herhangi": 5763,
      "##ılıg": 5764,
      "▁yasad": 5765,
      "##imore": 5766,
      "##sa": 5767,
      "##uzluydu": 5768,
      "##lenin": 5769,
      "▁mutfak": 5770,
      "▁dig": 5771,
      "##memis": 5772,
      "\"": 5773,
      "▁gayr": 5774,
      "▁verir": 5775,
      "▁cor": 5776,
      "▁islemin": 5777,
      "▁ceyrek": 5778,
      "▁hou": 5779,
      "▁sehrin": 5780,
      "▁paz": 5781,
      "▁katil": 5782,
      "▁aylık": 5783,
      "##va": 5784,
      "##uki": 5785,
      "▁suk": 5786,
      "▁ogrenmek": 5787,
      "▁.'": 5788,
      "▁ihal": 5789,
      "▁sosyalizm": 5790,
      "##ın": 5791,
      "▁baslan": 5792,
      "▁trans": 5793,
      "▁verin": 5794,
      "▁ortak": 5795,
      "##ıtı": 5796,
      "▁konforu": 5797,
      "▁iyiydi": 5798,
      "▁birim": 5799,
      "##iligini": 5800,
      "▁lez": 5801,
      "##mac": 5802,
      "▁konf": 5803,
      "▁ucusları": 5804,
      "##une": 5805,
      "▁beyaz": 5806,
      "##elli": 5807,
      "##osu": 5808,
      "##isindan": 5809,
      "##rarak": 5810,
      "▁deve": 5811,
      "##ulu": 5812,
      "▁milyara": 5813,
      "`": 5814,
      "▁zarar": 5815,
      "▁aksam": 5816,
      "##luluk": 5817,
      "▁donemin": 5818,
      "▁mag": 5819,
      "▁fay": 5820,
      "▁burokrat": 5821,
      "▁davet": 5822,
      "##mustu": 5823,
      "▁agustos": 5824,
      "##ilisi": 5825,
      "▁sozc": 5826,
      "▁list": 5827,
      "▁baskanlıgı": 5828,
      "“": 5829,
      "##legi": 5830,
      "##mey": 5831,
      "▁yaklas": 5832,
      "##ecekleri": 5833,
      "▁ısıgı": 5834,
      "▁belgeleri": 5835,
      "▁tank": 5836,
      "▁mak": 5837,
      "▁fikri": 5838,
      "##lasyon": 5839,
      "##?": 5840,
      "▁karsi": 5841,
      "▁okuz": 5842,
      "##oh": 5843,
      "▁fon": 5844,
      "##itr": 5845,
      "▁anlayıs": 5846,
      "▁inceleme": 5847,
      "▁ikti": 5848,
      "▁spor": 5849,
      "▁meden": 5850,
      "##ra": 5851,
      "▁havaliman": 5852,
      "▁doy": 5853,
      "##usundan": 5854,
      "▁marj": 5855,
      "##kleri": 5856,
      "##odu": 5857,
      "##alarının": 5858,
      "▁phil": 5859,
      "▁parkın": 5860,
      "▁dallas'tan": 5861,
      "▁tarihte": 5862,
      "▁odedigim": 5863,
      "##ask": 5864,
      "▁aileler": 5865,
      "▁imkanlar": 5866,
      "##mu": 5867,
      "▁cumhuriyetciler": 5868,
      "▁sev": 5869,
      "▁iddiaları": 5870,
      "▁elden": 5871,
      "▁insan": 5872,
      "▁toplant": 5873,
      "▁hev": 5874,
      "▁guven": 5875,
      "▁elektrik": 5876,
      "▁hes": 5877,
      "##etli": 5878,
      "##ding": 5879,
      "▁pro": 5880,
      "▁birlikte": 5881,
      "##landıgını": 5882,
      "▁yılların": 5883,
      "▁doktoru": 5884,
      "▁mot": 5885,
      "##anda": 5886,
      "##5'e": 5887,
      "##=": 5888,
      "▁teminat": 5889,
      "▁zev": 5890,
      "##lın": 5891,
      "▁kurumsal": 5892,
      "▁sokakta": 5893,
      "▁siparis": 5894,
      "##'ndan": 5895,
      "▁la": 5896,
      "##hut": 5897,
      "▁coban": 5898,
      "##dik": 5899,
      "▁kıza": 5900,
      "##tig": 5901,
      "##ında": 5902,
      "▁baba": 5903,
      "▁tama": 5904,
      "##yal": 5905,
      "▁saniye": 5906,
      "▁mekan": 5907,
      "##lerek": 5908,
      "▁enst": 5909,
      "▁uluslararası": 5910,
      "▁fırın": 5911,
      "▁beye": 5912,
      "▁bagıs": 5913,
      "##\"": 5914,
      "▁ır": 5915,
      "▁katılım": 5916,
      "##7'de": 5917,
      "▁dostluk": 5918,
      "##masında": 5919,
      "##isinin": 5920,
      "##lattı": 5921,
      "▁yokus": 5922,
      "▁duzenlem": 5923,
      "▁gelge": 5924,
      "▁senator": 5925,
      "##da": 5926,
      "##edir": 5927,
      "▁sezon": 5928,
      "##imiza": 5929,
      "##alar": 5930,
      "▁yuruy": 5931,
      "▁yanak": 5932,
      "▁mermer": 5933,
      "▁merak": 5934,
      "▁kalitesini": 5935,
      "▁zengin": 5936,
      "##8'den": 5937,
      "▁cıl": 5938,
      "▁binanın": 5939,
      "▁kosk": 5940,
      "##inizin": 5941,
      "##otu": 5942,
      "▁mamafih": 5943,
      "▁hasıl": 5944,
      "▁dolay": 5945,
      "##'nın": 5946,
      "▁gr": 5947,
      "▁sirketlerin": 5948,
      "▁car": 5949,
      "▁soyler": 5950,
      "▁emtia": 5951,
      "▁oykuler": 5952,
      "##of": 5953,
      "▁yar": 5954,
      "▁sabaha": 5955,
      "▁dile": 5956,
      "u": 5957,
      "!": 5958,
      "▁hek": 5959,
      "▁bat": 5960,
      "▁balt": 5961,
      "▁masraf": 5962,
      "▁reh": 5963,
      "▁dergi": 5964,
      "▁yuregi": 5965,
      "▁erkekler": 5966,
      "s": 5967,
      "##rar": 5968,
      "▁umud": 5969,
      "▁guc": 5970,
      "▁di": 5971,
      "▁istasyon": 5972,
      "▁kendine": 5973,
      "##yası": 5974,
      "##imden": 5975,
      "▁size": 5976,
      "▁gucu": 5977,
      "▁olay": 5978,
      "▁kale": 5979,
      "##sun": 5980,
      "##lidir": 5981,
      "##…": 5982,
      "▁konularda": 5983,
      "▁rez": 5984,
      "▁alıcı": 5985,
      "▁tesisti": 5986,
      "▁ogretmeni": 5987,
      "▁masanın": 5988,
      "▁azınlık": 5989,
      "▁deneme": 5990,
      "▁seri": 5991,
      "▁geciyor": 5992,
      "▁analistlerin": 5993,
      "▁kuy": 5994,
      "##liginin": 5995,
      "▁muda": 5996,
      "▁fer": 5997,
      "▁rakip": 5998,
      "▁yalnızca": 5999,
      "▁ucuslarının": 6000,
      "▁iade": 6001,
      "##anların": 6002,
      "▁kıs": 6003,
      "▁halini": 6004,
      "▁takımı": 6005,
      "▁bil": 6006,
      "▁tesekkurler": 6007,
      "##acı": 6008,
      "##maktadır": 6009,
      "▁dondur": 6010,
      "▁magaz": 6011,
      "▁rolu": 6012,
      "▁koydu": 6013,
      "▁sap": 6014,
      "##.9": 6015,
      "▁mesel": 6016,
      "▁yerlerde": 6017,
      "▁alanlar": 6018,
      "▁cark": 6019,
      "##yor": 6020,
      "'": 6021,
      "##amam": 6022,
      "▁uretic": 6023,
      "▁plak": 6024,
      "▁ellerinden": 6025,
      "▁aramızda": 6026,
      "##dal": 6027,
      "▁tuketim": 6028,
      "▁derg": 6029,
      "▁animasyonlar": 6030,
      "##det": 6031,
      "##aduf": 6032,
      "##masın": 6033,
      "▁goruyor": 6034,
      "▁emr": 6035,
      "▁demokr": 6036,
      "▁ismini": 6037,
      "▁blok": 6038,
      "##etsiz": 6039,
      "##ladılar": 6040,
      "##)": 6041,
      "##gesi": 6042,
      "▁kır": 6043,
      "z": 6044,
      "▁ekipman": 6045,
      "▁fak": 6046,
      "▁cesitler": 6047,
      "▁model": 6048,
      "▁kapı": 6049,
      "▁adı": 6050,
      "▁verdim": 6051,
      "▁etkisini": 6052,
      "▁mas": 6053,
      "▁zamana": 6054,
      "##leyiciler": 6055,
      "##end": 6056,
      "▁huc": 6057,
      "▁ola": 6058,
      "▁kara": 6059,
      "▁“": 6060,
      "▁toplantı": 6061,
      "▁duny": 6062,
      "▁malum": 6063,
      "▁havalim": 6064,
      "##oker": 6065,
      "▁insanlara": 6066,
      "##ley": 6067,
      "▁sanki": 6068,
      "▁gotur": 6069,
      "##mıstı": 6070,
      "##ustos": 6071,
      "▁havada": 6072,
      "▁eg": 6073,
      "▁ocak": 6074,
      "▁saatleri": 6075,
      "▁ala": 6076,
      "##gec": 6077,
      "▁vicdan": 6078,
      "▁istifade": 6079,
      "▁fiz": 6080,
      "▁cub": 6081,
      "▁ceyreginde": 6082,
      "▁yapmaya": 6083,
      "▁iplik": 6084,
      "##aklar": 6085,
      "##iti": 6086,
      "▁sart": 6087,
      "▁rev": 6088,
      "▁tanıt": 6089,
      "▁ucretleri": 6090,
      "▁oyuncular": 6091,
      "▁denetim": 6092,
      "##ental": 6093,
      "##lanmadı": 6094,
      "▁endeksi": 6095,
      "▁fransız": 6096,
      "##tiler": 6097,
      "▁bıraktı": 6098,
      "▁hale": 6099,
      "▁dogrusu": 6100,
      "▁gereken": 6101,
      "▁ster": 6102,
      "▁yardımcı": 6103,
      "▁made": 6104,
      "▁oysa": 6105,
      "▁gecirdi": 6106,
      "##lıdır": 6107,
      "▁uzum": 6108,
      "##imleri": 6109,
      "##tıgında": 6110,
      "▁meslek": 6111,
      "▁mily": 6112,
      "▁havalimanı": 6113,
      "▁satıslarının": 6114,
      "##os": 6115,
      "▁vakti": 6116,
      "##itraj": 6117,
      "▁sayet": 6118,
      "##alarını": 6119,
      "##ustuk": 6120,
      "▁ulası": 6121,
      "##mez": 6122,
      "▁yandan": 6123,
      "▁ayaga": 6124,
      "▁bayrak": 6125,
      "▁sırasında": 6126,
      "##ediklerini": 6127,
      "▁davayı": 6128,
      "▁catal": 6129,
      "##edig": 6130,
      "##ayacagını": 6131,
      "▁bilgiler": 6132,
      "▁laf": 6133,
      "##ih": 6134,
      "▁saatlerinde": 6135,
      "##nak": 6136,
      "▁kısıt": 6137,
      "▁donus": 6138,
      "▁kamu": 6139,
      "▁ihracat": 6140,
      "##beri": 6141,
      "##egini": 6142,
      "▁durumlarda": 6143,
      "▁sinyal": 6144,
      "▁ucunda": 6145,
      "▁abd": 6146,
      "▁katına": 6147,
      "##lerinden": 6148,
      "▁ca": 6149,
      "▁sada": 6150,
      "##2'de": 6151,
      "##av": 6152,
      "▁rop": 6153,
      "▁servisi": 6154,
      "▁televizyon": 6155,
      "▁aksama": 6156,
      "##gır": 6157,
      "▁mide": 6158,
      "▁ydi": 6159,
      "▁ticaretinde": 6160,
      "##umda": 6161,
      "▁kagı": 6162,
      "▁bu": 6163,
      "▁kay": 6164,
      "▁ide": 6165,
      "▁hos": 6166,
      "▁yumruk": 6167,
      "▁li": 6168,
      "▁erkegi": 6169,
      "##lasıyor": 6170,
      "▁kose": 6171,
      "—": 6172,
      "▁belli": 6173,
      "▁tarihi": 6174,
      "##ayım": 6175,
      "▁rady": 6176,
      "▁hizmetler": 6177,
      "▁bisik": 6178,
      "▁se": 6179,
      "▁etkin": 6180,
      "▁resep": 6181,
      "▁sevgil": 6182,
      "▁hizmetci": 6183,
      "▁2": 6184,
      "▁dısarıya": 6185,
      "##irmen": 6186,
      "▁kısalt": 6187,
      "▁dallas'a": 6188,
      "▁katır": 6189,
      "▁gerektir": 6190,
      "##mesin": 6191,
      "##daydi": 6192,
      "▁bıy": 6193,
      "a": 6194,
      "▁kalkıyor": 6195,
      "▁iceriye": 6196,
      "##sef": 6197,
      "▁planları": 6198,
      "▁olustur": 6199,
      "▁alımı": 6200,
      "▁amma": 6201,
      "▁sozleri": 6202,
      "##ımın": 6203,
      "▁karayolu": 6204,
      "▁saatlerini": 6205,
      "▁od": 6206,
      "▁mevz": 6207,
      "▁aralık": 6208,
      "▁koca": 6209,
      "▁doları'na": 6210,
      "▁universitesi": 6211,
      "##umlu": 6212,
      "▁maz": 6213,
      "▁salı": 6214,
      "▁yan": 6215,
      "##$": 6216,
      "▁belge": 6217,
      "▁akla": 6218,
      "▁acentamiza": 6219,
      "▁matem": 6220,
      "▁istedigini": 6221,
      "##anları": 6222,
      "▁isk": 6223,
      "▁ulas": 6224,
      "##orta": 6225,
      "▁kıyı": 6226,
      "▁avukatı": 6227,
      "▁personeli": 6228,
      "▁tasarruf": 6229,
      "▁kabuk": 6230,
      "##unde": 6231,
      "##adır": 6232,
      "##atist": 6233,
      "▁sade": 6234,
      "▁kapıdan": 6235,
      "▁uyesi": 6236,
      "##dugunu": 6237,
      "##yalizm": 6238,
      "▁huz": 6239,
      "##ai": 6240,
      "##8'de": 6241,
      "▁vucud": 6242,
      "▁salat": 6243,
      "▁vardı": 6244,
      "##'yi": 6245,
      "▁cont": 6246,
      "▁islemi": 6247,
      "▁ib": 6248,
      "▁bagır": 6249,
      "▁uf": 6250,
      "▁ber": 6251,
      "▁kaynak": 6252,
      "##ont": 6253,
      "▁varlıgı": 6254,
      "##te": 6255,
      "▁bal": 6256,
      "▁degistir": 6257,
      "▁konusmayı": 6258,
      "▁basında": 6259,
      "▁derd": 6260,
      "##edikten": 6261,
      "##ington": 6262,
      "##irim": 6263,
      "##uyla": 6264,
      "▁*": 6265,
      "▁bakın": 6266,
      "▁esya": 6267,
      "▁sonlarında": 6268,
      "▁acısından": 6269,
      "▁ellerine": 6270,
      "##be": 6271,
      "▁kisileri": 6272,
      "▁dususle": 6273,
      "▁karsıl": 6274,
      "▁acılıs": 6275,
      "▁egem": 6276,
      "▁cukur": 6277,
      "▁idaresi": 6278,
      "▁vah": 6279,
      "▁zor": 6280,
      "▁ces": 6281,
      "##tusu": 6282,
      "▁diren": 6283,
      "##aguar": 6284,
      "##lıyordu": 6285,
      "▁esnada": 6286,
      "##arl": 6287,
      "##ılmasını": 6288,
      "▁kos": 6289,
      "▁gecen": 6290,
      "▁zar": 6291,
      "▁tesisin": 6292,
      "##iya": 6293,
      "▁gunesin": 6294,
      "▁vası": 6295,
      "##ultu": 6296,
      "▁ediyorlar": 6297,
      "▁belg": 6298,
      "▁egzersiz": 6299,
      "▁hali": 6300,
      "##ıklık": 6301,
      "▁tasarım": 6302,
      "##ıgına": 6303,
      "▁cak": 6304,
      "▁gitmek": 6305,
      "▁gecik": 6306,
      "▁yılı": 6307,
      "▁muk": 6308,
      "▁merhaba": 6309,
      "▁olur": 6310,
      "##unku": 6311,
      "##ital": 6312,
      "##amız": 6313,
      "▁calıstı": 6314,
      "▁sokak": 6315,
      "▁karakter": 6316,
      "##urken": 6317,
      "▁endis": 6318,
      "▁boyn": 6319,
      "▁yolları": 6320,
      "m": 6321,
      "▁etrafa": 6322,
      "##gun": 6323,
      "▁adamı": 6324,
      "##derken": 6325,
      "▁damak": 6326,
      "##iv": 6327,
      "##oyu": 6328,
      "▁guney": 6329,
      "▁demek": 6330,
      "▁malzem": 6331,
      ":": 6332,
      "##eginin": 6333,
      "▁sordu": 6334,
      "▁kadına": 6335,
      "▁gali": 6336,
      "▁tura": 6337,
      "##yo": 6338,
      "▁suren": 6339,
      "##egor": 6340,
      "▁ciftlik": 6341,
      "▁programları": 6342,
      "▁dusus": 6343,
      "##acagına": 6344,
      "▁vergisi": 6345,
      "▁katkıda": 6346,
      "▁oranları": 6347,
      "▁a.m": 6348,
      "▁spot": 6349,
      "▁tesis": 6350,
      "▁yel": 6351,
      "##ran": 6352,
      "▁acık": 6353,
      "▁vucut": 6354,
      "▁tedavul": 6355,
      "▁suruyor": 6356,
      "▁kah": 6357,
      "##ule": 6358,
      "##amaya": 6359,
      "##ılacak": 6360,
      "▁islemleri": 6361,
      "##layarak": 6362,
      "▁emlak": 6363,
      "▁denizi": 6364,
      "##iyetle": 6365,
      "##istel": 6366,
      "▁omuz": 6367,
      "▁olmadıgı": 6368,
      "▁kimyasal": 6369,
      "▁sarım": 6370,
      "▁usak": 6371,
      "▁5": 6372,
      "▁toront": 6373,
      "▁pey": 6374,
      "▁cogun": 6375,
      "##'ni": 6376,
      "▁erik": 6377,
      "##ızı": 6378,
      "▁ayakları": 6379,
      "▁ma": 6380,
      "##masına": 6381,
      "▁santr": 6382,
      "▁air": 6383,
      "▁yeniden": 6384,
      "▁kub": 6385,
      "▁nus": 6386,
      "▁devrim": 6387,
      "##dıgımız": 6388,
      "▁yasamı": 6389,
      "▁eksik": 6390,
      "##erli": 6391,
      "##lıgıyla": 6392,
      "▁yasay": 6393,
      "▁siyasi": 6394,
      "▁ucretine": 6395,
      "▁verdi": 6396,
      "▁bunların": 6397,
      "▁sevin": 6398,
      "##ıcak": 6399,
      "▁edebiyat": 6400,
      "▁yıgın": 6401,
      "▁huzur": 6402,
      "▁bahs": 6403,
      "▁deniz": 6404,
      "▁konular": 6405,
      "▁yılın": 6406,
      "▁senin": 6407,
      "▁p": 6408,
      "▁sinir": 6409,
      "▁yıllardan": 6410,
      "▁sonucların": 6411,
      "▁ocagın": 6412,
      "▁mutla": 6413,
      "▁olmasını": 6414,
      "▁olar": 6415,
      "##ata": 6416,
      "▁aray": 6417,
      "▁or": 6418,
      "▁mus": 6419,
      "##&": 6420,
      "▁ork": 6421,
      "▁dili": 6422,
      "▁satıslara": 6423,
      "##uydu": 6424,
      "▁mut": 6425,
      "##masıyla": 6426,
      "##inleri": 6427,
      "▁gitmis": 6428,
      "##osuna": 6429,
      "▁city'e": 6430,
      "▁sovyet": 6431,
      "▁tasavv": 6432,
      "▁clas": 6433,
      "##amay": 6434,
      "▁kontrolu": 6435,
      "▁sikay": 6436,
      "▁cennet": 6437,
      "▁oldugum": 6438,
      "▁dusuk": 6439,
      "▁gogs": 6440,
      "##kac": 6441,
      "▁geceler": 6442,
      "▁sistemi": 6443,
      "▁ugra": 6444,
      "##eo": 6445,
      "▁degirmen": 6446,
      "▁rut": 6447,
      "##mazdı": 6448,
      "▁saf": 6449,
      "▁otomobil": 6450,
      "▁sened": 6451,
      "##uluyor": 6452,
      "▁gul": 6453,
      "▁oner": 6454,
      "▁anlat": 6455,
      "▁aldı": 6456,
      "▁hazırlık": 6457,
      "▁traf": 6458,
      "▁fazl": 6459,
      "▁yukarı": 6460,
      "▁ann": 6461,
      "▁keyif": 6462,
      "##acagı": 6463,
      "▁oyun": 6464,
      "▁ait": 6465,
      "▁f": 6466,
      "##m": 6467,
      "##apon": 6468,
      "▁bır": 6469,
      "##ansiyon": 6470,
      "▁sans": 6471,
      "▁:": 6472,
      "##ımıza": 6473,
      "▁edilen": 6474,
      "▁pos": 6475,
      "▁onay": 6476,
      "▁ulusal": 6477,
      "▁likid": 6478,
      "▁biliyor": 6479,
      "##lasma": 6480,
      "▁insana": 6481,
      "▁cemiyet": 6482,
      "▁olayın": 6483,
      "▁gittik": 6484,
      "▁menkul": 6485,
      "▁teraz": 6486,
      "▁saat": 6487,
      "▁hik": 6488,
      "▁kuyu": 6489,
      "▁isim": 6490,
      "▁alanında": 6491,
      "##.8": 6492,
      "▁harika": 6493,
      "▁yont": 6494,
      "▁icki": 6495,
      "▁bekl": 6496,
      "▁kurban": 6497,
      "▁kac": 6498,
      "▁aile": 6499,
      "##layan": 6500,
      "##ediyor": 6501,
      "▁gucunu": 6502,
      "▁islet": 6503,
      "▁ni": 6504,
      "▁onlar": 6505,
      "▁fonlar": 6506,
      "▁lokma": 6507,
      "##umun": 6508,
      "##uzin": 6509,
      "▁birden": 6510,
      "▁ticaret": 6511,
      "▁serv": 6512,
      "▁mec": 6513,
      "▁kuyr": 6514,
      "▁savası": 6515,
      "▁kahv": 6516,
      "##akal": 6517,
      "▁ozel": 6518,
      "▁kitabı": 6519,
      "▁ez": 6520,
      "▁iscilerin": 6521,
      "▁ya": 6522,
      "##ızlı": 6523,
      "▁odasi": 6524,
      "▁imza": 6525,
      "▁sever": 6526,
      "##isinden": 6527,
      "▁elimi": 6528,
      "##asının": 6529,
      "▁yapıyor": 6530,
      "▁buh": 6531,
      "▁2'den": 6532,
      "▁ilc": 6533,
      "▁yoldan": 6534,
      "▁ey": 6535,
      "▁haftanın": 6536,
      "##umuz": 6537,
      "##geler": 6538,
      "▁digeri": 6539,
      "##ayı": 6540,
      "▁vez": 6541,
      "##lamasını": 6542,
      "##bal": 6543,
      "▁versiyon": 6544,
      "▁elestirmen": 6545,
      "▁kit": 6546,
      "▁pittsburgh'a": 6547,
      "▁cars": 6548,
      "▁kadeh": 6549,
      "▁hemsir": 6550,
      "▁af": 6551,
      "▁denizinden": 6552,
      "▁kolt": 6553,
      "##ey": 6554,
      "▁goruntu": 6555,
      "▁cuv": 6556,
      "▁firma": 6557,
      "▁sekret": 6558,
      "##itler": 6559,
      "▁isabet": 6560,
      "▁sigorta": 6561,
      "▁vagon": 6562,
      "##ması": 6563,
      "▁protest": 6564,
      "▁yal": 6565,
      "▁alama": 6566,
      "▁onları": 6567,
      "##ap": 6568,
      "▁ceviz": 6569,
      "##gın": 6570,
      "▁charlotte": 6571,
      "▁havayolu": 6572,
      "##inn": 6573,
      "▁firması": 6574,
      "▁kutuk": 6575,
      "▁ph": 6576,
      "##lıgını": 6577,
      "▁sohret": 6578,
      "▁sıf": 6579,
      "▁haline": 6580,
      "▁kaynagı": 6581,
      "▁parmak": 6582,
      "▁manzara": 6583,
      "▁kalan": 6584,
      "▁yangın": 6585,
      "##atıl": 6586,
      "▁sosy": 6587,
      "▁gerekc": 6588,
      "▁hekim": 6589,
      "##melidir": 6590,
      "▁sozcusu": 6591,
      "▁suy": 6592,
      "▁ettigini": 6593,
      "▁sars": 6594,
      "▁mah": 6595,
      "▁yuv": 6596,
      "▁kursun": 6597,
      "f": 6598,
      "##set": 6599,
      "▁kere": 6600,
      "▁lake": 6601,
      "##ızın": 6602,
      "▁hakaret": 6603,
      "▁gazeteci": 6604,
      "##uzları": 6605,
      "▁seftali": 6606,
      "▁surdu": 6607,
      "▁tutul": 6608,
      "▁ucuza": 6609,
      "##8": 6610,
      "▁yıldızı": 6611,
      "▁baglı": 6612,
      "▁yarısından": 6613,
      "##siz": 6614,
      "▁yukse": 6615,
      "##may": 6616,
      "▁tarzı": 6617,
      "▁konusunda": 6618,
      "##eden": 6619,
      "▁sikayet": 6620,
      "##tay": 6621,
      "▁hisseyi": 6622,
      "▁bor": 6623,
      "▁garsonlar": 6624,
      "▁talim": 6625,
      "▁mur": 6626,
      "▁temsilci": 6627,
      "##azla": 6628,
      "▁artıs": 6629,
      "##aya": 6630,
      "▁yaka": 6631,
      "▁fr": 6632,
      "▁felsefe": 6633,
      "▁.": 6634,
      "▁egitim": 6635,
      "▁marka": 6636,
      "▁kaybı": 6637,
      "▁sevgi": 6638,
      "▁ucretini": 6639,
      "▁sehir": 6640,
      "##leti": 6641,
      "▁gorunuyor": 6642,
      "▁bol": 6643,
      "▁ipotege": 6644,
      "▁indirim": 6645,
      "▁toren": 6646,
      "▁bizi": 6647,
      "▁borsada": 6648,
      "▁ard": 6649,
      "▁kelime": 6650,
      "▁kesim": 6651,
      "▁gobek": 6652,
      "##ble": 6653,
      "▁ihtimal": 6654,
      "t": 6655,
      "▁akıl": 6656,
      "##cagız": 6657,
      "▁ızdır": 6658,
      "▁yere": 6659,
      "▁dustugunu": 6660,
      "▁viski": 6661,
      "▁biliyorum": 6662,
      "▁gorunuse": 6663,
      "##ibi": 6664,
      "▁sessiz": 6665,
      "##ucc": 6666,
      "[MASK]": 6667,
      "▁donemlerde": 6668,
      "▁fık": 6669,
      "##elere": 6670,
      "▁duzen": 6671,
      "##dikten": 6672,
      "##+": 6673,
      "▁kumar": 6674,
      "▁hareket": 6675,
      "##manın": 6676,
      "▁fonların": 6677,
      "▁tutam": 6678,
      "##adar": 6679,
      "▁reform": 6680,
      "▁uyusturucu": 6681,
      "▁tul": 6682,
      "▁olmay": 6683,
      "▁gunu": 6684,
      "▁cıkarmak": 6685,
      "##5": 6686,
      "▁kelim": 6687,
      "##olu": 6688,
      "▁muzik": 6689,
      "▁vatand": 6690,
      "▁ters": 6691,
      "▁harcamaları": 6692,
      "▁izn": 6693,
      "▁edecek": 6694,
      "▁us": 6695,
      "▁keyf": 6696,
      "▁arasına": 6697,
      "▁hot": 6698,
      "%": 6699,
      "▁k": 6700,
      "▁kesinti": 6701,
      "##ıltı": 6702,
      "###": 6703,
      "##umsal": 6704,
      "▁etrafında": 6705,
      "▁cakmak": 6706,
      "▁karıstır": 6707,
      "▁tuf": 6708,
      "▁atıl": 6709,
      "▁tec": 6710,
      "##ban": 6711,
      "▁soylem": 6712,
      "▁boylece": 6713,
      "##ecegim": 6714,
      "##lenme": 6715,
      "##elerin": 6716,
      "##miyor": 6717,
      "▁burosu": 6718,
      "##aydi": 6719,
      "▁zemin": 6720,
      "▁son": 6721,
      "##alari": 6722,
      "▁araz": 6723,
      "▁tayin": 6724,
      "##yle": 6725,
      "##um": 6726,
      "▁sonrasında": 6727,
      "▁francisco'ya": 6728,
      "▁misafir": 6729,
      "▁sonrası": 6730,
      "▁halı": 6731,
      "##:": 6732,
      "##iber": 6733,
      "##lerin": 6734,
      "▁parcaları": 6735,
      "▁kitap": 6736,
      "##gıt": 6737,
      "▁gelecekte": 6738,
      "▁senato": 6739,
      "##abileceg": 6740,
      "##igin": 6741,
      "▁gorevini": 6742,
      "▁ortagı": 6743,
      "▁kapital": 6744,
      "##'un": 6745,
      "##arılı": 6746,
      "▁kurt": 6747,
      "##ılı": 6748,
      "▁yapılacak": 6749,
      "▁dom": 6750,
      "##arım": 6751,
      "##lerimize": 6752,
      "▁karsısında": 6753,
      "▁burokr": 6754,
      "▁oyk": 6755,
      "▁muhafazak": 6756,
      "▁.)": 6757,
      "▁ihtiyacı": 6758,
      "##ucu": 6759,
      "▁val": 6760,
      "▁yatırımcıları": 6761,
      "▁utan": 6762,
      "▁hissediyor": 6763,
      "▁omur": 6764,
      "▁donusu": 6765,
      "##eb": 6766,
      "▁kıy": 6767,
      "▁koms": 6768,
      "##ari": 6769,
      "▁nak": 6770,
      "##ec": 6771,
      "▁dalg": 6772,
      "▁sigara": 6773,
      "##ahan": 6774,
      "▁degisiklikler": 6775,
      "##uv": 6776,
      "▁gostermek": 6777,
      "▁talebi": 6778,
      "##et": 6779,
      "▁cocugun": 6780,
      "##esem": 6781,
      "▁bilgi": 6782,
      "##nuz": 6783,
      "▁gercegi": 6784,
      "▁ise": 6785,
      "▁bolgede": 6786,
      "▁burada": 6787,
      "##tlu": 6788,
      "##etleri": 6789,
      "▁kurtaj": 6790,
      "▁burnu": 6791,
      "▁196": 6792,
      "##ayi": 6793,
      "##ledim": 6794,
      "##vil": 6795,
      "▁yoneticisi": 6796,
      "##ısma": 6797,
      "▁ha": 6798,
      "▁test": 6799,
      "▁yalnız": 6800,
      "##oks": 6801,
      "▁sesle": 6802,
      "▁nefes": 6803,
      "▁dogru": 6804,
      "▁sirketine": 6805,
      "##emli": 6806,
      "▁taraftan": 6807,
      "▁cen": 6808,
      "▁muhaseb": 6809,
      "▁arac": 6810,
      "▁bilgilendir": 6811,
      "▁endeks": 6812,
      "▁cad": 6813,
      "##00'": 6814,
      "##acıların": 6815,
      "▁mesele": 6816,
      "▁elb": 6817,
      "▁derin": 6818,
      "▁git": 6819,
      "▁basv": 6820,
      "▁leh": 6821,
      "▁ede": 6822,
      "▁evr": 6823,
      "##unda": 6824,
      "▁tasım": 6825,
      "▁katilmak": 6826,
      "▁insanın": 6827,
      "▁gercekten": 6828,
      "▁grubu": 6829,
      "▁olanak": 6830,
      "##ınt": 6831,
      "##is": 6832,
      "▁piyan": 6833,
      "▁alkol": 6834,
      "▁gelirler": 6835,
      "▁corp": 6836,
      "##cı": 6837,
      "▁bundan": 6838,
      "▁problem": 6839,
      "##liye": 6840,
      "▁saun": 6841,
      "##liyor": 6842,
      "▁%4": 6843,
      "▁sig": 6844,
      "▁salonun": 6845,
      "##istirdi": 6846,
      "##aklık": 6847,
      "▁kendiler": 6848,
      "▁ekibi": 6849,
      "▁hayran": 6850,
      "▁tay": 6851,
      "▁200": 6852,
      "▁sert": 6853,
      "▁sonundan": 6854,
      "▁ruya": 6855,
      "▁sur": 6856,
      "▁tiyatro": 6857,
      "##aat": 6858,
      "##let": 6859,
      "▁basını": 6860,
      "▁aldım": 6861,
      "▁dusman": 6862,
      "▁kurb": 6863,
      "▁elestiri": 6864,
      "▁fasulye": 6865,
      "▁kusur": 6866,
      "▁z": 6867,
      "▁kop": 6868,
      "▁alak": 6869,
      "▁bulunuyor": 6870,
      "##larini": 6871,
      "##bası": 6872,
      "▁restoran": 6873,
      "▁yapılan": 6874,
      "##ugun": 6875,
      "▁olm": 6876,
      "▁cik": 6877,
      "▁programını": 6878,
      "▁aklı": 6879,
      "▁turu": 6880,
      "▁ongoru": 6881,
      "##kar": 6882,
      "▁boya": 6883,
      "##ligiyle": 6884,
      "▁philadelphia'dan": 6885,
      "▁\"": 6886,
      "▁dogal": 6887,
      "▁darbuk": 6888,
      "▁kıv": 6889,
      "##her": 6890,
      "▁durgunluk": 6891,
      "▁tasar": 6892,
      "▁mada": 6893,
      "▁form": 6894,
      "▁catı": 6895,
      "▁celik": 6896,
      "##malar": 6897,
      "▁gayrimenkul": 6898,
      "▁11": 6899,
      "##kan": 6900,
      "▁duzenleme": 6901,
      "▁yapmak": 6902,
      "##tikten": 6903,
      "##mis": 6904,
      "▁lı": 6905,
      "▁yoneticileri": 6906,
      "▁ureticisi": 6907,
      "▁irade": 6908,
      "▁sıkıntısı": 6909,
      "▁genelde": 6910,
      "▁proj": 6911,
      "##ının": 6912,
      "▁gem": 6913,
      "▁hisse": 6914,
      "##udu": 6915,
      "##lanmasını": 6916,
      "▁bence": 6917,
      "▁bizim": 6918,
      "▁hijyen": 6919,
      "▁cercev": 6920,
      "▁amerik": 6921,
      "##eda": 6922,
      "▁dakikada": 6923,
      "▁bahcede": 6924,
      "##dası": 6925,
      "▁yiy": 6926,
      "▁onun": 6927,
      "##phia": 6928,
      "▁met": 6929,
      "▁sus": 6930,
      "▁dairesi": 6931,
      "▁york": 6932,
      "▁kiz": 6933,
      "##igi": 6934,
      "▁hanimla": 6935,
      "▁calismas": 6936,
      "▁milwa": 6937,
      "▁memnunuz": 6938,
      "▁ustu": 6939,
      "##mayacak": 6940,
      "▁seker": 6941,
      "##eligi": 6942,
      "##esinin": 6943,
      "##ukee": 6944,
      "▁liraya": 6945,
      "▁noktada": 6946,
      "▁mektup": 6947,
      "▁tat": 6948,
      "##ıslı": 6949,
      "##urup": 6950,
      "▁may": 6951,
      "▁bize": 6952,
      "▁duser": 6953,
      "##enden": 6954,
      "▁gelin": 6955,
      "▁.\"": 6956,
      "▁yapıt": 6957,
      "▁gures": 6958,
      "▁aynı": 6959,
      "▁seyler": 6960,
      "##endi": 6961,
      "▁isp": 6962,
      "▁koymak": 6963,
      "▁klim": 6964,
      "▁bah": 6965,
      "▁planimiz": 6966,
      "▁iceride": 6967,
      "▁gelisme": 6968,
      "##00'e": 6969,
      "▁bicimi": 6970,
      "##'s": 6971,
      "▁yerel": 6972,
      "##umde": 6973,
      "▁konuyu": 6974,
      "▁egz": 6975,
      "▁ben": 6976,
      "▁belirt": 6977,
      "##ım": 6978,
      "▁19": 6979,
      "▁sofra": 6980,
      "▁yoksul": 6981,
      "▁soyluyor": 6982,
      "▁icine": 6983,
      "##samba": 6984,
      "▁birbirine": 6985,
      "▁istih": 6986,
      "##sin": 6987,
      "##emi": 6988,
      "▁sahib": 6989,
      "▁sarkı": 6990,
      "##ira": 6991,
      "▁yonetic": 6992,
      "▁deger": 6993,
      "▁nevi": 6994,
      "##tif": 6995,
      "▁aslında": 6996,
      "##cagım": 6997,
      "##5'te": 6998,
      "▁ens": 6999,
      "▁sil": 7000,
      "▁seviyesinden": 7001,
      "▁bl": 7002,
      "▁meselesi": 7003,
      "▁9'dan": 7004,
      "▁gayret": 7005,
      "▁urunler": 7006,
      "▁kurulu": 7007,
      "▁ila": 7008,
      "▁soylen": 7009,
      "▁yemeklerin": 7010,
      "▁bulundu": 7011,
      "##1'de": 7012,
      "##ilige": 7013,
      "▁asagıya": 7014,
      "▁koltuk": 7015,
      "▁sahibi": 7016,
      "##ıp": 7017,
      "##lıga": 7018,
      "##/": 7019,
      "▁karargah": 7020,
      "▁yanl": 7021,
      "▁ket": 7022,
      "##ene": 7023,
      "▁muhat": 7024,
      "##uyordum": 7025,
      "▁gog": 7026,
      "##islari": 7027,
      "▁cekti": 7028,
      "▁uzerine": 7029,
      "▁sos": 7030,
      "▁ogr": 7031,
      "##elleri": 7032,
      "▁tık": 7033,
      "▁olasılık": 7034,
      "▁bırak": 7035,
      "▁ugul": 7036,
      "▁seylerin": 7037,
      "##enli": 7038,
      "##larda": 7039,
      "▁olmayı": 7040,
      "##za": 7041,
      "▁soruları": 7042,
      "▁ada": 7043,
      "▁yerinden": 7044,
      "▁yuz": 7045,
      "##lamaları": 7046,
      "##lenmek": 7047,
      "▁rapor": 7048,
      "▁otel": 7049,
      "▁halkla": 7050,
      "▁yapar": 7051,
      "▁babasının": 7052,
      "▁ayv": 7053,
      "▁kredileri": 7054,
      "▁hanım": 7055,
      "##'si": 7056,
      "▁profesor": 7057,
      "##cıları": 7058,
      "##amak": 7059,
      "▁arkasında": 7060,
      "##men": 7061,
      "##asyonu": 7062,
      "▁amerikalı": 7063,
      "▁yataklar": 7064,
      "▁yapacak": 7065,
      "▁aileye": 7066,
      "##ik": 7067,
      "▁ofisi": 7068,
      "▁ayak": 7069,
      "▁ikram": 7070,
      "▁kav": 7071,
      "▁teker": 7072,
      "▁dengesi": 7073,
      "##erhal": 7074,
      "▁bisiklet": 7075,
      "▁secen": 7076,
      "▁rehberimiz": 7077,
      "▁anketi": 7078,
      "▁koc": 7079,
      "▁gelis": 7080,
      "##mur": 7081,
      "▁bag": 7082,
      "##duk": 7083,
      "▁tor": 7084,
      "▁kanadı": 7085,
      "##masının": 7086,
      "##piyon": 7087,
      "▁gazetenin": 7088,
      "##culuk": 7089,
      "▁atlar": 7090,
      "▁dolardan": 7091,
      "##iness": 7092,
      "▁kul": 7093,
      "▁diplom": 7094,
      "▁doktor": 7095,
      "▁takdirde": 7096,
      "▁ong": 7097,
      "▁lezzet": 7098,
      "▁str": 7099,
      "▁cum": 7100,
      "▁adını": 7101,
      "##ist": 7102,
      "##lerim": 7103,
      "▁sizin": 7104,
      "##dum": 7105,
      "▁koyden": 7106,
      "##aren": 7107,
      "##ard": 7108,
      "##yacag": 7109,
      "##.ceyr": 7110,
      "▁havaal": 7111,
      "▁gosterir": 7112,
      "##ed": 7113,
      "##agına": 7114,
      "▁merh": 7115,
      "##landı": 7116,
      "##digini": 7117,
      "##ıt": 7118,
      "##lugun": 7119,
      "▁gelen": 7120,
      "▁disk": 7121,
      "##diklerini": 7122,
      "##ba": 7123,
      "##ulan": 7124,
      "##dugum": 7125,
      "▁yılına": 7126,
      "##akende": 7127,
      "▁dustu": 7128,
      "▁bırakmak": 7129,
      "▁calısanlar": 7130,
      "▁ucaga": 7131,
      "▁hap": 7132,
      "▁hakkında": 7133,
      "##abilecegini": 7134,
      "▁dogum": 7135,
      "##isinde": 7136,
      "▁olsa": 7137,
      "##lı": 7138,
      "##lge": 7139,
      "##asını": 7140,
      "##ation": 7141,
      "##lıc": 7142,
      "▁basına": 7143,
      "▁dolu": 7144,
      "▁pla": 7145,
      "▁tabanc": 7146,
      "##alık": 7147,
      "##minde": 7148,
      "▁acmak": 7149,
      "▁iliski": 7150,
      "▁karsılıgı": 7151,
      "▁lim": 7152,
      "▁bolumunde": 7153,
      "▁num": 7154,
      "##mistir": 7155,
      "▁tarz": 7156,
      "▁ahır": 7157,
      "##lamalar": 7158,
      "▁gecit": 7159,
      "▁ardından": 7160,
      "##ıya": 7161,
      "▁odasına": 7162,
      "##lanmıs": 7163,
      "##sızlık": 7164,
      "▁mutlu": 7165,
      "▁karıs": 7166,
      "▁doları": 7167,
      "▁kurum": 7168,
      "▁sozcuk": 7169,
      "▁cevresinde": 7170,
      "▁muhendis": 7171,
      "▁babamın": 7172,
      "##'nden": 7173,
      "▁norm": 7174,
      "▁omz": 7175,
      "▁koridor": 7176,
      "##gan": 7177,
      "▁yeterli": 7178,
      "##lerdi": 7179,
      "▁tarafta": 7180,
      "▁cok": 7181,
      "▁hacim": 7182,
      "▁dusuktu": 7183,
      "▁pant": 7184,
      "▁calısmaları": 7185,
      "▁ortadan": 7186,
      "▁madde": 7187,
      "▁bagım": 7188,
      "▁kolay": 7189,
      "##ilmek": 7190,
      "##hal": 7191,
      "▁kanun": 7192,
      "▁kavanoz": 7193,
      "▁and": 7194,
      "▁per": 7195,
      "##ıc": 7196,
      "▁ucagı": 7197,
      "▁vir": 7198,
      "▁ara": 7199,
      "▁sozu": 7200,
      "▁baslarını": 7201,
      "▁fiyatı": 7202,
      "▁pittsburgh": 7203,
      "##vel": 7204,
      "▁yurur": 7205,
      "▁kablo": 7206,
      "▁nedeni": 7207,
      "##ehir": 7208,
      "▁kapattı": 7209,
      "##izm": 7210,
      "▁ars": 7211,
      "▁bagr": 7212,
      "##agım": 7213,
      "▁oluyor": 7214,
      "▁kahvaltisi": 7215,
      "▁gecti": 7216,
      "##uk": 7217,
      "##iki": 7218,
      "▁cuval": 7219,
      "▁muamel": 7220,
      "▁tohum": 7221,
      "▁altını": 7222,
      "▁baskalarının": 7223,
      "▁ister": 7224,
      "▁ihtiy": 7225,
      "▁avuc": 7226,
      "▁durus": 7227,
      "▁anlasmaya": 7228,
      "▁kapısına": 7229,
      "▁kariyer": 7230,
      "##ir": 7231,
      "##madim": 7232,
      "▁kola": 7233,
      "▁bekleniyor": 7234,
      "▁uyelerinin": 7235,
      "▁ogl": 7236,
      "▁bire": 7237,
      "▁s": 7238,
      "▁uygulamaları": 7239,
      "▁ıskar": 7240,
      "▁karakol": 7241,
      "▁yasama": 7242,
      "▁kab": 7243,
      "▁birtakı": 7244,
      "▁sat": 7245,
      "▁ucu": 7246,
      "▁ardı": 7247,
      "▁anı": 7248,
      "▁basın": 7249,
      "##amadı": 7250,
      "▁edildi": 7251,
      "▁lamb": 7252,
      "##dol": 7253,
      "▁acısı": 7254,
      "▁patr": 7255,
      "##anını": 7256,
      "▁sukur": 7257,
      "##aların": 7258,
      "##ekli": 7259,
      "▁yarat": 7260,
      "▁evleri": 7261,
      "▁aracı": 7262,
      "▁anlama": 7263,
      "▁yapan": 7264,
      "▁ulasımı": 7265,
      "▁birlik": 7266,
      "▁fas": 7267,
      "▁olmaya": 7268,
      "▁hij": 7269,
      "▁kayd": 7270,
      "##rne": 7271,
      "▁olaylara": 7272,
      "##lb": 7273,
      "▁evine": 7274,
      "/": 7275,
      "▁mey": 7276,
      "▁seb": 7277,
      "▁bedel": 7278,
      "▁ideal": 7279,
      "▁hafta": 7280,
      "▁secmen": 7281,
      "##ilmesine": 7282,
      "▁pab": 7283,
      "▁esn": 7284,
      "▁sifir": 7285,
      "▁komun": 7286,
      "▁calisanlar": 7287,
      "##tin": 7288,
      "▁sene": 7289,
      "▁gununden": 7290,
      "▁lek": 7291,
      "##ksa": 7292,
      "##mesini": 7293,
      "▁ing": 7294,
      "##lere": 7295,
      "##enk": 7296,
      "▁ov": 7297,
      "▁istey": 7298,
      "▁sesleri": 7299,
      "##lulugunu": 7300,
      "##asında": 7301,
      "▁tad": 7302,
      "▁asıl": 7303,
      "##inizi": 7304,
      "▁ucusta": 7305,
      "▁gez": 7306,
      "▁sag": 7307,
      "▁odam": 7308,
      "▁batı": 7309,
      "▁kalk": 7310,
      "##sis": 7311,
      "▁sektor": 7312,
      "▁tel": 7313,
      "▁ul": 7314,
      "▁sıcak": 7315,
      "▁pers": 7316,
      "##ırken": 7317,
      "▁sirketinin": 7318,
      "▁kapısının": 7319,
      "▁rezerve": 7320,
      "##ılması": 7321,
      "▁satısa": 7322,
      "▁uzerinde": 7323,
      "##ent": 7324,
      "##tır": 7325,
      "▁yuzunu": 7326,
      "▁musait": 7327,
      "▁suik": 7328,
      "▁park": 7329,
      "▁mucadele": 7330,
      "▁canım": 7331,
      "##rsı": 7332,
      "##–": 7333,
      "##enuz": 7334,
      "▁kazan": 7335,
      "##lem": 7336,
      "##digi": 7337,
      "▁goze": 7338,
      "▁isc": 7339,
      "▁farklı": 7340,
      "▁puana": 7341,
      "▁tedbir": 7342,
      "##las": 7343,
      "▁olabilecegini": 7344,
      "▁sahada": 7345,
      "##kinden": 7346,
      "▁merdiven": 7347,
      "▁liderleri": 7348,
      "▁demet": 7349,
      "▁isi": 7350,
      "▁lazım": 7351,
      "##labil": 7352,
      "##lıp": 7353,
      "##lari": 7354,
      "▁uzerindeki": 7355,
      "▁ric": 7356,
      "##sul": 7357,
      "▁olmakla": 7358,
      "▁ucretin": 7359,
      "##mec": 7360,
      "▁sermay": 7361,
      "##oc": 7362,
      "##aga": 7363,
      "##gını": 7364,
      "▁tez": 7365,
      "▁etme": 7366,
      "▁kusku": 7367,
      "##kı": 7368,
      "▁polisler": 7369,
      "##yum": 7370,
      "▁uzat": 7371,
      "▁gelir": 7372,
      "▁olurdu": 7373,
      "##int": 7374,
      "▁sis": 7375,
      "##ob": 7376,
      "▁hayalet": 7377,
      "▁dizi": 7378,
      "▁elektr": 7379,
      "##kel": 7380,
      "▁adamlar": 7381,
      "▁tazminat": 7382,
      "o": 7383,
      "##lerine": 7384,
      "▁yor": 7385,
      "▁kacır": 7386,
      "▁masa": 7387,
      "##attle": 7388,
      "▁arabayı": 7389,
      "##iyetini": 7390,
      "##elerde": 7391,
      "##lom": 7392,
      "▁kof": 7393,
      "##ahh": 7394,
      "▁bilmek": 7395,
      "▁imk": 7396,
      "▁mahalle": 7397,
      "▁kapandı": 7398,
      "▁zeytiny": 7399,
      "▁nakliye": 7400,
      "##ska": 7401,
      "▁yerleri": 7402,
      "▁pilot": 7403,
      "▁parlam": 7404,
      "▁eve": 7405,
      "▁attı": 7406,
      "##lilik": 7407,
      "▁gozleriyle": 7408,
      "▁olduguna": 7409,
      "▁tehdit": 7410,
      "▁sakal": 7411,
      "##arak": 7412,
      ">": 7413,
      "##ktur": 7414,
      "▁sorunun": 7415,
      "▁1980'": 7416,
      "##kin": 7417,
      "▁itiraz": 7418,
      "▁yapmaktan": 7419,
      "##dip": 7420,
      "▁..\"": 7421,
      "##eceklerini": 7422,
      "▁heyecan": 7423,
      "▁kampanya": 7424,
      "▁hisseleri": 7425,
      "##nci": 7426,
      "▁saye": 7427,
      "##lerinde": 7428,
      "▁rad": 7429,
      "▁payları": 7430,
      "##ılık": 7431,
      "▁zaten": 7432,
      "▁yerles": 7433,
      "▁yur": 7434,
      "▁onumuzdeki": 7435,
      "▁terz": 7436,
      "▁disiplin": 7437,
      "▁etraf": 7438,
      "##'y": 7439,
      "▁boyut": 7440,
      "▁bulus": 7441,
      "▁duzelt": 7442,
      "##lıkta": 7443,
      "▁salon": 7444,
      "▁felaket": 7445,
      "▁kesint": 7446,
      "▁pan": 7447,
      "▁der": 7448,
      "▁diz": 7449,
      "▁yeme": 7450,
      "▁cid": 7451,
      "▁yanımda": 7452,
      "▁nef": 7453,
      "##lamak": 7454,
      "▁kucuktu": 7455,
      "▁aleyhine": 7456,
      "▁uluslar": 7457,
      "##layıp": 7458,
      "##tıp": 7459,
      "▁engel": 7460,
      "▁bilgiye": 7461,
      "▁yiyecekleri": 7462,
      "▁paranin": 7463,
      "▁degilim": 7464,
      "▁fayda": 7465,
      "##etti": 7466,
      "▁gumruk": 7467,
      "##ıdır": 7468,
      "▁carsamba": 7469,
      "▁gitmeyi": 7470,
      "▁aktiv": 7471,
      "▁meger": 7472,
      "▁personelden": 7473,
      "▁super": 7474,
      "▁kıyafet": 7475,
      "▁bekliyor": 7476,
      "▁etmem": 7477,
      "▁sarsıntı": 7478,
      "▁esit": 7479,
      "▁gurur": 7480,
      "##ktan": 7481,
      "▁soh": 7482,
      "##ise": 7483,
      "▁ord": 7484,
      "##ken": 7485,
      "▁surdur": 7486,
      "▁sms": 7487,
      "▁dusunmuyor": 7488,
      "▁gerc": 7489,
      "▁ailelerin": 7490,
      "▁milleti": 7491,
      "▁duvarlar": 7492,
      "▁bet": 7493,
      "##tıs": 7494,
      "▁harik": 7495,
      "▁araba": 7496,
      "##mli": 7497,
      "▁fiyatlar": 7498,
      "##yet": 7499,
      "▁birbir": 7500,
      "▁kaymak": 7501,
      "▁kadının": 7502,
      "▁dol": 7503,
      "▁yerin": 7504,
      "▁cur": 7505,
      "▁kafasına": 7506,
      "##lara": 7507,
      "##larından": 7508,
      "##lıgına": 7509,
      "▁degerini": 7510,
      "▁olabilir": 7511,
      "▁tuttu": 7512,
      "▁mimar": 7513,
      "▁yara": 7514,
      "▁metr": 7515,
      "##uye": 7516,
      "▁odemeleri": 7517,
      "▁gonlum": 7518,
      "▁alanda": 7519,
      "▁servis": 7520,
      "▁aksamı": 7521,
      "▁terey": 7522,
      "▁oneri": 7523,
      "▁gozden": 7524,
      "▁bahseder": 7525,
      "▁imkanı": 7526,
      "##ebilmek": 7527,
      "▁stud": 7528,
      "▁..": 7529,
      "▁mevcut": 7530,
      "▁barda": 7531,
      "##denin": 7532,
      "##lup": 7533,
      "▁ortasına": 7534,
      "▁kasab": 7535,
      "▁%1": 7536,
      "▁6": 7537,
      "▁new": 7538,
      "▁zayifti": 7539,
      "▁karn": 7540,
      "##enlerin": 7541,
      "▁kurulusu": 7542,
      "▁okur": 7543,
      "▁korum": 7544,
      "##lardan": 7545,
      "▁islerin": 7546,
      "▁yazar": 7547,
      "▁anlasması": 7548,
      "▁yaklasimi": 7549,
      "▁durumda": 7550,
      "▁tepeden": 7551,
      "▁istiyor": 7552,
      "##tim": 7553,
      "##ill": 7554,
      "▁makineler": 7555,
      "▁kullanıyor": 7556,
      "▁cesi": 7557,
      "▁boy": 7558,
      "▁nine": 7559,
      "▁port": 7560,
      "▁nam": 7561,
      "##cileri": 7562,
      "▁elinin": 7563,
      "▁sirketi": 7564,
      "▁telef": 7565,
      "##luyor": 7566,
      "▁olmaz": 7567,
      "▁guler": 7568,
      "▁tarihine": 7569,
      "▁anlamıyla": 7570,
      "▁bolgesi": 7571,
      "▁tartıs": 7572,
      "▁opsiyon": 7573,
      "##emm": 7574,
      "##hangi": 7575,
      "▁man": 7576,
      "##erh": 7577,
      "▁dusur": 7578,
      "##ini": 7579,
      "▁sını": 7580,
      "▁miami": 7581,
      "▁...\"": 7582,
      "▁olmadı": 7583,
      "▁kimseye": 7584,
      "##ence": 7585,
      "▁denize": 7586,
      "▁kurtar": 7587,
      "▁m": 7588,
      "##lo": 7589,
      "▁st": 7590,
      "##leyi": 7591,
      "k": 7592,
      "▁ayr": 7593,
      "▁cekildi": 7594,
      "##ediye": 7595,
      "##gru": 7596,
      "▁pisti": 7597,
      "##uar": 7598,
      "▁yardımı": 7599,
      "##atif": 7600,
      "##oeni": 7601,
      "▁ayında": 7602,
      "##dıkları": 7603,
      "▁kendis": 7604,
      ".": 7605,
      "##lılıg": 7606,
      "▁renk": 7607,
      "▁tahvilleri": 7608,
      "▁sem": 7609,
      "▁ayından": 7610,
      "▁sponsor": 7611,
      "▁dalgalan": 7612,
      "▁oraya": 7613,
      "▁aktarmalı": 7614,
      "▁cuzdan": 7615,
      "▁kada": 7616,
      "▁duzey": 7617,
      "▁sorun": 7618,
      "▁coluk": 7619,
      "▁yıllarda": 7620,
      "##anından": 7621,
      "▁ceb": 7622,
      "▁cıkarma": 7623,
      "▁ablam": 7624,
      "▁oyuncu": 7625,
      "▁edeb": 7626,
      "▁asag": 7627,
      "▁zil": 7628,
      "▁yemekleri": 7629,
      "##ilmis": 7630,
      "▁kampan": 7631,
      "##lerimizin": 7632,
      "▁kizim": 7633,
      "▁mezar": 7634,
      "##lıklar": 7635,
      "##gen": 7636,
      "▁ulasılamadı": 7637,
      "##dam": 7638,
      "##it": 7639,
      "▁bardagı": 7640,
      "▁denge": 7641,
      "▁satısların": 7642,
      "▁phoenix": 7643,
      "▁muhalef": 7644,
      "▁konus": 7645,
      "▁stokları": 7646,
      "##ıgın": 7647,
      "▁cal": 7648,
      "▁mucevher": 7649,
      "▁fırtına": 7650,
      "##ank": 7651,
      "▁yuzde": 7652,
      "▁yabanc": 7653,
      "▁komisyonu": 7654,
      "▁zap": 7655,
      "▁falan": 7656,
      "▁kalmıs": 7657,
      "▁yılda": 7658,
      "▁enist": 7659,
      "▁tahsil": 7660,
      "▁calisanlari": 7661,
      "▁istik": 7662,
      "▁cumhuriyeti": 7663,
      "▁detayları": 7664,
      "##dılar": 7665,
      "##luk": 7666,
      "▁piyasaya": 7667,
      "▁nit": 7668,
      "▁aklıma": 7669,
      "##ator": 7670,
      "▁rica": 7671,
      "▁kalp": 7672,
      "▁ihtir": 7673,
      "##ılıgını": 7674,
      "▁siyah": 7675,
      "▁cap": 7676,
      "##og": 7677,
      "▁derec": 7678,
      "##asindan": 7679,
      "▁uygun": 7680,
      "##fı": 7681,
      "▁siz": 7682,
      "##anc": 7683,
      "▁des": 7684,
      "##to": 7685,
      "_": 7686,
      "▁juri": 7687,
      "▁toplumun": 7688,
      "##orlu": 7689,
      "▁chicag": 7690,
      "##form": 7691,
      "▁kasırg": 7692,
      "##yip": 7693,
      "##ırak": 7694,
      "##esi": 7695,
      "▁ilim": 7696,
      "▁adina": 7697,
      "▁part": 7698,
      "▁merk": 7699,
      "##lıkları": 7700,
      "▁haf": 7701,
      "▁hakkı": 7702,
      "##indeki": 7703,
      "▁ayn": 7704,
      "▁saatlerde": 7705,
      "▁oteller": 7706,
      "▁elinden": 7707,
      "▁bircok": 7708,
      "▁yet": 7709,
      "##tısı": 7710,
      "▁oldular": 7711,
      "##istler": 7712,
      "▁komitesi": 7713,
      "▁anneme": 7714,
      "▁sanayi": 7715,
      "▁konumunu": 7716,
      "##yanın": 7717,
      "##elerini": 7718,
      "▁dukk": 7719,
      "▁mar": 7720,
      "▁kosul": 7721,
      "##esiz": 7722,
      "▁iklim": 7723,
      "▁cent": 7724,
      "▁yig": 7725,
      "▁isver": 7726,
      "##ek": 7727,
      "▁yen": 7728,
      "##abil": 7729,
      "##larla": 7730,
      "##uru": 7731,
      "▁okuy": 7732,
      "▁pal": 7733,
      "▁saz": 7734,
      "▁por": 7735,
      "▁ucusun": 7736,
      "▁bez": 7737,
      "##ka": 7738,
      "▁vermeyi": 7739,
      "▁cocuk": 7740,
      "▁tasın": 7741,
      "##iyesi": 7742,
      "▁kendini": 7743,
      "▁yeri": 7744,
      "▁dugun": 7745,
      "##estr": 7746,
      "##yabilir": 7747,
      "▁lokanta": 7748,
      "▁sub": 7749,
      "##diginde": 7750,
      "▁belediye": 7751,
      "▁bask": 7752,
      "▁vad": 7753,
      "##olis": 7754,
      "▁artırmak": 7755,
      "▁artık": 7756,
      "##liligini": 7757,
      "▁dun": 7758,
      "▁satısı": 7759,
      "▁ruzgar": 7760,
      "▁dug": 7761,
      "##iyordu": 7762,
      "▁buk": 7763,
      "▁arama": 7764,
      "▁siy": 7765,
      "▁sehre": 7766,
      ")": 7767,
      "##undan": 7768,
      "▁prof": 7769,
      "▁duruyordu": 7770,
      "##iledi": 7771,
      "▁hanim": 7772,
      "▁endustr": 7773,
      "▁icim": 7774,
      "▁film": 7775,
      "▁ah": 7776,
      "▁ettig": 7777,
      "▁butun": 7778,
      "▁taksi": 7779,
      "▁lezzetli": 7780,
      "▁temizdi": 7781,
      "▁korkusu": 7782,
      "▁levh": 7783,
      "▁tok": 7784,
      "▁dekor": 7785,
      "##indeydi": 7786,
      "▁gogus": 7787,
      "▁muhaf": 7788,
      "##ota": 7789,
      "##edi": 7790,
      "##uh": 7791,
      "##ram": 7792,
      "##(": 7793,
      "▁din": 7794,
      "▁ihtiyacları": 7795,
      "##seniz": 7796,
      "▁macı": 7797,
      "##esine": 7798,
      "▁demir": 7799,
      "▁havası": 7800,
      "##tti": 7801,
      "▁ropor": 7802,
      "▁islerini": 7803,
      "▁menf": 7804,
      "##atı": 7805,
      "▁gorusme": 7806,
      "▁olacaktır": 7807,
      "▁disip": 7808,
      "▁mail": 7809,
      "▁nufus": 7810,
      "▁olmasi": 7811,
      "##andı": 7812,
      "▁muc": 7813,
      "▁gost": 7814,
      "▁milletvekili": 7815,
      "▁halb": 7816,
      "##iyeti": 7817,
      "▁miz": 7818,
      "▁pirinc": 7819,
      "▁halinde": 7820,
      "▁degi": 7821,
      "##yerek": 7822,
      "▁kutu": 7823,
      "▁ailenin": 7824,
      "▁hast": 7825,
      "▁kitabın": 7826,
      "▁acıl": 7827,
      "##bire": 7828,
      "##iye": 7829,
      "▁c": 7830,
      "▁elde": 7831,
      "▁gundeme": 7832,
      "▁g": 7833,
      "▁dal": 7834,
      "▁alman": 7835,
      "▁sorunlar": 7836,
      "▁tram": 7837,
      "▁cunku": 7838,
      "▁ogren": 7839,
      "▁tabiat": 7840,
      "▁yapısı": 7841,
      "▁tuk": 7842,
      "##uzu": 7843,
      "▁giris": 7844,
      "▁makal": 7845,
      "▁ailelere": 7846,
      "▁rek": 7847,
      "##erik": 7848,
      "▁lirayı": 7849,
      "▁sep": 7850,
      "▁yard": 7851,
      "▁miktarı": 7852,
      "▁yollarda": 7853,
      "▁ut": 7854,
      "##eni": 7855,
      "##obil": 7856,
      "▁baktı": 7857,
      "▁odamiz": 7858,
      "▁kavga": 7859,
      "▁buf": 7860,
      "##kil": 7861,
      "▁parayi": 7862,
      "▁sirketin": 7863,
      "▁oldu": 7864,
      "▁acıgı": 7865,
      "▁spekul": 7866,
      "##ersiz": 7867,
      "▁veriyor": 7868,
      "##ch": 7869,
      "##lin": 7870,
      "##allı": 7871,
      "▁kagıtları": 7872,
      "▁acı": 7873,
      "##lamaz": 7874,
      "▁carp": 7875,
      "▁animasyonlari": 7876,
      "##gi": 7877,
      "▁kade": 7878,
      "▁tarım": 7879,
      "▁buyume": 7880,
      "▁konuda": 7881,
      "▁mark": 7882,
      "▁faturam": 7883,
      "▁ayagına": 7884,
      "##ecegine": 7885,
      "▁gecirmek": 7886,
      "▁biraz": 7887,
      "▁milli": 7888,
      "▁duygular": 7889,
      "▁arasında": 7890,
      "▁karsıma": 7891,
      "▁dusunur": 7892,
      "##lu": 7893,
      "▁gosteri": 7894,
      "##uyorum": 7895,
      "▁asla": 7896,
      "##ef": 7897,
      "▁coz": 7898,
      "▁pitts": 7899,
      "▁got": 7900,
      "▁piyasası": 7901,
      "°": 7902,
      "▁delikan": 7903,
      "▁sahs": 7904,
      "▁seviyesine": 7905,
      "▁enerji": 7906,
      "▁anlasmanın": 7907,
      "▁subay": 7908,
      "▁ruh": 7909,
      "▁oran": 7910,
      "▁genclik": 7911,
      "▁fazla": 7912,
      "▁olmustur": 7913,
      "▁hızlı": 7914,
      "##eral": 7915,
      "▁cares": 7916,
      "▁uzaktan": 7917,
      "▁bildirdi": 7918,
      "▁arttı": 7919,
      "▁sınıfta": 7920,
      "▁sey": 7921,
      "▁usta": 7922,
      "##lıgın": 7923,
      "▁ilgilendi": 7924,
      "▁meh": 7925,
      "▁vadeli": 7926,
      "▁efend": 7927,
      "▁sin": 7928,
      "▁fis": 7929,
      "##lıyor": 7930,
      "▁ısık": 7931,
      "##ere": 7932,
      "▁houston": 7933,
      "▁dalga": 7934,
      "▁ekonom": 7935,
      "▁uzay": 7936,
      "▁r": 7937,
      "▁bilir": 7938,
      "▁tablo": 7939,
      "▁merkezinde": 7940,
      "##edigini": 7941,
      "▁of": 7942,
      "▁cop": 7943,
      "▁los": 7944,
      "▁motiv": 7945,
      "▁ucusunda": 7946,
      "##ga": 7947,
      "▁damla": 7948,
      "▁bir": 7949,
      "▁ra": 7950,
      "▁tırnak": 7951,
      "▁konumundan": 7952,
      "▁tuy": 7953,
      "##ettim": 7954,
      "##’": 7955,
      "▁verdigim": 7956,
      "▁yasam": 7957,
      "▁otom": 7958,
      "##enin": 7959,
      "▁onune": 7960,
      "##eyh": 7961,
      "##tigini": 7962,
      "##arlı": 7963,
      "##sizlik": 7964,
      "▁kalır": 7965,
      "▁basarısız": 7966,
      "##liginde": 7967,
      "▁cicekleri": 7968,
      "▁bazen": 7969,
      "▁fakat": 7970,
      "▁motor": 7971,
      "▁istanbul": 7972,
      "▁sogut": 7973,
      "▁bic": 7974,
      "▁ekmegi": 7975,
      "▁du": 7976,
      "##tıg": 7977,
      "▁zir": 7978,
      "▁beg": 7979,
      "##gar": 7980,
      "##ati": 7981,
      "▁sayesinde": 7982,
      "##ımla": 7983,
      "##siyon": 7984,
      "▁sofr": 7985,
      "▁jandar": 7986,
      "▁tesp": 7987,
      "▁cevap": 7988,
      "▁degerleri": 7989,
      "##ebilirim": 7990,
      "▁anahtar": 7991,
      "▁uyustur": 7992,
      "▁kurtul": 7993,
      "▁ref": 7994,
      "▁heykel": 7995,
      "##uy": 7996,
      "▁annemle": 7997,
      "▁analist": 7998,
      "▁hit": 7999,
      "##izlik": 8000,
      "##gu": 8001,
      "▁dortluk": 8002,
      "▁ederim": 8003,
      "▁degisim": 8004,
      "▁adayı": 8005,
      "##dir": 8006,
      "▁zamanlar": 8007,
      "▁osman": 8008,
      "▁degisik": 8009,
      "##etin": 8010,
      "▁tesv": 8011,
      "▁gorduk": 8012,
      "▁ıskarta": 8013,
      "▁soguk": 8014,
      "▁oldum": 8015,
      "▁kıvıl": 8016,
      "##ov": 8017,
      "▁yoktur": 8018,
      "▁gozu": 8019,
      "▁faaliyeti": 8020,
      "▁elbis": 8021,
      "▁carsaflar": 8022,
      "▁geriledi": 8023,
      "▁plan": 8024,
      "##ab": 8025,
      "▁yapıl": 8026,
      "▁an": 8027,
      "▁baslarına": 8028,
      "▁clev": 8029,
      "##adıgını": 8030,
      "▁donanma": 8031,
      "▁apart": 8032,
      "▁yetersiz": 8033,
      "▁halka": 8034,
      "▁kisinin": 8035,
      "▁getirir": 8036,
      "##ilmesi": 8037,
      "▁degeri": 8038,
      "▁teklifler": 8039,
      "##ege": 8040,
      "##day": 8041,
      "##amaları": 8042,
      "▁cikista": 8043,
      "▁agzında": 8044,
      "▁istir": 8045,
      "▁calı": 8046,
      "##leket": 8047,
      "▁baskısı": 8048,
      "▁cih": 8049,
      "▁civarında": 8050,
      "▁kullanı": 8051,
      "▁yıldan": 8052,
      "▁kanıt": 8053,
      "▁fotograf": 8054,
      "▁kası": 8055,
      "▁anlay": 8056,
      "▁pol": 8057,
      "▁pahaliydi": 8058,
      "▁girer": 8059,
      "▁garanti": 8060,
      "▁ihtim": 8061,
      "##das": 8062,
      "▁artarak": 8063,
      "▁bas": 8064,
      "▁isin": 8065,
      "##madik": 8066,
      "▁karayol": 8067,
      "▁fiyatları": 8068,
      "▁davul": 8069,
      "##ibaren": 8070,
      "▁nedenini": 8071,
      "▁bakanlıgı": 8072,
      "▁gen": 8073,
      "▁durumunda": 8074,
      "▁surucu": 8075,
      "▁cocuklar": 8076,
      "▁icat": 8077,
      "▁sinema": 8078,
      "▁viz": 8079,
      "▁gidiyor": 8080,
      "i": 8081,
      "▁payı": 8082,
      "▁paran": 8083,
      "▁duvara": 8084,
      "▁o": 8085,
      "##yla": 8086,
      "▁suyunu": 8087,
      "▁gozyas": 8088,
      "▁al": 8089,
      "##unden": 8090,
      "▁serg": 8091,
      "▁basla": 8092,
      "##ıza": 8093,
      "##adı": 8094,
      "▁karan": 8095,
      "▁japonlar": 8096,
      "▁ihtiyar": 8097,
      "▁ur": 8098,
      "▁yuzuk": 8099,
      "▁haberi": 8100,
      "▁satın": 8101,
      "##imize": 8102,
      "▁oranla": 8103,
      "▁nikah": 8104,
      "▁ayına": 8105,
      "▁gelecek": 8106,
      "▁ert": 8107,
      "▁simdi": 8108,
      "▁mecl": 8109,
      "▁sofor": 8110,
      "▁dir": 8111,
      "▁gol": 8112,
      "##onra": 8113,
      "▁ayının": 8114,
      "##gor": 8115,
      "▁kıvılc": 8116,
      "▁icinden": 8117,
      "##min": 8118,
      "▁pencer": 8119,
      "##aleti": 8120,
      "▁kalmaya": 8121,
      "##,": 8122,
      "##ustur": 8123,
      "▁kart": 8124,
      "▁suyu": 8125,
      "##arın": 8126,
      "▁hamur": 8127,
      "▁evlerine": 8128,
      "▁havalimanından": 8129,
      "▁atlan": 8130,
      "##acılık": 8131,
      "▁zahmet": 8132,
      "▁gecmis": 8133,
      "▁guvenlik": 8134,
      "▁piyasayı": 8135,
      "▁grup": 8136,
      "▁gi": 8137,
      "##ume": 8138,
      "▁sergi": 8139,
      "▁hul": 8140,
      "▁kep": 8141,
      "▁perform": 8142,
      "##medig": 8143,
      "▁calis": 8144,
      "##n": 8145,
      "##asi": 8146,
      "▁denver": 8147,
      "##irdi": 8148,
      "▁var": 8149,
      "##ivers": 8150,
      "▁hukumetin": 8151,
      "##elt": 8152,
      "##ort": 8153,
      "##ecekti": 8154,
      "##dil": 8155,
      "▁otesinde": 8156,
      "▁mektubu": 8157,
      "▁yazılım": 8158,
      "▁gelgelelim": 8159,
      "##0-": 8160,
      "▁kalıb": 8161,
      "▁bur": 8162,
      "▁iyil": 8163,
      "▁sansı": 8164,
      "##\\": 8165,
      "▁disinda": 8166,
      "##adel": 8167,
      "##malı": 8168,
      "▁seyin": 8169,
      "▁tes": 8170,
      "##deydi": 8171,
      "▁namaz": 8172,
      "▁issizlik": 8173,
      "▁masada": 8174,
      "▁ant": 8175,
      "▁iktid": 8176,
      "▁yol": 8177,
      "▁gazet": 8178,
      "▁golge": 8179,
      "▁toplamda": 8180,
      "##ceyr": 8181,
      "##iyeler": 8182,
      "▁sek": 8183,
      "▁yuklen": 8184,
      "▁plaj": 8185,
      "▁contin": 8186,
      "##lası": 8187,
      "##kal": 8188,
      "▁evden": 8189,
      "▁$'dan": 8190,
      "▁halkın": 8191
    }
  }
}