{
  "version": "1.0",
  "truncation": null,
  "padding": null,
  "added_tokens": [
    {
      "id": 1017,
      "content": "[UNK]",
      "single_word": false,
      "lstrip": false,
      "rstrip": false,
      "normalized": false,
      "special": true
    },
    {
      "id": 2497,
      "content": "[PAD]",
      "single_word": false,
      "lstrip": false,
      "rstrip": false,
      "normalized": false,
      "special": true
    },
    {
      "id": 2837,
      "content": "[CLS]",
      "single_word": false,
      "lstrip": false,
      "rstrip": false,
      "normalized": false,
      "special": true
    },
    {
      "id": 3363,
      "content": "[SEP]",
      "single_word": false,
      "lstrip": false,
      "rstrip": false,
      "normalized": false,
      "special": true
    },
    {
      "id": 3854,
      "content": "[MASK]",
      "single_word": false,
      "lstrip": false,
      "rstrip": false,
      "normalized": false,
      "special": true
    }
  ],
  "normalizer": {
    "type": "Sequence",
    "normalizers": [
      {
        "type": "NFD"
      },
      {
        "type": "Lowercase"
      },
      {
        "type": "StripAccents"
      }
    ]
  },
  "pre_tokenizer": {
    "type": "Sequence",
    "pretokenizers": [
      {
        "type": "Metaspace",
        "replacement": "▁",
        "prepend_scheme": "always",
        "split": true
      }
    ]
  },
  "post_processor": {
    "type": "TemplateProcessing",
    "single": [
      {
        "SpecialToken": {
          "id": "[CLS]",
          "type_id": 0
        }
      },
      {
        "Sequence": {
          "id": "A",
          "type_id": 0
        }
      },
      {
        "SpecialToken": {
          "id": "[SEP]",
          "type_id": 0
        }
      }
    ],
    "pair": [
      {
        "SpecialToken": {
          "id": "[CLS]",
          "type_id": 0
        }
      },
      {
        "Sequence": {
          "id": "A",
          "type_id": 0
        }
      },
      {
        "SpecialToken": {
          "id": "[SEP]",
          "type_id": 0
        }
      },
      {
        "Sequence": {
          "id": "B",
          "type_id": 1
        }
      },
      {
        "SpecialToken": {
          "id": "[SEP]",
          "type_id": 1
        }
      }
    ],
    "special_tokens": {
      "[CLS]": {
        "id": "[CLS]",
        "ids": [
          2837
        ],
        "tokens": [
          "[CLS]"
        ]
      },
      "[SEP]": {
        "id": "[SEP]",
        "ids": [
          3363
        ],
        "tokens": [
          "[SEP]"
        ]
      }
    }
  },
  "decoder": {
    "type": "Metaspace",
    "replacement": "▁",
    "prepend_scheme": "always",
    "split": true
  },
  "model": {
    "type": "Unigram",
    "unk_id": 1017,
    "vocab": [
      [
        "▁kuyu",
        -9.0883117169795
      ],
      [
        "▁hırsız",
        -9.18418650956751
      ],
      [
        "▁cozum",
        -8.749161141563677
      ],
      [
        "▁hissesi",
        -8.980195309066087
      ],
      [
        "▁yarısı",
        -9.084894061056279
      ],
      [
        "▁saat",
        -6.480816392806072
      ],
      [
        "▁k",
        -7.3828837187317715
      ],
      [
        "▁dır",
        -4.287573368195668
      ],
      [
        "▁zamanlarda",
        -8.832286087749498
      ],
      [
        "ki",
        -6.1632758550250095
      ],
      [
        "'ta",
        -6.857005206098159
      ],
      [
        "gu",
        -7.113623870682109
      ],
      [
        "'le",
        -7.292157769793574
      ],
      [
        "▁numara",
        -8.446855595452353
      ],
      [
        "elik",
        -7.316834905725905
      ],
      [
        "▁dedi",
        -5.147536252652197
      ],
      [
        "▁mudur",
        -8.618089403040612
      ],
      [
        "lanma",
        -7.827998949523363
      ],
      [
        "▁seyler",
        -7.658220877601867
      ],
      [
        "▁beni",
        -8.629850291371724
      ],
      [
        "▁ma",
        -7.477458687759427
      ],
      [
        "▁b",
        -7.700730180222658
      ],
      [
        "▁oku",
        -7.939666441270406
      ],
      [
        "▁alt",
        -8.86716720641108
      ],
      [
        "▁almak",
        -7.6951945616006805
      ],
      [
        "▁mi",
        -3.4668702953631687
      ],
      [
        "▁bu",
        -3.2396197333277525
      ],
      [
        "▁ustun",
        -7.801889603744687
      ],
      [
        "▁uc",
        -7.615544494796797
      ],
      [
        "▁son",
        -5.064742278123499
      ],
      [
        "▁ankara",
        -7.380548858337815
      ],
      [
        "▁aktarma",
        -8.91314112494869
      ],
      [
        "▁yok",
        -6.0614869854364954
      ],
      [
        "o",
        -6.336011923027603
      ],
      [
        "▁yakın",
        -6.51291594387881
      ],
      [
        "ların",
        -5.57554167277685
      ],
      [
        "ları",
        -4.844690583575208
      ],
      [
        "▁fayda",
        -8.89352324865228
      ],
      [
        "ten",
        -6.001337085484257
      ],
      [
        "ot",
        -8.550819344062994
      ],
      [
        "▁500",
        -6.435639842843321
      ],
      [
        "▁dukkan",
        -8.806607244915625
      ],
      [
        "▁bulundu",
        -7.433411646634533
      ],
      [
        "va",
        -7.352631288082245
      ],
      [
        "dar",
        -7.6194731209705875
      ],
      [
        "5",
        -12.802702672349787
      ],
      [
        "bil",
        -7.318263304722521
      ],
      [
        "yu",
        -7.242836502318115
      ],
      [
        "▁toren",
        -9.03980624377634
      ],
      [
        "▁konumu",
        -6.633105556090941
      ],
      [
        "▁secim",
        -7.883933559949147
      ],
      [
        "▁olan",
        -4.2921883242688
      ],
      [
        "▁belirtti",
        -7.656579501550219
      ],
      [
        "▁yukselis",
        -8.975559006702223
      ],
      [
        "▁sonrasın",
        -9.122403319718014
      ],
      [
        "▁kelime",
        -8.077225828714877
      ],
      [
        "▁karar",
        -7.329213357436966
      ],
      [
        "▁sarkı",
        -8.499825444145902
      ],
      [
        "▁mum",
        -7.055709991310947
      ],
      [
        "▁et",
        -7.999898564192765
      ],
      [
        "▁anayasa",
        -9.039623996894203
      ],
      [
        "m",
        -5.097901570734247
      ],
      [
        "▁gelisme",
        -9.21942400719835
      ],
      [
        "▁idare",
        -8.363493500731108
      ],
      [
        "tar",
        -8.63561850304078
      ],
      [
        "6'",
        -8.843249426150997
      ],
      [
        "p",
        -8.916280301211483
      ],
      [
        "nızı",
        -8.903756956363756
      ],
      [
        "▁kul",
        -7.982523881793636
      ],
      [
        "▁tesisi",
        -8.892809005174652
      ],
      [
        "▁f",
        -9.397581593746157
      ],
      [
        "l",
        -11.802702672349783
      ],
      [
        "▁beni",
        -4.178270586993837
      ],
      [
        "▁etmem",
        -7.137361802486287
      ],
      [
        "▁konusma",
        -8.069276125370173
      ],
      [
        "▁az",
        -8.315137765825954
      ],
      [
        "▁adım",
        -7.861245742399232
      ],
      [
        "ort",
        -8.967359289826806
      ],
      [
        "h",
        -6.286180941560249
      ],
      [
        "▁cıkar",
        -6.722952053682725
      ],
      [
        "▁topu",
        -8.939995510434105
      ],
      [
        "▁herkes",
        -4.990935261703556
      ],
      [
        "▁gid",
        -7.391979576078856
      ],
      [
        "▁bitki",
        -9.189945955655304
      ],
      [
        "▁sent",
        -8.411290079545218
      ],
      [
        "bi",
        -7.811665918709554
      ],
      [
        "▁misafirimiz",
        -8.43509539450272
      ],
      [
        "ce",
        -4.295820816962568
      ],
      [
        "ar",
        -7.1936499272491
      ],
      [
        "▁salon",
        -8.281101932906234
      ],
      [
        "▁sohbet",
        -9.062336192956653
      ],
      [
        "'",
        -5.92441716427085
      ],
      [
        "▁isi",
        -7.794899425141291
      ],
      [
        "5'te",
        -9.265749919853066
      ],
      [
        "▁otomobil",
        -8.077224789473089
      ],
      [
        "▁dusun",
        -7.850245095663756
      ],
      [
        "inin",
        -7.071514452756662
      ],
      [
        "▁degerlendirme",
        -9.062979052130705
      ],
      [
        "▁mu",
        -7.494459165304267
      ],
      [
        "sın",
        -6.317591010097858
      ],
      [
        "▁yer",
        -7.128962358310175
      ],
      [
        "▁hu",
        -8.545835297934383
      ],
      [
        "▁ma",
        -7.4685509881895
      ],
      [
        "▁mus",
        -8.582383172236966
      ],
      [
        "▁deniz",
        -6.797331955428738
      ],
      [
        "▁yolcu",
        -8.952845001367452
      ],
      [
        "▁dısında",
        -8.366528083720445
      ],
      [
        "t",
        -5.970918673445825
      ],
      [
        "g",
        -12.03594578210268
      ],
      [
        "▁!",
        -9.53960140659185
      ],
      [
        "dan",
        -5.2178061436840375
      ],
      [
        "a",
        -3.839483863804918
      ],
      [
        "▁san",
        -8.491653599456079
      ],
      [
        "▁bayram",
        -8.638452126817239
      ],
      [
        "n",
        -3.4238264918027923
      ],
      [
        "rak",
        -8.714039705000882
      ],
      [
        "▁dev",
        -8.794896336635407
      ],
      [
        "▁alamadi",
        -7.203692840512409
      ],
      [
        "▁um",
        -9.090623721839641
      ],
      [
        "▁efendi",
        -8.699941909725489
      ],
      [
        "▁temmuz",
        -7.413487010220329
      ],
      [
        "▁gercekte",
        -5.957249809190558
      ],
      [
        "▁tak",
        -8.343329718399595
      ],
      [
        "▁ucusu",
        -7.0541538316959
      ],
      [
        "▁sebep",
        -8.374972217946818
      ],
      [
        "▁meydan",
        -8.205266388962869
      ],
      [
        "▁depo",
        -9.210818372296329
      ],
      [
        "▁asagıda",
        -9.079936920397598
      ],
      [
        "ra",
        -4.169188514330976
      ],
      [
        "icin",
        -7.37606402349094
      ],
      [
        "▁da",
        -6.5733829391589484
      ],
      [
        "▁bal",
        -8.362644227774968
      ],
      [
        "lik",
        -4.866178197012406
      ],
      [
        "▁hukuk",
        -8.524318613305887
      ],
      [
        "▁sırada",
        -8.459219123407735
      ],
      [
        "se",
        -6.282812172293341
      ],
      [
        "▁dizi",
        -8.601982353946553
      ],
      [
        "▁3.",
        -5.926069570258965
      ],
      [
        "▁4",
        -8.582810380796616
      ],
      [
        "▁tahvil",
        -7.795623928567573
      ],
      [
        "lerdi",
        -7.43356269603673
      ],
      [
        "6",
        -4.861426244991477
      ],
      [
        "▁senedi",
        -7.709291922409263
      ],
      [
        "mis",
        -5.723620343942099
      ],
      [
        "▁musteri",
        -8.229587342747209
      ],
      [
        "▁petersburg'",
        -7.304040164310214
      ],
      [
        "i",
        -5.477913994704319
      ],
      [
        "▁he",
        -8.274399093095273
      ],
      [
        "▁durum",
        -7.742149563856661
      ],
      [
        "t",
        -5.827538301864367
      ],
      [
        "▁buldu",
        -6.981970595712374
      ],
      [
        "▁kasaba",
        -8.624268152781902
      ],
      [
        "▁boynun",
        -9.26971563553651
      ],
      [
        "▁oyle",
        -7.302740800488347
      ],
      [
        "▁simdi",
        -4.839658505846722
      ],
      [
        "ın",
        -6.7312853396327315
      ],
      [
        "n",
        -3.9923441943343114
      ],
      [
        "▁devletin",
        -9.082807184417193
      ],
      [
        "8'",
        -9.049746342672833
      ],
      [
        "▁gar",
        -7.642438974413053
      ],
      [
        "▁aradi",
        -7.001861803754912
      ],
      [
        "sı",
        -7.915339366721517
      ],
      [
        "▁6",
        -4.8583629380426645
      ],
      [
        "▁yıllar",
        -7.3342302490251665
      ],
      [
        ".",
        -11.199601737652316
      ],
      [
        "▁tur",
        -6.792881010240528
      ],
      [
        "▁masa",
        -7.397759907129086
      ],
      [
        "▁olmadıgı",
        -8.119363727323169
      ],
      [
        "▁pis",
        -7.760690282767634
      ],
      [
        "ip",
        -6.394888582471555
      ],
      [
        "▁seni",
        -5.079941773321164
      ],
      [
        "▁mes",
        -9.00696301625283
      ],
      [
        "▁sa",
        -4.233276091639059
      ],
      [
        "▁hastalık",
        -8.66015406303146
      ],
      [
        "▁co",
        -7.299272965955132
      ],
      [
        "▁ucuslarını",
        -7.160794388512329
      ],
      [
        "ral",
        -6.962479284958642
      ],
      [
        "o",
        -7.574551781463574
      ],
      [
        "▁bak",
        -6.543143194421092
      ],
      [
        "▁tadi",
        -8.860675835723349
      ],
      [
        "dik",
        -9.037590371616012
      ],
      [
        "▁sozleri",
        -9.166235292570601
      ],
      [
        "▁kaybı",
        -9.185593045591085
      ],
      [
        "▁yapmak",
        -7.782968235270767
      ],
      [
        "▁bay",
        -5.855742044162384
      ],
      [
        "▁ce",
        -7.99436355648325
      ],
      [
        "▁edildi",
        -7.138390582234377
      ],
      [
        "ım",
        -6.7642264988981315
      ],
      [
        "ka",
        -7.788155254108851
      ],
      [
        "▁fiyatlarını",
        -8.638058726049113
      ],
      [
        "▁kokusu",
        -8.999723836130443
      ],
      [
        "▁katı",
        -9.025078251646804
      ],
      [
        "r",
        -4.059466234863722
      ],
      [
        "▁iki",
        -8.372528240217115
      ],
      [
        "▁internet",
        -9.158791771365907
      ],
      [
        "▁",
        -5.678204919388431
      ],
      [
        "ması",
        -6.3668761661085815
      ],
      [
        "▁kara",
        -8.255001555595197
      ],
      [
        "▁odeme",
        -8.121320862103763
      ],
      [
        "umuz",
        -8.472502678846805
      ],
      [
        "di",
        -10.231009713513307
      ],
      [
        "▁ar",
        -7.45403532020468
      ],
      [
        "let",
        -8.504943740707766
      ],
      [
        "▁suphe",
        -9.210749878452324
      ],
      [
        "▁renk",
        -8.298197903871912
      ],
      [
        "▁tele",
        -7.467022141174876
      ],
      [
        "▁boz",
        -8.959434886543468
      ],
      [
        "▁sol",
        -8.333792728192737
      ],
      [
        "▁y",
        -5.777906907927925
      ],
      [
        "▁koydu",
        -7.618250198583973
      ],
      [
        "▁coban",
        -9.265715674233066
      ],
      [
        "▁her",
        -6.3741494462876895
      ],
      [
        "m",
        -4.809409968019235
      ],
      [
        "▁'",
        -10.790149558202552
      ],
      [
        "▁b",
        -7.750653512732932
      ],
      [
        "▁dort",
        -4.533641774591931
      ],
      [
        "▁ucretlerini",
        -9.124577973395168
      ],
      [
        "▁icra",
        -9.090053854868613
      ],
      [
        "▁gozleri",
        -7.673245106194443
      ],
      [
        "▁cizgi",
        -8.732465193732569
      ],
      [
        "nı",
        -6.710902618572602
      ],
      [
        "▁il",
        -3.41811777620672
      ],
      [
        "▁fotograf",
        -8.484834293608444
      ],
      [
        "▁bun",
        -4.95641735510991
      ],
      [
        "▁gece",
        -5.847174345415881
      ],
      [
        "▁felaket",
        -9.109402358759219
      ],
      [
        "▁bacak",
        -9.135354618318635
      ],
      [
        "▁gulu",
        -9.186880366489568
      ],
      [
        "▁pittsburgh'",
        -6.070359094696599
      ],
      [
        "▁kat",
        -8.046637744196342
      ],
      [
        "▁7",
        -4.986624988114711
      ],
      [
        "ır",
        -6.17815472815648
      ],
      [
        "ye",
        -4.130045537692629
      ],
      [
        "ir",
        -7.350414316749047
      ],
      [
        "▁oneri",
        -8.996393301276411
      ],
      [
        "ciler",
        -8.080741300946546
      ],
      [
        "▁ele",
        -8.096106548706768
      ],
      [
        "▁azın",
        -8.837291010667059
      ],
      [
        "▁ek",
        -8.142906777961526
      ],
      [
        "▁avukat",
        -8.539734276885845
      ],
      [
        "▁hamle",
        -8.754227629658033
      ],
      [
        "▁aklın",
        -9.106878299570855
      ],
      [
        "▁gibi",
        -2.7839934559607933
      ],
      [
        "sini",
        -6.422049472456263
      ],
      [
        "▁gozlem",
        -9.131333965518106
      ],
      [
        "▁basladı",
        -5.979293379661058
      ],
      [
        "▁oldugunu",
        -6.686900478286046
      ],
      [
        "son",
        -7.225840255471124
      ],
      [
        "▁ulas",
        -7.795040267685424
      ],
      [
        "▁araya",
        -9.230000712502807
      ],
      [
        "▁kup",
        -9.076191902652127
      ],
      [
        "▁ay",
        -7.579718843763761
      ],
      [
        "k",
        -4.834402831400872
      ],
      [
        "▁kon",
        -8.183048400573213
      ],
      [
        "ı",
        -6.495236803388376
      ],
      [
        "▁olabilir",
        -5.960379009982213
      ],
      [
        "suz",
        -5.895638958251375
      ],
      [
        "ce",
        -6.77264541615444
      ],
      [
        "e",
        -3.8696361751199877
      ],
      [
        "▁batı",
        -7.598971603535954
      ],
      [
        "arak",
        -6.338457073017426
      ],
      [
        "▁olanaklari",
        -8.34100200420973
      ],
      [
        "▁gecti",
        -6.806410008391679
      ],
      [
        "▁koruma",
        -8.988260463018294
      ],
      [
        "▁soyle",
        -7.525610483728362
      ],
      [
        "▁yap",
        -6.782553246846852
      ],
      [
        "dıgında",
        -9.063591437938921
      ],
      [
        "▁savunma",
        -8.732502421362335
      ],
      [
        "▁le",
        -7.315492742156232
      ],
      [
        "▁babası",
        -8.585737984083444
      ],
      [
        "▁cık",
        -7.898406573603983
      ],
      [
        "▁dur",
        -7.62289541290542
      ],
      [
        "▁gece",
        -6.863264170889395
      ],
      [
        "▁yaz",
        -7.906160392763469
      ],
      [
        "▁calıs",
        -7.654246976520353
      ],
      [
        "▁",
        -2.1816253217106656
      ],
      [
        "▁defa",
        -7.987098674025844
      ],
      [
        "▁millet",
        -8.563894768740518
      ],
      [
        "▁fort",
        -6.84110215969744
      ],
      [
        "niz",
        -7.145322203916743
      ],
      [
        "▁ed",
        -7.1708712442653155
      ],
      [
        "▁bekle",
        -8.096730535778454
      ],
      [
        "▁fiyat",
        -6.61070342285689
      ],
      [
        "▁arzu",
        -9.210440052559866
      ],
      [
        "sizdi",
        -7.374241481760511
      ],
      [
        "▁adını",
        -8.798439827280081
      ],
      [
        "▁dısarı",
        -9.060571773354443
      ],
      [
        "c",
        -7.2183141205423
      ],
      [
        "▁sayi",
        -9.228043084677
      ],
      [
        "▁ekonomi",
        -7.6392337002473765
      ],
      [
        "la",
        -6.800277714581961
      ],
      [
        "▁sefer",
        -8.186258640111436
      ],
      [
        "ya",
        -7.250905186197105
      ],
      [
        "▁yasında",
        -8.582914753879415
      ],
      [
        "ır",
        -7.484614449917035
      ],
      [
        "▁garanti",
        -8.89352218003202
      ],
      [
        "larındaki",
        -7.912385637745995
      ],
      [
        "ne",
        -8.86858130504411
      ],
      [
        "▁ip",
        -8.70663267543282
      ],
      [
        "▁corba",
        -8.699972484994362
      ],
      [
        "lemeye",
        -9.174259126096127
      ],
      [
        "▁icer",
        -7.4541149296175755
      ],
      [
        "▁bicimde",
        -9.09785315767755
      ],
      [
        "▁cesit",
        -6.548089751462578
      ],
      [
        "▁yok",
        -7.2599109513501
      ],
      [
        "▁odun",
        -9.134039528022974
      ],
      [
        "▁birini",
        -6.202515730872842
      ],
      [
        "ım",
        -7.449483007409628
      ],
      [
        "▁uretim",
        -8.468395923912354
      ],
      [
        "▁benzer",
        -7.000372126861872
      ],
      [
        "he",
        -9.640744780901306
      ],
      [
        "▁or",
        -8.061175959116673
      ],
      [
        "leme",
        -8.155318923096317
      ],
      [
        "▁o",
        -3.956108734297758
      ],
      [
        "▁inc",
        -6.89648595030143
      ],
      [
        "▁zar",
        -9.137433428574239
      ],
      [
        "▁genc",
        -6.307971916890872
      ],
      [
        "▁ab",
        -9.077533453578745
      ],
      [
        "▁gencler",
        -9.279488363856698
      ],
      [
        "▁f",
        -7.125022763756138
      ],
      [
        "▁hayvan",
        -8.524342310333296
      ],
      [
        "▁gunlerde",
        -8.831400986102873
      ],
      [
        "me",
        -6.392256311081204
      ],
      [
        ":",
        -5.1950716830752155
      ],
      [
        "gu",
        -7.100277774764232
      ],
      [
        "▁mesaj",
        -8.893718906242759
      ],
      [
        "▁gidis",
        -7.360809698899004
      ],
      [
        "▁fonlar",
        -9.137914237806251
      ],
      [
        "dizli",
        -7.581028338938804
      ],
      [
        "▁oteli",
        -8.47805518617881
      ],
      [
        "▁insanları",
        -8.810371316056898
      ],
      [
        "▁ser",
        -8.229373400952682
      ],
      [
        "▁nufus",
        -9.265553438012642
      ],
      [
        "gini",
        -7.763059360770714
      ],
      [
        "ma",
        -7.392277917431473
      ],
      [
        "▁neler",
        -6.766985399399278
      ],
      [
        "▁kal",
        -7.207473066616684
      ],
      [
        "▁goze",
        -9.0616499684741
      ],
      [
        "▁ilan",
        -8.54004269662548
      ],
      [
        "▁3\\/",
        -6.515098788460735
      ],
      [
        "▁yemek",
        -7.144561514732587
      ],
      [
        "▁hayatı",
        -8.850389889537873
      ],
      [
        "▁verme",
        -8.415059544382387
      ],
      [
        "▁asker",
        -7.437648623430061
      ],
      [
        "▁oturdu",
        -7.951363958361007
      ],
      [
        "▁vere",
        -7.681478507949161
      ],
      [
        "lugun",
        -8.573163166760395
      ],
      [
        "▁insanın",
        -8.188735052740972
      ],
      [
        "▁bi",
        -4.970497081628543
      ],
      [
        "▁uygun",
        -5.704720861469475
      ],
      [
        "▁tuttu",
        -7.772318232298746
      ],
      [
        "▁sise",
        -9.12958060839081
      ],
      [
        "sik",
        -7.354613352668875
      ],
      [
        "▁cıkarma",
        -8.813071291405155
      ],
      [
        "▁cocuklu",
        -6.314130727350257
      ],
      [
        "ar",
        -6.810744505096577
      ],
      [
        "▁acısın",
        -8.682677598869876
      ],
      [
        "▁kili",
        -9.187647031602262
      ],
      [
        "▁26",
        -6.241788422066687
      ],
      [
        "▁pazartesi",
        -8.97442453118505
      ],
      [
        "▁$'",
        -8.386597056400266
      ],
      [
        "▁hic",
        -4.7912109296688214
      ],
      [
        "lerimiz",
        -8.610530193671096
      ],
      [
        "▁dısı",
        -8.62111842629671
      ],
      [
        ".",
        -1.1587881497080552
      ],
      [
        "▁satır",
        -9.242066504802045
      ],
      [
        "▁nerede",
        -7.3722393738330165
      ],
      [
        "▁pazar",
        -7.520817779904148
      ],
      [
        "▁enflasyon",
        -8.74913106885425
      ],
      [
        "▁gu",
        -8.515050676381094
      ],
      [
        "nın",
        -5.461750361995479
      ],
      [
        "de",
        -5.846327743756247
      ],
      [
        "▁reklam",
        -7.889916414067815
      ],
      [
        "▁gorusme",
        -8.391619475805019
      ],
      [
        "▁meger",
        -8.017094335820264
      ],
      [
        "▁asıl",
        -7.27937555355245
      ],
      [
        "▁asırı",
        -7.302981888880951
      ],
      [
        "▁ihtiyar",
        -9.13380734588878
      ],
      [
        "g",
        -6.440338115441626
      ],
      [
        "▁etmisti",
        -7.888160327619882
      ],
      [
        "▁gidiyor",
        -6.9630755822586865
      ],
      [
        "▁v",
        -6.0393683046606
      ],
      [
        "▁anı",
        -9.2178353225197
      ],
      [
        "▁oranları",
        -8.746810424894324
      ],
      [
        "▁coktu",
        -8.086417080984273
      ],
      [
        "8",
        -4.0265055199764435
      ],
      [
        "iz",
        -6.512478652804723
      ],
      [
        "il",
        -5.634874555172873
      ],
      [
        "o",
        -6.6717490880592125
      ],
      [
        "▁icinde",
        -6.726608357952595
      ],
      [
        "nin",
        -6.246139660201711
      ],
      [
        "▁",
        -5.331463034427626
      ],
      [
        "▁sabahı",
        -7.624812523957997
      ],
      [
        "▁zayif",
        -7.882957216461865
      ],
      [
        "▁bunda",
        -7.388617737186985
      ],
      [
        "birli",
        -7.476480969195897
      ],
      [
        "▁olması",
        -8.526793766343044
      ],
      [
        "dı",
        -4.674981321250219
      ],
      [
        "en",
        -5.3052406247657595
      ],
      [
        "▁nokta",
        -8.08612300786979
      ],
      [
        "rken",
        -5.256495546297504
      ],
      [
        "nc",
        -7.837226348389215
      ],
      [
        "▁ediyorlar",
        -7.918052608152307
      ],
      [
        "▁hi",
        -4.718511553182138
      ],
      [
        "▁koy",
        -7.522363718466498
      ],
      [
        "▁yukse",
        -5.608932655277302
      ],
      [
        "▁teklifi",
        -8.566254542680781
      ],
      [
        "k",
        -3.485270042512048
      ],
      [
        "ken",
        -6.060788260110395
      ],
      [
        "▁10",
        -4.109372079715847
      ],
      [
        "indek",
        -7.355951998381377
      ],
      [
        "▁yagmur",
        -8.749169337884318
      ],
      [
        "▁eder",
        -6.751198219670858
      ],
      [
        "en",
        -5.647916873321357
      ],
      [
        "d",
        -6.042528314637639
      ],
      [
        "▁em",
        -8.859925087137402
      ],
      [
        "▁pencere",
        -8.05193571114983
      ],
      [
        "▁aktivite",
        -8.510979166396105
      ],
      [
        "sınız",
        -7.186867072256493
      ],
      [
        "▁neredey",
        -6.709668161950811
      ],
      [
        "▁ceyrekte",
        -8.824752563014453
      ],
      [
        "▁yok",
        -5.673449594892746
      ],
      [
        "▁ona",
        -4.235995178139032
      ],
      [
        "anlar",
        -8.33356514688371
      ],
      [
        "ine",
        -6.129515774840357
      ],
      [
        "▁aksam",
        -6.7858193303442835
      ],
      [
        "o",
        -4.578117168882934
      ],
      [
        "o",
        -5.5937071509101
      ],
      [
        "y",
        -6.016951674088136
      ],
      [
        "gi",
        -10.055124877575476
      ],
      [
        "▁dis",
        -8.141637654345313
      ],
      [
        "mek",
        -7.388166812058659
      ],
      [
        "▁ederi",
        -5.945113390437031
      ],
      [
        "▁il",
        -6.111403265351347
      ],
      [
        "▁once",
        -4.36331637109668
      ],
      [
        "▁vermek",
        -8.004792800352853
      ],
      [
        "▁once",
        -6.462100414457955
      ],
      [
        "iyet",
        -8.030409272904247
      ],
      [
        "hazır",
        -7.439275110079495
      ],
      [
        "▁3",
        -4.285712194127713
      ],
      [
        "▁goruyor",
        -7.664053340645318
      ],
      [
        "▁mekan",
        -9.160400396420668
      ],
      [
        "▁tane",
        -8.173864913498644
      ],
      [
        "▁detay",
        -9.237804491029998
      ],
      [
        "▁ayn",
        -7.3538778886871885
      ],
      [
        "▁olsa",
        -6.7505448835721005
      ],
      [
        "▁tutun",
        -8.956981770393622
      ],
      [
        "▁tuz",
        -8.459507100340915
      ],
      [
        "▁acık",
        -8.980336337872876
      ],
      [
        "▁kes",
        -8.444417085344742
      ],
      [
        "▁var",
        -7.1543955785312185
      ],
      [
        "▁gogsu",
        -9.1382836540469
      ],
      [
        "mus",
        -8.945075204409722
      ],
      [
        "k",
        -3.7536644229821867
      ],
      [
        "mu",
        -8.007723877257241
      ],
      [
        "25",
        -6.232172715619793
      ],
      [
        "▁daya",
        -7.891355334680133
      ],
      [
        "–",
        -12.802702672349787
      ],
      [
        "▁yemeklerinde",
        -9.146838272013724
      ],
      [
        "▁silah",
        -8.42233755282779
      ],
      [
        "▁dogum",
        -9.245881964703484
      ],
      [
        "av",
        -8.448107418211125
      ],
      [
        "▁kendimi",
        -5.7344618553965745
      ],
      [
        "▁sınıf",
        -7.86429784751094
      ],
      [
        "▁sınır",
        -8.3298947076584
      ],
      [
        "▁gorun",
        -7.339522011104732
      ],
      [
        "▁kart",
        -8.575384441187312
      ],
      [
        "▁laf",
        -8.570245014276505
      ],
      [
        "▁ekonomi",
        -6.928583034001799
      ],
      [
        "um",
        -5.290460103933893
      ],
      [
        "▁karsı",
        -4.835443352689402
      ],
      [
        "▁bilme",
        -8.629309475141248
      ],
      [
        "▁hizmeti",
        -7.680368071402715
      ],
      [
        "▁olan",
        -6.090718399667774
      ],
      [
        "▁din",
        -7.8470006875294285
      ],
      [
        "▁kasıgı",
        -8.800896539829171
      ],
      [
        "ı",
        -4.541321046145934
      ],
      [
        "▁",
        -3.1693413067501917
      ],
      [
        "dır",
        -5.60851668359774
      ],
      [
        "▁derin",
        -6.915514199379652
      ],
      [
        "siniz",
        -6.766674330877776
      ],
      [
        "iyle",
        -7.379445657613215
      ],
      [
        "yan",
        -7.593532470531715
      ],
      [
        "lastı",
        -7.701908133047341
      ],
      [
        "▁he",
        -6.338240779722565
      ],
      [
        "▁arkadas",
        -8.155976271253493
      ],
      [
        "▁sarı",
        -7.01661507676498
      ],
      [
        "ak",
        -3.6704506036336477
      ],
      [
        "z",
        -4.5682277971428595
      ],
      [
        "▁merdiven",
        -8.818722663057233
      ],
      [
        "▁onun",
        -8.154551951874273
      ],
      [
        "▁edip",
        -7.343455231838878
      ],
      [
        "▁elektr",
        -7.754751256092048
      ],
      [
        "uk",
        -7.897456278568062
      ],
      [
        "▁yarın",
        -7.948401929099036
      ],
      [
        "▁yanı",
        -8.188237653188077
      ],
      [
        "ce",
        -6.800953309987891
      ],
      [
        "▁oldugunu",
        -6.704109688205046
      ],
      [
        "▁duy",
        -7.947449747263441
      ],
      [
        "▁agrı",
        -9.133908953145543
      ],
      [
        "▁etmek",
        -7.645963501459748
      ],
      [
        "▁gerek",
        -8.390566962961787
      ],
      [
        "tik",
        -7.299517765000672
      ],
      [
        "fi",
        -11.266950760798968
      ],
      [
        "▁guzelligi",
        -9.289974550853318
      ],
      [
        "▁karayolu",
        -7.854941079164662
      ],
      [
        "▁ak",
        -7.629095523578279
      ],
      [
        "▁bardak",
        -8.95391112203233
      ],
      [
        "▁kalkı",
        -7.267763976070212
      ],
      [
        "▁yan",
        -8.025256445727319
      ],
      [
        "▁atlanta'",
        -5.708273604410998
      ],
      [
        "▁biri",
        -8.023017065902973
      ],
      [
        "▁vade",
        -6.44966854364282
      ],
      [
        "▁ates",
        -8.066229052883777
      ],
      [
        "embe",
        -7.02583815393338
      ],
      [
        "▁bizim",
        -4.375437664788901
      ],
      [
        "▁d",
        -7.0730603790691
      ],
      [
        "▁cesaret",
        -9.210748642555433
      ],
      [
        "mıyor",
        -7.710485636665227
      ],
      [
        "▁yuzde",
        -8.576988223510455
      ],
      [
        "▁diyor",
        -6.068776859287384
      ],
      [
        "▁la",
        -7.875123900253623
      ],
      [
        "▁in",
        -8.066435493824777
      ],
      [
        "▁ici",
        -7.0951664394874765
      ],
      [
        "▁cal",
        -8.070071060742738
      ],
      [
        "▁belli",
        -6.726103501182789
      ],
      [
        "▁nasıl",
        -5.461418423501822
      ],
      [
        "▁delta",
        -6.501953201151294
      ],
      [
        "▁kulak",
        -8.580754324052668
      ],
      [
        "▁takip",
        -8.511018959224621
      ],
      [
        "e",
        -5.432312471123907
      ],
      [
        "ana",
        -3.4668823189684232
      ],
      [
        "▁bir",
        -8.54817813440691
      ],
      [
        "tır",
        -6.376500413518691
      ],
      [
        "acagını",
        -8.176889607571834
      ],
      [
        "sam",
        -8.055073151972252
      ],
      [
        "▁ekledi",
        -7.509081774730556
      ],
      [
        "▁ihrac",
        -8.778295245671867
      ],
      [
        "▁gene",
        -6.8420526161527
      ],
      [
        "oz",
        -8.361401755385337
      ],
      [
        "cu",
        -5.839092742759512
      ],
      [
        "ce",
        -7.135173186590574
      ],
      [
        "▁otelde",
        -8.478378086365314
      ],
      [
        "▁satıslar",
        -7.933660028012585
      ],
      [
        "▁ak",
        -6.821741344153913
      ],
      [
        "s",
        -4.747466569578413
      ],
      [
        "turlu",
        -6.717949319626796
      ],
      [
        "▁agustos",
        -8.472013747169907
      ],
      [
        "▁ruzgar",
        -8.484834268536066
      ],
      [
        "▁spor",
        -8.71630399978753
      ],
      [
        "▁calısan",
        -9.251257787614463
      ],
      [
        "▁oyuncu",
        -8.54778988902503
      ],
      [
        "▁girisim",
        -8.38944478979354
      ],
      [
        "da",
        -6.702665342960288
      ],
      [
        "▁milyar",
        -8.422338155477378
      ],
      [
        "han",
        -7.122411458933094
      ],
      [
        "▁yen'",
        -7.446286463261055
      ],
      [
        "ir",
        -6.550091369772204
      ],
      [
        "tor",
        -8.386399699785887
      ],
      [
        "▁cins",
        -9.003321145262774
      ],
      [
        "▁calisanlari",
        -9.016020169656265
      ],
      [
        "ustu",
        -9.19108277506911
      ],
      [
        "lerden",
        -6.965940865704701
      ],
      [
        "▁cagrı",
        -9.21081780500289
      ],
      [
        "▁dile",
        -7.99315833251033
      ],
      [
        "▁co.",
        -6.722681917663853
      ],
      [
        "▁bel",
        -5.7176907548495475
      ],
      [
        "▁us",
        -7.919635127858362
      ],
      [
        "▁asagı",
        -9.025879879562671
      ],
      [
        "un",
        -7.422220092128157
      ],
      [
        "z",
        -6.411032951003659
      ],
      [
        "▁gide",
        -5.832467812925174
      ],
      [
        "▁biraz",
        -4.687763168436832
      ],
      [
        "▁ev",
        -6.741694517750826
      ],
      [
        "▁cuma",
        -7.987160711225793
      ],
      [
        "▁ag",
        -8.75704493193146
      ],
      [
        "yabilir",
        -8.098256529717412
      ],
      [
        "▁yılda",
        -8.427258153785317
      ],
      [
        "olası",
        -7.700383934840717
      ],
      [
        "▁mehmet",
        -6.732835907661538
      ],
      [
        "▁hakkında",
        -8.527259240576434
      ],
      [
        "ecek",
        -6.5325837334617605
      ],
      [
        "de",
        -6.49762006697207
      ],
      [
        "inda",
        -7.030220148536347
      ],
      [
        "dur",
        -8.423067458290767
      ],
      [
        "▁te",
        -7.803869360887147
      ],
      [
        "evi",
        -8.729177513745036
      ],
      [
        "yon",
        -8.749466343637714
      ],
      [
        "▁pantolon",
        -9.184432783644159
      ],
      [
        "▁mo",
        -8.552495794731469
      ],
      [
        "ince",
        -6.116245953076076
      ],
      [
        "▁yıllarda",
        -8.77114918050395
      ],
      [
        "digi",
        -7.079380178567159
      ],
      [
        "▁yapti",
        -7.3849477894389155
      ],
      [
        "75",
        -6.51104329968174
      ],
      [
        "luydu",
        -8.114134763824067
      ],
      [
        "▁oturma",
        -9.14919728906775
      ],
      [
        "▁strateji",
        -8.7324643839157
      ],
      [
        "▁islemler",
        -8.770383183358028
      ],
      [
        "▁bag",
        -7.999964485174748
      ],
      [
        "▁adin",
        -8.96553972969533
      ],
      [
        "▁yemekleri",
        -7.096723136266368
      ],
      [
        "▁omuz",
        -9.06590787112773
      ],
      [
        "▁sahipleri",
        -9.058236797704081
      ],
      [
        "▁temiz",
        -9.159794662936283
      ],
      [
        "▁fiyati",
        -8.410242649700916
      ],
      [
        "dir",
        -7.546151632261554
      ],
      [
        "▁gorev",
        -7.534980193836744
      ],
      [
        "tir",
        -7.154660881162574
      ],
      [
        "▁dolar",
        -6.143829847917047
      ],
      [
        "▁olun",
        -8.104581203632797
      ],
      [
        "▁olaylar",
        -9.075747575081042
      ],
      [
        "▁fiyatı",
        -8.239115862109752
      ],
      [
        "▁isti",
        -8.27823488638959
      ],
      [
        "▁cumartesi",
        -7.848091800957634
      ],
      [
        "▁sans",
        -9.059369745767246
      ],
      [
        "▁vergi",
        -7.634025617637705
      ],
      [
        "▁uzun",
        -5.543953467048654
      ],
      [
        "▁sınav",
        -9.21095386715158
      ],
      [
        "▁yuksel",
        -6.724838392089302
      ],
      [
        "▁haziran'da",
        -7.464973295232909
      ],
      [
        "mıslar",
        -7.930022845837249
      ],
      [
        "caba",
        -7.273779888668228
      ],
      [
        "na",
        -7.216566140508447
      ],
      [
        "▁satım",
        -8.208283820323699
      ],
      [
        "ko",
        -8.463319096629075
      ],
      [
        "▁dilim",
        -9.159717604418727
      ],
      [
        "k",
        -11.802702672349778
      ],
      [
        "▁ogretmen",
        -8.747973056040387
      ],
      [
        "▁ber",
        -5.3562904798937145
      ],
      [
        "▁ham",
        -8.594745056678725
      ],
      [
        "▁arka",
        -8.66727881524363
      ],
      [
        "▁mukemmeldi",
        -7.583878826501949
      ],
      [
        "▁bayan",
        -8.120614801603455
      ],
      [
        "us",
        -7.950444729201696
      ],
      [
        "b",
        -6.477120954085561
      ],
      [
        "▁sana",
        -5.075330108084433
      ],
      [
        "▁dusundu",
        -7.637187744243473
      ],
      [
        "▁bil",
        -7.473804743863046
      ],
      [
        "▁sart",
        -8.918153384795348
      ],
      [
        "▁fe",
        -8.085017590892972
      ],
      [
        "yen",
        -7.694928855735127
      ],
      [
        "▁j",
        -8.547251105878008
      ],
      [
        "▁sanatcı",
        -9.099549655406939
      ],
      [
        "▁yumusa",
        -7.933969756894953
      ],
      [
        "▁iyi",
        -4.120328284265581
      ],
      [
        "▁huzur",
        -9.062360409340307
      ],
      [
        "▁kadar",
        -8.75002736138481
      ],
      [
        "'y",
        -6.385410508951507
      ],
      [
        "▁ucus",
        -6.149947001144268
      ],
      [
        "▁yapıl",
        -8.025125184558425
      ],
      [
        "w",
        -9.085591990217665
      ],
      [
        "▁urunleri",
        -8.422207921197213
      ],
      [
        "i",
        -4.497627220629797
      ],
      [
        "enler",
        -8.3800947992044
      ],
      [
        "▁kısa",
        -6.218398683040187
      ],
      [
        "▁kucuk",
        -5.342268000351475
      ],
      [
        "ınca",
        -6.707064326619587
      ],
      [
        "▁servisi",
        -8.27805000675811
      ],
      [
        "▁karar",
        -8.043105829239138
      ],
      [
        "▁s",
        -6.730562792173902
      ],
      [
        "her",
        -6.241321517692774
      ],
      [
        "▁olmadı",
        -7.96913798943342
      ],
      [
        "▁bahseder",
        -7.864863832614267
      ],
      [
        "uru",
        -8.076158537643845
      ],
      [
        "▁yapı",
        -7.73280662891459
      ],
      [
        "▁sikinti",
        -8.472014094604882
      ],
      [
        "'n",
        -8.269611997524315
      ],
      [
        "▁sa",
        -7.007816283062303
      ],
      [
        "lardı",
        -6.075158577085655
      ],
      [
        "landı",
        -7.888311092890624
      ],
      [
        "▁sinir",
        -8.855946013306786
      ],
      [
        "▁merak",
        -8.364172958438992
      ],
      [
        "ur",
        -7.187211276608802
      ],
      [
        "▁tahmin",
        -7.58694290602434
      ],
      [
        "▁sonra",
        -9.079282947960454
      ],
      [
        "▁japonya",
        -7.214234858415907
      ],
      [
        "x",
        -6.823697608475182
      ],
      [
        "▁gerektigin",
        -8.812341622485341
      ],
      [
        "▁analist",
        -9.27747561469777
      ],
      [
        "w",
        -7.108910088912168
      ],
      [
        "▁v",
        -7.559194923527462
      ],
      [
        "▁yabancı",
        -6.768015599588232
      ],
      [
        "▁sirketler",
        -8.507983034193309
      ],
      [
        "▁dol",
        -8.84690985508967
      ],
      [
        "a",
        -3.7940049793668447
      ],
      [
        "▁zor",
        -8.996519068708063
      ],
      [
        "▁onunde",
        -7.8837479742194985
      ],
      [
        "m",
        -3.7415001008522433
      ],
      [
        "cu",
        -6.278882516343646
      ],
      [
        "▁san",
        -6.097867166250172
      ],
      [
        "er",
        -11.017488162037896
      ],
      [
        "ı",
        -5.3769233769043625
      ],
      [
        "▁daire",
        -8.593814207237493
      ],
      [
        "▁yaz",
        -7.5325869044958385
      ],
      [
        "▁sokak",
        -8.408729054455513
      ],
      [
        "▁senin",
        -5.127217236835529
      ],
      [
        "▁yatak",
        -8.78523764552094
      ],
      [
        "▁arasında",
        -5.810899486861808
      ],
      [
        "alım",
        -6.795090965916827
      ],
      [
        "▁yara",
        -8.341875383679113
      ],
      [
        "▁ser",
        -8.02993368817483
      ],
      [
        "▁uzerin",
        -6.161937060409342
      ],
      [
        "▁co",
        -6.63193344196444
      ],
      [
        "▁hat",
        -8.687669841003489
      ],
      [
        "▁islemi",
        -9.247603682069592
      ],
      [
        "az",
        -8.127170169749071
      ],
      [
        "▁21",
        -6.150409216274106
      ],
      [
        "▁edecek",
        -7.381241055847779
      ],
      [
        "at",
        -7.17949638795853
      ],
      [
        "▁adı",
        -8.046364198007078
      ],
      [
        "il",
        -7.745721552968387
      ],
      [
        "▁tarihi",
        -8.61883344061435
      ],
      [
        "▁allah",
        -7.02139811351398
      ],
      [
        "▁sagla",
        -7.979843521615655
      ],
      [
        "▁ada",
        -9.099864902384759
      ],
      [
        "▁turkiye",
        -6.205906336432703
      ],
      [
        "▁potansiyel",
        -9.210748574717956
      ],
      [
        "d",
        -10.41573712684167
      ],
      [
        "tu",
        -7.344764118056694
      ],
      [
        "▁yat",
        -8.87419503609017
      ],
      [
        "▁united",
        -6.306874200536926
      ],
      [
        "▁ajans",
        -9.133793207194465
      ],
      [
        "▁atı",
        -8.872659317806308
      ],
      [
        "▁calisanlar",
        -8.542772132300328
      ],
      [
        "▁bira",
        -9.157952877464899
      ],
      [
        "▁bana",
        -9.271128453504495
      ],
      [
        "▁beri",
        -7.337470521257895
      ],
      [
        "▁saatler",
        -7.57708540844906
      ],
      [
        "▁park",
        -8.220388583604716
      ],
      [
        "%",
        -4.15274950330704
      ],
      [
        "▁halde",
        -7.9212780825107245
      ],
      [
        "gi",
        -8.001043011311552
      ],
      [
        "▁hangi",
        -5.347616636025412
      ],
      [
        "▁fırsat",
        -8.579507048277346
      ],
      [
        "3",
        -8.232643069481727
      ],
      [
        "▁yiyecek",
        -8.021940945521333
      ],
      [
        "▁birinci",
        -6.187553792563393
      ],
      [
        "gun",
        -8.239400959295148
      ],
      [
        "ki",
        -7.752685619992764
      ],
      [
        "ksiyon",
        -9.088675854786501
      ],
      [
        "▁doviz",
        -9.210751911163774
      ],
      [
        "▁iceriyor",
        -7.979253797285124
      ],
      [
        "▁taraf",
        -5.733464205858842
      ],
      [
        "▁al",
        -6.55541507051747
      ],
      [
        "▁c",
        -7.032797226781592
      ],
      [
        "▁degis",
        -9.157009511689571
      ],
      [
        "▁yorum",
        -7.490398971489916
      ],
      [
        "k",
        -4.527687995047776
      ],
      [
        "st",
        -7.170536047209314
      ],
      [
        "▁sonrası",
        -9.154638352462396
      ],
      [
        "▁ticareti",
        -9.212177775265829
      ],
      [
        "▁guven",
        -7.71859590223306
      ],
      [
        "▁gunde",
        -8.585567963527751
      ],
      [
        "▁gozlerini",
        -8.289770890806162
      ],
      [
        "▁dusuk",
        -6.218404771614379
      ],
      [
        "▁koca",
        -6.796188033102825
      ],
      [
        "▁yapılan",
        -6.930759230668282
      ],
      [
        "l",
        -5.464349539545049
      ],
      [
        "den",
        -4.636461324944689
      ],
      [
        "li",
        -7.25093721435945
      ],
      [
        "▁ticar",
        -7.098188015801196
      ],
      [
        "▁kaya",
        -8.662980651186254
      ],
      [
        "▁mustafa",
        -6.791076982860259
      ],
      [
        "▁kumas",
        -8.540755874889005
      ],
      [
        "▁kesin",
        -6.101322210378779
      ],
      [
        "v",
        -6.891160599133084
      ],
      [
        "acagı",
        -7.579074694701324
      ],
      [
        "lıklar",
        -8.714344771031648
      ],
      [
        "▁etkile",
        -7.939068860976237
      ],
      [
        "▁kriz",
        -9.075898134331435
      ],
      [
        "▁okul",
        -7.906019096850927
      ],
      [
        "▁giy",
        -8.669004449972784
      ],
      [
        "ti",
        -6.150825801268467
      ],
      [
        "9'",
        -8.869565420437969
      ],
      [
        "▁a",
        -7.785834184111778
      ],
      [
        "cek",
        -7.480578017205566
      ],
      [
        "za",
        -7.74459105300923
      ],
      [
        "e",
        -5.748811615267702
      ],
      [
        "▁sure",
        -7.720068407476733
      ],
      [
        "▁verin",
        -7.900957508189855
      ],
      [
        "▁bankası",
        -8.963209145391541
      ],
      [
        "miz",
        -7.917580133211495
      ],
      [
        "▁kotuy",
        -6.60561887171558
      ],
      [
        "▁dısarıda",
        -9.25568136066655
      ],
      [
        "▁onu",
        -3.8180555155698697
      ],
      [
        "▁rezerv",
        -9.158727890611482
      ],
      [
        "▁nakit",
        -8.749154776807558
      ],
      [
        "▁beyle",
        -8.421985248177215
      ],
      [
        "▁olmadıgını",
        -8.513050283750847
      ],
      [
        "igi",
        -8.645844184935672
      ],
      [
        "▁kur",
        -7.840729160485338
      ],
      [
        "▁eli",
        -8.440624593069597
      ],
      [
        "▁3/",
        -6.233627537946334
      ],
      [
        "▁vucudu",
        -8.943730504657225
      ],
      [
        "▁yabancı",
        -9.276438495875407
      ],
      [
        "u",
        -4.295690201514403
      ],
      [
        "▁boyle",
        -5.086562249009878
      ],
      [
        "▁defter",
        -8.766081686830475
      ],
      [
        "'un",
        -5.583121518991313
      ],
      [
        "ur",
        -7.281490566527601
      ],
      [
        "▁mana",
        -9.025032638438368
      ],
      [
        "▁12",
        -5.275039660619872
      ],
      [
        "▁dunya",
        -6.915861153977579
      ],
      [
        "cılar",
        -7.815495264906796
      ],
      [
        "▁lezzet",
        -7.069936590301006
      ],
      [
        "los",
        -6.9714308666271485
      ],
      [
        "yla",
        -6.345405882191227
      ],
      [
        "▁seviye",
        -8.73932064363613
      ],
      [
        "l",
        -6.098948794144246
      ],
      [
        "▁takımı",
        -8.882447346923122
      ],
      [
        "sinin",
        -7.2549414503846075
      ],
      [
        "▁verdigi",
        -7.9448733685188415
      ],
      [
        "▁tartısma",
        -8.637907839573327
      ],
      [
        "▁olurdu",
        -7.933540436429121
      ],
      [
        "▁tarafta",
        -9.249338606428145
      ],
      [
        "▁yardımcı",
        -8.54570144388573
      ],
      [
        "▁elini",
        -8.516581796678722
      ],
      [
        "▁14",
        -6.171359778606929
      ],
      [
        "▁oluyordu",
        -8.038549691026162
      ],
      [
        "▁asl",
        -6.096723680153653
      ],
      [
        "▁cıkar",
        -8.738216480568562
      ],
      [
        "▁kodu",
        -8.804257076415656
      ],
      [
        "▁olustur",
        -8.078966757348109
      ],
      [
        "suzluk",
        -8.913311963267702
      ],
      [
        "▁etmis",
        -7.520405121739282
      ],
      [
        "▁yatırımcıların",
        -9.28646667217327
      ],
      [
        "if",
        -7.625474469729989
      ],
      [
        "▁olacak",
        -6.500200449761459
      ],
      [
        "▁halin",
        -8.154148747865134
      ],
      [
        "▁dunyada",
        -8.803791541985877
      ],
      [
        "▁gazete",
        -7.7155077417781435
      ],
      [
        "▁ellerinde",
        -8.939095309159832
      ],
      [
        "▁petrol",
        -8.275989561185678
      ],
      [
        "y",
        -6.026507368091297
      ],
      [
        "▁turkiye'de",
        -7.062093433298694
      ],
      [
        "▁oyun",
        -7.9433345735129866
      ],
      [
        "▁boyle",
        -6.396415066709907
      ],
      [
        "▁icim",
        -9.222414434589481
      ],
      [
        "de",
        -7.316563460623829
      ],
      [
        "ydi",
        -6.387179693571637
      ],
      [
        "▁ki",
        -4.876365201347605
      ],
      [
        "v",
        -6.827833565912286
      ],
      [
        "▁oranında",
        -9.195739326276371
      ],
      [
        "▁elde",
        -7.701076702273232
      ],
      [
        "dan",
        -5.8968430030390895
      ],
      [
        "▁ta",
        -7.1726494071156495
      ],
      [
        "▁ilgisi",
        -8.57262154260231
      ],
      [
        "ti",
        -6.971017253499957
      ],
      [
        "li",
        -3.8975063851607272
      ],
      [
        "ah",
        -10.102976726532598
      ],
      [
        "▁haber",
        -7.612481008595935
      ],
      [
        "ir",
        -6.8087927854478645
      ],
      [
        "▁kadınlar",
        -8.271179134368275
      ],
      [
        "▁kendisin",
        -5.410287165828488
      ],
      [
        "▁car",
        -8.178771182452952
      ],
      [
        "gı",
        -6.782836205683128
      ],
      [
        "b",
        -6.913023110279971
      ],
      [
        "▁haberi",
        -8.99398259228536
      ],
      [
        "▁attı",
        -7.323690295219331
      ],
      [
        "▁arada",
        -7.993075594990381
      ],
      [
        "den",
        -6.734655379813287
      ],
      [
        "le",
        -5.4601027747989495
      ],
      [
        "▁alan",
        -8.11311449286366
      ],
      [
        "m",
        -3.07230917458263
      ],
      [
        "▁de",
        -7.4014055902578075
      ],
      [
        "▁bıraktı",
        -7.373737174799423
      ],
      [
        "▁oglu",
        -9.133824800015722
      ],
      [
        "▁s",
        -6.137580433212939
      ],
      [
        "▁cekme",
        -9.171977629966499
      ],
      [
        "▁en",
        -3.960848580067063
      ],
      [
        "▁birini",
        -9.248142955627236
      ],
      [
        "rak",
        -3.383613678221411
      ],
      [
        "▁cin",
        -7.228850387160252
      ],
      [
        "▁daha",
        -3.284001868858846
      ],
      [
        "i",
        -4.732976630052781
      ],
      [
        "▁dede",
        -8.8310201015706
      ],
      [
        "▁maliyet",
        -8.977127322943844
      ],
      [
        "▁soyledi",
        -5.125086709333979
      ],
      [
        "▁memphis'",
        -6.943093293916076
      ],
      [
        "▁iyi",
        -6.2541029760791815
      ],
      [
        "sında",
        -6.670458369798462
      ],
      [
        "▁5",
        -4.229060776087968
      ],
      [
        "▁sayfa",
        -8.933172457500547
      ],
      [
        "▁ozel",
        -6.385303417155286
      ],
      [
        "▁tehlike",
        -8.74913123487551
      ],
      [
        "ımız",
        -8.153705349671718
      ],
      [
        "dugunu",
        -8.493669056327576
      ],
      [
        "▁ayrı",
        -6.956422087289286
      ],
      [
        "▁b",
        -3.7367717215100518
      ],
      [
        "▁kesinti",
        -8.953543902099575
      ],
      [
        "▁yolu",
        -8.170510039055223
      ],
      [
        "d",
        -6.8006287795999025
      ],
      [
        "▁yontem",
        -9.085879745698636
      ],
      [
        "er",
        -5.655137482651881
      ],
      [
        "▁limon",
        -9.294130344662912
      ],
      [
        "▁do",
        -7.848733775767458
      ],
      [
        "▁plaj",
        -8.800878258970215
      ],
      [
        "▁diego'",
        -7.16339760840913
      ],
      [
        "baz",
        -7.624916523494468
      ],
      [
        "▁cap",
        -8.733144237327462
      ],
      [
        "▁mimar",
        -9.238008254436632
      ],
      [
        "▁denver'",
        -5.70721602345817
      ],
      [
        "▁birisi",
        -5.941560191445756
      ],
      [
        "▁marka",
        -8.733052319547692
      ],
      [
        "inizi",
        -9.281791294497124
      ],
      [
        "▁calısıyor",
        -7.337653964628107
      ],
      [
        "▁cam",
        -8.278763033800436
      ],
      [
        "▁ucusları",
        -5.711518916201767
      ],
      [
        "▁city'de",
        -6.741889597489916
      ],
      [
        "9",
        -4.905248477984599
      ],
      [
        "▁ad",
        -7.814621286622342
      ],
      [
        "▁parasını",
        -9.097808276294653
      ],
      [
        "tan",
        -6.5331112406770675
      ],
      [
        "▁4",
        -4.732260125815869
      ],
      [
        "larımı",
        -9.136012180560131
      ],
      [
        "▁ka",
        -6.481825642100741
      ],
      [
        "▁ra",
        -6.318499422728735
      ],
      [
        "lerinde",
        -7.0125540810192755
      ],
      [
        "ele",
        -12.03594578210268
      ],
      [
        "▁soz",
        -7.394628475674323
      ],
      [
        "▁ne",
        -3.7234659756415116
      ],
      [
        "▁yeter",
        -6.237835439460579
      ],
      [
        "tıgını",
        -9.09063400979564
      ],
      [
        "ten",
        -7.174164897126722
      ],
      [
        "▁girdi",
        -7.08717183924109
      ],
      [
        "▁h",
        -9.964554393764933
      ],
      [
        "▁ima",
        -9.248911817072774
      ],
      [
        "▁hazine",
        -8.276559903779194
      ],
      [
        "▁tası",
        -8.93250373004894
      ],
      [
        "▁insanı",
        -8.952969754496422
      ],
      [
        "niz",
        -8.511974675088045
      ],
      [
        "▁kadın",
        -7.277119523659077
      ],
      [
        "▁vegas'",
        -7.070371768471581
      ],
      [
        "▁uyeleri",
        -9.235986741625979
      ],
      [
        "ta",
        -6.309472583087412
      ],
      [
        "▁kendisini",
        -5.346153125872469
      ],
      [
        "▁not",
        -8.564389378324947
      ],
      [
        "▁zamanı",
        -8.820859025978951
      ],
      [
        "▁kalma",
        -8.973489972335344
      ],
      [
        "▁seviyesinde",
        -8.831996283002724
      ],
      [
        "g",
        -7.286923133280996
      ],
      [
        "▁hep",
        -5.352880005653416
      ],
      [
        "▁deger",
        -7.7698001211189425
      ],
      [
        "ı",
        -4.804327802810323
      ],
      [
        "▁insan",
        -6.8622638329558905
      ],
      [
        "▁kaldır",
        -7.955063746663338
      ],
      [
        "▁guler",
        -6.443584868127253
      ],
      [
        "▁uy",
        -8.275846936832863
      ],
      [
        "▁basta",
        -9.092386941057107
      ],
      [
        "▁mart",
        -9.084919573599997
      ],
      [
        "▁dugun",
        -9.140165328868779
      ],
      [
        "▁ogle",
        -6.920594758086205
      ],
      [
        "▁kaynak",
        -8.224967396196647
      ],
      [
        "den",
        -5.765485517110782
      ],
      [
        "7",
        -4.751300342131522
      ],
      [
        "▁sevgi",
        -8.346934925838607
      ],
      [
        "ktan",
        -7.714189021885968
      ],
      [
        "on",
        -7.7850315464718
      ],
      [
        "lilik",
        -8.857019452816898
      ],
      [
        "▁burnu",
        -8.95272391169828
      ],
      [
        "▁cıkıs",
        -9.160340497208216
      ],
      [
        "▁kurulu",
        -8.24544565600847
      ],
      [
        "▁komisyonu",
        -8.87767011445018
      ],
      [
        "▁barıs",
        -9.111732999283493
      ],
      [
        "▁bugday",
        -9.294125743189296
      ],
      [
        "▁yasamadi",
        -7.979538720728433
      ],
      [
        "=",
        -11.302702672349787
      ],
      [
        "▁sab",
        -7.521771325852226
      ],
      [
        "▁kimse",
        -7.678943387388964
      ],
      [
        "▁hizmetleri",
        -8.65845828748498
      ],
      [
        "l",
        -5.609165391903557
      ],
      [
        "g",
        -7.6439142066785255
      ],
      [
        "▁temizlik",
        -7.700960763927924
      ],
      [
        "▁ne",
        -8.069372765439216
      ],
      [
        "lı",
        -6.632415496086012
      ],
      [
        "▁dura",
        -7.947902083681182
      ],
      [
        "ılması",
        -8.625834071590543
      ],
      [
        "su",
        -7.539574608610181
      ],
      [
        "ne",
        -7.407806076747501
      ],
      [
        "▁ayrılı",
        -7.428865757157178
      ],
      [
        "▁d",
        -7.195383266702848
      ],
      [
        "meyi",
        -7.824923699009212
      ],
      [
        "▁bir",
        -4.513339230743959
      ],
      [
        "up",
        -6.6607683440219585
      ],
      [
        "muz",
        -8.378158394651074
      ],
      [
        "▁gerek",
        -7.142499163139929
      ],
      [
        "ız",
        -7.869825429200022
      ],
      [
        "▁new",
        -5.186400734166305
      ],
      [
        "ler",
        -6.688903304487621
      ],
      [
        "▁faiz",
        -7.650555241183481
      ],
      [
        "▁kac",
        -6.691152110947753
      ],
      [
        "lik",
        -6.42033954787531
      ],
      [
        "▁am",
        -9.172350447405934
      ],
      [
        "▁bizim",
        -9.019844164095739
      ],
      [
        "▁ruh",
        -8.791549868999539
      ],
      [
        "g",
        -12.802702672349787
      ],
      [
        "▁kir",
        -7.895289163414693
      ],
      [
        "▁mal",
        -7.737986657103645
      ],
      [
        "▁verme",
        -8.094993601400304
      ],
      [
        "▁gucu",
        -8.751508144810568
      ],
      [
        "ında",
        -6.872893455920028
      ],
      [
        "▁k",
        -6.793351251023834
      ],
      [
        "▁durdu",
        -7.466819713427254
      ],
      [
        "▁bizi",
        -5.03747525827567
      ],
      [
        "abilme",
        -9.12405870209222
      ],
      [
        "▁onemli",
        -6.106789014357763
      ],
      [
        "'in",
        -4.753110462176871
      ],
      [
        "▁oglum",
        -8.96255225512436
      ],
      [
        "▁gel",
        -7.453208717310507
      ],
      [
        "▁kadının",
        -9.023550078365309
      ],
      [
        "r",
        -6.5679732324376445
      ],
      [
        "▁konusunda",
        -7.408570875291092
      ],
      [
        "▁boston'da",
        -4.97617369373813
      ],
      [
        "▁alet",
        -9.243211619057046
      ],
      [
        "ana",
        -8.509231256135468
      ],
      [
        "▁masraf",
        -9.017389190283186
      ],
      [
        "[UNK]",
        0.0
      ],
      [
        "▁ol",
        -7.786574060490411
      ],
      [
        "re",
        -7.115838760587908
      ],
      [
        "ta",
        -6.083388384710772
      ],
      [
        "▁fon",
        -8.581956163889341
      ],
      [
        "meyecek",
        -7.8799041323165335
      ],
      [
        "u",
        -12.802702672349787
      ],
      [
        "▁havayolu",
        -8.48483442699644
      ],
      [
        "▁sonucu",
        -8.765607258519017
      ],
      [
        "etli",
        -7.941603451585965
      ],
      [
        "▁olacaktı",
        -7.686503783249897
      ],
      [
        "nda",
        -5.56080146006874
      ],
      [
        "▁cocukları",
        -8.738952316531147
      ],
      [
        "larımız",
        -8.417945692957286
      ],
      [
        "▁raporu",
        -9.1211419486369
      ],
      [
        "▁h",
        -7.309976688735785
      ],
      [
        "▁neden",
        -7.877552953613557
      ],
      [
        "▁ucagın",
        -9.05210524799416
      ],
      [
        "▁seyahat",
        -8.265578217177891
      ],
      [
        "izm",
        -8.43197186350801
      ],
      [
        "▁gosteri",
        -8.721254632880846
      ],
      [
        "▁muh",
        -7.142172831036666
      ],
      [
        "▁guler",
        -7.8388808121699025
      ],
      [
        "unuz",
        -9.205735051768928
      ],
      [
        "▁kadın",
        -7.224328759221749
      ],
      [
        "▁var",
        -4.31276931439489
      ],
      [
        "be",
        -7.177595662382104
      ],
      [
        "dan",
        -7.33257720045109
      ],
      [
        "▁mes",
        -7.8204182357837
      ],
      [
        "agı",
        -8.284440782906383
      ],
      [
        "▁tezgah",
        -8.684068912316118
      ],
      [
        "zat",
        -7.044131657787526
      ],
      [
        "▁ter",
        -7.516182088200092
      ],
      [
        "dıklarını",
        -9.073656286791635
      ],
      [
        "▁rapor",
        -8.01496068513338
      ],
      [
        "cı",
        -6.737588271946104
      ],
      [
        "▁sirketin",
        -7.754069549801167
      ],
      [
        "1'de",
        -9.238969779361714
      ],
      [
        "▁dosya",
        -8.874358242984005
      ],
      [
        "▁lezzet",
        -6.73402907811451
      ],
      [
        "▁bulun",
        -6.850638446731321
      ],
      [
        "0'",
        -8.23653447804701
      ],
      [
        "n",
        -3.1048016047906444
      ],
      [
        "den",
        -7.475941032000357
      ],
      [
        "▁tası",
        -8.060932185527967
      ],
      [
        "▁dogu",
        -9.23340454882212
      ],
      [
        "▁reddetti",
        -7.46853376070064
      ],
      [
        "▁hızla",
        -6.8654287322603
      ],
      [
        "▁po",
        -8.203727834327825
      ],
      [
        "ur",
        -7.785578488847238
      ],
      [
        "k",
        -4.145806418856702
      ],
      [
        "▁bekleniyor",
        -7.564287660181253
      ],
      [
        "▁sur",
        -7.981345808981285
      ],
      [
        "▁basa",
        -8.559708125819055
      ],
      [
        "▁hepsi",
        -4.889312156628241
      ],
      [
        "▁degildi",
        -2.1591214805820806
      ],
      [
        "diklerini",
        -9.094904089610862
      ],
      [
        "▁eskiy",
        -7.310315848648845
      ],
      [
        "▁yeme",
        -8.498486487362069
      ],
      [
        "▁hareket",
        -7.164801304845687
      ],
      [
        "▁yay",
        -8.541311291651535
      ],
      [
        "n",
        -2.5272601907098036
      ],
      [
        "▁ardı",
        -8.862584214285423
      ],
      [
        "▁icki",
        -8.879908843297532
      ],
      [
        "ık",
        -7.649392049490636
      ],
      [
        "'",
        -6.823662010822051
      ],
      [
        "▁27",
        -5.792169366662349
      ],
      [
        "▁co",
        -6.664471490842452
      ],
      [
        "ask",
        -5.901277785160477
      ],
      [
        "▁abd",
        -9.15323872140351
      ],
      [
        "▁doga",
        -7.4195539208541
      ],
      [
        "▁gec",
        -6.50595673707562
      ],
      [
        "▁once",
        -4.914128521965577
      ],
      [
        "r",
        -5.8170413630355995
      ],
      [
        "d",
        -4.831539974861214
      ],
      [
        "▁ogrenci",
        -8.629378093715886
      ],
      [
        "abilecek",
        -7.923519396217422
      ],
      [
        "▁amacı",
        -9.059178680588767
      ],
      [
        "▁af",
        -8.942413080341769
      ],
      [
        "▁toplam",
        -7.90903655082087
      ],
      [
        "▁on",
        -6.089300112861576
      ],
      [
        "5",
        -8.380825255681303
      ],
      [
        "▁per",
        -9.10951857726394
      ],
      [
        "▁erkek",
        -8.467848247537201
      ],
      [
        "▁yetki",
        -9.158429331733831
      ],
      [
        "mak",
        -6.563737770097835
      ],
      [
        "▁kırı",
        -9.090335324780302
      ],
      [
        "▁indi",
        -7.774694128208652
      ],
      [
        "▁birim",
        -8.247772827388154
      ],
      [
        "▁koylu",
        -9.090580075427102
      ],
      [
        "▁birligi",
        -8.697832565934265
      ],
      [
        "ca",
        -6.366620566290579
      ],
      [
        "▁kotu",
        -9.042313902298677
      ],
      [
        "▁o",
        -7.754671360884916
      ],
      [
        "mus",
        -5.962186219204601
      ],
      [
        "▁kimse",
        -5.611770680556417
      ],
      [
        "▁memleket",
        -8.879926289606606
      ],
      [
        "▁aktarma",
        -6.126800701893156
      ],
      [
        "▁yer",
        -6.66756829839914
      ],
      [
        "b",
        -4.519809914103928
      ],
      [
        "▁devri",
        -8.961495323919815
      ],
      [
        "ması",
        -7.544787054276138
      ],
      [
        "▁te",
        -7.3416709354174285
      ],
      [
        "▁teknoloji",
        -8.41026937332661
      ],
      [
        "▁p",
        -7.133818923010828
      ],
      [
        "in",
        -5.669618850718858
      ],
      [
        "▁el",
        -7.0371376438704525
      ],
      [
        "▁ceyrek",
        -8.282990045152872
      ],
      [
        "▁vardi",
        -6.354763873471127
      ],
      [
        "▁yayın",
        -8.2352331869764
      ],
      [
        "▁bahce",
        -7.828029593685217
      ],
      [
        "▁kalk",
        -7.625988064245401
      ],
      [
        "▁degisim",
        -8.91459490589699
      ],
      [
        "▁yuzme",
        -8.232460071784267
      ],
      [
        "▁tahta",
        -8.673677015011915
      ],
      [
        "▁sor",
        -7.836084355901741
      ],
      [
        "▁payı",
        -9.18770085620884
      ],
      [
        "▁o",
        -6.656188534955952
      ],
      [
        "▁misafir",
        -8.340342401888911
      ],
      [
        "▁git",
        -7.190858593130086
      ],
      [
        "a",
        -6.240650828353713
      ],
      [
        "▁kav",
        -8.674692255794678
      ],
      [
        "▁yuz",
        -7.136694801828872
      ],
      [
        "▁bin",
        -4.672987243887961
      ],
      [
        "▁birden",
        -5.965201419918159
      ],
      [
        "▁ben",
        -8.273042604758025
      ],
      [
        "▁piyasa",
        -7.1762711796026935
      ],
      [
        "ındaki",
        -6.302860002047394
      ],
      [
        "▁olagan",
        -7.907651024138542
      ],
      [
        "▁isaret",
        -8.374978568237086
      ],
      [
        "▁sat",
        -8.009129313709888
      ],
      [
        "tif",
        -8.463309440413283
      ],
      [
        "ri",
        -7.143230932338278
      ],
      [
        "▁arta",
        -7.700972469536119
      ],
      [
        "▁gorun",
        -8.065971049868306
      ],
      [
        "▁ait",
        -5.924503288156106
      ],
      [
        "z",
        -12.24335423160404
      ],
      [
        "▁yuz",
        -7.670978609104915
      ],
      [
        "▁du",
        -8.268975596198024
      ],
      [
        "▁bak",
        -8.489035130311635
      ],
      [
        "▁hanım",
        -8.354042280073482
      ],
      [
        "▁g",
        -6.207197408240738
      ],
      [
        "oni",
        -7.648805856565085
      ],
      [
        "leri",
        -4.9355083543253935
      ],
      [
        "▁kose",
        -8.493563151265906
      ],
      [
        "▁mesele",
        -8.511043627760682
      ],
      [
        "lu",
        -7.234825701707616
      ],
      [
        "▁mar",
        -7.509950904645063
      ],
      [
        "▁su",
        -6.019620521653812
      ],
      [
        "▁nihayet",
        -7.402796899532941
      ],
      [
        "▁zor",
        -6.463347752302095
      ],
      [
        "cı",
        -8.096876134676762
      ],
      [
        "▁iste",
        -8.256703313041827
      ],
      [
        "▁cadde",
        -8.933130685948793
      ],
      [
        "▁olma",
        -7.981081580014522
      ],
      [
        "▁edile",
        -6.715375668639949
      ],
      [
        "e",
        -3.054524576694323
      ],
      [
        "▁bush",
        -7.373109476624779
      ],
      [
        "▁hisselerini",
        -9.27179638974372
      ],
      [
        "▁tepe",
        -8.497979153807185
      ],
      [
        "▁dili",
        -9.082093152994489
      ],
      [
        "▁milleti",
        -9.213845293279821
      ],
      [
        "u",
        -6.042964596613032
      ],
      [
        "meyi",
        -8.718690274907857
      ],
      [
        "az",
        -9.366784984524482
      ],
      [
        "▁varlık",
        -9.268297286554713
      ],
      [
        "se",
        -7.269141531746494
      ],
      [
        "▁hatıra",
        -9.08888890734789
      ],
      [
        "▁lı",
        -5.6759587977861035
      ],
      [
        "'ni",
        -8.823781893772816
      ],
      [
        "▁tarz",
        -9.065450012933399
      ],
      [
        "▁oysa",
        -7.627516959748585
      ],
      [
        "▁bunu",
        -4.07572431406977
      ],
      [
        "ici",
        -6.4959872997340335
      ],
      [
        "▁cat",
        -9.04158148824779
      ],
      [
        "de",
        -5.956809009026433
      ],
      [
        "yil",
        -7.5783932716631615
      ],
      [
        "▁bit",
        -8.607984316353946
      ],
      [
        "▁cene",
        -9.271421123292132
      ],
      [
        "▁uygundu",
        -7.74601068098326
      ],
      [
        "iz",
        -6.313497623855728
      ],
      [
        "miz",
        -7.617638752719551
      ],
      [
        "mez",
        -7.157224312138853
      ],
      [
        "▁dost",
        -8.46748239616879
      ],
      [
        "▁dus",
        -6.979276280361036
      ],
      [
        "▁sovyet",
        -9.288850698743765
      ],
      [
        "▁tedbir",
        -9.21074917215959
      ],
      [
        "m",
        -5.873443252499982
      ],
      [
        "▁kızı",
        -8.454136270198845
      ],
      [
        "▁mi",
        -8.345773107887435
      ],
      [
        "▁yoktu",
        -5.52949816062023
      ],
      [
        "kar",
        -7.939901909319218
      ],
      [
        "▁s",
        -7.798955791444568
      ],
      [
        "▁ucuyor",
        -7.312963302415817
      ],
      [
        "ga",
        -6.992695622390459
      ],
      [
        "di",
        -3.980170575732436
      ],
      [
        "▁odul",
        -9.159017616483176
      ],
      [
        "▁sonu",
        -5.939231458545545
      ],
      [
        "s",
        -6.602215826617403
      ],
      [
        "ur",
        -7.048764238093534
      ],
      [
        "t",
        -5.211446740624952
      ],
      [
        "▁zincir",
        -8.913129824191852
      ],
      [
        "▁",
        -2.896334987865555
      ],
      [
        "ton",
        -7.029534064245779
      ],
      [
        "▁kuvvet",
        -8.768978482491827
      ],
      [
        "▁avrupa",
        -6.605347737836264
      ],
      [
        "▁onunde",
        -7.903428584640306
      ],
      [
        "▁puan",
        -6.262954799629098
      ],
      [
        "'yi",
        -6.905114978370966
      ],
      [
        "▁ulus",
        -7.084374921034155
      ],
      [
        "▁tas",
        -7.710801207594815
      ],
      [
        "or",
        -7.628499005959598
      ],
      [
        "▁yumurta",
        -8.874295364588884
      ],
      [
        "▁dusunce",
        -8.265346741560183
      ],
      [
        "▁karsiligi",
        -8.318903464401007
      ],
      [
        "es",
        -7.343381508774406
      ],
      [
        "▁ko",
        -7.437802104915977
      ],
      [
        "▁yuzluydu",
        -8.020553123755267
      ],
      [
        "▁temmuz",
        -9.265563349881607
      ],
      [
        "▁pilot",
        -8.668445408882885
      ],
      [
        "lerle",
        -7.095149800028127
      ],
      [
        "▁tesis",
        -6.616020582163001
      ],
      [
        "o",
        -7.846631717898697
      ],
      [
        "alı",
        -7.639942686466609
      ],
      [
        "▁ogrenciler",
        -9.28769993217673
      ],
      [
        "ımı",
        -8.200450069658823
      ],
      [
        "'ni",
        -5.574022015552036
      ],
      [
        "▁rekabet",
        -8.622982401681805
      ],
      [
        "▁genel",
        -5.426067388594888
      ],
      [
        "▁yuregi",
        -8.818723710077887
      ],
      [
        "▁kardes",
        -8.572188542629128
      ],
      [
        "?",
        -4.9897436379284725
      ],
      [
        "▁ilave",
        -8.953570676907452
      ],
      [
        "▁icme",
        -8.828505971542032
      ],
      [
        "▁ki",
        -1.7493755316426949
      ],
      [
        "▁tabak",
        -9.13387300325966
      ],
      [
        "▁olması",
        -7.576339787469357
      ],
      [
        "▁fikir",
        -8.446856982747711
      ],
      [
        "▁gecme",
        -8.933251380471315
      ],
      [
        "ıp",
        -5.680099940697676
      ],
      [
        "min",
        -7.845175447019517
      ],
      [
        "▁yolculuk",
        -9.16009405151695
      ],
      [
        "lar",
        -4.398521406909345
      ],
      [
        "▁ilk",
        -5.410354367585089
      ],
      [
        "▁hastane",
        -8.819567404694327
      ],
      [
        "▁amac",
        -8.686474632285169
      ],
      [
        "niye",
        -7.497200092075518
      ],
      [
        "n",
        -5.646770103360009
      ],
      [
        "ell",
        -7.506926504393078
      ],
      [
        "▁...",
        -14.014958445102625
      ],
      [
        "▁borcu",
        -9.221761599778555
      ],
      [
        "▁rekor",
        -9.265751245677357
      ],
      [
        "mayı",
        -7.344291672410745
      ],
      [
        "ya",
        -5.195245582311849
      ],
      [
        "▁var",
        -6.823044519766965
      ],
      [
        "▁r",
        -8.677199341049654
      ],
      [
        "▁dusunme",
        -9.062843001250087
      ],
      [
        "▁20",
        -5.2040630633608735
      ],
      [
        "▁olay",
        -8.46349931846309
      ],
      [
        "makta",
        -7.345754464848871
      ],
      [
        "▁git",
        -7.996927158050616
      ],
      [
        "▁emir",
        -9.0180581764486
      ],
      [
        "▁zevk",
        -8.622983645978294
      ],
      [
        "▁hac",
        -9.278887000994581
      ],
      [
        "▁ru",
        -8.910031687408365
      ],
      [
        "▁yerini",
        -8.713919929322206
      ],
      [
        "▁cogu",
        -8.352598496973737
      ],
      [
        "▁imza",
        -9.085630305411248
      ],
      [
        "▁19",
        -5.584042382710446
      ],
      [
        "▁cok",
        -5.403467047528563
      ],
      [
        "▁deger",
        -7.509694612103102
      ],
      [
        "lar",
        -4.74025477615891
      ],
      [
        "yi",
        -6.010339211861245
      ],
      [
        "▁boya",
        -8.854947501114847
      ],
      [
        "▁16",
        -6.1378288923756
      ],
      [
        "▁parla",
        -7.874437419049213
      ],
      [
        "▁saldırı",
        -9.133832217773474
      ],
      [
        "▁ucret",
        -6.700285313037715
      ],
      [
        "mesini",
        -8.93105118169019
      ],
      [
        "is",
        -7.767266252364115
      ],
      [
        "▁yapılan",
        -7.5606945253166895
      ],
      [
        "onu",
        -9.0630222156713
      ],
      [
        "%",
        -12.802702672349787
      ],
      [
        "▁bicim",
        -8.645191348819985
      ],
      [
        "ında",
        -4.740979246502958
      ],
      [
        "▁iliski",
        -8.203711046579798
      ],
      [
        "▁konut",
        -8.79833904973201
      ],
      [
        "▁ismi",
        -9.249987128533782
      ],
      [
        "▁sey",
        -5.822913018313815
      ],
      [
        "▁tanı",
        -9.26708362717759
      ],
      [
        "▁ucretleri",
        -8.860902634295034
      ],
      [
        "▁verdigim",
        -6.825897247210726
      ],
      [
        "▁mus",
        -5.417352690502484
      ],
      [
        "▁veya",
        -4.768733796629289
      ],
      [
        "s",
        -6.083064316595121
      ],
      [
        "▁durumu",
        -8.310555595103924
      ],
      [
        "▁araba",
        -7.397014550119054
      ],
      [
        "▁hakim",
        -8.987520347213144
      ],
      [
        "▁degisiklikler",
        -9.013508517624524
      ],
      [
        "▁haric",
        -9.040704401237276
      ],
      [
        "▁lu",
        -6.665428194656309
      ],
      [
        "▁kullanmadi",
        -7.197998212044448
      ],
      [
        "▁tut",
        -8.524278978569665
      ],
      [
        "likt",
        -6.5852774385037165
      ],
      [
        "▁parti",
        -8.052703654897643
      ],
      [
        "▁degistir",
        -8.001472205836322
      ],
      [
        "▁degillerdi",
        -5.210354841089645
      ],
      [
        "▁sayısı",
        -9.00905665866477
      ],
      [
        "▁s",
        -4.608337497691909
      ],
      [
        "▁otelin",
        -7.640042376732834
      ],
      [
        "gil",
        -7.604654609424275
      ],
      [
        "▁niyet",
        -8.857873102557397
      ],
      [
        "▁doları'n",
        -8.481726758834391
      ],
      [
        "gın",
        -7.655061505047966
      ],
      [
        "an",
        -5.061775400955149
      ],
      [
        "o",
        -7.86482220142318
      ],
      [
        "▁eve",
        -7.624905181929931
      ],
      [
        "▁emeklilik",
        -9.21177305999101
      ],
      [
        "▁d",
        -8.848063258133957
      ],
      [
        "*",
        -8.013350264920795
      ],
      [
        "▁sordu",
        -7.266541797794853
      ],
      [
        "▁yasında",
        -7.252155777757523
      ],
      [
        "▁personel",
        -6.611372239978121
      ],
      [
        "▁ydi",
        -4.345530577115908
      ],
      [
        "▁sıra",
        -7.35237072222525
      ],
      [
        "▁olacagını",
        -8.623643767059166
      ],
      [
        "▁yonetimi",
        -8.813402453615899
      ],
      [
        "a",
        -3.587729836288509
      ],
      [
        "▁otur",
        -7.588990628859042
      ],
      [
        "▁ceza",
        -8.167622138186484
      ],
      [
        "▁turkiye'",
        -7.012378740847429
      ],
      [
        "▁yedi",
        -7.992579213624683
      ],
      [
        "maz",
        -7.561133468680387
      ],
      [
        "sızlık",
        -8.414054230940573
      ],
      [
        "▁cıktı",
        -6.204929595937625
      ],
      [
        "'ı",
        -6.960069597638902
      ],
      [
        "▁en",
        -8.199192244498683
      ],
      [
        "ik",
        -7.5332381974153915
      ],
      [
        "d",
        -2.461972935010672
      ],
      [
        "▁ets",
        -7.27405506231093
      ],
      [
        "▁icinde",
        -7.1227718035844765
      ],
      [
        "▁dus",
        -7.82404762062771
      ],
      [
        "▁%",
        -8.548383901389244
      ],
      [
        "▁iyi",
        -8.20724418318709
      ],
      [
        "▁ortak",
        -7.387445134374163
      ],
      [
        "▁golge",
        -8.62390698678089
      ],
      [
        "▁cift",
        -8.526810223381293
      ],
      [
        "sız",
        -5.176838559836356
      ],
      [
        "tik",
        -7.853044933554709
      ],
      [
        "▁eskid",
        -7.508059908398208
      ],
      [
        "▁zaman",
        -7.1405633171011775
      ],
      [
        "▁altında",
        -7.4558875672301195
      ],
      [
        "to",
        -8.00604332669735
      ],
      [
        "▁dondu",
        -7.290695514464782
      ],
      [
        "▁talebi",
        -9.158816713539558
      ],
      [
        "veya",
        -7.07356391847621
      ],
      [
        "/",
        -5.9441551310848775
      ],
      [
        "▁telefon",
        -7.870323223050649
      ],
      [
        "▁basım",
        -8.687477042032693
      ],
      [
        "lik",
        -7.049340784366007
      ],
      [
        "▁ters",
        -7.913455746945873
      ],
      [
        "▁sade",
        -4.929761959807005
      ],
      [
        "▁ic",
        -6.5122645661677705
      ],
      [
        "▁endeks",
        -8.584934316768742
      ],
      [
        "▁17",
        -6.060985725555577
      ],
      [
        "z",
        -6.428989089571596
      ],
      [
        "dan",
        -5.735766773513523
      ],
      [
        "▁calısma",
        -7.814598973691669
      ],
      [
        "'ın",
        -5.001221876001728
      ],
      [
        "lere",
        -6.511187168128944
      ],
      [
        "▁alıyor",
        -7.369269360280152
      ],
      [
        "acagın",
        -9.132429627978341
      ],
      [
        "▁sehir",
        -7.448332714366599
      ],
      [
        "▁veri",
        -8.496369476912108
      ],
      [
        "nc",
        -6.268229403463587
      ],
      [
        "▁elbise",
        -8.622984016105395
      ],
      [
        "▁re",
        -7.394714735641713
      ],
      [
        "▁gunu",
        -6.386325631530475
      ],
      [
        "▁arka",
        -7.664821247900203
      ],
      [
        "▁ziyaret",
        -8.459355520734828
      ],
      [
        "▁yakında",
        -7.032897940633355
      ],
      [
        "▁kaliforniya",
        -7.302773057599721
      ],
      [
        "▁karsılık",
        -9.072485158383774
      ],
      [
        "ra",
        -6.797631536129477
      ],
      [
        "▁amerikan",
        -6.414354089131514
      ],
      [
        "▁odayd",
        -7.567298808617516
      ],
      [
        "▁kus",
        -7.925498294022481
      ],
      [
        "▁sektor",
        -8.680257250515933
      ],
      [
        "▁air",
        -6.441528599237535
      ],
      [
        "▁rol",
        -8.855430596971221
      ],
      [
        "▁dusunuyor",
        -7.3435904066391675
      ],
      [
        "▁alın",
        -9.109537906635243
      ],
      [
        "▁rakı",
        -9.01767299568164
      ],
      [
        "h",
        -6.8306572091775175
      ],
      [
        "cisi",
        -8.887302131218464
      ],
      [
        "▁muhendis",
        -9.085592075050975
      ],
      [
        "▁dans",
        -9.173431351273113
      ],
      [
        "misti",
        -6.5142912228694145
      ],
      [
        "▁pe",
        -8.332465678184999
      ],
      [
        "lestirme",
        -8.974444778279391
      ],
      [
        "1",
        -11.802702672349785
      ],
      [
        "▁dallas'ta",
        -5.831611737310721
      ],
      [
        "▁me",
        -7.563512412477667
      ],
      [
        "mdan",
        -8.669704766428659
      ],
      [
        "ul",
        -7.27796594008921
      ],
      [
        "▁birbirin",
        -5.481821565997513
      ],
      [
        "▁kurulus",
        -8.878754796596276
      ],
      [
        "▁sonuclar",
        -9.019147457246486
      ],
      [
        "▁ver",
        -8.36919186281029
      ],
      [
        "ma",
        -6.108077271086794
      ],
      [
        "▁savası",
        -9.09002879466954
      ],
      [
        "▁turku",
        -8.87925561994082
      ],
      [
        "▁zorunda",
        -8.446868069743477
      ],
      [
        "ayım",
        -7.717619501136943
      ],
      [
        "▁de",
        -4.7753992930642415
      ],
      [
        "a",
        -3.306240950764071
      ],
      [
        "▁arama",
        -9.221876468262682
      ],
      [
        "erine",
        -7.345133478854348
      ],
      [
        "ama",
        -3.6363263764093876
      ],
      [
        "▁koru",
        -8.830454329298705
      ],
      [
        "▁gel",
        -6.95165631870981
      ],
      [
        "▁kadını",
        -9.129245795420946
      ],
      [
        "▁erkek",
        -7.594686771321886
      ],
      [
        "ve",
        -6.34156215292432
      ],
      [
        "▁civarın",
        -8.973154027914003
      ],
      [
        "▁anlamın",
        -8.863556453283985
      ],
      [
        "▁dow",
        -6.840496730669338
      ],
      [
        "▁almanya",
        -7.514640186405623
      ],
      [
        "▁dun",
        -7.8304750967130925
      ],
      [
        "▁yaslı",
        -7.252695010591861
      ],
      [
        "▁ara",
        -7.571122780289877
      ],
      [
        "met",
        -8.003927957192406
      ],
      [
        "▁ot",
        -8.913591539383406
      ],
      [
        "▁l",
        -8.210971820502298
      ],
      [
        "▁olmadi",
        -7.105787802996739
      ],
      [
        "▁a",
        -7.219965941963332
      ],
      [
        "▁bildirdi",
        -7.647032170492996
      ],
      [
        "▁gizli",
        -7.17007701830834
      ],
      [
        "m",
        -5.082265988425475
      ],
      [
        "lerinden",
        -7.1941704024461055
      ],
      [
        "▁sekiz",
        -5.578203547897827
      ],
      [
        "▁gelmisti",
        -8.102380099240872
      ],
      [
        "▁bagı",
        -8.588811122004694
      ],
      [
        "iba",
        -7.213093955656788
      ],
      [
        "▁once",
        -8.6329381293949
      ],
      [
        "▁24",
        -6.263247141229067
      ],
      [
        "▁itiraz",
        -9.085595176457382
      ],
      [
        "▁baslıyor",
        -7.795348747780091
      ],
      [
        "do",
        -8.702041847669687
      ],
      [
        "▁class",
        -8.234958184505507
      ],
      [
        "▁geli",
        -6.90804634111799
      ],
      [
        "!",
        -5.67393291373121
      ],
      [
        "p",
        -5.971301426427603
      ],
      [
        "il",
        -7.3927092007068795
      ],
      [
        "mamıs",
        -7.914135919214581
      ],
      [
        "▁amerikalı",
        -9.104064839724339
      ],
      [
        "▁eser",
        -8.639708969978892
      ],
      [
        "f",
        -11.199613634584775
      ],
      [
        "▁mahkeme",
        -8.10721007326411
      ],
      [
        "▁olmustu",
        -7.1578929644790845
      ],
      [
        "▁kırk",
        -6.011931561604349
      ],
      [
        "kten",
        -8.562354603792354
      ],
      [
        "ı",
        -6.060610007727377
      ],
      [
        "▁uca",
        -7.794701260637387
      ],
      [
        "▁peynir",
        -8.593783877604954
      ],
      [
        "re",
        -7.287148064366534
      ],
      [
        "▁yavas",
        -7.42590430231164
      ],
      [
        "al",
        -6.09878474258122
      ],
      [
        "▁ayır",
        -7.778536024236658
      ],
      [
        "dikte",
        -9.257280798896604
      ],
      [
        "▁vali",
        -9.13600253522984
      ],
      [
        "▁karın",
        -9.273357737506823
      ],
      [
        "▁ayakları",
        -9.047130128147183
      ],
      [
        "▁mevcut",
        -8.668443909164484
      ],
      [
        "▁zarar",
        -8.130412808164333
      ],
      [
        "▁buyu",
        -9.081270761185637
      ],
      [
        "▁vapur",
        -8.818724275131956
      ],
      [
        ",",
        -11.199613634584775
      ],
      [
        "▁temizligi",
        -7.382347171589046
      ],
      [
        "▁bakım",
        -7.325904814344627
      ],
      [
        "▁arası",
        -7.805190244867434
      ],
      [
        "ma",
        -7.597842975260149
      ],
      [
        "▁okuma",
        -8.953988810237421
      ],
      [
        "layan",
        -7.365818020276719
      ],
      [
        "▁biz",
        -8.453634900272267
      ],
      [
        "▁dolu",
        -6.890848667969417
      ],
      [
        "▁derecede",
        -9.196860673201932
      ],
      [
        "▁dogru",
        -8.579498129888698
      ],
      [
        "▁adi",
        -7.605460096006958
      ],
      [
        "lesme",
        -9.08983980381352
      ],
      [
        "imiz",
        -7.654294781691021
      ],
      [
        "ecek",
        -7.641339071530616
      ],
      [
        "▁tavsiye",
        -6.698472403062372
      ],
      [
        "▁yolda",
        -8.54615821546534
      ],
      [
        "▁sessiz",
        -7.407287642389942
      ],
      [
        "▁misin",
        -4.5273534770033566
      ],
      [
        "▁cek",
        -7.436743750063714
      ],
      [
        "s",
        -6.500190502047274
      ],
      [
        "▁dahil",
        -8.176631249437749
      ],
      [
        "s",
        -7.940678475384541
      ],
      [
        "sal",
        -9.255149021009696
      ],
      [
        "▁istanbul'u",
        -7.504583998545305
      ],
      [
        "lıg",
        -8.120739869450475
      ],
      [
        "▁plani",
        -9.099471471329435
      ],
      [
        "▁etrafında",
        -9.043773002367267
      ],
      [
        "▁kazancları",
        -9.163933940094221
      ],
      [
        "▁ucag",
        -8.484468683830647
      ],
      [
        "ıs",
        -7.610157220135955
      ],
      [
        "▁sirket",
        -6.6657560514341645
      ],
      [
        "an",
        -5.292109909625392
      ],
      [
        "▁dayan",
        -7.800904239688628
      ],
      [
        "▁denizi",
        -7.042408028245582
      ],
      [
        "tı",
        -6.219190472415151
      ],
      [
        "▁f",
        -7.232885755547304
      ],
      [
        "▁ara",
        -7.916258681979784
      ],
      [
        "▁bank",
        -7.503707279448058
      ],
      [
        "▁japon",
        -8.749131083164222
      ],
      [
        "▁w",
        -7.361478601160245
      ],
      [
        "▁on",
        -4.304254523933001
      ],
      [
        "▁bol",
        -7.354352224522627
      ],
      [
        "te",
        -7.467968447315105
      ],
      [
        "▁lar",
        -7.76677043803274
      ],
      [
        "r",
        -11.302702672349785
      ],
      [
        "▁duruyor",
        -7.461726621973796
      ],
      [
        "▁mezar",
        -9.09304905153065
      ],
      [
        "kul",
        -7.445528430967018
      ],
      [
        "muyor",
        -7.998022514967612
      ],
      [
        "iyl",
        -7.505604821556475
      ],
      [
        "▁alay",
        -9.147819001552868
      ],
      [
        "▁da",
        -2.118767026704102
      ],
      [
        "▁bebek",
        -9.18448139804936
      ],
      [
        "▁artırma",
        -9.158907289596371
      ],
      [
        "▁universite",
        -8.265571649333655
      ],
      [
        "▁gunlu",
        -6.629403783320777
      ],
      [
        "▁8",
        -5.673436706926548
      ],
      [
        "▁gosterme",
        -9.178849973017444
      ],
      [
        "▁oakland'",
        -6.892608868680238
      ],
      [
        "ge",
        -7.202674406118215
      ],
      [
        "▁al",
        -7.2018200930213085
      ],
      [
        "▁18",
        -6.19934010069746
      ],
      [
        "▁siz",
        -4.451945015214789
      ],
      [
        "▁bilim",
        -7.656489634009977
      ],
      [
        "▁dogru",
        -6.1605310263063116
      ],
      [
        "egi",
        -8.28948402091234
      ],
      [
        "▁ofis",
        -8.340895257628542
      ],
      [
        "ku",
        -6.584838249141784
      ],
      [
        "▁ilgilendi",
        -5.974221286990928
      ],
      [
        "▁kayıt",
        -9.017543126666531
      ],
      [
        "▁ihtiyar",
        -7.882014140590103
      ],
      [
        "▁kalbi",
        -8.83980161297753
      ],
      [
        "▁bilet",
        -8.235814383997521
      ],
      [
        "▁sonun",
        -8.950814652171156
      ],
      [
        "▁nedenle",
        -9.001235761055657
      ],
      [
        "▁kamu",
        -8.541542003090594
      ],
      [
        "▁tedavi",
        -9.184433331884414
      ],
      [
        "mı",
        -7.613128302352344
      ],
      [
        "yla",
        -6.609948332917523
      ],
      [
        "▁rahat",
        -8.6530601689483
      ],
      [
        "▁bakıyor",
        -7.6522711076711545
      ],
      [
        "ına",
        -6.2338482398958925
      ],
      [
        "ligini",
        -8.108001076095718
      ],
      [
        "imizi",
        -8.788285433918691
      ],
      [
        "▁parca",
        -7.962512392360006
      ],
      [
        "▁pi",
        -8.143542494986246
      ],
      [
        "▁personeller",
        -7.096374009950666
      ],
      [
        "▁york",
        -5.743778545021385
      ],
      [
        "▁sık",
        -7.878130396083801
      ],
      [
        "▁yeni",
        -4.876323234096239
      ],
      [
        "g",
        -3.2365275863870595
      ],
      [
        "da",
        -6.7086823028934255
      ],
      [
        "z",
        -6.4439298817061665
      ],
      [
        "sı",
        -5.5290058671441855
      ],
      [
        "▁gitti",
        -6.5931728819541995
      ],
      [
        "▁inan",
        -7.553234379648894
      ],
      [
        "lerimi",
        -8.923182469167552
      ],
      [
        "▁tekne",
        -8.750042761421096
      ],
      [
        "▁fiyatları",
        -7.681682446469251
      ],
      [
        "e",
        -3.96344570609239
      ],
      [
        "▁oran",
        -7.933939014813128
      ],
      [
        "▁resim",
        -8.579645970805329
      ],
      [
        "▁hakk",
        -5.840372106910847
      ],
      [
        "lamak",
        -8.361522919722969
      ],
      [
        "iyeti",
        -8.93949850243172
      ],
      [
        "▁sert",
        -7.1477745182243595
      ],
      [
        "▁erke",
        -6.2825486582366485
      ],
      [
        "ne",
        -7.295935539686148
      ],
      [
        "▁arac",
        -8.799851043344582
      ],
      [
        "▁konusu",
        -8.558032382416304
      ],
      [
        "▁alem",
        -9.051357663466767
      ],
      [
        "el",
        -6.289521863593651
      ],
      [
        "▁yasa",
        -7.432925370564925
      ],
      [
        "er",
        -6.002466897129618
      ],
      [
        "▁alısveris",
        -8.783321678300645
      ],
      [
        "▁konum",
        -7.8079916830080265
      ],
      [
        "lma",
        -8.74124243047195
      ],
      [
        "▁13",
        -6.181566688398236
      ],
      [
        "▁yavas",
        -6.867619120627829
      ],
      [
        "▁ol",
        -7.219257272428693
      ],
      [
        "▁ocagı",
        -9.063786813803986
      ],
      [
        "nız",
        -8.70034607177369
      ],
      [
        "lasma",
        -8.499340675195466
      ],
      [
        "▁ust",
        -8.93041255686945
      ],
      [
        ")",
        -6.115128725042444
      ],
      [
        "da",
        -4.996774832265106
      ],
      [
        "c",
        -6.519041070915973
      ],
      [
        "▁40",
        -6.045535918803367
      ],
      [
        "▁kendini",
        -4.901080439319303
      ],
      [
        "▁1/",
        -5.763313856350588
      ],
      [
        "▁denver",
        -5.7868022311210385
      ],
      [
        "i",
        -5.1862327253366844
      ],
      [
        "▁bos",
        -6.940296137114259
      ],
      [
        "▁sure",
        -7.178789539008516
      ],
      [
        "▁boy",
        -5.301293242611928
      ],
      [
        "temel",
        -7.572565365807591
      ],
      [
        "bire",
        -6.803876773460233
      ],
      [
        "▁yanda",
        -8.817890646262013
      ],
      [
        "▁devralma",
        -9.210749609254675
      ],
      [
        "mus",
        -6.07157389266637
      ],
      [
        "▁eksik",
        -7.941174261744681
      ],
      [
        "▁fa",
        -5.262360152298196
      ],
      [
        "inden",
        -7.222574550029564
      ],
      [
        "▁havuz",
        -7.6780200073461575
      ],
      [
        "▁temel",
        -7.146028545686271
      ],
      [
        "abı",
        -8.509677880361348
      ],
      [
        "▁buray",
        -9.053483205473087
      ],
      [
        "▁yuru",
        -7.795307954809513
      ],
      [
        "c",
        -12.802702672349787
      ],
      [
        "▁ulasımı",
        -8.245641228232966
      ],
      [
        "ligi",
        -7.2752044193087695
      ],
      [
        "▁gezi",
        -9.01778224351924
      ],
      [
        "mın",
        -8.820821025929872
      ],
      [
        "▁guven",
        -8.222528911226235
      ],
      [
        "▁toronto'",
        -7.503686101187043
      ],
      [
        "li",
        -6.000409179436919
      ],
      [
        "▁ifade",
        -7.6066869482229675
      ],
      [
        "ması",
        -7.70062480546779
      ],
      [
        "on",
        -7.30068588416332
      ],
      [
        "▁ticarette",
        -9.027941098747165
      ],
      [
        "▁altın",
        -7.281097422942544
      ],
      [
        "▁da",
        -3.8220161579732874
      ],
      [
        "▁pers",
        -7.007837764036368
      ],
      [
        "▁etki",
        -7.7950353566217885
      ],
      [
        "▁koku",
        -8.692061535529657
      ],
      [
        "▁ihale",
        -8.995655666493128
      ],
      [
        "dir",
        -4.943700873807415
      ],
      [
        "▁ata",
        -8.85437362422949
      ],
      [
        "z",
        -5.915182500026182
      ],
      [
        "▁saki",
        -6.9048363226009215
      ],
      [
        "ze",
        -7.710205211172292
      ],
      [
        "▁agac",
        -8.296327982988116
      ],
      [
        "▁dusme",
        -9.1011428027729
      ],
      [
        "dikleri",
        -8.85798360119302
      ],
      [
        "nın",
        -7.967677850609561
      ],
      [
        "▁hafta",
        -7.127924110267621
      ],
      [
        "▁artı",
        -5.060973459890498
      ],
      [
        "▁iletisim",
        -9.039608923531553
      ],
      [
        "▁gel",
        -8.757612393217727
      ],
      [
        "▁oda",
        -6.317397871292799
      ],
      [
        "i",
        -5.429547822392264
      ],
      [
        "▁hem",
        -7.1543483918530395
      ],
      [
        "▁getir",
        -7.0758537302384745
      ],
      [
        "ınız",
        -9.087629797045327
      ],
      [
        "▁belir",
        -7.01863760235201
      ],
      [
        "▁film",
        -8.14115901478138
      ],
      [
        "'de",
        -5.602924589034716
      ],
      [
        "ki",
        -12.24335423160404
      ],
      [
        "▁donus",
        -7.078200277547076
      ],
      [
        "de",
        -5.3119117464301135
      ],
      [
        "▁baslamıstı",
        -8.061027006083195
      ],
      [
        "▁konustu",
        -7.3231066383999215
      ],
      [
        "▁rehber",
        -8.40974490307236
      ],
      [
        "ili",
        -6.820299547520811
      ],
      [
        "mayacak",
        -7.8906388322215175
      ],
      [
        "▁yapan",
        -8.084981832738222
      ],
      [
        "▁yarı",
        -8.597992623125606
      ],
      [
        "▁ben",
        -2.9871799491523117
      ],
      [
        "▁motor",
        -8.83721733202598
      ],
      [
        "▁alacak",
        -8.085246640754074
      ],
      [
        "on",
        -4.581243662563074
      ],
      [
        "▁yılında",
        -7.961096711580863
      ],
      [
        "ıldı",
        -7.746737387363932
      ],
      [
        "g",
        -7.63741877732136
      ],
      [
        "▁cocuklar",
        -7.46577111373702
      ],
      [
        "▁halk",
        -8.091570517722253
      ],
      [
        "▁etmedi",
        -7.691717767590749
      ],
      [
        "▁ilk",
        -6.030188554215659
      ],
      [
        "▁dustu",
        -6.310464317595503
      ],
      [
        "▁do",
        -4.997386800813171
      ],
      [
        "dir",
        -5.261977899536268
      ],
      [
        "▁yap",
        -8.551017430370143
      ],
      [
        "▁hatır",
        -9.109652374073745
      ],
      [
        "▁omru",
        -9.210798960761714
      ],
      [
        "atı",
        -8.84321093239329
      ],
      [
        "▁olur",
        -6.262222181576985
      ],
      [
        "▁sabah",
        -6.836555084669988
      ],
      [
        "▁eyalet",
        -8.766081029022734
      ],
      [
        "uktu",
        -7.340269009743899
      ],
      [
        "▁olmak",
        -7.689329724089977
      ],
      [
        "▁memnunu",
        -7.398164074736801
      ],
      [
        "▁-",
        -9.780423386250764
      ],
      [
        "▁bulunuyor",
        -7.8053680244053245
      ],
      [
        "v",
        -2.1317723992754427
      ],
      [
        "▁girme",
        -9.23274771015684
      ],
      [
        "▁on",
        -7.765378417422554
      ],
      [
        "▁akıl",
        -8.87442206750665
      ],
      [
        "▁tuketici",
        -8.637907763237546
      ],
      [
        "▁listeley",
        -6.306110256609846
      ],
      [
        "▁batı",
        -9.063861306609182
      ],
      [
        "▁ge",
        -6.8116027363371705
      ],
      [
        "▁digerleri",
        -8.855424816702525
      ],
      [
        "▁kullan",
        -7.577518783158073
      ],
      [
        "▁iflas",
        -9.13379285006716
      ],
      [
        "▁yolun",
        -9.197579212966087
      ],
      [
        "▁kas",
        -8.154356497786436
      ],
      [
        "▁boyun",
        -8.973227801891834
      ],
      [
        "▁kullanma",
        -9.256323471708193
      ],
      [
        "e",
        -2.7482464078386
      ],
      [
        "▁cıkan",
        -8.029926104916933
      ],
      [
        "▁28",
        -6.493645630951329
      ],
      [
        "▁yıla",
        -9.119364016889838
      ],
      [
        "mızda",
        -9.236476505337485
      ],
      [
        "▁tas",
        -7.694382476535432
      ],
      [
        "▁ha",
        -7.961710782505899
      ],
      [
        "▁buyume",
        -8.553070569766422
      ],
      [
        "ir",
        -7.249585255353831
      ],
      [
        "meye",
        -6.748318156491168
      ],
      [
        "▁kalite",
        -6.853378659999226
      ],
      [
        "▁sofra",
        -8.766082596799706
      ],
      [
        "▁ed",
        -8.127001380216779
      ],
      [
        "cak",
        -6.864813269639653
      ],
      [
        "▁birbirlerin",
        -6.499373602294938
      ],
      [
        "▁bunlar",
        -4.7085310956851325
      ],
      [
        "▁hali",
        -8.592895421817964
      ],
      [
        "abilir",
        -6.5038225141245505
      ],
      [
        "▁arkadaslar",
        -8.69652136132538
      ],
      [
        "▁makale",
        -9.261680381952793
      ],
      [
        "▁demir",
        -8.551567581886852
      ],
      [
        "▁epey",
        -7.231327411727682
      ],
      [
        "unun",
        -7.450536835102856
      ],
      [
        "▁endeksi",
        -8.015787291087785
      ],
      [
        "▁persembe",
        -8.121091191049143
      ],
      [
        "▁alaka",
        -8.632025905811432
      ],
      [
        "▁olsun",
        -6.552446083414008
      ],
      [
        "▁dusus",
        -7.918933733047734
      ],
      [
        "5",
        -4.1197129008691356
      ],
      [
        "▁varsa",
        -7.7096685190147385
      ],
      [
        "▁karsısında",
        -8.188729380027178
      ],
      [
        "▁tarla",
        -8.582925126425142
      ],
      [
        "ka",
        -4.814930333216153
      ],
      [
        "▁es",
        -7.7496457909165235
      ],
      [
        "nu",
        -7.5723461327454995
      ],
      [
        "▁kaldı",
        -6.863616846908395
      ],
      [
        "▁sınıfı",
        -8.333678580354036
      ],
      [
        "▁plan",
        -7.695685576597129
      ],
      [
        "▁top",
        -8.151243240101465
      ],
      [
        "▁sonucları",
        -8.80301411662335
      ],
      [
        "▁kaldırım",
        -9.294128223749448
      ],
      [
        "▁listesini",
        -9.065662281251212
      ],
      [
        "▁bolum",
        -8.637596344155577
      ],
      [
        "▁ve",
        -8.709763398517566
      ],
      [
        "▁baslamıs",
        -8.029725087251276
      ],
      [
        "▁cift",
        -7.316286050378702
      ],
      [
        "▁ku",
        -7.931067311392219
      ],
      [
        "nizi",
        -9.04258842201665
      ],
      [
        "'nun",
        -6.13987211651921
      ],
      [
        "▁lake",
        -6.56676467153332
      ],
      [
        "▁seyi",
        -8.096808847356328
      ],
      [
        "lı",
        -7.171771498975273
      ],
      [
        "st",
        -7.453845982365773
      ],
      [
        "lara",
        -6.088226839202348
      ],
      [
        "mistir",
        -7.126474716936368
      ],
      [
        "▁tesekkurler",
        -8.49352664196633
      ],
      [
        "▁gelmis",
        -7.341935989440993
      ],
      [
        "▁yuksekti",
        -7.493226538893931
      ],
      [
        "▁2",
        -8.539880603223224
      ],
      [
        "6",
        -8.559305869979548
      ],
      [
        "▁kultur",
        -8.911520757976831
      ],
      [
        "▁imkan",
        -8.78287956579701
      ],
      [
        "ve",
        -7.9459833954053565
      ],
      [
        "amaz",
        -7.154730621646129
      ],
      [
        "▁gormek",
        -8.637371919417074
      ],
      [
        "▁yag",
        -8.821429509433102
      ],
      [
        "▁temmuz'da",
        -7.1520440770625395
      ],
      [
        "lugu",
        -7.674978099217801
      ],
      [
        "▁hic",
        -9.242439273421194
      ],
      [
        "▁st",
        -5.766618818790404
      ],
      [
        "▁as",
        -7.9774576896839235
      ],
      [
        "fede",
        -7.174599714292582
      ],
      [
        "▁yoneticileri",
        -8.96506247283475
      ],
      [
        "▁gurultu",
        -8.953537624706769
      ],
      [
        "▁eylul",
        -7.394419531915343
      ],
      [
        "▁yemegi",
        -8.220065552689796
      ],
      [
        "▁izin",
        -8.214335941634506
      ],
      [
        "▁merkezi",
        -8.115048985074644
      ],
      [
        "4",
        -12.802702672349787
      ],
      [
        "▁sonu",
        -9.065469111129305
      ],
      [
        "▁aynı",
        -5.639034292821123
      ],
      [
        "▁",
        -0.7087938101118976
      ],
      [
        "▁yerinde",
        -8.234066027005106
      ],
      [
        "▁yanında",
        -8.65270997824419
      ],
      [
        "▁getirdi",
        -7.616702195727266
      ],
      [
        "yıp",
        -8.031385962103549
      ],
      [
        "▁kaybetti",
        -8.020423852280736
      ],
      [
        "▁guvenlik",
        -8.823162211600193
      ],
      [
        "▁han",
        -9.027694436290492
      ],
      [
        "l",
        -5.477768339298197
      ],
      [
        "▁200",
        -6.130752197523192
      ],
      [
        "▁adamları",
        -8.87638357931822
      ],
      [
        "▁liste",
        -8.63574825313622
      ],
      [
        "▁havaalanında",
        -9.276282094751782
      ],
      [
        "▁kalmıs",
        -7.98930061934699
      ],
      [
        "▁mut",
        -6.86000198530958
      ],
      [
        "▁test",
        -8.376955025523406
      ],
      [
        "▁yedi",
        -5.3484134847842775
      ],
      [
        "gim",
        -7.898860368697099
      ],
      [
        "uyordu",
        -7.550734935848448
      ],
      [
        "▁ediyor",
        -5.628755451911132
      ],
      [
        "▁te",
        -8.059775422487665
      ],
      [
        "▁cok",
        -2.7145552025289366
      ],
      [
        "in",
        -5.215628805993766
      ],
      [
        "et",
        -7.3339266933904135
      ],
      [
        "-",
        -5.222901331865919
      ],
      [
        "▁kadar",
        -2.999792704414248
      ],
      [
        "▁hal",
        -8.006565396306218
      ],
      [
        "udur",
        -7.374474651075438
      ],
      [
        "▁yel",
        -9.135974466177723
      ],
      [
        "▁anda",
        -7.445487225501691
      ],
      [
        "▁tahviller",
        -8.452885463521051
      ],
      [
        "az",
        -7.193482929552111
      ],
      [
        "gerek",
        -11.723165890820209
      ],
      [
        "▁an",
        -7.159761114053557
      ],
      [
        "▁1",
        -7.9935184399359045
      ],
      [
        "▁aileler",
        -7.369626967330246
      ],
      [
        "▁oldugu",
        -6.555164051062155
      ],
      [
        "▁kalmadi",
        -6.6624006496479655
      ],
      [
        "▁geciyor",
        -7.7239117338181345
      ],
      [
        "lan",
        -7.701489567941591
      ],
      [
        "▁to",
        -8.41944362619186
      ],
      [
        "▁gosteriyor",
        -7.443828602836216
      ],
      [
        "▁ogrenme",
        -9.115045651162538
      ],
      [
        "▁bilim",
        -7.823055364155413
      ],
      [
        "▁so",
        -8.875551046507395
      ],
      [
        "lerin",
        -5.707843220726737
      ],
      [
        "▁ediyoru",
        -7.289634823385363
      ],
      [
        "▁sup",
        -7.39327325865813
      ],
      [
        "▁proje",
        -8.275990776937038
      ],
      [
        "▁ustunde",
        -7.939129862079925
      ],
      [
        "▁hayatta",
        -9.157709245751938
      ],
      [
        "▁kosullar",
        -9.279926245917807
      ],
      [
        "ler",
        -7.897378461101891
      ],
      [
        "▁hacim",
        -8.76682422025193
      ],
      [
        "▁sen",
        -4.319077519014068
      ],
      [
        "dıkları",
        -9.119238107486053
      ],
      [
        "▁arastırma",
        -8.482698920007923
      ],
      [
        "▁politika",
        -7.941015329796584
      ],
      [
        "▁bul",
        -8.341553095667717
      ],
      [
        "▁televizyon",
        -8.537826013257831
      ],
      [
        "▁hava",
        -7.279715746937222
      ],
      [
        "&",
        -7.467592664439693
      ],
      [
        "▁yetkilileri",
        -8.28543967364623
      ],
      [
        "▁hisseleri",
        -7.931710495568721
      ],
      [
        "▁herkesin",
        -9.028016792228069
      ],
      [
        "▁al",
        -7.795260645787722
      ],
      [
        "▁it",
        -6.245885699482855
      ],
      [
        "▁gider",
        -7.519228868430322
      ],
      [
        "▁sahibi",
        -8.139396208096773
      ],
      [
        "▁havayollarını",
        -8.760225216901649
      ],
      [
        "▁olmaz",
        -7.167558397221924
      ],
      [
        "▁gunah",
        -9.167884300883571
      ],
      [
        "▁pazarı",
        -9.27523890155691
      ],
      [
        "maz",
        -7.054987964716516
      ],
      [
        "▁carsamba",
        -5.641789510401653
      ],
      [
        "▁deney",
        -9.150857831772772
      ],
      [
        "▁bıcak",
        -9.237776142460534
      ],
      [
        "▁tam",
        -6.196690295557846
      ],
      [
        "▁basında",
        -7.645553648888793
      ],
      [
        "▁actı",
        -6.946085594628516
      ],
      [
        "bası",
        -8.799278101600494
      ],
      [
        "▁kazandı",
        -7.2538733009845595
      ],
      [
        "▁gazeteci",
        -9.153125670220152
      ],
      [
        "▁bardagı",
        -9.085682496538046
      ],
      [
        "▁insa",
        -8.808720175347844
      ],
      [
        "▁cık",
        -7.133831259452897
      ],
      [
        "▁tut",
        -7.103699048508046
      ],
      [
        "▁genis",
        -6.390623316225844
      ],
      [
        "▁paha",
        -7.543886575885302
      ],
      [
        "▁hızl",
        -7.11019560827324
      ],
      [
        "▁evlerin",
        -9.199453813382572
      ],
      [
        "▁varan",
        -6.419116016399142
      ],
      [
        "▁gecir",
        -8.071277663634248
      ],
      [
        "▁houston'da",
        -7.452939634644913
      ],
      [
        "▁hanim",
        -7.33258511945737
      ],
      [
        "▁kendilerini",
        -5.975809907058947
      ],
      [
        "▁yiyecekler",
        -8.602773030143483
      ],
      [
        "5'",
        -8.940602965195948
      ],
      [
        "▁erken",
        -6.118897358076235
      ],
      [
        "▁etrafı",
        -9.163358738725824
      ],
      [
        "▁cep",
        -8.880934783202896
      ],
      [
        "▁yapmadı",
        -8.09102929740633
      ],
      [
        "▁belir",
        -9.00553335491078
      ],
      [
        "▁sacları",
        -8.627744470031466
      ],
      [
        "▁aile",
        -7.166158961289618
      ],
      [
        "▁talep",
        -8.276022183180848
      ],
      [
        "▁uzakt",
        -8.0944711193735
      ],
      [
        "▁sag",
        -8.159775245814801
      ],
      [
        "▁oy",
        -7.989776665821446
      ],
      [
        "▁bu",
        -7.374577612377099
      ],
      [
        "▁ka",
        -7.660450375569744
      ],
      [
        "▁donemde",
        -8.723918542809393
      ],
      [
        "▁?",
        -9.528807987385584
      ],
      [
        "▁siparis",
        -8.68406909603177
      ],
      [
        "mekte",
        -7.881639351950346
      ],
      [
        "aklı",
        -7.776455973658887
      ],
      [
        "▁milli",
        -6.881432315056266
      ],
      [
        "le",
        -7.2319893104787205
      ],
      [
        "▁kahve",
        -7.6905355966778535
      ],
      [
        "▁ote",
        -8.702898349399746
      ],
      [
        "▁odalar",
        -8.045463875664097
      ],
      [
        "▁gelin",
        -9.039343277420384
      ],
      [
        "▁aklım",
        -9.136951738122463
      ],
      [
        "▁kopru",
        -8.836909175585768
      ],
      [
        "▁ki",
        -8.70913119721381
      ],
      [
        "▁suyu",
        -8.41561817547532
      ],
      [
        "▁ilgilenmedi",
        -7.884475140398585
      ],
      [
        "▁temel",
        -9.017611840157226
      ],
      [
        "▁sev",
        -9.025527456796661
      ],
      [
        "▁gorunuyor",
        -7.4224956947497684
      ],
      [
        "ki",
        -4.243667018720036
      ],
      [
        "lıgı",
        -6.995295901641856
      ],
      [
        "▁tu",
        -3.938386220041247
      ],
      [
        "▁esi",
        -8.99266015017786
      ],
      [
        "▁karsiladi",
        -8.020423771836255
      ],
      [
        "oysa",
        -10.862622396443756
      ],
      [
        "▁gordu",
        -6.562571279504344
      ],
      [
        "▁bakın",
        -8.100605837091344
      ],
      [
        "gi",
        -6.922184583827161
      ],
      [
        "at",
        -6.347732643039963
      ],
      [
        "bilecegini",
        -8.831706823949759
      ],
      [
        "▁kalite",
        -7.652286019940348
      ],
      [
        "▁goz",
        -7.0150202329835025
      ],
      [
        "▁gerekir",
        -7.705429791453389
      ],
      [
        "▁yapar",
        -7.516474856185284
      ],
      [
        "▁las",
        -6.378821391878455
      ],
      [
        "▁yapil",
        -8.089569695231289
      ],
      [
        "▁b",
        -7.1790279934012275
      ],
      [
        "v",
        -14.014958445102625
      ],
      [
        "r",
        -5.636852872095091
      ],
      [
        "yı",
        -5.85498566687482
      ],
      [
        "▁twa",
        -7.448518005463473
      ],
      [
        "u",
        -7.007500087809162
      ],
      [
        "▁ayak",
        -8.258062536200597
      ],
      [
        "j",
        -7.860234300391138
      ],
      [
        "▁bugun",
        -7.690856160753175
      ],
      [
        "▁beklenti",
        -8.590095686939982
      ],
      [
        "▁odedigim",
        -6.710237212953605
      ],
      [
        "sunu",
        -7.736077907063988
      ],
      [
        "▁yeni",
        -5.517189378335924
      ],
      [
        "▁mer",
        -8.468081829383555
      ],
      [
        "▁gosterge",
        -9.238060240613528
      ],
      [
        "ıntı",
        -9.120986829331363
      ],
      [
        "ca",
        -6.822960096147539
      ],
      [
        "▁beraber",
        -6.830449956414693
      ],
      [
        "nce",
        -6.808974596992564
      ],
      [
        "lendirme",
        -8.65264321479412
      ],
      [
        "sun",
        -6.166589246026901
      ],
      [
        "miyor",
        -7.178507051513511
      ],
      [
        "▁muzakere",
        -9.184432784421611
      ],
      [
        "olumlu",
        -7.8683350609962766
      ],
      [
        "▁ilgili",
        -5.426669002869345
      ],
      [
        "▁finans",
        -7.785608098361208
      ],
      [
        "ve",
        -5.575675023950563
      ],
      [
        "yle",
        -6.293244902715194
      ],
      [
        "▁dusunmuyor",
        -7.991815649131459
      ],
      [
        "▁kez",
        -7.60141011823315
      ],
      [
        "▁vur",
        -8.739445912834631
      ],
      [
        "▁ekmek",
        -8.276728176742061
      ],
      [
        "▁buyuk",
        -4.66891181327941
      ],
      [
        "▁yapma",
        -7.883864508205909
      ],
      [
        "emez",
        -7.693083838934779
      ],
      [
        "▁yapmaya",
        -9.105822414043931
      ],
      [
        "▁cesitleri",
        -9.182209252663359
      ],
      [
        "▁kahvaltı",
        -9.1844327851353
      ],
      [
        "▁basın",
        -7.191810982786792
      ],
      [
        "▁mahalle",
        -8.668446623289116
      ],
      [
        "▁nisan",
        -8.995651994963048
      ],
      [
        "▁29",
        -6.422469476374212
      ],
      [
        "▁uzakta",
        -9.039793629141162
      ],
      [
        "▁anlattı",
        -7.673383799591574
      ],
      [
        "▁bey",
        -6.191657274360547
      ],
      [
        "▁aday",
        -8.773495321008625
      ],
      [
        "'e",
        -5.751907559199849
      ],
      [
        "▁a",
        -11.666990925470232
      ],
      [
        "maya",
        -6.310438678772883
      ],
      [
        "e",
        -3.9469061176939926
      ],
      [
        "▁kal",
        -7.293624176935178
      ],
      [
        "▁hos",
        -7.456506739129357
      ],
      [
        "c",
        -7.5862404107172114
      ],
      [
        "▁orta",
        -7.882389330582674
      ],
      [
        "▁dergi",
        -8.341114624344643
      ],
      [
        "▁as",
        -7.982114698353285
      ],
      [
        "▁olmus",
        -7.034365256963971
      ],
      [
        "▁arkasında",
        -8.797761477412537
      ],
      [
        "▁veriri",
        -7.049008130012812
      ],
      [
        "▁yol",
        -6.7559456763970065
      ],
      [
        "▁hukumet",
        -7.879232898213697
      ],
      [
        "▁yasadı",
        -8.008898561057688
      ],
      [
        "▁vatan",
        -9.085421037887544
      ],
      [
        "▁sayı",
        -7.898215512671116
      ],
      [
        "▁kal",
        -7.840914947774618
      ],
      [
        "▁neden",
        -5.802656505533223
      ],
      [
        "malıdır",
        -8.068200342471094
      ],
      [
        "▁deri",
        -8.942425034852207
      ],
      [
        "▁teklif",
        -7.457344510435918
      ],
      [
        "n",
        -5.745614067840431
      ],
      [
        "▁tanık",
        -9.071953855956071
      ],
      [
        "▁satın",
        -7.396054974063144
      ],
      [
        "▁t",
        -7.3373380922148375
      ],
      [
        "▁burada",
        -5.999819427533163
      ],
      [
        "▁annesi",
        -8.849404168180289
      ],
      [
        "meye",
        -7.783807652790883
      ],
      [
        "iyordu",
        -6.860034495942726
      ],
      [
        "f",
        -7.405868900941825
      ],
      [
        "▁bunlarda",
        -6.246440461648687
      ],
      [
        "yin",
        -7.7743295831337464
      ],
      [
        "▁derece",
        -7.831622361792162
      ],
      [
        "▁bolumu",
        -8.969645665038497
      ],
      [
        "▁gorus",
        -8.462040247086406
      ],
      [
        "▁gec",
        -6.6891732358273925
      ],
      [
        "▁tarafında",
        -7.4076717897886155
      ],
      [
        "iy",
        -7.061574036687148
      ],
      [
        "▁donuyor",
        -7.824949977258598
      ],
      [
        "▁istedi",
        -7.261650360695219
      ],
      [
        "▁kusur",
        -8.842689897335596
      ],
      [
        "i",
        -5.1748346016730125
      ],
      [
        "▁okudu",
        -8.070645457773207
      ],
      [
        "▁gelecek",
        -6.9285811879226005
      ],
      [
        "/",
        -11.25927492062213
      ],
      [
        "maktadır",
        -6.597242818699089
      ],
      [
        "▁sa",
        -7.533453171507167
      ],
      [
        "le",
        -6.583884578116384
      ],
      [
        "iydi",
        -7.457789464584331
      ],
      [
        "unlu",
        -7.590970635454276
      ],
      [
        "▁oze",
        -5.742770299722372
      ],
      [
        "▁sev",
        -7.866848434354087
      ],
      [
        "dıgını",
        -7.531363838102516
      ],
      [
        "s",
        -3.5806418659215655
      ],
      [
        "iz",
        -5.780786808737579
      ],
      [
        "▁dava",
        -7.332121610820996
      ],
      [
        "▁girer",
        -8.08580220197018
      ],
      [
        "▁23",
        -6.3598901647095225
      ],
      [
        "…",
        -11.802702672349788
      ],
      [
        "▁calı",
        -8.806749097901312
      ],
      [
        "▁ayakta",
        -9.00063664773717
      ],
      [
        "▁ucu",
        -5.928380103362834
      ],
      [
        "▁de",
        -7.3610422359890055
      ],
      [
        "▁ucusların",
        -8.702387862060267
      ],
      [
        "▁a",
        -6.420591604824666
      ],
      [
        "u",
        -6.859988844358753
      ],
      [
        "▁makine",
        -8.186034436311516
      ],
      [
        "▁dallas'",
        -6.042981517141733
      ],
      [
        "▁yaptıgı",
        -7.892483926859915
      ],
      [
        "bi",
        -7.635688365991328
      ],
      [
        "▁yıldız",
        -8.836922310040888
      ],
      [
        "ize",
        -8.695382764880215
      ],
      [
        "la",
        -6.087479352776021
      ],
      [
        "kalan",
        -7.8084711921595975
      ],
      [
        "▁co",
        -9.039477571792052
      ],
      [
        "▁turk",
        -6.290660515108477
      ],
      [
        "▁",
        -3.974334445434782
      ],
      [
        "mesi",
        -6.687189361268551
      ],
      [
        "▁eski",
        -5.743149156840834
      ],
      [
        "▁vurdu",
        -8.02598235857543
      ],
      [
        "▁kalın",
        -7.857673845133262
      ],
      [
        "ini",
        -6.190612021855555
      ],
      [
        "▁dur",
        -9.111472022848497
      ],
      [
        "c",
        -4.705204350413797
      ],
      [
        "▁sorunu",
        -8.221384715857418
      ],
      [
        "▁itibari",
        -9.211665233429269
      ],
      [
        "▁tek",
        -5.245257206535452
      ],
      [
        "▁polis",
        -8.386734132704479
      ],
      [
        "du",
        -7.241565201592455
      ],
      [
        "▁muke",
        -6.726077281485869
      ],
      [
        "gel",
        -7.946391005262725
      ],
      [
        "▁3",
        -8.728364210287182
      ],
      [
        "larını",
        -5.7073107403909535
      ],
      [
        "lık",
        -6.4765119369027495
      ],
      [
        "▁gec",
        -7.33005100813819
      ],
      [
        "▁dc'de",
        -7.184565798167017
      ],
      [
        "▁h",
        -7.308813907456981
      ],
      [
        "▁ulke",
        -7.739514780959663
      ],
      [
        "▁etme",
        -7.77969284402397
      ],
      [
        "▁airlines",
        -6.471406306871525
      ],
      [
        "▁yasama",
        -9.02669774568979
      ],
      [
        "▁ilce",
        -9.240968897800993
      ],
      [
        "ik",
        -6.229394633051656
      ],
      [
        "un",
        -6.350571138778809
      ],
      [
        "▁de",
        -2.1420817504035963
      ],
      [
        "erek",
        -4.620556824828748
      ],
      [
        "acagım",
        -7.856523502904178
      ],
      [
        "▁iliskiler",
        -9.242670438250721
      ],
      [
        "▁kopek",
        -8.637909878931506
      ],
      [
        "▁gelen",
        -6.419705948821233
      ],
      [
        ",",
        -7.003706735794483
      ],
      [
        "▁adet",
        -7.972189129014149
      ],
      [
        "▁6'da",
        -9.040684180755418
      ],
      [
        "▁yapmıs",
        -8.092179687870397
      ],
      [
        "▁du",
        -3.325300845033725
      ],
      [
        "▁ustu",
        -8.269791036819706
      ],
      [
        "digi",
        -7.149218745751681
      ],
      [
        "▁keskin",
        -7.6564117203846145
      ],
      [
        "▁guleryuzluydu",
        -7.543874085415274
      ],
      [
        "dı",
        -7.7335860530789216
      ],
      [
        "▁hazır",
        -7.172212386869996
      ],
      [
        "▁deli",
        -7.735746243304163
      ],
      [
        "u",
        -6.328937242903749
      ],
      [
        "▁uc",
        -3.768878928525731
      ],
      [
        "▁sef",
        -8.91831401496718
      ],
      [
        "▁yapacak",
        -7.563194361098923
      ],
      [
        "▁ucu",
        -8.273504952277463
      ],
      [
        "▁herkes",
        -7.998984443599797
      ],
      [
        "▁gerekiyor",
        -7.23860932086348
      ],
      [
        "si",
        -5.109432440690228
      ],
      [
        "▁yan",
        -6.841621921503299
      ],
      [
        "d",
        -2.8362636927302933
      ],
      [
        ";",
        -5.873728944142089
      ],
      [
        "▁veriyor",
        -6.931819827512156
      ],
      [
        "▁piyasada",
        -9.075641606379179
      ],
      [
        "▁gorusuldu",
        -5.6858929814905395
      ],
      [
        "▁york'ta",
        -6.531463418408719
      ],
      [
        "mıstı",
        -6.02665893932749
      ],
      [
        "▁ne",
        -5.102818083154211
      ],
      [
        "▁fazla",
        -5.6164715170281285
      ],
      [
        "▁gelis",
        -7.892636775431976
      ],
      [
        "▁da",
        -6.4410868306485405
      ],
      [
        "mak",
        -6.577628642714442
      ],
      [
        "c",
        -4.279370353650242
      ],
      [
        "bu",
        -5.9800526379311565
      ],
      [
        "▁salata",
        -9.23800295863112
      ],
      [
        "▁yapa",
        -6.727293164757386
      ],
      [
        "▁begenmedi",
        -7.132388073058135
      ],
      [
        "▁kisi",
        -6.944181543002639
      ],
      [
        "▁vade",
        -8.745680466121406
      ],
      [
        "▁dolay",
        -4.747145240580062
      ],
      [
        "▁ha",
        -6.19103839345896
      ],
      [
        "▁`",
        -10.557597422589598
      ],
      [
        "mesini",
        -7.708997528672882
      ],
      [
        "la",
        -5.34346133651821
      ],
      [
        "h",
        -6.555355766760138
      ],
      [
        "▁merkezin",
        -8.600576007573391
      ],
      [
        "▁kuru",
        -8.832781994742987
      ],
      [
        "▁demek",
        -7.719360729703399
      ],
      [
        "▁calısan",
        -7.885002160875033
      ],
      [
        "le",
        -9.080439678678806
      ],
      [
        "▁canlı",
        -9.246052834912973
      ],
      [
        "▁aracı",
        -8.615625299311198
      ],
      [
        "▁yak",
        -8.12052216939461
      ],
      [
        "▁fiyatin",
        -8.780618017897796
      ],
      [
        "l",
        -8.749613634584774
      ],
      [
        "▁merkez",
        -7.5478547937971845
      ],
      [
        "▁gun",
        -6.126458840101926
      ],
      [
        "nde",
        -7.227258361320836
      ],
      [
        "▁gerek",
        -8.144007580230529
      ],
      [
        "▁gunleri",
        -8.675447701639182
      ],
      [
        "▁edebiyat",
        -8.637907765507716
      ],
      [
        "▁insaat",
        -8.499906909229288
      ],
      [
        "▁alabilir",
        -7.849201938218147
      ],
      [
        "madı",
        -7.036652714254283
      ],
      [
        "▁kap",
        -8.025308046372942
      ],
      [
        "▁konusma",
        -7.984870628949924
      ],
      [
        "▁baltimore",
        -7.055212171793511
      ],
      [
        "az",
        -6.531221546471877
      ],
      [
        "▁uzerin",
        -7.8055568959229795
      ],
      [
        "▁egitim",
        -8.185930873672504
      ],
      [
        "yan",
        -7.229692074593494
      ],
      [
        "▁guzeldi",
        -4.630986174993107
      ],
      [
        "▁ca",
        -8.064137103002135
      ],
      [
        "▁bazı",
        -7.170405847808098
      ],
      [
        "f",
        -6.105801925130544
      ],
      [
        "ımızda",
        -9.182448287531633
      ],
      [
        "▁gok",
        -8.933303167239398
      ],
      [
        "▁oyunu",
        -9.133136802551583
      ],
      [
        "or",
        -7.122123359562429
      ],
      [
        "▁sonra",
        -4.483960125414106
      ],
      [
        "▁sekilde",
        -6.9343255899499665
      ],
      [
        "r",
        -3.585362620231244
      ],
      [
        "im",
        -7.477502352604834
      ],
      [
        "s",
        -11.802702672349788
      ],
      [
        "aki",
        -9.842291196683833
      ],
      [
        "▁yazma",
        -9.237037384920898
      ],
      [
        "▁tesvik",
        -8.874290861386388
      ],
      [
        "▁hoca",
        -8.363479068783025
      ],
      [
        "▁gidi",
        -7.3582983947074405
      ],
      [
        "▁kursun",
        -9.242619530196096
      ],
      [
        "▁g",
        -5.746819020120408
      ],
      [
        "▁oldugu",
        -6.395401728899352
      ],
      [
        "m",
        -12.802702672349787
      ],
      [
        "▁mah",
        -8.83167741761401
      ],
      [
        "▁bag",
        -6.938669487535157
      ],
      [
        "▁yatırımcılar",
        -8.248134419848348
      ],
      [
        "um",
        -7.856672001906384
      ],
      [
        "▁bil",
        -8.747672660345632
      ],
      [
        "▁basını",
        -8.258267193019861
      ],
      [
        "n",
        -5.575916566983608
      ],
      [
        "▁kotu",
        -6.126470262783285
      ],
      [
        "▁urun",
        -8.664135397417574
      ],
      [
        "▁haber",
        -7.719135992083562
      ],
      [
        "▁kapı",
        -7.045212487440587
      ],
      [
        "▁yas",
        -7.570529837301062
      ],
      [
        "▁aralık",
        -8.762239315818604
      ],
      [
        "▁hemen",
        -5.2483253520340405
      ],
      [
        "▁sorunları",
        -8.647062666023192
      ],
      [
        "▁gorustu",
        -7.9020892297624155
      ],
      [
        "tur",
        -8.75190539394919
      ],
      [
        "▁karıs",
        -9.052026800897522
      ],
      [
        "▁i",
        -7.695737983531465
      ],
      [
        "▁dolar",
        -6.984154267666
      ],
      [
        "▁muduru",
        -8.738733809442454
      ],
      [
        "▁sac",
        -8.805421454736628
      ],
      [
        "du",
        -4.6557277026396555
      ],
      [
        "an",
        -5.66789666292679
      ],
      [
        "▁sair",
        -8.801751691775642
      ],
      [
        "ya",
        -7.426087363733705
      ],
      [
        "▁yıl",
        -6.255535948261343
      ],
      [
        "▁koyun",
        -8.688811955724837
      ],
      [
        "▁siddet",
        -9.18443337766713
      ],
      [
        "▁etti",
        -5.244491546802552
      ],
      [
        "▁5",
        -9.017424572311805
      ],
      [
        "4'",
        -8.969202812498201
      ],
      [
        "▁kardesim",
        -9.092843218399368
      ],
      [
        "▁yukarı",
        -7.710122915547684
      ],
      [
        "asla",
        -7.040142036828939
      ],
      [
        "▁ticaret",
        -7.990683195482985
      ],
      [
        "▁kimi",
        -5.800937397148718
      ],
      [
        "zu",
        -8.859242285504228
      ],
      [
        "▁iz",
        -8.378753166033446
      ],
      [
        "▁kalıyor",
        -8.113316475280968
      ],
      [
        "▁ara",
        -7.473880150615125
      ],
      [
        "ilen",
        -7.616782409815673
      ],
      [
        "dar",
        -8.898133881054466
      ],
      [
        "▁ol",
        -6.906079594147441
      ],
      [
        "▁satıs",
        -7.570200307478788
      ],
      [
        "yen",
        -6.952143961502724
      ],
      [
        "▁faturam",
        -8.395516010479902
      ],
      [
        "▁beyaz",
        -6.445986541168557
      ],
      [
        "▁senetleri",
        -8.698775345021087
      ],
      [
        "▁acıklama",
        -8.701599473841725
      ],
      [
        "▁corp.",
        -6.479253463719356
      ],
      [
        "▁c",
        -6.576893166464726
      ],
      [
        "▁saf",
        -9.11324896491435
      ],
      [
        "▁cabuk",
        -7.40249017050742
      ],
      [
        "nuz",
        -7.61580098631229
      ],
      [
        "pa",
        -8.061339486445434
      ],
      [
        "▁uyku",
        -8.54333352259967
      ],
      [
        "9",
        -12.802702672349787
      ],
      [
        "▁herif",
        -9.017391010669245
      ],
      [
        "▁sut",
        -8.57709855689544
      ],
      [
        "▁kırmızı",
        -6.990133074696115
      ],
      [
        "▁kok",
        -9.107472215666995
      ],
      [
        "▁belediye",
        -8.818722760988077
      ],
      [
        "▁camasır",
        -9.10940864001229
      ],
      [
        "umu",
        -8.527436914689929
      ],
      [
        "len",
        -7.481382416262916
      ],
      [
        "▁2",
        -4.210742886992677
      ],
      [
        "larımızı",
        -8.55026986935729
      ],
      [
        "▁yapılacak",
        -8.07005447656604
      ],
      [
        "▁sistemi",
        -8.544468458504346
      ],
      [
        "▁kontrol",
        -8.185933144044473
      ],
      [
        "▁ala",
        -8.750052283880837
      ],
      [
        "▁jones",
        -6.852757218122895
      ],
      [
        "is",
        -9.889831758065933
      ],
      [
        "um",
        -7.115616408515032
      ],
      [
        "▁o",
        -7.333281361165727
      ],
      [
        "▁gelistirme",
        -9.085598370075532
      ],
      [
        "urekli",
        -6.170784925687602
      ],
      [
        "$",
        -7.511459065044036
      ],
      [
        "▁geldi",
        -5.631918754780271
      ],
      [
        "sizligi",
        -8.940442613533685
      ],
      [
        "▁elektrik",
        -8.668443894159804
      ],
      [
        "gimiz",
        -7.94985572875908
      ],
      [
        "i",
        -3.7820737249274696
      ],
      [
        "▁karısı",
        -8.624253047491216
      ],
      [
        "▁ihtiyacım",
        -7.589894257033215
      ],
      [
        "ya",
        -6.624486546172473
      ],
      [
        "▁pat",
        -8.827477309398573
      ],
      [
        "iyor",
        -6.144043743031416
      ],
      [
        "▁artar",
        -6.100708116629359
      ],
      [
        "tir",
        -7.867418083364435
      ],
      [
        "▁sinema",
        -9.04109762030821
      ],
      [
        "ma",
        -7.210875628337654
      ],
      [
        "▁ilgili",
        -9.252489540990508
      ],
      [
        "ye",
        -4.548685384227771
      ],
      [
        "luk",
        -7.226771119866721
      ],
      [
        "▁sa",
        -8.491485078566392
      ],
      [
        "▁koy",
        -7.809666880569189
      ],
      [
        "▁mola",
        -9.003402995144327
      ],
      [
        "▁korku",
        -8.494357416941966
      ],
      [
        "p",
        -6.305688863920394
      ],
      [
        "sinde",
        -6.726026165697694
      ],
      [
        "k",
        -3.6843136976939315
      ],
      [
        "eyim",
        -7.678473325730465
      ],
      [
        "▁otele",
        -9.23541388016689
      ],
      [
        "▁kalabalık",
        -9.265554251957175
      ],
      [
        "▁seviyesin",
        -8.510794453093183
      ],
      [
        "▁ne",
        -6.301448313353805
      ],
      [
        "▁bolge",
        -7.963039993558449
      ],
      [
        "▁sak",
        -8.931598880006453
      ],
      [
        "▁kampanya",
        -9.15410418039165
      ],
      [
        "▁ses",
        -7.752155795521833
      ],
      [
        "▁yeri",
        -8.780285937916616
      ],
      [
        "▁rakamlar",
        -9.230466862278705
      ],
      [
        "▁endustri",
        -8.363474897029285
      ],
      [
        "▁giriste",
        -8.95705013391546
      ],
      [
        "▁gor",
        -8.11460911858006
      ],
      [
        "▁y",
        -8.402677086191826
      ],
      [
        "▁madde",
        -8.11217360715342
      ],
      [
        "mayı",
        -8.400247177097274
      ],
      [
        "▁di",
        -4.275857339641559
      ],
      [
        "▁yazı",
        -7.489090416661418
      ],
      [
        "mel",
        -6.5448932128044115
      ],
      [
        "f",
        -7.4132971476116705
      ],
      [
        "malı",
        -7.207067129353745
      ],
      [
        "▁yasa",
        -7.897834886019571
      ],
      [
        "▁met",
        -8.899037701603312
      ],
      [
        "▁doneminde",
        -9.12263161323021
      ],
      [
        "▁otel",
        -6.622368130732603
      ],
      [
        "▁uzere",
        -5.048386226996949
      ],
      [
        "▁suc",
        -8.417426485506745
      ],
      [
        "▁gerceklestir",
        -8.107262171759585
      ],
      [
        "▁ailesi",
        -8.915922646153582
      ],
      [
        "▁9",
        -5.778083511879296
      ],
      [
        "yacak",
        -7.885185747428374
      ],
      [
        "▁gormedi",
        -7.322160367317579
      ],
      [
        "▁lynch",
        -7.514546062729352
      ],
      [
        "ildi",
        -7.359700515877719
      ],
      [
        "▁neyi",
        -6.486325428348719
      ],
      [
        "um",
        -7.390982499019929
      ],
      [
        "imle",
        -6.45089307209828
      ],
      [
        "▁baz",
        -6.262548399340187
      ],
      [
        "he",
        -8.388424268692683
      ],
      [
        "c",
        -4.254761954954862
      ],
      [
        "▁be",
        -7.50502265943056
      ],
      [
        "▁biz",
        -3.7492545438091245
      ],
      [
        "leri",
        -6.24116818408501
      ],
      [
        "▁cil",
        -8.849318911459761
      ],
      [
        "go",
        -8.668538823653332
      ],
      [
        "▁ydu",
        -5.652411369949245
      ],
      [
        "sal",
        -7.188944956305012
      ],
      [
        "la",
        -6.132318751279013
      ],
      [
        "lerde",
        -6.863545878713247
      ],
      [
        "lemek",
        -8.461011517180818
      ],
      [
        "▁komisyonlar",
        -9.285042121196643
      ],
      [
        "▁nedeni",
        -8.353137697183765
      ],
      [
        "▁istiyor",
        -7.1765149799908
      ],
      [
        "▁havuzlar",
        -8.931045614448788
      ],
      [
        "▁sahil",
        -9.071765578576338
      ],
      [
        "▁firs",
        -8.375245250689591
      ],
      [
        "▁mı",
        -3.073600583083266
      ],
      [
        "▁listele",
        -6.391265677579597
      ],
      [
        "▁japon",
        -7.597509065116794
      ],
      [
        "ten",
        -6.553232975528684
      ],
      [
        "▁kullanıl",
        -7.66743683203091
      ],
      [
        "▁duman",
        -8.783671386647182
      ],
      [
        "▁onlar",
        -4.15628502075879
      ],
      [
        "▁islem",
        -7.285386282186226
      ],
      [
        "mde",
        -8.479789624774064
      ],
      [
        "▁seker",
        -8.623584753417013
      ],
      [
        "al",
        -7.273703626204868
      ],
      [
        "▁aksamı",
        -8.6466799098704
      ],
      [
        "▁dusunuyoru",
        -8.069510144076716
      ],
      [
        "▁ekim",
        -8.916117434687447
      ],
      [
        "▁kol",
        -7.542504396822477
      ],
      [
        "▁bir",
        -1.2266873658587887
      ],
      [
        "▁soru",
        -8.149343270652665
      ],
      [
        "▁fil",
        -8.976824843978608
      ],
      [
        "ya",
        -3.9445221214366635
      ],
      [
        "nden",
        -7.28572533756409
      ],
      [
        "nız",
        -7.630489356036614
      ],
      [
        "▁fabrika",
        -8.329764194045104
      ],
      [
        "▁urunler",
        -9.053855222411888
      ],
      [
        "▁kisi",
        -7.256928909161822
      ],
      [
        "▁gecer",
        -7.885843349113296
      ],
      [
        "▁baz",
        -9.097686845543862
      ],
      [
        "▁sal",
        -8.393101086989983
      ],
      [
        "▁mis",
        -9.22401282547305
      ],
      [
        "▁yalnız",
        -5.438889735507824
      ],
      [
        "▁program",
        -8.058761814505687
      ],
      [
        "sa",
        -7.17472110376118
      ],
      [
        "▁ekibi",
        -8.7324811902774
      ],
      [
        "ce",
        -5.493483117133953
      ],
      [
        "▁abla",
        -8.97949900799331
      ],
      [
        "▁baz",
        -4.579867385347588
      ],
      [
        "▁seyin",
        -9.117802402083788
      ],
      [
        "▁mev",
        -6.718102217582478
      ],
      [
        "us",
        -7.129492147559895
      ],
      [
        "una",
        -7.9724090093514395
      ],
      [
        "▁toronto'da",
        -7.249878365729785
      ],
      [
        "▁orta",
        -6.335666513927517
      ],
      [
        "den",
        -5.2988320881581235
      ],
      [
        "—",
        -12.802702672349787
      ],
      [
        "mektedir",
        -6.655502536831175
      ],
      [
        "▁oldugum",
        -7.8136053884118395
      ],
      [
        "▁piyasası",
        -8.722191855975046
      ],
      [
        "tıp",
        -7.593361442092817
      ],
      [
        "▁bizde",
        -5.95228552226769
      ],
      [
        "a",
        -5.795873682798573
      ],
      [
        "▁yo",
        -5.081569992204334
      ],
      [
        "i",
        -3.0732711944739446
      ],
      [
        "▁baslangıc",
        -8.836904435817466
      ],
      [
        "▁dil",
        -7.628112871040733
      ],
      [
        "ki",
        -5.536838665843374
      ],
      [
        "▁toz",
        -9.178699791246125
      ],
      [
        "▁bagım",
        -7.793375336438741
      ],
      [
        "▁bilmiyoru",
        -7.529578978086748
      ],
      [
        "tı",
        -7.286754014926739
      ],
      [
        "▁cıkmıs",
        -7.782554533359185
      ],
      [
        "▁ver",
        -6.636893771376158
      ],
      [
        "dur",
        -7.228951821457967
      ],
      [
        "▁hayır",
        -8.87430823098856
      ],
      [
        "▁iceri",
        -8.033217702198717
      ],
      [
        "r",
        -2.7496375480404023
      ],
      [
        "▁ihracat",
        -9.067841809232995
      ],
      [
        "▁tesisin",
        -7.8586944245824375
      ],
      [
        "▁olu",
        -7.273312295580439
      ],
      [
        "▁gid",
        -7.611832682912436
      ],
      [
        "▁ler",
        -7.748374407484016
      ],
      [
        "▁city'",
        -6.654569013407105
      ],
      [
        "▁verile",
        -7.651983172581052
      ],
      [
        "dıgı",
        -6.991658992121112
      ],
      [
        "▁dogru",
        -7.603731796977202
      ],
      [
        "n",
        -3.2265408825251303
      ],
      [
        "▁sap",
        -8.658979174399223
      ],
      [
        "▁ah",
        -8.750882367660655
      ],
      [
        "▁ic",
        -7.744892378702672
      ],
      [
        "s",
        -5.438952982141783
      ],
      [
        "▁inc",
        -9.039842413567404
      ],
      [
        "▁gecirdi",
        -7.6939253071302485
      ],
      [
        "▁kur",
        -7.597087760804626
      ],
      [
        "ken",
        -7.064849599501561
      ],
      [
        "▁otobus",
        -9.184439035211971
      ],
      [
        "▁cent",
        -8.423559770728811
      ],
      [
        "ı",
        -11.802702672349788
      ],
      [
        "▁istemiyoru",
        -6.588760722246835
      ],
      [
        "▁saha",
        -8.666121821897075
      ],
      [
        "▁vardı",
        -5.6522736499368476
      ],
      [
        "▁birimi",
        -9.16504840086516
      ],
      [
        "lamaya",
        -9.072268912314314
      ],
      [
        "▁hukum",
        -8.973146115885012
      ],
      [
        "▁lo",
        -7.002746196832698
      ],
      [
        "yor",
        -8.85083639178367
      ],
      [
        "▁imkanlari",
        -8.33005427854583
      ],
      [
        "▁gelmedi",
        -7.951684112083364
      ],
      [
        "▁denver'de",
        -5.235049417651073
      ],
      [
        "▁sogu",
        -9.040630335923748
      ],
      [
        "tim",
        -9.216208916835878
      ],
      [
        "▁ayagı",
        -9.111350820429129
      ],
      [
        "▁yonetici",
        -9.199350525844205
      ],
      [
        "ak",
        -5.6150221036885055
      ],
      [
        "▁kızın",
        -9.217996409486238
      ],
      [
        "▁ları",
        -7.663888550713381
      ],
      [
        "▁yerde",
        -7.602506590309549
      ],
      [
        "▁1989",
        -5.896581170332743
      ],
      [
        "h",
        -5.467853488663264
      ],
      [
        "obur",
        -7.910016614482133
      ],
      [
        "▁",
        -3.32808512111051
      ],
      [
        "at",
        -6.814759355266659
      ],
      [
        "▁metre",
        -9.185653850094823
      ],
      [
        "▁yakın",
        -8.623037748176728
      ],
      [
        "▁ediliyor",
        -7.891656034002362
      ],
      [
        "▁uc",
        -8.719926880762216
      ],
      [
        "▁normal",
        -7.42396388138581
      ],
      [
        "▁fatura",
        -9.075329183572494
      ],
      [
        "▁elleri",
        -8.545256920295468
      ],
      [
        "▁mahkemesi",
        -9.147681174172533
      ],
      [
        "b",
        -7.787526154383432
      ],
      [
        "▁washington'",
        -7.460039270716376
      ],
      [
        "▁darbe",
        -8.874817040324377
      ],
      [
        "en",
        -3.7741492745105623
      ],
      [
        "▁memur",
        -8.434679523331665
      ],
      [
        "▁hayatın",
        -8.78639839876205
      ],
      [
        "me",
        -6.409316492332664
      ],
      [
        "[PAD]",
        0.0
      ],
      [
        "gun",
        -7.101013711484714
      ],
      [
        "sına",
        -6.611219682934075
      ],
      [
        "▁fark",
        -8.00511627382875
      ],
      [
        "▁cevap",
        -8.103315088366745
      ],
      [
        "man",
        -7.351716089765118
      ],
      [
        "▁babam",
        -8.089287571565864
      ],
      [
        "▁c",
        -7.381905891970467
      ],
      [
        "d",
        -5.721200899562443
      ],
      [
        "▁kongre",
        -8.766081313591656
      ],
      [
        ",",
        -2.0671440808479016
      ],
      [
        "▁tarih",
        -7.922161836148918
      ],
      [
        "ınca",
        -7.947628324505813
      ],
      [
        "lari",
        -8.749640307518618
      ],
      [
        "▁fena",
        -6.968289593173502
      ],
      [
        "▁personelleri",
        -7.208005258337625
      ],
      [
        "sizlik",
        -8.037337177046904
      ],
      [
        "ayan",
        -7.56860936791003
      ],
      [
        "▁eylul",
        -8.653059280096887
      ],
      [
        "▁musteriler",
        -9.029798923450041
      ],
      [
        "ah",
        -7.906874148587283
      ],
      [
        "▁ikinci",
        -5.434783497462611
      ],
      [
        "▁mini",
        -7.586700161277122
      ],
      [
        "b",
        -2.357610727034924
      ],
      [
        "ta",
        -7.075810781638113
      ],
      [
        "▁oglan",
        -9.265557684024104
      ],
      [
        "▁phoenix'de",
        -7.1592442289420815
      ],
      [
        "▁meyve",
        -8.874292581455368
      ],
      [
        "ger",
        -10.108427299989048
      ],
      [
        "▁alan",
        -7.8129806096875125
      ],
      [
        "m",
        -6.995862214619031
      ],
      [
        "▁artısı",
        -9.067251038364004
      ],
      [
        "▁istek",
        -9.216298002661855
      ],
      [
        "ey",
        -7.838455394397839
      ],
      [
        "▁milwaukee'",
        -7.0194406602758725
      ],
      [
        "▁ısıgı",
        -8.908168469344686
      ],
      [
        "▁toplum",
        -8.346583990260957
      ],
      [
        "ser",
        -8.92634298577837
      ],
      [
        "▁yolunu",
        -9.081206370930854
      ],
      [
        "▁gonul",
        -8.749132885440623
      ],
      [
        "ler",
        -4.763157974297701
      ],
      [
        "▁kazan",
        -8.50815677255867
      ],
      [
        "ir",
        -7.590219563061299
      ],
      [
        "▁soy",
        -8.631646877190427
      ],
      [
        "▁kos",
        -7.703959811696123
      ],
      [
        "is",
        -7.463825349204963
      ],
      [
        "▁kir",
        -8.86297855403824
      ],
      [
        "▁ardın",
        -7.0154321903276164
      ],
      [
        "▁gosterdi",
        -7.453777587268823
      ],
      [
        "▁ithalat",
        -8.976449511073792
      ],
      [
        "kan",
        -8.43418468809838
      ],
      [
        "▁adam",
        -6.7973032049191575
      ],
      [
        "nin",
        -5.555015513951929
      ],
      [
        "▁rahat",
        -6.598936599412326
      ],
      [
        "aj",
        -8.49099087203826
      ],
      [
        "▁istanbul'da",
        -7.261859279922097
      ],
      [
        "medi",
        -7.563995473531286
      ],
      [
        "▁gider",
        -8.974676257960219
      ],
      [
        "▁yıllık",
        -6.374732067768213
      ],
      [
        "le",
        -7.45879026731766
      ],
      [
        "▁erkekler",
        -9.173384697825504
      ],
      [
        "▁ordu",
        -8.46060733999651
      ],
      [
        "▁elbet",
        -6.771714475515565
      ],
      [
        "▁model",
        -9.017664508284946
      ],
      [
        "▁olmak",
        -7.522140956449084
      ],
      [
        "▁ister",
        -7.609972804504163
      ],
      [
        "▁kararı",
        -8.427773930696665
      ],
      [
        "3",
        -4.775100445387009
      ],
      [
        "sız",
        -9.210903841713929
      ],
      [
        "▁der",
        -7.283134991011326
      ],
      [
        "▁coktan",
        -7.3459526941433975
      ],
      [
        "▁sokag",
        -8.897442110994358
      ],
      [
        "lık",
        -6.299756592094877
      ],
      [
        "▁kalkıyor",
        -7.630511019979586
      ],
      [
        "icin",
        -5.8969885216171365
      ],
      [
        "▁takım",
        -8.211745448092689
      ],
      [
        "n",
        -3.6280928810905237
      ],
      [
        "dır",
        -7.491403339716459
      ],
      [
        "▁hakları",
        -9.053160017244126
      ],
      [
        "k",
        -4.475898029337179
      ],
      [
        "▁hisseler",
        -8.870113576607809
      ],
      [
        "▁lezzetleri",
        -8.992709993633838
      ],
      [
        "ıdır",
        -7.622500543399493
      ],
      [
        "▁gelecek",
        -8.855433588300388
      ],
      [
        "▁zamanlar",
        -8.488756391374462
      ],
      [
        "▁ay",
        -6.8422290870286915
      ],
      [
        "▁cocukların",
        -9.015880692107189
      ],
      [
        "▁ba",
        -10.862362165488445
      ],
      [
        "▁ba",
        -3.487307104758375
      ],
      [
        "▁dag",
        -8.278480691196823
      ],
      [
        "▁alır",
        -7.304952038545983
      ],
      [
        "▁restoran",
        -8.893521646008914
      ],
      [
        "▁ol",
        -6.761876388059695
      ],
      [
        "▁yetersiz",
        -6.950387900474548
      ],
      [
        "▁oldugun",
        -8.646577600885147
      ],
      [
        "ys",
        -8.722692971893338
      ],
      [
        "▁yaptirmadi",
        -7.762128105941826
      ],
      [
        "▁etmeye",
        -8.738117281661822
      ],
      [
        "yin",
        -5.784995693197711
      ],
      [
        "em",
        -7.405984961836628
      ],
      [
        "▁insanların",
        -8.248402358363808
      ],
      [
        "p",
        -6.6111150350837455
      ],
      [
        "ledi",
        -7.897160841544134
      ],
      [
        "▁havayolları",
        -7.47912357976236
      ],
      [
        "▁hattı",
        -9.269458712702638
      ],
      [
        "▁kalem",
        -8.524333435687119
      ],
      [
        "ktan",
        -7.988419795118594
      ],
      [
        "▁altı",
        -4.934015652473771
      ],
      [
        "egi",
        -6.7349244106122175
      ],
      [
        "▁domates",
        -9.294125748215125
      ],
      [
        "t",
        -5.496963253063057
      ],
      [
        "▁chicago'",
        -7.181589550952263
      ],
      [
        "▁duvar",
        -7.931600776885059
      ],
      [
        "▁umut",
        -8.783554003428335
      ],
      [
        "▁acıklanma",
        -7.9636329276564535
      ],
      [
        "▁alım",
        -7.567475952384333
      ],
      [
        "▁8",
        -9.254857887507953
      ],
      [
        "▁borc",
        -7.838528102095567
      ],
      [
        "▁annem",
        -7.911345904187882
      ],
      [
        "▁hır",
        -9.184907560675672
      ],
      [
        "eden",
        -7.747627165628135
      ],
      [
        "▁kamyon",
        -8.874296221014012
      ],
      [
        "▁ayında",
        -7.798937898634799
      ],
      [
        "▁tamam",
        -7.598141378379165
      ],
      [
        "▁ha",
        -7.625962682190958
      ],
      [
        "▁dalga",
        -8.499007246155402
      ],
      [
        "▁kumar",
        -9.186470509006584
      ],
      [
        "luk",
        -6.898963728357534
      ],
      [
        "▁cocuk",
        -6.9736045559350615
      ],
      [
        "ıyorlar",
        -8.105857323710635
      ],
      [
        "▁donus",
        -8.003070654400167
      ],
      [
        "▁yapıyor",
        -7.016683794331016
      ],
      [
        "gına",
        -9.034383569710904
      ],
      [
        "▁guzel",
        -9.058952223705235
      ],
      [
        "▁bilgisayar",
        -7.678940204098423
      ],
      [
        "▁ro",
        -9.087549903530823
      ],
      [
        "▁programı",
        -8.582144385607688
      ],
      [
        "teki",
        -7.159472131224541
      ],
      [
        "▁canım",
        -9.287071415770304
      ],
      [
        "▁si",
        -7.789679622917591
      ],
      [
        "▁idi",
        -7.607056053409531
      ],
      [
        "il",
        -7.217875703985481
      ],
      [
        "mizi",
        -8.244898374858636
      ],
      [
        "▁har",
        -8.728657256896653
      ],
      [
        "▁ihtimal",
        -9.039682115935378
      ],
      [
        "▁kendisi",
        -5.0164946613251225
      ],
      [
        "likte",
        -8.990350068696134
      ],
      [
        "arı",
        -7.610035301300221
      ],
      [
        "▁az",
        -6.513859532864736
      ],
      [
        "▁sok",
        -8.961720428179198
      ],
      [
        "ver",
        -8.51291873961286
      ],
      [
        "▁kahvalti",
        -8.77533739796889
      ],
      [
        "▁etmek",
        -7.783772629237743
      ],
      [
        "▁bas",
        -7.000258970503874
      ],
      [
        "▁s",
        -6.746148526883689
      ],
      [
        "▁degisiklik",
        -9.209046498805648
      ],
      [
        "▁ideal",
        -7.7004281276149165
      ],
      [
        "▁dir",
        -4.563511654215546
      ],
      [
        "i",
        -4.217228476181477
      ],
      [
        "▁yardımcısı",
        -8.693668710495817
      ],
      [
        "▁gibiydi",
        -8.085841885192059
      ],
      [
        "▁buz",
        -9.004955691202362
      ],
      [
        "▁duygu",
        -8.433161883742422
      ],
      [
        "▁ruya",
        -8.754009565700368
      ],
      [
        "▁serbest",
        -7.7855544090868145
      ],
      [
        "▁evvel",
        -7.64205734534819
      ],
      [
        "hangi",
        -6.3825269359489925
      ],
      [
        "(",
        -6.121810261614014
      ],
      [
        "▁olmasi",
        -8.209256969249356
      ],
      [
        "maları",
        -7.916852918228408
      ],
      [
        "▁duydu",
        -7.8035315563477194
      ],
      [
        "▁hari",
        -7.328087744680281
      ],
      [
        "diginde",
        -9.194615365993846
      ],
      [
        "▁baltimore'",
        -5.751682625962839
      ],
      [
        "ma",
        -5.906308248825251
      ],
      [
        "▁konuda",
        -8.568080726202886
      ],
      [
        "▁ne",
        -5.851574282211553
      ],
      [
        "▁cogu",
        -6.224369063045475
      ],
      [
        "l",
        -6.034649391891636
      ],
      [
        "▁tesiste",
        -8.73687821811604
      ],
      [
        "▁kullanıyor",
        -8.05088171917265
      ],
      [
        "▁ac",
        -7.530147952764761
      ],
      [
        "lerinde",
        -7.67791478959839
      ],
      [
        "▁geri",
        -5.740966921982887
      ],
      [
        "liligi",
        -9.2120156747392
      ],
      [
        "u",
        -5.292154325772746
      ],
      [
        "▁kanun",
        -8.435196922470897
      ],
      [
        "▁g",
        -8.577436937545237
      ],
      [
        "suna",
        -9.163032227675831
      ],
      [
        "▁geri",
        -7.1435128391119385
      ],
      [
        "im",
        -6.740811679588673
      ],
      [
        "sunda",
        -9.051796505880809
      ],
      [
        "lar",
        -7.8295701964093505
      ],
      [
        "▁gorur",
        -7.9204836149073845
      ],
      [
        "cisin",
        -8.720310916178633
      ],
      [
        "o",
        -12.802702672349787
      ],
      [
        "r",
        -6.326167901266359
      ],
      [
        "▁siyaset",
        -9.158792241528719
      ],
      [
        "et",
        -6.8936994019445175
      ],
      [
        "unla",
        -5.8430735334845965
      ],
      [
        "..",
        -11.199619583058196
      ],
      [
        "▁ettigini",
        -8.805410393412142
      ],
      [
        "▁kıs",
        -8.098742064307743
      ],
      [
        "▁newark'ta",
        -7.347640522526289
      ],
      [
        "ser",
        -7.906497206498267
      ],
      [
        "i",
        -3.4756304079147933
      ],
      [
        "▁",
        -1.6692032132785002
      ],
      [
        "▁pa",
        -7.501568141458672
      ],
      [
        "▁engel",
        -8.484848421861013
      ],
      [
        "i",
        -4.221177834337591
      ],
      [
        "▁olum",
        -8.299929850489196
      ],
      [
        "▁parcası",
        -8.825598065570015
      ],
      [
        "▁street",
        -6.9744101989031275
      ],
      [
        "landırma",
        -8.855843285745568
      ],
      [
        "ter",
        -9.051704528810193
      ],
      [
        "un",
        -6.072576881132511
      ],
      [
        "▁rehberimiz",
        -9.211911054849484
      ],
      [
        "▁yanlıs",
        -9.23818051582698
      ],
      [
        "▁ikram",
        -9.294127688293191
      ],
      [
        "▁sigorta",
        -8.276225633161324
      ],
      [
        "▁diger",
        -5.558160624346541
      ],
      [
        "1",
        -8.619252375660643
      ],
      [
        "▁y",
        -7.76655382528825
      ],
      [
        "▁hisse",
        -6.278953957760908
      ],
      [
        "▁pay",
        -7.5652383678100135
      ],
      [
        "ı",
        -4.678390393587344
      ],
      [
        "▁salt",
        -6.566705835229242
      ],
      [
        "ikti",
        -7.669503639374806
      ],
      [
        "▁kuru",
        -6.828130241180895
      ],
      [
        "▁reform",
        -9.158791853722423
      ],
      [
        "▁bul",
        -6.836640547539096
      ],
      [
        "▁o",
        -7.858857258088566
      ],
      [
        "▁francisco'da",
        -6.071724489525052
      ],
      [
        "kun",
        -6.934578789773962
      ],
      [
        "▁kitap",
        -8.051495251607811
      ],
      [
        "▁cak",
        -8.789478667596335
      ],
      [
        "▁yukseldi",
        -6.236371526360394
      ],
      [
        ",",
        -11.259274920662083
      ],
      [
        "iz",
        -8.018400537826324
      ],
      [
        "▁satısları",
        -8.480632835780895
      ],
      [
        "b",
        -4.9619664055615145
      ],
      [
        "▁destek",
        -8.446688425930937
      ],
      [
        "dik",
        -7.789608405115657
      ],
      [
        "▁kucuktu",
        -6.894144608050934
      ],
      [
        "▁yazar",
        -7.9801174766684895
      ],
      [
        "re",
        -4.844554200876263
      ],
      [
        "▁gorme",
        -8.740948940399631
      ],
      [
        "▁sayı",
        -8.279922880890773
      ],
      [
        "▁degerlendirir",
        -8.056085541481627
      ],
      [
        "▁care",
        -9.03991760179906
      ],
      [
        "▁kay",
        -8.239592915265249
      ],
      [
        "▁art",
        -8.585595204104656
      ],
      [
        "▁pek",
        -4.940017877222246
      ],
      [
        "▁bir",
        -4.897295998995685
      ],
      [
        "bir",
        -3.7092891508635653
      ],
      [
        "y",
        -6.357935357697259
      ],
      [
        "▁hale",
        -8.01677737410305
      ],
      [
        "▁isin",
        -8.211382441958726
      ],
      [
        "▁hasta",
        -7.390891898070392
      ],
      [
        "▁is",
        -6.318078973884656
      ],
      [
        "▁alma",
        -7.655756629331163
      ],
      [
        "▁doları",
        -7.859032420018468
      ],
      [
        "▁gay",
        -6.82515084075238
      ],
      [
        "▁b",
        -8.027158500472844
      ],
      [
        "mis",
        -5.541358226762738
      ],
      [
        "mızı",
        -8.10700279754544
      ],
      [
        "▁salı",
        -7.401487703396885
      ],
      [
        "z",
        -5.141607459896133
      ],
      [
        "▁ucusunu",
        -9.154085831606945
      ],
      [
        "bil",
        -8.307138058244057
      ],
      [
        "ndan",
        -6.552049776741964
      ],
      [
        "▁d",
        -6.355214304135228
      ],
      [
        "ladı",
        -7.227434632502908
      ],
      [
        "▁kac",
        -8.79958666745722
      ],
      [
        "▁ilac",
        -8.205627064438048
      ],
      [
        "▁icin",
        -5.611889001906072
      ],
      [
        "▁sozler",
        -8.8941013953589
      ],
      [
        "▁par",
        -8.839328276540963
      ],
      [
        "lerinin",
        -6.831796431740629
      ],
      [
        "▁gecmis",
        -7.749976290057055
      ],
      [
        "c",
        -6.639970635471811
      ],
      [
        "▁ucretin",
        -8.691135842608755
      ],
      [
        "acak",
        -6.006877031679006
      ],
      [
        "▁lider",
        -8.862049597846612
      ],
      [
        "▁yirmi",
        -5.481367957249344
      ],
      [
        "▁posta",
        -8.889597557991685
      ],
      [
        "lıgın",
        -7.90553695991196
      ],
      [
        "▁milyon",
        -8.035241405750813
      ],
      [
        "▁planı",
        -8.757401711072198
      ],
      [
        "▁esya",
        -8.3287867542646
      ],
      [
        "arası",
        -7.808924049151564
      ],
      [
        "ıyla",
        -7.6473105573084315
      ],
      [
        "▁tiyatro",
        -8.591615727628687
      ],
      [
        "▁kira",
        -8.872941948924229
      ],
      [
        "▁gelme",
        -8.814004116180826
      ],
      [
        "▁gerek",
        -8.018635155101109
      ],
      [
        "▁genel",
        -8.625343237638045
      ],
      [
        "▁isci",
        -8.60006379970604
      ],
      [
        "▁ad",
        -8.402222160411586
      ],
      [
        "▁bir",
        -3.027951570239419
      ],
      [
        "▁danısma",
        -8.951384659470337
      ],
      [
        "ne",
        -6.372458135960013
      ],
      [
        "ecegini",
        -8.76957127629441
      ],
      [
        "al",
        -6.233800419023781
      ],
      [
        "▁100",
        -5.485529480805205
      ],
      [
        "▁begendi",
        -6.880585119097507
      ],
      [
        "meli",
        -7.425467949112281
      ],
      [
        "▁tarih",
        -7.876045631531454
      ],
      [
        "larla",
        -7.059081848741102
      ],
      [
        "000",
        -5.453798378371451
      ],
      [
        "▁sizin",
        -5.649030984391743
      ],
      [
        "▁si",
        -7.881488492099301
      ],
      [
        "▁duzenleme",
        -8.97687974030394
      ],
      [
        "▁his",
        -9.16259210813107
      ],
      [
        "▁olum",
        -7.395749054696526
      ],
      [
        "▁yana",
        -7.77216474041248
      ],
      [
        "▁baskaları",
        -8.996029422820882
      ],
      [
        "▁hicbiri",
        -6.194402383819175
      ],
      [
        "▁ic",
        -7.936480249582098
      ],
      [
        "'daki",
        -6.583525614428688
      ],
      [
        "▁tablo",
        -9.210748604836454
      ],
      [
        "▁yerin",
        -7.944938570128123
      ],
      [
        "▁rakip",
        -9.265553761921598
      ],
      [
        "▁1990",
        -6.375653588350021
      ],
      [
        "▁firma",
        -8.284668514761584
      ],
      [
        "▁zamanda",
        -8.033931852459514
      ],
      [
        "▁kosulları",
        -8.884008805767216
      ],
      [
        "0",
        -4.429548908795914
      ],
      [
        "ha",
        -9.255242096426834
      ],
      [
        "▁kendi",
        -3.6923164518459464
      ],
      [
        "▁ugra",
        -9.085655235980976
      ],
      [
        "▁boston'",
        -6.10467127630912
      ],
      [
        "▁maliyeti",
        -8.87562148079572
      ],
      [
        "msal",
        -6.949099742190111
      ],
      [
        "▁wall",
        -6.852745705857697
      ],
      [
        "e",
        -6.0226497054236
      ],
      [
        "▁soyler",
        -7.623592392997051
      ],
      [
        "▁ola",
        -3.6807569053633458
      ],
      [
        "▁suru",
        -8.277375128331542
      ],
      [
        "▁pittsburgh'ta",
        -5.679230602104744
      ],
      [
        "[CLS]",
        0.0
      ],
      [
        "▁bin",
        -9.282355484712383
      ],
      [
        "ci",
        -6.386089862914961
      ],
      [
        "l",
        -6.528768719985566
      ],
      [
        "▁hak",
        -7.433022112221926
      ],
      [
        "▁gecmis",
        -8.966971508353096
      ],
      [
        "▁ihtiyac",
        -8.107926473267032
      ],
      [
        "▁on",
        -7.27312212383284
      ],
      [
        "hic",
        -7.843634605618451
      ],
      [
        "▁yaptirdi",
        -7.4448016464697195
      ],
      [
        "▁vakit",
        -8.579498643383317
      ],
      [
        "▁toprak",
        -8.205463138912982
      ],
      [
        "▁de",
        -7.194763187565277
      ],
      [
        "y",
        -5.290836037947181
      ],
      [
        "▁ton",
        -8.910996998225183
      ],
      [
        "▁damak",
        -8.923189488888688
      ],
      [
        "▁olacak",
        -7.742659423655229
      ],
      [
        "▁bogaz",
        -9.062349682467552
      ],
      [
        "'nın",
        -5.23616273081122
      ],
      [
        "▁savas",
        -8.11100076351308
      ],
      [
        "▁sanayi",
        -8.623052893184393
      ],
      [
        "lendi",
        -8.07182083660439
      ],
      [
        "▁dur",
        -7.089734177499263
      ],
      [
        "▁sezon",
        -9.062383351642804
      ],
      [
        "▁ucak",
        -7.490501482181309
      ],
      [
        "▁hacmi",
        -8.487353283681596
      ],
      [
        "gunu",
        -7.634301236361402
      ],
      [
        "▁tı",
        -3.8255906107362634
      ],
      [
        "kte",
        -7.35037593173012
      ],
      [
        "▁don",
        -7.469114158362451
      ],
      [
        "▁verdigi",
        -7.600508126963151
      ],
      [
        "▁ust",
        -6.979559511536277
      ],
      [
        "▁icin",
        -2.121748868097354
      ],
      [
        "▁ekim",
        -7.416606871173696
      ],
      [
        "▁burada",
        -8.661928982701042
      ],
      [
        "▁sizi",
        -5.685998760825111
      ],
      [
        "▁dı",
        -3.685551159034305
      ],
      [
        "▁miktar",
        -9.027674453574695
      ],
      [
        "da",
        -7.051083083933658
      ],
      [
        "▁emin",
        -7.908159108045561
      ],
      [
        "ir",
        -7.963442746892628
      ],
      [
        "▁hukumetin",
        -9.138853450741616
      ],
      [
        "-",
        -6.464735180719356
      ],
      [
        "▁gelen",
        -7.18416800202182
      ],
      [
        "▁can",
        -7.6556232845147845
      ],
      [
        "▁ikisi",
        -8.90801684654011
      ],
      [
        "▁yardım",
        -7.67788804795272
      ],
      [
        "▁oyle",
        -5.64675409423086
      ],
      [
        "▁geliyor",
        -6.385021080408034
      ],
      [
        "ama",
        -8.057542674885958
      ],
      [
        "▁ot",
        -7.384762552971319
      ],
      [
        "deta",
        -6.817374011480661
      ],
      [
        "▁bakıs",
        -8.580348910108683
      ],
      [
        "ilmesi",
        -8.90626305055217
      ],
      [
        "▁p",
        -7.117840679169713
      ],
      [
        "▁agız",
        -8.733967393887792
      ],
      [
        "▁re",
        -7.588088437267547
      ],
      [
        "▁anladı",
        -7.9845525830347155
      ],
      [
        "▁amerika",
        -7.597198809842749
      ],
      [
        "▁yasıyor",
        -7.764116766987493
      ],
      [
        "idir",
        -7.352771152108955
      ],
      [
        "mez",
        -7.413283696883108
      ],
      [
        "▁olayı",
        -9.034557882047887
      ],
      [
        "▁10'da",
        -9.039832816355691
      ],
      [
        "▁operasyon",
        -8.551524648652535
      ],
      [
        "▁continental",
        -6.636089344245021
      ],
      [
        "▁lık",
        -7.543427626244069
      ],
      [
        "ıkca",
        -7.569260549122383
      ],
      [
        "▁gunler",
        -9.047118838961438
      ],
      [
        "e",
        -8.372618959769959
      ],
      [
        "▁doku",
        -8.939675690947595
      ],
      [
        "▁sesleri",
        -9.137137495180692
      ],
      [
        "▁isler",
        -8.59175210763675
      ],
      [
        "da",
        -6.760170719648695
      ],
      [
        "la",
        -6.888501391301384
      ],
      [
        "▁boston",
        -5.570586973517922
      ],
      [
        "▁devrim",
        -9.127103162304369
      ],
      [
        "▁artıs",
        -8.142356739838274
      ],
      [
        "▁muzik",
        -8.9131422226511
      ],
      [
        "▁uzak",
        -7.406265993146311
      ],
      [
        "▁taksi",
        -8.91018656466627
      ],
      [
        "▁eve",
        -8.025529325030496
      ],
      [
        "▁kurum",
        -9.177153494269744
      ],
      [
        "▁kavram",
        -9.017966594200281
      ],
      [
        "▁basarı",
        -8.225202892042724
      ],
      [
        "elim",
        -7.397197964383144
      ],
      [
        "▁soyluyor",
        -6.710289316645186
      ],
      [
        "▁kara",
        -6.749813976540861
      ],
      [
        "▁diz",
        -8.668868158441061
      ],
      [
        "▁gunes",
        -8.11647622381829
      ],
      [
        "▁hak",
        -7.809851956941868
      ],
      [
        "▁boy",
        -8.683461792900893
      ],
      [
        "▁francisco",
        -5.975874976284412
      ],
      [
        "ca",
        -6.899445365206607
      ],
      [
        "▁guc",
        -7.770527662216843
      ],
      [
        "▁ulastı",
        -7.5370992592470465
      ],
      [
        "▁o",
        -7.286659504355699
      ],
      [
        "▁erte",
        -7.655660382665401
      ],
      [
        "gen",
        -9.003035137492052
      ],
      [
        "▁gemi",
        -8.061384611622753
      ],
      [
        "erhal",
        -6.774381132419854
      ],
      [
        "▁devam",
        -7.062153173456201
      ],
      [
        "▁ver",
        -7.429340936125384
      ],
      [
        "▁mektup",
        -8.78332165715451
      ],
      [
        "▁orlando'",
        -6.981348912655069
      ],
      [
        "▁edebilir",
        -7.9759416652216935
      ],
      [
        "t",
        -4.63770091598948
      ],
      [
        "▁surec",
        -8.873901851171283
      ],
      [
        "▁22",
        -6.204600493789114
      ],
      [
        "▁havuzu",
        -7.566038865777999
      ],
      [
        "uyor",
        -6.75352606803786
      ],
      [
        "yıp",
        -6.838689337787059
      ],
      [
        "▁d",
        -5.706696958748632
      ],
      [
        "▁doktor",
        -7.971438688806278
      ],
      [
        "▁hali",
        -7.3462464573427555
      ],
      [
        "ı",
        -6.290151035760891
      ],
      [
        "z",
        -7.38459777679382
      ],
      [
        "dıgı",
        -8.483843502462488
      ],
      [
        "▁terk",
        -8.925479396283999
      ],
      [
        "▁siir",
        -8.266705564413718
      ],
      [
        "ayet",
        -5.79797472285833
      ],
      [
        "▁gul",
        -8.342044191196123
      ],
      [
        "▁rengi",
        -8.594250106508667
      ],
      [
        "▁butce",
        -8.699954479215332
      ],
      [
        "▁yavru",
        -9.0855921804185
      ],
      [
        "▁gelecek",
        -8.084386772029248
      ],
      [
        "▁lezzet",
        -7.625560767531123
      ],
      [
        "▁arz",
        -8.829906053414554
      ],
      [
        "a",
        -12.802702672349763
      ],
      [
        "▁superdi",
        -7.7621238866055835
      ],
      [
        "▁az",
        -6.047843659493168
      ],
      [
        "a",
        -2.9601516385060798
      ],
      [
        "e",
        -14.014858445102625
      ],
      [
        "▁orta",
        -6.9666244531922885
      ],
      [
        "▁yıllar",
        -8.359085233484333
      ],
      [
        "▁men",
        -7.465012207054135
      ],
      [
        "altı",
        -9.102506942421773
      ],
      [
        "▁geriledi",
        -8.020532240761378
      ],
      [
        "▁er",
        -8.169414204427131
      ],
      [
        "et",
        -7.090292049428994
      ],
      [
        "▁problem",
        -8.307905751166999
      ],
      [
        "yor",
        -7.995124121418993
      ],
      [
        "▁orada",
        -6.679303596995425
      ],
      [
        "▁baskanı",
        -7.606118206640778
      ],
      [
        "▁8'de",
        -9.113773307334963
      ],
      [
        "▁li",
        -5.934253238643644
      ],
      [
        "▁durumda",
        -8.124867342538609
      ],
      [
        "▁zafer",
        -9.26555364668236
      ],
      [
        "▁kalı",
        -9.201726529492726
      ],
      [
        "▁yere",
        -7.686404501796405
      ],
      [
        "▁ar",
        -7.851411589191917
      ],
      [
        "▁risk",
        -8.484846300123547
      ],
      [
        "▁di",
        -4.120192399565302
      ],
      [
        "▁manzara",
        -8.565413595026552
      ],
      [
        "▁washington'da",
        -6.720773090223809
      ],
      [
        "▁istanbul",
        -6.9167515459812785
      ],
      [
        "▁gun",
        -7.0374417936092035
      ],
      [
        "▁zengin",
        -7.064123754243155
      ],
      [
        "h",
        -6.957033578087399
      ],
      [
        "liginde",
        -9.127602257288933
      ],
      [
        "▁eglence",
        -8.537826126345745
      ],
      [
        "f",
        -6.667588372805843
      ],
      [
        "a",
        -3.0926384863008716
      ],
      [
        "▁sar",
        -7.8536912895821684
      ],
      [
        "▁giy",
        -8.090322855143496
      ],
      [
        "▁ed",
        -8.426117456985327
      ],
      [
        "▁tabi",
        -6.9795939395389155
      ],
      [
        "\"",
        -8.995647550879895
      ],
      [
        "ydı",
        -7.499194122890556
      ],
      [
        "▁tutar",
        -9.224611772342476
      ],
      [
        "p",
        -7.046976921809188
      ],
      [
        "▁kutu",
        -8.527365836920655
      ],
      [
        "2",
        -4.354190389322459
      ],
      [
        "▁cıkardı",
        -7.331309746760414
      ],
      [
        "ka",
        -7.172019659695891
      ],
      [
        "u",
        -5.3681920564335766
      ],
      [
        "ca",
        -4.628700976346801
      ],
      [
        "gı",
        -7.1723469511287465
      ],
      [
        "▁balık",
        -8.792124661479129
      ],
      [
        "▁dal",
        -7.977925928548869
      ],
      [
        "▁ataturk",
        -7.278120223726106
      ],
      [
        "▁baktı",
        -7.235238501895003
      ],
      [
        "▁cıkıyor",
        -7.668218371157288
      ],
      [
        "lerini",
        -6.03657900098624
      ],
      [
        "▁se",
        -4.925808727806685
      ],
      [
        "▁ana",
        -8.000417531046022
      ],
      [
        "▁ise",
        -7.834820324004646
      ],
      [
        "#",
        -10.352702672349787
      ],
      [
        "imi",
        -7.9292203877402265
      ],
      [
        "▁bel",
        -8.468287714222843
      ],
      [
        "▁yaki",
        -7.380181896103234
      ],
      [
        "▁isim",
        -8.461692815124682
      ],
      [
        "▁bunun",
        -4.410861678317182
      ],
      [
        "▁halkı",
        -9.132936447029078
      ],
      [
        "▁sıkıntı",
        -8.5654911841611
      ],
      [
        "sin",
        -6.340962197661855
      ],
      [
        "sıdır",
        -7.790365813978556
      ],
      [
        "co",
        -4.969231820816542
      ],
      [
        "▁koltuk",
        -8.699981815427783
      ],
      [
        "▁olus",
        -7.870410008112698
      ],
      [
        "▁karısı",
        -7.840275909925566
      ],
      [
        "▁bunları",
        -4.754133212558791
      ],
      [
        "▁su",
        -6.385416699652202
      ],
      [
        "▁katkı",
        -8.35236918256017
      ],
      [
        "▁kemal",
        -6.8028234289062155
      ],
      [
        "ev",
        -11.802702672349788
      ],
      [
        "▁boru",
        -9.238359462749514
      ],
      [
        "eger",
        -6.978820968666628
      ],
      [
        "▁butun",
        -5.3435263644264195
      ],
      [
        "▁bas",
        -6.75029762695376
      ],
      [
        "1",
        -4.618758539404044
      ],
      [
        "▁ufak",
        -7.162718604082719
      ],
      [
        "'nde",
        -8.794718087696545
      ],
      [
        "▁orada",
        -5.86959198151261
      ],
      [
        "▁ince",
        -6.467898641546867
      ],
      [
        "▁siyah",
        -6.836355013505865
      ],
      [
        "▁saka",
        -8.804596605610993
      ],
      [
        "▁baltimore'de",
        -5.972450229599647
      ],
      [
        "▁saglam",
        -7.5027649068518185
      ],
      [
        "amıyor",
        -7.748780262825657
      ],
      [
        "▁etme",
        -7.854001394033202
      ],
      [
        "▁kenar",
        -8.53889699064589
      ],
      [
        "▁198",
        -8.995493654897938
      ],
      [
        "▁7",
        -9.027553459614918
      ],
      [
        "▁biri",
        -8.099877466714455
      ],
      [
        "▁ipotek",
        -9.210748694491809
      ],
      [
        "▁acık",
        -6.383565921314693
      ],
      [
        "▁bulma",
        -8.412327871977615
      ],
      [
        "▁bunda",
        -5.599372556045785
      ],
      [
        "▁yon",
        -7.340045931705189
      ],
      [
        "▁askı",
        -9.063361379718458
      ],
      [
        "▁acık",
        -7.077738448004128
      ],
      [
        "▁kole",
        -9.254304697662715
      ],
      [
        "it",
        -7.6795142957907006
      ],
      [
        "▁ana",
        -6.844882439670697
      ],
      [
        "▁acıkladı",
        -7.466305672117121
      ],
      [
        "lıkta",
        -8.357058629980248
      ],
      [
        "na",
        -4.888725468870102
      ],
      [
        "▁yonetim",
        -7.740122413204883
      ],
      [
        "▁degil",
        -2.538634238983531
      ],
      [
        "▁ola",
        -7.060701390497842
      ],
      [
        "▁ayrı",
        -5.277052753790272
      ],
      [
        "ler",
        -4.863815379969876
      ],
      [
        "▁yeni",
        -8.717076329160431
      ],
      [
        "uz",
        -7.57519734604935
      ],
      [
        "▁rolu",
        -9.246117151596103
      ],
      [
        "▁varlıgı",
        -9.043816604215179
      ],
      [
        "▁der",
        -9.056053649695603
      ],
      [
        "▁biliyor",
        -7.911963855297829
      ],
      [
        "▁varlıklar",
        -9.079354418257184
      ],
      [
        "▁ola",
        -3.676043512832143
      ],
      [
        "lama",
        -7.3833637299530706
      ],
      [
        "▁kim",
        -4.773235186824169
      ],
      [
        "▁istiyoru",
        -5.162981875868706
      ],
      [
        "mesi",
        -8.294413202413121
      ],
      [
        "fa",
        -8.236962644876998
      ],
      [
        "▁olan",
        -5.550474496869134
      ],
      [
        "nca",
        -6.940399481638486
      ],
      [
        "▁sıkı",
        -7.181068180507191
      ],
      [
        "im",
        -6.088596818661388
      ],
      [
        "▁isletme",
        -7.971452508922107
      ],
      [
        "▁roman",
        -8.255412989351697
      ],
      [
        "▁dıs",
        -7.331994759868498
      ],
      [
        "t",
        -5.498942757749235
      ],
      [
        "h",
        -7.852661068051525
      ],
      [
        "▁kor",
        -7.963516784933761
      ],
      [
        "▁rakam",
        -9.209329415229782
      ],
      [
        "n",
        -4.758362794379164
      ],
      [
        "▁eden",
        -7.458773784158193
      ],
      [
        "▁alın",
        -7.543378375352004
      ],
      [
        "e",
        -3.073718075016716
      ],
      [
        "▁ov",
        -9.046789757699507
      ],
      [
        "▁memnun",
        -4.596567443186686
      ],
      [
        "lıkla",
        -8.990837559406026
      ],
      [
        "▁olcude",
        -8.271058178134336
      ],
      [
        "▁harcama",
        -8.749350912036025
      ],
      [
        "▁hakkı",
        -8.574097819955353
      ],
      [
        "▁american",
        -6.195236345137257
      ],
      [
        "▁onda",
        -5.624473296084898
      ],
      [
        "ber",
        -6.673340093541525
      ],
      [
        "▁ucreti",
        -7.693748122606665
      ],
      [
        "kca",
        -8.103862073496302
      ],
      [
        "▁ydı",
        -4.64779151718307
      ],
      [
        "▁merkez",
        -7.816386103670898
      ],
      [
        "▁ocak",
        -8.749251923508027
      ],
      [
        "▁dur",
        -4.965681247810773
      ],
      [
        "▁baslar",
        -8.126756897964636
      ],
      [
        "▁gozu",
        -8.12981789370777
      ],
      [
        "sa",
        -7.160680658657613
      ],
      [
        "▁maas",
        -9.10088154650833
      ],
      [
        "▁1\\/",
        -5.804230612565163
      ],
      [
        "▁karı",
        -8.566794796700648
      ],
      [
        "▁ellerini",
        -9.031471357866398
      ],
      [
        "▁si",
        -7.2742255091815755
      ],
      [
        "▁benim",
        -4.0962344854904496
      ],
      [
        "▁belge",
        -8.894691988751632
      ],
      [
        "nun",
        -7.261526598545303
      ],
      [
        "cısı",
        -9.184441425369188
      ],
      [
        "lu",
        -7.066717717642606
      ],
      [
        "▁yardimci",
        -8.195543634166544
      ],
      [
        "▁yatagı",
        -9.185600590493024
      ],
      [
        "▁milyon",
        -3.278490722863072
      ],
      [
        "+",
        -12.802702672349787
      ],
      [
        "el",
        -7.908226801642845
      ],
      [
        "▁odam",
        -8.805706600733
      ],
      [
        "▁yılı",
        -8.627485732605695
      ],
      [
        "▁uzerinde",
        -5.829535329669553
      ],
      [
        "▁ureticisi",
        -8.994568093931445
      ],
      [
        "▁ucusun",
        -9.112454499905972
      ],
      [
        "de",
        -5.330256973534882
      ],
      [
        "ila",
        -9.207290760679781
      ],
      [
        "ni",
        -6.180299696242456
      ],
      [
        "el",
        -7.298644566373646
      ],
      [
        "ligin",
        -8.2988173604871
      ],
      [
        "▁hal",
        -5.532686542076543
      ],
      [
        "▁karsı",
        -6.153679112273401
      ],
      [
        "▁artısla",
        -8.031311801177289
      ],
      [
        "▁hasan",
        -7.420746060243845
      ],
      [
        "kca",
        -6.111250826125482
      ],
      [
        "f",
        -7.787995550812537
      ],
      [
        "▁avuc",
        -8.783412174295961
      ],
      [
        "▁paylas",
        -8.090472398469242
      ],
      [
        "▁dudakları",
        -9.184508762100858
      ],
      [
        "▁yanıt",
        -9.220194832855992
      ],
      [
        "li",
        -7.324711775814479
      ],
      [
        "▁boyu",
        -8.873816552440477
      ],
      [
        "▁h",
        -5.985551101189426
      ],
      [
        "▁elinde",
        -7.596396381410533
      ],
      [
        "er",
        -7.534676130534668
      ],
      [
        "irlik",
        -5.69607855368877
      ],
      [
        "'la",
        -7.331809685617591
      ],
      [
        "▁kır",
        -8.221503937377351
      ],
      [
        "▁giris",
        -9.031881478239544
      ],
      [
        "▁yargı",
        -9.13970832201186
      ],
      [
        "▁%",
        -3.886665045624931
      ],
      [
        "▁tarife",
        -8.90331078122363
      ],
      [
        "▁sol",
        -7.196571706374
      ],
      [
        "an",
        -7.668036448599423
      ],
      [
        "▁savcı",
        -8.992777740642275
      ],
      [
        "oglu",
        -7.0545701178516715
      ],
      [
        "▁gelir",
        -7.089933717529591
      ],
      [
        "▁islemlerinde",
        -9.183038263071598
      ],
      [
        "v",
        -7.387732354266287
      ],
      [
        "likle",
        -4.864519917768543
      ],
      [
        "▁deneme",
        -8.836958739599474
      ],
      [
        "▁agır",
        -6.486111117241364
      ],
      [
        "resmi",
        -7.4072790309889625
      ],
      [
        "ma",
        -7.0916904523040865
      ],
      [
        "▁far",
        -9.237470457815345
      ],
      [
        "▁hat",
        -6.71359374354625
      ],
      [
        "▁dallas",
        -5.916838167734813
      ],
      [
        "▁anlat",
        -9.010201864040372
      ],
      [
        "8",
        -8.812455732926335
      ],
      [
        "\"",
        -3.8868225721526475
      ],
      [
        "▁sık",
        -8.93259984114122
      ],
      [
        "un",
        -7.14280457035678
      ],
      [
        "ra",
        -6.79404577043757
      ],
      [
        ",",
        -9.265553377849141
      ],
      [
        "▁mucadele",
        -8.459355579372614
      ],
      [
        "'i",
        -6.721080804396391
      ],
      [
        "▁meclis",
        -9.247867467018368
      ],
      [
        "▁baskı",
        -8.13315041536341
      ],
      [
        "▁farkında",
        -9.187949158211545
      ],
      [
        "▁ti",
        -3.9155890831001203
      ],
      [
        "▁kampanyalar",
        -9.02273938561368
      ],
      [
        "▁kullanım",
        -9.163295464650268
      ],
      [
        "▁pes",
        -9.226688501142554
      ],
      [
        "▁bırak",
        -7.387286025899164
      ],
      [
        "ici",
        -9.115702665645355
      ],
      [
        "ti",
        -7.495080239910468
      ],
      [
        "▁muh",
        -8.5506726184997
      ],
      [
        "▁bur",
        -8.29389605531169
      ],
      [
        "▁kurtaj",
        -9.237998611587182
      ],
      [
        "▁aldi",
        -8.098343313502959
      ],
      [
        "tif",
        -7.057084189862653
      ],
      [
        "▁bileti",
        -8.855048721761264
      ],
      [
        "▁siyasi",
        -7.443068292921874
      ],
      [
        "▁harikayd",
        -7.845569420023782
      ],
      [
        "▁uz",
        -8.533549843238639
      ],
      [
        "▁gaz",
        -8.314632484788806
      ],
      [
        "▁donemi",
        -8.980651194991985
      ],
      [
        "▁isleri",
        -9.074726898856774
      ],
      [
        "lıgını",
        -8.154613176088326
      ],
      [
        "si",
        -6.416833395840141
      ],
      [
        "▁ekmegi",
        -9.265638365571784
      ],
      [
        "▁tel",
        -8.280970386811369
      ],
      [
        "tigini",
        -9.216531961604144
      ],
      [
        "yle",
        -6.049537958767083
      ],
      [
        "▁kapandı",
        -6.6820325098326245
      ],
      [
        "▁basbakan",
        -8.913131679803719
      ],
      [
        "co",
        -7.273924532429266
      ],
      [
        "▁temiz",
        -6.874429970102587
      ],
      [
        "▁bo",
        -7.627769821905121
      ],
      [
        "ic",
        -7.409719644704607
      ],
      [
        "▁john",
        -7.514258373914097
      ],
      [
        "▁kesin",
        -7.804262474853327
      ],
      [
        "/",
[...]
