{
  "version": "1.0",
  "truncation": null,
  "padding": null,
  "added_tokens": [
    {
      "id": 314,
      "content": "[MASK]",
      "single_word": false,
      "lstrip": false,
      "rstrip": false,
      "normalized": false,
      "special": true
    },
    {
      "id": 756,
      "content": "[PAD]",
      "single_word": false,
      "lstrip": false,
      "rstrip": false,
      "normalized": false,
      "special": true
    },
    {
      "id": 2158,
      "content": "[CLS]",
      "single_word": false,
      "lstrip": false,
      "rstrip": false,
      "normalized": false,
      "special": true
    },
    {
      "id": 2392,
      "content": "[UNK]",
      "single_word": false,
      "lstrip": false,
      "rstrip": false,
      "normalized": false,
      "special": true
    },
    {
      "id": 2610,
      "content": "[SEP]",
      "single_word": false,
      "lstrip": false,
      "rstrip": false,
      "normalized": false,
      "special": true
    }
  ],
  "normalizer": {
    "type": "Sequence",
    "normalizers": [
      {
        "type": "NFD"
      },
      {
        "type": "Lowercase"
      },
      {
        "type": "StripAccents"
      }
    ]
  },
  "pre_tokenizer": {
    "type": "Sequence",
    "pretokenizers": [
      {
        "type": "Metaspace",
        "replacement": "▁",
        "prepend_scheme": "always",
        "split": true
      }
    ]
  },
  "post_processor": {
    "type": "TemplateProcessing",
    "single": [
      {
        "SpecialToken": {
          "id": "[CLS]",
          "type_id": 0
        }
      },
      {
        "Sequence": {
          "id": "A",
          "type_id": 0
        }
      },
      {
        "SpecialToken": {
          "id": "[SEP]",
          "type_id": 0
        }
      }
    ],
    "pair": [
      {
        "SpecialToken": {
          "id": "[CLS]",
          "type_id": 0
        }
      },
      {
        "Sequence": {
          "id": "A",
          "type_id": 0
        }
      },
      {
        "SpecialToken": {
          "id": "[SEP]",
          "type_id": 0
        }
      },
      {
        "Sequence": {
          "id": "B",
          "type_id": 1
        }
      },
      {
        "SpecialToken": {
          "id": "[SEP]",
          "type_id": 1
        }
      }
    ],
    "special_tokens": {
      "[CLS]": {
        "id": "[CLS]",
        "ids": [
          2158
        ],
        "tokens": [
          "[CLS]"
        ]
      },
      "[SEP]": {
        "id": "[SEP]",
        "ids": [
          2610
        ],
        "tokens": [
          "[SEP]"
        ]
      }
    }
  },
  "decoder": {
    "type": "Metaspace",
    "replacement": "▁",
    "prepend_scheme": "always",
    "split": true
  },
  "model": {
    "type": "BPE",
    "dropout": null,
    "unk_token": "[UNK]",
    "continuing_subword_prefix": null,
    "end_of_word_suffix": null,
    "fuse_unk": false,
    "byte_fallback": false,
    "ignore_merges": false,
    "vocab": {
      "gi": 0,
      "▁tek": 1,
      "siye": 2,
      "isyon": 3,
      "men": 4,
      "▁gorusuldu": 5,
      "'nda": 6,
      "muyor": 7,
      "tal": 8,
      "▁son": 9,
      "kan": 10,
      "cilik": 11,
      "ilig": 12,
      "ob": 13,
      "▁sigara": 14,
      "ding": 15,
      "▁fer": 16,
      "▁yıllar": 17,
      "▁bakanı": 18,
      "aca": 19,
      "▁geri": 20,
      "▁istiyorum": 21,
      "▁goze": 22,
      "▁dort": 23,
      "askanı": 24,
      "▁attı": 25,
      "▁hanimdi": 26,
      "iri": 27,
      "lemeye": 28,
      "▁sayg": 29,
      "itesi": 30,
      "onel": 31,
      "▁ucret": 32,
      "lim": 33,
      "egi": 34,
      "et": 35,
      "▁hav": 36,
      "▁gars": 37,
      "▁giriste": 38,
      "al": 39,
      "eyen": 40,
      "▁at": 41,
      "▁analist": 42,
      "▁tahvilleri": 43,
      "landı": 44,
      "▁doktor": 45,
      "▁rezerv": 46,
      "▁memur": 47,
      "yle": 48,
      "▁dakik": 49,
      "uyorlar": 50,
      "▁yab": 51,
      "▁akr": 52,
      "▁atlan": 53,
      "nız": 54,
      "▁tez": 55,
      "larının": 56,
      "▁lir": 57,
      "▁yapar": 58,
      "▁gokyuz": 59,
      "▁hicbir": 60,
      "▁3": 61,
      "ib": 62,
      "▁bardagı": 63,
      "▁elektrik": 64,
      "etic": 65,
      "ilendir": 66,
      "etici": 67,
      "▁grub": 68,
      "▁ilgisi": 69,
      "lan": 70,
      "▁ellerinde": 71,
      "▁sık": 72,
      "ban": 73,
      "las": 74,
      "▁ile": 75,
      "▁boz": 76,
      "▁roman": 77,
      "ları": 78,
      "▁ac": 79,
      "▁fiyatı": 80,
      "0'da": 81,
      "▁gec": 82,
      "sınız": 83,
      "▁dengesi": 84,
      "▁hoc": 85,
      "aga": 86,
      "is": 87,
      "esinin": 88,
      "mustu": 89,
      "▁esim": 90,
      "▁zamanı": 91,
      "iyon": 92,
      "▁kısıt": 93,
      "▁genc": 94,
      "▁hamam": 95,
      "▁insanın": 96,
      "oyu": 97,
      "▁anay": 98,
      "mayan": 99,
      "akat": 100,
      "▁artıs": 101,
      "▁penc": 102,
      "▁yolda": 103,
      "▁ide": 104,
      "▁goster": 105,
      "g": 106,
      "av": 107,
      "masının": 108,
      "▁seh": 109,
      "▁bina": 110,
      "▁hit": 111,
      "▁maliyet": 112,
      "tak": 113,
      "ken": 114,
      "lav": 115,
      "▁ediyordu": 116,
      "ellikle": 117,
      "▁cap": 118,
      "▁program": 119,
      "▁kagıt": 120,
      "lanmıs": 121,
      "▁isi": 122,
      "ındaki": 123,
      "ılan": 124,
      "▁herkes": 125,
      "iye": 126,
      "▁8'den": 127,
      "▁dolar": 128,
      "atif": 129,
      "▁dav": 130,
      "▁kuy": 131,
      "▁mesaf": 132,
      "▁kusur": 133,
      "ata": 134,
      "▁ucuslarının": 135,
      "▁fiyati": 136,
      "▁gu": 137,
      "▁digerleri": 138,
      "atlar": 139,
      "anları": 140,
      "▁haf": 141,
      "▁baskanı": 142,
      "▁francisco": 143,
      "▁amma": 144,
      "lerden": 145,
      "▁hala": 146,
      "▁sis": 147,
      "▁om": 148,
      "inda": 149,
      "'dan": 150,
      "▁onun": 151,
      "▁bog": 152,
      "▁ted": 153,
      "▁yanıt": 154,
      "▁elb": 155,
      "▁onay": 156,
      "▁endek": 157,
      "▁kısı": 158,
      "isleri": 159,
      "▁oyuncu": 160,
      "▁ornek": 161,
      "▁di": 162,
      "▁;": 163,
      "▁alama": 164,
      "*": 165,
      "iligini": 166,
      "ize": 167,
      "▁misafir": 168,
      "▁bakanlıgı": 169,
      "▁kırık": 170,
      "lbu": 171,
      "apon": 172,
      "ly": 173,
      "anlar": 174,
      "▁ulasımı": 175,
      "▁yılın": 176,
      "▁gerek": 177,
      "u": 178,
      "sil": 179,
      "cag": 180,
      "▁ilg": 181,
      "mistir": 182,
      "▁memnun": 183,
      "▁toplantı": 184,
      "ıcı": 185,
      "ıma": 186,
      "ebilir": 187,
      "diye": 188,
      "▁yapıyor": 189,
      "egini": 190,
      "ucc": 191,
      "bi": 192,
      "'ndan": 193,
      "▁hapis": 194,
      "isinde": 195,
      "ediye": 196,
      "▁mul": 197,
      "▁mode": 198,
      "▁cadde": 199,
      "▁oy": 200,
      "▁odeme": 201,
      "▁fazl": 202,
      "ıgını": 203,
      "layan": 204,
      "▁tey": 205,
      "▁nokt": 206,
      "4": 207,
      "▁yok": 208,
      "▁lim": 209,
      "ması": 210,
      "▁yol": 211,
      "om": 212,
      "▁etme": 213,
      "esinden": 214,
      "▁kimi": 215,
      "▁mek": 216,
      "erleri": 217,
      "eyle": 218,
      "etli": 219,
      "▁dep": 220,
      "▁tr": 221,
      "▁dek": 222,
      "▁kaliteye": 223,
      "▁etmem": 224,
      "▁kayb": 225,
      "▁dolara": 226,
      "tir": 227,
      "▁yas": 228,
      "▁heyecan": 229,
      "▁bede": 230,
      "larımızı": 231,
      "di": 232,
      "▁e": 233,
      "▁alım": 234,
      "▁bilet": 235,
      "'tan": 236,
      "digini": 237,
      "▁philadel": 238,
      "ver": 239,
      "▁sonunda": 240,
      "▁ticaret": 241,
      "▁oper": 242,
      "umu": 243,
      "▁kere": 244,
      "▁toplam": 245,
      "▁doviz": 246,
      "ini": 247,
      "▁avukat": 248,
      "▁dustu": 249,
      "ecek": 250,
      "duk": 251,
      "▁york": 252,
      "▁olanakları": 253,
      "▁etki": 254,
      "ok": 255,
      "▁delik": 256,
      "▁indirim": 257,
      "▁altından": 258,
      "▁ha": 259,
      "▁tar": 260,
      "alarla": 261,
      "sizlik": 262,
      "▁ortak": 263,
      "▁satır": 264,
      "▁ediyor": 265,
      "▁lira": 266,
      "▁vardi": 267,
      "▁konus": 268,
      "ene": 269,
      "▁denize": 270,
      "▁camasır": 271,
      "aliydi": 272,
      "▁sid": 273,
      "▁cocugu": 274,
      "▁buldu": 275,
      "▁diger": 276,
      "▁sın": 277,
      "it": 278,
      "▁ist": 279,
      "▁gor": 280,
      "”": 281,
      "▁makal": 282,
      "ington": 283,
      "▁altına": 284,
      "▁savas": 285,
      "▁i": 286,
      "▁yerini": 287,
      "▁dor": 288,
      "▁otelde": 289,
      "ıcılar": 290,
      "▁kac": 291,
      "▁fayda": 292,
      "amet": 293,
      "▁alamadim": 294,
      "▁soyledi": 295,
      "▁isini": 296,
      "▁fiyatları": 297,
      "▁agac": 298,
      "ından": 299,
      "▁bun": 300,
      "izdi": 301,
      "▁bon": 302,
      "▁geyik": 303,
      "agına": 304,
      "▁aylık": 305,
      "laya": 306,
      "▁girisim": 307,
      "ebil": 308,
      "▁olsun": 309,
      "▁olc": 310,
      "emin": 311,
      "▁ucusları": 312,
      "lık": 313,
      "[MASK]": 314,
      "▁kendi": 315,
      "istir": 316,
      "▁karsı": 317,
      "▁tel": 318,
      "▁olması": 319,
      "mam": 320,
      "uler": 321,
      "onra": 322,
      "▁lezzetleri": 323,
      "▁bugun": 324,
      "▁kr": 325,
      "yıl": 326,
      "▁eve": 327,
      "uz": 328,
      "▁fas": 329,
      "▁uzak": 330,
      "▁gid": 331,
      "▁arkadaslar": 332,
      "aseb": 333,
      "gili": 334,
      "▁den": 335,
      "▁manzarasi": 336,
      "liginin": 337,
      "larını": 338,
      "lardı": 339,
      "ce": 340,
      "amba": 341,
      "▁yav": 342,
      "▁artık": 343,
      "▁alk": 344,
      "▁olarak": 345,
      "▁ilgilendiler": 346,
      "▁iletisim": 347,
      "tarak": 348,
      "dugu": 349,
      "▁satıs": 350,
      "ler": 351,
      "▁acık": 352,
      "rne": 353,
      "▁inan": 354,
      "▁problem": 355,
      "▁ters": 356,
      "▁gur": 357,
      "▁aileler": 358,
      "▁gun": 359,
      "▁personeller": 360,
      "arda": 361,
      "ıyorum": 362,
      "▁yıldız": 363,
      "▁olmadıgını": 364,
      "▁degisiklikler": 365,
      "▁guleryuzlu": 366,
      "lıktan": 367,
      "▁alısver": 368,
      "▁guzel": 369,
      "▁sen": 370,
      "kur": 371,
      "▁tatil": 372,
      "▁listele": 373,
      "▁burada": 374,
      "▁civarında": 375,
      "00": 376,
      "▁cins": 377,
      "ncak": 378,
      "all": 379,
      "ug": 380,
      "▁san": 381,
      "▁saglık": 382,
      "▁doneminde": 383,
      "enk": 384,
      "makta": 385,
      "day": 386,
      "▁dilim": 387,
      "▁zaten": 388,
      "▁faturam": 389,
      "▁sıra": 390,
      "▁pozisyon": 391,
      "van": 392,
      "▁tartısma": 393,
      "embe": 394,
      "▁yatırımcı": 395,
      "▁sahn": 396,
      "▁bekliyor": 397,
      "▁lob": 398,
      "▁`": 399,
      "ilik": 400,
      "▁gom": 401,
      "▁sak": 402,
      "▁savunma": 403,
      "malı": 404,
      "▁mill": 405,
      "▁arac": 406,
      "▁kum": 407,
      "▁gecir": 408,
      "izli": 409,
      "▁fran": 410,
      "▁yil": 411,
      "▁art": 412,
      "▁onem": 413,
      "▁''": 414,
      "ust": 415,
      "▁etk": 416,
      "▁kayn": 417,
      "▁per": 418,
      "▁sahibi": 419,
      "▁beye": 420,
      "elik": 421,
      "▁degerlendir": 422,
      "▁numar": 423,
      "um": 424,
      "▁gok": 425,
      "▁ala": 426,
      "amak": 427,
      "▁tehdit": 428,
      "▁ise": 429,
      "▁eline": 430,
      "eh": 431,
      "▁iz": 432,
      "▁darb": 433,
      "▁insan": 434,
      "des": 435,
      "▁nefes": 436,
      "▁olacak": 437,
      "cok": 438,
      "▁denver": 439,
      "mıstır": 440,
      "▁gayet": 441,
      "▁yan": 442,
      "se": 443,
      "▁kaldim": 444,
      "▁tesvik": 445,
      "▁lis": 446,
      "▁gosterdi": 447,
      "▁depr": 448,
      "▁kut": 449,
      "▁gecti": 450,
      "▁pantol": 451,
      "▁rakip": 452,
      "anların": 453,
      "tlu": 454,
      "▁ilgi": 455,
      "▁sah": 456,
      "▁degistir": 457,
      "▁mak": 458,
      "▁asker": 459,
      "▁vaz": 460,
      "tıktan": 461,
      "▁kisilik": 462,
      "▁...\"": 463,
      "▁herif": 464,
      "▁ziyaret": 465,
      "▁bicim": 466,
      "ız": 467,
      "▁gecen": 468,
      "▁cik": 469,
      "umda": 470,
      "▁diy": 471,
      "(": 472,
      "?": 473,
      "▁sig": 474,
      "▁huz": 475,
      "▁hangi": 476,
      "dikleri": 477,
      "▁ana": 478,
      "f": 479,
      "▁giris": 480,
      "▁gerekiyor": 481,
      "mesini": 482,
      "▁yukseldi": 483,
      "▁iki": 484,
      "▁talep": 485,
      "▁ihtim": 486,
      "▁ic": 487,
      "larım": 488,
      "▁cozum": 489,
      "▁dı": 490,
      "▁cumartesi": 491,
      "▁ornegin": 492,
      "▁birkac": 493,
      "alt": 494,
      "lac": 495,
      "alan": 496,
      "c": 497,
      "acılar": 498,
      "▁kumas": 499,
      "▁g": 500,
      "imden": 501,
      "▁ustunde": 502,
      "▁bogaz": 503,
      "▁dikkat": 504,
      "▁su": 505,
      "▁direktor": 506,
      "▁tarih": 507,
      "▁vakt": 508,
      "▁odan": 509,
      "▁it": 510,
      "▁alan": 511,
      "▁eks": 512,
      "▁buz": 513,
      "▁seviye": 514,
      "▁cift": 515,
      "▁olmad": 516,
      "▁ben": 517,
      "▁orta": 518,
      "▁prot": 519,
      "▁suyu": 520,
      "isco": 521,
      "▁halkı": 522,
      "▁du": 523,
      "▁muh": 524,
      "▁ucuyor": 525,
      "▁lik": 526,
      "unun": 527,
      "▁buyume": 528,
      "▁merkezine": 529,
      "▁ord": 530,
      "til": 531,
      "▁yakın": 532,
      "ıyor": 533,
      "edigini": 534,
      "ta": 535,
      "▁enflasyon": 536,
      "bol": 537,
      "▁tuk": 538,
      "lerdi": 539,
      "▁erk": 540,
      "ıga": 541,
      "asında": 542,
      "▁uf": 543,
      "▁durumunda": 544,
      "▁ba": 545,
      "▁devlet": 546,
      "isler": 547,
      "iyordu": 548,
      "▁beb": 549,
      "▁dusunc": 550,
      "▁amerik": 551,
      "▁ucretleri": 552,
      "ıklık": 553,
      "8": 554,
      "▁devam": 555,
      "lerim": 556,
      "udu": 557,
      "▁bolge": 558,
      "lerini": 559,
      "ia": 560,
      "▁cer": 561,
      "dug": 562,
      "▁miktar": 563,
      "▁sonr": 564,
      "▁nok": 565,
      "bak": 566,
      "▁buraya": 567,
      "iyorlar": 568,
      "▁senedi": 569,
      "▁strate": 570,
      "alarda": 571,
      "ht": 572,
      "me": 573,
      "dugunu": 574,
      "▁araya": 575,
      "▁bile": 576,
      "▁ref": 577,
      "imore": 578,
      "▁oldug": 579,
      "▁gune": 580,
      "▁endustr": 581,
      "▁cihaz": 582,
      "▁sonra": 583,
      "digim": 584,
      "▁sektor": 585,
      "▁basına": 586,
      "▁elinden": 587,
      "▁dum": 588,
      "est": 589,
      "op": 590,
      "▁tay": 591,
      "▁za": 592,
      "nun": 593,
      "▁uygun": 594,
      "▁buf": 595,
      "▁finans": 596,
      "ber": 597,
      "▁takdir": 598,
      "▁sekret": 599,
      "▁nedenle": 600,
      "▁gider": 601,
      "▁fabrika": 602,
      "eg": 603,
      "▁f": 604,
      "▁cesit": 605,
      "dim": 606,
      "▁kulak": 607,
      "▁adina": 608,
      "▁turk": 609,
      "▁cat": 610,
      "lıc": 611,
      "▁mevzu": 612,
      "iniz": 613,
      "▁ilgilen": 614,
      "▁sandal": 615,
      "▁kampan": 616,
      "5": 617,
      "▁kodu": 618,
      "eket": 619,
      "▁temel": 620,
      "▁hisseye": 621,
      "▁etmek": 622,
      "▁piyasaya": 623,
      "▁endustri": 624,
      "▁net": 625,
      "▁bi": 626,
      "▁burası": 627,
      "gur": 628,
      "esine": 629,
      "▁babası": 630,
      "lantı": 631,
      "yuzlu": 632,
      "uyla": 633,
      "▁karsıl": 634,
      "▁yuk": 635,
      "▁kotuydu": 636,
      "▁ila": 637,
      "▁mark": 638,
      "lanır": 639,
      "▁fik": 640,
      "▁yag": 641,
      "▁hikay": 642,
      "▁ruzgar": 643,
      "bu": 644,
      "eyaz": 645,
      "larından": 646,
      "emedi": 647,
      "▁suy": 648,
      "▁aday": 649,
      "▁perde": 650,
      "hur": 651,
      "▁v": 652,
      "▁kucuk": 653,
      "larla": 654,
      "▁henuz": 655,
      "▁sun": 656,
      "masını": 657,
      "▁acı": 658,
      "▁icme": 659,
      "anın": 660,
      "tıl": 661,
      "-": 662,
      "▁bakan": 663,
      "▁naz": 664,
      "ina": 665,
      "▁``": 666,
      "▁tepki": 667,
      "▁grubu": 668,
      "▁icer": 669,
      "▁hey": 670,
      "▁'": 671,
      "▁piyasanın": 672,
      "lasyon": 673,
      "'d": 674,
      "▁il": 675,
      "▁durus": 676,
      "▁masanın": 677,
      "▁belir": 678,
      "▁benim": 679,
      "▁icine": 680,
      "t": 681,
      "▁nokta": 682,
      "▁kov": 683,
      "ur": 684,
      "▁ol": 685,
      "▁en": 686,
      "▁le": 687,
      "aj": 688,
      "▁ele": 689,
      "▁makaleye": 690,
      "and": 691,
      "▁huc": 692,
      "▁ves": 693,
      "▁kent": 694,
      "▁tahta": 695,
      "▁hukuk": 696,
      "▁gunde": 697,
      ":": 698,
      "▁pek": 699,
      "▁etrafında": 700,
      "▁seyden": 701,
      "rı": 702,
      "ımız": 703,
      "▁5": 704,
      "▁dunyanın": 705,
      "▁ocak": 706,
      "▁br": 707,
      "▁ard": 708,
      "▁gunluk": 709,
      "▁altın": 710,
      "▁yolculuk": 711,
      "▁masraf": 712,
      "▁olsa": 713,
      "▁karayol": 714,
      "▁kir": 715,
      "▁ilet": 716,
      "acı": 717,
      "hal": 718,
      "inlik": 719,
      "▁uzun": 720,
      "cegini": 721,
      "▁banyo": 722,
      "ikti": 723,
      "▁hanimla": 724,
      "▁otobus": 725,
      "yi": 726,
      "▁bilgis": 727,
      "▁ikinci": 728,
      "▁kucuktu": 729,
      "▁sanayi": 730,
      "▁siir": 731,
      "▁uygulama": 732,
      "▁ceyrek": 733,
      "▁kad": 734,
      "isindan": 735,
      "deki": 736,
      "▁tesis": 737,
      "cih": 738,
      "▁sp": 739,
      "▁cıkar": 740,
      "▁dukk": 741,
      "▁arab": 742,
      "lestir": 743,
      "▁kolt": 744,
      "▁sorun": 745,
      "uyu": 746,
      "ens": 747,
      "burgh": 748,
      "▁yon": 749,
      "reti": 750,
      "ef": 751,
      "▁halde": 752,
      "▁konak": 753,
      "▁pal": 754,
      "ers": 755,
      "[PAD]": 756,
      "nd": 757,
      "▁cun": 758,
      "▁ucusların": 759,
      "▁neler": 760,
      "eceg": 761,
      "asının": 762,
      "▁kos": 763,
      "▁takip": 764,
      "vek": 765,
      "▁muhend": 766,
      "!": 767,
      "'": 768,
      "▁ed": 769,
      "▁pay": 770,
      "…": 771,
      "ıp": 772,
      "ısır": 773,
      "▁ulasım": 774,
      "▁neden": 775,
      "▁ode": 776,
      "▁tarihinde": 777,
      "▁dusman": 778,
      "hu": 779,
      "▁isci": 780,
      "▁": 781,
      "▁guv": 782,
      "▁gunun": 783,
      "▁alb": 784,
      "en": 785,
      "▁zamanlarda": 786,
      "▁nedeniyle": 787,
      "sızlık": 788,
      "▁car": 789,
      "▁korku": 790,
      "▁tutun": 791,
      "▁ucretlerini": 792,
      "▁havaalanından": 793,
      "iki": 794,
      "▁ikti": 795,
      "▁dag": 796,
      "siniz": 797,
      "kt": 798,
      "liyor": 799,
      "▁reh": 800,
      "▁olduk": 801,
      "ub": 802,
      "▁istiyor": 803,
      "▁temizlik": 804,
      "ide": 805,
      "▁adamları": 806,
      "▁mucadele": 807,
      "▁geliri": 808,
      "▁mı": 809,
      "ugu": 810,
      "▁seye": 811,
      "▁butu": 812,
      "▁.)": 813,
      "gal": 814,
      "▁gercek": 815,
      "▁kadınlar": 816,
      "▁yuzyıl": 817,
      "▁bur": 818,
      "tan": 819,
      "▁calıs": 820,
      "▁bayram": 821,
      "biy": 822,
      "▁piyasa": 823,
      "▁hanım": 824,
      "▁saldır": 825,
      "▁tem": 826,
      "▁yuzu": 827,
      "enin": 828,
      "▁cumhuriyet": 829,
      "▁oak": 830,
      "▁doları'ndan": 831,
      "▁odam": 832,
      "▁sif": 833,
      "▁muhaf": 834,
      "▁hos": 835,
      "asındaki": 836,
      "▁borc": 837,
      "▁gunleri": 838,
      "▁sermaye": 839,
      "▁poz": 840,
      "▁bisik": 841,
      "eme": 842,
      "dal": 843,
      "ian": 844,
      "▁tahviller": 845,
      "▁dahi": 846,
      "▁bıraktı": 847,
      "▁butun": 848,
      "▁huzur": 849,
      "▁odasına": 850,
      "+": 851,
      "▁as": 852,
      "dik": 853,
      "cilerin": 854,
      "▁10'dan": 855,
      "▁ser": 856,
      "▁cocuklara": 857,
      "▁zek": 858,
      "art": 859,
      "lıkları": 860,
      "▁cocuklu": 861,
      "▁ayda": 862,
      "▁cal": 863,
      "idi": 864,
      "lge": 865,
      "▁ayrıca": 866,
      "▁aradi": 867,
      "ustos": 868,
      "ston": 869,
      "▁bors": 870,
      "▁gorev": 871,
      "▁ab": 872,
      "ha": 873,
      "▁mas": 874,
      "usunda": 875,
      "▁aklı": 876,
      "ikat": 877,
      "uluk": 878,
      "▁hali": 879,
      "▁konf": 880,
      "▁cop": 881,
      "▁anlam": 882,
      "▁dakika": 883,
      "▁eger": 884,
      "▁c": 885,
      "manlar": 886,
      "▁dost": 887,
      "▁hazır": 888,
      "tansiy": 889,
      "▁anlamda": 890,
      "▁kav": 891,
      "▁personellerin": 892,
      "▁alıcı": 893,
      "▁iliski": 894,
      "▁emir": 895,
      "▁yor": 896,
      "larak": 897,
      "▁sat": 898,
      "▁ilisk": 899,
      "▁tur": 900,
      "▁olcude": 901,
      "uc": 902,
      "▁1.": 903,
      "▁ortadan": 904,
      "ecilik": 905,
      "he": 906,
      "▁sap": 907,
      "▁gel": 908,
      "▁fatur": 909,
      "▁para": 910,
      "▁rahat": 911,
      "▁ur": 912,
      "'nın": 913,
      "▁sonuclar": 914,
      "▁islerini": 915,
      "▁sirk": 916,
      "▁lezz": 917,
      "▁havaalanı": 918,
      "▁odalari": 919,
      "▁karsiligini": 920,
      "▁s": 921,
      "▁kay": 922,
      "mayı": 923,
      "▁or": 924,
      "▁kaldırım": 925,
      "▁.\"": 926,
      "▁temsil": 927,
      "▁duvar": 928,
      "ılması": 929,
      "at": 930,
      "▁ins": 931,
      "▁oldugunu": 932,
      "▁cak": 933,
      "ildi": 934,
      "▁ister": 935,
      "▁yuksek": 936,
      "ırdı": 937,
      "eydi": 938,
      "▁dos": 939,
      "▁ov": 940,
      "▁av": 941,
      "tih": 942,
      "▁kafa": 943,
      "▁dususle": 944,
      "▁oc": 945,
      "ımızda": 946,
      "▁arttı": 947,
      "▁kasab": 948,
      "▁kis": 949,
      "▁tavuk": 950,
      "▁cunku": 951,
      "▁kalit": 952,
      "▁kon": 953,
      "▁yemekler": 954,
      "atı": 955,
      "▁yiyecekler": 956,
      "▁asagıda": 957,
      "istel": 958,
      "▁cumle": 959,
      "▁op": 960,
      "ak": 961,
      "erh": 962,
      "▁futbol": 963,
      "▁yerinden": 964,
      "▁butce": 965,
      "▁met": 966,
      "▁pazar": 967,
      "akları": 968,
      "agının": 969,
      "▁aqu": 970,
      "iyeti": 971,
      "▁inter": 972,
      "▁meyve": 973,
      "dık": 974,
      "ır": 975,
      "▁tucc": 976,
      "eticisi": 977,
      "▁m": 978,
      "▁hız": 979,
      "▁ayakta": 980,
      "▁bulut": 981,
      "▁tesv": 982,
      "▁dert": 983,
      "ev": 984,
      "▁elektr": 985,
      "▁arası": 986,
      "▁eser": 987,
      "▁tamam": 988,
      "▁cih": 989,
      "▁merdiven": 990,
      "sim": 991,
      "▁yetkili": 992,
      "▁atlanta": 993,
      "▁ayr": 994,
      "cının": 995,
      "▁soyluyor": 996,
      "aat": 997,
      "unde": 998,
      "liydi": 999,
      "▁dem": 1000,
      "▁duzey": 1001,
      "▁in": 1002,
      "▁kıymet": 1003,
      "▁menkul": 1004,
      "▁kisi": 1005,
      "▁sacları": 1006,
      "misti": 1007,
      "▁maz": 1008,
      "in": 1009,
      "▁denver'den": 1010,
      "▁olmadi": 1011,
      "▁cum": 1012,
      "▁basarı": 1013,
      "▁dair": 1014,
      "▁incel": 1015,
      "lam": 1016,
      "▁alay": 1017,
      "ime": 1018,
      "ma": 1019,
      "▁olan": 1020,
      "▁otom": 1021,
      "▁kultur": 1022,
      "▁sırada": 1023,
      "'ya": 1024,
      "▁yolunu": 1025,
      "ili": 1026,
      "isi": 1027,
      "▁lu": 1028,
      "▁kazan": 1029,
      "▁duk": 1030,
      "▁merak": 1031,
      "▁nes": 1032,
      "eviz": 1033,
      "eye": 1034,
      "▁uzman": 1035,
      "▁piyasada": 1036,
      "▁hatta": 1037,
      "▁potansiyel": 1038,
      "▁med": 1039,
      "ldi": 1040,
      "malar": 1041,
      "enc": 1042,
      "izlik": 1043,
      "▁temmuz": 1044,
      "▁gitti": 1045,
      "▁yuv": 1046,
      "▁sirket": 1047,
      "tıs": 1048,
      "aret": 1049,
      "▁edebiyat": 1050,
      "teri": 1051,
      "▁firma": 1052,
      "▁endise": 1053,
      "▁kendis": 1054,
      "▁ipotek": 1055,
      "▁oysa": 1056,
      "egin": 1057,
      "edef": 1058,
      "ınlık": 1059,
      "▁demokr": 1060,
      "▁ede": 1061,
      "▁kalmadim": 1062,
      "adan": 1063,
      "▁elinde": 1064,
      "▁pittsburgh": 1065,
      "orta": 1066,
      "▁tip": 1067,
      "▁cevre": 1068,
      "ograf": 1069,
      "▁fot": 1070,
      "’": 1071,
      "▁fiyat": 1072,
      "▁sevg": 1073,
      "▁teb": 1074,
      "stu": 1075,
      "▁st": 1076,
      "cısı": 1077,
      "▁kara": 1078,
      "▁portfoy": 1079,
      "▁bor": 1080,
      "ka": 1081,
      "▁sart": 1082,
      "▁es": 1083,
      "▁lam": 1084,
      "▁gecesi": 1085,
      "must": 1086,
      "▁soru": 1087,
      "▁yıllık": 1088,
      "▁pan": 1089,
      "▁yolcul": 1090,
      "▁sure": 1091,
      "▁cekti": 1092,
      "d": 1093,
      "▁bana": 1094,
      "▁annesi": 1095,
      "▁hukum": 1096,
      "ore": 1097,
      "irdi": 1098,
      "▁yıla": 1099,
      "▁uye": 1100,
      "lisi": 1101,
      "▁hukumetin": 1102,
      "▁ne": 1103,
      "▁personel": 1104,
      "ing": 1105,
      "net": 1106,
      "6": 1107,
      "▁ham": 1108,
      "lıga": 1109,
      "▁pit": 1110,
      "▁mekte": 1111,
      "▁birer": 1112,
      "▁salon": 1113,
      "▁konuda": 1114,
      "▁acıklam": 1115,
      "▁yeni": 1116,
      "▁kagı": 1117,
      "imizi": 1118,
      "digi": 1119,
      "sı": 1120,
      "eyr": 1121,
      "ark": 1122,
      "lılık": 1123,
      "▁danıs": 1124,
      "▁baska": 1125,
      "▁barda": 1126,
      "adı": 1127,
      "▁atlanta'ya": 1128,
      "▁nedir": 1129,
      "▁mim": 1130,
      "lar": 1131,
      "▁bil": 1132,
      "kin": 1133,
      "▁isin": 1134,
      "rken": 1135,
      "▁belirt": 1136,
      "ade": 1137,
      "mıstı": 1138,
      "suzluk": 1139,
      "▁kart": 1140,
      "▁w": 1141,
      "▁sark": 1142,
      "▁cıg": 1143,
      "▁park": 1144,
      "▁listel": 1145,
      "▁must": 1146,
      "▁deney": 1147,
      "on": 1148,
      "▁olay": 1149,
      "▁sayısı": 1150,
      "▁gen": 1151,
      "▁servisi": 1152,
      "▁bah": 1153,
      "tık": 1154,
      "▁katılım": 1155,
      "▁cocukları": 1156,
      "▁im": 1157,
      "'t": 1158,
      "tigini": 1159,
      "▁vad": 1160,
      "▁nakit": 1161,
      "▁phil": 1162,
      "meger": 1163,
      "man": 1164,
      "▁potansiy": 1165,
      "▁bek": 1166,
      "cisi": 1167,
      "▁numara": 1168,
      "▁kims": 1169,
      "▁mu": 1170,
      "▁tad": 1171,
      "▁birtak": 1172,
      "▁ziy": 1173,
      "▁beydi": 1174,
      "▁der": 1175,
      "▁eder": 1176,
      "▁ayn": 1177,
      "▁dedi": 1178,
      "leket": 1179,
      "ustu": 1180,
      "▁oner": 1181,
      "lı": 1182,
      "▁kend": 1183,
      "▁dava": 1184,
      "ik": 1185,
      "▁yapmak": 1186,
      "▁getir": 1187,
      "▁konusu": 1188,
      "indan": 1189,
      "▁fikir": 1190,
      "tar": 1191,
      "▁yuz": 1192,
      "▁cif": 1193,
      "medi": 1194,
      "id": 1195,
      "▁6": 1196,
      "▁halka": 1197,
      "▁musteri": 1198,
      "▁sozcusu": 1199,
      "▁azal": 1200,
      "‘": 1201,
      "▁yalan": 1202,
      "▁zira": 1203,
      "ult": 1204,
      "▁meydana": 1205,
      "irler": 1206,
      ";": 1207,
      "end": 1208,
      "▁de": 1209,
      "▁sov": 1210,
      "▁bası": 1211,
      "▁harekete": 1212,
      "ve": 1213,
      "▁fiyatlarını": 1214,
      "aset": 1215,
      "▁dudak": 1216,
      "▁lut": 1217,
      "ate": 1218,
      "si": 1219,
      "ivers": 1220,
      "▁izin": 1221,
      "▁mun": 1222,
      "▁?..": 1223,
      "▁oyunc": 1224,
      "oksa": 1225,
      "▁birbir": 1226,
      "okr": 1227,
      "▁oteli": 1228,
      "▁uretim": 1229,
      "ttı": 1230,
      "▁farkında": 1231,
      "▁ar": 1232,
      "re": 1233,
      "ayet": 1234,
      "ledi": 1235,
      "▁pil": 1236,
      "ımı": 1237,
      "attı": 1238,
      "▁enerji": 1239,
      "▁yurtd": 1240,
      "iden": 1241,
      "▁kahv": 1242,
      "▁bl": 1243,
      "▁tekrar": 1244,
      "esti": 1245,
      "▁yaln": 1246,
      "▁duny": 1247,
      "meler": 1248,
      "▁edin": 1249,
      "▁$": 1250,
      "▁2": 1251,
      "ska": 1252,
      "▁$'dan": 1253,
      "imiz": 1254,
      "▁plani": 1255,
      "▁ec": 1256,
      "▁hasar": 1257,
      "▁buyuk": 1258,
      "▁yılında": 1259,
      "kon": 1260,
      "▁bayan": 1261,
      "▁temizdi": 1262,
      "▁fr": 1263,
      "▁bugune": 1264,
      "alle": 1265,
      "lo": 1266,
      "▁esy": 1267,
      "▁ola": 1268,
      "▁ara": 1269,
      "lugunu": 1270,
      "cılık": 1271,
      "▁vergi": 1272,
      "▁ka": 1273,
      "▁makin": 1274,
      "udur": 1275,
      "▁degeri": 1276,
      "▁yarıs": 1277,
      "▁doları'na": 1278,
      "▁sir": 1279,
      "▁muzak": 1280,
      "▁bircok": 1281,
      "▁gidiyor": 1282,
      "mı": 1283,
      "▁iyi": 1284,
      "▁beni": 1285,
      "▁yog": 1286,
      "ali": 1287,
      "▁sist": 1288,
      "▁hat": 1289,
      "▁(": 1290,
      "▁veril": 1291,
      "qu": 1292,
      "▁amer": 1293,
      "▁ucuz": 1294,
      "▁cicek": 1295,
      "▁bul": 1296,
      "▁eli": 1297,
      "▁iddi": 1298,
      "▁ozel": 1299,
      "▁ogrenci": 1300,
      "▁gogs": 1301,
      "▁ceb": 1302,
      "▁evi": 1303,
      "elerle": 1304,
      "ısı": 1305,
      "hi": 1306,
      "den": 1307,
      "▁agız": 1308,
      "▁bazı": 1309,
      "unc": 1310,
      "▁ula": 1311,
      "▁odada": 1312,
      "▁bankası": 1313,
      "▁yemek": 1314,
      "▁kapının": 1315,
      "za": 1316,
      "▁dogr": 1317,
      "eden": 1318,
      "ın": 1319,
      "▁kit": 1320,
      "ladı": 1321,
      "▁hes": 1322,
      "uru": 1323,
      "▁yasında": 1324,
      "▁buy": 1325,
      "▁otelden": 1326,
      "ari": 1327,
      "asa": 1328,
      "▁japon": 1329,
      "eni": 1330,
      "ligini": 1331,
      "erli": 1332,
      "▁malzem": 1333,
      "▁hemen": 1334,
      "etr": 1335,
      "▁otomobil": 1336,
      "▁kamu": 1337,
      "▁hap": 1338,
      "agı": 1339,
      "▁ve": 1340,
      "▁mola": 1341,
      "▁he": 1342,
      "▁duz": 1343,
      "tu": 1344,
      "▁sa": 1345,
      "larda": 1346,
      "▁kosulları": 1347,
      "▁bic": 1348,
      "imi": 1349,
      "▁etraf": 1350,
      "ek": 1351,
      "▁tasım": 1352,
      "▁bıy": 1353,
      "▁bolumu": 1354,
      "▁vadeli": 1355,
      "▁sur": 1356,
      "▁cin": 1357,
      "▁eskiydi": 1358,
      "▁rapor": 1359,
      "▁sip": 1360,
      "lerle": 1361,
      "▁dolarlık": 1362,
      "▁bizim": 1363,
      "▁gob": 1364,
      "▁u": 1365,
      "▁hizmetten": 1366,
      "ro": 1367,
      "▁ucreti": 1368,
      "ecegini": 1369,
      "▁sahipleri": 1370,
      "▁end": 1371,
      "—": 1372,
      "lacak": 1373,
      "▁olanaklari": 1374,
      "▁basar": 1375,
      "ılır": 1376,
      "▁kıv": 1377,
      "▁ust": 1378,
      "▁insanların": 1379,
      "▁geliyor": 1380,
      "iski": 1381,
      "▁sefer": 1382,
      "p": 1383,
      "▁ruz": 1384,
      "▁rad": 1385,
      "▁kızı": 1386,
      "▁aracı": 1387,
      "▁dom": 1388,
      "▁kahvalti": 1389,
      "▁bahs": 1390,
      "i": 1391,
      "▁gitmek": 1392,
      "▁gazet": 1393,
      "▁sanat": 1394,
      "▁gidi": 1395,
      "muz": 1396,
      "enuz": 1397,
      "maktan": 1398,
      "hane": 1399,
      "▁bay": 1400,
      "▁lid": 1401,
      "uye": 1402,
      "▁icin": 1403,
      "larında": 1404,
      "▁oyunu": 1405,
      "▁olabilirdi": 1406,
      "▁dusus": 1407,
      "enleri": 1408,
      "▁dar": 1409,
      "▁derecede": 1410,
      "luk": 1411,
      "dur": 1412,
      "or": 1413,
      "▁parca": 1414,
      "▁kamyon": 1415,
      "#": 1416,
      "▁fut": 1417,
      "▁okum": 1418,
      "▁anket": 1419,
      "usunun": 1420,
      "iklik": 1421,
      "▁beyin": 1422,
      "ecegi": 1423,
      "▁burn": 1424,
      "▁soy": 1425,
      "▁elbis": 1426,
      "▁serv": 1427,
      "ınız": 1428,
      "maları": 1429,
      "isiyle": 1430,
      "uy": 1431,
      "▁piyas": 1432,
      "▁parcası": 1433,
      "0'": 1434,
      "▁halinde": 1435,
      "▁birlik": 1436,
      "▁degisim": 1437,
      "ati": 1438,
      "▁tas": 1439,
      "▁is": 1440,
      "▁vucud": 1441,
      "▁ih": 1442,
      "▁insaat": 1443,
      "ent": 1444,
      "ıyordu": 1445,
      "▁fabr": 1446,
      "mad": 1447,
      "▁bilmek": 1448,
      "▁masa": 1449,
      "▁esk": 1450,
      "▁saat": 1451,
      "leri": 1452,
      "▁gelir": 1453,
      "dek": 1454,
      "▁mes": 1455,
      "▁alt": 1456,
      "▁cay": 1457,
      "arında": 1458,
      "▁bey": 1459,
      "▁dusur": 1460,
      "ki": 1461,
      "▁dunyaya": 1462,
      "▁olmus": 1463,
      "zet": 1464,
      "▁karak": 1465,
      "liginden": 1466,
      "▁pla": 1467,
      "▁portf": 1468,
      "▁ef": 1469,
      "▁gucu": 1470,
      "▁patlıc": 1471,
      "▁bin": 1472,
      "▁boston'a": 1473,
      "▁fiyatlar": 1474,
      "▁sonucu": 1475,
      ">": 1476,
      "▁organ": 1477,
      "uldu": 1478,
      "leyi": 1479,
      "▁belki": 1480,
      "▁gunden": 1481,
      "▁ark": 1482,
      "lanı": 1483,
      "tıgı": 1484,
      "▁satım": 1485,
      "▁hab": 1486,
      "▁endust": 1487,
      "▁evin": 1488,
      "▁gi": 1489,
      "▁yuzune": 1490,
      "▁vardı": 1491,
      "asından": 1492,
      "▁mer": 1493,
      "▁kalkan": 1494,
      "tiler": 1495,
      "iyor": 1496,
      "etim": 1497,
      "▁.'": 1498,
      "▁hesap": 1499,
      "▁geriye": 1500,
      "iligi": 1501,
      "▁ort": 1502,
      "isten": 1503,
      "lerimizi": 1504,
      "▁port": 1505,
      "▁cumhurb": 1506,
      "ite": 1507,
      "▁ifade": 1508,
      "▁wash": 1509,
      "▁suru": 1510,
      "▁kısmı": 1511,
      "▁ask": 1512,
      "elerde": 1513,
      "lk": 1514,
      "▁din": 1515,
      "ince": 1516,
      "esi": 1517,
      "▁motor": 1518,
      "▁mevdu": 1519,
      "▁mektu": 1520,
      "▁sınav": 1521,
      "▁yaklasimi": 1522,
      "▁ta": 1523,
      "gıt": 1524,
      "▁polit": 1525,
      "▁elde": 1526,
      "ciler": 1527,
      "▁gordum": 1528,
      "▁=": 1529,
      "madı": 1530,
      "▁get": 1531,
      "▁r": 1532,
      "▁kır": 1533,
      "▁id": 1534,
      "▁yılı": 1535,
      "▁belediye": 1536,
      "a": 1537,
      "▁tavır": 1538,
      "am": 1539,
      "raz": 1540,
      "▁..": 1541,
      "gre": 1542,
      "▁kuv": 1543,
      "liye": 1544,
      "▁vatand": 1545,
      "▁eglen": 1546,
      "▁fa": 1547,
      "ının": 1548,
      "istler": 1549,
      "▁kazanc": 1550,
      "▁yılda": 1551,
      "▁iy": 1552,
      "▁milyondan": 1553,
      "na": 1554,
      "lig": 1555,
      "▁suk": 1556,
      "▁kan": 1557,
      "uguna": 1558,
      "▁yatırım": 1559,
      "▁begen": 1560,
      "▁olma": 1561,
      "▁ir": 1562,
      "▁paranın": 1563,
      "der": 1564,
      "eyh": 1565,
      "▁kam": 1566,
      "▁prof": 1567,
      "▁teklif": 1568,
      "▁arada": 1569,
      "▁oranları": 1570,
      "▁koy": 1571,
      "▁kaf": 1572,
      "▁gozleri": 1573,
      "▁havaal": 1574,
      "▁toh": 1575,
      "▁detay": 1576,
      "uklu": 1577,
      "▁kitap": 1578,
      "▁guler": 1579,
      "ına": 1580,
      "▁indir": 1581,
      "▁ail": 1582,
      "▁cars": 1583,
      "▁sozles": 1584,
      "▁geldi": 1585,
      "▁cab": 1586,
      "▁beg": 1587,
      "▁kop": 1588,
      "lıgın": 1589,
      "y": 1590,
      "dil": 1591,
      "cak": 1592,
      "im": 1593,
      "▁hast": 1594,
      "ch": 1595,
      "▁unu": 1596,
      "▁bugday": 1597,
      "stı": 1598,
      "iber": 1599,
      "▁zamanda": 1600,
      "▁sorumluluk": 1601,
      "▁ordu": 1602,
      "▁nisan": 1603,
      "▁satın": 1604,
      "▁haber": 1605,
      "erik": 1606,
      "▁199": 1607,
      "▁lezzet": 1608,
      "▁yapım": 1609,
      "▁hayal": 1610,
      "etin": 1611,
      "▁duygu": 1612,
      "sen": 1613,
      "▁hisse": 1614,
      "▁ortasında": 1615,
      "▁sec": 1616,
      "▁pencer": 1617,
      "▁misafirimiz": 1618,
      "▁tahv": 1619,
      "▁prens": 1620,
      "ulmus": 1621,
      "▁kuvv": 1622,
      "gr": 1623,
      "▁raf": 1624,
      "uzluydu": 1625,
      "▁kayıt": 1626,
      "acak": 1627,
      "▁francisco'ya": 1628,
      "▁mulk": 1629,
      "▁muk": 1630,
      "▁kah": 1631,
      "▁aj": 1632,
      "▁..\"": 1633,
      "▁yumur": 1634,
      "▁kotu": 1635,
      "▁dil": 1636,
      "▁carsaf": 1637,
      "uya": 1638,
      "▁mucade": 1639,
      "lugun": 1640,
      "▁devletin": 1641,
      "▁edi": 1642,
      "anlık": 1643,
      "▁corba": 1644,
      "▁dol": 1645,
      "▁istemiyorum": 1646,
      "▁kararı": 1647,
      "▁guzeldi": 1648,
      "▁itibariyle": 1649,
      "eci": 1650,
      "lendir": 1651,
      "▁kapsam": 1652,
      "▁anlasma": 1653,
      "▁adamın": 1654,
      "▁sadece": 1655,
      "az": 1656,
      "▁olmaya": 1657,
      "amam": 1658,
      "▁yahut": 1659,
      "lanıyor": 1660,
      "oc": 1661,
      "▁boston'dan": 1662,
      "▁itiraz": 1663,
      "▁edeb": 1664,
      "dar": 1665,
      "▁politika": 1666,
      "▁gordu": 1667,
      "▁gayr": 1668,
      "▁cek": 1669,
      "▁siz": 1670,
      "aba": 1671,
      "▁istem": 1672,
      "▁cogu": 1673,
      "cı": 1674,
      "▁cocukların": 1675,
      "▁iste": 1676,
      "onelik": 1677,
      "ımdan": 1678,
      "▁asagı": 1679,
      "ıyla": 1680,
      ".": 1681,
      "▁rakamlar": 1682,
      "▁istihdam": 1683,
      "▁cev": 1684,
      "▁sim": 1685,
      "▁gum": 1686,
      "▁sermay": 1687,
      "2": 1688,
      "▁re": 1689,
      "▁te": 1690,
      "emez": 1691,
      "▁kaldır": 1692,
      "▁tercih": 1693,
      "▁alır": 1694,
      "iyatr": 1695,
      "▁icra": 1696,
      "▁gozu": 1697,
      "enek": 1698,
      "▁seviyesine": 1699,
      "es": 1700,
      "sa": 1701,
      "▁risk": 1702,
      "▁olum": 1703,
      "lul": 1704,
      "▁hedef": 1705,
      "une": 1706,
      "ba": 1707,
      "▁yonetici": 1708,
      "▁tab": 1709,
      "▁lez": 1710,
      "▁akt": 1711,
      "▁peyn": 1712,
      "irim": 1713,
      "▁oakland": 1714,
      "lastı": 1715,
      "▁olcu": 1716,
      "astır": 1717,
      "'nde": 1718,
      "ıdır": 1719,
      "luga": 1720,
      "▁nam": 1721,
      "▁faz": 1722,
      "▁hizmetinden": 1723,
      "▁ok": 1724,
      "▁kalem": 1725,
      "edi": 1726,
      "▁onlar": 1727,
      "eri": 1728,
      "if": 1729,
      "eticiler": 1730,
      "len": 1731,
      "▁arastır": 1732,
      "▁istih": 1733,
      "▁zaf": 1734,
      "▁franc": 1735,
      "▁komisyonu": 1736,
      "▁gayrimen": 1737,
      "ıda": 1738,
      "▁univers": 1739,
      "to": 1740,
      "▁adet": 1741,
      "▁ekm": 1742,
      "▁tren": 1743,
      "▁sal": 1744,
      "▁dallas'a": 1745,
      "ab": 1746,
      "▁yemeklerde": 1747,
      "tin": 1748,
      "▁paran": 1749,
      "uv": 1750,
      "▁iyiydi": 1751,
      "▁don": 1752,
      "artesi": 1753,
      "▁makine": 1754,
      "▁kavram": 1755,
      "▁ko": 1756,
      "ılıgı": 1757,
      "▁dun": 1758,
      "▁gaz": 1759,
      "▁hukumeti": 1760,
      "ırt": 1761,
      "atik": 1762,
      "undan": 1763,
      "▁ticarette": 1764,
      "▁beklenti": 1765,
      "▁bar": 1766,
      "▁performans": 1767,
      "ap": 1768,
      "▁katil": 1769,
      "urlu": 1770,
      "ork": 1771,
      "el": 1772,
      "▁yaz": 1773,
      "▁nef": 1774,
      "▁genel": 1775,
      "▁ısık": 1776,
      "▁tahvil": 1777,
      "▁pittsburgh'tan": 1778,
      "▁buyum": 1779,
      "▁ogleden": 1780,
      "do": 1781,
      "▁8": 1782,
      "▁mart": 1783,
      "▁hay": 1784,
      "iv": 1785,
      "▁kalitesi": 1786,
      "▁ayında": 1787,
      "▁philadelphia": 1788,
      "ast": 1789,
      "ni": 1790,
      "▁ofk": 1791,
      "▁herhangi": 1792,
      "cun": 1793,
      "▁milyardan": 1794,
      "▁\"": 1795,
      "▁a": 1796,
      "adde": 1797,
      "▁oz": 1798,
      "▁bat": 1799,
      "rak": 1800,
      "▁kayıp": 1801,
      "madik": 1802,
      "▁yana": 1803,
      "▁parayı": 1804,
      "▁olm": 1805,
      "▁istifa": 1806,
      "▁durumda": 1807,
      "ess": 1808,
      "▁katkıda": 1809,
      "▁avuk": 1810,
      "j": 1811,
      "▁birtakım": 1812,
      "ph": 1813,
      "ruk": 1814,
      "▁calisanlar": 1815,
      "▁taz": 1816,
      "▁engel": 1817,
      "l": 1818,
      "onun": 1819,
      "▁elleri": 1820,
      "anıt": 1821,
      "▁gey": 1822,
      "aki": 1823,
      "▁odaya": 1824,
      "▁diz": 1825,
      "yor": 1826,
      "gisi": 1827,
      "inti": 1828,
      "alım": 1829,
      "▁aktarmasız": 1830,
      "▁gelen": 1831,
      "▁sınıfı": 1832,
      "▁insana": 1833,
      "▁ev": 1834,
      "▁do": 1835,
      "▁bank": 1836,
      "▁gerektigini": 1837,
      "▁animasyon": 1838,
      "▁yak": 1839,
      "▁dunyada": 1840,
      ".5": 1841,
      "▁ogrenmek": 1842,
      "orm": 1843,
      "ı": 1844,
      "medim": 1845,
      "▁kot": 1846,
      "▁vat": 1847,
      "▁gosterin": 1848,
      "▁veririm": 1849,
      "▁aleyh": 1850,
      "▁siy": 1851,
      "adem": 1852,
      "▁yemeklerinden": 1853,
      "▁ten": 1854,
      "▁alıs": 1855,
      "▁endeksi": 1856,
      "▁fiyata": 1857,
      "kel": 1858,
      "kul": 1859,
      "gah": 1860,
      "ıstır": 1861,
      "▁adamı": 1862,
      "▁ek": 1863,
      "▁basbak": 1864,
      "▁mezar": 1865,
      "ıh": 1866,
      "▁rekabet": 1867,
      "▁sistemi": 1868,
      "▁hissesi": 1869,
      "ydı": 1870,
      "▁sona": 1871,
      "lerinin": 1872,
      "▁hayat": 1873,
      "▁hizmetleri": 1874,
      "▁duzen": 1875,
      "▁ker": 1876,
      "▁anim": 1877,
      "tif": 1878,
      "▁nit": 1879,
      "▁tep": 1880,
      "▁adam": 1881,
      "▁otob": 1882,
      "▁karn": 1883,
      "▁ozgur": 1884,
      "▁rezervasyon": 1885,
      "▁kaldı": 1886,
      "▁agz": 1887,
      "▁nedeni": 1888,
      "▁tav": 1889,
      "▁yetkilileri": 1890,
      "▁sozcu": 1891,
      "usunu": 1892,
      "nak": 1893,
      "iste": 1894,
      "▁yardimci": 1895,
      "onom": 1896,
      "ıyorlar": 1897,
      "▁kaz": 1898,
      "▁elestiri": 1899,
      "▁baltimore": 1900,
      "▁sebeb": 1901,
      "▁ortaya": 1902,
      "obil": 1903,
      "▁clas": 1904,
      "▁borsa": 1905,
      "▁send": 1906,
      "▁yapmayı": 1907,
      "lik": 1908,
      "ji": 1909,
      "go": 1910,
      "▁surec": 1911,
      "▁dog": 1912,
      "▁yetk": 1913,
      "▁sar": 1914,
      "▁gol": 1915,
      "▁bunun": 1916,
      "▁hacim": 1917,
      "▁gunah": 1918,
      "▁seyleri": 1919,
      "eler": 1920,
      "▁inc": 1921,
      "andan": 1922,
      "▁gr": 1923,
      "▁mah": 1924,
      "▁ihr": 1925,
      "▁banka": 1926,
      "▁rak": 1927,
      "manın": 1928,
      "▁kup": 1929,
      "▁atlanta'dan": 1930,
      "▁limon": 1931,
      "▁kız": 1932,
      "▁imal": 1933,
      "▁bu": 1934,
      "leriyle": 1935,
      "▁ikram": 1936,
      "par": 1937,
      "_": 1938,
      "▁bicimde": 1939,
      "▁imkanlar": 1940,
      "▁karsılık": 1941,
      "▁gos": 1942,
      "▁artısla": 1943,
      "dım": 1944,
      "▁ederim": 1945,
      "▁rezervasyonu": 1946,
      "▁hayatı": 1947,
      "▁gercekl": 1948,
      "▁cir": 1949,
      "elim": 1950,
      "▁kıymetler": 1951,
      "▁anlattı": 1952,
      "▁hac": 1953,
      "▁oteldi": 1954,
      "▁kab": 1955,
      "▁hayvan": 1956,
      "▁uyku": 1957,
      "▁isleri": 1958,
      "bul": 1959,
      "▁j": 1960,
      "▁misaf": 1961,
      "▁istasyon": 1962,
      "▁dev": 1963,
      "▁basında": 1964,
      "▁yıld": 1965,
      "▁deniz": 1966,
      "▁egit": 1967,
      "▁mahkem": 1968,
      "ci": 1969,
      "▁dov": 1970,
      "▁icecekler": 1971,
      "▁arkadas": 1972,
      "▁!": 1973,
      "'in": 1974,
      "▁bak": 1975,
      "▁kıl": 1976,
      "▁gunduz": 1977,
      "aları": 1978,
      "▁uzerine": 1979,
      "▁kampanyalar": 1980,
      "▁yanl": 1981,
      "▁uyum": 1982,
      "oloj": 1983,
      "ansiyon": 1984,
      "edigim": 1985,
      "▁iflas": 1986,
      "▁kus": 1987,
      "▁of": 1988,
      "uga": 1989,
      "lem": 1990,
      "▁cam": 1991,
      "lek": 1992,
      "▁arkasından": 1993,
      "▁az": 1994,
      "▁ikisi": 1995,
      "dum": 1996,
      "▁calısma": 1997,
      "▁nedenlerden": 1998,
      "▁seyi": 1999,
      "▁kul": 2000,
      "lıyor": 2001,
      "ayla": 2002,
      "x": 2003,
      "atlı": 2004,
      "▁paket": 2005,
      "▁takım": 2006,
      "▁alak": 2007,
      "▁pazartesi": 2008,
      "ov": 2009,
      "▁sorunu": 2010,
      "v": 2011,
      "▁ap": 2012,
      "ya": 2013,
      "▁yandan": 2014,
      "miyor": 2015,
      "ıntı": 2016,
      "sız": 2017,
      "▁senetleri": 2018,
      "▁insanları": 2019,
      "▁oldugu": 2020,
      "▁cumhur": 2021,
      "ımızı": 2022,
      "▁kimse": 2023,
      "▁yanında": 2024,
      "▁yolu": 2025,
      "sel": 2026,
      "ugunu": 2027,
      "▁sog": 2028,
      "▁haz": 2029,
      "▁oda": 2030,
      "▁dergi": 2031,
      "'de": 2032,
      "▁saatlerinde": 2033,
      "▁inanc": 2034,
      "mey": 2035,
      "▁dans": 2036,
      "nc": 2037,
      "▁sını": 2038,
      "ını": 2039,
      "mem": 2040,
      "▁cık": 2041,
      "iyorum": 2042,
      "▁tesisti": 2043,
      "▁caba": 2044,
      "▁ardından": 2045,
      "▁tarla": 2046,
      "geleri": 2047,
      "▁cok": 2048,
      "bir": 2049,
      "▁teh": 2050,
      "▁dig": 2051,
      "▁kim": 2052,
      "▁sevk": 2053,
      "▁ad": 2054,
      "▁yard": 2055,
      "imin": 2056,
      "▁.": 2057,
      "▁baslan": 2058,
      "ısının": 2059,
      "▁dalg": 2060,
      "▁$'a": 2061,
      "▁ici": 2062,
      "m": 2063,
      "▁sohbet": 2064,
      "li": 2065,
      "▁bagım": 2066,
      "asyonu": 2067,
      "ıt": 2068,
      "igini": 2069,
      "▁zincir": 2070,
      "▁uretimi": 2071,
      "q": 2072,
      "unden": 2073,
      "tıgını": 2074,
      "▁dekor": 2075,
      "▁sınır": 2076,
      "▁l": 2077,
      "'nin": 2078,
      "▁simdiye": 2079,
      "▁tanı": 2080,
      "lıgı": 2081,
      "▁han": 2082,
      "ecegim": 2083,
      "▁katk": 2084,
      "esini": 2085,
      "▁acısından": 2086,
      "evizyon": 2087,
      "00'": 2088,
      "mıyor": 2089,
      "▁itibar": 2090,
      "▁sozc": 2091,
      "9": 2092,
      "▁,": 2093,
      "ere": 2094,
      "▁acıkladı": 2095,
      "▁bos": 2096,
      "▁hafta": 2097,
      "may": 2098,
      "▁kontr": 2099,
      "▁kurum": 2100,
      "▁kaynak": 2101,
      "▁taraf": 2102,
      "▁gorus": 2103,
      "▁kurs": 2104,
      "estiri": 2105,
      "ardı": 2106,
      "gel": 2107,
      "▁onceki": 2108,
      "tluk": 2109,
      "ara": 2110,
      "▁milyon": 2111,
      "n": 2112,
      "▁ph": 2113,
      "▁genis": 2114,
      "▁kardes": 2115,
      "▁gunlerde": 2116,
      "mamıs": 2117,
      "▁zorluk": 2118,
      "▁ken": 2119,
      "▁patates": 2120,
      "▁piyasası": 2121,
      "os": 2122,
      "osu": 2123,
      "▁rekor": 2124,
      "st": 2125,
      "▁ucusu": 2126,
      "▁ver": 2127,
      "▁kor": 2128,
      "▁guven": 2129,
      "▁cen": 2130,
      "abet": 2131,
      "▁sehir": 2132,
      "▁avuc": 2133,
      "eb": 2134,
      "▁ama": 2135,
      "▁tasarruf": 2136,
      "▁rom": 2137,
      "▁bahc": 2138,
      "lıgına": 2139,
      "▁tut": 2140,
      "▁gunu": 2141,
      "aması": 2142,
      "gar": 2143,
      "▁kisiler": 2144,
      "adar": 2145,
      "▁taleb": 2146,
      "▁birim": 2147,
      "▁edildi": 2148,
      "▁aksama": 2149,
      "▁fak": 2150,
      "kah": 2151,
      "▁yum": 2152,
      "▁sav": 2153,
      "ıkları": 2154,
      "▁sorum": 2155,
      "ızın": 2156,
      "▁oyunun": 2157,
      "[CLS]": 2158,
      "meye": 2159,
      "▁satıslar": 2160,
      "▁tu": 2161,
      "ada": 2162,
      "sak": 2163,
      "▁mec": 2164,
      "▁niyet": 2165,
      "▁gozler": 2166,
      "▁hasta": 2167,
      "mus": 2168,
      "ed": 2169,
      "ısından": 2170,
      "1": 2171,
      "ran": 2172,
      "unu": 2173,
      "▁konumu": 2174,
      "imdi": 2175,
      "▁t": 2176,
      "cut": 2177,
      "▁sesi": 2178,
      "ersiz": 2179,
      "▁mektup": 2180,
      "▁yeri": 2181,
      "ont": 2182,
      "▁icecek": 2183,
      "▁nak": 2184,
      "▁giy": 2185,
      "▁ayakk": 2186,
      "af": 2187,
      "▁tan": 2188,
      "hangi": 2189,
      "▁sup": 2190,
      "▁ann": 2191,
      "▁mesel": 2192,
      "▁ithal": 2193,
      "▁oyku": 2194,
      "▁ailesi": 2195,
      "▁tane": 2196,
      "ret": 2197,
      "▁bol": 2198,
      "ol": 2199,
      "▁am": 2200,
      "▁madde": 2201,
      "arı": 2202,
      "▁so": 2203,
      "taj": 2204,
      "▁hakkında": 2205,
      "▁parasını": 2206,
      "unuz": 2207,
      "▁yet": 2208,
      "..": 2209,
      "lu": 2210,
      "▁ip": 2211,
      "abilir": 2212,
      "▁uzerinden": 2213,
      "lardan": 2214,
      "izasyon": 2215,
      "ektr": 2216,
      "▁aktivit": 2217,
      "▁yapı": 2218,
      "▁tak": 2219,
      "▁cocugun": 2220,
      "▁bilg": 2221,
      "sam": 2222,
      "▁sıkınt": 2223,
      "▁ayrı": 2224,
      "%": 2225,
      "▁prob": 2226,
      "iger": 2227,
      "▁etti": 2228,
      "▁fin": 2229,
      "tigi": 2230,
      "▁but": 2231,
      "▁kimsenin": 2232,
      "▁degildi": 2233,
      "▁ekip": 2234,
      "▁dik": 2235,
      "▁sırasında": 2236,
      "▁dugun": 2237,
      "alama": 2238,
      "lamaya": 2239,
      "kal": 2240,
      "▁ayd": 2241,
      "▁cesaret": 2242,
      "▁simdi": 2243,
      "ileri": 2244,
      "edik": 2245,
      "amaz": 2246,
      "eyn": 2247,
      "▁sik": 2248,
      "▁muduru": 2249,
      "▁eksik": 2250,
      "▁komp": 2251,
      "urt": 2252,
      "pr": 2253,
      "▁kadının": 2254,
      "▁k": 2255,
      "eyi": 2256,
      "▁konum": 2257,
      "▁sam": 2258,
      "▁havayolu": 2259,
      "▁dayan": 2260,
      "▁yerler": 2261,
      "▁bolum": 2262,
      "▁soyley": 2263,
      "mekten": 2264,
      "kler": 2265,
      "▁senet": 2266,
      "▁bildir": 2267,
      "▁sofr": 2268,
      "▁#": 2269,
      "edav": 2270,
      "▁vapur": 2271,
      "abı": 2272,
      "▁cep": 2273,
      "▁ihal": 2274,
      "▁ozellik": 2275,
      "▁mat": 2276,
      "lerinden": 2277,
      "yet": 2278,
      "lerinde": 2279,
      "ars": 2280,
      "▁yel": 2281,
      "▁hastalık": 2282,
      "▁kitab": 2283,
      "▁yardımcı": 2284,
      "▁sor": 2285,
      "▁ey": 2286,
      "▁buc": 2287,
      "▁manzar": 2288,
      "▁ekibi": 2289,
      "▁co": 2290,
      "w": 2291,
      "▁ekonomi": 2292,
      "'un": 2293,
      "▁soyle": 2294,
      "asına": 2295,
      "▁sigorta": 2296,
      "▁ger": 2297,
      "▁ruh": 2298,
      "▁yat": 2299,
      "▁dam": 2300,
      "▁ogle": 2301,
      "mi": 2302,
      "▁tasar": 2303,
      "▁dolardan": 2304,
      "▁cercev": 2305,
      "denin": 2306,
      "ıgı": 2307,
      "▁havalim": 2308,
      "▁yumurta": 2309,
      "▁cag": 2310,
      "▁pas": 2311,
      "lerin": 2312,
      "alet": 2313,
      "▁terk": 2314,
      "▁muda": 2315,
      "eyin": 2316,
      "ah": 2317,
      "▁sayf": 2318,
      "ugun": 2319,
      "▁pant": 2320,
      "▁ya": 2321,
      "masız": 2322,
      "▁tedav": 2323,
      "▁kayı": 2324,
      "te": 2325,
      "suz": 2326,
      "oz": 2327,
      "ediyor": 2328,
      "▁arasına": 2329,
      "▁kalabalık": 2330,
      "▁ren": 2331,
      "▁destek": 2332,
      "ayacagını": 2333,
      "▁yanı": 2334,
      "▁oglen": 2335,
      "igi": 2336,
      "▁tedbir": 2337,
      "gın": 2338,
      "▁str": 2339,
      "▁ucu": 2340,
      "lerine": 2341,
      "▁sıcak": 2342,
      "▁beyaz": 2343,
      "▁tiyatr": 2344,
      "lige": 2345,
      "▁sorunları": 2346,
      "usuna": 2347,
      "▁sonuna": 2348,
      "=": 2349,
      "▁varan": 2350,
      "▁ancak": 2351,
      "ter": 2352,
      "▁annemin": 2353,
      "▁siyaset": 2354,
      "han": 2355,
      "masına": 2356,
      "7": 2357,
      "isini": 2358,
      "▁magaz": 2359,
      "abil": 2360,
      "▁mikr": 2361,
      "▁tesp": 2362,
      "areti": 2363,
      "▁yal": 2364,
      "▁yo": 2365,
      "▁def": 2366,
      "luydu": 2367,
      "be": 2368,
      "▁al": 2369,
      "▁yagmur": 2370,
      "alarına": 2371,
      "▁kel": 2372,
      "▁imz": 2373,
      "▁ofis": 2374,
      "▁babam": 2375,
      "▁baskı": 2376,
      "▁milletvek": 2377,
      "▁hareket": 2378,
      "▁kopek": 2379,
      "▁emeklilik": 2380,
      "▁tehlik": 2381,
      "▁ilgili": 2382,
      "▁yerinde": 2383,
      "▁boyu": 2384,
      "▁iddia": 2385,
      "▁hakk": 2386,
      "▁cic": 2387,
      "pan": 2388,
      "du": 2389,
      "ahat": 2390,
      "▁yasam": 2391,
      "[UNK]": 2392,
      "ayi": 2393,
      "'e": 2394,
      "▁hizm": 2395,
      "imci": 2396,
      "▁er": 2397,
      "meden": 2398,
      "▁sorustur": 2399,
      "▁kadar": 2400,
      "▁mecl": 2401,
      "kk": 2402,
      "▁deneme": 2403,
      "gini": 2404,
      "▁otel": 2405,
      "bilir": 2406,
      "▁almak": 2407,
      "▁tiyatro": 2408,
      "▁bono": 2409,
      "ern": 2410,
      "ep": 2411,
      "▁cez": 2412,
      "▁cent": 2413,
      "▁alısveris": 2414,
      "evi": 2415,
      "▁ettigini": 2416,
      "▁ısrar": 2417,
      "▁air": 2418,
      "▁uretici": 2419,
      "rar": 2420,
      "▁mo": 2421,
      "mez": 2422,
      "0'dan": 2423,
      "▁sus": 2424,
      "uyorum": 2425,
      "▁hik": 2426,
      "▁vur": 2427,
      "▁olustur": 2428,
      "▁bize": 2429,
      "▁goz": 2430,
      "▁kitabı": 2431,
      "hut": 2432,
      "▁ucrete": 2433,
      "▁havayollarının": 2434,
      "▁eden": 2435,
      "ilen": 2436,
      "ket": 2437,
      "▁git": 2438,
      "tiv": 2439,
      "ısında": 2440,
      "▁ortal": 2441,
      "▁onu": 2442,
      "▁yatırımcılar": 2443,
      "▁ucretin": 2444,
      "▁kur": 2445,
      "▁hep": 2446,
      "▁guvenlik": 2447,
      "▁sok": 2448,
      "ola": 2449,
      "▁beyle": 2450,
      "▁eylul": 2451,
      "▁&": 2452,
      "▁top": 2453,
      "▁ak": 2454,
      "▁olacagını": 2455,
      "▁hak": 2456,
      "▁po": 2457,
      "▁yorum": 2458,
      "▁yere": 2459,
      "▁hal": 2460,
      "▁hale": 2461,
      "▁bilgisayar": 2462,
      "▁10": 2463,
      "ınc": 2464,
      "▁amerikalı": 2465,
      "▁hisseleri": 2466,
      "▁once": 2467,
      "▁if": 2468,
      "isine": 2469,
      "ogram": 2470,
      "▁1": 2471,
      "tırmak": 2472,
      "daki": 2473,
      "dir": 2474,
      "▁ik": 2475,
      "▁onunde": 2476,
      "ımızın": 2477,
      "▁turkiye": 2478,
      "ısıyla": 2479,
      "iz": 2480,
      "enler": 2481,
      "leg": 2482,
      "▁fikr": 2483,
      "▁huk": 2484,
      "▁karayolu": 2485,
      "▁icerisinde": 2486,
      "ktu": 2487,
      "▁gorun": 2488,
      "▁ki": 2489,
      "gu": 2490,
      "▁merkez": 2491,
      "lamak": 2492,
      "▁veya": 2493,
      "ates": 2494,
      "▁tul": 2495,
      "▁personellerinden": 2496,
      "▁islem": 2497,
      "acag": 2498,
      "cılar": 2499,
      "ımın": 2500,
      "▁ilave": 2501,
      "▁yapıl": 2502,
      "▁sehr": 2503,
      "▁topu": 2504,
      "ume": 2505,
      "▁sev": 2506,
      "▁sil": 2507,
      "5'ten": 2508,
      "▁res": 2509,
      "▁mur": 2510,
      "▁ilk": 2511,
      "▁ulk": 2512,
      "▁veriyor": 2513,
      "edir": 2514,
      "▁aldı": 2515,
      "▁kıs": 2516,
      "mal": 2517,
      "asın": 2518,
      "▁ceh": 2519,
      "▁tor": 2520,
      "▁tarif": 2521,
      "▁kontrol": 2522,
      "▁dısarı": 2523,
      "ey": 2524,
      "▁...": 2525,
      "▁cem": 2526,
      "masın": 2527,
      "▁sevgi": 2528,
      "yum": 2529,
      "▁dusun": 2530,
      "▁red": 2531,
      "▁beklen": 2532,
      "ilmis": 2533,
      "▁z": 2534,
      "madan": 2535,
      "ne": 2536,
      "▁tic": 2537,
      "azla": 2538,
      "▁gazete": 2539,
      "▁hoca": 2540,
      "ri": 2541,
      "kac": 2542,
      "'a": 2543,
      "▁muam": 2544,
      "▁)": 2545,
      "ıla": 2546,
      "erken": 2547,
      "▁her": 2548,
      "'ın": 2549,
      "▁basladı": 2550,
      "`": 2551,
      "▁operasyon": 2552,
      "b": 2553,
      "ku": 2554,
      "▁tesisin": 2555,
      "▁teknoloj": 2556,
      "▁teknoloji": 2557,
      "lamıs": 2558,
      "▁gozlerini": 2559,
      "▁yetersizdi": 2560,
      "▁tah": 2561,
      "▁tarafından": 2562,
      "▁man": 2563,
      "▁kuvvet": 2564,
      "ru": 2565,
      "▁yoneticileri": 2566,
      "▁mev": 2567,
      "ılıyor": 2568,
      "▁nelerdir": 2569,
      "erler": 2570,
      "enlerin": 2571,
      "uf": 2572,
      "ort": 2573,
      "▁kurul": 2574,
      "ga": 2575,
      "asyon": 2576,
      "▁plan": 2577,
      "▁haftada": 2578,
      "ad": 2579,
      "▁sarkı": 2580,
      "5'": 2581,
      "▁politik": 2582,
      "▁sınıf": 2583,
      "▁merk": 2584,
      "agında": 2585,
      "iyle": 2586,
      "▁fazla": 2587,
      "▁adını": 2588,
      "▁sokak": 2589,
      "▁islet": 2590,
      "▁istedi": 2591,
      "fer": 2592,
      "▁proj": 2593,
      "▁reklam": 2594,
      "▁davran": 2595,
      "▁manz": 2596,
      "▁test": 2597,
      "▁spor": 2598,
      "▁kelime": 2599,
      "▁hır": 2600,
      "▁ettim": 2601,
      "▁satısları": 2602,
      "▁faal": 2603,
      "ılmıs": 2604,
      "▁gozlem": 2605,
      "ip": 2606,
      "det": 2607,
      "▁ulas": 2608,
      "yo": 2609,
      "[SEP]": 2610,
      "inden": 2611,
      "▁mail": 2612,
      "▁savun": 2613,
      "▁uc": 2614,
      "▁kısa": 2615,
      "▁pers": 2616,
      "gun": 2617,
      "ırım": 2618,
      "▁deg": 2619,
      "▁fab": 2620,
      "▁uygul": 2621,
      "▁dal": 2622,
      "ra": 2623,
      "▁kosul": 2624,
      "mıs": 2625,
      "▁seyler": 2626,
      "▁kapas": 2627,
      "eger": 2628,
      "▁yıllarda": 2629,
      "▁hiss": 2630,
      "▁sıkıntı": 2631,
      "▁daha": 2632,
      "lama": 2633,
      "▁ma": 2634,
      "▁ulkenin": 2635,
      "▁istik": 2636,
      "▁mahkeme": 2637,
      "▁kurulus": 2638,
      "▁yuzden": 2639,
      "onu": 2640,
      "▁urunleri": 2641,
      "▁rez": 2642,
      "▁yar": 2643,
      "▁oglum": 2644,
      "abilecegini": 2645,
      "▁anlay": 2646,
      "dam": 2647,
      "ar": 2648,
      "tır": 2649,
      "▁kade": 2650,
      "▁gorunuyor": 2651,
      "▁korum": 2652,
      "▁duman": 2653,
      "▁anal": 2654,
      "▁ediyorum": 2655,
      "iyat": 2656,
      "▁alaka": 2657,
      "emey": 2658,
      "▁animasyonlar": 2659,
      "▁araba": 2660,
      "▁yap": 2661,
      "▁ellerini": 2662,
      "▁kurulu": 2663,
      "▁duyg": 2664,
      "▁mily": 2665,
      "▁merkezi": 2666,
      "eginde": 2667,
      "▁millet": 2668,
      "▁elini": 2669,
      "▁ucuslar": 2670,
      "▁yiy": 2671,
      "mesine": 2672,
      "▁emek": 2673,
      "▁seviyesinden": 2674,
      "▁sesleri": 2675,
      "ımıza": 2676,
      "▁kı": 2677,
      "ibar": 2678,
      "▁ucusa": 2679,
      "maya": 2680,
      "aların": 2681,
      "▁persembe": 2682,
      "▁haft": 2683,
      "stım": 2684,
      "larına": 2685,
      "ılıg": 2686,
      "▁insanlar": 2687,
      "▁tok": 2688,
      "▁bıcak": 2689,
      "o": 2690,
      "isim": 2691,
      "▁/": 2692,
      "▁amac": 2693,
      "lere": 2694,
      "▁yemekleri": 2695,
      "▁esn": 2696,
      "ram": 2697,
      "▁dısında": 2698,
      "▁araz": 2699,
      "▁eglence": 2700,
      "0": 2701,
      "ij": 2702,
      "▁zamanlar": 2703,
      "▁mot": 2704,
      "▁arkad": 2705,
      "egine": 2706,
      "▁hastal": 2707,
      "dıgını": 2708,
      "anından": 2709,
      "ruf": 2710,
      "▁sikinti": 2711,
      "adıgını": 2712,
      "lıklar": 2713,
      "▁seklinde": 2714,
      "▁zevk": 2715,
      "lerimi": 2716,
      "anc": 2717,
      "dırım": 2718,
      "▁toz": 2719,
      "▁sozlesme": 2720,
      "\"": 2721,
      "la": 2722,
      "▁odadan": 2723,
      "▁orne": 2724,
      "▁lutfen": 2725,
      "kat": 2726,
      "▁havuz": 2727,
      "ton": 2728,
      "▁suya": 2729,
      "▁mimar": 2730,
      "▁aile": 2731,
      "▁sac": 2732,
      "siyon": 2733,
      "▁bardak": 2734,
      "ilim": 2735,
      "▁vak": 2736,
      "▁kes": 2737,
      "▁ogl": 2738,
      "amız": 2739,
      "▁tarz": 2740,
      "▁et": 2741,
      "▁duv": 2742,
      "▁col": 2743,
      "▁artır": 2744,
      "▁yaptir": 2745,
      "▁olursa": 2746,
      "▁nuf": 2747,
      "▁baltimore'ye": 2748,
      "▁alın": 2749,
      "▁endis": 2750,
      "▁go": 2751,
      "▁zeytin": 2752,
      ")": 2753,
      "▁sekil": 2754,
      "yas": 2755,
      "▁karsısında": 2756,
      "maktadır": 2757,
      "▁sent": 2758,
      "▁dusunce": 2759,
      "▁mac": 2760,
      "▁uyk": 2761,
      "mek": 2762,
      "▁personellerden": 2763,
      "▁icinden": 2764,
      "▁otele": 2765,
      "▁ıs": 2766,
      "elerin": 2767,
      "cıların": 2768,
      "▁kongre": 2769,
      "▁cocuk": 2770,
      "▁bakım": 2771,
      "lerimiz": 2772,
      "▁basla": 2773,
      "▁kısm": 2774,
      "▁ton": 2775,
      "ici": 2776,
      "▁ilgiliydi": 2777,
      "▁bilgi": 2778,
      "madim": 2779,
      "▁bes": 2780,
      "▁plaji": 2781,
      "▁imk": 2782,
      "▁sistem": 2783,
      "▁azdi": 2784,
      "▁sikayet": 2785,
      "▁arasındaki": 2786,
      "ıyı": 2787,
      "▁azından": 2788,
      "dıktan": 2789,
      "▁hizmet": 2790,
      "▁hisseler": 2791,
      "▁kabul": 2792,
      "▁gormek": 2793,
      "atın": 2794,
      "elig": 2795,
      "inin": 2796,
      "▁evde": 2797,
      "▁kuf": 2798,
      "etti": 2799,
      "dan": 2800,
      "aydı": 2801,
      "▁karıs": 2802,
      "▁dıs": 2803,
      "lat": 2804,
      "oru": 2805,
      "▁kahve": 2806,
      "ile": 2807,
      "▁kapandı": 2808,
      "▁pir": 2809,
      "arlan": 2810,
      "▁sirketleri": 2811,
      "amın": 2812,
      "us": 2813,
      "maz": 2814,
      "▁o": 2815,
      "ede": 2816,
      "▁fakat": 2817,
      "mesi": 2818,
      "▁milyar": 2819,
      "▁itir": 2820,
      "▁degis": 2821,
      "▁duy": 2822,
      "ardan": 2823,
      "▁kol": 2824,
      "▁olmasi": 2825,
      "▁gelecek": 2826,
      "▁aktivite": 2827,
      "aydi": 2828,
      "▁cad": 2829,
      "▁anlat": 2830,
      "ustur": 2831,
      "▁beklent": 2832,
      "▁yuzde": 2833,
      "▁yer": 2834,
      "erans": 2835,
      "ızı": 2836,
      "▁onemli": 2837,
      "ayan": 2838,
      "arın": 2839,
      "▁mag": 2840,
      "▁tır": 2841,
      "▁davranıs": 2842,
      "▁tahmin": 2843,
      "▁--": 2844,
      "▁ter": 2845,
      "▁la": 2846,
      "tun": 2847,
      "▁ag": 2848,
      "▁asag": 2849,
      "▁olmalı": 2850,
      "lıg": 2851,
      "▁tuz": 2852,
      "duz": 2853,
      "urg": 2854,
      "▁mobil": 2855,
      "elli": 2856,
      "emiyor": 2857,
      "cileri": 2858,
      "▁kenar": 2859,
      "▁yonetim": 2860,
      "▁hizmeti": 2861,
      "▁gece": 2862,
      "ez": 2863,
      "▁mem": 2864,
      "&": 2865,
      "▁memleket": 2866,
      "lay": 2867,
      "▁faaliyet": 2868,
      "▁gazeteci": 2869,
      "▁ihtiyacı": 2870,
      "mas": 2871,
      "▁yen": 2872,
      "▁servis": 2873,
      "ay": 2874,
      "▁kalab": 2875,
      "▁bileti": 2876,
      "▁islemler": 2877,
      "▁okul": 2878,
      "luluk": 2879,
      "▁guz": 2880,
      "▁ilgilendi": 2881,
      "as": 2882,
      "▁tesekkur": 2883,
      "▁domates": 2884,
      "ator": 2885,
      "ıklar": 2886,
      "lemek": 2887,
      "▁dip": 2888,
      "ig": 2889,
      "cev": 2890,
      "land": 2891,
      "andı": 2892,
      "▁rol": 2893,
      "eder": 2894,
      "▁icinde": 2895,
      "▁city": 2896,
      "▁bunlar": 2897,
      "▁…": 2898,
      "ında": 2899,
      "▁enf": 2900,
      "▁ortam": 2901,
      "makt": 2902,
      "▁fiyatina": 2903,
      "▁gelistir": 2904,
      "▁tesekkurler": 2905,
      "ir": 2906,
      "▁deger": 2907,
      "▁ipot": 2908,
      "▁sır": 2909,
      "ıcak": 2910,
      "▁nis": 2911,
      "▁12": 2912,
      "de": 2913,
      "▁etmis": 2914,
      "ge": 2915,
      "▁yemeklerden": 2916,
      "▁toplum": 2917,
      "▁sayı": 2918,
      "▁acıl": 2919,
      "▁cog": 2920,
      "ou": 2921,
      "gin": 2922,
      "▁uzer": 2923,
      "▁kredi": 2924,
      "bası": 2925,
      "▁unut": 2926,
      "▁veri": 2927,
      "gesi": 2928,
      "▁havayollarında": 2929,
      "▁pat": 2930,
      "▁dir": 2931,
      "lug": 2932,
      "▁dah": 2933,
      "▁civarı": 2934,
      "▁etkisi": 2935,
      "▁yonetimi": 2936,
      "▁koltuk": 2937,
      "▁evden": 2938,
      "▁bal": 2939,
      "▁petrol": 2940,
      "sizdi": 2941,
      "▁washington": 2942,
      "▁kriz": 2943,
      "▁gez": 2944,
      "▁kulub": 2945,
      "▁muz": 2946,
      "▁soz": 2947,
      "▁isim": 2948,
      "▁tesisi": 2949,
      "lıgını": 2950,
      "▁diyor": 2951,
      "▁yonelik": 2952,
      "▁durum": 2953,
      "▁dus": 2954,
      "▁cevr": 2955,
      "▁secim": 2956,
      "▁elem": 2957,
      "▁basv": 2958,
      "▁toplan": 2959,
      "tay": 2960,
      "cılıg": 2961,
      "▁sigort": 2962,
      "▁eylem": 2963,
      "▁zinc": 2964,
      "▁gosteri": 2965,
      "▁umut": 2966,
      "▁abd": 2967,
      "▁sordu": 2968,
      "▁bekle": 2969,
      "asi": 2970,
      "▁yuzme": 2971,
      "ele": 2972,
      "▁kap": 2973,
      "ası": 2974,
      "▁ener": 2975,
      "▁hastan": 2976,
      "▁ureticisi": 2977,
      "000": 2978,
      "▁denizi": 2979,
      "▁form": 2980,
      "ılım": 2981,
      "zir": 2982,
      "▁saati": 2983,
      "e": 2984,
      "▁sol": 2985,
      "▁hayatın": 2986,
      "▁koc": 2987,
      "▁dısı": 2988,
      "▁kalp": 2989,
      "▁oran": 2990,
      "▁paz": 2991,
      "▁bazi": 2992,
      "edig": 2993,
      "▁sı": 2994,
      "ımda": 2995,
      "▁tuketici": 2996,
      "tig": 2997,
      "▁kal": 2998,
      "▁olabilir": 2999,
      "▁ince": 3000,
      "eleri": 3001,
      "▁alanda": 3002,
      "▁may": 3003,
      "gıc": 3004,
      "▁deprem": 3005,
      "▁kapıyı": 3006,
      "▁vucu": 3007,
      "▁barıs": 3008,
      "▁ucus": 3009,
      "▁yanına": 3010,
      "▁harek": 3011,
      "▁zar": 3012,
      "/": 3013,
      "izi": 3014,
      "allas": 3015,
      "ekler": 3016,
      "▁listeleyin": 3017,
      "sunuz": 3018,
      "il": 3019,
      "▁bahce": 3020,
      "div": 3021,
      "▁kahval": 3022,
      "▁iceri": 3023,
      "▁sonu": 3024,
      "▁lak": 3025,
      "▁kumar": 3026,
      "▁sonrasında": 3027,
      "▁tat": 3028,
      "▁havayolları": 3029,
      "▁personeli": 3030,
      "▁yatırımcıların": 3031,
      "ıl": 3032,
      "▁telef": 3033,
      "▁coc": 3034,
      "▁defter": 3035,
      "ıgına": 3036,
      "manı": 3037,
      "▁universit": 3038,
      "▁eg": 3039,
      "anti": 3040,
      "dıgın": 3041,
      "8'de": 3042,
      "detti": 3043,
      "▁ayı": 3044,
      "ılık": 3045,
      "▁aynı": 3046,
      "▁bırak": 3047,
      "▁efendi": 3048,
      "▁calı": 3049,
      "ask": 3050,
      "▁insanı": 3051,
      "eti": 3052,
      "tı": 3053,
      "dıgında": 3054,
      "alık": 3055,
      "▁zorunda": 3056,
      "/8": 3057,
      "ete": 3058,
      "▁onc": 3059,
      "▁firması": 3060,
      "▁yuks": 3061,
      "elir": 3062,
      "▁men": 3063,
      "uzlu": 3064,
      "▁us": 3065,
      "▁yaklas": 3066,
      "▁civ": 3067,
      "▁basını": 3068,
      "▁tarafı": 3069,
      "▁oranı": 3070,
      "▁yapti": 3071,
      "alardan": 3072,
      "kil": 3073,
      "▁ingil": 3074,
      "▁kat": 3075,
      "▁biz": 3076,
      "▁yaptı": 3077,
      "▁dukkan": 3078,
      "ıc": 3079,
      "form": 3080,
      "▁yeme": 3081,
      "▁far": 3082,
      "▁ajans": 3083,
      "ecekler": 3084,
      "siz": 3085,
      "▁sek": 3086,
      "▁mevcut": 3087,
      "▁eyalet": 3088,
      "eldi": 3089,
      "isle": 3090,
      "▁satısı": 3091,
      "▁fir": 3092,
      "kun": 3093,
      "▁annem": 3094,
      "le": 3095,
      "'y": 3096,
      "▁kanun": 3097,
      "▁restor": 3098,
      "▁yur": 3099,
      "▁olanlar": 3100,
      "un": 3101,
      "▁olmaz": 3102,
      "▁bir": 3103,
      "ut": 3104,
      "asıl": 3105,
      "▁yarat": 3106,
      "▁danısman": 3107,
      "▁boyun": 3108,
      "elere": 3109,
      "▁personelin": 3110,
      "dak": 3111,
      "▁soyl": 3112,
      "phia": 3113,
      "▁to": 3114,
      "▁hus": 3115,
      "▁profes": 3116,
      "▁diye": 3117,
      "▁herk": 3118,
      "▁bug": 3119,
      "ekkur": 3120,
      "bar": 3121,
      "▁insa": 3122,
      "diginde": 3123,
      "uma": 3124,
      "uluyor": 3125,
      "▁fon": 3126,
      "▁arz": 3127,
      "ırtı": 3128,
      "▁sorunun": 3129,
      "inde": 3130,
      "▁baz": 3131,
      "▁seyin": 3132,
      "▁islemlerinde": 3133,
      "emem": 3134,
      "▁sayıda": 3135,
      "bet": 3136,
      "▁verim": 3137,
      "▁gul": 3138,
      "▁pitts": 3139,
      "▁ch": 3140,
      "▁komisyon": 3141,
      "bil": 3142,
      "gil": 3143,
      "▁dede": 3144,
      "▁seyir": 3145,
      "▁tarihi": 3146,
      "▁oglan": 3147,
      "▁kas": 3148,
      "umuzde": 3149,
      "▁can": 3150,
      "h": 3151,
      "uh": 3152,
      "▁aksamı": 3153,
      "▁etmeye": 3154,
      "▁begenmedim": 3155,
      "▁dey": 3156,
      "'da": 3157,
      "ine": 3158,
      "'na": 3159,
      "▁piy": 3160,
      "▁fil": 3161,
      "ılı": 3162,
      "lıgında": 3163,
      "▁yatak": 3164,
      "▁zaman": 3165,
      "mıslar": 3166,
      "gı": 3167,
      "erdi": 3168,
      "▁olas": 3169,
      "erin": 3170,
      "▁var": 3171,
      "larımız": 3172,
      "▁ay": 3173,
      "▁devir": 3174,
      "alarının": 3175,
      "ligine": 3176,
      "▁gunler": 3177,
      "▁peynir": 3178,
      "▁acent": 3179,
      "ane": 3180,
      "ama": 3181,
      "▁derec": 3182,
      "gunu": 3183,
      "tik": 3184,
      "lıkla": 3185,
      "▁tavsiye": 3186,
      "kar": 3187,
      "▁basa": 3188,
      "▁5'ten": 3189,
      "▁not": 3190,
      "cu": 3191,
      "▁elden": 3192,
      "▁olmak": 3193,
      "▁akl": 3194,
      "▁bab": 3195,
      "▁tartıs": 3196,
      "uzel": 3197,
      "▁imkan": 3198,
      "uyle": 3199,
      "▁internet": 3200,
      "▁temizligi": 3201,
      "▁min": 3202,
      "▁rehber": 3203,
      "▁kural": 3204,
      "▁un": 3205,
      "▁kası": 3206,
      "sur": 3207,
      "▁-": 3208,
      "▁kom": 3209,
      "endi": 3210,
      "arak": 3211,
      "▁yerine": 3212,
      "ekti": 3213,
      "▁tenc": 3214,
      "▁mir": 3215,
      "▁devr": 3216,
      "▁begendim": 3217,
      "uyordu": 3218,
      "▁gir": 3219,
      "▁bulmak": 3220,
      "uyor": 3221,
      "▁ihtiyac": 3222,
      "▁basın": 3223,
      "isin": 3224,
      "▁borsası": 3225,
      "▁pol": 3226,
      "▁mil": 3227,
      "▁istif": 3228,
      "▁zir": 3229,
      "▁sekl": 3230,
      "▁ot": 3231,
      "▁arasında": 3232,
      "▁sub": 3233,
      "▁seyahat": 3234,
      "lin": 3235,
      "▁list": 3236,
      "▁yayın": 3237,
      "▁kork": 3238,
      "▁calis": 3239,
      "▁vermek": 3240,
      "meyi": 3241,
      "▁isk": 3242,
      "larımı": 3243,
      "aklı": 3244,
      "▁vap": 3245,
      "▁parc": 3246,
      "▁gibi": 3247,
      "▁cil": 3248,
      "▁anlamına": 3249,
      "▁olur": 3250,
      "ekl": 3251,
      "▁sirketler": 3252,
      "▁uz": 3253,
      "▁sekilde": 3254,
      "▁konuyu": 3255,
      "nam": 3256,
      "▁balık": 3257,
      "iy": 3258,
      "▁pos": 3259,
      "▁new": 3260,
      "ash": 3261,
      "ıy": 3262,
      "▁ces": 3263,
      "▁ses": 3264,
      "▁yapmaya": 3265,
      "▁puan": 3266,
      "ot": 3267,
      "yla": 3268,
      "▁sahip": 3269,
      "▁ciz": 3270,
      "▁uzerinde": 3271,
      "larıyla": 3272,
      "▁konumunu": 3273,
      "▁ekl": 3274,
      "ibi": 3275,
      "'nun": 3276,
      "▁heyec": 3277,
      "sal": 3278,
      "▁sef": 3279,
      "▁tekn": 3280,
      "▁tezgah": 3281,
      "▁ge": 3282,
      "alı": 3283,
      "atır": 3284,
      "▁bez": 3285,
      "▁analistler": 3286,
      "▁soh": 3287,
      "▁gelis": 3288,
      "afet": 3289,
      "▁garson": 3290,
      "▁oyn": 3291,
      "▁kokusu": 3292,
      "▁anlas": 3293,
      "▁baba": 3294,
      "▁komsu": 3295,
      "▁cevap": 3296,
      "▁birligi": 3297,
      "▁meger": 3298,
      "tor": 3299,
      "▁sin": 3300,
      "labilir": 3301,
      "'n": 3302,
      "liginde": 3303,
      "▁anda": 3304,
      "gul": 3305,
      "eyim": 3306,
      "▁vakit": 3307,
      "ıya": 3308,
      "eki": 3309,
      "cıları": 3310,
      "▁mesaj": 3311,
      "▁televizyon": 3312,
      "erk": 3313,
      "▁uret": 3314,
      "▁sonrası": 3315,
      "▁rakam": 3316,
      "agından": 3317,
      "▁hacmi": 3318,
      "▁giden": 3319,
      "▁gem": 3320,
      "ısız": 3321,
      "▁sene": 3322,
      "umun": 3323,
      "▁yani": 3324,
      "▁ogretmen": 3325,
      "ulu": 3326,
      "imize": 3327,
      "oh": 3328,
      "▁stok": 3329,
      "▁bunu": 3330,
      "▁bakıs": 3331,
      "raf": 3332,
      "▁eski": 3333,
      "▁garanti": 3334,
      "▁org": 3335,
      "▁dortluk": 3336,
      "miyorum": 3337,
      "▁tabak": 3338,
      "▁oyun": 3339,
      "▁sof": 3340,
      "▁fabrik": 3341,
      "▁yılının": 3342,
      "▁?": 3343,
      "▁ez": 3344,
      "fen": 3345,
      "▁mal": 3346,
      "▁hazine": 3347,
      "agın": 3348,
      "▁sinem": 3349,
      "ic": 3350,
      "▁olanak": 3351,
      "▁had": 3352,
      "▁kars": 3353,
      "▁gayrimenkul": 3354,
      "▁havada": 3355,
      "yen": 3356,
      "▁sez": 3357,
      "ydi": 3358,
      "▁halbu": 3359,
      "▁kullanmadim": 3360,
      "–": 3361,
      "alar": 3362,
      "stır": 3363,
      "amaları": 3364,
      "gan": 3365,
      "▁19": 3366,
      "▁ib": 3367,
      "▁ruy": 3368,
      "▁aln": 3369,
      "▁reform": 3370,
      "▁dallas": 3371,
      "▁laf": 3372,
      "▁saatlerde": 3373,
      "▁piyan": 3374,
      "▁yargıc": 3375,
      "▁savası": 3376,
      "▁mus": 3377,
      "▁otur": 3378,
      "let": 3379,
      "▁sag": 3380,
      "iler": 3381,
      "▁tası": 3382,
      "▁bulun": 3383,
      "yuz": 3384,
      "▁dib": 3385,
      "lendi": 3386,
      "erlik": 3387,
      "▁dest": 3388,
      "isk": 3389,
      "▁devralma": 3390,
      "▁goc": 3391,
      "ligi": 3392,
      "▁gunes": 3393,
      "▁lezzeti": 3394,
      "▁damak": 3395,
      "▁hayata": 3396,
      "▁par": 3397,
      "▁paraya": 3398,
      "▁yıl": 3399,
      "▁meslek": 3400,
      "▁mik": 3401,
      "▁odun": 3402,
      "▁hakim": 3403,
      "▁azalt": 3404,
      "ye": 3405,
      "▁hatır": 3406,
      "uktu": 3407,
      "▁masal": 3408,
      "▁muhafaz": 3409,
      "▁vet": 3410,
      "▁sabah": 3411,
      "▁af": 3412,
      "▁konut": 3413,
      "▁dok": 3414,
      "▁baskan": 3415,
      "ıf": 3416,
      "▁cizgi": 3417,
      "▁yuksel": 3418,
      "▁hur": 3419,
      "da": 3420,
      "unda": 3421,
      "▁ilav": 3422,
      "likle": 3423,
      "▁katilmak": 3424,
      "▁ihrac": 3425,
      "▁gore": 3426,
      "▁kavg": 3427,
      "▁6'dan": 3428,
      "▁sade": 3429,
      "▁sebep": 3430,
      "▁”": 3431,
      "of": 3432,
      "▁hava": 3433,
      "▁agır": 3434,
      "▁derece": 3435,
      "▁hayır": 3436,
      "▁ilac": 3437,
      "▁ona": 3438,
      "▁dunya": 3439,
      "▁doları": 3440,
      "▁nasıl": 3441,
      "▁bebek": 3442,
      "▁durumu": 3443,
      "liligi": 3444,
      "a'nın": 3445,
      "og": 3446,
      "▁cel": 3447,
      "▁kadın": 3448,
      "▁haric": 3449,
      "▁karı": 3450,
      "▁denver'e": 3451,
      "▁bekl": 3452,
      "▁donus": 3453,
      "▁amc": 3454,
      "▁pu": 3455,
      "iyi": 3456,
      "▁mevz": 3457,
      "▁halbuki": 3458,
      "▁dogum": 3459,
      "isinden": 3460,
      "▁davet": 3461,
      "etleri": 3462,
      "▁kuz": 3463,
      "min": 3464,
      "▁gru": 3465,
      "▁ucmak": 3466,
      "▁sem": 3467,
      "▁parti": 3468,
      "▁kar": 3469,
      "▁odamiz": 3470,
      "▁od": 3471,
      "▁odalar": 3472,
      "▁kuc": 3473,
      "▁kok": 3474,
      "sın": 3475,
      "3": 3476,
      "ıgın": 3477,
      "▁merdiv": 3478,
      "▁arastırma": 3479,
      "▁hizmete": 3480,
      "er": 3481,
      "ıza": 3482,
      "ist": 3483,
      "▁felaket": 3484,
      "lugu": 3485,
      "ind": 3486,
      "▁bır": 3487,
      "una": 3488,
      "acılık": 3489,
      "▁getiri": 3490,
      "▁hukumet": 3491,
      "▁yoksa": 3492,
      "▁gozden": 3493,
      "▁programı": 3494,
      "ekli": 3495,
      "erek": 3496,
      "▁ceyr": 3497,
      "▁!..": 3498,
      "▁ayak": 3499,
      "▁198": 3500,
      "▁komut": 3501,
      "▁radyo": 3502,
      "▁ayrıl": 3503,
      "▁vade": 3504,
      "bah": 3505,
      "▁idar": 3506,
      "▁yarın": 3507,
      "▁hakkı": 3508,
      "▁hayv": 3509,
      "▁konu": 3510,
      "ıg": 3511,
      "▁baslangıc": 3512,
      "madıgını": 3513,
      "ca": 3514,
      "▁guc": 3515,
      "▁aktarma": 3516,
      "▁dolayi": 3517,
      "▁salı": 3518,
      "▁yardım": 3519,
      "▁tal": 3520,
      "▁dogru": 3521,
      "meleri": 3522,
      "▁sul": 3523,
      "▁sonbah": 3524,
      "▁adı": 3525,
      "▁altında": 3526,
      "▁dusunuyor": 3527,
      "mektedir": 3528,
      "▁basbakan": 3529,
      "▁olac": 3530,
      "▁sezon": 3531,
      "▁ilan": 3532,
      "▁telefonla": 3533,
      "▁sozu": 3534,
      "mız": 3535,
      "▁ihtiyacım": 3536,
      "agını": 3537,
      "▁imkanlari": 3538,
      "▁yaban": 3539,
      "▁zarar": 3540,
      "▁kral": 3541,
      "▁halk": 3542,
      "▁burokr": 3543,
      "▁ilgil": 3544,
      "▁zev": 3545,
      "ikler": 3546,
      "▁ugr": 3547,
      "ih": 3548,
      "▁ucaga": 3549,
      "▁mahalle": 3550,
      "▁kasıgı": 3551,
      "urk": 3552,
      "▁listesini": 3553,
      "tur": 3554,
      "▁yardımcısı": 3555,
      "▁pilot": 3556,
      "▁ig": 3557,
      "▁day": 3558,
      "▁sans": 3559,
      "▁kalk": 3560,
      "▁um": 3561,
      "$": 3562,
      "cek": 3563,
      "▁kadını": 3564,
      "lit": 3565,
      "▁istek": 3566,
      "su": 3567,
      "sik": 3568,
      "▁yalnız": 3569,
      "▁anlama": 3570,
      "▁saf": 3571,
      "lıkta": 3572,
      "▁gidis": 3573,
      "atur": 3574,
      "▁haberi": 3575,
      "▁meydan": 3576,
      "mekt": 3577,
      "▁boyle": 3578,
      "▁ada": 3579,
      "▁*": 3580,
      "“": 3581,
      "sin": 3582,
      "▁otelin": 3583,
      "▁yemegi": 3584,
      "▁planı": 3585,
      "burg": 3586,
      "▁carsamba": 3587,
      "int": 3588,
      "▁personelleri": 3589,
      "▁aksam": 3590,
      "▁oldu": 3591,
      "▁idare": 3592,
      "​": 3593,
      "▁dedim": 3594,
      "▁ogren": 3595,
      "'s": 3596,
      "▁ber": 3597,
      "layacak": 3598,
      "▁has": 3599,
      "mak": 3600,
      "▁mar": 3601,
      "▁dur": 3602,
      "▁gemi": 3603,
      "tr": 3604,
      "ika": 3605,
      "▁demir": 3606,
      "▁sipar": 3607,
      "▁cor": 3608,
      "▁mi": 3609,
      "▁ayakkabı": 3610,
      "▁zam": 3611,
      "▁pr": 3612,
      "▁zey": 3613,
      "emek": 3614,
      "sat": 3615,
      "▁say": 3616,
      "▁renk": 3617,
      "▁kem": 3618,
      "\\": 3619,
      "les": 3620,
      "▁kurtaj": 3621,
      "▁boston": 3622,
      "▁yine": 3623,
      "isinin": 3624,
      "▁fen": 3625,
      "▁ekim": 3626,
      "alarım": 3627,
      "▁ulke": 3628,
      "▁merkeze": 3629,
      "▁sonuc": 3630,
      "▁kurt": 3631,
      "▁yemeklerin": 3632,
      "▁fır": 3633,
      "ec": 3634,
      "gru": 3635,
      "▁rap": 3636,
      "siy": 3637,
      "▁hissed": 3638,
      "▁hol": 3639,
      "▁yık": 3640,
      "cul": 3641,
      "▁coz": 3642,
      "▁tes": 3643,
      "▁grup": 3644,
      "esinde": 3645,
      "▁gerc": 3646,
      "mini": 3647,
      "▁icki": 3648,
      "▁9": 3649,
      "ee": 3650,
      "▁yuzunden": 3651,
      "▁bel": 3652,
      "▁boy": 3653,
      "dıg": 3654,
      "▁kapı": 3655,
      "▁%": 3656,
      "▁si": 3657,
      "lerde": 3658,
      "r": 3659,
      "▁ankete": 3660,
      "▁biri": 3661,
      "esiyle": 3662,
      "▁yont": 3663,
      "iyet": 3664,
      "▁temin": 3665,
      "▁tehd": 3666,
      "▁erkek": 3667,
      "▁yolcu": 3668,
      "▁karar": 3669,
      "▁ders": 3670,
      "co": 3671,
      "▁kahvalt": 3672,
      "lastır": 3673,
      "daydi": 3674,
      "▁merh": 3675,
      "▁yeniden": 3676,
      "ksa": 3677,
      "lum": 3678,
      "▁mis": 3679,
      "▁iht": 3680,
      "▁ul": 3681,
      "▁anne": 3682,
      "▁seviy": 3683,
      "▁havayollarını": 3684,
      "mer": 3685,
      "▁bit": 3686,
      "▁aralık": 3687,
      "▁analiz": 3688,
      "▁zor": 3689,
      "▁bilim": 3690,
      "▁rek": 3691,
      "asır": 3692,
      "▁har": 3693,
      "▁yeter": 3694,
      "elerden": 3695,
      "masından": 3696,
      "▁insanlara": 3697,
      "▁rengi": 3698,
      "▁teor": 3699,
      "urdu": 3700,
      "mustur": 3701,
      "lari": 3702,
      "▁fay": 3703,
      "sun": 3704,
      "lak": 3705,
      "▁fel": 3706,
      "▁teslim": 3707,
      "yalar": 3708,
      "▁ceyrekte": 3709,
      "▁egitim": 3710,
      "▁orada": 3711,
      "yacak": 3712,
      "▁mahk": 3713,
      "▁malz": 3714,
      "▁sehrin": 3715,
      "▁direk": 3716,
      "vr": 3717,
      "mis": 3718,
      "▁gonul": 3719,
      "▁baktı": 3720,
      "idir": 3721,
      "▁yiyecek": 3722,
      "▁kil": 3723,
      "▁elbise": 3724,
      "▁bacak": 3725,
      "yan": 3726,
      "oj": 3727,
      "▁dug": 3728,
      "▁fotograf": 3729,
      "▁kahkah": 3730,
      "aya": 3731,
      "▁delikan": 3732,
      "▁alacak": 3733,
      "z": 3734,
      "▁sirketi": 3735,
      "amaya": 3736,
      "▁on": 3737,
      "▁faiz": 3738,
      "▁bolg": 3739,
      "▁gorusme": 3740,
      "ilm": 3741,
      "▁yerde": 3742,
      "▁lok": 3743,
      "▁benz": 3744,
      "yası": 3745,
      "▁bis": 3746,
      "▁cesitleri": 3747,
      "ırak": 3748,
      "▁kons": 3749,
      "▁bas": 3750,
      "▁basta": 3751,
      "angi": 3752,
      "▁doldur": 3753,
      "▁demek": 3754,
      "oy": 3755,
      "▁oluyor": 3756,
      "▁film": 3757,
      "anıs": 3758,
      "▁seb": 3759,
      "▁alma": 3760,
      "emi": 3761,
      "▁konusunda": 3762,
      "▁fırsat": 3763,
      "gim": 3764,
      "▁og": 3765,
      "▁ustu": 3766,
      "k": 3767,
      "▁basından": 3768,
      "▁tesisten": 3769,
      "anma": 3770,
      "ecegine": 3771,
      "▁polis": 3772,
      "▁degil": 3773,
      "ıs": 3774,
      "▁yaprak": 3775,
      "dig": 3776,
      "▁petr": 3777,
      "▁gelmis": 3778,
      "landır": 3779,
      "▁harc": 3780,
      "▁olu": 3781,
      "▁perform": 3782,
      "▁edil": 3783,
      "▁sep": 3784,
      "ul": 3785,
      "▁herh": 3786,
      "ts": 3787,
      "▁yonet": 3788,
      "izm": 3789,
      "'ten": 3790,
      "▁vuc": 3791,
      "laması": 3792,
      "uk": 3793,
      "ıldı": 3794,
      "ten": 3795,
      "tıg": 3796,
      "▁model": 3797,
      "'ye": 3798,
      "▁“": 3799,
      "ege": 3800,
      "ima": 3801,
      "▁yay": 3802,
      "▁an": 3803,
      "▁havayol": 3804,
      "▁gal": 3805,
      "▁sozleri": 3806,
      "▁yerden": 3807,
      "umuz": 3808,
      "▁ekmek": 3809,
      "eda": 3810,
      "▁yarı": 3811,
      "▁donemde": 3812,
      "▁koyun": 3813,
      "emli": 3814,
      "erv": 3815,
      "▁yaklasık": 3816,
      "▁cocuklar": 3817,
      "san": 3818,
      "▁aktiv": 3819,
      "▁urun": 3820,
      "▁hem": 3821,
      "ayı": 3822,
      "▁amerikan": 3823,
      "▁boyut": 3824,
      "▁girdi": 3825,
      "ım": 3826,
      "▁ates": 3827,
      "▁gog": 3828,
      "mel": 3829,
      "inc": 3830,
      "▁evine": 3831,
      "▁parmak": 3832,
      "sef": 3833,
      "ilmesi": 3834,
      "▁sos": 3835,
      "▁sirketin": 3836,
      "▁ortalama": 3837,
      "▁karsi": 3838,
      "▁olduguna": 3839,
      "▁degisiklik": 3840,
      "▁karab": 3841,
      "▁tam": 3842,
      "▁p": 3843,
      "▁uy": 3844,
      "▁dostu": 3845,
      "▁kelim": 3846,
      "▁edecek": 3847,
      "od": 3848,
      "▁oyle": 3849,
      "▁artısı": 3850,
      "ık": 3851,
      "▁acisindan": 3852,
      "▁cuma": 3853,
      "iydi": 3854,
      "▁fark": 3855,
      "usu": 3856,
      "▁defa": 3857,
      "anı": 3858,
      ",": 3859,
      "▁yoktu": 3860,
      "▁ceza": 3861,
      "▁bag": 3862,
      "ucu": 3863,
      "▁ekonom": 3864,
      "▁biraz": 3865,
      "▁topr": 3866,
      "▁7": 3867,
      "▁evet": 3868,
      "▁zih": 3869,
      "▁gulery": 3870,
      "▁mez": 3871,
      "ligin": 3872,
      "▁gond": 3873,
      "dı": 3874,
      "em": 3875,
      "▁koku": 3876,
      "▁gar": 3877,
      "rada": 3878,
      "▁kullan": 3879,
      "▁sinir": 3880,
      "▁tec": 3881,
      "▁mahkemesi": 3882,
      "▁kampanyalardan": 3883,
      "ların": 3884,
      "imen": 3885,
      "▁kalb": 3886,
      "▁isler": 3887,
      "met": 3888,
      "▁dagıt": 3889,
      "▁ogr": 3890,
      "▁anla": 3891,
      "▁silah": 3892,
      "▁boyn": 3893,
      "lilik": 3894,
      "▁key": 3895,
      "▁sey": 3896,
      "▁dizi": 3897,
      "▁herkesin": 3898,
      "anının": 3899,
      "▁kıy": 3900,
      "▁haline": 3901,
      "yal": 3902,
      "▁orman": 3903,
      "imizin": 3904,
      "▁ihtiy": 3905,
      "▁part": 3906,
      "uydu": 3907,
      "▁rehberimiz": 3908,
      "▁adım": 3909,
      "▁onune": 3910,
      "▁yazar": 3911,
      "asıyla": 3912,
      "▁ah": 3913,
      "▁resim": 3914,
      "uslar": 3915,
      "▁mut": 3916,
      "elen": 3917,
      "▁ustune": 3918,
      "emiz": 3919,
      "▁hanim": 3920,
      "▁ban": 3921,
      "▁mide": 3922,
      "▁sabahı": 3923,
      "yon": 3924,
      "▁gecm": 3925,
      "▁rej": 3926,
      "eklen": 3927,
      "alma": 3928,
      "acagını": 3929,
      "dır": 3930,
      "arlar": 3931,
      "▁orn": 3932,
      "▁ucusun": 3933,
      "▁isaret": 3934,
      "indi": 3935,
      "amı": 3936,
      "▁acik": 3937,
      "▁dak": 3938,
      "▁dahil": 3939,
      "ayol": 3940,
      "▁tac": 3941,
      "'den": 3942,
      "asını": 3943,
      "▁kisinin": 3944,
      "▁num": 3945,
      "▁kalite": 3946,
      "▁bo": 3947,
      "▁balt": 3948,
      "▁mey": 3949,
      "aket": 3950,
      "▁iler": 3951,
      "▁sonucları": 3952,
      "▁b": 3953,
      "dıgı": 3954,
      "▁temiz": 3955,
      "▁mudur": 3956,
      "▁hic": 3957,
      "▁mutf": 3958,
      "▁gay": 3959,
      "▁varlık": 3960,
      "ise": 3961,
      "▁toplant": 3962,
      "▁kaldik": 3963,
      "▁h": 3964,
      "▁disi": 3965,
      "▁d": 3966,
      "an": 3967,
      "▁ileri": 3968,
      "▁muc": 3969,
      "▁metr": 3970,
      "▁4": 3971,
      "▁oranında": 3972,
      "▁omuz": 3973,
      "▁n": 3974,
      "▁haval": 3975,
      "mes": 3976,
      "▁se": 3977,
      "▁bilgisay": 3978,
      "▁bulundu": 3979,
      "ley": 3980,
      "mma": 3981,
      "▁ucak": 3982,
      "anda": 3983,
      "▁sair": 3984,
      "▁sendika": 3985,
      "▁first": 3986,
      "▁sel": 3987,
      "▁telefon": 3988,
      "▁genelde": 3989,
      "ana": 3990,
      "▁guzellik": 3991,
      "▁bask": 3992,
      "▁yasa": 3993,
      "lon": 3994,
      "eli": 3995,
      "ag": 3996,
      "▁tekl": 3997,
      "▁verdi": 3998,
      "▁cıktı": 3999,
      "ısını": 4000,
      "▁cit": 4001,
      "▁ucuslarını": 4002,
      "imizde": 4003,
      "▁payı": 4004,
      "▁actı": 4005,
      "isti": 4006,
      "lara": 4007,
      "▁toprak": 4008,
      "eral": 4009,
      "ısına": 4010,
      "ud": 4011,
      "▁turku": 4012,
      "▁ho": 4013,
      "leme": 4014,
      "gum": 4015,
      "▁dis": 4016,
      "▁rah": 4017,
      "▁maliyeti": 4018,
      "▁sut": 4019,
      "ac": 4020,
      "▁yem": 4021,
      "▁vardır": 4022,
      "▁agustos": 4023,
      "▁veriyorum": 4024,
      "ınt": 4025,
      "▁muzik": 4026,
      "adel": 4027,
      "▁yola": 4028,
      "▁havuzu": 4029,
      "estir": 4030,
      "'ta": 4031,
      "medigini": 4032,
      "ende": 4033,
      "▁hele": 4034,
      "ren": 4035,
      "▁seker": 4036,
      "▁koylu": 4037,
      "andır": 4038,
      "inci": 4039,
      "▁dolay": 4040,
      "▁matem": 4041,
      "ti": 4042,
      "o'ya": 4043,
      "▁akıl": 4044,
      "ger": 4045,
      "▁class": 4046,
      "ladım": 4047,
      "wa": 4048,
      "▁vucut": 4049,
      "mur": 4050,
      "ans": 4051,
      "▁:": 4052,
      "up": 4053,
      "▁isletme": 4054,
      "▁suc": 4055,
      "▁em": 4056,
      "gunluk": 4057,
      "▁sab": 4058,
      "iss": 4059,
      "▁yazı": 4060,
      "▁kez": 4061,
      "▁ozellikle": 4062,
      "▁birles": 4063,
      "itr": 4064,
      "▁donem": 4065,
      "▁ailelere": 4066,
      "▁esya": 4067,
      "alarını": 4068,
      "▁yuzunu": 4069,
      "ster": 4070,
      "▁da": 4071,
      "igim": 4072,
      "▁dusuk": 4073,
      "▁tum": 4074,
      "°": 4075,
      "▁endeks": 4076,
      "▁muhab": 4077,
      "▁ardı": 4078,
      "▁ogret": 4079,
      "▁hamle": 4080,
      "▁muhal": 4081,
      "▁aktar": 4082,
      "▁gon": 4083,
      "menin": 4084,
      "▁erken": 4085,
      "ant": 4086,
      "▁yurt": 4087,
      "▁traf": 4088,
      "▁sovyet": 4089,
      "▁y": 4090,
      "▁teklifi": 4091,
      "▁el": 4092,
      "s": 4093,
      "imde": 4094,
      "▁sırt": 4095
    },
    "merges": [
      [
        "▁p",
        "ar"
      ],
      [
        "ed",
        "igini"
      ],
      [
        "▁kon",
        "ak"
      ],
      [
        "en",
        "d"
      ],
      [
        "g",
        "ıc"
      ],
      [
        "▁sonuc",
        "ları"
      ],
      [
        "ist",
        "el"
      ],
      [
        "y",
        "dı"
      ],
      [
        "ay",
        "la"
      ],
      [
        "▁eg",
        "er"
      ],
      [
        "▁et",
        "mem"
      ],
      [
        "▁bo",
        "ston"
      ],
      [
        "▁ko",
        "r"
      ],
      [
        "▁hiss",
        "e"
      ],
      [
        "▁boston",
        "'a"
      ],
      [
        "▁nis",
        "an"
      ],
      [
        "lig",
        "inin"
      ],
      [
        "▁",
        "mi"
      ],
      [
        "▁bun",
        "u"
      ],
      [
        "▁dusun",
        "uyor"
      ],
      [
        "la",
        "ya"
      ],
      [
        "▁yan",
        "ı"
      ],
      [
        "t",
        "i"
      ],
      [
        "▁ka",
        "lk"
      ],
      [
        "▁t",
        "ek"
      ],
      [
        "m",
        "az"
      ],
      [
        "▁s",
        "us"
      ],
      [
        "▁ann",
        "esi"
      ],
      [
        "u",
        "muz"
      ],
      [
        "▁go",
        "c"
      ],
      [
        "▁gun",
        "luk"
      ],
      [
        "▁do",
        "lara"
      ],
      [
        "▁yer",
        "ine"
      ],
      [
        "▁",
        "ekl"
      ],
      [
        "▁a",
        "s"
      ],
      [
        "▁muh",
        "end"
      ],
      [
        "▁kolt",
        "uk"
      ],
      [
        "▁mode",
        "l"
      ],
      [
        "b",
        "ol"
      ],
      [
        "▁kars",
        "i"
      ],
      [
        "▁gid",
        "er"
      ],
      [
        "m",
        "anlar"
      ],
      [
        "▁ol",
        "uyor"
      ],
      [
        "al",
        "l"
      ],
      [
        "▁k",
        "az"
      ],
      [
        "▁mektu",
        "p"
      ],
      [
        "▁b",
        "ıcak"
      ],
      [
        "▁kon",
        "um"
      ],
      [
        "ad",
        "ıgını"
      ],
      [
        "en",
        "s"
      ],
      [
        "di",
        "m"
      ],
      [
        "▁k",
        "ent"
      ],
      [
        "▁g",
        "irdi"
      ],
      [
        "▁el",
        "ektr"
      ],
      [
        "▁8",
        "'den"
      ],
      [
        "ra",
        "n"
      ],
      [
        "▁h",
        "atır"
      ],
      [
        "▁haz",
        "ine"
      ],
      [
        "e",
        "l"
      ],
      [
        "or",
        "u"
      ],
      [
        "im",
        "iz"
      ],
      [
        "▁elb",
        "ise"
      ],
      [
        "▁ted",
        "bir"
      ],
      [
        "▁e",
        "f"
      ],
      [
        "in",
        "di"
      ],
      [
        "▁dolar",
        "dan"
      ],
      [
        "l",
        "arı"
      ],
      [
        "ci",
        "lerin"
      ],
      [
        "t",
        "en"
      ],
      [
        "▁f",
        "orm"
      ],
      [
        "▁kars",
        "ılık"
      ],
      [
        "ac",
        "a"
      ],
      [
        "m",
        "ay"
      ],
      [
        "▁",
        "w"
      ],
      [
        "ek",
        "ler"
      ],
      [
        "▁go",
        "m"
      ],
      [
        "▁begen",
        "dim"
      ],
      [
        "g",
        "el"
      ],
      [
        "▁altın",
        "a"
      ],
      [
        "asyon",
        "u"
      ],
      [
        "▁nef",
        "es"
      ],
      [
        "▁seb",
        "ep"
      ],
      [
        "▁l",
        "am"
      ],
      [
        "e",
        "yi"
      ],
      [
        "▁kur",
        "al"
      ],
      [
        "▁u",
        "f"
      ],
      [
        "ed",
        "ik"
      ],
      [
        "gı",
        "t"
      ],
      [
        "▁b",
        "eydi"
      ],
      [
        "▁tartıs",
        "ma"
      ],
      [
        "af",
        "et"
      ],
      [
        "▁kay",
        "n"
      ],
      [
        "▁a",
        "kt"
      ],
      [
        "▁portf",
        "oy"
      ],
      [
        "▁tep",
        "ki"
      ],
      [
        "▁deg",
        "il"
      ],
      [
        "▁k",
        "ay"
      ],
      [
        "▁etraf",
        "ında"
      ],
      [
        "▁aktar",
        "ma"
      ],
      [
        "▁teh",
        "d"
      ],
      [
        "m",
        "istir"
      ],
      [
        "▁gec",
        "en"
      ],
      [
        "est",
        "iri"
      ],
      [
        "▁ins",
        "aat"
      ],
      [
        "▁ar",
        "aya"
      ],
      [
        "▁yap",
        "ti"
      ],
      [
        "ın",
        "a"
      ],
      [
        "▁b",
        "on"
      ],
      [
        "m",
        "ma"
      ],
      [
        "alar",
        "dan"
      ],
      [
        "▁c",
        "at"
      ],
      [
        "▁rakam",
        "lar"
      ],
      [
        "▁",
        "zir"
      ],
      [
        "▁muh",
        "al"
      ],
      [
        "a",
        "z"
      ],
      [
        "alar",
        "da"
      ],
      [
        "ag",
        "ının"
      ],
      [
        "▁say",
        "g"
      ],
      [
        "▁duny",
        "ada"
      ],
      [
        "ma",
        "sın"
      ],
      [
        "it",
        "e"
      ],
      [
        "▁bu",
        "tu"
      ],
      [
        "▁b",
        "ası"
      ],
      [
        "▁mes",
        "aj"
      ],
      [
        "▁il",
        "an"
      ],
      [
        "▁yemek",
        "leri"
      ],
      [
        "▁c",
        "em"
      ],
      [
        "▁azal",
        "t"
      ],
      [
        "▁di",
        "ger"
      ],
      [
        "▁oldug",
        "una"
      ],
      [
        "▁h",
        "ar"
      ],
      [
        "▁us",
        "t"
      ],
      [
        "lig",
        "inden"
      ],
      [
        "▁te",
        "or"
      ],
      [
        "▁b",
        "ask"
      ],
      [
        "k",
        "el"
      ],
      [
        "▁v",
        "ade"
      ],
      [
        "▁mey",
        "dan"
      ],
      [
        "▁d",
        "ans"
      ],
      [
        "▁h",
        "es"
      ],
      [
        "a",
        "k"
      ],
      [
        "▁bur",
        "aya"
      ],
      [
        "▁gi",
        "y"
      ],
      [
        "▁kal",
        "dim"
      ],
      [
        "▁h",
        "ic"
      ],
      [
        "▁bors",
        "ası"
      ],
      [
        "g",
        "r"
      ],
      [
        "▁if",
        "ade"
      ],
      [
        "▁s",
        "el"
      ],
      [
        "▁yal",
        "n"
      ],
      [
        "▁",
        "lam"
      ],
      [
        "ı",
        "ya"
      ],
      [
        "▁h",
        "enuz"
      ],
      [
        "lar",
        "a"
      ],
      [
        "ek",
        "et"
      ],
      [
        "d",
        "ıgını"
      ],
      [
        "/",
        "8"
      ],
      [
        "▁a",
        "ir"
      ],
      [
        "▁haval",
        "im"
      ],
      [
        "▁t",
        "ey"
      ],
      [
        "▁cit",
        "y"
      ],
      [
        "ec",
        "egi"
      ],
      [
        "▁dun",
        "ya"
      ],
      [
        "▁f",
        "ot"
      ],
      [
        "▁endust",
        "r"
      ],
      [
        "▁biz",
        "im"
      ],
      [
        "▁...",
        "\""
      ],
      [
        "▁kr",
        "edi"
      ],
      [
        "▁ard",
        "ından"
      ],
      [
        "▁b",
        "in"
      ],
      [
        "az",
        "la"
      ],
      [
        "s",
        "iyon"
      ],
      [
        "▁g",
        "ul"
      ],
      [
        "▁et",
        "ki"
      ],
      [
        "▁y",
        "o"
      ],
      [
        "▁ha",
        "k"
      ],
      [
        "ar",
        "ın"
      ],
      [
        "▁zinc",
        "ir"
      ],
      [
        "ar",
        "s"
      ],
      [
        "eler",
        "den"
      ],
      [
        "ak",
        "lı"
      ],
      [
        "▁baz",
        "i"
      ],
      [
        "▁d",
        "uk"
      ],
      [
        "a",
        "c"
      ],
      [
        "▁ur",
        "etici"
      ],
      [
        "▁sekl",
        "inde"
      ],
      [
        "▁s",
        "oy"
      ],
      [
        "▁i",
        "se"
      ],
      [
        "▁oy",
        "ku"
      ],
      [
        "ug",
        "un"
      ],
      [
        "at",
        "i"
      ],
      [
        "▁d",
        "eg"
      ],
      [
        "eti",
        "c"
      ],
      [
        "▁p",
        "o"
      ],
      [
        "▁doları",
        "'ndan"
      ],
      [
        "▁sin",
        "ir"
      ],
      [
        "asın",
        "a"
      ],
      [
        "s",
        "im"
      ],
      [
        "▁",
        "\""
      ],
      [
        "▁sar",
        "k"
      ],
      [
        "▁em",
        "ir"
      ],
      [
        "▁san",
        "dal"
      ],
      [
        "t",
        "ur"
      ],
      [
        "ın",
        "ız"
      ],
      [
        "▁boy",
        "u"
      ],
      [
        "▁y",
        "eme"
      ],
      [
        "▁dok",
        "tor"
      ],
      [
        "▁oy",
        "sa"
      ],
      [
        "▁sok",
        "ak"
      ],
      [
        "e",
        "lerin"
      ],
      [
        "▁or",
        "ta"
      ],
      [
        "▁it",
        "ir"
      ],
      [
        "▁kum",
        "as"
      ],
      [
        "▁gun",
        "lerde"
      ],
      [
        "▁yaklas",
        "ık"
      ],
      [
        "▁",
        "us"
      ],
      [
        "▁top",
        "lan"
      ],
      [
        "▁is",
        "ci"
      ],
      [
        "▁kagı",
        "t"
      ],
      [
        "▁tem",
        "in"
      ],
      [
        "▁hizmet",
        "e"
      ],
      [
        "a",
        "m"
      ],
      [
        "▁uzer",
        "inden"
      ],
      [
        "d",
        "a"
      ],
      [
        "og",
        "ram"
      ],
      [
        "▁cev",
        "ap"
      ],
      [
        "▁hik",
        "ay"
      ],
      [
        "▁im",
        "al"
      ],
      [
        "▁bol",
        "g"
      ],
      [
        "▁l",
        "id"
      ],
      [
        "▁c",
        "ab"
      ],
      [
        "▁yuks",
        "ek"
      ],
      [
        "▁tez",
        "gah"
      ],
      [
        "▁",
        "ih"
      ],
      [
        "▁v",
        "er"
      ],
      [
        "es",
        "inde"
      ],
      [
        "▁emek",
        "lilik"
      ],
      [
        "▁enf",
        "lasyon"
      ],
      [
        "a",
        "y"
      ],
      [
        "t",
        "u"
      ],
      [
        "▁olm",
        "a"
      ],
      [
        "la",
        "v"
      ],
      [
        "▁kı",
        "z"
      ],
      [
        "▁",
        "meger"
      ],
      [
        "▁kal",
        "dır"
      ],
      [
        "▁t",
        "av"
      ],
      [
        "ag",
        "ına"
      ],
      [
        "▁n",
        "uf"
      ],
      [
        "▁g",
        "emi"
      ],
      [
        "▁piyas",
        "ada"
      ],
      [
        "▁o",
        "rada"
      ],
      [
        "▁ucus",
        "u"
      ],
      [
        "▁tem",
        "izdi"
      ],
      [
        "an",
        "ların"
      ],
      [
        "ma",
        "dim"
      ],
      [
        "s",
        "ef"
      ],
      [
        "▁sonr",
        "asında"
      ],
      [
        "is",
        "e"
      ],
      [
        "▁do",
        "v"
      ],
      [
        "▁kon",
        "gre"
      ],
      [
        "ır",
        "ak"
      ],
      [
        "c",
        "ılıg"
      ],
      [
        "▁personel",
        "leri"
      ],
      [
        "▁fut",
        "bol"
      ],
      [
        "▁o",
        "z"
      ],
      [
        "en",
        "uz"
      ],
      [
        "▁sozc",
        "usu"
      ],
      [
        "▁sa",
        "g"
      ],
      [
        "d",
        "ay"
      ],
      [
        "▁guzel",
        "di"
      ],
      [
        "in",
        "t"
      ],
      [
        "▁b",
        "ut"
      ],
      [
        "m",
        "ad"
      ],
      [
        "eg",
        "in"
      ],
      [
        "l",
        "er"
      ],
      [
        "▁ipot",
        "ek"
      ],
      [
        "lı",
        "gı"
      ],
      [
        "▁il",
        "eri"
      ],
      [
        "ya",
        "cak"
      ],
      [
        "ma",
        "dıgını"
      ],
      [
        "▁ol",
        "du"
      ],
      [
        "▁y",
        "ap"
      ],
      [
        "ans",
        "iyon"
      ],
      [
        "▁o",
        "k"
      ],
      [
        "lama",
        "ya"
      ],
      [
        "mıs",
        "lar"
      ],
      [
        "▁b",
        "og"
      ],
      [
        "▁mut",
        "f"
      ],
      [
        "'",
        "in"
      ],
      [
        "▁vat",
        "and"
      ],
      [
        "▁k",
        "ad"
      ],
      [
        "▁h",
        "o"
      ],
      [
        "▁yon",
        "etici"
      ],
      [
        "▁bak",
        "anı"
      ],
      [
        "▁m",
        "ay"
      ],
      [
        "▁t",
        "ucc"
      ],
      [
        "▁fik",
        "r"
      ],
      [
        "▁al",
        "k"
      ],
      [
        "ler",
        "imi"
      ],
      [
        "▁akt",
        "ar"
      ],
      [
        "▁oldu",
        "g"
      ],
      [
        "▁yuk",
        "sel"
      ],
      [
        "▁sov",
        "yet"
      ],
      [
        "il",
        "mesi"
      ],
      [
        "▁pr",
        "ogram"
      ],
      [
        "t",
        "an"
      ],
      [
        "▁ag",
        "z"
      ],
      [
        "▁i",
        "lk"
      ],
      [
        "▁mik",
        "tar"
      ],
      [
        "l",
        "ak"
      ],
      [
        "▁o",
        "c"
      ],
      [
        "makt",
        "an"
      ],
      [
        "▁s",
        "ip"
      ],
      [
        "▁on",
        "u"
      ],
      [
        "▁k",
        "ac"
      ],
      [
        "▁mev",
        "du"
      ],
      [
        "lerimiz",
        "i"
      ],
      [
        "lan",
        "ıyor"
      ],
      [
        "▁den",
        "ver"
      ],
      [
        "at",
        "ur"
      ],
      [
        "ec",
        "eg"
      ],
      [
        "▁",
        "an"
      ],
      [
        "▁v",
        "uc"
      ],
      [
        "▁ins",
        "anı"
      ],
      [
        "lug",
        "a"
      ],
      [
        "t",
        "r"
      ],
      [
        "▁tu",
        "k"
      ],
      [
        "▁ser",
        "v"
      ],
      [
        "▁ta",
        "h"
      ],
      [
        "in",
        "dan"
      ],
      [
        "▁bas",
        "a"
      ],
      [
        "▁s",
        "or"
      ],
      [
        "▁n",
        "e"
      ],
      [
        "▁bar",
        "da"
      ],
      [
        "al",
        "ma"
      ],
      [
        "▁hab",
        "er"
      ],
      [
        "in",
        "ce"
      ],
      [
        "▁yaklas",
        "imi"
      ],
      [
        "▁ord",
        "u"
      ],
      [
        "▁",
        "oy"
      ],
      [
        "b",
        "ak"
      ],
      [
        "▁il",
        "gil"
      ],
      [
        "▁g",
        "it"
      ],
      [
        "▁zam",
        "an"
      ],
      [
        "▁sık",
        "ınt"
      ],
      [
        "▁k",
        "ah"
      ],
      [
        "▁ge",
        "ce"
      ],
      [
        "m",
        "i"
      ],
      [
        "l",
        "um"
      ],
      [
        "▁o",
        "m"
      ],
      [
        "tan",
        "siy"
      ],
      [
        "▁",
        "r"
      ],
      [
        "▁tah",
        "v"
      ],
      [
        "▁kur",
        "um"
      ],
      [
        "▁sek",
        "tor"
      ],
      [
        "▁ceyrek",
        "te"
      ],
      [
        "▁kel",
        "ime"
      ],
      [
        "▁l",
        "ist"
      ],
      [
        "▁pla",
        "ji"
      ],
      [
        "▁k",
        "i"
      ],
      [
        "▁do",
        "ları"
      ],
      [
        "▁he",
        "men"
      ],
      [
        "▁ak",
        "l"
      ],
      [
        "du",
        "r"
      ],
      [
        "enler",
        "in"
      ],
      [
        "▁.",
        "."
      ],
      [
        "▁v",
        "at"
      ],
      [
        "▁yat",
        "ak"
      ],
      [
        "a",
        "'nın"
      ],
      [
        "▁is",
        "in"
      ],
      [
        "▁ort",
        "a"
      ],
      [
        "▁hal",
        "e"
      ],
      [
        "▁sik",
        "ayet"
      ],
      [
        "▁s",
        "ir"
      ],
      [
        "al",
        "t"
      ],
      [
        "id",
        "ir"
      ],
      [
        "i",
        "len"
      ],
      [
        "m",
        "en"
      ],
      [
        "▁b",
        "ek"
      ],
      [
        "▁kis",
        "ilik"
      ],
      [
        "▁boy",
        "un"
      ],
      [
        "▁yap",
        "ıyor"
      ],
      [
        "p",
        "an"
      ],
      [
        "▁kon",
        "ut"
      ],
      [
        "▁ko",
        "k"
      ],
      [
        "▁h",
        "ap"
      ],
      [
        "▁hat",
        "ır"
      ],
      [
        "▁hizm",
        "et"
      ],
      [
        "▁el",
        "lerini"
      ],
      [
        "▁s",
        "ık"
      ],
      [
        "▁b",
        "uf"
      ],
      [
        "▁!",
        ".."
      ],
      [
        "▁git",
        "ti"
      ],
      [
        "▁doları",
        "'na"
      ],
      [
        "▁",
        "d"
      ],
      [
        "▁k",
        "en"
      ],
      [
        "▁clas",
        "s"
      ],
      [
        "▁der",
        "gi"
      ],
      [
        "u",
        "du"
      ],
      [
        "▁u",
        "st"
      ],
      [
        "▁asagı",
        "da"
      ],
      [
        "uy",
        "e"
      ],
      [
        "er",
        "ik"
      ],
      [
        "▁kal",
        "madim"
      ],
      [
        "t",
        "ar"
      ],
      [
        "▁co",
        "z"
      ],
      [
        "am",
        "ak"
      ],
      [
        "▁hak",
        "im"
      ],
      [
        "▁yan",
        "ında"
      ],
      [
        "▁piy",
        "as"
      ],
      [
        "▁",
        "man"
      ],
      [
        "▁ot",
        "ob"
      ],
      [
        "▁kav",
        "g"
      ],
      [
        "en",
        "leri"
      ],
      [
        "▁n",
        "asıl"
      ],
      [
        "li",
        "k"
      ],
      [
        "▁ben",
        "i"
      ],
      [
        "▁ko",
        "c"
      ],
      [
        "▁e",
        "g"
      ],
      [
        "▁temiz",
        "lik"
      ],
      [
        "▁h",
        "ast"
      ],
      [
        "▁civ",
        "arı"
      ],
      [
        "▁ihtiy",
        "acı"
      ],
      [
        "▁animasyon",
        "lar"
      ],
      [
        "▁oda",
        "lar"
      ],
      [
        "▁neden",
        "le"
      ],
      [
        "n",
        "a"
      ],
      [
        "▁sey",
        "ahat"
      ],
      [
        "▁el",
        "estiri"
      ],
      [
        "t",
        "un"
      ],
      [
        "▁buy",
        "um"
      ],
      [
        "▁har",
        "eket"
      ],
      [
        "▁bask",
        "a"
      ],
      [
        "ul",
        "uk"
      ],
      [
        "▁baz",
        "ı"
      ],
      [
        "▁iht",
        "im"
      ],
      [
        "▁s",
        "end"
      ],
      [
        "d",
        "et"
      ],
      [
        "▁co",
        "k"
      ],
      [
        "▁",
        "ar"
      ],
      [
        "▁s",
        "ol"
      ],
      [
        "e",
        "ydi"
      ],
      [
        "len",
        "dir"
      ],
      [
        "▁",
        "s"
      ],
      [
        "▁b",
        "iz"
      ],
      [
        "t",
        "eri"
      ],
      [
        "m",
        "ayı"
      ],
      [
        "▁",
        "es"
      ],
      [
        "at",
        "ı"
      ],
      [
        "▁fin",
        "ans"
      ],
      [
        "▁soz",
        "c"
      ],
      [
        "▁kam",
        "u"
      ],
      [
        "▁m",
        "ola"
      ],
      [
        "▁",
        "ic"
      ],
      [
        "▁ucus",
        "un"
      ],
      [
        "m",
        "asından"
      ],
      [
        "▁..",
        "."
      ],
      [
        "▁guler",
        "yuzlu"
      ],
      [
        "ıyor",
        "du"
      ],
      [
        "in",
        "i"
      ],
      [
        "iy",
        "et"
      ],
      [
        "▁zaman",
        "lar"
      ],
      [
        "▁hac",
        "mi"
      ],
      [
        "▁bic",
        "im"
      ],
      [
        "▁gar",
        "s"
      ],
      [
        "▁",
        "un"
      ],
      [
        "▁t",
        "el"
      ],
      [
        "▁k",
        "ayı"
      ],
      [
        "ab",
        "et"
      ],
      [
        "me",
        "leri"
      ],
      [
        "ili",
        "k"
      ],
      [
        "▁kı",
        "sı"
      ],
      [
        "e",
        "da"
      ],
      [
        "a",
        "l"
      ],
      [
        "▁ko",
        "m"
      ],
      [
        "▁amerik",
        "alı"
      ],
      [
        "▁ic",
        "ki"
      ],
      [
        "▁esk",
        "iydi"
      ],
      [
        "▁ogren",
        "ci"
      ],
      [
        "▁c",
        "h"
      ],
      [
        "▁a",
        "n"
      ],
      [
        "▁otel",
        "i"
      ],
      [
        "▁insan",
        "lara"
      ],
      [
        "▁bak",
        "tı"
      ],
      [
        "▁rezervasyon",
        "u"
      ],
      [
        "al",
        "et"
      ],
      [
        "▁de",
        "v"
      ],
      [
        "▁y",
        "ine"
      ],
      [
        "o",
        "v"
      ],
      [
        "▁cum",
        "le"
      ],
      [
        "▁bo",
        "g"
      ],
      [
        "k",
        "al"
      ],
      [
        "▁ko",
        "y"
      ],
      [
        "▁tem",
        "iz"
      ],
      [
        "m",
        "ur"
      ],
      [
        "▁sat",
        "ın"
      ],
      [
        "▁f",
        "az"
      ],
      [
        "▁ka",
        "rar"
      ],
      [
        "e",
        "e"
      ],
      [
        "▁kad",
        "ın"
      ],
      [
        "▁b",
        "ey"
      ],
      [
        "▁y",
        "oksa"
      ],
      [
        "a",
        "de"
      ],
      [
        "▁m",
        "ac"
      ],
      [
        "▁ka",
        "z"
      ],
      [
        "it",
        "r"
      ],
      [
        "▁r",
        "enk"
      ],
      [
        "ı",
        "la"
      ],
      [
        "▁oldug",
        "unu"
      ],
      [
        "▁s",
        "al"
      ],
      [
        "▁yemek",
        "lerin"
      ],
      [
        "▁kur",
        "ulu"
      ],
      [
        "▁or",
        "d"
      ],
      [
        "▁du",
        "r"
      ],
      [
        "▁gayrimen",
        "kul"
      ],
      [
        "lar",
        "ım"
      ],
      [
        "ler",
        "im"
      ],
      [
        "▁k",
        "ur"
      ],
      [
        "d",
        "ig"
      ],
      [
        "▁",
        "4"
      ],
      [
        "▁gi",
        "di"
      ],
      [
        "▁guc",
        "u"
      ],
      [
        "▁tav",
        "ır"
      ],
      [
        "es",
        "s"
      ],
      [
        "▁k",
        "ıy"
      ],
      [
        "u",
        "ktu"
      ],
      [
        "▁or",
        "man"
      ],
      [
        "▁mer",
        "ak"
      ],
      [
        "▁di",
        "yor"
      ],
      [
        "▁il",
        "k"
      ],
      [
        "▁yıl",
        "lık"
      ],
      [
        "ler",
        "le"
      ],
      [
        "▁ist",
        "if"
      ],
      [
        "▁al",
        "mak"
      ],
      [
        "m",
        "am"
      ],
      [
        "▁m",
        "ah"
      ],
      [
        "um",
        "uz"
      ],
      [
        "▁yaln",
        "ız"
      ],
      [
        "▁ka",
        "rı"
      ],
      [
        "▁m",
        "art"
      ],
      [
        "▁s",
        "ep"
      ],
      [
        "all",
        "as"
      ],
      [
        "or",
        "k"
      ],
      [
        "▁f",
        "ay"
      ],
      [
        "m",
        "alı"
      ],
      [
        "▁ogle",
        "den"
      ],
      [
        "▁gar",
        "anti"
      ],
      [
        "▁hayat",
        "a"
      ],
      [
        "▁",
        "%"
      ],
      [
        "▁mec",
        "l"
      ],
      [
        "▁ol",
        "ması"
      ],
      [
        "▁m",
        "i"
      ],
      [
        "▁il",
        "isk"
      ],
      [
        "▁oda",
        "dan"
      ],
      [
        "em",
        "i"
      ],
      [
        "at",
        "ın"
      ],
      [
        "▁kahv",
        "al"
      ],
      [
        "▁og",
        "ren"
      ],
      [
        "▁ek",
        "mek"
      ],
      [
        "medi",
        "m"
      ],
      [
        "an",
        "lar"
      ],
      [
        "▁oda",
        "da"
      ],
      [
        "at",
        "es"
      ],
      [
        "▁u",
        "ret"
      ],
      [
        "▁",
        "cok"
      ],
      [
        "▁c",
        "iz"
      ],
      [
        "▁dus",
        "ur"
      ],
      [
        "ma",
        "dik"
      ],
      [
        "an",
        "ma"
      ],
      [
        "▁aktar",
        "masız"
      ],
      [
        "lar",
        "ını"
      ],
      [
        "d",
        "en"
      ],
      [
        "▁dag",
        "ıt"
      ],
      [
        "▁yar",
        "at"
      ],
      [
        "t",
        "igini"
      ],
      [
        "ız",
        "a"
      ],
      [
        "il",
        "im"
      ],
      [
        "t",
        "o"
      ],
      [
        "al",
        "i"
      ],
      [
        "g",
        "eleri"
      ],
      [
        "▁ac",
        "ı"
      ],
      [
        "▁n",
        "eden"
      ],
      [
        "▁k",
        "adar"
      ],
      [
        "ın",
        "tı"
      ],
      [
        "▁z",
        "ev"
      ],
      [
        "▁ik",
        "ti"
      ],
      [
        "▁fark",
        "ında"
      ],
      [
        "▁zaman",
        "da"
      ],
      [
        "▁dah",
        "il"
      ],
      [
        "▁m",
        "ide"
      ],
      [
        "▁p",
        "it"
      ],
      [
        "▁rap",
        "or"
      ],
      [
        "▁deniz",
        "e"
      ],
      [
        "▁m",
        "en"
      ],
      [
        "▁pr",
        "ob"
      ],
      [
        "▁bir",
        "bir"
      ],
      [
        "▁d",
        "iy"
      ],
      [
        "▁k",
        "op"
      ],
      [
        "▁y",
        "as"
      ],
      [
        "mak",
        "tan"
      ],
      [
        "▁aksam",
        "a"
      ],
      [
        "▁fot",
        "ograf"
      ],
      [
        "▁halk",
        "ı"
      ],
      [
        "▁sez",
        "on"
      ],
      [
        "▁arkad",
        "as"
      ],
      [
        "gun",
        "u"
      ],
      [
        "▁o",
        "lu"
      ],
      [
        "▁gun",
        "leri"
      ],
      [
        "m",
        "an"
      ],
      [
        "▁bu",
        "r"
      ],
      [
        "▁b",
        "ırak"
      ],
      [
        "or",
        "m"
      ],
      [
        "▁inc",
        "el"
      ],
      [
        "an",
        "t"
      ],
      [
        "me",
        "den"
      ],
      [
        "g",
        "ul"
      ],
      [
        "▁p",
        "as"
      ],
      [
        "▁dig",
        "erleri"
      ],
      [
        "▁sı",
        "ra"
      ],
      [
        "al",
        "ım"
      ],
      [
        "▁s",
        "ans"
      ],
      [
        "m",
        "ı"
      ],
      [
        "▁calıs",
        "ma"
      ],
      [
        "▁ay",
        "ak"
      ],
      [
        "tlu",
        "k"
      ],
      [
        "▁ham",
        "am"
      ],
      [
        "▁k",
        "an"
      ],
      [
        "▁has",
        "ar"
      ],
      [
        "▁mahkem",
        "esi"
      ],
      [
        "▁baltimore",
        "'ye"
      ],
      [
        "▁y",
        "em"
      ],
      [
        "▁el",
        "leri"
      ],
      [
        "▁sev",
        "k"
      ],
      [
        "▁so",
        "z"
      ],
      [
        "▁t",
        "ip"
      ],
      [
        "▁personel",
        "lerin"
      ],
      [
        "▁aktiv",
        "it"
      ],
      [
        "▁k",
        "ı"
      ],
      [
        "▁piyas",
        "ası"
      ],
      [
        "cı",
        "ları"
      ],
      [
        "▁havayol",
        "larını"
      ],
      [
        "▁o",
        "de"
      ],
      [
        "▁gel",
        "mis"
      ],
      [
        "▁g",
        "eldi"
      ],
      [
        "▁mal",
        "iyeti"
      ],
      [
        "ag",
        "ı"
      ],
      [
        "▁num",
        "ara"
      ],
      [
        "▁a",
        "lan"
      ],
      [
        "▁g",
        "ay"
      ],
      [
        "▁mes",
        "lek"
      ],
      [
        "c",
        "ının"
      ],
      [
        "▁s",
        "uk"
      ],
      [
        "▁so",
        "k"
      ],
      [
        "bil",
        "ir"
      ],
      [
        "s",
        "t"
      ],
      [
        "▁t",
        "or"
      ],
      [
        "▁el",
        "inden"
      ],
      [
        "▁ki",
        "si"
      ],
      [
        "n",
        "et"
      ],
      [
        "ade",
        "m"
      ],
      [
        "▁yıl",
        "da"
      ],
      [
        "lar",
        "dı"
      ],
      [
        "▁b",
        "ana"
      ],
      [
        "▁y",
        "eni"
      ],
      [
        "ların",
        "a"
      ],
      [
        "y",
        "le"
      ],
      [
        "▁en",
        "dek"
      ],
      [
        "▁yardım",
        "cısı"
      ],
      [
        "aları",
        "m"
      ],
      [
        "lem",
        "ek"
      ],
      [
        "an",
        "dan"
      ],
      [
        "▁deniz",
        "i"
      ],
      [
        "▁orta",
        "lama"
      ],
      [
        "▁",
        "-"
      ],
      [
        "ler",
        "de"
      ],
      [
        "▁hizm",
        "eti"
      ],
      [
        "h",
        "t"
      ],
      [
        "▁c",
        "ok"
      ],
      [
        "▁gok",
        "yuz"
      ],
      [
        "b",
        "iy"
      ],
      [
        "i",
        "r"
      ],
      [
        "▁kon",
        "tr"
      ],
      [
        "▁otob",
        "us"
      ],
      [
        "▁ak",
        "t"
      ],
      [
        "▁bek",
        "le"
      ],
      [
        "▁b",
        "il"
      ],
      [
        "▁ust",
        "u"
      ],
      [
        "▁h",
        "it"
      ],
      [
        "ur",
        "u"
      ],
      [
        "▁kuvv",
        "et"
      ],
      [
        "g",
        "im"
      ],
      [
        "uy",
        "u"
      ],
      [
        "▁dol",
        "dur"
      ],
      [
        "ma",
        "kt"
      ],
      [
        "▁m",
        "ur"
      ],
      [
        "▁ayrı",
        "ca"
      ],
      [
        "eler",
        "e"
      ],
      [
        "ad",
        "an"
      ],
      [
        "▁herk",
        "es"
      ],
      [
        "▁is",
        "e"
      ],
      [
        "l",
        "iye"
      ],
      [
        "▁",
        "#"
      ],
      [
        "d",
        "am"
      ],
      [
        "▁t",
        "raf"
      ],
      [
        "eceg",
        "ini"
      ],
      [
        "▁havayol",
        "ları"
      ],
      [
        "▁amer",
        "ik"
      ],
      [
        "ad",
        "ı"
      ],
      [
        "ı",
        "lık"
      ],
      [
        "▁st",
        "ok"
      ],
      [
        "▁kuv",
        "v"
      ],
      [
        "eli",
        "r"
      ],
      [
        "▁ola",
        "cak"
      ],
      [
        "ıg",
        "a"
      ],
      [
        "▁h",
        "as"
      ],
      [
        "▁og",
        "le"
      ],
      [
        "a",
        "b"
      ],
      [
        "▁islet",
        "me"
      ],
      [
        "▁alt",
        "ına"
      ],
      [
        "un",
        "da"
      ],
      [
        "▁ya",
        "v"
      ],
      [
        "is",
        "s"
      ],
      [
        "▁",
        "5'ten"
      ],
      [
        "▁goz",
        "e"
      ],
      [
        "▁biz",
        "e"
      ],
      [
        "▁ihtiyac",
        "ım"
      ],
      [
        "▁olan",
        "ak"
      ],
      [
        "▁",
        "?"
      ],
      [
        "▁s",
        "ak"
      ],
      [
        "▁b",
        "alık"
      ],
      [
        "m",
        "es"
      ],
      [
        "lar",
        "ı"
      ],
      [
        "▁sor",
        "um"
      ],
      [
        "▁ic",
        "er"
      ],
      [
        "▁f",
        "ilm"
      ],
      [
        "▁orta",
        "dan"
      ],
      [
        "'",
        "ta"
      ],
      [
        "i",
        "d"
      ],
      [
        "a",
        "p"
      ],
      [
        "▁k",
        "ar"
      ],
      [
        "dıg",
        "ını"
      ],
      [
        "m",
        "ini"
      ],
      [
        "iy",
        "eti"
      ],
      [
        "▁m",
        "u"
      ],
      [
        "dı",
        "g"
      ],
      [
        "▁bak",
        "ım"
      ],
      [
        "mı",
        "z"
      ],
      [
        "▁k",
        "es"
      ],
      [
        "▁s",
        "im"
      ],
      [
        "ag",
        "ın"
      ],
      [
        "▁yemek",
        "ler"
      ],
      [
        "▁gun",
        "den"
      ],
      [
        "a",
        "ma"
      ],
      [
        "un",
        "e"
      ],
      [
        "▁h",
        "em"
      ],
      [
        "▁yuz",
        "une"
      ],
      [
        "▁bir",
        "les"
      ],
      [
        "▁",
        "c"
      ],
      [
        "ıl",
        "ı"
      ],
      [
        "ıs",
        "ır"
      ],
      [
        "▁listel",
        "eyin"
      ],
      [
        "ar",
        "lan"
      ],
      [
        "▁kor",
        "um"
      ],
      [
        "▁",
        "ede"
      ],
      [
        "j",
        "i"
      ],
      [
        "▁i",
        "z"
      ],
      [
        "▁tesis",
        "in"
      ],
      [
        "i",
        "ka"
      ],
      [
        "▁kap",
        "ının"
      ],
      [
        "lem",
        "e"
      ],
      [
        "▁ist",
        "ek"
      ],
      [
        "▁dus",
        "man"
      ],
      [
        "les",
        "tir"
      ],
      [
        "'",
        "tan"
      ],
      [
        "▁cars",
        "amba"
      ],
      [
        "▁eglen",
        "ce"
      ],
      [
        "▁el",
        "den"
      ],
      [
        "▁yab",
        "an"
      ],
      [
        "▁s",
        "aat"
      ],
      [
        "eg",
        "inde"
      ],
      [
        "v",
        "ek"
      ],
      [
        "i",
        "s"
      ],
      [
        "▁ilg",
        "isi"
      ],
      [
        "▁",
        "co"
      ],
      [
        "▁yol",
        "da"
      ],
      [
        "ha",
        "l"
      ],
      [
        "y",
        "as"
      ],
      [
        "▁i",
        "k"
      ],
      [
        "▁olma",
        "sı"
      ],
      [
        "▁bulun",
        "du"
      ],
      [
        "▁yap",
        "ım"
      ],
      [
        "▁r",
        "e"
      ],
      [
        "▁yiyecek",
        "ler"
      ],
      [
        "▁hic",
        "bir"
      ],
      [
        "ler",
        "di"
      ],
      [
        "▁l",
        "ak"
      ],
      [
        "▁",
        "m"
      ],
      [
        "▁insan",
        "ları"
      ],
      [
        "a",
        "t"
      ],
      [
        "d",
        "ı"
      ],
      [
        "▁ort",
        "adan"
      ],
      [
        "▁m",
        "etr"
      ],
      [
        "▁g",
        "enc"
      ],
      [
        "▁r",
        "ad"
      ],
      [
        "▁t",
        "uz"
      ],
      [
        "en",
        "lerin"
      ],
      [
        "l",
        "ek"
      ],
      [
        "o",
        "ksa"
      ],
      [
        "▁s",
        "os"
      ],
      [
        "▁$",
        "'dan"
      ],
      [
        "du",
        "m"
      ],
      [
        "▁c",
        "il"
      ],
      [
        "c",
        "e"
      ],
      [
        "▁m",
        "an"
      ],
      [
        "▁dus",
        "un"
      ],
      [
        "▁a",
        "ncak"
      ],
      [
        "es",
        "inin"
      ],
      [
        "▁top",
        "lam"
      ],
      [
        "en",
        "di"
      ],
      [
        "▁b",
        "el"
      ],
      [
        "m",
        "eye"
      ],
      [
        "▁yolcu",
        "luk"
      ],
      [
        "▁ba",
        "na"
      ],
      [
        "▁",
        "y"
      ],
      [
        "8",
        "'de"
      ],
      [
        "▁ogren",
        "mek"
      ],
      [
        "▁m",
        "ı"
      ],
      [
        "ab",
        "ı"
      ],
      [
        "▁y",
        "a"
      ],
      [
        "▁cum",
        "a"
      ],
      [
        "▁",
        "ul"
      ],
      [
        "▁al",
        "a"
      ],
      [
        "▁t",
        "al"
      ],
      [
        "a",
        "h"
      ],
      [
        "▁in",
        "ce"
      ],
      [
        "▁y",
        "az"
      ],
      [
        "al",
        "an"
      ],
      [
        "▁sır",
        "asında"
      ],
      [
        "▁kit",
        "ab"
      ],
      [
        "ir",
        "im"
      ],
      [
        "▁d",
        "e"
      ],
      [
        "▁ed",
        "ecek"
      ],
      [
        "du",
        "gu"
      ],
      [
        "▁gey",
        "ik"
      ],
      [
        "lerin",
        "in"
      ],
      [
        "▁s",
        "oz"
      ],
      [
        "▁ger",
        "ek"
      ],
      [
        "▁f",
        "en"
      ],
      [
        "lık",
        "lar"
      ],
      [
        "▁kon",
        "us"
      ],
      [
        "al",
        "ı"
      ],
      [
        "▁h",
        "ab"
      ],
      [
        "▁b",
        "oy"
      ],
      [
        "▁iki",
        "si"
      ],
      [
        "▁p",
        "az"
      ],
      [
        "▁yer",
        "inde"
      ],
      [
        "▁ara",
        "di"
      ],
      [
        "▁devr",
        "alma"
      ],
      [
        "▁j",
        "apon"
      ],
      [
        "▁y",
        "ıla"
      ],
      [
        "▁du",
        "z"
      ],
      [
        "▁d",
        "allas"
      ],
      [
        "ge",
        "r"
      ],
      [
        "▁son",
        "unda"
      ],
      [
        "lu",
        "gun"
      ],
      [
        "e",
        "bil"
      ],
      [
        "▁ar",
        "ada"
      ],
      [
        "▁r",
        "ah"
      ],
      [
        "▁t",
        "ep"
      ],
      [
        "▁tem",
        "el"
      ],
      [
        "ı",
        "da"
      ],
      [
        "▁vak",
        "it"
      ],
      [
        "▁ist",
        "e"
      ],
      [
        "lig",
        "i"
      ],
      [
        "▁sonr",
        "ası"
      ],
      [
        "▁ph",
        "il"
      ],
      [
        "v",
        "e"
      ],
      [
        "▁ren",
        "k"
      ],
      [
        "▁du",
        "k"
      ],
      [
        "▁",
        "n"
      ],
      [
        "▁ort",
        "am"
      ],
      [
        "▁y",
        "ay"
      ],
      [
        "▁coc",
        "ugun"
      ],
      [
        "▁duny",
        "aya"
      ],
      [
        "▁de",
        "mek"
      ],
      [
        "e",
        "r"
      ],
      [
        "dik",
        "leri"
      ],
      [
        "▁al",
        "b"
      ],
      [
        "▁",
        "do"
      ],
      [
        "de",
        "s"
      ],
      [
        "▁o",
        "p"
      ],
      [
        "▁ha",
        "f"
      ],
      [
        "▁",
        "alt"
      ],
      [
        "lan",
        "dı"
      ],
      [
        "▁",
        "lik"
      ],
      [
        "▁yum",
        "ur"
      ],
      [
        "us",
        "tur"
      ],
      [
        "▁civ",
        "arında"
      ],
      [
        "s",
        "en"
      ],
      [
        "▁kel",
        "im"
      ],
      [
        "▁yar",
        "gıc"
      ],
      [
        "▁cev",
        "re"
      ],
      [
        "ec",
        "ek"
      ],
      [
        "▁p",
        "ay"
      ],
      [
        "u",
        "r"
      ],
      [
        "imiz",
        "in"
      ],
      [
        "▁sal",
        "ı"
      ],
      [
        "▁mak",
        "ine"
      ],
      [
        "cı",
        "lık"
      ],
      [
        "▁k",
        "o"
      ],
      [
        "▁oldu",
        "gu"
      ],
      [
        "l",
        "e"
      ],
      [
        "c",
        "i"
      ],
      [
        "▁s",
        "ır"
      ],
      [
        "▁ed",
        "eb"
      ],
      [
        "▁ac",
        "ik"
      ],
      [
        "'",
        "ye"
      ],
      [
        "y",
        "la"
      ],
      [
        "▁19",
        "9"
      ],
      [
        "lu",
        "k"
      ],
      [
        "▁d",
        "ah"
      ],
      [
        "▁g",
        "i"
      ],
      [
        "▁",
        "im"
      ],
      [
        "es",
        "inden"
      ],
      [
        "▁sav",
        "as"
      ],
      [
        "l",
        "ey"
      ],
      [
        "▁",
        "“"
      ],
      [
        "d",
        "ıg"
      ],
      [
        "▁.",
        ")"
      ],
      [
        "▁bol",
        "um"
      ],
      [
        "y",
        "on"
      ],
      [
        "▁kah",
        "v"
      ],
      [
        "c",
        "egini"
      ],
      [
        "▁her",
        "hangi"
      ],
      [
        "▁gerek",
        "tigini"
      ],
      [
        "▁r",
        "en"
      ],
      [
        "▁per",
        "form"
      ],
      [
        "▁m",
        "ar"
      ],
      [
        "▁ilgilendi",
        "ler"
      ],
      [
        "▁d",
        "i"
      ],
      [
        "▁bor",
        "c"
      ],
      [
        "b",
        "e"
      ],
      [
        "y",
        "ası"
      ],
      [
        "▁c",
        "el"
      ],
      [
        "c",
        "ılık"
      ],
      [
        "n",
        "am"
      ],
      [
        "▁m",
        "es"
      ],
      [
        "▁top",
        "u"
      ],
      [
        "▁da",
        "r"
      ],
      [
        "▁g",
        "elir"
      ],
      [
        "▁",
        "eli"
      ],
      [
        "▁o",
        "t"
      ],
      [
        "▁men",
        "kul"
      ],
      [
        "▁a",
        "ma"
      ],
      [
        "u",
        "d"
      ],
      [
        "▁hukum",
        "et"
      ],
      [
        "▁m",
        "un"
      ],
      [
        "▁h",
        "a"
      ],
      [
        "▁d",
        "av"
      ],
      [
        "▁hat",
        "ta"
      ],
      [
        "la",
        "ması"
      ],
      [
        "▁du",
        "m"
      ],
      [
        "▁g",
        "en"
      ],
      [
        "mı",
        "stır"
      ],
      [
        "▁mek",
        "te"
      ],
      [
        "▁yak",
        "ın"
      ],
      [
        "▁sek",
        "l"
      ],
      [
        "▁h",
        "az"
      ],
      [
        "ey",
        "in"
      ],
      [
        "▁",
        "6"
      ],
      [
        "▁",
        "ve"
      ],
      [
        "▁yan",
        "a"
      ],
      [
        "▁bak",
        "an"
      ],
      [
        "er",
        "in"
      ],
      [
        "▁on",
        "er"
      ],
      [
        "▁yap",
        "rak"
      ],
      [
        "▁h",
        "af"
      ],
      [
        "▁ne",
        "den"
      ],
      [
        "▁du",
        "y"
      ],
      [
        "▁sa",
        "v"
      ],
      [
        "▁or",
        "n"
      ],
      [
        "▁bilgisay",
        "ar"
      ],
      [
        "▁sig",
        "orta"
      ],
      [
        "ug",
        "a"
      ],
      [
        "▁t",
        "uk"
      ],
      [
        "▁kar",
        "ar"
      ],
      [
        "▁art",
        "ır"
      ],
      [
        "▁s",
        "if"
      ],
      [
        "▁",
        "ef"
      ],
      [
        "u",
        "s"
      ],
      [
        "d",
        "eki"
      ],
      [
        "▁havaal",
        "anı"
      ],
      [
        "▁kon",
        "umu"
      ],
      [
        "▁met",
        "r"
      ],
      [
        "larımız",
        "ı"
      ],
      [
        "▁at",
        "es"
      ],
      [
        "▁olanak",
        "ları"
      ],
      [
        "s",
        "ur"
      ],
      [
        "▁cocuk",
        "lara"
      ],
      [
        "▁ev",
        "den"
      ],
      [
        "▁o",
        "f"
      ],
      [
        "▁p",
        "h"
      ],
      [
        "▁h",
        "ay"
      ],
      [
        "a",
        "j"
      ],
      [
        "▁ko",
        "p"
      ],
      [
        "d",
        "aki"
      ],
      [
        "b",
        "ah"
      ],
      [
        "▁sade",
        "ce"
      ],
      [
        "▁ins",
        "an"
      ],
      [
        "▁piyas",
        "aya"
      ],
      [
        "▁gelir",
        "i"
      ],
      [
        "ma",
        "m"
      ],
      [
        "▁",
        "it"
      ],
      [
        "▁b",
        "or"
      ],
      [
        "ul",
        "t"
      ],
      [
        "l",
        "av"
      ],
      [
        "an",
        "dı"
      ],
      [
        "▁o",
        "larak"
      ],
      [
        "y",
        "a"
      ],
      [
        "e",
        "si"
      ],
      [
        "▁art",
        "ısı"
      ],
      [
        "▁ulas",
        "ımı"
      ],
      [
        "▁k",
        "om"
      ],
      [
        "▁tasar",
        "ruf"
      ],
      [
        "▁sı",
        "cak"
      ],
      [
        "ıs",
        "ının"
      ],
      [
        "▁yap",
        "ı"
      ],
      [
        "us",
        "unda"
      ],
      [
        "▁b",
        "asın"
      ],
      [
        "ak",
        "ları"
      ],
      [
        "is",
        "inin"
      ],
      [
        "l",
        "ılık"
      ],
      [
        "▁kar",
        "si"
      ],
      [
        "▁yemek",
        "lerden"
      ],
      [
        "b",
        "i"
      ],
      [
        "▁uy",
        "um"
      ],
      [
        "▁personel",
        "i"
      ],
      [
        "ag",
        "ında"
      ],
      [
        "h",
        "ur"
      ],
      [
        "▁top",
        "r"
      ],
      [
        "▁sa",
        "at"
      ],
      [
        "ma",
        "y"
      ],
      [
        "st",
        "ım"
      ],
      [
        "s",
        "am"
      ],
      [
        "▁tah",
        "ta"
      ],
      [
        "▁dak",
        "ika"
      ],
      [
        "ır",
        "tı"
      ],
      [
        "mı",
        "stı"
      ],
      [
        "▁ail",
        "e"
      ],
      [
        "▁uy",
        "ku"
      ],
      [
        "▁bur",
        "n"
      ],
      [
        "▁l",
        "ob"
      ],
      [
        "▁art",
        "ıs"
      ],
      [
        "▁ic",
        "in"
      ],
      [
        "▁ay",
        "lık"
      ],
      [
        "▁soh",
        "bet"
      ],
      [
        "s",
        "u"
      ],
      [
        "iler",
        "i"
      ],
      [
        "▁gerek",
        "iyor"
      ],
      [
        "▁sen",
        "etleri"
      ],
      [
        "▁p",
        "enc"
      ],
      [
        "ık",
        "lar"
      ],
      [
        "m",
        "iyor"
      ],
      [
        "▁tar",
        "if"
      ],
      [
        "ar",
        "lar"
      ],
      [
        "▁dir",
        "ek"
      ],
      [
        "▁b",
        "ir"
      ],
      [
        "▁y",
        "et"
      ],
      [
        "▁",
        "ust"
      ],
      [
        "▁t",
        "edav"
      ],
      [
        "▁sav",
        "ası"
      ],
      [
        "▁yem",
        "egi"
      ],
      [
        "▁g",
        "ur"
      ],
      [
        "ilen",
        "dir"
      ],
      [
        "▁",
        "l"
      ],
      [
        "▁il",
        "a"
      ],
      [
        "▁ko",
        "t"
      ],
      [
        "▁a",
        "da"
      ],
      [
        "▁sig",
        "ort"
      ],
      [
        "▁n",
        "iyet"
      ],
      [
        "▁sur",
        "u"
      ],
      [
        "is",
        "co"
      ],
      [
        "▁dav",
        "et"
      ],
      [
        "▁ben",
        "z"
      ],
      [
        "ı",
        "dır"
      ],
      [
        "iz",
        "li"
      ],
      [
        "▁inter",
        "net"
      ],
      [
        "▁yol",
        "cul"
      ],
      [
        "h",
        "u"
      ],
      [
        "▁bu",
        "y"
      ],
      [
        "an",
        "ı"
      ],
      [
        "▁hizmet",
        "inden"
      ],
      [
        "▁d",
        "ur"
      ],
      [
        "▁egit",
        "im"
      ],
      [
        "▁cumhur",
        "b"
      ],
      [
        "'",
        "s"
      ],
      [
        "▁havayol",
        "larının"
      ],
      [
        "▁nok",
        "t"
      ],
      [
        "ma",
        "n"
      ],
      [
        "▁m",
        "o"
      ],
      [
        "▁",
        "de"
      ],
      [
        "▁kon",
        "s"
      ],
      [
        "eli",
        "k"
      ],
      [
        "▁or",
        "gan"
      ],
      [
        "is",
        "leri"
      ],
      [
        "a",
        "gı"
      ],
      [
        "li",
        "t"
      ],
      [
        "i",
        "c"
      ],
      [
        "▁m",
        "ed"
      ],
      [
        "im",
        "den"
      ],
      [
        "m",
        "is"
      ],
      [
        "▁d",
        "ugun"
      ],
      [
        "▁soyl",
        "edi"
      ],
      [
        "▁var",
        "dır"
      ],
      [
        "▁bas",
        "kan"
      ],
      [
        "c",
        "u"
      ],
      [
        "▁bul",
        "mak"
      ],
      [
        "▁bo",
        "yle"
      ],
      [
        "▁u",
        "cu"
      ],
      [
        "▁pol",
        "is"
      ],
      [
        "▁sen",
        "edi"
      ],
      [
        "▁ge",
        "z"
      ],
      [
        "▁g",
        "u"
      ],
      [
        "▁end",
        "is"
      ],
      [
        "▁yon",
        "elik"
      ],
      [
        "ar",
        "t"
      ],
      [
        "▁onun",
        "e"
      ],
      [
        "▁bar",
        "dak"
      ],
      [
        "▁ka",
        "b"
      ],
      [
        "▁i",
        "ci"
      ],
      [
        "▁k",
        "is"
      ],
      [
        "m",
        "adıgını"
      ],
      [
        "▁b",
        "ina"
      ],
      [
        "▁pat",
        "ates"
      ],
      [
        "a",
        "cı"
      ],
      [
        "▁duy",
        "gu"
      ],
      [
        "▁cık",
        "tı"
      ],
      [
        "▁dar",
        "b"
      ],
      [
        "lar",
        "ında"
      ],
      [
        "▁on",
        "em"
      ],
      [
        "▁b",
        "ol"
      ],
      [
        "uk",
        "lu"
      ],
      [
        "is",
        "inden"
      ],
      [
        "▁k",
        "ade"
      ],
      [
        "s",
        "ı"
      ],
      [
        "dıgın",
        "da"
      ],
      [
        "▁et",
        "me"
      ],
      [
        "ir",
        "di"
      ],
      [
        "▁ag",
        "ac"
      ],
      [
        "▁d",
        "u"
      ],
      [
        "mey",
        "i"
      ],
      [
        "▁c",
        "or"
      ],
      [
        "▁sayı",
        "da"
      ],
      [
        "d",
        "ik"
      ],
      [
        "▁sik",
        "inti"
      ],
      [
        "▁yıl",
        "d"
      ],
      [
        "▁begen",
        "medim"
      ],
      [
        "▁kalit",
        "eye"
      ],
      [
        "i",
        "m"
      ],
      [
        "▁es",
        "ki"
      ],
      [
        "▁cog",
        "u"
      ],
      [
        "▁yon",
        "etim"
      ],
      [
        "ıg",
        "ını"
      ],
      [
        "▁e",
        "v"
      ],
      [
        "i",
        "leri"
      ],
      [
        "il",
        "e"
      ],
      [
        "ıs",
        "ına"
      ],
      [
        "▁bon",
        "o"
      ],
      [
        "▁i",
        "de"
      ],
      [
        "am",
        "ba"
      ],
      [
        "▁b",
        "uz"
      ],
      [
        "▁ge",
        "c"
      ],
      [
        "ın",
        "daki"
      ],
      [
        "i",
        "y"
      ],
      [
        "▁tel",
        "ef"
      ],
      [
        "▁personel",
        "lerden"
      ],
      [
        "▁s",
        "ub"
      ],
      [
        "▁yonet",
        "imi"
      ],
      [
        "ur",
        "k"
      ],
      [
        "▁bay",
        "an"
      ],
      [
        "▁po",
        "lit"
      ],
      [
        "▁a",
        "mma"
      ],
      [
        "er",
        "h"
      ],
      [
        "▁t",
        "oz"
      ],
      [
        "▁l",
        "ut"
      ],
      [
        "a",
        "st"
      ],
      [
        "t",
        "ıgını"
      ],
      [
        "▁c",
        "ir"
      ],
      [
        "▁dolay",
        "i"
      ],
      [
        "▁edil",
        "di"
      ],
      [
        "▁guz",
        "eldi"
      ],
      [
        "▁tesekkur",
        "ler"
      ],
      [
        "▁b",
        "al"
      ],
      [
        "▁do",
        "r"
      ],
      [
        "an",
        "ın"
      ],
      [
        "▁y",
        "en"
      ],
      [
        "ıl",
        "mıs"
      ],
      [
        "▁ek",
        "s"
      ],
      [
        "▁ka",
        "t"
      ],
      [
        "▁meydan",
        "a"
      ],
      [
        "▁duny",
        "anın"
      ],
      [
        "▁ay",
        "da"
      ],
      [
        "▁y",
        "ılı"
      ],
      [
        "is",
        "im"
      ],
      [
        "▁a",
        "j"
      ],
      [
        "▁c",
        "ık"
      ],
      [
        "en",
        "i"
      ],
      [
        "▁y",
        "ok"
      ],
      [
        "▁ser",
        "may"
      ],
      [
        "▁un",
        "ivers"
      ],
      [
        "▁",
        "di"
      ],
      [
        "▁ha",
        "st"
      ],
      [
        "a",
        "dı"
      ],
      [
        "or",
        "t"
      ],
      [
        "m",
        "asına"
      ],
      [
        "▁ken",
        "ar"
      ],
      [
        "▁hay",
        "van"
      ],
      [
        "▁yıl",
        "larda"
      ],
      [
        "▁ol",
        "m"
      ],
      [
        "a",
        "rak"
      ],
      [
        "ist",
        "e"
      ],
      [
        "il",
        "igi"
      ],
      [
        "i",
        "n"
      ],
      [
        "▁kom",
        "p"
      ],
      [
        "ar",
        "et"
      ],
      [
        "▁haf",
        "t"
      ],
      [
        "▁on",
        "une"
      ],
      [
        "▁in",
        "an"
      ],
      [
        "ta",
        "k"
      ],
      [
        "▁g",
        "ibi"
      ],
      [
        "▁mil",
        "y"
      ],
      [
        "▁kr",
        "al"
      ],
      [
        "▁ka",
        "h"
      ],
      [
        "b",
        "u"
      ],
      [
        "▁bir",
        "im"
      ],
      [
        "▁den",
        "eme"
      ],
      [
        "imiz",
        "e"
      ],
      [
        "▁oak",
        "land"
      ],
      [
        "▁tekl",
        "if"
      ],
      [
        "▁ayak",
        "ta"
      ],
      [
        "▁don",
        "us"
      ],
      [
        "▁polit",
        "ika"
      ],
      [
        "▁kampanyalar",
        "dan"
      ],
      [
        "mekt",
        "edir"
      ],
      [
        "▁alt",
        "ın"
      ],
      [
        "v",
        "an"
      ],
      [
        "▁sim",
        "diye"
      ],
      [
        "e",
        "z"
      ],
      [
        "▁t",
        "ır"
      ],
      [
        "▁kom",
        "su"
      ],
      [
        "es",
        "tir"
      ],
      [
        "▁koy",
        "lu"
      ],
      [
        "▁hukum",
        "eti"
      ],
      [
        "▁pr",
        "ens"
      ],
      [
        "iyor",
        "lar"
      ],
      [
        "▁c",
        "ol"
      ],
      [
        "t",
        "a"
      ],
      [
        "▁c",
        "ik"
      ],
      [
        "il",
        "i"
      ],
      [
        "▁",
        "ha"
      ],
      [
        "un",
        "un"
      ],
      [
        "▁",
        "ver"
      ],
      [
        "▁ka",
        "f"
      ],
      [
        "▁vak",
        "t"
      ],
      [
        "▁ol",
        "mus"
      ],
      [
        "makt",
        "a"
      ],
      [
        "▁kıs",
        "ıt"
      ],
      [
        "e",
        "k"
      ],
      [
        "uyor",
        "lar"
      ],
      [
        "▁ucus",
        "a"
      ],
      [
        "▁an",
        "a"
      ],
      [
        "l",
        "an"
      ],
      [
        "▁tem",
        "sil"
      ],
      [
        "la",
        "s"
      ],
      [
        "v",
        "r"
      ],
      [
        "▁sirket",
        "in"
      ],
      [
        "▁wash",
        "ington"
      ],
      [
        "em",
        "iyor"
      ],
      [
        "▁or",
        "anı"
      ],
      [
        "ce",
        "k"
      ],
      [
        "▁perform",
        "ans"
      ],
      [
        "ob",
        "il"
      ],
      [
        "▁gor",
        "mek"
      ],
      [
        "i",
        "li"
      ],
      [
        "▁gorus",
        "me"
      ],
      [
        "▁pr",
        "oj"
      ],
      [
        "▁manzar",
        "asi"
      ],
      [
        "▁r",
        "es"
      ],
      [
        "▁g",
        "ob"
      ],
      [
        "▁do",
        "s"
      ],
      [
        "▁ba",
        "z"
      ],
      [
        "ı",
        "r"
      ],
      [
        "▁ben",
        "im"
      ],
      [
        "▁ar",
        "astır"
      ],
      [
        "▁bekl",
        "iyor"
      ],
      [
        "▁yet",
        "er"
      ],
      [
        "▁",
        ";"
      ],
      [
        "kt",
        "u"
      ],
      [
        "▁sp",
        "or"
      ],
      [
        "▁p",
        "aket"
      ],
      [
        "▁ol",
        "dugu"
      ],
      [
        "▁yan",
        "ıt"
      ],
      [
        "e",
        "c"
      ],
      [
        "▁muz",
        "ak"
      ],
      [
        "b",
        "an"
      ],
      [
        "▁gun",
        "e"
      ],
      [
        "▁misaf",
        "ir"
      ],
      [
        "ac",
        "ak"
      ],
      [
        "▁n",
        "ot"
      ],
      [
        "▁g",
        "ar"
      ],
      [
        "t",
        "ay"
      ],
      [
        "▁il",
        "et"
      ],
      [
        "▁ver",
        "im"
      ],
      [
        "▁ha",
        "kk"
      ],
      [
        "▁ba",
        "k"
      ],
      [
        "▁",
        "kac"
      ],
      [
        "ar",
        "i"
      ],
      [
        "▁o",
        "nun"
      ],
      [
        "▁c",
        "al"
      ],
      [
        "▁m",
        "is"
      ],
      [
        "a",
        "tır"
      ],
      [
        "▁pol",
        "it"
      ],
      [
        "c",
        "un"
      ],
      [
        "ecek",
        "ler"
      ],
      [
        "▁c",
        "ars"
      ],
      [
        "z",
        "a"
      ],
      [
        "▁is",
        "lerini"
      ],
      [
        "▁bas",
        "arı"
      ],
      [
        "▁mu",
        "s"
      ],
      [
        "▁d",
        "ar"
      ],
      [
        "ıg",
        "ı"
      ],
      [
        "▁ayr",
        "ıl"
      ],
      [
        "▁lu",
        "t"
      ],
      [
        "▁potansiy",
        "el"
      ],
      [
        "el",
        "er"
      ],
      [
        "▁gor",
        "du"
      ],
      [
        "ta",
        "y"
      ],
      [
        "▁gayr",
        "imen"
      ],
      [
        "de",
        "n"
      ],
      [
        "▁bu",
        "l"
      ],
      [
        "▁",
        "ay"
      ],
      [
        "▁on",
        "a"
      ],
      [
        "▁cocuk",
        "ları"
      ],
      [
        "▁taraf",
        "ından"
      ],
      [
        "▁piyas",
        "anın"
      ],
      [
        "m",
        "as"
      ],
      [
        "▁yaz",
        "ı"
      ],
      [
        "▁uz",
        "ak"
      ],
      [
        "▁u",
        "la"
      ],
      [
        "e",
        "m"
      ],
      [
        "▁oran",
        "ında"
      ],
      [
        "▁s",
        "e"
      ],
      [
        "▁goz",
        "lerini"
      ],
      [
        "▁d",
        "un"
      ],
      [
        "▁",
        "p"
      ],
      [
        "id",
        "e"
      ],
      [
        "▁c",
        "ep"
      ],
      [
        "▁ed",
        "en"
      ],
      [
        "in",
        "ti"
      ],
      [
        "ha",
        "ne"
      ],
      [
        "▁mevz",
        "u"
      ],
      [
        "▁k",
        "as"
      ],
      [
        "▁1",
        "0"
      ],
      [
        "u",
        "m"
      ],
      [
        "o",
        "'ya"
      ],
      [
        "'n",
        "in"
      ],
      [
        "▁hac",
        "im"
      ],
      [
        "▁m",
        "ag"
      ],
      [
        "▁gir",
        "is"
      ],
      [
        "▁b",
        "eg"
      ],
      [
        "▁",
        "ma"
      ],
      [
        "m",
        "ust"
      ],
      [
        "▁ak",
        "tiv"
      ],
      [
        "▁n",
        "ef"
      ],
      [
        "▁kit",
        "abı"
      ],
      [
        "g",
        "ah"
      ],
      [
        "sin",
        "iz"
      ],
      [
        "▁k",
        "up"
      ],
      [
        "as",
        "yon"
      ],
      [
        "ım",
        "dan"
      ],
      [
        "m",
        "em"
      ],
      [
        "lar",
        "ak"
      ],
      [
        "ım",
        "da"
      ],
      [
        "y",
        "alar"
      ],
      [
        "▁so",
        "h"
      ],
      [
        "▁cor",
        "ba"
      ],
      [
        "▁o",
        "g"
      ],
      [
        "▁ort",
        "al"
      ],
      [
        "m",
        "esini"
      ],
      [
        "um",
        "da"
      ],
      [
        "▁mas",
        "a"
      ],
      [
        "m",
        "ayan"
      ],
      [
        "▁gun",
        "ah"
      ],
      [
        "u",
        "y"
      ],
      [
        "uy",
        "le"
      ],
      [
        "▁s",
        "ac"
      ],
      [
        "ı",
        "s"
      ],
      [
        "g",
        "i"
      ],
      [
        "▁si",
        "ir"
      ],
      [
        "▁sist",
        "emi"
      ],
      [
        "▁fabr",
        "ika"
      ],
      [
        "▁k",
        "em"
      ],
      [
        "n",
        "cak"
      ],
      [
        "▁yuk",
        "s"
      ],
      [
        "ta",
        "n"
      ],
      [
        "▁cic",
        "ek"
      ],
      [
        "▁ann",
        "e"
      ],
      [
        "▁son",
        "ucu"
      ],
      [
        "▁nak",
        "it"
      ],
      [
        "l",
        "ar"
      ],
      [
        "▁n",
        "it"
      ],
      [
        "▁b",
        "irim"
      ],
      [
        "at",
        "a"
      ],
      [
        "d",
        "er"
      ],
      [
        "▁i",
        "b"
      ],
      [
        "b",
        "urg"
      ],
      [
        "▁so",
        "f"
      ],
      [
        "▁kahv",
        "e"
      ],
      [
        "▁ilgil",
        "en"
      ],
      [
        "l",
        "es"
      ],
      [
        "▁denver",
        "'e"
      ],
      [
        "▁da",
        "m"
      ],
      [
        "el",
        "li"
      ],
      [
        "um",
        "e"
      ],
      [
        "acı",
        "lar"
      ],
      [
        "▁",
        "emek"
      ],
      [
        "▁kur",
        "s"
      ],
      [
        "k",
        "ah"
      ],
      [
        "▁m",
        "ev"
      ],
      [
        "▁",
        "t"
      ],
      [
        "em",
        "be"
      ],
      [
        "▁l",
        "e"
      ],
      [
        "▁mem",
        "ur"
      ],
      [
        "▁yuz",
        "unden"
      ],
      [
        "▁uc",
        "reti"
      ],
      [
        "▁ag",
        "ustos"
      ],
      [
        "▁b",
        "alt"
      ],
      [
        "▁",
        "1"
      ],
      [
        "ul",
        "u"
      ],
      [
        "i",
        "l"
      ],
      [
        "▁s",
        "ah"
      ],
      [
        "dık",
        "tan"
      ],
      [
        "▁kuc",
        "uktu"
      ],
      [
        "▁he",
        "r"
      ],
      [
        "l",
        "eri"
      ],
      [
        "▁s",
        "tr"
      ],
      [
        "▁el",
        "i"
      ],
      [
        "b",
        "ar"
      ],
      [
        "▁da",
        "y"
      ],
      [
        "▁s",
        "art"
      ],
      [
        "le",
        "g"
      ],
      [
        "k",
        "i"
      ],
      [
        "▁delik",
        "an"
      ],
      [
        "▁mem",
        "nun"
      ],
      [
        "▁list",
        "esini"
      ],
      [
        "▁on",
        "unde"
      ],
      [
        "ra",
        "z"
      ],
      [
        "e",
        "lik"
      ],
      [
        "▁oda",
        "m"
      ],
      [
        "▁per",
        "de"
      ],
      [
        "▁m",
        "ot"
      ],
      [
        "▁lir",
        "a"
      ],
      [
        "▁yuz",
        "unu"
      ],
      [
        "▁mahk",
        "eme"
      ],
      [
        "u",
        "n"
      ],
      [
        "▁s",
        "i"
      ],
      [
        "▁dah",
        "i"
      ],
      [
        "o",
        "r"
      ],
      [
        "▁oz",
        "gur"
      ],
      [
        "▁faal",
        "iyet"
      ],
      [
        "▁gun",
        "duz"
      ],
      [
        "▁rezerv",
        "asyon"
      ],
      [
        "lıg",
        "ına"
      ],
      [
        "▁su",
        "p"
      ],
      [
        "▁es",
        "n"
      ],
      [
        "▁buy",
        "ume"
      ],
      [
        "i",
        "de"
      ],
      [
        "▁er",
        "k"
      ],
      [
        "▁ef",
        "endi"
      ],
      [
        "▁mal",
        "iyet"
      ],
      [
        "▁mes",
        "af"
      ],
      [
        "ama",
        "m"
      ],
      [
        "▁ta",
        "v"
      ],
      [
        "as",
        "ır"
      ],
      [
        "▁az",
        "ından"
      ],
      [
        "ra",
        "k"
      ],
      [
        "▁in",
        "gil"
      ],
      [
        "al",
        "le"
      ],
      [
        "▁s",
        "av"
      ],
      [
        "▁rek",
        "or"
      ],
      [
        "c",
        "o"
      ],
      [
        "▁man",
        "z"
      ],
      [
        "in",
        "ci"
      ],
      [
        "▁coz",
        "um"
      ],
      [
        "▁m",
        "ec"
      ],
      [
        "▁olm",
        "ak"
      ],
      [
        "ad",
        "em"
      ],
      [
        "▁g",
        "o"
      ],
      [
        "▁",
        "ez"
      ],
      [
        "on",
        "u"
      ],
      [
        "et",
        "in"
      ],
      [
        "▁h",
        "am"
      ],
      [
        "'d",
        "en"
      ],
      [
        "▁philadel",
        "phia"
      ],
      [
        "s",
        "ik"
      ],
      [
        "▁mil",
        "l"
      ],
      [
        "▁san",
        "at"
      ],
      [
        "▁kısm",
        "ı"
      ],
      [
        "m",
        "edi"
      ],
      [
        "▁son",
        "r"
      ],
      [
        "▁k",
        "ab"
      ],
      [
        "▁od",
        "un"
      ],
      [
        "▁d",
        "o"
      ],
      [
        "▁coc",
        "uk"
      ],
      [
        "on",
        "ra"
      ],
      [
        "as",
        "ıl"
      ],
      [
        "ev",
        "i"
      ],
      [
        "▁yok",
        "sa"
      ],
      [
        "▁k",
        "on"
      ],
      [
        "▁sah",
        "n"
      ],
      [
        "o",
        "d"
      ],
      [
        "▁a",
        "r"
      ],
      [
        "▁kurul",
        "us"
      ],
      [
        "▁parc",
        "ası"
      ],
      [
        "▁ar",
        "asındaki"
      ],
      [
        "▁in",
        "anc"
      ],
      [
        "m",
        "isti"
      ],
      [
        "▁merkez",
        "i"
      ],
      [
        "▁soy",
        "le"
      ],
      [
        "in",
        "de"
      ],
      [
        "▁mah",
        "alle"
      ],
      [
        "d",
        "ıgı"
      ],
      [
        "den",
        "in"
      ],
      [
        "▁1",
        "0'dan"
      ],
      [
        "▁sa",
        "tıs"
      ],
      [
        "▁b",
        "os"
      ],
      [
        "am",
        "ın"
      ],
      [
        "▁c",
        "er"
      ],
      [
        "▁i",
        "h"
      ],
      [
        "▁zar",
        "ar"
      ],
      [
        "ur",
        "lu"
      ],
      [
        "▁d",
        "iger"
      ],
      [
        "▁hal",
        "de"
      ],
      [
        "p",
        "h"
      ],
      [
        "▁orn",
        "ek"
      ],
      [
        "▁..",
        "\""
      ],
      [
        "▁",
        "et"
      ],
      [
        "▁par",
        "ayı"
      ],
      [
        "ar",
        "eti"
      ],
      [
        "▁s",
        "ırt"
      ],
      [
        "▁dallas",
        "'a"
      ],
      [
        "▁otel",
        "de"
      ],
      [
        "▁kus",
        "ur"
      ],
      [
        "ir",
        "i"
      ],
      [
        "▁alt",
        "ında"
      ],
      [
        "▁dus",
        "unc"
      ],
      [
        "li",
        "g"
      ],
      [
        "▁kar",
        "ayol"
      ],
      [
        "▁yap",
        "mayı"
      ],
      [
        "o",
        "s"
      ],
      [
        "▁i",
        "f"
      ],
      [
        "▁bas",
        "ladı"
      ],
      [
        "▁c",
        "adde"
      ],
      [
        "m",
        "ıyor"
      ],
      [
        "ar",
        "dı"
      ],
      [
        "g",
        "ur"
      ],
      [
        "ek",
        "kur"
      ],
      [
        "'",
        "n"
      ],
      [
        "▁co",
        "g"
      ],
      [
        "▁vuc",
        "ut"
      ],
      [
        "▁kam",
        "pan"
      ],
      [
        "▁s",
        "ayı"
      ],
      [
        "▁ik",
        "isi"
      ],
      [
        "▁ihr",
        "ac"
      ],
      [
        "▁b",
        "oz"
      ],
      [
        "▁a",
        "d"
      ],
      [
        "▁m",
        "as"
      ],
      [
        "▁goster",
        "di"
      ],
      [
        "▁c",
        "ak"
      ],
      [
        "ib",
        "er"
      ],
      [
        "l",
        "o"
      ],
      [
        "▁halk",
        "a"
      ],
      [
        "▁",
        "*"
      ],
      [
        "▁tam",
        "am"
      ],
      [
        "▁r",
        "ahat"
      ],
      [
        "▁uc",
        "u"
      ],
      [
        "▁sır",
        "a"
      ],
      [
        "iy",
        "at"
      ],
      [
        "siy",
        "on"
      ],
      [
        "un",
        "c"
      ],
      [
        "ug",
        "unu"
      ],
      [
        "▁r",
        "om"
      ],
      [
        "z",
        "et"
      ],
      [
        "▁mi",
        "s"
      ],
      [
        "▁hast",
        "al"
      ],
      [
        "▁ek",
        "m"
      ],
      [
        "▁is",
        "leri"
      ],
      [
        "t",
        "ig"
      ],
      [
        "▁m",
        "ust"
      ],
      [
        "ed",
        "ir"
      ],
      [
        "ma",
        "lar"
      ],
      [
        "m",
        "a"
      ],
      [
        "▁ya",
        "na"
      ],
      [
        "▁m",
        "em"
      ],
      [
        "k",
        "ur"
      ],
      [
        "▁ic",
        "inde"
      ],
      [
        "lar",
        "la"
      ],
      [
        "▁reh",
        "ber"
      ],
      [
        "burg",
        "h"
      ],
      [
        "▁sınıf",
        "ı"
      ],
      [
        "em",
        "em"
      ],
      [
        "g",
        "u"
      ],
      [
        "▁goz",
        "leri"
      ],
      [
        "▁ih",
        "al"
      ],
      [
        "▁k",
        "a"
      ],
      [
        "▁g",
        "om"
      ],
      [
        "▁c",
        "um"
      ],
      [
        "▁s",
        "ur"
      ],
      [
        "▁kan",
        "un"
      ],
      [
        "▁dol",
        "arı"
      ],
      [
        "se",
        "f"
      ],
      [
        "▁guven",
        "lik"
      ],
      [
        "ag",
        "a"
      ],
      [
        "▁bur",
        "okr"
      ],
      [
        "▁erk",
        "ek"
      ],
      [
        "ar",
        "ı"
      ],
      [
        "▁gun",
        "u"
      ],
      [
        "l",
        "eyi"
      ],
      [
        "▁r",
        "isk"
      ],
      [
        "▁dev",
        "ir"
      ],
      [
        "▁",
        "i"
      ],
      [
        "▁uy",
        "e"
      ],
      [
        "▁ver",
        "di"
      ],
      [
        "▁b",
        "ır"
      ],
      [
        "▁k",
        "af"
      ],
      [
        "▁ort",
        "ak"
      ],
      [
        "▁ucret",
        "in"
      ],
      [
        "▁ya",
        "ni"
      ],
      [
        "▁bas",
        "v"
      ],
      [
        "▁bab",
        "am"
      ],
      [
        "'",
        "den"
      ],
      [
        "▁at",
        "lan"
      ],
      [
        "▁f",
        "iyat"
      ],
      [
        "▁",
        "j"
      ],
      [
        "ede",
        "f"
      ],
      [
        "mes",
        "i"
      ],
      [
        "▁kalab",
        "alık"
      ],
      [
        "▁ay",
        "r"
      ],
      [
        "u",
        "l"
      ],
      [
        "▁il",
        "g"
      ],
      [
        "k",
        "u"
      ],
      [
        "▁p",
        "ers"
      ],
      [
        "▁ust",
        "une"
      ],
      [
        "▁cal",
        "ıs"
      ],
      [
        "a",
        "cak"
      ],
      [
        "▁",
        "ne"
      ],
      [
        "ya",
        "s"
      ],
      [
        "▁s",
        "u"
      ],
      [
        "e",
        "de"
      ],
      [
        "▁tav",
        "siye"
      ],
      [
        "▁soy",
        "l"
      ],
      [
        "▁ne",
        "w"
      ],
      [
        "▁zor",
        "unda"
      ],
      [
        "▁oy",
        "n"
      ],
      [
        "▁",
        "en"
      ],
      [
        "▁olma",
        "lı"
      ],
      [
        "▁ev",
        "i"
      ],
      [
        "▁do",
        "m"
      ],
      [
        "▁",
        "se"
      ],
      [
        "g",
        "an"
      ],
      [
        "im",
        "e"
      ],
      [
        "iz",
        "e"
      ],
      [
        "▁fir",
        "st"
      ],
      [
        "▁et",
        "raf"
      ],
      [
        "▁",
        "ok"
      ],
      [
        "▁n",
        "az"
      ],
      [
        "▁fiyat",
        "lar"
      ],
      [
        "▁bas",
        "la"
      ],
      [
        "▁c",
        "oz"
      ],
      [
        "g",
        "ı"
      ],
      [
        "n",
        "ak"
      ],
      [
        "ad",
        "a"
      ],
      [
        "▁yap",
        "mak"
      ],
      [
        "abil",
        "ecegini"
      ],
      [
        "▁y",
        "asında"
      ],
      [
        "▁da",
        "l"
      ],
      [
        "▁olm",
        "asi"
      ],
      [
        "▁is",
        "im"
      ],
      [
        "▁in",
        "c"
      ],
      [
        "▁yer",
        "den"
      ],
      [
        "ıl",
        "ıyor"
      ],
      [
        "▁kend",
        "i"
      ],
      [
        "iy",
        "on"
      ],
      [
        "▁gor",
        "us"
      ],
      [
        "▁mer",
        "div"
      ],
      [
        "▁zey",
        "tin"
      ],
      [
        "es",
        "i"
      ],
      [
        "▁tar",
        "ih"
      ],
      [
        "lıg",
        "ını"
      ],
      [
        "▁f",
        "ark"
      ],
      [
        "on",
        "un"
      ],
      [
        "▁ay",
        "d"
      ],
      [
        "▁t",
        "e"
      ],
      [
        "eler",
        "le"
      ],
      [
        "▁ek",
        "im"
      ],
      [
        "la",
        "bilir"
      ],
      [
        "in",
        "a"
      ],
      [
        "▁par",
        "an"
      ],
      [
        "l",
        "eket"
      ],
      [
        "▁tel",
        "evizyon"
      ],
      [
        "▁sır",
        "t"
      ],
      [
        "▁sir",
        "ket"
      ],
      [
        "▁t",
        "ad"
      ],
      [
        "▁as",
        "k"
      ],
      [
        "▁ist",
        "iyor"
      ],
      [
        "ma",
        "dan"
      ],
      [
        "a",
        "rı"
      ],
      [
        "i",
        "p"
      ],
      [
        "c",
        "ul"
      ],
      [
        "k",
        "an"
      ],
      [
        "'d",
        "an"
      ],
      [
        "is",
        "t"
      ],
      [
        "em",
        "edi"
      ],
      [
        "▁du",
        "sun"
      ],
      [
        "▁uc",
        "ret"
      ],
      [
        "▁cif",
        "t"
      ],
      [
        "▁sat",
        "ım"
      ],
      [
        "▁yanı",
        "t"
      ],
      [
        "▁mo",
        "de"
      ],
      [
        "▁har",
        "ic"
      ],
      [
        "▁yuz",
        "yıl"
      ],
      [
        "▁s",
        "an"
      ],
      [
        "▁d",
        "is"
      ],
      [
        "an",
        "ti"
      ],
      [
        "▁oyun",
        "cu"
      ],
      [
        "▁sorun",
        "ları"
      ],
      [
        "00",
        "0"
      ],
      [
        "▁mik",
        "r"
      ],
      [
        "▁etti",
        "m"
      ],
      [
        "la",
        "n"
      ],
      [
        "▁",
        "ken"
      ],
      [
        "▁t",
        "ac"
      ],
      [
        "▁ol",
        "anlar"
      ],
      [
        "r",
        "uk"
      ],
      [
        "▁ac",
        "ısından"
      ],
      [
        "▁kar",
        "ab"
      ],
      [
        "0'",
        "dan"
      ],
      [
        "uy",
        "a"
      ],
      [
        "0'",
        "da"
      ],
      [
        "▁an",
        "lay"
      ],
      [
        "▁do",
        "n"
      ],
      [
        "▁goz",
        "den"
      ],
      [
        "▁belir",
        "t"
      ],
      [
        "▁bel",
        "ediye"
      ],
      [
        "▁oc",
        "ak"
      ],
      [
        "▁gos",
        "teri"
      ],
      [
        "▁og",
        "ret"
      ],
      [
        "▁ediyor",
        "um"
      ],
      [
        "▁p",
        "ort"
      ],
      [
        "is",
        "ler"
      ],
      [
        "▁gen",
        "c"
      ],
      [
        "▁dogr",
        "u"
      ],
      [
        "▁kat",
        "k"
      ],
      [
        "▁oran",
        "ları"
      ],
      [
        "ı",
        "m"
      ],
      [
        "im",
        "i"
      ],
      [
        "iz",
        "i"
      ],
      [
        "▁di",
        "ye"
      ],
      [
        "▁t",
        "ah"
      ],
      [
        "▁donem",
        "de"
      ],
      [
        "▁ol",
        "ay"
      ],
      [
        "i",
        "t"
      ],
      [
        "e",
        "di"
      ],
      [
        "a",
        "ya"
      ],
      [
        "▁gorus",
        "uldu"
      ],
      [
        "▁",
        "ur"
      ],
      [
        "m",
        "ez"
      ],
      [
        "▁gazet",
        "eci"
      ],
      [
        "▁bic",
        "imde"
      ],
      [
        "ın",
        "lık"
      ],
      [
        "▁so",
        "g"
      ],
      [
        "un",
        "den"
      ],
      [
        "▁edeb",
        "iyat"
      ],
      [
        "▁mucade",
        "le"
      ],
      [
        "lig",
        "ine"
      ],
      [
        "▁yumur",
        "ta"
      ],
      [
        "▁sat",
        "ısı"
      ],
      [
        "▁gec",
        "esi"
      ],
      [
        "▁un",
        "ut"
      ],
      [
        "lan",
        "ır"
      ],
      [
        "▁ev",
        "e"
      ],
      [
        "c",
        "ev"
      ],
      [
        "l",
        "erin"
      ],
      [
        "ı",
        "y"
      ],
      [
        "▁yat",
        "ırım"
      ],
      [
        "▁kad",
        "ını"
      ],
      [
        "▁onc",
        "eki"
      ],
      [
        "l",
        "uk"
      ],
      [
        "▁h",
        "erh"
      ],
      [
        "g",
        "ar"
      ],
      [
        "g",
        "ın"
      ],
      [
        "▁ya",
        "s"
      ],
      [
        "ım",
        "ı"
      ],
      [
        "▁dun",
        "y"
      ],
      [
        "▁k",
        "ez"
      ],
      [
        "▁hak",
        "k"
      ],
      [
        "▁res",
        "im"
      ],
      [
        "▁hes",
        "ap"
      ],
      [
        "▁ol",
        "ma"
      ],
      [
        "▁z",
        "or"
      ],
      [
        "▁do",
        "gr"
      ],
      [
        "▁m",
        "a"
      ],
      [
        "ab",
        "a"
      ],
      [
        "l",
        "y"
      ],
      [
        "▁uret",
        "imi"
      ],
      [
        "l",
        "ul"
      ],
      [
        "▁m",
        "az"
      ],
      [
        "▁sur",
        "ec"
      ],
      [
        "▁",
        "st"
      ],
      [
        "▁",
        "am"
      ],
      [
        "g",
        "un"
      ],
      [
        "▁gun",
        "es"
      ],
      [
        "▁plan",
        "i"
      ],
      [
        "▁tem",
        "muz"
      ],
      [
        "▁d",
        "ev"
      ],
      [
        "▁kur",
        "ul"
      ],
      [
        "▁insa",
        "n"
      ],
      [
        "i",
        "ler"
      ],
      [
        "i",
        "ydi"
      ],
      [
        "▁gen",
        "is"
      ],
      [
        "il",
        "igini"
      ],
      [
        "▁fab",
        "r"
      ],
      [
        "▁ilg",
        "ili"
      ],
      [
        "▁ur",
        "un"
      ],
      [
        "▁",
        "u"
      ],
      [
        "r",
        "ak"
      ],
      [
        "▁c",
        "if"
      ],
      [
        "▁f",
        "as"
      ],
      [
        "▁gun",
        "un"
      ],
      [
        "m",
        "et"
      ],
      [
        "▁tav",
        "uk"
      ],
      [
        "ist",
        "ir"
      ],
      [
        "▁sor",
        "un"
      ],
      [
        "di",
        "v"
      ],
      [
        "▁v",
        "ak"
      ],
      [
        "▁satıs",
        "ları"
      ],
      [
        "▁ortal",
        "ama"
      ],
      [
        "k",
        "ar"
      ],
      [
        "▁ıs",
        "ık"
      ],
      [
        "b",
        "ul"
      ],
      [
        "▁ol",
        "maya"
      ],
      [
        "▁c",
        "in"
      ],
      [
        "▁",
        "dı"
      ],
      [
        "▁as",
        "ag"
      ],
      [
        "▁s",
        "ar"
      ],
      [
        "▁ust",
        "unde"
      ],
      [
        "ı",
        "n"
      ],
      [
        "▁s",
        "ın"
      ],
      [
        "▁bel",
        "ir"
      ],
      [
        "▁z",
        "ir"
      ],
      [
        "▁kar",
        "a"
      ],
      [
        "▁go",
        "ster"
      ],
      [
        "ıc",
        "ak"
      ],
      [
        "▁y",
        "arı"
      ],
      [
        "▁g",
        "ec"
      ],
      [
        "▁s",
        "es"
      ],
      [
        "▁hav",
        "ayol"
      ],
      [
        "k",
        "un"
      ],
      [
        "▁r",
        "ef"
      ],
      [
        "▁bay",
        "ram"
      ],
      [
        "er",
        "siz"
      ],
      [
        "▁et",
        "k"
      ],
      [
        "▁num",
        "ar"
      ],
      [
        "▁",
        "8"
      ],
      [
        "▁sek",
        "ret"
      ],
      [
        "▁",
        "iki"
      ],
      [
        "▁uzer",
        "ine"
      ],
      [
        "▁a",
        "rada"
      ],
      [
        "▁aileler",
        "e"
      ],
      [
        "eler",
        "de"
      ],
      [
        "▁s",
        "un"
      ],
      [
        "▁dor",
        "t"
      ],
      [
        "▁to",
        "p"
      ],
      [
        "lıg",
        "ı"
      ],
      [
        "▁pat",
        "lıc"
      ],
      [
        "o",
        "c"
      ],
      [
        "▁id",
        "di"
      ],
      [
        "▁yeter",
        "sizdi"
      ],
      [
        "▁a",
        "z"
      ],
      [
        "y",
        "or"
      ],
      [
        "▁sonuc",
        "lar"
      ],
      [
        "▁ask",
        "er"
      ],
      [
        "▁i",
        "st"
      ],
      [
        "ur",
        "t"
      ],
      [
        "▁da",
        "ha"
      ],
      [
        "▁ad",
        "ım"
      ],
      [
        "t",
        "ı"
      ],
      [
        "0",
        "0'"
      ],
      [
        "ci",
        "h"
      ],
      [
        "▁buy",
        "uk"
      ],
      [
        "m",
        "aya"
      ],
      [
        "▁sark",
        "ı"
      ],
      [
        "▁gel",
        "ir"
      ],
      [
        "▁icecek",
        "ler"
      ],
      [
        "st",
        "er"
      ],
      [
        "e",
        "b"
      ],
      [
        "ci",
        "ler"
      ],
      [
        "l",
        "im"
      ],
      [
        "▁kars",
        "ı"
      ],
      [
        "▁sey",
        "ir"
      ],
      [
        "▁a",
        "k"
      ],
      [
        "▁anim",
        "asyon"
      ],
      [
        "s",
        "at"
      ],
      [
        "▁he",
        "m"
      ],
      [
        "▁t",
        "iyatr"
      ],
      [
        "▁bel",
        "ki"
      ],
      [
        "▁kad",
        "ar"
      ],
      [
        "▁rehber",
        "imiz"
      ],
      [
        "▁dusun",
        "ce"
      ],
      [
        "▁han",
        "imdi"
      ],
      [
        "▁bol",
        "umu"
      ],
      [
        "ım",
        "ın"
      ],
      [
        "ed",
        "er"
      ],
      [
        "ti",
        "k"
      ],
      [
        "en",
        "k"
      ],
      [
        "e",
        "p"
      ],
      [
        "▁par",
        "ca"
      ],
      [
        "▁t",
        "amam"
      ],
      [
        "da",
        "r"
      ],
      [
        "is",
        "i"
      ],
      [
        "▁h",
        "erk"
      ],
      [
        "▁iz",
        "in"
      ],
      [
        "▁yak",
        "las"
      ],
      [
        "o",
        "m"
      ],
      [
        "▁idar",
        "e"
      ],
      [
        "▁rad",
        "yo"
      ],
      [
        "a",
        "sı"
      ],
      [
        "▁i",
        "g"
      ],
      [
        "▁ar",
        "alık"
      ],
      [
        "▁tic",
        "aret"
      ],
      [
        "▁h",
        "ik"
      ],
      [
        "▁re",
        "j"
      ],
      [
        "▁ic",
        "eri"
      ],
      [
        "um",
        "un"
      ],
      [
        "▁a",
        "c"
      ],
      [
        "ın",
        "dan"
      ],
      [
        "▁tes",
        "lim"
      ],
      [
        "▁r",
        "ap"
      ],
      [
        "ın",
        "da"
      ],
      [
        "▁fiyat",
        "i"
      ],
      [
        "▁deger",
        "lendir"
      ],
      [
        "at",
        "lı"
      ],
      [
        "▁hizmet",
        "ten"
      ],
      [
        "▁ba",
        "b"
      ],
      [
        "▁tek",
        "n"
      ],
      [
        "o",
        "y"
      ],
      [
        "▁de",
        "y"
      ],
      [
        "en",
        "c"
      ],
      [
        "▁mil",
        "let"
      ],
      [
        "▁do",
        "l"
      ],
      [
        "▁bir",
        "i"
      ],
      [
        "▁mem",
        "leket"
      ],
      [
        "▁ad",
        "ını"
      ],
      [
        "▁t",
        "ur"
      ],
      [
        "▁s",
        "onra"
      ],
      [
        "▁derec",
        "ede"
      ],
      [
        "han",
        "e"
      ],
      [
        "▁di",
        "s"
      ],
      [
        "in",
        "iz"
      ],
      [
        "▁se",
        "z"
      ],
      [
        "▁konu",
        "da"
      ],
      [
        "▁pr",
        "ot"
      ],
      [
        "g",
        "o"
      ],
      [
        "▁f",
        "ab"
      ],
      [
        "▁sa",
        "r"
      ],
      [
        "on",
        "om"
      ],
      [
        "▁edi",
        "yor"
      ],
      [
        "▁deg",
        "eri"
      ],
      [
        "ok",
        "r"
      ],
      [
        "▁f",
        "on"
      ],
      [
        "▁ucret",
        "e"
      ],
      [
        "▁saat",
        "lerinde"
      ],
      [
        "e",
        "t"
      ],
      [
        "▁or",
        "tak"
      ],
      [
        "▁a",
        "m"
      ],
      [
        "▁dıs",
        "ı"
      ],
      [
        "▁g",
        "em"
      ],
      [
        "dug",
        "u"
      ],
      [
        "e",
        "re"
      ],
      [
        "▁se",
        "k"
      ],
      [
        "ıyor",
        "lar"
      ],
      [
        "▁kar",
        "t"
      ],
      [
        "▁ho",
        "s"
      ],
      [
        "lıg",
        "ın"
      ],
      [
        "a",
        "v"
      ],
      [
        "i",
        "j"
      ],
      [
        "▁ol",
        "sun"
      ],
      [
        "▁r",
        "eh"
      ],
      [
        "▁y",
        "ag"
      ],
      [
        "▁k",
        "ok"
      ],
      [
        "▁m",
        "ez"
      ],
      [
        "▁d",
        "em"
      ],
      [
        "ay",
        "et"
      ],
      [
        "ılı",
        "r"
      ],
      [
        "em",
        "ez"
      ],
      [
        "▁or",
        "an"
      ],
      [
        "▁a",
        "y"
      ],
      [
        "▁t",
        "u"
      ],
      [
        "as",
        "i"
      ],
      [
        "o",
        "n"
      ],
      [
        "▁de",
        "n"
      ],
      [
        "el",
        "e"
      ],
      [
        "ay",
        "acagını"
      ],
      [
        "t",
        "ıg"
      ],
      [
        "▁s",
        "uya"
      ],
      [
        "▁ins",
        "a"
      ],
      [
        "▁",
        "."
      ],
      [
        "e",
        "h"
      ],
      [
        "asın",
        "da"
      ],
      [
        "▁se",
        "c"
      ],
      [
        "▁s",
        "o"
      ],
      [
        "▁mas",
        "anın"
      ],
      [
        "▁sahip",
        "leri"
      ],
      [
        "ar",
        "ında"
      ],
      [
        "▁ha",
        "v"
      ],
      [
        "ust",
        "os"
      ],
      [
        "ar",
        "k"
      ],
      [
        "e",
        "ler"
      ],
      [
        "▁ken",
        "di"
      ],
      [
        "▁l",
        "ir"
      ],
      [
        "▁ist",
        "em"
      ],
      [
        "▁o",
        "yle"
      ],
      [
        "a",
        "larını"
      ],
      [
        "ı",
        "lan"
      ],
      [
        "▁telefon",
        "la"
      ],
      [
        "▁ad",
        "am"
      ],
      [
        "y",
        "uz"
      ],
      [
        "▁he",
        "le"
      ],
      [
        "▁ac",
        "tı"
      ],
      [
        "mekt",
        "en"
      ],
      [
        "e",
        "f"
      ],
      [
        "il",
        "m"
      ],
      [
        "▁bil",
        "dir"
      ],
      [
        "▁uret",
        "im"
      ],
      [
        "▁t",
        "op"
      ],
      [
        "▁en",
        "gel"
      ],
      [
        "▁har",
        "c"
      ],
      [
        "ı",
        "l"
      ],
      [
        "▁m",
        "et"
      ],
      [
        "eti",
        "ci"
      ],
      [
        "ını",
        "z"
      ],
      [
        "a",
        "at"
      ],
      [
        "▁za",
        "man"
      ],
      [
        "▁bil",
        "et"
      ],
      [
        "▁en",
        "f"
      ],
      [
        "▁k",
        "ısı"
      ],
      [
        "▁kab",
        "ul"
      ],
      [
        "▁hal",
        "i"
      ],
      [
        "er",
        "al"
      ],
      [
        "eviz",
        "yon"
      ],
      [
        "▁but",
        "ce"
      ],
      [
        "▁y",
        "er"
      ],
      [
        "ag",
        "ını"
      ],
      [
        "y",
        "al"
      ],
      [
        "▁depr",
        "em"
      ],
      [
        "▁se",
        "m"
      ],
      [
        "▁anlas",
        "ma"
      ],
      [
        "▁kap",
        "as"
      ],
      [
        "▁am",
        "erik"
      ],
      [
        "ma",
        "dı"
      ],
      [
        "em",
        "iz"
      ],
      [
        "▁butu",
        "n"
      ],
      [
        "▁kr",
        "iz"
      ],
      [
        "▁sabah",
        "ı"
      ],
      [
        "an",
        "a"
      ],
      [
        "s",
        "in"
      ],
      [
        "▁t",
        "an"
      ],
      [
        "▁f",
        "a"
      ],
      [
        "▁ya",
        "z"
      ],
      [
        "▁p",
        "ark"
      ],
      [
        "al",
        "iydi"
      ],
      [
        "▁p",
        "er"
      ],
      [
        "▁manz",
        "ar"
      ],
      [
        "▁bi",
        "n"
      ],
      [
        "m",
        "esi"
      ],
      [
        "▁g",
        "on"
      ],
      [
        "▁se",
        "y"
      ],
      [
        "▁imk",
        "anlar"
      ],
      [
        "ay",
        "i"
      ],
      [
        "ur",
        "du"
      ],
      [
        "▁o",
        "ak"
      ],
      [
        "▁halbu",
        "ki"
      ],
      [
        "▁c",
        "ek"
      ],
      [
        "▁p",
        "lanı"
      ],
      [
        "▁ya",
        "k"
      ],
      [
        "▁te",
        "n"
      ],
      [
        "mas",
        "ı"
      ],
      [
        "▁kah",
        "kah"
      ],
      [
        "erli",
        "k"
      ],
      [
        "▁yor",
        "um"
      ],
      [
        "n",
        "ız"
      ],
      [
        "▁t",
        "r"
      ],
      [
        "▁al",
        "ak"
      ],
      [
        "▁c",
        "iv"
      ],
      [
        "▁serv",
        "is"
      ],
      [
        "▁ilav",
        "e"
      ],
      [
        "a",
        "ları"
      ],
      [
        "▁hal",
        "bu"
      ],
      [
        "s",
        "izdi"
      ],
      [
        "▁tekn",
        "oloj"
      ],
      [
        "ıl",
        "ım"
      ],
      [
        "▁kay",
        "b"
      ],
      [
        "s",
        "a"
      ],
      [
        "▁kı",
        "v"
      ],
      [
        "st",
        "ır"
      ],
      [
        "▁yıl",
        "ının"
      ],
      [
        "▁ar",
        "d"
      ],
      [
        "▁endust",
        "ri"
      ],
      [
        "▁par",
        "k"
      ],
      [
        "▁ad",
        "ı"
      ],
      [
        "ol",
        "a"
      ],
      [
        "▁al",
        "acak"
      ],
      [
        "▁yıl",
        "lar"
      ],
      [
        "▁k",
        "am"
      ],
      [
        "▁milyon",
        "dan"
      ],
      [
        "▁s",
        "ap"
      ],
      [
        "▁oldu",
        "gunu"
      ],
      [
        "k",
        "k"
      ],
      [
        "iyat",
        "r"
      ],
      [
        "▁tek",
        "l"
      ],
      [
        "▁o",
        "v"
      ],
      [
        "▁kor",
        "k"
      ],
      [
        "▁y",
        "um"
      ],
      [
        "▁b",
        "ah"
      ],
      [
        "▁adam",
        "ları"
      ],
      [
        "▁b",
        "ekl"
      ],
      [
        "▁ara",
        "stır"
      ],
      [
        ".",
        "5"
      ],
      [
        "h",
        "a"
      ],
      [
        "▁k",
        "uy"
      ],
      [
        "ta",
        "j"
      ],
      [
        "▁par",
        "c"
      ],
      [
        "▁saat",
        "i"
      ],
      [
        "▁sa",
        "ir"
      ],
      [
        "l",
        "anı"
      ],
      [
        "st",
        "on"
      ],
      [
        "▁b",
        "i"
      ],
      [
        "'",
        "dan"
      ],
      [
        "si",
        "l"
      ],
      [
        "▁hav",
        "a"
      ],
      [
        "'",
        "da"
      ],
      [
        "▁teh",
        "lik"
      ],
      [
        "▁sip",
        "ar"
      ],
      [
        "▁seb",
        "eb"
      ],
      [
        "igi",
        "m"
      ],
      [
        "▁den",
        "iz"
      ],
      [
        "▁r",
        "af"
      ],
      [
        "c",
        "a"
      ],
      [
        "er",
        "ans"
      ],
      [
        "▁hiss",
        "eye"
      ],
      [
        "▁zor",
        "luk"
      ],
      [
        "▁bil",
        "gi"
      ],
      [
        "▁ot",
        "eldi"
      ],
      [
        "eg",
        "e"
      ],
      [
        "▁d",
        "anıs"
      ],
      [
        "▁ha",
        "la"
      ],
      [
        "▁",
        "o"
      ],
      [
        "▁h",
        "er"
      ],
      [
        "▁gec",
        "ir"
      ],
      [
        "▁yuz",
        "den"
      ],
      [
        "▁",
        "ib"
      ],
      [
        "▁g",
        "az"
      ],
      [
        "ıy",
        "a"
      ],
      [
        "▁",
        "ed"
      ],
      [
        "▁t",
        "ar"
      ],
      [
        "▁ay",
        "n"
      ],
      [
        "▁ya",
        "y"
      ],
      [
        "▁e",
        "d"
      ],
      [
        "▁anal",
        "iz"
      ],
      [
        "o",
        "l"
      ],
      [
        "▁n",
        "am"
      ],
      [
        "ik",
        "lik"
      ],
      [
        "'",
        "e"
      ],
      [
        "▁in",
        "ter"
      ],
      [
        "▁sık",
        "ıntı"
      ],
      [
        "▁t",
        "es"
      ],
      [
        "cı",
        "ların"
      ],
      [
        "l",
        "di"
      ],
      [
        "s",
        "ız"
      ],
      [
        "▁tar",
        "z"
      ],
      [
        "▁t",
        "ic"
      ],
      [
        "▁d",
        "a"
      ],
      [
        "▁6",
        "'dan"
      ],
      [
        "▁francisco",
        "'ya"
      ],
      [
        "▁b",
        "en"
      ],
      [
        "▁y",
        "at"
      ],
      [
        "▁ka",
        "dar"
      ],
      [
        "▁ol",
        "ur"
      ],
      [
        "▁hanim",
        "la"
      ],
      [
        "▁ogr",
        "en"
      ],
      [
        "h",
        "ut"
      ],
      [
        "m",
        "anın"
      ],
      [
        "▁tah",
        "min"
      ],
      [
        "▁p",
        "at"
      ],
      [
        "▁ken",
        "t"
      ],
      [
        "▁soz",
        "cu"
      ],
      [
        "▁havaal",
        "anından"
      ],
      [
        "lerin",
        "den"
      ],
      [
        "ra",
        "f"
      ],
      [
        "▁fiyat",
        "ı"
      ],
      [
        "▁h",
        "ak"
      ],
      [
        "▁pers",
        "onel"
      ],
      [
        "t",
        "ik"
      ],
      [
        "m",
        "el"
      ],
      [
        "▁ediyor",
        "du"
      ],
      [
        "▁do",
        "lar"
      ],
      [
        "lik",
        "le"
      ],
      [
        "▁e",
        "s"
      ],
      [
        "▁s",
        "is"
      ],
      [
        "▁olma",
        "ya"
      ],
      [
        "suz",
        "luk"
      ],
      [
        "k",
        "ul"
      ],
      [
        "▁ruz",
        "gar"
      ],
      [
        "▁sını",
        "f"
      ],
      [
        "▁",
        "erk"
      ],
      [
        "i",
        "an"
      ],
      [
        "▁hiss",
        "ed"
      ],
      [
        "▁ya",
        "n"
      ],
      [
        "▁a",
        "l"
      ],
      [
        "▁ort",
        "aya"
      ],
      [
        "▁bicim",
        "de"
      ],
      [
        "▁k",
        "isi"
      ],
      [
        "▁s",
        "ul"
      ],
      [
        "ik",
        "ti"
      ],
      [
        "▁yer",
        "e"
      ],
      [
        "▁u",
        "s"
      ],
      [
        "▁d",
        "ay"
      ],
      [
        "▁a",
        "ile"
      ],
      [
        "▁ol",
        "u"
      ],
      [
        "▁",
        "ik"
      ],
      [
        "▁f",
        "azla"
      ],
      [
        "▁an",
        "cak"
      ],
      [
        "▁ko",
        "v"
      ],
      [
        "▁mily",
        "ar"
      ],
      [
        "ey",
        "n"
      ],
      [
        "in",
        "g"
      ],
      [
        "▁ko",
        "ku"
      ],
      [
        "▁dem",
        "ek"
      ],
      [
        "▁l",
        "istel"
      ],
      [
        "▁b",
        "asından"
      ],
      [
        "▁bır",
        "ak"
      ],
      [
        "▁fay",
        "da"
      ],
      [
        "lıg",
        "ında"
      ],
      [
        "eg",
        "i"
      ],
      [
        "▁muhaf",
        "az"
      ],
      [
        "▁an",
        "lat"
      ],
      [
        "▁al",
        "ır"
      ],
      [
        "▁",
        "te"
      ],
      [
        "ıl",
        "dı"
      ],
      [
        "▁tal",
        "ep"
      ],
      [
        "▁o",
        "kul"
      ],
      [
        "▁h",
        "uc"
      ],
      [
        "d",
        "il"
      ],
      [
        "en",
        "de"
      ],
      [
        "▁yar",
        "ıs"
      ],
      [
        "▁",
        "z"
      ],
      [
        "▁gi",
        "t"
      ],
      [
        "▁sin",
        "em"
      ],
      [
        "ları",
        "m"
      ],
      [
        "▁onun",
        "de"
      ],
      [
        "▁is",
        "let"
      ],
      [
        "b",
        "a"
      ],
      [
        "▁bo",
        "s"
      ],
      [
        "▁o",
        "la"
      ],
      [
        "▁il",
        "er"
      ],
      [
        "ey",
        "im"
      ],
      [
        "▁i",
        "ki"
      ],
      [
        "ay",
        "dı"
      ],
      [
        "▁han",
        "im"
      ],
      [
        "▁an",
        "al"
      ],
      [
        "▁uc",
        "mak"
      ],
      [
        "▁ho",
        "c"
      ],
      [
        "un",
        "dan"
      ],
      [
        "▁ic",
        "inden"
      ],
      [
        "ur",
        "g"
      ],
      [
        "▁",
        "k"
      ],
      [
        "▁y",
        "ab"
      ],
      [
        "▁b",
        "ur"
      ],
      [
        "larım",
        "ı"
      ],
      [
        "ab",
        "il"
      ],
      [
        "l",
        "ay"
      ],
      [
        "▁a",
        "det"
      ],
      [
        "▁b",
        "ıy"
      ],
      [
        "▁deg",
        "is"
      ],
      [
        "▁muh",
        "af"
      ],
      [
        "▁y",
        "on"
      ],
      [
        "▁yonetici",
        "leri"
      ],
      [
        "er",
        "li"
      ],
      [
        "▁ol",
        "an"
      ],
      [
        "▁duz",
        "ey"
      ],
      [
        "▁sey",
        "den"
      ],
      [
        "du",
        "k"
      ],
      [
        "▁p",
        "la"
      ],
      [
        "▁s",
        "ev"
      ],
      [
        "▁eg",
        "len"
      ],
      [
        "▁var",
        "lık"
      ],
      [
        "▁b",
        "ugun"
      ],
      [
        "is",
        "ini"
      ],
      [
        "▁artıs",
        "la"
      ],
      [
        "ad",
        "el"
      ],
      [
        "▁h",
        "at"
      ],
      [
        "y",
        "um"
      ],
      [
        "▁ger",
        "iye"
      ],
      [
        "▁alan",
        "da"
      ],
      [
        "▁bug",
        "day"
      ],
      [
        "▁1",
        "."
      ],
      [
        "▁far",
        "k"
      ],
      [
        "▁bas",
        "ta"
      ],
      [
        "er",
        "v"
      ],
      [
        "▁huk",
        "uk"
      ],
      [
        "▁kim",
        "s"
      ],
      [
        "c",
        "h"
      ],
      [
        "▁gir",
        "isim"
      ],
      [
        "▁el",
        "ine"
      ],
      [
        "▁r",
        "ez"
      ],
      [
        "▁o",
        "tur"
      ],
      [
        "▁olm",
        "us"
      ],
      [
        "▁bil",
        "eti"
      ],
      [
        "▁ozel",
        "lik"
      ],
      [
        "▁al",
        "ıs"
      ],
      [
        "▁par",
        "ti"
      ],
      [
        "a",
        "cag"
      ],
      [
        "▁bi",
        "raz"
      ],
      [
        "▁y",
        "uv"
      ],
      [
        "▁t",
        "o"
      ],
      [
        "ay",
        "an"
      ],
      [
        "▁ba",
        "ska"
      ],
      [
        "▁kahv",
        "alt"
      ],
      [
        "e",
        "st"
      ],
      [
        "▁b",
        "u"
      ],
      [
        "▁anlam",
        "ına"
      ],
      [
        "▁insan",
        "ların"
      ],
      [
        "ta",
        "rak"
      ],
      [
        "▁bil",
        "g"
      ],
      [
        "e",
        "ger"
      ],
      [
        "s",
        "iz"
      ],
      [
        "ed",
        "iye"
      ],
      [
        "▁anlam",
        "da"
      ],
      [
        "at",
        "ik"
      ],
      [
        "▁g",
        "ez"
      ],
      [
        "ay",
        "ı"
      ],
      [
        "▁tuk",
        "etici"
      ],
      [
        "▁$",
        "'a"
      ],
      [
        "▁pittsburgh",
        "'tan"
      ],
      [
        "uz",
        "lu"
      ],
      [
        "▁ark",
        "ad"
      ],
      [
        "▁dıs",
        "ında"
      ],
      [
        "▁gaz",
        "et"
      ],
      [
        "▁dıs",
        "arı"
      ],
      [
        "▁c",
        "eyr"
      ],
      [
        "am",
        "a"
      ],
      [
        "da",
        "m"
      ],
      [
        "enler",
        "i"
      ],
      [
        "▁vad",
        "eli"
      ],
      [
        "▁gru",
        "p"
      ],
      [
        "ru",
        "f"
      ],
      [
        "▁bilgis",
        "ay"
      ],
      [
        "ca",
        "k"
      ],
      [
        "▁w",
        "ash"
      ],
      [
        "am",
        "az"
      ],
      [
        "▁is",
        "i"
      ],
      [
        "▁ka",
        "v"
      ],
      [
        "▁kok",
        "usu"
      ],
      [
        "▁kay",
        "ıt"
      ],
      [
        "l",
        "emek"
      ],
      [
        "as",
        "ın"
      ],
      [
        "▁mu",
        "da"
      ],
      [
        "▁sek",
        "er"
      ],
      [
        "da",
        "y"
      ],
      [
        "▁n",
        "es"
      ],
      [
        "▁",
        "is"
      ],
      [
        "e",
        "g"
      ],
      [
        "▁di",
        "n"
      ],
      [
        "lan",
        "dır"
      ],
      [
        "▁sın",
        "ıf"
      ],
      [
        "▁l",
        "im"
      ],
      [
        "▁mas",
        "al"
      ],
      [
        "ler",
        "in"
      ],
      [
        "▁kalit",
        "esi"
      ],
      [
        "▁kal",
        "k"
      ],
      [
        "▁s",
        "ef"
      ],
      [
        "imiz",
        "de"
      ],
      [
        "▁",
        "'"
      ],
      [
        "i",
        "si"
      ],
      [
        "lan",
        "tı"
      ],
      [
        "▁'",
        "'"
      ],
      [
        "▁so",
        "yle"
      ],
      [
        "▁g",
        "et"
      ],
      [
        "▁",
        "3"
      ],
      [
        "▁tak",
        "ım"
      ],
      [
        "▁merkez",
        "ine"
      ],
      [
        "▁lez",
        "zet"
      ],
      [
        "▁ya",
        "lan"
      ],
      [
        "▁prob",
        "lem"
      ],
      [
        "▁sa",
        "m"
      ],
      [
        "▁kon",
        "uyu"
      ],
      [
        "▁dav",
        "a"
      ],
      [
        "eti",
        "cisi"
      ],
      [
        "▁f",
        "ran"
      ],
      [
        "til",
        "er"
      ],
      [
        "▁sir",
        "k"
      ],
      [
        "▁b",
        "an"
      ],
      [
        "▁kos",
        "ul"
      ],
      [
        "▁a",
        "ttı"
      ],
      [
        "ul",
        "uyor"
      ],
      [
        "an",
        "gi"
      ],
      [
        "▁ya",
        "l"
      ],
      [
        "▁kap",
        "andı"
      ],
      [
        "▁uz",
        "man"
      ],
      [
        "▁barda",
        "gı"
      ],
      [
        "▁ist",
        "asyon"
      ],
      [
        "▁git",
        "mek"
      ],
      [
        "r",
        "e"
      ],
      [
        "▁sa",
        "y"
      ],
      [
        "▁son",
        "a"
      ],
      [
        "▁k",
        "or"
      ],
      [
        "▁ba",
        "g"
      ],
      [
        "a",
        "f"
      ],
      [
        "▁ad",
        "ina"
      ],
      [
        "▁c",
        "ih"
      ],
      [
        "'y",
        "a"
      ],
      [
        "il",
        "di"
      ],
      [
        "▁v",
        "e"
      ],
      [
        "oy",
        "u"
      ],
      [
        "▁ac",
        "ık"
      ],
      [
        "▁he",
        "p"
      ],
      [
        "ın",
        "ın"
      ],
      [
        "▁po",
        "z"
      ],
      [
        "da",
        "n"
      ],
      [
        "▁icin",
        "e"
      ],
      [
        "▁huk",
        "um"
      ],
      [
        "▁y",
        "iy"
      ],
      [
        "▁b",
        "r"
      ],
      [
        "ında",
        "n"
      ],
      [
        "▁bir",
        "cok"
      ],
      [
        "▁v",
        "ad"
      ],
      [
        "▁kar",
        "ı"
      ],
      [
        "dı",
        "r"
      ],
      [
        "unu",
        "z"
      ],
      [
        "ıl",
        "ıg"
      ],
      [
        "▁kur",
        "taj"
      ],
      [
        "ing",
        "ton"
      ],
      [
        "▁dusus",
        "le"
      ],
      [
        "o",
        "p"
      ],
      [
        "▁mag",
        "az"
      ],
      [
        "▁personel",
        "ler"
      ],
      [
        "▁p",
        "iy"
      ],
      [
        "▁gos",
        "ter"
      ],
      [
        "▁gun",
        "de"
      ],
      [
        "▁s",
        "up"
      ],
      [
        "▁dov",
        "iz"
      ],
      [
        "t",
        "er"
      ],
      [
        "▁gerc",
        "ekl"
      ],
      [
        "di",
        "gi"
      ],
      [
        "▁uz",
        "un"
      ],
      [
        "▁el",
        "em"
      ],
      [
        "a",
        "larının"
      ],
      [
        "dıg",
        "ın"
      ],
      [
        "▁yap",
[...]
