{
  "version": "1.0",
  "truncation": null,
  "padding": null,
  "added_tokens": [
    {
      "id": 719,
      "content": "[CLS]",
      "single_word": false,
      "lstrip": false,
      "rstrip": false,
      "normalized": false,
      "special": true
    },
    {
      "id": 1023,
      "content": "[SEP]",
      "single_word": false,
      "lstrip": false,
      "rstrip": false,
      "normalized": false,
      "special": true
    },
    {
      "id": 1559,
      "content": "[MASK]",
      "single_word": false,
      "lstrip": false,
      "rstrip": false,
      "normalized": false,
      "special": true
    },
    {
      "id": 3780,
      "content": "[PAD]",
      "single_word": false,
      "lstrip": false,
      "rstrip": false,
      "normalized": false,
      "special": true
    },
    {
      "id": 3983,
      "content": "[UNK]",
      "single_word": false,
      "lstrip": false,
      "rstrip": false,
      "normalized": false,
      "special": true
    }
  ],
  "normalizer": {
    "type": "Sequence",
    "normalizers": [
      {
        "type": "NFD"
      },
      {
        "type": "Lowercase"
      },
      {
        "type": "StripAccents"
      }
    ]
  },
  "pre_tokenizer": {
    "type": "Sequence",
    "pretokenizers": [
      {
        "type": "Metaspace",
        "replacement": "▁",
        "prepend_scheme": "always",
        "split": true
      }
    ]
  },
  "post_processor": {
    "type": "TemplateProcessing",
    "single": [
      {
        "SpecialToken": {
          "id": "[CLS]",
          "type_id": 0
        }
      },
      {
        "Sequence": {
          "id": "A",
          "type_id": 0
        }
      },
      {
        "SpecialToken": {
          "id": "[SEP]",
          "type_id": 0
        }
      }
    ],
    "pair": [
      {
        "SpecialToken": {
          "id": "[CLS]",
          "type_id": 0
        }
      },
      {
        "Sequence": {
          "id": "A",
          "type_id": 0
        }
      },
      {
        "SpecialToken": {
          "id": "[SEP]",
          "type_id": 0
        }
      },
      {
        "Sequence": {
          "id": "B",
          "type_id": 1
        }
      },
      {
        "SpecialToken": {
          "id": "[SEP]",
          "type_id": 1
        }
      }
    ],
    "special_tokens": {
      "[CLS]": {
        "id": "[CLS]",
        "ids": [
          719
        ],
        "tokens": [
          "[CLS]"
        ]
      },
      "[SEP]": {
        "id": "[SEP]",
        "ids": [
          1023
        ],
        "tokens": [
          "[SEP]"
        ]
      }
    }
  },
  "decoder": {
    "type": "Metaspace",
    "replacement": "▁",
    "prepend_scheme": "always",
    "split": true
  },
  "model": {
    "type": "Unigram",
    "unk_id": 3983,
    "vocab": [
      [
        "ndan",
        -6.552049776741964
      ],
      [
        "v",
        -2.1317723992754427
      ],
      [
        "'",
        -5.924417164270849
      ],
      [
        "masını",
        -8.818464774385241
      ],
      [
        "▁listeley",
        -6.306110256609847
      ],
      [
        "▁girme",
        -9.23274771015684
      ],
      [
        "▁giris",
        -9.031881478239544
      ],
      [
        "sel",
        -5.723214982446909
      ],
      [
        "ize",
        -8.695382764880215
      ],
      [
        "▁kır",
        -8.221503937377351
      ],
      [
        "▁hava",
        -7.279715746937222
      ],
      [
        "n",
        -2.4853475738798307
      ],
      [
        "▁tahmin",
        -7.58694290602434
      ],
      [
        "▁oku",
        -7.939666441270406
      ],
      [
        "suzluk",
        -8.913311963267702
      ],
      [
        "ici",
        -9.115702665645355
      ],
      [
        "▁tamam",
        -6.411602014418075
      ],
      [
        "▁sesleri",
        -9.137137495180692
      ],
      [
        "▁anlamın",
        -8.863556453283985
      ],
      [
        "▁rolu",
        -9.246117151596103
      ],
      [
        "▁hisse",
        -6.278953957760908
      ],
      [
        "▁havayollarını",
        -8.760225216901649
      ],
      [
        "▁yap",
        -8.551017430370143
      ],
      [
        "▁yapil",
        -8.089569695231289
      ],
      [
        "▁gel",
        -7.453208717310507
      ],
      [
        "▁yaklasimi",
        -9.08559199033639
      ],
      [
        "▁spor",
        -8.71630399978753
      ],
      [
        "tu",
        -7.678101971105841
      ],
      [
        "▁kay",
        -8.239592915265249
      ],
      [
        "udur",
        -7.374474651075438
      ],
      [
        "▁gorustu",
        -7.9020892297624155
      ],
      [
        "ki",
        -12.24335423160404
      ],
      [
        "▁gosteri",
        -8.721254632880846
      ],
      [
        "▁yapma",
        -7.883864508205909
      ],
      [
        "ındaki",
        -6.302860002047394
      ],
      [
        "ca",
        -6.366620566290579
      ],
      [
        "le",
        -5.4601027747989495
      ],
      [
        "▁mail",
        -9.11281025715771
      ],
      [
        "s",
        -3.5806418659215655
      ],
      [
        "le",
        -5.4507944445883245
      ],
      [
        "▁houston'da",
        -7.452939634644913
      ],
      [
        "▁deger",
        -7.7698001211189425
      ],
      [
        "▁zayif",
        -7.882957216461865
      ],
      [
        "ım",
        -7.449483007409628
      ],
      [
        "▁as",
        -7.9774576896839235
      ],
      [
        "lugu",
        -7.674978099217801
      ],
      [
        "▁konusma",
        -8.069276125370173
      ],
      [
        "▁sozu",
        -8.407804031540875
      ],
      [
        "▁basın",
        -7.1918109827867935
      ],
      [
        "maları",
        -7.916852918228408
      ],
      [
        "▁geliri",
        -9.11459552846001
      ],
      [
        "▁islem",
        -7.285386282186226
      ],
      [
        "▁yardımcı",
        -8.54570144388573
      ],
      [
        "▁calı",
        -8.806749097901314
      ],
      [
        "liligi",
        -9.212015674739202
      ],
      [
        "▁polis",
        -8.386734132704479
      ],
      [
        "▁ticar",
        -7.098188015801196
      ],
      [
        "▁kup",
        -9.076191902652127
      ],
      [
        "▁sekiz",
        -5.578203547897827
      ],
      [
        "▁ilgili",
        -5.426669002869345
      ],
      [
        "ası",
        -8.185098745747753
      ],
      [
        "acagını",
        -8.176889607571834
      ],
      [
        "▁belirt",
        -7.683782046882066
      ],
      [
        "ta",
        -7.075810781638112
      ],
      [
        "▁r",
        -8.677199341049654
      ],
      [
        "iydi",
        -7.457789464584331
      ],
      [
        "▁ticareti",
        -9.212177775265829
      ],
      [
        "▁yıl",
        -7.582847028736413
      ],
      [
        "▁hasan",
        -7.420746060243845
      ],
      [
        "▁donus",
        -8.003070654400167
      ],
      [
        "▁posta",
        -8.889597557991685
      ],
      [
        "▁ucuyor",
        -7.312963302415817
      ],
      [
        "c",
        -4.705204350413798
      ],
      [
        "▁sans",
        -9.059369745767246
      ],
      [
        "▁yavas",
        -6.867619120627829
      ],
      [
        "▁ot",
        -7.384762552971319
      ],
      [
        "▁yılın",
        -8.243109969214476
      ],
      [
        "yen",
        -7.694928855735128
      ],
      [
        "▁hakkı",
        -8.574097819955353
      ],
      [
        "▁ot",
        -8.913591539383404
      ],
      [
        "▁olanakları",
        -9.263079746913636
      ],
      [
        "▁ucret",
        -6.700285313037716
      ],
      [
        "▁kurt",
        -9.24027110472299
      ],
      [
        "&",
        -7.467592664439693
      ],
      [
        "▁zarar",
        -8.130412808164333
      ],
      [
        "▁konusu",
        -8.558032382416304
      ],
      [
        "▁lık",
        -7.543427626244069
      ],
      [
        "▁kitaplar",
        -9.173931524117677
      ],
      [
        "▁artısla",
        -8.031311801177289
      ],
      [
        "du",
        -7.241565201592455
      ],
      [
        "lık",
        -6.299756592094877
      ],
      [
        "▁ust",
        -6.979559511536277
      ],
      [
        "▁kalıyor",
        -8.113316475280968
      ],
      [
        "▁tavuk",
        -9.265557747159972
      ],
      [
        "e",
        -3.054524576694323
      ],
      [
        "▁orman",
        -8.717476551341084
      ],
      [
        "▁50",
        -5.71151570423236
      ],
      [
        "▁sozler",
        -8.8941013953589
      ],
      [
        "▁vapur",
        -8.818724275131956
      ],
      [
        "▁baslamıstı",
        -8.061027006083195
      ],
      [
        "▁alıyor",
        -7.369269360280152
      ],
      [
        "evi",
        -8.729177513745036
      ],
      [
        "▁sahip",
        -7.24706871924641
      ],
      [
        "▁orada",
        -6.679303596995425
      ],
      [
        "▁lezzetleri",
        -8.992709993633838
      ],
      [
        "▁bos",
        -6.940296137114259
      ],
      [
        "luk",
        -7.22677111986672
      ],
      [
        "▁devri",
        -8.961495323919815
      ],
      [
        "▁boy",
        -5.301293242611928
      ],
      [
        "▁boy",
        -8.683461792900893
      ],
      [
        "▁mahkeme",
        -8.10721007326411
      ],
      [
        "▁indi",
        -7.774694128208652
      ],
      [
        "▁em",
        -8.859925087137402
      ],
      [
        "▁ihtiyacı",
        -9.031479520575639
      ],
      [
        "▁enflasyon",
        -8.74913106885425
      ],
      [
        "▁kahvaltı",
        -9.1844327851353
      ],
      [
        "▁ihrac",
        -8.778295245671867
      ],
      [
        "▁kaynak",
        -8.224967396196647
      ],
      [
        "ce",
        -6.77264541615444
      ],
      [
        "dır",
        -6.258060699112946
      ],
      [
        "▁yolu",
        -8.170510039055223
      ],
      [
        "▁gormek",
        -8.637371919417074
      ],
      [
        "▁alan",
        -7.8129806096875125
      ],
      [
        "▁ellerini",
        -9.031471357866398
      ],
      [
        "▁gerek",
        -8.144007580230529
      ],
      [
        "la",
        -6.800277714581961
      ],
      [
        "▁icecek",
        -9.231698099151709
      ],
      [
        "▁elli",
        -6.208347808831624
      ],
      [
        "man",
        -6.537557066055139
      ],
      [
        "▁it",
        -6.245885699482854
      ],
      [
        "ınca",
        -6.707064326619587
      ],
      [
        "▁bekliyor",
        -7.350871425835006
      ],
      [
        "▁carsamba",
        -5.641789510401653
      ],
      [
        "▁dere",
        -9.26612688139749
      ],
      [
        "▁kere",
        -8.162841277947777
      ],
      [
        "▁ne",
        -5.851574282211553
      ],
      [
        "▁musa",
        -6.911637104660019
      ],
      [
        "▁toren",
        -9.03980624377634
      ],
      [
        "▁devletin",
        -9.082807184417193
      ],
      [
        "▁dir",
        -4.563511654215546
      ],
      [
        "▁adamı",
        -8.794112316599366
      ],
      [
        "▁erkek",
        -8.467848247537201
      ],
      [
        "▁sayısı",
        -9.00905665866477
      ],
      [
        "larımı",
        -9.136012180560131
      ],
      [
        "▁hasta",
        -7.390891898070392
      ],
      [
        "▁askı",
        -9.063361379718458
      ],
      [
        "ila",
        -9.207290760679781
      ],
      [
        "san",
        -7.988813588777788
      ],
      [
        "▁konus",
        -7.162879927215088
      ],
      [
        "▁konustu",
        -7.3231066383999215
      ],
      [
        "he",
        -9.640744780901306
      ],
      [
        "▁rekabet",
        -8.622982401681806
      ],
      [
        "▁bicimde",
        -9.09785315767755
      ],
      [
        "mesini",
        -8.93105118169019
      ],
      [
        "▁futbol",
        -8.973189336932444
      ],
      [
        "▁neredey",
        -6.709668161950811
      ],
      [
        "▁ulasımı",
        -8.245641228232966
      ],
      [
        "r",
        -11.302702672349785
      ],
      [
        "▁rol",
        -8.855430596971221
      ],
      [
        "▁dow",
        -6.840496730669338
      ],
      [
        "▁zor",
        -8.996519068708063
      ],
      [
        "▁gazete",
        -7.7155077417781435
      ],
      [
        "di",
        -7.125723558148612
      ],
      [
        "gi",
        -8.001043011311552
      ],
      [
        "▁mo",
        -8.552495794731469
      ],
      [
        "ort",
        -8.967359289826806
      ],
      [
        "▁ekonomi",
        -6.928583034001799
      ],
      [
        "nden",
        -7.28572533756409
      ],
      [
        "…",
        -11.802702672349788
      ],
      [
        "▁sonrası",
        -9.154638352462396
      ],
      [
        "▁milyar",
        -8.422338155477378
      ],
      [
        "▁yolculuk",
        -9.16009405151695
      ],
      [
        "▁hissesi",
        -8.980195309066087
      ],
      [
        "▁olur",
        -6.262222181576986
      ],
      [
        "nun",
        -7.261526598545303
      ],
      [
        "▁orada",
        -5.86959198151261
      ],
      [
        "▁teklif",
        -7.457344510435918
      ],
      [
        "▁arası",
        -7.805190244867434
      ],
      [
        "▁hicbiri",
        -6.194402383819175
      ],
      [
        "▁kalın",
        -7.857673845133262
      ],
      [
        "▁fa",
        -5.262360152298196
      ],
      [
        "▁sigorta",
        -8.276225633161324
      ],
      [
        "▁olursa",
        -7.214387056847249
      ],
      [
        "▁cal",
        -8.070071060742738
      ],
      [
        "–",
        -12.802702672349787
      ],
      [
        "▁onlar",
        -4.15628502075879
      ],
      [
        "▁ha",
        -7.961710782505899
      ],
      [
        "ah",
        -7.906874148587283
      ],
      [
        "▁lezzet",
        -6.73402907811451
      ],
      [
        "▁15",
        -5.317744224803343
      ],
      [
        "cu",
        -5.8390927427595125
      ],
      [
        "tmak",
        -9.092736603661873
      ],
      [
        "g",
        -12.03594578210268
      ],
      [
        "▁alaka",
        -8.632025905811432
      ],
      [
        "'la",
        -7.331809685617591
      ],
      [
        "▁8'de",
        -9.113773307334963
      ],
      [
        "▁icinde",
        -6.726608357952595
      ],
      [
        "▁kum",
        -8.380981464512121
      ],
      [
        "s",
        -11.802702672349788
      ],
      [
        "▁banyo",
        -9.087737050010773
      ],
      [
        "▁dunya",
        -6.91586115397758
      ],
      [
        "▁...",
        -14.014958445102625
      ],
      [
        "▁kili",
        -9.18764703160226
      ],
      [
        "ar",
        -7.4576016271121555
      ],
      [
        "▁maliyeti",
        -8.87562148079572
      ],
      [
        "i",
        -3.7820737249274696
      ],
      [
        "▁gogsu",
        -9.1382836540469
      ],
      [
        "▁yatırımcılar",
        -8.248134419848348
      ],
      [
        "▁fazla",
        -5.48186363795423
      ],
      [
        "un",
        -7.422220092128157
      ],
      [
        "▁sayı",
        -7.898215512671115
      ],
      [
        "leme",
        -8.155318923096317
      ],
      [
        "lendirme",
        -8.65264321479412
      ],
      [
        "▁uzerin",
        -6.161937060409342
      ],
      [
        "▁degili",
        -4.9352643412096375
      ],
      [
        "▁gecesi",
        -9.281635341152997
      ],
      [
        "▁cizgi",
        -8.732465193732569
      ],
      [
        "▁arac",
        -8.799851043344582
      ],
      [
        "▁ayakkabı",
        -8.699945525478505
      ],
      [
        "▁neden",
        -5.802656505533223
      ],
      [
        "▁toplam",
        -7.90903655082087
      ],
      [
        "▁bil",
        -7.473804743863046
      ],
      [
        "cı",
        -6.737588271946104
      ],
      [
        "▁varsa",
        -7.7096685190147385
      ],
      [
        "ler",
        -7.897378461101891
      ],
      [
        "ilen",
        -7.616782409815674
      ],
      [
        "▁far",
        -9.237470457815345
      ],
      [
        "▁gokyuzu",
        -9.294126168229958
      ],
      [
        "▁olmaya",
        -6.933581909972633
      ],
      [
        "▁car",
        -8.178771182452952
      ],
      [
        "▁city'",
        -6.654569013407105
      ],
      [
        "▁bayan",
        -8.120614801603455
      ],
      [
        "mesi",
        -6.687189361268551
      ],
      [
        "▁nufus",
        -9.265553438012642
      ],
      [
        "di",
        -6.497453989946427
      ],
      [
        ".",
        -5.527872474634256
      ],
      [
        "▁dal",
        -7.977925928548869
      ],
      [
        "▁belirtti",
        -7.656579501550219
      ],
      [
        "▁halinde",
        -8.348599016715998
      ],
      [
        "▁dısında",
        -8.366528083720445
      ],
      [
        "▁yedi",
        -5.3484134847842775
      ],
      [
        "▁hakkı",
        -6.866394034265104
      ],
      [
        "▁gelen",
        -6.419705948821233
      ],
      [
        "▁alet",
        -9.243211619057046
      ],
      [
        "▁film",
        -8.14115901478138
      ],
      [
        "cu",
        -6.814902540670463
      ],
      [
        "▁gencler",
        -9.279488363856698
      ],
      [
        "n",
        -3.1048016047906444
      ],
      [
        "▁ataturk",
        -7.278120223726106
      ],
      [
        "▁hamle",
        -8.754227629658033
      ],
      [
        "▁hic",
        -9.242439273421196
      ],
      [
        "$",
        -7.511459065044036
      ],
      [
        "du",
        -4.6557277026396555
      ],
      [
        "▁rezervasyonu",
        -8.315691778718783
      ],
      [
        "▁alacak",
        -8.085246640754074
      ],
      [
        "▁artıs",
        -8.142356739838274
      ],
      [
        "▁karıs",
        -9.052026800897522
      ],
      [
        "a",
        -6.240650828353713
      ],
      [
        "▁depo",
        -9.210818372296327
      ],
      [
        "▁istifa",
        -8.472138977400014
      ],
      [
        ",",
        -11.199613634584775
      ],
      [
        "▁as",
        -7.982114698353285
      ],
      [
        "▁artısı",
        -9.067251038364004
      ],
      [
        "▁calısıyor",
        -7.337653964628106
      ],
      [
        "▁bizim",
        -9.019844164095739
      ],
      [
        "5'",
        -8.940602965195946
      ],
      [
        "▁yorum",
        -7.490398971489916
      ],
      [
        "ın",
        -6.7312853396327315
      ],
      [
        "ıyla",
        -7.647310557308431
      ],
      [
        "z",
        -6.4439298817061665
      ],
      [
        "▁sanayi",
        -8.623052893184393
      ],
      [
        "#",
        -10.352702672349787
      ],
      [
        "gını",
        -7.6582248526115055
      ],
      [
        "igi",
        -8.645844184935672
      ],
      [
        "▁s",
        -4.608337497691909
      ],
      [
        "▁par",
        -8.839328276540963
      ],
      [
        "▁hoca",
        -8.363479068783025
      ],
      [
        "▁duzen",
        -8.510805999341338
      ],
      [
        "▁sozlesme",
        -8.454506615895117
      ],
      [
        "▁gerceklestir",
        -8.107262171759585
      ],
      [
        "▁vali",
        -9.13600253522984
      ],
      [
        "▁kızın",
        -9.21799640948624
      ],
      [
        "▁havaalanında",
        -9.276282094751783
      ],
      [
        "▁en",
        -3.960848580067063
      ],
      [
        "▁kul",
        -7.982523881793636
      ],
      [
        "6",
        -4.861426244991477
      ],
      [
        "sında",
        -6.670458369798462
      ],
      [
        "nda",
        -5.56080146006874
      ],
      [
        "▁ayında",
        -7.798937898634799
      ],
      [
        "/",
        -5.9441551310848775
      ],
      [
        "▁dısarı",
        -9.060571773354443
      ],
      [
        "gini",
        -7.763059360770714
      ],
      [
        "*",
        -8.013350264920795
      ],
      [
        "▁bırak",
        -7.387286025899164
      ],
      [
        "▁es",
        -7.572712008418511
      ],
      [
        "▁gecmis",
        -7.749976290057055
      ],
      [
        "ların",
        -5.57554167277685
      ],
      [
        "▁sık",
        -7.878130396083801
      ],
      [
        "▁iz",
        -8.378753166033448
      ],
      [
        "re",
        -7.115838760587909
      ],
      [
        "▁gunleri",
        -8.675447701639182
      ],
      [
        "▁hayatın",
        -8.78639839876205
      ],
      [
        "▁bu",
        -3.2839112180953753
      ],
      [
        "▁sahil",
        -9.071765578576338
      ],
      [
        "▁degis",
        -9.157009511689571
      ],
      [
        "'ın",
        -5.001221876001728
      ],
      [
        "inde",
        -6.338122227695627
      ],
      [
        "ur",
        -7.187211276608802
      ],
      [
        "am",
        -8.20305343986586
      ],
      [
        "▁al",
        -7.2018200930213085
      ],
      [
        "▁hayal",
        -8.185078177551173
      ],
      [
        "▁ise",
        -7.834820324004645
      ],
      [
        "lenme",
        -8.02115089096835
      ],
      [
        "▁zaman",
        -7.1405633171011775
      ],
      [
        "▁bolge",
        -7.963039993558449
      ],
      [
        "▁siyasi",
        -7.443068292921874
      ],
      [
        "es",
        -7.343381508774405
      ],
      [
        "▁dar",
        -7.407631563580619
      ],
      [
        "▁ba",
        -10.862362165488445
      ],
      [
        "▁salata",
        -9.23800295863112
      ],
      [
        "▁be",
        -7.50502265943056
      ],
      [
        "▁kas",
        -8.154356497786438
      ],
      [
        "ir",
        -7.590219563061299
      ],
      [
        "diklerini",
        -9.094904089610862
      ],
      [
        "▁acıklanma",
        -7.963632927656452
      ],
      [
        "▁yay",
        -8.541311291651535
      ],
      [
        "▁dıs",
        -7.331994759868498
      ],
      [
        "▁ko",
        -7.437802104915978
      ],
      [
        "▁2",
        -4.210742886992678
      ],
      [
        "▁beyaz",
        -6.445986541168557
      ],
      [
        "▁programı",
        -8.582144385607688
      ],
      [
        "up",
        -6.664406222104445
      ],
      [
        "ılması",
        -8.625834071590543
      ],
      [
        "▁yuz",
        -7.136694801828874
      ],
      [
        "cı",
        -8.096876134676762
      ],
      [
        "▁ote",
        -8.702898349399746
      ],
      [
        "ma",
        -7.59784297526015
      ],
      [
        "larındaki",
        -7.912385637745995
      ],
      [
        "▁onda",
        -5.624473296084898
      ],
      [
        "▁koyun",
        -8.688811955724837
      ],
      [
        "▁sa",
        -10.185553443214632
      ],
      [
        "▁gider",
        -8.974676257960219
      ],
      [
        "▁yuksel",
        -6.724838392089302
      ],
      [
        "▁araba",
        -7.397014550119054
      ],
      [
        "▁hic",
        -4.7912109296688214
      ],
      [
        "▁etki",
        -8.26608743862121
      ],
      [
        "yon",
        -8.749466343637714
      ],
      [
        "i",
        -3.0732711944739446
      ],
      [
        "▁borc",
        -7.838528102095566
      ],
      [
        "▁s",
        -6.7461485268836885
      ],
      [
        "▁olmadı",
        -7.96913798943342
      ],
      [
        "▁bi",
        -4.970497081628543
      ],
      [
        "▁gecmis",
        -8.966971508353096
      ],
      [
        "▁washington'da",
        -6.7207730902238065
      ],
      [
        "▁yarı",
        -6.426040342926011
      ],
      [
        "▁deniz",
        -6.797331955428739
      ],
      [
        "▁olanaklari",
        -8.34100200420973
      ],
      [
        "▁kir",
        -8.86297855403824
      ],
      [
        "▁olsun",
        -6.552446083414008
      ],
      [
        "▁otelin",
        -7.640042376732834
      ],
      [
        "▁federa",
        -7.491109708664908
      ],
      [
        "▁ediliyor",
        -7.891656034002362
      ],
      [
        "mustu",
        -6.781809022152461
      ],
      [
        "▁onumuzde",
        -6.6642336137495635
      ],
      [
        "▁denver'",
        -5.70721602345817
      ],
      [
        "▁olustur",
        -8.07896675734811
      ],
      [
        "▁bogaz",
        -9.062349682467552
      ],
      [
        "▁dus",
        -6.205217174489008
      ],
      [
        "▁sessiz",
        -7.407287642389942
      ],
      [
        "▁yaptıgı",
        -7.892483926859915
      ],
      [
        "▁petrol",
        -8.275989561185678
      ],
      [
        "▁cıkar",
        -6.722952053682724
      ],
      [
        "az",
        -7.193482929552111
      ],
      [
        "▁ti",
        -3.9155890831001203
      ],
      [
        "▁var",
        -7.154395578531218
      ],
      [
        "▁ilave",
        -8.953570676907452
      ],
      [
        "▁mahkemesi",
        -9.147681174172533
      ],
      [
        "▁saygı",
        -8.801427615591557
      ],
      [
        "▁denizi",
        -7.042408028245582
      ],
      [
        "▁gerekiyor",
        -7.23860932086348
      ],
      [
        "▁evi",
        -8.235996461980235
      ],
      [
        "▁ev",
        -6.741694517750826
      ],
      [
        "▁sonuclar",
        -9.019147457246484
      ],
      [
        "▁telefonla",
        -8.632706371567007
      ],
      [
        "▁b",
        -7.1790279934012275
      ],
      [
        "▁o",
        -6.656188534955952
      ],
      [
        "▁millet",
        -8.563894768740518
      ],
      [
        "▁care",
        -9.03991760179906
      ],
      [
        "▁siyaset",
        -9.15879224152872
      ],
      [
        "dur",
        -7.228951821457967
      ],
      [
        "▁sevgi",
        -8.346934925838607
      ],
      [
        "▁baltimore'de",
        -5.972450229599645
      ],
      [
        "▁altın",
        -7.281097422942544
      ],
      [
        "c",
        -4.254761954954862
      ],
      [
        "▁memleket",
        -8.879926289606606
      ],
      [
        "▁cok",
        -2.7145552025289366
      ],
      [
        "▁uzakta",
        -9.039793629141162
      ],
      [
        "▁canım",
        -9.287071415770304
      ],
      [
        "▁parmak",
        -8.822076356974025
      ],
      [
        "▁kurum",
        -9.177153494269744
      ],
      [
        "▁guven",
        -7.71859590223306
      ],
      [
        "▁miyi",
        -5.363435652349282
      ],
      [
        "▁hızl",
        -7.110195608273241
      ],
      [
        "▁pis",
        -7.760690282767634
      ],
      [
        "▁ucak",
        -7.490501482181309
      ],
      [
        "mesini",
        -7.708997528672882
      ],
      [
        "▁giy",
        -8.090322855143496
      ],
      [
        "ı",
        -4.541321046145934
      ],
      [
        "▁vade",
        -8.745680466121406
      ],
      [
        "▁hanım",
        -8.354042280073482
      ],
      [
        "▁madde",
        -8.11217360715342
      ],
      [
        "▁ucus",
        -6.149947001144268
      ],
      [
        "▁john",
        -7.514258373914097
      ],
      [
        "▁dusun",
        -7.850245095663756
      ],
      [
        "▁o",
        -7.754671360884915
      ],
      [
        "▁ed",
        -8.127001380216779
      ],
      [
        "▁uz",
        -8.533549843238639
      ],
      [
        "▁ual",
        -7.316169850430925
      ],
      [
        "medi",
        -7.563995473531286
      ],
      [
        "▁ilgili",
        -9.252489540990508
      ],
      [
        "▁yen",
        -8.369360404086654
      ],
      [
        "▁tas",
        -7.694382476535431
      ],
      [
        "di",
        -7.14262696494567
      ],
      [
        "▁twa",
        -7.448518005463473
      ],
      [
        "▁gelecek",
        -8.855433588300388
      ],
      [
        "ki",
        -5.569871713591724
      ],
      [
        "ce",
        -7.135173186590574
      ],
      [
        "▁imkanlari",
        -8.33005427854583
      ],
      [
        "▁da",
        -8.294537207289686
      ],
      [
        "2'de",
        -9.207310170182124
      ],
      [
        "ba",
        -6.948143260865576
      ],
      [
        "o",
        -2.8956488792173376
      ],
      [
        "▁ir",
        -9.209648438836341
      ],
      [
        "▁$'",
        -8.386597056400266
      ],
      [
        "▁bir",
        -8.54817813440691
      ],
      [
        "▁havuzu",
        -7.566038865777999
      ],
      [
        "▁alamadi",
        -7.203692840512409
      ],
      [
        "▁kullanım",
        -9.163295464650268
      ],
      [
        "▁ufak",
        -7.162718604082719
      ],
      [
        "'ni",
        -5.574022015552036
      ],
      [
        "tik",
        -7.299517765000672
      ],
      [
        "▁av",
        -8.441449128822853
      ],
      [
        "▁sarı",
        -7.016615076764981
      ],
      [
        "▁bunlarda",
        -6.246440461648687
      ],
      [
        "▁charlotte'de",
        -7.348968685556176
      ],
      [
        "▁24",
        -6.263247141229067
      ],
      [
        "▁ici",
        -8.124470618740895
      ],
      [
        "▁gecir",
        -8.071277663634248
      ],
      [
        "iyl",
        -7.505604821556475
      ],
      [
        "be",
        -7.177595662382103
      ],
      [
        "▁yapa",
        -6.727293164757386
      ],
      [
        "mın",
        -8.820821025929872
      ],
      [
        "▁ali",
        -6.635038331160915
      ],
      [
        "▁olaylar",
        -9.075747575081042
      ],
      [
        "▁8",
        -5.673436706926549
      ],
      [
        "▁sirket",
        -6.6657560514341645
      ],
      [
        "lu",
        -7.234825701707616
      ],
      [
        "oni",
        -7.648805856565081
      ],
      [
        "cı",
        -6.208280676811853
      ],
      [
        "▁ola",
        -7.060701390497842
      ],
      [
        "▁risk",
        -8.484846300123547
      ],
      [
        "ur",
        -7.2814905665276
      ],
      [
        "▁der",
        -7.283134991011326
      ],
      [
        "mi",
        -7.30149276445611
      ],
      [
        "▁olurdu",
        -7.933540436429121
      ],
      [
        "▁oldugum",
        -7.8136053884118395
      ],
      [
        "▁du",
        -3.325300845033725
      ],
      [
        "▁zincir",
        -8.913129824191852
      ],
      [
        "▁satır",
        -9.242066504802047
      ],
      [
        "▁ucuslarını",
        -7.160794388512329
      ],
      [
        "s",
        -4.562271145797526
      ],
      [
        "▁coktu",
        -8.086417080984273
      ],
      [
        "▁kisi",
        -6.944181543002638
      ],
      [
        "▁sokak",
        -8.408729054455513
      ],
      [
        "▁ola",
        -3.676043512832143
      ],
      [
        "niz",
        -8.511974675088045
      ],
      [
        "▁gidi",
        -7.35829839470744
      ],
      [
        "hane",
        -8.004994073016917
      ],
      [
        "lara",
        -6.492230528566789
      ],
      [
        "▁hizmetleri",
        -8.65845828748498
      ],
      [
        "'un",
        -5.583121518991312
      ],
      [
        "▁erkek",
        -7.594686771321886
      ],
      [
        "n",
        -5.646770103360008
      ],
      [
        "▁dostu",
        -8.845356561914421
      ],
      [
        "ki",
        -7.752685619992764
      ],
      [
        "▁ingiliz",
        -7.441867043161407
      ],
      [
        "▁doları'n",
        -8.481726758834391
      ],
      [
        "▁dır",
        -4.287573368195668
      ],
      [
        "▁net",
        -8.314738329550316
      ],
      [
        "ana",
        -3.4668823189684232
      ],
      [
        "▁finansman",
        -9.159340656623717
      ],
      [
        "▁kaldırım",
        -9.294128223749446
      ],
      [
        "▁turku",
        -8.87925561994082
      ],
      [
        "▁geri",
        -8.197555425993341
      ],
      [
        "▁donem",
        -8.23218817974308
      ],
      [
        "g",
        -6.440338115441626
      ],
      [
        "if",
        -7.625474469729989
      ],
      [
        "▁durumda",
        -8.124867342538609
      ],
      [
        "▁takım",
        -8.211745448092689
      ],
      [
        "▁yuzde",
        -8.576988223510455
      ],
      [
        "▁benim",
        -4.0962344854904496
      ],
      [
        "▁turkiye'",
        -7.012378740847429
      ],
      [
        "malı",
        -7.207067129353745
      ],
      [
        "onu",
        -9.0630222156713
      ],
      [
        "▁hukumetin",
        -9.138853450741616
      ],
      [
        "▁dalga",
        -8.499007246155402
      ],
      [
        "de",
        -5.330256973534882
      ],
      [
        "▁farkında",
        -9.187949158211545
      ],
      [
        "▁kazancları",
        -9.163933940094221
      ],
      [
        "▁mus",
        -5.417352690502484
      ],
      [
        "los",
        -6.9714308666271485
      ],
      [
        "▁iste",
        -6.53043461090222
      ],
      [
        "▁gibi",
        -2.7839934559607933
      ],
      [
        "▁degistir",
        -8.001472205836322
      ],
      [
        "9",
        -9.126871495337763
      ],
      [
        "▁canı",
        -9.284916030567853
      ],
      [
        "▁po",
        -8.203727834327825
      ],
      [
        "▁icra",
        -9.090053854868614
      ],
      [
        "▁yak",
        -8.12052216939461
      ],
      [
        "▁d",
        -9.995414436185875
      ],
      [
        "▁japon",
        -8.749131083164222
      ],
      [
        "8'",
        -9.049746342672833
      ],
      [
        "▁bunda",
        -5.599372556045785
      ],
      [
        "▁halka",
        -8.874906088511473
      ],
      [
        "▁kırmızı",
        -6.990133074696115
      ],
      [
        "▁birinci",
        -6.187553792563394
      ],
      [
        "▁gecer",
        -7.708042171527354
      ],
      [
        "landı",
        -7.888311092890623
      ],
      [
        "▁alay",
        -9.147819001552866
      ],
      [
        "▁uygulama",
        -8.446858771174533
      ],
      [
        "▁isci",
        -8.600063799706039
      ],
      [
        "▁manzara",
        -8.565413595026552
      ],
      [
        "meli",
        -7.425467949112281
      ],
      [
        "nc",
        -6.268229403463587
      ],
      [
        "▁ad",
        -7.814621286622341
      ],
      [
        "▁s",
        -8.10290196795445
      ],
      [
        "▁senetleri",
        -8.698775345021087
      ],
      [
        "▁maas",
        -9.100881546508331
      ],
      [
        "▁mah",
        -8.83167741761401
      ],
      [
        "▁burada",
        -8.661928982701042
      ],
      [
        "ar",
        -7.1936499272491
      ],
      [
        "▁birbirlerin",
        -6.499373602294938
      ],
      [
        "st",
        -7.170536047209314
      ],
      [
        "▁sana",
        -5.075330108084433
      ],
      [
        "▁elde",
        -7.701076702273233
      ],
      [
        "a",
        -3.8394838638049187
      ],
      [
        "▁kendim",
        -6.106222814598597
      ],
      [
        "▁a",
        -11.666990925470232
      ],
      [
        "▁",
        -2.1816253217106656
      ],
      [
        "u",
        -5.292154325772746
      ],
      [
        "di",
        -3.980170575732436
      ],
      [
        "▁makale",
        -9.261680381952793
      ],
      [
        "la",
        -6.087479352776021
      ],
      [
        "▁ki",
        -8.70913119721381
      ],
      [
        "▁ticaret",
        -7.990683195482985
      ],
      [
        "▁iri",
        -7.5797182125449885
      ],
      [
        "z",
        -4.5682277971428595
      ],
      [
        "▁3",
        -4.285712194127713
      ],
      [
        "r",
        -5.6368528720950914
      ],
      [
        "▁bolumu",
        -8.969645665038495
      ],
      [
        "▁sauna",
        -9.15960382936882
      ],
      [
        "▁oran",
        -7.933939014813128
      ],
      [
        "uyordu",
        -7.550734935848448
      ],
      [
        "▁ayagı",
        -9.111350820429129
      ],
      [
        "▁ulasım",
        -8.232089408051962
      ],
      [
        "▁uygun",
        -5.704720861469475
      ],
      [
        "▁sıkıntı",
        -8.5654911841611
      ],
      [
        "8",
        -4.026505519976443
      ],
      [
        "▁orta",
        -7.882389330582674
      ],
      [
        "▁aktarma",
        -6.126800701893155
      ],
      [
        "▁us",
        -7.919635127858362
      ],
      [
        "▁sıra",
        -7.35237072222525
      ],
      [
        "▁sor",
        -7.836084355901741
      ],
      [
        "▁icki",
        -8.879908843297532
      ],
      [
        "ask",
        -5.901277785160477
      ],
      [
        "▁gozleri",
        -7.673245106194443
      ],
      [
        "▁otelde",
        -8.478378086365314
      ],
      [
        "▁kumar",
        -9.186470509006584
      ],
      [
        "▁ucag",
        -8.484468683830647
      ],
      [
        "▁iki",
        -2.932821784785342
      ],
      [
        "rken",
        -5.256495546297504
      ],
      [
        "▁konfor",
        -7.636349363592389
      ],
      [
        "ıyor",
        -5.6439978635815145
      ],
      [
        "▁tesisti",
        -5.963622784872383
      ],
      [
        "▁kes",
        -7.9754174227520505
      ],
      [
        "▁yo",
        -5.081569992204334
      ],
      [
        "arı",
        -7.610035301300221
      ],
      [
        "sini",
        -6.422049472456263
      ],
      [
        "▁ede",
        -6.512867076807438
      ],
      [
        ";",
        -5.873728944142089
      ],
      [
        "▁hanim",
        -7.108703337113755
      ],
      [
        "▁bey",
        -6.831802248268732
      ],
      [
        "▁kurban",
        -9.184685457130168
      ],
      [
        "▁ucuz",
        -5.893741211174547
      ],
      [
        "▁hızla",
        -6.8654287322603
      ],
      [
        "▁az",
        -6.513859532864735
      ],
      [
        "▁garanti",
        -8.89352218003202
      ],
      [
        "▁icer",
        -7.4541149296175755
      ],
      [
        "▁et",
        -7.999898564192765
      ],
      [
        "▁sebebi",
        -9.017389117301413
      ],
      [
        "i",
        -4.217228476181477
      ],
      [
        "▁yapmak",
        -7.782968235270767
      ],
      [
        "▁digerleri",
        -8.855424816702525
      ],
      [
        "▁eylul",
        -8.653059280096887
      ],
      [
        "▁atlanta",
        -6.37556200506916
      ],
      [
        "▁tahviller",
        -8.452885463521051
      ],
      [
        "li",
        -6.3410175684442045
      ],
      [
        "▁buz",
        -9.00495569120236
      ],
      [
        "▁demek",
        -7.719360729703399
      ],
      [
        "al",
        -6.09878474258122
      ],
      [
        "▁co",
        -9.039477571792052
      ],
      [
        "▁co.",
        -6.722681917663854
      ],
      [
        "▁hazır",
        -7.172212386869996
      ],
      [
        "▁telefon",
        -7.870323223050649
      ],
      [
        "▁korku",
        -8.494357416941966
      ],
      [
        "'nde",
        -8.794718087696545
      ],
      [
        "▁kendimiz",
        -6.381187203357939
      ],
      [
        "▁top",
        -8.151243240101465
      ],
      [
        "dır",
        -6.552896859402911
      ],
      [
        "▁yeter",
        -6.237835439460578
      ],
      [
        "▁coban",
        -9.265715674233066
      ],
      [
        "▁oldugunu",
        -6.686900478286046
      ],
      [
        "te",
        -7.467968447315105
      ],
      [
        "▁sert",
        -7.1477745182243595
      ],
      [
        "e",
        -14.014958445102625
      ],
      [
        "▁ısık",
        -8.455611935966083
      ],
      [
        "▁olun",
        -8.104581203632797
      ],
      [
        "▁kalı",
        -9.201726529492726
      ],
      [
        "▁nisan",
        -8.995651994963048
      ],
      [
        "▁ustunde",
        -7.939129862079926
      ],
      [
        "▁bit",
        -8.607984316353944
      ],
      [
        "▁doviz",
        -9.210751911163774
      ],
      [
        "▁basarı",
        -8.225202892042724
      ],
      [
        "▁cumle",
        -8.766097323063068
      ],
      [
        "eden",
        -7.747627165628131
      ],
      [
        "▁yakın",
        -6.51291594387881
      ],
      [
        "▁yazı",
        -7.489090416661418
      ],
      [
        "sam",
        -8.055073151972252
      ],
      [
        "▁zor",
        -6.463347752302095
      ],
      [
        "▁gizli",
        -7.17007701830834
      ],
      [
        "▁ha",
        -6.19103839345896
      ],
      [
        "lik",
        -6.42033954787531
      ],
      [
        "sa",
        -8.865208249174383
      ],
      [
        "▁kongre",
        -8.766081313591656
      ],
      [
        "su",
        -6.247401928226876
      ],
      [
        "▁boston'da",
        -4.97617369373813
      ],
      [
        "▁duzey",
        -8.57980709713756
      ],
      [
        "▁elma",
        -8.947615157218255
      ],
      [
        "▁belli",
        -6.726103501182789
      ],
      [
        "▁ucretin",
        -8.691135842608755
      ],
      [
        "▁5",
        -4.229060776087967
      ],
      [
        "▁sık",
        -6.294492815396526
      ],
      [
        "▁dayan",
        -7.800904239688628
      ],
      [
        "▁yemeklerinde",
        -9.146838272013724
      ],
      [
        "▁halkı",
        -9.132936447029078
      ],
      [
        "n",
        -3.4238264918027923
      ],
      [
        "▁aradi",
        -7.001861803754911
      ],
      [
        "▁paket",
        -8.855424707566847
      ],
      [
        "▁ima",
        -9.248911817072774
      ],
      [
        "▁francisco'",
        -5.077218351597256
      ],
      [
        "▁fiyatlarını",
        -8.638058726049113
      ],
      [
        "▁yuzyıl",
        -8.85557757801475
      ],
      [
        "▁hasar",
        -8.856531384659299
      ],
      [
        "▁piyasada",
        -9.075641606379179
      ],
      [
        "e",
        -2.7482464078386
      ],
      [
        "▁cesitli",
        -7.121866095170666
      ],
      [
        "▁herkesin",
        -9.028016792228069
      ],
      [
        "▁sergi",
        -9.239132232997182
      ],
      [
        "▁kansas",
        -6.575074386233421
      ],
      [
        "▁sirketin",
        -7.754069549801167
      ],
      [
        "▁har",
        -8.728657256896653
      ],
      [
        "▁herkes",
        -4.990935261703556
      ],
      [
        "▁devrim",
        -9.127103162304369
      ],
      [
        "c",
        -4.853219729400437
      ],
      [
        "▁yapti",
        -7.3849477894389155
      ],
      [
        "ur",
        -7.785578488847238
      ],
      [
        "▁ben",
        -8.273042604758025
      ],
      [
        "▁gordu",
        -6.562571279504344
      ],
      [
        "abilme",
        -9.12405870209222
      ],
      [
        "▁kaybetti",
        -8.020423852280736
      ],
      [
        "▁lı",
        -5.6759587977861035
      ],
      [
        "▁toprak",
        -8.205463138912982
      ],
      [
        "▁al",
        -7.418703508785995
      ],
      [
        "▁okudu",
        -8.070645457773207
      ],
      [
        "iz",
        -8.018400537826322
      ],
      [
        "▁etme",
        -7.77969284402397
      ],
      [
        "nuz",
        -7.61580098631229
      ],
      [
        "▁",
        -0.7087938101118976
      ],
      [
        "▁kotu",
        -6.126470262783285
      ],
      [
        "▁bin",
        -9.282355484712383
      ],
      [
        "▁senin",
        -5.127217236835529
      ],
      [
        "▁",
        -3.1693413067501925
      ],
      [
        "ze",
        -7.710205211172293
      ],
      [
        "▁washington'",
        -7.460039270716376
      ],
      [
        "▁mimar",
        -9.238008254436632
      ],
      [
        "▁tarife",
        -8.90331078122363
      ],
      [
        "▁sorun",
        -7.365482151352181
      ],
      [
        "sını",
        -6.612111766417453
      ],
      [
        "▁yas",
        -7.570529837301062
      ],
      [
        "ell",
        -7.506926504393079
      ],
      [
        "▁mola",
        -9.003402995144327
      ],
      [
        "▁parla",
        -7.874437419049213
      ],
      [
        "dir",
        -5.261977899536268
      ],
      [
        "cıları",
        -8.593255480501103
      ],
      [
        "▁uygundu",
        -7.74601068098326
      ],
      [
        "▁aldi",
        -8.098343313502959
      ],
      [
        "niye",
        -7.497200092075518
      ],
      [
        "▁sap",
        -8.658979174399224
      ],
      [
        "'de",
        -5.602924589034716
      ],
      [
        "▁soy",
        -8.631646877190427
      ],
      [
        "▁son",
        -8.59673470278142
      ],
      [
        "▁o",
        -7.2866595043557005
      ],
      [
        "at",
        -6.347732643039963
      ],
      [
        "▁sikayet",
        -8.749131116760296
      ],
      [
        "de",
        -7.092772207721221
      ],
      [
        "yin",
        -5.784995693197711
      ],
      [
        "▁ceza",
        -8.167622138186484
      ],
      [
        "▁bebek",
        -9.18448139804936
      ],
      [
        "▁gunes",
        -8.11647622381829
      ],
      [
        "[CLS]",
        0.0
      ],
      [
        "▁12",
        -5.275039660619872
      ],
      [
        "▁kullanma",
        -9.256323471708193
      ],
      [
        "▁yaptirmadi",
        -7.762128105941826
      ],
      [
        "▁yardımcısı",
        -8.693668710495817
      ],
      [
        "▁begenmedi",
        -7.132388073058135
      ],
      [
        "b",
        -6.913023110279971
      ],
      [
        "▁etki",
        -7.7950353566217885
      ],
      [
        "az",
        -6.531221546471877
      ],
      [
        "▁tarihinde",
        -8.932022691006619
      ],
      [
        "lı",
        -4.179489208729116
      ],
      [
        "▁basında",
        -7.645553648888793
      ],
      [
        "hic",
        -7.843634605618451
      ],
      [
        "▁yerinde",
        -8.234066027005106
      ],
      [
        "▁ister",
        -7.609972804504163
      ],
      [
        "▁diy",
        -7.710908365679891
      ],
      [
        "▁du",
        -8.268975596198025
      ],
      [
        "▁ikinci",
        -8.93327350076931
      ],
      [
        "▁sur",
        -7.981345808981285
      ],
      [
        "▁uretim",
        -8.468395923912354
      ],
      [
        "▁boya",
        -8.854947501114847
      ],
      [
        "▁karsı",
        -6.153679112273401
      ],
      [
        "lerimi",
        -8.923182469167552
      ],
      [
        "re",
        -4.844554200876263
      ],
      [
        "▁ekim",
        -7.416606871173696
      ],
      [
        "ı",
        -6.406712641891063
      ],
      [
        "miyor",
        -7.178507051513511
      ],
      [
        "▁yatagı",
        -9.185600590493024
      ],
      [
        "▁oldugu",
        -7.969981728919599
      ],
      [
        "us",
        -7.950444729201696
      ],
      [
        "▁ortalama",
        -8.06556311210861
      ],
      [
        "▁acıklama",
        -8.701599473841725
      ],
      [
        "▁ozgu",
        -7.910446090844006
      ],
      [
        "▁1",
        -7.9935184399359045
      ],
      [
        "'da",
        -5.362147093715914
      ],
      [
        "▁etmekte",
        -8.105778819205495
      ],
      [
        "▁yıllık",
        -6.374732067768213
      ],
      [
        "▁az",
        -8.315137765825952
      ],
      [
        "▁tesisi",
        -8.892809005174652
      ],
      [
        "ra",
        -4.169188514330976
      ],
      [
        "ecegini",
        -8.76957127629441
      ],
      [
        "re",
        -7.287148064366534
      ],
      [
        "▁bugun",
        -7.690856160753175
      ],
      [
        "ici",
        -6.495987299734033
      ],
      [
        "yor",
        -8.85083639178367
      ],
      [
        "▁ikinci",
        -7.524091410205261
      ],
      [
        "▁gidiyor",
        -6.9630755822586865
      ],
      [
        "▁ucusları",
        -5.711518916201767
      ],
      [
        "▁sirketleri",
        -8.944784139788265
      ],
      [
        "▁yanın",
        -9.146594453930314
      ],
      [
        "mel",
        -6.5448932128044115
      ],
      [
        "▁19",
        -5.584042382710446
      ],
      [
        "▁yuzunde",
        -8.949419357125475
      ],
      [
        "▁yanlıs",
        -7.167249857989958
      ],
      [
        "▁ustu",
        -8.269791036819706
      ],
      [
        "▁oysa",
        -7.627516959748585
      ],
      [
        "▁silah",
        -8.42233755282779
      ],
      [
        "▁gelis",
        -7.892636775431976
      ],
      [
        "!",
        -5.67393291373121
      ],
      [
        "o",
        -3.5207675806184575
      ],
      [
        "▁hangi",
        -5.347616636025412
      ],
      [
        "nın",
        -5.46175036199548
      ],
      [
        "▁gidis",
        -7.360809698899004
      ],
      [
        "▁uretimi",
        -8.959423920618764
      ],
      [
        "▁gelir",
        -7.089933717529591
      ],
      [
        "ma",
        -7.0916904523040865
      ],
      [
        "co",
        -7.273924532429266
      ],
      [
        "▁havada",
        -9.144015767280875
      ],
      [
        "nu",
        -7.5723461327454995
      ],
      [
        "▁animasyonlar",
        -8.955462443971129
      ],
      [
        "sal",
        -7.188944956305012
      ],
      [
        "liginde",
        -9.127602257288933
      ],
      [
        "▁islemlerinde",
        -9.183038263071598
      ],
      [
        "▁h",
        -5.985551101189425
      ],
      [
        "▁satısları",
        -8.480632835780895
      ],
      [
        "▁ceyrekte",
        -8.824752563014453
      ],
      [
        "miz",
        -7.917580133211495
      ],
      [
        "is",
        -7.463825349204963
      ],
      [
        "▁gelecek",
        -8.084386772029248
      ],
      [
        "▁cadde",
        -8.933130685948793
      ],
      [
        "▁hep",
        -5.352880005653416
      ],
      [
        "▁gerek",
        -8.018635155101109
      ],
      [
        "▁hakları",
        -9.053160017244126
      ],
      [
        "▁yara",
        -8.341875383679113
      ],
      [
        "ar",
        -6.810744505096577
      ],
      [
        "d",
        -5.726493155243758
      ],
      [
        "h",
        -6.555355766760137
      ],
      [
        "'e",
        -5.751907559199849
      ],
      [
        "▁atı",
        -8.872659317806308
      ],
      [
        "▁hakkında",
        -8.527259240576434
      ],
      [
        "▁cekti",
        -7.199331200880926
      ],
      [
        "ur",
        -7.048764238093534
      ],
      [
        "▁sogu",
        -9.040630335923746
      ],
      [
        "▁f",
        -7.232885755547306
      ],
      [
        "▁civarı",
        -9.063760726658103
      ],
      [
        "▁cesitleri",
        -9.182209252663359
      ],
      [
        "▁mektup",
        -8.78332165715451
      ],
      [
        "▁bo",
        -7.62776982190512
      ],
      [
        "▁olan",
        -4.2921883242688
      ],
      [
        "▁guzel",
        -9.058952223705235
      ],
      [
        "▁yasama",
        -9.02669774568979
      ],
      [
        "▁adım",
        -7.861245742399232
      ],
      [
        "lemek",
        -8.461011517180818
      ],
      [
        "▁bardak",
        -8.95391112203233
      ],
      [
        "▁ilgiliydi",
        -6.09892415350491
      ],
      [
        "▁cıkan",
        -8.029926104916933
      ],
      [
        "▁memnunu",
        -7.398164074736801
      ],
      [
        "▁cent",
        -8.423559770728811
      ],
      [
        "▁yurt",
        -8.766030307606563
      ],
      [
        "▁hali",
        -7.346246457342755
      ],
      [
        "▁zar",
        -9.137433428574239
      ],
      [
        "▁normaldi",
        -7.730121706499893
      ],
      [
        "▁acı",
        -7.012028637456393
      ],
      [
        "▁yemeklerde",
        -8.856546873486169
      ],
      [
        "▁fonlar",
        -9.137914237806251
      ],
      [
        "▁emeklilik",
        -9.21177305999101
      ],
      [
        "▁g",
        -8.577436937545238
      ],
      [
        "▁merdiven",
        -8.818722663057233
      ],
      [
        "▁metre",
        -9.185653850094823
      ],
      [
        "▁veri",
        -8.496369476912108
      ],
      [
        "▁soru",
        -8.149343270652665
      ],
      [
        "▁sut",
        -8.57709855689544
      ],
      [
        "▁iceriyor",
        -7.979253797285124
      ],
      [
        "▁genc",
        -6.307971916890873
      ],
      [
        "▁ulastı",
        -7.5370992592470465
      ],
      [
        "▁kagıt",
        -8.234968827262016
      ],
      [
        "▁konusma",
        -7.984870628949923
      ],
      [
        "▁inc.",
        -6.659868159853872
      ],
      [
        "ir",
        -7.249585255353831
      ],
      [
        "ti",
        -6.150825801268467
      ],
      [
        "nik",
        -7.6851131128068655
      ],
      [
        "▁zengin",
        -7.064123754243155
      ],
      [
        "▁burnu",
        -8.95272391169828
      ],
      [
        "▁cocukların",
        -9.015880692107189
      ],
      [
        "▁sayi",
        -9.228043084677
      ],
      [
        "▁arzu",
        -9.210440052559866
      ],
      [
        "'nın",
        -5.23616273081122
      ],
      [
        "▁suyu",
        -8.41561817547532
      ],
      [
        "▁biraz",
        -4.687763168436832
      ],
      [
        "▁pers",
        -7.007837764036367
      ],
      [
        "▁kor",
        -7.963516784933761
      ],
      [
        "▁hayat",
        -7.808658024613838
      ],
      [
        "altı",
        -9.102506942421773
      ],
      [
        "▁nihayet",
        -7.402796899532941
      ],
      [
        "ten",
        -6.001337085484257
      ],
      [
        "▁oldugunu",
        -6.704109688205046
      ],
      [
        "lasma",
        -8.499340675195468
      ],
      [
        "00",
        -5.835146209538178
      ],
      [
        "▁biliyor",
        -7.911963855297829
      ],
      [
        "gal",
        -7.36865630030424
      ],
      [
        "▁kadının",
        -9.023550078365309
      ],
      [
        "likt",
        -6.5852774385037165
      ],
      [
        "▁hata",
        -8.83410348094778
      ],
      [
        "▁11",
        -5.819399660742911
      ],
      [
        "▁ogrenme",
        -9.115045651162538
      ],
      [
        "▁ogretmen",
        -8.747973056040387
      ],
      [
        "▁verme",
        -8.094993601400304
      ],
      [
        "r",
        -3.585362620231244
      ],
      [
        "▁ruh",
        -8.791549868999539
      ],
      [
        "ya",
        -7.250905186197105
      ],
      [
        "▁surec",
        -8.873901851171283
      ],
      [
        "▁magaza",
        -8.497822617858045
      ],
      [
        "u",
        -5.3681920564335766
      ],
      [
        "▁bayram",
        -8.638452126817239
      ],
      [
        "▁31",
        -5.9613495351198695
      ],
      [
        "▁gorunuyor",
        -7.4224956947497684
      ],
      [
        "▁sev",
        -9.025527456796661
      ],
      [
        "▁t",
        -7.3373380922148375
      ],
      [
        "▁haziran'da",
        -7.464973295232909
      ],
      [
        "nc",
        -7.8372263483892155
      ],
      [
        "▁urunler",
        -9.053855222411888
      ],
      [
        "ic",
        -7.409719644704607
      ],
      [
        "▁kısmı",
        -8.706536368173126
      ],
      [
        "e",
        -3.9469061176939935
      ],
      [
        "▁odeme",
        -8.121320862103763
      ],
      [
        "▁ah",
        -8.750882367660655
      ],
      [
        "▁karsı",
        -7.837352174554885
      ],
      [
        "▁sonra",
        -9.079282947960454
      ],
      [
        "ca",
        -6.822960096147539
      ],
      [
        "▁hali",
        -8.592895421817964
      ],
      [
        "▁urunleri",
        -8.422207921197213
      ],
      [
        "5'te",
        -9.265749919853066
      ],
      [
        "ecegim",
        -7.839826375890536
      ],
      [
        "▁rakamlar",
        -9.230466862278705
      ],
      [
        "`",
        -5.172154642791867
      ],
      [
        "▁f",
        -9.397581593746157
      ],
      [
        "▁ziyaret",
        -8.459355520734828
      ],
      [
        "▁sade",
        -4.929761959807005
      ],
      [
        "nde",
        -7.227258361320836
      ],
      [
        "▁bolum",
        -8.637596344155577
      ],
      [
        "▁or",
        -8.061175959116673
      ],
      [
        "▁arttı",
        -7.380759279484635
      ],
      [
        "▁ihtimal",
        -9.039682115935378
      ],
      [
        "▁herif",
        -9.017391010669245
      ],
      [
        "▁olacak",
        -6.500200449761459
      ],
      [
        "k",
        -4.834402831400872
      ],
      [
        "▁oz",
        -8.316439431330068
      ],
      [
        "▁almanya",
        -7.514640186405623
      ],
      [
        "▁mar",
        -8.574495621443813
      ],
      [
        "ni",
        -6.180299696242457
      ],
      [
        "▁per",
        -9.109518577263938
      ],
      [
        "▁sıkı",
        -7.181068180507191
      ],
      [
        "▁bir",
        -1.2266873658587887
      ],
      [
        "▁asl",
        -6.096723680153654
      ],
      [
        "asagı",
        -7.350576247561033
      ],
      [
        "d",
        -10.41573712684167
      ],
      [
        "alım",
        -6.795090965916827
      ],
      [
        "▁eskid",
        -7.508059908398208
      ],
      [
        "di",
        -10.231009713513307
      ],
      [
        ",",
        -7.003706735794483
      ],
      [
        "▁gok",
        -8.933303167239398
      ],
      [
        "▁bu",
        -3.2396197333277525
      ],
      [
        "iz",
        -6.512478652804723
      ],
      [
        "▁on",
        -6.089300112861576
      ],
      [
        "ye",
        -4.548685384227771
      ],
      [
        "▁isaret",
        -8.374978568237086
      ],
      [
        "▁ne",
        -5.821288615264747
      ],
      [
        "▁ucretleri",
        -8.860902634295035
      ],
      [
        "▁sey",
        -5.822913018313815
      ],
      [
        "en",
        -3.7741492745105623
      ],
      [
        "▁koca",
        -6.796188033102825
      ],
      [
        "▁tahvil",
        -7.795623928567573
      ],
      [
        "▁talep",
        -8.276022183180848
      ],
      [
        "▁karısı",
        -7.840275909925566
      ],
      [
        "agı",
        -8.284440782906383
      ],
      [
        "temel",
        -7.572565365807591
      ],
      [
        "▁j",
        -8.54725110587801
      ],
      [
        "▁el",
        -7.0371376438704525
      ],
      [
        "mayacak",
        -7.8906388322215175
      ],
      [
        "▁o",
        -3.956108734297758
      ],
      [
        "▁cag",
        -8.908057307966487
      ],
      [
        "'",
        -6.823662010822051
      ],
      [
        "▁anladı",
        -7.9845525830347155
      ],
      [
        "ıcı",
        -6.9044637210078434
      ],
      [
        "▁yapılan",
        -7.5606945253166895
      ],
      [
        "ana",
        -8.509231256135468
      ],
      [
        "l",
        -5.464349539545049
      ],
      [
        "acak",
        -6.006877031679005
      ],
      [
        "iyeti",
        -8.939498502431722
      ],
      [
        "▁delikanlı",
        -9.210748919261043
      ],
      [
        "▁hesap",
        -8.265573966747377
      ],
      [
        "▁basta",
        -9.092386941057107
      ],
      [
        "▁alem",
        -9.051357663466767
      ],
      [
        "▁turkiye'de",
        -7.062093433298694
      ],
      [
        "lestirme",
        -8.974444778279391
      ],
      [
        "▁cıkıs",
        -9.160340497208216
      ],
      [
        "▁temmuz'da",
        -7.1520440770625395
      ],
      [
        "▁yılında",
        -7.961096711580863
      ],
      [
        "/",
        -11.25927492062213
      ],
      [
        "▁soyluyor",
        -6.710289316645186
      ],
      [
        "dı",
        -7.733586053078921
      ],
      [
        "▁yeter",
        -7.746002165592302
      ],
      [
        "yan",
        -7.593532470531715
      ],
      [
        "▁dolay",
        -4.747145240580062
      ],
      [
        "▁bar",
        -8.1792259419285
      ],
      [
        "gunu",
        -7.634301236361402
      ],
      [
        "▁merkezi",
        -8.115048985074644
      ],
      [
        "▁imkan",
        -8.78287956579701
      ],
      [
        "▁acık",
        -8.980336337872876
      ],
      [
        "▁don",
        -8.181765696691535
      ],
      [
        "se",
        -7.269141531746493
      ],
      [
        "▁yogu",
        -7.678901440425427
      ],
      [
        "▁k",
        -6.793351251023835
      ],
      [
        "▁ydı",
        -4.64779151718307
      ],
      [
        "p",
        -7.046976921809187
      ],
      [
        "▁degillerdi",
        -5.210354841089645
      ],
      [
        "▁orta",
        -6.335666513927517
      ],
      [
        "dir",
        -7.546151632261554
      ],
      [
        "▁tekne",
        -8.750042761421096
      ],
      [
        "▁s",
        -6.730562792173902
      ],
      [
        "▁yonetimi",
        -8.813402453615899
      ],
      [
        "▁ver",
        -8.36919186281029
      ],
      [
        "▁cogu",
        -6.224369063045475
      ],
      [
        "▁der",
        -9.056053649695603
      ],
      [
        "▁firma",
        -8.284668514761584
      ],
      [
        "▁operasyon",
        -8.551524648652535
      ],
      [
        "▁yoktu",
        -5.52949816062023
      ],
      [
        "▁olacagını",
        -8.623643767059166
      ],
      [
        "urekli",
        -6.170784925687602
      ],
      [
        "▁20",
        -5.2040630633608735
      ],
      [
        "teki",
        -7.159472131224541
      ],
      [
        "rak",
        -8.714039705000882
      ],
      [
        "▁girdi",
        -7.0871718392410905
      ],
      [
        "▁pay",
        -7.5652383678100135
      ],
      [
        "▁kurtaj",
        -9.23799861158718
      ],
      [
        "▁ru",
        -8.910031687408365
      ],
      [
        "▁mukemmeldi",
        -7.583878826501949
      ],
      [
        "en",
        -3.944717042641245
      ],
      [
        "'ta",
        -6.857005206098159
      ],
      [
        "▁tı",
        -3.8255906107362634
      ],
      [
        "l",
        -6.098948794144246
      ],
      [
        "▁air",
        -6.441528599237535
      ],
      [
        "▁lynch",
        -7.514546062729352
      ],
      [
        "▁reddetti",
        -7.46853376070064
      ],
      [
        "▁demokrat",
        -7.9632840079401115
      ],
      [
        "▁yaka",
        -8.63803920826303
      ],
      [
        "▁koca",
        -8.998415110348388
      ],
      [
        "inda",
        -7.030220148536347
      ],
      [
        "▁toronto'",
        -7.503686101187043
      ],
      [
        "▁zorunda",
        -8.446868069743477
      ],
      [
        "▁adam",
        -6.7973032049191575
      ],
      [
        "▁sart",
        -8.918153384795348
      ],
      [
        "▁isin",
        -8.211382441958726
      ],
      [
        "▁olmadıgı",
        -8.119363727323169
      ],
      [
        "[SEP]",
        0.0
      ],
      [
        "▁kuru",
        -6.828130241180894
      ],
      [
        "▁hi",
        -4.718511553182136
      ],
      [
        "▁hedef",
        -8.18593860443748
      ],
      [
        "▁gorusme",
        -8.391619475805019
      ],
      [
        "e",
        -5.7488116152677025
      ],
      [
        "▁",
        -3.9743344454347813
      ],
      [
        "▁dans",
        -9.173431351273113
      ],
      [
        "▁4",
        -8.582810380796616
      ],
      [
        "▁birbirin",
        -5.481821565997513
      ],
      [
        "ip",
        -7.360818963021514
      ],
      [
        "▁dallas'ta",
        -5.831611737310719
      ],
      [
        "▁yuzme",
        -8.232460071784267
      ],
      [
        "dıgını",
        -8.015072508014082
      ],
      [
        "▁soguk",
        -7.134653251528633
      ],
      [
        "ne",
        -7.407806076747501
      ],
      [
        "▁onu",
        -3.8180555155698697
      ],
      [
        "7",
        -8.19067020562656
      ],
      [
        "▁bitki",
        -9.189945955655304
      ],
      [
        "▁kıymetler",
        -7.986099482827888
      ],
      [
        "j",
        -7.860234300391138
      ],
      [
        "▁faturam",
        -8.395516010479902
      ],
      [
        "▁gelen",
        -7.18416800202182
      ],
      [
        "▁babam",
        -8.089287571565864
      ],
      [
        "▁meyve",
        -8.874292581455368
      ],
      [
        "▁dogu",
        -9.233404548822119
      ],
      [
        "▁ordu",
        -8.46060733999651
      ],
      [
        "▁cıkar",
        -8.738216480568562
      ],
      [
        "▁dede",
        -8.831020101570598
      ],
      [
        "▁huzur",
        -9.062360409340307
      ],
      [
        "▁temiz",
        -6.874429970102587
      ],
      [
        "-",
        -5.222901331865919
      ],
      [
        "▁buyume",
        -8.553070569766422
      ],
      [
        "▁iki",
        -8.372528240217115
      ],
      [
        "sızlık",
        -8.414054230940573
      ],
      [
        "▁doları",
        -7.859032420018468
      ],
      [
        "resmi",
        -7.4072790309889625
      ],
      [
        "▁belir",
        -9.00553335491078
      ],
      [
        "▁yan",
        -6.8416219215032985
      ],
      [
        "m",
        -7.317767413586324
      ],
      [
        "k",
        -3.485270042512048
      ],
      [
        "▁t",
        -7.581305128531039
      ],
      [
        "mayı",
        -8.400247177097274
      ],
      [
        "▁bicim",
        -8.645191348819985
      ],
      [
        "▁da",
        -6.5733829391589484
      ],
      [
        "▁altı",
        -4.934015652473771
      ],
      [
        "▁york'ta",
        -6.531463418408721
      ],
      [
        "▁d",
        -7.0730603790691
      ],
      [
        "▁olmadi",
        -7.105787802996739
      ],
      [
        ".",
        -11.199601737652316
      ],
      [
        "▁airlines",
        -6.471406306871525
      ],
      [
        "sınız",
        -7.186867072256493
      ],
      [
        "▁dile",
        -7.99315833251033
      ],
      [
        "▁dusuk",
        -6.218404771614379
      ],
      [
        "ız",
        -7.001641147019307
      ],
      [
        "▁gor",
        -8.11460911858006
      ],
      [
        "kul",
        -7.445528430967017
      ],
      [
        "tif",
        -7.057084189862653
      ],
      [
        "kan",
        -8.43418468809838
      ],
      [
        "▁diz",
        -8.668868158441061
      ],
      [
        "”",
        -9.78282532741986
      ],
      [
        "▁gunde",
        -8.585567963527751
      ],
      [
        "▁hemen",
        -5.2483253520340405
      ],
      [
        "▁firması",
        -9.049522595719365
      ],
      [
        "lilik",
        -8.857019452816898
      ],
      [
        "▁z",
        -7.66657424129658
      ],
      [
        "▁p",
        -7.1178406791697135
      ],
      [
        "kten",
        -8.562354603792354
      ],
      [
        "un",
        -6.07257688113251
      ],
      [
        "arak",
        -6.338457073017426
      ],
      [
        "▁karsiladi",
        -8.020423771836255
      ],
      [
        "▁bekle",
        -8.096730535778454
      ],
      [
        "▁pazartesi",
        -8.97442453118505
      ],
      [
        "deta",
        -6.817374011480661
      ],
      [
        "le",
        -7.2319893104787205
      ],
      [
        "▁cocuk",
        -6.9736045559350615
      ],
      [
        "▁yaslı",
        -7.252695010591861
      ],
      [
        "▁eve",
        -7.624905181929931
      ],
      [
        "▁ayı",
        -8.239141008943818
      ],
      [
        "g",
        -12.802702672349787
      ],
      [
        "▁sabahı",
        -7.624812523957997
      ],
      [
        "ına",
        -6.233848239895892
      ],
      [
        "000",
        -5.453798378371451
      ],
      [
        "▁guzeldi",
        -4.630986174993107
      ],
      [
        "▁dıs",
        -9.271508054704853
      ],
      [
        "▁his",
        -9.16259210813107
      ],
      [
        "▁plaj",
        -8.800878258970215
      ],
      [
        "▁aktivite",
        -8.510979166396105
      ],
      [
        "ı",
        -5.39340979290086
      ],
      [
        "5",
        -12.802702672349787
      ],
      [
        "r",
        -2.7496375480404023
      ],
      [
        "▁american",
        -6.195236345137257
      ],
      [
        "▁ic",
        -7.936480249582097
      ],
      [
        "c",
        -7.2183141205423
      ],
      [
        "▁bazıları",
        -5.5918974405545265
      ],
      [
        "ebilir",
        -6.543855681370227
      ],
      [
        "▁yolcu",
        -8.952845001367452
      ],
      [
        "▁yesil",
        -7.087950345497538
      ],
      [
        "▁yalan",
        -9.158942080878802
      ],
      [
        "▁kac",
        -8.799586667457218
      ],
      [
        "▁ne",
        -3.7234659756415116
      ],
      [
        "maktadır",
        -6.597242818699089
      ],
      [
        "'y",
        -6.385410508951508
      ],
      [
        "imizi",
        -8.788285433918691
      ],
      [
        "it",
        -6.001738549891658
      ],
      [
        "▁eder",
        -6.751198219670858
      ],
      [
        "▁kamyon",
        -8.874296221014012
      ],
      [
        "▁class",
        -8.234958184505507
      ],
      [
        "ro",
        -8.47556585567007
      ],
      [
        "lu",
        -7.066717717642606
      ],
      [
        "▁icinde",
        -7.1227718035844765
      ],
      [
        "dıgı",
        -6.991658992121112
      ],
      [
        "▁il",
        -6.111403265351347
      ],
      [
        "▁kalma",
        -8.973489972335344
      ],
      [
        "▁ediyordu",
        -7.4330149530419485
      ],
      [
        "▁meger",
        -8.017094335820264
      ],
      [
        "▁havayolu",
        -8.48483442699644
      ],
      [
        "ka",
        -7.788155254108851
      ],
      [
        "▁in",
        -8.066435493824777
      ],
      [
        "▁savası",
        -9.09002879466954
      ],
      [
        "▁beni",
        -8.629850291371724
      ],
      [
        "▁nedeni",
        -8.353137697183765
      ],
      [
        "▁kalitesi",
        -7.213801927656628
      ],
      [
        "▁veriyor",
        -6.931819827512156
      ],
      [
        "kalan",
        -7.8084711921595975
      ],
      [
        "▁gozlem",
        -9.131333965518106
      ],
      [
        "▁sorusturma",
        -9.184432852639185
      ],
      [
        "▁otomobil",
        -8.077224789473089
      ],
      [
        "niz",
        -7.145322203916744
      ],
      [
        "▁kapısını",
        -9.28950749455161
      ],
      [
        "▁kimse",
        -5.611770680556417
      ],
      [
        "2",
        -4.354190389322459
      ],
      [
        "▁so",
        -8.875551046507395
      ],
      [
        "b",
        -2.3576107270349222
      ],
      [
        "▁gorev",
        -7.534980193836744
      ],
      [
        "k",
        -3.753664422982186
      ],
      [
        "▁pittsburgh'ta",
        -5.679230602104745
      ],
      [
        "▁29",
        -6.422469476374212
      ],
      [
        "madı",
        -7.036652714254283
      ],
      [
        "▁f",
        -7.125022763756138
      ],
      [
        "▁verdigi",
        -7.600508126963151
      ],
      [
        "▁japonya",
        -7.214234858415907
      ],
      [
        "▁street",
        -6.9744101989031275
      ],
      [
        "▁emin",
        -7.908159108045561
      ],
      [
        "her",
        -6.241321517692774
      ],
      [
        "▁takdir",
        -9.212115447084518
      ],
      [
        "▁!",
        -9.53960140659185
      ],
      [
        "▁abla",
        -8.97949900799331
      ],
      [
        "ele",
        -12.03594578210268
      ],
      [
        "▁fırsat",
        -8.579507048277346
      ],
      [
        "te",
        -6.233763711407225
      ],
      [
        "▁s",
        -6.137580433212939
      ],
      [
        "▁neyi",
        -6.48632542834872
      ],
      [
        "uk",
        -7.897456278568062
      ],
      [
        "▁tadi",
        -8.860675835723349
      ],
      [
        "ter",
        -9.051704528810191
      ],
      [
        "▁senedi",
        -7.709291922409263
      ],
      [
        "▁yarı",
        -8.597992623125606
      ],
      [
        "digi",
        -7.079380178567159
      ],
      [
        "▁coktan",
        -7.3459526941433975
      ],
      [
        "▁kayıt",
        -9.017543126666531
      ],
      [
        "an",
        -7.668036448599423
      ],
      [
        "▁baba",
        -7.799168934593108
      ],
      [
        "▁boynun",
        -9.26971563553651
      ],
      [
        "▁batı",
        -9.063861306609182
      ],
      [
        "▁saat",
        -6.480816392806072
      ],
      [
        "▁merkez",
        -7.816386103670898
      ],
      [
        "ik",
        -6.229394633051655
      ],
      [
        "▁dusundu",
        -7.637187744243473
      ],
      [
        "▁karar",
        -8.04310582923914
      ],
      [
        "▁gor",
        -8.117677505513907
      ],
      [
        "▁delta",
        -6.501953201151294
      ],
      [
        "z",
        -12.24335423160404
      ],
      [
        "▁c",
        -7.032797226781593
      ],
      [
        "mı",
        -7.613128302352344
      ],
      [
        "ve",
        -6.34156215292432
      ],
      [
        "▁deney",
        -9.150857831772772
      ],
      [
        "▁onları",
        -4.32931003779788
      ],
      [
        "▁vermek",
        -8.004792800352853
      ],
      [
        "miz",
        -7.617638752719551
      ],
      [
        "▁tas",
        -7.710801207594815
      ],
      [
        "lari",
        -8.749640307518618
      ],
      [
        "lere",
        -6.511187168128944
      ],
      [
        "▁havaalanı",
        -8.886154392665922
      ],
      [
        "▁aralık",
        -8.762239315818604
      ],
      [
        "lendi",
        -8.07182083660439
      ],
      [
        "▁bal",
        -8.362644227774968
      ],
      [
        "▁bo",
        -7.415771418175041
      ],
      [
        "▁edebilir",
        -7.9759416652216935
      ],
      [
        "▁acı",
        -7.922015145697914
      ],
      [
        "▁27",
        -5.792169366662349
      ],
      [
        "mis",
        -5.723620343942099
      ],
      [
        "9'",
        -8.869565420437969
      ],
      [
        "▁rekor",
        -9.265751245677357
      ],
      [
        "mada",
        -6.606015577227643
      ],
      [
        "▁amerika",
        -7.5971988098427525
      ],
      [
        "▁ben",
        -2.9871799491523117
      ],
      [
        "▁vegas'",
        -7.070371768471579
      ],
      [
        "le",
        -6.583884578116384
      ],
      [
        "lar",
        -6.7808297554731105
      ],
      [
        "▁kuvvet",
        -8.768978482491827
      ],
      [
        "▁cam",
        -8.278763033800436
      ],
      [
        "▁kar",
        -6.970041367467808
      ],
      [
        "li",
        -6.000409179436918
      ],
      [
        "▁ardı",
        -8.862584214285423
      ],
      [
        "azım",
        -7.399988481905939
      ],
      [
        "▁ocak",
        -8.749251923508027
      ],
      [
        "▁nerede",
        -6.062949956164146
      ],
      [
        "▁arkadasları",
        -8.772332826518928
      ],
      [
        "▁karsısında",
        -8.188729380027178
      ],
      [
        "▁oldugun",
        -8.646577600885145
      ],
      [
        "▁arz",
        -8.829906053414554
      ],
      [
        "▁laf",
        -8.570245014276505
      ],
      [
        "▁otuz",
        -5.90962280616334
      ],
      [
        "▁konusunda",
        -7.408570875291092
      ],
      [
        "▁varlıklar",
        -9.079354418257184
      ],
      [
        "mek",
        -7.388166812058659
      ],
      [
        "▁islemi",
        -9.247603682069592
      ],
      [
        "▁kim",
        -4.773235186824169
      ],
      [
        "▁maliyet",
        -8.977127322943844
      ],
      [
        "▁yıl",
        -7.786142649619766
      ],
      [
        "ser",
        -7.906497206498267
      ],
      [
        "▁he",
        -5.386610336792378
      ],
      [
        "▁hukuk",
        -8.524318613305887
      ],
      [
        "mektedir",
        -6.655502536831175
      ],
      [
        "▁bas",
        -7.000258970503874
      ],
      [
        "▁ucu",
        -8.273504952277463
      ],
      [
        "ıntı",
        -9.120986829331363
      ],
      [
        "▁hem",
        -7.1543483918530395
      ],
      [
        "▁re",
        -7.588088437267547
      ],
      [
        "▁anda",
        -7.445487225501691
      ],
      [
        "0'",
        -8.23653447804701
      ],
      [
        "lerimiz",
        -8.610530193671096
      ],
      [
        "▁ayakları",
        -9.047130128147183
      ],
      [
        "▁b",
        -8.027158500472844
      ],
      [
        "▁baslamıs",
        -8.029725087251276
      ],
      [
        "▁olan",
        -6.090718399667774
      ],
      [
        "tik",
        -7.853044933554709
      ],
      [
        "lamak",
        -8.361522919722969
      ],
      [
        "▁dergi",
        -8.341114624344643
      ],
      [
        "mıslar",
        -7.930022845837248
      ],
      [
        "lu",
        -5.1210618574198765
      ],
      [
        "▁karı",
        -8.566794796700648
      ],
      [
        "▁cevre",
        -8.110900204163372
      ],
      [
        "▁artı",
        -5.0609734598905
      ],
      [
        "▁evin",
        -8.013427352907907
      ],
      [
        "▁ilgisi",
        -8.57262154260231
      ],
      [
        "u",
        -5.667635735831895
      ],
      [
        "▁a",
        -7.747210991090319
      ],
      [
        "▁hepimiz",
        -6.275153793410539
      ],
      [
        "dikte",
        -9.257280798896604
      ],
      [
        "▁oglan",
        -9.265557684024104
      ],
      [
        "▁guven",
        -8.222528911226235
      ],
      [
        "yle",
        -6.049537958767083
      ],
      [
        "▁geriledi",
        -8.020532240761378
      ],
      [
        "1",
        -11.802702672349785
      ],
      [
        "▁edebiyat",
        -8.637907765507716
      ],
      [
        "o",
        -6.336011923027603
      ],
      [
        "▁geri",
        -7.1435128391119385
      ],
      [
        "▁cicek",
        -8.484888681888703
      ],
      [
        "▁ol",
        -7.786574060490411
      ],
      [
        "k",
        -11.802702672349778
      ],
      [
        "▁inc",
        -9.039842413567403
      ],
      [
        "mesi",
        -8.294413202413121
      ],
      [
        "dıgında",
        -9.063591437938921
      ],
      [
        "▁sizi",
        -5.685998760825111
      ],
      [
        "▁ilgilenmedi",
        -7.884475140398585
      ],
      [
        "▁tasarruf",
        -8.893521615512956
      ],
      [
        "▁biz",
        -8.453634900272267
      ],
      [
        "▁anı",
        -9.2178353225197
      ],
      [
        "▁tuttu",
        -7.772318232298745
      ],
      [
        "▁temiz",
        -5.273886589404727
      ],
      [
        "▁gene",
        -6.8420526161527
      ],
      [
        "▁kesinti",
        -8.953543902099575
      ],
      [
        "▁musteriler",
        -9.029798923450041
      ],
      [
        "▁hır",
        -9.184907560675674
      ],
      [
        "yor",
        -7.995124121418993
      ],
      [
        "▁parcası",
        -8.825598065570013
      ],
      [
        "▁mut",
        -6.86000198530958
      ],
      [
        "▁yavas",
        -7.42590430231164
      ],
      [
        "ırtı",
        -9.006532098705529
      ],
      [
        "▁sektor",
        -8.680257250515933
      ],
      [
        "▁yuzd",
        -6.009199951643306
      ],
      [
        "i",
        -5.1748346016730125
      ],
      [
        "▁kez",
        -7.60141011823315
      ],
      [
        "▁savas",
        -8.11100076351308
      ],
      [
        "i",
        -11.302702672349787
      ],
      [
        "ile",
        -3.939922469606252
      ],
      [
        "yla",
        -6.609948332917524
      ],
      [
        "▁eylem",
        -8.716161380094242
      ],
      [
        "▁gunun",
        -9.065272960725503
      ],
      [
        "tir",
        -7.867418083364435
      ],
      [
        "▁fonları",
        -8.990942869066824
      ],
      [
        "▁yasa",
        -7.856462072441598
      ],
      [
        "ımız",
        -8.153705349671718
      ],
      [
        "▁kıs",
        -8.098742064307743
      ],
      [
        "▁imza",
        -9.085630305411248
      ],
      [
        "▁tabi",
        -6.9795939395389155
      ],
      [
        "▁yıllarda",
        -8.77114918050395
      ],
      [
        "▁agustos",
        -8.472013747169907
      ],
      [
        ",",
        -2.0671440808479016
      ],
      [
        "▁bizi",
        -5.03747525827567
      ],
      [
        "uktu",
        -7.340269009743899
      ],
      [
        "dır",
        -5.60851668359774
      ],
      [
        "cılıgı",
        -9.00662331476514
      ],
      [
        "▁talebi",
        -9.158816713539558
      ],
      [
        "sem",
        -7.501318970127885
      ],
      [
        "▁alan",
        -8.113114492863659
      ],
      [
        "▁sal",
        -8.393101086989983
      ],
      [
        "▁kazandı",
        -7.2538733009845595
      ],
      [
        "ta",
        -6.083388384710771
      ],
      [
        "erek",
        -4.620556824828748
      ],
      [
        "▁havuz",
        -7.6780200073461575
      ],
      [
        "ligin",
        -8.2988173604871
      ],
      [
        "▁sure",
        -7.178789539008516
      ],
      [
        "▁duvar",
        -7.931600776885059
      ],
      [
        "▁basa",
        -8.559708125819055
      ],
      [
        "▁bir",
        -4.897295998995685
      ],
      [
        "▁an",
        -7.159761114053557
      ],
      [
        "yle",
        -6.293244902715194
      ],
      [
        "▁erte",
        -7.655660382665401
      ],
      [
        "▁harcama",
        -8.749350912036025
      ],
      [
        "▁oldugu",
        -6.555164051062155
      ],
      [
        "▁yukselis",
        -8.975559006702223
      ],
      [
        "▁dc'de",
        -7.184565798167016
      ],
      [
        "▁jones",
        -6.852757218122895
      ],
      [
        "▁on",
        -4.304254523933001
      ],
      [
        "m",
        -2.9325309695287753
      ],
      [
        "ys",
        -8.722692971893338
      ],
      [
        "da",
        -6.702665342960288
      ],
      [
        "av",
        -8.448107418211123
      ],
      [
        "veya",
        -7.07356391847621
      ],
      [
        "▁koru",
        -8.830454329298707
      ],
      [
        "▁kur",
        -7.597087760804626
      ],
      [
        "erken",
        -6.4253651959846225
      ],
      [
        "▁durumu",
        -8.310555595103924
      ],
      [
        "siniz",
        -6.766674330877776
      ],
      [
        "daki",
        -5.750857753661019
      ],
      [
        "aklı",
        -7.776455973658887
      ],
      [
        "le",
        -9.080439678678806
      ],
      [
        "▁kullanıl",
        -7.667436832030909
      ],
      [
        "▁mavi",
        -7.234659711366064
      ],
      [
        "▁yeni",
        -4.876323234096239
      ],
      [
        "▁ofis",
        -8.340895257628542
      ],
      [
        "▁yazar",
        -7.980117476668489
      ],
      [
        "▁sekilde",
        -6.9343255899499665
      ],
      [
        "gil",
        -7.604654609424275
      ],
      [
        "▁sa",
        -7.0078162830623025
      ],
      [
        "▁yıllar",
        -8.359085233484333
      ],
      [
        "ince",
        -6.116245953076076
      ],
      [
        "er",
        -11.017488162037896
      ],
      [
        "▁karsı",
        -7.046874465071466
      ],
      [
        "▁kendimi",
        -5.7344618553965745
      ],
      [
        "▁gulu",
        -9.186880366489566
      ],
      [
        "▁tam",
        -6.196690295557846
      ],
      [
        "▁dallas'",
        -6.042981517141733
      ],
      [
        "▁sacları",
        -8.627744470031466
      ],
      [
        "▁gercekte",
        -5.957249809190558
      ],
      [
        "kin",
        -5.764318754693728
      ],
      [
        "▁c",
        -6.5768931664647265
      ],
      [
        "gi",
        -6.922184583827161
      ],
      [
        "amıyor",
        -7.748780262825657
      ],
      [
        "▁alım",
        -7.567475952384333
      ],
      [
        "▁bir",
        -3.027951570239419
      ],
      [
        "▁mum",
        -7.055709991310947
      ],
      [
        "▁defter",
        -8.766081686830475
      ],
      [
        "indek",
        -7.355951998381377
      ],
      [
        "▁ucusların",
        -8.702387862060267
      ],
      [
        "▁beyle",
        -8.421985248177215
      ],
      [
        "▁ihale",
        -8.995655666493128
      ],
      [
        "▁kalabalık",
        -9.265554251957175
      ],
      [
        "▁kaldı",
        -6.863616846908395
      ],
      [
        "▁dag",
        -8.278480691196823
      ],
      [
        "+",
        -12.802702672349787
      ],
      [
        "▁yıllar",
        -7.334230249025165
      ],
      [
        "▁derecede",
        -9.196860673201932
      ],
      [
        "▁yerde",
        -7.602506590309549
      ],
      [
        "likte",
        -8.990350068696134
      ],
      [
        "▁",
        -3.32808512111051
      ],
      [
        "k",
        -4.527687995047776
      ],
      [
        "r",
        -6.326167901266359
      ],
      [
        "▁sahne",
        -8.330202546375924
      ],
      [
        "▁yılda",
        -8.427258153785317
      ],
      [
        "▁iflas",
        -9.13379285006716
      ],
      [
        "▁odedigim",
        -6.710237212953605
      ],
      [
        "▁temel",
        -7.146028545686271
      ],
      [
        "▁odayd",
        -7.567298808617517
      ],
      [
        "▁ustun",
        -7.801889603744686
      ],
      [
        "▁boru",
        -9.238359462749514
      ],
      [
        "▁faaliyet",
        -7.882817398683867
      ],
      [
        "▁bildirdi",
        -7.647032170492996
      ],
      [
        "▁gucu",
        -8.751508144810568
      ],
      [
        "▁ciddi",
        -7.1215799823785355
      ],
      [
        "▁yuksekti",
        -7.493226538893931
      ],
      [
        "z",
        -6.428989089571596
      ],
      [
        "meyi",
        -7.824923699009212
      ],
      [
        "▁kıyı",
        -8.68984357944091
      ],
      [
        "▁ediyorlar",
        -7.918052608152307
      ],
      [
        "▁sirketi",
        -8.102809066172542
      ],
      [
        "▁sise",
        -9.12958060839081
      ],
      [
        "mıstı",
        -6.02665893932749
      ],
      [
        "▁begendi",
        -6.880585119097507
      ],
      [
        "▁kap",
        -8.025308046372942
      ],
      [
        "▁ac",
        -8.270182853301137
      ],
      [
        "▁21",
        -6.150409216274107
      ],
      [
        "▁las",
        -6.378821391878455
      ],
      [
        "ecegi",
        -7.881106460152883
      ],
      [
        "u",
        -2.3223596860280313
      ],
      [
        "▁yuzunu",
        -8.862791845590593
      ],
      [
        "mız",
        -7.82228748749526
      ],
      [
        "o",
        -7.574551781463574
      ],
      [
        "▁acıldı",
        -7.865366941255549
      ],
      [
        "▁yolunu",
        -9.081206370930854
      ],
      [
        "or",
        -7.628499005959598
      ],
      [
        "gin",
        -7.625208107598876
      ],
      [
        "ip",
        -6.160296091166794
      ],
      [
        "▁zamanda",
        -8.033931852459514
      ],
      [
        "▁oldu",
        -5.100401895661068
      ],
      [
        "▁siz",
        -4.451945015214789
      ],
      [
        "ıldı",
        -7.746737387363932
      ],
      [
        "▁calısan",
        -9.251257787614463
      ],
      [
        "▁yanlıs",
        -9.23818051582698
      ],
      [
        "▁i",
        -7.695737983531466
      ],
      [
        "▁personelin",
        -8.756675878482962
      ],
      [
        "▁kes",
        -8.444417085344742
      ],
      [
        "▁bu",
        -7.374577612377099
      ],
      [
        "▁te",
        -7.3416709354174285
      ],
      [
        "▁",
        -2.794952726960485
      ],
      [
        "▁cesaret",
        -9.210748642555433
      ],
      [
        "lastı",
        -7.70190813304734
      ],
      [
        "ması",
        -6.3668761661085815
      ],
      [
        "ayan",
        -7.568609367910032
      ],
      [
        "lar",
        -4.398521406909345
      ],
      [
        "▁bul",
        -8.341553095667717
      ],
      [
        "▁sehrin",
        -8.618774669483278
      ],
      [
        "▁uzerinde",
        -7.319186190553947
      ],
      [
        "▁kaliforniya",
        -7.302773057599721
      ],
      [
        "▁menkul",
        -7.841289384308088
      ],
      [
        "▁oturdu",
        -7.951363958361007
      ],
      [
        "▁",
        -2.896334987865555
      ],
      [
        "egi",
        -8.28948402091234
      ],
      [
        "▁m",
        -6.381337525489952
      ],
      [
        "▁sag",
        -6.620873429776334
      ],
      [
        "▁kırı",
        -9.090335324780302
      ],
      [
        "▁kal",
        -7.207473066616684
      ],
      [
        "▁he",
        -6.654513425121539
      ],
      [
        "▁cuma",
        -6.5860505842514705
      ],
      [
        "ral",
        -6.962479284958642
      ],
      [
        "iba",
        -7.213093955656788
      ],
      [
        "▁gunduz",
        -9.085638105435436
      ],
      [
        "▁yetki",
        -9.158429331733831
      ],
      [
        "li",
        -7.095996775490151
      ],
      [
        "▁yuzu",
        -8.181133079944034
      ],
      [
        "y",
        -5.290836037947181
      ],
      [
        "▁s",
        -7.798955791444569
      ],
      [
        "▁bag",
        -7.999964485174749
      ],
      [
        "sun",
        -6.166589246026901
      ],
      [
        "c",
        -6.122502378245914
      ],
      [
        "▁insanı",
        -8.952969754496422
      ],
      [
        "lar",
        -4.74025477615891
      ],
      [
        "▁milyon",
        -3.278490722863072
      ],
      [
        "neral",
        -7.315006539033988
      ],
      [
        "▁uzak",
        -7.406265993146311
      ],
      [
        "\"",
        -8.995647550879896
      ],
      [
        "▁ekim",
        -8.916117434687449
      ],
      [
        "▁yalnız",
        -7.33281012201264
      ],
      [
        "▁yer",
        -6.66756829839914
      ],
      [
        "leri",
        -6.24116818408501
      ],
      [
        "▁cevap",
        -8.103315088366745
      ],
      [
        "▁dallas",
        -5.916838167734813
      ],
      [
        "▁hastalık",
        -8.66015406303146
      ],
      [
        "ıyordu",
        -6.870825835946239
      ],
      [
        "ıdır",
        -7.622500543399492
      ],
      [
        "▁gaz",
        -8.314632484788806
      ],
      [
        "▁sınav",
        -9.21095386715158
      ],
      [
        "ıslı",
        -7.8403697437904505
      ],
      [
        "▁onunde",
        -7.8837479742194985
      ],
      [
        "▁ucmak",
        -7.885486952875112
      ],
      [
        "▁nefes",
        -8.668450840739105
      ],
      [
        "▁konut",
        -8.79833904973201
      ],
      [
        "gu",
        -7.113623870682109
      ],
      [
        "c",
        -7.586240410717211
      ],
      [
        "▁felaket",
        -9.109402358759219
      ],
      [
        "imiz",
        -7.654294781691021
      ],
      [
        "▁buyu",
        -9.081270761185637
      ],
      [
        "ler",
        -4.863815379969876
      ],
      [
        "m",
        -5.097901570734247
      ],
      [
        "▁sene",
        -7.6499458426001645
      ],
      [
        "nda",
        -6.9370442823339475
      ],
      [
        "mizde",
        -8.622695843962843
      ],
      [
        "hazır",
        -7.439275110079499
      ],
      [
        "yil",
        -7.578393271663165
      ],
      [
        "'daki",
        -6.583525614428688
      ],
      [
        "▁art",
        -8.585595204104656
      ],
      [
        "▁fazlayd",
        -7.995316240946607
      ],
      [
        "▁hamam",
        -8.638402986855425
      ],
      [
        "▁zamanı",
        -8.820859025978951
      ],
      [
        "▁ac",
        -7.2482742931414235
      ],
      [
        "▁oakland'",
        -6.892608868680235
      ],
      [
        "f",
        -11.199613634584775
      ],
      [
        "▁cil",
        -8.849318911459761
      ],
      [
        "▁r",
        -7.150400225492847
      ],
      [
        "▁darbe",
        -8.874817040324377
      ],
      [
        "▁cat",
        -9.041581488247791
      ],
      [
        "▁'",
        -10.790149558202552
      ],
      [
        "elik",
        -7.316834905725905
      ],
      [
        "▁yeri",
        -8.780285937916616
      ],
      [
        "▁d",
        -7.195383266702848
      ],
      [
        "▁bileti",
        -8.855048721761264
      ],
      [
        "▁golge",
        -8.62390698678089
      ],
      [
        "▁sehir",
        -7.448332714366599
      ],
      [
        "▁endeksi",
        -8.015787291087785
      ],
      [
        "▁vade",
        -6.44966854364282
      ],
      [
        "▁buray",
        -9.053483205473087
      ],
      [
        "▁yuzluydu",
        -8.020553123755267
      ],
      [
        "▁ola",
        -3.6807569053633467
      ],
      [
        "kları",
        -7.756776993848302
      ],
      [
        "▁vur",
        -8.739445912834631
      ],
      [
        "▁k",
        -7.38288371873177
      ],
      [
        "▁yıldız",
        -8.836922310040888
      ],
      [
        "▁gay",
        -6.82515084075238
      ],
      [
        "▁on",
        -7.765378417422554
      ],
      [
        "▁bilim",
        -7.823055364155413
      ],
      [
        "yıp",
        -8.031385962103549
      ],
      [
        "▁198",
        -5.050423814575034
      ],
      [
        "al",
        -7.273703626204868
      ],
      [
        "▁kız",
        -7.483363582770445
      ],
      [
        "ı",
        -6.495236803388376
      ],
      [
        "▁boyle",
        -5.086562249009878
      ],
      [
        "▁ticarette",
        -9.027941098747165
      ],
      [
        "ıp",
        -5.680099940697676
      ],
      [
        "▁tercih",
        -7.36917190534865
      ],
      [
        "▁can",
        -7.6556232845147845
      ],
      [
        "et",
        -6.8936994019445175
      ],
      [
        "ne",
        -6.372458135960013
      ],
      [
        "st",
        -7.453845982365773
      ],
      [
        "[MASK]",
        0.0
      ],
      [
        "▁dusus",
        -7.918933733047734
      ],
      [
        "▁olması",
        -8.526793766343044
      ],
      [
        "▁ust",
        -8.93041255686945
      ],
      [
        "▁topu",
        -8.939995510434105
      ],
      [
        "sizdi",
        -7.374241481760511
      ],
      [
        "me",
        -6.409316492332664
      ],
      [
        "a",
        -5.795873682798573
      ],
      [
        "▁yok",
        -7.2599109513501
      ],
      [
        "larda",
        -6.625079208474298
      ],
      [
        "▁vergi",
        -7.634025617637705
      ],
      [
        "▁isi",
        -7.79489942514129
      ],
      [
        "▁guzel",
        -4.6868662279318345
      ],
      [
        "ya",
        -6.624486546172472
      ],
      [
        "▁kendisi",
        -5.0164946613251225
      ],
      [
        "▁veriyoru",
        -6.508495517619243
      ],
      [
        "▁beyin",
        -9.097686004471385
      ],
      [
        "▁ipotek",
        -9.210748694491809
      ],
      [
        "▁arasında",
        -5.810899486861808
      ],
      [
        "l",
        -6.034649391891636
      ],
      [
        "siniz",
        -5.458119837635438
      ],
      [
        "▁agzı",
        -9.224906671889105
      ],
      [
        "▁alanda",
        -9.243808387749793
      ],
      [
        "▁temmuz",
        -7.413487010220329
      ],
      [
        "un",
        -7.1428045703567795
      ],
      [
        "p",
        -6.305688863920394
      ],
      [
        "▁ter",
        -7.516182088200093
      ],
      [
        "ndaki",
        -7.280230974519307
      ],
      [
        "%",
        -4.152749503307038
      ],
      [
        "▁yaz",
        -7.906160392763469
      ],
      [
        "▁28",
        -6.493645630951329
      ],
      [
        "▁etmem",
        -7.137361802486287
      ],
      [
        "▁verin",
        -7.900957508189855
      ],
      [
        ",",
        -11.259274920662083
      ],
      [
        "ton",
        -7.029534064245779
      ],
      [
        "▁plani",
        -9.099471471329435
      ],
      [
        "▁ana",
        -8.000417531046022
      ],
      [
        "▁istiyoru",
        -5.162981875868706
      ],
      [
        "ma",
        -5.906308248825252
      ],
      [
        "▁plan",
        -7.695685576597129
      ],
      [
        "▁boyle",
        -6.396415066709907
      ],
      [
        "gel",
        -7.946391005262725
      ],
      [
        "mıs",
        -5.38282181775203
      ],
      [
        "el",
        -7.908226801642845
      ],
      [
        "▁y",
        -5.777906907927925
      ],
      [
        "▁istemiyoru",
        -6.588760722246835
      ],
      [
        "▁basarı",
        -7.325769248214998
      ],
      [
        "meyi",
        -8.718690274907857
      ],
      [
        "▁halde",
        -7.9212780825107245
      ],
      [
        "▁sar",
        -8.333490045175775
      ],
      [
        "▁ala",
        -8.750052283880837
      ],
      [
        "en",
        -5.3052406247657595
      ],
      [
        "▁yasında",
        -7.252155777757522
      ],
      [
        "el",
        -7.298644566373646
      ],
      [
        "▁gelir",
        -7.327376604923489
      ],
      [
        "min",
        -7.845175447019516
      ],
      [
        "si",
        -6.416833395840142
      ],
      [
        "▁elestiri",
        -9.039609102592463
      ],
      [
        "▁cagrı",
        -9.21081780500289
      ],
      [
        "▁strateji",
        -8.7324643839157
      ],
      [
        "lerini",
        -6.03657900098624
      ],
      [
        "▁miami'",
        -7.018428454809469
      ],
      [
        "▁3/",
        -6.233627537946334
      ],
      [
        "▁guvenlik",
        -8.823162211600193
      ],
      [
        "▁dunya",
        -7.463708335568586
      ],
      [
        "ci",
        -6.558745201072433
      ],
      [
        "gimiz",
        -7.94985572875908
      ],
      [
        "▁gercek",
        -6.57263610703078
      ],
      [
        "▁ates",
        -8.066229052883777
      ],
      [
        "▁bakıs",
        -8.580348910108683
      ],
      [
        "▁arka",
        -8.667278815243632
      ],
      [
        "▁cleveland'",
        -6.808563298588288
      ],
      [
        "ve",
        -7.945983395405356
      ],
      [
        "n",
        -2.5272601907098036
      ],
      [
        "▁muhendis",
        -9.085592075050975
      ],
      [
        "gın",
        -7.655061505047967
      ],
      [
        "▁8",
        -9.254857887507953
      ],
      [
        "▁dolar",
        -6.143829847917047
      ],
      [
        "▁fabrika",
        -8.329764194045104
      ],
      [
        "▁ser",
        -8.029933688174829
      ],
      [
        "▁ana",
        -6.844882439670697
      ],
      [
        "▁aracı",
        -8.615625299311198
      ],
      [
        "▁diyor",
        -6.068776859287384
      ],
      [
        "▁etmeye",
        -8.738117281661822
      ],
      [
        "▁reform",
        -9.158791853722423
      ],
      [
        "ye",
        -4.130045537692629
      ],
      [
        "ne",
        -7.295935539686148
      ],
      [
        "▁gercek",
        -8.472016431798693
      ],
      [
        "▁gosterme",
        -9.178849973017444
      ],
      [
        "▁gormedi",
        -7.322160367317579
      ],
      [
        ":",
        -5.1950716830752155
      ],
      [
        "▁hijyen",
        -7.882009977537452
      ],
      [
        "mdan",
        -8.669704766428659
      ],
      [
        "diginde",
        -9.194615365993846
      ],
      [
        "▁oda",
        -6.317397871292799
      ],
      [
        "▁acısın",
        -8.682677598869876
      ],
      [
        "▁sagla",
        -7.979843521615655
      ],
      [
        "▁cogu",
        -7.4896437518538574
      ],
      [
        "▁elektrik",
        -8.668443894159804
      ],
      [
        "▁",
        -1.6692032132785002
      ],
      [
        "▁olanlar",
        -8.979131030449631
      ],
      [
        "'i",
        -6.721080804396391
      ],
      [
        "▁uzerin",
        -7.80555689592298
      ],
      [
        "▁attı",
        -7.323690295219331
      ],
      [
        "k",
        -3.6843136976939306
      ],
      [
        "o",
        -6.6717490880592125
      ],
      [
        "ki",
        -4.243667018720036
      ],
      [
        "▁nerede",
        -7.3722393738330165
      ],
      [
        "mizi",
        -8.244898374858636
      ],
      [
        "▁yuzu",
        -6.695073742293196
      ],
      [
        "▁kal",
        -7.8409149477746185
      ],
      [
        "lak",
        -8.536831793113809
      ],
      [
        "▁siddet",
        -9.18443337766713
      ],
      [
        "▁degerlendirme",
        -9.062979052130705
      ],
      [
        "il",
        -7.217875703985481
      ],
      [
        "▁kesin",
        -7.804262474853328
      ],
      [
        "▁kadınlar",
        -8.271179134368275
      ],
      [
        "1'de",
        -9.238969779361716
      ],
      [
        "dıgı",
        -8.483843502462488
      ],
      [
        "ilmesi",
        -8.90626305055217
      ],
      [
        "▁sair",
        -8.801751691775642
      ],
      [
        "▁sak",
        -8.931598880006453
      ],
      [
        "▁yok",
        -5.673449594892746
      ],
      [
        "▁newark'ta",
        -7.347640522526289
      ],
      [
        "li",
        -7.25093721435945
      ],
      [
        "▁doga",
        -8.512802293658149
      ],
      [
        "m",
        -4.809409968019235
      ],
      [
        "▁konusuyor",
        -7.89689264280271
      ],
      [
        "▁c",
        -7.381905891970467
      ],
      [
        "▁alt",
        -8.86716720641108
      ],
      [
        "▁le",
        -7.315492742156232
      ],
      [
        "▁yumurta",
        -8.874295364588884
      ],
      [
        "▁erken",
        -6.118897358076235
      ],
      [
        "▁kucuk",
        -5.342268000351475
      ],
      [
        "di",
        -7.844100953751681
      ],
      [
        "▁mehmet",
        -6.7328359076615385
      ],
      [
        "(",
        -6.121810261614014
      ],
      [
        "▁kitap",
        -8.051495251607811
      ],
      [
        "▁cocugu",
        -8.560560134201289
      ],
      [
        "▁demir",
        -7.6567206709357265
      ],
      [
        "▁30",
        -5.020739400265071
      ],
      [
        "▁3.",
        -5.926069570258966
      ],
      [
        "▁soyle",
        -7.525610483728363
      ],
      [
        "dar",
        -7.6194731209705875
      ],
      [
        "r",
        -4.059466234863721
      ],
      [
        "ustu",
        -9.19108277506911
      ],
      [
        "▁aksama",
        -9.177623701393125
      ],
      [
        "o",
        -4.578117168882934
      ],
      [
        "o",
        -5.5937071509101
      ],
      [
        "▁tesisin",
        -7.8586944245824375
      ],
      [
        "▁onem",
        -8.324657559217236
      ],
      [
        "▁yoneticileri",
        -8.96506247283475
      ],
      [
        "▁isim",
        -8.461692815124682
      ],
      [
        "erine",
        -7.345133478854348
      ],
      [
        "nizi",
        -9.04258842201665
      ],
      [
        "▁bas",
        -6.750297626953759
      ],
      [
        "'ı",
        -6.960069597638902
      ],
      [
        "▁elbet",
        -6.771714475515565
      ],
      [
        "▁tatil",
        -7.439259249330476
      ],
      [
        "z",
        -5.915182500026182
      ],
      [
        "up",
        -6.6607683440219585
      ],
      [
        "k",
        -4.145806418856702
      ],
      [
        "▁pat",
        -8.827477309398573
      ],
      [
        "▁etti",
        -5.244491546802552
      ],
      [
        "▁temel",
        -9.017611840157226
      ],
      [
        "▁yiyecekler",
        -8.602773030143483
      ],
      [
        "ıyorlar",
        -8.105857323710635
      ],
      [
        "▁not",
        -8.564389378324947
      ],
      [
        "▁beklenti",
        -8.590095686939982
      ],
      [
        "▁sure",
        -7.28891588231846
      ],
      [
        "digi",
        -8.073231716186262
      ],
      [
        "iz",
        -6.313497623855728
      ],
      [
        "▁tarih",
        -7.922161836148918
      ],
      [
        "▁ed",
        -8.426117456985327
      ],
      [
        "▁san",
        -7.909273683451964
      ],
      [
        "▁ok",
        -8.921083937890778
      ],
      [
        "▁gorme",
        -8.740948940399633
      ],
      [
        "▁",
        -5.678204919388433
      ],
      [
        "k",
        -4.0444701718302625
      ],
      [
        "▁yuzun",
        -8.918435108562544
      ],
      [
        "z",
        -7.384597776793819
      ],
      [
        "▁duman",
        -8.783671386647182
      ],
      [
        "siz",
        -5.236444565992568
      ],
      [
        "su",
        -7.539574608610181
      ],
      [
        "met",
        -8.003927957192406
      ],
      [
        "▁lar",
        -7.76677043803274
      ],
      [
        "▁deger",
        -7.509694612103102
      ],
      [
        "mu",
        -8.007723877257241
      ],
      [
        "▁hal",
        -8.006565396306218
      ],
      [
        ".",
        -6.508779962973538
      ],
      [
        "▁bulun",
        -6.850638446731321
      ],
      [
        "▁verme",
        -8.415059544382386
      ],
      [
        "▁ar",
        -7.851411589191918
      ],
      [
        "▁olmus",
        -7.034365256963971
      ],
      [
        "▁kuru",
        -8.832781994742987
      ],
      [
        "▁iyiydi",
        -4.822868892125619
      ],
      [
        "▁seyler",
        -7.658220877601867
      ],
      [
        "▁oldugu",
        -6.395401728899352
      ],
      [
        "▁pek",
        -4.940017877222246
      ],
      [
        "▁varlık",
        -9.268297286554713
      ],
      [
        "▁sınıf",
        -7.86429784751094
      ],
      [
        "▁satıslar",
        -7.933660028012585
      ],
      [
        "dikleri",
        -8.85798360119302
      ],
      [
        "eger",
        -6.978820968666628
      ],
      [
        "▁basım",
        -8.687477042032691
      ],
      [
        "▁tamam",
        -7.598141378379165
      ],
      [
        "▁ed",
        -7.1708712442653155
      ],
      [
        "▁hırsız",
        -9.184186509567512
      ],
      [
        "le",
        -7.45879026731766
      ],
      [
        "a",
        -3.58772983628851
      ],
      [
        "▁%",
        -8.548383901389245
      ],
      [
        "▁ar",
        -7.45403532020468
      ],
      [
        "lerde",
        -6.863545878713247
      ],
      [
        "▁yasam",
        -8.042440661959901
      ],
      [
        "▁orlando'",
        -6.981348912655069
      ],
      [
        "▁olsa",
        -6.7505448835721005
      ],
      [
        "▁yeni",
        -5.517189378335924
      ],
      [
        "li",
        -3.8975063851607272
      ],
      [
        "yen",
        -6.952143961502724
      ],
      [
        "▁borcu",
        -9.221761599778555
      ],
      [
        "▁pes",
        -9.226688501142554
      ],
      [
        "den",
        -6.734655379813286
      ],
      [
        "on",
        -4.58124366256307
      ],
      [
        "un",
        -6.350571138778809
      ],
      [
        "▁rehber",
        -8.40974490307236
      ],
      [
        "▁oluyor",
        -6.667390764780481
      ],
      [
        "rak",
        -3.383613678221411
      ],
      [
        "ve",
        -5.575675023950563
      ],
      [
        "ya",
        -5.19524558231185
      ],
      [
        "▁gerek",
        -7.142499163139928
      ],
      [
        "caba",
        -7.273779888668228
      ],
      [
        "▁enerji",
        -8.637907774520585
      ],
      [
        "em",
        -7.405984961836628
      ],
      [
        "▁miktar",
        -9.027674453574695
      ],
      [
        "ol",
        -8.347550928255544
      ],
      [
        "▁inc",
        -6.89648595030143
      ],
      [
        "s",
        -5.4389529821417835
      ],
      [
        "2",
        -8.544205719619663
      ],
      [
        "▁kitabı",
        -8.374970610995577
      ],
      [
        "luk",
        -6.898963728357534
      ],
      [
        "▁san",
        -4.296216419152606
      ],
      [
        "ul",
        -7.27796594008921
      ],
      [
        "▁onde",
        -9.09086926493473
      ],
      [
        "lerinde",
        -7.677914789598389
      ],
      [
        "▁hattı",
        -9.269458712702638
      ],
      [
        "▁igne",
        -9.210750665628831
      ],
      [
        "▁hayvan",
        -8.524342310333296
      ],
      [
        "unuz",
        -9.205735051768928
      ],
      [
        "tu",
        -4.465248438584364
      ],
      [
        "▁ucagın",
        -9.052105247994158
      ],
      [
        "▁alıcı",
        -8.684474939399191
      ],
      [
        "▁ulus",
        -9.237796522204938
      ],
      [
        "son",
        -7.225840255471124
      ],
      [
        "▁tepki",
        -8.783329837495078
      ],
      [
        "tır",
        -7.811413125997816
      ],
      [
        "sız",
        -5.176838559836356
      ],
      [
        "zu",
        -8.859242285504227
      ],
      [
        "▁gerekir",
        -7.705429791453389
      ],
      [
        "▁numara",
        -7.7406144400631
      ],
      [
        "▁degisiklikler",
        -9.013508517624524
      ],
      [
        "sinde",
        -6.726026165697694
      ],
      [
        "▁adin",
        -8.96553972969533
      ],
      [
        "▁ici",
        -7.0951664394874765
      ],
      [
        "▁aklım",
        -9.136951738122464
      ],
      [
        "▁di",
        -4.275857339641559
      ],
      [
        "▁ruya",
        -8.754009565700368
      ],
      [
        "lıgın",
        -7.90553695991196
      ],
      [
        "▁de",
        -7.4014055902578075
      ],
      [
        "▁otobus",
        -9.184439035211971
      ],
      [
        "▁26",
        -6.241788422066687
      ],
      [
        "hen",
        -7.322566510349346
      ],
      [
        "tıgını",
        -9.09063400979564
      ],
      [
        "▁bunun",
        -4.410861678317182
      ],
      [
        "▁ask",
        -8.480240596687842
      ],
      [
        "▁tarla",
        -8.582925126425142
      ],
      [
        "u",
        -6.042964596613031
      ],
      [
        "▁aklın",
        -9.106878299570855
      ],
      [
        "▁200",
        -6.130752197523192
      ],
      [
        "▁kole",
        -9.254304697662716
      ],
      [
        "cagı",
        -8.396600205422509
      ],
      [
        "▁hastane",
        -8.819567404694327
      ],
      [
        "▁doneminde",
        -9.12263161323021
      ],
      [
        "▁gar",
        -7.642438974413053
      ],
      [
        "▁dusman",
        -8.538874282637629
      ],
      [
        "▁alma",
        -7.6557566293311625
      ],
      [
        "▁canlı",
        -9.246052834912973
      ],
      [
        "bi",
        -7.635688365991328
      ],
      [
        "et",
        -7.090292049428994
      ],
      [
        "mez",
        -7.157224312138854
      ],
      [
        "▁olmustu",
        -7.1578929644790845
      ],
      [
        "▁resim",
        -8.579645970805329
      ],
      [
        "tıp",
        -7.593361442092817
      ],
      [
        "▁olmasi",
        -8.209256969249356
      ],
      [
        "▁gonul",
        -8.749132885440623
      ],
      [
        "▁ucretlerini",
        -9.124577973395168
      ],
      [
        "▁kız",
        -7.460576718113989
      ],
      [
        "e",
        -6.0226497054236
      ],
      [
        "3",
        -8.232643069481728
      ],
      [
        "▁gitti",
        -6.593172881954199
      ],
      [
        "▁hak",
        -7.433022112221926
      ],
      [
        "gu",
        -7.100277774764232
      ],
      [
        "tor",
        -8.386399699785887
      ],
      [
        "g",
        -7.6374187773213595
      ],
      [
        "▁bankası",
        -8.963209145391541
      ],
      [
        "▁ab",
        -9.077533453578743
      ],
      [
        "mızda",
        -9.236476505337485
      ],
      [
        "yu",
        -7.242836502318115
      ],
      [
        "muz",
        -8.378158394651072
      ],
      [
        "▁payı",
        -9.18770085620884
      ],
      [
        "v",
        -6.891160599133084
      ],
      [
        "a",
        -3.3062409507640718
      ],
      [
        ".",
        -7.3766766886513615
      ],
      [
        "unla",
        -5.8430735334845965
      ],
      [
        "▁4",
        -4.732260125815868
      ],
      [
        "▁benzer",
        -7.000372126861872
      ],
      [
        "▁tesis",
        -6.616020582163001
      ],
      [
        "▁bedel",
        -9.239291552950863
      ],
      [
        "▁yanda",
        -8.817890646262013
      ],
      [
        "ten",
        -6.553232975528684
      ],
      [
        "▁yere",
        -7.686404501796405
      ],
      [
        "▁kaldır",
        -7.955063746663338
      ],
      [
        "▁gide",
        -5.832467812925174
      ],
      [
        "▁hal",
        -5.532686542076541
      ],
      [
        "▁ogrenci",
        -8.629378093715886
      ],
      [
        "▁calisanlar",
        -8.542772132300328
      ],
      [
        "cisin",
        -8.720310916178633
      ],
      [
        "▁d",
        -8.848063258133957
      ],
      [
        "▁ol",
        -7.219257272428693
      ],
      [
        "▁philadelphia'",
        -5.874786174638694
      ],
      [
        "▁cins",
        -9.003321145262774
      ],
      [
        "▁sona",
        -8.349367676310766
      ],
      [
        "baz",
        -7.624916523494468
      ],
      [
        "▁yasında",
        -8.582914753879415
      ],
      [
        "▁gorusuldu",
        -5.6858929814905395
      ],
      [
        "▁kara",
        -6.749813976540861
      ],
      [
        "▁tesiste",
        -8.736878218116043
      ],
      [
        "▁nokta",
        -8.08612300786979
      ],
      [
        "▁tartısma",
        -8.637907839573327
      ],
      [
        "ımı",
        -8.200450069658823
      ],
      [
        "▁teslim",
        -8.716071481015334
      ],
      [
        "dı",
        -4.67498132125022
      ],
      [
        "▁numara",
        -8.446855595452353
      ],
      [
        "nızı",
        -8.903756956363756
      ],
      [
        "▁icecekler",
        -8.867833813999916
      ],
      [
        "▁vardı",
        -5.6522736499368476
      ],
      [
        "sin",
        -6.340962197661855
      ],
      [
        "▁koydu",
        -7.618250198583973
      ],
      [
        "▁sek",
        -8.962457730714776
      ],
      [
        "▁vatan",
        -9.085421037887542
      ],
      [
        "▁oakland",
        -6.814299663000338
      ],
      [
        "▁kısıtlama",
        -9.184433011539133
      ],
      [
        "k",
        -4.475898029337179
      ],
      [
        "▁sermaye",
        -8.176417982173167
      ],
      [
        "▁olcude",
        -8.271058178134336
      ],
      [
        "▁yaptı",
        -6.50857064318469
      ],
      [
        "p",
        -6.6111150350837455
      ],
      [
        "▁haberi",
        -8.99398259228536
      ],
      [
        "▁uyeleri",
        -9.235986741625979
      ],
      [
        "▁calıs",
        -7.654246976520353
      ],
      [
        "▁nası",
        -7.632978901032291
      ],
      [
        "▁bakın",
        -8.100605837091344
      ],
      [
        "▁verile",
        -7.651983172581052
      ],
      [
        "errill",
        -7.514621870958839
      ],
      [
        "▁mu",
        -3.89386215236744
      ],
      [
        "▁deprem",
        -8.42406310105607
      ],
      [
        "e",
        -8.372618959769959
      ],
      [
        "b",
        -6.477120954085561
      ],
      [
        "▁kalmadi",
        -6.6624006496479655
      ],
      [
        "ecegini",
        -8.103579295941818
      ],
      [
        "'le",
        -7.292157769793574
      ],
      [
        "▁umut",
        -8.783554003428335
      ],
      [
        "▁bahseder",
        -7.864863832614265
      ],
      [
        "acagım",
        -7.856523502904178
      ],
      [
        "▁vurdu",
        -8.02598235857543
      ],
      [
        "is",
        -9.889831758065933
      ],
      [
        "▁ideal",
        -7.7004281276149165
      ],
      [
        "▁iste",
        -8.256703313041827
      ],
      [
        "▁siparis",
        -8.68406909603177
      ],
      [
        "ca",
        -6.899445365206607
      ],
      [
        "bu",
        -8.194196647069859
      ],
      [
        "▁lezzeti",
        -8.776975677167293
      ],
      [
        "▁a",
        -7.758707966971643
      ],
      [
        "▁kac",
        -6.691152110947753
      ],
      [
        "▁ele",
        -8.096106548706768
      ],
      [
        "▁baltimore'",
        -5.751682625962839
      ],
      [
        "▁taksi",
        -8.91018656466627
      ],
      [
        "▁anne",
        -8.114635424835758
      ],
      [
        "yuzlu",
        -6.5380373275271255
      ],
      [
        "▁fiyati",
        -8.410242649700916
      ],
      [
        "taki",
        -7.874113274632397
      ],
      [
        "▁savunma",
        -8.732502421362335
      ],
      [
        "▁fayda",
        -8.89352324865228
      ],
      [
        "▁bilet",
        -8.235814383997521
      ],
      [
        "▁simdi",
        -4.839658505846723
      ],
      [
        "lıkla",
        -8.990837559406026
      ],
      [
        "▁puan",
        -6.262954799629098
      ],
      [
        "▁oranında",
        -9.195739326276371
      ],
      [
        "▁tehlike",
        -8.74913123487551
      ],
      [
        "gr",
        -7.792940288498959
      ],
      [
        "▁kı",
        -8.062426366589069
      ],
      [
        "▁tarihi",
        -8.61883344061435
      ],
      [
        "▁kanun",
        -8.435196922470897
      ],
      [
        "▁masal",
        -9.208191325533729
      ],
      [
        "▁mı",
        -3.073600583083265
      ],
      [
        "▁altında",
        -7.4558875672301195
      ],
      [
        "▁kent",
        -8.589425667720203
      ],
      [
        "▁denver'de",
        -5.235049417651073
      ],
      [
        "ı",
        -5.376923376904363
      ],
      [
        "ak",
        -5.6150221036885055
      ],
      [
        "▁sebep",
        -8.374972217946818
      ],
      [
        "▁sistemi",
        -8.544468458504346
      ],
      [
        "▁icim",
        -9.222414434589481
      ],
      [
        "▁salt",
        -6.566705835229242
      ],
      [
        "▁dizi",
        -8.601982353946553
      ],
      [
        "▁cene",
        -9.271421123292132
      ],
      [
        "▁oldu",
        -6.11244623246
      ],
      [
        "▁limon",
        -9.294130344662912
      ],
      [
        "▁makine",
        -8.186034436311516
      ],
      [
        "▁gorun",
        -8.065971049868304
      ],
      [
        "▁ardın",
        -7.0154321903276164
      ],
      [
        "▁bunda",
        -7.388617737186985
      ],
      [
        "▁degil",
        -2.538634238983531
      ],
      [
        "▁soz",
        -7.394628475674323
      ],
      [
        "▁sat",
        -8.401317802739229
      ],
      [
        "▁yana",
        -7.77216474041248
      ],
      [
        "lı",
        -6.632415496086012
      ],
      [
        "▁fotograf",
        -8.484834293608444
      ],
      [
        "▁ogrenciler",
        -9.28769993217673
      ],
      [
        "co",
        -4.969231820816542
      ],
      [
        "tigini",
        -9.216531961604142
      ],
      [
        "▁boston'",
        -6.104671276309122
      ],
      [
        "uru",
        -8.076158537643845
      ],
      [
        "▁sol",
        -7.196571706374
      ],
      [
        "▁sık",
        -8.93259984114122
      ],
      [
        "/",
        -9.085591723982542
      ],
      [
        "▁salon",
        -8.281101932906235
      ],
      [
        "▁uzakt",
        -8.094471119373498
      ],
      [
        "▁yaptirdi",
        -7.4448016464697195
      ],
      [
        "▁ozel",
        -6.385303417155286
      ],
      [
        "n",
        -3.992344194334313
      ],
      [
        "i",
        -3.475630407914794
      ],
      [
        "▁satım",
        -8.208283820323697
      ],
      [
        "▁hareket",
        -7.164801304845687
      ],
      [
        "▁temizlik",
        -7.700960763927924
      ],
      [
        "▁sozleri",
        -9.166235292570601
      ],
      [
        "▁haber",
        -7.612481008595935
      ],
      [
        "maya",
        -6.310438678772883
      ],
      [
        "▁portfoy",
        -9.237775600474485
      ],
      [
        "ladı",
        -7.227434632502908
      ],
      [
        "▁ets",
        -7.27405506231093
      ],
      [
        "ti",
        -7.495080239910468
      ],
      [
        "d",
        -6.042528314637639
      ],
      [
        "bil",
        -7.318263304722521
      ],
      [
        "▁pa",
        -7.501568141458672
      ],
      [
        "▁temizligi",
        -7.382347171589046
      ],
      [
        "▁si",
        -7.78967962291759
      ],
      [
        "▁kav",
        -8.674692255794678
      ],
      [
        "▁hayatı",
        -8.850389889537873
      ],
      [
        "▁abd",
        -5.830124321443024
      ],
      [
        "maya",
        -7.542471100388416
      ],
      [
        "▁ait",
        -5.924503288156106
      ],
      [
        "dan",
        -6.950235826568244
      ],
      [
        "ca",
        -4.628700976346801
      ],
      [
        "ma",
        -7.392277917431474
      ],
      [
        "▁yemegi",
        -8.220065552689796
      ],
      [
        "mak",
        -6.563737770097835
      ],
      [
        "▁donuyor",
        -7.824949977258597
      ],
      [
        "▁yaz",
        -7.5325869044958385
      ],
      [
        "▁dost",
        -8.46748239616879
      ],
      [
        "let",
        -8.504943740707766
      ],
      [
        "▁sosyal",
        -7.1118867177857235
      ],
      [
        "▁zevk",
        -8.622983645978294
      ],
      [
        "▁philadelphia'da",
        -5.939655199290513
      ],
      [
        "▁dus",
        -6.979276280361036
      ],
      [
        "▁etkile",
        -7.939068860976237
      ],
      [
        "la",
        -5.34346133651821
      ],
      [
        "▁sok",
        -8.961720428179198
      ],
      [
        "ınca",
        -7.947628324505813
      ],
      [
        "▁yan",
        -8.02525644572732
      ],
      [
        "▁bur",
        -8.29389605531169
      ],
      [
        "▁arasında",
        -6.496088042795415
      ],
      [
        "▁takip",
        -8.511018959224621
      ],
      [
        "muyor",
        -7.998022514967612
      ],
      [
        "al",
        -6.233800419023781
      ],
      [
        "dir",
        -4.943700873807415
      ],
      [
        "▁b",
        -6.181687063550272
      ],
      [
        "kın",
        -7.852901375229401
      ],
      [
        "▁koku",
        -8.692061535529657
      ],
      [
        "▁onay",
        -8.90065117348464
      ],
      [
        "▁washington",
        -5.68185472729504
      ],
      [
        "ra",
        -6.797631536129477
      ],
      [
        "▁ofke",
        -9.21075176479673
      ],
      [
        "▁yukse",
        -5.608932655277302
      ],
      [
        "▁cak",
        -8.789478667596335
      ],
      [
        "▁gec",
        -6.6891732358273925
      ],
      [
        "imi",
        -7.929220387740227
      ],
      [
        "▁kelime",
        -8.077225828714877
      ],
      [
        "larla",
        -7.059081848741103
      ],
      [
        "de",
        -6.49762006697207
      ],
      [
        "▁is",
        -6.739784994148765
      ],
      [
        "▁ileri",
        -7.7160430465018335
      ],
      [
        "lugun",
        -8.573163166760395
      ],
      [
        "▁bıraktı",
        -7.373737174799423
      ],
      [
        "▁am",
        -5.947568370575268
      ],
      [
        "▁iyi",
        -4.120328284265581
      ],
      [
        "▁toz",
        -9.178699791246125
      ],
      [
        "▁gunlu",
        -6.629403783320777
      ],
      [
        "▁konu",
        -7.154934334090527
      ],
      [
        "e",
        -3.869636175119987
      ],
      [
        ",",
        -9.265553377849141
      ],
      [
        "▁agır",
        -6.486111117241364
      ],
      [
        "▁oranları",
        -8.746810424894322
      ],
      [
        "lugunu",
        -8.51392372174918
      ],
      [
        "▁kurulu",
        -8.24544565600847
      ],
      [
        "▁ver",
        -6.636893771376158
      ],
      [
        "▁yapılacak",
        -8.07005447656604
      ],
      [
        "ir",
        -7.963442746892628
      ],
      [
        "dik",
        -9.037590371616014
      ],
      [
        "inden",
        -7.222574550029565
      ],
      [
        "▁kısa",
        -6.218398683040187
      ],
      [
        "larında",
        -6.674143457836384
      ],
      [
        "na",
        -7.216566140508447
      ],
      [
        "gim",
        -7.898860368697099
      ],
      [
        "▁teklifi",
        -8.566254542680781
      ],
      [
        "lerden",
        -6.965940865704701
      ],
      [
        "▁tarih",
        -7.876045631531454
      ],
      [
        "▁6",
        -4.858362938042665
      ],
      [
        "▁turk",
        -7.790444697342189
      ],
      [
        "▁tuz",
        -8.459507100340915
      ],
      [
        "▁kus",
        -7.925498294022481
      ],
      [
        "▁efendi",
        -8.699941909725489
      ],
      [
        "w",
        -9.085591990217665
      ],
      [
        "▁dikkat",
        -7.782061587226195
      ],
      [
        "▁ve",
        -2.837416967995196
      ],
      [
        "▁oyle",
        -5.64675409423086
      ],
      [
        "▁ihtiyacım",
        -7.589894257033215
      ],
      [
        "▁sup",
        -7.39327325865813
      ],
      [
        "▁problem",
        -8.307905751166999
      ],
      [
        "lıklar",
        -8.714344771031648
      ],
      [
        "▁finans",
        -8.836507130825979
      ],
      [
        "▁oyle",
        -7.302740800488347
      ],
      [
        "▁su",
        -6.019620521653812
      ],
      [
        "▁chicago'",
        -7.181589550952263
      ],
      [
        "yabilir",
        -8.098256529717412
      ],
      [
        "▁nasıl",
        -5.461418423501822
      ],
      [
        "unu",
        -6.939939349485027
      ],
      [
        "▁kaba",
        -9.273666256085534
      ],
      [
        "▁met",
        -8.899037701603312
      ],
      [
        "aki",
        -9.842291196683833
      ],
      [
        "▁ise",
        -7.560214555404128
      ],
      [
        "▁18",
        -6.19934010069746
      ],
      [
        "▁-",
        -9.780423386250764
      ],
      [
        "ine",
        -6.129515774840357
      ],
      [
        "mistir",
        -7.126474716936368
      ],
      [
        "dugunu",
        -8.493669056327576
      ],
      [
        "ligini",
        -8.108001076095718
      ],
      [
        "dik",
        -7.789608405115656
      ],
      [
        "▁tavsiye",
        -6.698472403062372
      ],
      [
        "▁ka",
        -7.193509995414806
      ],
      [
        "asla",
        -7.040142036828939
      ],
      [
        "▁eglence",
        -8.537826126345745
      ],
      [
        "▁mesele",
        -8.511043627760682
      ],
      [
        "▁ederi",
        -5.945113390437031
      ],
      [
        "▁bel",
        -8.468287714222843
      ],
      [
        "▁gecti",
        -6.806410008391679
      ],
      [
        "▁francisco",
        -5.975874976284412
      ],
      [
        "▁mus",
        -8.582383172236966
      ],
      [
        "ı",
        -9.759274920662083
      ],
      [
        "tti",
        -8.068161168248572
      ],
      [
        "▁pe",
        -8.332465678184999
      ],
      [
        "▁itibari",
        -9.211665233429269
      ],
      [
        "▁tarafta",
        -9.249338606428145
      ],
      [
        "▁en",
        -8.199192244498683
      ],
      [
        "9",
        -4.905248477984599
      ],
      [
        "on",
        -7.7850315464718
      ],
      [
        "▁atlanta'da",
        -5.530753866551326
      ],
      [
        "▁corp.",
        -6.479253463719356
      ],
      [
        "▁b",
        -6.642359555692694
      ],
      [
        "▁ak",
        -7.629095523578279
      ],
      [
        "▁tel",
        -8.280970386811369
      ],
      [
        "it",
        -7.6795142957907006
      ],
      [
        "▁bush",
        -7.373109476624779
      ],
      [
        "f",
        -7.405868900941825
      ],
      [
        "▁dokuz",
        -5.927416539257818
      ],
      [
        "ttı",
        -7.7362004149266
      ],
      [
        "▁restoran",
        -8.893521646008914
      ],
      [
        "▁gec",
        -7.33005100813819
      ],
      [
        "▁baslıyor",
        -7.795348747780091
      ],
      [
        "▁calisanlari",
        -9.016020169656265
      ],
      [
        "▁istiyor",
        -7.1765149799908
      ],
      [
        "▁fiyatı",
        -8.239115862109752
      ],
      [
        "▁yapacak",
        -7.563194361098923
      ],
      [
        "▁gorus",
        -8.462040247086406
      ],
      [
        "▁proje",
        -8.275990776937038
      ],
      [
        "▁yarın",
        -7.948401929099037
      ],
      [
        "9",
        -12.802702672349787
      ],
      [
        "▁hepsini",
        -5.598394737968925
      ],
      [
        "ak",
        -5.826425994507126
      ],
      [
        "▁donemi",
        -8.980651194991985
      ],
      [
        "nce",
        -6.808974596992564
      ],
      [
        "▁.",
        -7.7838188156415065
      ],
      [
        "▁af",
        -8.942413080341767
      ],
      [
        "▁renk",
        -8.298197903871912
      ],
      [
        "▁pencere",
        -8.05193571114983
      ],
      [
        "▁hasta",
        -8.569009583086018
      ],
      [
        "a",
        -12.802702672349763
      ],
      [
        "▁domates",
        -9.294125748215125
      ],
      [
        "▁temsil",
        -9.006376220962853
      ],
      [
        "a",
        -2.9601516385060798
      ],
      [
        "▁sis",
        -9.262693680190074
      ],
      [
        "▁kendileri",
        -6.4584490618068315
      ],
      [
        "▁cekme",
        -9.171977629966499
      ],
      [
        "▁ak",
        -6.821741344153913
      ],
      [
        "▁g",
        -6.207197408240738
      ],
      [
        "pa",
        -8.061339486445434
      ],
      [
        "4",
        -12.802702672349787
      ],
      [
        "▁dus",
        -7.82404762062771
      ],
      [
        "▁ulke",
        -7.739514780959663
      ],
      [
        "ler",
        -6.688903304487621
      ],
      [
        "▁etmis",
        -7.520405121739282
      ],
      [
        "▁islemler",
        -8.770383183358028
      ],
      [
        "▁yapıl",
        -7.961584390834188
      ],
      [
        "▁goster",
        -4.823268618043617
      ],
      [
        "▁alt",
        -7.545407850000283
      ],
      [
        "ir",
        -7.350414316749047
      ],
      [
        "m",
        -3.7415001008522433
      ],
      [
        "▁baskı",
        -8.13315041536341
      ],
      [
        "▁te",
        -8.059775422487665
      ],
      [
        "▁karar",
        -7.329213357436965
      ],
      [
        "▁yanıt",
        -9.220194832855992
      ],
      [
        "▁veya",
        -4.768733796629289
      ],
      [
        "▁grubu",
        -8.485632841951134
      ],
      [
        "▁suc",
        -8.417426485506745
      ],
      [
        "r",
        -5.602720111202849
      ],
      [
        "▁vere",
        -7.681478507949164
      ],
      [
        "▁koltuk",
        -8.699981815427783
      ],
      [
        "▁kemal",
        -6.8028234289062155
      ],
      [
        "▁memphis'",
        -6.943093293916075
      ],
      [
        "▁kusur",
        -8.842689897335596
      ],
      [
        "▁baktı",
        -7.235238501895003
      ],
      [
        "-",
        -6.464735180719356
      ],
      [
        "iyordu",
        -6.860034495942726
      ],
      [
        "emez",
        -7.693083838934779
      ],
      [
        "▁bası",
        -8.222583663136248
      ],
      [
        "▁yapmadı",
        -8.09102929740633
      ],
      [
        "▁san",
        -8.491653599456079
      ],
      [
        "▁hat",
        -6.71359374354625
      ],
      [
        "▁17",
        -6.060985725555577
      ],
      [
        "▁boyut",
        -9.032890394942108
      ],
      [
        "▁diego'",
        -7.16339760840913
      ],
      [
        "▁karsı",
        -4.835443352689402
      ],
      [
        "▁musteri",
        -8.229587342747209
      ],
      [
        "▁onemli",
        -6.106789014357763
      ],
      [
        "▁milwaukee'de",
        -6.829858701426127
      ],
      [
        "'yi",
        -6.905114978370966
      ],
      [
        "▁petersburg'",
        -7.304040164310214
      ],
      [
        "▁pahali",
        -7.506694771480903
      ],
      [
        "▁ata",
        -8.85437362422949
      ],
      [
        "▁dava",
        -7.332121610820996
      ],
      [
        "▁yetkililer",
        -8.998035243273128
      ],
      [
        "▁sar",
        -7.8536912895821684
      ],
      [
        "ki",
        -5.536838665843374
      ],
      [
        "▁kapı",
        -7.045212487440587
      ],
      [
        "▁az",
        -6.047843659493168
      ],
      [
        "▁sa",
        -4.233276091639059
      ],
      [
        "▁uyku",
        -8.54333352259967
      ],
      [
        "▁bagım",
        -7.793375336438742
      ],
      [
        "alı",
        -7.639942686466609
      ],
      [
        "▁altın",
        -7.788058523667842
      ],
      [
        "▁ders",
        -8.18408359555225
      ],
      [
        "▁biz",
        -3.7492545438091245
      ],
      [
        "▁ilk",
        -6.030188554215659
      ],
      [
        "cak",
        -6.864813269639653
      ],
      [
        "▁kullanmadi",
        -7.197998212044448
      ],
      [
        "▁icin",
        -8.2977333032575
      ],
      [
        "▁bunu",
        -4.07572431406977
      ],
      [
        "▁he",
        -8.274399093095273
      ],
      [
        "▁degisim",
        -8.91459490589699
      ],
      [
        "▁lezzet",
        -7.625560767531122
      ],
      [
        "▁persembe",
        -8.121091191049143
      ],
      [
        "▁sorunu",
        -8.221384715857418
      ],
      [
        "he",
        -8.388424268692683
      ],
      [
        "▁adet",
        -7.972189129014149
      ],
      [
        "lanma",
        -7.827998949523362
      ],
      [
        "▁gol",
        -8.426356280235495
      ],
      [
        "▁bakım",
        -7.325904814344627
      ],
      [
        "▁gosterdi",
        -7.453777587268822
      ],
      [
        "mıyor",
        -7.710485636665227
      ],
      [
        "mus",
        -8.945075204409722
      ],
      [
        "la",
        -6.132318751279013
      ],
      [
        "▁servisi",
        -8.27805000675811
      ],
      [
        "▁kalkıyor",
        -7.630511019979586
      ],
      [
        "masını",
        -7.563837571085156
      ],
      [
        "▁muke",
        -6.726077281485869
      ],
      [
        "lıgı",
        -6.995295901641856
      ],
      [
        "▁kaya",
        -8.662980651186256
      ],
      [
        "kadar",
        -6.308773486617229
      ],
      [
        "▁yardimci",
        -8.195543634166544
      ],
      [
        "▁3",
        -8.728364210287182
      ],
      [
        "ce",
        -7.710866603726851
      ],
      [
        "▁ucusunu",
        -9.154085831606945
      ],
      [
        "▁ihtiyar",
        -7.882014140590103
      ],
      [
        "▁pantolon",
        -9.184432783644159
      ],
      [
        "ı",
        -4.804327802810323
      ],
      [
        "dan",
        -5.896843003039089
      ],
      [
        "▁yon",
        -7.340045931705189
      ],
      [
        "▁sendika",
        -8.893522178753628
      ],
      [
        "▁han",
        -9.027694436290492
      ],
      [
        "▁avukat",
        -8.539734276885845
      ],
      [
        "▁oneri",
        -8.996393301276411
      ],
      [
        "▁aksamı",
        -8.6466799098704
      ],
      [
        "▁havuzlar",
        -8.931045614448788
      ],
      [
        "▁meclis",
        -9.247867467018368
      ],
      [
        "▁istanbul",
        -6.916751545981278
      ],
      [
        "abilecegi",
        -9.282507851666004
      ],
      [
        "ama",
        -8.057542674885958
      ],
      [
        "▁tur",
        -6.792881010240528
      ],
      [
        "▁sonu",
        -9.065469111129305
      ],
      [
        "▁es",
        -7.7496457909165235
      ],
      [
        "▁artar",
        -6.100708116629359
      ],
      [
        "▁uzman",
        -8.951201762821405
      ],
      [
        "▁ya",
        -4.634008824959308
      ],
      [
        "▁ka",
        -6.481825642100741
      ],
      [
        "▁19",
        -8.967914711770463
      ],
      [
        "▁saglam",
        -7.5027649068518185
      ],
      [
        "▁elini",
        -8.516581796678722
      ],
      [
        "▁hacim",
        -8.76682422025193
      ],
      [
        "▁adını",
        -8.798439827280081
      ],
      [
        "▁edip",
        -7.343455231838878
      ],
      [
        "t",
        -5.211446740624953
      ],
      [
        "▁rakı",
        -9.01767299568164
      ],
      [
        "▁40",
        -6.045535918803367
      ],
      [
        "▁parti",
        -8.052703654897643
      ],
      [
        "meye",
        -7.783807652790883
      ],
      [
        "▁yatırımcı",
        -8.659854685785973
      ],
      [
        "▁hisseler",
        -8.870113576607809
      ],
      [
        "▁pozisyon",
        -9.062336195022812
      ],
      [
        "▁kultur",
        -8.911520757976831
      ],
      [
        "▁raporu",
        -9.1211419486369
      ],
      [
        "▁kendini",
        -4.901080439319303
      ],
      [
        "▁egitim",
        -8.185930873672504
      ],
      [
        "▁ekledi",
        -7.509081774730556
      ],
      [
        "▁program",
        -8.058761814505687
      ],
      [
        "▁sokag",
        -8.897442110994358
      ],
      [
        "▁giriste",
        -8.95705013391546
      ],
      [
        "er",
        -6.002466897129618
      ],
      [
        "ili",
        -6.820299547520811
      ],
      [
        "▁bunları",
        -4.754133212558791
      ],
      [
        "mez",
        -7.413283696883108
      ],
      [
        "▁var",
        -4.31276931439489
      ],
      [
        "▁ic",
        -6.5122645661677705
      ],
      [
        "fa",
        -8.236962644876998
      ],
      [
        "▁yargı",
        -9.139708322011861
      ],
      [
        "▁york",
        -5.743778545021385
      ],
      [
        "▁ek",
        -8.142906777961526
      ],
      [
        "r",
        -2.8894423049085045
      ],
      [
        "▁yapı",
        -7.73280662891459
      ],
      [
        "▁cift",
        -8.526810223381293
      ],
      [
        "bire",
        -6.803876773460233
      ],
      [
        "▁ahmet",
        -7.443061242354157
      ],
      [
        "▁gece",
        -5.84717434541588
      ],
      [
        "▁cık",
        -7.8984065736039835
      ],
      [
        "lara",
        -6.088226839202348
      ],
      [
        "f",
        -6.105801925130544
      ],
      [
        "ce",
        -5.493483117133953
      ],
      [
        "▁satıcı",
        -9.06283345912525
      ],
      [
        "▁il",
        -3.41811777620672
      ],
      [
        "▁ayakta",
        -9.00063664773717
      ],
      [
        "▁rengi",
        -8.594250106508667
      ],
      [
        "▁zamanlarda",
        -8.832286087749498
      ],
      [
        "an",
        -5.292109909625391
      ],
      [
        "▁pazar",
        -6.932343962904431
      ],
      [
        "l",
        -5.218757669442791
      ],
      [
        "▁mali",
        -6.772915828245193
      ],
      [
        "▁olum",
        -8.299929850489196
      ],
      [
        "ydı",
        -7.499194122890556
      ],
      [
        "'te",
        -7.098752597832924
      ],
      [
        "▁boyu",
        -8.873816552440477
      ],
      [
        "▁sef",
        -8.91831401496718
      ],
      [
        "▁ankara",
        -7.380548858337815
      ],
      [
        "ko",
        -8.463319096629075
      ],
      [
        "▁yayın",
        -8.2352331869764
      ],
      [
        "▁benim",
        -8.792945027508583
      ],
      [
        "▁guzelligi",
        -9.289974550853318
      ],
      [
        "m",
        -3.07230917458263
      ],
      [
        "▁eg",
        -8.92925360405111
      ],
      [
        "▁yemekleri",
        -7.096723136266368
      ],
      [
        "▁bilgisayar",
        -7.678940204098423
      ],
      [
        "cisi",
        -8.887302131218464
      ],
      [
        "ser",
        -8.926342985778371
      ],
      [
        "t",
        -5.496963253063058
      ],
      [
        "▁tek",
        -8.421178254293679
      ],
      [
        "▁dususle",
        -8.830459642248533
      ],
      [
        "▁sigara",
        -8.434512082471137
      ],
      [
        "▁mac",
        -8.287300148765574
      ],
      [
        "▁oyku",
        -8.532692255263798
      ],
      [
        "▁annesi",
        -8.849404168180289
      ],
      [
        "▁insa",
        -8.808720175347844
      ],
      [
        "▁edecek",
        -7.381241055847779
      ],
      [
        "▁gazeteci",
        -9.15312567022015
      ],
      [
        "6'",
        -8.843249426150997
      ],
      [
        "▁iliskiler",
        -9.242670438250721
      ],
      [
        "▁dukkan",
        -8.806607244915625
      ],
      [
        "acaktı",
        -7.871454571865198
      ],
      [
        "▁davet",
        -8.91308292544651
      ],
      [
        "▁sayı",
        -8.279922880890773
      ],
      [
        "kleri",
        -8.020281460525826
      ],
      [
        "▁100",
        -5.485529480805205
      ],
      [
        "▁yonetim",
        -7.740122413204883
      ],
      [
        "▁tar",
        -8.953175885591387
      ],
      [
        "▁dugun",
        -9.140165328868779
      ],
      [
        "▁taze",
        -7.740657844534185
      ],
      [
        "una",
        -7.972409009351439
      ],
      [
        "gen",
        -9.003035137492052
      ],
      [
        "▁ureticisi",
        -8.994568093931443
      ],
      [
        "▁kok",
        -9.107472215666995
      ],
      [
        "▁de",
        -7.194763187565279
      ],
      [
        "▁mar",
        -7.509950904645063
      ],
      [
        "▁katkı",
        -8.35236918256017
      ],
      [
        "sa",
        -7.17472110376118
      ],
      [
        "▁zaman",
        -6.186820020101037
      ],
      [
        "▁zamanlar",
        -8.488756391374462
      ],
      [
        "▁amerika",
        -7.067182645708146
      ],
      [
        "▁urun",
        -8.664135397417574
      ],
      [
        "sıdır",
        -7.790365813978556
      ],
      [
        "▁kotu",
        -9.042313902298677
      ],
      [
        "▁tedavi",
        -9.184433331884414
      ],
      [
        "▁tek",
        -5.245257206535452
      ],
      [
        "▁yagmur",
        -8.749169337884318
      ],
      [
        "▁seker",
        -8.623584753417015
      ],
      [
        "▁annem",
        -7.911345904187881
      ],
      [
        "d",
        -2.8362636927302933
      ],
      [
        "ima",
        -7.584234974254349
      ],
      [
        "g",
        -7.286923133280997
      ],
      [
        "mamıs",
        -7.914135919214581
      ],
      [
        "y",
        -6.70597099330554
      ],
      [
        "▁verdigim",
        -6.825897247210726
      ],
      [
        "ligi",
        -7.2752044193087695
      ],
      [
        "▁memur",
        -8.434679523331665
      ],
      [
        "▁cuma",
        -7.987160711225793
      ],
      [
        "▁dogru",
        -8.579498129888698
      ],
      [
        "▁continental",
        -6.636089344245021
      ],
      [
        "▁sofra",
        -8.766082596799706
      ],
      [
        "▁de",
        -4.7753992930642415
      ],
      [
        "ması",
        -7.544787054276138
      ],
      [
        "▁itiraz",
        -9.085595176457382
      ],
      [
        "b",
        -4.519809914103928
      ],
      [
        "nca",
        -6.940399481638486
      ],
      [
        "▁ters",
        -7.913455746945873
      ],
      [
        "▁olabilir",
        -5.960379009982213
      ],
      [
        "tmek",
        -9.068028978378308
      ],
      [
        "▁satın",
        -7.396054974063144
      ],
      [
        "▁w",
        -7.361478601160245
      ],
      [
        "▁sır",
        -8.584438899317977
      ],
      [
        "▁gecirdi",
        -7.6939253071302485
      ],
      [
        "▁hukum",
        -8.973146115885012
      ],
      [
        "dan",
        -7.33257720045109
      ],
      [
        "▁yolun",
        -9.197579212966087
      ],
      [
        "▁7",
        -4.986624988114711
      ],
      [
        "cilik",
        -8.734773727919228
      ],
      [
        "nız",
        -8.70034607177369
      ],
      [
        "▁gorur",
        -7.9204836149073845
      ],
      [
        "▁satıs",
        -7.570200307478787
      ],
      [
        "im",
        -7.477502352604834
      ],
      [
        "▁kimse",
        -7.678943387388964
      ],
      [
        "▁gunlerde",
        -8.831400986102873
      ],
      [
        "butu",
        -9.366974893163306
      ],
      [
        "▁gelme",
        -8.814004116180826
      ],
      [
        "▁bul",
        -6.836640547539096
      ],
      [
        "▁goruyor",
        -7.664053340645318
      ],
      [
        "▁kaybı",
        -9.185593045591085
      ],
      [
        "▁%",
        -3.886665045624931
      ],
      [
        "ktan",
        -7.714189021885968
      ],
      [
        "“",
        -9.068411161210182
      ],
      [
        "▁karsiligi",
        -8.318903464401007
      ],
      [
        "i",
        -5.429547822392263
      ],
      [
        "g",
        -7.643914206678526
      ],
      [
        "▁do",
        -7.848733775767458
      ],
      [
        "l",
        -8.749613634584774
      ],
      [
        "▁co",
        -6.664471490842452
      ],
      [
        "▁daya",
        -7.891355334680133
      ],
      [
        "▁olacaktı",
        -7.686503783249896
      ],
      [
        "▁anayasa",
        -9.039623996894203
      ],
      [
        "▁etrafında",
        -9.043773002367267
      ],
      [
        "▁paha",
        -7.543886575885301
      ],
      [
        "▁dev",
        -8.794896336635409
      ],
      [
        "ı",
        -11.802702672349788
      ],
      [
        "d",
        -6.800628779599903
      ],
      [
        "▁6'da",
        -9.040684180755418
      ],
      [
        "▁dura",
        -7.947902083681182
      ],
      [
        "▁degildi",
        -2.1591214805820806
      ],
      [
        "▁ayse",
        -7.48171924884963
      ],
      [
        "▁insaat",
        -8.49990690922929
      ],
      [
        "▁olum",
        -7.395749054696526
      ],
      [
        "▁phoenix'de",
        -7.159244228942083
      ],
      [
        "—",
        -12.802702672349787
      ],
      [
        "▁gelmis",
        -7.341935989440992
      ],
      [
        "▁verir",
        -7.688987814120939
      ],
      [
        "ye",
        -5.324100503247843
      ],
      [
        "▁sohbet",
        -9.062336192956653
      ],
      [
        "e",
        -1.5758668895254075
      ],
      [
        "▁dogru",
        -6.1605310263063116
      ],
      [
        "ın",
        -5.88751614650083
      ],
      [
        "▁calıstı",
        -7.749913342793947
      ],
      [
        "▁hat",
        -8.687669841003489
      ],
      [
        "siz",
        -9.096035924364285
      ],
      [
        "f",
        -7.4132971476116705
      ],
      [
        "▁bunlar",
        -4.7085310956851325
      ],
      [
        "▁ihtiyar",
        -9.13380734588878
      ],
      [
        "▁yeme",
        -8.498486487362069
      ],
      [
        "▁arazi",
        -9.1343926466768
      ],
      [
        "▁oturma",
        -9.14919728906775
      ],
      [
        "▁arama",
        -9.221876468262682
      ],
      [
        "▁sozcu",
        -7.692032276247823
      ],
      [
        "▁toplum",
        -8.346583990260957
      ],
      [
        "▁komisyonu",
        -8.87767011445018
      ],
      [
        "▁mis",
        -9.22401282547305
      ],
      [
        "▁arastırma",
        -8.482698920007923
      ],
      [
        "▁harikayd",
        -7.845569420023782
      ],
      [
        "▁sonra",
        -4.483960125414106
      ],
      [
        "▁ga",
        -8.019525071834464
      ],
      [
        "▁ad",
        -8.402222160411586
      ],
      [
        "ot",
        -8.550819344062994
      ],
      [
        "▁fort",
        -6.84110215969744
      ],
      [
        "c",
        -12.802702672349787
      ],
      [
        "▁olayı",
        -9.034557882047887
      ],
      [
        "▁bakanı",
        -9.077331144673844
      ],
      [
        "or",
        -7.122123359562429
      ],
      [
        "▁oyunu",
        -9.133136802551583
      ],
      [
        "gı",
        -7.1723469511287465
      ],
      [
        "▁seattle'",
        -7.002052026715994
      ],
      [
        "▁bilir",
        -7.671187875550568
      ],
      [
        "▁ov",
        -9.046789757699507
      ],
      [
        "▁ona",
        -4.235995178139032
      ],
      [
        "▁personeli",
        -8.32807808882326
      ],
      [
        "a",
        -3.7940049793668464
      ],
      [
        "ey",
        -7.838455394397839
      ],
      [
        "liydi",
        -6.095838839311535
      ],
      [
        "▁wall",
        -6.852745705857697
      ],
      [
        "▁yatırımcıların",
        -9.28646667217327
      ],
      [
        "▁roman",
        -8.255412989351697
      ],
      [
        "yı",
        -5.85498566687482
      ],
      [
        "▁saglık",
        -8.41304073944503
      ],
      [
        "▁avrupa",
        -6.605347737836264
      ],
      [
        "y",
        -9.699613634584775
      ],
      [
        "h",
        -5.467853488663264
      ],
      [
        "▁tarz",
        -9.065450012933399
      ],
      [
        "▁otele",
        -9.23541388016689
      ],
      [
        "ir",
        -6.550091369772204
      ],
      [
        "izm",
        -8.43197186350801
      ],
      [
        "▁once",
        -8.6329381293949
      ],
      [
        "7",
        -4.751300342131521
      ],
      [
        "3",
        -4.775100445387008
      ],
      [
        "▁kalp",
        -8.905332110715081
      ],
      [
        "▁araya",
        -9.230000712502807
      ],
      [
        "▁ust",
        -7.118554587549394
      ],
      [
        "▁da",
        -2.118767026704102
      ],
      [
        "▁olma",
        -7.310373102193487
      ],
      [
        "▁var",
        -6.823044519766965
      ],
      [
        "▁odamiz",
        -8.578578676601948
      ],
      [
        "▁bilmiyoru",
        -7.529578978086748
      ],
      [
        "lerinden",
        -7.194170402446106
      ],
      [
        "▁gecme",
        -8.933251380471315
      ],
      [
        "▁dil",
        -7.628112871040733
      ],
      [
        "▁eser",
        -8.639708969978892
      ],
      [
        "▁rakam",
        -9.209329415229782
      ],
      [
        "▁kriz",
        -9.075898134331435
      ],
      [
        "ayet",
        -5.79797472285833
      ],
      [
        "▁temsilci",
        -8.792122335669898
      ],
      [
        "▁indianapolis'te",
        -7.084961476014257
      ],
      [
        "▁emir",
        -9.0180581764486
      ],
      [
        "?",
        -4.9897436379284725
      ],
      [
        "▁ihracat",
        -9.067841809232993
      ],
      [
        "il",
        -7.745721552968387
      ],
      [
        "▁uzerinde",
        -5.829535329669553
      ],
      [
        "▁to",
        -8.41944362619186
      ],
      [
        "▁di",
        -4.120192399565302
      ],
      [
        "▁girisim",
        -8.38944478979354
      ],
      [
        "▁tahta",
        -8.673677015011915
      ],
      [
        "aj",
        -8.49099087203826
      ],
      [
        "▁hikaye",
        -8.446855753042502
      ],
      [
        "▁balık",
        -8.792124661479129
      ],
      [
        "▁ydi",
        -4.345530577115908
      ],
      [
        "▁ol",
        -6.9060795941474415
      ],
      [
        "suz",
        -5.895638958251375
      ],
      [
        "▁at",
        -7.630931679921087
      ],
      [
        "▁ro",
        -9.087549903530823
      ],
      [
        "▁mini",
        -7.586700161277121
      ],
      [
        "▁saha",
        -8.666121821897075
      ],
      [
        "▁sınır",
        -8.3298947076584
      ],
      [
        "▁kapandı",
        -6.6820325098326245
      ],
      [
        "▁22",
        -6.204600493789114
      ],
      [
        "▁ber",
        -5.3562904798937145
      ],
      [
        "▁yıgın",
        -9.238118675363424
      ],
      [
        "sik",
        -7.354613352668875
      ],
      [
        "▁re",
        -7.3947147356417124
      ],
      [
        "▁etmedi",
        -7.691717767590749
      ],
      [
        "▁verildi",
        -8.037608345094874
      ],
      [
        "▁planı",
        -8.757401711072198
      ],
      [
        "▁esim",
        -8.991529220220112
      ],
      [
        "obur",
        -7.910016614482133
      ],
      [
        "▁yazma",
        -9.237037384920898
      ],
      [
        "ecek",
        -6.5325837334617605
      ],
      [
        "▁cek",
        -7.436743750063714
      ],
      [
        "▁tutar",
        -9.224611772342476
      ],
      [
        "▁dun",
        -7.235957280212261
      ],
      [
        "fede",
        -7.174599714292586
      ],
      [
        "▁",
        -4.452086336907837
      ],
      [
        "▁endustri",
        -8.363474897029285
      ],
      [
        "▁basladı",
        -5.979293379661058
      ],
      [
        "▁ortasında",
        -9.096513056816823
      ],
      [
        "gin",
        -8.399156128310608
      ],
      [
        "ha",
        -9.255242096426834
      ],
      [
        "▁damak",
        -8.923189488888688
      ],
      [
        "o",
        -7.846631717898696
      ],
      [
        "▁yedi",
        -7.992579213624683
      ],
      [
        "▁ser",
        -8.229373400952682
      ],
      [
        "▁ara",
        -7.916258681979784
      ],
      [
        "▁he",
        -6.338240779722565
      ],
      [
        "us",
        -7.129492147559895
      ],
      [
        "▁acıkladı",
        -7.466305672117121
      ],
      [
        "▁duydu",
        -7.8035315563477194
      ],
      [
        "▁yat",
        -8.874195036090168
      ],
      [
        "▁ne",
        -6.301448313353805
      ],
      [
        "▁fiyatları",
        -7.68168244646925
      ],
      [
        "▁halk",
        -8.091570517722253
      ],
      [
        "▁baskaları",
        -8.996029422820882
      ],
      [
        "▁serbest",
        -7.7855544090868145
      ],
      [
        "▁new",
        -5.186400734166305
      ],
      [
        "▁ne",
        -8.069372765439216
      ],
      [
        "▁komsu",
        -8.90364356457802
      ],
      [
        "▁oglum",
        -8.96255225512436
      ],
      [
        "▁takımı",
        -8.882447346923122
      ],
      [
        "▁cık",
        -7.133831259452897
      ],
      [
        "▁ise",
        -5.47635401040524
      ],
      [
        "▁h",
        -8.007446907811184
      ],
      [
        "▁isleri",
        -9.074726898856774
      ],
      [
        "▁uye",
        -8.607398341888997
      ],
      [
        "▁aileler",
        -7.369626967330246
      ],
      [
        "larını",
        -5.707310740390954
      ],
      [
        "lik",
        -4.866178197012406
      ],
      [
        "▁dogu",
        -7.25157591248745
      ],
      [
        "dar",
        -8.898133881054466
      ],
      [
        "ki",
        -6.163275855025009
      ],
      [
        "za",
        -7.74459105300923
      ],
      [
        "egi",
        -6.7349244106122175
      ],
      [
        "n",
        -5.745614067840431
      ],
      [
        "▁sonuc",
        -8.265980780666341
      ],
      [
        "turlu",
        -6.717949319626796
      ],
      [
        "▁eden",
        -7.458773784158193
      ],
      [
        "▁sahi",
        -9.041626564248634
      ],
      [
        "ul",
        -7.724151458039568
      ],
      [
        "▁saldırı",
        -9.133832217773474
      ],
      [
        "▁derin",
        -6.915514199379652
      ],
      [
        "o",
        -7.86482220142318
      ],
      [
        "▁am",
        -9.172350447405933
      ],
      [
        "etli",
        -7.941603451585964
      ],
      [
        "▁niyet",
        -8.857873102557397
      ],
      [
        "▁gelmisti",
        -8.102380099240872
      ],
      [
        "▁da",
        -3.8220161579732874
      ],
      [
        "▁kararı",
        -8.427773930696665
      ],
      [
        "▁beni",
        -4.178270586993837
      ],
      [
        "▁kucuktu",
        -6.894144608050934
      ],
      [
        "likle",
        -4.864519917768543
      ],
      [
        "▁gen",
        -8.857819113147354
      ],
      [
        "▁butce",
        -8.699954479215332
      ],
      [
        "▁agustos'ta",
        -7.1304178910254
      ],
      [
        "▁hizmet",
        -6.071682423280232
      ],
      [
        "'a",
        -4.911625731201662
      ],
      [
        "▁ge",
        -8.062797351818144
      ],
      [
        "cısı",
        -9.184441425369188
      ],
      [
        "iz",
        -5.780786808737579
      ],
      [
        "▁fiyatlar",
        -8.383214391304797
      ],
      [
        "▁almıs",
        -7.895971011806779
      ],
      [
        "uz",
        -7.57519734604935
      ],
      [
        "▁sezon",
        -9.062383351642804
      ],
      [
        "▁terk",
        -8.925479396283999
      ],
      [
        "ık",
        -7.649392049490636
      ],
      [
        "sinin",
        -7.2549414503846075
      ],
      [
        "▁yana",
        -8.105534684202944
      ],
      [
        "▁sent",
        -8.411290079545218
      ],
      [
        "▁ton",
        -8.910996998225183
      ],
      [
        "▁hatıra",
        -9.08888890734789
      ],
      [
        "▁gerek",
        -8.390566962961787
      ],
      [
        "mekte",
        -7.881639351950346
      ],
      [
        "os",
        -8.534661803047825
      ],
      [
        "▁butu",
        -6.262157153689966
      ],
      [
        "▁aldı",
        -6.002072530117038
      ],
      [
        "▁tası",
        -8.93250373004894
      ],
      [
        "▁biri",
        -8.099877466714455
      ],
      [
        "▁cocuklu",
        -6.314130727350257
      ],
      [
        "▁milli",
        -6.881432315056266
      ],
      [
        "bi",
        -7.811665918709554
      ],
      [
        "▁st",
        -5.766618818790404
      ],
      [
        "▁mustafa",
        -6.791076982860259
      ],
      [
        "▁babası",
        -8.585737984083444
      ],
      [
        "▁say",
        -9.239905791714065
      ],
      [
        "▁ver",
        -7.429340936125383
      ],
      [
        "▁gunu",
        -6.386325631530474
      ],
      [
        "▁kurul",
        -9.161338155349183
      ],
      [
        "▁tamam",
        -8.837054819759194
      ],
      [
        "de",
        -5.956809009026433
      ],
      [
        "▁analist",
        -9.27747561469777
      ],
      [
        "▁la",
        -7.875123900253623
      ],
      [
        ".",
        -1.1587881497080552
      ],
      [
        "erek",
        -6.478187650069533
      ],
      [
        "▁devralma",
        -9.210749609254675
      ],
      [
        "m",
        -6.995862214619031
      ],
      [
        "▁artırma",
        -9.158907289596371
      ],
      [
        "▁2",
        -8.539880603223224
      ],
      [
        "▁isletme",
        -7.971452508922108
      ],
      [
        "▁bey",
        -6.191657274360547
      ],
      [
        "▁l",
        -8.210971820502298
      ],
      [
        "▁ki",
        -1.7493755316426949
      ],
      [
        "▁alı",
        -7.238867173783138
      ],
      [
        "▁seklin",
        -8.87513507591423
      ],
      [
        "▁usta",
        -8.880082466586032
      ],
      [
        "▁farklı",
        -6.672202960391765
      ],
      [
        "tik",
        -8.101488020118623
      ],
      [
        "▁alısveris",
        -8.783321678300645
      ],
      [
        "m",
        -5.873443252499982
      ],
      [
        "il",
        -7.4285698011536105
      ],
      [
        "4",
        -4.477827337596428
      ],
      [
        "▁buluna",
        -7.6183772988797305
      ],
      [
        "d",
        -4.831539974861214
      ],
      [
        "▁cocugun",
        -8.890360973708741
      ],
      [
        "▁parasını",
        -9.097808276294653
      ],
      [
        "▁neler",
        -6.766985399399278
      ],
      [
        "ah",
        -10.102976726532598
      ],
      [
        "tı",
        -6.219190472415151
      ],
      [
        "▁genis",
        -6.390623316225844
      ],
      [
        "▁getiri",
        -8.112961287462271
      ],
      [
        "t",
        -5.970918673445824
      ],
      [
        "1",
        -8.619252375660643
      ],
      [
        "▁yol",
        -6.7559456763970065
      ],
      [
        "▁hu",
        -8.545835297934385
      ],
      [
        "▁cesit",
        -6.548089751462578
      ],
      [
        "le",
        -7.537562669215321
      ],
      [
        "▁ca",
        -8.064137103002135
      ],
      [
        "▁fazla",
        -5.6164715170281285
      ],
      [
        "cık",
        -8.447918136619485
      ],
      [
        "elim",
        -7.397197964383144
      ],
      [
        "▁ileri",
        -8.961572978147919
      ],
      [
        "▁goturdu",
        -8.070715740152039
      ],
      [
        "▁komisyonlar",
        -9.285042121196643
      ],
      [
        "▁vakti",
        -8.749137172828377
      ],
      [
        "▁anket",
        -7.9042904445470645
      ],
      [
        "▁s",
        -7.344930797795903
      ],
      [
        "▁merkezin",
        -8.600576007573391
      ],
      [
        "▁yavru",
        -9.0855921804185
      ],
      [
        "▁bacak",
        -9.135354618318635
      ],
      [
        "iyet",
        -8.030409272904247
      ],
      [
        "s",
        -4.747466569578413
      ],
      [
        "▁ucusu",
        -7.0541538316959
      ],
      [
        "▁oglu",
        -9.13382480001572
      ],
      [
        "▁er",
        -8.169414204427131
      ],
      [
        "▁agac",
        -8.296327982988116
      ],
      [
        "▁sa",
        -7.533453171507167
      ],
      [
        "▁yatak",
        -8.78523764552094
      ],
      [
        "▁temmuz",
        -9.265563349881607
      ],
      [
        "▁dusme",
        -9.1011428027729
      ],
      [
        "▁lu",
        -6.665428194656309
      ],
      [
        "▁yapmıs",
        -8.092179687870397
      ],
      [
        "ga",
        -6.992695622390459
      ],
      [
        "yan",
        -7.229692074593494
      ],
      [
        "lig",
        -8.1691686715237
      ],
      [
        "▁omru",
        -9.210798960761714
      ],
      [
        "▁ikram",
        -9.294127688293191
      ],
      [
        "ka",
        -4.814930333216153
      ],
      [
        "y",
        -6.35793535769726
      ],
      [
        "t",
        -4.63770091598948
      ],
      [
        "▁yor",
        -7.783824389989787
      ],
      [
        "▁cift",
        -7.316286050378702
      ],
      [
        "▁etmek",
        -7.783772629237743
      ],
      [
        "i",
        -4.497627220629797
      ],
      [
        "▁yetkilileri",
        -8.28543967364623
      ],
      [
        "kca",
        -6.111250826125482
      ],
      [
        "▁ce",
        -7.994363556483249
      ],
      [
        "▁13",
        -6.181566688398236
      ],
      [
        "▁yanı",
        -8.188237653188077
      ],
      [
        "▁kendi",
        -3.6923164518459464
      ],
      [
        "▁toplantı",
        -8.326142672340858
      ],
      [
        "▁taraf",
        -8.000227355650443
      ],
      [
        "▁mi",
        -3.4668702953631687
      ],
      [
        "▁koy",
        -7.809666880569189
      ],
      [
        "▁gozunu",
        -9.202732486948053
      ],
      [
        "▁cincinnati'de",
        -7.52464228509177
      ],
      [
        "▁indirim",
        -9.039623084291172
      ],
      [
        "▁tezgah",
        -8.684068912316118
      ],
      [
        "▁adi",
        -7.605460096006958
      ],
      [
        "▁git",
        -7.190858593130086
      ],
      [
        "▁dolu",
        -6.890848667969417
      ],
      [
        "▁anlama",
        -8.536668339387866
      ],
      [
        "ı",
        -6.060610007727377
      ],
      [
        "▁yıl",
        -6.255535948261343
      ],
      [
        "mde",
        -8.479789624774064
      ],
      [
        "▁bugun",
        -5.851725009106645
      ],
      [
        "yıp",
        -6.838689337787059
      ],
      [
        "▁beri",
        -7.337470521257895
      ],
      [
        "▁`",
        -10.557597422589598
      ],
      [
        "▁on",
        -7.27312212383284
      ],
      [
        "tma",
        -8.222326810981976
      ],
      [
        "▁anlattı",
        -7.673383799591574
      ],
      [
        "nı",
        -6.710902618572602
      ],
      [
        "dan",
        -5.217806143684038
      ],
      [
        "▁kulak",
        -8.580754324052668
      ],
      [
        "lı",
        -7.171771498975273
      ],
      [
        "▁kor",
        -8.61770112132959
      ],
      [
        "mayı",
        -7.344291672410745
      ],
      [
        "▁japon",
        -7.597509065116794
      ],
      [
        "u",
        -4.295690201514403
      ],
      [
        "▁eve",
        -8.025529325030496
      ],
      [
        "▁tası",
        -8.060932185527967
      ],
      [
        "▁lutfe",
        -5.273672835575321
      ],
      [
        "▁kimi",
        -5.800937397148719
      ],
      [
        "▁yap",
        -6.782553246846852
      ],
      [
        "iyle",
        -7.379445657613217
      ],
      [
        "▁a",
        -7.219965941963332
      ],
      [
        "eyim",
        -7.678473325730465
      ],
      [
        "▁asker",
        -8.139723555661249
      ],
      [
        "li",
        -7.324711775814479
      ],
      [
        "▁",
        -1.722964280954951
      ],
      [
        "▁yasamadi",
        -7.979538720728433
      ],
      [
        "▁gezi",
        -9.01778224351924
      ],
      [
        "▁corba",
        -8.699972484994362
      ],
      [
        "▁sinema",
        -9.04109762030821
      ],
      [
        "▁pazar",
        -7.5208177799041485
      ],
      [
        "▁san",
        -6.097867166250172
      ],
      [
        "▁bina",
        -8.340845901065887
      ],
      [
        "▁ikisi",
        -8.90801684654011
      ],
      [
        "▁saka",
        -8.804596605610993
      ],
      [
        "▁personellerin",
        -8.789055907984848
      ],
      [
        "▁10",
        -4.109372079715847
      ],
      [
        "▁koruma",
        -8.988260463018293
      ],
      [
        "me",
        -5.237865941647582
      ],
      [
        "on",
        -7.30068588416332
      ],
      [
        "▁rehberimiz",
        -9.211911054849484
      ],
      [
        "▁gir",
        -7.723323105834944
      ],
      [
        "ciler",
        -8.080741300946546
      ],
      [
        "▁kavga",
        -8.914346802786797
      ],
      [
        "▁din",
        -7.8470006875294285
      ],
      [
        "▁bulma",
        -8.412327871977615
      ],
      [
        "▁y",
        -7.76655382528825
      ],
      [
        "▁mutl",
        -7.186288115784883
      ],
      [
        "▁uy",
        -8.275846936832863
      ],
      [
        "▁kendin",
        -6.061141479550905
      ],
      [
        "▁sesi",
        -8.268319896631855
      ],
      [
        "n",
        -5.575916566983608
      ],
      [
        "▁h",
        -6.614432653222827
      ],
      [
        "▁sonucu",
        -8.765607258519017
      ],
      [
        "oglu",
        -7.054570117851671
      ],
      [
        "▁gosterge",
        -9.238060240613528
      ],
      [
        "▁havayolları",
        -7.47912357976236
      ],
      [
        "▁devlet",
        -7.47680539229308
      ],
      [
        "▁sen",
        -4.319077519014068
      ],
      [
        "la",
        -6.888501391301384
      ],
      [
        "▁elinde",
        -7.596396381410533
      ],
      [
        "▁bahar",
        -9.159373340377176
      ],
      [
        "ine",
        -6.049563716949283
      ],
      [
        "ınız",
        -9.087629797045327
      ],
      [
        "▁zafer",
        -9.26555364668236
      ],
      [
        "▁b",
        -7.750653512732932
      ],
      [
        "▁co",
        -7.299272965955133
      ],
      [
        "▁edile",
        -6.715375668639947
      ],
      [
        "▁cin",
        -7.228850387160251
      ],
      [
        "ksiyon",
        -9.088675854786501
      ],
      [
        "▁yaklası",
        -6.011748996053887
      ],
      [
        "▁cay",
        -8.422484427262816
      ],
      [
        "▁demis",
        -8.002527127695814
      ],
      [
        "▁i",
        -10.719126777139204
      ],
      [
        "▁eli",
        -8.440624593069595
      ],
      [
        "abı",
        -8.509677880361348
      ],
      [
        "▁ifade",
        -7.6066869482229675
      ],
      [
        "iyor",
        -6.144043743031416
      ],
      [
        "el",
        -6.2895218635936505
      ],
      [
        "v",
        -14.014858445102625
      ],
      [
        "h",
        -6.286180941560249
      ],
      [
        "▁edildi",
        -7.138390582234377
      ],
      [
        "5",
        -4.1197129008691356
      ],
      [
        "25",
        -6.232172715619792
      ],
      [
        "te",
        -6.916883204630375
      ],
      [
        "▁gemi",
        -8.061384611622753
      ],
      [
        "▁bakıyor",
        -7.6522711076711545
      ],
      [
        "▁fer",
        -9.190351058698052
      ],
      [
        "▁endise",
        -8.551525593210915
      ],
      [
        "sın",
        -6.317591010097858
      ],
      [
        "▁omuz",
        -9.06590787112773
      ],
      [
        "▁etmisti",
        -7.888160327619882
      ],
      [
        "▁gu",
        -8.515050676381094
      ],
      [
        "▁once",
        -4.36331637109668
      ],
      [
        "▁inanc",
        -9.234973488437857
      ],
      [
        "▁lider",
        -8.862049597846612
      ],
      [
        "▁yasa",
        -7.89783488601957
      ],
      [
        "▁once",
        -6.462100414457955
      ],
      [
        "▁kalbi",
        -8.83980161297753
      ],
      [
        "▁baskan",
        -7.535966489800675
      ],
      [
        "▁cep",
        -8.880934783202896
      ],
      [
        "▁izin",
        -8.214335941634506
      ],
      [
        "▁epey",
        -7.231327411727682
      ],
      [
        "mus",
        -5.962186219204601
      ],
      [
        "▁ellerinde",
        -8.939095309159832
      ],
      [
        "▁pasa",
        -9.13698261716613
      ],
      [
        "▁faiz",
        -7.650555241183481
      ],
      [
        "▁git",
        -7.996927158050616
      ],
      [
        "▁baltimore",
        -7.055212171793511
      ],
      [
        "v",
        -7.387732354266288
      ],
      [
        "oz",
        -8.361401755385337
      ],
      [
        "▁tahvilleri",
        -8.686796253456492
      ],
      [
        "ız",
        -7.869825429200022
      ],
      [
        "▁bak",
        -6.543143194421092
      ],
      [
        "▁universite",
        -8.265571649333655
      ],
      [
        "▁asırı",
        -7.302981888880951
      ],
      [
        "enler",
        -8.3800947992044
      ],
      [
        "▁seviye",
        -8.73932064363613
      ],
      [
        "▁civarın",
        -8.973154027914003
      ],
      [
        "▁avukatlar",
        -9.290076360776862
      ],
      [
        "msal",
        -6.949099742190111
      ],
      [
        "▁hastalıgı",
        -9.143682261080059
      ],
      [
        "▁asagı",
        -9.025879879562671
      ],
      [
        "▁fark",
        -8.00511627382875
      ],
      [
        "▁kavram",
        -9.017966594200281
      ],
      [
        "▁sınıfı",
        -8.333678580354036
      ],
      [
        "▁o",
        -7.333281361165728
      ],
      [
        "ev",
        -11.802702672349788
      ],
      [
        "▁konuda",
        -8.568080726202886
      ],
      [
        "▁olmak",
        -7.689329724089978
      ],
      [
        "t",
        -5.498942757749235
      ],
      [
        "▁kira",
        -8.87294194892423
      ],
      [
        "▁olcu",
        -8.617990357721734
      ],
      [
        "▁sonrasın",
        -9.122403319718018
      ],
      [
        "▁eyalet",
        -8.766081029022734
      ],
      [
        "▁",
        -1.3922668288882338
      ],
      [
        "ması",
        -7.70062480546779
      ],
      [
        "▁bahce",
        -7.8280295936852164
      ],
      [
        "▁alır",
        -7.3049520385459825
      ],
      [
        "m",
        -5.082265988425475
      ],
      [
        "▁esya",
        -8.3287867542646
      ],
      [
        "▁yuru",
        -7.795307954809513
      ],
      [
        "▁icin",
        -5.611889001906072
      ],
      [
        "▁inan",
        -7.553234379648894
      ],
      [
        "▁sanat",
        -7.859077525108997
      ],
      [
        "▁teknoloji",
        -8.41026937332661
      ],
      [
        "▁dur",
        -9.111472022848497
      ],
      [
        "▁tu",
        -3.938386220041247
      ],
      [
        "z",
        -5.141607459896133
      ],
      [
        "d",
        -2.461972935010672
      ],
      [
        "▁ol",
        -6.761876388059695
      ],
      [
        "ken",
        -6.060788260110395
      ],
      [
        "▁oranı",
        -8.443049682938604
      ],
      [
        "ır",
        -6.17815472815648
      ],
      [
        "▁orta",
        -6.966624453192289
      ],
      [
        "▁firs",
        -8.375245250689591
      ],
      [
        "im",
        -6.740811679588673
      ],
      [
        "▁muzakere",
        -9.184432784421611
      ],
      [
        "em",
        -11.24164467511393
      ],
      [
        "▁biri",
        -8.023017065902971
      ],
      [
        "▁etrafı",
        -9.163358738725824
      ],
      [
        "▁dısarıda",
        -9.25568136066655
      ],
      [
        "▁detay",
        -9.237804491029998
      ],
      [
        "▁ses",
        -7.752155795521833
      ],
      [
        "▁goz",
        -7.0150202329835025
      ],
      [
        "▁geliyor",
        -6.385021080408034
      ],
      [
        "▁turkiye",
        -6.205906336432703
      ],
      [
        "inde",
        -6.84941900035476
      ],
      [
        "▁mevcut",
        -8.668443909164484
      ],
      [
        "▁suphe",
        -9.210749878452324
      ],
      [
        "man",
        -7.351716089765118
      ],
      [
        "▁ucuslar",
        -6.356494866111883
      ],
      [
        "▁otel",
        -6.622368130732603
      ],
      [
        "▁kalmıs",
        -7.98930061934699
      ],
      [
        "i",
        -4.732976630052781
      ],
      [
        "▁adamın",
        -8.757063545815678
      ],
      [
        "▁genel",
        -5.426067388594888
      ],
      [
        "▁beraber",
        -6.830449956414693
      ],
      [
        "er",
        -5.655137482651881
      ],
      [
        "▁uc",
        -7.615544494796797
      ],
      [
        "▁yeni",
        -8.717076329160431
      ],
      [
        "▁akıl",
        -8.87442206750665
      ],
      [
        "▁kampanya",
        -9.154104180391652
      ],
      [
        "▁guc",
        -7.770527662216843
      ],
      [
        "dir",
        -6.65097430980568
      ],
      [
        "▁sırada",
        -8.459219123407735
      ],
      [
        "▁seni",
        -5.079941773321164
      ],
      [
        "▁dun",
        -7.8304750967130925
      ],
      [
        "nin",
        -6.246139660201711
      ],
      [
        "▁kir",
        -7.895289163414693
      ],
      [
        "▁bilme",
        -8.629309475141248
      ],
      [
        "en",
        -5.647916873321358
      ],
      [
        "▁uzerinde",
        -7.331496302726933
      ],
      [
        "▁kolay",
        -6.783379381522581
      ],
      [
        "▁hari",
        -7.328087744680283
      ],
      [
        "ba",
        -7.533499976206271
      ],
      [
        "▁tablo",
        -9.210748604836454
      ],
      [
        "▁gelmedi",
        -7.951684112083364
      ],
      [
        "▁simdi",
        -8.874314003853316
      ],
      [
        "▁karısı",
        -8.624253047491216
      ],
      [
        "▁yapan",
        -8.084981832738222
      ],
      [
        "▁yalnız",
        -5.438889735507823
      ],
      [
        "un",
        -5.755775350433605
      ],
      [
        "yin",
        -7.774329583133746
      ],
      [
        "▁insanın",
        -8.188735052740972
      ],
      [
        "▁yaptıgı",
        -7.795755109608496
      ],
      [
        "lerin",
        -5.707843220726737
      ],
      [
        "▁kosullar",
        -9.279926245917807
      ],
      [
        "ı",
        -6.29015103576089
      ],
      [
        "▁kapa",
        -6.905885318100341
      ],
      [
        "ır",
        -7.484614449917035
      ],
      [
        "▁sa",
        -8.491485078566392
      ],
      [
        "▁turk",
        -6.290660515108477
      ],
      [
        "▁dogum",
        -9.245881964703484
      ],
      [
        "▁hale",
        -8.01677737410305
      ],
      [
        "▁taraf",
        -5.733464205858842
      ],
      [
        "maz",
        -7.561133468680387
      ],
      [
        "▁icin",
        -2.121748868097354
      ],
      [
        "tu",
        -7.344764118056694
      ],
      [
        "ya",
        -3.9445221214366635
      ],
      [
        "▁doku",
        -8.939675690947595
      ],
      [
        "▁sordu",
        -7.266541797794853
      ],
      [
        "▁tekrar",
        -5.767848238720847
      ],
      [
        "▁pilot",
        -8.668445408882885
      ],
      [
        "c",
        -4.279370353650242
      ],
      [
        "den",
        -4.636461324944689
      ],
      [
        "▁lira",
        -8.05185321451437
      ],
      [
        "▁ag",
        -8.75704493193146
      ],
      [
        "▁fil",
        -8.976824843978608
      ],
      [
        "ber",
        -6.673340093541525
      ],
      [
        "▁kopru",
        -8.836909175585768
      ],
      [
        "g",
        -3.2365275863870604
      ],
      [
        "▁don",
        -7.469114158362452
      ],
      [
        "▁tabak",
        -9.133873003259662
      ],
      [
        "u",
        -12.802702672349787
      ],
      [
        "▁tam",
        -6.148869347248457
      ],
      [
        "1",
        -4.618758539404044
      ],
      [
        "ıp",
        -6.25876414179405
      ],
      [
        "acagı",
        -7.5790746947013234
      ],
      [
        "▁rakip",
        -9.265553761921598
      ],
      [
        "▁kazanc",
        -7.968953080490237
      ],
      [
        "▁genel",
        -6.384596635128069
      ],
      [
        "ında",
        -6.872893455920028
      ],
      [
        "tır",
        -6.376500413518691
      ],
      [
        "▁merkez",
        -7.5478547937971845
      ],
      [
        "h",
        -6.957033578087399
      ],
      [
        "▁listesini",
        -9.065662281251212
      ],
      [
        "▁ulasılama",
        -8.029357520758534
      ],
      [
        "▁10'da",
        -9.039832816355691
      ],
      [
        "▁olacak",
        -7.742659423655229
      ],
      [
        "▁sonu",
        -5.939231458545545
      ],
      [
        "erhal",
        -6.774381132419854
      ],
      [
        "▁dunyada",
        -8.803791541985877
      ],
      [
        "makta",
        -7.345754464848871
      ],
      [
        "▁cıkmıs",
        -7.782554533359185
      ],
      [
        "lar",
        -7.82957019640935
      ],
      [
        "▁verim",
        -8.607822057907137
      ],
      [
        "▁eskiy",
        -7.310315848648845
      ],
      [
        "▁ayrılı",
        -7.428865757157178
      ],
      [
        "▁gunah",
        -9.167884300883571
      ],
      [
        "▁at",
        -7.2943490731859235
      ],
      [
        "▁fikri",
        -8.74914002288116
      ],
      [
        "'ni",
        -8.823781893772818
      ],
      [
        "▁ilgi",
        -7.462134112909515
      ],
      [
        "▁calısan",
        -7.885002160875034
      ],
      [
        "n",
        -3.2265408825251303
      ],
      [
        "▁yapmaya",
        -9.105822414043931
      ],
      [
        "▁yapıl",
        -8.025125184558425
      ],
      [
        "um",
        -7.856672001906384
      ],
      [
        "▁ulus",
        -7.084374921034155
      ],
      [
        "birli",
        -7.476480969195897
      ],
      [
        "lardı",
        -6.075158577085654
      ],
      [
        "▁olmaya",
        -9.101696348222626
      ],
      [
        "▁potansiyel",
        -9.210748574717956
      ],
      [
        "▁mezar",
        -9.09304905153065
      ],
      [
        "▁kullan",
        -7.577518783158073
      ],
      [
        "tıg",
        -9.090232837193014
      ],
      [
        "▁yuk",
        -8.342007429441512
      ],
      [
        "meyecek",
        -7.879904132316533
      ],
      [
        "ki",
        -7.374134809775946
      ],
      [
        "▁arta",
        -7.700972469536119
      ],
      [
        "▁hacmi",
        -8.487353283681596
      ],
      [
        "do",
        -8.702041847669687
      ],
      [
        "▁ilac",
        -8.205627064438048
      ],
      [
        "▁onun",
        -3.672885360996781
      ],
      [
        "sı",
        -7.564398924190956
      ],
      [
        "▁az",
        -6.228579455277073
      ],
      [
        "▁arada",
        -7.993075594990381
      ],
      [
        "▁degerlendirir",
        -8.056085541481627
      ],
      [
        "ıkca",
        -7.569260549122383
      ],
      [
        "ver",
        -8.51291873961286
      ],
      [
        "▁etme",
        -7.854001394033202
      ],
      [
        "sız",
        -9.210903841713929
      ],
      [
        "▁kalktı",
        -7.886009822571879
      ],
      [
        "▁kosulları",
        -8.884008805767216
      ],
      [
        "yle",
        -6.687487082009293
      ],
      [
        "▁ilgilendi",
        -5.974221286990928
      ],
      [
        "▁girer",
        -8.08580220197018
      ],
      [
        "▁odalari",
        -8.74331948037658
      ],
      [
        "▁adı",
        -8.046364198007078
      ],
      [
        "▁uzere",
        -5.048386226996949
      ],
      [
        "in",
        -5.215628805993766
      ],
      [
        "gı",
        -6.782836205683127
      ],
      [
        "▁yirmi",
        -5.481367957249344
      ],
      [
        "▁kon",
        -8.183048400573213
      ],
      [
        "h",
        -7.852661068051526
      ],
      [
        "leri",
        -4.9355083543253935
      ],
      [
        "mak",
        -6.577628642714442
      ],
      [
        "▁de",
        -7.361042235989005
      ],
      [
        "▁duz",
        -9.07021493067467
      ],
      [
        "▁yarısı",
        -9.084894061056279
      ],
      [
        "▁ayrı",
        -6.956422087289287
      ],
      [
        "l",
        -11.802702672349783
      ],
      [
        "f",
        -6.667588372805844
      ],
      [
        "▁halkın",
        -9.183263264632577
      ],
      [
        "▁misin",
        -4.5273534770033566
      ],
      [
        "▁dilim",
        -9.159717604418727
      ],
      [
        "ku",
        -6.584838249141784
      ],
      [
        "▁de",
        -2.1420817504035963
      ],
      [
        "▁kat",
        -7.576448565158112
      ],
      [
        "▁tutun",
        -8.956981770393622
      ],
      [
        "tim",
        -9.216208916835878
      ],
      [
        "▁evde",
        -8.0770392836953
      ],
      [
        "▁bin",
        -4.672987243887961
      ],
      [
        "▁cin",
        -9.161046873208308
      ],
      [
        "se",
        -6.764883317301188
      ],
      [
        "imle",
        -6.45089307209828
      ],
      [
        "▁nakit",
        -8.749154776807558
      ],
      [
        "▁ayır",
        -7.778536024236658
      ],
      [
        "lerde",
        -7.596051023432997
      ],
      [
        "tar",
        -8.63561850304078
      ],
      [
        "▁uzun",
        -5.543953467048654
      ],
      [
        "um",
        -7.115616408515032
      ],
      [
        "▁barıs",
        -9.111732999283493
      ],
      [
        "▁mev",
        -6.718102217582475
      ],
      [
        "▁sol",
        -8.333792728192737
      ],
      [
        "▁irak",
        -7.164062279679685
      ],
      [
        "lemeye",
        -9.174259126096127
      ],
      [
        "▁kampanyalar",
        -9.02273938561368
      ],
      [
        "▁ları",
        -7.663888550713381
      ],
      [
        "tif",
        -8.463309440413283
      ],
      [
        "▁ilk",
        -5.410354367585089
      ],
      [
        "lıkta",
        -8.357058629980248
      ],
      [
        "ma",
        -6.108077271086794
      ],
      [
        "▁kotuy",
        -6.60561887171558
      ],
      [
        "n",
        -3.6280928810905246
      ],
      [
        "lama",
        -7.3833637299530706
      ],
      [
        "▁da",
        -6.4410868306485405
      ],
      [
        "dizli",
        -7.581028338938804
      ],
      [
        "l",
        -6.528768719985566
      ],
      [
        "▁ek",
        -7.435711031827421
      ],
      [
        "▁keskin",
        -7.6564117203846145
      ],
      [
        "sa",
        -7.160680658657613
      ],
      [
        "▁konumu",
        -6.633105556090941
      ],
      [
        "de",
        -5.3119117464301135
      ],
      [
        "▁devam",
        -7.062153173456201
      ],
      [
        "▁yakın",
        -8.623037748176728
      ],
      [
        "▁listele",
        -6.391265677579597
      ],
      [
        "▁perde",
        -8.582512824827326
      ],
      [
        "▁biri",
        -4.3695795693712105
      ],
      [
        "▁evlerin",
        -9.199453813382572
      ],
      [
        "▁amacı",
        -9.059178680588767
      ],
      [
        "▁cocukları",
        -8.738952316531147
      ],
      [
        "inizi",
        -9.281791294497124
      ],
      [
        "▁alın",
        -9.109537906635245
      ],
      [
        "▁yılı",
        -8.627485732605695
      ],
      [
        "▁gecer",
        -7.885843349113296
      ],
      [
        "▁fiyat",
        -6.61070342285689
      ],
      [
        "▁kalka",
        -5.871008752191808
      ],
      [
        "icin",
        -5.8969885216171365
      ],
      [
        "▁aynı",
        -5.639034292821123
      ],
      [
        "▁misafir",
        -8.340342401888913
      ],
      [
        "▁seri",
        -8.61291258238527
      ],
      [
        "▁ra",
        -6.318499422728735
      ],
      [
        "▁cop",
        -9.187476861219697
      ],
      [
        "▁baslar",
        -8.126756897964636
      ],
      [
        "▁almak",
        -7.6951945616006805
      ],
      [
        "▁cozum",
        -8.749161141563677
      ],
      [
        "umu",
        -8.527436914689929
      ],
      [
        "▁oakland'da",
        -6.9603477511028204
      ],
      [
        "ini",
        -6.190612021855556
      ],
      [
        "▁elleri",
        -8.545256920295468
      ],
      [
        "▁basını",
        -8.258267193019861
      ],
      [
        "▁ba",
        -3.487307104758374
      ],
      [
        "▁kral",
        -8.894237239812032
      ],
      [
        "▁hazine",
        -8.276559903779194
      ],
      [
        "'in",
        -4.753110462176871
      ],
      [
        "ce",
        -6.800953309987891
      ],
      [
        "ikti",
        -7.669503639374806
      ],
      [
        "▁misafirimiz",
        -8.43509539450272
      ],
      [
        "▁dis",
        -8.141637654345313
      ],
      [
        "▁kendisini",
        -5.346153125872469
      ],
      [
        "▁ve",
        -8.709763398517566
      ],
      [
        "um",
        -7.390982499019929
      ],
      [
        "ne",
        -8.86858130504411
      ],
      [
        "▁bu",
        -7.798562956557148
      ],
      [
        "▁cumartesi",
        -7.848091800957634
      ],
      [
        "▁yukseldi",
        -6.236371526360394
      ],
      [
        "▁bag",
        -6.938669487535157
      ],
      [
        "y",
        -6.016951674088136
      ],
      [
        "▁sec",
        -9.182176610237825
      ],
      [
        "▁philadelphia",
        -6.857279133527717
      ],
      [
        "▁deneme",
        -8.836958739599474
      ],
      [
        "▁milyar",
        -3.833066983694204
      ],
      [
        "▁verdi",
        -6.233296187174913
      ],
      [
        "▁kal",
        -7.293624176935177
      ],
      [
        "▁suyun",
        -9.261729461689125
      ],
      [
        "▁bil",
        -8.747672660345632
      ],
      [
        "den",
        -5.765485517110782
      ],
      [
        "▁muhte",
        -7.12216206327711
      ],
      [
        "lamaya",
        -9.072268912314314
      ],
      [
        "▁mes",
        -7.820418235783702
      ],
      [
        "▁1989",
        -5.896581170332743
      ],
      [
        "▁hakim",
        -8.987520347213144
      ],
      [
        "▁demek",
        -9.020925765712667
      ],
      [
        "nız",
        -7.630489356036614
      ],
      [
        "▁mal",
        -7.737986657103645
      ],
      [
        "▁insan",
        -6.862263832955891
      ],
      [
        "bası",
        -8.799278101600494
      ],
      [
        "▁dusunmuyor",
        -7.991815649131459
      ],
      [
        "▁seyi",
        -8.096808847356328
      ],
      [
        "▁ay",
        -7.579718843763759
      ],
      [
        "▁ada",
        -9.099864902384759
      ],
      [
        "▁gid",
        -7.611832682912434
      ],
      [
        "de",
        -5.846327743756247
      ],
      [
        "▁kisiler",
        -8.929455178860358
      ],
      [
        "▁yerini",
        -8.713919929322206
      ],
      [
        "▁sanatcı",
        -9.099549655406939
      ],
      [
        "▁birden",
        -5.965201419918159
      ],
      [
        "ik",
        -7.533238197415391
      ],
      [
        "▁yabancı",
        -6.768015599588232
      ],
      [
        "\"",
        -3.8868225721526475
      ],
      [
        "▁finans",
        -7.785608098361208
      ],
      [
        "▁yakında",
        -7.032897940633355
      ],
      [
        "▁degeri",
        -8.943663248258368
      ],
      [
        "▁eski",
        -5.743149156840834
      ],
      [
        "▁kaldi",
        -5.312955628962697
      ],
      [
        "ımızda",
        -9.182448287531633
      ],
      [
        "▁bulunuyor",
        -7.8053680244053245
      ],
      [
        "▁o",
        -7.153300629920321
      ],
      [
        "▁isti",
        -8.27823488638959
      ],
      [
        "▁verdigi",
        -7.9448733685188415
      ],
      [
        "▁hayatta",
        -9.157709245751938
      ],
      [
        "▁cıkıyor",
        -7.668218371157288
      ],
      [
        "il",
        -7.3927092007068795
      ],
      [
        "▁seyahat",
        -8.265578217177891
      ],
      [
        "uz",
        -5.845518768715537
      ],
      [
        "▁oncesi",
        -9.162022410540594
      ],
      [
        "▁ac",
        -7.530147952764761
      ],
      [
        "▁esi",
        -8.99266015017786
      ],
      [
        "uz",
        -5.382296718853555
      ],
      [
        "▁yapılan",
        -6.930759230668282
      ],
      [
        "▁g",
        -5.746819020120408
      ],
      [
        "▁donus",
        -7.078200277547076
      ],
      [
        "▁yuz",
        -7.670978609104915
      ],
      [
        "▁caba",
        -8.245535876940103
      ],
      [
        "▁500",
        -6.435639842843321
      ],
      [
        "umuz",
        -8.472502678846805
      ],
      [
        "..",
        -11.199619583058196
      ],
      [
        "▁soyledi",
        -5.125086709333979
      ],
      [
        "na",
        -4.888725468870101
      ],
      [
        "▁hak",
        -7.809851956941869
      ],
      [
        "▁bulundu",
        -7.433411646634533
      ],
      [
        "a",
        -6.2690303675714745
      ],
      [
        "▁televizyon",
        -8.537826013257831
      ],
      [
        "▁ailesi",
        -8.915922646153582
      ],
      [
        "cu",
        -6.2788825163436455
      ],
      [
        "▁bile",
        -4.691592204789792
      ],
      [
        "▁li",
        -5.934253238643644
      ],
      [
        "▁gun",
        -7.0374417936092035
      ],
      [
        "zat",
        -7.044131657787526
      ],
      [
        "acak",
        -6.679942277935106
      ],
      [
        "suna",
        -9.163032227675831
      ],
      [
        "▁aylık",
        -8.39762086251526
      ],
      [
        "▁milwaukee'",
        -7.0194406602758725
      ],
      [
        "▁miami'de",
        -7.424221993532768
      ],
      [
        "▁bakım",
        -8.61379327552558
      ],
      [
        "▁kalkı",
[...]
