{
  "version": "1.0",
  "truncation": null,
  "padding": null,
  "added_tokens": [
    {
      "id": 2814,
      "content": "[CLS]",
      "single_word": false,
      "lstrip": false,
      "rstrip": false,
      "normalized": false,
      "special": true
    },
    {
      "id": 5432,
      "content": "[MASK]",
      "single_word": false,
      "lstrip": false,
      "rstrip": false,
      "normalized": false,
      "special": true
    },
    {
      "id": 11058,
      "content": "[PAD]",
      "single_word": false,
      "lstrip": false,
      "rstrip": false,
      "normalized": false,
      "special": true
    },
    {
      "id": 11892,
      "content": "[UNK]",
      "single_word": false,
      "lstrip": false,
      "rstrip": false,
      "normalized": false,
      "special": true
    },
    {
      "id": 15801,
      "content": "[SEP]",
      "single_word": false,
      "lstrip": false,
      "rstrip": false,
      "normalized": false,
      "special": true
    }
  ],
  "normalizer": {
    "type": "Sequence",
    "normalizers": [
      {
        "type": "NFD"
      },
      {
        "type": "Lowercase"
      },
      {
        "type": "StripAccents"
      }
    ]
  },
  "pre_tokenizer": {
    "type": "Sequence",
    "pretokenizers": [
      {
        "type": "Metaspace",
        "replacement": "▁",
        "prepend_scheme": "always",
        "split": true
      }
    ]
  },
  "post_processor": {
    "type": "TemplateProcessing",
    "single": [
      {
        "SpecialToken": {
          "id": "[CLS]",
          "type_id": 0
        }
      },
      {
        "Sequence": {
          "id": "A",
          "type_id": 0
        }
      },
      {
        "SpecialToken": {
          "id": "[SEP]",
          "type_id": 0
        }
      }
    ],
    "pair": [
      {
        "SpecialToken": {
          "id": "[CLS]",
          "type_id": 0
        }
      },
      {
        "Sequence": {
          "id": "A",
          "type_id": 0
        }
      },
      {
        "SpecialToken": {
          "id": "[SEP]",
          "type_id": 0
        }
      },
      {
        "Sequence": {
          "id": "B",
          "type_id": 1
        }
      },
      {
        "SpecialToken": {
          "id": "[SEP]",
          "type_id": 1
        }
      }
    ],
    "special_tokens": {
      "[CLS]": {
        "id": "[CLS]",
        "ids": [
          2814
        ],
        "tokens": [
          "[CLS]"
        ]
      },
      "[SEP]": {
        "id": "[SEP]",
        "ids": [
          15801
        ],
        "tokens": [
          "[SEP]"
        ]
      }
    }
  },
  "decoder": {
    "type": "Metaspace",
    "replacement": "▁",
    "prepend_scheme": "always",
    "split": true
  },
  "model": {
    "type": "Unigram",
    "unk_id": 11892,
    "vocab": [
      [
        "▁altmıs",
        -7.598803552610944
      ],
      [
        "▁il",
        -9.402567935944099
      ],
      [
        "▁vekili",
        -10.271800308174306
      ],
      [
        "▁sırrı",
        -10.309534368971843
      ],
      [
        "▁gur",
        -8.754298629300687
      ],
      [
        "larınızı",
        -10.248109455684617
      ],
      [
        "▁iliskilerini",
        -10.676267811616889
      ],
      [
        "▁prens",
        -9.95893817711189
      ],
      [
        "▁yanl",
        -9.340415641450768
      ],
      [
        "1.6",
        -8.126581078841074
      ],
      [
        "▁ceki",
        -9.222657755567258
      ],
      [
        "▁hacmi",
        -8.584398732335124
      ],
      [
        "▁yas",
        -7.6627350208943135
      ],
      [
        "▁haberler",
        -9.671669581796243
      ],
      [
        "▁politikacıları",
        -10.994306613187842
      ],
      [
        "▁basarıy",
        -10.413396911880692
      ],
      [
        "▁ruya",
        -9.401454753030267
      ],
      [
        "▁ureticiler",
        -10.105887289883523
      ],
      [
        "u",
        -2.3223596860280313
      ],
      [
        "▁getiriyordu",
        -9.646790379359764
      ],
      [
        "▁suratsiz",
        -9.628254941995362
      ],
      [
        "▁hasan",
        -7.397104490957706
      ],
      [
        "▁ateste",
        -10.168895439164103
      ],
      [
        "▁cok",
        -10.698233120270494
      ],
      [
        "▁boyutu",
        -10.075130437887331
      ],
      [
        "▁akord",
        -11.098764053693774
      ],
      [
        "▁tartısma",
        -9.409543889966727
      ],
      [
        "▁attıgı",
        -9.553434995654252
      ],
      [
        "\\",
        -10.58921907850575
      ],
      [
        "▁5'te",
        -8.575243974917342
      ],
      [
        "▁atlar",
        -9.625055767625472
      ],
      [
        "▁duyuldu",
        -9.60368478755385
      ],
      [
        "▁gobek",
        -10.001942673128411
      ],
      [
        "▁secimlerde",
        -10.415650572278492
      ],
      [
        "muze",
        -10.599468311017265
      ],
      [
        "▁dar",
        -7.483731200604239
      ],
      [
        "ası",
        -8.986487734962022
      ],
      [
        "▁turbe",
        -10.619776518675442
      ],
      [
        "▁sahipligi",
        -10.778521344236726
      ],
      [
        "▁ulas",
        -9.770720876033444
      ],
      [
        "▁sponsor",
        -10.036179494965168
      ],
      [
        "▁zamanlarda",
        -8.586570970579935
      ],
      [
        "▁bolumunde",
        -9.607920840253367
      ],
      [
        "zul",
        -11.068004298132161
      ],
      [
        "yel",
        -8.565582910227288
      ],
      [
        "▁oksuruk",
        -10.353188448061447
      ],
      [
        "▁doldu",
        -9.472010479070406
      ],
      [
        "▁gozluk",
        -10.910281921857468
      ],
      [
        "▁ordek",
        -10.633069767248863
      ],
      [
        "▁sel",
        -8.853564235100038
      ],
      [
        "▁yemegi",
        -8.421876412691432
      ],
      [
        "▁konut",
        -8.787111018095244
      ],
      [
        "▁muharebesi",
        -11.117034641994394
      ],
      [
        "▁savası'nda",
        -11.099388302323941
      ],
      [
        "▁tamamladı",
        -8.585632651707972
      ],
      [
        "▁burbank'",
        -8.02300114871696
      ],
      [
        "4",
        -4.477827337596428
      ],
      [
        "▁olanakları",
        -9.029788760572213
      ],
      [
        "▁bukl",
        -10.25827148941061
      ],
      [
        "▁bur",
        -8.106338960283185
      ],
      [
        "▁siparisini",
        -10.089638584663476
      ],
      [
        "▁suzuldu",
        -9.418360017476493
      ],
      [
        "▁buhar",
        -10.559099460624477
      ],
      [
        "▁yakaladı",
        -9.325516875583574
      ],
      [
        "on",
        -9.32122862388013
      ],
      [
        "▁yuruyusu",
        -11.068520492659179
      ],
      [
        "▁nakliyat",
        -10.898750675634167
      ],
      [
        "▁sin",
        -8.576966242332723
      ],
      [
        "▁analistleri",
        -10.201867355508375
      ],
      [
        "▁isteyen",
        -8.944476463443912
      ],
      [
        "▁agrı",
        -9.66720548202205
      ],
      [
        "▁sagladı",
        -8.561925436062914
      ],
      [
        "▁da",
        -6.4410868306485405
      ],
      [
        "▁az",
        -6.275881960714947
      ],
      [
        "▁rakamlar",
        -9.035043453673476
      ],
      [
        "sınız",
        -7.183895596956233
      ],
      [
        "/3",
        -7.713080270897274
      ],
      [
        "▁tar",
        -9.53857408806624
      ],
      [
        "▁felsefesi",
        -10.886987203995865
      ],
      [
        "os",
        -9.160844541973546
      ],
      [
        "andıra",
        -9.252652066765226
      ],
      [
        "▁kaymakam",
        -9.863941884789364
      ],
      [
        "_",
        -10.816260684484101
      ],
      [
        "an",
        -8.14531003824069
      ],
      [
        "▁nazır",
        -11.09995108918666
      ],
      [
        "▁haldun",
        -9.009375260483925
      ],
      [
        "▁erke",
        -6.3065179484336165
      ],
      [
        "▁sehri",
        -9.21959635640523
      ],
      [
        "ca",
        -7.126501367689933
      ],
      [
        "▁olmaya",
        -8.31770231192389
      ],
      [
        "▁da",
        -9.215057508143701
      ],
      [
        "uzlu",
        -9.247903973257936
      ],
      [
        "▁pap",
        -10.07794902520796
      ],
      [
        "▁merdivenleri",
        -10.171418476582588
      ],
      [
        "▁ozlem",
        -8.70739769770546
      ],
      [
        "▁cocuktu",
        -9.31737394316933
      ],
      [
        "derim",
        -9.685615963943487
      ],
      [
        "▁kırmızı",
        -6.9982941575363355
      ],
      [
        "▁evlat",
        -10.375655120974262
      ],
      [
        "▁kudret",
        -10.253107968873975
      ],
      [
        "▁dr",
        -9.561956996476788
      ],
      [
        "▁sapkası",
        -10.377455575431174
      ],
      [
        "▁verileri",
        -10.407113912681936
      ],
      [
        "nla",
        -6.5872534608028825
      ],
      [
        "▁tıp",
        -10.080164739996746
      ],
      [
        "▁programlar",
        -10.249328406856403
      ],
      [
        "ecegimizi",
        -11.007892903513605
      ],
      [
        "▁baslıyor",
        -7.948286599352066
      ],
      [
        "▁yıldızları",
        -10.483170367831761
      ],
      [
        "▁reform",
        -9.96050632063078
      ],
      [
        "▁dost",
        -8.801407901498695
      ],
      [
        "onun",
        -7.534328467502998
      ],
      [
        "▁194",
        -7.577928613834958
      ],
      [
        "verecegini",
        -10.266895428572763
      ],
      [
        "▁abdul",
        -8.89728557408352
      ],
      [
        "▁gittik",
        -8.107520404990677
      ],
      [
        "▁c",
        -9.5522208269846
      ],
      [
        "▁tuz",
        -8.64609143253566
      ],
      [
        "▁kemiklerin",
        -10.65898579483775
      ],
      [
        "▁hukuk",
        -8.631349520553679
      ],
      [
        "dugunu",
        -9.066551425536813
      ],
      [
        "▁sa",
        -7.533453171507168
      ],
      [
        "mme",
        -8.46388241452652
      ],
      [
        "d",
        -7.542520493800575
      ],
      [
        "▁koyu",
        -8.621327095156678
      ],
      [
        "▁olacak",
        -7.995599387909799
      ],
      [
        "▁paris",
        -8.507724116456162
      ],
      [
        "▁sovyetler",
        -9.406365064503996
      ],
      [
        "tler",
        -10.237158904813688
      ],
      [
        "▁serseri",
        -11.098908965522458
      ],
      [
        "▁isteme",
        -10.841390168660554
      ],
      [
        "!",
        -5.67393291373121
      ],
      [
        "siz",
        -9.867433989931861
      ],
      [
        "▁sistemin",
        -9.859075299244088
      ],
      [
        "▁kisilik",
        -9.077334500289561
      ],
      [
        "▁kazan",
        -8.782007187408357
      ],
      [
        "his",
        -10.664546785170403
      ],
      [
        "▁ihtiyar",
        -7.886401087484883
      ],
      [
        "▁izmir",
        -8.506005638511166
      ],
      [
        "▁1.2",
        -6.76470161824594
      ],
      [
        "▁efendi",
        -8.324733704506215
      ],
      [
        "▁kanunu",
        -9.697611562627767
      ],
      [
        "▁yapmaya",
        -8.911463731043746
      ],
      [
        "kıslı",
        -9.184769027263572
      ],
      [
        "▁yanıyor",
        -8.662798029600603
      ],
      [
        "▁sarsıntı",
        -10.394306434921218
      ],
      [
        "▁kosar",
        -8.941879433227049
      ],
      [
        "▁milyonlarca",
        -10.898774463977347
      ],
      [
        "▁dusmanları",
        -10.115054669693874
      ],
      [
        "▁kravat",
        -10.223750821542154
      ],
      [
        "al",
        -9.685730098494757
      ],
      [
        "▁coktu",
        -8.034051074114092
      ],
      [
        "▁tarihi",
        -8.471746516546451
      ],
      [
        "▁bereket",
        -10.253108902733873
      ],
      [
        "▁kucugu",
        -10.898753206360853
      ],
      [
        "▁ayakların",
        -11.002669061982024
      ],
      [
        "▁cart",
        -9.71618094109101
      ],
      [
        "▁bu",
        -3.2839112180953753
      ],
      [
        "▁elestir",
        -9.471795888852299
      ],
      [
        "ne",
        -8.670205081013911
      ],
      [
        "yal",
        -10.84114043727876
      ],
      [
        "▁plan",
        -8.130376530061246
      ],
      [
        "▁dagların",
        -11.114164795794132
      ],
      [
        "▁yapması",
        -9.219317440632663
      ],
      [
        "▁montreal'",
        -7.525611315602173
      ],
      [
        "ra",
        -4.169188514330974
      ],
      [
        "aya",
        -8.979322155521185
      ],
      [
        "▁ozur",
        -9.801513499884468
      ],
      [
        "▁kirpikleri",
        -10.758950380980679
      ],
      [
        "liydi",
        -6.2322858940315955
      ],
      [
        "▁tık",
        -9.46423621570848
      ],
      [
        "▁sansını",
        -10.173862914607575
      ],
      [
        "▁politikaları",
        -10.782084350494937
      ],
      [
        "▁partileri",
        -10.51958822777114
      ],
      [
        "iyat",
        -10.582943874526103
      ],
      [
        "▁sınavları",
        -10.696344611199631
      ],
      [
        "▁kapanısın",
        -10.247340687470118
      ],
      [
        "▁bahis",
        -10.16908370439566
      ],
      [
        "▁frankfurt",
        -8.913129444910123
      ],
      [
        "▁g",
        -9.078627178562964
      ],
      [
        "▁ford'u",
        -8.798600766707999
      ],
      [
        "lari",
        -9.446459687504937
      ],
      [
        "▁buyume",
        -8.516131148732079
      ],
      [
        "▁bahse",
        -11.0937236060718
      ],
      [
        "▁biriy",
        -9.03666814257558
      ],
      [
        "▁alan",
        -9.032103123125982
      ],
      [
        "▁basvurusu",
        -10.286436427921883
      ],
      [
        "▁kalmadigim",
        -8.593248975650528
      ],
      [
        "ka",
        -8.892146895378989
      ],
      [
        "▁ellerini",
        -8.78090207335095
      ],
      [
        "▁gidi",
        -7.3582983947074405
      ],
      [
        "tugunu",
        -10.774815678542687
      ],
      [
        "▁sehrinde",
        -9.947458020743664
      ],
      [
        "▁mary",
        -8.964997048525591
      ],
      [
        "tin",
        -10.16365116343142
      ],
      [
        "lar",
        -5.938162244444685
      ],
      [
        "▁mevduat",
        -9.093277996895054
      ],
      [
        "▁iliskilerin",
        -10.772926651591932
      ],
      [
        "▁gorusmedi",
        -8.48412283513543
      ],
      [
        "▁kepe",
        -10.73182205086112
      ],
      [
        "iyordu",
        -6.873878530614892
      ],
      [
        "▁cocuklugun",
        -11.090084436425993
      ],
      [
        "▁verme",
        -9.036475533767028
      ],
      [
        "tmeye",
        -10.461695790708898
      ],
      [
        "▁faizleri",
        -10.65249375745046
      ],
      [
        "adı",
        -8.492852809093591
      ],
      [
        "▁isimleri",
        -10.787965216528418
      ],
      [
        "dumdu",
        -9.450253578638947
      ],
      [
        "▁resm",
        -11.051738933113754
      ],
      [
        "▁kalkma",
        -10.254502877707534
      ],
      [
        "▁caddeler",
        -10.953984915378237
      ],
      [
        "rak",
        -10.78390600078836
      ],
      [
        "▁bulan",
        -9.258497622292321
      ],
      [
        "▁tahmininde",
        -10.637247920461608
      ],
      [
        "ca",
        -8.637001862275124
      ],
      [
        "▁merkez",
        -7.881713856678978
      ],
      [
        "▁gitmeli",
        -8.69938289096581
      ],
      [
        "mus",
        -6.151906848605292
      ],
      [
        "efendi",
        -11.093792660497664
      ],
      [
        "karlı",
        -8.704985432091185
      ],
      [
        "▁versiyonu",
        -10.268445857067098
      ],
      [
        "▁gecikme",
        -9.428434569866907
      ],
      [
        "▁iyimserlik",
        -10.732832500668739
      ],
      [
        "▁sallan",
        -9.1866850783681
      ],
      [
        "▁mesaj",
        -9.159932103753816
      ],
      [
        "▁paravan",
        -11.106314931438748
      ],
      [
        "▁kalkan",
        -10.25334306431135
      ],
      [
        "▁annesi",
        -8.646127301452543
      ],
      [
        "▁gur",
        -8.415171871632284
      ],
      [
        "▁pesin",
        -9.950178270027465
      ],
      [
        "▁canı",
        -9.311547810856558
      ],
      [
        "▁yuzlerin",
        -10.473616110362109
      ],
      [
        "▁yuce",
        -11.098780548885792
      ],
      [
        "▁bashekim",
        -10.73213920137536
      ],
      [
        "▁duser",
        -8.381270999867418
      ],
      [
        "▁goturme",
        -10.253108767430309
      ],
      [
        "▁kullanıcı",
        -10.448867049166486
      ],
      [
        "▁bildigi",
        -9.577496643884444
      ],
      [
        "caba",
        -7.273779888668228
      ],
      [
        "▁erkeklerin",
        -10.739789843112447
      ],
      [
        "▁bor",
        -10.151692188115327
      ],
      [
        "▁sorunla",
        -10.80513110584644
      ],
      [
        "▁sık",
        -7.865762091284761
      ],
      [
        "▁mevcut",
        -8.438217393116265
      ],
      [
        "▁gerek",
        -8.28979307304768
      ],
      [
        "▁500",
        -6.435639842843321
      ],
      [
        "▁artı",
        -8.581293221837413
      ],
      [
        "▁sogukta",
        -10.733882554168407
      ],
      [
        "▁ensesin",
        -10.924154778646491
      ],
      [
        "▁iste",
        -6.53043461090222
      ],
      [
        "▁onleme",
        -10.295141562356545
      ],
      [
        "▁sanır",
        -8.29515864578821
      ],
      [
        "▁guclendirme",
        -10.73671496535435
      ],
      [
        "▁aruz",
        -11.110852711979915
      ],
      [
        "▁siirini",
        -11.112227312644892
      ],
      [
        "▁vaat",
        -10.162500556704867
      ],
      [
        "▁git",
        -7.190858593130086
      ],
      [
        "▁james",
        -7.95169686791302
      ],
      [
        "▁ucretleri",
        -8.642136498391228
      ],
      [
        "▁bodrum",
        -8.497306403028857
      ],
      [
        "▁ciftciler",
        -9.899281173656563
      ],
      [
        "▁havuc",
        -10.4642393325108
      ],
      [
        "y",
        -6.227110814217542
      ],
      [
        "▁bagır",
        -9.162317587330875
      ],
      [
        "bilecek",
        -8.871734838277593
      ],
      [
        "▁harcama",
        -9.52688741768031
      ],
      [
        "▁ak",
        -7.232676296493376
      ],
      [
        "▁balıkcılar",
        -10.703787881511705
      ],
      [
        "▁kırdı",
        -8.933376195582149
      ],
      [
        "▁niyetin",
        -10.042572400003994
      ],
      [
        "▁ote",
        -9.144235764559738
      ],
      [
        "▁kalitesinde",
        -9.566271765225073
      ],
      [
        "▁belir",
        -7.5840970746139265
      ],
      [
        "▁cıkardıgı",
        -8.96097858121532
      ],
      [
        "▁dost",
        -9.773522821889276
      ],
      [
        "▁recete",
        -10.464219796075268
      ],
      [
        "▁ister",
        -7.384376714493127
      ],
      [
        "▁hatlar",
        -10.725338374560803
      ],
      [
        "▁merdivenlerde",
        -10.945692820456276
      ],
      [
        "▁goreceli",
        -10.898743241564503
      ],
      [
        "▁cingene",
        -11.098745843677506
      ],
      [
        "▁dusuncesin",
        -10.770340858727893
      ],
      [
        "▁es",
        -8.308701657809824
      ],
      [
        "▁tepsiy",
        -10.548225629158019
      ],
      [
        "▁zamanda",
        -7.80118567632804
      ],
      [
        "▁yukselme",
        -10.321054391530584
      ],
      [
        "▁zor",
        -6.587348648101007
      ],
      [
        "▁hissesi",
        -8.709990853915926
      ],
      [
        "▁yanı",
        -8.447338164011763
      ],
      [
        "▁10000",
        -7.769379171188207
      ],
      [
        "▁ide",
        -9.113205960178366
      ],
      [
        "sun",
        -6.816385547785073
      ],
      [
        "▁dudakları",
        -10.025987855894588
      ],
      [
        "▁hucum",
        -9.80145728458464
      ],
      [
        "▁carsıda",
        -10.382321164689253
      ],
      [
        "ası",
        -8.973564524504287
      ],
      [
        "▁lekeler",
        -11.107228204067958
      ],
      [
        "▁bosaltma",
        -10.732078511222928
      ],
      [
        "▁mesajı",
        -9.922127450477408
      ],
      [
        "▁demokratları",
        -10.990938468919731
      ],
      [
        "▁ortak",
        -9.264854829276072
      ],
      [
        "▁gecesi",
        -8.95694645208398
      ],
      [
        "duklarını",
        -11.071896716527661
      ],
      [
        "▁yerles",
        -9.394027149575296
      ],
      [
        "▁kargo",
        -10.353664128851683
      ],
      [
        "▁george",
        -7.757454851077565
      ],
      [
        "▁soyu",
        -9.801382354229846
      ],
      [
        "ten",
        -6.634223079196404
      ],
      [
        "▁kala",
        -9.194601749958899
      ],
      [
        "▁aradi",
        -6.877309850571278
      ],
      [
        "▁buyu",
        -10.047935183187416
      ],
      [
        "▁bolunme",
        -10.842195258263528
      ],
      [
        "▁tahminler",
        -10.046301561839586
      ],
      [
        "meli",
        -9.10389111524048
      ],
      [
        "umuz",
        -9.783801706744903
      ],
      [
        "ktir",
        -9.121069913271567
      ],
      [
        "▁washington'da",
        -6.676110632476292
      ],
      [
        "iy",
        -7.061574036687148
      ],
      [
        "▁ali'",
        -8.799392567992886
      ],
      [
        "▁hepsini",
        -5.598394737968925
      ],
      [
        "▁gelirin",
        -10.561093763806804
      ],
      [
        "▁men",
        -7.508210131102051
      ],
      [
        "▁sikayetleri",
        -10.650237762145862
      ],
      [
        "di",
        -6.312665811588268
      ],
      [
        "▁kayıgın",
        -10.658755408156503
      ],
      [
        "▁kadir",
        -10.901064750835978
      ],
      [
        "▁tut",
        -7.995860866800918
      ],
      [
        "▁bonosu",
        -10.243463989131092
      ],
      [
        "▁des",
        -10.410096041221385
      ],
      [
        "ust",
        -9.364124268376145
      ],
      [
        "▁oynama",
        -10.964115565674213
      ],
      [
        "▁isimler",
        -9.79762144992789
      ],
      [
        "▁makinistler",
        -11.107088537275501
      ],
      [
        "imiz",
        -9.90089511780582
      ],
      [
        "▁do",
        -4.997386800813171
      ],
      [
        "ını",
        -7.032706241959731
      ],
      [
        "iyetli",
        -8.76819856306355
      ],
      [
        "▁yanı",
        -8.22991707587844
      ],
      [
        "▁rahatlıgı",
        -10.466165058430189
      ],
      [
        "▁kostek",
        -11.098757775449418
      ],
      [
        "▁yan",
        -7.089498539665826
      ],
      [
        "▁kucukleri",
        -11.1230393423105
      ],
      [
        "▁ticaret",
        -7.914770188357589
      ],
      [
        "▁calıstıgı",
        -9.287863140754212
      ],
      [
        "▁dogu",
        -9.948789694617268
      ],
      [
        "▁eksik",
        -10.642656545047975
      ],
      [
        "▁hakları",
        -9.182096698046513
      ],
      [
        "▁ak",
        -9.60923317247749
      ],
      [
        "▁mobil",
        -10.584201135906692
      ],
      [
        "▁k",
        -6.137620659531643
      ],
      [
        "kacı",
        -10.499920333655972
      ],
      [
        "larım",
        -10.169267413206045
      ],
      [
        "▁mu",
        -3.89386215236744
      ],
      [
        "▁koyar",
        -9.098876619395838
      ],
      [
        "▁canlı",
        -9.252258592342866
      ],
      [
        "▁tesiri",
        -10.323260904081433
      ],
      [
        "irdi",
        -8.379963707749965
      ],
      [
        "▁aralar",
        -10.904969272971183
      ],
      [
        "▁sekerleme",
        -10.899635022265118
      ],
      [
        "▁bayragı",
        -10.862718102313806
      ],
      [
        "▁ise",
        -7.45657302813303
      ],
      [
        "▁calma",
        -10.662956085338285
      ],
      [
        "▁embriyo",
        -10.898742890938305
      ],
      [
        "▁girme",
        -9.679200138687595
      ],
      [
        "▁gerceklik",
        -10.262547568156945
      ],
      [
        "lar",
        -4.62663283661402
      ],
      [
        "▁iptal",
        -9.22044309884647
      ],
      [
        "▁1\\/",
        -5.804230612565163
      ],
      [
        "▁calısmalar",
        -9.494525144126339
      ],
      [
        "▁baslar",
        -9.960958152007358
      ],
      [
        "▁cıkabilir",
        -9.498687594835175
      ],
      [
        "▁infilak",
        -11.09874289029419
      ],
      [
        "▁dol",
        -8.66387183973334
      ],
      [
        "ve",
        -6.34156215292432
      ],
      [
        "▁ellerimi",
        -11.113370425600227
      ],
      [
        "'un",
        -5.705129799005704
      ],
      [
        "▁ithal",
        -9.583958183727454
      ],
      [
        "▁york'",
        -7.743241407897625
      ],
      [
        "▁konak",
        -9.98090365436752
      ],
      [
        "▁bolumde",
        -10.317297801144576
      ],
      [
        "▁hastalar",
        -10.447546322874823
      ],
      [
        "▁edebilir",
        -7.864317669640711
      ],
      [
        "▁petrol",
        -8.045744135222211
      ],
      [
        "ra",
        -7.8013411078404635
      ],
      [
        "▁seyrediyor",
        -9.412981812797968
      ],
      [
        "▁makine",
        -8.74433065003681
      ],
      [
        "▁jose'",
        -7.937863731996809
      ],
      [
        "▁house",
        -8.627030782618476
      ],
      [
        "▁dallas'",
        -5.766594172843666
      ],
      [
        "▁attıgı",
        -9.156001513506755
      ],
      [
        "▁ucretl",
        -9.39238297482513
      ],
      [
        "▁miy",
        -8.764014542851264
      ],
      [
        "▁sırtın",
        -9.370278097650326
      ],
      [
        "misler",
        -9.258607888299847
      ],
      [
        "▁gorduk",
        -8.119405791779613
      ],
      [
        "▁bulanıklı",
        -11.098743846085181
      ],
      [
        "on",
        -4.581243662563073
      ],
      [
        "ktı",
        -9.484806662755028
      ],
      [
        "▁urun",
        -8.644710277780987
      ],
      [
        "ger",
        -10.108427299989048
      ],
      [
        "▁yun",
        -9.187602999020815
      ],
      [
        "▁lokantasın",
        -10.99030877322468
      ],
      [
        "▁duzenleyiciler",
        -11.056894475722682
      ],
      [
        "▁yureginde",
        -10.600617190887847
      ],
      [
        "▁uzman",
        -9.056613968598388
      ],
      [
        "▁bekledigin",
        -9.421273078689392
      ],
      [
        "▁sarar",
        -9.189062105374958
      ],
      [
        "▁hararet",
        -11.098743137577538
      ],
      [
        "▁oldugu",
        -6.575661457689877
      ],
      [
        "▁gerekiyor",
        -7.139974538689381
      ],
      [
        "▁fal",
        -10.524437808722794
      ],
      [
        "▁besiktas",
        -8.533689526837472
      ],
      [
        "▁dusmesi",
        -10.83039264204925
      ],
      [
        "amalı",
        -9.583291530830964
      ],
      [
        "▁ulkede",
        -9.280165219589701
      ],
      [
        "▁yasayanlar",
        -11.106116411907315
      ],
      [
        "▁us",
        -7.962928935943753
      ],
      [
        "▁ise",
        -7.591741247426268
      ],
      [
        "▁hayvan",
        -9.165359355415191
      ],
      [
        "9",
        -12.802702672349787
      ],
      [
        "▁marj",
        -10.865142207490571
      ],
      [
        "▁cogunlukla",
        -10.903079688911667
      ],
      [
        "▁yufka",
        -10.464219082479747
      ],
      [
        "▁asistan",
        -11.081069218639065
      ],
      [
        "▁yen'",
        -7.390874940176632
      ],
      [
        "▁calıs",
        -8.389553384790805
      ],
      [
        "▁gorus",
        -9.250044111624169
      ],
      [
        "▁gaza",
        -10.644055218428623
      ],
      [
        "celi",
        -9.543662416419748
      ],
      [
        "▁sabun",
        -10.253114047558341
      ],
      [
        "co",
        -7.900338045405285
      ],
      [
        "▁melek",
        -10.899051796183526
      ],
      [
        "▁sira",
        -10.474414578661786
      ],
      [
        "eleyi",
        -9.830507315868388
      ],
      [
        "▁def",
        -10.324406533592018
      ],
      [
        "▁rezervasyonu",
        -8.085466260848188
      ],
      [
        "▁ten",
        -10.322071847500919
      ],
      [
        "▁900",
        -7.914241032063439
      ],
      [
        "▁12'si",
        -10.898794512110713
      ],
      [
        "▁basları",
        -10.39477713027708
      ],
      [
        "▁evliligin",
        -10.500827237878976
      ],
      [
        "klerini",
        -10.935954584200566
      ],
      [
        "▁koyar",
        -8.924990861312768
      ],
      [
        "▁gecirmis",
        -9.525531246141785
      ],
      [
        "▁inci",
        -10.368302719717704
      ],
      [
        "▁kaybed",
        -8.422957492860599
      ],
      [
        "dik",
        -9.659370604599529
      ],
      [
        "▁atılım",
        -9.584339577137847
      ],
      [
        "▁uyma",
        -10.372729952606624
      ],
      [
        "▁beraber",
        -6.830449956414693
      ],
      [
        "ele",
        -12.03594578210268
      ],
      [
        "▁buyu",
        -8.465510865884635
      ],
      [
        "▁kırmızı",
        -10.44819258927437
      ],
      [
        "▁brit",
        -8.283373850844672
      ],
      [
        "▁gumrukte",
        -10.919842043813734
      ],
      [
        "▁standartların",
        -10.873555348486835
      ],
      [
        "▁yasadıgı",
        -10.907663884359447
      ],
      [
        "▁ay",
        -6.929164564379551
      ],
      [
        "asız",
        -9.505160072128332
      ],
      [
        "▁yuregim",
        -10.700417935913109
      ],
      [
        "▁veri",
        -9.397669014354957
      ],
      [
        "▁hukumdar",
        -10.250880308923508
      ],
      [
        "▁defterini",
        -10.668436601922995
      ],
      [
        "▁kuvvetleri",
        -9.480105748862218
      ],
      [
        "▁sogugu",
        -10.90107885669398
      ],
      [
        "asa",
        -9.345251328416396
      ],
      [
        "▁va",
        -8.405399899478365
      ],
      [
        "▁gonlunde",
        -10.911279457339639
      ],
      [
        "▁kapıldı",
        -9.732419123844114
      ],
      [
        "▁cesur",
        -8.757668871855296
      ],
      [
        "▁devaml",
        -8.604073543861139
      ],
      [
        "▁kosede",
        -9.524367116136023
      ],
      [
        "▁muslumanlar",
        -10.777923002189926
      ],
      [
        "▁kutle",
        -11.102347616058426
      ],
      [
        "▁tur",
        -8.673507487778625
      ],
      [
        "▁yası",
        -9.668451838144044
      ],
      [
        "▁zamanlar",
        -8.199554408478416
      ],
      [
        "▁arttıgın",
        -10.088285661177826
      ],
      [
        "▁olmaya",
        -9.0705412936416
      ],
      [
        "▁uslup",
        -10.732077673302943
      ],
      [
        "▁gorevli",
        -9.310367042519447
      ],
      [
        "▁rubailer",
        -11.098803380885169
      ],
      [
        "▁cozme",
        -9.56590897250245
      ],
      [
        "▁mail",
        -8.879170461989627
      ],
      [
        "▁me",
        -9.30829020178988
      ],
      [
        "▁prosedurleri",
        -10.68267173935957
      ],
      [
        "▁diril",
        -10.817996514508057
      ],
      [
        "digini",
        -7.877123278171909
      ],
      [
        "iz",
        -8.859737590248631
      ],
      [
        "▁",
        -2.896334987865555
      ],
      [
        "▁toplay",
        -9.110250892093472
      ],
      [
        "▁savrulu",
        -9.514713454217679
      ],
      [
        "▁sıkıntısı",
        -9.711669754296608
      ],
      [
        "▁toplamak",
        -10.477305844036039
      ],
      [
        "ustur",
        -9.03230136137262
      ],
      [
        "▁tes",
        -11.102223548836202
      ],
      [
        "▁yasa",
        -8.871259554397458
      ],
      [
        "▁tesisi",
        -8.628849367770194
      ],
      [
        "▁yanını",
        -10.602375742274566
      ],
      [
        "▁hal",
        -5.532686542076543
      ],
      [
        "▁vergisi",
        -9.397282737972505
      ],
      [
        "▁patla",
        -9.438624053814067
      ],
      [
        "▁kereste",
        -11.098871113382396
      ],
      [
        "abilir",
        -7.257139253870191
      ],
      [
        "▁sizler",
        -6.647737353980031
      ],
      [
        "▁dosegin",
        -10.898753955712762
      ],
      [
        "▁diplomat",
        -10.574738153708807
      ],
      [
        ",",
        -10.272004932860527
      ],
      [
        "▁universitede",
        -10.168299313166173
      ],
      [
        "▁yapılır",
        -8.26141082487856
      ],
      [
        "lerdi",
        -8.270437778864537
      ],
      [
        "▁z",
        -9.67878245901453
      ],
      [
        "▁kez",
        -7.371117751577156
      ],
      [
        "▁mufettis",
        -10.460876723442174
      ],
      [
        "▁basladıgı",
        -9.500683225467181
      ],
      [
        "▁ucmak",
        -7.653844970893653
      ],
      [
        "▁patates",
        -9.093278313755647
      ],
      [
        "▁go",
        -8.993009611862526
      ],
      [
        "▁bey'i",
        -7.943703266449726
      ],
      [
        "nc",
        -6.268229403463584
      ],
      [
        "▁imzası",
        -11.000094937992479
      ],
      [
        "▁kalıyordu",
        -9.45799961116282
      ],
      [
        "▁getirisi",
        -9.704747994867054
      ],
      [
        "▁kavgası",
        -10.651910448586154
      ],
      [
        "▁ihtiyac",
        -8.459519900812918
      ],
      [
        "▁avans",
        -10.253117516508539
      ],
      [
        "▁kere",
        -7.9763028640043325
      ],
      [
        "▁devam",
        -6.831909005877772
      ],
      [
        "▁gunduz",
        -9.613997000983122
      ],
      [
        "▁muhalif",
        -10.435667305279415
      ],
      [
        "▁cıkan",
        -7.906787238699178
      ],
      [
        "▁sonucları",
        -9.066737852781866
      ],
      [
        "▁vadesi",
        -9.655746829634856
      ],
      [
        "ullah",
        -8.958727335158153
      ],
      [
        "▁rafineri",
        -10.589268069740683
      ],
      [
        "kanlı",
        -8.637540324805098
      ],
      [
        "etti",
        -9.178569146490432
      ],
      [
        "▁mektup",
        -9.383331010017038
      ],
      [
        "▁yanın",
        -8.808855507883322
      ],
      [
        "pit",
        -10.573528003709518
      ],
      [
        "▁kordugum",
        -11.098744152352516
      ],
      [
        "▁sahiplerin",
        -10.114077732949923
      ],
      [
        "▁ikmal",
        -10.732083229467753
      ],
      [
        "▁ovaları",
        -10.98466695583734
      ],
      [
        "▁vas",
        -9.232911911764235
      ],
      [
        "digi",
        -9.403236521009415
      ],
      [
        "▁ve",
        -10.157971682530286
      ],
      [
        "i",
        -11.302702672349787
      ],
      [
        "▁tiyatro",
        -8.632715837940113
      ],
      [
        "▁cıkar",
        -7.059547808841672
      ],
      [
        "▁valla",
        -9.76595308700335
      ],
      [
        "▁asker",
        -8.74362205374729
      ],
      [
        "▁duvarı",
        -10.000630657553815
      ],
      [
        "▁varlıg",
        -10.298868075341392
      ],
      [
        "▁saglar",
        -8.631666445685513
      ],
      [
        "▁karsımız",
        -10.47496728736148
      ],
      [
        "▁o",
        -7.746745249832147
      ],
      [
        "▁yazarı",
        -10.041080665056866
      ],
      [
        "▁yorgunluk",
        -9.634336565512523
      ],
      [
        "yle",
        -8.584990660842681
      ],
      [
        "ucu",
        -7.189250133002087
      ],
      [
        "▁er",
        -9.4224389903639
      ],
      [
        "▁kurumlarını",
        -11.066922882737146
      ],
      [
        "▁zamanlama",
        -10.26898884365484
      ],
      [
        "▁kamu",
        -8.336258568124805
      ],
      [
        "▁kucu",
        -8.433503492467294
      ],
      [
        "▁rakamı",
        -10.503993296802692
      ],
      [
        "▁vizyon",
        -11.075305143991274
      ],
      [
        "▁veriri",
        -7.162283659794717
      ],
      [
        "▁cıkarı",
        -8.227993096103734
      ],
      [
        "▁talep",
        -8.427947400482537
      ],
      [
        "▁0.0",
        -8.269680190266461
      ],
      [
        "c",
        -6.519041070915973
      ],
      [
        "▁basak",
        -10.623175887130564
      ],
      [
        "west",
        -8.20326549531011
      ],
      [
        "▁kullanılıyor",
        -8.620660919133124
      ],
      [
        "▁takım",
        -8.31892680761301
      ],
      [
        "▁gundemin",
        -10.673839639468753
      ],
      [
        "▁ofkesini",
        -10.918267365897409
      ],
      [
        "▁duyguların",
        -10.959113442625299
      ],
      [
        "▁meclis",
        -9.378022565154343
      ],
      [
        "▁38",
        -7.462788926884992
      ],
      [
        "▁li",
        -8.862000220964088
      ],
      [
        "y",
        -7.8248901210255575
      ],
      [
        "▁bizim",
        -8.998507210436507
      ],
      [
        "▁hava",
        -7.214491210085921
      ],
      [
        "▁sehirde",
        -9.765881864468728
      ],
      [
        "▁verdigini",
        -9.584613962425463
      ],
      [
        "▁tutku",
        -10.69976886107873
      ],
      [
        "▁kamyon",
        -8.962446022999254
      ],
      [
        "▁elestirilerin",
        -11.058864805937208
      ],
      [
        "▁nitelik",
        -9.989889198825262
      ],
      [
        "▁bez",
        -10.161552475419334
      ],
      [
        "▁esya",
        -8.579112196912755
      ],
      [
        "▁parcalarını",
        -10.73653853310017
      ],
      [
        "▁eli",
        -8.423598368131941
      ],
      [
        "▁gerc",
        -7.974863682372032
      ],
      [
        "▁kalanlar",
        -10.619181650833713
      ],
      [
        "cılı",
        -8.934858945422674
      ],
      [
        "▁derdi",
        -9.963663127273538
      ],
      [
        "▁acma",
        -9.378058923222255
      ],
      [
        "▁gul",
        -9.271106550419756
      ],
      [
        "sine",
        -7.109072515836234
      ],
      [
        "▁muhabbet",
        -9.801347229400669
      ],
      [
        "▁gorusler",
        -10.455923488848214
      ],
      [
        "▁4.9",
        -8.041139098151852
      ],
      [
        "▁karikatur",
        -10.588748211022047
      ],
      [
        "▁icecekleri",
        -9.22282110471637
      ],
      [
        "▁seyahat",
        -8.056336516611918
      ],
      [
        "▁bu",
        -8.563962853139856
      ],
      [
        "▁zaaf",
        -10.732077121640371
      ],
      [
        "▁calıstıkların",
        -10.737475088662514
      ],
      [
        "▁kahverengi",
        -9.309032357645929
      ],
      [
        "▁ayrıntıları",
        -10.410148828796512
      ],
      [
        "▁gerektirir",
        -9.626003629666416
      ],
      [
        "▁kutsa",
        -9.261830535474022
      ],
      [
        "▁soktu",
        -8.996393928884542
      ],
      [
        "▁kopur",
        -9.595270230716824
      ],
      [
        "▁nesesi",
        -10.651982503702632
      ],
      [
        "▁oturdugu",
        -9.167963216678544
      ],
      [
        "▁don",
        -9.426957039378673
      ],
      [
        "▁sapkalı",
        -9.545889989975723
      ],
      [
        "▁birlikte",
        -9.49402661597296
      ],
      [
        "▁meger",
        -8.017094335820264
      ],
      [
        "▁sonucu",
        -8.767523024433608
      ],
      [
        "▁bin",
        -9.89887978099321
      ],
      [
        "▁nispet",
        -10.732120247981108
      ],
      [
        "▁kaptan",
        -9.448221206668942
      ],
      [
        "▁bahce",
        -9.326741094031894
      ],
      [
        "yon",
        -9.86532443139734
      ],
      [
        "▁tazminat",
        -9.824785597816792
      ],
      [
        "t",
        -4.499821088122294
      ],
      [
        "▁eskid",
        -7.508059908398208
      ],
      [
        "▁yatıyor",
        -8.959415592776125
      ],
      [
        "▁tırnag",
        -11.079084819259991
      ],
      [
        "▁dalgı",
        -9.038168100235989
      ],
      [
        "▁sempati",
        -10.464219091921356
      ],
      [
        "▁bazıları",
        -5.5918974405545265
      ],
      [
        "▁calısıyordu",
        -8.209869338869755
      ],
      [
        "▁car",
        -8.957794247948698
      ],
      [
        "▁endisel",
        -8.886827014229151
      ],
      [
        "▁puan",
        -6.03342562087988
      ],
      [
        "nızda",
        -10.19495894431877
      ],
      [
        "▁olmadıgı",
        -9.732740812309036
      ],
      [
        "▁yapılaca",
        -7.3771974283079125
      ],
      [
        "▁sikinti",
        -8.432333273407899
      ],
      [
        "▁olums",
        -9.403841297540968
      ],
      [
        "▁noel",
        -8.804183420266513
      ],
      [
        "▁alma",
        -8.855958064310595
      ],
      [
        "▁ydı",
        -4.64779151718307
      ],
      [
        "▁guller",
        -10.70391021183608
      ],
      [
        "▁ma",
        -9.649779986010461
      ],
      [
        "te",
        -8.427401427900065
      ],
      [
        "yana",
        -10.207067491320931
      ],
      [
        "▁katılımcıları",
        -10.382968740712508
      ],
      [
        "▁mccaw",
        -8.666740646400727
      ],
      [
        "▁fiyatları",
        -7.427975687224656
      ],
      [
        "▁planla",
        -10.342307562481157
      ],
      [
        "▁ba",
        -9.366464998966364
      ],
      [
        "▁sev",
        -10.64224099818561
      ],
      [
        "▁sozcugu",
        -10.342454566642177
      ],
      [
        "▁2.8",
        -8.026853152964158
      ],
      [
        "▁bakan",
        -9.4052729921977
      ],
      [
        "tim",
        -9.334761593427869
      ],
      [
        "▁kazana",
        -10.841131939180741
      ],
      [
        "▁uzum",
        -9.539849438723056
      ],
      [
        "▁oteli",
        -8.233866421603352
      ],
      [
        "▁acı",
        -8.450889146558803
      ],
      [
        "▁tasındı",
        -9.322582025261896
      ],
      [
        "▁dukkanlar",
        -10.675182776003169
      ],
      [
        "▁oteller",
        -9.375411673265283
      ],
      [
        "▁bıyık",
        -10.721937362630573
      ],
      [
        "▁obek",
        -11.098748035435516
      ],
      [
        "▁som",
        -10.789015116681185
      ],
      [
        "▁7",
        -4.986624988114711
      ],
      [
        "▁kuvvetin",
        -10.820640442105509
      ],
      [
        "▁gelmesi",
        -10.677208879717636
      ],
      [
        "▁kalemleri",
        -10.827145085820998
      ],
      [
        "▁orgutu",
        -10.489792871930888
      ],
      [
        "▁sene",
        -9.559832355583703
      ],
      [
        "▁odaklan",
        -9.68355725433883
      ],
      [
        "esi",
        -9.684940229101475
      ],
      [
        "▁olan",
        -10.69008289550099
      ],
      [
        "sebep",
        -9.655892691960098
      ],
      [
        "acıkta",
        -10.590651194235146
      ],
      [
        "▁calısı",
        -9.622754042113563
      ],
      [
        "▁nakliye",
        -9.776858434453922
      ],
      [
        "▁saglamay",
        -10.595797121422907
      ],
      [
        "▁cıglıklar",
        -10.963678901436548
      ],
      [
        "▁brosur",
        -10.732154141644177
      ],
      [
        "▁maclar",
        -10.882333931357605
      ],
      [
        "▁cıglıgı",
        -10.834594109075098
      ],
      [
        "▁gorur",
        -8.278061622122554
      ],
      [
        "▁hisselerini",
        -8.963720103570587
      ],
      [
        "▁acıyordu",
        -9.642861880803341
      ],
      [
        "▁degnegi",
        -10.783565303637218
      ],
      [
        "▁kose",
        -9.40990843647309
      ],
      [
        "p",
        -12.178637598550253
      ],
      [
        "▁bakım",
        -7.325904814344627
      ],
      [
        "▁dokme",
        -10.70839753573228
      ],
      [
        "▁surdugunu",
        -10.89895641237214
      ],
      [
        "▁dır",
        -4.287573368195668
      ],
      [
        "▁hicbirinde",
        -9.545218562396931
      ],
      [
        "uz",
        -7.239264014834163
      ],
      [
        "▁var",
        -4.321802231705819
      ],
      [
        "'nı",
        -10.028220096374465
      ],
      [
        "▁gunleri",
        -8.43625917072991
      ],
      [
        "▁pul",
        -9.80149364609848
      ],
      [
        "▁hint",
        -9.010872263415266
      ],
      [
        "▁basarısızlık",
        -10.920442406623566
      ],
      [
        "▁adam",
        -6.732930098233774
      ],
      [
        "▁yazarlar",
        -9.902145406682274
      ],
      [
        "▁ciftligi",
        -10.184237590390293
      ],
      [
        "imiz",
        -8.23099093380685
      ],
      [
        "▁otellerde",
        -10.359437694818512
      ],
      [
        "▁irak'",
        -8.441455569397865
      ],
      [
        "▁serbet",
        -10.997245501449855
      ],
      [
        "▁bonolar",
        -9.47868322854743
      ],
      [
        "▁operasyon",
        -9.868908332925871
      ],
      [
        "▁alınmıs",
        -9.721125891200604
      ],
      [
        "gen",
        -10.132146503394324
      ],
      [
        "▁girdi",
        -7.028125539918453
      ],
      [
        "in",
        -6.177880550265843
      ],
      [
        "▁49",
        -7.1162351191246005
      ],
      [
        "▁muke",
        -6.741757312203705
      ],
      [
        "arım",
        -10.798766406416666
      ],
      [
        "▁yigitlik",
        -11.100095293580852
      ],
      [
        "medigi",
        -10.357131175848897
      ],
      [
        "▁itimat",
        -10.898744915437533
      ],
      [
        "▁beklentiler",
        -11.059597842624292
      ],
      [
        "▁markaları",
        -10.551986581788304
      ],
      [
        "degil",
        -6.466618770077644
      ],
      [
        "▁cocugunu",
        -9.615121398212839
      ],
      [
        "▁ko",
        -8.548933816185256
      ],
      [
        "▁davranısını",
        -10.65245301163769
      ],
      [
        "▁bilemiyor",
        -9.615336734954052
      ],
      [
        "▁190",
        -8.264558423855101
      ],
      [
        "yebilir",
        -9.373473823499056
      ],
      [
        "▁dunyada",
        -8.564337884491408
      ],
      [
        "▁topragın",
        -10.083904614290269
      ],
      [
        "▁yasa",
        -8.44160695791037
      ],
      [
        "▁seydi",
        -8.334385071691708
      ],
      [
        "▁kon",
        -9.70424133086617
      ],
      [
        "▁dıs",
        -10.500892399155147
      ],
      [
        "lerimiz",
        -9.029794073383398
      ],
      [
        "▁sapka",
        -9.825891222025644
      ],
      [
        "▁isterdi",
        -8.943809056901834
      ],
      [
        "▁herkeste",
        -8.043909796658193
      ],
      [
        "▁gecir",
        -9.534366653770993
      ],
      [
        "▁vefat",
        -10.465006968886929
      ],
      [
        "▁1980",
        -7.73474019746069
      ],
      [
        "▁kosullar",
        -9.534704435588722
      ],
      [
        "▁ırmak",
        -10.733202366705518
      ],
      [
        "▁olmasın",
        -9.566742541765993
      ],
      [
        "▁kompleksi",
        -10.516137074920385
      ],
      [
        "▁yunus",
        -10.899036630889581
      ],
      [
        "lıgın",
        -9.033047954604507
      ],
      [
        "▁yetenegi",
        -10.423931997352154
      ],
      [
        "▁cift",
        -10.844118571726229
      ],
      [
        "ie",
        -8.540008142853656
      ],
      [
        "▁matbaa",
        -10.844854163585403
      ],
      [
        "▁sevim",
        -8.479737472403365
      ],
      [
        "ınca",
        -6.707064326619587
      ],
      [
        "▁calı",
        -9.587290064126957
      ],
      [
        "▁devrinde",
        -10.747807635615358
      ],
      [
        "▁kapandı",
        -6.560167827904105
      ],
      [
        "▁sabah",
        -7.865268865524003
      ],
      [
        "▁ureticilerin",
        -10.964470873905483
      ],
      [
        "▁kazan",
        -8.069428999623325
      ],
      [
        "▁harca",
        -9.423299525082296
      ],
      [
        "▁dalgal",
        -9.560806825978016
      ],
      [
        "sarılı",
        -9.402152346716086
      ],
      [
        "▁bolumunu",
        -9.471373941539808
      ],
      [
        "▁tarihte",
        -9.379173982677315
      ],
      [
        "▁satır",
        -9.81805734821409
      ],
      [
        "▁dunya",
        -7.414707195677696
      ],
      [
        "▁evle",
        -10.847998943418846
      ],
      [
        "ligini",
        -8.858810792967285
      ],
      [
        "▁kayna",
        -9.05830061910847
      ],
      [
        "▁lezzeti",
        -8.51954904679102
      ],
      [
        "▁yonetici",
        -9.030979949289542
      ],
      [
        "▁okumay",
        -10.966727734974537
      ],
      [
        "▁dikil",
        -9.599319943204412
      ],
      [
        "sines",
        -10.583118254992801
      ],
      [
        "▁hacmini",
        -10.666293817864414
      ],
      [
        "▁soyledigi",
        -10.685935091809158
      ],
      [
        "▁yapılan",
        -7.503984260355942
      ],
      [
        "▁cıl",
        -8.446789978081668
      ],
      [
        "fes",
        -8.44847588586754
      ],
      [
        "▁sabır",
        -9.148632344904088
      ],
      [
        "▁gorunumu",
        -10.146925074290408
      ],
      [
        "o",
        -8.07891312566009
      ],
      [
        "ayıp",
        -9.195504672556654
      ],
      [
        "▁yuzler",
        -10.612712474808648
      ],
      [
        "▁gordugum",
        -9.568127368205243
      ],
      [
        "ral",
        -10.429274666472436
      ],
      [
        "▁teskilat",
        -10.86844698798852
      ],
      [
        "▁duzeni",
        -9.494620555043944
      ],
      [
        "▁kadavra",
        -10.353113799935135
      ],
      [
        "de",
        -7.316563460623829
      ],
      [
        "▁ulus",
        -7.1751403943790955
      ],
      [
        "▁tarih",
        -8.011406145988879
      ],
      [
        "▁yonetme",
        -10.784371200807321
      ],
      [
        "▁kaldırım",
        -10.11775744760454
      ],
      [
        "▁alınma",
        -11.054973479622948
      ],
      [
        "▁suların",
        -10.32550070925759
      ],
      [
        "▁lokantalar",
        -10.752603741583888
      ],
      [
        "▁durur",
        -9.029250703626133
      ],
      [
        "▁sekreteri",
        -10.065225424456221
      ],
      [
        "erken",
        -9.409159998134541
      ],
      [
        "gec",
        -9.601332010249518
      ],
      [
        "▁acık",
        -7.077738448004128
      ],
      [
        "▁par",
        -9.737743630036624
      ],
      [
        "▁degirmen",
        -10.405601236742584
      ],
      [
        "▁kagıt",
        -8.695749535606591
      ],
      [
        "▁enflasyonu",
        -10.666169531051567
      ],
      [
        "inizi",
        -9.578970273408293
      ],
      [
        "ın",
        -6.323891995751061
      ],
      [
        "▁cin",
        -10.105636269454655
      ],
      [
        "▁uzlasma",
        -9.801373651955803
      ],
      [
        "▁modelleri",
        -10.709919887582862
      ],
      [
        "▁hatırlat",
        -9.054289190462047
      ],
      [
        "▁ziya",
        -7.9923065931273936
      ],
      [
        "▁bozdu",
        -9.19702821187606
      ],
      [
        "gibi",
        -6.566016267340741
      ],
      [
        "▁memur",
        -9.266999676353343
      ],
      [
        "▁kirec",
        -10.464222878176319
      ],
      [
        "▁beklene",
        -8.47202102089458
      ],
      [
        "▁kısıtl",
        -9.547506075940884
      ],
      [
        "▁imparatorluk",
        -10.732391797896058
      ],
      [
        "▁yapıs",
        -11.081193885065657
      ],
      [
        "▁iceri",
        -8.544337723926773
      ],
      [
        "▁ogretmenim",
        -10.013215341442898
      ],
      [
        "g",
        -6.440338115441626
      ],
      [
        "▁gitmedi",
        -8.724300407142602
      ],
      [
        "▁calısan",
        -7.888338589848209
      ],
      [
        "▁edecegi",
        -9.17869910202968
      ],
      [
        "▁izini",
        -10.644163584422436
      ],
      [
        "▁dileri",
        -9.471814389817137
      ],
      [
        "▁pantolon",
        -9.726633463517015
      ],
      [
        "▁re",
        -10.066555673795257
      ],
      [
        "▁feda",
        -10.579675511177589
      ],
      [
        "▁kaplan",
        -11.108003072851565
      ],
      [
        "▁basla",
        -8.809444097359112
      ],
      [
        "una",
        -9.496687318595244
      ],
      [
        "8'de",
        -10.966303410516678
      ],
      [
        "▁gelismeler",
        -10.2822679081231
      ],
      [
        "p",
        -10.485673599386626
      ],
      [
        "▁dogan",
        -8.004232559420316
      ],
      [
        "▁ogesi",
        -10.9003022910293
      ],
      [
        "bunları",
        -9.214481418181153
      ],
      [
        "▁ulasma",
        -9.32256231393304
      ],
      [
        "gi",
        -8.337290656112316
      ],
      [
        "▁bildir",
        -9.338480660728232
      ],
      [
        "▁deli",
        -7.876917093199866
      ],
      [
        "▁kadın",
        -7.1380847048377465
      ],
      [
        "▁yasları",
        -10.535082644860099
      ],
      [
        "▁tasıyor",
        -8.81647180757802
      ],
      [
        "lıkla",
        -7.8693673310211
      ],
      [
        "▁isti",
        -10.436871300807239
      ],
      [
        "▁tahtası",
        -10.866034354677907
      ],
      [
        "▁baglan",
        -9.265076235452986
      ],
      [
        "▁mutemadi",
        -8.499264931476192
      ],
      [
        "▁carpı",
        -8.579111127910924
      ],
      [
        "▁ankara'y",
        -8.510359156994447
      ],
      [
        "▁attı",
        -7.25322987330236
      ],
      [
        "▁ca",
        -9.507863342503544
      ],
      [
        "▁ola",
        -9.15783333376595
      ],
      [
        "▁oyle",
        -5.64675409423086
      ],
      [
        "▁dizginleri",
        -10.371481862324924
      ],
      [
        "▁david",
        -8.039645432221675
      ],
      [
        "▁davası",
        -9.40094635196563
      ],
      [
        "▁2.",
        -6.760491276534013
      ],
      [
        "▁kırsal",
        -9.545961267899852
      ],
      [
        "▁alısır",
        -9.697802979350039
      ],
      [
        "da",
        -9.302105454042056
      ],
      [
        "▁ısın",
        -9.410010742219134
      ],
      [
        "▁ayı",
        -8.31416700243236
      ],
      [
        "▁okuyan",
        -9.348444971702765
      ],
      [
        "▁buyukelci",
        -10.078867687343934
      ],
      [
        "▁elimde",
        -9.475906334451725
      ],
      [
        "▁industries",
        -8.129913594326528
      ],
      [
        "▁israil",
        -7.753206403420731
      ],
      [
        "abe",
        -8.567426442434614
      ],
      [
        "▁kalın",
        -7.871277273894357
      ],
      [
        "▁ibaretti",
        -9.627886244407195
      ],
      [
        "▁subesi",
        -10.540005219186487
      ],
      [
        "▁toparlanma",
        -9.499831256528271
      ],
      [
        "▁omzum",
        -11.09874381829056
      ],
      [
        "▁pahalı",
        -8.022469362426737
      ],
      [
        "▁ayıp",
        -9.866314251787438
      ],
      [
        "▁tuk",
        -10.72964896907473
      ],
      [
        "cileri",
        -10.065163106277675
      ],
      [
        "os",
        -10.52831321370336
      ],
      [
        "▁onunu",
        -10.490444501281063
      ],
      [
        "▁cevaplar",
        -10.689008865213394
      ],
      [
        "▁hikmet",
        -8.898256633525815
      ],
      [
        "elik",
        -9.42104379012503
      ],
      [
        "ve",
        -5.575675023950563
      ],
      [
        "▁enistem",
        -11.104179902076199
      ],
      [
        "lıklı",
        -8.655911197312777
      ],
      [
        "▁etrafın",
        -9.9858825484364
      ],
      [
        "▁begeni",
        -10.89876217765136
      ],
      [
        "ılması",
        -10.38205072675128
      ],
      [
        "▁mart",
        -7.772148254078754
      ],
      [
        "▁cevirdi",
        -8.25851932500695
      ],
      [
        "▁yonetim",
        -7.65105444396264
      ],
      [
        "▁gece",
        -6.83625958669613
      ],
      [
        "▁memleketi",
        -9.507474558282885
      ],
      [
        "▁kabahat",
        -10.464243577566709
      ],
      [
        "▁kaynakları",
        -10.111088710152352
      ],
      [
        "▁tabi",
        -7.957719662881686
      ],
      [
        "▁arastırma",
        -8.754579222623878
      ],
      [
        "▁avrupa'da",
        -7.497466820441639
      ],
      [
        "mayacak",
        -8.292170887997285
      ],
      [
        "▁safha",
        -10.350244196927813
      ],
      [
        "len",
        -8.606878197165472
      ],
      [
        "▁kaval",
        -10.584979589881243
      ],
      [
        "▁klasik",
        -8.450304039233234
      ],
      [
        "▁zanlı",
        -11.098744634045088
      ],
      [
        "▁fuar",
        -10.87285516520303
      ],
      [
        "▁masajı",
        -10.757972013745393
      ],
      [
        "▁omrun",
        -10.330074720719619
      ],
      [
        "▁kal",
        -8.221986803257368
      ],
      [
        "▁donu",
        -7.913212704786867
      ],
      [
        "▁surucu",
        -10.566429926553544
      ],
      [
        "▁okudu",
        -8.176387293043298
      ],
      [
        "▁moskova",
        -8.79004720387484
      ],
      [
        "los",
        -6.830333516071331
      ],
      [
        "▁imparator",
        -11.097722262426988
      ],
      [
        "abı",
        -10.650278504375741
      ],
      [
        "▁saglamlıgı",
        -11.119021249699411
      ],
      [
        "▁alabilir",
        -7.880176294005994
      ],
      [
        "na",
        -8.480269717478869
      ],
      [
        "▁pazar",
        -7.684899777168333
      ],
      [
        "▁aynı",
        -5.643781137011638
      ],
      [
        "▁kusku",
        -9.292282744898088
      ],
      [
        "▁arzu",
        -9.742335477983014
      ],
      [
        "su",
        -7.924619150497522
      ],
      [
        "lanma",
        -10.21177484091699
      ],
      [
        "yacak",
        -9.476213899102827
      ],
      [
        "▁gecmiste",
        -9.604393439556997
      ],
      [
        "▁toplumlar",
        -10.317589898603412
      ],
      [
        "▁esigi",
        -10.913481932747587
      ],
      [
        "ında",
        -9.876441737514408
      ],
      [
        "s",
        -6.14942133002761
      ],
      [
        "▁baskaları",
        -9.741232758838365
      ],
      [
        "▁kapıları",
        -10.005004842975467
      ],
      [
        "▁aksi",
        -8.334466707343594
      ],
      [
        "▁iyi",
        -9.633430568822481
      ],
      [
        "▁evlilik",
        -9.635144438332745
      ],
      [
        "pare",
        -11.086775021910931
      ],
      [
        "▁alemin",
        -10.365897795911621
      ],
      [
        "▁kıyas",
        -8.665428957164131
      ],
      [
        "▁izledigi",
        -9.654286260736363
      ],
      [
        "▁otomobil",
        -8.17878283281383
      ],
      [
        "▁gelecegini",
        -10.281994818821278
      ],
      [
        "▁kadındı",
        -9.51178088726645
      ],
      [
        "▁bakla",
        -10.596497824733863
      ],
      [
        "▁lakırtıları",
        -10.793105636877568
      ],
      [
        "▁yapmaları",
        -10.772300914200233
      ],
      [
        "▁ho",
        -9.39963335209005
      ],
      [
        "▁zengindi",
        -9.037343559079211
      ],
      [
        "▁hoca",
        -8.604133739958929
      ],
      [
        "▁yuzu",
        -8.160042737939861
      ],
      [
        "la",
        -7.777082916088704
      ],
      [
        "▁seker",
        -8.731030923687195
      ],
      [
        "▁suat",
        -8.547999191978715
      ],
      [
        "▁bedelle",
        -11.100753692550938
      ],
      [
        "▁kentin",
        -9.423463321056952
      ],
      [
        "▁geldi",
        -5.562639327504356
      ],
      [
        "▁oglun",
        -10.27325892234862
      ],
      [
        "la",
        -7.519647211782816
      ],
      [
        "▁mobilyalar",
        -10.781855679154571
      ],
      [
        "▁basların",
        -10.138588743959803
      ],
      [
        "▁55",
        -7.460530306526801
      ],
      [
        "▁aca",
        -8.714851412740396
      ],
      [
        "▁patronları",
        -11.120538620696138
      ],
      [
        "▁tiksinti",
        -11.09875262605619
      ],
      [
        "▁dusunce",
        -9.557187687628428
      ],
      [
        "▁olmaması",
        -9.389373569942986
      ],
      [
        "▁siyas",
        -9.361615975235756
      ],
      [
        "iniz",
        -8.303166110016758
      ],
      [
        "▁yıllar",
        -8.126287375860354
      ],
      [
        "▁silteler",
        -11.105257444132938
      ],
      [
        "▁ayak",
        -9.563914423574342
      ],
      [
        "▁kız",
        -7.740140814498139
      ],
      [
        "mak",
        -7.900435840908149
      ],
      [
        "▁mektupları",
        -11.027675424501796
      ],
      [
        "▁iliskiler",
        -9.173210270056831
      ],
      [
        "▁hazine'",
        -8.83456732393091
      ],
      [
        "▁bagları",
        -10.389432798805617
      ],
      [
        "▁carpan",
        -10.46423076197978
      ],
      [
        "▁tava",
        -9.550625643841062
      ],
      [
        "▁bunun",
        -4.410861678317182
      ],
      [
        "▁suleyman",
        -8.171091438037156
      ],
      [
        "▁kapılarını",
        -10.60708057241995
      ],
      [
        "▁video",
        -9.801347335438297
      ],
      [
        "▁degisiklik",
        -9.062268941221019
      ],
      [
        "▁kuru",
        -7.42690891198972
      ],
      [
        "▁sıcaklıgı",
        -10.004324248191388
      ],
      [
        "▁sınırlı",
        -11.100445309501776
      ],
      [
        "▁ocakta",
        -10.902475864030226
      ],
      [
        "▁s.",
        -8.818750805044413
      ],
      [
        "▁durma",
        -9.638422916076696
      ],
      [
        "ce",
        -7.37276765553874
      ],
      [
        "▁class",
        -8.004698867144748
      ],
      [
        "▁neresi",
        -7.338079000641589
      ],
      [
        "▁halı",
        -9.47774490504867
      ],
      [
        "onu",
        -10.743640404663353
      ],
      [
        "▁tavuklar",
        -10.748063658310844
      ],
      [
        "▁ga",
        -8.354126557654107
      ],
      [
        "▁halini",
        -9.837944598375518
      ],
      [
        "▁aslan",
        -9.538453118350159
      ],
      [
        "▁sehirlerde",
        -10.584131924325243
      ],
      [
        "▁pazartesi",
        -5.966423898325285
      ],
      [
        "▁cıkma",
        -10.354269711283184
      ],
      [
        "j",
        -8.591226222357394
      ],
      [
        "▁gencligimi",
        -10.92430729437925
      ],
      [
        "▁dengesi",
        -9.12074587775041
      ],
      [
        "▁kendim",
        -6.106222814598597
      ],
      [
        "▁gerilimi",
        -10.881324699979467
      ],
      [
        "▁kesi",
        -8.945817553198728
      ],
      [
        "▁kaldi",
        -5.487903793209691
      ],
      [
        "2",
        -10.094508659587945
      ],
      [
        "mesinde",
        -10.707038412926579
      ],
      [
        "▁acıkcası",
        -11.098860917154852
      ],
      [
        "▁uyum",
        -9.223156540742693
      ],
      [
        "▁doga",
        -8.585087785184719
      ],
      [
        "sef",
        -8.617685786776235
      ],
      [
        "izim",
        -9.429207404679605
      ],
      [
        "▁ressam",
        -10.025263394884584
      ],
      [
        "▁bırakın",
        -8.992403886460078
      ],
      [
        "▁salkım",
        -10.353125068923266
      ],
      [
        "▁soylemedi",
        -8.817449722109092
      ],
      [
        "▁anlami",
        -10.734536782016542
      ],
      [
        "▁bagrın",
        -11.019511041872684
      ],
      [
        "▁yanımda",
        -9.518077973363372
      ],
      [
        "▁damak",
        -8.684806551115543
      ],
      [
        "▁yayı",
        -10.656590193452532
      ],
      [
        "▁adayı",
        -9.7931540704928
      ],
      [
        "▁sevda",
        -9.762684806418726
      ],
      [
        "▁yukarı",
        -7.702108339243992
      ],
      [
        "▁kaynana",
        -11.078041058349832
      ],
      [
        "▁restoran",
        -9.23812852369267
      ],
      [
        "▁karadeniz",
        -9.028324190395953
      ],
      [
        "▁kuruma",
        -10.971876668543084
      ],
      [
        "6",
        -10.158506552024441
      ],
      [
        "▁inanılma",
        -9.574754408558974
      ],
      [
        "▁mut",
        -10.985766871690736
      ],
      [
        "y",
        -7.270921725675689
      ],
      [
        "▁gazeteciler",
        -10.181251835086854
      ],
      [
        "'s",
        -8.46495107981678
      ],
      [
        "▁su",
        -6.739189611085712
      ],
      [
        "▁eylul'de",
        -7.876697701139456
      ],
      [
        "▁pozisyonların",
        -11.083449224779029
      ],
      [
        "ba",
        -9.329077262245207
      ],
      [
        "▁yazarın",
        -9.629960001339729
      ],
      [
        "▁stratejisini",
        -11.066903207670025
      ],
      [
        "▁magazin",
        -10.253107970363251
      ],
      [
        "▁carsıy",
        -11.0830268505375
      ],
      [
        "▁muhendisler",
        -10.920303162618392
      ],
      [
        "▁yetisiyor",
        -9.695086029996224
      ],
      [
        "▁izah",
        -10.589169921889736
      ],
      [
        "▁girisimci",
        -10.79828301092572
      ],
      [
        "j",
        -9.77079349130824
      ],
      [
        "udur",
        -7.528269704878095
      ],
      [
        "▁yurdumuz",
        -10.926993009660306
      ],
      [
        "tan",
        -8.184196537499542
      ],
      [
        "▁kapısında",
        -9.144112123359342
      ],
      [
        "▁olusturdu",
        -9.455475827517136
      ],
      [
        "deydi",
        -9.002217072973666
      ],
      [
        "ı",
        -6.819036269273149
      ],
      [
        "erler",
        -10.995737566408708
      ],
      [
        "eye",
        -9.677077258161194
      ],
      [
        "dılar",
        -7.915950957995643
      ],
      [
        "▁ka",
        -7.814655317270432
      ],
      [
        "ter",
        -9.525134765356468
      ],
      [
        "▁beklentileri",
        -10.167785641740648
      ],
      [
        "n",
        -5.029702813057831
      ],
      [
        "ız",
        -6.902924967862036
      ],
      [
        "▁yitir",
        -9.506416309083097
      ],
      [
        "yacagını",
        -9.881416972531381
      ],
      [
        "▁uye",
        -9.368321431177021
      ],
      [
        "▁ter",
        -8.317479051588451
      ],
      [
        "▁savunma",
        -8.553326045297185
      ],
      [
        "▁semsiye",
        -10.001942502459446
      ],
      [
        "▁rus",
        -10.485584758907756
      ],
      [
        "▁otur",
        -8.237529103507198
      ],
      [
        "a",
        -3.0926384863008725
      ],
      [
        "▁zehir",
        -9.863803970711896
      ],
      [
        "▁tekrar",
        -10.446153802323456
      ],
      [
        "▁ugur",
        -10.608870743699303
      ],
      [
        "▁imalatcıları",
        -10.765181483957711
      ],
      [
        "▁tum",
        -9.042511170874754
      ],
      [
        "mini",
        -9.234340187484479
      ],
      [
        "▁sergi",
        -9.558716261286222
      ],
      [
        "▁senetlerini",
        -9.617771711628922
      ],
      [
        "▁satın",
        -7.164758762820776
      ],
      [
        "▁bu",
        -8.953502648805788
      ],
      [
        "▁tahminleri",
        -10.16301773383704
      ],
      [
        "▁is",
        -9.411232794918957
      ],
      [
        "▁turban",
        -10.732675065790946
      ],
      [
        "cele",
        -9.084700886622908
      ],
      [
        "▁kek",
        -10.826155902885505
      ],
      [
        "▁kenti",
        -11.024655124834137
      ],
      [
        "▁mekan",
        -9.111083749082232
      ],
      [
        "▁getiriyor",
        -8.467826862295286
      ],
      [
        "▁konusunu",
        -10.032782339481342
      ],
      [
        "▁guzelligin",
        -10.016833124622703
      ],
      [
        "▁maske",
        -10.25430247343843
      ],
      [
        "▁onumde",
        -11.076427753961017
      ],
      [
        "▁saygı",
        -8.874821304206533
      ],
      [
        "▁am",
        -9.348195883297526
      ],
      [
        "▁mor",
        -10.430318642322376
      ],
      [
        "▁biyo",
        -11.04761207332287
      ],
      [
        "▁hijyen",
        -9.584336565861417
      ],
      [
        "▁teknede",
        -10.42418996231963
      ],
      [
        "▁davasını",
        -10.098194446570918
      ],
      [
        "▁zorla",
        -9.418596617037352
      ],
      [
        "▁duyuyoru",
        -9.36939703697331
      ],
      [
        "▁sakarya",
        -8.905456144921246
      ],
      [
        "▁aqua",
        -9.447784712694897
      ],
      [
        "▁kurek",
        -10.341253967321173
      ],
      [
        "▁avrupalılar",
        -11.040511581972352
      ],
      [
        "dan",
        -4.923470742661699
      ],
      [
        "▁temelinde",
        -10.807788167257478
      ],
      [
        "▁alem",
        -9.437716256862675
      ],
      [
        "yen",
        -6.847219483426914
      ],
      [
        "▁vurdu",
        -7.930257629841012
      ],
      [
        "▁senet",
        -9.864139270192208
      ],
      [
        "▁istemez",
        -8.717812417151167
      ],
      [
        "▁avrupa",
        -6.539587593629259
      ],
      [
        "▁has",
        -8.726625874575694
      ],
      [
        "▁sıgır",
        -10.353153938677318
      ],
      [
        "▁acılan",
        -9.535568424634164
      ],
      [
        ".25",
        -7.64167423954654
      ],
      [
        "▁macera",
        -10.162220469947307
      ],
      [
        "▁bakma",
        -10.359967070808084
      ],
      [
        "▁bes",
        -4.200467720609225
      ],
      [
        "▁soyluyor",
        -6.6618249196724095
      ],
      [
        "▁uzak",
        -7.416518726101365
      ],
      [
        "▁maydanoz",
        -10.253108115787242
      ],
      [
        "ge",
        -8.622042178127915
      ],
      [
        "▁bulu",
        -8.599103413617508
      ],
      [
        "▁oksadı",
        -9.677755026685741
      ],
      [
        "▁rev",
        -10.5880067581257
      ],
      [
        "▁kaba",
        -9.443484639055661
      ],
      [
        "▁yasadı",
        -8.33059310468889
      ],
      [
        "▁nufusu",
        -10.358653646177975
      ],
      [
        "yecegi",
        -10.755535492513381
      ],
      [
        "▁karakter",
        -9.923916551337879
      ],
      [
        "▁129.",
        -11.098789772244329
      ],
      [
        "▁maden",
        -9.421789037170818
      ],
      [
        "▁kelepir",
        -10.732076246255888
      ],
      [
        "im",
        -6.01645862765523
      ],
      [
        "▁kampanyalar",
        -8.85152593144743
      ],
      [
        "▁ellerin",
        -10.103204895114912
      ],
      [
        "▁girmesi",
        -9.684719979761828
      ],
      [
        "▁patlama",
        -10.619413385801924
      ],
      [
        "▁tu",
        -3.938386220041247
      ],
      [
        "▁istasyon",
        -10.403630102804934
      ],
      [
        "▁falso",
        -10.898779230590666
      ],
      [
        "▁boyutunu",
        -10.755330218823326
      ],
      [
        "▁dısarıy",
        -9.79941960694117
      ],
      [
        "▁2.3",
        -8.058814567633984
      ],
      [
        "sına",
        -7.223004906145986
      ],
      [
        "y",
        -8.416262116003463
      ],
      [
        "▁yardımcı",
        -8.48754528915946
      ],
      [
        "▁ayın",
        -8.925331933158645
      ],
      [
        "▁internet",
        -9.298596218999545
      ],
      [
        "▁sonuclar",
        -8.932923835943797
      ],
      [
        ".",
        -7.934854841237781
      ],
      [
        "p",
        -7.59953942089842
      ],
      [
        "▁kendi",
        -3.6923164518459464
      ],
      [
        "▁gereke",
        -8.279110484610474
      ],
      [
        "la",
        -6.087479352776021
      ],
      [
        "gul",
        -9.123630432505308
      ],
      [
        "▁balık",
        -9.027850425270419
      ],
      [
        "▁detroit",
        -8.640914326914734
      ],
      [
        "▁yapmay",
        -9.228588838578476
      ],
      [
        "▁mes",
        -10.00432328336108
      ],
      [
        "▁enstitusu",
        -10.25356463023278
      ],
      [
        "▁ayag",
        -9.279881019427258
      ],
      [
        "▁miami'de",
        -7.374097466826984
      ],
      [
        "it",
        -8.812710117652534
      ],
      [
        "▁ucu",
        -9.703529121333123
      ],
      [
        "um",
        -5.481463649604067
      ],
      [
        "▁veriliyor",
        -9.224711391335536
      ],
      [
        "▁ustun",
        -8.782234895524562
      ],
      [
        "lma",
        -9.86751030499968
      ],
      [
        "▁istim",
        -10.610096243848027
      ],
      [
        "▁ustun",
        -8.03828813011044
      ],
      [
        "▁service",
        -8.884216716069346
      ],
      [
        "▁'",
        -6.637335732928985
      ],
      [
        "lerdi",
        -7.5038665072839805
      ],
      [
        "▁ta",
        -7.96713719833811
      ],
      [
        "▁halin",
        -7.93956499311185
      ],
      [
        "▁listeler",
        -10.309390648531195
      ],
      [
        "▁aga",
        -9.183693868763076
      ],
      [
        "▁asklar",
        -10.964930031748088
      ],
      [
        "▁sarap",
        -9.801411797724843
      ],
      [
        "▁antrenor",
        -11.098744039818907
      ],
      [
        "▁52",
        -7.688842963038669
      ],
      [
        "▁kasabada",
        -10.004241129674986
      ],
      [
        "▁bono",
        -10.209357016491664
      ],
      [
        "sız",
        -7.68390184486632
      ],
      [
        "▁suphe",
        -8.404558566732096
      ],
      [
        "nı",
        -8.95477844217557
      ],
      [
        "▁bulgur",
        -9.93082708796515
      ],
      [
        "▁sırtı",
        -10.546754181934427
      ],
      [
        "▁hastalık",
        -9.197983501003108
      ],
      [
        "▁kusların",
        -10.683386386813872
      ],
      [
        "▁galerisi",
        -11.099516352832476
      ],
      [
        "▁secenekler",
        -11.006219245605
      ],
      [
        "▁gozum",
        -9.521361674517843
      ],
      [
        "▁bahcesinde",
        -10.600245753252876
      ],
      [
        "▁pence",
        -10.406032795263894
      ],
      [
        "▁badana",
        -11.099871468448564
      ],
      [
        "▁edecekti",
        -8.647247482711206
      ],
      [
        "▁kabak",
        -9.445239235666968
      ],
      [
        "▁onc",
        -8.378922882909404
      ],
      [
        "▁bul",
        -9.669700441320746
      ],
      [
        "▁taksit",
        -10.203845556873489
      ],
      [
        "▁arkasında",
        -8.586301574377565
      ],
      [
        "▁h",
        -10.36850861167564
      ],
      [
        "er",
        -8.912307835519758
      ],
      [
        "▁ay",
        -7.794879922627047
      ],
      [
        "▁mısır",
        -9.399224270178957
      ],
      [
        "▁muhendislik",
        -10.261144357725113
      ],
      [
        "▁universitesi",
        -9.985419894726437
      ],
      [
        "▁dayanıyor",
        -9.582304384997489
      ],
      [
        "▁roman",
        -8.767074616928863
      ],
      [
        "▁duyguları",
        -9.489704940930718
      ],
      [
        "o",
        -7.574551781463574
      ],
      [
        "▁tuketicileri",
        -11.062678558926818
      ],
      [
        "▁isle",
        -10.6386900071055
      ],
      [
        "urdugu",
        -9.088178120876101
      ],
      [
        "▁ala",
        -10.653642944700746
      ],
      [
        "la",
        -5.957128697951971
      ],
      [
        "ndı",
        -9.286074029400767
      ],
      [
        "▁mahmut",
        -8.349867822604647
      ],
      [
        "▁donemlerde",
        -10.165782027529728
      ],
      [
        "▁celik",
        -9.68454028015664
      ],
      [
        "ıkları",
        -9.391163675425311
      ],
      [
        "▁durumlar",
        -10.38453799220982
      ],
      [
        "▁yatar",
        -9.18492835890974
      ],
      [
        "▁mendilin",
        -11.026279999355234
      ],
      [
        "landı",
        -8.795249321410074
      ],
      [
        "▁ellerde",
        -11.126390717149743
      ],
      [
        "▁altı",
        -4.934015652473771
      ],
      [
        "leri",
        -6.064887581930279
      ],
      [
        "▁gerektiriyor",
        -8.965139998205974
      ],
      [
        "▁dedem",
        -10.417293679526498
      ],
      [
        "▁kullanılı",
        -9.282414373089779
      ],
      [
        "▁once",
        -6.588669453421989
      ],
      [
        "▁ıska",
        -11.098756142384758
      ],
      [
        "▁araya",
        -8.525755107115026
      ],
      [
        "▁27'",
        -11.098749846924546
      ],
      [
        "▁hepsi",
        -4.889312156628242
      ],
      [
        "▁hisseler",
        -8.61998068078267
      ],
      [
        "gimiz",
        -9.222165825747538
      ],
      [
        "▁1/2'",
        -10.078865741702852
      ],
      [
        "▁nem",
        -10.60375809326783
      ],
      [
        "ger",
        -10.259287854071065
      ],
      [
        "▁mutluluk",
        -9.536361730917674
      ],
      [
        "isini",
        -10.562856550585995
      ],
      [
        "▁kurulusunu",
        -10.656665080427674
      ],
      [
        "▁le",
        -7.9684656035839705
      ],
      [
        "▁yapımcı",
        -10.641805268801706
      ],
      [
        "▁inis",
        -9.587582958624038
      ],
      [
        "▁dinkins",
        -8.987129051652959
      ],
      [
        "sizligin",
        -11.017391424922241
      ],
      [
        "▁ucretler",
        -9.693714539341759
      ],
      [
        "▁acente",
        -9.250563029094401
      ],
      [
        "▁maddelerin",
        -10.591133240089352
      ],
      [
        "r",
        -6.5679732324376445
      ],
      [
        "▁etmeyecegi",
        -9.62007615352428
      ],
      [
        "▁erdogan",
        -8.51117952359293
      ],
      [
        "▁bulmak",
        -9.401175452719027
      ],
      [
        "▁alamay",
        -9.765015970060258
      ],
      [
        "v",
        -8.961232844137596
      ],
      [
        "▁seruveni",
        -10.940075912218326
      ],
      [
        "▁ka",
        -8.294860978827629
      ],
      [
        "yı",
        -7.484810634208488
      ],
      [
        "▁batı",
        -9.012752422080553
      ],
      [
        "▁itaatsizlik",
        -11.098958280753171
      ],
      [
        "▁bircogu",
        -8.872089876739578
      ],
      [
        "▁devirdi",
        -9.658291912564158
      ],
      [
        "ot",
        -9.885601502498996
      ],
      [
        "mezse",
        -9.054683499293631
      ],
      [
        "▁servisi",
        -8.029707775799501
      ],
      [
        "u",
        -4.295690201514403
      ],
      [
        "▁cevir",
        -9.418602973102255
      ],
      [
        "▁pozisyonları",
        -10.629500632381594
      ],
      [
        "▁bende",
        -10.928205698616317
      ],
      [
        "▁odedigim",
        -6.715099991319124
      ],
      [
        "er",
        -11.017488162037896
      ],
      [
        "li",
        -4.226068988600278
      ],
      [
        "▁olmadıgını",
        -8.282435846921878
      ],
      [
        "▁oldugum",
        -7.761207621413908
      ],
      [
        "ala",
        -9.934545394150513
      ],
      [
        "c",
        -4.254761954954862
      ],
      [
        ".3",
        -7.604899099068726
      ],
      [
        "▁kendisinde",
        -6.859663833901616
      ],
      [
        "▁polisler",
        -9.636547683128757
      ],
      [
        "▁sokakları",
        -10.78587599022137
      ],
      [
        "▁vicdan",
        -10.003038952697693
      ],
      [
        "▁boylesin",
        -10.772320204476731
      ],
      [
        "▁savunma",
        -8.580336039795728
      ],
      [
        "▁catla",
        -8.58703951183536
      ],
      [
        "▁yapma",
        -8.44092464579624
      ],
      [
        "likleri",
        -10.684461977672438
      ],
      [
        "▁gectigim",
        -8.61122539536374
      ],
      [
        "eren",
        -8.96638790483414
      ],
      [
        "an",
        -5.667896662926791
      ],
      [
        "▁zeytin",
        -9.537602603232909
      ],
      [
        "▁tasarı",
        -9.961345238286782
      ],
      [
        "▁sah",
        -10.231503218827068
      ],
      [
        "im",
        -8.423356213656092
      ],
      [
        "▁islemlerini",
        -9.95656653710327
      ],
      [
        "▁bakılır",
        -9.580370831348036
      ],
      [
        "▁calkala",
        -9.148098381269094
      ],
      [
        "▁ozgurluk",
        -10.014695018016566
      ],
      [
        "▁ayrıl",
        -9.525849234516771
      ],
      [
        "▁insanlık",
        -10.406110433795394
      ],
      [
        "▁olustur",
        -8.802269033916666
      ],
      [
        "▁degil",
        -2.538634238983531
      ],
      [
        "▁turnuva",
        -10.589240787529935
      ],
      [
        "▁kalmıs",
        -7.921193617553888
      ],
      [
        "▁gurultu",
        -9.034413183574866
      ],
      [
        "ord",
        -10.452040248011802
      ],
      [
        "▁hassas",
        -8.493380798764369
      ],
      [
        "▁tabir",
        -10.236820658594093
      ],
      [
        "▁gibiydi",
        -7.968276141661371
      ],
      [
        "▁hazine",
        -8.09879126435801
      ],
      [
        "ciligin",
        -10.560056069261464
      ],
      [
        "pati",
        -9.209084273134739
      ],
      [
        "▁yelpaze",
        -10.06898037284501
      ],
      [
        "▁vesika",
        -10.810452586846116
      ],
      [
        "▁muhim",
        -8.890464455683254
      ],
      [
        "▁air",
        -6.400627223074339
      ],
      [
        "▁gerektigin",
        -8.213949804544509
      ],
      [
        "▁kara",
        -6.747199164576153
      ],
      [
        "▁destekciler",
        -10.911234515384077
      ],
      [
        "▁hosum",
        -9.254613828975128
      ],
      [
        "▁savcılıgın",
        -10.465029559070281
      ],
      [
        "▁endise",
        -8.932041596664273
      ],
      [
        "isti",
        -8.802880205539692
      ],
      [
        "▁kullanımı",
        -10.063919634091064
      ],
      [
        "ılan",
        -9.34974620572056
      ],
      [
        "▁tasavvur",
        -10.589219105017861
      ],
      [
        "▁resesyon",
        -10.589219663322922
      ],
      [
        "▁dolabı",
        -10.6677967184473
      ],
      [
        "▁zaptiye",
        -11.098833458081614
      ],
      [
        "▁gazeteci",
        -9.84676196757604
      ],
      [
        "▁ettir",
        -9.318261701259091
      ],
      [
        "'nu",
        -9.049754453189497
      ],
      [
        "▁yor",
        -8.532903657937023
      ],
      [
        "▁kesilmis",
        -9.01380880814315
      ],
      [
        "▁veteriner",
        -10.732076223266795
      ],
      [
        "▁tanır",
        -9.268132507547328
      ],
      [
        "▁amca",
        -9.864739901305267
      ],
      [
        "▁saglaya",
        -9.599930527265515
      ],
      [
        "▁turev",
        -10.899691231674723
      ],
      [
        "▁bakıyordu",
        -8.021371742532127
      ],
      [
        "▁ispir",
        -10.73217194375589
      ],
      [
        "▁topla",
        -9.589253818496736
      ],
      [
        "eyi",
        -9.5178479421331
      ],
      [
        "▁olmasını",
        -8.871897021971819
      ],
      [
        "▁gorme",
        -9.517295324868972
      ],
      [
        "▁hazırlıklar",
        -10.786290790953533
      ],
      [
        "▁hikayesin",
        -10.953995630456875
      ],
      [
        "▁tasın",
        -9.431236883183264
      ],
      [
        "▁1990'lar",
        -10.865196280448535
      ],
      [
        "▁paketi",
        -10.47598070982976
      ],
      [
        "▁katılan",
        -9.418934496726038
      ],
      [
        "▁hayır",
        -8.64403308301028
      ],
      [
        "uncu",
        -8.61725654199062
      ],
      [
        "meyecegi",
        -9.666228555532513
      ],
      [
        "▁olabil",
        -8.713444226035984
      ],
      [
        "▁ebeveynler",
        -10.843571726586664
      ],
      [
        "▁havuzlar",
        -8.668860464291242
      ],
      [
        "▁yetkili",
        -8.701522635090374
      ],
      [
        "▁limuzin",
        -9.6869683502883
      ],
      [
        "/",
        -9.808952538306787
      ],
      [
        "e",
        -3.073718075016717
      ],
      [
        "▁satım",
        -8.15370849809909
      ],
      [
        "▁bilek",
        -10.983495470883067
      ],
      [
        "▁yoksul",
        -9.438227397011886
      ],
      [
        "▁dedik",
        -9.290945630421318
      ],
      [
        "▁benzer",
        -8.424701282467826
      ],
      [
        "▁turu",
        -9.323091580311054
      ],
      [
        "bi",
        -7.635688365991328
      ],
      [
        "▁farkın",
        -10.078066604043773
      ],
      [
        "▁konusmalar",
        -9.754625963795686
      ],
      [
        "▁kısmını",
        -9.093421559964412
      ],
      [
        "▁cer",
        -10.59911203250911
      ],
      [
        "▁bos",
        -6.966195874127998
      ],
      [
        "▁dilek",
        -10.529311675849831
      ],
      [
        "▁ofisi",
        -9.652197709882804
      ],
      [
        "▁tası",
        -8.400657897680823
      ],
      [
        "▁zihniyet",
        -11.098778683444037
      ],
      [
        "▁karıs",
        -9.329950266718349
      ],
      [
        "cı",
        -9.09684505447019
      ],
      [
        "memis",
        -9.441297493588007
      ],
      [
        "▁icini",
        -9.47492425952366
      ],
      [
        "bazıları",
        -10.392545928745626
      ],
      [
        "▁beylik",
        -10.855301868238996
      ],
      [
        "▁7\\/",
        -6.8180399467908055
      ],
      [
        "▁goremedi",
        -8.666765893352476
      ],
      [
        "▁varlıklar",
        -9.35636244849529
      ],
      [
        "▁temas",
        -9.763463117320374
      ],
      [
        "▁japonlar",
        -9.903172855892489
      ],
      [
        "20'de",
        -10.910496620244595
      ],
      [
        "▁yapıldıgın",
        -10.397002591275184
      ],
      [
        "▁denetleme",
        -10.898744022385733
      ],
      [
        "yle",
        -9.220873921764019
      ],
      [
        "▁saatler",
        -7.57708540844906
      ],
      [
        "▁rapor",
        -8.349981916411185
      ],
      [
        "▁yapılan",
        -6.93763034813531
      ],
      [
        "▁moral",
        -10.1927848608955
      ],
      [
        "dır",
        -6.552896859402912
      ],
      [
        "▁istek",
        -10.193380928956332
      ],
      [
        "▁sana",
        -9.592105931788858
      ],
      [
        "▁oysa",
        -7.627516959748585
      ],
      [
        "▁solunum",
        -10.465379903989689
      ],
      [
        "▁kafam",
        -10.571107495327167
      ],
      [
        "▁anlatır",
        -8.729529385443227
      ],
      [
        "▁sarıldı",
        -9.054640727984703
      ],
      [
        "felsefi",
        -9.641218144196376
      ],
      [
        "▁dostlugun",
        -10.69180238166255
      ],
      [
        "▁leke",
        -9.548637533951897
      ],
      [
        "ar",
        -7.961408490009891
      ],
      [
        "▁kurmay",
        -9.923536899240847
      ],
      [
        "man",
        -7.430768097625315
      ],
      [
        "▁kıta",
        -10.467838320231714
      ],
      [
        "▁alısveris",
        -8.553063018598525
      ],
      [
        "▁dusundugum",
        -8.699969769942838
      ],
      [
        "tir",
        -9.557012668674261
      ],
      [
        "▁beklen",
        -9.016029202371001
      ],
      [
        "▁artıyor",
        -9.147584835145729
      ],
      [
        "▁planlan",
        -9.301694983087668
      ],
      [
        "b",
        -7.787526154383432
      ],
      [
        "▁ıslık",
        -10.353126181084054
      ],
      [
        "▁aletler",
        -10.768382783804572
      ],
      [
        "▁sınıfta",
        -9.579787391227237
      ],
      [
        "▁kurtar",
        -8.931447986482953
      ],
      [
        "layıcı",
        -9.249138487677989
      ],
      [
        "lay",
        -9.790598636775993
      ],
      [
        "tup",
        -9.663328206697585
      ],
      [
        "▁sauna",
        -9.088278020617963
      ],
      [
        "▁planlarını",
        -9.730698575378867
      ],
      [
        "rac",
        -10.679028383101379
      ],
      [
        "%",
        -12.802702672349787
      ],
      [
        "maktan",
        -9.439344523901188
      ],
      [
        "tım",
        -8.945367856450623
      ],
      [
        "▁duyar",
        -8.934508568706839
      ],
      [
        "▁kom",
        -11.096492035000571
      ],
      [
        "▁calıstıgı",
        -9.419508929551979
      ],
      [
        "▁fırka",
        -11.0989477802453
      ],
      [
        "izi",
        -9.289134934642895
      ],
      [
        "tip",
        -10.733122025378096
      ],
      [
        "▁cat",
        -10.232281690901347
      ],
      [
        "▁espri",
        -10.685581693563867
      ],
      [
        "▁in",
        -8.52834500238243
      ],
      [
        "▁goturuyor",
        -9.639953897458732
      ],
      [
        "▁metni",
        -10.448185572501746
      ],
      [
        "▁tarafını",
        -10.052166937696647
      ],
      [
        "▁tekrar",
        -5.767848238720847
      ],
      [
        "r",
        -7.106343181501261
      ],
      [
        "▁nikah",
        -9.970188379776475
      ],
      [
        "▁ulasim",
        -10.592978106495796
      ],
      [
        "▁iflah",
        -11.098743232122112
      ],
      [
        "▁dondurdu",
        -9.244121734433373
      ],
      [
        "▁sark",
        -10.955508901274868
      ],
      [
        "▁istemis",
        -8.990180707118032
      ],
      [
        "tu",
        -7.577732519370213
      ],
      [
        "▁ozelliklerin",
        -10.31680653573589
      ],
      [
        "▁tramvay",
        -9.742523706193904
      ],
      [
        "▁reklamcılar",
        -10.364866363783701
      ],
      [
        "▁surusu",
        -10.900237504974717
      ],
      [
        "▁6.",
        -8.178730865043518
      ],
      [
        "▁arada",
        -7.748422970717839
      ],
      [
        "▁pisir",
        -9.569895014924938
      ],
      [
        "▁kendin",
        -8.523181040772364
      ],
      [
        "▁cekmek",
        -9.413187574516883
      ],
      [
        "▁buyuyor",
        -9.526494253119733
      ],
      [
        "▁imkb",
        -9.009368639899556
      ],
      [
        "▁catma",
        -10.741780689236972
      ],
      [
        "=",
        -11.302702672349787
      ],
      [
        "▁vakası",
        -10.949982039720034
      ],
      [
        "▁borc",
        -7.8894008954708985
      ],
      [
        "▁zevkin",
        -10.567149722214934
      ],
      [
        "▁kimi",
        -5.800937397148718
      ],
      [
        "▁gelir",
        -7.309942872070033
      ],
      [
        "sı",
        -8.50521445051493
      ],
      [
        "▁yukarıda",
        -8.885942140034402
      ],
      [
        "▁icat",
        -9.687924230529255
      ],
      [
        "▁yıl",
        -7.903817682942627
      ],
      [
        "▁salep",
        -10.898823779934945
      ],
      [
        "▁yuvası",
        -10.84109591713816
      ],
      [
        "▁koparma",
        -11.119335592544788
      ],
      [
        "▁yumusa",
        -7.937687443718504
      ],
      [
        "▁rus",
        -9.607242633933556
      ],
      [
        "▁dolduraca",
        -9.421346930312897
      ],
      [
        "▁tamam",
        -10.585658938309766
      ],
      [
        "▁beden",
        -10.103469383630431
      ],
      [
        "▁erik",
        -10.085704458074105
      ],
      [
        "▁elestiriler",
        -10.788081794908853
      ],
      [
        "▁ulasım",
        -8.014398115250813
      ],
      [
        "▁bozuntu",
        -11.098743151486808
      ],
      [
        "▁etegi",
        -10.982818010524817
      ],
      [
        "▁bagımlılıgı",
        -10.58928701300215
      ],
      [
        "▁kosma",
        -10.622074524242146
      ],
      [
        "▁arap",
        -8.383572908658925
      ],
      [
        "▁olmadıgı",
        -8.12799028499981
      ],
      [
        "▁sıkıntıları",
        -10.646638049929436
      ],
      [
        "▁haftalı",
        -8.124062166503307
      ],
      [
        "at",
        -8.414145194516925
      ],
      [
        "lıyor",
        -8.689698215724924
      ],
      [
        "us",
        -8.454761038481479
      ],
      [
        "▁komutanın",
        -10.548183115678416
      ],
      [
        "▁yuvarla",
        -8.408690023685082
      ],
      [
        "▁denile",
        -8.392108695656162
      ],
      [
        "▁karmakarıs",
        -9.209400655508214
      ],
      [
        "▁olumu",
        -9.619492879806387
      ],
      [
        "▁hızın",
        -10.651395909009768
      ],
      [
        "▁olabilirler",
        -9.456551621602634
      ],
      [
        "▁paul'",
        -7.571377764242304
      ],
      [
        "▁san",
        -9.118720263965985
      ],
      [
        "▁hedefleri",
        -9.686566451360257
      ],
      [
        "▁elin",
        -8.74583840893159
      ],
      [
        "▁tasarımı",
        -10.666412374820162
      ],
      [
        "▁inkılabı",
        -11.098742889315783
      ],
      [
        "▁kulturun",
        -10.315140807171023
      ],
      [
        "▁kılıyor",
        -9.447665496826051
      ],
      [
        "▁hukmunu",
        -11.1141595679296
      ],
      [
        "▁muharrir",
        -10.898742890239836
      ],
      [
        "▁istihdam",
        -9.262247086912035
      ],
      [
        "▁kenarları",
        -9.59080827443646
      ],
      [
        "▁santimetre",
        -10.58921911501698
      ],
      [
        "▁onem",
        -8.643818201763617
      ],
      [
        "▁konuk",
        -10.506115932844194
      ],
      [
        "▁alıntı",
        -10.35348679419831
      ],
      [
        "hi",
        -8.532206181582685
      ],
      [
        "▁soyledikleri",
        -10.789965420056884
      ],
      [
        "▁gala",
        -11.10360473929223
      ],
      [
        "▁var",
        -8.589940141837253
      ],
      [
        "▁bilmedigi",
        -9.560302734290364
      ],
      [
        "▁sigorta",
        -8.367598497618655
      ],
      [
        "▁'l",
        -7.608057516594849
      ],
      [
        "▁2.6",
        -7.411926299767766
      ],
      [
        "▁onunde",
        -7.6757174923975535
      ],
      [
        "00",
        -5.835146209538179
      ],
      [
        "▁kisiler",
        -8.718092634513834
      ],
      [
        "▁birkacın",
        -9.399524416146818
      ],
      [
        "▁yasayı",
        -10.881967989789745
      ],
      [
        "▁esyalar",
        -9.850698737741327
      ],
      [
        "▁tutar",
        -9.832291541112006
      ],
      [
        "▁dalgalanma",
        -10.069810985034348
      ],
      [
        "▁18.",
        -7.843812565487936
      ],
      [
        "▁yonetim",
        -8.711075021151963
      ],
      [
        "3",
        -10.239201196825352
      ],
      [
        "▁ede",
        -8.332088230500652
      ],
      [
        "aval",
        -10.923956071416967
      ],
      [
        "▁siddet",
        -9.192526999201666
      ],
      [
        "ındaki",
        -6.092440581840932
      ],
      [
        "▁yabanci",
        -9.864330410525653
      ],
      [
        "▁ortul",
        -9.005596190002485
      ],
      [
        "▁ortada",
        -9.207116802140796
      ],
      [
        "▁hicbirisi",
        -9.105927753122451
      ],
      [
        "▁yasama",
        -9.239135733798527
      ],
      [
        "▁sirketlerin",
        -9.013671989676709
      ],
      [
        "▁yeryuzunde",
        -10.272261417625487
      ],
      [
        "▁koz",
        -10.86473455914367
      ],
      [
        "▁medeniyet",
        -9.970549431263382
      ],
      [
        "▁boyu",
        -8.690324009793352
      ],
      [
        "▁gelme",
        -9.498641965130538
      ],
      [
        "▁yu",
        -7.611395303790645
      ],
      [
        "▁sifre",
        -10.898959024435907
      ],
      [
        "tab",
        -9.553635617866544
      ],
      [
        "▁birl",
        -8.456773045245946
      ],
      [
        "bası",
        -9.635506195941733
      ],
      [
        "ret",
        -9.300785529305248
      ],
      [
        "▁animator",
        -11.087460839398293
      ],
      [
        "▁duruyorlar",
        -9.589450123902168
      ],
      [
        "▁olusturma",
        -10.001943808073666
      ],
      [
        "▁karsılasma",
        -10.764732419228627
      ],
      [
        "▁va",
        -8.05949518139524
      ],
      [
        "kilerin",
        -10.52302293092185
      ],
      [
        "▁cesitli",
        -7.127344675886908
      ],
      [
        "lastik",
        -9.262680586536431
      ],
      [
        "▁mart",
        -9.053814133516301
      ],
      [
        "ak",
        -5.6150221036885055
      ],
      [
        "p",
        -8.32882341872089
      ],
      [
        "programı",
        -10.350751358095993
      ],
      [
        "▁taktik",
        -10.852193136138082
      ],
      [
        "▁calısmalar",
        -10.785120870375453
      ],
      [
        "▁filozof",
        -10.464219437857292
      ],
      [
        "▁inc",
        -6.94299459218671
      ],
      [
        "▁nes",
        -8.78591188916262
      ],
      [
        "▁bag",
        -8.348181691497707
      ],
      [
        "▁mahkemede",
        -9.730920409453038
      ],
      [
        "▁edilmesi",
        -9.539387496687684
      ],
      [
        "▁filmler",
        -10.41884930722318
      ],
      [
        "de",
        -5.3119117464301135
      ],
      [
        ".2",
        -7.8770613473907005
      ],
      [
        "ha",
        -8.752005402359181
      ],
      [
        "▁hak",
        -8.690799214916495
      ],
      [
        "▁seci",
        -10.497514784392688
      ],
      [
        "▁niyetl",
        -9.644455609412667
      ],
      [
        "n",
        -4.47857523954771
      ],
      [
        "▁kalca",
        -11.090096112522522
      ],
      [
        "▁mantık",
        -8.140580639447716
      ],
      [
        "am",
        -8.734235006310392
      ],
      [
        "▁anlatmak",
        -9.161231803548727
      ],
      [
        "▁maksat",
        -10.732076300111004
      ],
      [
        "▁catır",
        -9.312709422253363
      ],
      [
        "▁profesorun",
        -11.007655328542835
      ],
      [
        "▁anlatmıs",
        -9.643204996703808
      ],
      [
        "▁canad",
        -8.636088869980865
      ],
      [
        "ormusc",
        -9.771084002896407
      ],
      [
        "▁yuzuk",
        -10.052222301795428
      ],
      [
        "▁tank",
        -10.835801119212746
      ],
      [
        "▁tutturu",
        -9.76479399545336
      ],
      [
        "▁tadin",
        -10.008573089267866
      ],
      [
        "▁icimiz",
        -10.599860890117462
      ],
      [
        "▁bitirmis",
        -9.731199185989603
      ],
      [
        "▁allah'",
        -8.415080998482463
      ],
      [
        "▁pilotu",
        -10.720914620522779
      ],
      [
        "▁gecmis",
        -9.952787814880457
      ],
      [
        "▁olumsuzluklarda",
        -10.788444153954188
      ],
      [
        "▁13",
        -6.181566688398235
      ],
      [
        "bia",
        -10.845521755650587
      ],
      [
        "▁blok",
        -10.960632915372052
      ],
      [
        "bili",
        -7.975758866809144
      ],
      [
        "▁gazino",
        -9.990694055792131
      ],
      [
        "siniz",
        -10.738696271160013
      ],
      [
        "▁doya",
        -9.193241849222353
      ],
      [
        "▁yigidi",
        -11.098743115897044
      ],
      [
        "▁cocukların",
        -8.790181971231123
      ],
      [
        "▁city'",
        -6.532412024171422
      ],
      [
        "▁rub",
        -10.899790917921559
      ],
      [
        "▁dusme",
        -10.213064146391751
      ],
      [
        "▁cıkmaya",
        -10.212139461119062
      ],
      [
        "▁bu",
        -9.487970216524674
      ],
      [
        "▁duyu",
        -9.64312132234334
      ],
      [
        "▁eksikler",
        -10.640852524210077
      ],
      [
        "▁dairesi",
        -10.17916859309386
      ],
      [
        "▁toprag",
        -9.7156229474995
      ],
      [
        "▁civ",
        -10.870930375473172
      ],
      [
        "attıgı",
        -10.997253164093555
      ],
      [
        "▁ogrenme",
        -8.861419351087095
      ],
      [
        "▁ja",
        -9.942669196750465
      ],
      [
        "lki",
        -8.851576599772198
      ],
      [
        "▁biri",
        -8.13271791280848
      ],
      [
        "▁inanıyoru",
        -9.563925951087857
      ],
      [
        "▁ikibiniki",
        -7.580859184707477
      ],
      [
        "▁goller",
        -10.465202971161544
      ],
      [
        "▁tespit",
        -9.290623793045118
      ],
      [
        "▁kursun",
        -9.160608816460002
      ],
      [
        "▁d",
        -7.853809268752026
      ],
      [
        "▁garanti",
        -8.888158283565495
      ],
      [
        "kten",
        -7.853918357564823
      ],
      [
        "nıyor",
        -9.705340769686464
      ],
      [
        "▁continental",
        -6.602896564173301
      ],
      [
        "hal",
        -9.570451657428913
      ],
      [
        "selam",
        -9.77267986242837
      ],
      [
        "▁parmaklarını",
        -10.046716670875327
      ],
      [
        "manın",
        -10.693050506480043
      ],
      [
        "▁emlak",
        -9.536731248225447
      ],
      [
        "▁sonuclarını",
        -9.680610609795092
      ],
      [
        "▁parcacıklar",
        -10.353525822098895
      ],
      [
        "▁poyraz",
        -10.73207622275146
      ],
      [
        "▁buruklu",
        -11.098815721812535
      ],
      [
        "asla",
        -7.040142036828939
      ],
      [
        "▁dusman",
        -9.311463415038308
      ],
      [
        "▁alacaklılar",
        -10.022074475114248
      ],
      [
        "▁aldi",
        -8.695754098917877
      ],
      [
        "▁saki",
        -6.997830724557234
      ],
      [
        "▁uykusu",
        -10.989975249186307
      ],
      [
        "▁ani",
        -8.79281280256296
      ],
      [
        "▁kararları",
        -10.575250983378542
      ],
      [
        "▁olma",
        -7.931604073014841
      ],
      [
        "▁7.",
        -8.257306022793935
      ],
      [
        "▁belediye",
        -8.629342264645063
      ],
      [
        "oluy",
        -8.64308769233122
      ],
      [
        "ampanya",
        -10.731901249261302
      ],
      [
        "▁kosar",
        -8.545452459367537
      ],
      [
        "▁kur",
        -9.175021919607108
      ],
      [
        "▁sik",
        -10.854599419396315
      ],
      [
        "▁adl",
        -9.489437247379154
      ],
      [
        "▁yaklasıyor",
        -9.60960345800296
      ],
      [
        "ulan",
        -9.46195697746398
      ],
      [
        "▁cd",
        -9.968203889809619
      ],
      [
        "▁ilgili",
        -5.433302855292382
      ],
      [
        "▁tatilimi",
        -10.902607779357385
      ],
      [
        "▁toprakları",
        -10.668737690128776
      ],
      [
        "il",
        -5.634874555172875
      ],
      [
        "▁lobi",
        -9.45887828716776
      ],
      [
        "▁inan",
        -10.843285256766723
      ],
      [
        "▁bir",
        -3.02795157023942
      ],
      [
        "mal",
        -9.261284462200438
      ],
      [
        "▁",
        -2.4272339966376846
      ],
      [
        "▁geceleri",
        -9.34775718779903
      ],
      [
        "▁sirketler",
        -8.266632883219955
      ],
      [
        "▁elif",
        -8.625116038621695
      ],
      [
        "▁toronto",
        -10.589219079965357
      ],
      [
        "▁25",
        -5.692044772168898
      ],
      [
        "▁ablası",
        -10.14097888999897
      ],
      [
        "▁direktoru",
        -9.331871362482154
      ],
      [
        "▁mana",
        -9.510090823079802
      ],
      [
        "▁karıstırma",
        -10.596868417988182
      ],
      [
        "▁kulagını",
        -10.965352019541216
      ],
      [
        "▁birde",
        -10.960973351158565
      ],
      [
        "yuklu",
        -8.623668324093863
      ],
      [
        "▁duygularını",
        -9.540323052119852
      ],
      [
        "▁olmadigin",
        -10.215127585993475
      ],
      [
        "lıgını",
        -8.82566086644638
      ],
      [
        "▁hareketleri",
        -10.179253808097497
      ],
      [
        "▁trafik",
        -9.327656515294393
      ],
      [
        "▁uyusturucu",
        -8.114764989686812
      ],
      [
        "▁sose",
        -10.989638393030631
      ],
      [
        "▁issizlik",
        -9.933958028479479
      ],
      [
        "▁agrıları",
        -10.318681853775201
      ],
      [
        "▁islerde",
        -10.668072485330416
      ],
      [
        "▁yata",
        -9.033874724782049
      ],
      [
        "etim",
        -10.97779725658908
      ],
      [
        "▁sedirin",
        -11.113328133568569
      ],
      [
        "tli",
        -9.311672479618816
      ],
      [
        "var",
        -9.222954320600746
      ],
      [
        "▁memuru",
        -9.741536123011981
      ],
      [
        "▁boyun",
        -9.25249015614443
      ],
      [
        "▁noktasın",
        -9.96396674153917
      ],
      [
        "▁agzını",
        -9.133311543777458
      ],
      [
        "▁ortami",
        -10.420262555029364
      ],
      [
        "▁belirtiyor",
        -8.720424871989112
      ],
      [
        "▁hep",
        -10.929380793711124
      ],
      [
        "▁toplantılar",
        -10.080524245146925
      ],
      [
        "▁ucusunuz",
        -11.0968988456529
      ],
      [
        "▁agres",
        -9.319321390374053
      ],
      [
        "eden",
        -7.420764609517118
      ],
      [
        "▁kahramanı",
        -10.643184515471985
      ],
      [
        "▁edilemez",
        -9.023338304054509
      ],
      [
        "▁kulubu",
        -9.863860854902885
      ],
      [
        "▁meseleler",
        -10.239513523223678
      ],
      [
        "tır",
        -6.766149102960735
      ],
      [
        "▁site",
        -10.682090319904646
      ],
      [
        "ımla",
        -10.713086629771562
      ],
      [
        "▁ber",
        -9.392636826882688
      ],
      [
        "un",
        -6.350571138778809
      ],
      [
        "▁gayri",
        -10.253127683839264
      ],
      [
        "▁cizgi",
        -9.120763942749667
      ],
      [
        "▁oray",
        -8.045194802792096
      ],
      [
        "bele",
        -10.708610075982573
      ],
      [
        "▁dondu",
        -7.27814693984771
      ],
      [
        "asagı",
        -7.350576247561033
      ],
      [
        "▁katı",
        -9.489353793165774
      ],
      [
        "▁saffet",
        -8.493727165082378
      ],
      [
        "▁1988'de",
        -9.59079765431196
      ],
      [
        "▁kandır",
        -9.772388490138166
      ],
      [
        "meger",
        -11.466125186009307
      ],
      [
        "mıyor",
        -8.744683849342724
      ],
      [
        "▁3/8'",
        -11.09874291108388
      ],
      [
        "▁ysan",
        -8.0237624935476
      ],
      [
        "▁koru",
        -9.530772835516238
      ],
      [
        "yım",
        -8.625334948385206
      ],
      [
        "▁cabuklu",
        -10.898743714025661
      ],
      [
        "▁kova",
        -9.80718750175111
      ],
      [
        "ı",
        -6.290151035760891
      ],
      [
        "▁ulke",
        -8.084284521042996
      ],
      [
        "▁gercekles",
        -8.949708447323436
      ],
      [
        "te",
        -3.0767595735108397
      ],
      [
        "▁bulusu",
        -11.104917972520402
      ],
      [
        "▁say",
        -9.638513625030999
      ],
      [
        "▁gorbacov",
        -8.639050233112885
      ],
      [
        "gında",
        -11.073570718074365
      ],
      [
        "▁isteri",
        -8.557005958914086
      ],
      [
        "yor",
        -6.792739334769136
      ],
      [
        "▁anlatıyor",
        -8.761427300797981
      ],
      [
        "ton",
        -7.6226007165899015
      ],
      [
        "▁ala",
        -9.497816087482008
      ],
      [
        "▁del",
        -10.638625742678654
      ],
      [
        "▁domuz",
        -9.935398934467246
      ],
      [
        "▁etmisti",
        -7.781394403132175
      ],
      [
        "▁one",
        -9.247741338002157
      ],
      [
        "▁yılan",
        -10.334933152295129
      ],
      [
        "▁etmesin",
        -10.698754280945915
      ],
      [
        "▁anlamaya",
        -11.003886719919288
      ],
      [
        "▁kısım",
        -9.872787543663513
      ],
      [
        "▁ayva",
        -9.932604653500748
      ],
      [
        "▁kurku",
        -11.050720895855115
      ],
      [
        "▁boynun",
        -9.563933381821505
      ],
      [
        "▁baykal",
        -8.912894727719703
      ],
      [
        "▁her",
        -6.384114116204266
      ],
      [
        "▁vuruyor",
        -9.110117752900049
      ],
      [
        "▁analizi",
        -10.773457646620923
      ],
      [
        "▁de",
        -4.7753992930642415
      ],
      [
        "▁hale",
        -7.8048698335388655
      ],
      [
        "76",
        -8.282706984854414
      ],
      [
        "▁geceler",
        -9.899416562732029
      ],
      [
        "▁takımın",
        -9.93185258033636
      ],
      [
        "▁baskanı'nı",
        -10.902372882871873
      ],
      [
        "▁john",
        -7.546371710635979
      ],
      [
        "▁parası",
        -9.646131397853496
      ],
      [
        "▁baskan",
        -8.311889032106556
      ],
      [
        "▁olum",
        -7.852817688776028
      ],
      [
        "▁ingiltere'",
        -8.811142713201948
      ],
      [
        "arlık",
        -8.986337902015936
      ],
      [
        "f",
        -11.199613634584775
      ],
      [
        "▁savasın",
        -10.366817777214163
      ],
      [
        "▁rey",
        -10.381001875394421
      ],
      [
        "▁ort",
        -11.076630509166877
      ],
      [
        "▁babanız",
        -10.911036916360532
      ],
      [
        "liklerin",
        -9.535672698502811
      ],
      [
        "▁kaynaklar",
        -10.091086459489814
      ],
      [
        "▁dunya",
        -6.834314653134896
      ],
      [
        "▁h",
        -8.166014944829916
      ],
      [
        "rca",
        -9.53592874546175
      ],
      [
        "▁etki",
        -9.204831295880936
      ],
      [
        "▁kumar",
        -9.489576206958612
      ],
      [
        "▁topa",
        -10.487726416604374
      ],
      [
        "▁eylul",
        -7.337048712433888
      ],
      [
        "▁acılıyor",
        -8.920699669440262
      ],
      [
        "em",
        -11.24164467511393
      ],
      [
        "▁ureticileri",
        -9.2463143129156
      ],
      [
        "▁aldıgım",
        -9.409036611914475
      ],
      [
        "▁dinleme",
        -10.2447287803116
      ],
      [
        "▁gozlerini",
        -8.042141792163243
      ],
      [
        "▁bina",
        -8.58880470443565
      ],
      [
        "▁198",
        -5.050423814575034
      ],
      [
        "▁isteyenler",
        -9.342582314370743
      ],
      [
        "▁egilimleri",
        -10.741797975994848
      ],
      [
        "▁8.3",
        -8.326364006999562
      ],
      [
        "▁kosey",
        -9.75362358219408
      ],
      [
        "▁sag",
        -9.29627902801429
      ],
      [
        "▁teli",
        -10.90918219828253
      ],
      [
        "▁ned",
        -8.684053434300221
      ],
      [
        "▁dahi",
        -10.68445563952811
      ],
      [
        "▁beach'",
        -7.723797446186319
      ],
      [
        "diyet",
        -10.447510959562859
      ],
      [
        "▁iliskisini",
        -10.803699629512025
      ],
      [
        "▁mavisi",
        -10.734066744002124
      ],
      [
        "▁gerektigin",
        -8.582731737792448
      ],
      [
        "▁oldugunda",
        -9.075496630594944
      ],
      [
        "▁4.2",
        -8.044243181062914
      ],
      [
        "▁etleri",
        -10.546484023503094
      ],
      [
        "▁62",
        -7.545953786765594
      ],
      [
        "ya",
        -3.9236136214403894
      ],
      [
        "▁atmak",
        -10.007665632667237
      ],
      [
        "▁harr",
        -8.941141917427519
      ],
      [
        "▁ca",
        -8.898828467497882
      ],
      [
        "▁teknolojisini",
        -10.427398219390673
      ],
      [
        "▁artısını",
        -10.163494308186358
      ],
      [
        "atı",
        -9.688178904224559
      ],
      [
        "▁ritmi",
        -11.0987433302573
      ],
      [
        "▁calıstı",
        -8.021526858620742
      ],
      [
        "▁saglam",
        -7.505608927072872
      ],
      [
        "▁baskanlıgında",
        -10.62355851600848
      ],
      [
        "▁seyin",
        -8.78402936395012
      ],
      [
        "ılacak",
        -9.520352121961801
      ],
      [
        "▁vermisler",
        -9.280210924320894
      ],
      [
        "▁borusu",
        -11.097017800075717
      ],
      [
        "▁sanatkar",
        -11.057391565438742
      ],
      [
        "▁cıkmaz",
        -11.105008695159762
      ],
      [
        "▁onerisi",
        -10.205231221605862
      ],
      [
        "▁sairleri",
        -10.948846485727678
      ],
      [
        "▁faaliyetlerini",
        -10.233018309676993
      ],
      [
        "mamıs",
        -8.869933576120816
      ],
      [
        "▁anlasmaları",
        -10.589511744730283
      ],
      [
        "▁alımında",
        -11.062819048991821
      ],
      [
        "▁firma",
        -9.61950414544729
      ],
      [
        "▁otomobili",
        -10.896980835459336
      ],
      [
        "▁nufus",
        -9.364058211374822
      ],
      [
        "▁sanatı",
        -10.238514673476782
      ],
      [
        "▁bankaların",
        -10.032173075911073
      ],
      [
        "▁kayık",
        -9.862240986654907
      ],
      [
        "▁dinledi",
        -9.08664622261986
      ],
      [
        "ttigi",
        -10.613300619984775
      ],
      [
        "▁hafif",
        -6.813099720239409
      ],
      [
        "▁a",
        -11.666990925470232
      ],
      [
        "▁bir",
        -4.592889084469568
      ],
      [
        "▁ana",
        -8.306232647575513
      ],
      [
        "▁ekseriy",
        -9.00919196281981
      ],
      [
        "▁duzenleme",
        -9.710618533943922
      ],
      [
        "▁acmak",
        -9.636258644950392
      ],
      [
        "▁taklit",
        -9.863848273276226
      ],
      [
        "▁kasaba",
        -8.923112904475168
      ],
      [
        "▁il",
        -8.96691352276546
      ],
      [
        "▁kaderi",
        -10.690495207343675
      ],
      [
        "▁verme",
        -9.310779323424018
      ],
      [
        "▁anı",
        -9.40458413568092
      ],
      [
        "▁muka",
        -10.353767577584241
      ],
      [
        "▁stand",
        -11.098844333411876
      ],
      [
        "▁tarifesi",
        -10.393143076280381
      ],
      [
        "▁cocugun",
        -8.672791074186076
      ],
      [
        "▁51",
        -7.440225150164746
      ],
      [
        "▁a",
        -7.494713518214896
      ],
      [
        "▁sait",
        -8.786720480385988
      ],
      [
        "▁tahminlerini",
        -10.00852243002448
      ],
      [
        "▁tesebbus",
        -10.418918221261471
      ],
      [
        "▁panel",
        -10.569274751972024
      ],
      [
        "▁9.7",
        -8.09040379393457
      ],
      [
        "▁iki",
        -9.183210763841075
      ],
      [
        "▁ikibinuc",
        -7.579375390119925
      ],
      [
        "▁muhafazakarlar",
        -10.599599086859081
      ],
      [
        "▁il",
        -6.111403265351347
      ],
      [
        "▁meblag",
        -10.464223345637704
      ],
      [
        "▁mah",
        -10.886173997143894
      ],
      [
        "▁yapılanma",
        -9.585502851699847
      ],
      [
        ".8",
        -7.536329796589017
      ],
      [
        "▁parcası",
        -8.658537827021522
      ],
      [
        "▁4'te",
        -9.331104212865553
      ],
      [
        "▁depo",
        -9.450601910764762
      ],
      [
        "▁toplumu",
        -10.323847004894468
      ],
      [
        "▁baskasın",
        -11.127656500622107
      ],
      [
        "m",
        -2.967950369370582
      ],
      [
        "▁yemeg",
        -10.233124499446046
      ],
      [
        "▁restorani",
        -11.003110631124084
      ],
      [
        "▁sedye",
        -11.057319382118935
      ],
      [
        "▁ilac",
        -8.31381460903486
      ],
      [
        "▁kan",
        -9.10956877534247
      ],
      [
        "▁kıyısında",
        -10.163615118860987
      ],
      [
        "mın",
        -9.812213846521114
      ],
      [
        "▁bagla",
        -9.66215168869217
      ],
      [
        "▁alıyor",
        -7.387325882719305
      ],
      [
        "▁faaliyetin",
        -10.36341898218137
      ],
      [
        "▁go",
        -11.033378056471594
      ],
      [
        "talı",
        -9.336618569868646
      ],
      [
        "▁sigortacılar",
        -10.314240376117912
      ],
      [
        "▁ihracları",
        -9.628295957384553
      ],
      [
        "▁tadilat",
        -10.898949153572202
      ],
      [
        "▁murekke",
        -10.353107969289706
      ],
      [
        "ter",
        -8.603550427782151
      ],
      [
        "▁tavsiye",
        -6.481272435990327
      ],
      [
        "▁ed",
        -8.233025781681475
      ],
      [
        "▁yapil",
        -8.705491096159989
      ],
      [
        "▁iadesi",
        -10.717846345687134
      ],
      [
        "mesini",
        -8.598908199490385
      ],
      [
        "▁sac",
        -9.032266075787863
      ],
      [
        "”",
        -9.78282532741986
      ],
      [
        "▁bonoları",
        -9.726811225561827
      ],
      [
        "▁fincanı",
        -10.622527797860233
      ],
      [
        "tar",
        -10.7368338965804
      ],
      [
        "▁suclu",
        -8.889564851011599
      ],
      [
        "birli",
        -7.476480969195897
      ],
      [
        "▁sahi",
        -9.5450281022451
      ],
      [
        "▁aklınız",
        -10.762337156850258
      ],
      [
        "▁gudu",
        -11.099273935814377
      ],
      [
        "ceklerini",
        -10.556886136672633
      ],
      [
        "▁soylediklerini",
        -10.792911648927156
      ],
      [
        "▁ova",
        -9.781205495445679
      ],
      [
        "▁bahseder",
        -7.9553060022423345
      ],
      [
        "▁okuz",
        -10.9532401269262
      ],
      [
        "▁acısını",
        -10.446743083400312
      ],
      [
        "▁donmus",
        -8.666165590686226
      ],
      [
        "▁milletvekilleri",
        -10.35310796867562
      ],
      [
        "▁konusmak",
        -10.000276467273348
      ],
      [
        "▁ga",
        -10.668217843227882
      ],
      [
        "▁gulun",
        -9.468716960297787
      ],
      [
        "▁digerlerinde",
        -10.771096645112765
      ],
      [
        "▁yorgan",
        -10.49491427552088
      ],
      [
        "▁pis",
        -7.848255553532132
      ],
      [
        "ih",
        -9.702489860581913
      ],
      [
        "▁sirket",
        -6.512690435878768
      ],
      [
        "▁kroki",
        -11.100505634646295
      ],
      [
        "▁seriat",
        -11.10261267556529
      ],
      [
        "▁hur",
        -8.96010445140319
      ],
      [
        "▁denk",
        -10.360254053360284
      ],
      [
        "▁yapı",
        -8.353978253344318
      ],
      [
        "▁pes",
        -9.444933402709445
      ],
      [
        "▁uza",
        -9.279763640448635
      ],
      [
        "▁degisiklikler",
        -8.915955253514728
      ],
      [
        "▁numaraları",
        -10.104299433076795
      ],
      [
        "▁bankalar",
        -9.011313809908003
      ],
      [
        "▁kaynaklanıyor",
        -9.334908263921344
      ],
      [
        "▁b",
        -7.353749772085949
      ],
      [
        "▁kahve",
        -7.76259897949135
      ],
      [
        "▁arabası",
        -9.97986764055955
      ],
      [
        "▁anlattıklarını",
        -11.122200007150965
      ],
      [
        "▁temizlik",
        -7.4921790489062445
      ],
      [
        "▁or",
        -8.58143190415097
      ],
      [
        "ni",
        -9.508830479339185
      ],
      [
        "▁eksiklikler",
        -9.971531673552981
      ],
      [
        "▁tesaduf",
        -8.883409620002046
      ],
      [
        "v",
        -8.402736224443764
      ],
      [
        "▁seyler",
        -7.403838695282114
      ],
      [
        "▁portfoy",
        -9.843862032687163
      ],
      [
        "▁hatıra",
        -10.013302311650703
      ],
      [
        "▁salladı",
        -9.469862283892418
      ],
      [
        "▁ter",
        -9.692130395634214
      ],
      [
        "▁otur",
        -10.958582379730764
      ],
      [
        "▁guve",
        -11.074683319145334
      ],
      [
        "ler",
        -5.978540903803417
      ],
      [
        "▁dinle",
        -8.879735321252053
      ],
      [
        "▁konforu",
        -9.067077207637602
      ],
      [
        "▁fedakarlıgı",
        -11.098837801749983
      ],
      [
        "▁kesimin",
        -10.836719727238945
      ],
      [
        "▁seri",
        -8.243574936551441
      ],
      [
        "▁getire",
        -9.407267255718502
      ],
      [
        "ers",
        -8.328627332885318
      ],
      [
        "▁yagmurl",
        -9.42212202248171
      ],
      [
        "▁%1",
        -10.566621524453911
      ],
      [
        "d",
        -10.41573712684167
      ],
      [
        "▁cekici",
        -10.01224635194588
      ],
      [
        "▁gecmek",
        -10.396921137592905
      ],
      [
        "asına",
        -9.121937131687659
      ],
      [
        "▁baslayı",
        -9.278326497394866
      ],
      [
        "▁tacoma",
        -8.697135717439545
      ],
      [
        "▁gulumsedi",
        -9.460610063030929
      ],
      [
        "▁okka",
        -10.353480031444972
      ],
      [
        "▁noktası",
        -9.229177185792704
      ],
      [
        "▁sıcrama",
        -10.589586656255126
      ],
      [
        "rmak",
        -10.311440463766466
      ],
      [
        "▁yı",
        -9.570209005098128
      ],
      [
        "▁destan",
        -10.376169367451997
      ],
      [
        "▁1.7",
        -6.892164186865186
      ],
      [
        "▁drexel",
        -8.422035541686215
      ],
      [
        "man",
        -6.9672075001820035
      ],
      [
        "▁icti",
        -8.960747319941051
      ],
      [
        "▁skandalları",
        -10.749853263260473
      ],
      [
        "hic",
        -7.843634605618451
      ],
      [
        "▁koy",
        -7.9879025532711685
      ],
      [
        "p",
        -6.8247742603690735
      ],
      [
        "▁dar",
        -10.474907864182377
      ],
      [
        "▁odamiz",
        -8.346707850044542
      ],
      [
        "▁siparis",
        -9.664940827568431
      ],
      [
        "▁ede",
        -7.714236608470222
      ],
      [
        "imle",
        -6.45089307209828
      ],
      [
        "▁cıkarların",
        -10.84570758314498
      ],
      [
        "▁isimlerini",
        -10.965028459392832
      ],
      [
        "▁kelime",
        -8.399678922647986
      ],
      [
        "▁terbiyesi",
        -11.029054563547762
      ],
      [
        "lanmıs",
        -9.40182025218568
      ],
      [
        "▁masasını",
        -10.681808780010869
      ],
      [
        "▁gelecegi",
        -10.025515430406857
      ],
      [
        "▁keser",
        -9.349493481827613
      ],
      [
        "▁cap",
        -8.46574441981694
      ],
      [
        "▁soka",
        -9.607830661393384
      ],
      [
        "▁uyelerini",
        -9.940280189192555
      ],
      [
        "▁maharet",
        -10.589219187603877
      ],
      [
        "tıklarını",
        -10.599516461313417
      ],
      [
        "▁gelmesini",
        -10.75887660518952
      ],
      [
        "llah",
        -10.162805938928908
      ],
      [
        "▁cocugum",
        -10.424985835193795
      ],
      [
        "▁oranla",
        -9.644416155624661
      ],
      [
        "▁kendisi",
        -5.0164946613251225
      ],
      [
        "▁ait",
        -5.924503288156106
      ],
      [
        "▁kiler",
        -5.651095447333789
      ],
      [
        "▁uret",
        -8.625280732779027
      ],
      [
        "▁isabet",
        -9.930907240159701
      ],
      [
        "▁dusmek",
        -10.652230945208997
      ],
      [
        "▁ce",
        -10.507902487241815
      ],
      [
        "▁ister",
        -9.606331903939168
      ],
      [
        "deydi",
        -8.358394564002325
      ],
      [
        "▁abd'",
        -11.105094097904143
      ],
      [
        "▁oyunun",
        -9.191514115740347
      ],
      [
        "▁tuketiciler",
        -9.780202392280822
      ],
      [
        "v",
        -5.3814758935702685
      ],
      [
        "▁beri",
        -7.337470521257895
      ],
      [
        "▁varlıgını",
        -9.925827453227356
      ],
      [
        "▁manville",
        -8.713760844573859
      ],
      [
        "▁ortasın",
        -10.02090508511057
      ],
      [
        "▁koylulerin",
        -10.869461083063415
      ],
      [
        "s'in",
        -8.432533293423905
      ],
      [
        "▁tamamlanması",
        -10.248960386010332
      ],
      [
        "▁mecbur",
        -8.757778843797404
      ],
      [
        "▁apple",
        -8.9119206761107
      ],
      [
        "lerimde",
        -11.013852008914489
      ],
      [
        "▁olmaya",
        -9.42448259309219
      ],
      [
        "tka",
        -11.117177621041504
      ],
      [
        "▁inkar",
        -10.353237338313253
      ],
      [
        "▁cevrem",
        -11.071744735089418
      ],
      [
        "▁turist",
        -10.180676871536162
      ],
      [
        "hi",
        -8.638586768598705
      ],
      [
        "▁kararın",
        -9.917381858972618
      ],
      [
        "▁kemik",
        -10.688364198845541
      ],
      [
        "▁pencereler",
        -9.830946250666287
      ],
      [
        "zl",
        -8.922167783293098
      ],
      [
        "▁ilce",
        -9.75106429083779
      ],
      [
        "▁ambargo",
        -10.732118412510019
      ],
      [
        "▁koylerde",
        -10.145636644542494
      ],
      [
        "▁kup",
        -10.730952984596158
      ],
      [
        "▁fonlar",
        -9.0551088285899
      ],
      [
        "▁karga",
        -10.467732812078758
      ],
      [
        "▁cevabı",
        -9.851386658394572
      ],
      [
        "▁koltukta",
        -10.507885694371353
      ],
      [
        "▁ua",
        -8.372735486662425
      ],
      [
        "▁duzenlen",
        -9.254406455748136
      ],
      [
        "▁piyasalarda",
        -10.23199000512948
      ],
      [
        "▁yuregini",
        -10.27205471220967
      ],
      [
        "glar",
        -11.110115256878485
      ],
      [
        "▁hanımı",
        -10.395840937978786
      ],
      [
        "mızı",
        -8.674922991715253
      ],
      [
        "▁ta",
        -8.936814436466697
      ],
      [
        "▁adres",
        -10.934555266819615
      ],
      [
        "▁pers",
        -6.945780476725198
      ],
      [
        "▁turkce",
        -9.53460590354114
      ],
      [
        "▁oturumun",
        -11.108842882613615
      ],
      [
        "▁muh",
        -7.142172831036666
      ],
      [
        "▁yıldız",
        -9.619430585280009
      ],
      [
        "yla",
        -8.68293463466165
      ],
      [
        "▁sevindi",
        -9.138564488228
      ],
      [
        "▁uzerindeydi",
        -9.235910511940709
      ],
      [
        "▁heybe",
        -11.062227709383713
      ],
      [
        "▁hiddet",
        -10.464219080323783
      ],
      [
        "▁on",
        -4.304254523933001
      ],
      [
        "▁devlet",
        -8.558690081571111
      ],
      [
        "maz",
        -8.055526155489876
      ],
      [
        "▁pembe",
        -10.253108300543749
      ],
      [
        "et",
        -8.677805324559356
      ],
      [
        "▁birlesim",
        -10.382096847217648
      ],
      [
        "▁140",
        -8.03073694863352
      ],
      [
        "▁cıkarır",
        -9.29035047623776
      ],
      [
        "▁perde",
        -9.019322226550212
      ],
      [
        "▁columbus'",
        -7.644761089220504
      ],
      [
        "▁suclama",
        -9.635935062050958
      ],
      [
        "ip",
        -8.147036271354292
      ],
      [
        "mektedir",
        -6.679520843555262
      ],
      [
        "▁soyleyen",
        -9.544564004444545
      ],
      [
        "▁tisort",
        -11.098742951014742
      ],
      [
        "▁electric",
        -8.475662261875208
      ],
      [
        "▁testi",
        -10.455340537060358
      ],
      [
        "▁sanıklar",
        -11.021558655203139
      ],
      [
        "▁fena",
        -6.973697154414399
      ],
      [
        "▁kuramın",
        -10.418777328170886
      ],
      [
        "▁kac",
        -8.390868883630446
      ],
      [
        "▁yorumu",
        -10.167378000441257
      ],
      [
        "▁kokusunu",
        -10.476888982185523
      ],
      [
        "go",
        -10.550068772461131
      ],
      [
        "▁zat",
        -10.59416729465338
      ],
      [
        "▁dagılımı",
        -11.116853306817118
      ],
      [
        "▁kimsey",
        -9.871203586362283
      ],
      [
        "▁babası",
        -8.386028205350472
      ],
      [
        "▁subeler",
        -11.107192960198704
      ],
      [
        "▁detroit'",
        -7.969483508508505
      ],
      [
        "▁gorev",
        -7.900622119253048
      ],
      [
        "▁halimiz",
        -10.373122727168608
      ],
      [
        "lara",
        -7.289260059065581
      ],
      [
        "gari",
        -8.52184592464536
      ],
      [
        "▁onayladı",
        -8.865808845791921
      ],
      [
        "▁dah",
        -8.480184938324264
      ],
      [
        "▁kahkaha",
        -9.539767290230193
      ],
      [
        "▁yerler",
        -8.610901974603442
      ],
      [
        "▁toz",
        -8.929842664505419
      ],
      [
        "▁oluyor",
        -6.699826708232303
      ],
      [
        "▁bulunmak",
        -10.887871589411356
      ],
      [
        "▁tek",
        -8.747393538847998
      ],
      [
        "▁gelmis",
        -7.312465172419812
      ],
      [
        "▁donemde",
        -8.484152826857368
      ],
      [
        "▁ayagı",
        -9.46227640810451
      ],
      [
        "▁onder",
        -10.166166945587218
      ],
      [
        "▁sinirl",
        -8.387794097518851
      ],
      [
        "▁berkeley",
        -8.87598194227736
      ],
      [
        "▁bilinme",
        -9.6063969806746
      ],
      [
        "▁acmıstı",
        -8.929147314430665
      ],
      [
        "▁ortam",
        -9.922227269983377
      ],
      [
        "▁kimse",
        -5.611770680556417
      ],
      [
        "▁suzgec",
        -10.589219092936382
      ],
      [
        "▁benim",
        -8.665299185090031
      ],
      [
        "▁biz",
        -3.7492545438091254
      ],
      [
        "▁basi",
        -8.216603476879973
      ],
      [
        "▁yetmis",
        -7.281993076538758
      ],
      [
        "▁elma",
        -9.004335830107799
      ],
      [
        "▁resim",
        -8.822738314177805
      ],
      [
        "▁oynamak",
        -10.96335669243026
      ],
      [
        "▁gider",
        -7.6179649960894515
      ],
      [
        "▁41",
        -7.4311418763838955
      ],
      [
        "▁muduru",
        -8.60547514046915
      ],
      [
        "▁yapraklar",
        -10.978979934560297
      ],
      [
        "▁oranın",
        -10.999542893992965
      ],
      [
        "▁fedakarlık",
        -10.353123346070483
      ],
      [
        "▁verdigi",
        -10.15140784210184
      ],
      [
        "▁demek",
        -8.50134191261293
      ],
      [
        "▁carpar",
        -9.612769144879495
      ],
      [
        "▁deniyor",
        -9.210391117270376
      ],
      [
        "▁hucre",
        -9.632949433467115
      ],
      [
        "▁hizmetci",
        -9.74644769440664
      ],
      [
        "▁turk",
        -7.715239757198589
      ],
      [
        "▁yonetimin",
        -10.002500556750704
      ],
      [
        "▁saglamak",
        -9.120499070694489
      ],
      [
        "▁tanıstı",
        -9.521812485988843
      ],
      [
        "▁davalarda",
        -10.879499795786987
      ],
      [
        "gunu",
        -11.108895140628317
      ],
      [
        "▁oku",
        -8.75417972147945
      ],
      [
        "▁ulasıyor",
        -9.68023319219574
      ],
      [
        "▁gorse",
        -8.863060994721438
      ],
      [
        "▁buldu",
        -6.96205027725249
      ],
      [
        "▁buluyor",
        -9.146445509608093
      ],
      [
        "ca",
        -6.700528424006959
      ],
      [
        "▁isletme",
        -8.204483955829726
      ],
      [
        "sı",
        -7.695684531623617
      ],
      [
        "z",
        -7.384597776793819
      ],
      [
        "▁imam",
        -9.501212364356096
      ],
      [
        "▁hayatımız",
        -9.826506368007578
      ],
      [
        "▁ortamı",
        -10.353487160150062
      ],
      [
        "▁kullanıla",
        -9.091862566627285
      ],
      [
        "med",
        -8.277479260853221
      ],
      [
        "gim",
        -10.62355793301201
      ],
      [
        "▁depremde",
        -9.81266375122445
      ],
      [
        "▁evrenin",
        -10.038039771894251
      ],
      [
        "▁idrak",
        -11.102706154672536
      ],
      [
        "▁cek",
        -8.242561340524285
      ],
      [
        "▁sepetin",
        -11.12257519027743
      ],
      [
        "▁altında",
        -7.226090525796954
      ],
      [
        "uzu",
        -11.088101981879577
      ],
      [
        "▁halayık",
        -11.098819846254472
      ],
      [
        "▁alıcı",
        -9.131126041980131
      ],
      [
        "▁sas",
        -9.691580175570753
      ],
      [
        "▁sanıyor",
        -9.210673856734452
      ],
      [
        "▁dogruldu",
        -9.411623228653365
      ],
      [
        "akki",
        -10.7308821130339
      ],
      [
        "▁di",
        -8.528704904023812
      ],
      [
        "▁cogunda",
        -9.019218365534577
      ],
      [
        "▁beri",
        -9.413593540577555
      ],
      [
        "▁sorumlulugunu",
        -10.163491133238049
      ],
      [
        "▁nizam",
        -10.464105165078777
      ],
      [
        "▁kadife",
        -10.464219096567975
      ],
      [
        "▁goster",
        -4.905676656088585
      ],
      [
        "▁kılma",
        -11.051117514349123
      ],
      [
        "liyor",
        -9.73227276146274
      ],
      [
        "▁basta",
        -9.269536387600528
      ],
      [
        "▁aktiviteler",
        -9.545841737776238
      ],
      [
        "▁gorusleri",
        -10.08666568511568
      ],
      [
        "▁hat",
        -6.71359374354625
      ],
      [
        ":",
        -9.80301345502674
      ],
      [
        "▁yukseltme",
        -10.354409110450668
      ],
      [
        "▁vurur",
        -9.603531912920378
      ],
      [
        "▁problemleri",
        -10.378612172787653
      ],
      [
        "▁tanrı",
        -9.288758395919707
      ],
      [
        "layı",
        -9.818131445504031
      ],
      [
        "▁bosalma",
        -10.898955143908417
      ],
      [
        "▁baskası",
        -10.22782515597952
      ],
      [
        "▁ust",
        -6.960954297026537
      ],
      [
        "▁katılım",
        -9.898581385290928
      ],
      [
        "▁arkasın",
        -9.504114010968237
      ],
      [
        "▁darbeler",
        -10.901599665496077
      ],
      [
        "▁ısıklar",
        -10.307675791597358
      ],
      [
        "inde",
        -7.617997272081148
      ],
      [
        "lık",
        -6.8596474322881065
      ],
      [
        "▁emniyet",
        -9.640092033475186
      ],
      [
        "da",
        -4.263949664924009
      ],
      [
        "▁gorevini",
        -9.61358267979555
      ],
      [
        "▁kalmıstı",
        -8.03762176140081
      ],
      [
        "▁saglıyor",
        -8.414585579611886
      ],
      [
        "▁guclu",
        -6.756960068152731
      ],
      [
        "▁taht",
        -10.85326455699992
      ],
      [
        "▁emperyalizm",
        -10.898872218535816
      ],
      [
        "▁nisan'da",
        -8.039728696473313
      ],
      [
        "▁atla",
        -11.05598124269609
      ],
      [
        "▁bahanesi",
        -10.733701951322798
      ],
      [
        "▁dugmesin",
        -10.445611162875
      ],
      [
        "▁yaptirdi",
        -7.325496198244263
      ],
      [
        "▁bagımlı",
        -8.906296782251912
      ],
      [
        "▁kralı",
        -10.382525845042835
      ],
      [
        "digi",
        -7.767683567975881
      ],
      [
        "▁ucusu",
        -9.37060352983755
      ],
      [
        "▁universite",
        -8.985825642807214
      ],
      [
        "▁oturmak",
        -10.774788095603945
      ],
      [
        "▁konakla",
        -9.423476136689688
      ],
      [
        "▁yapacag",
        -9.699464400833763
      ],
      [
        "▁kir",
        -8.350401563254998
      ],
      [
        "▁imkan",
        -9.25643080084356
      ],
      [
        "▁gidis",
        -7.194891680250552
      ],
      [
        "▁hakimi",
        -10.780261139755797
      ],
      [
        "▁islerin",
        -9.245435733027453
      ],
      [
        "'nu",
        -9.86307032478333
      ],
      [
        "▁saskınlık",
        -10.902050335445235
      ],
      [
        "▁ceke",
        -8.506260510674569
      ],
      [
        "▁darı",
        -10.90694444836397
      ],
      [
        "▁yuzde",
        -8.309410506521049
      ],
      [
        "▁felaketin",
        -10.829803818362729
      ],
      [
        "▁direktor",
        -10.429424736372912
      ],
      [
        "dari",
        -9.361888183096335
      ],
      [
        "▁william",
        -8.133740340470013
      ],
      [
        "mı",
        -8.109947659367318
      ],
      [
        "▁cezve",
        -10.464237656812175
      ],
      [
        "re",
        -8.434806104857405
      ],
      [
        "asırı",
        -10.718778275974664
      ],
      [
        "bunlar",
        -9.181736799155649
      ],
      [
        "▁ikimiz",
        -8.192797663683141
      ],
      [
        "▁chicago'",
        -7.087735294209967
      ],
      [
        "▁abd",
        -9.12400951629936
      ],
      [
        "ish",
        -8.135967148555501
      ],
      [
        "▁kullanıl",
        -9.80317671948
      ],
      [
        "▁hoca",
        -8.780033052126079
      ],
      [
        "nsel",
        -9.372395360202718
      ],
      [
        "▁nur",
        -10.3599754597534
      ],
      [
        "▁gogsun",
        -10.424760542453946
      ],
      [
        "▁ahır",
        -10.421549651660492
      ],
      [
        "▁cocuklarımız",
        -10.999291600479712
      ],
      [
        "▁ekmek",
        -8.129151075169473
      ],
      [
        "u",
        -3.7168319356119826
      ],
      [
        "▁salonu",
        -9.809379397941537
      ],
      [
        "9'",
        -9.431557839181924
      ],
      [
        "dıgım",
        -9.455319334928769
      ],
      [
        "▁yarar",
        -10.478817873013755
      ],
      [
        "▁uretimi",
        -9.098414016401238
      ],
      [
        "▁kuzu",
        -9.366202232039264
      ],
      [
        "▁nisan",
        -7.524823421296444
      ],
      [
        "▁y",
        -5.777906907927925
      ],
      [
        "▁hugo",
        -8.297326668612873
      ],
      [
        "▁america",
        -8.710755580558969
      ],
      [
        "rim",
        -7.4817869205842245
      ],
      [
        "▁bekledigim",
        -10.474501095713643
      ],
      [
        "▁anadolu",
        -10.589219141293826
      ],
      [
        "m",
        -7.317767413586324
      ],
      [
        "agı",
        -9.545006298947886
      ],
      [
        "ev",
        -11.802702672349788
      ],
      [
        "▁toplu",
        -9.766404342746569
      ],
      [
        "▁acıkla",
        -8.891466655037675
      ],
      [
        "b",
        -9.418324782834132
      ],
      [
        "▁sukur",
        -9.93053025323183
      ],
      [
        "olga",
        -8.793034168531257
      ],
      [
        "▁ilgilendi",
        -5.884416288540671
      ],
      [
        "▁gercegin",
        -10.563407411170983
      ],
      [
        "▁otekin",
        -9.906333265306538
      ],
      [
        "▁yatı",
        -9.815254599550332
      ],
      [
        "▁ilgili",
        -9.084676967652218
      ],
      [
        "▁edecek",
        -7.353777155685286
      ],
      [
        "▁mudafaa",
        -11.098742905228045
      ],
      [
        "▁holding",
        -9.15483103899317
      ],
      [
        "▁takı",
        -10.640294011180929
      ],
      [
        "▁uyeligini",
        -10.509000490698533
      ],
      [
        "▁oylama",
        -9.503714486961185
      ],
      [
        "▁kullanı",
        -9.512253427012912
      ],
      [
        "ılmaya",
        -11.023224370026549
      ],
      [
        "▁adımlar",
        -9.795904212015571
      ],
      [
        "▁hersey",
        -10.732095356906818
      ],
      [
        "▁bankacılar",
        -10.228446131877861
      ],
      [
        "▁cehre",
        -9.630913600104313
      ],
      [
        "▁yemegin",
        -9.818361145907797
      ],
      [
        "ir",
        -8.05898104249642
      ],
      [
        "▁sabahı",
        -7.49086915077225
      ],
      [
        "▁ada",
        -9.359630121835
      ],
      [
        "▁meselesi",
        -9.57342829971591
      ],
      [
        "▁zerre",
        -10.898742981361918
      ],
      [
        "▁",
        -4.112376981790044
      ],
      [
        "▁dugmeleri",
        -10.559699825024136
      ],
      [
        "▁hastalıkların",
        -10.755751317416095
      ],
      [
        "▁fır",
        -11.056264337358652
      ],
      [
        "▁programlarını",
        -10.623071999402121
      ],
      [
        "kleri",
        -9.412007556769074
      ],
      [
        "cık",
        -9.121051630397353
      ],
      [
        "▁katıldı",
        -8.439624158361982
      ],
      [
        "▁trans",
        -10.899388415590604
      ],
      [
        "▁na",
        -9.26649760528727
      ],
      [
        "▁ciz",
        -10.590945113348365
      ],
      [
        "▁uyeleri",
        -9.464292797233378
      ],
      [
        "▁ailesi",
        -8.804017908792865
      ],
      [
        "▁sebepler",
        -9.685465234043308
      ],
      [
        "▁sıralar",
        -10.13728752802846
      ],
      [
        "▁buyudu",
        -8.65148395339186
      ],
      [
        "▁geldigini",
        -9.514660123307536
      ],
      [
        "▁dolu",
        -9.638674165187012
      ],
      [
        "▁alternatifler",
        -10.770989665933985
      ],
      [
        "▁salıncag",
        -10.58946157935601
      ],
      [
        "▁kaide",
        -10.898998801944648
      ],
      [
        "▁heyeti",
        -9.807417123282125
      ],
      [
        "▁ornekler",
        -10.210892779213498
      ],
      [
        "▁hangi",
        -5.368112293086949
      ],
      [
        "▁ask",
        -8.501310662699742
      ],
      [
        "▁ihtimalle",
        -10.579308423352497
      ],
      [
        "ıstır",
        -8.331140581657268
      ],
      [
        "▁misin",
        -4.527353477003356
      ],
      [
        "den",
        -6.363492151075381
      ],
      [
        "▁nedenler",
        -8.930291613281213
      ],
      [
        "mez",
        -8.041593612944164
      ],
      [
        "▁isleye",
        -9.478288556619189
      ],
      [
        "▁asagıy",
        -10.572262034887292
      ],
      [
        "▁burunları",
        -10.769798867606728
      ],
      [
        "▁teknoloji",
        -8.483386874606108
      ],
      [
        "▁sonuc",
        -8.23482841736096
      ],
      [
        "l",
        -11.802702672349783
      ],
      [
        "▁yazarlıgı",
        -11.107451010126457
      ],
      [
        "▁kaplı",
        -9.250838899932402
      ],
      [
        "▁bası",
        -9.286376558508511
      ],
      [
        "▁ayn",
        -8.14989803709778
      ],
      [
        "▁parcaların",
        -10.87845974238434
      ],
      [
        "▁tanı",
        -8.502197015348468
      ],
      [
        "▁yarıs",
        -9.940927121581096
      ],
      [
        "▁alet",
        -9.609365529344153
      ],
      [
        "▁met",
        -11.030692628738237
      ],
      [
        "▁guney",
        -8.542530109911308
      ],
      [
        "yı",
        -10.198812178070302
      ],
      [
        "▁performansını",
        -10.811377456347136
      ],
      [
        "ram",
        -11.035835932165101
      ],
      [
        "▁engelleme",
        -10.290805960802665
      ],
      [
        "▁gumus",
        -8.45347510151566
      ],
      [
        "▁er",
        -9.225897782961374
      ],
      [
        "▁sandı",
        -9.487568691284391
      ],
      [
        "▁yolculugun",
        -10.758421233045166
      ],
      [
        "cilikte",
        -10.837410027888753
      ],
      [
        "▁coz",
        -10.877220113369377
      ],
      [
        "▁uzmanlar",
        -9.73118020412523
      ],
      [
        "▁g.",
        -9.047681233475757
      ],
      [
        "▁surdurdu",
        -9.410328903719176
      ],
      [
        "ıyla",
        -7.835929573430979
      ],
      [
        "▁soygun",
        -10.732180117925607
      ],
      [
        "▁balık",
        -8.827399877563558
      ],
      [
        "ymis",
        -9.295056749979237
      ],
      [
        "▁arkadaslarını",
        -10.13804806299266
      ],
      [
        "▁bitiyor",
        -9.12169047122324
      ],
      [
        "▁gonderil",
        -9.506424027438998
      ],
      [
        "arım",
        -9.122348586997052
      ],
      [
        "▁hep",
        -8.65144862922323
      ],
      [
        "▁siyah",
        -6.842527925617158
      ],
      [
        "▁kazada",
        -10.361986945256394
      ],
      [
        "▁duyu",
        -9.06608524334181
      ],
      [
        "iz",
        -5.780786808737578
      ],
      [
        "▁arz",
        -8.733954557677434
      ],
      [
        "▁yaratıyor",
        -9.288951910732957
      ],
      [
        "▁yatakta",
        -9.995996796430193
      ],
      [
        "su",
        -8.783364631491013
      ],
      [
        "aydı",
        -9.177859656747309
      ],
      [
        "▁bucak",
        -10.463968586958728
      ],
      [
        "▁tarihi",
        -8.766979927791796
      ],
      [
        "▁uy",
        -9.194764892116169
      ],
      [
        "▁atı",
        -9.84494920651861
      ],
      [
        "▁anlasması",
        -9.632888061905078
      ],
      [
        "▁gorursun",
        -9.642614291606048
      ],
      [
        "▁vegas",
        -8.239903936946572
      ],
      [
        "▁oba",
        -10.899429773286974
      ],
      [
        "▁it",
        -10.409063280281588
      ],
      [
        "▁communications",
        -8.72422014047793
      ],
      [
        "ras",
        -9.489106800141144
      ],
      [
        "▁rampa",
        -10.734712028886433
      ],
      [
        "▁grupları",
        -9.751464353517104
      ],
      [
        "▁kucagın",
        -10.586481003339749
      ],
      [
        "▁aldı",
        -5.959464592992458
      ],
      [
        "▁ankara'da",
        -8.068013582008785
      ],
      [
        "▁sesleri",
        -8.94845744676894
      ],
      [
        "▁olagandısı",
        -10.898742921701656
      ],
      [
        "▁acısın",
        -8.626426967605592
      ],
      [
        "ları",
        -10.902482057277874
      ],
      [
        "8",
        -10.725014522191065
      ],
      [
        "▁cinayet",
        -9.87193943680583
      ],
      [
        "▁yavrusu",
        -10.452218802846852
      ],
      [
        "▁ralli",
        -10.898747621053497
      ],
      [
        "▁baskı",
        -8.320166047790025
      ],
      [
        "▁baslar",
        -8.224366730066128
      ],
      [
        "▁aylarda",
        -9.99456090569481
      ],
      [
        "ucu",
        -8.345145413273505
      ],
      [
        "▁ifadesi",
        -10.904314426884321
      ],
      [
        "▁renklerin",
        -10.614038877164372
      ],
      [
        "▁reklamcılık",
        -10.90033824010969
      ],
      [
        "▁calisti",
        -9.633882353871067
      ],
      [
        "▁komsusu",
        -10.746303860765616
      ],
      [
        "▁8",
        -5.673436706926549
      ],
      [
        "seni",
        -8.922478759361853
      ],
      [
        "▁kır",
        -8.70003233104945
      ],
      [
        "▁koltug",
        -10.0687199250967
      ],
      [
        "yonel",
        -8.267010652555069
      ],
      [
        "▁isteme",
        -9.572330681595567
      ],
      [
        "las",
        -8.9610614273222
      ],
      [
        "▁takvim",
        -10.927291658661288
      ],
      [
        "sız",
        -5.222971193390283
      ],
      [
        "▁vazife",
        -9.951930336142357
      ],
      [
        "▁gelmeye",
        -9.458541200021026
      ],
      [
        "ma",
        -7.3716489243408585
      ],
      [
        "▁dev",
        -8.103747686579705
      ],
      [
        "▁civi",
        -9.811060224878023
      ],
      [
        "▁cesedi",
        -10.464219173492882
      ],
      [
        "inizde",
        -9.427126592963532
      ],
      [
        "▁akp",
        -10.909886218096503
      ],
      [
        "▁tekel",
        -10.646625282953625
      ],
      [
        "▁asırlar",
        -10.835099840123869
      ],
      [
        "acaktı",
        -8.781634726002942
      ],
      [
        "▁halk",
        -8.219162082708738
      ],
      [
        "▁dogrultusun",
        -10.256639090237057
      ],
      [
        "▁balik",
        -10.254684255520901
      ],
      [
        "c",
        -4.4033859094320675
      ],
      [
        "▁zararları",
        -10.753185033093256
      ],
      [
        "▁gez",
        -9.388374291428734
      ],
      [
        "ek",
        -11.259134604801089
      ],
      [
        "▁birligin",
        -10.35939429673914
      ],
      [
        "▁yok",
        -9.494700731894037
      ],
      [
        "▁kaba",
        -8.083097393987945
      ],
      [
        "leti",
        -10.99045360284709
      ],
      [
        "▁karısma",
        -10.218957035880813
      ],
      [
        "▁yaklastı",
        -9.103707642906246
      ],
      [
        "▁kabar",
        -9.429426605324796
      ],
      [
        "▁sildi",
        -9.58646746216669
      ],
      [
        "▁kutuk",
        -10.08966855830957
      ],
      [
        "▁seda",
        -10.99614868357269
      ],
      [
        "dım",
        -10.563206316770044
      ],
      [
        "▁kocası",
        -9.397947242163339
      ],
      [
        "▁amerika'y",
        -9.031924716983106
      ],
      [
        "▁karizma",
        -11.09966838166657
      ],
      [
        "▁zam",
        -9.798181674920173
      ],
      [
        "▁nefret",
        -9.406118044944566
      ],
      [
        "u",
        -6.081592138317588
      ],
      [
        "▁north",
        -7.6318907800417985
      ],
      [
        "▁lang",
        -8.55117245051635
      ],
      [
        "v",
        -2.1317723992754427
      ],
      [
        "▁soru",
        -8.394269884466754
      ],
      [
        "▁karsıy",
        -9.52917359848002
      ],
      [
        "▁isyanın",
        -10.98464554018091
      ],
      [
        "▁uygulamaları",
        -9.540148290507489
      ],
      [
        "▁istismar",
        -11.0987429099166
      ],
      [
        "▁okce",
        -11.1005581328238
      ],
      [
        "▁hangi",
        -9.317341653222654
      ],
      [
        "▁su",
        -9.032997602274392
      ],
      [
        "▁komiser",
        -10.898744744034168
      ],
      [
        "ikli",
        -9.137269057413185
      ],
      [
        "▁cakıl",
        -10.464864511066684
      ],
      [
        "▁birkacı",
        -7.919278159635382
      ],
      [
        "▁yerde",
        -7.370215540873948
      ],
      [
        "pat",
        -10.220225169490286
      ],
      [
        "▁pırıl",
        -10.732102899342502
      ],
      [
        "▁zamanı",
        -8.617638079123713
      ],
      [
        "▁lala",
        -10.922122997040898
      ],
      [
        "▁kimim",
        -10.398635937803382
      ],
      [
        "▁de",
        -2.1420817504035963
      ],
      [
        "▁paylasım",
        -10.589229310857661
      ],
      [
        "▁mal",
        -7.972902752334396
      ],
      [
        "▁cogu",
        -6.224369063045475
      ],
      [
        "▁tezgah",
        -8.768176216426326
      ],
      [
        "mıs",
        -9.551155443526799
      ],
      [
        "▁ozellikleri",
        -9.772261884392506
      ],
      [
        "▁paribas",
        -8.888749052087787
      ],
      [
        "ern",
        -8.897908908637906
      ],
      [
        "▁ickiler",
        -11.102922566485745
      ],
      [
        "▁piyano",
        -9.63422470884381
      ],
      [
        "▁kepce",
        -11.098742953610554
      ],
      [
        "▁tas",
        -7.769951234426223
      ],
      [
        "▁1.8",
        -7.194900721909706
      ],
      [
        "▁hayra",
        -10.896242996022853
      ],
      [
        "▁yapılmıs",
        -8.707177884306326
      ],
      [
        "▁teklifi",
        -8.459935786133286
      ],
      [
        "▁guzel",
        -4.6932365533476865
      ],
      [
        "▁anlıyor",
        -9.091238319818682
      ],
      [
        "kler",
        -10.187876016547072
      ],
      [
        "▁olurdu",
        -7.791669779447872
      ],
      [
        "▁satısın",
        -9.919414143482818
      ],
      [
        "b",
        -7.60664507507255
      ],
      [
        "▁seslendi",
        -8.794789061695088
      ],
      [
        "▁yukselmisti",
        -9.618802394848169
      ],
      [
        "▁kat",
        -7.987398285792437
      ],
      [
        "u",
        -6.037542124203377
      ],
      [
        "▁cıktık",
        -10.193667362974415
      ],
      [
        "▁yukseldi",
        -6.120971979284883
      ],
      [
        "▁isveren",
        -10.623031079836172
      ],
      [
        "▁150",
        -7.07966151810731
      ],
      [
        "▁k",
        -8.10499207453178
      ],
      [
        "▁dusunmek",
        -10.208190289688712
      ],
      [
        "▁cifte",
        -10.649438906643121
      ],
      [
        "ecegini",
        -9.035085915583089
      ],
      [
        "yen",
        -8.48014002699092
      ],
      [
        "▁ucret",
        -9.45081728178909
      ],
      [
        "▁yılın",
        -7.990324947464801
      ],
      [
        "▁kablo",
        -10.152797807996992
      ],
      [
        "▁tahıl",
        -10.00194248148656
      ],
      [
        "▁i",
        -8.961769391448234
      ],
      [
        "ı",
        -9.759274920622126
      ],
      [
        "▁kahvalti",
        -8.660994668703404
      ],
      [
        "▁cıkma",
        -9.300626682223914
      ],
      [
        "▁baz",
        -6.262548399340187
      ],
      [
        "e",
        -3.854973002944332
      ],
      [
        "▁aylar",
        -8.304850012234626
      ],
      [
        "▁tef",
        -9.92752784640301
      ],
      [
        "▁cuzdanı",
        -10.511661982169958
      ],
      [
        "agdas",
        -8.551816640104498
      ],
      [
        "▁denizi",
        -6.882133868681708
      ],
      [
        "ildigini",
        -11.082865311729604
      ],
      [
        "▁yolunda",
        -9.464655535513362
      ],
      [
        "▁nakit",
        -8.518880544595454
      ],
      [
        "lik",
        -4.866178197012406
      ],
      [
        "▁nez",
        -11.098571178270015
      ],
      [
        "ye",
        -7.60897417522296
      ],
      [
        "▁8.8",
        -7.996395153272555
      ],
      [
        "▁kaput",
        -11.100053635464404
      ],
      [
        "▁fabrika",
        -8.534800396249908
      ],
      [
        "▁basarı",
        -7.371442093705887
      ],
      [
        "▁tayin",
        -9.803150904127575
      ],
      [
        "▁gerceg",
        -10.685257412357636
      ],
      [
        "▁pilotların",
        -10.18021461712921
      ],
      [
        "▁parmak",
        -9.081438372891824
      ],
      [
        "▁belinde",
        -10.185466252153718
      ],
      [
        "luydu",
        -8.028777864101114
      ],
      [
        "▁cevrede",
        -10.628942538094769
      ],
      [
        "yi",
        -9.273093689880234
      ],
      [
        "▁turklerin",
        -10.429635203743072
      ],
      [
        "gar",
        -10.747641882439192
      ],
      [
        "▁bilmez",
        -8.820993125948032
      ],
      [
        "▁ust",
        -9.126257563496061
      ],
      [
        "▁subay",
        -9.632651939615691
      ],
      [
        "▁mevsim",
        -9.898040965412665
      ],
      [
        "la",
        -8.042962493838745
      ],
      [
        "▁tasvir",
        -10.464641217688726
      ],
      [
        "▁yaklasımı",
        -9.537373900932492
      ],
      [
        "▁savasını",
        -10.989460113295932
      ],
      [
        "▁durus",
        -10.044391004354763
      ],
      [
        "▁aleyhin",
        -9.862367722319927
      ],
      [
        "▁kapsamı",
        -10.28724775929606
      ],
      [
        "▁yerini",
        -8.489789147186052
      ],
      [
        "▁aileler",
        -7.151316609969573
      ],
      [
        "cilik",
        -9.365038059046114
      ],
      [
        "▁hacı",
        -9.639601055949123
      ],
      [
        "▁est",
        -8.764129702775492
      ],
      [
        "▁getirmis",
        -9.404155673012022
      ],
      [
        "▁esini",
        -11.1257227028029
      ],
      [
        "▁dusu",
        -7.7575325308101135
      ],
      [
        "▁yakindi",
        -8.561396562623367
      ],
      [
        "ektir",
        -9.433905168710346
      ],
      [
        "▁hastalıgın",
        -9.786584014930181
      ],
      [
        "▁cevabın",
        -10.27179695702192
      ],
      [
        "on'un",
        -8.546638564976181
      ],
      [
        "▁alması",
        -10.49494607421164
      ],
      [
        "▁kazanıyor",
        -8.689062561687013
      ],
      [
        "▁yakın",
        -6.535228700885873
      ],
      [
        "▁onsekiz",
        -7.826766085421019
      ],
      [
        "▁demirci",
        -11.102831005352488
      ],
      [
        "▁dalga",
        -9.208909853818142
      ],
      [
        "▁rahat",
        -6.60639805817359
      ],
      [
        "▁sayi",
        -8.994963033309427
      ],
      [
        "cusu",
        -8.655945843098744
      ],
      [
        "▁lideri",
        -9.090315861729023
      ],
      [
        "▁dernegi",
        -9.801348349002463
      ],
      [
        "ara",
        -6.535783394481454
      ],
      [
        "▁doku",
        -9.560770243869136
      ],
      [
        "▁kazı",
        -9.964219491451454
      ],
      [
        "▁otesi",
        -10.381178578416261
      ],
      [
        "▁anket",
        -7.8374814982132595
      ],
      [
        "▁in",
        -9.11582223285136
      ],
      [
        "lemeyecegini",
        -10.83678705034185
      ],
      [
        "ında",
        -7.43386223466814
      ],
      [
        "▁federasyonu",
        -11.101064021834357
      ],
      [
        "▁sesle",
        -9.500183956893418
      ],
      [
        "▁icinde",
        -6.905940125060715
      ],
      [
        "▁kapattı",
        -8.223526817078445
      ],
      [
        "▁gelen",
        -6.427638887850488
      ],
      [
        "▁1/4'",
        -10.162198889014231
      ],
      [
        "▁yemek",
        -6.972517139020443
      ],
      [
        "▁payı",
        -8.959114381785689
      ],
      [
        "▁p",
        -7.245265053176569
      ],
      [
        "▁prenses",
        -10.14207941765219
      ],
      [
        "▁uzaklık",
        -10.898752631768225
      ],
      [
        "▁yattı",
        -9.033256655099436
      ],
      [
        "▁an",
        -7.322693547970474
      ],
      [
        "▁iletisimi",
        -10.719549885202202
      ],
      [
        "▁akıntı",
        -11.032825036746143
      ],
      [
        "▁sorar",
        -8.906936490026235
      ],
      [
        "▁keklik",
        -11.10252756950408
      ],
      [
        "mesi",
        -9.3981413403987
      ],
      [
        "deki",
        -7.842286136082326
      ],
      [
        "▁eksikligi",
        -9.094389725766435
      ],
      [
        "▁muacc",
        -9.544351418336367
      ],
      [
        "▁18",
        -10.322084005447024
      ],
      [
        "▁ufakt",
        -8.561791415378535
      ],
      [
        "▁'li",
        -7.839626404640395
      ],
      [
        "du",
        -9.017031767976777
      ],
      [
        "▁soyle",
        -7.441966513139844
      ],
      [
        "▁turlerini",
        -10.555614328901122
      ],
      [
        "▁derinligi",
        -11.099872403995118
      ],
      [
        "▁dizi",
        -8.431630741862158
      ],
      [
        "▁yatagında",
        -10.688471445260479
      ],
      [
        "▁olmasın",
        -7.969737358348687
      ],
      [
        "▁kay",
        -9.554967559569127
      ],
      [
        "▁ederi",
        -10.464258766346639
      ],
      [
        "▁vermiyor",
        -8.883551412658043
      ],
      [
        "▁asıl",
        -7.381204309289477
      ],
      [
        "▁yerlesti",
        -8.866308720054626
      ],
      [
        "▁otur",
        -9.424166568802827
      ],
      [
        "▁teori",
        -9.423316227774524
      ],
      [
        "▁sehrin",
        -8.598471987970909
      ],
      [
        "▁hangisi",
        -5.9097176655688965
      ],
      [
        "▁tanıtım",
        -9.899685050638691
      ],
      [
        "▁demez",
        -9.489004436944288
      ],
      [
        "tı",
        -8.911214811714785
      ],
      [
        "▁a",
        -3.903267146263205
      ],
      [
        "adan",
        -8.747408729703796
      ],
      [
        "di",
        -4.311915343158292
      ],
      [
        "▁tartısma",
        -9.45706376958626
      ],
      [
        "r",
        -2.7496375480404023
      ],
      [
        "mıs",
        -5.402299570920754
      ],
      [
        "nel",
        -9.370978873542175
      ],
      [
        "▁verilir",
        -9.043263701146781
      ],
      [
        "▁mektep",
        -9.781528519062144
      ],
      [
        "▁yapılmıstı",
        -9.007458334241559
      ],
      [
        "▁kullandıgı",
        -9.312134127578396
      ],
      [
        "▁o",
        -8.046953897321263
      ],
      [
        "▁konusması",
        -10.092543758571027
      ],
      [
        "▁santorini",
        -8.79852370458913
      ],
      [
        "▁lıgı",
        -9.835187222313825
      ],
      [
        "▁ardı",
        -9.002504245993636
      ],
      [
        "riz",
        -8.802386550999628
      ],
      [
        "▁tanesini",
        -10.969990541947478
      ],
      [
        "▁gencleri",
        -10.659396254388472
      ],
      [
        "▁gezi",
        -9.649143086654078
      ],
      [
        "▁sık",
        -9.436996591701568
      ],
      [
        "▁oburu",
        -7.437531266809803
      ],
      [
        "▁va",
        -9.408280164663179
      ],
      [
        "▁pembe",
        -8.497597246521899
      ],
      [
        "oru",
        -9.694431277895061
      ],
      [
        "▁otekiler",
        -11.113708763133028
      ],
      [
        "▁yasa",
        -8.194870699168721
      ],
      [
        "▁turkiye'y",
        -7.808037361817597
      ],
      [
        "▁inanma",
        -10.822668008109689
      ],
      [
        "▁tiyatroda",
        -11.033190522430102
      ],
      [
        "mu",
        -9.407081320931148
      ],
      [
        "bana",
        -7.9971784587020505
      ],
      [
        "▁kalite",
        -7.615516568414705
      ],
      [
        "▁si",
        -11.027007373216842
      ],
      [
        "▁bahset",
        -9.686461662104573
      ],
      [
        "▁altın",
        -7.827040144132851
      ],
      [
        "▁kisi",
        -9.487341716677227
      ],
      [
        "▁donem",
        -8.735127299430943
      ],
      [
        "▁per",
        -8.356093819964316
      ],
      [
        "▁kir",
        -8.65723746422646
      ],
      [
        "▁karıstır",
        -9.260849653594585
      ],
      [
        "▁diregin",
        -11.023239348963079
      ],
      [
        "ıkır",
        -11.104380700091031
      ],
      [
        "▁zenginleri",
        -11.098742906716769
      ],
      [
        "▁ulas",
        -8.81954456049914
      ],
      [
        "▁kart",
        -9.19041292251432
      ],
      [
        "▁kainat",
        -11.098782139684388
      ],
      [
        "▁cıkı",
        -8.843191922262926
      ],
      [
        "▁hukumetin",
        -8.890701790651985
      ],
      [
        "lere",
        -7.341601001237358
      ],
      [
        "▁basımı",
        -9.784441276639306
      ],
      [
        "sik",
        -8.110083134767015
      ],
      [
        "ması",
        -8.436316197603283
      ],
      [
        "▁basbakanı",
        -10.341463384965095
      ],
      [
        "▁karıstı",
        -9.305666126712728
      ],
      [
        "▁ontario",
        -8.369503744745877
      ],
      [
        "▁hastalıkları",
        -10.440332170036607
      ],
      [
        "▁york'ta",
        -6.469904347778425
      ],
      [
        "▁yoktu",
        -5.408655172546287
      ],
      [
        "▁barıs",
        -9.119200359660972
      ],
      [
        "▁g",
        -9.517533349526794
      ],
      [
        "▁sozcukleri",
        -10.277664751233889
      ],
      [
        "▁tonu",
        -10.536314757766572
      ],
      [
        "▁tembelli",
        -11.098806844128733
      ],
      [
        "kini",
        -10.448450001740646
      ],
      [
        "ba",
        -8.067822522098552
      ],
      [
        "z",
        -7.162744109079679
      ],
      [
        "li",
        -9.010403636498483
      ],
      [
        "▁sorular",
        -9.334041718771182
      ],
      [
        "cısı",
        -9.90397445943504
      ],
      [
        "▁etmek",
        -7.488836531238183
      ],
      [
        "▁ucurtma",
        -10.464219478470485
      ],
      [
        "▁oduyor",
        -9.724196487105152
      ],
      [
        "▁cagrıl",
        -9.38323647468485
      ],
      [
        "▁kaydetti",
        -8.059082844732238
      ],
      [
        "▁azalt",
        -9.503814319107363
      ],
      [
        "▁yildiz",
        -10.078866021650365
      ],
      [
        "▁kelimeler",
        -9.672973986522182
      ],
      [
        "▁cıkarmadı",
        -9.659073931873152
      ],
      [
        "▁tv",
        -7.8500461917645055
      ],
      [
        "▁isteme",
        -9.253206003014594
      ],
      [
        "▁olmamak",
        -10.910936475727162
      ],
      [
        "▁kac",
        -6.757270404007121
      ],
      [
        "▁olmasa",
        -8.063730354102637
      ],
      [
        "▁kaynakl",
        -9.476614636882314
      ],
      [
        "▁kavga",
        -9.17061472128658
      ],
      [
        "▁ciftci",
        -10.063981260693316
      ],
      [
        "▁r",
        -7.410864347944156
      ],
      [
        "▁bahceler",
        -10.926116596290282
      ],
      [
        "▁sesi",
        -8.05912395882766
      ],
      [
        "▁insanları",
        -8.51253994013649
      ],
      [
        "▁cesitli",
        -8.739485783740289
      ],
      [
        "▁degisme",
        -9.554493504625826
      ],
      [
        "sat",
        -9.502979100635056
      ],
      [
        "▁hakkı",
        -8.71198043667598
      ],
      [
        "erde",
        -9.410608850313285
      ],
      [
        "▁kıymetleri",
        -9.577527424888405
      ],
      [
        "▁coban",
        -9.466057918316325
      ],
      [
        "▁karsıt",
        -9.545464576689213
      ],
      [
        "▁sandıgı",
        -9.99694173017181
      ],
      [
        "▁dergiler",
        -10.003756551066889
      ],
      [
        "▁nerede",
        -7.3722393738330165
      ],
      [
        "▁varlıgın",
        -10.110013908163639
      ],
      [
        "▁zor",
        -10.362594435711488
      ],
      [
        "▁gecekondu",
        -10.589219090598906
      ],
      [
        "▁camurlu",
        -9.420221018882074
      ],
      [
        "▁ziyafet",
        -10.837217387514992
      ],
      [
        "▁montreal",
        -8.204171178266979
      ],
      [
        "▁hissin",
        -10.631155745261635
      ],
      [
        "▁planlamam",
        -9.990359493198245
      ],
      [
        "▁dolasma",
        -10.002825438642358
      ],
      [
        "▁denizciler",
        -10.514075288177972
      ],
      [
        "▁ogrencisi",
        -10.749917312297253
      ],
      [
        "▁maliyetlerini",
        -10.16905693912586
      ],
      [
        "▁zul",
        -10.466041099091584
      ],
      [
        "▁kız",
        -9.818238009453147
      ],
      [
        "▁zay",
        -9.622436745824915
      ],
      [
        "▁kuvvetl",
        -9.514713350911077
      ],
      [
        "▁sinema",
        -8.912550855052963
      ],
      [
        "▁durumları",
        -10.762559108820458
      ],
      [
        "▁depreminde",
        -11.1063939853565
      ],
      [
        "▁ucuslarını",
        -6.953604312612539
      ],
      [
        "ar",
        -8.150788055824606
      ],
      [
        "▁acıl",
        -9.42151718696952
      ],
      [
        "▁i",
        -10.417781320835415
      ],
      [
        "▁sezon",
        -9.258269841991892
      ],
      [
        "▁karsılıgı",
        -9.97689404306837
      ],
      [
        "▁belirleme",
        -10.665356598118956
      ],
      [
        "▁muzigini",
        -10.982118807786303
      ],
      [
        "▁los",
        -9.038250321600097
      ],
      [
        "yo",
        -7.569069009614569
      ],
      [
        "▁sabahlar",
        -8.336444228612429
      ],
      [
        "▁sıkı",
        -10.413298977503894
      ],
      [
        "▁alma",
        -7.88105154817834
      ],
      [
        "rler",
        -9.428018723001546
      ],
      [
        "▁alın",
        -9.451169954915096
      ],
      [
        "▁fakir",
        -10.52364668530191
      ],
      [
        "▁bo",
        -7.697034901542983
      ],
      [
        "bol",
        -10.635198909225556
      ],
      [
        "▁niyeti",
        -10.290110802058553
      ],
      [
        "▁ontario'",
        -8.450110893428377
      ],
      [
        "▁balonu",
        -10.916132448098278
      ],
      [
        "▁gerekir",
        -7.597615965431767
      ],
      [
        "[CLS]",
        0.0
      ],
      [
        "▁tepki",
        -8.734138648929592
      ],
      [
        "▁gecmisi",
        -9.967245547496148
      ],
      [
        "▁sent",
        -8.359061376405958
      ],
      [
        "5",
        -3.4913817888898824
      ],
      [
        "▁devri",
        -9.233767744026363
      ],
      [
        "▁am",
        -5.947568370575268
      ],
      [
        "bi",
        -9.016663972003016
      ],
      [
        "▁memnunu",
        -9.863901080986903
      ],
      [
        "▁istedikleri",
        -10.437616395291007
      ],
      [
        "▁cıkarıyor",
        -8.506269938409343
      ],
      [
        "olası",
        -7.743034153911136
      ],
      [
        "▁guvence",
        -9.931705299395727
      ],
      [
        "▁boz",
        -9.332543378531197
      ],
      [
        "▁on",
        -9.421481192612129
      ],
      [
        "▁hastalıklar",
        -10.57775261844458
      ],
      [
        "▁sık",
        -9.525425921906283
      ],
      [
        "▁ifsa",
        -10.73303323062961
      ],
      [
        "▁california",
        -8.208073781562616
      ],
      [
        "▁hazırlık",
        -9.911059304283231
      ],
      [
        "▁hindistan'ı",
        -8.792061938177595
      ],
      [
        "▁erkegi",
        -9.592769105180272
      ],
      [
        "alı",
        -9.716431016066782
      ],
      [
        "▁zarf",
        -9.158221938917189
      ],
      [
        "▁sunucu",
        -10.636632877679883
      ],
      [
        "▁partiler",
        -10.085074307743405
      ],
      [
        "▁cevir",
        -9.187974748962066
      ],
      [
        "▁bolum",
        -8.776936970932713
      ],
      [
        "▁binmis",
        -9.295970859154083
      ],
      [
        "ona",
        -8.784433502303932
      ],
      [
        "▁calısanı",
        -9.899533695622795
      ],
      [
        "▁rast",
        -8.69910028835359
      ],
      [
        "▁cabasın",
        -11.11346741988421
      ],
      [
        "erin",
        -9.023391465491212
      ],
      [
        "mle",
        -8.266579360532228
      ],
      [
        "▁klor",
        -10.734292259593655
      ],
      [
        "▁yuvarla",
        -9.63037435933595
      ],
      [
        "▁detaylar",
        -10.236236408385675
      ],
      [
        "▁olmus",
        -6.92390087897756
      ],
      [
        "▁pavyon",
        -10.732076236351329
      ],
      [
        "▁misali",
        -10.470136680630194
      ],
      [
        "▁gidilir",
        -9.627771148582678
      ],
      [
        "▁basladıgında",
        -10.622462905069096
      ],
      [
        "▁ucları",
        -10.522516976961612
      ],
      [
        "▁geciyor",
        -7.732986696869652
      ],
      [
        "ton",
        -10.653424092842904
      ],
      [
        "▁degistir",
        -8.59052840226389
      ],
      [
        "▁pazarlama",
        -9.474093500911618
      ],
      [
        "▁avaz",
        -10.253321199805178
      ],
      [
        "▁durumu",
        -8.235563498449935
      ],
      [
        "▁has",
        -10.893612263994655
      ],
      [
        "▁yapı",
        -8.070770407087547
      ],
      [
        "m",
        -4.809409968019235
      ],
      [
        "▁pehlivan",
        -11.098742889310007
      ],
      [
        "▁saatinde",
        -10.501523531067864
      ],
      [
        "▁ates",
        -8.097457371288762
      ],
      [
        "▁ka",
        -6.481825642100741
      ],
      [
        "▁yanıtlar",
        -10.960430933436687
      ],
      [
        "▁rekabetin",
        -10.380108204836297
      ],
      [
        "▁kalkar",
        -8.90790770462581
      ],
      [
        "▁havayollarında",
        -9.080416606922546
      ],
      [
        "▁oy",
        -7.883383855276201
      ],
      [
        "▁kampanyası",
        -10.055523597879393
      ],
      [
        "tlar",
        -10.368550560001205
      ],
      [
        "▁kısmın",
        -10.514180161978652
      ],
      [
        "▁patron",
        -11.061112149391029
      ],
      [
        "▁199",
        -10.669244790267022
      ],
      [
        "▁edebilme",
        -10.898819049366185
      ],
      [
        "ayesinde",
        -10.407561770047783
      ],
      [
        "▁havalimanında",
        -10.042842646753483
      ],
      [
        "▁mucadele",
        -8.370398712827107
      ],
      [
        "▁kambiyo",
        -10.353107970602832
      ],
      [
        "▁tam",
        -6.157110276087403
      ],
      [
        "▁hakik",
        -9.227536132375318
      ],
      [
        "▁giysi",
        -10.04023938318987
      ],
      [
        "▁aradı",
        -8.99359701568709
      ],
      [
        "unun",
        -8.654510490070345
      ],
      [
        "▁sektoru",
        -9.537632251348796
      ],
      [
        "▁uy",
        -9.25896629314129
      ],
      [
        "meyecek",
        -8.498226654065414
      ],
      [
        "▁son",
        -7.840299127282927
      ],
      [
        "▁baslaması",
        -10.124791616507139
      ],
      [
        "▁ayrıla",
        -8.541486726465003
      ],
      [
        "▁1991",
        -6.854734288346393
      ],
      [
        "▁vegas'",
        -6.918877935752587
      ],
      [
        "▁olayda",
        -9.669769622077494
      ],
      [
        "▁kazancların",
        -10.103466206387118
      ],
      [
        "un",
        -5.755775350433605
      ],
      [
        "▁ziyareti",
        -10.314113766467308
      ],
      [
        "▁haftada",
        -9.20095775390958
      ],
      [
        "▁zararlar",
        -10.752874032887616
      ],
      [
        "▁ugrasma",
        -11.074344015165098
      ],
      [
        "tı",
        -7.313312799606378
      ],
      [
        "▁kuvvet",
        -9.251013511688981
      ],
      [
        "▁al",
        -7.464332101553018
      ],
      [
        "ime",
        -8.639604694817013
      ],
      [
        "▁kredilerin",
        -10.800136031179186
      ],
      [
        "▁hukumetler",
        -10.72768897711408
      ],
      [
        "sem",
        -7.580612882548985
      ],
      [
        "▁verilmisti",
        -9.46644704489576
      ],
      [
        "▁magdurları",
        -11.109091652073321
      ],
      [
        "▁gunesin",
        -9.515885729729263
      ],
      [
        "▁oldugun",
        -8.974067444248593
      ],
      [
        "▁eyl",
        -8.850345872785923
      ],
      [
        "▁konus",
        -8.329415137664675
      ],
      [
        "▁yetkisi",
        -9.745897808649003
      ],
      [
        "▁y",
        -8.967331541838378
      ],
      [
        "▁baslamıs",
        -7.997916163301452
      ],
      [
        "▁heyecanla",
        -10.586124153978467
      ],
      [
        "▁cit",
        -10.622119409280113
      ],
      [
        "▁aldıgın",
        -9.530135576233569
      ],
      [
        "▁yetersiz",
        -6.863319499207189
      ],
      [
        "▁sarkıcı",
        -10.196826930905706
      ],
      [
        "▁hatice",
        -8.887508997895862
      ],
      [
        "▁yaptık",
        -8.652684214003884
      ],
      [
        "sekiz",
        -7.187399372377985
      ],
      [
        "▁begenmedi",
        -7.0160563725782366
      ],
      [
        "ıydı",
        -8.433663542645771
      ],
      [
        "▁tamamla",
        -9.19386492047733
      ],
      [
        "▁bilgilendirme",
        -10.163181876576468
      ],
      [
        "yonlu",
        -8.780767043391974
      ],
      [
        "uz",
        -5.732251839510907
      ],
      [
        "▁teklifin",
        -9.753569907414912
      ],
      [
        "▁muyu",
        -7.272031487385693
      ],
      [
        "▁birbirimiz",
        -7.457556533410018
      ],
      [
        "▁hayalleri",
        -11.093722718650438
      ],
      [
        "sizin",
        -10.612049296442393
      ],
      [
        "▁edildi",
        -7.139347202228309
      ],
      [
        "▁yavrusunu",
        -11.124637901668068
      ],
      [
        "▁sureci",
        -9.247605869963841
      ],
      [
        "▁emirler",
        -11.061784058271165
      ],
      [
        "ını",
        -9.346227941632481
      ],
      [
        "▁okuy",
        -11.106647289937092
      ],
      [
        "▁izleme",
        -10.50302831414378
      ],
      [
        "▁cokuyor",
        -9.728208242989252
      ],
      [
        "▁darbe",
        -8.765084605568077
      ],
      [
        "12",
        -8.290653973826075
      ],
      [
        "▁ydi",
        -4.345530577115908
      ],
      [
        "▁ellerim",
        -10.367014999651033
      ],
      [
        "rlar",
        -8.593514451729753
      ],
      [
        "r",
        -6.326167901266359
      ],
      [
        "▁animasyonlar",
        -8.679711707674556
      ],
      [
        "▁bozu",
        -8.196383960105303
      ],
      [
        "▁sacını",
        -10.810828023924126
      ],
      [
        "nden",
        -7.654988546416117
      ],
      [
        "▁onlemler",
        -10.950366397270368
      ],
      [
        "ma",
        -7.597842975260149
      ],
      [
        "▁ro",
        -8.39270543727789
      ],
      [
        "de",
        -8.004287692131392
      ],
      [
        "▁selam",
        -9.566658551256673
      ],
      [
        "▁kufe",
        -10.960417879408464
      ],
      [
        "▁ede",
        -8.516662764865059
      ],
      [
        "▁limanı",
        -10.776958088067634
      ],
      [
        "▁ual",
        -7.259611041686998
      ],
      [
        "▁ucuslar",
        -6.133115250310938
      ],
      [
        "mi",
        -7.217274665037998
      ],
      [
        "▁dostluk",
        -10.421947340427794
      ],
      [
        "▁rakibini",
        -10.36846990790729
      ],
      [
        "▁ayagında",
        -10.445507314062365
      ],
      [
        "▁arası",
        -7.566096847594933
      ],
      [
        "▁tamamlama",
        -10.615125000755874
      ],
      [
        "▁pamuk",
        -9.584142927559848
      ],
      [
        "▁bolgesi",
        -9.944091282768177
      ],
      [
        "▁yasayıs",
        -10.754648833917404
      ],
      [
        "▁ayakkabı",
        -9.21513145327023
      ],
      [
        "▁6'da",
        -8.82365496734452
      ],
      [
        "▁halkın",
        -9.03652144933605
      ],
      [
        "▁yavrum",
        -10.16935484751022
      ],
      [
        "▁dayan",
        -8.502706346744434
      ],
      [
        "▁edilmesi",
        -9.04408620480445
      ],
      [
        "▁adlandır",
        -9.294630374459443
      ],
      [
        "▁pisi",
        -11.030762799201067
      ],
      [
        "▁polonya",
        -8.29676673508626
      ],
      [
        "zden",
        -10.588668699559264
      ],
      [
        "▁uretimin",
        -9.951354177671778
      ],
      [
        "▁sezer",
        -8.84502097311117
      ],
      [
        "▁inanı",
        -9.403603416738214
      ],
      [
        "▁oyma",
        -10.653817401016212
      ],
      [
        "▁fotografı",
        -10.359769671503651
      ],
      [
        "▁ekipman",
        -9.71820993001287
      ],
      [
        "▁yararlan",
        -9.25682017488467
      ],
      [
        "▁arabalarını",
        -10.862677252683824
      ],
      [
        "▁computer",
        -8.89827614920131
      ],
      [
        "icin",
        -7.37606402349094
      ],
      [
        "▁aksam",
        -8.353179542310087
      ],
      [
        "▁elim",
        -9.379149788760305
      ],
      [
        "▁kural",
        -9.907443172896023
      ],
      [
        "▁0.9",
        -7.9042528719062535
      ],
      [
        "▁demet",
        -10.23261449812859
      ],
      [
        "v",
        -9.211678394969509
      ],
      [
        "▁ot",
        -9.621308979273248
      ],
      [
        "lardi",
        -9.411817586757744
      ],
      [
        "'yi",
        -7.535730970715371
      ],
      [
        "▁yan",
        -7.701764539820724
      ],
      [
        "▁gasp",
        -10.898743500760187
      ],
      [
        "▁ay",
        -8.332692143939353
      ],
      [
        "▁tek",
        -9.674700298119818
      ],
      [
        "▁bacak",
        -9.983693458897484
      ],
      [
        "e",
        -3.9469061176939926
      ],
      [
        "▁anlatım",
        -10.0794080320232
      ],
      [
        "▁1.4",
        -6.918729662637256
      ],
      [
        "▁perakendeci",
        -10.646701506580053
      ],
      [
        "▁mudahaleler",
        -11.049209957467493
      ],
      [
        "▁diyalogu",
        -10.825931368981479
      ],
      [
        "▁kilo",
        -9.686929806883018
      ],
      [
        "▁is",
        -8.322910808840675
      ],
      [
        "▁carpıyor",
        -9.688031598496572
      ],
      [
        "▁dur",
        -8.282044598869458
      ],
      [
        "▁sigortacı",
        -10.075438862171996
      ],
      [
        "▁otede",
        -9.585300593420246
      ],
      [
        "▁sentte",
        -10.785516821366294
      ],
      [
        "▁etini",
        -11.017213286972215
      ],
      [
        "inizi",
        -10.874068453018655
      ],
      [
        "medigi",
        -9.293298768063451
      ],
      [
        "▁gosterebilir",
        -8.586782186323186
      ],
      [
        "▁soyledi",
        -5.028651404385357
      ],
      [
        "▁suregel",
        -9.49873062863636
      ],
      [
        "▁gaziantep",
        -9.009391369544685
      ],
      [
        "eyim",
        -7.743666728038017
      ],
      [
        "▁yayılma",
        -10.361478530093748
      ],
      [
        "▁hijyen",
        -7.885679353100061
      ],
      [
        "ize",
        -9.405376880905765
      ],
      [
        "▁d",
        -6.355214304135228
      ],
      [
        "▁icecekler",
        -8.623836106795963
      ],
      [
        "▁satıl",
        -9.595613147708656
      ],
      [
        "▁tutul",
        -9.378071194142992
      ],
      [
        "▁kendimde",
        -7.695269369691355
      ],
      [
        "▁endeksleri",
        -10.749311448083716
      ],
      [
        "▁mis",
        -5.918581206871204
      ],
      [
        "▁gitmey",
        -9.500926758255659
      ],
      [
        "▁bagırsak",
        -11.082346616287255
      ],
      [
        "▁saglamak",
        -9.637131873662497
      ],
      [
        "▁hızı",
        -9.443687865905817
      ],
      [
        "▁olme",
        -10.3288511812175
      ],
      [
        "▁icten",
        -9.830572817462176
      ],
      [
        "▁yalan",
        -9.64927714623305
      ],
      [
        "▁sorunlarını",
        -9.961019039761394
      ],
      [
        "▁dilekce",
        -10.164426573861439
      ],
      [
        "▁read",
        -8.627212122623403
      ],
      [
        "▁filistin",
        -8.76388849084751
      ],
      [
        "▁euro",
        -9.008346639818559
      ],
      [
        "yıl",
        -9.696505351330142
      ],
      [
        "▁yıkılma",
        -10.92021162371233
      ],
      [
        "▁evren",
        -10.25413097847082
      ],
      [
        "sana",
        -10.46814210824266
      ],
      [
        "▁bun",
        -4.95641735510991
      ],
      [
        "▁gokyuzu",
        -10.307206866171805
      ],
      [
        "▁trust",
        -8.038755782515096
      ],
      [
        "▁cephane",
        -10.89914569603359
      ],
      [
        "ıldıgını",
        -9.95306079755292
      ],
      [
        "▁nedenle",
        -8.770731306325034
      ],
      [
        "▁sefer",
        -8.197544674182836
      ],
      [
        "▁etmekte",
        -9.946226802466544
      ],
      [
        "▁takımı",
        -9.083671679734596
      ],
      [
        "▁erede",
        -9.2442243537544
      ],
      [
        "▁alamadı",
        -9.276278950824342
      ],
      [
        "▁gorun",
        -7.339522011104732
      ],
      [
        "▁icimi",
        -10.03120708636969
      ],
      [
        "▁ekim'de",
        -8.241055313297913
      ],
      [
        "▁yer",
        -8.608293665629773
      ],
      [
        "▁manası",
        -10.312450031445621
      ],
      [
        "▁veren",
        -10.700047353093343
      ],
      [
        "i'ni",
        -7.812141059096041
      ],
      [
        "▁kahrı",
        -11.09874325119268
      ],
      [
        "gini",
        -9.537333936284867
      ],
      [
        "en",
        -5.482431047333141
      ],
      [
        "▁deniz",
        -6.705241797940939
      ],
      [
        "▁ekip",
        -9.826960839503917
      ],
      [
        "▁degilse",
        -6.117869861012117
      ],
      [
        "yıp",
        -8.619379483471196
      ],
      [
        "mayacagı",
        -10.653047752794972
      ],
      [
        "▁satıslarda",
        -10.893800197665037
      ],
      [
        "▁gomul",
        -9.694051093021187
      ],
      [
        "birimizi",
        -10.358879072619562
      ],
      [
        "nu",
        -8.409519495996452
      ],
      [
        "▁kaldırma",
        -9.899323069545096
      ],
      [
        "▁taze",
        -10.533305019022963
      ],
      [
        "▁alına",
        -8.18756117274245
      ],
      [
        "▁s",
        -7.627296564377183
      ],
      [
        "▁8.4",
        -8.04471720368417
      ],
      [
        "▁toplana",
        -9.595554522371936
      ],
      [
        "ak",
        -5.826425994507126
      ],
      [
        "▁kayna",
        -9.008781536000571
      ],
      [
        "▁veda",
        -10.36136621575973
      ],
      [
        ".39",
        -8.089781279558304
      ],
      [
        "▁ugrastı",
        -9.710178452641216
      ],
      [
        "▁koy",
        -8.425768937415434
      ],
      [
        "▁yuz",
        -5.128319349560085
      ],
      [
        "▁10'",
        -11.09837210500525
      ],
      [
        "▁okuyor",
        -9.196920095084089
      ],
      [
        "▁top",
        -8.791269755188685
      ],
      [
        "▁olustur",
        -9.42224727212163
      ],
      [
        ".9",
        -7.582842749110026
      ],
      [
        "▁iceri",
        -9.471817742450435
      ],
      [
        "▁analist",
        -9.488478387884843
      ],
      [
        "▁hissi",
        -11.052387960226522
      ],
      [
        "di",
        -9.574679179964726
      ],
      [
        "▁ormanları",
        -10.900665931915254
      ],
      [
        "▁kutusu",
        -10.359791834996981
      ],
      [
        "▁oturu",
        -8.138288562191024
      ],
      [
        "▁hatirla",
        -9.018982206557968
      ],
      [
        "▁duser",
        -8.161663015630488
      ],
      [
        "▁alınır",
        -9.533036713380298
      ],
      [
        "▁havale",
        -10.418412916888009
      ],
      [
        "▁apartman",
        -9.705191138917993
      ],
      [
        "▁yukselis",
        -9.637588756122469
      ],
      [
        "▁alanın",
        -9.937337173507922
      ],
      [
        "▁grub",
        -10.445568163089836
      ],
      [
        "▁samet",
        -8.89962437332801
      ],
      [
        "▁olgunluk",
        -11.099461039347549
      ],
      [
        "▁duygusu",
        -9.800195866190908
      ],
      [
        "▁ceyreginde",
        -9.537281670459373
      ],
      [
        "▁odeme",
        -9.26063430889852
      ],
      [
        "▁gormek",
        -8.39627757869571
      ],
      [
        "▁karanlıkları",
        -10.961514965950697
      ],
      [
        "▁azamet",
        -11.098748248239122
      ],
      [
        "▁musu",
        -8.715051533902182
      ],
      [
        "▁kalkısları",
        -11.127302297747368
      ],
      [
        "▁takımını",
        -10.079449102035468
      ],
      [
        "▁isciler",
        -9.071639528549438
      ],
      [
        "▁etmisler",
        -9.180847553165817
      ],
      [
        "▁fatura",
        -9.47006235334171
      ],
      [
        "f",
        -8.0582613373701
      ],
      [
        "▁duyul",
        -9.512814932015749
      ],
      [
        "sa",
        -8.905057905060543
      ],
      [
        "▁zevce",
        -11.077951749977517
      ],
      [
        "▁anlasıl",
        -9.472936892906903
      ],
      [
        "▁bildiri",
        -10.35190858874356
      ],
      [
        "▁kızıl",
        -9.236079662397573
      ],
      [
        "▁ipin",
        -10.55222461082203
      ],
      [
        "▁binalar",
        -10.754947851223355
      ],
[...]
