{
  "version": "1.0",
  "truncation": null,
  "padding": null,
  "added_tokens": [
    {
      "id": 787,
      "content": "[SEP]",
      "single_word": false,
      "lstrip": false,
      "rstrip": false,
      "normalized": false,
      "special": true
    },
    {
      "id": 851,
      "content": "[PAD]",
      "single_word": false,
      "lstrip": false,
      "rstrip": false,
      "normalized": false,
      "special": true
    },
    {
      "id": 1071,
      "content": "[CLS]",
      "single_word": false,
      "lstrip": false,
      "rstrip": false,
      "normalized": false,
      "special": true
    },
    {
      "id": 1889,
      "content": "[MASK]",
      "single_word": false,
      "lstrip": false,
      "rstrip": false,
      "normalized": false,
      "special": true
    },
    {
      "id": 3896,
      "content": "[UNK]",
      "single_word": false,
      "lstrip": false,
      "rstrip": false,
      "normalized": false,
      "special": true
    }
  ],
  "normalizer": {
    "type": "Sequence",
    "normalizers": [
      {
        "type": "NFD"
      },
      {
        "type": "Lowercase"
      },
      {
        "type": "StripAccents"
      }
    ]
  },
  "pre_tokenizer": {
    "type": "Sequence",
    "pretokenizers": [
      {
        "type": "Metaspace",
        "replacement": "▁",
        "prepend_scheme": "always",
        "split": true
      }
    ]
  },
  "post_processor": {
    "type": "TemplateProcessing",
    "single": [
      {
        "SpecialToken": {
          "id": "[CLS]",
          "type_id": 0
        }
      },
      {
        "Sequence": {
          "id": "A",
          "type_id": 0
        }
      },
      {
        "SpecialToken": {
          "id": "[SEP]",
          "type_id": 0
        }
      }
    ],
    "pair": [
      {
        "SpecialToken": {
          "id": "[CLS]",
          "type_id": 0
        }
      },
      {
        "Sequence": {
          "id": "A",
          "type_id": 0
        }
      },
      {
        "SpecialToken": {
          "id": "[SEP]",
          "type_id": 0
        }
      },
      {
        "Sequence": {
          "id": "B",
          "type_id": 1
        }
      },
      {
        "SpecialToken": {
          "id": "[SEP]",
          "type_id": 1
        }
      }
    ],
    "special_tokens": {
      "[CLS]": {
        "id": "[CLS]",
        "ids": [
          1071
        ],
        "tokens": [
          "[CLS]"
        ]
      },
      "[SEP]": {
        "id": "[SEP]",
        "ids": [
          787
        ],
        "tokens": [
          "[SEP]"
        ]
      }
    }
  },
  "decoder": {
    "type": "Metaspace",
    "replacement": "▁",
    "prepend_scheme": "always",
    "split": true
  },
  "model": {
    "type": "WordPiece",
    "unk_token": "[UNK]",
    "continuing_subword_prefix": "##",
    "max_input_chars_per_word": 100,
    "vocab": {
      "##ayla": 0,
      "–": 1,
      "▁etki": 2,
      "##yas": 3,
      "▁dısı": 4,
      "▁ceh": 5,
      "##siyon": 6,
      "▁kisiler": 7,
      "##yası": 8,
      "▁aldı": 9,
      "▁ag": 10,
      "##ması": 11,
      "▁fa": 12,
      "▁sag": 13,
      "▁beg": 14,
      "▁pit": 15,
      "▁kural": 16,
      "▁tas": 17,
      "▁prob": 18,
      "##su": 19,
      "##kel": 20,
      "##lıgında": 21,
      "##tik": 22,
      "▁hele": 23,
      "##..": 24,
      "▁isini": 25,
      "##ika": 26,
      "▁may": 27,
      "##lem": 28,
      "▁dikkat": 29,
      "▁pant": 30,
      "▁indirim": 31,
      "▁sinir": 32,
      "▁isler": 33,
      "▁alma": 34,
      "▁ihtiyacı": 35,
      "▁yatırımcı": 36,
      "▁olustur": 37,
      "▁buldu": 38,
      "##acagını": 39,
      "##isine": 40,
      "##imize": 41,
      "##eydi": 42,
      "▁emek": 43,
      "▁yolcul": 44,
      "▁gelecek": 45,
      "▁tepki": 46,
      "▁kaliteye": 47,
      "##azla": 48,
      "▁gorusme": 49,
      "##ts": 50,
      "##eri": 51,
      "▁bul": 52,
      "▁belir": 53,
      "##madim": 54,
      "##ork": 55,
      "▁ocak": 56,
      "##'ten": 57,
      "▁dort": 58,
      "▁cik": 59,
      "▁dizi": 60,
      "▁dekor": 61,
      "##istir": 62,
      "##layan": 63,
      "##iklik": 64,
      "##el": 65,
      "▁sil": 66,
      "▁faz": 67,
      "▁ig": 68,
      "▁gulery": 69,
      "▁tası": 70,
      "##uktu": 71,
      "▁genc": 72,
      "▁sorustur": 73,
      "##ımda": 74,
      "##ınlık": 75,
      "▁tes": 76,
      "▁fer": 77,
      "##eyaz": 78,
      "▁mahk": 79,
      "▁iki": 80,
      "▁icin": 81,
      "▁elleri": 82,
      "▁et": 83,
      "▁mode": 84,
      "##ebilir": 85,
      "▁hisseler": 86,
      "▁yarı": 87,
      "▁sif": 88,
      "##yuz": 89,
      "▁yaln": 90,
      "▁olduguna": 91,
      "▁n": 92,
      "▁pantol": 93,
      "▁ilk": 94,
      "##be": 95,
      "▁om": 96,
      "##etti": 97,
      "▁'": 98,
      "▁kor": 99,
      "##stu": 100,
      "▁5": 101,
      "##gal": 102,
      "▁agz": 103,
      "##ecekler": 104,
      "▁faaliyet": 105,
      "##ag": 106,
      "▁kisi": 107,
      "##likle": 108,
      "##uler": 109,
      "▁sahn": 110,
      "##isleri": 111,
      "▁sik": 112,
      "▁grub": 113,
      "▁karıs": 114,
      "s": 115,
      "▁tartıs": 116,
      "▁birer": 117,
      "▁hacmi": 118,
      "▁kalab": 119,
      "##isyon": 120,
      "▁tır": 121,
      "▁sınıf": 122,
      "▁hizmetten": 123,
      "##(": 124,
      "▁mahkem": 125,
      "▁animasyon": 126,
      "▁arasındaki": 127,
      "##form": 128,
      "##masının": 129,
      "▁ithalat": 130,
      "▁bolge": 131,
      "##1": 132,
      "▁ankete": 133,
      "▁oyunc": 134,
      "▁kent": 135,
      "▁on": 136,
      "▁doneminde": 137,
      "##ınız": 138,
      "▁col": 139,
      "▁beklen": 140,
      "##digim": 141,
      "▁arasına": 142,
      "▁dengesi": 143,
      "▁kitabı": 144,
      "▁sorunları": 145,
      "▁gar": 146,
      "▁ihtiyac": 147,
      "▁ilave": 148,
      "##div": 149,
      "##eti": 150,
      "##tan": 151,
      "▁endis": 152,
      "▁p": 153,
      "▁ceyrekte": 154,
      "▁cumle": 155,
      "▁grup": 156,
      "▁don": 157,
      "▁kork": 158,
      "o": 159,
      "##ibi": 160,
      "##mesine": 161,
      "##'tan": 162,
      "▁mektup": 163,
      "▁matem": 164,
      "▁kurtaj": 165,
      "▁kars": 166,
      "▁ifade": 167,
      "▁kov": 168,
      "▁mal": 169,
      "##all": 170,
      "##kım": 171,
      "▁olursa": 172,
      "▁kazanc": 173,
      "##ılır": 174,
      "▁mobil": 175,
      "▁ha": 176,
      "▁ortak": 177,
      "▁kims": 178,
      "##ız": 179,
      "▁tut": 180,
      "▁olduk": 181,
      "‘": 182,
      "##akat": 183,
      "m": 184,
      "▁pu": 185,
      "▁birta": 186,
      "▁varlık": 187,
      "▁soyluyor": 188,
      "##egine": 189,
      "▁car": 190,
      "▁haft": 191,
      "▁suya": 192,
      "##eler": 193,
      "##etleri": 194,
      "▁mekte": 195,
      "▁komsu": 196,
      "▁arkad": 197,
      "##udu": 198,
      "##se": 199,
      "▁kucuk": 200,
      "▁ortal": 201,
      "##ade": 202,
      "▁kaynak": 203,
      "▁makaleye": 204,
      "▁islemlerinde": 205,
      "##kul": 206,
      "▁detay": 207,
      "▁sistemi": 208,
      "▁hapis": 209,
      "▁merk": 210,
      "##'nda": 211,
      "▁olsun": 212,
      "▁yuzune": 213,
      "##'ye": 214,
      "▁h": 215,
      "##j": 216,
      "▁analiz": 217,
      "▁cent": 218,
      "▁barda": 219,
      "##unuz": 220,
      "##ttı": 221,
      "##ilm": 222,
      "▁adım": 223,
      "##fen": 224,
      "##iv": 225,
      "▁guzeldi": 226,
      "▁ort": 227,
      "▁olabilirdi": 228,
      "▁ustunde": 229,
      "▁devam": 230,
      "##estir": 231,
      "▁sinem": 232,
      "▁bana": 233,
      "##0'": 234,
      "▁mesel": 235,
      "▁bakım": 236,
      "▁ref": 237,
      "##leyi": 238,
      "##uydu": 239,
      "##lo": 240,
      "##tır": 241,
      "##elig": 242,
      "▁yargıc": 243,
      "##gın": 244,
      "▁moda": 245,
      "▁havuz": 246,
      "▁potansiyel": 247,
      "▁dakika": 248,
      "▁kayıp": 249,
      "##lar": 250,
      "##asında": 251,
      "##urt": 252,
      "##elerden": 253,
      "▁kurulu": 254,
      "##ımı": 255,
      "▁gunun": 256,
      "▁vakit": 257,
      "▁yab": 258,
      "▁odeme": 259,
      "▁1": 260,
      "▁yaz": 261,
      "##ustur": 262,
      "▁-": 263,
      "▁coc": 264,
      "▁unut": 265,
      "##emek": 266,
      "##ij": 267,
      "▁metr": 268,
      "▁yolculuk": 269,
      "##ez": 270,
      "▁tamam": 271,
      "▁sebeb": 272,
      "▁burada": 273,
      "##ur": 274,
      "▁bulun": 275,
      "##lanı": 276,
      "▁pek": 277,
      "##iski": 278,
      "▁arası": 279,
      "▁man": 280,
      "▁efendi": 281,
      "▁konusunda": 282,
      "##ısının": 283,
      "##gı": 284,
      "▁ısrar": 285,
      "▁iyi": 286,
      "##lacak": 287,
      "##0": 288,
      "▁yapti": 289,
      "▁nedeniyle": 290,
      "##masız": 291,
      "▁urunleri": 292,
      "##ha": 293,
      "##mekt": 294,
      "▁yumurta": 295,
      "##d": 296,
      "▁yardımcı": 297,
      "▁iht": 298,
      "##diginde": 299,
      "##imizi": 300,
      "▁boz": 301,
      "▁fel": 302,
      "▁hayır": 303,
      "##ator": 304,
      "##medigini": 305,
      "▁tac": 306,
      "##aydı": 307,
      "##ileri": 308,
      "u": 309,
      "##ıgı": 310,
      "▁personel": 311,
      "▁durumu": 312,
      "▁urun": 313,
      "##ime": 314,
      "▁icine": 315,
      "▁seyir": 316,
      "##arak": 317,
      "##ecegini": 318,
      "##ide": 319,
      "▁yapmaya": 320,
      "▁genelde": 321,
      "▁rakam": 322,
      "▁konuyu": 323,
      "▁hanim": 324,
      "##sınız": 325,
      "▁sozu": 326,
      "▁butun": 327,
      "##anı": 328,
      "▁ileri": 329,
      "▁cat": 330,
      "▁yuzunden": 331,
      "▁sayı": 332,
      "##larından": 333,
      "▁gun": 334,
      "▁der": 335,
      "▁tarafı": 336,
      "▁film": 337,
      "▁so": 338,
      "##cılar": 339,
      "▁hol": 340,
      "▁haline": 341,
      "##ri": 342,
      "▁evde": 343,
      "▁vak": 344,
      "##ligin": 345,
      "##hane": 346,
      "▁kelime": 347,
      "▁acı": 348,
      "##eyle": 349,
      "##ret": 350,
      "##bah": 351,
      "##labilir": 352,
      "▁iddia": 353,
      "▁ucak": 354,
      "▁b": 355,
      "▁gez": 356,
      "▁uy": 357,
      "▁elini": 358,
      "##yan": 359,
      "▁gogs": 360,
      "##nam": 361,
      "##’": 362,
      "##mas": 363,
      "▁bel": 364,
      "##lıg": 365,
      "##eceg": 366,
      "▁yılın": 367,
      "▁pos": 368,
      "▁merkeze": 369,
      "▁sırasında": 370,
      "##erh": 371,
      "▁gece": 372,
      "##anma": 373,
      "▁penc": 374,
      "##aki": 375,
      "##ım": 376,
      "▁esn": 377,
      "##,": 378,
      "▁yolcu": 379,
      "▁demokr": 380,
      "▁iler": 381,
      "##vr": 382,
      "▁bu": 383,
      "▁kitab": 384,
      "##ili": 385,
      "▁ist": 386,
      "▁fiyatlarını": 387,
      "▁mektu": 388,
      "▁havada": 389,
      "▁denize": 390,
      "##iler": 391,
      "▁magaz": 392,
      "▁adını": 393,
      "▁kapının": 394,
      "▁isi": 395,
      "▁geri": 396,
      "▁ser": 397,
      "##elere": 398,
      "##ef": 399,
      "5": 400,
      "##2": 401,
      "##ku": 402,
      "▁yerde": 403,
      "▁ih": 404,
      "▁eser": 405,
      "▁agız": 406,
      "##enler": 407,
      "##–": 408,
      "▁isaret": 409,
      "▁yılda": 410,
      "▁patlıc": 411,
      "▁corba": 412,
      "##cih": 413,
      "▁arttı": 414,
      "##ıstır": 415,
      "▁sep": 416,
      "▁yorum": 417,
      "##ıklık": 418,
      "▁alan": 419,
      "▁gider": 420,
      "▁gr": 421,
      "▁dogum": 422,
      "▁hazine": 423,
      "▁yazar": 424,
      "▁yakın": 425,
      "##larda": 426,
      "▁dis": 427,
      "▁kagıt": 428,
      "▁odalari": 429,
      "▁temsil": 430,
      "##ımızı": 431,
      "▁listeleyin": 432,
      "▁soz": 433,
      "▁sol": 434,
      "##urdu": 435,
      "▁giriste": 436,
      "▁cıg": 437,
      "▁hukuk": 438,
      "##gisi": 439,
      "7": 440,
      "▁eder": 441,
      "▁acıklam": 442,
      "##ul": 443,
      "##rak": 444,
      "▁bilgisayar": 445,
      "▁mot": 446,
      "▁yonetici": 447,
      "▁fır": 448,
      "##san": 449,
      "##eket": 450,
      "▁olanakları": 451,
      "▁tasım": 452,
      "▁ettigini": 453,
      "▁beyin": 454,
      "▁mill": 455,
      "▁d": 456,
      "▁a": 457,
      "▁konum": 458,
      "##af": 459,
      "▁koy": 460,
      "##arlar": 461,
      "▁millet": 462,
      "▁disi": 463,
      "▁kardesim": 464,
      "##agı": 465,
      "▁bolg": 466,
      "▁sikinti": 467,
      "##eginde": 468,
      "##adı": 469,
      "▁verim": 470,
      "▁must": 471,
      "▁otob": 472,
      "▁guleryuzlu": 473,
      "##lanmıs": 474,
      "▁derece": 475,
      "▁.\"": 476,
      "▁tahvilleri": 477,
      "▁huz": 478,
      "▁sof": 479,
      "##lerin": 480,
      "▁kullanmadim": 481,
      "▁devlet": 482,
      "▁kopek": 483,
      "▁vur": 484,
      "▁dusunuyor": 485,
      "▁elden": 486,
      "▁bos": 487,
      "▁edin": 488,
      "##lıc": 489,
      "j": 490,
      "▁yarıs": 491,
      "▁basv": 492,
      "▁ord": 493,
      "▁azdi": 494,
      "▁kulak": 495,
      "##acılık": 496,
      "x": 497,
      "▁borsa": 498,
      "▁oglen": 499,
      "##arın": 500,
      "##ve": 501,
      "##aması": 502,
      "▁vardi": 503,
      "▁sona": 504,
      "##enk": 505,
      "▁mudur": 506,
      "▁go": 507,
      "##lendi": 508,
      "▁ip": 509,
      "▁not": 510,
      "▁senetleri": 511,
      "▁piyasada": 512,
      "##lisi": 513,
      "▁olmad": 514,
      "▁siyas": 515,
      "##istler": 516,
      "▁yahut": 517,
      "▁ogle": 518,
      "▁“": 519,
      "##irler": 520,
      "▁mucade": 521,
      "##*": 522,
      "▁degisim": 523,
      "▁sık": 524,
      "▁bilg": 525,
      "▁teknoloj": 526,
      "▁acisindan": 527,
      "▁ac": 528,
      "▁tey": 529,
      "▁cevr": 530,
      "▁poz": 531,
      "▁kar": 532,
      "##lerdi": 533,
      "▁birles": 534,
      "▁felsef": 535,
      "▁can": 536,
      "##oyu": 537,
      "##lk": 538,
      "▁elem": 539,
      "##muyor": 540,
      "##iyon": 541,
      "▁cocuklar": 542,
      "▁ısık": 543,
      "▁kongre": 544,
      "##ing": 545,
      "##‘": 546,
      "▁;": 547,
      "▁grubu": 548,
      "▁alır": 549,
      "▁eks": 550,
      "▁dog": 551,
      "▁tel": 552,
      "▁ipot": 553,
      "▁universit": 554,
      "##ilik": 555,
      "▁,": 556,
      "##enin": 557,
      "▁ortadan": 558,
      "▁satır": 559,
      "▁olsa": 560,
      "▁kay": 561,
      "▁sure": 562,
      "▁kalmadim": 563,
      "▁bahs": 564,
      "##elerde": 565,
      "▁aksama": 566,
      "##dım": 567,
      "▁mik": 568,
      "▁hakim": 569,
      "▁meydana": 570,
      "▁yak": 571,
      "▁kontr": 572,
      "▁camasır": 573,
      "▁fakat": 574,
      "▁bayan": 575,
      "▁men": 576,
      "▁da": 577,
      "▁yatırım": 578,
      "##anc": 579,
      "##mi": 580,
      "##de": 581,
      "▁sermay": 582,
      "▁fikir": 583,
      "▁takım": 584,
      "##askanı": 585,
      "##ce": 586,
      "##yuzlu": 587,
      "▁maliyet": 588,
      "▁operasyon": 589,
      "▁maz": 590,
      "▁diy": 591,
      "▁esk": 592,
      "▁kup": 593,
      "▁ikisi": 594,
      "▁ark": 595,
      "▁4": 596,
      "▁id": 597,
      "▁nuf": 598,
      "##astır": 599,
      "▁hukumetin": 600,
      "▁ilgilen": 601,
      "▁sirket": 602,
      "▁tah": 603,
      "▁depr": 604,
      "##aydi": 605,
      "▁hisse": 606,
      "##gim": 607,
      "▁zor": 608,
      "▁/": 609,
      "##anın": 610,
      "##lıkta": 611,
      "▁merak": 612,
      "▁hava": 613,
      "##land": 614,
      "▁ir": 615,
      "z": 616,
      "##lemek": 617,
      "▁buyume": 618,
      "▁politika": 619,
      "▁beyle": 620,
      "##adel": 621,
      "##alarını": 622,
      "▁ekm": 623,
      "▁piyasası": 624,
      "##00": 625,
      "▁temmuz": 626,
      "▁veriyor": 627,
      "▁”": 628,
      "##ington": 629,
      "##ızı": 630,
      "▁dair": 631,
      "##lıktan": 632,
      "▁dusman": 633,
      "▁alısver": 634,
      "▁haber": 635,
      "##anının": 636,
      "##iz": 637,
      "▁ayında": 638,
      "▁ediyorum": 639,
      "▁gerek": 640,
      "▁tuz": 641,
      "▁suyu": 642,
      "##liginin": 643,
      "▁art": 644,
      "▁omuz": 645,
      "▁cık": 646,
      "▁ornek": 647,
      "▁demek": 648,
      "▁tesisin": 649,
      "##atur": 650,
      "##ılan": 651,
      "▁edil": 652,
      "▁olmaz": 653,
      "##eyen": 654,
      "##ina": 655,
      "##cıları": 656,
      "##atlar": 657,
      "▁sul": 658,
      "▁get": 659,
      "▁harekete": 660,
      "▁sonuc": 661,
      "##oz": 662,
      "▁toz": 663,
      "▁otobus": 664,
      "##miyor": 665,
      "▁fen": 666,
      "##mes": 667,
      "▁fut": 668,
      "▁aleyh": 669,
      "##geleri": 670,
      "##ekli": 671,
      "▁sub": 672,
      "##ydı": 673,
      "▁saat": 674,
      "▁seyleri": 675,
      "▁olu": 676,
      "▁sıra": 677,
      "##itr": 678,
      "▁bar": 679,
      "▁kısıt": 680,
      "▁politik": 681,
      "##uluk": 682,
      "▁gond": 683,
      "▁zamanlar": 684,
      "##ed": 685,
      "##aga": 686,
      "##ise": 687,
      "▁nes": 688,
      "##eyr": 689,
      "##cısı": 690,
      "▁duzen": 691,
      "##ında": 692,
      "##acılar": 693,
      "##ant": 694,
      "▁aday": 695,
      "##lantı": 696,
      "▁orman": 697,
      "##yon": 698,
      "▁de": 699,
      "▁hast": 700,
      "▁pil": 701,
      "▁tar": 702,
      "▁etraf": 703,
      "▁durumda": 704,
      "▁sevg": 705,
      "▁konusu": 706,
      "▁sp": 707,
      "▁kil": 708,
      "##hangi": 709,
      "▁sal": 710,
      "▁benim": 711,
      "##gesi": 712,
      "##ımıza": 713,
      "##eb": 714,
      "##esiyle": 715,
      "##edav": 716,
      "##elerle": 717,
      "▁listele": 718,
      "▁...": 719,
      "▁f": 720,
      "▁sohbet": 721,
      "▁sam": 722,
      "▁komisyon": 723,
      "▁cer": 724,
      "##ka": 725,
      "##inti": 726,
      "##isco": 727,
      "▁gozler": 728,
      "▁buyum": 729,
      "▁bıraktı": 730,
      "##abı": 731,
      "▁vade": 732,
      "▁guzellik": 733,
      "##maları": 734,
      "▁..": 735,
      "▁kahve": 736,
      "##gu": 737,
      "▁soy": 738,
      "▁fiyatina": 739,
      "▁aktar": 740,
      "▁sog": 741,
      "▁iddi": 742,
      "▁rah": 743,
      "▁tekn": 744,
      "▁domates": 745,
      "##biy": 746,
      "▁personelin": 747,
      "##dam": 748,
      "▁edildi": 749,
      "▁salı": 750,
      ",": 751,
      "▁tahv": 752,
      "▁alaka": 753,
      "##or": 754,
      "▁heyecan": 755,
      "##'in": 756,
      "▁genis": 757,
      "##\"": 758,
      "▁ham": 759,
      "##tıgı": 760,
      "##ere": 761,
      "▁dal": 762,
      "▁eylem": 763,
      "▁sonrası": 764,
      "▁gelir": 765,
      "##amaz": 766,
      "▁doktor": 767,
      "##inin": 768,
      "▁konak": 769,
      "##hu": 770,
      "▁york": 771,
      "▁bey": 772,
      "##la": 773,
      "##iy": 774,
      "##'un": 775,
      "▁vatand": 776,
      "▁sektor": 777,
      "▁oglan": 778,
      "▁cozum": 779,
      "▁fabrika": 780,
      "▁kısa": 781,
      "▁deg": 782,
      "▁laf": 783,
      "▁komut": 784,
      "▁nokta": 785,
      "▁cadde": 786,
      "[SEP]": 787,
      "▁fay": 788,
      "▁makal": 789,
      "▁ceyrek": 790,
      "##eticisi": 791,
      "▁tav": 792,
      "##ram": 793,
      "▁franc": 794,
      "▁is": 795,
      "▁yumur": 796,
      "▁lam": 797,
      "##em": 798,
      "▁hiss": 799,
      "##tih": 800,
      "▁icerisinde": 801,
      "▁ister": 802,
      "##bol": 803,
      "▁!..": 804,
      "▁gazeteci": 805,
      "▁sar": 806,
      "##ıf": 807,
      "▁mevzu": 808,
      "▁gunduz": 809,
      "##di": 810,
      "▁vucut": 811,
      "8": 812,
      "##enlerin": 813,
      "▁yaklas": 814,
      "▁bon": 815,
      "▁tur": 816,
      "▁sır": 817,
      "##tıgını": 818,
      "▁belirt": 819,
      "▁yani": 820,
      "▁hem": 821,
      "▁ziy": 822,
      "▁!": 823,
      "▁olacagını": 824,
      "##tansiy": 825,
      "▁fiyati": 826,
      "▁yılının": 827,
      "▁onune": 828,
      "▁si": 829,
      "##alarım": 830,
      "##una": 831,
      "▁performans": 832,
      "##“": 833,
      "▁cuma": 834,
      "▁tenc": 835,
      "##yla": 836,
      "▁cars": 837,
      "##esinde": 838,
      "##dıgı": 839,
      "▁yardimci": 840,
      "▁kazan": 841,
      "▁boyu": 842,
      "▁ayn": 843,
      "▁zincir": 844,
      "▁tul": 845,
      "▁burası": 846,
      "▁hisseye": 847,
      "##akları": 848,
      "▁yemegi": 849,
      "▁borsası": 850,
      "[PAD]": 851,
      "▁bacak": 852,
      "▁sark": 853,
      "##5'": 854,
      "▁paran": 855,
      "▁baltimore": 856,
      "##c": 857,
      "▁bit": 858,
      "##ici": 859,
      "##ren": 860,
      "##ilmesi": 861,
      "▁piyasanın": 862,
      "▁istiyor": 863,
      "▁tamir": 864,
      "▁az": 865,
      "▁kısı": 866,
      "##ıt": 867,
      "▁ders": 868,
      "▁pazartesi": 869,
      "##ınt": 870,
      "▁milletvek": 871,
      "##asına": 872,
      "▁senedi": 873,
      "##ıma": 874,
      "▁cocukların": 875,
      "▁kıymetler": 876,
      "▁il": 877,
      "▁sirketin": 878,
      "▁st": 879,
      "##sal": 880,
      "##tıl": 881,
      "##if": 882,
      "##laması": 883,
      "▁muda": 884,
      "▁deger": 885,
      "##met": 886,
      "▁soh": 887,
      "##atın": 888,
      "▁bakanı": 889,
      "▁ayakta": 890,
      "▁duvar": 891,
      "##medim": 892,
      "▁siir": 893,
      "▁sok": 894,
      "▁sez": 895,
      "▁endustr": 896,
      "▁esya": 897,
      "▁rakip": 898,
      "▁kaf": 899,
      "▁begenmedim": 900,
      "▁yapar": 901,
      "▁mah": 902,
      "▁yerinde": 903,
      "##isinde": 904,
      "▁am": 905,
      "##lıyor": 906,
      "▁bogaz": 907,
      "▁sonrasında": 908,
      "▁hav": 909,
      "▁getiri": 910,
      "▁muzak": 911,
      "##nd": 912,
      "##uzlu": 913,
      "##inden": 914,
      "▁sorum": 915,
      "▁koku": 916,
      "▁misafirimiz": 917,
      "▁ortasında": 918,
      "##lılık": 919,
      "▁finans": 920,
      "##emey": 921,
      "##kat": 922,
      "##r": 923,
      "▁ur": 924,
      "▁insanı": 925,
      "▁pal": 926,
      "▁yemekler": 927,
      "▁parc": 928,
      "▁tehd": 929,
      "▁yeni": 930,
      "▁or": 931,
      "▁yag": 932,
      "▁yatırımcılar": 933,
      "▁denizi": 934,
      "▁danısman": 935,
      "▁mut": 936,
      "▁seyin": 937,
      "▁sekilde": 938,
      "▁eger": 939,
      "##eder": 940,
      "▁end": 941,
      "▁mily": 942,
      "▁kav": 943,
      "##end": 944,
      "##abilecegini": 945,
      "▁gu": 946,
      "##ırdı": 947,
      "▁otomobil": 948,
      "—": 949,
      ">": 950,
      "▁yapmayı": 951,
      "##mel": 952,
      "▁karsiligini": 953,
      "##anlık": 954,
      "##alarla": 955,
      "##dil": 956,
      "▁sandal": 957,
      "▁ticarette": 958,
      "▁yıl": 959,
      "▁icecekler": 960,
      "▁mac": 961,
      "##ba": 962,
      "▁civarında": 963,
      "##ok": 964,
      "##\\": 965,
      "##emem": 966,
      "▁mak": 967,
      "▁nis": 968,
      "▁islet": 969,
      "##ir": 970,
      "▁goster": 971,
      "▁mart": 972,
      "##tıktan": 973,
      "▁pir": 974,
      "▁kriz": 975,
      "▁cocuklara": 976,
      "▁ikram": 977,
      "▁ara": 978,
      "▁gelmis": 979,
      "*": 980,
      "##mey": 981,
      "▁istik": 982,
      "▁uzun": 983,
      "##egi": 984,
      "▁ver": 985,
      "▁hayat": 986,
      "▁sorun": 987,
      "▁ma": 988,
      "▁sozcusu": 989,
      "##si": 990,
      "▁yerden": 991,
      "▁niyet": 992,
      "▁sis": 993,
      "##cilik": 994,
      "##qu": 995,
      "▁kurs": 996,
      "▁deprem": 997,
      "▁cogu": 998,
      "##dık": 999,
      "▁avuk": 1000,
      "##'nın": 1001,
      "▁ton": 1002,
      "##leri": 1003,
      "▁gi": 1004,
      "▁istedi": 1005,
      "▁olma": 1006,
      "▁kul": 1007,
      "▁ucu": 1008,
      "##anlar": 1009,
      "▁sah": 1010,
      "▁lez": 1011,
      "##lara": 1012,
      "▁fab": 1013,
      "##aret": 1014,
      "##lig": 1015,
      "▁animasyonlar": 1016,
      "▁ab": 1017,
      "▁muhaf": 1018,
      "▁cocugun": 1019,
      "##ch": 1020,
      "▁erkek": 1021,
      "▁defter": 1022,
      "▁br": 1023,
      "##lav": 1024,
      "▁digerleri": 1025,
      "##gıt": 1026,
      "##sız": 1027,
      "▁ulkenin": 1028,
      "##ken": 1029,
      "▁pat": 1030,
      "##ip": 1031,
      "▁ev": 1032,
      "▁kadını": 1033,
      "▁cin": 1034,
      "▁har": 1035,
      "##cu": 1036,
      "##mız": 1037,
      "##i": 1038,
      "▁yerine": 1039,
      "##dıgını": 1040,
      "▁deniz": 1041,
      "▁elbis": 1042,
      "▁`": 1043,
      "▁kayı": 1044,
      "▁sokak": 1045,
      "##ektr": 1046,
      "▁dusunce": 1047,
      "▁z": 1048,
      "▁ancak": 1049,
      "▁durus": 1050,
      "▁dusus": 1051,
      "▁milyon": 1052,
      "##ak": 1053,
      "▁fot": 1054,
      "▁sınıfı": 1055,
      "##meleri": 1056,
      "▁uretimi": 1057,
      "▁kon": 1058,
      "##ık": 1059,
      "##ıy": 1060,
      "▁bile": 1061,
      "▁gorus": 1062,
      "##agın": 1063,
      "##uma": 1064,
      "▁eglence": 1065,
      "##imen": 1066,
      "▁vat": 1067,
      "##madıgını": 1068,
      "##amın": 1069,
      "▁dilim": 1070,
      "[CLS]": 1071,
      "▁yer": 1072,
      "##van": 1073,
      "##sim": 1074,
      "▁kim": 1075,
      "##digi": 1076,
      "▁calı": 1077,
      "##—": 1078,
      "▁davranıs": 1079,
      "##lu": 1080,
      "▁ailesi": 1081,
      "▁salon": 1082,
      "##ından": 1083,
      "##ca": 1084,
      "▁ban": 1085,
      "##larak": 1086,
      "▁takdir": 1087,
      "▁fiyatı": 1088,
      "▁hanım": 1089,
      "▁vardı": 1090,
      "▁kur": 1091,
      "▁8": 1092,
      "##'s": 1093,
      "▁ses": 1094,
      "▁tarla": 1095,
      "▁etmem": 1096,
      "▁gerektigini": 1097,
      "##ınc": 1098,
      "##andır": 1099,
      "▁araba": 1100,
      "▁amac": 1101,
      "▁yuzde": 1102,
      "##yacak": 1103,
      "▁od": 1104,
      "▁piyan": 1105,
      "##tur": 1106,
      "▁imkanlari": 1107,
      "▁savası": 1108,
      "▁gaz": 1109,
      "##sun": 1110,
      "##lamaya": 1111,
      "##lige": 1112,
      "##arlan": 1113,
      "▁tabak": 1114,
      "▁philadel": 1115,
      "##on": 1116,
      "▁tok": 1117,
      "▁ap": 1118,
      "▁azalt": 1119,
      "▁arab": 1120,
      "▁ihtim": 1121,
      "▁ulk": 1122,
      "##uh": 1123,
      "##sunuz": 1124,
      "▁kalitesi": 1125,
      "##aların": 1126,
      "▁pay": 1127,
      "▁aktiv": 1128,
      "##nun": 1129,
      "▁to": 1130,
      "▁olanak": 1131,
      "▁onay": 1132,
      "▁azından": 1133,
      "▁gordum": 1134,
      "▁ama": 1135,
      "##ediyor": 1136,
      "##hal": 1137,
      "▁yasam": 1138,
      "##rı": 1139,
      "▁hır": 1140,
      "##kac": 1141,
      "##eger": 1142,
      "##lardı": 1143,
      "▁tad": 1144,
      "▁listesini": 1145,
      "##aket": 1146,
      "▁sozles": 1147,
      "▁kredi": 1148,
      "▁onlar": 1149,
      "▁sart": 1150,
      "▁akıl": 1151,
      "▁ar": 1152,
      "▁cek": 1153,
      "▁petrol": 1154,
      "▁bat": 1155,
      "▁": 1156,
      "▁yuzyıl": 1157,
      "▁bekliyor": 1158,
      "##ask": 1159,
      "▁yıld": 1160,
      "▁hep": 1161,
      "##uzel": 1162,
      "▁ul": 1163,
      ".": 1164,
      "▁dusun": 1165,
      "##ligini": 1166,
      "##laya": 1167,
      "##denin": 1168,
      "▁herh": 1169,
      "##liginde": 1170,
      "##and": 1171,
      "##dır": 1172,
      "##ust": 1173,
      "▁zamanda": 1174,
      "▁gidis": 1175,
      "▁ailelere": 1176,
      "▁sanat": 1177,
      "▁nisan": 1178,
      "▁yapmak": 1179,
      "##larını": 1180,
      "▁ola": 1181,
      "▁cag": 1182,
      "▁dum": 1183,
      "##eden": 1184,
      "##etici": 1185,
      "▁gecm": 1186,
      "▁turku": 1187,
      "▁sonr": 1188,
      "▁su": 1189,
      "▁ayd": 1190,
      "##ladım": 1191,
      "##onun": 1192,
      "▁gid": 1193,
      "▁tahmin": 1194,
      "##enc": 1195,
      "##lanıyor": 1196,
      "##udur": 1197,
      "##aliydi": 1198,
      "##len": 1199,
      "▁altın": 1200,
      "▁plani": 1201,
      "▁diger": 1202,
      "##kil": 1203,
      "##t": 1204,
      "##indan": 1205,
      "##og": 1206,
      "▁yere": 1207,
      "▁rekor": 1208,
      "▁olur": 1209,
      "##cisi": 1210,
      "##sil": 1211,
      "##0'dan": 1212,
      "##mur": 1213,
      "▁kuf": 1214,
      "▁yalnız": 1215,
      "▁baskan": 1216,
      "▁hat": 1217,
      "▁japon": 1218,
      "▁gelistir": 1219,
      "▁kullan": 1220,
      "▁tat": 1221,
      "▁altından": 1222,
      "▁yeniden": 1223,
      "##estiri": 1224,
      "▁alıs": 1225,
      "##ers": 1226,
      "##ıyorlar": 1227,
      "▁tip": 1228,
      "▁cog": 1229,
      "▁aradi": 1230,
      "▁imkan": 1231,
      "##ılım": 1232,
      "##les": 1233,
      "##elik": 1234,
      "##5'ten": 1235,
      "▁farkında": 1236,
      "▁fark": 1237,
      "▁faiz": 1238,
      "▁kuy": 1239,
      "▁artısla": 1240,
      "▁saldır": 1241,
      "##ket": 1242,
      "▁zey": 1243,
      "▁seh": 1244,
      "##av": 1245,
      "▁kere": 1246,
      "▁bayram": 1247,
      "▁gon": 1248,
      "▁hız": 1249,
      "▁rom": 1250,
      "▁uretim": 1251,
      "▁kusur": 1252,
      "▁dede": 1253,
      "▁devralma": 1254,
      "##urg": 1255,
      "▁kumar": 1256,
      "##lerinden": 1257,
      "##ımızda": 1258,
      "f": 1259,
      "▁yemeklerinden": 1260,
      "▁borc": 1261,
      "▁hizmetleri": 1262,
      "▁cesitleri": 1263,
      "▁onemli": 1264,
      "▁sesi": 1265,
      "▁kimi": 1266,
      "▁annem": 1267,
      "##ol": 1268,
      "▁it": 1269,
      "▁yonet": 1270,
      "▁ornegin": 1271,
      "▁yandan": 1272,
      "##raz": 1273,
      "▁dogr": 1274,
      "▁kisilik": 1275,
      "▁gosterdi": 1276,
      "##ru": 1277,
      "▁isim": 1278,
      "##agında": 1279,
      "▁sir": 1280,
      "▁lezzet": 1281,
      "##gunluk": 1282,
      "▁kasab": 1283,
      "##kah": 1284,
      "▁oy": 1285,
      "▁ruh": 1286,
      "##alle": 1287,
      "##obil": 1288,
      "▁odamiz": 1289,
      "▁199": 1290,
      "##nız": 1291,
      "▁havayollarının": 1292,
      "▁boyle": 1293,
      "▁kahval": 1294,
      "##ana": 1295,
      "##ılıg": 1296,
      "▁gayrimenkul": 1297,
      "▁ardından": 1298,
      "▁dib": 1299,
      "▁uz": 1300,
      "▁reform": 1301,
      "▁beye": 1302,
      "▁gokyuz": 1303,
      "##ye": 1304,
      "##esti": 1305,
      "▁belediye": 1306,
      "##oru": 1307,
      "▁talep": 1308,
      "▁sel": 1309,
      "▁cıktı": 1310,
      "▁bilim": 1311,
      "▁cel": 1312,
      "▁yiyecek": 1313,
      "▁12": 1314,
      "▁katk": 1315,
      "▁dert": 1316,
      "▁ustu": 1317,
      "▁savun": 1318,
      "▁alacak": 1319,
      "▁hakk": 1320,
      "(": 1321,
      "##ster": 1322,
      "##isler": 1323,
      "##en": 1324,
      "▁vuc": 1325,
      "▁bicimde": 1326,
      "##eli": 1327,
      "▁geyik": 1328,
      "▁sup": 1329,
      "▁olmalı": 1330,
      "▁…": 1331,
      "l": 1332,
      "##ksa": 1333,
      "##ucu": 1334,
      "▁ucretin": 1335,
      "##imizde": 1336,
      "##uyor": 1337,
      "##=": 1338,
      "▁ucuyor": 1339,
      "##imin": 1340,
      "▁anket": 1341,
      "▁istem": 1342,
      "▁kaldırım": 1343,
      "▁yaklasık": 1344,
      "▁bardagı": 1345,
      "▁okul": 1346,
      "▁tehdit": 1347,
      "▁ta": 1348,
      "▁havaalanı": 1349,
      "▁yukseldi": 1350,
      "▁spor": 1351,
      "##lardan": 1352,
      "##emiz": 1353,
      "##man": 1354,
      "n": 1355,
      "▁yıldız": 1356,
      "##daydi": 1357,
      "▁veriyorum": 1358,
      "##uyordu": 1359,
      "▁seye": 1360,
      "##os": 1361,
      "▁koylu": 1362,
      "▁koltuk": 1363,
      "##ger": 1364,
      "▁arastırma": 1365,
      "▁ekmek": 1366,
      "▁basın": 1367,
      "b": 1368,
      "▁tum": 1369,
      "##ec": 1370,
      "▁avukat": 1371,
      "▁masraf": 1372,
      "▁devr": 1373,
      "▁.'": 1374,
      "▁sirketleri": 1375,
      "▁gor": 1376,
      "▁arkadaslar": 1377,
      "##ıya": 1378,
      "▁payı": 1379,
      "▁oteli": 1380,
      "▁persembe": 1381,
      "▁kaldı": 1382,
      "▁altına": 1383,
      "▁havaal": 1384,
      "▁yuzunu": 1385,
      "▁mev": 1386,
      "##lastı": 1387,
      "▁sadece": 1388,
      "##tif": 1389,
      "##edi": 1390,
      "i": 1391,
      "▁fırsat": 1392,
      "▁satısı": 1393,
      "▁7": 1394,
      "▁yine": 1395,
      "▁anlas": 1396,
      "##izasyon": 1397,
      "##irdi": 1398,
      "▁yiy": 1399,
      "▁ayrıl": 1400,
      "##ali": 1401,
      "##anıs": 1402,
      "▁yemekleri": 1403,
      "##leriyle": 1404,
      "##ind": 1405,
      "▁sırada": 1406,
      "##ıyla": 1407,
      "▁konut": 1408,
      "▁aklı": 1409,
      "##cılıg": 1410,
      "▁eline": 1411,
      "##/": 1412,
      "▁civ": 1413,
      "▁piyasa": 1414,
      "▁bog": 1415,
      "▁kok": 1416,
      "##unde": 1417,
      "▁hayvan": 1418,
      "▁kahv": 1419,
      "##aları": 1420,
      "▁tab": 1421,
      "▁aynı": 1422,
      "▁dok": 1423,
      "▁olm": 1424,
      "##u": 1425,
      "##ma": 1426,
      "▁plan": 1427,
      "##gur": 1428,
      "##duz": 1429,
      "1": 1430,
      "▁edebiyat": 1431,
      "▁aracı": 1432,
      "##tu": 1433,
      "▁gunu": 1434,
      "##'dan": 1435,
      "▁mir": 1436,
      "▁olcude": 1437,
      "##lıklar": 1438,
      "▁basında": 1439,
      "##ıklar": 1440,
      "▁gazet": 1441,
      "##ısında": 1442,
      "▁teknoloji": 1443,
      "▁insaat": 1444,
      "##lasyon": 1445,
      "▁muk": 1446,
      "▁ayr": 1447,
      "▁ilgiliydi": 1448,
      "▁aksamı": 1449,
      "▁ozellik": 1450,
      "▁gunler": 1451,
      "##ugunu": 1452,
      "▁alak": 1453,
      "▁karayol": 1454,
      "##ek": 1455,
      "▁orne": 1456,
      "▁?..": 1457,
      "##z": 1458,
      "▁gecti": 1459,
      "▁tor": 1460,
      "##gel": 1461,
      "▁sahibi": 1462,
      "▁ilet": 1463,
      "▁hik": 1464,
      "▁ardı": 1465,
      "▁icecek": 1466,
      "▁hus": 1467,
      "▁dil": 1468,
      "▁hic": 1469,
      "▁ren": 1470,
      "▁durum": 1471,
      "##atır": 1472,
      "##tigini": 1473,
      "▁butu": 1474,
      "▁danıs": 1475,
      "▁dun": 1476,
      "##ans": 1477,
      "▁kampan": 1478,
      "##lıgı": 1479,
      "##dıg": 1480,
      "##ekl": 1481,
      "▁mola": 1482,
      "##ayı": 1483,
      "▁insanları": 1484,
      "▁ciz": 1485,
      "▁lir": 1486,
      "▁davet": 1487,
      "▁dısında": 1488,
      "▁itiraf": 1489,
      "▁ingil": 1490,
      "▁gercekl": 1491,
      "▁ala": 1492,
      "##han": 1493,
      "##gar": 1494,
      "▁ilan": 1495,
      "▁sezon": 1496,
      "▁bo": 1497,
      "'": 1498,
      "▁kom": 1499,
      "##etr": 1500,
      "##eyi": 1501,
      "##ley": 1502,
      "▁gog": 1503,
      "▁yardımcısı": 1504,
      "▁gunden": 1505,
      "##cak": 1506,
      "▁yay": 1507,
      "▁muhab": 1508,
      "##l": 1509,
      "##duk": 1510,
      "##ıcı": 1511,
      "##onom": 1512,
      "▁fiyat": 1513,
      "##ess": 1514,
      "▁ula": 1515,
      "▁aktivit": 1516,
      "▁topu": 1517,
      "▁adam": 1518,
      "▁perde": 1519,
      "##meden": 1520,
      "##lek": 1521,
      "##iyet": 1522,
      "▁ten": 1523,
      "▁ucusun": 1524,
      "▁ofis": 1525,
      "▁halkı": 1526,
      "##ını": 1527,
      "▁fiyatlar": 1528,
      ";": 1529,
      "▁in": 1530,
      "▁kadının": 1531,
      "##ize": 1532,
      "▁tane": 1533,
      "##pan": 1534,
      "▁tanı": 1535,
      "▁agır": 1536,
      "▁temiz": 1537,
      "▁iflas": 1538,
      "▁lik": 1539,
      "▁boston'dan": 1540,
      "##'a": 1541,
      "▁?": 1542,
      "▁icer": 1543,
      "▁dunya": 1544,
      "▁bulut": 1545,
      "▁ile": 1546,
      "▁zamanı": 1547,
      "▁tehlik": 1548,
      "▁beklent": 1549,
      "▁kız": 1550,
      "##tiv": 1551,
      "▁sekil": 1552,
      "▁zaman": 1553,
      "▁dortluk": 1554,
      "##ene": 1555,
      "▁uzerinde": 1556,
      "##lerinin": 1557,
      "▁veririm": 1558,
      "▁strate": 1559,
      "##ic": 1560,
      "▁anla": 1561,
      "▁ter": 1562,
      "▁esy": 1563,
      "##esi": 1564,
      "▁kad": 1565,
      "▁oldugunu": 1566,
      "▁ph": 1567,
      "▁alısveris": 1568,
      "##ra": 1569,
      "▁boyn": 1570,
      "##malı": 1571,
      "##lerle": 1572,
      "▁degistir": 1573,
      "▁gemi": 1574,
      "##ısına": 1575,
      "##'ya": 1576,
      "▁tu": 1577,
      "▁bilet": 1578,
      "▁em": 1579,
      "▁iz": 1580,
      "##tal": 1581,
      "▁seviye": 1582,
      "▁pan": 1583,
      "##mıslar": 1584,
      "▁herk": 1585,
      "▁iliski": 1586,
      "▁sehr": 1587,
      "##uyorlar": 1588,
      "##atik": 1589,
      "▁9": 1590,
      "##ustos": 1591,
      "▁cep": 1592,
      "##inc": 1593,
      "##oksa": 1594,
      "##ayet": 1595,
      "▁gozlem": 1596,
      "▁bicim": 1597,
      "▁puan": 1598,
      "▁ayakk": 1599,
      "▁hukumeti": 1600,
      "##eme": 1601,
      "▁servis": 1602,
      "##areti": 1603,
      "▁sek": 1604,
      "▁duzey": 1605,
      "▁yaklasimi": 1606,
      "▁hale": 1607,
      "▁ka": 1608,
      "##im": 1609,
      "##ledi": 1610,
      "▁kop": 1611,
      "##ildi": 1612,
      "e": 1613,
      "▁but": 1614,
      "▁kısmı": 1615,
      "##ayacagını": 1616,
      "▁alıcı": 1617,
      "▁parayı": 1618,
      "▁yuzden": 1619,
      "▁mec": 1620,
      "##bir": 1621,
      "##iyat": 1622,
      "▁gorev": 1623,
      "▁huc": 1624,
      "▁sade": 1625,
      "##ıza": 1626,
      "##inci": 1627,
      "▁eg": 1628,
      "▁sozc": 1629,
      "▁yetk": 1630,
      "▁lak": 1631,
      "##uru": 1632,
      "▁arastır": 1633,
      "▁basa": 1634,
      "▁yap": 1635,
      "▁dunyada": 1636,
      "▁kuc": 1637,
      "▁cocuklu": 1638,
      "▁karı": 1639,
      "▁azal": 1640,
      "▁tesekkurler": 1641,
      "▁elektrik": 1642,
      "##ates": 1643,
      "▁donem": 1644,
      "▁kayıt": 1645,
      "▁kitap": 1646,
      "▁bin": 1647,
      "##aca": 1648,
      "##gıc": 1649,
      "##lerim": 1650,
      "##tigi": 1651,
      "9": 1652,
      "##ecegine": 1653,
      "▁memur": 1654,
      "##layacak": 1655,
      "▁dest": 1656,
      "##lugu": 1657,
      "▁tep": 1658,
      "▁yetersizdi": 1659,
      "##ama": 1660,
      "▁ince": 1661,
      "##ikti": 1662,
      "▁%": 1663,
      "##luluk": 1664,
      "▁198": 1665,
      "▁demir": 1666,
      "##phia": 1667,
      "▁kolt": 1668,
      "▁hayal": 1669,
      "▁enflasyon": 1670,
      "▁motor": 1671,
      "▁vucu": 1672,
      "##stım": 1673,
      "▁herkes": 1674,
      "▁barıs": 1675,
      "▁mim": 1676,
      "##mistir": 1677,
      "▁ucrete": 1678,
      "▁islerini": 1679,
      "▁seviyesinden": 1680,
      "▁makin": 1681,
      "##'e": 1682,
      "▁gayrimen": 1683,
      "▁du": 1684,
      "##agını": 1685,
      "▁toplan": 1686,
      "##8": 1687,
      "▁ucusların": 1688,
      "▁port": 1689,
      "##etic": 1690,
      "▁milyardan": 1691,
      "▁inc": 1692,
      "▁ogretmen": 1693,
      "▁damak": 1694,
      "▁darbe": 1695,
      "▁yapıl": 1696,
      "▁ogren": 1697,
      "▁odam": 1698,
      "▁anda": 1699,
      "▁kamu": 1700,
      "##let": 1701,
      "##edigim": 1702,
      "▁ov": 1703,
      "▁iletisim": 1704,
      "##adde": 1705,
      "##)": 1706,
      "▁kam": 1707,
      "▁tek": 1708,
      "▁sıcak": 1709,
      "##lanır": 1710,
      "##alt": 1711,
      "##malar": 1712,
      "##ebil": 1713,
      "▁buraya": 1714,
      "##lan": 1715,
      "▁her": 1716,
      "▁sat": 1717,
      "▁hizmet": 1718,
      "▁red": 1719,
      "##izm": 1720,
      "▁piyasaya": 1721,
      "##men": 1722,
      "##ih": 1723,
      "▁kis": 1724,
      "▁harek": 1725,
      "▁ortaya": 1726,
      "▁ken": 1727,
      "6": 1728,
      "▁aileler": 1729,
      "▁zevk": 1730,
      "##indi": 1731,
      "##na": 1732,
      "▁hatta": 1733,
      "▁do": 1734,
      "▁hizm": 1735,
      "▁anay": 1736,
      "##imizin": 1737,
      "##eg": 1738,
      "▁resim": 1739,
      "##iniz": 1740,
      "##mustu": 1741,
      "##”": 1742,
      "▁kol": 1743,
      "##b": 1744,
      "▁uret": 1745,
      "▁delikan": 1746,
      "▁ruzgar": 1747,
      "##ti": 1748,
      "▁gunes": 1749,
      "▁ogret": 1750,
      "▁tak": 1751,
      "▁basarı": 1752,
      "▁telefonla": 1753,
      "▁ettim": 1754,
      "▁ber": 1755,
      "##eticiler": 1756,
      "##ikat": 1757,
      "##amet": 1758,
      "##mak": 1759,
      "▁duny": 1760,
      "▁uf": 1761,
      "w": 1762,
      "▁calisanlar": 1763,
      "##emi": 1764,
      "▁geliyor": 1765,
      "▁kez": 1766,
      "▁bakıs": 1767,
      "▁senet": 1768,
      "▁ucretleri": 1769,
      "▁tatil": 1770,
      "▁ed": 1771,
      "▁yanı": 1772,
      "##mesini": 1773,
      "##elim": 1774,
      "##yal": 1775,
      "▁nam": 1776,
      "▁c": 1777,
      "▁..\"": 1778,
      "##reti": 1779,
      "##ırak": 1780,
      "▁mucadele": 1781,
      "▁oper": 1782,
      "▁acik": 1783,
      "▁veri": 1784,
      "##'nin": 1785,
      "▁baslangıc": 1786,
      "▁numara": 1787,
      "▁us": 1788,
      "▁anlamda": 1789,
      "▁cumhuriyet": 1790,
      "##tık": 1791,
      "▁yardım": 1792,
      "▁sını": 1793,
      "▁enerji": 1794,
      "▁etmek": 1795,
      "▁key": 1796,
      "##larımız": 1797,
      "##kon": 1798,
      "##alarda": 1799,
      "▁yuzu": 1800,
      "▁gecir": 1801,
      "▁kadın": 1802,
      "▁hamle": 1803,
      "▁tavır": 1804,
      "▁reklam": 1805,
      "▁cad": 1806,
      "##et": 1807,
      "▁cumhurb": 1808,
      "##liyor": 1809,
      "##ıp": 1810,
      "##mayı": 1811,
      "##izdi": 1812,
      "▁cizgi": 1813,
      "▁begendim": 1814,
      "##6": 1815,
      "##dal": 1816,
      "##amız": 1817,
      "▁eskiydi": 1818,
      "▁siy": 1819,
      "▁olay": 1820,
      "▁cumhur": 1821,
      "▁kapandı": 1822,
      "▁girdi": 1823,
      "▁satım": 1824,
      "▁buc": 1825,
      "▁temizdi": 1826,
      "▁basar": 1827,
      "##lit": 1828,
      "##sı": 1829,
      "##ini": 1830,
      "▁gerekiyor": 1831,
      "##ston": 1832,
      "▁merdiven": 1833,
      "▁herif": 1834,
      "▁cift": 1835,
      "▁adamları": 1836,
      "▁ilgilendiler": 1837,
      "▁dev": 1838,
      "##ediye": 1839,
      "▁icinden": 1840,
      "▁un": 1841,
      "▁yol": 1842,
      "##makta": 1843,
      "▁bugday": 1844,
      "▁met": 1845,
      "▁sem": 1846,
      "##ugun": 1847,
      "▁perform": 1848,
      "▁agac": 1849,
      "##ia": 1850,
      "▁gars": 1851,
      "##gre": 1852,
      "▁nedir": 1853,
      "▁dip": 1854,
      "▁tezgah": 1855,
      "▁fabr": 1856,
      "▁fayda": 1857,
      "##dek": 1858,
      "▁gormek": 1859,
      "▁pazar": 1860,
      "##larım": 1861,
      "▁ol": 1862,
      "▁kavram": 1863,
      "▁bol": 1864,
      "##erv": 1865,
      "▁net": 1866,
      "▁hukum": 1867,
      "▁aktarma": 1868,
      "▁hicbir": 1869,
      "##liydi": 1870,
      "▁al": 1871,
      "▁gidi": 1872,
      "▁koyun": 1873,
      "##lerimi": 1874,
      "▁bardak": 1875,
      "▁tec": 1876,
      "▁gecesi": 1877,
      "▁gunde": 1878,
      "▁kons": 1879,
      "▁zeytin": 1880,
      "▁tartısma": 1881,
      "##edig": 1882,
      "▁istasyon": 1883,
      "▁endeks": 1884,
      "▁traf": 1885,
      "##'n": 1886,
      "▁mahkeme": 1887,
      "▁toplam": 1888,
      "[MASK]": 1889,
      "▁pozisyon": 1890,
      "▁aksam": 1891,
      "##alı": 1892,
      "▁sin": 1893,
      "▁calısma": 1894,
      "##_": 1895,
      "##ara": 1896,
      "▁ise": 1897,
      "▁ada": 1898,
      "▁restor": 1899,
      "##le": 1900,
      "▁mag": 1901,
      "▁muhafaz": 1902,
      "##uguna": 1903,
      "▁sonra": 1904,
      "▁sonucu": 1905,
      "▁pers": 1906,
      "##isk": 1907,
      "##est": 1908,
      "▁duy": 1909,
      "##asi": 1910,
      "▁ard": 1911,
      "▁francisco'ya": 1912,
      "▁sim": 1913,
      "##inda": 1914,
      "▁mevdu": 1915,
      "▁geriye": 1916,
      "###": 1917,
      "##ısıyla": 1918,
      "##ding": 1919,
      "▁surec": 1920,
      "▁gok": 1921,
      "▁sahipleri": 1922,
      "▁)": 1923,
      "▁kuvv": 1924,
      "##mamıs": 1925,
      "##lugunu": 1926,
      "##q": 1927,
      "##ska": 1928,
      "▁seklinde": 1929,
      "▁es": 1930,
      "##ardan": 1931,
      "▁hissed": 1932,
      "##lay": 1933,
      "##gil": 1934,
      "▁hoc": 1935,
      "##erdi": 1936,
      "▁hamam": 1937,
      "▁havayollarını": 1938,
      "▁isci": 1939,
      "▁odan": 1940,
      "▁oyn": 1941,
      "▁yanıt": 1942,
      "▁hey": 1943,
      "▁tahta": 1944,
      "▁ruy": 1945,
      "▁''": 1946,
      "▁odada": 1947,
      "▁ila": 1948,
      "▁plaji": 1949,
      "▁dostu": 1950,
      "▁uzerinden": 1951,
      "▁bir": 1952,
      "▁per": 1953,
      "##ıyor": 1954,
      "##acag": 1955,
      "▁peynir": 1956,
      "▁isleri": 1957,
      "▁alb": 1958,
      "##tar": 1959,
      "▁birkac": 1960,
      "▁otelin": 1961,
      "▁sun": 1962,
      "▁bisik": 1963,
      "##yen": 1964,
      "▁verdi": 1965,
      "▁yarın": 1966,
      "##&": 1967,
      "##usuna": 1968,
      "▁ek": 1969,
      "v": 1970,
      "▁kagı": 1971,
      "▁atlanta": 1972,
      "##sen": 1973,
      "##ldi": 1974,
      "▁yasa": 1975,
      "▁polit": 1976,
      "▁gelis": 1977,
      "\"": 1978,
      "▁cicek": 1979,
      "##00'": 1980,
      "▁sordu": 1981,
      "▁petr": 1982,
      "##eyin": 1983,
      "##gun": 1984,
      "##meler": 1985,
      "▁orada": 1986,
      "▁vergi": 1987,
      "##kler": 1988,
      "▁bıy": 1989,
      "▁bakanlıgı": 1990,
      "▁nit": 1991,
      "▁nefes": 1992,
      "##lestir": 1993,
      "▁mur": 1994,
      "▁guler": 1995,
      "▁yas": 1996,
      "##'nde": 1997,
      "▁araz": 1998,
      "▁ann": 1999,
      "##stır": 2000,
      "##ıda": 2001,
      "##uldu": 2002,
      "▁ef": 2003,
      "▁kuvvet": 2004,
      "▁sırt": 2005,
      "▁gozden": 2006,
      "##as": 2007,
      "##sın": 2008,
      "▁amerikalı": 2009,
      "##ına": 2010,
      "##lıgın": 2011,
      "##ogram": 2012,
      "▁kıs": 2013,
      "▁mevz": 2014,
      "▁yılı": 2015,
      "▁mul": 2016,
      "##eda": 2017,
      "##an": 2018,
      "▁kayb": 2019,
      "▁endise": 2020,
      "##v": 2021,
      "##alan": 2022,
      "▁muh": 2023,
      "##umu": 2024,
      "▁nasıl": 2025,
      "##evizyon": 2026,
      "##gin": 2027,
      "▁topr": 2028,
      "▁tarihi": 2029,
      "▁yoksa": 2030,
      "##unun": 2031,
      "▁eden": 2032,
      "##iligi": 2033,
      "▁min": 2034,
      "▁t": 2035,
      "▁e": 2036,
      "▁hos": 2037,
      "##liginden": 2038,
      "##angi": 2039,
      "▁yılında": 2040,
      "▁uyku": 2041,
      "##ume": 2042,
      "▁tesp": 2043,
      "##%": 2044,
      "▁sekret": 2045,
      "##leme": 2046,
      "▁3": 2047,
      "▁kuv": 2048,
      "▁ayakkabı": 2049,
      "▁tarafından": 2050,
      "▁insanların": 2051,
      "▁programı": 2052,
      "##ları": 2053,
      "q": 2054,
      "▁class": 2055,
      "▁sesleri": 2056,
      "##adem": 2057,
      "##ter": 2058,
      "▁kum": 2059,
      "▁vakt": 2060,
      "▁zih": 2061,
      "▁mezar": 2062,
      "##ısız": 2063,
      "##imi": 2064,
      "▁sav": 2065,
      "▁devir": 2066,
      "▁kalabalık": 2067,
      "##uluyor": 2068,
      "▁str": 2069,
      "##umda": 2070,
      "▁6'dan": 2071,
      "##lul": 2072,
      "▁dag": 2073,
      "▁sonuclar": 2074,
      "▁universite": 2075,
      "▁kab": 2076,
      "▁inanc": 2077,
      "##isinden": 2078,
      "▁oc": 2079,
      "▁sebep": 2080,
      "▁karsıl": 2081,
      "▁stok": 2082,
      "▁yerler": 2083,
      "▁imkanlar": 2084,
      "▁kimsenin": 2085,
      "▁tez": 2086,
      "▁sirk": 2087,
      "▁internet": 2088,
      "▁biraz": 2089,
      "##onel": 2090,
      "▁ilisk": 2091,
      "▁odasına": 2092,
      "▁kıy": 2093,
      "▁o": 2094,
      "▁ucreti": 2095,
      "##sik": 2096,
      "##+": 2097,
      "##lik": 2098,
      "##ıcak": 2099,
      "▁toplant": 2100,
      "▁orn": 2101,
      "▁katkıda": 2102,
      "▁kot": 2103,
      "▁hikay": 2104,
      "▁personelleri": 2105,
      "##ecegi": 2106,
      "▁soyl": 2107,
      "▁olması": 2108,
      "##etin": 2109,
      "▁rej": 2110,
      "##eviz": 2111,
      "▁indir": 2112,
      "▁6": 2113,
      "▁hal": 2114,
      "▁hareket": 2115,
      "##larının": 2116,
      "##ıh": 2117,
      "▁bolum": 2118,
      "▁insanlara": 2119,
      "▁cih": 2120,
      "▁r": 2121,
      "##cıların": 2122,
      "##lari": 2123,
      "##.": 2124,
      "▁hes": 2125,
      "▁personeli": 2126,
      "▁parcası": 2127,
      "▁komisyonu": 2128,
      "▁dus": 2129,
      "##tiler": 2130,
      "##asa": 2131,
      "▁yuk": 2132,
      "##k": 2133,
      "▁git": 2134,
      "▁dısarı": 2135,
      "##abet": 2136,
      "##miyorum": 2137,
      "##ore": 2138,
      "##cileri": 2139,
      "##tig": 2140,
      "▁fin": 2141,
      "▁isk": 2142,
      "▁ayrıca": 2143,
      "▁masa": 2144,
      "▁istek": 2145,
      "##inde": 2146,
      "▁sermaye": 2147,
      "▁new": 2148,
      "▁nokt": 2149,
      "##eyim": 2150,
      "##o": 2151,
      "▁rez": 2152,
      "▁firması": 2153,
      "▁suru": 2154,
      "▁hazır": 2155,
      "##lerini": 2156,
      "%": 2157,
      "▁cevre": 2158,
      "▁bulundu": 2159,
      "▁bahc": 2160,
      "▁kenar": 2161,
      "▁alım": 2162,
      "▁rad": 2163,
      "##re": 2164,
      "▁if": 2165,
      "▁manzarasi": 2166,
      "▁memleket": 2167,
      "▁arkadas": 2168,
      "▁parca": 2169,
      "▁asag": 2170,
      "▁far": 2171,
      "▁endeksi": 2172,
      "▁cem": 2173,
      "▁endustri": 2174,
      "”": 2175,
      "##uslar": 2176,
      "▁model": 2177,
      "▁oda": 2178,
      "##'ın": 2179,
      "▁lira": 2180,
      "##ardı": 2181,
      "▁nedeni": 2182,
      "▁etrafında": 2183,
      "##ens": 2184,
      "▁suy": 2185,
      "##ısını": 2186,
      "##alardan": 2187,
      "##ıkları": 2188,
      "▁sist": 2189,
      "▁baskanı": 2190,
      "▁san": 2191,
      "▁daha": 2192,
      "​": 2193,
      "▁yok": 2194,
      "##ıl": 2195,
      "##uyle": 2196,
      "##atı": 2197,
      "##iri": 2198,
      "##7": 2199,
      "▁hanimdi": 2200,
      "##iyordu": 2201,
      "▁toplantı": 2202,
      "▁ediyordu": 2203,
      "##!": 2204,
      "▁elestiri": 2205,
      "▁lut": 2206,
      "▁babam": 2207,
      "▁suc": 2208,
      "▁birtakım": 2209,
      "▁ekonom": 2210,
      "▁uzak": 2211,
      "▁gec": 2212,
      "##agına": 2213,
      "##edigini": 2214,
      "▁portfoy": 2215,
      "▁ail": 2216,
      "##ahat": 2217,
      "▁yurtd": 2218,
      "▁kalem": 2219,
      "▁otelden": 2220,
      "##co": 2221,
      "##yıl": 2222,
      "▁olanaklari": 2223,
      "▁bask": 2224,
      "##alet": 2225,
      "▁i": 2226,
      "▁insanlar": 2227,
      "##eki": 2228,
      "▁sikayet": 2229,
      "##tay": 2230,
      "##dur": 2231,
      "▁soyle": 2232,
      "▁gayr": 2233,
      "▁carsaf": 2234,
      "▁lezz": 2235,
      "##imci": 2236,
      "▁silah": 2237,
      "▁ki": 2238,
      "▁yemek": 2239,
      "#": 2240,
      "▁donus": 2241,
      "▁kır": 2242,
      "##ansiyon": 2243,
      "▁dolara": 2244,
      "##ayi": 2245,
      "▁olacak": 2246,
      "##unu": 2247,
      "▁otur": 2248,
      "##emedi": 2249,
      "▁banka": 2250,
      "▁delik": 2251,
      "▁soyledi": 2252,
      "▁yıla": 2253,
      "▁co": 2254,
      "▁guzel": 2255,
      "▁el": 2256,
      "##lerden": 2257,
      ")": 2258,
      "▁cevap": 2259,
      "##eklen": 2260,
      "##oh": 2261,
      "▁sın": 2262,
      "▁yel": 2263,
      "▁imal": 2264,
      "▁bez": 2265,
      "▁taraf": 2266,
      "▁otom": 2267,
      "▁direk": 2268,
      "##yi": 2269,
      "▁muc": 2270,
      "##cag": 2271,
      "##?": 2272,
      "##madik": 2273,
      "▁park": 2274,
      "▁bina": 2275,
      "’": 2276,
      "▁dava": 2277,
      "##der": 2278,
      "▁ipotek": 2279,
      "▁hayv": 2280,
      "▁cez": 2281,
      "▁hay": 2282,
      "▁sus": 2283,
      "##'": 2284,
      "##landır": 2285,
      "##abilir": 2286,
      "▁inan": 2287,
      "##lug": 2288,
      "▁dususle": 2289,
      "▁hur": 2290,
      "##lıkla": 2291,
      "▁eli": 2292,
      "▁etme": 2293,
      "##lıga": 2294,
      "▁mahalle": 2295,
      "▁#": 2296,
      "°": 2297,
      "▁tarihinde": 2298,
      "▁eksik": 2299,
      "##tor": 2300,
      "▁mimar": 2301,
      "##iste": 2302,
      "▁ihal": 2303,
      "▁herkesin": 2304,
      "▁ogrenci": 2305,
      "▁yem": 2306,
      "▁saatlerinde": 2307,
      "▁kade": 2308,
      "▁cal": 2309,
      "▁paz": 2310,
      "▁insa": 2311,
      "▁tedav": 2312,
      "##e": 2313,
      "▁dos": 2314,
      "▁olas": 2315,
      "##od": 2316,
      "▁yapı": 2317,
      "▁cay": 2318,
      "▁aln": 2319,
      "##za": 2320,
      "▁zinc": 2321,
      "▁dur": 2322,
      "▁kit": 2323,
      "▁kampanyalar": 2324,
      "▁te": 2325,
      "▁gune": 2326,
      "▁gidiyor": 2327,
      "##bar": 2328,
      "▁bun": 2329,
      "▁rek": 2330,
      "▁bolumu": 2331,
      "##ızın": 2332,
      "▁sorunun": 2333,
      "▁konf": 2334,
      "“": 2335,
      "▁gerc": 2336,
      "##oy": 2337,
      "▁ortam": 2338,
      "##ult": 2339,
      "▁ugr": 2340,
      "▁doları'ndan": 2341,
      "##siz": 2342,
      "▁yasında": 2343,
      "▁doları": 2344,
      "▁tuk": 2345,
      "▁dunyanın": 2346,
      "▁devletin": 2347,
      "▁oteldi": 2348,
      "▁saatlerde": 2349,
      "▁dam": 2350,
      "##las": 2351,
      "▁sap": 2352,
      "▁kurt": 2353,
      "▁oranları": 2354,
      "▁alk": 2355,
      "▁ho": 2356,
      "##lıgına": 2357,
      "▁gelen": 2358,
      "▁l": 2359,
      "▁dahil": 2360,
      "##uz": 2361,
      "▁onunde": 2362,
      "▁biri": 2363,
      "▁sendika": 2364,
      "▁yont": 2365,
      "▁hizmeti": 2366,
      "▁maliyeti": 2367,
      "▁sozcu": 2368,
      "▁eglen": 2369,
      "▁satıslar": 2370,
      "▁dol": 2371,
      "##raf": 2372,
      "##ciler": 2373,
      "▁*": 2374,
      "▁pla": 2375,
      "▁teklifi": 2376,
      "▁memnun": 2377,
      "##aya": 2378,
      "▁evin": 2379,
      "##ruk": 2380,
      "▁asker": 2381,
      "▁giris": 2382,
      "##mam": 2383,
      "▁yuks": 2384,
      "##yalar": 2385,
      "##maz": 2386,
      "##tı": 2387,
      "##usu": 2388,
      "##masından": 2389,
      "▁hap": 2390,
      "▁$": 2391,
      "##dıktan": 2392,
      "▁temizligi": 2393,
      "▁yemeklerin": 2394,
      "##uc": 2395,
      "##usunu": 2396,
      "▁doviz": 2397,
      "▁malzemeler": 2398,
      "▁sınır": 2399,
      "##arı": 2400,
      "##burg": 2401,
      "▁gecen": 2402,
      "##tırmak": 2403,
      "▁sayg": 2404,
      "▁insanın": 2405,
      "##cegini": 2406,
      "▁buf": 2407,
      "##fer": 2408,
      "##ilmis": 2409,
      "##hur": 2410,
      "▁oner": 2411,
      "##meye": 2412,
      "▁fiyata": 2413,
      "##n": 2414,
      "##mıstır": 2415,
      "##ov": 2416,
      "##anından": 2417,
      "##ıg": 2418,
      "▁cocugu": 2419,
      "▁karab": 2420,
      "##lon": 2421,
      "▁fazl": 2422,
      "▁bekl": 2423,
      "▁kodu": 2424,
      "##ton": 2425,
      "##mini": 2426,
      "##da": 2427,
      "▁yemeklerden": 2428,
      "▁artıs": 2429,
      "▁olcu": 2430,
      "▁sirketi": 2431,
      "##mer": 2432,
      "##oloj": 2433,
      "▁kuz": 2434,
      "▁list": 2435,
      "▁olmus": 2436,
      "##cev": 2437,
      "▁za": 2438,
      "▁sahip": 2439,
      "▁futbol": 2440,
      "▁kucuktu": 2441,
      "##'de": 2442,
      "##taj": 2443,
      "##ern": 2444,
      "▁sefer": 2445,
      "▁bakan": 2446,
      "▁adina": 2447,
      "▁suk": 2448,
      "##yum": 2449,
      "▁rekabet": 2450,
      "▁telefon": 2451,
      "▁dar": 2452,
      "▁duk": 2453,
      "c": 2454,
      "##w": 2455,
      "▁mil": 2456,
      "##leg": 2457,
      "##ran": 2458,
      "▁kaz": 2459,
      "▁kalite": 2460,
      "##ısından": 2461,
      "▁kırık": 2462,
      "##ent": 2463,
      "##burgh": 2464,
      "▁mas": 2465,
      "▁fatur": 2466,
      "##edik": 2467,
      "▁genel": 2468,
      "##suz": 2469,
      "##bak": 2470,
      "##iyorum": 2471,
      "▁dukkan": 2472,
      "▁lezzetleri": 2473,
      "▁kıl": 2474,
      "▁yanl": 2475,
      "▁elb": 2476,
      "▁sanayi": 2477,
      "##ydi": 2478,
      "##asını": 2479,
      "▁onem": 2480,
      "▁ekim": 2481,
      "▁korum": 2482,
      "▁gum": 2483,
      "▁bah": 2484,
      "▁patates": 2485,
      "▁sene": 2486,
      "▁kurulus": 2487,
      "▁diz": 2488,
      "▁yoneticileri": 2489,
      "▁baskı": 2490,
      "▁kelim": 2491,
      "▁sevgi": 2492,
      "▁faturam": 2493,
      "▁cihaz": 2494,
      "▁olan": 2495,
      "▁havayolu": 2496,
      "##muz": 2497,
      "▁basbakan": 2498,
      "▁oldugu": 2499,
      "▁baska": 2500,
      "▁zek": 2501,
      "▁yan": 2502,
      "▁ogl": 2503,
      "▁gitti": 2504,
      "##dıgın": 2505,
      "▁uygun": 2506,
      "▁dugun": 2507,
      "##gr": 2508,
      "▁oz": 2509,
      "▁actı": 2510,
      "▁duv": 2511,
      "##ne": 2512,
      "▁tem": 2513,
      "##tin": 2514,
      "▁endek": 2515,
      "▁yard": 2516,
      "##bilir": 2517,
      "▁has": 2518,
      "▁havalim": 2519,
      "▁ilgisi": 2520,
      "##arda": 2521,
      "▁felaket": 2522,
      "▁yık": 2523,
      "▁seker": 2524,
      "##ulmus": 2525,
      "▁dek": 2526,
      "▁personellerden": 2527,
      "▁cıkar": 2528,
      "▁beni": 2529,
      "a": 2530,
      "▁gur": 2531,
      "##uy": 2532,
      "##allas": 2533,
      "##bil": 2534,
      "##gul": 2535,
      "▁parasını": 2536,
      "##amam": 2537,
      "▁personeller": 2538,
      "##maktan": 2539,
      "▁ekip": 2540,
      "▁sey": 2541,
      "▁denver'den": 2542,
      "▁gazete": 2543,
      "▁muam": 2544,
      "▁bildir": 2545,
      "▁abd": 2546,
      "▁faal": 2547,
      "##gi": 2548,
      "▁akr": 2549,
      "▁analist": 2550,
      "##iden": 2551,
      "▁yıllık": 2552,
      "▁etk": 2553,
      "▁tesis": 2554,
      "▁sehrin": 2555,
      "▁oyle": 2556,
      "▁temin": 2557,
      "▁proj": 2558,
      "▁hakkı": 2559,
      "##asındaki": 2560,
      "▁derecede": 2561,
      "▁olmak": 2562,
      "▁korku": 2563,
      "▁cok": 2564,
      "▁annesi": 2565,
      "▁sevk": 2566,
      "##lendir": 2567,
      "##lastır": 2568,
      "##tir": 2569,
      "+": 2570,
      "▁dusuk": 2571,
      "▁bi": 2572,
      "##ıyorum": 2573,
      "##erli": 2574,
      "##lama": 2575,
      "▁portf": 2576,
      "▁taz": 2577,
      "▁meydan": 2578,
      "▁ekonomi": 2579,
      "▁idar": 2580,
      "▁kardes": 2581,
      "▁yıllar": 2582,
      "##ılıyor": 2583,
      "▁kumas": 2584,
      "▁lis": 2585,
      "##eyh": 2586,
      "▁tal": 2587,
      "##evi": 2588,
      "##iyeti": 2589,
      "##ruf": 2590,
      "▁boston": 2591,
      "##ilen": 2592,
      "▁sipar": 2593,
      "▁konforu": 2594,
      "▁vap": 2595,
      "▁kavg": 2596,
      "##ont": 2597,
      "▁olarak": 2598,
      "##un": 2599,
      "▁nelerdir": 2600,
      "##emin": 2601,
      "##m": 2602,
      "▁veya": 2603,
      "▁cam": 2604,
      "##f": 2605,
      "▁sec": 2606,
      "▁fabrik": 2607,
      "▁olmadi": 2608,
      "▁kahvaltı": 2609,
      "▁kası": 2610,
      "▁mes": 2611,
      "▁uye": 2612,
      "▁insana": 2613,
      "##iber": 2614,
      "##cul": 2615,
      "▁anlam": 2616,
      "##ot": 2617,
      "▁kalp": 2618,
      "▁yemeklerde": 2619,
      "##siy": 2620,
      "▁5'ten": 2621,
      "▁gal": 2622,
      "##ima": 2623,
      "▁sayıda": 2624,
      "▁bekle": 2625,
      "##nc": 2626,
      "▁geliri": 2627,
      "##uk": 2628,
      "▁han": 2629,
      "▁mat": 2630,
      "▁hayatın": 2631,
      "▁imz": 2632,
      "▁odaya": 2633,
      "▁uyum": 2634,
      "▁kart": 2635,
      "▁guv": 2636,
      "▁islem": 2637,
      "▁af": 2638,
      "##unku": 2639,
      "▁edi": 2640,
      "##dugunu": 2641,
      "▁gul": 2642,
      "▁organ": 2643,
      "▁telef": 2644,
      "##emez": 2645,
      "▁lob": 2646,
      "▁bono": 2647,
      "▁gonul": 2648,
      "▁kıymet": 2649,
      "▁kaldik": 2650,
      "▁sorunu": 2651,
      "▁geldi": 2652,
      "▁dıs": 2653,
      "▁ederim": 2654,
      "##larına": 2655,
      "▁yapıyor": 2656,
      "▁ede": 2657,
      "##isten": 2658,
      "▁num": 2659,
      "##elerin": 2660,
      "▁uzman": 2661,
      "▁kultur": 2662,
      "▁kahkah": 2663,
      "▁numar": 2664,
      "▁gay": 2665,
      "▁rezervasyon": 2666,
      "##imiz": 2667,
      "##stı": 2668,
      "▁yanında": 2669,
      "▁di": 2670,
      "▁kararı": 2671,
      "▁kotuydu": 2672,
      "▁ez": 2673,
      "▁cesaret": 2674,
      "▁kes": 2675,
      "▁mo": 2676,
      "##digini": 2677,
      "▁had": 2678,
      "▁karayolu": 2679,
      "▁caba": 2680,
      "##asın": 2681,
      "▁huzur": 2682,
      "##izlik": 2683,
      "g": 2684,
      "##isti": 2685,
      "##ev": 2686,
      "▁basla": 2687,
      "##aba": 2688,
      "##ılık": 2689,
      "▁dustu": 2690,
      "▁attı": 2691,
      "##ate": 2692,
      "▁rapor": 2693,
      "##asır": 2694,
      "▁bur": 2695,
      "##mıstı": 2696,
      "▁yana": 2697,
      "▁kir": 2698,
      "##ıs": 2699,
      "##ji": 2700,
      "▁annemin": 2701,
      "▁y": 2702,
      "▁dep": 2703,
      "##ıcılar": 2704,
      "▁halde": 2705,
      "▁s": 2706,
      "▁guven": 2707,
      "r": 2708,
      "▁say": 2709,
      "▁pilot": 2710,
      "▁adet": 2711,
      "##ob": 2712,
      "##s": 2713,
      "▁yetkili": 2714,
      "▁ofk": 2715,
      "▁balık": 2716,
      "▁first": 2717,
      "▁oyku": 2718,
      "▁destek": 2719,
      "##oj": 2720,
      "▁satın": 2721,
      "▁girisim": 2722,
      "▁top": 2723,
      "▁naz": 2724,
      "##lerine": 2725,
      "▁teor": 2726,
      "##ende": 2727,
      "##ane": 2728,
      "▁yaprak": 2729,
      "▁univers": 2730,
      "▁elinden": 2731,
      "▁karsı": 2732,
      "##usunun": 2733,
      "▁mecl": 2734,
      "▁ozgur": 2735,
      "▁roman": 2736,
      "##kin": 2737,
      "##lere": 2738,
      "▁elektr": 2739,
      "##emli": 2740,
      "▁basına": 2741,
      "▁malz": 2742,
      "▁acıl": 2743,
      "▁buy": 2744,
      "▁itibariyle": 2745,
      "##enek": 2746,
      "##kan": 2747,
      "▁kral": 2748,
      "▁sonu": 2749,
      "▁sef": 2750,
      "▁havayollarında": 2751,
      "▁konumu": 2752,
      "##ile": 2753,
      "##'den": 2754,
      "▁seviyesine": 2755,
      "##ad": 2756,
      "▁giden": 2757,
      "▁yaptir": 2758,
      "▁tuketici": 2759,
      "▁sev": 2760,
      "▁ozel": 2761,
      "▁hizmetinden": 2762,
      "▁personellerin": 2763,
      "##lık": 2764,
      "▁as": 2765,
      "▁tan": 2766,
      "##​": 2767,
      "▁ogleden": 2768,
      "##esinden": 2769,
      "▁simdiye": 2770,
      "▁icra": 2771,
      "▁hastan": 2772,
      "▁zev": 2773,
      "▁sı": 2774,
      "##iyor": 2775,
      "##des": 2776,
      "▁par": 2777,
      "▁def": 2778,
      "▁yagmur": 2779,
      "##ver": 2780,
      "▁temel": 2781,
      "##dırım": 2782,
      "▁teh": 2783,
      "##den": 2784,
      "▁lu": 2785,
      "##`": 2786,
      "▁yat": 2787,
      "##ata": 2788,
      "▁yalan": 2789,
      "▁degisiklikler": 2790,
      "▁savunma": 2791,
      "▁dav": 2792,
      "▁yur": 2793,
      "▁kalkan": 2794,
      "▁sig": 2795,
      "▁durumunda": 2796,
      "##igim": 2797,
      "▁kontrol": 2798,
      "▁yetkilileri": 2799,
      "▁idare": 2800,
      "##ada": 2801,
      "▁bircok": 2802,
      "##uyla": 2803,
      "▁karsılık": 2804,
      "▁dov": 2805,
      "t": 2806,
      "▁dig": 2807,
      "▁zorunda": 2808,
      "##ya": 2809,
      "▁ikinci": 2810,
      "▁gibi": 2811,
      "▁bugune": 2812,
      "##bası": 2813,
      "##az": 2814,
      "▁ener": 2815,
      "▁pittsburgh": 2816,
      "▁hedef": 2817,
      "▁vapur": 2818,
      "▁hissesi": 2819,
      "##adan": 2820,
      "▁hesap": 2821,
      "▁peyn": 2822,
      "▁firma": 2823,
      "##es": 2824,
      "##ik": 2825,
      "▁bl": 2826,
      "▁sos": 2827,
      "▁baba": 2828,
      "##uye": 2829,
      "▁ulas": 2830,
      "▁sehir": 2831,
      "##larla": 2832,
      "▁hacim": 2833,
      "▁icinde": 2834,
      "##ası": 2835,
      "▁kapı": 2836,
      "▁toprak": 2837,
      "##x": 2838,
      "##orta": 2839,
      "▁ben": 2840,
      "▁bal": 2841,
      "▁sıkınt": 2842,
      "▁ayak": 2843,
      "▁sarkı": 2844,
      "▁sorumluluk": 2845,
      "▁degis": 2846,
      "▁harc": 2847,
      "##ugu": 2848,
      "▁tarih": 2849,
      "▁uzer": 2850,
      "##ısı": 2851,
      "▁aktarmasız": 2852,
      "▁musteri": 2853,
      "▁dik": 2854,
      "##elen": 2855,
      "▁hastalık": 2856,
      "▁sen": 2857,
      "##ılıgı": 2858,
      "##ap": 2859,
      "▁bulmak": 2860,
      "▁hastal": 2861,
      "▁gob": 2862,
      "▁civarı": 2863,
      "▁darb": 2864,
      "▁akt": 2865,
      "##lat": 2866,
      "##iyatr": 2867,
      "▁amc": 2868,
      "▁ucuz": 2869,
      "##gili": 2870,
      "##alma": 2871,
      "##ab": 2872,
      "▁g": 2873,
      "▁dakik": 2874,
      "##ındaki": 2875,
      "▁basbak": 2876,
      "▁po": 2877,
      "##iyorlar": 2878,
      "▁dug": 2879,
      "▁beyaz": 2880,
      "##ımız": 2881,
      "##op": 2882,
      "▁para": 2883,
      "▁acısından": 2884,
      "▁yıllarda": 2885,
      "##bet": 2886,
      "▁planı": 2887,
      "##ıyı": 2888,
      "▁10'dan": 2889,
      "▁mu": 2890,
      "▁islemler": 2891,
      "##ncak": 2892,
      "▁onc": 2893,
      "▁bic": 2894,
      "▁begen": 2895,
      "▁onun": 2896,
      "##eyn": 2897,
      "##te": 2898,
      "▁yen": 2899,
      "##embe": 2900,
      "##sizdi": 2901,
      "▁asagı": 2902,
      "▁yurt": 2903,
      "▁odalar": 2904,
      "##teri": 2905,
      "▁kos": 2906,
      "▁yonetim": 2907,
      "▁zar": 2908,
      "##yet": 2909,
      "▁tutun": 2910,
      "▁dom": 2911,
      "##kur": 2912,
      "▁hab": 2913,
      "##ıgına": 2914,
      "##lilik": 2915,
      "▁amerikan": 2916,
      "▁ucmak": 2917,
      "##alarına": 2918,
      "▁of": 2919,
      "▁rak": 2920,
      "##ucc": 2921,
      "▁ellerini": 2922,
      "▁fazla": 2923,
      "##uzluydu": 2924,
      "▁ceyr": 2925,
      "##hut": 2926,
      "##p": 2927,
      "▁orta": 2928,
      "##ite": 2929,
      "##'ndan": 2930,
      "##igi": 2931,
      "▁calıs": 2932,
      "▁ucusa": 2933,
      "▁havayolları": 2934,
      "▁diyor": 2935,
      "##-": 2936,
      "##erin": 2937,
      "##ograf": 2938,
      "##:": 2939,
      "##tıs": 2940,
      "▁yeme": 2941,
      "▁degeri": 2942,
      "▁veril": 2943,
      "▁turk": 2944,
      "##kun": 2945,
      "##urlu": 2946,
      "##ola": 2947,
      "▁yapım": 2948,
      "##at": 2949,
      "▁seyden": 2950,
      "##st": 2951,
      "##iyi": 2952,
      "##umun": 2953,
      "▁send": 2954,
      "▁sacları": 2955,
      "▁$'dan": 2956,
      "▁degerlendir": 2957,
      "▁eski": 2958,
      "▁kı": 2959,
      "▁artır": 2960,
      "▁ilgi": 2961,
      "▁evden": 2962,
      "`": 2963,
      "▁deneme": 2964,
      "▁gom": 2965,
      "▁bırak": 2966,
      "##>": 2967,
      "▁getir": 2968,
      "▁ici": 2969,
      "▁komp": 2970,
      "▁insan": 2971,
      "##yo": 2972,
      "##ımızın": 2973,
      "▁ucuslarını": 2974,
      "▁evet": 2975,
      "##acı": 2976,
      "▁sip": 2977,
      "▁og": 2978,
      "▁yuzme": 2979,
      "▁aylık": 2980,
      "▁tr": 2981,
      "##manı": 2982,
      "▁piy": 2983,
      "##dik": 2984,
      "▁ec": 2985,
      "▁rahat": 2986,
      "▁mem": 2987,
      "▁arada": 2988,
      "##ast": 2989,
      "▁bugun": 2990,
      "▁yerinden": 2991,
      "##ımdan": 2992,
      "▁oran": 2993,
      "▁var": 2994,
      "▁toplum": 2995,
      "##luk": 2996,
      "##alar": 2997,
      "▁sov": 2998,
      "▁alt": 2999,
      "##isle": 3000,
      "▁19": 3001,
      "##$": 3002,
      "▁kah": 3003,
      "▁bası": 3004,
      "##um": 3005,
      "▁degisiklik": 3006,
      "▁goze": 3007,
      "▁av": 3008,
      "▁ulasım": 3009,
      "▁gercek": 3010,
      "##onra": 3011,
      "##mayan": 3012,
      "##inize": 3013,
      "##afet": 3014,
      "▁karar": 3015,
      "##asından": 3016,
      "▁ib": 3017,
      "▁ge": 3018,
      "▁nedenlerden": 3019,
      "▁gonl": 3020,
      "##ege": 3021,
      "▁cap": 3022,
      "##lum": 3023,
      "▁med": 3024,
      "##eni": 3025,
      "▁zarar": 3026,
      "▁haberi": 3027,
      "▁res": 3028,
      "##uklu": 3029,
      "##al": 3030,
      "##ilendir": 3031,
      "##cok": 3032,
      "##ar": 3033,
      "▁fotograf": 3034,
      "▁guc": 3035,
      "##lı": 3036,
      "▁adı": 3037,
      "▁istih": 3038,
      "##unc": 3039,
      "▁gitmek": 3040,
      "##ıga": 3041,
      "▁sid": 3042,
      "▁altında": 3043,
      "##mustur": 3044,
      "##istel": 3045,
      "##andan": 3046,
      "▁ruz": 3047,
      "▁yatırımcıların": 3048,
      "▁dolarlık": 3049,
      "▁ucusu": 3050,
      "▁bay": 3051,
      "##etli": 3052,
      "##up": 3053,
      "d": 3054,
      "▁isletme": 3055,
      "▁pencer": 3056,
      "##ır": 3057,
      "▁sovyet": 3058,
      "▁garanti": 3059,
      "▁gos": 3060,
      "▁kr": 3061,
      "##ktu": 3062,
      "▁sor": 3063,
      "▁esim": 3064,
      "▁sab": 3065,
      "▁inter": 3066,
      "##ecek": 3067,
      "▁(": 3068,
      "##of": 3069,
      "▁olum": 3070,
      "▁rol": 3071,
      "##lin": 3072,
      "▁incel": 3073,
      "##aat": 3074,
      "▁la": 3075,
      "▁biz": 3076,
      "▁masanın": 3077,
      "▁boy": 3078,
      "##ort": 3079,
      "▁ilgilendi": 3080,
      "▁ulasımı": 3081,
      "▁edeb": 3082,
      "##leket": 3083,
      "▁boyun": 3084,
      "▁olmadıgını": 3085,
      "▁agustos": 3086,
      "▁pol": 3087,
      "##larıyla": 3088,
      "▁sac": 3089,
      "##ibar": 3090,
      "##adıgını": 3091,
      "▁birlik": 3092,
      "##eci": 3093,
      "▁kend": 3094,
      "##ban": 3095,
      "##mekten": 3096,
      "▁acık": 3097,
      "▁kara": 3098,
      "p": 3099,
      "##sızlık": 3100,
      "▁kaldır": 3101,
      "▁u": 3102,
      "##erken": 3103,
      "##ekler": 3104,
      "▁aralık": 3105,
      "▁kadınlar": 3106,
      "▁kus": 3107,
      "##ılı": 3108,
      "▁soru": 3109,
      "▁donemde": 3110,
      "▁ucaga": 3111,
      "##ikler": 3112,
      "##asının": 3113,
      "▁yet": 3114,
      "##kk": 3115,
      "##igini": 3116,
      "##zet": 3117,
      "▁an": 3118,
      "▁derec": 3119,
      "▁sent": 3120,
      "▁gorusuldu": 3121,
      "##acak": 3122,
      "▁karak": 3123,
      "▁misafir": 3124,
      "##ud": 3125,
      "##kı": 3126,
      "▁mesaf": 3127,
      "##asyon": 3128,
      "▁muhend": 3129,
      "▁doldur": 3130,
      "▁koc": 3131,
      "▁ortalama": 3132,
      "▁kurum": 3133,
      "▁mahkemesi": 3134,
      "▁lutfen": 3135,
      "▁olabilir": 3136,
      "▁yayın": 3137,
      "▁cab": 3138,
      "▁fran": 3139,
      "##ırt": 3140,
      "##manlar": 3141,
      "##asıyla": 3142,
      "##alarının": 3143,
      "-": 3144,
      "▁2": 3145,
      "##mesi": 3146,
      "▁goz": 3147,
      "##enleri": 3148,
      "▁tasar": 3149,
      "▁risk": 3150,
      "▁--": 3151,
      "##ladı": 3152,
      "##ın": 3153,
      "##ıc": 3154,
      "▁iy": 3155,
      "▁tesisti": 3156,
      "▁gru": 3157,
      "▁ihtiy": 3158,
      "▁egitim": 3159,
      "##ilig": 3160,
      "▁pr": 3161,
      "▁vet": 3162,
      "▁hasar": 3163,
      "▁belki": 3164,
      "▁tesvik": 3165,
      "##int": 3166,
      "##madan": 3167,
      "▁tavsiye": 3168,
      "##gini": 3169,
      "▁ziyaret": 3170,
      "▁sayısı": 3171,
      "▁personellerinden": 3172,
      "▁once": 3173,
      "▁ceb": 3174,
      "▁anne": 3175,
      "▁teklif": 3176,
      "##dum": 3177,
      "##aseb": 3178,
      "##larımızı": 3179,
      "▁haftada": 3180,
      "▁anlat": 3181,
      "##uyu": 3182,
      "##anti": 3183,
      "▁phil": 3184,
      "▁problem": 3185,
      "▁rap": 3186,
      "##deki": 3187,
      "##isinin": 3188,
      "▁oranı": 3189,
      "##g": 3190,
      "##masın": 3191,
      "▁sofr": 3192,
      "▁hak": 3193,
      "##ılmıs": 3194,
      "##ars": 3195,
      "▁mar": 3196,
      "▁ele": 3197,
      "▁benz": 3198,
      "##he": 3199,
      "▁akl": 3200,
      "▁fikr": 3201,
      "##erik": 3202,
      "##abil": 3203,
      "▁ve": 3204,
      "▁hafta": 3205,
      "▁ode": 3206,
      "##oc": 3207,
      "##eral": 3208,
      "▁ba": 3209,
      "▁bankası": 3210,
      "▁anlattı": 3211,
      "▁yaptı": 3212,
      "▁evine": 3213,
      "▁basından": 3214,
      "▁hayatı": 3215,
      "##maktadır": 3216,
      "▁buz": 3217,
      "▁kal": 3218,
      "▁hac": 3219,
      "##mal": 3220,
      "▁terk": 3221,
      "▁merkez": 3222,
      "▁bor": 3223,
      "▁ihrac": 3224,
      "▁gosteri": 3225,
      "▁:": 3226,
      "▁sıkıntı": 3227,
      "▁dallas": 3228,
      "##om": 3229,
      "▁davran": 3230,
      "▁part": 3231,
      "##kt": 3232,
      "▁yo": 3233,
      "##larımı": 3234,
      "▁ak": 3235,
      "##urk": 3236,
      "▁alay": 3237,
      "▁deney": 3238,
      "▁dak": 3239,
      "##ların": 3240,
      "▁mis": 3241,
      "▁listel": 3242,
      "▁uyk": 3243,
      "▁temizlik": 3244,
      "▁cumartesi": 3245,
      "##lim": 3246,
      "▁otelde": 3247,
      "_": 3248,
      "▁ureticisi": 3249,
      "▁ticaret": 3250,
      "▁oyunun": 3251,
      "▁seyi": 3252,
      "▁kalk": 3253,
      "##ının": 3254,
      "▁den": 3255,
      "##esinin": 3256,
      "▁kasıgı": 3257,
      "▁denver": 3258,
      "▁ekl": 3259,
      "▁m": 3260,
      "##une": 3261,
      "▁cif": 3262,
      "##imdi": 3263,
      "##lıgını": 3264,
      "##h": 3265,
      "##lıkları": 3266,
      "▁ucuslarının": 3267,
      "##ırtı": 3268,
      "▁oyunu": 3269,
      "▁kapıyı": 3270,
      "##apon": 3271,
      "▁etmeye": 3272,
      "##imden": 3273,
      "##maya": 3274,
      "▁gozu": 3275,
      "##irim": 3276,
      "▁muzik": 3277,
      "##til": 3278,
      "##ıla": 3279,
      "##lamıs": 3280,
      "▁basta": 3281,
      "/": 3282,
      "▁elbise": 3283,
      "▁prens": 3284,
      "▁umut": 3285,
      "2": 3286,
      "##dan": 3287,
      "##tr": 3288,
      "▁milyondan": 3289,
      "▁bek": 3290,
      "▁kat": 3291,
      "▁yatak": 3292,
      "▁sirketler": 3293,
      "▁&": 3294,
      "##uga": 3295,
      "▁gem": 3296,
      "##mad": 3297,
      "##ekti": 3298,
      "##dak": 3299,
      "▁ana": 3300,
      "##sak": 3301,
      "▁ustune": 3302,
      "▁kamyon": 3303,
      "##ı": 3304,
      "▁konuda": 3305,
      "##ash": 3306,
      "##eye": 3307,
      "▁kosul": 3308,
      "▁menkul": 3309,
      "##madı": 3310,
      "▁dagıt": 3311,
      "▁washington": 3312,
      "▁v": 3313,
      "▁mevcut": 3314,
      "##amak": 3315,
      "▁eylul": 3316,
      "##cut": 3317,
      "▁at": 3318,
      "▁potansiy": 3319,
      "▁saglık": 3320,
      "▁bank": 3321,
      "▁sabah": 3322,
      "▁kaldim": 3323,
      "##lam": 3324,
      "▁zamanlarda": 3325,
      "▁reh": 3326,
      "▁test": 3327,
      "##esini": 3328,
      "▁hayata": 3329,
      "▁ilg": 3330,
      "▁zir": 3331,
      "▁sayf": 3332,
      "▁ters": 3333,
      "▁ayda": 3334,
      "▁sair": 3335,
      "▁...\"": 3336,
      "▁arz": 3337,
      "##ci": 3338,
      "ı": 3339,
      "▁dogru": 3340,
      "▁bak": 3341,
      "##dı": 3342,
      "▁oldu": 3343,
      "▁oyuncu": 3344,
      "##erlik": 3345,
      "▁profes": 3346,
      "##go": 3347,
      "##ligine": 3348,
      "##ılması": 3349,
      "▁yola": 3350,
      "##okr": 3351,
      "▁katil": 3352,
      "##agından": 3353,
      "▁yil": 3354,
      "▁yon": 3355,
      "▁gayet": 3356,
      "▁din": 3357,
      "##'na": 3358,
      "##ıdır": 3359,
      "##luga": 3360,
      "▁dolar": 3361,
      "##us": 3362,
      "##eldi": 3363,
      "##endi": 3364,
      "▁ilav": 3365,
      "##iyle": 3366,
      "▁anlamına": 3367,
      "##lugun": 3368,
      "▁bazi": 3369,
      "▁kas": 3370,
      "▁otele": 3371,
      "▁banyo": 3372,
      "▁seyahat": 3373,
      "▁malzem": 3374,
      "▁hakkında": 3375,
      "▁cor": 3376,
      "▁savas": 3377,
      "##aj": 3378,
      "▁tiyatro": 3379,
      "▁oyun": 3380,
      "▁sigort": 3381,
      "▁yolunu": 3382,
      "##elli": 3383,
      "▁oranında": 3384,
      "##dir": 3385,
      "▁gunah": 3386,
      "▁istif": 3387,
      "▁kalit": 3388,
      "▁taleb": 3389,
      "▁makine": 3390,
      "▁meyve": 3391,
      "▁mey": 3392,
      "▁onceki": 3393,
      "##ıldı": 3394,
      "▁mail": 3395,
      "▁yerini": 3396,
      "▁kıv": 3397,
      "▁boyut": 3398,
      "▁``": 3399,
      "▁itibar": 3400,
      "##3": 3401,
      "▁raf": 3402,
      "##bu": 3403,
      "▁limon": 3404,
      "?": 3405,
      "##cek": 3406,
      "▁icme": 3407,
      "▁bors": 3408,
      "▁tasarruf": 3409,
      "▁haric": 3410,
      "##ete": 3411,
      "##ekkur": 3412,
      "▁.": 3413,
      "▁er": 3414,
      "▁kotu": 3415,
      "▁vadeli": 3416,
      "▁istiyorum": 3417,
      "▁anlasma": 3418,
      "▁yar": 3419,
      "▁fon": 3420,
      "##lerde": 3421,
      "##ler": 3422,
      "▁mer": 3423,
      "▁almak": 3424,
      "##mek": 3425,
      "▁sabahı": 3426,
      "▁hemen": 3427,
      "▁fik": 3428,
      "▁mun": 3429,
      "##dugu": 3430,
      "▁mide": 3431,
      ":": 3432,
      "▁yaban": 3433,
      "▁bas": 3434,
      "▁yarat": 3435,
      "▁satıs": 3436,
      "▁fak": 3437,
      "##esine": 3438,
      "4": 3439,
      "##net": 3440,
      "▁gucu": 3441,
      "▁seyler": 3442,
      "▁sigara": 3443,
      "&": 3444,
      "▁itir": 3445,
      "$": 3446,
      "k": 3447,
      "▁sınav": 3448,
      "##ey": 3449,
      "▁yolu": 3450,
      "##landı": 3451,
      "▁8'den": 3452,
      "##unden": 3453,
      "▁ne": 3454,
      "##itesi": 3455,
      "##ph": 3456,
      "▁dir": 3457,
      "▁ot": 3458,
      "▁ihtiyacım": 3459,
      "▁simdi": 3460,
      "▁hit": 3461,
      "##sizlik": 3462,
      "##gan": 3463,
      "▁katılım": 3464,
      "▁sonuna": 3465,
      "0": 3466,
      "▁$'a": 3467,
      "▁yanına": 3468,
      "▁im": 3469,
      "▁ayı": 3470,
      "▁muduru": 3471,
      "##5": 3472,
      "▁balt": 3473,
      "▁clas": 3474,
      "##adar": 3475,
      "▁tren": 3476,
      "▁dost": 3477,
      "▁beydi": 3478,
      "▁istihdam": 3479,
      "▁odun": 3480,
      "##ub": 3481,
      "▁yum": 3482,
      "▁paket": 3483,
      "▁org": 3484,
      "▁ucret": 3485,
      "▁rengi": 3486,
      "▁olmaya": 3487,
      "▁buyuk": 3488,
      "▁erken": 3489,
      "##cilerin": 3490,
      "▁.)": 3491,
      "▁satısları": 3492,
      "▁elinde": 3493,
      "▁renk": 3494,
      "▁ger": 3495,
      "##ısır": 3496,
      "▁ates": 3497,
      "▁kem": 3498,
      "▁servisi": 3499,
      "##it": 3500,
      "▁tic": 3501,
      "▁vucud": 3502,
      "▁saf": 3503,
      "▁dey": 3504,
      "##pr": 3505,
      "▁ik": 3506,
      "##to": 3507,
      "##alık": 3508,
      "##bi": 3509,
      "##erek": 3510,
      "▁ajans": 3511,
      "##ırım": 3512,
      "▁yog": 3513,
      "##ıgın": 3514,
      "▁sozlesme": 3515,
      "▁aktivite": 3516,
      "##idi": 3517,
      "##rne": 3518,
      "▁kızı": 3519,
      "▁pitts": 3520,
      "▁coz": 3521,
      "▁butce": 3522,
      "##ince": 3523,
      "▁ucusları": 3524,
      "▁ceza": 3525,
      "##mem": 3526,
      "▁yazı": 3527,
      "##ut": 3528,
      "##mis": 3529,
      "##manın": 3530,
      "▁neler": 3531,
      "##rar": 3532,
      "▁merdiv": 3533,
      "▁ekibi": 3534,
      "##vek": 3535,
      "##ta": 3536,
      "▁rehber": 3537,
      "##luydu": 3538,
      "##erler": 3539,
      "▁bis": 3540,
      "▁lok": 3541,
      "▁konu": 3542,
      "▁nakit": 3543,
      "▁cocukları": 3544,
      "▁dedi": 3545,
      "##ist": 3546,
      "##isim": 3547,
      "##ede": 3548,
      "##yle": 3549,
      "▁tekl": 3550,
      "▁fir": 3551,
      "##8'de": 3552,
      "▁yoktu": 3553,
      "▁nok": 3554,
      "▁kendi": 3555,
      "▁yal": 3556,
      "▁hoca": 3557,
      "▁kokusu": 3558,
      "▁bag": 3559,
      "##attı": 3560,
      "▁merkezine": 3561,
      "##uv": 3562,
      "▁anlama": 3563,
      "▁ihr": 3564,
      "##'d": 3565,
      "▁gir": 3566,
      "##siniz": 3567,
      "▁ordu": 3568,
      "▁toh": 3569,
      "▁dem": 3570,
      "▁tesisten": 3571,
      "##ligi": 3572,
      "##erleri": 3573,
      "▁unu": 3574,
      "##er": 3575,
      "▁rehberimiz": 3576,
      "▁olc": 3577,
      "##orm": 3578,
      "▁nef": 3579,
      "##ele": 3580,
      "▁konumunu": 3581,
      "▁anim": 3582,
      "##onu": 3583,
      "▁dunyaya": 3584,
      "▁teb": 3585,
      "##ulu": 3586,
      "▁kahvalti": 3587,
      "▁kapsam": 3588,
      "▁ucus": 3589,
      "▁ad": 3590,
      "▁rezerv": 3591,
      "##lac": 3592,
      "▁dukk": 3593,
      "##sef": 3594,
      "##edef": 3595,
      "▁yeri": 3596,
      "▁sekl": 3597,
      "▁odadan": 3598,
      "##sur": 3599,
      "##lemeye": 3600,
      "▁soyley": 3601,
      "▁ya": 3602,
      "##lerimiz": 3603,
      "▁tarif": 3604,
      "▁bebek": 3605,
      "▁cop": 3606,
      "▁alama": 3607,
      "▁gen": 3608,
      "▁ces": 3609,
      "##ari": 3610,
      "▁kurul": 3611,
      "▁birim": 3612,
      "##det": 3613,
      "##ah": 3614,
      "▁manz": 3615,
      "##anların": 3616,
      "##cılık": 3617,
      "##gah": 3618,
      "▁ulke": 3619,
      "##ecilik": 3620,
      "▁herhangi": 3621,
      "▁icki": 3622,
      "▁kafa": 3623,
      "▁meslek": 3624,
      "▁etti": 3625,
      "▁sistem": 3626,
      "▁imk": 3627,
      "▁madde": 3628,
      "▁alın": 3629,
      "##makt": 3630,
      "▁bab": 3631,
      "▁hanimla": 3632,
      "▁baz": 3633,
      "##tun": 3634,
      "▁konus": 3635,
      "▁asagıda": 3636,
      "##8'e": 3637,
      "##ersiz": 3638,
      "▁calis": 3639,
      "▁dusunc": 3640,
      "##amı": 3641,
      "▁duyg": 3642,
      "▁bileti": 3643,
      "▁\"": 3644,
      "##mektedir": 3645,
      "▁ker": 3646,
      "▁yeter": 3647,
      "▁kahvalt": 3648,
      "##dıgında": 3649,
      "▁yuz": 3650,
      "▁gol": 3651,
      "▁aj": 3652,
      "▁bil": 3653,
      "▁nedenle": 3654,
      "▁philadelphia": 3655,
      "##rt": 3656,
      "▁ikti": 3657,
      "##kal": 3658,
      "▁seb": 3659,
      "##ıgını": 3660,
      "▁artık": 3661,
      "▁karsısında": 3662,
      "##liligi": 3663,
      "▁sur": 3664,
      "\\": 3665,
      "=": 3666,
      "▁gozlerini": 3667,
      "▁fr": 3668,
      "▁istifa": 3669,
      "##mı": 3670,
      "▁cins": 3671,
      "##anıt": 3672,
      "▁amerik": 3673,
      "▁ins": 3674,
      "##;": 3675,
      "##diye": 3676,
      "▁birligi": 3677,
      "▁fil": 3678,
      "▁cak": 3679,
      "h": 3680,
      "##etim": 3681,
      "▁mutf": 3682,
      "▁muhal": 3683,
      "▁mez": 3684,
      "##ayan": 3685,
      "▁dayan": 3686,
      "▁halka": 3687,
      "##tıg": 3688,
      "▁gorun": 3689,
      "##isiyle": 3690,
      "▁emeklilik": 3691,
      "▁posta": 3692,
      "▁sans": 3693,
      "▁beb": 3694,
      "▁kisinin": 3695,
      "▁kap": 3696,
      "▁ted": 3697,
      "##'y": 3698,
      "▁bilgis": 3699,
      "▁ust": 3700,
      "▁ıs": 3701,
      "▁form": 3702,
      "▁zam": 3703,
      "▁aile": 3704,
      "##cının": 3705,
      "▁dedim": 3706,
      "▁endust": 3707,
      "▁ey": 3708,
      "▁kısm": 3709,
      "##day": 3710,
      "▁misaf": 3711,
      "##masını": 3712,
      "▁manzar": 3713,
      "3": 3714,
      "▁lezzeti": 3715,
      "▁kosulları": 3716,
      "▁cic": 3717,
      "▁kampanyalardan": 3718,
      "▁heyec": 3719,
      "##umuzde": 3720,
      "##y": 3721,
      "▁iceri": 3722,
      "▁arac": 3723,
      "▁dans": 3724,
      "##erk": 3725,
      "##uya": 3726,
      "▁etmis": 3727,
      "##iss": 3728,
      "##masına": 3729,
      "▁re": 3730,
      "▁gunlerde": 3731,
      "▁sonbah": 3732,
      "▁cekti": 3733,
      "▁lim": 3734,
      "▁tahviller": 3735,
      "▁yolda": 3736,
      "▁neden": 3737,
      "▁gunleri": 3738,
      "▁cum": 3739,
      "▁cir": 3740,
      "▁olanlar": 3741,
      "▁kac": 3742,
      "▁huk": 3743,
      "▁kulub": 3744,
      "##kar": 3745,
      "▁hatır": 3746,
      "##ark": 3747,
      "▁tercih": 3748,
      "▁miktar": 3749,
      "▁arkasından": 3750,
      "▁elde": 3751,
      "##gunu": 3752,
      "##may": 3753,
      "▁ogrenmek": 3754,
      "▁guvenlik": 3755,
      "▁bahce": 3756,
      "▁mek": 3757,
      "▁cesit": 3758,
      "##°": 3759,
      "▁otel": 3760,
      "▁havuzu": 3761,
      "▁pas": 3762,
      "##elir": 3763,
      "##emiyor": 3764,
      "▁takip": 3765,
      "##lak": 3766,
      "▁ayrı": 3767,
      "▁bede": 3768,
      "▁masal": 3769,
      "y": 3770,
      "▁havaalanından": 3771,
      "##ge": 3772,
      "▁nak": 3773,
      "##isi": 3774,
      "▁dah": 3775,
      "▁kadar": 3776,
      "▁cen": 3777,
      "▁zaf": 3778,
      "▁ah": 3779,
      "##inlik": 3780,
      "▁analistler": 3781,
      "▁merh": 3782,
      "##liye": 3783,
      "##iye": 3784,
      "▁polis": 3785,
      "##ayol": 3786,
      "▁mikr": 3787,
      "▁basını": 3788,
      "##izi": 3789,
      "▁tesv": 3790,
      "##is": 3791,
      "▁halk": 3792,
      "▁iyiydi": 3793,
      "##agının": 3794,
      "…": 3795,
      "##ecegim": 3796,
      "▁ucretlerini": 3797,
      "##izli": 3798,
      "▁tedbir": 3799,
      "##dar": 3800,
      "▁uygulama": 3801,
      "▁mulk": 3802,
      "##lerimizi": 3803,
      "##eh": 3804,
      "▁alamadim": 3805,
      "▁ucuslar": 3806,
      "▁j": 3807,
      "▁ilac": 3808,
      "##dig": 3809,
      "▁gore": 3810,
      "▁dolardan": 3811,
      "##umuz": 3812,
      "##me": 3813,
      "▁edecek": 3814,
      "▁evi": 3815,
      "▁gozleri": 3816,
      "##du": 3817,
      "▁uzerine": 3818,
      "▁kut": 3819,
      "▁havayol": 3820,
      "##ustu": 3821,
      "▁izin": 3822,
      "##am": 3823,
      "▁okum": 3824,
      "▁aqu": 3825,
      "▁ide": 3826,
      "▁zorluk": 3827,
      "▁ch": 3828,
      "▁vad": 3829,
      "##iligini": 3830,
      "##isin": 3831,
      "##sam": 3832,
      "▁mark": 3833,
      "▁saati": 3834,
      "##ni": 3835,
      "▁bizim": 3836,
      "##amaya": 3837,
      "▁istemiyorum": 3838,
      "▁fas": 3839,
      "▁program": 3840,
      "▁um": 3841,
      "▁hisseleri": 3842,
      "▁hangi": 3843,
      "▁olac": 3844,
      "▁duygu": 3845,
      "▁oldug": 3846,
      "▁baktı": 3847,
      "##in": 3848,
      "##imde": 3849,
      "##alım": 3850,
      "▁bazı": 3851,
      "▁he": 3852,
      "▁egit": 3853,
      "##mez": 3854,
      "▁oglum": 3855,
      "▁kanun": 3856,
      "▁burokr": 3857,
      "▁paranın": 3858,
      "▁haz": 3859,
      "▁beklenti": 3860,
      "##uf": 3861,
      "▁tavuk": 3862,
      "▁parti": 3863,
      "▁kalb": 3864,
      "##mıyor": 3865,
      "##usunda": 3866,
      "▁dalg": 3867,
      "▁bug": 3868,
      "▁tam": 3869,
      "##ıyordu": 3870,
      "▁bilgisay": 3871,
      "▁radyo": 3872,
      "▁arasında": 3873,
      "▁televizyon": 3874,
      "▁alanda": 3875,
      "▁kimse": 3876,
      "▁yav": 3877,
      "▁vaz": 3878,
      "##iydi": 3879,
      "▁babası": 3880,
      "▁basladı": 3881,
      "▁day": 3882,
      "##ber": 3883,
      "##min": 3884,
      "▁ediyor": 3885,
      "##art": 3886,
      "##atif": 3887,
      "##a": 3888,
      "##asyonu": 3889,
      "▁anal": 3890,
      "▁gey": 3891,
      "▁uygul": 3892,
      "##ac": 3893,
      "▁cercev": 3894,
      "▁karn": 3895,
      "[UNK]": 3896,
      "▁francisco": 3897,
      "##medi": 3898,
      "▁goc": 3899,
      "##ivers": 3900,
      "▁sonucları": 3901,
      "▁dusur": 3902,
      "▁itiraz": 3903,
      "▁karsi": 3904,
      "##ga": 3905,
      "▁isin": 3906,
      "▁halinde": 3907,
      "##andı": 3908,
      "▁mesaj": 3909,
      "▁emir": 3910,
      "▁tarz": 3911,
      "▁mus": 3912,
      "▁doları'na": 3913,
      "▁prot": 3914,
      "▁teslim": 3915,
      "▁hizmete": 3916,
      "##lamak": 3917,
      "▁ilgili": 3918,
      "▁ay": 3919,
      "##ep": 3920,
      "##anda": 3921,
      "▁ithal": 3922,
      "▁kabul": 3923,
      "▁ic": 3924,
      "##sat": 3925,
      "▁anlay": 3926,
      "▁bilmek": 3927,
      "▁duz": 3928,
      "▁ask": 3929,
      "▁rezervasyonu": 3930,
      "##amaları": 3931,
      "▁hasta": 3932,
      "▁varan": 3933,
      "▁artısı": 3934,
      "##alama": 3935,
      "▁giy": 3936,
      "##eleri": 3937,
      "▁avuc": 3938,
      "▁katilmak": 3939,
      "▁cev": 3940,
      "##egini": 3941,
      "▁parmak": 3942,
      "##gum": 3943,
      "▁kel": 3944,
      "▁eve": 3945,
      "!": 3946,
      "##par": 3947,
      "##dug": 3948,
      "▁gel": 3949,
      "##dim": 3950,
      "▁cil": 3951,
      "▁direktor": 3952,
      "▁sak": 3953,
      "##undan": 3954,
      "▁hali": 3955,
      "▁op": 3956,
      "##nak": 3957,
      "▁cunku": 3958,
      "##ib": 3959,
      "##cı": 3960,
      "▁erk": 3961,
      "▁piyas": 3962,
      "##larında": 3963,
      "##siye": 3964,
      "▁yor": 3965,
      "▁yuksel": 3966,
      "##imore": 3967,
      "▁oluyor": 3968,
      "▁ogr": 3969,
      "▁tay": 3970,
      "▁ko": 3971,
      "▁haf": 3972,
      "▁dergi": 3973,
      "##ig": 3974,
      "▁yiyecekler": 3975,
      "##suzluk": 3976,
      "▁=": 3977,
      "▁vermek": 3978,
      "▁gosterin": 3979,
      "##ilim": 3980,
      "▁duman": 3981,
      "##arında": 3982,
      "▁burn": 3983,
      "▁yuv": 3984,
      "▁serv": 3985,
      "▁en": 3986,
      "▁hukumet": 3987,
      "##uyorum": 3988,
      "▁sozleri": 3989,
      "▁adamın": 3990,
      "##idir": 3991,
      "##aklı": 3992,
      "▁kan": 3993,
      "##erans": 3994,
      "▁olmasi": 3995,
      "##ay": 3996,
      "▁le": 3997,
      "▁paraya": 3998,
      "▁araya": 3999,
      "##'da": 4000,
      "▁tiyatr": 4001,
      "##li": 4002,
      "##ht": 4003,
      "##lerinde": 4004,
      "##il": 4005,
      "▁prof": 4006,
      "▁ilgil": 4007,
      "##anları": 4008,
      "##edir": 4009,
      "##osu": 4010,
      "▁haval": 4011,
      "▁dudak": 4012,
      "##bul": 4013,
      "▁garson": 4014,
      "##ımın": 4015,
      "▁bıcak": 4016,
      "▁baslan": 4017,
      "▁rakamlar": 4018,
      "▁stratej": 4019,
      "▁son": 4020,
      "▁adamı": 4021,
      "▁secim": 4022,
      "##ellikle": 4023,
      "▁seviy": 4024,
      "▁bilgi": 4025,
      "##unda": 4026,
      "▁cocuk": 4027,
      "##yor": 4028,
      "▁yuksek": 4029,
      "##asıl": 4030,
      "▁kayn": 4031,
      "##sin": 4032,
      "##meyi": 4033,
      "▁guz": 4034,
      "▁vardır": 4035,
      "▁tahvil": 4036,
      "##sa": 4037,
      "▁atlan": 4038,
      "▁engel": 4039,
      "##ine": 4040,
      "##ten": 4041,
      "##detti": 4042,
      "##artesi": 4043,
      "▁wash": 4044,
      "▁kapas": 4045,
      "▁iste": 4046,
      "##4": 4047,
      "▁bır": 4048,
      "▁ok": 4049,
      "▁yonetimi": 4050,
      "▁tesisi": 4051,
      "▁acent": 4052,
      "##isini": 4053,
      "▁enf": 4054,
      "▁k": 4055,
      "##9": 4056,
      "▁fiyatları": 4057,
      "▁uc": 4058,
      "##id": 4059,
      "##misti": 4060,
      "##ug": 4061,
      "##0'da": 4062,
      "▁tedavul": 4063,
      "##ıntı": 4064,
      "##menin": 4065,
      "▁tucc": 4066,
      "##egin": 4067,
      "▁bes": 4068,
      "▁sa": 4069,
      "##sel": 4070,
      "##mıs": 4071,
      "##isindan": 4072,
      "##daki": 4073,
      "▁defa": 4074,
      "▁muz": 4075,
      "▁sigorta": 4076,
      "▁tesekkur": 4077,
      "▁eyalet": 4078,
      "##'nun": 4079,
      "▁gordu": 4080,
      "##…": 4081,
      "##mus": 4082,
      "▁uretici": 4083,
      "▁1/": 4084,
      "▁ves": 4085,
      "▁merkezi": 4086,
      "▁sut": 4087,
      "##dikleri": 4088,
      "▁bagım": 4089,
      "▁etkisi": 4090,
      "##must": 4091,
      "▁w": 4092,
      "▁ellerinde": 4093,
      "▁lid": 4094,
      "##ki": 4095
    }
  }
}