{
  "version": "1.0",
  "truncation": null,
  "padding": null,
  "added_tokens": [
    {
      "id": 2005,
      "content": "[CLS]",
      "single_word": false,
      "lstrip": false,
      "rstrip": false,
      "normalized": false,
      "special": true
    },
    {
      "id": 5841,
      "content": "[UNK]",
      "single_word": false,
      "lstrip": false,
      "rstrip": false,
      "normalized": false,
      "special": true
    },
    {
      "id": 6419,
      "content": "[SEP]",
      "single_word": false,
      "lstrip": false,
      "rstrip": false,
      "normalized": false,
      "special": true
    },
    {
      "id": 7100,
      "content": "[MASK]",
      "single_word": false,
      "lstrip": false,
      "rstrip": false,
      "normalized": false,
      "special": true
    },
    {
      "id": 8832,
      "content": "[PAD]",
      "single_word": false,
      "lstrip": false,
      "rstrip": false,
      "normalized": false,
      "special": true
    }
  ],
  "normalizer": {
    "type": "Sequence",
    "normalizers": [
      {
        "type": "NFD"
      },
      {
        "type": "Lowercase"
      },
      {
        "type": "StripAccents"
      }
    ]
  },
  "pre_tokenizer": {
    "type": "Sequence",
    "pretokenizers": [
      {
        "type": "Metaspace",
        "replacement": "▁",
        "prepend_scheme": "always",
        "split": true
      }
    ]
  },
  "post_processor": {
    "type": "TemplateProcessing",
    "single": [
      {
        "SpecialToken": {
          "id": "[CLS]",
          "type_id": 0
        }
      },
      {
        "Sequence": {
          "id": "A",
          "type_id": 0
        }
      },
      {
        "SpecialToken": {
          "id": "[SEP]",
          "type_id": 0
        }
      }
    ],
    "pair": [
      {
        "SpecialToken": {
          "id": "[CLS]",
          "type_id": 0
        }
      },
      {
        "Sequence": {
          "id": "A",
          "type_id": 0
        }
      },
      {
        "SpecialToken": {
          "id": "[SEP]",
          "type_id": 0
        }
      },
      {
        "Sequence": {
          "id": "B",
          "type_id": 1
        }
      },
      {
        "SpecialToken": {
          "id": "[SEP]",
          "type_id": 1
        }
      }
    ],
    "special_tokens": {
      "[CLS]": {
        "id": "[CLS]",
        "ids": [
          2005
        ],
        "tokens": [
          "[CLS]"
        ]
      },
      "[SEP]": {
        "id": "[SEP]",
        "ids": [
          6419
        ],
        "tokens": [
          "[SEP]"
        ]
      }
    }
  },
  "decoder": {
    "type": "Metaspace",
    "replacement": "▁",
    "prepend_scheme": "always",
    "split": true
  },
  "model": {
    "type": "Unigram",
    "unk_id": 5841,
    "vocab": [
      [
        "▁resim",
        -8.822738314177805
      ],
      [
        "'nu",
        -9.86307032478333
      ],
      [
        "▁personelleri",
        -6.968548525054799
      ],
      [
        "▁mutemadi",
        -8.499264931476192
      ],
      [
        "▁dusunceleri",
        -9.80286237195488
      ],
      [
        "▁etmeye",
        -8.517072904809254
      ],
      [
        "▁kadi",
        -9.5590311735841
      ],
      [
        "▁irs",
        -8.482717962749591
      ],
      [
        "▁kesin",
        -6.101322210378779
      ],
      [
        "▁yukseg",
        -11.098753883830643
      ],
      [
        "▁un",
        -9.036362133150654
      ],
      [
        "▁bulanık",
        -9.035499716111866
      ],
      [
        "▁elli",
        -6.208347808831624
      ],
      [
        "▁odul",
        -9.786468424384278
      ],
      [
        "▁ikisi",
        -7.407822385017121
      ],
      [
        "larımız",
        -8.903200020718955
      ],
      [
        "▁icecekleri",
        -9.22282110471637
      ],
      [
        "▁pisir",
        -9.569895014924938
      ],
      [
        "▁teori",
        -9.423316227774524
      ],
      [
        "▁dukkanın",
        -10.262469916572488
      ],
      [
        "'nde",
        -9.781447919363005
      ],
      [
        "este",
        -10.957610480837754
      ],
      [
        "yon",
        -9.86532443139734
      ],
      [
        "▁haki",
        -8.822742828862129
      ],
      [
        "▁ileri",
        -8.70499771275459
      ],
      [
        "▁temelinde",
        -9.211318819469504
      ],
      [
        "▁ozelliklerin",
        -10.31680653573589
      ],
      [
        "▁ayaklarında",
        -10.889438157402713
      ],
      [
        "▁atalarımız",
        -10.74336162872657
      ],
      [
        "▁100'",
        -9.863997688238854
      ],
      [
        "▁ulasmak",
        -9.494109977757953
      ],
      [
        "▁dili",
        -9.17555745427208
      ],
      [
        "▁buyukluk",
        -10.253331207392176
      ],
      [
        "▁kızgın",
        -8.448632793234832
      ],
      [
        "▁laik",
        -11.099529423238582
      ],
      [
        "▁zayıflık",
        -10.710112046939779
      ],
      [
        "▁guler",
        -8.49442180744818
      ],
      [
        "tli",
        -9.311672479618816
      ],
      [
        "▁agzım",
        -9.93512041042069
      ],
      [
        "ev",
        -11.802702672349788
      ],
      [
        "zden",
        -10.588668699559264
      ],
      [
        "av",
        -10.194207870528562
      ],
      [
        "▁sus",
        -9.24456545649592
      ],
      [
        "yayım",
        -9.535391582004097
      ],
      [
        "▁hak",
        -8.690799214916495
      ],
      [
        "▁vegas'ta",
        -7.479937227083081
      ],
      [
        "ana",
        -3.4668823189684232
      ],
      [
        "▁finans",
        -7.7895039515763
      ],
      [
        "▁sekreteri",
        -10.065225424456221
      ],
      [
        "una",
        -9.496687318595242
      ],
      [
        "▁numaral",
        -7.903709266781838
      ],
      [
        "▁ucuncu",
        -7.7894332237383175
      ],
      [
        "▁aklım",
        -9.105781695616212
      ],
      [
        "▁varlık",
        -9.484136434215143
      ],
      [
        "▁saat",
        -9.579060027711332
      ],
      [
        "▁mudurun",
        -10.697576788172105
      ],
      [
        "▁agacta",
        -10.52274429567484
      ],
      [
        "▁zaman",
        -7.1405633171011775
      ],
      [
        "▁ornekleri",
        -10.83588820670793
      ],
      [
        "▁yata",
        -9.033874724782049
      ],
      [
        "▁haberin",
        -10.013442749981563
      ],
      [
        "ah",
        -10.091736924136981
      ],
      [
        "▁tanıma",
        -10.52890328133389
      ],
      [
        "▁yarı",
        -9.433997132215225
      ],
      [
        "▁bucagın",
        -11.116665298678411
      ],
      [
        "▁ya",
        -4.634008824959308
      ],
      [
        "▁50'",
        -10.716809003488486
      ],
      [
        "▁malik",
        -10.751382283620433
      ],
      [
        "▁tar",
        -9.538574088066238
      ],
      [
        "abet",
        -9.61243820675656
      ],
      [
        "▁deligi",
        -10.607010356562952
      ],
      [
        "7",
        -8.993635918342616
      ],
      [
        "▁bu",
        -7.374577612377099
      ],
      [
        "▁17",
        -6.060985725555577
      ],
      [
        "▁moody'",
        -8.040777599680371
      ],
      [
        "▁edemedi",
        -9.532693759728076
      ],
      [
        "▁milyonu",
        -10.789329106142135
      ],
      [
        "is",
        -8.383105041025878
      ],
      [
        "▁bulamadı",
        -9.243866761906592
      ],
      [
        "▁faturami",
        -9.510154543583031
      ],
      [
        "uz",
        -5.732251839510907
      ],
      [
        "▁arabacı",
        -10.143917060357646
      ],
      [
        "▁altında",
        -7.226090525796954
      ],
      [
        "▁koltuklar",
        -9.744443643571325
      ],
      [
        "▁yaktı",
        -8.778872205795977
      ],
      [
        "▁ocakta",
        -10.902475864030226
      ],
      [
        "aclı",
        -8.773199229224863
      ],
      [
        "▁ceset",
        -11.035480675453167
      ],
      [
        "▁ideoloji",
        -10.781965658661782
      ],
      [
        "'li",
        -9.172782689453415
      ],
      [
        "▁reform",
        -9.96050632063078
      ],
      [
        "▁stoklarını",
        -11.04481004571859
      ],
      [
        "▁getir",
        -7.639219042483853
      ],
      [
        "▁rustu",
        -8.898548715150834
      ],
      [
        "ber",
        -8.929419789105031
      ],
      [
        "▁laikligi",
        -11.112836663564437
      ],
      [
        "ti",
        -9.518487782928336
      ],
      [
        "▁uzuntu",
        -9.620611662429692
      ],
      [
        "▁don",
        -8.780974281693027
      ],
      [
        "asına",
        -9.12193713168766
      ],
      [
        "▁tanıtım",
        -9.899685050638691
      ],
      [
        "▁18",
        -10.322084005447024
      ],
      [
        "▁montreal",
        -8.204171178266979
      ],
      [
        "▁asıl",
        -7.381204309289476
      ],
      [
        "▁istasyonun",
        -10.6831135164382
      ],
      [
        "ak",
        -3.6704506036336477
      ],
      [
        "▁kulu",
        -10.776698574320424
      ],
      [
        "▁aklın",
        -8.841620845728649
      ],
      [
        "▁yıgınları",
        -10.785513422153725
      ],
      [
        "▁masa",
        -7.777868276487889
      ],
      [
        "▁veremem",
        -8.882541706201554
      ],
      [
        "lanma",
        -10.21177484091699
      ],
      [
        "▁aileler",
        -7.151316609969572
      ],
      [
        "▁fakir",
        -8.447946744051569
      ],
      [
        "▁koltugunda",
        -10.99606720941901
      ],
      [
        "▁sablon",
        -11.09874288933882
      ],
      [
        "▁kabın",
        -10.010594345542547
      ],
      [
        "▁luzum",
        -10.553993237268267
      ],
      [
        "▁barikat",
        -10.898743321477008
      ],
      [
        "▁suruleri",
        -11.028465905418422
      ],
      [
        "▁oduyor",
        -9.724196487105152
      ],
      [
        "▁zahmet",
        -9.801353398579842
      ],
      [
        "▁acılıs",
        -9.745082064724304
      ],
      [
        "▁kay",
        -10.042439963456061
      ],
      [
        "▁bogazici'n",
        -10.254345846633854
      ],
      [
        "▁inmis",
        -9.396624523276465
      ],
      [
        "▁durumları",
        -10.762559108820458
      ],
      [
        "▁degili",
        -4.9352643412096375
      ],
      [
        "▁halkın",
        -9.03652144933605
      ],
      [
        "onu",
        -10.743640404663353
      ],
      [
        "▁verilecek",
        -9.608181748542115
      ],
      [
        "▁yukunu",
        -10.37153651276358
      ],
      [
        "▁kaba",
        -9.443484639055661
      ],
      [
        "asagı",
        -7.350576247561033
      ],
      [
        "▁soyadı",
        -10.732279883592915
      ],
      [
        "▁sponsor",
        -10.036179494965168
      ],
      [
        "▁arıyor",
        -8.704624586189848
      ],
      [
        "▁-",
        -9.780423386250764
      ],
      [
        "▁sonuclar",
        -8.932923835943797
      ],
      [
        "▁kalmaz",
        -9.138735963224718
      ],
      [
        "▁almasını",
        -10.192144221069812
      ],
      [
        "▁sivri",
        -8.959226193856269
      ],
      [
        "▁cephe",
        -10.441906966784709
      ],
      [
        "▁grupların",
        -10.781353108855527
      ],
      [
        "▁intiba",
        -10.89874296227127
      ],
      [
        "lanmaya",
        -11.111461838171948
      ],
      [
        "▁ugultusu",
        -10.659095134620117
      ],
      [
        "▁kamu",
        -8.336258568124805
      ],
      [
        "▁tasın",
        -9.431236883183264
      ],
      [
        "▁oturumun",
        -11.108842882613615
      ],
      [
        "▁pahal",
        -8.089972728583186
      ],
      [
        "▁dayısı",
        -11.120665787246796
      ],
      [
        "▁ellerimi",
        -11.113370425600227
      ],
      [
        "▁havayolu",
        -8.439322661237238
      ],
      [
        "▁varolus",
        -10.732077542440873
      ],
      [
        "▁cadde",
        -9.300320051470464
      ],
      [
        "▁kalca",
        -11.09009611252252
      ],
      [
        "▁baglantı",
        -9.282415234822759
      ],
      [
        "l",
        -5.742139703486585
      ],
      [
        "▁kesimi",
        -10.696211518565102
      ],
      [
        "▁1.8",
        -7.194900721909706
      ],
      [
        "▁tekstil",
        -10.732130201795133
      ],
      [
        "▁kurt",
        -8.100519537105876
      ],
      [
        "▁kazancların",
        -10.103466206387118
      ],
      [
        "lerdi",
        -8.270437778864537
      ],
      [
        "▁tarafi",
        -10.182302152801213
      ],
      [
        "yse",
        -8.357692523500726
      ],
      [
        "▁kaliforniya",
        -7.288443125848875
      ],
      [
        "▁dag",
        -8.824968802676423
      ],
      [
        "zin",
        -9.641793122512002
      ],
      [
        "▁alnında",
        -10.53748104122847
      ],
      [
        "▁birileri",
        -7.533993563251414
      ],
      [
        "mla",
        -10.388330425041449
      ],
      [
        "▁usx",
        -9.01465798110983
      ],
      [
        "▁uyudu",
        -9.526080950841699
      ],
      [
        "▁marj",
        -10.865142207490571
      ],
      [
        "▁beklentilerimiz",
        -10.959643554796838
      ],
      [
        "▁sozcugu",
        -10.342454566642175
      ],
      [
        "▁ma",
        -9.649779986010461
      ],
      [
        "hane",
        -9.695031009390231
      ],
      [
        "10",
        -10.185797548963409
      ],
      [
        "▁wang",
        -8.95504808397229
      ],
      [
        "bil",
        -10.46615802699192
      ],
      [
        "▁charles",
        -9.006340757937823
      ],
      [
        "▁secimlerin",
        -10.409635111476064
      ],
      [
        "▁c",
        -8.632979201027332
      ],
      [
        "▁sansur",
        -10.255506735009977
      ],
      [
        "▁ilerle",
        -9.691133813940851
      ],
      [
        "▁takdir",
        -9.038246525919545
      ],
      [
        "▁sıkı",
        -9.326873657818702
      ],
      [
        "▁tesisler",
        -10.739017735058612
      ],
      [
        "m",
        -7.907912427690652
      ],
      [
        "usu",
        -10.385934885630103
      ],
      [
        "imiz",
        -9.90089511780582
      ],
      [
        "▁paketin",
        -11.045341791216481
      ],
      [
        "ade",
        -9.068565073948998
      ],
      [
        "▁cozme",
        -9.56590897250245
      ],
      [
        "▁zamanla",
        -9.438102275553764
      ],
      [
        "▁dc",
        -7.502494331779321
      ],
      [
        "ayan",
        -7.2756813833180125
      ],
      [
        "▁gelir",
        -7.309942872070033
      ],
      [
        "▁kuvvetin",
        -10.820640442105509
      ],
      [
        "▁kutlama",
        -10.46432041640109
      ],
      [
        "ris",
        -8.987724507043827
      ],
      [
        "cinin",
        -9.79672060841559
      ],
      [
        "▁agres",
        -9.319321390374053
      ],
      [
        "▁grup",
        -8.469699988692872
      ],
      [
        "▁kaynakları",
        -10.111088710152352
      ],
      [
        "▁sorusunu",
        -11.11611050901444
      ],
      [
        "jik",
        -8.46688497866116
      ],
      [
        "▁bilgisini",
        -10.842941843806825
      ],
      [
        "▁tam",
        -6.196690295557846
      ],
      [
        "▁dus",
        -6.205217174489008
      ],
      [
        "▁kere",
        -7.9763028640043325
      ],
      [
        "▁sevda",
        -9.762684806418726
      ],
      [
        "▁temin",
        -9.932885039024049
      ],
      [
        "▁systems",
        -7.670663312767045
      ],
      [
        "▁piyasalarını",
        -10.797786836045637
      ],
      [
        "▁a.",
        -9.586618218397822
      ],
      [
        "anan",
        -7.995654658330354
      ],
      [
        "▁chp",
        -10.252254747749642
      ],
      [
        "▁fiyatlar",
        -9.097756635488963
      ],
      [
        "▁yapılacak",
        -8.006119323152062
      ],
      [
        "▁harcadı",
        -9.319076733266572
      ],
      [
        "▁tazminatı",
        -10.8627185649346
      ],
      [
        "▁13",
        -6.181566688398235
      ],
      [
        "▁uyelerini",
        -9.940280189192555
      ],
      [
        "▁rakamlar",
        -9.035043453673476
      ],
      [
        "▁ogrencisi",
        -10.749917312297253
      ],
      [
        "▁isten",
        -9.416629308255969
      ],
      [
        "▁onayı",
        -10.720156891096854
      ],
      [
        "▁agız",
        -8.965560320853788
      ],
      [
        "▁tabiat",
        -9.739882117598707
      ],
      [
        "nde",
        -7.954801055741926
      ],
      [
        "▁ve",
        -2.837416967995196
      ],
      [
        "▁muhalif",
        -10.435667305279415
      ],
      [
        "tur",
        -10.103164696243192
      ],
      [
        "▁yemekte",
        -9.832355001362705
      ],
      [
        "▁adet",
        -7.741431573981856
      ],
      [
        "▁idare",
        -8.423555503611226
      ],
      [
        "▁gecme",
        -9.225573386754402
      ],
      [
        "▁be",
        -8.504947737710792
      ],
      [
        "per",
        -8.901758091684512
      ],
      [
        "▁ongorulerin",
        -11.006589083717515
      ],
      [
        "▁kullanıldı",
        -9.730120879160328
      ],
      [
        "▁bilinc",
        -9.060242077019385
      ],
      [
        "▁sabahlar",
        -8.336444228612429
      ],
      [
        "▁arkadasını",
        -9.738892518283802
      ],
      [
        "▁emanet",
        -10.732076589144874
      ],
      [
        "▁zevkim",
        -11.027846189681487
      ],
      [
        "▁zamanda",
        -7.80118567632804
      ],
      [
        "▁parkta",
        -9.969840241434223
      ],
      [
        "▁forma",
        -11.098720336594045
      ],
      [
        "▁yatırım",
        -7.518755627130203
      ],
      [
        "▁gelecegin",
        -10.801940739936567
      ],
      [
        "nlerde",
        -8.912275575803731
      ],
      [
        "ligimi",
        -9.485678035655123
      ],
      [
        "▁endise",
        -8.932041596664273
      ],
      [
        "c",
        -8.29853374149642
      ],
      [
        "▁hastaney",
        -10.56199871921684
      ],
      [
        "▁maruz",
        -11.098749068421416
      ],
      [
        "▁dısın",
        -9.592563375233459
      ],
      [
        "▁sahibi",
        -7.909024547622053
      ],
      [
        "▁boylu",
        -8.000496396541944
      ],
      [
        "▁ler",
        -7.3847730793254
      ],
      [
        "▁gercek",
        -9.363570225083055
      ],
      [
        "clı",
        -9.085286924227976
      ],
      [
        "▁vazo",
        -10.464225757157955
      ],
      [
        "▁kepce",
        -11.098742953610554
      ],
      [
        "▁yı",
        -6.932780921650514
      ],
      [
        "▁kral",
        -9.115169421966442
      ],
      [
        "▁sıkıntıları",
        -10.646638049929436
      ],
      [
        "▁resm",
        -11.051738933113754
      ],
      [
        "▁almanya'da",
        -8.090421037547184
      ],
      [
        "ha",
        -10.625569920054614
      ],
      [
        "amul",
        -10.733057541156597
      ],
      [
        "▁co",
        -6.843950054630211
      ],
      [
        "▁kısaltması",
        -10.734275342591568
      ],
      [
        "▁ikili",
        -9.58151124521824
      ],
      [
        "▁komisyonlar",
        -9.428232712347498
      ],
      [
        "$",
        -7.511459065044036
      ],
      [
        "aksız",
        -9.030210291030311
      ],
      [
        "▁diren",
        -9.626951840529681
      ],
      [
        "▁sultan",
        -8.229505126261504
      ],
      [
        "▁ara",
        -8.846238200314849
      ],
      [
        "▁goren",
        -8.120628947105864
      ],
      [
        "▁t",
        -8.638184797130211
      ],
      [
        "▁uyandı",
        -8.920015660465532
      ],
      [
        "▁ihtiyat",
        -8.890414082579861
      ],
      [
        "▁getirdi",
        -7.621671188713251
      ],
      [
        "▁yaklasımı",
        -9.537373900932492
      ],
      [
        "▁yarar",
        -8.314234146588847
      ],
      [
        "▁istifa",
        -8.528118272731039
      ],
      [
        "▁intel",
        -8.8213689548277
      ],
      [
        "▁kat",
        -8.655699677769428
      ],
      [
        "▁teshis",
        -10.613852030113566
      ],
      [
        "▁canavar",
        -10.82501250635201
      ],
      [
        "▁kopekler",
        -10.246971648727492
      ],
      [
        "▁bono",
        -10.209357016491664
      ],
      [
        "▁otomobil",
        -8.17878283281383
      ],
      [
        "lan",
        -7.373043220940611
      ],
      [
        "digim",
        -8.57051940562395
      ],
      [
        "▁ırk",
        -11.057459306154819
      ],
      [
        "tıgı",
        -8.981453279791992
      ],
      [
        "lerce",
        -9.25423037116856
      ],
      [
        "▁santimetre",
        -10.58921911501698
      ],
      [
        "▁karmakarıs",
        -9.209400655508214
      ],
      [
        "▁eskisi",
        -11.052327087093516
      ],
      [
        "▁sasırt",
        -8.50632684415974
      ],
      [
        "▁bagımlı",
        -8.906296782251912
      ],
      [
        "▁konusu",
        -9.026017798488926
      ],
      [
        "▁kazancı",
        -9.20891291890275
      ],
      [
        "▁vak",
        -10.230688387591318
      ],
      [
        "▁il",
        -9.324437364175601
      ],
      [
        "▁tasarrufu",
        -10.523504580295171
      ],
      [
        "▁demet",
        -10.23261449812859
      ],
      [
        "san",
        -8.305207098842889
      ],
      [
        "▁oturma",
        -9.085942399911723
      ],
      [
        "▁fırca",
        -9.742656788349748
      ],
      [
        "▁altın",
        -7.628482634274401
      ],
      [
        "▁yunan",
        -10.902282818919067
      ],
      [
        "iyoruz",
        -8.268856497535582
      ],
      [
        "▁aksi",
        -10.474061779105288
      ],
      [
        "▁d",
        -7.942087646240644
      ],
      [
        "▁kocasını",
        -9.641347009861274
      ],
      [
        "▁uyku",
        -9.058062703305339
      ],
      [
        "▁mısır",
        -9.399224270178957
      ],
      [
        "▁fa",
        -7.966340352899653
      ],
      [
        "▁yonel",
        -9.289771432055584
      ],
      [
        "▁gunesi",
        -9.962724718758016
      ],
      [
        "▁koyluler",
        -10.115720858698971
      ],
      [
        "▁",
        -3.32808512111051
      ],
      [
        "▁kalmadi",
        -6.633773193612514
      ],
      [
        "▁madalya",
        -10.8987646229188
      ],
      [
        "ormusc",
        -9.771084002896409
      ],
      [
        "▁dost",
        -9.629356000272741
      ],
      [
        "▁bizi",
        -9.717328185842103
      ],
      [
        "▁hulya",
        -7.7047836763041735
      ],
      [
        "▁gec",
        -7.89093591982159
      ],
      [
        "▁sulu",
        -9.59354744903412
      ],
      [
        "▁soyley",
        -9.65972151888881
      ],
      [
        "▁milletin",
        -9.791212081978633
      ],
      [
        "▁devri",
        -9.233767744026363
      ],
      [
        "▁akımı",
        -10.553666752664997
      ],
      [
        "▁kaldırı",
        -9.609631390955863
      ],
      [
        "up",
        -8.727688941955034
      ],
      [
        "▁sipahi",
        -10.898742890565812
      ],
      [
        "▁fransa",
        -7.751101815802763
      ],
      [
        "▁sev",
        -10.64224099818561
      ],
      [
        "▁eksi",
        -9.529987339581917
      ],
      [
        "▁jaguar",
        -8.186284359692328
      ],
      [
        "▁actı",
        -6.9413210279105195
      ],
      [
        "▁et",
        -8.146792872748023
      ],
      [
        "▁nerde",
        -9.520186705689845
      ],
      [
        "▁hınc",
        -10.732527729705126
      ],
      [
        "▁sattıgın",
        -10.934936026070394
      ],
      [
        "▁gozun",
        -9.704170081466222
      ],
      [
        "▁yerlesti",
        -8.866308720054626
      ],
      [
        "g",
        -7.643914206678526
      ],
      [
        "▁kotusu",
        -11.084187613966645
      ],
      [
        "▁pusu",
        -11.119069857562126
      ],
      [
        "▁mis",
        -10.53041986379491
      ],
      [
        "▁gectik",
        -8.963340520692784
      ],
      [
        "▁birbirimizi",
        -7.931464907644399
      ],
      [
        "▁veto",
        -9.1548598924761
      ],
      [
        "▁kenarın",
        -9.825053996628831
      ],
      [
        "▁calis",
        -9.642536049055963
      ],
      [
        "▁otura",
        -9.08654128486085
      ],
      [
        "w",
        -10.561340443143328
      ],
      [
        "▁nezaret",
        -10.575944354478303
      ],
      [
        "▁taht",
        -10.853264556999918
      ],
      [
        "▁cıkmıyor",
        -9.412431041284883
      ],
      [
        "▁22",
        -6.204600493789114
      ],
      [
        "▁askerleri",
        -10.575134272803936
      ],
      [
        "▁vurgu",
        -10.512408074888409
      ],
      [
        "▁urunu",
        -9.707657683115567
      ],
      [
        "▁rota",
        -9.457555440197707
      ],
      [
        "▁projeler",
        -10.230876819694574
      ],
      [
        "25000",
        -8.327069118263115
      ],
      [
        "▁onar",
        -9.43187039272555
      ],
      [
        "▁dusurdu",
        -8.671693278906229
      ],
      [
        "▁cabası",
        -10.028740216272837
      ],
      [
        "▁burjuvazi",
        -11.098749294455878
      ],
      [
        "▁durdu",
        -7.579611738729993
      ],
      [
        "▁vasiyet",
        -11.098747002951919
      ],
      [
        "▁yunus",
        -8.632586025158453
      ],
      [
        "▁yıldır",
        -10.622480022256882
      ],
      [
        "▁milliyetcilik",
        -11.101594588211864
      ],
      [
        "▁par",
        -9.737743630036624
      ],
      [
        "▁kapatıldı",
        -9.698914471142396
      ],
      [
        "asıydı",
        -9.699682207390698
      ],
      [
        "ıyorsun",
        -9.346976176035325
      ],
      [
        "\"",
        -3.8868225721526475
      ],
      [
        "yabilir",
        -9.375749882813272
      ],
      [
        "ies",
        -8.399704109704357
      ],
      [
        "▁diken",
        -9.974670860349045
      ],
      [
        "▁sayısını",
        -9.386750593301274
      ],
      [
        "▁ceyrek",
        -9.037191050405026
      ],
      [
        "▁belirtiyor",
        -8.720424871989112
      ],
      [
        "▁faydası",
        -10.075231365751545
      ],
      [
        "tu",
        -4.465248438584364
      ],
      [
        "▁ak",
        -8.205481051836538
      ],
      [
        "etle",
        -8.613674263760398
      ],
      [
        "▁sonucun",
        -9.93989496186535
      ],
      [
        "▁sus",
        -9.133398331875254
      ],
      [
        "▁ulkelerin",
        -10.267573265628137
      ],
      [
        "▁apartmanı",
        -10.425702472073112
      ],
      [
        "ler",
        -10.22857317404263
      ],
      [
        "▁etkilendi",
        -9.491099766002414
      ],
      [
        "▁dedikleri",
        -10.852359665144068
      ],
      [
        "▁isim",
        -8.666892796647177
      ],
      [
        "▁yasamı",
        -9.690108646886696
      ],
      [
        "▁hatalar",
        -10.875992713788177
      ],
      [
        "▁elestiriler",
        -10.788081794908853
      ],
      [
        "▁baslay",
        -8.40026921577704
      ],
      [
        "▁icinde",
        -6.7321078423567275
      ],
      [
        "▁buyuyu",
        -9.83445214663215
      ],
      [
        "▁parla",
        -7.872920519380257
      ],
      [
        "▁tahminler",
        -10.046301561839586
      ],
      [
        "▁derecede",
        -8.967785415525888
      ],
      [
        "▁detroit'",
        -7.969483508508505
      ],
      [
        "▁goster",
        -8.718733337352766
      ],
      [
        "▁an",
        -9.464907472976373
      ],
      [
        "▁alacak",
        -9.284497420083515
      ],
      [
        "▁durumda",
        -7.888652556582536
      ],
      [
        "▁getire",
        -9.407267255718502
      ],
      [
        "▁parkı'n",
        -10.907554912062636
      ],
      [
        "▁2.",
        -6.760491276534013
      ],
      [
        "▁sorgu",
        -10.89874340832661
      ],
      [
        "▁bir",
        -3.027951570239419
      ],
      [
        "▁gorevini",
        -9.61358267979555
      ],
      [
        "▁cam",
        -8.760298441673086
      ],
      [
        "▁elbiseler",
        -10.994281372322643
      ],
      [
        "▁birinde",
        -9.568832324950316
      ],
      [
        "ib",
        -8.443565151977818
      ],
      [
        "▁seda",
        -8.299919363893439
      ],
      [
        "▁kesfi",
        -11.02263868133872
      ],
      [
        "▁patron",
        -11.061112149391029
      ],
      [
        "▁hanımefendi",
        -10.464322710748451
      ],
      [
        "▁indiana",
        -9.030694849503428
      ],
      [
        "sıyla",
        -8.731112190501165
      ],
      [
        "▁celal",
        -8.85521515518247
      ],
      [
        "▁gecirme",
        -10.611192468503345
      ],
      [
        "▁oya",
        -10.621595433046744
      ],
      [
        "▁am",
        -10.510233426277454
      ],
      [
        "▁mar",
        -10.206445827833372
      ],
      [
        "▁hınzır",
        -11.098742889451
      ],
      [
        "▁yayın",
        -8.974456429133053
      ],
      [
        "▁olmadıgını",
        -8.282435846921878
      ],
      [
        "biri",
        -7.79502783188336
      ],
      [
        "▁maasım",
        -10.964394696031565
      ],
      [
        "▁garsonlar",
        -9.540458596918626
      ],
      [
        "▁ontario",
        -8.369503744745877
      ],
      [
        "▁arazisini",
        -11.115936677138023
      ],
      [
        "▁emekli",
        -9.592798869852484
      ],
      [
        "▁yanları",
        -10.522193867148882
      ],
      [
        "▁kalk",
        -8.560142168543232
      ],
      [
        "▁gam",
        -10.362762350488389
      ],
      [
        "▁minare",
        -11.123528388589932
      ],
      [
        "▁isletmeleri",
        -10.54206653583448
      ],
      [
        "lestirmek",
        -11.03481501538597
      ],
      [
        "▁deger",
        -8.564624529595992
      ],
      [
        "▁paya",
        -10.687768704182616
      ],
      [
        "▁kazanı",
        -9.5080149172477
      ],
      [
        "▁brit",
        -8.283373850844672
      ],
      [
        "▁oz",
        -9.227132913011712
      ],
      [
        "▁ayagını",
        -10.138884791196077
      ],
      [
        "▁uretimini",
        -10.200393650847337
      ],
      [
        "▁vardı",
        -5.54610370128905
      ],
      [
        "▁tonu",
        -10.536314757766572
      ],
      [
        "▁inc",
        -6.94299459218671
      ],
      [
        "▁reisi",
        -10.589836277207615
      ],
      [
        "▁m.",
        -8.846743278515351
      ],
      [
        "▁do",
        -9.097112750827211
      ],
      [
        "▁konaklama",
        -10.253595021381306
      ],
      [
        "▁arkadasları",
        -9.307061001268462
      ],
      [
        "▁hissesini",
        -9.72032829947246
      ],
      [
        "▁uza",
        -9.162539034691415
      ],
      [
        "▁mel",
        -10.716537683089202
      ],
      [
        "gı",
        -9.946781938701653
      ],
      [
        "▁sov",
        -10.6383159124639
      ],
      [
        "▁cocuk",
        -6.8794027433163105
      ],
      [
        "▁birisin",
        -9.383804122191346
      ],
      [
        "▁lot",
        -10.89989098056692
      ],
      [
        "▁ol",
        -7.203947071675927
      ],
      [
        "▁deniz",
        -6.70524179794094
      ],
      [
        "▁gecmisi",
        -9.967245547496148
      ],
      [
        "kler",
        -10.187876016547074
      ],
      [
        "▁konfor",
        -8.84208169442549
      ],
      [
        "▁bilgiler",
        -9.632287491027398
      ],
      [
        "▁ayrım",
        -9.942386036684844
      ],
      [
        "▁icimde",
        -9.224744294482278
      ],
      [
        "ku",
        -6.898800660323433
      ],
      [
        "▁icten",
        -9.830572817462176
      ],
      [
        "▁kendim",
        -6.106222814598596
      ],
      [
        "ır",
        -10.179962567137554
      ],
      [
        "▁kes",
        -8.051379784091225
      ],
      [
        "▁gu",
        -9.389435927864975
      ],
      [
        "▁yaklasimi",
        -8.855958790875853
      ],
      [
        "▁diz",
        -9.29445976817098
      ],
      [
        "iz",
        -6.722998754508661
      ],
      [
        "yumlu",
        -9.564004855557046
      ],
      [
        "▁muhte",
        -7.212527407828398
      ],
      [
        "un",
        -6.959468783522774
      ],
      [
        "▁secimleri",
        -10.853343808471951
      ],
      [
        "▁akord",
        -11.098764053693774
      ],
      [
        "▁navlun",
        -10.898746318876348
      ],
      [
        "▁balıgı",
        -10.470483173362414
      ],
      [
        "▁yalnızlıgın",
        -10.929885387750142
      ],
      [
        "▁sayı",
        -8.126817784406171
      ],
      [
        "▁hindistan'ı",
        -8.792061938177595
      ],
      [
        "▁serveti",
        -10.994958661931163
      ],
      [
        "▁kurbanları",
        -10.943212992745483
      ],
      [
        "▁bilgi",
        -6.831415312564064
      ],
      [
        "▁olursun",
        -9.578499954510479
      ],
      [
        "▁muharebesi",
        -11.117034641994394
      ],
      [
        "▁rusya",
        -8.83430579041078
      ],
      [
        "▁urun",
        -8.644710277780987
      ],
      [
        "▁neleri",
        -8.946197062173514
      ],
      [
        "▁vatandaslar",
        -10.91386254123613
      ],
      [
        "▁ı",
        -10.533051955198639
      ],
      [
        "▁lise",
        -9.824642063312579
      ],
      [
        "▁olcek",
        -10.35313702760885
      ],
      [
        "▁yurut",
        -9.617431711640778
      ],
      [
        "▁edecegi",
        -9.547637669663366
      ],
      [
        "▁yapılıyor",
        -8.549909068387386
      ],
      [
        "▁tat",
        -9.436490900334562
      ],
      [
        "▁''",
        -11.101580700003277
      ],
      [
        "▁ber",
        -11.036955285580587
      ],
      [
        "▁kostum",
        -11.09874355002621
      ],
      [
        "ıcı",
        -7.088788865289696
      ],
      [
        "▁promosyon",
        -10.89075748638953
      ],
      [
        "▁yere",
        -7.454006725599362
      ],
      [
        "▁penceresinde",
        -10.168403980735542
      ],
      [
        "▁yapıs",
        -11.081193885065657
      ],
      [
        "▁benzi",
        -10.979450402093539
      ],
      [
        "▁cek",
        -9.742300102151553
      ],
      [
        "ir",
        -7.963442746892628
      ],
      [
        "▁nam",
        -10.06587209515886
      ],
      [
        "▁biletini",
        -11.031296119277378
      ],
      [
        "▁dogum",
        -9.094760098966752
      ],
      [
        "daydi",
        -9.014998328478189
      ],
      [
        "▁inis",
        -9.587582958624038
      ],
      [
        "▁hazır",
        -7.176515987374993
      ],
      [
        "▁kar",
        -7.353539709923221
      ],
      [
        "▁esegin",
        -11.119458478858665
      ],
      [
        "▁dı",
        -3.685551159034305
      ],
      [
        "▁vucud",
        -10.452474918592008
      ],
      [
        "iy",
        -7.061574036687148
      ],
      [
        "inden",
        -7.522794581388022
      ],
      [
        "ildigini",
        -11.082865311729602
      ],
      [
        "75",
        -6.51104329968174
      ],
      [
        "▁tukenme",
        -11.098804648883931
      ],
      [
        "▁olum",
        -7.852817688776028
      ],
      [
        "▁etmeli",
        -9.010731004495986
      ],
      [
        "▁ruh",
        -9.22412663046001
      ],
      [
        "▁elin",
        -8.74583840893159
      ],
      [
        "▁aldi",
        -8.695754098917877
      ],
      [
        "▁philadelphia'",
        -5.795188323964599
      ],
      [
        "▁aslın",
        -10.2096156738221
      ],
      [
        "▁birimin",
        -10.679070333595817
      ],
      [
        "▁soganı",
        -10.788583084841806
      ],
      [
        "▁odada",
        -8.522400856607941
      ],
      [
        "▁yil",
        -8.673921592207703
      ],
      [
        "cilerin",
        -10.246421374611286
      ],
      [
        "▁gecer",
        -8.09425848051185
      ],
      [
        "▁ilgisi",
        -8.374171339832092
      ],
      [
        "▁dalgal",
        -8.999793482951395
      ],
      [
        "▁yapılmıs",
        -8.707177884306326
      ],
      [
        "▁kabak",
        -10.934923436373662
      ],
      [
        "▁oteki",
        -9.692115125740024
      ],
      [
        "▁kong",
        -8.207051402981307
      ],
      [
        "▁bura",
        -9.767273858433786
      ],
      [
        "▁cevre",
        -8.776037273577481
      ],
      [
        "▁ayında",
        -7.567031729338884
      ],
      [
        "▁piyaz",
        -10.899350894123629
      ],
      [
        "▁cozul",
        -9.543711832111436
      ],
      [
        "▁anlamını",
        -10.651884164187003
      ],
      [
        "▁palas",
        -10.678832506780378
      ],
      [
        "▁cagın",
        -9.917386437588203
      ],
      [
        "▁",
        -1.6692032132785002
      ],
      [
        "▁yanı",
        -9.831820816877356
      ],
      [
        "▁isvicre",
        -8.758524073871659
      ],
      [
        "▁sabun",
        -10.253114047558343
      ],
      [
        "sana",
        -9.759631630461799
      ],
      [
        "▁onunu",
        -10.490444501281063
      ],
      [
        "▁irak",
        -7.4470760111475
      ],
      [
        "▁kurtul",
        -9.176810536554715
      ],
      [
        "▁toplum",
        -8.897090138550798
      ],
      [
        "ece",
        -9.585457965908635
      ],
      [
        "▁gomlegi",
        -10.568972165136342
      ],
      [
        "▁fabrikası",
        -10.052221610858375
      ],
      [
        "▁hakların",
        -10.660240859829722
      ],
      [
        "▁on",
        -9.987844754457068
      ],
      [
        "▁cu",
        -10.55762916023289
      ],
      [
        "▁vaktim",
        -10.348324730367548
      ],
      [
        "i",
        -5.2328065987611625
      ],
      [
        "yonlu",
        -8.780767043391974
      ],
      [
        "▁damga",
        -10.151781149759566
      ],
      [
        "an",
        -7.668036448599423
      ],
      [
        "▁ekmegi",
        -9.806927998173146
      ],
      [
        "▁mey",
        -9.54534491962708
      ],
      [
        "▁acık",
        -7.077738448004128
      ],
      [
        "sıp",
        -9.394632303663434
      ],
      [
        "▁si",
        -11.027007373216842
      ],
      [
        "▁sen",
        -9.029535301472604
      ],
      [
        "▁biraz",
        -4.687763168436832
      ],
      [
        "▁kullanır",
        -9.397326702326097
      ],
      [
        "▁mani",
        -9.636022128964651
      ],
      [
        "▁peri",
        -9.216963593152531
      ],
      [
        "▁pittsburgh",
        -6.351771316570848
      ],
      [
        "▁isterdi",
        -8.943809056901834
      ],
      [
        "▁aid",
        -10.930612657067117
      ],
      [
        "▁kapa",
        -9.309809237213507
      ],
      [
        "▁11",
        -5.819399660742911
      ],
      [
        "▁t",
        -8.138255665395553
      ],
      [
        "▁pe",
        -11.108101026207837
      ],
      [
        "▁dokmek",
        -10.761039626257574
      ],
      [
        "▁kemiklerin",
        -10.65898579483775
      ],
      [
        "▁gelismeler",
        -10.2822679081231
      ],
      [
        "▁amerika'da",
        -8.238249559532939
      ],
      [
        "▁cem",
        -10.973887458162707
      ],
      [
        "▁sonun",
        -9.41473020860436
      ],
      [
        "▁sun",
        -8.207218560870785
      ],
      [
        "sizin",
        -10.612049296442393
      ],
      [
        "orik",
        -9.243855153599194
      ],
      [
        "▁gunlerde",
        -8.573827335452698
      ],
      [
        "▁mcb",
        -11.098756905470669
      ],
      [
        "▁dakika",
        -7.828875819852936
      ],
      [
        "▁teklifin",
        -9.75356990741491
      ],
      [
        "▁mars",
        -10.29559044397055
      ],
      [
        "▁bilegi",
        -10.515290550684696
      ],
      [
        "▁acılan",
        -9.535568424634164
      ],
      [
        "▁satırları",
        -10.912804638522568
      ],
      [
        "▁amiri",
        -10.923600520839708
      ],
      [
        "▁art",
        -9.38050047955288
      ],
      [
        "▁cete",
        -10.611783552076867
      ],
      [
        "▁veren",
        -10.700047353093343
      ],
      [
        "▁soya",
        -10.208961419689395
      ],
      [
        "▁california'da",
        -8.308713773943015
      ],
      [
        "▁degisme",
        -8.163684177018718
      ],
      [
        "▁etini",
        -11.017213286972215
      ],
      [
        "▁oncelik",
        -10.14310423234795
      ],
      [
        "▁hardal",
        -10.464437432989381
      ],
      [
        "▁seyleri",
        -8.951357121873409
      ],
      [
        "▁dugme",
        -10.567508377269284
      ],
      [
        "p",
        -10.485673599386624
      ],
      [
        "tip",
        -9.110553510907302
      ],
      [
        "▁8.3",
        -8.326364006999562
      ],
      [
        "▁sıkma",
        -10.564503481829563
      ],
      [
        "nacak",
        -9.608031231628273
      ],
      [
        "▁ogrencileri",
        -10.796644039713021
      ],
      [
        "▁espri",
        -10.685581693563867
      ],
      [
        "▁yetkililerin",
        -9.80475086596788
      ],
      [
        "▁dusurmek",
        -10.474604323749608
      ],
      [
        "yalı",
        -9.274321397052699
      ],
      [
        "▁inanı",
        -9.403603416738214
      ],
      [
        "▁hakimi",
        -10.780261139755797
      ],
      [
        "sa",
        -8.905057905060543
      ],
      [
        "▁prenses",
        -10.14207941765219
      ],
      [
        "▁tu",
        -8.68539715301634
      ],
      [
        "▁sirk",
        -10.734322840995361
      ],
      [
        "▁sessizligi",
        -10.959399578177674
      ],
      [
        "urekli",
        -6.170784925687602
      ],
      [
        "▁ait",
        -5.924503288156106
      ],
      [
        "▁bili",
        -9.621976409581567
      ],
      [
        "▁kimlik",
        -9.862549492648478
      ],
      [
        "lli",
        -10.70892820952088
      ],
      [
        "nı",
        -6.810304340731507
      ],
      [
        "▁kusagı",
        -10.085346265827924
      ],
      [
        "▁geliri",
        -8.936577540923736
      ],
      [
        "▁calı",
        -9.58729006412696
      ],
      [
        "▁insan",
        -9.49832564530935
      ],
      [
        "▁ir",
        -10.356314412689462
      ],
      [
        "▁almıyor",
        -9.472631827167495
      ],
      [
        "▁temsilciler",
        -10.880544306382031
      ],
      [
        "▁kacak",
        -9.448739205296667
      ],
      [
        "unları",
        -8.274387771946522
      ],
      [
        "▁odenek",
        -10.391178559728566
      ],
      [
        "▁kapsam",
        -8.331701078668564
      ],
      [
        "lıkları",
        -10.466068654845891
      ],
      [
        "leti",
        -10.990453602847092
      ],
      [
        "▁sigorta",
        -8.367598497618655
      ],
      [
        "▁kırk",
        -6.011931561604349
      ],
      [
        "▁yapılması",
        -9.42421129259234
      ],
      [
        "▁toz",
        -8.929842664505419
      ],
      [
        "ko",
        -10.213094832072908
      ],
      [
        "▁guzeli",
        -9.6915110280646
      ],
      [
        "▁oksadı",
        -9.677755026685741
      ],
      [
        "▁ikisini",
        -9.975539833596855
      ],
      [
        "▁temizlik",
        -7.4921790489062445
      ],
      [
        "▁herkes",
        -8.179842702358489
      ],
      [
        "▁kazanıyor",
        -8.689062561687013
      ],
      [
        "▁satıl",
        -9.595613147708658
      ],
      [
        "▁gostergeleri",
        -10.037045146866362
      ],
      [
        "2.5",
        -7.325956578116923
      ],
      [
        "▁ogretmenler",
        -10.686755815942021
      ],
      [
        "▁bulteni",
        -11.098878047178744
      ],
      [
        "mustu",
        -7.916902284117844
      ],
      [
        "muzun",
        -10.157243775142055
      ],
      [
        "liydi",
        -6.2322858940315955
      ],
      [
        "▁olasılıkla",
        -10.463569345501545
      ],
      [
        "▁tecrube",
        -10.48152273175597
      ],
      [
        "▁agac",
        -8.605180669019786
      ],
      [
        "▁kars",
        -10.805902516944887
      ],
      [
        "▁is",
        -6.739784994148765
      ],
      [
        "▁daya",
        -7.9449521610679685
      ],
      [
        "▁nufusu",
        -10.358653646177975
      ],
      [
        "▁onerdi",
        -9.311765400720386
      ],
      [
        "▁du",
        -8.655167188486178
      ],
      [
        "▁goruyordu",
        -8.760710698775231
      ],
      [
        "▁nazar",
        -10.253388012155668
      ],
      [
        "▁on",
        -4.304254523933001
      ],
      [
        "▁ust",
        -7.1185545875493945
      ],
      [
        "▁bulmaya",
        -9.622419372520845
      ],
      [
        "du",
        -6.548127996053303
      ],
      [
        "▁iddiaların",
        -10.669658562152003
      ],
      [
        "▁azalma",
        -10.088058214428354
      ],
      [
        "▁hangi",
        -5.189675037624199
      ],
      [
        "▁olmayacak",
        -8.22128331062061
      ],
      [
        "▁sohbet",
        -9.123331894156067
      ],
      [
        "▁can",
        -9.071994751187889
      ],
      [
        "gele",
        -9.366155567425386
      ],
      [
        "▁celme",
        -10.754967784079465
      ],
      [
        "▁etmisler",
        -9.180847553165817
      ],
      [
        "ken",
        -9.06272365642767
      ],
      [
        "▁atar",
        -8.581349882268539
      ],
      [
        "▁yana",
        -9.53091995600613
      ],
      [
        "▁bayag",
        -8.055283607379746
      ],
      [
        "▁kupeler",
        -10.9797468600104
      ],
      [
        "▁havalimanların",
        -10.078866320678433
      ],
      [
        "▁hocamız",
        -10.745009847137716
      ],
      [
        "▁co",
        -7.606645075847941
      ],
      [
        "▁madd",
        -8.794122163868858
      ],
      [
        "▁7.",
        -8.257306022793935
      ],
      [
        "▁ilgililer",
        -8.096878259407305
      ],
      [
        "yo",
        -9.250274552836736
      ],
      [
        "▁gonlumu",
        -10.600581227891018
      ],
      [
        "▁cuma",
        -6.531198751131021
      ],
      [
        "▁keser",
        -9.349493481827613
      ],
      [
        "▁arzı",
        -10.703766352240864
      ],
      [
        "▁umutlarını",
        -10.758921789071604
      ],
      [
        "▁fay",
        -11.082957691337553
      ],
      [
        "▁sonucu",
        -8.767523024433608
      ],
      [
        "▁atladı",
        -8.869006159879502
      ],
      [
        "▁olacagın",
        -9.359063771038887
      ],
      [
        "▁frank",
        -10.589220633642006
      ],
      [
        "v",
        -9.613429875983593
      ],
      [
        "▁umum",
        -9.045380790119365
      ],
      [
        "▁tuttu",
        -7.713696386582986
      ],
      [
        "▁musamba",
        -10.899367456512978
      ],
      [
        "▁prensi",
        -11.006145461559326
      ],
      [
        "▁sayı",
        -9.762587455865155
      ],
      [
        "▁misafirler",
        -10.186021084394536
      ],
      [
        "m",
        -3.7415001008522433
      ],
      [
        "▁benziyor",
        -8.176782275615567
      ],
      [
        "▁yagmurl",
        -9.42212202248171
      ],
      [
        "▁artısları",
        -10.886757968699243
      ],
      [
        "▁komisyonu'n",
        -10.712049169666514
      ],
      [
        "ın",
        -8.827495032886455
      ],
      [
        "▁99",
        -7.831898435775848
      ],
      [
        "mizi",
        -8.36201927224338
      ],
      [
        "▁kisi",
        -7.406179170664951
      ],
      [
        "▁yaptıkları",
        -10.049472783110986
      ],
      [
        "▁maden",
        -9.72252379257881
      ],
      [
        "aylı",
        -9.203575726787548
      ],
      [
        "▁kardesim",
        -9.109049374285336
      ],
      [
        "bel",
        -9.24844972659115
      ],
      [
        "ik",
        -8.366847916826464
      ],
      [
        "itre",
        -10.58871673560031
      ],
      [
        "▁karakter",
        -9.923916551337879
      ],
      [
        "▁yu",
        -9.263095673843637
      ],
      [
        "▁kay",
        -9.28957849220335
      ],
      [
        "▁cok",
        -10.698233120270494
      ],
      [
        "▁egilim",
        -10.375124437230081
      ],
      [
        "▁olus",
        -9.201370644622749
      ],
      [
        "▁kurumlarını",
        -11.066922882737147
      ],
      [
        "▁osmanlı",
        -10.078865641880173
      ],
      [
        "▁asagıda",
        -9.1129117911151
      ],
      [
        "▁salonun",
        -9.682559821269285
      ],
      [
        "6.6",
        -8.155034829564643
      ],
      [
        "▁goruyor",
        -7.660226223832062
      ],
      [
        "▁kamera",
        -10.253114252203575
      ],
      [
        "▁tu",
        -9.549462152245432
      ],
      [
        "▁varsa",
        -7.646029911750883
      ],
      [
        "▁olmayı",
        -9.006969604222576
      ],
      [
        "▁kongre",
        -8.577890964798142
      ],
      [
        "▁gelecek",
        -7.968610117532005
      ],
      [
        "▁ruzgar",
        -8.570257652015911
      ],
      [
        "▁duruyordu",
        -8.173821807793358
      ],
      [
        "▁kaldır",
        -9.439316654017809
      ],
      [
        "▁hesaplarını",
        -11.05196614767982
      ],
      [
        "▁obek",
        -11.098748035435516
      ],
      [
        "▁sunuyor",
        -8.251587887638681
      ],
      [
        "▁dusuk",
        -10.102096485334677
      ],
      [
        "ayet",
        -5.79797472285833
      ],
      [
        "▁sinirlendi",
        -9.731975707243308
      ],
      [
        "▁duyguları",
        -9.489704940930718
      ],
      [
        "▁ogretmeni",
        -9.649881982813147
      ],
      [
        "▁ameliyat",
        -9.71392586680885
      ],
      [
        "▁edebilir",
        -7.864317669640711
      ],
      [
        "▁gelirse",
        -9.418961114598623
      ],
      [
        "▁temas",
        -9.763463117320374
      ],
      [
        "▁milwaukee'",
        -6.945673137830503
      ],
      [
        "'s",
        -8.46495107981678
      ],
      [
        "▁thomas",
        -9.009420215589374
      ],
      [
        "▁isini",
        -8.719102658037793
      ],
      [
        "▁an",
        -9.238624777718954
      ],
      [
        "▁oncu",
        -10.773950161469202
      ],
      [
        "▁baskasın",
        -8.701544812050635
      ],
      [
        "y",
        -6.026507368091296
      ],
      [
        "▁gaz",
        -8.758558579426497
      ],
      [
        "▁bogum",
        -10.59173901813614
      ],
      [
        "hal",
        -10.989669908978595
      ],
      [
        "▁icra",
        -9.033430446471925
      ],
      [
        "▁bit",
        -9.891804916705311
      ],
      [
        "▁3/",
        -6.233627537946334
      ],
      [
        "ay",
        -8.559546829463308
      ],
      [
        "▁iflah",
        -11.098743232122112
      ],
      [
        "d",
        -10.41573712684167
      ],
      [
        "▁ilk",
        -9.934970907833648
      ],
      [
        "▁el",
        -9.637036638992786
      ],
      [
        "▁diy",
        -8.38270590042967
      ],
      [
        "▁seans",
        -10.079009820010743
      ],
      [
        "▁yuttu",
        -9.702259849295979
      ],
      [
        "utton",
        -8.29976267104842
      ],
      [
        "▁bardak",
        -8.911719473853546
      ],
      [
        "▁olgu",
        -9.525396386854524
      ],
      [
        "▁kazanım",
        -11.026481256374572
      ],
      [
        "▁cam",
        -8.42113710003153
      ],
      [
        "leri",
        -10.590642851872943
      ],
      [
        "▁suyunu",
        -9.207346286477119
      ],
      [
        "ol",
        -9.655690792636404
      ],
      [
        "▁tartısma",
        -9.45706376958626
      ],
      [
        "▁soyleyecek",
        -9.603006939980611
      ],
      [
        "▁ucu",
        -9.637784689538346
      ],
      [
        "▁kaftan",
        -10.733244482162501
      ],
      [
        "lerimizi",
        -9.103308436526053
      ],
      [
        "▁hayal",
        -8.304988405787604
      ],
      [
        "▁neler",
        -6.5615336919270835
      ],
      [
        "▁sıfatı",
        -10.908526708994339
      ],
      [
        "▁geli",
        -6.90804634111799
      ],
      [
        "▁ayarlamalarını",
        -11.102788880440265
      ],
      [
        "▁dur",
        -8.282044598869458
      ],
      [
        "eye",
        -8.445803057601927
      ],
      [
        "7/",
        -8.163225824093868
      ],
      [
        "▁cizgisini",
        -10.75274083344944
      ],
      [
        "kik",
        -10.262463624299553
      ],
      [
        "bili",
        -7.975758866809144
      ],
      [
        "▁acmak",
        -9.636258644950392
      ],
      [
        "▁kuf",
        -10.039587849243127
      ],
      [
        "▁talepleri",
        -10.684143438806696
      ],
      [
        "▁anadolu",
        -7.548407391738422
      ],
      [
        "▁parca",
        -8.18147753628168
      ],
      [
        "▁izni",
        -9.97004748371239
      ],
      [
        "▁yapmaya",
        -8.911463731043746
      ],
      [
        "▁kıyamet",
        -10.353122387070433
      ],
      [
        "▁yargı",
        -9.209375234865785
      ],
      [
        "▁calısmak",
        -10.170988157198195
      ],
      [
        "▁birlik",
        -10.367720596391779
      ],
      [
        "▁saglayacak",
        -8.802167911054688
      ],
      [
        "▁olmaz",
        -7.07632010378245
      ],
      [
        "▁salonunda",
        -10.111279720950602
      ],
      [
        "▁yagı",
        -9.289902802405908
      ],
      [
        "▁tırmandı",
        -9.165830794941106
      ],
      [
        "▁sade",
        -8.413972647884538
      ],
      [
        "▁sura",
        -10.455959198088628
      ],
      [
        "▁sukur",
        -9.93053025323183
      ],
      [
        "▁obur",
        -9.444813319494445
      ],
      [
        "rac",
        -10.679028383101379
      ],
      [
        "▁ilgi",
        -7.401813212947559
      ],
      [
        "▁simdil",
        -9.635198282112885
      ],
      [
        "▁gorevli",
        -10.261218529005458
      ],
      [
        "ı",
        -4.891576374391303
      ],
      [
        "▁hamallar",
        -10.337932189914447
      ],
      [
        "▁onlar",
        -4.15628502075879
      ],
      [
        "zel",
        -8.940642050398328
      ],
      [
        "▁bes",
        -9.204435960769377
      ],
      [
        "▁dil",
        -8.219017972461659
      ],
      [
        "▁dekorasyon",
        -9.4935064033336
      ],
      [
        "▁kırık",
        -10.168453960876912
      ],
      [
        "▁31",
        -5.9613495351198695
      ],
      [
        "▁ismin",
        -10.320757380457858
      ],
      [
        "t",
        -6.625822831814791
      ],
      [
        "▁meslegin",
        -10.814812297743519
      ],
      [
        "▁suda",
        -9.823109260914052
      ],
      [
        "▁pislik",
        -11.098754988026132
      ],
      [
        "▁toreni",
        -9.876375345482296
      ],
      [
        "▁seyre",
        -9.531556805761328
      ],
      [
        "▁bilmedigi",
        -9.560302734290364
      ],
      [
        "larındaki",
        -8.04462031994002
      ],
      [
        "▁degilse",
        -6.117869861012117
      ],
      [
        "gal",
        -10.76990530336873
      ],
      [
        "▁sakız",
        -10.001964412590317
      ],
      [
        "▁kalacak",
        -8.212928893708089
      ],
      [
        "▁sarkıları",
        -10.810128679786551
      ],
      [
        "▁kursun",
        -9.160608816460002
      ],
      [
        "▁olmustu",
        -7.038832542309065
      ],
      [
        "lerdi",
        -7.5038665072839805
      ],
      [
        "▁bakıslar",
        -11.050959612291349
      ],
      [
        "▁cihan",
        -8.4767679218916
      ],
      [
        "▁devre",
        -9.7459903710957
      ],
      [
        "▁savcılık",
        -10.592157772207763
      ],
      [
        "▁alarm",
        -10.900122694798544
      ],
      [
        "▁getirmis",
        -9.404155673012022
      ],
      [
        "ele",
        -12.03594578210268
      ],
      [
        "▁ser",
        -9.028357250296615
      ],
      [
        "rmak",
        -10.311440463766466
      ],
      [
        "▁yargılama",
        -10.739708405391692
      ],
      [
        "▁yapıların",
        -10.76691215673321
      ],
      [
        "▁odası",
        -9.660068847765254
      ],
      [
        "▁chicago'",
        -7.087735294209967
      ],
      [
        "▁oto",
        -9.405303270148218
      ],
      [
        "▁bozgun",
        -10.899086986154954
      ],
      [
        "sik",
        -8.110083134767015
      ],
      [
        "ayıp",
        -9.195504672556654
      ],
      [
        "ya",
        -3.9236136214403894
      ],
      [
        "▁aktar",
        -8.868596283183884
      ],
      [
        "▁opsiyonu",
        -10.304050069439379
      ],
      [
        "▁rakibi",
        -11.04157387779617
      ],
      [
        "▁zor",
        -8.624213414908162
      ],
      [
        "▁k",
        -8.701054755598935
      ],
      [
        "▁v",
        -6.0393683046606
      ],
      [
        "der",
        -10.225754826720408
      ],
      [
        "▁varıyor",
        -8.364550804156496
      ],
      [
        "▁kus",
        -8.392055713554008
      ],
      [
        "▁alımını",
        -10.76920309122413
      ],
      [
        "▁peygamber",
        -10.898742889906668
      ],
      [
        "▁karıstırma",
        -10.596868417988182
      ],
      [
        "▁hızl",
        -7.233125527976824
      ],
      [
        "▁dizayn",
        -10.589221878567
      ],
      [
        "▁mahsulu",
        -10.903767621534877
      ],
      [
        "▁ihti",
        -10.740078938249184
      ],
      [
        "▁olums",
        -9.403841297540968
      ],
      [
        "▁istikrar",
        -9.118258976013259
      ],
      [
        "▁columbus'",
        -7.644761089220504
      ],
      [
        "▁bank",
        -9.555354584722329
      ],
      [
        "m",
        -12.802702672349787
      ],
      [
        "efendi",
        -11.093792660497664
      ],
      [
        "▁elmaslar",
        -10.972646119058737
      ],
      [
        "▁nem",
        -10.603758093267832
      ],
      [
        "ne",
        -8.86858130504411
      ],
      [
        "ı",
        -11.802702672349788
      ],
      [
        "▁universiteler",
        -10.705551137656515
      ],
      [
        "▁anlasıl",
        -9.161455291006117
      ],
      [
        "▁koltugun",
        -9.826061627540216
      ],
      [
        "▁yoklugunda",
        -10.904325677849913
      ],
      [
        "▁eski",
        -9.768657923264284
      ],
      [
        "▁romatizma",
        -10.2531079935413
      ],
      [
        "▁borsası'n",
        -9.241057530235617
      ],
      [
        "▁kilogram",
        -11.098742898217568
      ],
      [
        "▁kimin",
        -7.5530505528743355
      ],
      [
        "▁yasında",
        -9.52905459927674
      ],
      [
        "▁oluyordu",
        -7.896581204520574
      ],
      [
        "▁suphe",
        -9.240340615452583
      ],
      [
        "▁yavas",
        -6.877789976330432
      ],
      [
        "cik",
        -8.648041836038566
      ],
      [
        "▁yatmıs",
        -9.48449736881036
      ],
      [
        "▁dikkatle",
        -10.391083453504613
      ],
      [
        "▁devlet",
        -7.3680553057014775
      ],
      [
        "▁3.6",
        -7.649203214067457
      ],
      [
        "▁ra",
        -6.318499422728735
      ],
      [
        "▁1",
        -3.6394827259864
      ],
      [
        "▁afrika",
        -8.272438011849937
      ],
      [
        "▁hazırladı",
        -9.39549375556386
      ],
      [
        "▁va",
        -10.184850367288222
      ],
      [
        "▁gulumsuyor",
        -9.63837073450845
      ],
      [
        "▁bankası'n",
        -10.604635777596132
      ],
      [
        "▁hizmeti",
        -7.430130356355679
      ],
      [
        "▁pe",
        -8.837012697045974
      ],
      [
        "▁seneler",
        -9.011146938504794
      ],
      [
        "▁guzellik",
        -9.830550217758036
      ],
      [
        "▁agzı",
        -9.30066827094619
      ],
      [
        "endir",
        -8.934297981062999
      ],
      [
        "▁sab",
        -8.981365596116447
      ],
      [
        "▁tarif",
        -9.341224275456618
      ],
      [
        "▁%1",
        -10.566621524453911
      ],
      [
        "▁manda",
        -11.103372230542803
      ],
      [
        "▁yeryuzunu",
        -10.754783250987726
      ],
      [
        "erler",
        -10.995737566408708
      ],
      [
        "▁ru",
        -10.413329443291378
      ],
      [
        "h",
        -8.505265594904927
      ],
      [
        "▁ifti",
        -11.098681886539298
      ],
      [
        "▁su",
        -8.57988357893832
      ],
      [
        "▁calısanları",
        -9.647679735119345
      ],
      [
        "izdi",
        -9.356998967825017
      ],
      [
        "▁nic",
        -9.403305615631284
      ],
      [
        "▁erol",
        -8.551821107218544
      ],
      [
        "▁bolgesin",
        -11.033913136752755
      ],
      [
        "▁verin",
        -7.832036556704688
      ],
      [
        "▁ailesini",
        -9.953762466178485
      ],
      [
        "▁puan",
        -6.03342562087988
      ],
      [
        "▁ardında",
        -8.69301652595008
      ],
      [
        "atle",
        -9.675203266699192
      ],
      [
        "▁kurdu",
        -8.161646741737652
      ],
      [
        "▁baskanlıgında",
        -10.62355851600848
      ],
      [
        "et",
        -6.8936994019445175
      ],
      [
        "▁tehlikeli",
        -8.887407038080452
      ],
      [
        "▁71",
        -8.195740086240166
      ],
      [
        "▁seyre",
        -10.804251652960943
      ],
      [
        "▁1989",
        -5.896581170332743
      ],
      [
        "▁hastalıgın",
        -9.786584014930181
      ],
      [
        "▁balta",
        -9.866371633564299
      ],
      [
        "▁yapımı",
        -10.560154021282381
      ],
      [
        "▁konusmalar",
        -9.754625963795686
      ],
      [
        "▁harcamaları",
        -9.92415621989377
      ],
      [
        "▁ilgili",
        -5.433302855292382
      ],
      [
        "▁bar",
        -8.82175340851035
      ],
      [
        "▁gevse",
        -9.208326245442873
      ],
      [
        "▁tesvik",
        -8.820740230217705
      ],
      [
        "ladı",
        -10.639656751393428
      ],
      [
        "▁kurtulur",
        -9.263741322135958
      ],
      [
        "▁yagmur",
        -8.782928619004645
      ],
      [
        "▁bric",
        -10.898896125747424
      ],
      [
        "▁mektep",
        -9.781528519062144
      ],
      [
        "▁cem",
        -7.684916112293987
      ],
      [
        "▁beni",
        -4.178270586993837
      ],
      [
        "▁otomotiv",
        -10.25310796866164
      ],
      [
        "▁bagrın",
        -11.019511041872686
      ],
      [
        "▁galerisi",
        -11.099516352832476
      ],
      [
        "▁tespit",
        -9.290623793045118
      ],
      [
        "▁nakliye",
        -9.776858434453922
      ],
      [
        "▁piyasalar",
        -9.502651332210348
      ],
      [
        "▁son",
        -5.069177350025439
      ],
      [
        "c",
        -4.853219729400437
      ],
      [
        "▁ayakkabılar",
        -10.393995364406253
      ],
      [
        "▁rumeli",
        -8.572352037210699
      ],
      [
        "▁ceyiz",
        -11.090579722729892
      ],
      [
        "▁carpan",
        -10.46423076197978
      ],
      [
        "▁calısı",
        -9.622754042113563
      ],
      [
        "za",
        -9.772187970564072
      ],
      [
        "▁ister",
        -9.048033437929709
      ],
      [
        "▁bildigi",
        -9.577496643884444
      ],
      [
        "▁oz",
        -9.379689553655563
      ],
      [
        "▁salıncak",
        -10.732110527644963
      ],
      [
        "?",
        -10.89874288934865
      ],
      [
        "▁tabaklar",
        -10.527963410028919
      ],
      [
        "sızı",
        -8.737819875985311
      ],
      [
        "lugunu",
        -9.803604144219522
      ],
      [
        "▁irade",
        -10.18512368179427
      ],
      [
        "▁konusuyorlar",
        -9.540226405670536
      ],
      [
        "▁cukurlar",
        -11.057612974630722
      ],
      [
        "▁hastalıg",
        -11.066998622852543
      ],
      [
        "▁karsi",
        -10.293177742569476
      ],
      [
        "▁bunda",
        -5.599372556045785
      ],
      [
        "▁kahkahalar",
        -10.346245045332553
      ],
      [
        "▁bagırdı",
        -9.097463300351254
      ],
      [
        "▁mahallesinde",
        -11.105005968245655
      ],
      [
        "▁bulguları",
        -10.262303517015582
      ],
      [
        "▁ortaklıgı",
        -10.165426789457113
      ],
      [
        "▁partileri",
        -10.51958822777114
      ],
      [
        "▁tanımla",
        -9.550658344839713
      ],
      [
        "▁toronto",
        -10.589219079965357
      ],
      [
        "▁imkb",
        -9.009368639899556
      ],
      [
        "▁fener",
        -9.90107228872621
      ],
      [
        "▁yılında",
        -7.729614245019449
      ],
      [
        "▁insan",
        -6.761494134160522
      ],
      [
        "z",
        -8.00771259404701
      ],
      [
        "▁dort",
        -10.324653654945028
      ],
      [
        "▁parmagı",
        -10.18285240625967
      ],
      [
        "arası",
        -7.805702185816337
      ],
      [
        "▁yukselisle",
        -9.794456436288662
      ],
      [
        "▁urunlerin",
        -10.020466072901124
      ],
      [
        "▁islevi",
        -10.42494581002377
      ],
      [
        "▁tabakası",
        -10.482464600263611
      ],
      [
        "▁pece",
        -10.464692159142444
      ],
      [
        "▁buzdolabı",
        -10.475013553965526
      ],
      [
        "▁asistanı",
        -11.107138636803885
      ],
      [
        "▁iran",
        -9.03757067994184
      ],
      [
        "▁adımı",
        -10.150789395748207
      ],
      [
        "▁gulusu",
        -11.03971930704314
      ],
      [
        "▁tuketiciler",
        -9.780202392280822
      ],
      [
        "▁sogan",
        -9.314930529515129
      ],
      [
        "▁buz",
        -9.44678153299422
      ],
      [
        "▁olacagı",
        -10.282362103516235
      ],
      [
        "▁biter",
        -9.171816451134601
      ],
      [
        "▁sentte",
        -10.785516821366294
      ],
      [
        "▁cıglıgı",
        -10.834594109075098
      ],
      [
        "▁trajedi",
        -10.589219079960206
      ],
      [
        "▁kedi",
        -8.848594785286302
      ],
      [
        "yı",
        -9.704440776683775
      ],
      [
        "▁rakam",
        -9.681817810865809
      ],
      [
        "▁duzene",
        -10.437271054444267
      ],
      [
        "yle",
        -8.775129653391309
      ],
      [
        "▁manville",
        -8.713760844573859
      ],
      [
        "▁done",
        -8.549931206463363
      ],
      [
        "nı",
        -9.11854805548513
      ],
      [
        "▁devir",
        -9.484384168586754
      ],
      [
        "▁gordugu",
        -9.586659356636885
      ],
      [
        "▁sessizlik",
        -10.259446117982321
      ],
      [
        "▁john",
        -7.546371710635979
      ],
      [
        "▁al",
        -7.464332101553018
      ],
      [
        "▁o",
        -8.095037047559646
      ],
      [
        "▁pesinde",
        -9.304464063317452
      ],
      [
        "uler",
        -8.403777472656197
      ],
      [
        "▁boy",
        -9.048706314442763
      ],
      [
        "▁kopur",
        -9.595270230716824
      ],
      [
        "▁uzerlerin",
        -10.772612221172158
      ],
      [
        "▁resmi",
        -9.911722643451803
      ],
      [
        "▁cana",
        -10.214742526203743
      ],
      [
        "▁anlasmaları",
        -10.589511744730283
      ],
      [
        "▁fas",
        -10.814409699470072
      ],
      [
        "▁teslimat",
        -10.709433333188342
      ],
      [
        "▁fiyatlarını",
        -8.394284554295849
      ],
      [
        "▁namaz",
        -9.627322245727884
      ],
      [
        "ilmek",
        -11.018948755488253
      ],
      [
        "▁asklar",
        -10.964930031748088
      ],
      [
        "▁hızın",
        -10.651395909009766
      ],
      [
        "▁konak",
        -9.98090365436752
      ],
      [
        "▁arkasın",
        -9.504114010968237
      ],
      [
        "▁mantar",
        -10.25310976413509
      ],
      [
        "sen",
        -8.736290184606178
      ],
      [
        "▁donanım",
        -10.389082910365794
      ],
      [
        "▁kucugu",
        -10.898753206360853
      ],
      [
        "▁dir",
        -10.45030029654477
      ],
      [
        "▁yapar",
        -9.14595571019214
      ],
      [
        "▁boyu",
        -8.690324009793352
      ],
      [
        "▁duzine",
        -10.002714209456812
      ],
      [
        "▁hoslan",
        -10.953867610543817
      ],
      [
        "▁yuzum",
        -9.440350614673417
      ],
      [
        "▁rutbe",
        -10.898743160634327
      ],
      [
        "▁kimler",
        -10.80630618214841
      ],
      [
        "▁dongu",
        -10.253424644432407
      ],
      [
        "▁tarih",
        -7.937604691362205
      ],
      [
        "▁kuru",
        -8.831287362753622
      ],
      [
        "▁komisyonları",
        -10.064139388121061
      ],
      [
        "▁soku",
        -9.094401019995795
      ],
      [
        "ye",
        -5.48050625196987
      ],
      [
        "olu",
        -9.62379629473884
      ],
      [
        "▁duyar",
        -8.415167039492392
      ],
      [
        "▁meydanın",
        -11.065984031353135
      ],
      [
        "▁kum",
        -9.027457777316961
      ],
      [
        "▁yaslan",
        -9.787148023166505
      ],
      [
        "▁yorumlar",
        -10.27905809254948
      ],
      [
        "ch",
        -8.71633810719033
      ],
      [
        "▁ku",
        -8.984542111735173
      ],
      [
        "▁valisi",
        -11.0644729394477
      ],
      [
        "▁yemeklerini",
        -9.521103166722858
      ],
      [
        "▁esyalar",
        -9.850698737741325
      ],
      [
        "▁uzag",
        -10.253228967984745
      ],
      [
        "▁onlar",
        -7.358829322235774
      ],
      [
        "▁temizligi",
        -7.157286967641464
      ],
      [
        "mda",
        -8.956702665086041
      ],
      [
        "tılar",
        -9.700778958424799
      ],
      [
        "▁kıvrıl",
        -9.764741872846699
      ],
      [
        "▁kaynagı",
        -9.543579535302433
      ],
      [
        "g",
        -7.954734784177554
      ],
      [
        "▁gosteri",
        -9.223051125449295
      ],
      [
        "▁nato",
        -9.016844020655258
      ],
      [
        "▁ac",
        -8.847952718070541
      ],
      [
        "▁rehin",
        -11.071346162437232
      ],
      [
        "▁bagla",
        -9.66215168869217
      ],
      [
        ".",
        -11.199601737652316
      ],
      [
        "▁sonuclarında",
        -11.04304189930961
      ],
      [
        "▁devleti",
        -10.399377879132876
      ],
      [
        "▁california",
        -8.208073781562616
      ],
      [
        "▁adın",
        -9.063908379198153
      ],
      [
        "▁tisort",
        -11.098742951014744
      ],
      [
        "▁saban",
        -10.464286269307472
      ],
      [
        "▁hayvanları",
        -10.78140590195418
      ],
      [
        "▁cıkarmıs",
        -9.11386132741204
      ],
      [
        "▁pantolonunu",
        -10.366755276853487
      ],
      [
        "er",
        -9.546951139702221
      ],
      [
        "▁dolu",
        -9.638674165187012
      ],
      [
        "▁kasları",
        -10.573665995055554
      ],
      [
        "6",
        -10.158506552024443
      ],
      [
        "▁olacagı",
        -8.724633896446967
      ],
      [
        "▁mavi",
        -10.857429905681728
      ],
      [
        "▁ucusunuz",
        -11.0968988456529
      ],
      [
        "▁tem",
        -8.774564596340506
      ],
      [
        "13",
        -8.316268307282334
      ],
      [
        "▁renkler",
        -11.034824366119608
      ],
      [
        "▁2000",
        -8.051303011088724
      ],
      [
        "▁sif",
        -10.401494994480998
      ],
      [
        "▁topla",
        -9.575872366495084
      ],
      [
        "▁iskele",
        -9.351165348225278
      ],
      [
        "▁benzin",
        -9.292411965251066
      ],
      [
        "▁mavi",
        -7.240919905608596
      ],
      [
        "ur",
        -8.176839496390159
      ],
      [
        "▁mektuplar",
        -10.593077051439897
      ],
      [
        "▁onun",
        -8.016983368995357
      ],
      [
        "▁endustrisi",
        -9.736498114591267
      ],
      [
        "▁sec",
        -9.329632547328703
      ],
      [
        "▁mektebi",
        -10.381119962982002
      ],
      [
        "sıklıkla",
        -10.950821422293094
      ],
      [
        "il",
        -9.847793402551535
      ],
      [
        "▁hususun",
        -10.58199794190081
      ],
      [
        "▁kokusu",
        -8.878781924113436
      ],
      [
        "▁power",
        -8.80820807325327
      ],
      [
        "▁de",
        -7.194763187565279
      ],
      [
        "▁dusman",
        -9.311463415038308
      ],
      [
        "▁tuken",
        -9.53145599407308
      ],
      [
        "▁sebep",
        -8.692944407577425
      ],
      [
        "mıs",
        -6.2932249579241235
      ],
      [
        "▁gitme",
        -9.678511890129661
      ],
      [
        "▁pizza",
        -10.89874323836128
      ],
      [
        "ıyor",
        -6.255100815456206
      ],
      [
        "tı",
        -7.313312799606378
      ],
      [
        "▁21",
        -6.150409216274106
      ],
      [
        "▁gidiyor",
        -6.988402445379826
      ],
      [
        "c",
        -8.828483204966615
      ],
      [
        "▁kenarında",
        -9.820155471067512
      ],
      [
        "▁turklerin",
        -10.429635203743072
      ],
      [
        "▁rehberim",
        -10.47017574682336
      ],
      [
        "▁pır",
        -3.9152399587289417
      ],
      [
        "▁kiler",
        -8.43945657651828
      ],
      [
        "▁site",
        -10.682090319904646
      ],
      [
        "▁kurtlar",
        -11.043031228430722
      ],
      [
        "▁civar",
        -10.620316164624393
      ],
      [
        "▁1/8'",
        -10.898843854586525
      ],
      [
        "cılı",
        -8.934858945422674
      ],
      [
        "▁yer",
        -8.608293665629773
      ],
      [
        "▁onem",
        -8.310666856680344
      ],
      [
        "lay",
        -9.790598636775997
      ],
      [
        "▁mustafa",
        -6.756573711528863
      ],
      [
        "▁edin",
        -9.55137670614725
      ],
      [
        "o",
        -8.078913125660092
      ],
      [
        "▁bor",
        -10.151692188115325
      ],
      [
        "▁belirle",
        -9.295886942803634
      ],
      [
        "▁al",
        -7.92156035473407
      ],
      [
        "▁secenekler",
        -11.006219245605
      ],
      [
        "▁karar",
        -9.439423328094769
      ],
      [
        "▁hatırlat",
        -9.054289190462047
      ],
      [
        "▁yakalandı",
        -9.452307620698392
      ],
      [
        "▁depreminde",
        -11.1063939853565
      ],
      [
        "▁yasama",
        -8.455671470847976
      ],
      [
        "▁soz",
        -7.172216824465987
      ],
      [
        "▁yas",
        -7.6627350208943135
      ],
      [
        "▁yardım",
        -8.050861218284576
      ],
      [
        "▁sahip",
        -7.1119434093241045
      ],
      [
        "can",
        -8.700379908464365
      ],
      [
        "erit",
        -9.60278542440815
      ],
      [
        "▁ana",
        -8.306232647575513
      ],
      [
        "▁belirte",
        -9.416967833498859
      ],
      [
        "▁margarin",
        -11.098744894046611
      ],
      [
        "ez",
        -9.504213673568486
      ],
      [
        "en",
        -3.774149274510564
      ],
      [
        "▁sıvı",
        -10.35293773234503
      ],
      [
        "▁hoca",
        -8.780033052126079
      ],
      [
        "▁buruklu",
        -11.098815721812535
      ],
      [
        "larımı",
        -10.287865162530721
      ],
      [
        "▁gerekecek",
        -9.368760269922127
      ],
      [
        "▁sayfaları",
        -11.020247973999565
      ],
      [
        "▁program",
        -8.391511172060348
      ],
      [
        "▁oranları",
        -8.812235948161751
      ],
      [
        "▁caba",
        -9.02001018777323
      ],
      [
        "▁satısları",
        -8.445587522231481
      ],
      [
        "▁rady",
        -10.706914288963517
      ],
      [
        "▁tasarlama",
        -11.115785993823014
      ],
      [
        "tucu",
        -8.88336553262978
      ],
      [
        "▁ankara'y",
        -8.510359156994447
      ],
      [
        "▁surdurdu",
        -9.410328903719176
      ],
      [
        "▁traktorun",
        -11.11573245735349
      ],
      [
        "dari",
        -9.361888183096335
      ],
      [
        "▁kimsey",
        -6.6878994019356295
      ],
      [
        "▁gez",
        -9.388374291428734
      ],
      [
        "tugunu",
        -10.774815678542687
      ],
      [
        "▁ceki",
        -9.222657755567258
      ],
      [
        "▁bulmak",
        -9.401175452719027
      ],
      [
        "▁rehberli",
        -10.833212565827028
      ],
      [
        "sin",
        -9.734058148015759
      ],
      [
        "su",
        -7.907342939079312
      ],
      [
        "▁rahatsızlık",
        -10.253210913059863
      ],
      [
        "▁destekler",
        -10.997479091208534
      ],
      [
        "▁girdik",
        -8.850969309119977
      ],
      [
        "▁dilenci",
        -10.59002808505774
      ],
      [
        "▁kesi",
        -10.051090398967299
      ],
      [
        "▁ajansı",
        -10.204322080994046
      ],
      [
        "▁artırma",
        -9.951067189319902
      ],
      [
        "▁terliklerin",
        -10.675455517526203
      ],
      [
        "▁masaların",
        -10.879271394611902
      ],
      [
        "▁kapsamın",
        -10.453904636831837
      ],
      [
        "▁acı",
        -7.056702490320647
      ],
      [
        "▁cokusunde",
        -10.743807756326841
      ],
      [
        "▁emeklilik",
        -8.981126367754008
      ],
      [
        "▁dukkanı",
        -9.649833017401383
      ],
      [
        "▁baska",
        -10.48590866487727
      ],
      [
        "▁koku",
        -8.772145628112606
      ],
      [
        "unla",
        -5.843073533484598
      ],
      [
        "▁kurumun",
        -10.248998254175593
      ],
      [
        "rdi",
        -8.235372689751738
      ],
      [
        "▁cagırdı",
        -8.825316371954923
      ],
      [
        "egi",
        -10.153728538972588
      ],
      [
        "▁gorunum",
        -10.120435264294727
      ],
      [
        "atcı",
        -9.273641968757286
      ],
      [
        "▁duzen",
        -9.4613641277611
      ],
      [
        "▁okuma",
        -9.544537998842404
      ],
      [
        "▁kopek",
        -8.763868524227012
      ],
      [
        "▁projesi",
        -9.938342763016376
      ],
      [
        "▁partiler",
        -10.085074307743405
      ],
      [
        "▁muzayede",
        -10.732077534235446
      ],
      [
        "▁tv",
        -10.156507152906071
      ],
      [
        "▁agacları",
        -10.01999050342858
      ],
      [
        "▁orman",
        -9.258142828608978
      ],
      [
        "▁calısanlar",
        -9.538035672261946
      ],
      [
        "▁ocagın",
        -10.080082582576852
      ],
      [
        "▁gecmisti",
        -9.294021904293167
      ],
      [
        "▁alaka",
        -8.551929254854047
      ],
      [
        "▁eriyor",
        -9.69855256705426
      ],
      [
        "▁burs",
        -11.021366797758054
      ],
      [
        "▁kaybede",
        -9.686244945274204
      ],
      [
        "▁final",
        -10.037713439427922
      ],
      [
        "▁kentler",
        -10.422757517623879
      ],
      [
        "▁odalarin",
        -9.748379090965049
      ],
      [
        "▁kalk",
        -7.706475545801142
      ],
      [
        "kimi",
        -10.985748173163978
      ],
      [
        "y",
        -6.227110814217542
      ],
      [
        "▁brown",
        -8.353357083995986
      ],
      [
        "▁hare",
        -10.774572758577108
      ],
      [
        "▁baz",
        -9.048931940565692
      ],
      [
        "eleyi",
        -9.830507315868388
      ],
      [
        "▁kose",
        -9.40990843647309
      ],
      [
        "▁sizin",
        -5.649030984391743
      ],
      [
        "embe",
        -6.972065559975838
      ],
      [
        "yla",
        -9.071543340273545
      ],
      [
        "▁kıymetleri",
        -9.577527424888405
      ],
      [
        "▁haziran'da",
        -7.404441858125582
      ],
      [
        "▁dogrul",
        -9.797557387770844
      ],
      [
        "▁konus",
        -8.329415137664675
      ],
      [
        "▁profesyoneller",
        -11.107088537147279
      ],
      [
        "▁degillerdi",
        -5.210354841089645
      ],
      [
        "▁mi",
        -9.733845179692013
      ],
      [
        ".4",
        -7.453933029995798
      ],
      [
        "▁tutam",
        -10.162263496456557
      ],
      [
        "vet",
        -7.910380772097387
      ],
      [
        "▁meger",
        -8.017094335820264
      ],
      [
        "atı",
        -10.178993040939059
      ],
      [
        "▁kılıf",
        -11.09878627147441
      ],
      [
        "▁sende",
        -7.595001925069891
      ],
      [
        "▁patates",
        -9.093278313755647
      ],
      [
        "▁yavru",
        -9.92395933910457
      ],
      [
        "▁arama",
        -10.021137456226008
      ],
      [
        "▁5\\/",
        -7.490278875194841
      ],
      [
        "▁yalan",
        -9.286280097834133
      ],
      [
        "▁bekleniyor",
        -7.448467989777711
      ],
      [
        "▁tamam",
        -10.585658938309766
      ],
      [
        "▁gecmiyor",
        -9.611786465937676
      ],
      [
        "▁190",
        -8.264558423855101
      ],
      [
        "▁fazla",
        -5.48186363795423
      ],
      [
        "uyor",
        -7.614435796642611
      ],
      [
        "'da",
        -9.771353405504778
      ],
      [
        "▁olan",
        -6.013053923143989
      ],
      [
        "ce",
        -6.594022487097856
      ],
      [
        "saydı",
        -8.803134326136691
      ],
      [
        "yasal",
        -8.29276946333895
      ],
      [
        "▁anı",
        -9.40458413568092
      ],
      [
        "▁memlekette",
        -9.94356840550277
      ],
      [
        "acagını",
        -8.734277651352016
      ],
      [
        "▁cins",
        -8.401508958306177
      ],
      [
        "samba",
        -9.482752559450654
      ],
      [
        "▁imalatcı",
        -10.965308095992347
      ],
      [
        "▁ziyaret",
        -8.618011375673778
      ],
      [
        "▁ortamında",
        -10.63545206960046
      ],
      [
        "▁aramay",
        -9.496582916027974
      ],
      [
        "▁gum",
        -10.680026475318252
      ],
      [
        "▁goz",
        -9.33033969326352
      ],
      [
        "siz",
        -5.279569494377398
      ],
      [
        "▁ulkeni",
        -9.264805357221931
      ],
      [
        "▁yazınız",
        -10.618303681191307
      ],
      [
        "▁artırmay",
        -10.675738428017945
      ],
      [
        "▁lutfe",
        -5.273672835575321
      ],
      [
        "▁ata",
        -9.137748582616656
      ],
      [
        "▁yerin",
        -7.489110257723452
      ],
      [
        "▁sen",
        -4.319077519014068
      ],
      [
        "▁yoneticiler",
        -9.525612403941926
      ],
      [
        "▁maas",
        -9.908505051744402
      ],
      [
        "▁en",
        -9.947091129449795
      ],
      [
        "▁zır",
        -10.464271968181814
      ],
      [
        "▁engel",
        -9.1798766062743
      ],
      [
        "▁fredd",
        -8.487291378408464
      ],
      [
        "▁edip",
        -8.26976816931322
      ],
      [
        "yebilir",
        -9.373473823499054
      ],
      [
        "▁sir",
        -9.521652716205129
      ],
      [
        "▁cleveland'",
        -6.731610941983824
      ],
      [
        "▁bırakmaz",
        -9.724466700786111
      ],
      [
        "▁yiyeceklerin",
        -10.129440641981818
      ],
      [
        "▁sınav",
        -9.65599659180595
      ],
      [
        "▁seyre",
        -9.01618930819221
      ],
      [
        "▁zekası",
        -10.611731261866819
      ],
      [
        "▁1.6",
        -7.057707378540877
      ],
      [
        "▁calisanlarin",
        -9.552817723872277
      ],
      [
        "▁yavaslama",
        -9.998999572858674
      ],
      [
        "▁ihtilaf",
        -10.720736472550314
      ],
      [
        "la",
        -7.519647211782816
      ],
      [
        "▁hastalar",
        -10.447546322874823
      ],
      [
        "▁yanını",
        -10.602375742274566
      ],
      [
        "nmıs",
        -9.437652185870991
      ],
      [
        "▁ogesi",
        -10.9003022910293
      ],
      [
        "▁yalan",
        -8.661791620680985
      ],
      [
        "▁gectigi",
        -9.378819099567867
      ],
      [
        "▁alm",
        -9.25713303328236
      ],
      [
        "▁varmıs",
        -8.546307153697967
      ],
      [
        "maları",
        -8.920965456963167
      ],
      [
        "▁limanda",
        -10.52900143121499
      ],
      [
        "▁ned",
        -8.78321354616227
      ],
      [
        "▁zaman",
        -8.439869080536017
      ],
      [
        "▁moru",
        -10.907590730998582
      ],
      [
        "▁hazırlıkları",
        -10.912886487965098
      ],
      [
        "▁hatlar",
        -10.725338374560803
      ],
      [
        "▁titre",
        -9.340272479655663
      ],
      [
        "▁faaliyet",
        -8.561203620828305
      ],
      [
        "▁dikme",
        -10.616422213540591
      ],
      [
        "▁komisyoncu",
        -10.670405948477553
      ],
      [
        "▁3\\/",
        -6.515098788460735
      ],
      [
        "▁kuvvetleri",
        -9.480105748862218
      ],
      [
        "▁degerinde",
        -9.524290270166636
      ],
      [
        "▁kısa",
        -6.230231755369564
      ],
      [
        "▁belinde",
        -10.185466252153718
      ],
      [
        "▁egri",
        -9.120253019496587
      ],
      [
        "▁olmasaydı",
        -9.511955999876026
      ],
      [
        "▁nerede",
        -7.3722393738330165
      ],
      [
        "▁cıkara",
        -8.294485257679437
      ],
      [
        "▁kaba",
        -8.083097393987945
      ],
      [
        "▁12.",
        -7.837993252661398
      ],
      [
        "▁lanet",
        -10.253235084258533
      ],
      [
        "▁wall",
        -6.797825513385183
      ],
      [
        "lar",
        -7.869899366852459
      ],
      [
        "▁hatal",
        -9.540548336019414
      ],
      [
        "er",
        -8.715359999120347
      ],
      [
        "▁salca",
        -10.901714013255493
      ],
      [
        "▁yun",
        -9.772393355459716
      ],
      [
        "▁fedakarlık",
        -10.35312334607048
      ],
      [
        "emeli",
        -9.27808534428586
      ],
      [
        "▁pes",
        -9.444933402709445
      ],
      [
        "▁dilde",
        -10.55159107807674
      ],
      [
        "▁gordugum",
        -10.740582979502909
      ],
      [
        "▁ekim",
        -7.390394719216669
      ],
      [
        "▁mu",
        -8.874830932321231
      ],
      [
        "▁ro",
        -8.39270543727789
      ],
      [
        "dinde",
        -9.744352432043923
      ],
      [
        "ine",
        -6.982831264018975
      ],
      [
        "▁tavuk",
        -9.343216338727274
      ],
      [
        "▁pazarın",
        -9.842052179265915
      ],
      [
        "▁uykusu",
        -10.989975249186307
      ],
      [
        "▁lee",
        -8.816461980845508
      ],
      [
        "▁kondular",
        -10.897916962857963
      ],
      [
        "▁gorusuldu",
        -5.56507771915234
      ],
      [
        "▁spekulasyonlar",
        -10.584488735150284
      ],
      [
        "▁raporun",
        -10.220578295333272
      ],
      [
        "▁kurul",
        -9.236160089244667
      ],
      [
        "▁amerika'y",
        -9.031924716983106
      ],
      [
        "▁yapmıs",
        -8.219391273858278
      ],
      [
        "▁kocakarı",
        -10.898822093676086
      ],
      [
        "▁azd",
        -7.635435576351214
      ],
      [
        "▁uvey",
        -8.404350908401213
      ],
      [
        "▁ucurtma",
        -10.464219478470485
      ],
      [
        "▁united",
        -6.265269205589437
      ],
      [
        "asa",
        -9.492732055157102
      ],
      [
        "▁arap",
        -10.892861576468142
      ],
      [
        "▁zayıf",
        -11.094048468439887
      ],
      [
        "▁ates",
        -8.097457371288762
      ],
      [
        "▁kuvvet",
        -9.251013511688981
      ],
      [
        "▁ya",
        -7.800671762227191
      ],
      [
        "▁nikah",
        -9.970188379776475
      ],
      [
        "yacagını",
        -9.881416972531381
      ],
      [
        "▁karsılastır",
        -10.33886463854365
      ],
      [
        "▁etkinlikler",
        -10.243327401622572
      ],
      [
        "▁giy",
        -9.348136517479606
      ],
      [
        "▁gid",
        -7.611832682912436
      ],
      [
        "kten",
        -7.853918357564823
      ],
      [
        "daydı",
        -9.45479636872891
      ],
      [
        "▁nutku",
        -11.098744380342104
      ],
      [
        "▁dusmustu",
        -8.743361400922174
      ],
      [
        "▁aylar",
        -8.304850012234626
      ],
      [
        "▁izliyor",
        -8.734417122663602
      ],
      [
        "▁county",
        -8.986855090658505
      ],
      [
        "▁surdur",
        -11.004511297606784
      ],
      [
        "▁eder",
        -9.206935994088646
      ],
      [
        "▁paylar",
        -10.28679217212027
      ],
      [
        "▁maclar",
        -10.882333931357605
      ],
      [
        "▁gid",
        -8.324710101317857
      ],
      [
        "▁muftu",
        -11.098763482822976
      ],
      [
        "▁genetik",
        -10.253283704731524
      ],
      [
        "▁dol",
        -10.73172612781319
      ],
      [
        "▁degildi",
        -2.1591214805820806
      ],
      [
        "▁dusurmeye",
        -10.59136140566957
      ],
      [
        "ra",
        -8.02860155091519
      ],
      [
        "siniz",
        -5.458119837635438
      ],
      [
        "▁dayan",
        -8.502706346744434
      ],
      [
        "▁telkin",
        -10.464391854390893
      ],
      [
        "▁kulfet",
        -10.898765560917582
      ],
      [
        "▁cevrem",
        -11.071744735089418
      ],
      [
        "▁tev",
        -11.10858940422504
      ],
      [
        "▁cekirdek",
        -10.353108019555236
      ],
      [
        "▁sahıslar",
        -10.630811180122862
      ],
      [
        "▁aralık",
        -7.542248708489103
      ],
      [
        "▁el",
        -8.653628586983881
      ],
      [
        "▁bakılır",
        -9.580370831348036
      ],
      [
        "▁dusme",
        -10.213064146391751
      ],
      [
        "▁demokratlar",
        -9.969793682579455
      ],
      [
        "ce",
        -7.37276765553874
      ],
      [
        "▁bellegi",
        -10.893447291947771
      ],
      [
        "▁bulmus",
        -9.22711510615805
      ],
      [
        "▁pasaport",
        -10.720730523366173
      ],
      [
        "▁ilcesin",
        -10.943426504480117
      ],
      [
        "▁adam",
        -8.224659733142335
      ],
      [
        "▁uzerim",
        -10.56819565077258
      ],
      [
        "▁sag",
        -9.29627902801429
      ],
      [
        "▁hosgoru",
        -10.16219887837186
      ],
      [
        "▁nereler",
        -8.402931740133155
      ],
      [
        "▁herkesi",
        -10.128872118542592
      ],
      [
        "▁dersler",
        -10.123293598423498
      ],
      [
        "▁atacak",
        -9.294600904236555
      ],
      [
        "▁koyunun",
        -11.107617216913718
      ],
      [
        "▁acık",
        -6.410109475772573
      ],
      [
        "▁heykel",
        -9.804657898327603
      ],
      [
        "▁yumu",
        -10.253269612504093
      ],
      [
        "▁noksan",
        -11.098743201652908
      ],
      [
        "▁sol",
        -9.798762079001005
      ],
      [
        "ınızı",
        -10.069487603720095
      ],
      [
        "▁bilgileri",
        -9.447909863105142
      ],
      [
        "▁pırıl",
        -10.732102899342502
      ],
      [
        "lıkla",
        -10.711425051085627
      ],
      [
        "▁denetleme",
        -10.898744022385733
      ],
      [
        "▁dolu",
        -8.822147800344982
      ],
      [
        "li",
        -7.25093721435945
      ],
      [
        "▁roma",
        -8.387569306202394
      ],
      [
        "▁arasında",
        -6.2655857169807705
      ],
      [
        "deydi",
        -9.002217072973666
      ],
      [
        "▁arkamda",
        -10.384171356999264
      ],
      [
        "▁baskent",
        -10.519281570415938
      ],
      [
        "▁mektupta",
        -10.593883973958642
      ],
      [
        "▁minder",
        -10.563919824091842
      ],
      [
        "▁doksan",
        -7.243696276708544
      ],
      [
        "▁kurulusların",
        -10.81626968634277
      ],
      [
        "▁sermayesi",
        -10.709496514427132
      ],
      [
        "▁sabah",
        -6.623006065740327
      ],
      [
        "▁20.",
        -7.512346450622076
      ],
      [
        "▁beklentimi",
        -9.602811241798378
      ],
      [
        "mesini",
        -9.871377066316498
      ],
      [
        "▁ah",
        -9.065234594033965
      ],
      [
        "▁boz",
        -9.332543378531195
      ],
      [
        "▁kos",
        -11.007067052674303
      ],
      [
        "▁asır",
        -10.110151376011618
      ],
      [
        "▁gitmem",
        -9.12917465901959
      ],
      [
        "▁borek",
        -10.658204446474512
      ],
      [
        "▁bi",
        -4.970497081628543
      ],
      [
        "▁ib",
        -9.38772116217762
      ],
      [
        "e",
        -5.432312471123907
      ],
      [
        "▁kaldırıl",
        -9.577963504500838
      ],
      [
        "▁sekerleme",
        -10.899635022265118
      ],
      [
        "▁ankara'da",
        -8.068013582008785
      ],
      [
        "▁agırlıgında",
        -11.101344642211945
      ],
      [
        "▁basarısız",
        -8.331545846004797
      ],
      [
        "▁bahce",
        -9.326741094031894
      ],
      [
        "yi",
        -6.058917114321303
      ],
      [
        "▁deneyim",
        -9.65767820091841
      ],
      [
        "▁v",
        -10.032577067556023
      ],
      [
        "▁kurtardı",
        -9.050685658044486
      ],
      [
        "▁sonra",
        -9.450227445694484
      ],
      [
        "▁kızım",
        -9.792357691026238
      ],
      [
        "▁fort",
        -6.801607371991959
      ],
      [
        "gru",
        -8.985719511832492
      ],
      [
        "▁duk",
        -6.451917218688736
      ],
      [
        "▁faktor",
        -9.961138556034252
      ],
      [
        "im",
        -9.712386067520356
      ],
      [
        "▁tutuyor",
        -8.290725679796632
      ],
      [
        "isi",
        -9.81423041304711
      ],
      [
        "kca",
        -8.16539287037112
      ],
      [
        "▁canın",
        -10.301370310220868
      ],
      [
        "▁isterse",
        -8.983455368475878
      ],
      [
        "▁denk",
        -10.360254053360284
      ],
      [
        "▁verecektir",
        -9.41772476919083
      ],
      [
        "▁kucak",
        -10.731110481319021
      ],
      [
        "▁yemegini",
        -10.232630309133878
      ],
      [
        "▁1990'",
        -11.12165929764796
      ],
      [
        "▁firs",
        -8.182748135547504
      ],
      [
        "▁yan",
        -8.769597409530377
      ],
      [
        "▁katibi",
        -10.968577024551914
      ],
      [
        "▁sefir",
        -10.909531804721519
      ],
      [
        "▁oyunları",
        -10.096844487722182
      ],
      [
        "▁sıkıldı",
        -9.5049889713674
      ],
      [
        "la",
        -6.087479352776021
      ],
      [
        "▁alısır",
        -9.697802979350039
      ],
      [
        "ili",
        -6.820299547520811
      ],
      [
        "ra",
        -7.801341107840463
      ],
      [
        "▁bitirdi",
        -8.759759613267367
      ],
      [
        "▁bahsede",
        -9.486774224992299
      ],
      [
        "▁bakmak",
        -9.887592755737655
      ],
      [
        "▁yoneticilerin",
        -9.92097322952347
      ],
      [
        "r",
        -5.432628029726923
      ],
      [
        "▁bakıcı",
        -10.25348331180863
      ],
      [
        "▁oruc",
        -10.73237425478801
      ],
      [
        "▁so",
        -10.84022282083308
      ],
      [
        "yi",
        -9.273093689880236
      ],
      [
        "▁bilirdi",
        -9.28797129752389
      ],
      [
        "▁sanat",
        -8.66484346759852
      ],
      [
        "▁ilgili",
        -9.084676967652218
      ],
      [
        "▁kenar",
        -8.972415967462346
      ],
      [
        "▁minneapolis'te",
        -7.80806283380964
      ],
      [
        "▁hastası",
        -10.84234017233759
      ],
      [
        "▁niyeti",
        -10.290110802058555
      ],
      [
        "▁siyaset",
        -9.254780799846097
      ],
      [
        "▁sehir",
        -7.494794124233871
      ],
      [
        "▁ysa",
        -7.7560352341177214
      ],
      [
        "▁yanımda",
        -9.955824280550058
      ],
      [
        "az",
        -6.848167859171971
      ],
      [
        "na",
        -4.888725468870102
      ],
      [
        "una",
        -9.506768456424819
      ],
      [
        "yin",
        -7.524851692384854
      ],
      [
        "h",
        -6.8306572091775175
      ],
      [
        "▁ihtiyar",
        -9.200280861741884
      ],
      [
        "▁isbirligini",
        -11.015958090653486
      ],
      [
        "▁kuruma",
        -10.971876668543084
      ],
      [
        "▁tarafını",
        -10.052166937696647
      ],
      [
        "▁kemal'i",
        -8.884707047826929
      ],
      [
        "inizde",
        -11.113605197917332
      ],
      [
        "▁fiyat",
        -6.487141921511729
      ],
      [
        "▁hukmunu",
        -11.1141595679296
      ],
      [
        "▁kumanda",
        -10.973331699644932
      ],
      [
        "▁manası",
        -10.312450031445621
      ],
      [
        "▁verileri",
        -10.407113912681936
      ],
      [
        "▁bin",
        -4.672987243887961
      ],
      [
        "▁arka",
        -7.766725027347814
      ],
      [
        "▁kasar",
        -10.873841828311384
      ],
      [
        "▁savası'nda",
        -11.099388302323941
      ],
      [
        "▁bogaz",
        -9.532670230577722
      ],
      [
        "▁the",
        -10.253218807517815
      ],
      [
        "▁olu",
        -9.931537712907664
      ],
      [
        "▁ba",
        -7.905663656293536
      ],
      [
        "▁soruyor",
        -8.584731188574086
      ],
      [
        "tmak",
        -10.4117813704943
      ],
      [
        "▁denver'de",
        -5.178782660526716
      ],
      [
        "▁muayene",
        -9.930482122834519
      ],
      [
        "▁kadıncagız",
        -10.46446845233902
      ],
      [
        "▁ulkelerinde",
        -11.054365580817032
      ],
      [
        "▁yarenli",
        -11.100605748965105
      ],
      [
        "▁duygusunu",
        -10.090122975257405
      ],
      [
        "▁kusların",
        -10.683386386813872
      ],
      [
        "▁halim",
        -10.698823443378895
      ],
      [
        "egin",
        -9.181142696956574
      ],
      [
        "▁indirimler",
        -10.69565136537902
      ],
      [
        "▁resepsiyonda",
        -10.78137398076496
      ],
      [
        "▁brezilya",
        -8.926718390471194
      ],
      [
        "▁vurmak",
        -10.264376079512882
      ],
      [
        "▁ingiliz",
        -7.3765079154609525
      ],
      [
        "▁liderlik",
        -10.735243321823196
      ],
      [
        "▁karsılastırıl",
        -9.209218217435403
      ],
      [
        "▁",
        -1.722964280954951
      ],
      [
        "▁maddeler",
        -10.049020173821468
      ],
      [
        "▁devralma",
        -8.980490017509156
      ],
      [
        "▁des",
        -10.410096041221383
      ],
      [
        "▁bitim",
        -10.589889543522906
      ],
      [
        "▁sarsıntılar",
        -10.971790145017927
      ],
      [
        "ıllı",
        -8.372088614477219
      ],
      [
        "▁tahviller",
        -8.2697222974009
      ],
      [
        "▁pazarlarda",
        -10.628552755386266
      ],
      [
        "▁bıyık",
        -10.721937362630573
      ],
      [
        "▁dır",
        -4.287573368195668
      ],
      [
        "▁bırak",
        -8.087005017576926
      ],
      [
        "▁birbirimiz",
        -7.457556533410018
      ],
      [
        "mis",
        -9.827247428565228
      ],
      [
        "▁yaklasıyor",
        -9.60960345800296
      ],
      [
        "▁gobek",
        -10.001942673128411
      ],
      [
        "▁mev",
        -6.723538293557618
      ],
      [
        "▁oralarda",
        -10.38058257621516
      ],
      [
        "man",
        -10.557896541030765
      ],
      [
        "▁hazırla",
        -9.18143425034338
      ],
      [
        "▁yanlıs",
        -7.173834167548121
      ],
      [
        "▁ailelerin",
        -9.631935701673036
      ],
      [
        "▁canını",
        -10.270916792716314
      ],
      [
        "okulu",
        -8.878045843167143
      ],
      [
        "▁kelimeler",
        -9.672973986522182
      ],
      [
        "▁zor",
        -6.587348648101007
      ],
      [
        "▁tatil",
        -7.4078528586584
      ],
      [
        "▁oldugunu",
        -6.165144376664872
      ],
      [
        "▁isti",
        -7.843478824552784
      ],
      [
        "▁zincirleri",
        -11.009623343033814
      ],
      [
        "mesinde",
        -10.707038412926579
      ],
      [
        "▁tepkisini",
        -11.115606579634033
      ],
      [
        "asını",
        -10.682241715357026
      ],
      [
        "▁hud",
        -8.901977272836533
      ],
      [
        "▁inkılap",
        -10.898742889597775
      ],
      [
        "▁minib",
        -10.899124617304834
      ],
      [
        "bası",
        -9.635506195941733
      ],
      [
        "▁arsa",
        -10.079250281598785
      ],
      [
        "▁noktasın",
        -9.963966741539169
      ],
      [
        "'e",
        -6.643965634587967
      ],
      [
        "▁devi",
        -10.605772320630678
      ],
      [
        "▁kendimde",
        -7.695269369691355
      ],
      [
        "▁dur",
        -10.246146783604377
      ],
      [
        "ba",
        -8.677576235861258
      ],
      [
        "▁dedesi",
        -10.192713132525911
      ],
      [
        "▁vegas'",
        -6.918877935752587
      ],
      [
        "▁yazarlar",
        -9.902145406682273
      ],
      [
        "▁gogsunu",
        -10.094117844799616
      ],
      [
        "▁evimde",
        -10.43252335874873
      ],
      [
        "▁mayıs",
        -9.37384017229287
      ],
      [
        "▁bıyıgın",
        -11.121701409133777
      ],
      [
        "▁olmadıgı",
        -8.55321234260587
      ],
      [
        "▁sayılır",
        -9.036166823804978
      ],
      [
        "veya",
        -7.07356391847621
      ],
      [
        "▁mutlu",
        -9.534109119470395
      ],
      [
        "4.5",
        -7.626717235752694
      ],
      [
        "▁teklif",
        -7.558268472166292
      ],
      [
        "mısım",
        -9.254548148090302
      ],
      [
        "▁toronto'da",
        -7.1939430775272815
      ],
      [
        "▁yuvar",
        -11.06411103246295
      ],
      [
        "da",
        -9.378985194024985
      ],
      [
        "▁kalabalık",
        -9.188768719440894
      ],
      [
        "▁mevsimin",
        -10.816306954784647
      ],
      [
        "▁yeme",
        -8.566326885194222
      ],
      [
        "▁arkadas",
        -9.468174169954855
      ],
      [
        "▁onu",
        -3.8180555155698697
      ],
      [
        "▁do",
        -10.315282256358413
      ],
      [
        "▁ak",
        -9.609233172477488
      ],
      [
        "yin",
        -5.784995693197711
      ],
      [
        "▁oturmus",
        -8.631007381918266
      ],
      [
        "▁olan",
        -4.305715080017117
      ],
      [
        "▁karsı",
        -4.835443352689402
      ],
      [
        "▁baglar",
        -10.140694564982212
      ],
      [
        "▁erede",
        -9.244224353754403
      ],
      [
        "▁tencerede",
        -10.494858258515631
      ],
      [
        "▁re",
        -10.066555673795257
      ],
      [
        "'nın",
        -5.331183481266247
      ],
      [
        "▁merkezleri",
        -10.673176682541584
      ],
      [
        "▁hızlı",
        -8.173460503382014
      ],
      [
        "tım",
        -8.945367856450623
      ],
      [
        "▁yil",
        -9.787124244265225
      ],
      [
        "lar",
        -8.974590896815133
      ],
      [
        "n",
        -3.1048016047906435
      ],
      [
        "▁ilgilen",
        -8.809574805624328
      ],
      [
        "tara",
        -8.70084521614178
      ],
      [
        "degili",
        -9.219086413763549
      ],
      [
        "u",
        -5.3681920564335766
      ],
      [
        "▁1.3",
        -6.781587815894188
      ],
      [
        "▁bizim",
        -8.998507210436507
      ],
      [
        "▁golu",
        -10.599035175588364
      ],
      [
        "▁gelisim",
        -9.856926588823669
      ],
      [
        "▁loca",
        -10.626716121420243
      ],
      [
        "▁sokaklarda",
        -9.838412183134931
      ],
      [
        "ılan",
        -9.404224791514498
      ],
      [
        "miyoru",
        -9.625779620511791
      ],
      [
        "▁vaktinde",
        -10.750798467048558
      ],
      [
        "▁fikirler",
        -9.97120409718594
      ],
      [
        "▁secmenler",
        -10.693573809163448
      ],
      [
        "▁ulasıyor",
        -9.68023319219574
      ],
      [
        "▁bildir",
        -9.338480660728232
      ],
      [
        "▁dayana",
        -8.799917782294369
      ],
      [
        "les",
        -8.846020961216237
      ],
      [
        "▁bircokları",
        -8.652344113603753
      ],
      [
        "▁binada",
        -10.837885107592657
      ],
      [
        "▁yalnız",
        -5.438889735507824
      ],
      [
        "tan",
        -9.044013492674482
      ],
      [
        "▁",
        -1.3922668288882338
      ],
      [
        "is",
        -7.5131429989155505
      ],
      [
        "▁zararlar",
        -10.752874032887616
      ],
      [
        "sa",
        -8.865208249174382
      ],
      [
        "▁huzur",
        -8.335024299760093
      ],
      [
        "kadem",
        -9.421803818800512
      ],
      [
        "▁elbet",
        -10.46422246343941
      ],
      [
        "▁otobus",
        -9.321771436955487
      ],
      [
        "▁engelken",
        -8.624020321774506
      ],
      [
        "▁satım",
        -8.15370849809909
      ],
      [
        "▁lokantasın",
        -10.99030877322468
      ],
      [
        "karlı",
        -8.704985432091185
      ],
      [
        "▁tekel",
        -10.646625282953625
      ],
      [
        "▁soyle",
        -10.83983706071038
      ],
      [
        "▁amac",
        -9.23154331888615
      ],
      [
        "▁saklay",
        -9.786996165266945
      ],
      [
        "▁car",
        -8.957794247948698
      ],
      [
        "▁etkenler",
        -10.497731201851781
      ],
      [
        "▁hicbirin",
        -9.155943432651368
      ],
      [
        "▁icazet",
        -11.09874353792603
      ],
      [
        "▁tasarısı",
        -9.713036973263291
      ],
      [
        "▁no",
        -8.983291706769373
      ],
      [
        "lar",
        -7.1060434803029695
      ],
      [
        "olalı",
        -9.31161471959604
      ],
      [
        "▁ortada",
        -9.207116802140796
      ],
      [
        "▁kıyısında",
        -10.163615118860987
      ],
      [
        "v",
        -9.06855781224223
      ],
      [
        "▁saatchi",
        -9.009388202861714
      ],
      [
        "▁gorunur",
        -9.453878419080647
      ],
      [
        "500",
        -7.969870982336766
      ],
      [
        "▁bulunuyordu",
        -8.75569326987716
      ],
      [
        "▁hakik",
        -9.227536132375318
      ],
      [
        "▁uzum",
        -9.539849438723056
      ],
      [
        "▁dogu",
        -7.316808571511066
      ],
      [
        "asırı",
        -9.5279997855972
      ],
      [
        "▁ayır",
        -8.58785212967987
      ],
      [
        "▁gerdan",
        -9.930533410724436
      ],
      [
        "▁evimizi",
        -10.97789594792024
      ],
      [
        "▁gelen",
        -6.427638887850488
      ],
      [
        "▁diyor",
        -6.005212046312799
      ],
      [
        "sun",
        -6.816385547785073
      ],
      [
        "▁sahipleri",
        -8.869342116464923
      ],
      [
        "▁tatilimi",
        -10.902607779357385
      ],
      [
        "▁atlay",
        -9.160072129578573
      ],
      [
        "men",
        -7.749488467529847
      ],
      [
        "▁icin",
        -8.540091019626397
      ],
      [
        "ndek",
        -8.781845562392556
      ],
      [
        "▁sene",
        -8.047000242491155
      ],
      [
        "▁bakım",
        -7.325904814344627
      ],
      [
        "▁birinci",
        -9.761631451813047
      ],
      [
        "la",
        -6.957578549967414
      ],
      [
        "▁olanlar",
        -9.513108714577566
      ],
      [
        "▁batı",
        -7.664739957258702
      ],
      [
        "▁goru",
        -8.201515277214732
      ],
      [
        "▁sistemini",
        -9.900714904079571
      ],
      [
        "▁yuzlu",
        -6.905887493603706
      ],
      [
        "▁kirl",
        -9.520446380664605
      ],
      [
        "yuklu",
        -8.623668324093863
      ],
      [
        "▁merv",
        -8.57044099775723
      ],
      [
        "▁denver",
        -5.849706285433557
      ],
      [
        "▁bodrum",
        -8.497306403028857
      ],
      [
        "▁oy",
        -9.112694676845056
      ],
      [
        "▁naci",
        -7.836373764627838
      ],
      [
        "▁kaynana",
        -11.078041058349832
      ],
      [
        "▁mensupları",
        -11.103010390073278
      ],
      [
        "lenmis",
        -9.54539533739372
      ],
      [
        "▁avucunu",
        -10.510912904333104
      ],
      [
        "umuzu",
        -10.635438553885333
      ],
      [
        "▁alacaklılar",
        -10.022074475114248
      ],
      [
        "▁bilimi",
        -9.993181943176271
      ],
      [
        "▁sahi",
        -8.37558660362646
      ],
      [
        "▁ligin",
        -9.822160854347754
      ],
      [
        "▁geldik",
        -8.761162889404691
      ],
      [
        "alı",
        -9.716431016066782
      ],
      [
        "▁ami",
        -10.740388443695448
      ],
      [
        "▁gecenleri",
        -10.925719590064492
      ],
      [
        "has",
        -8.718769683180955
      ],
      [
        "▁129.",
        -11.098789772244329
      ],
      [
        "▁oturan",
        -9.054193762401791
      ],
      [
        "▁yasal",
        -8.233397827924325
      ],
      [
        "▁kelimesini",
        -10.614681688855812
      ],
      [
        "▁yoktu",
        -5.408655172546287
      ],
      [
        "▁kanunlar",
        -10.472096679131806
      ],
      [
        "nızı",
        -9.79948952081837
      ],
      [
        "me",
        -8.728602865568623
      ],
      [
        "▁kasık",
        -9.825429172017637
      ],
      [
        "▁mahsu",
        -8.554238235853783
      ],
      [
        "▁temmuz",
        -7.357692698517294
      ],
      [
        "▁kulakların",
        -10.587380011600718
      ],
      [
        "nca",
        -9.358796845765099
      ],
      [
        "▁yenileme",
        -10.737415669787117
      ],
      [
        "▁haber",
        -7.724663502312925
      ],
      [
        "▁belir",
        -7.584097074613927
      ],
      [
        "▁kafile",
        -10.379763916613928
      ],
      [
        "▁tırıs",
        -11.098743442118655
      ],
      [
        "yacak",
        -9.476213899102827
      ],
      [
        "ip",
        -8.147036271354292
      ],
      [
        "▁yesil",
        -10.850837741241222
      ],
      [
        "▁aracılıgı",
        -10.4666606342777
      ],
      [
        "ni",
        -6.4514338168942
      ],
      [
        "▁burnunda",
        -10.299594112533082
      ],
      [
        "ort",
        -10.806584544322135
      ],
      [
        "▁somu",
        -9.587187005973231
      ],
      [
        "dir",
        -8.133205486406723
      ],
      [
        "▁iletti",
        -9.629433784363341
      ],
      [
        "▁hanim",
        -6.880373291676457
      ],
      [
        "▁geleni",
        -9.368004527666839
      ],
      [
        "▁galibiyet",
        -10.386847105406519
      ],
      [
        "▁urunler",
        -9.041552179959064
      ],
      [
        "▁alıyordu",
        -8.676136001773859
      ],
      [
        "▁uy",
        -9.19476489211617
      ],
      [
        "▁louis'te",
        -7.920851364431851
      ],
      [
        "▁lar",
        -7.504939570431768
      ],
      [
        "gel",
        -7.946391005262723
      ],
      [
        "▁fiyatlari",
        -10.661628494149983
      ],
      [
        "kar",
        -8.510340351272795
      ],
      [
        "▁oncesin",
        -10.015041573323387
      ],
      [
        "▁nobet",
        -10.092883824391967
      ],
      [
        "▁44",
        -7.3247160992506455
      ],
      [
        "▁sokak",
        -8.953002827233037
      ],
      [
        "▁olmaları",
        -9.574717722290838
      ],
      [
        "▁bela",
        -9.649509207065767
      ],
      [
        "▁gormey",
        -10.22478694347179
      ],
      [
        "ydı",
        -7.752806817138216
      ],
      [
        "iz",
        -8.183355803138426
      ],
      [
        "▁kul",
        -8.52272147066418
      ],
      [
        "▁mahmut",
        -8.349867822604647
      ],
      [
        "▁yag",
        -9.242130401368398
      ],
      [
        "88",
        -7.812924817938454
      ],
      [
        "▁uygun",
        -5.712330602846942
      ],
      [
        "▁etki",
        -9.204831295880936
      ],
      [
        "▁gumrukte",
        -10.919842043813734
      ],
      [
        "▁dugmesin",
        -10.445611162875
      ],
      [
        "altı",
        -9.914499492217953
      ],
      [
        "caba",
        -7.273779888668228
      ],
      [
        "▁mecliste",
        -10.516389505020955
      ],
      [
        "▁kurmus",
        -9.498805748931144
      ],
      [
        "al",
        -6.132646043440521
      ],
      [
        "▁alem",
        -9.437716256862675
      ],
      [
        "▁dusmus",
        -8.053195013146944
      ],
      [
        "ayesinde",
        -10.40756177004778
      ],
      [
        "ger",
        -3.133136128089496
      ],
      [
        "▁pilot",
        -9.396969744364359
      ],
      [
        "▁mahluk",
        -10.89889858422687
      ],
      [
        "▁tuta",
        -8.894953888268887
      ],
      [
        "▁tak",
        -9.138365319504116
      ],
      [
        "▁sekil",
        -9.748264159171061
      ],
      [
        "▁siz",
        -4.451945015214789
      ],
      [
        "▁cin",
        -7.368193966484964
      ],
      [
        "▁gorbacov",
        -8.639050233112885
      ],
      [
        "▁corry",
        -8.902012342926124
      ],
      [
        "▁ten",
        -9.248231523362804
      ],
      [
        "▁veriyoru",
        -6.660868243085296
      ],
      [
        "▁diyalogu",
        -10.825931368981479
      ],
      [
        "▁mese",
        -10.889752314340713
      ],
      [
        "j",
        -10.485677446831321
      ],
      [
        "in",
        -8.211738689545989
      ],
      [
        "▁tah",
        -9.594410923587265
      ],
      [
        "▁oda",
        -6.3169395955319585
      ],
      [
        "▁yaslar",
        -9.912942344522982
      ],
      [
        "▁edildi",
        -7.139347202228309
      ],
      [
        "▁arkasında",
        -8.539778689059514
      ],
      [
        "▁adalet",
        -9.516667841786656
      ],
      [
        "▁dedigi",
        -9.422639592153207
      ],
      [
        "▁erdogan'ı",
        -8.798104784589302
      ],
      [
        "▁elim",
        -9.379149788760305
      ],
      [
        "gun",
        -9.45205317757916
      ],
      [
        "▁alabilme",
        -10.162297637561204
      ],
      [
        "▁odunları",
        -10.978817371983531
      ],
      [
        "▁parmak",
        -9.081438372891824
      ],
      [
        "▁delikanlı",
        -8.603184389034485
      ],
      [
        "▁reng",
        -10.98964170334749
      ],
      [
        "▁sanı",
        -10.897830538843507
      ],
      [
        "▁titiz",
        -9.208187346218565
      ],
      [
        "▁2003",
        -8.154411264281707
      ],
      [
        "▁koptu",
        -9.105474960460139
      ],
      [
        "▁elini",
        -8.321425985232707
      ],
      [
        "▁gogu",
        -10.591008345097716
      ],
      [
        "ıp",
        -5.680099940697676
      ],
      [
        "eli",
        -8.613668942201887
      ],
      [
        "acaktı",
        -9.185747729351776
      ],
      [
        "▁adımlar",
        -9.795904212015571
      ],
      [
        "▁ikram",
        -9.366077204772829
      ],
      [
        "▁sapan",
        -10.359418845523763
      ],
      [
        "bon",
        -8.720926755028383
      ],
      [
        "uz",
        -8.215121340855053
      ],
      [
        "onları",
        -8.727200049969378
      ],
      [
        "▁kullanılı",
        -9.282414373089779
      ],
      [
        "▁vermek",
        -7.767445557048978
      ],
      [
        "▁dukkanlar",
        -10.675182776003167
      ],
      [
        "▁ruzgarların",
        -11.066960796812028
      ],
      [
        "liginde",
        -9.455428756749734
      ],
      [
        "▁alımı",
        -9.291178428531493
      ],
      [
        "▁ben",
        -8.334256861197098
      ],
      [
        "▁dudagı",
        -10.630665147315742
      ],
      [
        "▁mut",
        -9.158609298831577
      ],
      [
        "▁darbe",
        -8.765084605568077
      ],
      [
        "▁reviz",
        -10.164065520142545
      ],
      [
        "▁kanser",
        -10.172447830013189
      ],
      [
        "n",
        -5.646770103360007
      ],
      [
        "▁seyrediyordu",
        -9.160413989879215
      ],
      [
        "▁gecmek",
        -10.396921137592905
      ],
      [
        "▁gelmeye",
        -10.928873553062386
      ],
      [
        "▁gulumse",
        -9.516710198036318
      ],
      [
        "▁uzer",
        -10.08372679436448
      ],
      [
        "▁adayları",
        -10.103950461243102
      ],
      [
        "▁iba",
        -9.366153315473873
      ],
      [
        "sela",
        -9.525500822199067
      ],
      [
        "▁sanatın",
        -10.081459169376465
      ],
      [
        "▁sofa",
        -9.933651843909157
      ],
      [
        "▁aktiviteleri",
        -10.532217548547901
      ],
      [
        "▁amerikalı",
        -9.459852662226066
      ],
      [
        "bia",
        -10.845521755650587
      ],
      [
        "▁anaların",
        -11.119681696013535
      ],
      [
        "▁dostu",
        -8.669111882232741
      ],
      [
        "▁duvar",
        -8.440510891564148
      ],
      [
        "'le",
        -7.744582706234022
      ],
      [
        "▁toplantıların",
        -10.993266507685405
      ],
      [
        "▁depolama",
        -10.911715241764796
      ],
      [
        "▁indianapolis",
        -8.143947437469897
      ],
      [
        "▁ne",
        -5.102818083154211
      ],
      [
        "▁serit",
        -10.923514992312183
      ],
      [
        "▁ar",
        -9.228064716069442
      ],
      [
        "▁gectik",
        -10.464360515566696
      ],
      [
        "▁guleryuzluydu",
        -7.422967873461411
      ],
      [
        "dıgını",
        -8.022441030192539
      ],
      [
        "▁long",
        -7.475427347950381
      ],
      [
        "▁mırıldandı",
        -9.319258377911623
      ],
      [
        "ra",
        -8.932676757935745
      ],
      [
        "▁yi",
        -6.724826691407345
      ],
      [
        "▁i",
        -8.828019676066251
      ],
      [
        "▁yavast",
        -9.128014861547346
      ],
      [
        "▁konusuyordu",
        -9.651271574199466
      ],
      [
        "▁dikil",
        -9.599319943204412
      ],
      [
        "▁araclarını",
        -11.059612694550893
      ],
      [
        "▁puanla",
        -9.22851941704781
      ],
      [
        "▁tuy",
        -10.968461164225213
      ],
      [
        "▁yazmay",
        -10.771438151892971
      ],
      [
        "▁zarfın",
        -10.32557612174384
      ],
      [
        "▁sınıfı",
        -8.233361380940078
      ],
      [
        "▁ogrencilerin",
        -9.954329415920085
      ],
      [
        "▁orlando",
        -8.016363390628642
      ],
      [
        "▁bilinc",
        -9.689640307487362
      ],
      [
        "▁marjları",
        -10.655085024114268
      ],
      [
        "▁uzerin",
        -6.161937060409342
      ],
      [
        "▁satıs",
        -7.538115807172049
      ],
      [
        "▁makine",
        -8.74433065003681
      ],
      [
        "▁tasarruf",
        -8.979600725935518
      ],
      [
        "▁bi",
        -8.757865174473016
      ],
      [
        "▁azar",
        -11.100150476167023
      ],
      [
        "▁detroit",
        -8.640914326914734
      ],
      [
        "lardi",
        -9.411817586757744
      ],
      [
        "▁odasın",
        -9.474443761927333
      ],
      [
        "il",
        -8.041720945472774
      ],
      [
        "▁tavan",
        -9.448846129537332
      ],
      [
        "▁ay",
        -6.92916456437955
      ],
      [
        "▁zorla",
        -9.418596617037352
      ],
      [
        "▁konuları",
        -9.933464505787292
      ],
      [
        "▁s",
        -8.215671686759379
      ],
      [
        "▁ev",
        -7.035287440564046
      ],
      [
        "▁yastık",
        -10.793075279306896
      ],
      [
        "[CLS]",
        0.0
      ],
      [
        "diler",
        -7.528130489915812
      ],
      [
        "▁ermesi",
        -10.956691330140332
      ],
      [
        "▁hamam",
        -8.4498874459518
      ],
      [
        "▁bosaltma",
        -10.732078511222928
      ],
      [
        "▁sunlar",
        -6.837551784206271
      ],
      [
        "▁bor",
        -8.5900152522692
      ],
      [
        "▁enerjisi",
        -11.01991303574281
      ],
      [
        "▁sarar",
        -9.189062105374958
      ],
      [
        "▁komunist",
        -10.611709680623461
      ],
      [
        "▁ceke",
        -8.506260510674569
      ],
      [
        "▁dikkatini",
        -10.475502286982568
      ],
      [
        ".50",
        -7.749267556175533
      ],
      [
        "las",
        -9.454934569166083
      ],
      [
        "milyon",
        -7.731352045643797
      ],
      [
        "▁yanlıs",
        -9.466727487151354
      ],
      [
        "▁fa",
        -5.262360152298196
      ],
      [
        "▁usulu",
        -10.613653161741418
      ],
      [
        "▁olcum",
        -10.765196646156562
      ],
      [
        "on'un",
        -8.546638564976181
      ],
      [
        "▁kıymetin",
        -10.71482803203821
      ],
      [
        "ta",
        -7.511362580751778
      ],
      [
        "▁ederse",
        -9.315022785462313
      ],
      [
        "r",
        -8.379793470514926
      ],
      [
        "l",
        -5.067017035620294
      ],
      [
        "▁2.6",
        -7.411926299767766
      ],
      [
        "▁tek",
        -5.296622749586831
      ],
      [
        "▁tum",
        -9.993847843651885
      ],
      [
        "▁memnuniyetini",
        -10.7992208278731
      ],
      [
        "muza",
        -10.670315657230873
      ],
      [
        "amalı",
        -9.583291530830964
      ],
      [
        "▁soyleyis",
        -11.098909599823372
      ],
      [
        "▁sunma",
        -10.25683058364741
      ],
      [
        "▁paket",
        -9.267630348101688
      ],
      [
        "▁acıklamalar",
        -11.004400996535955
      ],
      [
        "▁mekan",
        -9.111083749082232
      ],
      [
        "▁kotuluk",
        -11.099955329708193
      ],
      [
        "▁once",
        -8.922146012215052
      ],
      [
        "vabı",
        -11.09884443407261
      ],
      [
        "▁buyumesin",
        -10.737767895510586
      ],
      [
        "▁savur",
        -9.706854124400111
      ],
      [
        "unlu",
        -7.55797632889681
      ],
      [
        "▁basarı",
        -9.182517749845893
      ],
      [
        "▁turlar",
        -10.729021459867566
      ],
      [
        "▁sayan",
        -10.598827911913176
      ],
      [
        "▁esas",
        -10.39105768320735
      ],
      [
        "▁saf",
        -9.855237164050951
      ],
      [
        "▁otu",
        -10.884846283689587
      ],
      [
        "▁takım",
        -8.31892680761301
      ],
      [
        "yla",
        -8.682934634661649
      ],
      [
        "irlik",
        -5.69607855368877
      ],
      [
        "cık",
        -9.121051630397353
      ],
      [
        "▁arkadasımı",
        -11.080557831475225
      ],
      [
        "▁yuzme",
        -8.041423548673958
      ],
      [
        "▁haldun",
        -9.009375260483925
      ],
      [
        "▁saatinde",
        -10.501523531067864
      ],
      [
        "n",
        -2.612661024943989
      ],
      [
        "▁arasın",
        -7.727391433307153
      ],
      [
        "▁ortalık",
        -9.371713254701188
      ],
      [
        "▁kitapları",
        -9.68448975973704
      ],
      [
        "his",
        -8.33901680755023
      ],
      [
        "▁halkalar",
        -10.712204731963402
      ],
      [
        "▁tetik",
        -10.787678515752248
      ],
      [
        "▁unu",
        -9.791649822615165
      ],
      [
        "nci",
        -8.061289927208463
      ],
      [
        "▁sehirleri",
        -10.728418403049648
      ],
      [
        "son",
        -7.531826592809271
      ],
      [
        "▁r",
        -7.410864347944156
      ],
      [
        "▁omuzların",
        -10.544228259092874
      ],
      [
        "▁iznini",
        -10.623062336500844
      ],
      [
        "▁aydınlat",
        -10.89930438687396
      ],
      [
        "▁kalite",
        -7.615516568414705
      ],
      [
        "▁ipi",
        -10.859398853413538
      ],
      [
        "ben",
        -7.409524854259412
      ],
      [
        "▁kondu",
        -10.810566104851219
      ],
      [
        "▁leri",
        -8.23078403741966
      ],
      [
        "▁klima",
        -9.634468112030437
      ],
      [
        "▁sardı",
        -9.517934422677554
      ],
      [
        "▁yedi",
        -5.3484134847842775
      ],
      [
        "▁evleri",
        -9.601002774491494
      ],
      [
        "y",
        -7.270921725675689
      ],
      [
        "▁yayıldı",
        -9.626248084190717
      ],
      [
        "▁rıza",
        -10.35316286545171
      ],
      [
        "47",
        -8.293572597258125
      ],
      [
        "▁gozumu",
        -10.79631889102298
      ],
      [
        "seyi",
        -10.517299659931872
      ],
      [
        "▁yaklası",
        -6.023838545224694
      ],
      [
        "▁yaldız",
        -11.098753462725861
      ],
      [
        "▁acıyor",
        -8.693302771973773
      ],
      [
        "▁oralar",
        -10.868073242752688
      ],
      [
        "▁kadehini",
        -11.11468986155892
      ],
      [
        "▁oglan",
        -9.037189572219635
      ],
      [
        "▁davranislari",
        -10.356281346084245
      ],
      [
        "▁elestirileri",
        -10.859697462157374
      ],
      [
        "▁el",
        -7.250148484106722
      ],
      [
        "▁dai",
        -8.212908243381195
      ],
      [
        "ice",
        -9.645071295647874
      ],
      [
        "▁kazanc",
        -7.8912085107784105
      ],
      [
        "▁dama",
        -10.088977084924393
      ],
      [
        "▁erdogan",
        -8.51117952359293
      ],
      [
        "▁kollarını",
        -9.705065173696124
      ],
      [
        "▁nota",
        -10.708508544689847
      ],
      [
        "abilecek",
        -9.296704082170224
      ],
      [
        "▁kaynıyor",
        -9.55258154098592
      ],
      [
        "▁iyisi",
        -10.675305264988534
      ],
      [
        "yuz",
        -10.792955414336994
      ],
      [
        "▁bacak",
        -9.983693458897484
      ],
      [
        "▁hayır",
        -8.64403308301028
      ],
      [
        "▁kalmıs",
        -7.921193617553888
      ],
      [
        "▁alan",
        -7.7454325953840995
      ],
      [
        "▁parlamento",
        -9.864014968148922
      ],
      [
        "▁mart'ta",
        -8.89914827322485
      ],
      [
        "malıydı",
        -8.828519668313596
      ],
      [
        "i",
        -3.7820737249274696
      ],
      [
        "▁gorgu",
        -10.002050590382783
      ],
      [
        "▁iliskimiz",
        -10.935813933471579
      ],
      [
        "▁havayolları'nı",
        -10.591424982160703
      ],
      [
        "▁kontrol",
        -8.219023470863853
      ],
      [
        "▁c",
        -9.5522208269846
      ],
      [
        "▁taze",
        -7.7460431805793695
      ],
      [
        "▁dusu",
        -10.679140736216215
      ],
      [
        "▁varlıgın",
        -10.110013908163639
      ],
      [
        "erli",
        -8.855034551292077
      ],
      [
        "▁tar",
        -10.679720916123724
      ],
      [
        "ısıklıgı",
        -11.018151621931047
      ],
      [
        "▁dalkavuklar",
        -11.037728055856897
      ],
      [
        "▁yenilen",
        -9.718876377360477
      ],
      [
        "▁uca",
        -7.87841749773607
      ],
      [
        "▁risk",
        -8.916658141718472
      ],
      [
        "▁ici",
        -7.0951664394874765
      ],
      [
        "▁edecegi",
        -9.17869910202968
      ],
      [
        "▁giris",
        -9.266900290814611
      ],
      [
        "▁atlet",
        -10.467120553253952
      ],
      [
        "“",
        -9.068411161210182
      ],
      [
        "▁sıcagı",
        -11.032997130483817
      ],
      [
        "▁allah",
        -7.160498052187049
      ],
      [
        "▁goreceli",
        -10.898743241564503
      ],
      [
        "▁ucuslarınız",
        -10.076140997896783
      ],
      [
        "▁sevmez",
        -9.53145963607252
      ],
      [
        "lara",
        -8.76423442948313
      ],
      [
        "▁inci",
        -10.368302719717704
      ],
      [
        "▁rampa",
        -10.734712028886433
      ],
      [
        "▁siparisleri",
        -10.756437664481433
      ],
      [
        "▁nusha",
        -10.162198897401879
      ],
      [
        "▁onculuk",
        -10.464582377545383
      ],
      [
        "▁saglama",
        -10.664780202749846
      ],
      [
        "▁ihtiyacim",
        -10.549029716613676
      ],
      [
        "▁hareketler",
        -9.715029065187997
      ],
      [
        "ması",
        -7.2464266973765294
      ],
      [
        "▁yerles",
        -9.200525525194323
      ],
      [
        "▁amacı",
        -8.878671192718736
      ],
      [
        "kla",
        -9.739074116672672
      ],
      [
        "▁iste",
        -8.975898554949437
      ],
      [
        "▁ya",
        -8.672989836050743
      ],
      [
        "▁saglık",
        -8.308972200964265
      ],
      [
        "▁tutu",
        -9.090777434709317
      ],
      [
        "dıkları",
        -9.699262805768315
      ],
      [
        "▁jo",
        -10.732890702584768
      ],
      [
        "▁karsiligi",
        -8.09256963303922
      ],
      [
        "▁gormemis",
        -9.636027357799652
      ],
      [
        "▁duvarın",
        -9.73768235660865
      ],
      [
        "▁jersey",
        -8.613319896571515
      ],
      [
        "tır",
        -9.302709762412047
      ],
      [
        "▁o",
        -8.605437628909534
      ],
      [
        "▁kazanın",
        -10.576107814646896
      ],
      [
        "▁konya",
        -11.124197564052805
      ],
      [
        "▁sokaklar",
        -10.041624407307769
      ],
      [
        "▁yonetiyor",
        -9.569001752421553
      ],
      [
        "▁ilgileni",
        -9.647227748614306
      ],
      [
        "lerin",
        -6.815834505809936
      ],
      [
        "▁gerceklestir",
        -8.664230163448453
      ],
      [
        "▁performansını",
        -10.811377456347136
      ],
      [
        "▁bebegi",
        -10.011816528857372
      ],
      [
        "▁otesi",
        -10.381178578416261
      ],
      [
        "b",
        -7.087749311720764
      ],
      [
        "ılacak",
        -9.520352121961801
      ],
      [
        "kendi",
        -8.045656625088052
      ],
      [
        "▁oyunculugu",
        -10.904289610283953
      ],
      [
        "▁deniyor",
        -9.210391117270376
      ],
      [
        "cogunda",
        -11.02891919080691
      ],
      [
        "▁suru",
        -9.281164385537569
      ],
      [
        "▁24",
        -6.263247141229067
      ],
      [
        "/",
        -9.003954234622187
      ],
      [
        "▁kurum",
        -9.332732117089673
      ],
      [
        "▁istikrar",
        -10.616566356002215
      ],
      [
        "▁kitaplar",
        -9.192477069328516
      ],
      [
        "akka",
        -8.407853895765978
      ],
      [
        "6.25",
        -7.916094576899859
      ],
      [
        "\\",
        -10.58921907850575
      ],
      [
        "▁300",
        -6.580752342133439
      ],
      [
        "▁panama",
        -9.043866594336045
      ],
      [
        "▁komisyonu'nu",
        -10.924140303908993
      ],
      [
        "▁kafasın",
        -9.942047356457499
      ],
      [
        "▁burcu",
        -10.317716975277735
      ],
      [
        "ham",
        -9.821019571170135
      ],
      [
        "▁hazırlan",
        -10.5030277716045
      ],
      [
        "▁kumsal",
        -9.21965614408818
      ],
      [
        "▁kandır",
        -9.772388490138166
      ],
      [
        "▁kavram",
        -10.474680990309428
      ],
      [
        "izin",
        -9.640519507891911
      ],
      [
        "▁california'",
        -7.9573498598326395
      ],
      [
        "izin",
        -10.66459546578533
      ],
      [
        "▁d",
        -9.995414436185875
      ],
      [
        "mın",
        -9.812213846521114
      ],
      [
        "▁sahil",
        -9.749676515131068
      ],
      [
        "▁baz",
        -9.004098327508032
      ],
      [
        "emez",
        -9.4865510936414
      ],
      [
        "▁'di",
        -7.783819529870545
      ],
      [
        "▁dusunu",
        -8.635085735701736
      ],
      [
        "evi",
        -9.337770615436549
      ],
      [
        "▁acıklan",
        -9.148137429558416
      ],
      [
        "▁yaptıgı",
        -7.8310214212526015
      ],
      [
        "▁yaglı",
        -8.374836103730527
      ],
      [
        "aret",
        -9.50431254651248
      ],
      [
        "▁konsept",
        -10.832823062530359
      ],
      [
        "fa",
        -10.477154436943502
      ],
      [
        "▁za",
        -8.400602552092757
      ],
      [
        "▁si",
        -9.772202600460655
      ],
      [
        "▁savas",
        -8.39206097511519
      ],
      [
        "▁tukur",
        -10.591829566050343
      ],
      [
        "▁duzenleyen",
        -9.620601276362368
      ],
      [
        "▁diyorlar",
        -8.587635060467774
      ],
      [
        "▁yaratıklar",
        -10.89913774041528
      ],
      [
        "▁cıkacak",
        -8.421362773231149
      ],
      [
        "▁ruhunda",
        -10.944624553604221
      ],
      [
        "▁emin",
        -8.915546354227907
      ],
      [
        "▁turlarin",
        -10.431006235619225
      ],
      [
        "▁gencler",
        -9.354745956512124
      ],
      [
        "▁anneler",
        -10.541744937773604
      ],
      [
        "▁harbi",
        -11.110974789258085
      ],
      [
        "dolay",
        -8.574508283218814
      ],
      [
        "▁pisiri",
        -8.849756060589662
      ],
      [
        "▁alkol",
        -9.039407212218565
      ],
      [
        "▁cev",
        -8.985896686761375
      ],
      [
        "▁odulu",
        -10.57952806549293
      ],
      [
        "i",
        -3.0732711944739446
      ],
      [
        "▁montreal'da",
        -8.263105489212075
      ],
      [
        "▁ban",
        -8.834986789945326
      ],
      [
        "▁baslıyor",
        -7.948286599352066
      ],
      [
        "▁boz",
        -8.87834872841065
      ],
      [
        "▁kadıkoy'de",
        -9.010654703116272
      ],
      [
        "▁bilen",
        -8.95923476818215
      ],
      [
        "▁ihlal",
        -9.930514051045277
      ],
      [
        "▁teklifte",
        -10.657092120413655
      ],
      [
        "▁lafı",
        -9.85267597743349
      ],
      [
        "▁mumlar",
        -10.97829441071572
      ],
      [
        "▁ayn",
        -9.451682985233774
      ],
      [
        "▁bilemiyor",
        -9.615336734954052
      ],
      [
        "▁yuzumu",
        -10.756806323594063
      ],
      [
        "▁dosegin",
        -10.898753955712762
      ],
      [
        "▁isporta",
        -10.898795014698166
      ],
      [
        "▁burnu",
        -9.861928117271322
      ],
      [
        "▁okuz",
        -10.9532401269262
      ],
      [
        "▁dolar",
        -5.922150929201806
      ],
      [
        "▁ziraat",
        -11.098743111276399
      ],
      [
        "▁indianapolis'te",
        -7.020105383147481
      ],
      [
        "likt",
        -6.5852774385037165
      ],
      [
        "▁sosyal",
        -7.120592372210748
      ],
      [
        "▁yararlanma",
        -11.103256570179205
      ],
      [
        "▁almalar",
        -10.19361282644823
      ],
      [
        "▁felc",
        -10.081121566344754
      ],
      [
        "▁beynim",
        -10.93723540935282
      ],
      [
        "▁noktası",
        -9.229177185792704
      ],
      [
        "sever",
        -9.60150839865091
      ],
      [
        "▁d",
        -6.355214304135228
      ],
      [
        "ttıgı",
        -8.920023401214241
      ],
      [
        "▁verdikleri",
        -9.624758000184627
      ],
      [
        "▁imajı",
        -10.880833534885799
      ],
      [
        "▁cay",
        -8.37583606345592
      ],
      [
        "'da",
        -7.32189348330439
      ],
      [
        "▁hisselerini",
        -8.963720103570587
      ],
      [
        "▁hatice",
        -8.887508997895862
      ],
      [
        "▁derdi",
        -9.963663127273538
      ],
      [
        "▁iddialarını",
        -10.54781614081687
      ],
      [
        "▁bira",
        -7.941284487515571
      ],
      [
        "▁olması",
        -7.739305565259295
      ],
      [
        "▁veriliyor",
        -9.224711391335536
      ],
      [
        "▁kullanımını",
        -10.658364672946114
      ],
      [
        "dan",
        -5.735766773513523
      ],
      [
        "9'",
        -9.431557839181924
      ],
      [
        "▁kendilerinde",
        -8.111357562464656
      ],
      [
        "▁esim",
        -8.747604794283966
      ],
      [
        "▁suclama",
        -9.635935062050956
      ],
      [
        "tor",
        -9.917515256807373
      ],
      [
        "▁rub",
        -10.899790917921559
      ],
      [
        "▁catı",
        -9.820762356149471
      ],
      [
        "▁onay",
        -9.460556956572951
      ],
      [
        "▁birlesme",
        -9.49318325426875
      ],
      [
        "▁mertebe",
        -11.034563533053714
      ],
      [
        "▁toplulugu",
        -10.68124212736395
      ],
      [
        "ikti",
        -7.817354013015377
      ],
      [
        "▁yiyor",
        -9.053814954153134
      ],
      [
        "▁avukat",
        -8.897897004522111
      ],
      [
        "▁erik",
        -10.085704458074105
      ],
      [
        "▁bell",
        -8.087504603383183
      ],
      [
        "▁mendil",
        -9.603081930616305
      ],
      [
        "cul",
        -9.352168790030547
      ],
      [
        "▁kadrosu",
        -10.59758483454119
      ],
      [
        "▁pekmez",
        -11.062664547130773
      ],
      [
        "▁kap",
        -8.418283722744334
      ],
      [
        "▁ha",
        -7.625962682190957
      ],
      [
        "▁guclerini",
        -10.522782869376549
      ],
      [
        "▁sa",
        -8.944369765543822
      ],
      [
        "▁yanın",
        -9.57132901045268
      ],
      [
        "▁kaynak",
        -8.392314996620811
      ],
      [
        "▁kendisin",
        -5.410287165828488
      ],
      [
        "▁etme",
        -7.976332795954513
      ],
      [
        "▁fincanı",
        -10.622527797860233
      ],
      [
        "▁adalet",
        -8.798363004799178
      ],
      [
        "▁kostek",
        -11.098757775449418
      ],
      [
        "in",
        -6.699953591494115
      ],
      [
        "▁milyarlar",
        -10.618556408342542
      ],
      [
        "▁yasaya",
        -8.566349252591053
      ],
      [
        "▁ikimiz",
        -8.192797663683141
      ],
      [
        "▁hastaneler",
        -10.969290371436545
      ],
      [
        "cek",
        -7.863023733881743
      ],
      [
        "▁masrafları",
        -10.840285399977903
      ],
      [
        "▁ulasım",
        -8.014398115250813
      ],
      [
        "▁donem",
        -9.51227878407665
      ],
      [
        "f",
        -11.199613634584775
      ],
      [
        "▁teslim",
        -8.720370402266308
      ],
      [
        "▁sofra",
        -9.262453890159673
      ],
      [
        "ff",
        -10.814283107803465
      ],
      [
        "▁kavgasın",
        -11.098115184775397
      ],
      [
        "▁seviyoru",
        -9.72686716077269
      ],
      [
        "▁erkegi",
        -9.592769105180272
      ],
      [
        "▁apartman",
        -9.705191138917993
      ],
      [
        "▁sahada",
        -9.953912466130072
      ],
      [
        "▁sendikalar",
        -10.933353993730455
      ],
      [
        "▁idaresi",
        -9.913383649104711
      ],
      [
        "▁bahar",
        -9.313718990986338
      ],
      [
        "▁yardımı",
        -9.490632698759708
      ],
      [
        "▁balık",
        -9.027850425270419
      ],
      [
        "▁islemlerin",
        -9.563062140598698
      ],
      [
        "▁sahney",
        -9.72090384619676
      ],
      [
        "▁basarıy",
        -10.413396911880692
      ],
      [
        "▁kuyumcu",
        -10.589267234413242
      ],
      [
        "▁catma",
        -10.741780689236972
      ],
      [
        "▁hacmin",
        -9.97835215831945
      ],
      [
        "▁kıyasla",
        -9.090742854257138
      ],
      [
        "▁sonu",
        -8.840424687555515
      ],
      [
        "▁katilma",
        -9.024665080180414
      ],
      [
        "is",
        -8.80045618765409
      ],
      [
        "▁ortasında",
        -8.869831624052399
      ],
      [
        "▁tasarımı",
        -10.666412374820162
      ],
      [
        "▁dizustu",
        -10.732353377020504
      ],
      [
        "▁dogus",
        -11.061991113092464
      ],
      [
        "▁vermisler",
        -9.280210924320894
      ],
      [
        "▁peyniri",
        -9.61074604052196
      ],
      [
        "▁anlayamadı",
        -9.694705296145237
      ],
      [
        "▁yasayı",
        -10.881967989789745
      ],
      [
        "▁fırlay",
        -9.318000560125114
      ],
      [
        "▁aga",
        -9.183693868763076
      ],
      [
        "▁sen",
        -8.46960218868321
      ],
      [
        "▁olsa",
        -6.643758325011331
      ],
      [
        "bir",
        -8.552334326594274
      ],
      [
        "kları",
        -9.019317437209342
      ],
      [
        "▁dusmesi",
        -10.830392642049251
      ],
      [
        "▁ucus",
        -8.427585589277788
      ],
      [
        "▁kir",
        -8.350401563255
      ],
      [
        "li",
        -7.682365821945813
      ],
      [
        "▁cenesin",
        -11.08292188672101
      ],
      [
        "▁karsılas",
        -11.088331779029547
      ],
      [
        "▁biriy",
        -10.706400478320845
      ],
      [
        "▁oneri",
        -9.873214341705463
      ],
      [
        "▁sekreter",
        -9.592814750772968
      ],
      [
        "▁huner",
        -10.574514027915086
      ],
      [
        "itap",
        -9.222733565048745
      ],
      [
        "▁beklemiyor",
        -9.09223345261776
      ],
      [
        "▁isgucu",
        -10.162209122299501
      ],
      [
        "▁sacların",
        -10.130652400709838
      ],
      [
        "▁banyo",
        -8.865704862306691
      ],
      [
        "▁yatırımcıları",
        -9.17223464380213
      ],
      [
        "▁bulama",
        -10.234750022303706
      ],
      [
        "▁kalmamıs",
        -9.182884536909867
      ],
      [
        "▁olurdu",
        -7.791669779447872
      ],
      [
        "▁ajans",
        -9.904055849723893
      ],
      [
        "ım",
        -12.137025695733549
      ],
      [
        ".",
        -7.934854841237781
      ],
      [
        "mi",
        -8.918657595756954
      ],
      [
        "▁utu",
        -10.16488647323943
      ],
      [
        "▁ar",
        -7.983228872390977
      ],
      [
        "▁ucuyor",
        -7.226806831398758
      ],
      [
        "▁kelepir",
        -10.73207624625589
      ],
      [
        "▁elimizde",
        -10.10699179333387
      ],
      [
        "▁cicegin",
        -10.861870081513466
      ],
      [
        "▁zerre",
        -10.898742981361918
      ],
      [
        "▁anlasmasını",
        -10.817107385909125
      ],
      [
        "3",
        -10.239201196825352
      ],
      [
        "▁cumartesi",
        -7.617833189658602
      ],
      [
        "▁yazmak",
        -10.383297310716635
      ],
      [
        "▁hic",
        -9.270823439312151
      ],
      [
        "izli",
        -10.448393888477998
      ],
      [
        "▁ısıklar",
        -10.307675791597358
      ],
      [
        "▁siper",
        -9.863847787540315
      ],
      [
        "▁ofke",
        -9.251054873770883
      ],
      [
        "▁peni",
        -10.466023172959309
      ],
      [
        "▁ismi",
        -9.355236957443005
      ],
      [
        "▁seyim",
        -10.778407859309814
      ],
      [
        "▁saglamay",
        -10.595797121422908
      ],
      [
        "matik",
        -9.165970023814246
      ],
      [
        "▁ortak",
        -9.264854829276072
      ],
      [
        "▁lideri",
        -9.090315861729023
      ],
      [
        "▁falan",
        -9.423365492739334
      ],
      [
        "st",
        -8.899281185320195
      ],
      [
        "▁cevir",
        -9.418602973102255
      ],
      [
        "▁ezber",
        -11.087801965663893
      ],
      [
        "▁vezir",
        -11.099074951585317
      ],
      [
        "▁calismasin",
        -9.885398459928062
      ],
      [
        "mis",
        -5.6537645568386345
      ],
      [
        "de",
        -5.333151002206947
      ],
      [
        "tı",
        -9.369293766212515
      ],
      [
        "▁ulasımını",
        -9.640721314399048
      ],
      [
        "▁isteye",
        -8.487280285385715
      ],
      [
        "▁magazin",
        -10.253107970363251
      ],
      [
        "▁cagırı",
        -9.480438913205337
      ],
      [
        "▁kırsal",
        -9.545961267899852
      ],
      [
        "▁konusu",
        -8.627981485209231
      ],
      [
        "▁tef",
        -9.92752784640301
      ],
      [
        "▁tesekkur",
        -7.533302992002742
      ],
      [
        "lti",
        -10.722530833865596
      ],
      [
        "50000",
        -7.556726648162069
      ],
      [
        "di",
        -6.312665811588268
      ],
      [
        "▁domatesleri",
        -10.6139671191425
      ],
      [
        "▁nabzı",
        -11.09874296266082
      ],
      [
        "▁patronları",
        -11.120538620696138
      ],
      [
        "mayacagını",
        -9.615309750567
      ],
      [
        "▁sebepler",
        -9.685465234043308
      ],
      [
        "▁varlıklar",
        -9.35636244849529
      ],
      [
        "▁korumak",
        -9.639692212993378
      ],
      [
        "▁ba",
        -9.012939786348625
      ],
      [
        "▁itiraz",
        -9.336485082070418
      ],
      [
        "▁hır",
        -10.985834749107369
      ],
      [
        "▁kılavuz",
        -10.561150477537382
      ],
      [
        "▁tedbirler",
        -10.194298157570499
      ],
      [
        "▁ayhan",
        -7.795699687227096
      ],
      [
        "▁hattın",
        -10.92859988724339
      ],
      [
        "im",
        -9.165609937368112
      ],
      [
        "▁kapanısın",
        -10.247340687470118
      ],
      [
        "▁baskanın",
        -10.33950366149121
      ],
      [
        "▁degistir",
        -8.59052840226389
      ],
      [
        "▁bulbul",
        -9.612750755814089
      ],
      [
        "▁cıkarları",
        -10.917382409456275
      ],
      [
        "▁cilek",
        -10.913391057592534
      ],
      [
        "▁kesintisi",
        -10.356319424538537
      ],
      [
        "nden",
        -7.654988546416117
      ],
      [
        "▁15",
        -5.317744224803343
      ],
      [
        "▁tanıkları",
        -10.514323712280138
      ],
      [
        "▁kullanım",
        -9.670349398330929
      ],
      [
        "lim",
        -11.104798434546284
      ],
      [
        "ıgım",
        -10.711813564631488
      ],
      [
        "▁onum",
        -10.391074851980733
      ],
      [
        "▁parkın",
        -10.091185771866517
      ],
      [
        "▁olun",
        -8.519611066824282
      ],
      [
        "▁cogu",
        -7.522406212547266
      ],
      [
        "ek",
        -8.432671710188803
      ],
      [
        "▁prim",
        -10.08256215527953
      ],
      [
        "▁hukumet",
        -7.757099513803864
      ],
      [
        "▁zengin",
        -7.073573728941109
      ],
      [
        "resmi",
        -7.411034989182304
      ],
      [
        "▁sove",
        -10.932088675656393
      ],
      [
        "▁biciminde",
        -10.59446753755877
      ],
      [
        "▁yuzd",
        -6.009199951643306
      ],
      [
        "▁ogretmen",
        -9.001856830542408
      ],
      [
        "▁yasları",
        -10.535082644860099
      ],
      [
        "hangi",
        -9.863712282746837
      ],
      [
        "mezse",
        -9.054683499293631
      ],
      [
        "▁gonzalez",
        -8.887606055928373
      ],
      [
        "▁bombardıman",
        -10.898742889747872
      ],
      [
        "▁yuzluydu",
        -7.899895773429951
      ],
      [
        "▁tavrı",
        -9.846122302900293
      ],
      [
        "▁faktoru",
        -11.120621521710516
      ],
      [
        "▁halı",
        -9.47774490504867
      ],
      [
        "nca",
        -6.940399481638486
      ],
      [
        "▁yazının",
        -10.312693253205193
      ],
      [
        "▁evlerin",
        -9.0833451923999
      ],
      [
        "sekiz",
        -7.187399372377987
      ],
      [
        "▁ba",
        -9.366464998966364
      ],
      [
        "▁s",
        -6.552837919622918
      ],
      [
        "ktadır",
        -9.704103570802694
      ],
      [
        "▁kredilerin",
        -10.800136031179186
      ],
      [
        "▁odalar",
        -7.850541904540477
      ],
      [
        "▁akın",
        -9.78849328370646
      ],
      [
        "1'de",
        -7.928153847613856
      ],
      [
        "▁yen",
        -9.27877434378265
      ],
      [
        "▁beklentim",
        -11.058606625179083
      ],
      [
        "▁hisseler",
        -8.61998068078267
      ],
      [
        "▁giden",
        -8.485533019195744
      ],
      [
        "▁inziva",
        -11.098742894968776
      ],
      [
        "▁olcu",
        -9.890386350349743
      ],
      [
        "acagı",
        -9.326474116927585
      ],
      [
        "▁standartların",
        -10.873555348486835
      ],
      [
        "▁bahanesi",
        -10.733701951322798
      ],
      [
        "▁magazada",
        -10.735987818696689
      ],
      [
        "▁makinist",
        -11.090466083727314
      ],
      [
        "▁otların",
        -10.696058302456624
      ],
      [
        "▁ıslah",
        -11.094224506324792
      ],
      [
        "▁rus",
        -10.485584758907756
      ],
      [
        "i",
        -3.475630407914794
      ],
      [
        "miyor",
        -8.2028418884852
      ],
      [
        "▁yumusa",
        -9.661833223822253
      ],
      [
        "▁oturu",
        -8.138288562191022
      ],
      [
        "▁atıyordu",
        -9.260449426633059
      ],
      [
        "▁kirpi",
        -10.895517883861658
      ],
      [
        "▁kalmadigim",
        -8.593248975650528
      ],
      [
        "▁lider",
        -9.602400795016028
      ],
      [
        "▁yılda",
        -8.189743034855468
      ],
      [
        "▁aradıgını",
        -11.120996444248131
      ],
      [
        "▁bunyesinde",
        -10.163287971964177
      ],
      [
        "▁icmek",
        -10.065346995961928
      ],
      [
        "▁uyma",
        -10.372729952606623
      ],
      [
        "asil",
        -9.55271875747163
      ],
      [
        "▁asansor",
        -10.446106234802956
      ],
      [
        "'da",
        -5.987685472531846
      ],
      [
        "▁alındıgında",
        -10.468978403097788
      ],
      [
        "▁vurdu",
        -7.930257629841012
      ],
      [
        "▁acılmıs",
        -9.406836248079493
      ],
      [
        "▁b",
        -7.3537497720859495
      ],
      [
        "▁acıklamasını",
        -10.699199418445573
      ],
      [
        "sız",
        -7.68390184486632
      ],
      [
        "▁ifsa",
        -10.73303323062961
      ],
      [
        "alti",
        -8.114501808880123
      ],
      [
        "▁geldigi",
        -8.825769745898913
      ],
      [
        "▁faaliyetlerinde",
        -10.789596008857353
      ],
      [
        "▁b.",
        -8.433591002124137
      ],
      [
        "manız",
        -11.122618564393088
      ],
      [
        "▁veril",
        -9.31138959581685
      ],
      [
        "mıslardı",
        -9.359139899636563
      ],
      [
        "ları",
        -8.642392733446677
      ],
      [
        "le",
        -6.887670592142281
      ],
      [
        "▁1980'ler",
        -10.253124828461909
      ],
      [
        "▁kurku",
        -11.050720895855116
      ],
      [
        "▁insanlar",
        -7.169049175329686
      ],
      [
        "▁dolasma",
        -10.002825438642358
      ],
      [
        "▁yapıl",
        -8.10621368155349
      ],
      [
        "aya",
        -9.358920692581325
      ],
      [
        "iki",
        -6.72307488974722
      ],
      [
        "▁onerileri",
        -10.512291080913123
      ],
      [
        "s",
        -6.083064316595122
      ],
      [
        "▁profesorun",
        -11.007655328542835
      ],
      [
        "▁tacı",
        -10.985819710947268
      ],
      [
        "a",
        -4.314550790991892
      ],
      [
        "▁hac",
        -9.85688383872184
      ],
      [
        "▁oyuncuların",
        -11.034419909333963
      ],
      [
        "▁piyasalar",
        -9.33542243416904
      ],
      [
        "▁bogma",
        -10.732080084337685
      ],
      [
        "▁tampa'",
        -8.04256393082669
      ],
      [
        "▁dayanıyor",
        -9.582304384997489
      ],
      [
        "abilirdi",
        -8.770862248958405
      ],
      [
        "▁atak",
        -10.945295098332943
      ],
      [
        "▁hissedarları",
        -10.4015231578547
      ],
      [
        "▁normal",
        -7.430989206315969
      ],
      [
        "▁trust",
        -8.038755782515096
      ],
      [
        "▁unutma",
        -10.25534143436208
      ],
      [
        "▁y",
        -5.777906907927925
      ],
      [
        "▁tuyl",
        -9.372087924555089
      ],
      [
        "▁serc",
        -11.008370666573354
      ],
      [
        "0",
        -4.429548908795915
      ],
      [
        "▁bok",
        -10.59296080691872
      ],
      [
        "e",
        -8.372618959769959
      ],
      [
        "gını",
        -8.14158609195981
      ],
      [
        "▁dagıtır",
        -9.633527790280874
      ],
      [
        "▁mutfak",
        -10.234032476881598
      ],
      [
        "▁kimseler",
        -10.335913207968618
      ],
      [
        "▁tadi",
        -9.949638995782095
      ],
      [
        "▁aylık",
        -8.605405261884497
      ],
      [
        "▁tasarısını",
        -10.718287743539527
      ],
      [
        "▁nese",
        -9.847737968208957
      ],
      [
        "▁elimde",
        -9.475906334451725
      ],
      [
        "▁eder",
        -10.255139025266724
      ],
      [
        "▁beylik",
        -10.855301868238996
      ],
      [
        "▁denedi",
        -9.673734365719303
      ],
      [
        "▁gitme",
        -9.808610710981478
      ],
      [
        "▁toprak",
        -8.489745413190828
      ],
      [
        "▁ulu",
        -9.623562338593961
      ],
      [
        "▁ta",
        -9.357792784809366
      ],
      [
        "▁fazlasını",
        -9.418054305300032
      ],
      [
        "▁tasarı",
        -9.961345238286782
      ],
      [
        "▁birimler",
        -10.808795207347778
      ],
      [
        "▁yıgın",
        -9.70551924500682
      ],
      [
        "▁onaylama",
        -10.97966058444751
      ],
      [
        "▁katılımı",
        -10.584438625625952
      ],
      [
        "▁dikenli",
        -9.547767793847296
      ],
      [
        "▁isten",
        -9.629701258631563
      ],
      [
        "bir",
        -3.7092891508635653
      ],
      [
        "▁dukkan",
        -9.347708276053451
      ],
      [
        "mur",
        -10.609381696595037
      ],
      [
        "▁ocakları",
        -10.819251943796978
      ],
      [
        "▁hangisini",
        -8.709945569911232
      ],
      [
        "rlik",
        -10.218215489745543
      ],
      [
        "masını",
        -10.468715319622353
      ],
      [
        "▁teneke",
        -9.742758511987535
      ],
      [
        "▁yazmıs",
        -9.468185831830224
      ],
      [
        "▁lez",
        -11.099247314072256
      ],
      [
        "▁ben",
        -7.920580179960944
      ],
      [
        "▁olmak",
        -8.05314755165293
      ],
      [
        "▁banka",
        -7.781200132963403
      ],
      [
        "▁tuzu",
        -10.742454257752295
      ],
      [
        "▁olduk",
        -9.943658685983808
      ],
      [
        "▁1.1",
        -7.274207496044125
      ],
      [
        "▁sorma",
        -10.080856136959662
      ],
      [
        "▁varan",
        -6.420723393827976
      ],
      [
        "▁sek",
        -10.321781687124162
      ],
      [
        "▁tarla",
        -9.308820471996295
      ],
      [
        "tron",
        -10.921718067638881
      ],
      [
        "▁muhte",
        -8.804138293360854
      ],
      [
        "▁san",
        -8.613059830399445
      ],
      [
        "▁baglılıgını",
        -11.110461254584479
      ],
      [
        "▁hastalıkları",
        -10.440332170036607
      ],
      [
        "▁m",
        -6.56957621770222
      ],
      [
        "▁yontemler",
        -11.112514200981021
      ],
      [
        "▁seytan",
        -10.145865499138
      ],
      [
        "4",
        -12.802702672349787
      ],
      [
        "ilece",
        -9.64716641239708
      ],
      [
        "▁ya",
        -2.9045168103401533
      ],
      [
        "▁kısıtlama",
        -10.778070092517812
      ],
      [
        "▁saman",
        -9.686644874114904
      ],
      [
        "▁vatandas",
        -10.08267321597105
      ],
      [
        "▁boylesin",
        -10.772320204476731
      ],
      [
        "▁gunumuzu",
        -10.852961062754643
      ],
      [
        "▁kardesin",
        -10.669707782319778
      ],
      [
        "▁oteliniz",
        -10.80320617550945
      ],
      [
        "▁alıs",
        -10.323594755240853
      ],
      [
        "▁beklentisi",
        -10.763354847306701
      ],
      [
        "▁mutevaz",
        -9.309761850107943
      ],
      [
        "▁havlu",
        -9.776136512137283
      ],
      [
        "▁13'",
        -10.910918234778686
      ],
      [
        "▁politika",
        -8.513580286096042
      ],
      [
        "▁neler",
        -10.75822463070828
      ],
      [
        "esme",
        -8.089439494467394
      ],
      [
        "▁bakim",
        -8.830475993340073
      ],
      [
        "▁2004",
        -8.248614085403258
      ],
      [
        "▁pazarlama",
        -9.474093500911618
      ],
      [
        "an",
        -8.145310038240687
      ],
      [
        "▁kusur",
        -8.98605819867967
      ],
      [
        "▁resimleri",
        -10.509662960090694
      ],
      [
        "▁muht",
        -8.6521340737562
      ],
      [
        "ılmaya",
        -11.023224370026549
      ],
      [
        "▁nedeni",
        -8.117627738305625
      ],
      [
        "iji",
        -8.70416995871651
      ],
      [
        "▁karıstırı",
        -8.561584457595952
      ],
      [
        "▁ugras",
        -9.685880222136749
      ],
      [
        "▁yapacak",
        -7.689412909299719
      ],
      [
        "gin",
        -9.118315037239437
      ],
      [
        "▁derler",
        -8.243549738585266
      ],
      [
        "▁havayollarını",
        -8.538465688965744
      ],
      [
        "'",
        -8.003073855720778
      ],
      [
        "an",
        -5.165519414905496
      ],
      [
        "▁stratejisi",
        -10.168272731792221
      ],
      [
        "▁gostergesi",
        -10.893708250905098
      ],
      [
        "▁neredey",
        -6.709668161950811
      ],
      [
        "▁kanadı",
        -9.634794873454938
      ],
      [
        "▁musterilerin",
        -10.022186016763818
      ],
      [
        "▁gidiyoru",
        -8.907583372740497
      ],
      [
        "▁erke",
        -10.977410863145403
      ],
      [
        "us",
        -7.61243417649517
      ],
      [
        "▁demokratları",
        -10.990938468919731
      ],
      [
        "▁hanım",
        -8.598307320444402
      ],
      [
        "▁deterjan",
        -10.8987428894155
      ],
      [
        "▁enflasyonun",
        -10.277645200787532
      ],
      [
        "▁mısra",
        -10.782187244607837
      ],
      [
        "▁yapması",
        -10.01171064622239
      ],
      [
        "▁5",
        -10.142645041717333
      ],
      [
        "rif",
        -9.532873853548764
      ],
      [
        "▁model",
        -9.74358008790874
      ],
      [
        "▁manhattan",
        -9.030756434438128
      ],
      [
        "▁sok",
        -9.60454129711525
      ],
      [
        "▁hamlede",
        -10.550071574932717
      ],
      [
        "▁ardın",
        -9.72443541679311
      ],
      [
        "▁tekrar",
        -10.446153802323456
      ],
      [
        "lis",
        -9.445894565514873
      ],
      [
        "▁kapıs",
        -11.106235992046017
      ],
      [
        "▁uc",
        -9.38277107662488
      ],
      [
        "le",
        -8.669888006096533
      ],
      [
        "▁uyarlan",
        -9.642879256004878
      ],
      [
        "▁tıp",
        -10.080164739996746
      ],
      [
        "▁yana",
        -8.36736752338527
      ],
      [
        "imi",
        -9.102445640720045
      ],
      [
        "▁gonlum",
        -10.07443320000484
      ],
      [
        "▁haric",
        -8.809431162574246
      ],
      [
        "▁beklentilerimi",
        -10.352148479305978
      ],
      [
        "▁kabar",
        -9.317532878222103
      ],
      [
        "▁gok",
        -8.212404365444268
      ],
      [
        "y",
        -5.3092215007041865
      ],
      [
        "▁kendisi",
        -5.0164946613251225
      ],
      [
        "▁guney",
        -9.290894144021452
      ],
      [
        "c",
        -6.519041070915973
      ],
      [
        "▁hesabı",
        -9.514549665167364
      ],
      [
        "▁eksiklikleri",
        -11.087943695992008
      ],
      [
        "▁oldukların",
        -9.453002108446672
      ],
      [
        "▁sartlar",
        -10.012830554551044
      ],
      [
        "▁borcunu",
        -10.016929075736753
      ],
      [
        "▁belirsizlik",
        -10.589806210923154
      ],
      [
        "ndan",
        -6.766076046760257
      ],
      [
        "▁bur",
        -9.809072598221643
      ],
      [
        "▁cift",
        -7.348307323274102
      ],
      [
        "cısı",
        -9.90397445943504
      ],
      [
        "+",
        -12.802702672349787
      ],
      [
        "▁fotografı",
        -10.359769671503651
      ],
      [
        "erce",
        -9.073522287632938
      ],
      [
        "▁takımın",
        -9.93185258033636
      ],
      [
        "dım",
        -10.563206316770046
      ],
      [
        "▁bakı",
        -8.85735147438417
      ],
      [
        "caktı",
        -8.822642918470995
      ],
      [
        "▁merdivenin",
        -10.285489646922189
      ],
      [
        "▁se",
        -7.921130552514963
      ],
      [
        "im",
        -5.927512662840696
      ],
      [
        "▁egemen",
        -9.419295258791617
      ],
      [
        "▁elbet",
        -6.771714475515565
      ],
      [
        "▁yılını",
        -9.261126860752276
      ],
      [
        "ende",
        -9.687194800749342
      ],
      [
        "▁balıkcılar",
        -10.703787881511705
      ],
      [
        "▁unutma",
        -9.571571488763922
      ],
      [
        "▁ol",
        -10.244567568795757
      ],
      [
        "▁topla",
        -10.135606801014152
      ],
      [
        "▁mahkum",
        -10.772468048639698
      ],
      [
        "▁yumusama",
        -11.09874332409864
      ],
      [
        "▁ah",
        -9.849855937950485
      ],
      [
        "ray",
        -8.801646280724581
      ],
      [
        "▁vermiyor",
        -8.883551412658043
      ],
      [
        "▁dekor",
        -10.497698015588757
      ],
      [
        "▁masasını",
        -10.681808780010869
      ],
      [
        "▁degerlendirme",
        -9.181550522854806
      ],
      [
        "▁lard",
        -10.44428861211333
      ],
      [
        "▁ani",
        -8.79281280256296
      ],
      [
        "▁sonuclarını",
        -9.680610609795092
      ],
      [
        "dim",
        -6.575693190868294
      ],
      [
        "tı",
        -7.020089353863155
      ],
      [
        "▁dagıtım",
        -10.020994375786973
      ],
      [
        "▁kurtaj",
        -9.105611441672844
      ],
      [
        "▁organizasyon",
        -9.406118049856904
      ],
      [
        "▁emir",
        -9.465233060355857
      ],
      [
        "▁pre",
        -8.730008185266898
      ],
      [
        "▁toky",
        -9.035583209637448
      ],
      [
        "▁seneler",
        -10.896064620224749
      ],
      [
        "▁buhran",
        -10.898742913705794
      ],
      [
        "▁keten",
        -10.079257850824082
      ],
      [
        "▁seyh",
        -11.122404627501577
      ],
      [
        "▁dayanık",
        -8.88418477390844
      ],
      [
        "▁calar",
        -8.735204959492268
      ],
      [
        "▁skandal",
        -10.272240489597847
      ],
      [
        "urgun",
        -9.043652142816015
      ],
      [
        "tik",
        -7.798881633101012
      ],
      [
        "▁haberler",
        -9.671669581796243
      ],
      [
        "▁tersine",
        -10.167729290137203
      ],
      [
        "aval",
        -10.923956071416967
      ],
      [
        "ih",
        -9.702489860581913
      ],
      [
        "▁akp",
        -10.909886218096503
      ],
      [
        "▁kavramları",
        -11.056982791301733
      ],
      [
        "▁yara",
        -9.396732871715853
      ],
      [
        "▁kafes",
        -10.066957853250246
      ],
      [
        "▁kolay",
        -10.767761831145238
      ],
      [
        "▁surect",
        -10.941903950802038
      ],
      [
        "▁garson",
        -9.682640150119699
      ],
      [
        "▁uy",
        -11.060983453885665
      ],
      [
        "ile",
        -3.939922469606252
      ],
      [
        "▁cimenler",
        -10.88222910820811
      ],
      [
        "▁28",
        -6.493645630951328
      ],
      [
        "▁8.5",
        -8.106989037687075
      ],
      [
        "▁ekmegini",
        -10.291473058793013
      ],
      [
        "▁rol",
        -8.790794998204644
      ],
      [
        "▁onder",
        -10.166166945587218
      ],
      [
        "▁ussu",
        -10.956513652984757
      ],
      [
        "▁gozum",
        -9.521361674517843
      ],
      [
        "▁seslerini",
        -10.320420031218266
      ],
      [
        "▁cıkı",
        -7.8380238542350185
      ],
      [
        "▁ticar",
        -7.102147996519058
      ],
      [
        "dini",
        -9.648552577536071
      ],
      [
        "▁edilecek",
        -9.147324070395442
      ],
      [
        "▁baslamıs",
        -7.997916163301452
      ],
      [
        "▁kalorifer",
        -10.732076236936775
      ],
      [
        "▁cevresinde",
        -9.694943904630712
      ],
      [
        "▁tomb",
        -9.419973333962865
      ],
      [
        "▁tarihleri",
        -10.213567348523112
      ],
      [
        "erel",
        -9.018091085770678
      ],
      [
        "▁or",
        -8.424261484288385
      ],
      [
        "▁plani",
        -8.843666600187792
      ],
      [
        "▁komsu",
        -9.785121592452185
      ],
      [
        "▁gelisti",
        -9.566486940669616
      ],
      [
        "▁gidilir",
        -9.627771148582678
      ],
      [
        "▁hizmette",
        -8.880693348164423
      ],
      [
        "▁teni",
        -10.810270637216211
      ],
      [
        "▁acıklık",
        -10.742323210436195
      ],
      [
        "essiz",
        -8.992336784455535
      ],
      [
        "▁baslay",
        -9.471865548474192
      ],
      [
        "▁kendinizi",
        -7.1322740463500285
      ],
      [
        "▁yukse",
        -5.634843789760225
      ],
      [
        "▁lake",
        -6.5192866892006665
      ],
      [
        "▁egilimleri",
        -10.741797975994848
      ],
      [
        "▁diye",
        -9.182923172975437
      ],
      [
        "▁carptı",
        -9.11722724199323
      ],
      [
        "▁otobusu",
        -10.653846118031584
      ],
      [
        "▁gokyuzunu",
        -10.260575347987063
      ],
      [
        "z",
        -12.24335423160404
      ],
      [
        "▁buluna",
        -7.764962097519984
      ],
      [
        "▁kazan",
        -9.092839343877626
      ],
      [
        "▁kart",
        -9.19041292251432
      ],
      [
        "▁birlikte",
        -9.49402661597296
      ],
      [
        "▁gencligimi",
        -10.92430729437925
      ],
      [
        "▁suru",
        -9.68986185209005
      ],
      [
        "▁5'te",
        -8.575243974917342
      ],
      [
        "lesme",
        -10.097849182204722
      ],
      [
        "▁olmadigin",
        -10.215127585993475
      ],
      [
        "▁davranıslar",
        -10.604376588716903
      ],
      [
        "▁etut",
        -11.100247255604438
      ],
      [
        "▁pence",
        -10.406032795263894
      ],
      [
        "▁cıkma",
        -10.354269711283184
      ],
      [
        "▁budak",
        -11.103496055804143
      ],
      [
        "▁sezginler",
        -8.743777041778758
      ],
      [
        "▁buldu",
        -6.96205027725249
      ],
      [
        "▁daglar",
        -9.389841376748754
      ],
      [
        "▁medya",
        -9.212357070856994
      ],
      [
        "t",
        -5.463644525858803
      ],
      [
        "▁alınacak",
        -9.322081683615188
      ],
      [
        "nız",
        -9.481411202037215
      ],
      [
        "▁gunlerinde",
        -10.163064446485036
      ],
      [
        "▁york",
        -5.812414345836371
      ],
      [
        "▁ihracatlar",
        -10.967820348149093
      ],
      [
        "▁goruntu",
        -10.281856496290759
      ],
      [
        "▁na",
        -10.520252962679384
      ],
      [
        "▁ayırt",
        -10.89930358337656
      ],
      [
        "▁soyluyor",
        -6.66182491967241
      ],
      [
        "▁bilim",
        -7.97745089469879
      ],
      [
        "rak",
        -3.383613678221411
      ],
      [
        "▁bakim",
        -8.688684515730637
      ],
      [
        "▁endiseleri",
        -10.746647548993828
      ],
      [
        "isli",
        -8.192030201536882
      ],
      [
        "▁sigortacı",
        -10.075438862171996
      ],
      [
        "ze",
        -9.242404904275416
      ],
      [
        "▁konusmak",
        -10.000276467273348
      ],
      [
        "▁kavramı",
        -10.061623381402331
      ],
      [
        "▁acıklama",
        -9.110279818506624
      ],
      [
        "▁sorusu",
        -10.839913770639836
      ],
      [
        "▁barmen",
        -11.099103580542856
      ],
      [
        "▁burada",
        -8.41780339009231
      ],
      [
        "▁misafirimiz",
        -8.204512846109392
      ],
      [
        "▁yaptık",
        -8.652684214003884
      ],
      [
        "▁kitaplarda",
        -10.482775334237353
      ],
      [
        "mu",
        -7.625114124853496
      ],
      [
        "▁kavramını",
        -10.528472844681197
      ],
      [
        "▁arkadasların",
        -10.050248376658292
      ],
      [
        "ait",
        -10.16105159335135
      ],
      [
        "▁sallan",
        -9.1866850783681
      ],
      [
        "▁tasfiye",
        -10.075429503137933
      ],
      [
        "▁kaleci",
        -10.180283864320527
      ],
      [
        "▁degil",
        -2.538634238983531
      ],
      [
        "▁masrafı",
        -10.417145691891063
      ],
      [
        "▁yapraklarını",
        -10.520945759347615
      ],
      [
        "▁belirtme",
        -10.47440687908459
      ],
      [
        "▁riayet",
        -10.898743491367625
      ],
      [
        "▁carsaf",
        -10.29326799111899
      ],
      [
        "▁telefonum",
        -10.432368947123962
      ],
      [
        "▁hicbiri",
        -6.194402383819175
      ],
      [
        "▁aracları",
        -9.616651825929054
      ],
      [
        "▁yarın",
        -7.696468994744157
      ],
      [
        "▁cra",
        -8.710348249057624
      ],
      [
        "2'de",
        -7.92836798193887
      ],
      [
        "▁otel",
        -6.467086177810073
      ],
      [
        "▁bedel",
        -10.647905177847113
      ],
      [
        "▁lisede",
        -10.744265115251086
      ],
      [
        "▁oyunu",
        -8.890902086071588
      ],
      [
        "▁alanını",
        -10.476634605936889
      ],
      [
        "ci",
        -7.801357531396334
      ],
      [
        "▁is",
        -9.621910748429038
      ],
      [
        "▁italya",
        -8.601002737835934
      ],
      [
        "▁kolonya",
        -11.10413297472093
      ],
      [
        "▁uyandır",
        -11.10256920461984
      ],
      [
        "▁vatan",
        -9.306250094423607
      ],
      [
        "▁beklentileri",
        -10.167785641740648
      ],
      [
        "▁7'de",
        -9.187609953835002
      ],
      [
        "▁gurultusunu",
        -11.107500319253438
      ],
      [
        "▁likor",
        -10.46430456956714
      ],
      [
        "▁kagıt",
        -8.695749535606591
      ],
      [
        "▁isleme",
        -9.323678633366585
      ],
      [
        "▁saglar",
        -8.631666445685513
      ],
      [
        "▁birin",
        -8.090399387979804
      ],
      [
        "▁basari",
        -8.362134990362197
      ],
      [
        "▁tanıklık",
        -10.262829233946173
      ],
      [
        "le",
        -7.45879026731766
      ],
      [
        "▁yerini",
        -8.489789147186052
      ],
      [
        "▁cihan",
        -10.464220902823124
      ],
      [
        "▁sallantı",
        -10.589219136476876
      ],
      [
        "rak",
        -10.783906000788358
      ],
      [
        "▁denge",
        -8.365464385128696
      ],
      [
        "▁ydu",
        -5.652411369949245
      ],
      [
        "lı",
        -4.604940978868521
      ],
      [
        "yı",
        -8.994779585718636
      ],
      [
        "▁azaltma",
        -9.547843878351534
      ],
      [
        "▁olabil",
        -8.713444226035984
      ],
      [
        "▁anda",
        -7.209664767584225
      ],
      [
        "o",
        -12.802702672349787
      ],
      [
        "nda",
        -9.521981893717715
      ],
      [
        "▁konusu",
        -8.390875649261556
      ],
      [
        "o",
        -9.574672963213274
      ],
      [
        "▁dusunce",
        -9.329829114479345
      ],
      [
        "▁yuce",
        -11.098780548885792
      ],
      [
        "▁ot",
        -9.621308979273248
      ],
      [
        "▁rutin",
        -9.209196600023898
      ],
      [
        "▁miami'de",
        -7.374097466826984
      ],
      [
        "▁milliyetci",
        -10.461522012367084
      ],
      [
        "▁havalar",
        -10.527451775602247
      ],
      [
        "▁tedavi",
        -9.079353443830247
      ],
      [
        "▁al",
        -6.866619571249054
      ],
      [
        "▁oglu",
        -9.223328877266793
      ],
      [
        "▁muhendislik",
        -10.261144357725113
      ],
      [
        "▁gordu",
        -6.473052353973305
      ],
      [
        "▁kanunla",
        -10.937102925203327
      ],
      [
        "l",
        -6.569307647131929
      ],
      [
        "▁sorular",
        -9.334041718771182
      ],
      [
        "▁guleryuzluler",
        -8.962274191202757
      ],
      [
        "▁sularda",
        -10.924258602515136
      ],
      [
        "▁arbitraj",
        -9.930513896066953
      ],
      [
        "▁f",
        -8.908024795394835
      ],
      [
        "▁anket",
        -7.8374814982132595
      ],
      [
        "▁yolunda",
        -9.464655535513362
      ],
      [
        "▁denile",
        -8.392108695656162
      ],
      [
        "▁rus",
        -9.607242633933556
      ],
      [
        "▁havuzlar",
        -8.668860464291242
      ],
      [
        "▁gunesin",
        -9.515885729729263
      ],
      [
        "▁goturuyor",
        -9.639953897458732
      ],
      [
        "▁tutarın",
        -9.434411575991888
      ],
      [
        "▁yapılandırma",
        -10.079580958901886
      ],
      [
        "▁gider",
        -7.6179649960894515
      ],
      [
        "▁onlugu",
        -10.899282197223403
      ],
      [
        "▁vekili",
        -10.271800308174306
      ],
      [
        "usu",
        -9.801465559662988
      ],
      [
        "▁uygulama",
        -8.80834825284314
      ],
      [
        "▁masallar",
        -10.442494137520706
      ],
      [
        "▁rakı",
        -8.787140588344494
      ],
      [
        "▁tasın",
        -10.160911027969554
      ],
      [
        "ciligi",
        -10.767272183786705
      ],
      [
        "ian",
        -8.651344098139969
      ],
      [
        "▁beste",
        -10.353295830301871
      ],
      [
        "▁sorun",
        -7.4937726102398114
      ],
      [
        "▁tavla",
        -10.26248121961001
      ],
      [
        "da",
        -6.754895265353099
      ],
      [
        "▁kabukları",
        -10.532396239999482
      ],
      [
        "▁yapması",
        -9.219317440632663
      ],
      [
        "▁dikkatimi",
        -10.734044369306732
      ],
      [
        "▁londra",
        -7.490199595551225
      ],
      [
        "▁ifade",
        -7.531398346335536
      ],
      [
        "▁olusturma",
        -10.001943808073666
      ],
      [
        "▁dost",
        -8.801407901498695
      ],
      [
        "▁oyunların",
        -10.818262138623803
      ],
      [
        "▁bocek",
        -9.634857276892554
      ],
      [
        "▁kuralları",
        -9.943486979860003
      ],
      [
        "▁aga",
        -9.025229649282837
      ],
      [
        "▁gez",
        -11.061997077100255
      ],
      [
        "▁gordukleri",
        -10.9083002035558
      ],
      [
        "▁gecmek",
        -9.40739196592103
      ],
      [
        "▁belgeler",
        -10.016072004567842
      ],
      [
        "▁dusun",
        -8.899888978553655
      ],
      [
        "▁agzımı",
        -10.522236448829407
      ],
      [
        "k",
        -4.834402831400872
      ],
      [
        "▁mesguldu",
        -9.619724916247806
      ],
      [
        "bele",
        -10.708610075982573
      ],
      [
        "▁olacak",
        -7.7873202747897015
      ],
      [
        "▁bırak",
        -7.723780837153674
      ],
      [
        "▁hayaller",
        -10.7582912707421
      ],
      [
        "▁tokadı",
        -11.098743535723266
      ],
      [
        "▁adl",
        -9.489437247379154
      ],
      [
        "▁s",
        -6.730562792173902
      ],
      [
        "▁beach",
        -8.430462692611972
      ],
      [
        "ladıgı",
        -9.152211810323303
      ],
      [
        "▁hafıza",
        -10.277735929132572
      ],
      [
        "▁bufe",
        -9.063910234277188
      ],
      [
        "liligi",
        -10.642431378894555
      ],
      [
        "▁cabalar",
        -10.397911504241586
      ],
      [
        "▁hamle",
        -8.895789633540485
      ],
      [
        "▁gezdi",
        -9.216143766241043
      ],
      [
        "▁hırsız",
        -9.6654605768356
      ],
      [
        "abilme",
        -10.652634863504492
      ],
      [
        "mdan",
        -9.509168006521016
      ],
      [
        "aha",
        -9.573299477902129
      ],
      [
        "▁gumus",
        -8.45347510151566
      ],
      [
        "▁uzere",
        -5.048386226996949
      ],
      [
        "la",
        -8.042962493838745
      ],
      [
        "▁gidisat",
        -10.716988437126053
      ],
      [
        "▁marangoz",
        -11.098742889389506
      ],
      [
        "racı",
        -9.10380430005662
      ],
      [
        "▁mevzu",
        -10.644295098922322
      ],
      [
        "gan",
        -9.002483237685713
      ],
      [
        "boy",
        -9.336408938206505
      ],
      [
        "▁aldıgı",
        -8.678174464274196
      ],
      [
        "▁gorusmelerin",
        -10.329080869983747
      ],
      [
        "▁tecrube",
        -9.544289942706136
      ],
      [
        "▁kay",
        -9.554967559569127
      ],
      [
        "▁d",
        -5.777159114143911
      ],
      [
        "▁gayri",
        -10.253127683839264
      ],
      [
        "▁tesiri",
        -10.323260904081433
      ],
      [
        "isti",
        -8.802880205539692
      ],
      [
        "▁sperm",
        -11.098744709392395
      ],
      [
        "ı",
        -4.541321046145934
      ],
      [
        "▁calısanı",
        -9.899533695622795
      ],
      [
        "iz",
        -8.831143850679704
      ],
      [
        "▁onlerin",
        -10.438218774418532
      ],
      [
        "z",
        -6.428989089571596
      ],
      [
        "▁cardagı",
        -10.89875670669235
      ],
      [
        "▁600",
        -7.786927650045376
      ],
      [
        "▁desteklen",
        -9.169372513632677
      ],
      [
        "▁iliskileri",
        -9.349629387972314
      ],
      [
        "larını",
        -8.53913733463688
      ],
      [
        "▁yasamıstı",
        -9.63314066438174
      ],
      [
        "▁kenarı",
        -11.100186561042609
      ],
      [
        "▁damarın",
        -11.100485513109739
      ],
      [
        "▁ifadesini",
        -10.496086790792901
      ],
      [
        "▁kapsam",
        -10.531956985791254
      ],
      [
        "▁cıkardı",
        -7.235558421421674
      ],
      [
        "▁in",
        -9.323195206665023
      ],
      [
        "tur",
        -9.522534598323865
      ],
      [
        "▁eseri",
        -9.691443773372866
      ],
      [
        "▁sube",
        -9.961337477179818
      ],
      [
        "▁ramazan",
        -10.162198878409455
      ],
      [
        "▁savunma",
        -8.580336039795728
      ],
      [
        "uktu",
        -8.101673095317397
      ],
      [
        "▁sim",
        -10.3712475049808
      ],
      [
        "▁magazaların",
        -10.57902272396923
      ],
      [
        "mis",
        -10.342736199248886
      ],
      [
        "▁cırpı",
        -10.25215858925257
      ],
      [
        "▁saatleri",
        -9.261249396549543
      ],
      [
        "▁olumun",
        -9.855113259746071
      ],
      [
        "▁esyaları",
        -10.181044596570231
      ],
      [
        "▁kim",
        -8.612603231965428
      ],
      [
        "▁olcut",
        -10.369999197907731
      ],
      [
        "gac",
        -9.320070725158756
      ],
      [
        "▁ekim",
        -8.6831133829454
      ],
      [
        "▁colde",
        -10.777798334578538
      ],
      [
        "▁referans",
        -10.589219242222402
      ],
      [
        "▁gozaltın",
        -11.049305951980323
      ],
      [
        "birinde",
        -10.01131417222551
      ],
      [
        "▁york'ta",
        -6.469904347778425
      ],
      [
        "▁birimiz",
        -8.487004582228542
      ],
      [
        "▁gelirler",
        -9.48075114746707
      ],
      [
        "▁coz",
        -10.877220113369377
      ],
      [
        "mak",
        -7.8393560729150025
      ],
      [
        "is",
        -8.944388461141315
      ],
      [
        "r",
        -4.2401138621621275
      ],
      [
        "▁reis",
        -10.733166678107594
      ],
      [
        "▁darbukasını",
        -10.901153829348278
      ],
      [
        "▁bodrum",
        -10.242784418615619
      ],
      [
        "▁ne",
        -5.899376330339412
      ],
      [
        "▁gecmiste",
        -9.494949410609468
      ],
      [
        "▁inek",
        -10.028129385111804
      ],
      [
        "▁onemli",
        -9.133575527692352
      ],
      [
        "▁davetiye",
        -10.450136032312829
      ],
      [
        "▁o",
        -6.656188534955952
      ],
      [
        "or",
        -9.463124923532838
      ],
      [
        "▁cozumu",
        -10.010040606013797
      ],
      [
        "▁tekrar",
        -5.767848238720847
      ],
      [
        "▁onlem",
        -10.157358163870827
      ],
      [
        "▁dedigi",
        -9.022876238112449
      ],
      [
        "▁kader",
        -10.807848364911496
      ],
      [
        "▁seviyesini",
        -10.91067709991313
      ],
      [
        "▁kaynaklar",
        -10.091086459489814
      ],
      [
        "▁donmus",
        -8.666165590686226
      ],
      [
        "▁getirisini",
        -10.851080112315053
      ],
      [
        "▁getirdigi",
        -10.820777081979982
      ],
      [
        "▁kazada",
        -10.361986945256394
      ],
      [
        "▁fal",
        -10.524437808722794
      ],
      [
        "▁talih",
        -10.33052498418931
      ],
      [
        "▁be",
        -8.245822081507646
      ],
      [
        "ullu",
        -9.656636871371965
      ],
      [
        "▁otelde",
        -8.301786048454499
      ],
      [
        "ar",
        -8.433126013799777
      ],
      [
        "▁yen'",
        -10.357683730835408
      ],
      [
        "▁savunuyor",
        -9.519098347117572
      ],
      [
        "▁cumhuriyeti",
        -9.828908481449762
      ],
      [
        "▁adres",
        -10.934555266819615
      ],
      [
        "▁kayıp",
        -9.03748148026263
      ],
      [
        "▁hastalıkta",
        -10.875664439840712
      ],
      [
        "▁dem",
        -9.938633683770606
      ],
      [
        "lılar",
        -10.234887641933934
      ],
      [
        "ettin",
        -8.564120140395024
      ],
      [
        "▁gur",
        -8.415171871632285
      ],
      [
        "▁elestir",
        -9.471795888852299
      ],
      [
        "▁olabilirler",
        -9.456551621602634
      ],
      [
        "▁don",
        -8.594968907651552
      ],
      [
        "▁avrupa'da",
        -7.497466820441639
      ],
      [
        "▁oturdu",
        -7.976443221503487
      ],
      [
        "▁kralice",
        -10.464286264074003
      ],
      [
        "▁ilgilenmiyor",
        -9.680326229721388
      ],
      [
        "▁listeley",
        -6.290222718821956
      ],
      [
        "▁rakip",
        -10.19957700685366
      ],
      [
        "▁oranı",
        -8.229912292315941
      ],
      [
        "▁has",
        -8.726625874575694
      ],
      [
        "▁di",
        -9.624104042849766
      ],
      [
        "emel",
        -7.841634726129378
      ],
      [
        "▁po",
        -10.077528008374358
      ],
      [
        "▁cıkarıyor",
        -8.506269938409343
      ],
      [
        "▁uc",
        -9.284728711532095
      ],
      [
        "ya",
        -7.487244857637892
      ],
      [
        "▁indir",
        -9.351387947046552
      ],
      [
        "9",
        -4.905248477984599
      ],
      [
        "lu",
        -8.65826860679205
      ],
      [
        "▁takas",
        -11.11682043626157
      ],
      [
        "▁eylul'de",
        -7.876697701139456
      ],
      [
        "▁si",
        -9.41211622225353
      ],
      [
        "▁nez",
        -9.12885352666631
      ],
      [
        "▁fiyatını",
        -9.727984502933346
      ],
      [
        "▁arttı",
        -7.265346289833493
      ],
      [
        "▁tezini",
        -11.104279426395433
      ],
      [
        "▁zorlama",
        -10.92858662676962
      ],
      [
        "▁imza",
        -9.231641010096462
      ],
      [
        "▁ucmak",
        -7.653844970893653
      ],
      [
        "▁dinliyordu",
        -9.42567537767907
      ],
      [
        "▁talebini",
        -10.527160926268362
      ],
      [
        "▁bildirme",
        -10.898767157166915
      ],
      [
        "▁gecelerde",
        -10.976434287631736
      ],
      [
        "▁olayları",
        -10.401001005064122
      ],
      [
        "▁mitsubishi",
        -8.626984156340537
      ],
      [
        "unu",
        -8.022496143720709
      ],
      [
        "iyor",
        -6.455750071827854
      ],
      [
        "▁bulunan",
        -7.979350703821792
      ],
      [
        "▁duyuyor",
        -8.706833020817607
      ],
      [
        "▁yapılma",
        -10.670133088173406
      ],
      [
        "▁bankası",
        -8.857872920900206
      ],
      [
        "▁biri",
        -8.13271791280848
      ],
      [
        "▁worth'da",
        -7.589467204646883
      ],
      [
        "▁verirdi",
        -9.032676267150794
      ],
      [
        "▁edası",
        -11.111490609237253
      ],
      [
        "▁heyecan",
        -8.806597670398716
      ],
      [
        "▁seni",
        -8.738712150207492
      ],
      [
        "▁dilinde",
        -10.798660978502774
      ],
      [
        "▁nevi",
        -9.809808854025043
      ],
      [
        "▁mantıgı",
        -10.958692920439091
      ],
      [
        "▁kale",
        -9.132961567475022
      ],
      [
        "▁gecme",
        -9.519250043806977
      ],
      [
        "▁bun",
        -9.396856215699405
      ],
      [
        "▁grev",
        -9.742668635821591
      ],
      [
        "▁airlines",
        -6.469843231157303
      ],
      [
        "▁calıs",
        -8.389553384790805
      ],
      [
        "▁oynadıgını",
        -11.110333197819738
      ],
      [
        "▁alanlarında",
        -10.954336790440315
      ],
      [
        "▁kapısın",
        -10.439037656535369
      ],
      [
        "▁secenegini",
        -11.124443914540572
      ],
      [
        "▁yasında",
        -8.351062449213538
      ],
      [
        "▁orhan",
        -8.303500768666341
      ],
      [
        "▁baskenti",
        -10.21063494033328
      ],
      [
        "▁organları",
        -10.460225945237706
      ],
      [
        "▁kaldır",
        -8.505920019848293
      ],
      [
        "▁verildi",
        -7.947660374751354
      ],
      [
        "▁poyraz",
        -10.73207622275146
      ],
      [
        "▁yoksu",
        -8.962725632770493
      ],
      [
[...]
