{
  "version": "1.0",
  "truncation": null,
  "padding": null,
  "added_tokens": [
    {
      "id": 1238,
      "content": "[PAD]",
      "single_word": false,
      "lstrip": false,
      "rstrip": false,
      "normalized": false,
      "special": true
    },
    {
      "id": 3766,
      "content": "[SEP]",
      "single_word": false,
      "lstrip": false,
      "rstrip": false,
      "normalized": false,
      "special": true
    },
    {
      "id": 6622,
      "content": "[UNK]",
      "single_word": false,
      "lstrip": false,
      "rstrip": false,
      "normalized": false,
      "special": true
    },
    {
      "id": 7572,
      "content": "[CLS]",
      "single_word": false,
      "lstrip": false,
      "rstrip": false,
      "normalized": false,
      "special": true
    },
    {
      "id": 8057,
      "content": "[MASK]",
      "single_word": false,
      "lstrip": false,
      "rstrip": false,
      "normalized": false,
      "special": true
    }
  ],
  "normalizer": {
    "type": "Sequence",
    "normalizers": [
      {
        "type": "NFD"
      },
      {
        "type": "Lowercase"
      },
      {
        "type": "StripAccents"
      }
    ]
  },
  "pre_tokenizer": {
    "type": "Sequence",
    "pretokenizers": [
      {
        "type": "Metaspace",
        "replacement": "▁",
        "prepend_scheme": "always",
        "split": true
      }
    ]
  },
  "post_processor": {
    "type": "TemplateProcessing",
    "single": [
      {
        "SpecialToken": {
          "id": "[CLS]",
          "type_id": 0
        }
      },
      {
        "Sequence": {
          "id": "A",
          "type_id": 0
        }
      },
      {
        "SpecialToken": {
          "id": "[SEP]",
          "type_id": 0
        }
      }
    ],
    "pair": [
      {
        "SpecialToken": {
          "id": "[CLS]",
          "type_id": 0
        }
      },
      {
        "Sequence": {
          "id": "A",
          "type_id": 0
        }
      },
      {
        "SpecialToken": {
          "id": "[SEP]",
          "type_id": 0
        }
      },
      {
        "Sequence": {
          "id": "B",
          "type_id": 1
        }
      },
      {
        "SpecialToken": {
          "id": "[SEP]",
          "type_id": 1
        }
      }
    ],
    "special_tokens": {
      "[CLS]": {
        "id": "[CLS]",
        "ids": [
          7572
        ],
        "tokens": [
          "[CLS]"
        ]
      },
      "[SEP]": {
        "id": "[SEP]",
        "ids": [
          3766
        ],
        "tokens": [
          "[SEP]"
        ]
      }
    }
  },
  "decoder": {
    "type": "Metaspace",
    "replacement": "▁",
    "prepend_scheme": "always",
    "split": true
  },
  "model": {
    "type": "Unigram",
    "unk_id": 6622,
    "vocab": [
      [
        "c",
        -6.430645875655387
      ],
      [
        "▁af",
        -9.386726724788089
      ],
      [
        "▁pas",
        -9.48388414923755
      ],
      [
        "▁olma",
        -7.478987926777427
      ],
      [
        "▁dır",
        -4.287573368195668
      ],
      [
        "▁aleyhin",
        -9.639663332716289
      ],
      [
        "▁it",
        -9.668468271312399
      ],
      [
        "▁dislerini",
        -9.886361944820138
      ],
      [
        "lık",
        -6.994200312939683
      ],
      [
        "▁karanlık",
        -8.182000264629504
      ],
      [
        "▁saye",
        -9.246294790240505
      ],
      [
        "▁zamanda",
        -7.898850261431715
      ],
      [
        "▁bu",
        -3.2396197333277525
      ],
      [
        "▁makam",
        -9.326351905680895
      ],
      [
        "▁calgı",
        -9.784409736051884
      ],
      [
        "▁yaptirmadi",
        -7.668360967160927
      ],
      [
        "▁yapma",
        -8.262775913633625
      ],
      [
        "▁adı",
        -7.912290995364163
      ],
      [
        "▁oyunları",
        -9.760925520446857
      ],
      [
        "▁sigortası",
        -9.797820434700718
      ],
      [
        "▁ortasında",
        -8.964440705291523
      ],
      [
        "▁araya",
        -9.098155667118299
      ],
      [
        "f",
        -7.213409085851779
      ],
      [
        "▁oglum",
        -8.827518746386588
      ],
      [
        "bil",
        -8.839063913363283
      ],
      [
        "▁kumandan",
        -10.058628480491873
      ],
      [
        "▁ye",
        -8.137158329888496
      ],
      [
        "▁birbirleri",
        -7.979369573870796
      ],
      [
        "▁almak",
        -7.554787128737007
      ],
      [
        "▁dava",
        -7.416854356841948
      ],
      [
        "▁tavuk",
        -9.132759522835405
      ],
      [
        "a",
        -3.8394838638049187
      ],
      [
        "su",
        -7.924619150497522
      ],
      [
        "▁suruyor",
        -8.154890350883278
      ],
      [
        "▁ekim",
        -7.390394719216669
      ],
      [
        "p",
        -8.916280301211483
      ],
      [
        "▁gelecek",
        -8.722608883497415
      ],
      [
        "▁koyluler",
        -9.918547217308891
      ],
      [
        "▁ısıgı",
        -9.393185380826031
      ],
      [
        "▁duzenleyici",
        -9.898918069758826
      ],
      [
        "sine",
        -8.708260001900612
      ],
      [
        "l",
        -6.583908794755171
      ],
      [
        "▁beni",
        -4.178270586993837
      ],
      [
        "yen",
        -8.128156989424735
      ],
      [
        "▁sahip",
        -7.125997578852691
      ],
      [
        "▁keyif",
        -9.839965081303454
      ],
      [
        "▁kulubu",
        -9.961407570238737
      ],
      [
        "▁acik",
        -9.285701377818139
      ],
      [
        "▁pembe",
        -8.497597246521899
      ],
      [
        "▁soz",
        -8.640535821440196
      ],
      [
        "▁kaybed",
        -8.422957492860599
      ],
      [
        "▁politika",
        -8.351341813753425
      ],
      [
        "▁!",
        -9.53960140659185
      ],
      [
        "k",
        -4.867414459287314
      ],
      [
        "▁hatıra",
        -9.436744130666257
      ],
      [
        "▁duzeni",
        -9.544373912816015
      ],
      [
        "▁aklı",
        -8.634872614306746
      ],
      [
        "gında",
        -8.635260897970294
      ],
      [
        "▁ceker",
        -8.094654426537014
      ],
      [
        "lerinden",
        -7.266441926719326
      ],
      [
        "▁davası",
        -9.524786672774674
      ],
      [
        "▁ucte",
        -9.692536767517128
      ],
      [
        "▁her",
        -6.384114116204266
      ],
      [
        "▁degeri",
        -8.783371807141506
      ],
      [
        "▁denver'de",
        -5.178782660526716
      ],
      [
        "▁aldigim",
        -7.999018699062792
      ],
      [
        "iyle",
        -7.651277118416587
      ],
      [
        "▁geriledi",
        -7.926671010066372
      ],
      [
        "▁yesil",
        -10.025339864533263
      ],
      [
        "▁yukselme",
        -10.106342076184713
      ],
      [
        "▁eglence",
        -8.405008443570143
      ],
      [
        "▁mer",
        -9.650884615613794
      ],
      [
        "ce",
        -4.295820816962567
      ],
      [
        "cısı",
        -9.475195413956325
      ],
      [
        "▁musiki",
        -10.176511641594344
      ],
      [
        "▁3.",
        -5.926069570258965
      ],
      [
        "▁duman",
        -8.918523449449658
      ],
      [
        "▁deney",
        -9.385931831663807
      ],
      [
        "▁donuk",
        -8.251428758321687
      ],
      [
        "▁verdigi",
        -7.59691637411164
      ],
      [
        "▁kırı",
        -9.416457010547024
      ],
      [
        "▁yarın",
        -7.798529823267751
      ],
      [
        "▁satıslar",
        -7.845565416299318
      ],
      [
        "dıkları",
        -9.22884054416976
      ],
      [
        "▁vol",
        -10.100122348703135
      ],
      [
        "ba",
        -8.06782252209855
      ],
      [
        "▁basımız",
        -9.968512381728006
      ],
      [
        "▁new",
        -5.141447350007896
      ],
      [
        "n",
        -3.9923441943343114
      ],
      [
        ".",
        -11.199601737652316
      ],
      [
        "▁haziran",
        -7.47108916219549
      ],
      [
        "▁fazla",
        -9.88892981459929
      ],
      [
        "▁bulut",
        -9.990166237487966
      ],
      [
        "▁dusuk",
        -10.177826207598109
      ],
      [
        "▁baz",
        -8.954841698433572
      ],
      [
        "▁d",
        -6.354337849338901
      ],
      [
        "▁seni",
        -5.079941773321164
      ],
      [
        "▁ingiliz",
        -9.898116507678132
      ],
      [
        "▁arkadasim",
        -9.287327542846604
      ],
      [
        "▁sa",
        -4.233276091639059
      ],
      [
        "▁seytan",
        -10.038190774411573
      ],
      [
        "dir",
        -9.355790999670965
      ],
      [
        "▁olsun",
        -6.4577419455461555
      ],
      [
        "den",
        -10.015566736665784
      ],
      [
        "kendi",
        -8.045656625088052
      ],
      [
        "▁sonra",
        -9.015702093379858
      ],
      [
        "▁ilgisi",
        -8.48874555409208
      ],
      [
        "▁odam",
        -8.866890846165742
      ],
      [
        "▁kıyı",
        -8.762025266738478
      ],
      [
        "▁onu",
        -9.880180652534495
      ],
      [
        "▁pittsburgh",
        -6.351771316570848
      ],
      [
        "▁istiyorlar",
        -8.645649407889769
      ],
      [
        "▁harp",
        -9.354356062149309
      ],
      [
        "▁gobegi",
        -9.898788223443866
      ],
      [
        "▁begendi",
        -6.8067495557106055
      ],
      [
        "▁gelmek",
        -10.139684800257376
      ],
      [
        "di",
        -10.231009713513307
      ],
      [
        "▁y",
        -5.777906907927925
      ],
      [
        "▁faaliyetleri",
        -9.631667217583457
      ],
      [
        "▁durumun",
        -9.718196917460132
      ],
      [
        "▁fer",
        -10.036843037872668
      ],
      [
        "m",
        -4.809409968019235
      ],
      [
        "▁bagır",
        -8.921535024572322
      ],
      [
        "▁'",
        -10.790149558202552
      ],
      [
        "▁tuccarlar",
        -9.379679308872175
      ],
      [
        "len",
        -7.707804591723178
      ],
      [
        "▁dort",
        -4.533641774591931
      ],
      [
        "▁temizlikte",
        -9.671163258406722
      ],
      [
        "▁rusvet",
        -10.027975718338798
      ],
      [
        "▁davranıs",
        -9.451977604816964
      ],
      [
        "▁bun",
        -4.95641735510991
      ],
      [
        "▁garsonlar",
        -9.668687083054863
      ],
      [
        "▁kullanma",
        -9.961561106823638
      ],
      [
        "▁yapma",
        -7.86506853639131
      ],
      [
        "▁rapor",
        -8.364219369745673
      ],
      [
        "▁dumanı",
        -10.135881674476675
      ],
      [
        "▁bildiri",
        -10.151582657944523
      ],
      [
        "▁brown",
        -8.353357083995986
      ],
      [
        "▁sirketler",
        -8.359985893260113
      ],
      [
        "▁ciddiyet",
        -10.114539314776483
      ],
      [
        "▁cesitli",
        -7.127344675886908
      ],
      [
        "▁yuru",
        -8.112127916766505
      ],
      [
        "▁michael",
        -8.23485118517964
      ],
      [
        "▁canlı",
        -9.111286277557936
      ],
      [
        "▁denge",
        -8.365464385128696
      ],
      [
        "lıklı",
        -8.655911197312777
      ],
      [
        "▁tarihi",
        -8.787980470110972
      ],
      [
        "▁emir",
        -9.130727756315258
      ],
      [
        "▁150",
        -7.07966151810731
      ],
      [
        "▁done",
        -8.549931206463363
      ],
      [
        "▁planları",
        -9.76007976685213
      ],
      [
        "▁soyle",
        -7.605343412952941
      ],
      [
        "▁gecmis",
        -8.245109124772139
      ],
      [
        "▁kalbi",
        -8.90195992367343
      ],
      [
        "▁baskanlıgı",
        -9.807948632610456
      ],
      [
        "▁miydi",
        -5.8666742159891765
      ],
      [
        "▁kalmıstı",
        -8.072104425073848
      ],
      [
        "▁arastırmacılar",
        -9.92528903036257
      ],
      [
        "▁olacaktı",
        -7.593186088791429
      ],
      [
        "▁ablam",
        -10.044914674658257
      ],
      [
        "▁cıkmak",
        -9.44121842133861
      ],
      [
        "▁olmas",
        -8.686014865179953
      ],
      [
        "▁sozcuk",
        -10.137773558147515
      ],
      [
        "5",
        -8.718768001777528
      ],
      [
        "▁idi",
        -7.511409065945472
      ],
      [
        "▁chat",
        -9.784422293608284
      ],
      [
        "▁ozel",
        -6.39656241484808
      ],
      [
        "ılır",
        -8.908554240632473
      ],
      [
        "ya",
        -8.255055954866737
      ],
      [
        "▁surpriz",
        -10.176306519499931
      ],
      [
        "▁dallas'",
        -5.766594172843666
      ],
      [
        "▁derdin",
        -9.950705520755738
      ],
      [
        "▁hayat",
        -7.725927274715797
      ],
      [
        "▁gostergeleri",
        -10.154681540608664
      ],
      [
        "1",
        -8.811344791341218
      ],
      [
        "▁sol",
        -7.288741515228045
      ],
      [
        "▁muduru",
        -8.588249333070213
      ],
      [
        "▁isleme",
        -9.727121405115744
      ],
      [
        "▁or",
        -8.424261484288385
      ],
      [
        ".6",
        -7.31878254229675
      ],
      [
        "▁sure",
        -7.356182157789353
      ],
      [
        "▁sirketlerin",
        -9.173260950921502
      ],
      [
        "han",
        -7.500671672989282
      ],
      [
        "ak",
        -8.1590688120904
      ],
      [
        "▁mevki",
        -9.839966037268603
      ],
      [
        "x",
        -9.50355901977652
      ],
      [
        "umuz",
        -9.13768353941226
      ],
      [
        "▁gir",
        -8.874950813836348
      ],
      [
        "▁kalkıyor",
        -7.53400341534999
      ],
      [
        "▁hisseler",
        -8.727949915397343
      ],
      [
        "e",
        -3.073718075016717
      ],
      [
        "▁tesekkur",
        -7.628335301429562
      ],
      [
        "▁sonucları",
        -9.166465491897181
      ],
      [
        "▁davranısları",
        -10.121395994028479
      ],
      [
        "▁oldukların",
        -9.695767607960635
      ],
      [
        "kten",
        -8.797004257726309
      ],
      [
        "▁polonya",
        -8.29676673508626
      ],
      [
        "▁metre",
        -9.051936923862101
      ],
      [
        "▁2.6",
        -7.411926299767766
      ],
      [
        "liginde",
        -9.314464770563182
      ],
      [
        "▁anlam",
        -8.554240906640702
      ],
      [
        "▁gulu",
        -9.469505340599738
      ],
      [
        "▁yetkililerin",
        -9.955539903894952
      ],
      [
        "▁edilmesi",
        -8.983573061996466
      ],
      [
        "▁nizam",
        -10.099393280936484
      ],
      [
        "dıgım",
        -10.026873354081712
      ],
      [
        "▁bulgur",
        -10.02873969555609
      ],
      [
        "▁etmek",
        -7.691167246707034
      ],
      [
        "▁izledi",
        -8.524102975840872
      ],
      [
        "▁bilgiler",
        -9.857120081204787
      ],
      [
        "▁kalka",
        -5.973555474754623
      ],
      [
        "te",
        -6.519108773746346
      ],
      [
        "▁bahcesi",
        -10.050090460415383
      ],
      [
        "▁tesaduf",
        -9.73177754086856
      ],
      [
        ".",
        -1.1587881497080552
      ],
      [
        "▁bizleri",
        -7.670619926103663
      ],
      [
        "▁sandık",
        -9.604238114303593
      ],
      [
        "▁cık",
        -9.22812729007157
      ],
      [
        "▁arap",
        -9.97293966788407
      ],
      [
        "▁mu",
        -8.3270897465338
      ],
      [
        "▁",
        -3.611816305408839
      ],
      [
        "yim",
        -8.132157031008926
      ],
      [
        "▁goruluyor",
        -8.593458239984878
      ],
      [
        "▁edilmesi",
        -9.495534705186586
      ],
      [
        "▁bunda",
        -7.388617737186985
      ],
      [
        "▁ilgi",
        -7.407675563774309
      ],
      [
        "▁soyluyor",
        -6.643198559782432
      ],
      [
        "▁kıyas",
        -8.665428957164131
      ],
      [
        "▁icerisin",
        -9.130906480212799
      ],
      [
        "ıs",
        -8.287789809995358
      ],
      [
        "▁hi",
        -4.718511553182138
      ],
      [
        "▁kavga",
        -8.780603919748645
      ],
      [
        "▁yazıyor",
        -8.698200826647508
      ],
      [
        "▁say",
        -8.601413518006044
      ],
      [
        "▁sauna",
        -9.026230235829168
      ],
      [
        "▁neredey",
        -6.709668161950811
      ],
      [
        "▁oyuncular",
        -9.597778635778962
      ],
      [
        "▁holding",
        -9.252272002155264
      ],
      [
        "▁partisi",
        -9.291229875328499
      ],
      [
        "siz",
        -7.9918944637072
      ],
      [
        "▁bil",
        -9.160273757143404
      ],
      [
        "▁tac",
        -9.743094837817932
      ],
      [
        "gi",
        -10.055124877575476
      ],
      [
        "lu",
        -7.588867179938893
      ],
      [
        "▁detroit'",
        -7.969483508508505
      ],
      [
        "▁tahmini",
        -9.347606850174202
      ],
      [
        "▁gorev",
        -7.82578387076788
      ],
      [
        "▁il",
        -6.111403265351347
      ],
      [
        "▁er",
        -8.700371133238654
      ],
      [
        "▁mola",
        -8.864551498422216
      ],
      [
        "▁dedi",
        -5.072186116662261
      ],
      [
        "et",
        -7.705239959680849
      ],
      [
        "▁siyah",
        -6.842527925617158
      ],
      [
        "▁indianapolis'",
        -7.852477390095281
      ],
      [
        "ndan",
        -6.5640626603921195
      ],
      [
        "▁plan",
        -8.174638849426035
      ],
      [
        "me",
        -7.409974667313414
      ],
      [
        "ık",
        -7.114014088154494
      ],
      [
        "k",
        -3.7536644229821867
      ],
      [
        "▁sozu",
        -8.532217971125553
      ],
      [
        "–",
        -12.802702672349787
      ],
      [
        "▁kuvvetleri",
        -9.419374127998692
      ],
      [
        "▁butce",
        -8.567126298350564
      ],
      [
        "▁bire",
        -10.025924822488983
      ],
      [
        "▁tren",
        -8.583290359950368
      ],
      [
        "ı",
        -4.541321046145934
      ],
      [
        "▁200",
        -6.130752197523191
      ],
      [
        "ak",
        -3.6704506036336477
      ],
      [
        "z",
        -4.5682277971428595
      ],
      [
        "▁edip",
        -7.343455231838878
      ],
      [
        "ki",
        -5.838153410338474
      ],
      [
        "▁ilk",
        -5.422088086439556
      ],
      [
        "▁kısmı",
        -8.701347233695433
      ],
      [
        "▁degisme",
        -8.163684177018718
      ],
      [
        "▁ekibi",
        -8.599650905280164
      ],
      [
        "▁kolunu",
        -9.809103802455034
      ],
      [
        "fi",
        -11.266950760798968
      ],
      [
        "▁ihtiyar",
        -7.886401087484883
      ],
      [
        "▁erkek",
        -7.700621246120636
      ],
      [
        "tıgını",
        -9.655417311116329
      ],
      [
        "▁doların",
        -9.400152930827678
      ],
      [
        "▁bulundugu",
        -8.199107879652507
      ],
      [
        "▁mal",
        -7.965304817937113
      ],
      [
        "o",
        -7.777203223457151
      ],
      [
        "▁acılıyor",
        -8.87692131228097
      ],
      [
        "▁egitim",
        -8.608605471742159
      ],
      [
        "▁yolda",
        -8.393275256506886
      ],
      [
        "abı",
        -8.959536421818612
      ],
      [
        "▁nasdaq",
        -7.873293959551207
      ],
      [
        "▁yel",
        -9.859568894769861
      ],
      [
        "sizce",
        -8.503372912292296
      ],
      [
        "▁siddet",
        -8.144050475235517
      ],
      [
        "ar",
        -8.291577834059105
      ],
      [
        "▁deger",
        -8.564624529595992
      ],
      [
        "s",
        -4.747466569578413
      ],
      [
        "▁istemedi",
        -8.81689682717978
      ],
      [
        "▁kıbrıs",
        -8.198489339542663
      ],
      [
        "▁ka",
        -8.106646594323895
      ],
      [
        "▁edebilir",
        -7.8848612233505015
      ],
      [
        "onun",
        -7.534328467502998
      ],
      [
        "r",
        -4.185130804161472
      ],
      [
        "▁in",
        -8.736883981384642
      ],
      [
        "8",
        -9.073618141218798
      ],
      [
        "▁film",
        -8.37900090984953
      ],
      [
        "▁kos",
        -8.476965782490117
      ],
      [
        "▁ulke",
        -7.948606603315816
      ],
      [
        "▁azal",
        -8.084599415076477
      ],
      [
        "▁kullanıyor",
        -8.063980962690811
      ],
      [
        "hi",
        -10.103717129124831
      ],
      [
        "ince",
        -6.116245953076076
      ],
      [
        "▁tutun",
        -8.810343286394296
      ],
      [
        "▁bicimi",
        -9.624701487487027
      ],
      [
        "▁aktarma",
        -6.132486988951108
      ],
      [
        "mıs",
        -5.9078452733332485
      ],
      [
        "▁boslugu",
        -9.784624660640539
      ],
      [
        "▁sır",
        -8.26804362577061
      ],
      [
        "▁'li",
        -7.839626404640395
      ],
      [
        "▁gunah",
        -9.316180005601641
      ],
      [
        "f",
        -8.465331673033063
      ],
      [
        "▁atılım",
        -9.681818272061033
      ],
      [
        "▁felc",
        -10.176406429104931
      ],
      [
        "▁gozlem",
        -9.21909786641763
      ],
      [
        "▁corap",
        -9.681779395371713
      ],
      [
        "'nın",
        -5.331183481266247
      ],
      [
        "▁tatlı",
        -7.194395806210718
      ],
      [
        "di",
        -3.9953062551485434
      ],
      [
        "▁savası",
        -8.858226428398872
      ],
      [
        "▁baskı",
        -8.202036073793412
      ],
      [
        "▁osmanlı",
        -7.553920337047785
      ],
      [
        "▁tipi",
        -9.427494956244765
      ],
      [
        "▁etkisini",
        -9.925766945060985
      ],
      [
        "▁anlama",
        -8.733755619919087
      ],
      [
        "caba",
        -7.273779888668228
      ],
      [
        "k",
        -11.802702672349778
      ],
      [
        "▁ber",
        -5.3562904798937145
      ],
      [
        "▁onumuzde",
        -6.668482556610607
      ],
      [
        "▁yasa",
        -8.194870699168721
      ],
      [
        "▁gosterge",
        -9.557040616335092
      ],
      [
        "▁1",
        -8.253833276314008
      ],
      [
        "▁nedenler",
        -9.053307560699015
      ],
      [
        "▁heyecan",
        -8.88411224531347
      ],
      [
        "▁su",
        -6.670277040763048
      ],
      [
        "▁degisiklik",
        -9.132239279850799
      ],
      [
        "w",
        -9.78166647148184
      ],
      [
        "▁gozum",
        -9.442287388069516
      ],
      [
        "lugunu",
        -9.132064020180659
      ],
      [
        "ah",
        -9.0460291511165
      ],
      [
        "▁cogunluk",
        -10.028352161615713
      ],
      [
        "▁niha",
        -8.322839238780727
      ],
      [
        "▁s",
        -6.730562792173902
      ],
      [
        "▁listesini",
        -8.934168726339886
      ],
      [
        "▁annesini",
        -9.434375946396758
      ],
      [
        "▁sekil",
        -9.600866890666095
      ],
      [
        "▁anlasıl",
        -8.727093256442933
      ],
      [
        "▁%1",
        -9.946471651455335
      ],
      [
        "inde",
        -7.056932978677051
      ],
      [
        "▁ısıgında",
        -10.03562329776869
      ],
      [
        "oni",
        -8.038084261256678
      ],
      [
        "'ni",
        -8.877068849666227
      ],
      [
        "▁getiriyor",
        -8.394380446292567
      ],
      [
        "▁degisimi",
        -9.433211713207333
      ],
      [
        "▁varsa",
        -7.665968530700809
      ],
      [
        "▁goc",
        -9.388054200051243
      ],
      [
        "▁coktu",
        -8.06925336707311
      ],
      [
        "▁haklarını",
        -9.863668296466095
      ],
      [
        "er",
        -11.017488162037896
      ],
      [
        "sa",
        -8.006803653686841
      ],
      [
        "▁san",
        -6.097867166250172
      ],
      [
        "▁yasında",
        -8.4498828165096
      ],
      [
        "▁gorunuyor",
        -7.329012415121878
      ],
      [
        "▁ulkelerde",
        -9.737253126527783
      ],
      [
        "▁satıl",
        -8.447879124150518
      ],
      [
        "▁per",
        -9.597625556347497
      ],
      [
        "▁telefonu",
        -9.533436158810954
      ],
      [
        "▁california'",
        -7.9573498598326395
      ],
      [
        "▁dunyasında",
        -9.870222895633555
      ],
      [
        "d",
        -10.41573712684167
      ],
      [
        "▁ro",
        -9.849057067141707
      ],
      [
        "15",
        -7.462848269292871
      ],
      [
        "▁beri",
        -7.337470521257895
      ],
      [
        "▁salon",
        -9.313286607515286
      ],
      [
        "▁qintex",
        -8.17984084372565
      ],
      [
        "▁dizi",
        -8.438656295283696
      ],
      [
        "▁cins",
        -9.57484381486226
      ],
      [
        "▁vurguladı",
        -8.993549426561932
      ],
      [
        "▁harcamalar",
        -9.98868784188273
      ],
      [
        "▁taraf",
        -5.733464205858842
      ],
      [
        "k",
        -4.527687995047776
      ],
      [
        "▁hasta",
        -7.423188722157379
      ],
      [
        "▁gar",
        -7.791208451061799
      ],
      [
        "l",
        -5.464349539545049
      ],
      [
        "▁hotel",
        -10.099385481680233
      ],
      [
        "▁sair",
        -8.66825251834427
      ],
      [
        "▁kulube",
        -9.731950323231946
      ],
      [
        "errill",
        -7.5547023893008
      ],
      [
        "▁moody'",
        -8.040777599680375
      ],
      [
        "'n",
        -8.895051255182251
      ],
      [
        "▁konum",
        -7.6634847707413085
      ],
      [
        "r",
        -7.411357469477656
      ],
      [
        "▁evlerin",
        -9.160221444309563
      ],
      [
        "▁ad",
        -8.443510750513518
      ],
      [
        "▁nokta",
        -8.245206165701646
      ],
      [
        "▁pro",
        -10.041326624613635
      ],
      [
        "▁dukkanı",
        -9.261399958872248
      ],
      [
        "▁nine",
        -9.64072118265808
      ],
      [
        "▁donusu",
        -9.904280407684318
      ],
      [
        "▁sona",
        -8.216296537348098
      ],
      [
        "▁gir",
        -7.837707612100456
      ],
      [
        "▁muh",
        -9.654544092529875
      ],
      [
        "▁herkeste",
        -8.043909796658193
      ],
      [
        "▁alternatif",
        -9.388060444371748
      ],
      [
        "▁bush",
        -7.397549214620362
      ],
      [
        "▁uygulamaları",
        -9.661107740529044
      ],
      [
        "▁zorla",
        -9.865764098379396
      ],
      [
        "▁bakanlar",
        -10.141679295149753
      ],
      [
        "▁rahat",
        -6.60639805817359
      ],
      [
        "▁kez",
        -7.4685425941925425
      ],
      [
        "▁dolardı",
        -8.494333369675527
      ],
      [
        "▁kupe",
        -9.70542588960913
      ],
      [
        "kırı",
        -8.502980451637516
      ],
      [
        "▁deprem",
        -8.297003741744062
      ],
      [
        "▁temas",
        -9.720909502351768
      ],
      [
        "▁taraftar",
        -9.550301152664606
      ],
      [
        "▁benze",
        -8.633245905412128
      ],
      [
        "▁rejim",
        -10.169833781291858
      ],
      [
        "▁sun",
        -8.207218560870785
      ],
      [
        "ah",
        -10.102976726532598
      ],
      [
        "▁cek",
        -8.01119483231206
      ],
      [
        "▁pencere",
        -8.560509397068126
      ],
      [
        "▁yokusu",
        -10.156004573145616
      ],
      [
        "m",
        -3.07230917458263
      ],
      [
        "▁demokrasi",
        -9.252272002114474
      ],
      [
        "ktan",
        -8.160806335935046
      ],
      [
        "▁ellerinde",
        -8.78716603114105
      ],
      [
        "▁ilginc",
        -8.144211706128466
      ],
      [
        "acılı",
        -8.57891234025382
      ],
      [
        "asız",
        -8.684879934484599
      ],
      [
        "▁y",
        -8.967331541838378
      ],
      [
        "▁dostluk",
        -9.962424626698589
      ],
      [
        "▁bizim",
        -8.887491071444323
      ],
      [
        "▁alan",
        -7.711723491862631
      ],
      [
        "▁satıla",
        -8.673308091097581
      ],
      [
        "▁atladı",
        -8.873336716702688
      ],
      [
        "▁kaza",
        -8.70092915544905
      ],
      [
        "unuz",
        -6.768342496865392
      ],
      [
        "▁ger",
        -8.4405385369935
      ],
      [
        "▁karsiligi",
        -8.182631850259288
      ],
      [
        "▁girdi",
        -7.004464833341264
      ],
      [
        "▁boyle",
        -6.401749911810886
      ],
      [
        "▁yasar",
        -8.378151067862493
      ],
      [
        "▁icmek",
        -10.156511511353978
      ],
      [
        "▁senet",
        -9.928353417102489
      ],
      [
        "▁vakit",
        -8.446707740706218
      ],
      [
        "▁duru",
        -7.994628757533105
      ],
      [
        "▁cap",
        -8.46574441981694
      ],
      [
        "▁davran",
        -8.567626557843383
      ],
      [
        "▁akla",
        -9.911082623440754
      ],
      [
        "▁duyma",
        -10.116360798374373
      ],
      [
        "▁inek",
        -9.683063907454176
      ],
      [
        "▁hayatımda",
        -10.030868283166498
      ],
      [
        "▁serbet",
        -10.176337805418049
      ],
      [
        "▁ver",
        -7.757383306895422
      ],
      [
        "den",
        -5.765485517110782
      ],
      [
        "▁yapılaca",
        -7.3771974283079125
      ],
      [
        "▁co.",
        -6.692764384855116
      ],
      [
        "▁bulunuyor",
        -7.710707179604751
      ],
      [
        "▁suda",
        -9.96224014224051
      ],
      [
        "▁merkezi",
        -8.286609967084111
      ],
      [
        "▁raporları",
        -9.723926673866265
      ],
      [
        "=",
        -11.302702672349787
      ],
      [
        "▁yapıldı",
        -8.264724422830945
      ],
      [
        "▁imalat",
        -9.931051704375001
      ],
      [
        "▁ibm",
        -8.101680442143891
      ],
      [
        "▁alanı",
        -9.659167037586442
      ],
      [
        "▁kazı",
        -9.923883595833722
      ],
      [
        "▁belge",
        -9.617695125516114
      ],
      [
        "▁bugunu",
        -10.023601099324305
      ],
      [
        "▁kızın",
        -9.1766455925413
      ],
      [
        "▁surec",
        -9.032522031285588
      ],
      [
        "▁hızla",
        -9.774294170434237
      ],
      [
        "▁domates",
        -9.161307313560851
      ],
      [
        "▁kez",
        -8.23057518310227
      ],
      [
        "▁asır",
        -9.703983073856445
      ],
      [
        "arak",
        -6.248357976238072
      ],
      [
        "bir",
        -9.84958288323799
      ],
      [
        "▁or",
        -8.60131286978149
      ],
      [
        "gında",
        -10.1682313154572
      ],
      [
        "d",
        -8.872852067275208
      ],
      [
        "▁sebze",
        -9.425097673573475
      ],
      [
        "acık",
        -8.623245486613722
      ],
      [
        "▁dun",
        -7.095161307844825
      ],
      [
        "▁kara",
        -6.747199164576152
      ],
      [
        "kce",
        -8.540436952031504
      ],
      [
        "▁yapa",
        -7.878229298172798
      ],
      [
        "▁wall",
        -6.797825513385183
      ],
      [
        "u",
        -12.802702672349787
      ],
      [
        "▁yetkilisi",
        -9.751782883278619
      ],
      [
        "▁mum",
        -9.801373450076811
      ],
      [
        "▁yapar",
        -7.492585274946969
      ],
      [
        "▁zemin",
        -9.503584882749177
      ],
      [
        "▁edemez",
        -8.929675118898468
      ],
      [
        "w",
        -7.401227196623928
      ],
      [
        "siz",
        -9.316193889768682
      ],
      [
        "▁mutemadi",
        -8.499264931476192
      ],
      [
        "▁yiyecek",
        -8.038314954375355
      ],
      [
        "▁hızla",
        -6.8654287322603
      ],
      [
        "ten",
        -6.617646770750299
      ],
      [
        "▁dayak",
        -9.732459305100274
      ],
      [
        "▁hepsi",
        -4.889312156628241
      ],
      [
        "▁varmak",
        -9.868116984503121
      ],
      [
        "▁herkes",
        -8.179842702358489
      ],
      [
        "▁muzigi",
        -9.352486890600112
      ],
      [
        "son",
        -7.531826592809271
      ],
      [
        "▁kafasın",
        -10.022045005404355
      ],
      [
        "oz",
        -8.69830439082018
      ],
      [
        "▁uyesi",
        -9.248191344963487
      ],
      [
        "▁27",
        -5.792169366662349
      ],
      [
        ",",
        -9.631167007112749
      ],
      [
        "yle",
        -6.079427766229643
      ],
      [
        "▁ihtiyacım",
        -7.457494821532661
      ],
      [
        "'in",
        -4.908171749420495
      ],
      [
        "▁bırakır",
        -8.823648138360552
      ],
      [
        "is",
        -8.18179369853281
      ],
      [
        "▁on",
        -6.089300112861576
      ],
      [
        "▁hadise",
        -9.588707398340878
      ],
      [
        "▁nisan",
        -7.524823421296444
      ],
      [
        "▁faturami",
        -9.628836188013388
      ],
      [
        "▁saglar",
        -8.625819800825848
      ],
      [
        "▁kendisinde",
        -6.859663833901616
      ],
      [
        "▁ahır",
        -9.898846384186928
      ],
      [
        "▁toplam",
        -7.814002498854201
      ],
      [
        "▁talebin",
        -10.14181767284516
      ],
      [
        "▁boy",
        -9.02719608145475
      ],
      [
        "▁ideal",
        -7.703491446277126
      ],
      [
        "▁zil",
        -9.823653957858811
      ],
      [
        "▁tenis",
        -10.029109148191527
      ],
      [
        "ken",
        -7.136114390479861
      ],
      [
        "▁sigorta",
        -8.379966721147174
      ],
      [
        "▁mut",
        -9.641235584015035
      ],
      [
        "▁yapılır",
        -8.281788296923454
      ],
      [
        "▁gorunus",
        -9.83202379863535
      ],
      [
        "▁m",
        -6.56957621770222
      ],
      [
        "▁bolumu",
        -8.824032392199864
      ],
      [
        "▁git",
        -7.190858593130086
      ],
      [
        "▁yuz",
        -7.136694801828872
      ],
      [
        "▁son",
        -5.069177350025439
      ],
      [
        "diginde",
        -9.261154911964987
      ],
      [
        "dı",
        -8.828757258661337
      ],
      [
        "▁basladı",
        -5.910406136442483
      ],
      [
        "▁yemeklerin",
        -8.971561937187273
      ],
      [
        "▁tavrı",
        -9.545348657560876
      ],
      [
        "▁ihrac",
        -9.1356813010215
      ],
      [
        "tigini",
        -9.71767676118031
      ],
      [
        "sup",
        -8.315980552459447
      ],
      [
        "▁sektoru",
        -9.234330448925931
      ],
      [
        "ıcı",
        -7.088788865289696
      ],
      [
        "▁sonucu",
        -8.860236453911142
      ],
      [
        "▁onemli",
        -9.223548455251475
      ],
      [
        "▁usta",
        -8.744238749966126
      ],
      [
        "▁us",
        -7.929442508986908
      ],
      [
        "▁oburun",
        -8.303320137242117
      ],
      [
        "▁tedbirler",
        -10.081753967631986
      ],
      [
        "▁turkiye'y",
        -7.808037361817597
      ],
      [
        "nla",
        -6.587253460802882
      ],
      [
        "▁cık",
        -7.596489491685753
      ],
      [
        "▁olcu",
        -9.639751230580952
      ],
      [
        "▁renkleri",
        -9.914818630590162
      ],
      [
        "▁'lu",
        -8.55734771166754
      ],
      [
        "▁bunu",
        -4.07572431406977
      ],
      [
        "▁ingiliz",
        -7.3765079154609525
      ],
      [
        "▁adam",
        -8.224659733142335
      ],
      [
        "▁yan",
        -8.126224855646317
      ],
      [
        "▁komisyonu",
        -9.015441238110412
      ],
      [
        "v",
        -8.402736224443764
      ],
      [
        "▁one",
        -9.271148454542846
      ],
      [
        "▁ucuyor",
        -7.218495273415914
      ],
      [
        "▁buyume",
        -8.410159058265386
      ],
      [
        "▁elinde",
        -7.469964829617879
      ],
      [
        "gide",
        -8.415439818925279
      ],
      [
        "▁nisan'da",
        -8.039728696473313
      ],
      [
        "▁bankalar",
        -9.212912823398511
      ],
      [
        "▁evladı",
        -10.028939703693947
      ],
      [
        "▁a",
        -6.925115723606802
      ],
      [
        "▁secenegi",
        -9.731777690440051
      ],
      [
        "▁bırakmıs",
        -8.93671780277022
      ],
      [
        "▁aralık",
        -7.542248708489103
      ],
      [
        "▁sabah",
        -7.865268865524003
      ],
      [
        "▁daldı",
        -8.757586543163981
      ],
      [
        "▁soyu",
        -10.151365200804525
      ],
      [
        "▁arası",
        -7.666211944241717
      ],
      [
        "isli",
        -8.192030201536882
      ],
      [
        "▁iplik",
        -10.031348902919618
      ],
      [
        "▁kese",
        -9.260685805622623
      ],
      [
        "▁bardak",
        -8.820914813311493
      ],
      [
        "▁sarsıntı",
        -9.681782736625884
      ],
      [
        "▁rakı",
        -8.884615069901558
      ],
      [
        "▁iddiaları",
        -9.794680753246594
      ],
      [
        "▁kullanıla",
        -8.402085269304877
      ],
      [
        "le",
        -7.458790267317659
      ],
      [
        "▁cevir",
        -8.9035554935799
      ],
      [
        "▁hu",
        -9.272782073453898
      ],
      [
        "▁love",
        -8.038754973731502
      ],
      [
        "▁tele",
        -7.449750743010933
      ],
      [
        "▁aklını",
        -9.703596544168965
      ],
      [
        "▁dusunme",
        -9.236863906947674
      ],
      [
        "liydi",
        -6.030116676959487
      ],
      [
        "▁alan",
        -8.290527668735532
      ],
      [
        "▁konferans",
        -9.545225687760327
      ],
      [
        "▁neresi",
        -7.338079000641589
      ],
      [
        "▁cag",
        -9.046629717161853
      ],
      [
        "▁yapılan",
        -6.93763034813531
      ],
      [
        "▁iceriyor",
        -7.874679379361867
      ],
      [
        "asa",
        -9.345251328416396
      ],
      [
        "▁denizi",
        -6.979767268175976
      ],
      [
        "'te",
        -7.4383271455888815
      ],
      [
        "▁pazarlama",
        -9.433953407864276
      ],
      [
        "▁lu",
        -6.665428194656309
      ],
      [
        "▁olabil",
        -8.713444226035984
      ],
      [
        "▁seklin",
        -8.784791170183585
      ],
      [
        "▁degillerdi",
        -5.210354841089645
      ],
      [
        "▁asagıda",
        -8.947762715351653
      ],
      [
        "▁don",
        -8.33302328191867
      ],
      [
        "mizi",
        -8.050809985730572
      ],
      [
        "▁polisler",
        -9.77313611037931
      ],
      [
        "▁hazır",
        -9.998833523814346
      ],
      [
        "▁gezegen",
        -10.099383669928596
      ],
      [
        "*",
        -8.013350264920795
      ],
      [
        "▁banyosu",
        -9.716343694527893
      ],
      [
        "me",
        -8.78759046311184
      ],
      [
        "▁talebe",
        -10.02795973487089
      ],
      [
        "▁olması",
        -7.471201391435196
      ],
      [
        "sal",
        -9.743346260171108
      ],
      [
        "▁bar",
        -8.432456186532402
      ],
      [
        "▁yelken",
        -10.099426674421828
      ],
      [
        "▁fikri",
        -8.802202662123808
      ],
      [
        "▁karısı",
        -8.979260648993218
      ],
      [
        "▁tasarruf",
        -8.931278739456356
      ],
      [
        "▁tatil",
        -7.398104767951257
      ],
      [
        "▁kahve",
        -7.623939041158127
      ],
      [
        "▁iktisa",
        -10.099383475193196
      ],
      [
        "izim",
        -9.416666702438333
      ],
      [
        "▁art",
        -8.34966157181385
      ],
      [
        "▁koridor",
        -9.73177756433445
      ],
      [
        "▁alıyor",
        -7.267886573406208
      ],
      [
        "▁siparis",
        -9.425891822123686
      ],
      [
        "▁ayında",
        -7.6650862646842945
      ],
      [
        "culuk",
        -10.125816019006361
      ],
      [
        "▁sade",
        -4.929761959807005
      ],
      [
        "▁17",
        -6.060985725555577
      ],
      [
        "▁cennet",
        -9.388061656636005
      ],
      [
        "▁muhendis",
        -9.475372007351002
      ],
      [
        "▁kimligi",
        -10.05878268146811
      ],
      [
        "30'da",
        -9.898747425593585
      ],
      [
        "'da",
        -7.32189348330439
      ],
      [
        "▁farkı",
        -10.085308891937023
      ],
      [
        "ebilecegini",
        -10.013958104754012
      ],
      [
        "cıları",
        -9.000535322295027
      ],
      [
        "▁yerinde",
        -8.10903683046838
      ],
      [
        "lı",
        -4.604940978868521
      ],
      [
        "nc",
        -6.268229403463587
      ],
      [
        "▁fe",
        -8.187250758716738
      ],
      [
        "ish",
        -8.135967148555501
      ],
      [
        "▁yakında",
        -7.032897940633355
      ],
      [
        "▁omuz",
        -9.498887763814203
      ],
      [
        "med",
        -8.27747926085322
      ],
      [
        "▁astı",
        -8.594522355806921
      ],
      [
        "▁pis",
        -7.848255553532132
      ],
      [
        "▁olsa",
        -6.654963429554679
      ],
      [
        "▁cbs",
        -8.11443270675226
      ],
      [
        "▁ayıp",
        -9.967922441935631
      ],
      [
        "▁parmaklarını",
        -10.155688713725567
      ],
      [
        "▁yetkili",
        -8.701522635090374
      ],
      [
        "▁meslegi",
        -10.099454154532044
      ],
      [
        "▁planı",
        -8.78924027281415
      ],
      [
        "▁artı",
        -9.883734229734173
      ],
      [
        "ul",
        -8.362786706144309
      ],
      [
        "yabilir",
        -8.683868959968766
      ],
      [
        "▁bol",
        -7.374533476326934
      ],
      [
        "▁ihtiyacları",
        -9.592524914350065
      ],
      [
        "▁pazarlık",
        -9.921016104073146
      ],
      [
        "▁de",
        -4.7753992930642415
      ],
      [
        "▁su",
        -8.517285383293169
      ],
      [
        "ama",
        -3.6363263764093876
      ],
      [
        "▁gelis",
        -7.943382877162252
      ],
      [
        "▁halde",
        -7.783803975375056
      ],
      [
        "▁tesvik",
        -8.741473247416302
      ],
      [
        "▁varır",
        -8.930957075891941
      ],
      [
        "lli",
        -10.009628530707937
      ],
      [
        "▁am",
        -9.787539236234137
      ],
      [
        "▁ucagı",
        -9.60639638912383
      ],
      [
        "▁kendinde",
        -7.5574632228605765
      ],
      [
        "▁tutku",
        -9.84065981773592
      ],
      [
        "▁pamuk",
        -9.503559251394204
      ],
      [
        "▁rengi",
        -8.490326052368752
      ],
      [
        "▁birlikte",
        -9.506821890762895
      ],
      [
        "▁alına",
        -8.18756117274245
      ],
      [
        "▁ustun",
        -8.03828813011044
      ],
      [
        "▁sunlar",
        -6.837551784206271
      ],
      [
        "▁edile",
        -8.361442269704883
      ],
      [
        "▁gel",
        -10.166042678300542
      ],
      [
        "▁seker",
        -8.821906893987967
      ],
      [
        "▁cevap",
        -7.970495569301766
      ],
      [
        "man",
        -7.430768097625315
      ],
      [
        "▁aday",
        -9.287606683292669
      ],
      [
        "iba",
        -7.213093955656788
      ],
      [
        "▁yalnızlık",
        -9.6817775411929
      ],
      [
        "▁akıllı",
        -8.365795485058426
      ],
      [
        "▁miktarda",
        -9.435329573077782
      ],
      [
        "▁yusuf",
        -7.8649670775033425
      ],
      [
        "▁tiyatro",
        -8.471775741093362
      ],
      [
        "▁ıskarta",
        -9.425098026597857
      ],
      [
        "▁ba",
        -8.250698502706395
      ],
      [
        "▁aydınlık",
        -9.683424034988784
      ],
      [
        "ya",
        -7.487244857637893
      ],
      [
        "▁kap",
        -8.325077204612565
      ],
      [
        "▁yatıyor",
        -8.749984482947728
      ],
      [
        "▁tedavi",
        -9.051615248573828
      ],
      [
        "▁kaba",
        -9.222172181638669
      ],
      [
        ",",
        -11.199613634584775
      ],
      [
        "▁olabilir",
        -5.88757540369784
      ],
      [
        "larını",
        -5.940442738682342
      ],
      [
        "▁s&p",
        -7.841850890772225
      ],
      [
        "▁kesti",
        -8.354104924663527
      ],
      [
        "ı",
        -5.124368161599107
      ],
      [
        "▁mail",
        -8.977112453687816
      ],
      [
        "▁catal",
        -10.099932248558858
      ],
      [
        "▁buz",
        -8.909279493203545
      ],
      [
        "▁merkezi",
        -7.969838126988585
      ],
      [
        "▁olay",
        -8.532423512986664
      ],
      [
        "▁kimyasal",
        -10.17639053921947
      ],
      [
        "▁net",
        -8.176922060696352
      ],
      [
        "▁po",
        -9.093012455231381
      ],
      [
        "▁kapasite",
        -9.441969772730122
      ],
      [
        "▁du",
        -8.633377315617889
      ],
      [
        "▁cift",
        -9.482124604281044
      ],
      [
        "hanede",
        -9.85255874724039
      ],
      [
        "▁milyar",
        -8.289509678381295
      ],
      [
        "▁le",
        -7.9684656035839705
      ],
      [
        "▁degirmen",
        -10.099391662292133
      ],
      [
        "▁cesitler",
        -9.773251208897124
      ],
      [
        "▁bileti",
        -8.698950887448296
      ],
      [
        "▁semt",
        -9.898821012024692
      ],
      [
        "▁amerika",
        -7.467700766358428
      ],
      [
        "▁olanaklarını",
        -9.55759320699416
      ],
      [
        "▁istedigi",
        -8.44543323804165
      ],
      [
        "▁minder",
        -9.961351037459501
      ],
      [
        "e",
        -3.854973002944332
      ],
      [
        "▁orgutu",
        -9.961745052421316
      ],
      [
        "▁sinan",
        -8.27236400130637
      ],
      [
        "▁dar",
        -9.435386092095698
      ],
      [
        "▁satma",
        -9.705961312885858
      ],
      [
        "▁ucunda",
        -9.237163884950764
      ],
      [
        "▁emine",
        -8.194283436245982
      ],
      [
        "larında",
        -6.764478216958829
      ],
      [
        "▁seyahat",
        -8.1327555381821
      ],
      [
        "▁burcu",
        -9.906364138136519
      ],
      [
        "e",
        -6.60905632674776
      ],
      [
        "▁etkisi",
        -8.800946385665007
      ],
      [
        "▁etkinlik",
        -9.957152782255507
      ],
      [
        "▁arizona",
        -8.243637910701775
      ],
      [
        "▁olustur",
        -8.362266560705175
      ],
      [
        "▁ister",
        -7.5148055003204455
      ],
      [
        "▁pabuc",
        -9.961288504087978
      ],
      [
        "▁gide",
        -5.85361093645331
      ],
      [
        "▁dokme",
        -10.100370243198487
      ],
      [
        "▁20.",
        -7.512346450622076
      ],
      [
        "▁bas",
        -8.34427474861392
      ],
      [
        "lenme",
        -8.398491152170017
      ],
      [
        "▁dugme",
        -9.644068824649649
      ],
      [
        "meyi",
        -9.402707686197592
      ],
      [
        "▁olmadıgını",
        -8.380001185977228
      ],
      [
        "▁tohum",
        -9.352355013205953
      ],
      [
        "▁benziyor",
        -8.111115775284727
      ],
      [
        "▁zafer",
        -9.47418788900065
      ],
      [
        "z",
        -5.7415333213331525
      ],
      [
        "▁yarattı",
        -8.721827080527456
      ],
      [
        "▁egilimi",
        -9.976814305479753
      ],
      [
        "▁malı",
        -9.710288995337594
      ],
      [
        "▁almıs",
        -7.862625883439028
      ],
      [
        "▁hakk",
        -5.840372106910847
      ],
      [
        "▁oldugunu",
        -6.570795219592205
      ],
      [
        "▁asama",
        -9.487348339143159
      ],
      [
        "▁iptal",
        -9.317926482454055
      ],
      [
        "▁vucudunu",
        -10.142720556696712
      ],
      [
        "tab",
        -9.553635617866544
      ],
      [
        "'da",
        -5.987685472531846
      ],
      [
        "va",
        -8.36708514772662
      ],
      [
        "u",
        -6.171224191710348
      ],
      [
        "▁arasında",
        -6.363146818047003
      ],
      [
        "▁tanı",
        -9.951936020626722
      ],
      [
        "▁kaldı",
        -6.776605112657178
      ],
      [
        "▁cumhuriyetci",
        -9.915028570592987
      ],
      [
        ")",
        -6.115128725042444
      ],
      [
        "▁kendini",
        -4.901080439319303
      ],
      [
        "c",
        -6.519041070915973
      ],
      [
        "▁harman",
        -10.028685687233784
      ],
      [
        "▁1/",
        -5.763313856350588
      ],
      [
        "▁fikirler",
        -10.073850620142059
      ],
      [
        "▁turlu",
        -9.849311209251749
      ],
      [
        "▁sesini",
        -9.305212463784807
      ],
      [
        "▁oldukları",
        -10.10172081833627
      ],
      [
        "▁boy",
        -5.301293242611928
      ],
      [
        "▁balık",
        -8.86995360333358
      ],
      [
        "▁okuyucu",
        -9.83997565013528
      ],
      [
        "▁fa",
        -5.262360152298196
      ],
      [
        "▁cagırdı",
        -8.8242755219977
      ],
      [
        "▁calısır",
        -8.62064494205179
      ],
      [
        "▁belirl",
        -7.873679259010714
      ],
      [
        "▁pesinde",
        -9.399697435476128
      ],
      [
        "▁saatli",
        -8.686326185010666
      ],
      [
        "▁sebepler",
        -9.738937941738003
      ],
      [
        "▁genclig",
        -10.002181696893619
      ],
      [
        "▁sampiyon",
        -9.7317775452097
      ],
      [
        "▁olma",
        -8.38795150574927
      ],
      [
        "▁makinesi",
        -9.547658553534374
      ],
      [
        "▁icat",
        -9.787400603600602
      ],
      [
        "▁satım",
        -8.221388647068874
      ],
      [
        "▁tuttu",
        -7.728201734259003
      ],
      [
        "▁liman",
        -9.5819867660019
      ],
      [
        "▁saldırı",
        -9.000988579347535
      ],
      [
        "▁lider",
        -9.357372627103146
      ],
      [
        "▁halkla",
        -9.921052869504098
      ],
      [
        "▁tekn",
        -8.597713512155991
      ],
      [
        "▁onunde",
        -7.773261615414619
      ],
      [
        "▁eda",
        -9.716654193794973
      ],
      [
        "▁cuma",
        -6.531198751131021
      ],
      [
        "▁sevgili",
        -9.607550558767713
      ],
      [
        "▁esyalar",
        -9.937510679677654
      ],
      [
        "▁sarap",
        -9.8991520659439
      ],
      [
        "▁ajans",
        -9.663148754414797
      ],
      [
        "▁herif",
        -9.28311556223514
      ],
      [
        "▁hari",
        -7.715060009443443
      ],
      [
        "ili",
        -6.820299547520811
      ],
      [
        "▁damar",
        -9.223508737285991
      ],
      [
        "▁ben",
        -2.9871799491523117
      ],
      [
        "▁oner",
        -8.88718245362589
      ],
      [
        "▁bulunur",
        -8.476663089240876
      ],
      [
        "▁idare",
        -8.460589934051669
      ],
      [
        "▁dusmus",
        -8.040705993777241
      ],
      [
        "▁icme",
        -8.920123822594704
      ],
      [
        "▁james",
        -7.95169686791302
      ],
      [
        "▁aktar",
        -8.557557591398407
      ],
      [
        "▁an",
        -8.887923568972717
      ],
      [
        "▁inanıyor",
        -8.10059766672821
      ],
      [
        "v",
        -2.1317723992754427
      ],
      [
        "▁reklamları",
        -10.024232199313175
      ],
      [
        "▁ters",
        -7.966993903453957
      ],
      [
        "▁kacın",
        -8.687702665673099
      ],
      [
        "▁kaptan",
        -9.288663449425828
      ],
      [
        "ıyor",
        -5.993377616709273
      ],
      [
        "▁islemler",
        -8.939307499453506
      ],
      [
        "lik",
        -6.753790400369471
      ],
      [
        "▁kayıp",
        -9.718502707064934
      ],
      [
        "▁gormustu",
        -8.770407357830711
      ],
      [
        "▁angeles'te",
        -7.751971701114252
      ],
      [
        "▁hukuku",
        -10.156121939738544
      ],
      [
        "▁yumusa",
        -7.937687443718504
      ],
      [
        "▁gecmis",
        -7.743741673401963
      ],
      [
        "▁acaktı",
        -7.058629810723529
      ],
      [
        "ına",
        -6.504761452444189
      ],
      [
        "▁acar",
        -8.337642511132312
      ],
      [
        "▁serbest",
        -7.789340364422177
      ],
      [
        "▁yil",
        -9.88423741397589
      ],
      [
        "▁solda",
        -10.103849978618
      ],
      [
        "▁kitapta",
        -9.857500563517922
      ],
      [
        "suz",
        -5.9552889409552785
      ],
      [
        "▁kapandı",
        -6.586782887762603
      ],
      [
        "5",
        -4.1197129008691356
      ],
      [
        "▁bilmem",
        -8.31896242053679
      ],
      [
        "▁donemi",
        -9.2180066677954
      ],
      [
        "▁yalı",
        -9.388500037546965
      ],
      [
        "sadık",
        -8.785851219264412
      ],
      [
        "▁kactı",
        -8.370402907592506
      ],
      [
        "▁oran",
        -8.264130484559317
      ],
      [
        "yacagını",
        -9.870692076268401
      ],
      [
        "▁yerlerde",
        -9.214883255022958
      ],
      [
        "agı",
        -8.668232740265005
      ],
      [
        "umu",
        -8.638698095734352
      ],
      [
        "▁nesil",
        -9.643185841158047
      ],
      [
        "r",
        -5.7785602234432885
      ],
      [
        "▁mar",
        -8.575902006263789
      ],
      [
        "▁tehdit",
        -9.252272004954593
      ],
      [
        "r",
        -3.023477297952499
      ],
      [
        "mızı",
        -8.229385704018213
      ],
      [
        "▁",
        -0.7087938101118976
      ],
      [
        "▁transfer",
        -9.784409358523284
      ],
      [
        "▁yurt",
        -8.633242658341526
      ],
      [
        "▁sonrası",
        -9.042567599840298
      ],
      [
        "▁lokasyon",
        -9.961288401769867
      ],
      [
        "cag",
        -9.771821511960235
      ],
      [
        "▁",
        -3.1693413067501925
      ],
      [
        "ı",
        -6.441841627999206
      ],
      [
        "▁tek",
        -5.296622749586831
      ],
      [
        "▁prens",
        -9.729173251805753
      ],
      [
        "▁askerler",
        -9.847848987115725
      ],
      [
        "▁um",
        -9.256583929427688
      ],
      [
        "▁dısı",
        -8.59931508030196
      ],
      [
        "▁cekmek",
        -9.512381499328749
      ],
      [
        "-",
        -5.222901331865919
      ],
      [
        "luluk",
        -10.05584762641078
      ],
      [
        "▁yukseli",
        -8.66601270666713
      ],
      [
        "▁gul",
        -8.34943937387239
      ],
      [
        "▁ba",
        -8.816175872557334
      ],
      [
        "▁sohret",
        -9.96128820819943
      ],
      [
        "▁topragı",
        -10.036109280649892
      ],
      [
        "▁eder",
        -6.596644283048192
      ],
      [
        "tro",
        -9.53108656120046
      ],
      [
        "▁etraf",
        -9.793188637503686
      ],
      [
        "luk",
        -7.3279065542286155
      ],
      [
        "▁milyon",
        -7.95304805884153
      ],
      [
        "▁seyi",
        -7.96688141721123
      ],
      [
        "'li",
        -9.501379903322782
      ],
      [
        "▁kesildi",
        -8.206220208250325
      ],
      [
        "▁yapmadı",
        -8.010417327709973
      ],
      [
        "▁basta",
        -8.897917195009862
      ],
      [
        "▁seattle'de",
        -7.736604950268081
      ],
      [
        "▁den",
        -8.851020514105679
      ],
      [
        "▁olmasın",
        -8.543613904840175
      ],
      [
        "▁soy",
        -9.411257373386187
      ],
      [
        "lari",
        -9.02566953343354
      ],
      [
        "ese",
        -9.881881994760931
      ],
      [
        "▁yargıc",
        -9.309953506436738
      ],
      [
        "▁yukseliyor",
        -8.9311493194657
      ],
      [
        "▁ek",
        -7.776167075372317
      ],
      [
        "▁kisilik",
        -9.172932991774951
      ],
      [
        "▁hulya",
        -7.7047836763041735
      ],
      [
        "▁dogum",
        -9.109234376530999
      ],
      [
        "▁onun",
        -8.659132124705813
      ],
      [
        "▁eserleri",
        -9.946325802924594
      ],
      [
        "▁kendilerini",
        -5.975809907058947
      ],
      [
        "▁hastalıgı",
        -9.687587611766823
      ],
      [
        "▁erken",
        -6.118897358076235
      ],
      [
        "▁kolayca",
        -8.362299661553566
      ],
      [
        "▁securit",
        -8.232484127806185
      ],
      [
        "ır",
        -8.318480313622686
      ],
      [
        "▁hırsız",
        -9.348754442590268
      ],
      [
        "▁ici",
        -8.437857022349494
      ],
      [
        "ıldıgını",
        -9.922435339828112
      ],
      [
        "▁bu",
        -7.374577612377099
      ],
      [
        "▁pazar",
        -7.728872626375107
      ],
      [
        "▁tarihinde",
        -8.806592547542401
      ],
      [
        "▁basladıgı",
        -10.036850787024292
      ],
      [
        "▁olunc",
        -8.094357719033706
      ],
      [
        "▁tu",
        -3.938386220041247
      ],
      [
        "▁35",
        -6.847149008857883
      ],
      [
        "le",
        -8.251667830885411
      ],
      [
        "un",
        -6.563803247053545
      ],
      [
        "▁yayın",
        -8.346542982790393
      ],
      [
        "▁ilac",
        -8.327369878882932
      ],
      [
        "▁sarf",
        -9.735064691053784
      ],
      [
        "▁seslendi",
        -8.855931036941463
      ],
      [
        "▁boyut",
        -9.737474989898924
      ],
      [
        "kla",
        -9.650649354893169
      ],
      [
        "▁galibiyet",
        -10.099802299638778
      ],
      [
        "▁dalgası",
        -9.945123973302215
      ],
      [
        "▁yet",
        -8.23393354649901
      ],
      [
        "▁uzum",
        -9.288887970831919
      ],
      [
        "▁deme",
        -10.007580637473058
      ],
      [
        "▁gerek",
        -8.412238183017555
      ],
      [
        "al",
        -6.621035070634247
      ],
      [
        "ın",
        -8.334839911683863
      ],
      [
        "▁tasarı",
        -9.866529519818123
      ],
      [
        "▁isim",
        -8.622419553254067
      ],
      [
        "▁kurulunu",
        -9.957794281027798
      ],
      [
        "▁amac",
        -9.292160576689572
      ],
      [
        "▁kullan",
        -8.103839210606088
      ],
      [
        "▁oz",
        -8.528572754610598
      ],
      [
        "▁ortak",
        -9.307227423842601
      ],
      [
        "▁islemlerde",
        -9.363893797897529
      ],
      [
        "▁tampa'da",
        -7.6671951410562915
      ],
      [
        "▁burbank'",
        -8.02300114871696
      ],
      [
        "▁tabir",
        -9.68401181235033
      ],
      [
        "▁ot",
        -9.263674057864478
      ],
      [
        "▁yurume",
        -9.799047690078682
      ],
      [
        "▁bulundugu",
        -9.784612194222841
      ],
      [
        "▁verir",
        -7.67016575151838
      ],
      [
        "▁medeniyet",
        -9.993615089422743
      ],
      [
        "▁sozlesmesi",
        -9.489451320783097
      ],
      [
        "▁sur",
        -8.622184307244908
      ],
      [
        "▁sartlar",
        -10.098468827187261
      ],
      [
        "▁yara",
        -8.318483706895702
      ],
      [
        "bes",
        -6.886558564358986
      ],
      [
        "▁acı",
        -7.056702490320647
      ],
      [
        "e",
        -3.9469061176939926
      ],
      [
        "▁saatler",
        -7.5770854084490615
      ],
      [
        "u",
        -6.0375421242033775
      ],
      [
        "▁haber",
        -7.724663502312925
      ],
      [
        "▁ceyrek",
        -8.150876485848588
      ],
      [
        "▁iyisi",
        -8.534332744333161
      ],
      [
        "▁kitle",
        -9.284542095105428
      ],
      [
        "▁ogrendi",
        -8.62697093966935
      ],
      [
        "▁kultur",
        -8.694781069685188
      ],
      [
        "▁konustu",
        -7.374095003939511
      ],
      [
        "▁sizde",
        -7.649578489204442
      ],
      [
        "n",
        -5.745614067840431
      ],
      [
        "▁gercek",
        -8.681267543453057
      ],
      [
        "▁kır",
        -8.70003233104945
      ],
      [
        "▁tokyo'da",
        -8.0894890395314
      ],
      [
        "▁rezervasyonu",
        -8.18447371030464
      ],
      [
        "▁ameliyat",
        -9.54522569452168
      ],
      [
        "▁iceri",
        -7.9611731144626905
      ],
      [
        "▁telefonla",
        -8.501174807578352
      ],
      [
        "▁calısan",
        -9.85729305802764
      ],
      [
        "yasal",
        -8.29276946333895
      ],
      [
        "▁muhabbet",
        -9.898788204341304
      ],
      [
        "▁f",
        -8.134808978346355
      ],
      [
        "luydu",
        -8.015190650603543
      ],
      [
        "dar",
        -7.640150351019468
      ],
      [
        "▁pa",
        -8.229785100754121
      ],
      [
        "d",
        -7.691019141028298
      ],
      [
        "▁durumunda",
        -9.20807689804445
      ],
      [
        "▁kullanıcı",
        -10.16575389710963
      ],
      [
        "▁rakam",
        -9.59406119181797
      ],
      [
        "▁gerekiyor",
        -7.141487195025525
      ],
      [
        "▁american",
        -6.132364770821345
      ],
      [
        "▁odun",
        -9.003910930160355
      ],
      [
        "▁federa",
        -7.494668383299166
      ],
      [
        "s",
        -3.5806418659215655
      ],
      [
        "▁divan",
        -9.784513306649947
      ],
      [
        "ginde",
        -8.468190213558582
      ],
      [
        "▁23",
        -6.3598901647095225
      ],
      [
        "▁katana",
        -10.100767139187075
      ],
      [
        "ıntı",
        -9.638548665459288
      ],
      [
        "▁ardında",
        -8.789851841036207
      ],
      [
        "▁gorme",
        -9.094165276293776
      ],
      [
        "▁gosterme",
        -9.033000685819797
      ],
      [
        "▁tesisi",
        -8.73748748029383
      ],
      [
        "ran",
        -8.786484147804554
      ],
      [
        "madigim",
        -8.453118860663219
      ],
      [
        "lı",
        -6.982746712373694
      ],
      [
        "▁yontem",
        -9.834877093376113
      ],
      [
        "▁yukselmesin",
        -10.116305003309563
      ],
      [
        "seniz",
        -8.278469743849517
      ],
      [
        "lıgı",
        -7.295390723859495
      ],
      [
        "▁huzun",
        -9.839981764676583
      ],
      [
        "▁ettik",
        -9.63697492735361
      ],
      [
        "sı",
        -8.251158083502972
      ],
      [
        "gel",
        -7.946391005262725
      ],
      [
        "▁okul",
        -8.299799684002835
      ],
      [
        "▁karsısın",
        -9.663606179991183
      ],
      [
        "▁tavsiye",
        -6.565655032857442
      ],
      [
        "lendirme",
        -9.146810883104212
      ],
      [
        "ımı",
        -8.597855877945214
      ],
      [
        "▁h",
        -7.308813907456981
      ],
      [
        "▁sektorunde",
        -9.905807788252615
      ],
      [
        "▁dusur",
        -8.703653151283008
      ],
      [
        "▁serin",
        -9.797813121520026
      ],
      [
        "▁de",
        -2.1420817504035963
      ],
      [
        "▁isgal",
        -9.464543151220076
      ],
      [
        "▁'",
        -9.555207706062431
      ],
      [
        "▁ya",
        -8.979871755568054
      ],
      [
        "v",
        -7.594892263256155
      ],
      [
        "▁pazartesi",
        -8.841572573686888
      ],
      [
        "▁ote",
        -8.93024775871231
      ],
      [
        "im",
        -6.091841997074982
      ],
      [
        "▁du",
        -3.325300845033725
      ],
      [
        "▁iti",
        -10.011500347832548
      ],
      [
        "▁adın",
        -9.223277234568995
      ],
      [
        "▁merhaba",
        -9.588704027903454
      ],
      [
        "▁yonde",
        -9.838663524783215
      ],
      [
        "▁mulkiyet",
        -9.737392312372823
      ],
      [
        "▁servet",
        -9.46365725647953
      ],
      [
        "▁abd'de",
        -7.61346576758946
      ],
      [
        "▁frank",
        -8.183849809091923
      ],
      [
        "u",
        -6.328937242903749
      ],
      [
        "▁duz",
        -8.31210916044675
      ],
      [
        "▁emin",
        -7.957651102672362
      ],
      [
        "▁amerika'da",
        -8.238249559532939
      ],
      [
        ";",
        -5.873728944142089
      ],
      [
        "▁protokol",
        -9.898788205135313
      ],
      [
        "ce",
        -8.21524495305074
      ],
      [
        "▁karabiber",
        -9.784409123165506
      ],
      [
        "lerini",
        -6.198054628146535
      ],
      [
        "▁edip",
        -8.276449919410176
      ],
      [
        "▁miktarı",
        -10.151417021075028
      ],
      [
        "▁da",
        -6.4410868306485405
      ],
      [
        "▁agacı",
        -9.489588388751885
      ],
      [
        "▁kuzey",
        -7.931135228099956
      ],
      [
        "bu",
        -5.9800526379311565
      ],
      [
        "▁ha",
        -6.19103839345896
      ],
      [
        "▁p",
        -7.24526505317657
      ],
      [
        "▁saati",
        -9.167094729612273
      ],
      [
        "▁yasamadi",
        -7.882358148687448
      ],
      [
        "▁kenarında",
        -9.916452154465002
      ],
      [
        "l",
        -8.749613634584774
      ],
      [
        "▁kosesinde",
        -9.572991118989078
      ],
      [
        "▁uygundu",
        -7.652345947537907
      ],
      [
        "dikte",
        -9.564994323174625
      ],
      [
        "▁sahipleri",
        -8.854869794341063
      ],
      [
        "▁iktidar",
        -9.289908284499006
      ],
      [
        "z",
        -7.1627441090796795
      ],
      [
        "▁z",
        -9.050325807694014
      ],
      [
        "▁sehri",
        -9.322761658677091
      ],
      [
        "▁almak",
        -8.295815532235729
      ],
      [
        "▁ac",
        -8.763939298272472
      ],
      [
        "▁doldurdu",
        -8.373924564541808
      ],
      [
        "uncu",
        -8.61725654199062
      ],
      [
        "ıllı",
        -8.372088614477219
      ],
      [
        "s",
        -11.802702672349788
      ],
      [
        "▁turkler",
        -10.057369690323853
      ],
      [
        "▁satın",
        -7.26239506977346
      ],
      [
        "si",
        -8.03340020260503
      ],
      [
        "▁millet",
        -8.558475368987864
      ],
      [
        "▁aga",
        -9.293604007853729
      ],
      [
        "▁yasadıgı",
        -8.813047333474
      ],
      [
        "▁biri",
        -4.3695795693712105
      ],
      [
        "▁curuk",
        -8.549299797388718
      ],
      [
        "▁mesru",
        -10.176451532373644
      ],
      [
        "▁cicek",
        -8.898336946219947
      ],
      [
        "▁tepede",
        -10.031571449762444
      ],
      [
        "▁bakim",
        -8.692247591030657
      ],
      [
        "▁degis",
        -7.8792488915533365
      ],
      [
        "▁goturdu",
        -8.067399066742995
      ],
      [
        "gın",
        -7.896431926828197
      ],
      [
        "▁dinliyor",
        -8.909340136835514
      ],
      [
        "▁ne",
        -8.6287222467038
      ],
      [
        "▁dost",
        -9.159382066634302
      ],
      [
        "▁yaslar",
        -9.68776049744027
      ],
      [
        "biri",
        -7.79502783188336
      ],
      [
        "▁olanlar",
        -8.859120513036865
      ],
      [
        "▁1.5",
        -6.778286131943061
      ],
      [
        "sı",
        -5.980693889272721
      ],
      [
        "▁fincan",
        -9.425123507629086
      ],
      [
        "▁zorluk",
        -10.068971704360658
      ],
      [
        "▁vegas'",
        -6.918877935752587
      ],
      [
        "▁egitim",
        -8.230646439887273
      ],
      [
        "y",
        -7.419258641381592
      ],
      [
        "▁proje",
        -8.608999389147904
      ],
      [
        "▁kardes",
        -8.761804183716109
      ],
      [
        "▁minneapolis'te",
        -7.80806283380964
      ],
      [
        "▁bankaları",
        -9.786640222402532
      ],
      [
        "▁baslar",
        -8.104971779029714
      ],
      [
        "4",
        -4.477827337596428
      ],
      [
        "▁verim",
        -8.592015102401916
      ],
      [
        "i",
        -3.7820737249274696
      ],
      [
        "▁soyler",
        -7.567079229894271
      ],
      [
        "▁esas",
        -10.136280484055908
      ],
      [
        "▁kadar",
        -8.616559021729449
      ],
      [
        "▁acı",
        -8.944201768988743
      ],
      [
        "▁ardı",
        -9.096310906775097
      ],
      [
        "▁gr",
        -9.154959786745597
      ],
      [
        "▁yapılacak",
        -7.973143572100478
      ],
      [
        "▁hacı",
        -9.736971626111522
      ],
      [
        "▁soylemedi",
        -8.802041596917288
      ],
      [
        "▁sap",
        -9.307156286008054
      ],
      [
        "aclı",
        -8.773199229224863
      ],
      [
        "emis",
        -8.68854961724691
      ],
      [
        "▁ne",
        -6.301448313353805
      ],
      [
        "▁seviyesin",
        -8.340031629482024
      ],
      [
        "▁cesit",
        -6.453602011982554
      ],
      [
        "▁yazar",
        -8.681313818216863
      ],
      [
        "▁reviz",
        -9.842184818766533
      ],
      [
        "▁di",
        -4.275857339641559
      ],
      [
        "f",
        -7.4132971476116705
      ],
      [
        "▁pence",
        -9.784025858259682
      ],
      [
        "▁f",
        -7.341780621958419
      ],
      [
        "▁geldigi",
        -8.54225955231983
      ],
      [
        "▁imza",
        -8.952780908389883
      ],
      [
        "dan",
        -5.047107723493265
      ],
      [
        "c",
        -4.254761954954862
      ],
      [
        "▁ydu",
        -5.652411369949245
      ],
      [
        "▁onu",
        -8.296203296851035
      ],
      [
        "▁icimde",
        -9.313802544251821
      ],
      [
        "▁ogren",
        -8.548932240484582
      ],
      [
        "mıyordu",
        -8.97466979098834
      ],
      [
        "▁sen",
        -6.943079529204949
      ],
      [
        "▁halk",
        -8.156540416784157
      ],
      [
        "▁toplum",
        -8.571312796715956
      ],
      [
        "resmi",
        -7.411034989182304
      ],
      [
        "▁elleri",
        -8.542535200705814
      ],
      [
        "bunu",
        -8.517108250066565
      ],
      [
        "▁pul",
        -9.900343246757284
      ],
      [
        "▁sa",
        -7.07666528397847
      ],
      [
        "▁times",
        -8.147034508334047
      ],
      [
        "▁dura",
        -7.954299185685494
      ],
      [
        "▁dc",
        -7.502494331779321
      ],
      [
        "▁tamamı",
        -9.8585413178928
      ],
      [
        "▁cık",
        -8.093656468235832
      ],
      [
        "▁kalabalıgı",
        -9.634201327545114
      ],
      [
        "eri",
        -9.546284511109059
      ],
      [
        "▁temettu",
        -9.425097575752517
      ],
      [
        "▁yalnız",
        -5.438889735507824
      ],
      [
        "▁tarafını",
        -10.156672432965618
      ],
      [
        "▁suphe",
        -8.404558566732096
      ],
      [
        "▁hafta",
        -6.995095917046984
      ],
      [
        "▁insa",
        -8.711504357134547
      ],
      [
        "▁lakırtı",
        -9.388061667358265
      ],
      [
        "ı'nda",
        -9.982245808995911
      ],
      [
        "▁mis",
        -5.918581206871204
      ],
      [
        "onu",
        -9.375389590120458
      ],
      [
        "▁ciftciler",
        -9.76095616239001
      ],
      [
        "—",
        -12.802702672349787
      ],
      [
        "▁piyasa",
        -7.085645086796457
      ],
      [
        "▁macın",
        -9.908899552062785
      ],
      [
        "▁surede",
        -9.747935441946622
      ],
      [
        "▁sekilde",
        -6.801347640637176
      ],
      [
        "▁bur",
        -8.106338960283185
      ],
      [
        "▁fuze",
        -10.176603553772349
      ],
      [
        "i",
        -3.0732711944739446
      ],
      [
        "▁kusur",
        -8.597400942839396
      ],
      [
        "▁belirlen",
        -8.762830260190547
      ],
      [
        "▁sevgi",
        -8.21302224722421
      ],
      [
        "▁tesisin",
        -7.7225546497668
      ],
      [
        "▁mezar",
        -9.954130805237664
      ],
      [
        "▁meselesi",
        -9.682289789594849
      ],
      [
        "tmak",
        -9.844705116610646
      ],
      [
        "▁3.5",
        -7.033184509879599
      ],
      [
        "▁agzında",
        -9.476126195109426
      ],
      [
        "▁ed",
        -9.642248305141756
      ],
      [
        "▁dogru",
        -7.603731796977202
      ],
      [
        "▁metal",
        -9.9684927859793
      ],
      [
        "apta",
        -8.563359285759493
      ],
      [
        "▁dikkat",
        -7.762260855898051
      ],
      [
        "iz",
        -8.183355803138426
      ],
      [
        "▁harbi",
        -10.028996846705237
      ],
      [
        "▁huzur",
        -8.335024299760093
      ],
      [
        "▁kalp",
        -8.762145558902574
      ],
      [
        "▁gen",
        -9.44286859152004
      ],
      [
        "▁konaklama",
        -10.10620647034998
      ],
      [
        "▁yaki",
        -7.509283000629577
      ],
      [
        "▁yonunde",
        -9.904001868006459
      ],
      [
        "▁dahil",
        -8.059242805474966
      ],
      [
        "▁bakar",
        -8.238649410961601
      ],
      [
        "rim",
        -8.384658300147619
      ],
      [
        "▁istegi",
        -9.261591063499843
      ],
      [
        "▁be",
        -8.245822081507646
      ],
      [
        "▁1989",
        -5.896581170332743
      ],
      [
        "▁",
        -3.32808512111051
      ],
      [
        "▁planını",
        -9.49354510337759
      ],
      [
        "▁soyleniyor",
        -8.9939905644031
      ],
      [
        "▁2'de",
        -10.103961798093263
      ],
      [
        "ilen",
        -8.726137893235784
      ],
      [
        "▁ust",
        -7.118554587549394
      ],
      [
        "▁a",
        -7.748049010338402
      ],
      [
        "▁bulundu",
        -7.4509989034172435
      ],
      [
        "b",
        -7.787526154383432
      ],
      [
        "en",
        -3.7741492745105623
      ],
      [
        "▁arac",
        -8.926904700518058
      ],
      [
        "[PAD]",
        0.0
      ],
      [
        "▁dal",
        -8.638363326934957
      ],
      [
        "d",
        -5.721200899562443
      ],
      [
        "▁acıklanma",
        -7.831513768826225
      ],
      [
        "▁geri",
        -7.181883455722312
      ],
      [
        "▁parlamento",
        -9.961288204592865
      ],
      [
        "▁ikinci",
        -5.434783497462611
      ],
      [
        "b",
        -2.357610727034924
      ],
      [
        "▁rahat",
        -8.950544387185573
      ],
      [
        "ger",
        -10.108427299989048
      ],
      [
        "▁em",
        -9.899379635950531
      ],
      [
        "▁san",
        -4.252714316006625
      ],
      [
        "▁destek",
        -8.530034747681434
      ],
      [
        "▁ima",
        -9.308728897513156
      ],
      [
        "dolay",
        -8.574508283218814
      ],
      [
        "di",
        -6.312665811588268
      ],
      [
        "▁ardın",
        -7.0154321903276164
      ],
      [
        "ın",
        -6.015507385031408
      ],
      [
        "▁ar",
        -7.983228872390977
      ],
      [
        "▁arkadaslarını",
        -9.983658905905342
      ],
      [
        "▁yolunu",
        -8.931456542011432
      ],
      [
        "▁dogu",
        -8.316181923838723
      ],
      [
        "▁sayi",
        -9.08885359633342
      ],
      [
        "▁aldıgın",
        -9.83831200804888
      ],
      [
        "▁elbet",
        -6.771714475515565
      ],
      [
        "▁efendi",
        -8.324733704506215
      ],
      [
        "▁makale",
        -9.173030829496582
      ],
      [
        "ılmaya",
        -10.082743612195616
      ],
      [
        "▁sponsor",
        -9.961288205841747
      ],
      [
        "lak",
        -9.116075080543805
      ],
      [
        "▁tadi",
        -9.871181928851414
      ],
      [
        "▁konak",
        -9.781389478093885
      ],
      [
        "▁gorunum",
        -9.992852023485893
      ],
      [
        "▁beri",
        -9.292385788059743
      ],
      [
        "▁bildigi",
        -9.884307809548638
      ],
      [
        "▁kapısını",
        -9.144439727780219
      ],
      [
        "lerde",
        -7.091786562618415
      ],
      [
        "▁corba",
        -8.567133811979403
      ],
      [
        "▁ailece",
        -8.422302921951637
      ],
      [
        "icin",
        -5.8969885216171365
      ],
      [
        "inden",
        -7.24288112292709
      ],
      [
        "▁cocugu",
        -8.553997961061583
      ],
      [
        "▁ortada",
        -9.358930550623612
      ],
      [
        "▁kalmadı",
        -8.05967011986296
      ],
      [
        "▁gece",
        -5.900191116805786
      ],
      [
        "▁havlular",
        -10.085710723543382
      ],
      [
        "▁kredi",
        -7.508044632282202
      ],
      [
        "▁delikanlı",
        -8.603184389034485
      ],
      [
        "▁gonul",
        -8.410291848232054
      ],
      [
        "▁mufettis",
        -9.898788204427706
      ],
      [
        "▁ihti",
        -10.175867856166766
      ],
      [
        "mak",
        -7.3460374908202715
      ],
      [
        "▁buyu",
        -8.465510865884635
      ],
      [
        "▁birilerini",
        -8.052026896391645
      ],
      [
        "gı",
        -9.946781938701653
      ],
      [
        "▁uygun",
        -5.712330602846942
      ],
      [
        "▁gomlek",
        -9.317863400387996
      ],
      [
        "▁ince",
        -6.474577776280687
      ],
      [
        "yin",
        -5.784995693197711
      ],
      [
        "▁bagırıyor",
        -8.567278301936506
      ],
      [
        "tu",
        -8.105684428840348
      ],
      [
        "▁ayrım",
        -9.95064253303409
      ],
      [
        "lıyor",
        -8.619197819846699
      ],
      [
        "▁dik",
        -9.773261350388374
      ],
      [
        "sı",
        -7.889669389907431
      ],
      [
        "▁altı",
        -4.934015652473771
      ],
      [
        "egi",
        -6.7349244106122175
      ],
      [
        "▁alt",
        -9.13598826440359
      ],
      [
        "▁otelde",
        -8.362671288111377
      ],
      [
        "▁kimse",
        -7.546123394008336
      ],
      [
        "▁ipoteg",
        -9.96128871219953
      ],
      [
        "▁ton",
        -8.87131314257021
      ],
      [
        "▁sus",
        -9.25545221535005
      ],
      [
        "▁calısan",
        -8.488539675596368
      ],
      [
        "▁baslangıcı",
        -9.83426280203992
      ],
      [
        "▁rutubet",
        -10.099383444022127
      ],
      [
        "▁alman",
        -9.52280114691353
      ],
      [
        "▁gece",
        -6.8423262270207905
      ],
      [
        "nız",
        -8.9761765064011
      ],
      [
        "▁isabet",
        -10.02795585041369
      ],
      [
        "▁yan",
        -7.089498539665825
      ],
      [
        "▁duzine",
        -10.102660495195828
      ],
      [
        "▁personelleri",
        -7.071300630353229
      ],
      [
        "▁endeks",
        -8.46194051544127
      ],
      [
        "▁havuzlar",
        -8.78445343443942
      ],
      [
        "▁hastalık",
        -9.037399883832752
      ],
      [
        "▁oy",
        -8.2501560336315
      ],
      [
        "sıyla",
        -8.354008974427341
      ],
      [
        "▁oldugunu",
        -6.165144376664872
      ],
      [
        "▁kendisi",
        -5.0164946613251225
      ],
      [
        "▁istiyordu",
        -8.186160079181052
      ],
      [
        "▁diger",
        -5.562375330073026
      ],
      [
        "▁sikayet",
        -8.616313470723846
      ],
      [
        "▁ortalaması",
        -9.861720721015878
      ],
      [
        "▁bizi",
        -9.81424531816548
      ],
      [
        "▁altın",
        -7.732290616877832
      ],
      [
        "▁birbiri",
        -6.524940154870734
      ],
      [
        "▁sessiz",
        -8.168404297102164
      ],
      [
        "▁kız",
        -7.518530729266395
      ],
      [
        "▁bas",
        -7.0855459941968135
      ],
      [
        "▁iskemle",
        -9.898788290510817
      ],
      [
        "▁soylendi",
        -8.977475621870196
      ],
      [
        "▁george",
        -7.757454851077565
      ],
      [
        "▁kalma",
        -8.985956914890293
      ],
      [
        "▁kargasa",
        -9.961499483224788
      ],
      [
        "▁hayır",
        -8.741477556596884
      ],
      [
        "▁boru",
        -9.295847899440883
      ],
      [
        "isi",
        -7.860989098248773
      ],
      [
        "8'",
        -9.57672400455771
      ],
      [
        "▁ikna",
        -9.54526251206085
      ],
      [
        "▁bekle",
        -8.897327571080764
      ],
      [
        "▁arada",
        -8.371342495727712
      ],
      [
        "▁cogu",
        -6.224369063045475
      ],
      [
        "▁ha",
        -8.277176272093795
      ],
      [
        "▁curu",
        -10.177402290284371
      ],
      [
        "▁kızını",
        -10.170464120476051
      ],
      [
        "▁ajansı",
        -9.751742924449307
      ],
      [
        "▁st",
        -5.907715493414773
      ],
      [
        "hangi",
        -6.332774858632261
      ],
      [
        "▁tat",
        -8.421261695602189
      ],
      [
        "▁ekonomistler",
        -10.14926548002066
      ],
      [
        "o",
        -12.802702672349787
      ],
      [
        "▁oturuyor",
        -8.703918861795998
      ],
      [
        "klarını",
        -8.01160706971895
      ],
      [
        "tma",
        -9.125346498056961
      ],
      [
        "di",
        -8.38997319937183
      ],
      [
        "▁calıstı",
        -8.025050540401551
      ],
      [
        "et",
        -6.8936994019445175
      ],
      [
        "▁yon",
        -7.353710885827666
      ],
      [
        "hane",
        -8.761309486121394
      ],
      [
        "▁gokyuzu",
        -9.889586371945413
      ],
      [
        "▁",
        -1.6692032132785002
      ],
      [
        "▁evde",
        -7.922848743487957
      ],
      [
        "yuzlu",
        -6.498143314138133
      ],
      [
        "yla",
        -6.08064716344082
      ],
      [
        "▁cıkıs",
        -9.304245273955258
      ],
      [
        "▁sut",
        -8.437730812120558
      ],
      [
        "▁kes",
        -8.051379784091225
      ],
      [
        "▁street",
        -7.067541525998615
      ],
      [
        "▁saki",
        -6.997830724557234
      ],
      [
        "▁don",
        -9.041333805872458
      ],
      [
        "▁kurumlar",
        -9.568285482620283
      ],
      [
        "dıgı",
        -8.573864063153598
      ],
      [
        "▁ucuslar",
        -6.226607001372271
      ],
      [
        "▁bogaz",
        -9.369820591274488
      ],
      [
        "▁gazeteci",
        -9.47839119998877
      ],
      [
        ",",
        -11.259274920662083
      ],
      [
        "medigini",
        -9.871901848196938
      ],
      [
        "▁boston",
        -5.725254465815135
      ],
      [
        "dik",
        -8.139810502825663
      ],
      [
        "once",
        -8.201754415952724
      ],
      [
        "▁tencere",
        -10.01667144843282
      ],
      [
        "▁kanıt",
        -9.260489234977195
      ],
      [
        "▁milwaukee'de",
        -6.77260024927041
      ],
      [
        "k",
        -4.230434075455024
      ],
      [
        "▁sat",
        -8.287939209819793
      ],
      [
        "▁tamamladı",
        -8.520218358791215
      ],
      [
        "▁sistemi",
        -8.666804958052008
      ],
      [
        "▁tacoma'",
        -7.877695112670695
      ],
      [
        "▁felaket",
        -8.976583976376892
      ],
      [
        "▁sıkıntısı",
        -9.759684477952904
      ],
      [
        "▁charlotte'de",
        -7.289118869835363
      ],
      [
        "▁yavaslama",
        -9.90427355227271
      ],
      [
        "▁gurultu",
        -9.057970848911232
      ],
      [
        "▁ikisini",
        -10.081807435033255
      ],
      [
        "▁kullan",
        -8.573655447972792
      ],
      [
        "▁taze",
        -10.17772646491369
      ],
      [
        "▁yılın",
        -8.103197668202917
      ],
      [
        "▁yo",
        -8.053728763625166
      ],
      [
        "lestirme",
        -9.76714853176554
      ],
      [
        "▁45",
        -6.717907508711445
      ],
      [
        "▁sanıyor",
        -8.989273905348202
      ],
      [
        "▁kullanılıyor",
        -8.637384791258192
      ],
      [
        "▁karsılas",
        -8.994687238802442
      ],
      [
        "▁ez",
        -8.519130447258377
      ],
      [
        "lı",
        -8.65060749836503
      ],
      [
        "▁kagıt",
        -8.695749535606591
      ],
      [
        "▁eyalet",
        -8.956685606151593
      ],
      [
        "▁yolculuk",
        -9.026779404903621
      ],
      [
        "bası",
        -9.126196892774178
      ],
      [
        "0",
        -4.429548908795915
      ],
      [
        "▁icin",
        -5.611889001906072
      ],
      [
        "'",
        -8.76949670889076
      ],
      [
        "▁yeri",
        -8.607230413926226
      ],
      [
        "▁projesi",
        -9.950826026567828
      ],
      [
        "▁montreal'da",
        -8.263105489212075
      ],
      [
        "▁uzak",
        -7.416518726101365
      ],
      [
        "▁ogrenci",
        -8.628430691241316
      ],
      [
        "▁bankacılar",
        -10.104451138281064
      ],
      [
        "▁endeksi",
        -7.877450050088343
      ],
      [
        "▁piyasaları",
        -9.04535268951789
      ],
      [
        "▁kazancı",
        -9.148563357798139
      ],
      [
        "dıgını",
        -8.311616887292901
      ],
      [
        "▁zamanlar",
        -8.320324976703688
      ],
      [
        "lı",
        -8.492081405086125
      ],
      [
        "▁gobek",
        -10.09938346141054
      ],
      [
        "▁saadet",
        -9.839966836605857
      ],
      [
        "▁mektubu",
        -9.503559021775825
      ],
      [
        "▁yor",
        -8.532903657937023
      ],
      [
        "▁philadelphia'",
        -5.795188323964599
      ],
      [
        "▁oturu",
        -8.138288562191024
      ],
      [
        "▁giris",
        -8.903702275728136
      ],
      [
        "g",
        -3.2365275863870604
      ],
      [
        "▁mudahale",
        -9.425097498358895
      ],
      [
        "ek",
        -8.626203900674428
      ],
      [
        "▁sapka",
        -9.252524341816516
      ],
      [
        "▁atlanta'da",
        -5.474516033211378
      ],
      [
        "▁parmak",
        -9.020922224363815
      ],
      [
        "▁izleyici",
        -9.898887643172007
      ],
      [
        "▁eylul",
        -7.337048712433888
      ],
      [
        "ının",
        -7.434663971060818
      ],
      [
        "▁emniyet",
        -9.545268060465224
      ],
      [
        "z",
        -6.49513858935435
      ],
      [
        "▁fazlası",
        -9.627805701293088
      ],
      [
        "▁borsası",
        -8.124554669101279
      ],
      [
        "▁koymak",
        -10.125614594233852
      ],
      [
        "▁ucunu",
        -9.860696579050831
      ],
      [
        "▁sesleri",
        -9.011988703695543
      ],
      [
        "▁saatte",
        -9.311704084058814
      ],
      [
        "▁var",
        -7.216725724892593
      ],
      [
        "▁haric",
        -8.90754603050269
      ],
      [
        "▁icin",
        -2.121748868097354
      ],
      [
        "▁acıklama",
        -8.88289223701064
      ],
      [
        "▁adl",
        -9.727380685811266
      ],
      [
        "▁mucevher",
        -10.027954870968268
      ],
      [
        "▁incele",
        -8.863858087018535
      ],
      [
        "el",
        -8.691758636762444
      ],
      [
        "▁almanya",
        -7.4822801469787406
      ],
      [
        "▁odada",
        -8.632568332142537
      ],
      [
        "niz",
        -6.58899655814921
      ],
      [
        "lin",
        -8.302366704145015
      ],
      [
        "▁faktor",
        -9.388061074574924
      ],
      [
        "tar",
        -9.253465718084529
      ],
      [
        "▁cıkardı",
        -7.246212885498744
      ],
      [
        "▁ymis",
        -6.778867252469565
      ],
      [
        "▁yansıt",
        -8.692503256416227
      ],
      [
        "▁tutuyor",
        -8.171606175707474
      ],
      [
        "▁ingiltere'de",
        -8.366542670502627
      ],
      [
        "▁kasa",
        -9.316510407630513
      ],
      [
        "▁yuzme",
        -8.096801228991408
      ],
      [
        "ham",
        -9.821019571170135
      ],
      [
        "▁acıg",
        -9.943966886247065
      ],
      [
        "▁iliskisi",
        -9.572067012884922
      ],
      [
        "▁ebeveyn",
        -9.898788211359571
      ],
      [
        "on",
        -8.18452169455618
      ],
      [
        "▁basında",
        -7.516456770486618
      ],
      [
        "▁dc'de",
        -7.133611285873868
      ],
      [
        "▁resim",
        -8.824151736740939
      ],
      [
        "▁bey",
        -8.087506802207939
      ],
      [
        "▁yanda",
        -8.473281903296023
      ],
      [
        "▁aklın",
        -8.968615808990311
      ],
      [
        "erhal",
        -6.774381132419854
      ],
      [
        "ında",
        -7.049416272570733
      ],
      [
        "▁olacak",
        -6.4534331667041505
      ],
      [
        "▁kosuyor",
        -8.93886202837432
      ],
      [
        "▁kırmızı",
        -6.9982941575363355
      ],
      [
        "▁elektr",
        -7.78279836205093
      ],
      [
        "mez",
        -7.8564460373923115
      ],
      [
        "▁sorunlarını",
        -10.086896771127215
      ],
      [
        "▁muhasebe",
        -9.885320429576364
      ],
      [
        "diyet",
        -10.055140237513573
      ],
      [
        "▁amerikalılar",
        -9.845581996881368
      ],
      [
        "si",
        -8.7135044580987
      ],
      [
        "▁199",
        -7.246510262211592
      ],
      [
        "gu",
        -8.747600390828554
      ],
      [
        "▁doktor",
        -8.647910800182665
      ],
      [
        "▁oglunu",
        -9.48844276809521
      ],
      [
        "ya",
        -7.730897184349787
      ],
      [
        "▁sorun",
        -7.529905226200501
      ],
      [
        "▁adi",
        -7.636028698036293
      ],
      [
        "▁piyasası",
        -8.566050475910476
      ],
      [
        "ılması",
        -9.18157451446561
      ],
      [
        "▁olcude",
        -8.134554722448769
      ],
      [
        "dugu",
        -8.336275553530566
      ],
      [
        "▁li",
        -5.934253238643644
      ],
      [
        "▁salonun",
        -9.67653464168923
      ],
      [
        "▁konu",
        -7.343086555651011
      ],
      [
        "lerini",
        -8.443773640625864
      ],
      [
        "▁yapmaya",
        -8.994102931319333
      ],
      [
        "▁etki",
        -8.564285244318832
      ],
      [
        "h",
        -6.957033578087399
      ],
      [
        "▁hızlı",
        -8.173460503382014
      ],
      [
        "▁ipek",
        -9.840855766466511
      ],
      [
        "▁ticaret",
        -7.89414403646159
      ],
      [
        "▁pasa",
        -9.37566891963284
      ],
      [
        "2'de",
        -9.722248289989528
      ],
      [
        "▁duvarlar",
        -9.386909103422365
      ],
      [
        "▁bilmem",
        -10.030730154928484
      ],
      [
        "▁fiyatı",
        -8.104388814826956
      ],
      [
        "it",
        -8.942353175715057
      ],
      [
        "▁calısma",
        -8.10203209878561
      ],
      [
        "ze",
        -8.203100113383165
      ],
      [
        "▁prenses",
        -9.842904563764293
      ],
      [
        "u",
        -5.721531573000035
      ],
      [
        "▁ara",
        -8.405079053148567
      ],
      [
        "▁gosterebilir",
        -8.641556204342253
      ],
      [
        "▁seyleri",
        -9.245548949399652
      ],
      [
        "▁tat",
        -9.94127929063789
      ],
      [
        "▁kum",
        -8.709698375969285
      ],
      [
        "▁ederi",
        -5.850964208446731
      ],
      [
        "▁gozlerini",
        -8.144196334393618
      ],
      [
        "▁mum",
        -7.091078631728467
      ],
      [
        "▁istemiyoru",
        -6.493869047259434
      ],
      [
        "▁keman",
        -10.028054830917247
      ],
      [
        "▁bunun",
        -4.410861678317182
      ],
      [
        "ınızı",
        -9.99741286964868
      ],
      [
        "▁kopru",
        -8.800330840782284
      ],
      [
        "▁bunları",
        -4.754133212558791
      ],
      [
        "▁edilmis",
        -8.419475278066383
      ],
      [
        "▁cıkarıyor",
        -8.474578210858741
      ],
      [
        "▁geceler",
        -7.832785371622753
      ],
      [
        "eger",
        -6.978820968666628
      ],
      [
        "▁gibiydi",
        -7.992922432199134
      ],
      [
        "▁hasar",
        -9.064949670425381
      ],
      [
        "▁borsasında",
        -9.9872761036788
      ],
      [
        "▁orada",
        -5.86959198151261
      ],
      [
        "da",
        -6.754895265353099
      ],
      [
        "▁ediliyor",
        -7.876687468298929
      ],
      [
        "▁5'te",
        -8.673930322492833
      ],
      [
        "▁phoenix'de",
        -7.104343983014943
      ],
      [
        "lar",
        -8.188377922663443
      ],
      [
        "▁bunda",
        -5.599372556045785
      ],
      [
        "▁ulkeni",
        -9.468852020963244
      ],
      [
        "▁yan",
        -9.876792540938094
      ],
      [
        "ısı",
        -9.436286980122786
      ],
      [
        "alım",
        -6.712631715118891
      ],
      [
        "na",
        -4.888725468870102
      ],
      [
        "▁verirdi",
        -8.939865171667293
      ],
      [
        "▁ola",
        -7.060701390497842
      ],
      [
        "cuk",
        -8.66616413663259
      ],
      [
        "gı",
        -7.533626846813168
      ],
      [
        "▁havayollarında",
        -9.18005665783941
      ],
      [
        "▁toprak",
        -8.507538099277468
      ],
      [
        "ra",
        -8.02860155091519
      ],
      [
        "▁borsa",
        -8.232929035492822
      ],
      [
        "▁olan",
        -5.550474496869134
      ],
      [
        "t",
        -5.498942757749235
      ],
      [
        "if",
        -7.979262804391219
      ],
      [
        "▁yuzun",
        -8.771282901498608
      ],
      [
        "▁kalıyor",
        -8.010636646992333
      ],
      [
        "▁tahsis",
        -10.175716271980495
      ],
      [
        "▁korkusu",
        -9.501033329530697
      ],
      [
        "▁sozunu",
        -9.373283082231094
      ],
      [
        "▁bagl",
        -6.9916458664582715
      ],
      [
        "▁gaz",
        -8.451800146660744
      ],
      [
        "▁gelmiyor",
        -8.772113210551112
      ],
      [
        "▁pilotlar",
        -9.79189875233926
      ],
      [
        "west",
        -8.20326549531011
      ],
      [
        "▁durusma",
        -9.602708331082823
      ],
      [
        "▁balayi",
        -9.284689301200702
      ],
      [
        "▁bosa",
        -9.660681913655566
      ],
      [
        "▁ilkeleri",
        -9.787206208661994
      ],
      [
        "▁oyle",
        -7.3329560468483335
      ],
      [
        "▁ymıs",
        -7.0556759000733384
      ],
      [
        "▁ayrıla",
        -8.541486726465003
      ],
      [
        "itap",
        -9.32509797271633
      ],
      [
        "▁olun",
        -8.377341387300296
      ],
      [
        "nce",
        -8.560764248985508
      ],
      [
        "▁ser",
        -8.513089292382647
      ],
      [
        "▁yakinlarim",
        -9.899118381679305
      ],
      [
        "▁ipuc",
        -9.962047896740854
      ],
      [
        "▁dehset",
        -10.176306543441548
      ],
      [
        "gim",
        -8.580777891417519
      ],
      [
        "▁olmalıy",
        -8.92228848497537
      ],
      [
        "▁mor",
        -9.580873122724116
      ],
      [
        "▁aylık",
        -8.605405261884497
      ],
      [
        "▁milyon",
        -3.278490722863072
      ],
      [
        "+",
        -12.802702672349787
      ],
      [
        "▁sevim",
        -8.479737472403365
      ],
      [
        "▁digital",
        -8.313534289837607
      ],
      [
        "▁alısveris",
        -8.650504011945234
      ],
      [
        "▁etme",
        -7.813199608203826
      ],
      [
        "meye",
        -8.517338851597493
      ],
      [
        "f",
        -7.787995550812537
      ],
      [
        "▁mark",
        -9.681532921181622
      ],
      [
        "cıya",
        -9.54504138754449
      ],
      [
        "▁algı",
        -9.786599116956806
      ],
      [
        "▁ugra",
        -9.811718813073327
      ],
      [
        "▁gecmiste",
        -9.596058229391648
      ],
      [
        "▁karsılık",
        -8.932930162794593
      ],
      [
        "▁civarı",
        -8.95383114979398
      ],
      [
        "▁karısı",
        -7.861529256305433
      ],
      [
        "ri",
        -8.564658674161267
      ],
      [
        "▁krem",
        -9.962307582095193
      ],
      [
        "an",
        -7.668036448599423
      ],
      [
        "▁orta",
        -7.2151939286872455
      ],
      [
        "likle",
        -4.864519917768543
      ],
      [
        "▁servis",
        -7.706834943466836
      ],
      [
        "▁cekici",
        -10.091002699376883
      ],
      [
        "mezse",
        -8.951956085730325
      ],
      [
        "▁ucretleri",
        -8.707899702776423
      ],
      [
        "▁saglamak",
        -9.732430649089874
      ],
      [
        "▁celik",
        -9.637473253330748
      ],
      [
        "▁1990'da",
        -10.114116436988432
      ],
      [
        "ap",
        -9.696673656981847
      ],
      [
        "▁arasında",
        -6.071170411019551
      ],
      [
        "▁gidiyordu",
        -8.28223365653192
      ],
      [
        "▁veril",
        -8.651422521145161
      ],
      [
        "▁dans",
        -9.02534479373346
      ],
      [
        "▁ucuz",
        -9.820621854126731
      ],
      [
        "▁verecek",
        -8.242449862483065
      ],
      [
        "▁piyasa",
        -8.223085820791706
      ],
      [
        "▁b",
        -7.179027993401228
      ],
      [
        "▁bo",
        -7.697034901542983
      ],
      [
        "onluk",
        -8.403771992470638
      ],
      [
        "▁camı",
        -10.108694217533863
      ],
      [
        "▁mucadele",
        -8.457538330445674
      ],
      [
        "▁100'",
        -9.96189047488814
      ],
      [
        "ic",
        -7.409719644704607
      ],
      [
        "▁yumurta",
        -8.74147407194992
      ],
      [
        "▁hatları",
        -10.17747131986632
      ],
      [
        "▁ta",
        -7.96713719833811
      ],
      [
        "▁azın",
        -8.761996323733628
      ],
      [
        "▁oto",
        -10.037699603495344
      ],
      [
        "▁sık",
        -6.294492815396526
      ],
      [
        "a",
        -5.585152189824248
      ],
      [
        "ye",
        -5.347596821164119
      ],
      [
        "▁cikiyor",
        -8.870201300572171
      ],
      [
        "▁brook",
        -8.356747212025539
      ],
      [
        "li",
        -6.5813309168742915
      ],
      [
        "▁gitmey",
        -9.7265279887381
      ],
      [
        "▁konuda",
        -8.42416431949812
      ],
      [
        "man",
        -6.967207500182004
      ],
      [
        "ki",
        -7.374134809775946
      ],
      [
        "▁cesitlilik",
        -9.35414792959789
      ],
      [
        "▁beceri",
        -10.02795621098985
      ],
      [
        "▁nefret",
        -9.503559024341422
      ],
      [
        "▁kapal",
        -7.539138684785948
      ],
      [
        "▁kili",
        -9.544528575063207
      ],
      [
        "▁boylu",
        -8.000496396541944
      ],
      [
        "▁kilise",
        -9.906152944056421
      ],
      [
        "▁firmalar",
        -10.045476330812885
      ],
      [
        "▁tutarın",
        -9.603023960450425
      ],
      [
        "▁otur",
        -8.64822380741516
      ],
      [
        "▁ulus",
        -8.109087142109953
      ],
      [
        "▁yorumu",
        -10.131584221384946
      ],
      [
        "gımız",
        -8.736776938188797
      ],
      [
        "▁ok",
        -9.19190345034056
      ],
      [
        "▁odalar",
        -7.885137097626414
      ],
      [
        "▁cocukluk",
        -9.975916177691685
      ],
      [
        "▁am",
        -5.947568370575268
      ],
      [
        "▁oyku",
        -8.967680444711432
      ],
      [
        "▁fonların",
        -9.734426226247702
      ],
      [
        "medigi",
        -10.076585500992921
      ],
      [
        "ci",
        -7.164295727968464
      ],
      [
        "▁analiz",
        -9.420752979345163
      ],
      [
        "▁gur",
        -10.138056731507982
      ],
      [
        "▁sonra",
        -7.3662017467998435
      ],
      [
        "▁yaptıkları",
        -10.092164471546344
      ],
      [
        "lıkla",
        -7.869367331021101
      ],
      [
        "▁gerceklesti",
        -8.100083708105291
      ],
      [
        "▁hacmin",
        -9.87149625139756
      ],
      [
        "▁sa",
        -7.533453171507168
      ],
      [
        "▁dem",
        -10.043665453306703
      ],
      [
        "4'",
        -9.117632927553188
      ],
      [
        "▁b",
        -8.717094528754004
      ],
      [
        "▁k",
        -7.042883632118129
      ],
      [
        "▁zar",
        -10.033570778169512
      ],
      [
        "▁zorluklar",
        -9.925048239101265
      ],
      [
        "mi",
        -7.596438345119356
      ],
      [
        "▁6",
        -9.584661568756683
      ],
      [
        "▁kapısı",
        -9.747252001832258
      ],
      [
        "▁mendil",
        -9.638319653502762
      ],
      [
        "la",
        -9.407996616393934
      ],
      [
        "▁araba",
        -7.390177687859514
      ],
      [
        "ir",
        -7.148358618459739
      ],
      [
        "li",
        -7.09599677549015
      ],
      [
        "▁cek",
        -8.654195659857308
      ],
      [
        "lıgı",
        -8.579194503357437
      ],
      [
        "▁limon",
        -9.161309047258086
      ],
      [
        "▁tat",
        -8.635051834284644
      ],
      [
        "▁re",
        -8.463649692067214
      ],
      [
        "▁oz",
        -8.266045002135325
      ],
      [
        "i",
        -11.302702672349787
      ],
      [
        "▁kurmay",
        -9.99180645807988
      ],
      [
        "kten",
        -7.762450431380673
      ],
      [
        "▁yardimci",
        -8.062726031045958
      ],
      [
        "▁iyi",
        -4.128386314809931
      ],
      [
        "▁adet",
        -7.83891926579264
      ],
      [
        "▁mart",
        -8.933604488689658
      ],
      [
        "▁burada",
        -6.054666224502334
      ],
      [
        "▁azaltma",
        -9.658380161700524
      ],
      [
        "▁basi",
        -8.216603476879973
      ],
      [
        "▁cumartesi",
        -7.715274173345423
      ],
      [
        "umuzu",
        -9.979769215844442
      ],
      [
        "▁aracları",
        -9.29221671777239
      ],
      [
        "ar",
        -7.493436261772175
      ],
      [
        "▁elestiri",
        -9.361792668885556
      ],
      [
        "erken",
        -6.4253651959846225
      ],
      [
        "▁batı",
        -8.91975921435579
      ],
      [
        "▁kıza",
        -9.463535017296413
      ],
      [
        "▁borsada",
        -10.151187105812363
      ],
      [
        "▁belirtiyor",
        -8.725482545144377
      ],
      [
        "▁emekli",
        -8.148365158214268
      ],
      [
        "adan",
        -8.199381015443652
      ],
      [
        "▁p",
        -8.14999619319001
      ],
      [
        "▁koltugun",
        -9.426853438671538
      ],
      [
        "▁damak",
        -8.784748190731248
      ],
      [
        "▁sutu",
        -9.50326897500671
      ],
      [
        "nın",
        -5.270078756239349
      ],
      [
        "yse",
        -8.28817434041762
      ],
      [
        "▁ver",
        -6.800698001091943
      ],
      [
        "e",
        -1.5758668895254075
      ],
      [
        "▁ettigi",
        -9.61392905573121
      ],
      [
        "▁mev",
        -6.723538293557618
      ],
      [
        "▁teknoloji",
        -8.397433218953473
      ],
      [
        "▁personelin",
        -8.602323854263837
      ],
      [
        "nen",
        -8.589195314917719
      ],
      [
        "siniz",
        -5.458119837635438
      ],
      [
        "▁pazarın",
        -9.99542799926481
      ],
      [
        "▁1",
        -3.6394827259864
      ],
      [
        "▁caba",
        -8.667692459110786
      ],
      [
        "▁bey'i",
        -7.943703266449726
      ],
      [
        "▁gerek",
        -8.296474538707884
      ],
      [
        "▁duzeltme",
        -9.96129022858815
      ],
      [
        "▁isleri",
        -8.875601072342603
      ],
      [
        "▁sayı",
        -8.049930564720723
      ],
      [
        "▁gelenek",
        -8.30614129068617
      ],
      [
        "▁endustrisi",
        -9.879424343652198
      ],
      [
        "▁bahar",
        -9.026354115529813
      ],
      [
        "▁iyi",
        -6.254102976079183
      ],
      [
        "▁calısma",
        -8.205016407846024
      ],
      [
        "▁ayakta",
        -8.86628178073793
      ],
      [
        "ba",
        -7.912119567372226
      ],
      [
        "▁dısında",
        -8.236189428305284
      ],
      [
        "▁zor",
        -8.624213414908162
      ],
      [
        "▁sozlerin",
        -9.567665124975543
      ],
      [
        "▁hizmette",
        -9.025795269934877
      ],
      [
        "u",
        -7.761819605784516
      ],
      [
        "▁savunma",
        -8.507626232015093
      ],
      [
        "▁gene",
        -9.959218377141555
      ],
      [
        "▁surdurme",
        -10.123829912148182
      ],
      [
        "▁kaynakları",
        -10.082680496103206
      ],
      [
        "▁ala",
        -8.093254663736081
      ],
      [
        "▁senetleri",
        -8.573480278845839
      ],
      [
        "▁surat",
        -9.48383432924823
      ],
      [
        "let",
        -9.116262885499474
      ],
      [
        "▁nesne",
        -10.027962576838817
      ],
      [
        "▁ogretmeni",
        -9.566979408463283
      ],
      [
        "▁nor",
        -8.167785291598292
      ],
      [
        "▁dostu",
        -8.68618618731025
      ],
      [
        "▁sev",
        -9.653691124748601
      ],
      [
        "aklı",
        -7.964725687971555
      ],
      [
        "▁miting",
        -9.83996548949067
      ],
      [
        "el",
        -6.427638421254004
      ],
      [
        "▁lezzet",
        -6.738159429138998
      ],
      [
        "▁arıyor",
        -8.595136619822092
      ],
      [
        "rak",
        -8.737317526850882
      ],
      [
        "▁kamu",
        -8.405945848411365
      ],
      [
        "lılar",
        -9.499587971746386
      ],
      [
        "▁etki",
        -8.755337772436025
      ],
      [
        "▁onun",
        -8.004732474360113
      ],
      [
        "▁tutar",
        -8.751826610679235
      ],
      [
        "▁katil",
        -9.763028817195602
      ],
      [
        "▁mus",
        -8.849031723806386
      ],
      [
        "dar",
        -9.008516505021177
      ],
      [
        "▁temizligi",
        -7.252699985157385
      ],
      [
        "st",
        -8.027352174336574
      ],
      [
        "▁ote",
        -8.811459287778568
      ],
      [
        "▁acısı",
        -9.60828977778807
      ],
      [
        "▁cat",
        -9.775175077416865
      ],
      [
        "▁kotu",
        -9.027620293444343
      ],
      [
        "m",
        -5.428279150912085
      ],
      [
        "▁kullan",
        -9.69747947159117
      ],
      [
        "▁oyuncuları",
        -10.009465591098657
      ],
      [
        "▁sozcu",
        -8.015683723407674
      ],
      [
        "▁15",
        -5.317744224803343
      ],
      [
        "▁sembol",
        -10.176307051899972
      ],
      [
        "▁istedigi",
        -8.59839396686851
      ],
      [
        "▁merkez",
        -7.544822209243105
      ],
      [
        "cinin",
        -9.536806916297435
      ],
      [
        "▁ucusların",
        -8.601780166162772
      ],
      [
        "▁tanrı",
        -9.190727846644306
      ],
      [
        "▁denizin",
        -9.258586713631221
      ],
      [
        "▁kuvvet",
        -8.653153039540047
      ],
      [
        "▁yardımcısı",
        -8.553353577127556
      ],
      [
        ".",
        -6.508779962973538
      ],
      [
        "▁kal",
        -7.544120148639827
      ],
      [
        "▁karar",
        -7.995453595501608
      ],
      [
        "▁yetersizligi",
        -10.10718662087776
      ],
      [
        "▁hissetti",
        -8.504923328391769
      ],
      [
        "▁beyaz",
        -6.453228638200443
      ],
      [
        "▁edile",
        -6.753902923589753
      ],
      [
        "▁yılda",
        -8.287996893319182
      ],
      [
        "cu",
        -7.356570234516122
      ],
      [
        "ıdır",
        -7.553941258660445
      ],
      [
        "▁itiraz",
        -8.952774919008
      ],
      [
        "▁yetersiz",
        -6.856958464066205
      ],
      [
        "▁maya",
        -10.149726393680847
      ],
      [
        "▁yapın",
        -8.80345430890916
      ],
      [
        "▁amacı",
        -8.761236760230931
      ],
      [
        "▁olacagı",
        -8.59383980791911
      ],
      [
        "▁buyu",
        -8.752636958249342
      ],
      [
        "▁bahcede",
        -10.002459801582635
      ],
      [
        "▁mahsu",
        -8.554238235853783
      ],
      [
        "▁top",
        -8.791269755188685
      ],
      [
        "▁dolastı",
        -8.696745787029675
      ],
      [
        "▁asker",
        -7.442105382177113
      ],
      [
        "▁kural",
        -9.621470858763235
      ],
      [
        "h",
        -6.455976204242756
      ],
      [
        "▁ramiz",
        -8.214293832917615
      ],
      [
        "▁yeter",
        -7.718708084894754
      ],
      [
        "ları",
        -8.642392733446677
      ],
      [
        "▁vadesi",
        -9.77560044789222
      ],
      [
        "▁s",
        -8.236084667241634
      ],
      [
        "daki",
        -7.907859580847811
      ],
      [
        "▁bul",
        -9.107810426061974
      ],
      [
        "o",
        -3.5207675806184575
      ],
      [
        "▁gor",
        -9.03372810685519
      ],
      [
        "▁sucu",
        -10.11500007940874
      ],
      [
        "▁arayısı",
        -9.972400786612475
      ],
      [
        "▁za",
        -6.239605117564355
      ],
      [
        "▁yoneticileri",
        -9.029736131100314
      ],
      [
        "▁biz",
        -3.7492545438091254
      ],
      [
        "▁carpı",
        -8.579111127910924
      ],
      [
        "mıs",
        -5.402299570920755
      ],
      [
        "▁genis",
        -6.394814429886786
      ],
      [
        "mada",
        -6.606015577227643
      ],
      [
        "tu",
        -4.465248438584364
      ],
      [
        "▁okumak",
        -9.9181697282257
      ],
      [
        "▁dus",
        -6.205217174489008
      ],
      [
        "▁boynun",
        -9.674171288719082
      ],
      [
        "malı",
        -7.558597932781802
      ],
      [
        "▁askı",
        -8.892757752597085
      ],
      [
        "▁angeles",
        -7.726528662700389
      ],
      [
        "▁alanda",
        -9.101716784342429
      ],
      [
        "te",
        -6.916883204630375
      ],
      [
        "▁kırık",
        -8.713542532022968
      ],
      [
        "▁egzersiz",
        -9.89878820444344
      ],
      [
        "▁duse",
        -8.108067187189583
      ],
      [
        "▁yanı",
        -8.409016488526667
      ],
      [
        "▁birini",
        -9.101330180289109
      ],
      [
        "00",
        -5.835146209538178
      ],
      [
        "8'de",
        -9.557143200006559
      ],
      [
        "▁oakland",
        -6.972867370550637
      ],
      [
        "▁cevril",
        -8.862144432819633
      ],
      [
        "▁mısır",
        -9.317864041341757
      ],
      [
        "ız",
        -6.912663209463112
      ],
      [
        "▁aldi",
        -7.968594690533366
      ],
      [
        "▁yıl",
        -7.582847028736413
      ],
      [
        "▁program",
        -8.248347034730642
      ],
      [
        "nız",
        -7.734772879335232
      ],
      [
        "▁evleri",
        -9.751822333142407
      ],
      [
        "▁parcasını",
        -9.931054780960062
      ],
      [
        "▁uyku",
        -8.658353768370624
      ],
      [
        "▁acı",
        -8.125234066085818
      ],
      [
        "▁hakkında",
        -8.393932527472053
      ],
      [
        "▁amcam",
        -10.130937952283306
      ],
      [
        "▁sehrin",
        -8.706545768462188
      ],
      [
        "▁alıyordu",
        -8.716770907405943
      ],
      [
        "▁aramızda",
        -9.906198772500684
      ],
      [
        "ip",
        -6.160296091166794
      ],
      [
        "▁ets",
        -7.220010846682943
      ],
      [
        "▁kaya",
        -9.087792137298509
      ],
      [
        "▁oglu",
        -9.002644128372792
      ],
      [
        "▁safha",
        -10.061217263481858
      ],
      [
        "▁gozlu",
        -8.451901347001293
      ],
      [
        "▁de",
        -8.926184400510895
      ],
      [
        "imi",
        -8.225362412535006
      ],
      [
        "▁gormedi",
        -7.227313266941329
      ],
      [
        "▁dusuncelerini",
        -9.814156930692292
      ],
      [
        "▁sırtı",
        -10.011895749845706
      ],
      [
        "▁gunlu",
        -6.633656965974765
      ],
      [
        "▁ac",
        -7.88921618362037
      ],
      [
        "turlu",
        -6.676109046357389
      ],
      [
        "▁olmasa",
        -8.08972077167079
      ],
      [
        "▁tarihi",
        -8.471746516546451
      ],
      [
        "▁cogu",
        -8.347333542906144
      ],
      [
        "caya",
        -10.008917867811657
      ],
      [
        "▁kek",
        -9.844422230088302
      ],
      [
        "▁oteki",
        -9.394865802868292
      ],
      [
        "▁anlasma",
        -7.6809048270765
      ],
      [
        "▁taksit",
        -10.086458328158008
      ],
      [
        "la",
        -8.564281887977364
      ],
      [
        "▁cicegi",
        -9.961288660300598
      ],
      [
        "▁prosedur",
        -9.961288245454984
      ],
      [
        "▁kurumu",
        -9.697526815018145
      ],
      [
        "▁orman",
        -8.73864421595255
      ],
      [
        "▁cambaz",
        -10.176309289996135
      ],
      [
        "▁emeklilik",
        -9.078657187022962
      ],
      [
        "▁kanaat",
        -10.176503824252304
      ],
      [
        "▁fed",
        -8.333756907682446
      ],
      [
        "▁tepsi",
        -10.089646665133824
      ],
      [
        "▁altında",
        -7.322676035218733
      ],
      [
        "▁kenarları",
        -9.611203371578046
      ],
      [
        "▁azalma",
        -10.176362832983624
      ],
      [
        "▁muzik",
        -8.78046548787884
      ],
      [
        "▁ual",
        -7.259611041686998
      ],
      [
        "▁tezgah",
        -8.551251395668611
      ],
      [
        "▁ya",
        -4.634008824959308
      ],
      [
        "▁sorunun",
        -9.41945274457952
      ],
      [
        "▁odası",
        -9.783109596995407
      ],
      [
        "▁1000",
        -7.182046042278328
      ],
      [
        "▁orta",
        -7.872563770188563
      ],
      [
        "▁odemeleri",
        -10.014966629987367
      ],
      [
        "▁parki",
        -9.710015743780994
      ],
      [
        "n",
        -3.3061660798050543
      ],
      [
        "▁",
        -1.722964280954951
      ],
      [
        "▁boncuk",
        -10.0994439166844
      ],
      [
        "▁lutfe",
        -5.273672835575321
      ],
      [
        "▁her",
        -3.2176437841680947
      ],
      [
        "▁duzgun",
        -8.452114162853952
      ],
      [
        "▁kocasını",
        -9.747192285752707
      ],
      [
        "▁iki",
        -2.932821784785342
      ],
      [
        "▁oz",
        -8.41064363891796
      ],
      [
        "perak",
        -8.258291607270097
      ],
      [
        "▁duruyordu",
        -8.2096100708942
      ],
      [
        "▁turku",
        -8.96106072235399
      ],
      [
        "▁tiyatrosu",
        -9.744822123766994
      ],
      [
        "ekli",
        -8.384168101461615
      ],
      [
        "▁sey",
        -5.740921698030243
      ],
      [
        "▁ucreti",
        -7.551276077846978
      ],
      [
        "▁kelime",
        -8.390142625726128
      ],
      [
        "▁cıktı",
        -6.124531541200812
      ],
      [
        "▁isten",
        -9.46691484763397
      ],
      [
        "r",
        -8.379793470514926
      ],
      [
        "▁begenmedi",
        -7.038439071039937
      ],
      [
        "?",
        -7.234115120256197
      ],
      [
        "▁yakindi",
        -8.58883568091485
      ],
      [
        "lanmak",
        -10.050764534302068
      ],
      [
        "▁iste",
        -6.53043461090222
      ],
      [
        "▁kara",
        -8.268169956269192
      ],
      [
        "▁edebiyat",
        -8.745079976884043
      ],
      [
        "▁tarihini",
        -9.99758827407192
      ],
      [
        "▁deyi",
        -8.927813869620405
      ],
      [
        "▁tadin",
        -10.131937287938577
      ],
      [
        "ebilecegi",
        -10.177143082277935
      ],
      [
        "lılıgı",
        -10.030882922241545
      ],
      [
        "ten",
        -7.1344115563657935
      ],
      [
        "▁erdi",
        -8.431431407403752
      ],
      [
        "dir",
        -6.65097430980568
      ],
      [
        "▁aras",
        -8.4383209336743
      ],
      [
        "lerinde",
        -7.180831886062232
      ],
      [
        "▁oncesi",
        -9.280381582622372
      ],
      [
        "▁yurdu",
        -10.125392401996908
      ],
      [
        "▁merak",
        -8.34823750861066
      ],
      [
        "▁vermiyor",
        -8.790441769797932
      ],
      [
        "dır",
        -6.552896859402911
      ],
      [
        "▁ayag",
        -9.334954406174006
      ],
      [
        "▁doldur",
        -8.821844763172505
      ],
      [
        "▁arsa",
        -10.177888296469376
      ],
      [
        "▁fazla",
        -8.989113964811297
      ],
      [
        "▁dinlenme",
        -10.029227822821818
      ],
      [
        "▁yardımcı",
        -8.50405992695784
      ],
      [
        "▁ab",
        -9.048126099292816
      ],
      [
        "▁bazıları",
        -5.5918974405545265
      ],
      [
        "▁kanadı",
        -9.73189314529996
      ],
      [
        "▁baba",
        -7.87070812791602
      ],
      [
        "▁uca",
        -7.87841749773607
      ],
      [
        "▁per",
        -8.356093819964316
      ],
      [
        "▁yanlıs",
        -7.173834167548121
      ],
      [
        "sini",
        -6.643606470944175
      ],
      [
        "ga",
        -7.641659592358028
      ],
      [
        "ta",
        -7.511362580751779
      ],
      [
        "▁devlet",
        -7.40337706902222
      ],
      [
        "▁bin",
        -4.6729872438879605
      ],
      [
        "▁sattı",
        -8.338911546111808
      ],
      [
        "senin",
        -7.191137581322566
      ],
      [
        "▁genisleme",
        -10.099384793827735
      ],
      [
        "▁otelin",
        -7.517405129254823
      ],
      [
        "▁ar",
        -8.627014902641005
      ],
      [
        "▁hukumdar",
        -10.028292034638103
      ],
      [
        "▁donu",
        -7.913212704786867
      ],
      [
        "kle",
        -9.95801683559978
      ],
      [
        "▁demis",
        -8.044293099657462
      ],
      [
        "▁",
        -1.3922668288882338
      ],
      [
        "▁paranın",
        -9.397819787769821
      ],
      [
        "ndek",
        -8.781845562392554
      ],
      [
        "u",
        -6.042964596613031
      ],
      [
        "▁sam",
        -9.760514042953503
      ],
      [
        "▁yolları",
        -9.551497187714887
      ],
      [
        "▁bakanı",
        -8.930041171557141
      ],
      [
        "▁bırak",
        -8.087005017576926
      ],
      [
        "niz",
        -7.208870524936369
      ],
      [
        "▁tanım",
        -9.465889182675804
      ],
      [
        "▁secildi",
        -8.562563816311796
      ],
      [
        "▁vegas'ta",
        -7.479937227083081
      ],
      [
        "mle",
        -8.266579360532228
      ],
      [
        "▁uygulama",
        -8.626917489547575
      ],
      [
        "▁omzun",
        -9.839999200256216
      ],
      [
        "▁kardesim",
        -9.199429465060454
      ],
      [
        "▁akıl",
        -8.741502408257068
      ],
      [
        "▁heyeti",
        -9.632079366789979
      ],
      [
        "▁ucak",
        -7.495092111532389
      ],
      [
        "▁enflasyon",
        -8.819681559436816
      ],
      [
        "▁dun",
        -8.012556925304109
      ],
      [
        "▁kazanclarını",
        -10.15015676454814
      ],
      [
        "▁otur",
        -8.181847693026166
      ],
      [
        "▁koylu",
        -9.453898185344178
      ],
      [
        "▁yemin",
        -10.121660776672964
      ],
      [
        "▁agır",
        -6.5087600341821235
      ],
      [
        "▁bekledi",
        -8.733422987568593
      ],
      [
        "▁gorebilir",
        -8.988863680422561
      ],
      [
        "▁8'de",
        -8.978303758023928
      ],
      [
        "▁daglar",
        -9.389478689073899
      ],
      [
        "erek",
        -6.4614038044192785
      ],
      [
        "▁viski",
        -9.73177809877729
      ],
      [
        "▁ogretmenim",
        -10.074142777622002
      ],
      [
        "eden",
        -7.420764609517118
      ],
      [
        "▁kusku",
        -9.320018486843525
      ],
      [
        "▁can",
        -7.731664627365475
      ],
      [
        "ser",
        -8.204035589256511
      ],
      [
        "b",
        -7.70537449612564
      ],
      [
        "▁icin",
        -8.540091019626397
      ],
      [
        "▁agırlık",
        -9.839970369663629
      ],
      [
        "▁uyusturucu",
        -8.114764989686812
      ],
      [
        "lik",
        -7.6912088397564204
      ],
      [
        "▁hepimiz",
        -6.275153793410539
      ],
      [
        "▁koyuldu",
        -8.928491243566912
      ],
      [
        "▁yanıt",
        -9.076997358637659
      ],
      [
        "▁ogrenciler",
        -9.338435280638546
      ],
      [
        "▁eylul'de",
        -7.876697701139456
      ],
      [
        "▁durumda",
        -7.989172410941645
      ],
      [
        "▁hangisi",
        -5.9097176655688965
      ],
      [
        "▁cogunu",
        -6.8282652036770175
      ],
      [
        "▁cekim",
        -9.704636773468454
      ],
      [
        "▁toplantıda",
        -9.336429958495442
      ],
      [
        "▁baskaları",
        -9.835886158200596
      ],
      [
        "akka",
        -8.407853895765978
      ],
      [
        "▁art",
        -8.734986798094715
      ],
      [
        "▁adin",
        -8.827650671289945
      ],
      [
        "tir",
        -7.115465519633582
      ],
      [
        "▁fiyatlar",
        -8.227043163791365
      ],
      [
        "▁eksikti",
        -8.925219193045695
      ],
      [
        "▁beyaz",
        -10.0624930895133
      ],
      [
        "▁telas",
        -9.809131550117428
      ],
      [
        "j",
        -8.833535509724031
      ],
      [
        "▁cevre",
        -8.776037273577483
      ],
      [
        "▁duzenleme",
        -9.299916222852957
      ],
      [
        "▁ifade",
        -7.52079335516036
      ],
      [
        "▁kogus",
        -10.100193845449837
      ],
      [
        "▁kalanı",
        -9.78615477272875
      ],
      [
        "aka",
        -7.864848662931541
      ],
      [
        "▁olabilecegini",
        -9.320354093866278
      ],
      [
        "▁heykel",
        -9.588703726555861
      ],
      [
        "▁hamle",
        -8.617996332815016
      ],
      [
        "plak",
        -8.267873597770194
      ],
      [
        "▁suları",
        -9.49447986135329
      ],
      [
        "▁miami'",
        -6.944090027143235
      ],
      [
        "▁pap",
        -9.965340653329177
      ],
      [
        "▁westchester",
        -7.766201932015287
      ],
      [
        "lerden",
        -7.151203912299483
      ],
      [
        "um",
        -8.157346347107445
      ],
      [
        "▁yok",
        -6.0614869854364954
      ],
      [
        "▁parti",
        -8.097442799926407
      ],
      [
        "o",
        -6.336011923027603
      ],
      [
        "▁baskanı",
        -7.480618363551514
      ],
      [
        "▁koyu",
        -8.056911850139146
      ],
      [
        "▁c",
        -8.176196859020525
      ],
      [
        "▁yaklasımı",
        -9.64729805151369
      ],
      [
        "saydı",
        -8.536671844740752
      ],
      [
        "5",
        -12.802702672349787
      ],
      [
        "▁vergisi",
        -9.465114028272156
      ],
      [
        "▁masada",
        -9.6656297656053
      ],
      [
        "▁yolculugun",
        -10.012965429684366
      ],
      [
        "▁vucudu",
        -9.013434932526655
      ],
      [
        "▁avlu",
        -9.733037426563113
      ],
      [
        "'ı",
        -7.531868235774581
      ],
      [
        "oloji",
        -8.054352473683156
      ],
      [
        "▁sogan",
        -9.190752955315762
      ],
      [
        "▁toprag",
        -9.75972422173824
      ],
      [
        "▁talih",
        -9.991367078384396
      ],
      [
        "▁noktasın",
        -10.128353046305243
      ],
      [
        "▁omru",
        -9.557780418014712
      ],
      [
        "▁indi",
        -7.762275229898155
      ],
      [
        "▁alakasi",
        -9.60147950734798
      ],
      [
        "▁gelin",
        -8.78066237604558
      ],
      [
        "▁f",
        -9.397581593746157
      ],
      [
        "l",
        -11.802702672349783
      ],
      [
        "▁ver",
        -9.660257612604758
      ],
      [
        "lıdır",
        -8.38877795466395
      ],
      [
        "▁mahalle",
        -8.53562653892827
      ],
      [
        "▁ofke",
        -9.077931408988198
      ],
      [
        "▁kurum",
        -9.164335285633994
      ],
      [
        "▁istihdam",
        -9.252299578021919
      ],
      [
        "kları",
        -8.336851683863237
      ],
      [
        "▁aktarma",
        -8.780315375189966
      ],
      [
        "▁ilgisizdi",
        -8.306180863933365
      ],
      [
        "▁deniz",
        -6.759021777013119
      ],
      [
        "▁fakir",
        -10.02795526861517
      ],
      [
        "ji",
        -9.750545811594735
      ],
      [
        "▁pazar",
        -6.868070937762325
      ],
      [
        "▁duyar",
        -8.477995964029375
      ],
      [
        "▁tekrar",
        -10.027959167188518
      ],
      [
        "▁dengesi",
        -9.17099240051461
      ],
      [
        "▁gul",
        -8.923090329090016
      ],
      [
        "▁yaban",
        -9.816126622255092
      ],
      [
        "▁muzakere",
        -9.051615185622504
      ],
      [
        "u",
        -7.836156681655369
      ],
      [
        "▁soyledigi",
        -10.065079594907537
      ],
      [
        "▁toz",
        -9.034991605204693
      ],
      [
        "▁meslek",
        -9.463459460680168
      ],
      [
        "▁mu",
        -8.321753834716581
      ],
      [
        "▁hareketler",
        -9.851691809617757
      ],
      [
        "▁icinde",
        -6.732107842356728
      ],
      [
        "▁ustunde",
        -7.996886191260945
      ],
      [
        "▁gelme",
        -9.073631287557042
      ],
      [
        "ra",
        -4.169188514330976
      ],
      [
        "irim",
        -8.732761594764893
      ],
      [
        "meye",
        -7.097658097142998
      ],
      [
        "▁islemciler",
        -9.995697055916596
      ],
      [
        "▁tarif",
        -9.441353927576536
      ],
      [
        "▁fen",
        -9.90136458781137
      ],
      [
        "▁as",
        -8.247342389652363
      ],
      [
        "▁basbakan",
        -8.998840710106132
      ],
      [
        "▁terk",
        -8.761725752512
      ],
      [
        "▁otesin",
        -9.717200920616726
      ],
      [
        "'a",
        -6.486896813030918
      ],
      [
        "▁dunyası",
        -9.818130356979513
      ],
      [
        "▁kapadı",
        -8.759759830062809
      ],
      [
        "▁yumu",
        -10.10026744595733
      ],
      [
        "▁sahi",
        -9.408194958898127
      ],
      [
        "n",
        -3.36243448112465
      ],
      [
        "▁fırtına",
        -9.503560550674445
      ],
      [
        "▁tası",
        -9.286056065012062
      ],
      [
        "▁mutl",
        -7.604344951822322
      ],
      [
        "▁basamak",
        -10.034255685134978
      ],
      [
        "ip",
        -7.673280800405093
      ],
      [
        "▁don",
        -8.780974281693027
      ],
      [
        "▁ekmek",
        -8.143479642098928
      ],
      [
        "▁arasın",
        -7.727391433307153
      ],
      [
        "▁olan",
        -4.305715080017117
      ],
      [
        "▁6",
        -4.8583629380426645
      ],
      [
        "▁kayıplar",
        -9.46557981392806
      ],
      [
        "▁belgeleri",
        -10.00383045927395
      ],
      [
        "▁kalmadigim",
        -8.593248975650528
      ],
      [
        "▁azı",
        -9.906529156137534
      ],
      [
        "▁risk",
        -8.654042399525899
      ],
      [
        "▁suphe",
        -9.077931162377652
      ],
      [
        "▁dolasma",
        -10.10263572559972
      ],
      [
        "▁universite",
        -8.746930950243414
      ],
      [
        "▁sigortacı",
        -10.073085839314853
      ],
      [
        "▁guler",
        -6.447968603411418
      ],
      [
        "▁gold",
        -7.915441987690988
      ],
      [
        "▁seydi",
        -8.329338082289004
      ],
      [
        "-",
        -7.808195779704781
      ],
      [
        "▁ic",
        -8.077256345274252
      ],
      [
        "hazır",
        -7.439275110079499
      ],
      [
        "▁burun",
        -9.223407655628371
      ],
      [
        "▁long",
        -7.475427347950381
      ],
      [
        "ca",
        -7.866457692098322
      ],
      [
        "▁s",
        -6.872829076261194
      ],
      [
        "▁gorus",
        -8.9818964182126
      ],
      [
        "▁arazi",
        -9.00114518654627
      ],
      [
        "▁tur",
        -6.953862621762375
      ],
      [
        "▁reis",
        -10.04210633282311
      ],
      [
        "▁rahat",
        -8.30828836050418
      ],
      [
        "▁yanı",
        -8.447338164011763
      ],
      [
        "▁ayak",
        -8.133508879127783
      ],
      [
        "▁degerlendirir",
        -7.936053310413518
      ],
      [
        "▁hepiniz",
        -8.40781988619197
      ],
      [
        "▁insanların",
        -8.113597309238177
      ],
      [
        "▁sinirl",
        -8.387794097518851
      ],
      [
        "▁7",
        -4.986624988114711
      ],
      [
        "▁gorustu",
        -7.861515663917695
      ],
      [
        "▁isyan",
        -9.422215140818539
      ],
      [
        "▁kalır",
        -8.265413742871766
      ],
      [
        "▁gecim",
        -10.027970653918251
      ],
      [
        "▁meyve",
        -8.741473493392682
      ],
      [
        "mektedir",
        -6.62505658846603
      ],
      [
        "▁denver'",
        -5.525182183641318
      ],
      [
        "▁gundem",
        -9.4508856950423
      ],
      [
        "▁worth",
        -8.297461262449865
      ],
      [
        "k",
        -4.834402831400872
      ],
      [
        "likler",
        -9.74805582976275
      ],
      [
        "▁y",
        -4.965192930665413
      ],
      [
        "▁hazır",
        -7.176515987374993
      ],
      [
        "▁kol",
        -8.37211506947627
      ],
      [
        "▁hapis",
        -9.83870516448642
      ],
      [
        "t",
        -5.881101381461162
      ],
      [
        "▁har",
        -8.954336312690904
      ],
      [
        "▁uyandı",
        -8.937823148113935
      ],
      [
        "▁kidder",
        -8.102063970095287
      ],
      [
        "▁agaclar",
        -9.70234425374325
      ],
      [
        "▁sırtın",
        -9.520665550190852
      ],
      [
        "▁",
        -2.1816253217106656
      ],
      [
        "gı",
        -7.311332294522567
      ],
      [
        "▁ed",
        -7.1708712442653155
      ],
      [
        "▁p",
        -8.460981100461925
      ],
      [
        "▁tumu",
        -9.642897545484665
      ],
      [
        "▁olmayı",
        -9.693828032467351
      ],
      [
        "▁imalatcı",
        -9.928986424885991
      ],
      [
        "▁kazancları",
        -9.3375384615754
      ],
      [
        "mı",
        -6.850188499010792
      ],
      [
        "nde",
        -8.378991300973894
      ],
      [
        "lendigi",
        -9.588755078420647
      ],
      [
        "▁sorunu",
        -8.384549779837196
      ],
      [
        "▁merkezinde",
        -9.548360426574545
      ],
      [
        "▁kıvılcım",
        -10.027954870967777
      ],
      [
        "m",
        -7.306008514562447
      ],
      [
        "▁yansıtıyor",
        -8.839403376458073
      ],
      [
        "▁olacak",
        -7.7873202747897015
      ],
      [
        "ebilecek",
        -8.554891748207545
      ],
      [
        "▁sınıfta",
        -9.682043651263077
      ],
      [
        "altı",
        -9.378865057894554
      ],
      [
        "▁yuregi",
        -9.426467513827543
      ],
      [
        "▁m",
        -6.868818945363073
      ],
      [
        "▁isin",
        -8.001098569062671
      ],
      [
        "▁cesitliligi",
        -9.254015107313347
      ],
      [
        "▁hamam",
        -8.505261288109775
      ],
      [
        "▁nitelik",
        -9.839969061007531
      ],
      [
        "▁saga",
        -9.514632574766576
      ],
      [
        "▁govde",
        -9.317863410592889
      ],
      [
        "▁3\\/",
        -6.515098788460735
      ],
      [
        "▁mantık",
        -8.140580639447716
      ],
      [
        "▁siddetl",
        -8.007686364282007
      ],
      [
        "▁parcalar",
        -9.918137653909763
      ],
      [
        "▁tıp",
        -9.961347685408866
      ],
      [
        "▁hesab",
        -10.022303624005021
      ],
      [
        "▁tarafta",
        -9.075157683382377
      ],
      [
        "▁yaptirdi",
        -7.350977243572093
      ],
      [
        "▁boyutu",
        -10.17211018631584
      ],
      [
        "▁ihale",
        -9.136050874296938
      ],
      [
        "▁elestirmenler",
        -10.09938414814534
      ],
      [
        "abilecek",
        -8.828095077309802
      ],
      [
        "takım",
        -8.102059635887393
      ],
      [
        "▁tarafı",
        -8.873916754521687
      ],
      [
        "▁cayı",
        -9.806611247035466
      ],
      [
        "d",
        -6.04252831463764
      ],
      [
        "▁arkadaslar",
        -8.715206435916945
      ],
      [
        "▁boyun",
        -8.113574891728888
      ],
      [
        "zl",
        -8.922167783293098
      ],
      [
        "▁yazılım",
        -9.38817901611938
      ],
      [
        "▁buyuklugu",
        -9.853416834468753
      ],
      [
        "▁kom",
        -8.406286050718897
      ],
      [
        "▁yatırımcı",
        -8.532255918606563
      ],
      [
        "sem",
        -7.580612882548985
      ],
      [
        "g",
        -6.440338115441626
      ],
      [
        "▁sezon",
        -9.32640493569606
      ],
      [
        "▁alakaliydi",
        -8.673809460093759
      ],
      [
        "▁derin",
        -6.939283912333373
      ],
      [
        "▁basari",
        -8.362134990362199
      ],
      [
        "metler",
        -7.668897127202383
      ],
      [
        "▁bolge",
        -8.187216144554789
      ],
      [
        "▁ekipman",
        -9.65071353986287
      ],
      [
        "birli",
        -7.476480969195897
      ],
      [
        "mus",
        -6.6063377594969
      ],
      [
        "▁milli",
        -6.88701508521391
      ],
      [
        "ar",
        -7.789969017039487
      ],
      [
        "▁saglan",
        -8.779514365581953
      ],
      [
        "ra",
        -7.8013411078404635
      ],
      [
        "▁tara",
        -9.751840969025906
      ],
      [
        "▁varan",
        -6.420723393827976
      ],
      [
        "▁niyetin",
        -10.124494910143229
      ],
      [
        "ntılı",
        -8.723225714792484
      ],
      [
        "▁lamba",
        -9.906066473416569
      ],
      [
        "▁saglık",
        -8.278735636334126
      ],
      [
        "o",
        -4.578117168882934
      ],
      [
        "▁gecis",
        -9.789931944993235
      ],
      [
        "▁gelmis",
        -7.242049449828504
      ],
      [
        "▁dusunmuyor",
        -7.909101768927736
      ],
      [
        "▁tecrube",
        -9.961288204306832
      ],
      [
        "da",
        -5.043500650824109
      ],
      [
        "▁casus",
        -10.17638660659415
      ],
      [
        "▁yanıyor",
        -8.330972364980287
      ],
      [
        "▁cumhurbaskanı",
        -9.199984978793871
      ],
      [
        "▁disi",
        -10.002730052937018
      ],
      [
        "▁gar",
        -9.394616829782438
      ],
      [
        "▁doku",
        -9.543372928171543
      ],
      [
        "▁3",
        -4.285712194127713
      ],
      [
        "▁resepsiyon",
        -9.681777540386955
      ],
      [
        "▁amca",
        -9.373444494424884
      ],
      [
        "mıstı",
        -6.54217064264794
      ],
      [
        "▁gelmisti",
        -7.989491741900457
      ],
      [
        "▁programları",
        -9.406167622714309
      ],
      [
        "▁endustri",
        -8.662054579652594
      ],
      [
        "▁eve",
        -7.843391170197548
      ],
      [
        "25",
        -6.232172715619793
      ],
      [
        "kli",
        -8.508299663600342
      ],
      [
        "▁41",
        -7.431141876383895
      ],
      [
        "▁kazanclar",
        -9.40150821751051
      ],
      [
        "▁hızl",
        -7.233125527976824
      ],
      [
        "▁ailesi",
        -8.837864937168845
      ],
      [
        "▁duzeyin",
        -10.065811749872758
      ],
      [
        "▁gorun",
        -7.339522011104732
      ],
      [
        "▁gidi",
        -8.507190404784332
      ],
      [
        "▁yetmis",
        -7.281993076538759
      ],
      [
        "▁karsı",
        -4.835443352689402
      ],
      [
        "▁bekci",
        -9.85535685072622
      ],
      [
        "▁olasılıgı",
        -9.961307793446384
      ],
      [
        "sidir",
        -8.283626990496657
      ],
      [
        "dır",
        -5.60851668359774
      ],
      [
        "▁0.2",
        -7.302963686414264
      ],
      [
        "▁efendi",
        -8.861329985137164
      ],
      [
        "▁duzenl",
        -8.012533933194753
      ],
      [
        "unda",
        -7.883768488942473
      ],
      [
        "▁yardım",
        -7.700401982923568
      ],
      [
        "▁arkadas",
        -8.091128351268077
      ],
      [
        "▁mutluluk",
        -9.503597999419291
      ],
      [
        "▁guzeli",
        -9.840031321485315
      ],
      [
        "▁kalkı",
        -7.267763976070212
      ],
      [
        "▁bush'u",
        -8.327269850396899
      ],
      [
        "▁bizim",
        -4.375437664788901
      ],
      [
        "▁ben",
        -8.121804347121888
      ],
      [
        "▁bakan",
        -8.503176993550035
      ],
      [
        "iyetli",
        -8.76819856306355
      ],
      [
        "▁kıs",
        -7.698404602811574
      ],
      [
        "▁memnunu",
        -9.961293573901287
      ],
      [
        "▁morgan",
        -8.02159012207175
      ],
      [
        "▁gerekir",
        -7.608638063474874
      ],
      [
        "e",
        -5.432312471123907
      ],
      [
        "deli",
        -8.805753695423384
      ],
      [
        "ana",
        -3.4668823189684232
      ],
      [
        "▁havayolu",
        -8.533400074323998
      ],
      [
        "▁kalmadi",
        -6.567112995728583
      ],
      [
        "▁ruh",
        -8.851394083083383
      ],
      [
        "ca",
        -7.195586049672088
      ],
      [
        ".1",
        -7.478510669554215
      ],
      [
        "'de",
        -7.3956080720555555
      ],
      [
        "▁beklentimi",
        -9.702099216139644
      ],
      [
        "▁gorunuyordu",
        -8.399398132123714
      ],
      [
        "▁bahce",
        -8.071656526172799
      ],
      [
        "▁kendimde",
        -7.695269369691355
      ],
      [
        "▁denile",
        -8.392108695656162
      ],
      [
        "▁vapur",
        -8.928723133369974
      ],
      [
        "▁ede",
        -8.516662764865059
      ],
      [
        "▁gitmek",
        -8.317067116257146
      ],
      [
        "▁saniye",
        -9.588813320634657
      ],
      [
        "▁dusmanı",
        -9.77083062278048
      ],
      [
        "▁istiyor",
        -7.248337486283619
      ],
      [
        "▁ekonomisi",
        -9.99149768418922
      ],
      [
        "syon",
        -9.246625628597364
      ],
      [
        "an",
        -6.843451962494894
      ],
      [
        "▁la",
        -8.401058469814458
      ],
      [
        "▁bel",
        -5.7176907548495475
      ],
      [
        "▁usak",
        -9.785644152347029
      ],
      [
        "▁oy",
        -7.883383855276201
      ],
      [
        "▁biraz",
        -4.687763168436832
      ],
      [
        "▁yararlanmadi",
        -8.98400756713829
      ],
      [
        "▁girmek",
        -9.86944151338043
      ],
      [
        "▁acıgı",
        -9.654294645729284
      ],
      [
        "▁bıyıkları",
        -9.930145198806969
      ],
      [
        "▁bo",
        -8.71876655247448
      ],
      [
        "1'",
        -9.638300116710315
      ],
      [
        "ba",
        -7.838062294258242
      ],
      [
        "▁tamamlanması",
        -10.028341493889211
      ],
      [
        "nde",
        -7.337163914968514
      ],
      [
        "▁gez",
        -8.570622304197522
      ],
      [
        "▁calısanı",
        -9.997789448345761
      ],
      [
        "▁1.6",
        -7.0577073785408775
      ],
      [
        "▁ilgili",
        -5.433302855292382
      ],
      [
        "▁olusturma",
        -10.099390755885409
      ],
      [
        "▁denge",
        -9.24186321670924
      ],
      [
        "▁bin",
        -9.098347269171132
      ],
      [
        "▁sert",
        -7.1538297241196025
      ],
      [
        "▁yasaya",
        -8.700476918855932
      ],
      [
        "▁sıkı",
        -7.266081215567221
      ],
      [
        "▁unsurlar",
        -10.027960222287422
      ],
      [
        "▁sorumluluk",
        -9.252512195081142
      ],
      [
        "75",
        -6.51104329968174
      ],
      [
        "▁onur",
        -9.645832059158476
      ],
      [
        "▁zayif",
        -7.789192305816156
      ],
      [
        "ici",
        -6.79213944255475
      ],
      [
        "▁muhafaza",
        -9.83978976160156
      ],
      [
        "'i",
        -7.496868105289673
      ],
      [
        "▁kazan",
        -8.069428999623325
      ],
      [
        "▁lise",
        -9.252196305096236
      ],
      [
        "▁olmad",
        -7.939023621311465
      ],
      [
        "▁menfaat",
        -9.839964678753628
      ],
      [
        "▁alındı",
        -8.242877549426627
      ],
      [
        "▁phoenix'",
        -7.466919520995885
      ],
      [
        "▁yuksel",
        -6.724838392089302
      ],
      [
        "eydi",
        -8.68318109921204
      ],
      [
        "dort",
        -6.718900884756827
      ],
      [
        "▁problem",
        -8.437271872515112
      ],
      [
        "▁biz",
        -8.575322793666926
      ],
      [
        "▁gomlegi",
        -9.961788069568284
      ],
      [
        "▁degiller",
        -6.357911091308022
      ],
      [
        "▁kay",
        -8.977307347852067
      ],
      [
        "▁duvarın",
        -9.746312922021659
      ],
      [
        "yeni",
        -8.536073219811131
      ],
      [
        "▁yok",
        -7.22103998281352
      ],
      [
        "▁lokanta",
        -9.521667658815536
      ],
      [
        "▁fakir",
        -8.447946744051569
      ],
      [
        "▁meze",
        -9.841634453931011
      ],
      [
        "▁cincinnati'de",
        -7.46347859479992
      ],
      [
        "f",
        -6.873351135099574
      ],
      [
        "▁keyif",
        -8.646195907887032
      ],
      [
        "her",
        -6.241321517692774
      ],
      [
        "▁kadının",
        -8.890467343514041
      ],
      [
        "fede",
        -7.484040725045101
      ],
      [
        "▁son",
        -8.537041191139693
      ],
      [
        "▁kılıc",
        -9.388470585647063
      ],
      [
        "▁han",
        -9.509940598920425
      ],
      [
        "▁nadir",
        -8.583093120017226
      ],
      [
        "▁nereler",
        -8.402931740133155
      ],
      [
        "▁dusunceleri",
        -9.801713321340417
      ],
      [
        "▁hayalet",
        -9.684735700091442
      ],
      [
        "▁gucu",
        -8.591958702945863
      ],
      [
        "▁doga",
        -8.433851525769551
      ],
      [
        "▁sokaklar",
        -10.066045172842612
      ],
      [
        "▁buyukler",
        -10.013955457539678
      ],
      [
        "▁kucuktu",
        -6.800379671239655
      ],
      [
        "▁mani",
        -9.35902080046072
      ],
      [
        "▁'l",
        -9.10645283902086
      ],
      [
        "ıyla",
        -7.904251157180966
      ],
      [
        "▁etmesi",
        -8.817679902296556
      ],
      [
        "▁uste",
        -9.167391036297659
      ],
      [
        "▁degerleri",
        -9.794979178840636
      ],
      [
        "▁acısın",
        -8.746028472792368
      ],
      [
        "▁senin",
        -5.127217236835529
      ],
      [
        "▁kampanyalar",
        -8.961630770618617
      ],
      [
        "▁cagın",
        -9.774922217938858
      ],
      [
        "▁uzerin",
        -6.161937060409342
      ],
      [
        "▁personellerin",
        -8.604486416868925
      ],
      [
        "▁21",
        -6.150409216274106
      ],
      [
        "▁konusu",
        -8.627981485209231
      ],
      [
        "likle",
        -9.41212490638606
      ],
      [
        "▁kac",
        -6.757270404007121
      ],
      [
        "▁kurban",
        -9.314098920229217
      ],
      [
        "▁kabın",
        -10.099528902295173
      ],
      [
        "ceklerini",
        -10.078998871026169
      ],
      [
        "ustu",
        -8.224255914410714
      ],
      [
        "▁300",
        -6.580752342133439
      ],
      [
        "▁gelecek",
        -7.9849432403328695
      ],
      [
        "▁kutu",
        -8.907957771236369
      ],
      [
        "▁say",
        -9.377001667389834
      ],
      [
        "ne",
        -7.508679295573124
      ],
      [
        "▁kenarın",
        -10.020136169597203
      ],
      [
        "▁vermedi",
        -8.234190518613614
      ],
      [
        "▁acıyor",
        -8.480887171902683
      ],
      [
        "ıcı",
        -9.706071748122376
      ],
      [
        "▁fidan",
        -10.099894237935029
      ],
      [
        "eden",
        -6.570073607543818
      ],
      [
        "▁oldugu",
        -6.415749648565442
      ],
      [
        "▁sag",
        -8.545254756250406
      ],
      [
        "▁bakın",
        -7.978477074509707
      ],
      [
        "▁icin",
        -8.065907041263866
      ],
      [
        "▁listeler",
        -10.15595264998559
      ],
      [
        "▁varlık",
        -9.285960495131874
      ],
      [
        "▁sefer",
        -8.206113373132904
      ],
      [
        "▁arttı",
        -7.288317713889354
      ],
      [
        "▁seyirci",
        -9.580982662220896
      ],
      [
        "▁4.",
        -7.169326376694007
      ],
      [
        "▁hanimla",
        -9.164582970068043
      ],
      [
        "▁boyle",
        -5.086562249009878
      ],
      [
        "▁san",
        -6.23877004096941
      ],
      [
        "▁doları'nda",
        -9.207621709391148
      ],
      [
        "▁varil",
        -9.967725939432523
      ],
      [
        "▁merdiven",
        -9.202070911828507
      ],
      [
        "▁cabaları",
        -9.824044767723132
      ],
      [
        "▁ak",
        -8.827912435517984
      ],
      [
        "▁cozme",
        -10.176565007971934
      ],
      [
        "▁burbank'ta",
        -8.151789344953354
      ],
      [
        "▁satıslarını",
        -10.04604061866052
      ],
      [
        "▁surecin",
        -9.585790025170242
      ],
      [
        "▁maden",
        -9.445451685948907
      ],
      [
        "▁seviye",
        -8.781735365320221
      ],
      [
        "nizin",
        -9.733033255813059
      ],
      [
        "▁anlattı",
        -7.615592299830996
      ],
      [
        "▁kahraman",
        -9.740566509759715
      ],
      [
        "▁direnis",
        -9.89879570404329
      ],
      [
        "ala",
        -7.800581317341299
      ],
      [
        "▁b",
        -3.7367717215100527
      ],
      [
        "▁yurudu",
        -8.099884682814995
      ],
      [
        "▁silah",
        -8.289501739508717
      ],
      [
        "digini",
        -7.772256147668039
      ],
      [
        "▁sistemini",
        -10.010398046037011
      ],
      [
        "ya",
        -5.177865719692096
      ],
      [
        "▁firs",
        -8.260342780382578
      ],
      [
        "▁zirve",
        -9.821882843123424
      ],
      [
        "▁yasama",
        -8.619760262552175
      ],
      [
        "inde",
        -6.338122227695627
      ],
      [
        "▁moda",
        -9.165336922524002
      ],
      [
        "▁havayolları",
        -7.381762203133278
      ],
      [
        "'ın",
        -5.0892122526428905
      ],
      [
        "sal",
        -6.949778621849322
      ],
      [
        "▁gencler",
        -9.055635603557574
      ],
      [
        "kta",
        -9.598096229478395
      ],
      [
        "▁almıstı",
        -8.26669788043316
      ],
      [
        "▁alacaklılar",
        -10.099387746426071
      ],
      [
        "▁gorse",
        -8.878458734977976
      ],
      [
        "▁s",
        -6.137580433212939
      ],
      [
        "rak",
        -3.383613678221411
      ],
      [
        "eye",
        -8.445803057601927
      ],
      [
        "▁1.7",
        -6.892164186865186
      ],
      [
        "▁daha",
        -3.284001868858846
      ],
      [
        "i",
        -4.732976630052781
      ],
      [
        "▁duser",
        -8.367869890311551
      ],
      [
        "▁cep",
        -9.084679298816
      ],
      [
        "▁hayvanlar",
        -9.811705494307237
      ],
      [
        "▁gecmisi",
        -9.650152424623215
      ],
      [
        "ecek",
        -6.942638364273837
      ],
      [
        "imizi",
        -8.827060871026399
      ],
      [
        "▁senedi",
        -7.575877352547784
      ],
      [
        "▁anlamın",
        -8.667727003793143
      ],
      [
        "▁acıldı",
        -7.815745461521954
      ],
      [
        "▁iscileri",
        -10.082158043620332
      ],
      [
        "▁mi",
        -8.917711727719045
      ],
      [
        "▁ureticiler",
        -10.105276002354412
      ],
      [
        "meyi",
        -8.10650288274687
      ],
      [
        "▁adlandır",
        -8.986658973389298
      ],
      [
        "▁vur",
        -10.007281108058326
      ],
      [
        "l",
        -7.804722282254635
      ],
      [
        "▁veren",
        -8.347787183855221
      ],
      [
        "▁evrenin",
        -10.153091330659816
      ],
      [
        "lıgını",
        -8.386447475964394
      ],
      [
        "lara",
        -6.7331203313059405
      ],
      [
        "▁dar",
        -7.483731200604239
      ],
      [
        "bu",
        -8.892023471905638
      ],
      [
        "▁otlar",
        -9.933807559153598
      ],
      [
        "9",
        -4.905248477984599
      ],
      [
        "▁ozelligi",
        -9.68178123981591
      ],
      [
        "cıların",
        -9.389241372713865
      ],
      [
        "▁yuz",
        -7.819115651053656
      ],
      [
        "iyo",
        -9.759659565357524
      ],
      [
        "▁ne",
        -3.7234659756415116
      ],
      [
        "ele",
        -12.03594578210268
      ],
      [
        "▁paha",
        -7.450113366831144
      ],
      [
        "▁gazete",
        -8.1342237464848
      ],
      [
        "▁ediyoru",
        -7.149364542599119
      ],
      [
        "▁kullanıl",
        -9.98431104786784
      ],
      [
        "▁california",
        -8.208073781562616
      ],
      [
        "▁5",
        -4.229060776087967
      ],
      [
        "▁ugrun",
        -9.840026999471531
      ],
      [
        "▁devralma",
        -9.077931144071663
      ],
      [
        "▁cesur",
        -8.757668871855296
      ],
      [
        "▁hep",
        -5.352880005653416
      ],
      [
        "▁sabahı",
        -7.590061537648854
      ],
      [
        "▁karsıy",
        -9.994126626720732
      ],
      [
        "▁boyun",
        -9.02683500592994
      ],
      [
        "▁yazı",
        -7.783176098005122
      ],
      [
        "▁azal",
        -8.816811300481247
      ],
      [
        "▁cift",
        -7.348307323274102
      ],
      [
        "landırma",
        -9.976313057674073
      ],
      [
        "▁gitme",
        -9.545838098295835
      ],
      [
        "▁hal",
        -8.577598749298755
      ],
      [
        "▁yapı",
        -8.070770407087547
      ],
      [
        "▁4",
        -4.732260125815868
      ],
      [
        "dukc",
        -8.474430673523921
      ],
      [
        "▁sarıldı",
        -8.992821000881051
      ],
      [
        "▁olayın",
        -9.609806658810127
      ],
      [
        "▁arkadası",
        -9.191533550312588
      ],
      [
        "acagını",
        -8.36946230824155
      ],
      [
        "▁tahminlerini",
        -10.137420047043463
      ],
      [
        "▁istiyoru",
        -5.066155671076176
      ],
      [
        "▁digeri",
        -9.388110615917759
      ],
      [
        "▁ulas",
        -8.378419935276916
      ],
      [
        "▁klasik",
        -8.450304039233234
      ],
      [
        "▁parmakları",
        -9.65474044941538
      ],
      [
        "▁ayrılı",
        -7.428865757157178
      ],
      [
        "▁yuzum",
        -9.389348011833787
      ],
      [
        "▁soktu",
        -8.916477590981327
      ],
      [
        "▁veriyor",
        -6.914189841673664
      ],
      [
        "▁bagıs",
        -9.763614522246431
      ],
      [
        "▁gider",
        -7.602091807598916
      ],
      [
        "az",
        -8.895652220484273
      ],
      [
        "▁olu",
        -9.453047351663175
      ],
      [
        "▁bası",
        -8.177725380099758
      ],
      [
        "▁gorevli",
        -9.987020335150074
      ],
      [
        "▁ulasımını",
        -9.74269869863895
      ],
      [
        "▁halinde",
        -8.214100672412222
      ],
      [
        "▁philadelphia'da",
        -5.890834924314842
      ],
      [
        "izm",
        -9.414043172992223
      ],
      [
        "▁kavanoz",
        -10.176306897581949
      ],
      [
        "▁5",
        -9.686824028192062
      ],
      [
        "▁yuzuk",
        -10.160436784076023
      ],
      [
        "▁tarife",
        -9.26814145553369
      ],
      [
        "lugun",
        -9.02743639049772
      ],
      [
        "▁yayla",
        -9.768754096727776
      ],
      [
        "▁isi",
        -7.63177770188299
      ],
      [
        "mb",
        -9.93860409767162
      ],
      [
        "cok",
        -7.7790295307327
      ],
      [
        "▁san",
        -8.326054371018685
      ],
      [
        "ers",
        -8.328627332885318
      ],
      [
        "▁ca",
        -8.240530858342229
      ],
      [
        "oluy",
        -8.643087692331221
      ],
      [
        "tik",
        -7.798881633101012
      ],
      [
        "▁kıta",
        -9.902527089266165
      ],
      [
        "▁dip",
        -10.103063370237294
      ],
      [
        "▁gelecegi",
        -9.673096352624135
      ],
      [
        "▁muh",
        -7.142172831036666
      ],
      [
        "▁vaka",
        -9.281766154100199
      ],
      [
        "▁olmaz",
        -7.066809689867068
      ],
      [
        "zat",
        -7.044131657787526
      ],
      [
        "▁city'de",
        -6.691157918871967
      ],
      [
        "la",
        -6.132318751279012
      ],
      [
        "▁resimler",
        -10.160488546714054
      ],
      [
        "▁al",
        -7.921560354734069
      ],
      [
        "yu",
        -7.30521058749544
      ],
      [
        "▁mı",
        -3.073600583083265
      ],
      [
        "msal",
        -7.709211565662931
      ],
      [
        "de",
        -3.7122609263462767
      ],
      [
        "▁0.1",
        -7.272046684752251
      ],
      [
        "▁yapabilir",
        -8.612153791871332
      ],
      [
        "▁toplumun",
        -9.637415297441144
      ],
      [
        "▁bagrı",
        -9.843378453134461
      ],
      [
        "▁bag",
        -8.454239985352551
      ],
      [
        "▁bakıyor",
        -7.699961730503101
      ],
      [
        "▁1992",
        -7.209051499194875
      ],
      [
        "d",
        -4.831539974861214
      ],
      [
        "umsal",
        -8.471888645126688
      ],
      [
        "in",
        -5.913242392268193
      ],
      [
        "▁izleme",
        -9.799192909422638
      ],
      [
        "▁mac",
        -7.8342953396970145
      ],
      [
        "lu",
        -9.667388106657638
      ],
      [
        "▁kimse",
        -5.611770680556417
      ],
      [
        "▁tadim",
        -9.902383224581786
      ],
      [
        "▁a.",
        -8.007506279023762
      ],
      [
        "▁hazine",
        -8.143501116790205
      ],
      [
        "b",
        -4.519809914103928
      ],
      [
        "▁ekledi",
        -7.413772003440981
      ],
      [
        "▁sek",
        -9.644614060358744
      ],
      [
        "▁yol",
        -6.862854462740995
      ],
      [
        "▁degistir",
        -8.386234304028083
      ],
      [
        "▁deyi",
        -8.076753344353833
      ],
      [
        "izi",
        -9.399207472400754
      ],
      [
        "▁haberleri",
        -9.56244668862595
      ],
      [
        "▁sofa",
        -10.02798537911513
      ],
      [
        "obur",
        -7.915910986663735
      ],
      [
        "▁evlilik",
        -9.733379916610138
      ],
      [
        "▁listele",
        -6.288078952484841
      ],
      [
        "▁olmasın",
        -9.776881679909081
      ],
      [
        "▁yoneticilerin",
        -10.045568750929457
      ],
      [
        "▁derler",
        -8.271312529845659
      ],
      [
        "▁turlari",
        -9.737997612879607
      ],
      [
        "▁konfor",
        -9.49767627630761
      ],
      [
        "▁dususu",
        -9.743798403295195
      ],
      [
        "▁kadın",
        -7.276920919816217
      ],
      [
        "▁borc",
        -7.904741797904549
      ],
      [
        "digi",
        -8.739211324983032
      ],
      [
        "▁dogan",
        -8.004232559420316
      ],
      [
        "▁yemekte",
        -9.95984557605474
      ],
      [
        "▁oteli",
        -8.334414863697841
      ],
      [
        "▁uretiyor",
        -8.987684972151193
      ],
      [
        "▁israil",
        -7.753206403420732
      ],
      [
        "▁a.b.d.",
        -7.883420276119656
      ],
      [
        "▁piyasasını",
        -9.94340852802911
      ],
      [
        "▁twa",
        -7.608161864188179
      ],
      [
        "▁trafik",
        -9.425097579253162
      ],
      [
        "▁bag",
        -8.348181691497707
      ],
      [
        "▁lı",
        -5.6759587977861035
      ],
      [
        "▁yonetme",
        -9.923321224698613
      ],
      [
        "▁sık",
        -7.865762091284761
      ],
      [
        "▁oysa",
        -7.627516959748585
      ],
      [
        "▁bank",
        -7.543504746392664
      ],
      [
        "▁ek",
        -8.50353470693818
      ],
      [
        "▁komisyonlar",
        -9.465975961131313
      ],
      [
        "▁topluluk",
        -10.176537237946814
      ],
      [
        "uzere",
        -8.913785142808404
      ],
      [
        "▁diy",
        -8.048293197356147
      ],
      [
        "▁adım",
        -7.970055869561174
      ],
      [
        "▁ucus",
        -6.034038059123369
      ],
      [
        "cusu",
        -8.775820001971322
      ],
      [
        "▁du",
        -9.069743225063084
      ],
      [
        "▁mes",
        -8.251962765633508
      ],
      [
        "▁toreni",
        -9.968613943074939
      ],
      [
        "▁yangın",
        -9.197757897059883
      ],
      [
        "ut",
        -7.534273502585786
      ],
      [
        "▁duygular",
        -9.766772550764038
      ],
      [
        "▁kadını",
        -8.959563370933473
      ],
      [
        "▁g",
        -9.185339971889224
      ],
      [
        "?",
        -4.9897436379284725
      ],
      [
        "▁ki",
        -1.7493755316426949
      ],
      [
        "▁yemeklerde",
        -8.744281498275445
      ],
      [
        "▁asagı",
        -8.89139255330801
      ],
      [
        "▁yanında",
        -8.52084103976443
      ],
      [
        "▁kisilerin",
        -9.673796189139086
      ],
      [
        "s",
        -6.083064316595122
      ],
      [
        "▁takip",
        -8.378171620062815
      ],
      [
        "▁benzer",
        -9.681793293923674
      ],
      [
        "▁...",
        -14.014958445102625
      ],
      [
        "▁ceken",
        -8.846058629075005
      ],
      [
        "men",
        -7.749488467529847
      ],
      [
        "▁hayali",
        -10.126757931821961
      ],
      [
        "▁konusmalar",
        -9.776197238184754
      ],
      [
        "sız",
        -7.68390184486632
      ],
      [
        "▁ortalama",
        -8.925071780503453
      ],
      [
        "▁romanı",
        -9.80011442256934
      ],
      [
        "▁kahvaltı",
        -9.051615184315848
      ],
      [
        "▁aksamı",
        -8.487971800465674
      ],
      [
        "▁sordu",
        -7.199582620796439
      ],
      [
        "▁defa",
        -7.8570215822027265
      ],
      [
        "▁19",
        -5.584042382710446
      ],
      [
        "▁sec",
        -9.67506594097043
      ],
      [
        "▁do",
        -8.74462179382095
      ],
      [
        "ende",
        -8.218905369026418
      ],
      [
        "▁cd",
        -10.03094319182007
      ],
      [
        "▁zincir",
        -9.268361164910903
      ],
      [
        "▁miami",
        -8.334919779298076
      ],
      [
        "▁kazanıyor",
        -8.677768484021755
      ],
      [
        "mistir",
        -7.393870760329986
      ],
      [
        "▁otele",
        -9.107129534568209
      ],
      [
        "▁biri",
        -8.103945585282604
      ],
      [
        "▁tip",
        -9.42342745809862
      ],
      [
        "cıklar",
        -10.009877783910284
      ],
      [
        "▁karakter",
        -9.317866457466435
      ],
      [
        "▁anadolu",
        -7.548407391738422
      ],
      [
        "▁veya",
        -4.768733796629289
      ],
      [
        "▁cocugunu",
        -9.73515356171144
      ],
      [
        "▁bul",
        -6.973767915580445
      ],
      [
        "▁sorular",
        -9.385492202949857
      ],
      [
        "▁organizasyon",
        -9.503559028876541
      ],
      [
        "▁koruma",
        -8.833575121940168
      ],
      [
        "▁mini",
        -7.617494903195212
      ],
      [
        "▁artısla",
        -7.9198143635756715
      ],
      [
        "gil",
        -7.604654609424275
      ],
      [
        "▁gelis",
        -9.446839854816389
      ],
      [
        "▁atlar",
        -9.586636817613197
      ],
      [
        "▁ani",
        -8.28649486386787
      ],
      [
        "▁hak",
        -7.729205598386269
      ],
      [
        "▁insanoglu",
        -10.028651519830227
      ],
      [
        "▁eve",
        -7.624905181929931
      ],
      [
        "▁sendika",
        -8.761295826763716
      ],
      [
        "▁ydi",
        -4.345530577115908
      ],
      [
        "▁bekledigim",
        -8.296463657058505
      ],
      [
        "▁olmalıdır",
        -8.773223519812422
      ],
      [
        "▁harita",
        -9.681819738076728
      ],
      [
        "gin",
        -7.749270011919657
      ],
      [
        "len",
        -8.606878197165472
      ],
      [
        "▁ha",
        -7.833781898650971
      ],
      [
        "▁bugday",
        -9.161426014902164
      ],
      [
        "d",
        -2.461972935010672
      ],
      [
        "m",
        -2.873216853466463
      ],
      [
        "▁bolumunde",
        -9.691483220680816
      ],
      [
        "co",
        -7.900338045405285
      ],
      [
        "▁yasaya",
        -8.566349252591053
      ],
      [
        "▁carsamba",
        -5.576976644190036
      ],
      [
        "hi",
        -8.532206181582685
      ],
      [
        "▁brit",
        -8.283373850844672
      ],
      [
        "▁reklamlar",
        -9.715111295998994
      ],
      [
        "▁oakland'",
        -6.623636348334861
      ],
      [
        "/",
        -5.9441551310848775
      ],
      [
        "▁cocukların",
        -8.935037522774369
      ],
      [
        "▁cehennem",
        -10.027954870979872
      ],
      [
        "▁konfor",
        -8.869514621312884
      ],
      [
        "▁alıcılar",
        -9.71855325324909
      ],
      [
        "▁ic",
        -6.5122645661677705
      ],
      [
        "▁bilim",
        -7.662561484827331
      ],
      [
        "▁av",
        -8.912702494874924
      ],
      [
        "▁edebiyatı",
        -10.085500324015898
      ],
      [
        "▁sermaye",
        -8.158982237006747
      ],
      [
        "s",
        -7.700008686485435
      ],
      [
        "yu",
        -9.885733217074922
      ],
      [
        "▁farklı",
        -6.676524239915737
      ],
      [
        "▁merkezin",
        -8.384095811287757
      ],
      [
        "▁direktoru",
        -9.432795783194631
      ],
      [
        "▁kosede",
        -9.631745221284612
      ],
      [
        "▁profesor",
        -10.114736595122595
      ],
      [
        "ebilir",
        -6.895147310968675
      ],
      [
        "▁otede",
        -9.681592850118705
      ],
      [
        "▁ressam",
        -9.784409228734647
      ],
      [
        "▁maddeler",
        -10.038267883525439
      ],
      [
        "▁gerilim",
        -9.899017082693597
      ],
      [
        "r",
        -6.2580206567506025
      ],
      [
        "ecegim",
        -8.149937177607747
      ],
      [
        "▁yapıyorlar",
        -8.922991742056936
      ],
      [
        "▁cekilme",
        -9.638133834669263
      ],
      [
        "ion",
        -8.333378606220464
      ],
      [
        "▁mas",
        -9.439356582107887
      ],
      [
        "▁matematik",
        -9.503559129858214
      ],
      [
        "▁sahit",
        -9.844165710833515
      ],
      [
        "h",
        -6.8306572091775175
      ],
      [
        "in",
        -5.266157079427771
      ],
      [
        "▁luks",
        -10.17758143669579
      ],
      [
        "▁yanlıs",
        -9.473925961783046
      ],
      [
        "▁ikinci",
        -7.527984601976824
      ],
      [
        "1",
        -11.802702672349785
      ],
      [
        "▁ofisi",
        -9.510550268492079
      ],
      [
        "▁personeller",
        -6.953658375263141
      ],
      [
        "▁kapa",
        -8.465281544283624
      ],
      [
        "▁ederler",
        -8.457905368567584
      ],
      [
        "▁guc",
        -8.484829431853754
      ],
      [
        "▁va",
        -9.949372026029458
      ],
      [
        "iji",
        -8.70416995871651
      ],
      [
        "▁dr",
        -9.640234918142674
      ],
      [
        "un",
        -6.959468783522773
      ],
      [
        "▁falan",
        -9.683560151511351
      ],
      [
        "a",
        -3.306240950764071
      ],
      [
        "▁surucu",
        -9.687413232304921
      ],
      [
        "▁ceviri",
        -10.176306845283044
      ],
      [
        "▁on",
        -7.456449375650154
      ],
      [
        "▁usulca",
        -8.360477474113367
      ],
      [
        "sinde",
        -6.939929353281317
      ],
      [
        "sinin",
        -7.713440345854014
      ],
      [
        "▁saray",
        -8.04771648366146
      ],
      [
        "▁a",
        -7.219965941963332
      ],
      [
        "▁plak",
        -9.84078522561127
      ],
      [
        "▁sekiz",
        -5.578203547897827
      ],
      [
        "▁yuku",
        -9.85627808983994
      ],
      [
        "▁bilgi",
        -6.870678391302935
      ],
      [
        "▁murat",
        -7.8009368883497014
      ],
      [
        "▁ge",
        -8.649999240391375
      ],
      [
        "▁y",
        -7.475113524003659
      ],
      [
        "▁kal",
        -8.926845014747215
      ],
      [
        "▁kadınların",
        -9.410845817875007
      ],
      [
        "'te",
        -7.554695699613818
      ],
      [
        "▁oteldi",
        -7.362574892416137
      ],
      [
        "▁kullanmadi",
        -7.102732034173352
      ],
      [
        "▁alacak",
        -7.974701961052199
      ],
      [
        "▁yonelikti",
        -8.984151719158826
      ],
      [
        "!",
        -5.67393291373121
      ],
      [
        "ılan",
        -8.795705729473106
      ],
      [
        "mesi",
        -8.138228096993778
      ],
      [
        "▁zeka",
        -9.556666898656779
      ],
      [
        "▁worth'da",
        -7.5894672046468825
      ],
      [
        "acagın",
        -9.692622814088315
      ],
      [
        "▁cam",
        -8.42113710003153
      ],
      [
        "▁hepimizi",
        -7.106313200253321
      ],
      [
        "▁kırk",
        -6.011931561604349
      ],
      [
        "▁muka",
        -9.900575175166235
      ],
      [
        "▁olum",
        -7.852817688776028
      ],
      [
        "▁houston",
        -7.917246887274478
      ],
      [
        "▁korkuyor",
        -8.712487390624378
      ],
      [
        "▁oyuncak",
        -9.545493361723906
      ],
      [
        "▁fonu",
        -9.363858884021049
      ],
      [
        "▁sup",
        -7.614106068843844
      ],
      [
        "▁ureticileri",
        -9.217825228227522
      ],
      [
        "▁baslıyor",
        -7.816886225346613
      ],
      [
        "▁sundu",
        -8.88257996746686
      ],
      [
        "▁site",
        -9.430930275508057
      ],
      [
        "▁emri",
        -10.008130402691323
      ],
      [
        "▁eglence",
        -8.3643068913649
      ],
      [
        "f",
        -8.77684154095741
      ],
      [
        "▁kaymakam",
        -9.96128918225597
      ],
      [
        "▁ucus",
        -8.859418453043288
      ],
      [
        "▁bakım",
        -8.657158927084662
      ],
      [
        "▁bizim",
        -8.925075863130537
      ],
      [
        "la",
        -5.588970610126578
      ],
      [
        "ecektir",
        -8.41134730618427
      ],
      [
        "▁dustu",
        -6.2171854497409065
      ],
      [
        "▁suyunu",
        -9.31334735143945
      ],
      [
        "▁temin",
        -10.027710388939033
      ],
      [
        "▁bilgilendirilme",
        -9.898788205694114
      ],
      [
        "▁insanın",
        -8.053885929431505
      ],
      [
        "▁basa",
        -8.938239744269364
      ],
      [
        "abiliyor",
        -8.925362242997718
      ],
      [
        "▁balta",
        -9.968619833188546
      ],
      [
        "▁gelis",
        -8.914849163749613
      ],
      [
        "▁lar",
        -7.76677043803274
      ],
      [
        "▁kar",
        -7.184255339976209
      ],
      [
        "▁hisseleri",
        -7.871536482748275
      ],
      [
        "ince",
        -8.412645061292471
      ],
      [
        "r",
        -11.302702672349785
      ],
      [
        "▁cereyan",
        -9.961308490700125
      ],
      [
        "▁belediye",
        -8.685905025051714
      ],
      [
        "▁buyuk",
        -4.679393483842886
      ],
      [
        "▁elini",
        -8.42755988549434
      ],
      [
        "▁8",
        -5.673436706926548
      ],
      [
        "▁cevre",
        -8.155252259757777
      ],
      [
        "▁tarih",
        -7.937604691362203
      ],
      [
        "▁hava",
        -7.168265742394751
      ],
      [
        "▁park",
        -9.03867064454416
      ],
      [
        "ek",
        -8.669393074890587
      ],
      [
        "▁keskin",
        -7.6602917997901345
      ],
      [
        "▁ap",
        -8.187111776101872
      ],
      [
        "▁aralık",
        -8.624708951799668
      ],
      [
        "▁kılavuz",
        -9.839964678774438
      ],
      [
        "▁yaslı",
        -7.2585974104414905
      ],
      [
        "▁sanatın",
        -9.911929129849161
      ],
      [
        "▁sekreter",
        -9.682296660326234
      ],
      [
        "▁197",
        -7.0704416662705025
      ],
      [
        "▁mimar",
        -9.836782827391236
      ],
      [
        "▁yapmıs",
        -8.224954464181987
      ],
      [
        "▁etrafı",
        -9.567909472275549
      ],
      [
        "▁avukatlar",
        -9.380435123512369
      ],
      [
        "▁isti",
        -9.537931426145983
      ],
      [
        "▁manzaras",
        -9.507478479447153
      ],
      [
        "45",
        -7.495078558436891
      ],
      [
        "ım",
        -8.123091178542017
      ],
      [
        "iyl",
        -7.505604821556474
      ],
      [
        "▁yemek",
        -7.04818349101189
      ],
      [
        "▁dil",
        -7.910573777487714
      ],
      [
        "si",
        -5.480218201930448
      ],
      [
        "▁tahvilleri",
        -8.704830990606728
      ],
      [
        "▁sol",
        -9.374127836672955
      ],
      [
        "▁bil",
        -7.784313259292661
      ],
      [
        "▁san",
        -8.98179938631655
      ],
      [
        "tı",
        -6.533048043276507
      ],
      [
        "▁yorum",
        -7.473244579711905
      ],
      [
        "▁hikaye",
        -8.954794110588836
      ],
      [
        "▁yapacagın",
        -9.856402556141848
      ],
      [
        "▁artıs",
        -8.226404791128935
      ],
      [
        "▁arkasında",
        -8.539778689059514
      ],
      [
        "lma",
        -9.262854734633448
      ],
      [
        "▁hugo",
        -8.297326668612873
      ],
      [
        "▁taze",
        -7.7460431805793695
      ],
      [
        "▁disk",
        -9.897849372135184
      ],
      [
        "▁durma",
        -9.980289066319122
      ],
      [
        "layıcı",
        -9.785961341914795
      ],
      [
        "▁sultan",
        -10.099466164170558
      ],
      [
        "▁ocagı",
        -9.573635785422411
      ],
      [
        "p",
        -6.8247742603690735
      ],
      [
        "▁deger",
        -7.777637612233826
      ],
      [
        "▁goren",
        -8.120628947105864
      ],
      [
        "▁kalktı",
        -7.850631911405777
      ],
      [
        "▁kesinti",
        -9.672130108627927
      ],
      [
        "▁dernegi",
        -9.898792593859621
      ],
      [
        "▁oyun",
        -7.986455557914241
      ],
      [
        "▁ithal",
        -9.681035046151603
      ],
      [
        "▁gorevlisi",
        -9.566346764713819
      ],
      [
        "▁fatih",
        -7.956502252507361
      ],
      [
        "eki",
        -7.37202748704168
      ],
      [
        "nın",
        -7.557663351227015
      ],
      [
        "▁da",
        -3.8220161579732874
      ],
      [
        "▁gel",
        -7.363159936842708
      ],
      [
        "▁soz",
        -7.18716750733744
      ],
      [
        "▁kalite",
        -7.559607377155033
      ],
      [
        "2.5",
        -7.325956578116923
      ],
      [
        "▁izliyor",
        -8.537743364796476
      ],
      [
        "▁turkiye'de",
        -7.000061765398926
      ],
      [
        "▁bulabilir",
        -8.61749493131679
      ],
      [
        "▁vegas",
        -8.239903936946572
      ],
      [
        "▁hanım",
        -7.660419018851054
      ],
      [
        "▁artı",
        -5.060973459890498
      ],
      [
        "▁ak",
        -8.205481051836538
      ],
      [
        "▁okulu",
        -9.687457208220248
      ],
      [
        "▁katılma",
        -9.826618988724817
      ],
      [
        "ki",
        -12.24335423160404
      ],
      [
        "larımızı",
        -8.52420906718793
      ],
      [
        "▁sahiptir",
        -8.097176859383168
      ],
      [
        "▁coban",
        -9.132813731911387
      ],
      [
        "▁gir",
        -9.814648296717749
      ],
      [
        "▁bez",
        -9.94014151222333
      ],
      [
        "'",
        -9.65514449259237
      ],
      [
        "on",
        -4.581243662563074
      ],
      [
        "ını",
        -6.61495132277723
      ],
      [
        "▁cezası",
        -9.719304798459941
      ],
      [
        "▁mo",
        -9.663875549988024
      ],
      [
        "▁seri",
        -9.737784569896677
      ],
      [
        "▁do",
        -4.997386800813171
      ],
      [
        "be",
        -8.024463293400846
      ],
      [
        "▁yılında",
        -7.827853738286696
      ],
      [
        "▁goruyordu",
        -8.798388002219562
      ],
      [
        "▁hale",
        -7.8724649417536625
      ],
      [
        "▁-",
        -9.780423386250764
      ],
      [
        "▁ahlak",
        -8.699058204417298
      ],
      [
        "▁lezzet",
        -6.942877474157928
      ],
      [
        "▁kasım",
        -9.254011791240673
      ],
      [
        "▁guler",
        -7.698994887491056
      ],
      [
        "▁ufakt",
        -8.588929040231333
      ],
      [
        "▁olmak",
        -7.390130413470925
      ],
      [
        "▁cekiyor",
        -8.366328643620314
      ],
      [
        "yım",
        -8.759135381627564
      ],
      [
        "▁edilebilir",
        -8.721184716247883
      ],
      [
        "▁kalitesinde",
        -9.688663249052219
      ],
      [
        "▁men",
        -7.508210131102051
      ],
      [
        "ir",
        -7.249585255353831
      ],
      [
        "ken",
        -6.060788260110396
      ],
      [
        "sun",
        -6.380546687901305
      ],
      [
        "▁ele",
        -7.950758561699387
      ],
      [
        "▁agız",
        -8.600352098127015
      ],
      [
        "▁memnundu",
        -8.402968901755278
      ],
      [
        "▁hasarı",
        -9.994684368944133
      ],
      [
        "▁pay",
        -7.739648885701946
      ],
      [
        "▁ucret",
        -6.618443757329016
      ],
      [
        "▁yiyecekler",
        -8.760890723576999
      ],
      [
        "▁ozgurluk",
        -9.545393248740346
      ],
      [
        "▁limuzin",
        -9.78440932826958
      ],
      [
        "▁nası",
        -7.849488159887262
      ],
      [
        "nızda",
        -9.700767021435666
      ],
      [
        "▁kopya",
        -10.033001180903337
      ],
      [
        "▁kız",
        -7.707551100975492
      ],
      [
        "▁degerini",
        -9.764085255479829
      ],
      [
        "▁kaliforniya",
        -7.288443125848875
      ],
      [
        "▁va",
        -8.405399899478365
      ],
      [
        "▁katılıyor",
        -8.87340093009841
      ],
      [
        "▁surduruyor",
        -8.974412156770702
      ],
      [
        "▁duygus",
        -8.448227360526346
      ],
      [
        "lerimizi",
        -8.739944220313056
      ],
      [
        "▁toplantı",
        -8.762775170958706
      ],
      [
        "▁secenek",
        -10.063390971741276
      ],
      [
        "ın",
        -7.1382036613530975
      ],
      [
        "▁kasıgı",
        -8.668055877683774
      ],
      [
        "▁kuru",
        -8.723558314835572
      ],
      [
        "4",
        -12.802702672349787
      ],
      [
        "▁satıcılar",
        -10.123322228599791
      ],
      [
        "indek",
        -7.156888779365852
      ],
      [
        "▁inis",
        -9.505831809886843
      ],
      [
        "▁heves",
        -9.545363629685887
      ],
      [
        "▁uyandır",
        -8.973804091799792
      ],
      [
        "▁tane",
        -8.049627557567952
      ],
      [
        "kleri",
        -7.734520318496818
      ],
      [
        "▁cok",
        -9.664383700682187
      ],
      [
        "▁ekim",
        -8.781367136409346
      ],
      [
        "▁reddetti",
        -7.374678696110597
      ],
      [
        "▁teyze",
        -9.857568717567949
      ],
      [
        "▁yedi",
        -5.3484134847842775
      ],
      [
        "▁kart",
        -9.189992150669402
      ],
      [
        "▁halkı",
        -9.01484929989244
      ],
      [
        "▁kadar",
        -2.999792704414248
      ],
      [
        "▁kendinizi",
        -7.1322740463500285
      ],
      [
        "maz",
        -8.055526155489876
      ],
      [
        "▁sistemin",
        -10.06774660272182
      ],
      [
        "gerek",
        -11.723165890820209
      ],
      [
        "▁rota",
        -9.434558609679836
      ],
      [
        "▁baglama",
        -10.059916330420297
      ],
      [
        "▁yazık",
        -9.637372338127363
      ],
      [
        "ter",
        -9.08251890692444
      ],
      [
        "▁ulkede",
        -9.388436163580902
      ],
      [
        "▁yalan",
        -8.661791620680985
      ],
      [
        "▁futbol",
        -8.82542016646067
      ],
      [
        "▁ankara",
        -7.346777313838827
      ],
      [
        "▁mesaj",
        -9.087040788791018
      ],
      [
        "▁lacivert",
        -8.643565974139694
      ],
      [
        "uc",
        -7.358803221942155
      ],
      [
        "▁aracı",
        -8.565091357527306
      ],
      [
        "▁yaklası",
        -8.672924671213131
      ],
      [
        "▁te",
        -8.312220911521178
      ],
      [
        "▁raporu",
        -9.236827379202545
      ],
      [
        "▁donanma",
        -9.9612952389662
      ],
      [
        "▁yaz",
        -7.950343997234887
      ],
      [
        "li",
        -4.226068988600278
      ],
      [
        "▁care",
        -9.224206038232207
      ],
      [
        "▁renkl",
        -7.621988089518691
      ],
      [
        "ist",
        -8.724220420575483
      ],
      [
        "su",
        -6.81228904551094
      ],
      [
        "▁onc",
        -8.378922882909404
      ],
      [
        "▁bitki",
        -9.351089450487406
      ],
      [
        "▁kırıl",
        -8.85848682451218
      ],
      [
        "▁piyasasında",
        -9.658861879222217
      ],
      [
        "▁calisanlar",
        -8.451190507419271
      ],
      [
        "▁boston'",
        -5.7300222215715975
      ],
      [
        "▁kaynaklar",
        -10.024337628608066
      ],
      [
        "▁gelistirme",
        -8.952777185085118
      ],
      [
        "▁cumhuriyeti",
        -9.548683467877906
      ],
      [
        "▁anlat",
        -7.658866901519624
      ],
      [
        "▁tabi",
        -6.9922903682893205
      ],
      [
        "▁havlu",
        -9.794811738051994
      ],
      [
        "▁ozellikleri",
        -9.80067817527313
      ],
      [
        "▁gecme",
        -8.528279297089854
      ],
      [
        "g",
        -8.775928012836951
      ],
      [
        "is",
        -7.51314299891555
      ],
      [
        "▁kodu",
        -8.689022621458202
      ],
      [
        "▁genclik",
        -9.505446400030156
      ],
      [
        "▁panik",
        -9.731781746461262
      ],
      [
        "▁tutum",
        -9.690219046556447
      ],
      [
        "▁planın",
        -9.889955216853828
      ],
      [
        "▁abla",
        -9.669122519172426
      ],
      [
        "▁cıkıyor",
        -7.662003157749674
      ],
      [
        "oysa",
        -10.862622396443756
      ],
      [
        "ucu",
        -7.189250133002087
      ],
      [
        "▁savunma",
        -8.59965757261485
      ],
      [
        "▁",
        -5.942892358405939
      ],
      [
        "▁fed",
        -8.500682757910614
      ],
      [
        "▁dogur",
        -8.885341715371801
      ],
      [
        "▁diz",
        -8.793550731052514
      ],
      [
        "▁suc",
        -8.753881233597081
      ],
      [
        "▁komisyonları",
        -9.978710740659047
      ],
      [
        "uluyor",
        -8.760132363171907
      ],
      [
        "▁yeni",
        -5.517189378335924
      ],
      [
        "cık",
        -7.756480260236719
      ],
      [
        "nce",
        -6.808974596992564
      ],
      [
        "▁yasında",
        -7.6453822599543955
      ],
      [
        "▁saatler",
        -9.387980027189903
      ],
      [
        "▁teminat",
        -9.285526757157653
      ],
      [
        "ah",
        -9.74152942759214
      ],
      [
        "▁dalgalanma",
        -9.359165965968899
      ],
      [
        "▁u",
        -8.294691834856904
      ],
      [
        "▁guzel",
        -8.23111534209698
      ],
      [
        "▁hucre",
        -9.640978283192933
      ],
      [
        "▁olamaz",
        -8.248500242077554
      ],
      [
        "▁cografya",
        -10.027955719886071
      ],
      [
        "▁hali",
        -8.685252491573205
      ],
      [
        "▁kendilerin",
        -6.5666059748182395
      ],
      [
        "▁29",
        -6.422469476374212
      ],
      [
        "▁al",
        -6.818875026143415
      ],
      [
        "▁guvence",
        -10.030702236771088
      ],
      [
        "v",
        -8.098783892429132
      ],
      [
        "anlar",
        -8.824912802788182
      ],
      [
        "▁kose",
        -8.562478436117292
      ],
      [
        "a",
        -7.245905658753116
      ],
      [
        "▁alakal",
        -8.205748665914669
      ],
      [
        "▁paral",
        -8.757584074758762
      ],
      [
        "▁gumus",
        -8.45347510151566
      ],
      [
        "▁girmis",
        -8.899909960239881
      ],
      [
        "lerde",
        -8.382659197572202
      ],
      [
        "▁bunlarda",
        -6.246440461648687
      ],
      [
        "▁tas",
        -8.495346835281586
      ],
      [
        "▁catı",
        -9.395090979680848
      ],
      [
        "iy",
        -7.061574036687148
      ],
      [
        "lerimi",
        -9.22221351437858
      ],
      [
        "▁dusunce",
        -8.837703919749423
      ],
      [
        "▁hafif",
        -7.869072630271415
      ],
      [
        "mızda",
        -9.128695140169057
      ],
      [
        "▁ayva",
        -10.033690162077985
      ],
      [
        "▁genel",
        -5.430935490490446
      ],
      [
        "▁california'da",
        -8.308713773943015
      ],
      [
        "▁japonya",
        -7.316375579672631
      ],
      [
        "iz",
        -5.780786808737579
      ],
      [
        "biz",
        -7.9810231857484
      ],
      [
        "▁yıl",
        -6.210710416873581
      ],
      [
        "misti",
        -6.886512725471708
      ],
      [
        "ında",
        -9.876441737514408
      ],
      [
        "▁cıkar",
        -6.98398357556363
      ],
      [
        "▁or",
        -8.776706927948517
      ],
      [
        "▁tank",
        -10.101973055010296
      ],
      [
        "▁altı",
        -9.204764587307537
      ],
      [
        "▁gununu",
        -9.661428608773617
      ],
      [
        "▁katında",
        -9.933035242646179
      ],
      [
        "▁acmıstı",
        -8.978146136278777
      ],
      [
        "▁nashville'de",
        -7.653684376333695
      ],
      [
        "▁aktiviteler",
        -9.649341757599423
      ],
      [
        "▁gercek",
        -6.589993971854006
      ],
      [
        "▁sokakta",
        -9.23751043591343
      ],
      [
        "▁hassas",
        -8.493380798764369
      ],
      [
        "▁asık",
        -8.748523953003708
      ],
      [
        "gun",
        -9.177699280635311
      ],
      [
        "▁halkın",
        -9.15591585119119
      ],
      [
        "▁vurgu",
        -9.843553437044294
      ],
      [
        "cek",
        -7.863023733881743
      ],
      [
        "ustu",
        -9.709057569124546
      ],
      [
        "de",
        -9.767450165438444
      ],
      [
        "▁sultan",
        -8.229505126261502
      ],
      [
        "gun",
        -7.780179854067352
      ],
      [
        "yle",
        -6.687487082009295
      ],
      [
        "▁danısmanları",
        -10.149493825758912
      ],
      [
        "iyeti",
        -9.413975162224853
      ],
      [
        "▁ve",
        -9.324294636803662
      ],
      [
        "▁kabin",
        -10.176528326130757
      ],
      [
        "▁lisans",
        -9.765134140293098
      ],
      [
        "▁9'da",
        -9.464245342922277
      ],
      [
        "v",
        -8.759408541790629
      ],
      [
        "▁kemer",
        -10.027967940388443
      ],
      [
        "▁rekor",
        -9.221032917135123
      ],
      [
        "▁yagı",
        -9.400359553507474
      ],
      [
        "▁sayfa",
        -8.98347886854751
      ],
      [
        "ler",
        -8.293736253779967
      ],
      [
        "▁buyukelci",
        -10.176310699735222
      ],
      [
        "▁t",
        -7.020996493100862
      ],
      [
        "▁mide",
        -9.1673737467844
      ],
      [
        "tıg",
        -9.390766392205336
      ],
      [
        "▁dolay",
        -4.747145240580062
      ],
      [
        "▁`",
        -10.557597422589598
      ],
      [
        "m",
        -5.266659879742202
      ],
      [
        "▁donu",
        -8.515294939942681
      ],
      [
        "▁he",
        -9.926427091418343
      ],
      [
        "▁balkon",
        -9.3524564223989
      ],
      [
        "▁hisselerini",
        -9.108568335989721
      ],
      [
        "▁kal",
        -8.221986803257368
      ],
      [
        "▁gordugu",
        -8.768772897644842
      ],
      [
        "▁naci",
        -7.836373764627838
      ],
      [
        "▁komsu",
        -9.163427406385562
      ],
      [
        "▁op",
        -9.905942988507054
      ],
      [
        "kul",
        -7.4453938067184895
      ],
      [
        "a",
        -6.331761979549196
      ],
      [
        "sef",
        -8.617685786776235
      ],
      [
        "▁shearson",
        -7.729454416255125
      ],
      [
        "▁gerek",
        -8.144007580230529
      ],
      [
        "▁dogru",
        -6.176161593885434
      ],
      [
        "▁corp",
        -7.847558852625813
      ],
      [
        "▁alaca",
        -9.873866067405828
      ],
      [
        "▁doktu",
        -8.87659131229665
      ],
      [
        "▁tef",
        -9.903655744430518
      ],
      [
        "▁bufe",
        -9.161351533071874
      ],
      [
        "▁esi",
        -9.3664011834256
      ],
      [
        "-",
        -6.957239872677067
      ],
      [
        "▁edecek",
        -7.33221592433225
      ],
      [
        "▁yenilik",
        -10.033512972978448
      ],
      [
        "▁mah",
        -7.958157901483876
      ],
      [
        "▁sonra",
[...]
