{
  "version": "1.0",
  "truncation": null,
  "padding": null,
  "added_tokens": [
    {
      "id": 2658,
      "content": "[SEP]",
      "single_word": false,
      "lstrip": false,
      "rstrip": false,
      "normalized": false,
      "special": true
    },
    {
      "id": 4339,
      "content": "[MASK]",
      "single_word": false,
      "lstrip": false,
      "rstrip": false,
      "normalized": false,
      "special": true
    },
    {
      "id": 6434,
      "content": "[UNK]",
      "single_word": false,
      "lstrip": false,
      "rstrip": false,
      "normalized": false,
      "special": true
    },
    {
      "id": 8957,
      "content": "[PAD]",
      "single_word": false,
      "lstrip": false,
      "rstrip": false,
      "normalized": false,
      "special": true
    },
    {
      "id": 10382,
      "content": "[CLS]",
      "single_word": false,
      "lstrip": false,
      "rstrip": false,
      "normalized": false,
      "special": true
    }
  ],
  "normalizer": {
    "type": "Sequence",
    "normalizers": [
      {
        "type": "NFD"
      },
      {
        "type": "Lowercase"
      },
      {
        "type": "StripAccents"
      }
    ]
  },
  "pre_tokenizer": {
    "type": "Sequence",
    "pretokenizers": [
      {
        "type": "Metaspace",
        "replacement": "▁",
        "prepend_scheme": "always",
        "split": true
      }
    ]
  },
  "post_processor": {
    "type": "TemplateProcessing",
    "single": [
      {
        "SpecialToken": {
          "id": "[CLS]",
          "type_id": 0
        }
      },
      {
        "Sequence": {
          "id": "A",
          "type_id": 0
        }
      },
      {
        "SpecialToken": {
          "id": "[SEP]",
          "type_id": 0
        }
      }
    ],
    "pair": [
      {
        "SpecialToken": {
          "id": "[CLS]",
          "type_id": 0
        }
      },
      {
        "Sequence": {
          "id": "A",
          "type_id": 0
        }
      },
      {
        "SpecialToken": {
          "id": "[SEP]",
          "type_id": 0
        }
      },
      {
        "Sequence": {
          "id": "B",
          "type_id": 1
        }
      },
      {
        "SpecialToken": {
          "id": "[SEP]",
          "type_id": 1
        }
      }
    ],
    "special_tokens": {
      "[CLS]": {
        "id": "[CLS]",
        "ids": [
          10382
        ],
        "tokens": [
          "[CLS]"
        ]
      },
      "[SEP]": {
        "id": "[SEP]",
        "ids": [
          2658
        ],
        "tokens": [
          "[SEP]"
        ]
      }
    }
  },
  "decoder": {
    "type": "Metaspace",
    "replacement": "▁",
    "prepend_scheme": "always",
    "split": true
  },
  "model": {
    "type": "BPE",
    "dropout": null,
    "unk_token": "[UNK]",
    "continuing_subword_prefix": null,
    "end_of_word_suffix": null,
    "fuse_unk": false,
    "byte_fallback": false,
    "ignore_merges": false,
    "vocab": {
      "▁gunlerin": 0,
      "▁olacaktır": 1,
      "▁itibari": 2,
      "'ini": 3,
      "▁etmez": 4,
      "atin": 5,
      "▁ciro": 6,
      "▁ların": 7,
      "▁avrupa": 8,
      "▁pozisyonları": 9,
      "olo": 10,
      "▁odanin": 11,
      "emiyorum": 12,
      "alarıyla": 13,
      "ding": 14,
      "▁acente": 15,
      "son": 16,
      "culer": 17,
      "▁dersiniz": 18,
      "▁kamyona": 19,
      "▁muhafazakar": 20,
      "ekte": 21,
      "▁sayede": 22,
      "▁dort": 23,
      "iri": 24,
      ".0": 25,
      "▁california": 26,
      "▁metni": 27,
      "lim": 28,
      "▁kırmızı": 29,
      "▁hav": 30,
      "▁ydim": 31,
      "▁tebessum": 32,
      "▁yasayıs": 33,
      "▁yavru": 34,
      "▁seher": 35,
      "landı": 36,
      "▁kolu": 37,
      "▁memur": 38,
      "▁almanlar": 39,
      "▁pahali": 40,
      "▁olagan": 41,
      "▁bec": 42,
      "▁sırtında": 43,
      "▁camı": 44,
      "▁akr": 45,
      "emizde": 46,
      "istlerin": 47,
      "▁calisanlari": 48,
      "ehr": 49,
      "▁pekala": 50,
      "▁ilacı": 51,
      "▁hicbir": 52,
      "▁gogsu": 53,
      "▁kendilerinin": 54,
      "▁mustafa": 55,
      "▁profesyon": 56,
      "▁indianapolis'e": 57,
      "▁meze": 58,
      "▁kesf": 59,
      "▁haykır": 60,
      "▁bilezik": 61,
      "▁ilgisi": 62,
      "▁ellerinde": 63,
      "▁bulunuyor": 64,
      "▁guvencesi": 65,
      "▁okuy": 66,
      "▁sakız": 67,
      "▁boz": 68,
      "▁bitmis": 69,
      "▁roman": 70,
      "▁sampiyon": 71,
      "▁gelmeye": 72,
      "▁teneff": 73,
      "▁basmak": 74,
      "▁kıyı": 75,
      "0'da": 76,
      "▁dengesi": 77,
      "sınız": 78,
      "▁tasarısını": 79,
      "▁servisten": 80,
      "▁hisseyle": 81,
      "▁teklifler": 82,
      "▁namus": 83,
      "▁hatirlamiyorum": 84,
      "is": 85,
      "▁pervan": 86,
      "▁onunden": 87,
      "▁oglunun": 88,
      "▁esim": 89,
      "▁zamanı": 90,
      "▁gonder": 91,
      "▁destekl": 92,
      "▁cır": 93,
      "ks": 94,
      "adım": 95,
      "▁yapıyorlar": 96,
      "mayan": 97,
      "▁toprakları": 98,
      "▁penc": 99,
      "▁uyelig": 100,
      "▁gencin": 101,
      "▁redde": 102,
      "tigine": 103,
      "g": 104,
      "▁deftere": 105,
      "▁louis'e": 106,
      "▁seh": 107,
      "▁bina": 108,
      "▁bucuk": 109,
      "▁basarısı": 110,
      "▁konser": 111,
      "▁ediyordu": 112,
      "▁gobek": 113,
      "har": 114,
      "sinin": 115,
      "ment": 116,
      "▁bakanlıgı'nın": 117,
      "▁pilak": 118,
      "iye": 119,
      "▁yaptıklarını": 120,
      "izma": 121,
      "▁ner": 122,
      "▁fiyati": 123,
      "yap": 124,
      "▁onceden": 125,
      "▁francisco": 126,
      "▁baskanı": 127,
      "malık": 128,
      "▁islemleri": 129,
      "lerden": 130,
      "▁demis": 131,
      "▁turist": 132,
      "cayı": 133,
      "▁yasaların": 134,
      "▁sırayla": 135,
      "▁miydi": 136,
      "▁bulbul": 137,
      "▁geriledi": 138,
      "alıgı": 139,
      "▁kadında": 140,
      "▁ted": 141,
      "▁bog": 142,
      "▁hastanede": 143,
      "▁ornegi": 144,
      "▁blok": 145,
      "▁karsilama": 146,
      "masi": 147,
      "▁kasabadan": 148,
      "▁alması": 149,
      "▁di": 150,
      "▁havlu": 151,
      "▁talim": 152,
      "▁maf": 153,
      "▁kooperatif": 154,
      "▁kırık": 155,
      "▁olanaklarını": 156,
      "▁milyara": 157,
      "▁tokyo": 158,
      "▁burnu": 159,
      "▁yukseltti": 160,
      "kam": 161,
      "▁sizinle": 162,
      "▁maydanoz": 163,
      "▁toplamaya": 164,
      "▁surdugunu": 165,
      "leyecek": 166,
      "▁yalancı": 167,
      "▁ulasımı": 168,
      "▁memnunum": 169,
      "▁dolarda": 170,
      "▁mevzuatı": 171,
      "▁kemanla": 172,
      "lamasını": 173,
      "▁pasap": 174,
      "▁yapıyor": 175,
      "▁acıkca": 176,
      "▁kızgın": 177,
      "lukta": 178,
      "▁yogun": 179,
      "▁bolgenin": 180,
      "▁degist": 181,
      "▁arabasıyla": 182,
      "▁rus": 183,
      "egini": 184,
      "bi": 185,
      "dinden": 186,
      "lesinde": 187,
      "▁nashville": 188,
      "▁ticaretinde": 189,
      "isinde": 190,
      "ediye": 191,
      "▁arkadasim": 192,
      "▁oy": 193,
      "▁aksi": 194,
      "▁golf": 195,
      "▁calismasi": 196,
      "layan": 197,
      "▁nohut": 198,
      "▁karakter": 199,
      "▁kalitesini": 200,
      "acagımı": 201,
      "▁nokt": 202,
      "▁yok": 203,
      "▁lim": 204,
      "▁mulkiyeti": 205,
      "ması": 206,
      "ınır": 207,
      "▁birbirleri": 208,
      "om": 209,
      "▁vot": 210,
      "▁cıkmadı": 211,
      "▁mek": 212,
      "▁olasılıkla": 213,
      "▁kasket": 214,
      "▁ayakkab": 215,
      "▁lan": 216,
      "▁senar": 217,
      "▁aklımdan": 218,
      "▁gelmesini": 219,
      "▁keyfini": 220,
      "▁dolara": 221,
      ".7": 222,
      "▁orij": 223,
      "'li": 224,
      "▁saniye": 225,
      "▁zan": 226,
      "ebilirsiniz": 227,
      "▁ansiklop": 228,
      "ikt": 229,
      "▁duvarda": 230,
      "di": 231,
      "▁e": 232,
      "▁tadına": 233,
      "▁universitesi'nde": 234,
      "▁kusuru": 235,
      "ver": 236,
      "▁sonunda": 237,
      "▁olmustur": 238,
      "▁fez": 239,
      "umu": 240,
      "b.": 241,
      "▁toplam": 242,
      "▁americ": 243,
      "▁aracılar": 244,
      "▁dustu": 245,
      "duk": 246,
      "▁york": 247,
      "▁geldik": 248,
      "▁turkiye'nin": 249,
      "ok": 250,
      "▁yetisk": 251,
      "▁geleneksel": 252,
      "▁gorunus": 253,
      "▁efsanesi": 254,
      "▁indirim": 255,
      "▁bulunan": 256,
      "▁cumhuriyetcilerin": 257,
      "▁yuzbası": 258,
      "▁temas": 259,
      "▁ortada": 260,
      "▁satranc": 261,
      "likler": 262,
      "▁donmek": 263,
      "▁mamafih": 264,
      "▁turev": 265,
      "▁saygıyla": 266,
      "▁yurutme": 267,
      "asinda": 268,
      "▁milletten": 269,
      "▁apart": 270,
      "▁lira": 271,
      "▁united": 272,
      "▁tampa": 273,
      "ene": 274,
      "▁kolon": 275,
      "▁bakmak": 276,
      "▁diger": 277,
      "▁edecegiz": 278,
      "▁serbest": 279,
      "▁gor": 280,
      "log": 281,
      "▁kayg": 282,
      "▁sevgiyi": 283,
      "▁makal": 284,
      "ington": 285,
      "▁kristal": 286,
      "▁yuklen": 287,
      "▁ebeveyn": 288,
      "▁3/8": 289,
      "▁kalktı": 290,
      "▁dayanıs": 291,
      "▁dahası": 292,
      "▁namaz": 293,
      "etidir": 294,
      "▁ogrenciler": 295,
      "▁avaz": 296,
      "▁balıklar": 297,
      "▁komisyonu'nun": 298,
      "▁cehalet": 299,
      "▁stratej": 300,
      "▁amaca": 301,
      "▁cuzdanı": 302,
      "amet": 303,
      "▁dogu": 304,
      "▁cant": 305,
      "beye": 306,
      "▁kaza": 307,
      "▁karp": 308,
      "▁eksikler": 309,
      "▁fiyatları": 310,
      "▁annesinin": 311,
      "▁klas": 312,
      "▁kavus": 313,
      "▁sakaya": 314,
      "▁oldukca": 315,
      "▁pencere": 316,
      "▁almıstı": 317,
      "▁cip": 318,
      "▁olsun": 319,
      "▁ortamı": 320,
      "▁dogrudan": 321,
      "▁kayanın": 322,
      "▁ayaklarının": 323,
      "▁51": 324,
      "▁suratı": 325,
      "lerimin": 326,
      "▁cakı": 327,
      "▁oldugunda": 328,
      "▁karsı": 329,
      "▁rengini": 330,
      "▁sertifikaları": 331,
      "▁seyinden": 332,
      "mıstık": 333,
      "▁kilometre": 334,
      "▁sabun": 335,
      "▁bugun": 336,
      "▁iken": 337,
      "lendirmek": 338,
      "▁koltuklar": 339,
      "▁yaptılar": 340,
      "▁fas": 341,
      "▁vermeyi": 342,
      "▁gozlerimden": 343,
      "▁kulubu": 344,
      "▁hissedarların": 345,
      "▁uzak": 346,
      "▁3.6": 347,
      "▁kitaptan": 348,
      "▁kıc": 349,
      "▁kag": 350,
      "▁den": 351,
      "▁manzarasi": 352,
      "ce": 353,
      "ukluk": 354,
      "▁icraat": 355,
      "▁yunus": 356,
      "▁heyeti": 357,
      "▁adliye": 358,
      "▁tuketic": 359,
      "-a": 360,
      "▁dusurmek": 361,
      "▁malın": 362,
      "▁bitki": 363,
      "▁valilik": 364,
      "▁gecit": 365,
      "▁varması": 366,
      "azın": 367,
      "▁isterdim": 368,
      "▁kahvede": 369,
      "▁kapadı": 370,
      "luyla": 371,
      "rne": 372,
      "▁damla": 373,
      "▁dram": 374,
      "▁aileler": 375,
      "▁aklım": 376,
      "abilecegine": 377,
      "▁ilc": 378,
      "▁fonlar": 379,
      "▁acıklamayı": 380,
      "acagim": 381,
      "ıyorum": 382,
      "▁ep": 383,
      "▁oldugun": 384,
      "▁yemeye": 385,
      "▁pab": 386,
      "ırlar": 387,
      "mamı": 388,
      "▁tatil": 389,
      "▁sıg": 390,
      "▁telgraf": 391,
      "anlarim": 392,
      "▁turdan": 393,
      "00": 394,
      "bas": 395,
      "cıs": 396,
      "klerini": 397,
      "▁cumhuriyetciler": 398,
      "day": 399,
      "▁dilim": 400,
      "▁revizyon": 401,
      "▁mavisi": 402,
      "▁gosterileri": 403,
      "▁sezlong": 404,
      "▁sıra": 405,
      "▁isten": 406,
      "▁varlıgı": 407,
      "▁gucunu": 408,
      "ific": 409,
      "▁tasfiye": 410,
      "▁dusmeye": 411,
      "lasıyor": 412,
      "▁omrunun": 413,
      "mec": 414,
      "▁alıyordu": 415,
      "▁hisselerin": 416,
      "▁buyuklerin": 417,
      "▁santimetre": 418,
      "▁ens": 419,
      "umb": 420,
      "▁lavan": 421,
      "▁lob": 422,
      "▁tedavul": 423,
      "▁etkinlik": 424,
      "ilik": 425,
      "▁kendilerinden": 426,
      "▁vilayet": 427,
      "▁gom": 428,
      "batı": 429,
      "▁sak": 430,
      "▁1989": 431,
      "▁trafigi": 432,
      "zer": 433,
      "▁savunma": 434,
      "eyip": 435,
      "▁mill": 436,
      "▁mustes": 437,
      "▁yardımcıs": 438,
      "▁kum": 439,
      "▁gecir": 440,
      "▁soguktu": 441,
      "utmak": 442,
      "iginde": 443,
      "▁dairesi": 444,
      "▁uste": 445,
      "erb": 446,
      "▁tank": 447,
      "▁saatleri": 448,
      "▁catal": 449,
      "▁atıf": 450,
      "▁mıy": 451,
      "▁degerlendir": 452,
      "tas": 453,
      "▁simdilik": 454,
      "▁numar": 455,
      "um": 456,
      "▁soganı": 457,
      "▁meslektas": 458,
      "▁mektupta": 459,
      "▁rehberi": 460,
      "▁darb": 461,
      "▁cıkacak": 462,
      "▁bilgiye": 463,
      "▁ustur": 464,
      "▁tereyagı": 465,
      "amayacagını": 466,
      "▁alım-satım": 467,
      "▁atolye": 468,
      "ulmaz": 469,
      "▁nefes": 470,
      "▁bagr": 471,
      "▁iltif": 472,
      "▁yanıtını": 473,
      "▁1986": 474,
      "▁dalı": 475,
      "cok": 476,
      "▁acele": 477,
      "▁ın": 478,
      "▁ayrık": 479,
      "▁hesapları": 480,
      "▁nitelikte": 481,
      "se": 482,
      "▁liradan": 483,
      "▁soluc": 484,
      "▁mayın": 485,
      "▁depo": 486,
      "▁yollar": 487,
      "1'den": 488,
      "▁silahlar": 489,
      "▁gosterdi": 490,
      "ıyordum": 491,
      "▁depr": 492,
      "▁pantol": 493,
      "▁54": 494,
      "▁dusmesi": 495,
      "▁memlekette": 496,
      "▁cilt": 497,
      "▁edilecek": 498,
      "▁mak": 499,
      "oyla": 500,
      "▁isletmesi": 501,
      "tt": 502,
      "▁ceyreginde": 503,
      "yalizm": 504,
      "▁...\"": 505,
      "▁baglar": 506,
      "▁cezasına": 507,
      "▁mucevher": 508,
      "▁lisansını": 509,
      "▁benzet": 510,
      "▁birc": 511,
      "yetli": 512,
      "▁misafirin": 513,
      "▁aramız": 514,
      "▁rum": 515,
      "▁planim": 516,
      "▁geceleri": 517,
      "fab": 518,
      "▁hangi": 519,
      "eceklerini": 520,
      "▁cehr": 521,
      "▁acılıs": 522,
      "▁ulası": 523,
      "▁ogretmenleri": 524,
      "▁gogsune": 525,
      "ılıklar": 526,
      "▁ic": 527,
      "▁alnının": 528,
      "memisti": 529,
      "▁bakımdan": 530,
      "▁kitaba": 531,
      "▁tansiyon": 532,
      "alan": 533,
      "c": 534,
      "▁cıkarmak": 535,
      "▁yasamının": 536,
      "▁vucudunu": 537,
      "▁bogaz": 538,
      "▁vakt": 539,
      "▁cincinnati'den": 540,
      "▁degerleri": 541,
      "▁hassas": 542,
      "▁eks": 543,
      "▁dilin": 544,
      "▁gunumuz": 545,
      "▁cıktıgını": 546,
      "▁engelliler": 547,
      "▁buyumesini": 548,
      "▁benzer": 549,
      "▁icermektedir": 550,
      "▁konsol": 551,
      "▁ucuyor": 552,
      "▁lik": 553,
      "▁pervane": 554,
      "▁konforu": 555,
      "▁askere": 556,
      "▁oturmus": 557,
      "▁biriyle": 558,
      "▁sarkılar": 559,
      "▁icindir": 560,
      "▁lyn": 561,
      "▁yonunu": 562,
      "edigini": 563,
      "▁kahveler": 564,
      "▁kırıklıgına": 565,
      "▁gogus": 566,
      "▁durumunda": 567,
      "▁degerini": 568,
      "▁ba": 569,
      "isler": 570,
      "▁nazır": 571,
      "▁tabl": 572,
      "-p": 573,
      "▁beb": 574,
      "▁karsil": 575,
      "egor": 576,
      "▁hasıl": 577,
      ".125": 578,
      "▁krizinden": 579,
      "8": 580,
      "▁romanc": 581,
      "lerim": 582,
      "kus": 583,
      "▁mor": 584,
      "▁cer": 585,
      "▁lod": 586,
      "▁yazarlık": 587,
      "▁miktar": 588,
      "▁ihtiyaci": 589,
      "▁egitimi": 590,
      "▁kaybedenleri": 591,
      "▁bayramı": 592,
      "▁boslukta": 593,
      "▁parcalara": 594,
      "ht": 595,
      "▁portakal": 596,
      "dugunu": 597,
      "▁yuregi": 598,
      "indedir": 599,
      "▁yerlestir": 600,
      "katli": 601,
      "yete": 602,
      "▁armagan": 603,
      "▁contin": 604,
      "▁gotur": 605,
      "▁gelismeler": 606,
      "▁getirmis": 607,
      "imore": 608,
      "▁havanın": 609,
      "▁oldug": 610,
      "▁endustr": 611,
      "▁sonra": 612,
      "▁guzele": 613,
      "▁kartı": 614,
      "▁oku": 615,
      "8'e": 616,
      "▁basına": 617,
      "▁yuvarlak": 618,
      "▁niteliginde": 619,
      "▁koylulerin": 620,
      "▁oturup": 621,
      "▁dum": 622,
      "▁mikro": 623,
      "ırda": 624,
      "line": 625,
      "▁hi": 626,
      "▁sampanya": 627,
      "otif": 628,
      "▁sekret": 629,
      "▁sahib": 630,
      "abilmek": 631,
      "▁adina": 632,
      "▁mevzu": 633,
      "▁egz": 634,
      "▁koluna": 635,
      "▁yazılar": 636,
      "▁calıstıklarını": 637,
      "▁nu": 638,
      "iniz": 639,
      "▁rıh": 640,
      "▁kayısı": 641,
      "5": 642,
      "▁kodu": 643,
      "adır": 644,
      "▁saka": 645,
      "▁onayı": 646,
      "▁mendil": 647,
      "▁elle": 648,
      "▁saldırgan": 649,
      "▁pahal": 650,
      "▁nesil": 651,
      "▁bi": 652,
      "▁sad": 653,
      "▁sube": 654,
      "▁yurek": 655,
      "por": 656,
      "▁babası": 657,
      "▁sektorunde": 658,
      "▁boynu": 659,
      "yuzlu": 660,
      "▁bed": 661,
      "▁karsıl": 662,
      "▁yuk": 663,
      "▁kotuydu": 664,
      "▁diyet": 665,
      "▁lor": 666,
      "▁sunu": 667,
      "▁bilegini": 668,
      "▁gavur": 669,
      "▁vah": 670,
      "▁corp": 671,
      "▁lig": 672,
      "ahh": 673,
      "▁aptal": 674,
      "▁tavsiy": 675,
      "▁kuması": 676,
      "▁yag": 677,
      "▁olayla": 678,
      "▁yapılıyor": 679,
      "eliler": 680,
      "▁tedavuldeki": 681,
      "xpr": 682,
      "▁motorun": 683,
      "acagım": 684,
      "▁tavsiyesi": 685,
      "▁kucak": 686,
      "▁gezer": 687,
      "larla": 688,
      "ografi": 689,
      "▁huner": 690,
      "▁donuyor": 691,
      "▁cıkısı": 692,
      "▁ilkeleri": 693,
      "anın": 694,
      "▁heyet": 695,
      "▁verilmesi": 696,
      "▁onundeki": 697,
      "yag": 698,
      "▁ustası": 699,
      "▁saclarının": 700,
      "▁hibe": 701,
      "▁akım": 702,
      "▁olmasına": 703,
      "tası": 704,
      "6'da": 705,
      "▁naz": 706,
      "▁annesine": 707,
      "iligine": 708,
      "▁``": 709,
      "eligini": 710,
      "melerine": 711,
      "▁aktif": 712,
      "▁konusuyor": 713,
      "▁los": 714,
      "▁'": 715,
      "▁yillardir": 716,
      "▁il": 717,
      "▁durus": 718,
      "▁ruyalar": 719,
      "▁masanın": 720,
      "▁izm": 721,
      "▁tuttum": 722,
      "▁karanlık": 723,
      "cagım": 724,
      "▁en": 725,
      "▁%7": 726,
      "▁akın": 727,
      "▁street": 728,
      "▁pot": 729,
      "▁cıktıktan": 730,
      "▁oranlarını": 731,
      "▁dogdu": 732,
      "▁%2": 733,
      "▁degerlerin": 734,
      "▁tablolar": 735,
      "▁gunde": 736,
      ":": 737,
      "▁prov": 738,
      "▁daglarda": 739,
      "▁seyden": 740,
      "rı": 741,
      "▁zamanla": 742,
      "▁huy": 743,
      "▁balıkcılık": 744,
      "▁daireleri": 745,
      "▁ard": 746,
      "▁yolculuk": 747,
      "▁sebze": 748,
      "▁yenden": 749,
      "▁mukemm": 750,
      "▁gosterisi": 751,
      "▁ilet": 752,
      "nan": 753,
      "hal": 754,
      "▁banyo": 755,
      "▁yapması": 756,
      "▁konusmasını": 757,
      "ziv": 758,
      "▁kurumlar": 759,
      "▁yapılmıs": 760,
      "▁hatıraları": 761,
      "50'": 762,
      "'daki": 763,
      "▁siir": 764,
      "yıf": 765,
      "▁kaynaklar": 766,
      "▁hamur": 767,
      "▁efsan": 768,
      "▁goruyordu": 769,
      "▁aksamları": 770,
      "▁birbirimiz": 771,
      "▁sp": 772,
      "▁ediyoruz": 773,
      "▁kurumun": 774,
      "lestir": 775,
      "▁arab": 776,
      "▁itaat": 777,
      "▁kambiyo": 778,
      "▁minimini": 779,
      "▁anlasmanın": 780,
      "▁sorun": 781,
      "uyu": 782,
      "▁fah": 783,
      "▁intikam": 784,
      "burgh": 785,
      "▁yon": 786,
      "▁kati": 787,
      "a'da": 788,
      "nd": 789,
      "mafi": 790,
      "▁mukelle": 791,
      "▁davaları": 792,
      "ipler": 793,
      "▁ucusların": 794,
      "▁aramıza": 795,
      "umuze": 796,
      "▁kanalı": 797,
      "▁odemesi": 798,
      "▁muhend": 799,
      "!": 800,
      "ciligin": 801,
      "▁klim": 802,
      "▁keb": 803,
      "▁kurumların": 804,
      "▁plaj": 805,
      "▁pay": 806,
      "▁unsur": 807,
      "…": 808,
      "idin": 809,
      "▁durumlarda": 810,
      "ısır": 811,
      "▁ulasım": 812,
      "mesinde": 813,
      "▁55": 814,
      "▁huv": 815,
      "▁vef": 816,
      "▁dusman": 817,
      "al'ın": 818,
      "▁dc'ye": 819,
      "▁guv": 820,
      "ums": 821,
      "▁zamanlarda": 822,
      "▁kucagında": 823,
      "▁cama": 824,
      "▁ellerim": 825,
      "sızlık": 826,
      "▁onayladı": 827,
      "▁korku": 828,
      "▁kıvır": 829,
      "▁ikti": 830,
      "▁davayı": 831,
      "liyor": 832,
      "▁sorununu": 833,
      "▁vaktini": 834,
      "▁tavuklar": 835,
      "▁sanız": 836,
      "▁teklifine": 837,
      "▁loca": 838,
      "ub": 839,
      "▁idareye": 840,
      "▁sonda": 841,
      "▁izley": 842,
      "▁bib": 843,
      "▁mucadele": 844,
      "▁mı": 845,
      "ugu": 846,
      "▁uyeye": 847,
      "▁seye": 848,
      "▁butu": 849,
      "▁gozuk": 850,
      "▁arttıgını": 851,
      "▁bur": 852,
      "▁ucusunda": 853,
      "tan": 854,
      "▁takımın": 855,
      "▁sorunlar": 856,
      "▁calıs": 857,
      "▁sonucunda": 858,
      "▁washington'a": 859,
      "▁bulten": 860,
      "▁amiri": 861,
      "▁duyuyorum": 862,
      "▁kendimiz": 863,
      "▁gulums": 864,
      "▁secil": 865,
      "▁iskele": 866,
      "▁tem": 867,
      "▁yuzu": 868,
      "▁yasamı": 869,
      "udum": 870,
      "irken": 871,
      "▁oak": 872,
      "iyeler": 873,
      "lenmis": 874,
      "▁tatilde": 875,
      "▁dr.": 876,
      "asındaki": 877,
      "'yi": 878,
      "▁olcut": 879,
      "▁sermaye": 880,
      "▁evinden": 881,
      "▁universiteye": 882,
      "▁partisi": 883,
      "▁edilmis": 884,
      "▁albumu": 885,
      "dal": 886,
      "▁turkce": 887,
      "meyle": 888,
      "▁koskun": 889,
      "asıydı": 890,
      "ecektim": 891,
      "var": 892,
      "▁zul": 893,
      "▁kiz": 894,
      "▁bıraktı": 895,
      "▁istah": 896,
      "▁kagıda": 897,
      "▁doz": 898,
      "▁odasına": 899,
      "▁tezk": 900,
      "▁ertelen": 901,
      "▁deneyimi": 902,
      "+": 903,
      "▁50'": 904,
      "▁10'dan": 905,
      "▁kepenk": 906,
      "iyeri": 907,
      "▁ro": 908,
      "▁zek": 909,
      "▁listeleyebilir": 910,
      "lıkları": 911,
      "▁demiryol": 912,
      "▁oburu": 913,
      "▁kartel": 914,
      "▁ayda": 915,
      "urken": 916,
      "lge": 917,
      "▁airlines": 918,
      "▁buny": 919,
      "▁itiraf": 920,
      "▁inceleme": 921,
      "▁sablon": 922,
      "lasmıs": 923,
      "ston": 924,
      "▁agzına": 925,
      "cılarının": 926,
      "ikat": 927,
      "▁pa": 928,
      "uluk": 929,
      "▁belirsizlik": 930,
      "▁gosterg": 931,
      "▁spekulasyonlar": 932,
      "cik": 933,
      "lendirdi": 934,
      "▁oden": 935,
      "▁fikri": 936,
      "ulan": 937,
      "▁inziv": 938,
      "▁kızdır": 939,
      "iyel": 940,
      "iren": 941,
      "▁babasına": 942,
      "▁veremem": 943,
      "▁alıcı": 944,
      "▁emir": 945,
      "▁mustesar": 946,
      "▁havaliman": 947,
      "▁filmin": 948,
      "▁washington'dan": 949,
      "▁surpriz": 950,
      "hti": 951,
      "▁sonuclar": 952,
      "'nın": 953,
      "▁muhtac": 954,
      "▁temsilcisi": 955,
      "▁sopa": 956,
      "▁odalari": 957,
      "▁gencler": 958,
      "▁or": 959,
      "▁yararlı": 960,
      "at": 961,
      "▁ydi": 962,
      "▁ister": 963,
      "▁mesajı": 964,
      "ılabil": 965,
      "ett": 966,
      "▁yazmaya": 967,
      "▁600": 968,
      "▁isaretler": 969,
      "▁gerec": 970,
      "▁ilgiliydiler": 971,
      "▁babamın": 972,
      "▁bekledigini": 973,
      "▁yonetiminde": 974,
      "▁olusu": 975,
      "▁fık": 976,
      "alarımı": 977,
      "▁kon": 978,
      "▁asagıda": 979,
      "istel": 980,
      "▁nuk": 981,
      "ininin": 982,
      "▁cumle": 983,
      "▁kardeslik": 984,
      "▁girisimler": 985,
      "▁baskalarına": 986,
      "▁gorusmelerin": 987,
      "agının": 988,
      "iyeti": 989,
      "▁ortalamaydi": 990,
      "▁panige": 991,
      "iyim": 992,
      "▁mutlu": 993,
      "▁ortusu": 994,
      "▁sokaklara": 995,
      "▁meselesi": 996,
      "▁talimat": 997,
      "▁mask": 998,
      "aren": 999,
      "mayla": 1000,
      "▁neyse": 1001,
      "▁dert": 1002,
      "▁alanın": 1003,
      "▁ozellikleri": 1004,
      "aklar": 1005,
      "▁sarkıyı": 1006,
      "▁merdiven": 1007,
      "▁cih": 1008,
      "▁tamam": 1009,
      "▁organı": 1010,
      "▁fakul": 1011,
      "▁atlanta": 1012,
      "▁ayse": 1013,
      "▁nar": 1014,
      "▁soyluyor": 1015,
      "7'den": 1016,
      "▁yazarlarının": 1017,
      "▁endustriyel": 1018,
      "▁sitem": 1019,
      "▁kasık": 1020,
      "aden": 1021,
      "▁koruma": 1022,
      "etro": 1023,
      "▁kıymet": 1024,
      "▁sucu": 1025,
      "▁memnuniyet": 1026,
      "tıgımı": 1027,
      "▁menkul": 1028,
      "▁kisi": 1029,
      "▁baglan": 1030,
      "▁sacları": 1031,
      "▁maz": 1032,
      "▁duyar": 1033,
      "in": 1034,
      "▁diego'dan": 1035,
      "ısıklı": 1036,
      "▁daya": 1037,
      "red": 1038,
      "▁dair": 1039,
      "▁spekulator": 1040,
      "▁halıları": 1041,
      "ime": 1042,
      "▁hayali": 1043,
      "abiliyor": 1044,
      "▁sırada": 1045,
      "▁omzuna": 1046,
      "'ya": 1047,
      "▁verdim": 1048,
      "▁simgesi": 1049,
      "▁yolunu": 1050,
      "▁dosyada": 1051,
      "▁keyifli": 1052,
      "isi": 1053,
      "▁kileri": 1054,
      "▁kubb": 1055,
      "▁farkı": 1056,
      "▁merak": 1057,
      "▁getirilerin": 1058,
      "ararak": 1059,
      "▁kurus": 1060,
      "landıgında": 1061,
      "▁las": 1062,
      "▁onsu": 1063,
      "▁topa": 1064,
      "▁hakika": 1065,
      "▁nobet": 1066,
      "▁spot": 1067,
      "▁seattle": 1068,
      "▁dola": 1069,
      "▁fırsatı": 1070,
      "▁nav": 1071,
      "▁araplar": 1072,
      "enc": 1073,
      "▁istiyorlar": 1074,
      "▁temmuz": 1075,
      "▁yonetimler": 1076,
      "▁tadı": 1077,
      "▁isminde": 1078,
      "▁edebiyat": 1079,
      "▁surecte": 1080,
      "▁magdur": 1081,
      "▁girisimi": 1082,
      "▁ipotek": 1083,
      "▁bagımlılık": 1084,
      "▁musa": 1085,
      "▁islerinde": 1086,
      "▁sektoru": 1087,
      "mislerdir": 1088,
      "▁yemekte": 1089,
      "▁pam": 1090,
      "▁senetlerinin": 1091,
      "▁tuh": 1092,
      "▁mevki": 1093,
      "▁sovyetler": 1094,
      "▁cıkmıs": 1095,
      "▁askeri": 1096,
      "▁hurriyet": 1097,
      "▁apartmana": 1098,
      "▁fot": 1099,
      "▁catısma": 1100,
      "▁tedbiri": 1101,
      "▁aleme": 1102,
      "▁parcalar": 1103,
      "▁ihracatı": 1104,
      "▁zorunlu": 1105,
      "▁hokkabaz": 1106,
      "▁pamuk": 1107,
      "▁dususten": 1108,
      "cısı": 1109,
      "▁kara": 1110,
      "▁diego'ya": 1111,
      "▁prim": 1112,
      "mamak": 1113,
      "▁kuvvetin": 1114,
      "▁cid": 1115,
      "miz": 1116,
      "▁kalkın": 1117,
      "▁kilim": 1118,
      "▁balıkcı": 1119,
      "▁grupların": 1120,
      "▁doktorlar": 1121,
      "▁teblig": 1122,
      "▁astı": 1123,
      "▁iliskinin": 1124,
      "▁refakat": 1125,
      "engin": 1126,
      "▁ti": 1127,
      "▁bana": 1128,
      "▁annesi": 1129,
      "▁carsaflar": 1130,
      "▁arif": 1131,
      "ing": 1132,
      "net": 1133,
      "6": 1134,
      "▁dır": 1135,
      "▁yumruk": 1136,
      "▁asama": 1137,
      "lıga": 1138,
      "▁metrek": 1139,
      "oglu": 1140,
      "▁pit": 1141,
      "▁birligi'nin": 1142,
      "▁cekic": 1143,
      "▁sınıfa": 1144,
      ".375": 1145,
      "▁endiseler": 1146,
      "7'de": 1147,
      "cılıgı": 1148,
      "▁modeller": 1149,
      "yanın": 1150,
      "yol": 1151,
      "sı": 1152,
      "▁yorgunluktan": 1153,
      "▁etmekte": 1154,
      "eyr": 1155,
      "▁havuc": 1156,
      "mısım": 1157,
      "lastik": 1158,
      "▁barda": 1159,
      "▁dusecegini": 1160,
      "▁buyukel": 1161,
      "▁diken": 1162,
      "eveyn": 1163,
      "rken": 1164,
      "▁dekorasyonu": 1165,
      "▁yasamında": 1166,
      "atli": 1167,
      "▁kaydet": 1168,
      "▁gelin": 1169,
      "▁teknolojiye": 1170,
      "suzluk": 1171,
      "lanmayı": 1172,
      "▁yumurt": 1173,
      "35": 1174,
      "deri": 1175,
      "▁lev": 1176,
      "▁sadakat": 1177,
      "▁must": 1178,
      "on": 1179,
      "▁olay": 1180,
      "▁tanr": 1181,
      "▁oncesine": 1182,
      "ıklarını": 1183,
      "▁dilinden": 1184,
      "▁soylesi": 1185,
      "dugumu": 1186,
      "▁aralık'ta": 1187,
      "asti": 1188,
      "▁yorgun": 1189,
      "▁telefonun": 1190,
      "▁airlin": 1191,
      "▁ipin": 1192,
      "▁yep": 1193,
      "man": 1194,
      "▁seferinde": 1195,
      "▁cagır": 1196,
      "▁durumunun": 1197,
      "▁numara": 1198,
      "▁soygun": 1199,
      "▁kims": 1200,
      "▁depremde": 1201,
      "▁hapishane": 1202,
      "▁kudret": 1203,
      "▁isaretleri": 1204,
      "layacagını": 1205,
      "▁kopuk": 1206,
      "▁muy": 1207,
      "kanlıgı": 1208,
      "▁mahp": 1209,
      "gn": 1210,
      "▁ziy": 1211,
      "▁sahilde": 1212,
      "▁sirketlerin": 1213,
      "▁savundu": 1214,
      "▁mevcuttur": 1215,
      "msiz": 1216,
      "▁kilit": 1217,
      "ustu": 1218,
      "▁gecmis": 1219,
      "tis": 1220,
      "lı": 1221,
      "▁atıp": 1222,
      "▁kredileri": 1223,
      "ik": 1224,
      "▁yapmak": 1225,
      "▁sorar": 1226,
      "indan": 1227,
      "▁gulus": 1228,
      "▁yenilik": 1229,
      "▁resep": 1230,
      "dırarak": 1231,
      "▁etmiyordu": 1232,
      "▁sarap": 1233,
      "▁kuzey": 1234,
      "▁dr": 1235,
      "id": 1236,
      "▁oynama": 1237,
      "▁azal": 1238,
      "▁yalan": 1239,
      "▁lokasyonu": 1240,
      "▁gorevine": 1241,
      "▁ormanı": 1242,
      "▁kirlilik": 1243,
      "▁pec": 1244,
      "irin": 1245,
      "▁guvercin": 1246,
      "▁restoranlar": 1247,
      "layarak": 1248,
      "▁cıkarma": 1249,
      "▁tufek": 1250,
      "▁bilmem": 1251,
      "▁3\\/4": 1252,
      "▁aracılıgıyla": 1253,
      "▁sanduk": 1254,
      "▁memleketin": 1255,
      "▁sov": 1256,
      "▁karıstırın": 1257,
      "▁aradilar": 1258,
      "▁rakib": 1259,
      "angoz": 1260,
      "▁diyorum": 1261,
      "▁pesin": 1262,
      "ve": 1263,
      "▁inanmak": 1264,
      "aset": 1265,
      "odr": 1266,
      "▁hastalıgın": 1267,
      "▁ugultu": 1268,
      "▁1.2": 1269,
      "amıyorum": 1270,
      "5'e": 1271,
      "▁ceviri": 1272,
      "▁mukaf": 1273,
      "▁dusmanları": 1274,
      "ivers": 1275,
      "▁kurallara": 1276,
      "▁avize": 1277,
      "▁oyunc": 1278,
      "▁tanıt": 1279,
      "oksa": 1280,
      "▁asci": 1281,
      "▁sigarasını": 1282,
      "liler": 1283,
      "▁saglayacak": 1284,
      "ttı": 1285,
      "▁halefi": 1286,
      "▁bilgilerine": 1287,
      "▁nedenlerle": 1288,
      "▁muayen": 1289,
      "▁ar": 1290,
      "▁pil": 1291,
      "▁kenara": 1292,
      "ledi": 1293,
      "▁birimleri": 1294,
      "▁yurtd": 1295,
      "▁temp": 1296,
      "▁kahv": 1297,
      "iden": 1298,
      "▁sabit": 1299,
      "▁ameliyat": 1300,
      "▁gezinti": 1301,
      "▁insul": 1302,
      "▁manası": 1303,
      "▁faaliyetlerden": 1304,
      "▁dususe": 1305,
      "cılarla": 1306,
      "▁ug": 1307,
      "edikleri": 1308,
      "▁zihn": 1309,
      "▁ec": 1310,
      "▁hasar": 1311,
      "estirdi": 1312,
      "▁gordugum": 1313,
      "▁sokakları": 1314,
      "▁departmanı": 1315,
      "▁hitap": 1316,
      "▁eseri": 1317,
      "▁etek": 1318,
      "▁gruplar": 1319,
      "ous": 1320,
      "yumda": 1321,
      "▁newark'tan": 1322,
      "▁fr": 1323,
      "alle": 1324,
      "▁basarili": 1325,
      "▁heyecanla": 1326,
      "▁mers": 1327,
      "▁ara": 1328,
      "▁yardımı": 1329,
      "cılık": 1330,
      "culuk": 1331,
      "▁sıcaklık": 1332,
      "▁makin": 1333,
      "▁yarıs": 1334,
      "▁degeri": 1335,
      "▁iftir": 1336,
      "civert": 1337,
      "▁agaclar": 1338,
      "/8'den": 1339,
      "tam": 1340,
      "▁tımar": 1341,
      "▁kolayını": 1342,
      "▁bircok": 1343,
      "▁houston": 1344,
      "▁iyi": 1345,
      "▁kalan": 1346,
      "▁bahceyi": 1347,
      "ali": 1348,
      "▁vekil": 1349,
      "▁gundem": 1350,
      "▁yemeklerini": 1351,
      "▁(": 1352,
      "▁oylama": 1353,
      "qu": 1354,
      "▁vefat": 1355,
      "▁ortaydi": 1356,
      "▁hakkına": 1357,
      "▁anlatıyor": 1358,
      "▁iddi": 1359,
      "▁eldiv": 1360,
      "▁gogs": 1361,
      "▁kırıklıgı": 1362,
      "▁agrı": 1363,
      "▁ihtimalle": 1364,
      "▁inancı": 1365,
      "▁kartal": 1366,
      "▁brons": 1367,
      "▁plajda": 1368,
      "hi": 1369,
      "▁kusun": 1370,
      "▁bazı": 1371,
      "▁bagın": 1372,
      "tarı": 1373,
      "ladı": 1374,
      "▁islemlerini": 1375,
      "▁vicdan": 1376,
      "▁pilotlar": 1377,
      "▁borsada": 1378,
      "ayıf": 1379,
      "▁1.0": 1380,
      "▁orlando'dan": 1381,
      "▁otoy": 1382,
      "▁hot": 1383,
      "▁kulliyat": 1384,
      "▁derecelendirme": 1385,
      "▁bakımından": 1386,
      "▁taze": 1387,
      "▁niyeti": 1388,
      "▁kontrolunu": 1389,
      "esi'ne": 1390,
      "eni": 1391,
      "▁evlat": 1392,
      "▁katıl": 1393,
      "▁alabilecegini": 1394,
      "ital": 1395,
      "▁guvenli": 1396,
      "▁ruyamda": 1397,
      "etr": 1398,
      "▁gev": 1399,
      "▁dokun": 1400,
      "▁doc": 1401,
      "▁yanını": 1402,
      "▁izledi": 1403,
      "▁album": 1404,
      "▁gorusunu": 1405,
      "▁ickiler": 1406,
      "▁siddetli": 1407,
      "▁duz": 1408,
      "▁he": 1409,
      "enden": 1410,
      "▁murat": 1411,
      "▁sa": 1412,
      "talık": 1413,
      "▁dumanı": 1414,
      "▁temmuz'da": 1415,
      "▁azalması": 1416,
      "▁tasım": 1417,
      "▁ascı": 1418,
      "▁bıy": 1419,
      "▁pusul": 1420,
      "▁eyleme": 1421,
      "▁mektuplar": 1422,
      "▁dant": 1423,
      "▁rapor": 1424,
      "ustum": 1425,
      "▁oluyordu": 1426,
      "ılmak": 1427,
      "lerle": 1428,
      "▁kurtardı": 1429,
      "▁gob": 1430,
      "▁harita": 1431,
      "▁baglama": 1432,
      "▁mektebe": 1433,
      "▁sahipleri": 1434,
      "▁2.4": 1435,
      "▁end": 1436,
      "▁bagımlılıgı": 1437,
      "▁yazın": 1438,
      "▁mevsim": 1439,
      "umdan": 1440,
      "▁kabuk": 1441,
      "▁kızı": 1442,
      "▁secen": 1443,
      "▁franch": 1444,
      "▁arabul": 1445,
      "p'nin": 1446,
      "▁sektorun": 1447,
      "▁bahs": 1448,
      "▁tesir": 1449,
      "▁sanat": 1450,
      "▁gidi": 1451,
      "▁patlıcan": 1452,
      "enuz": 1453,
      "▁veto": 1454,
      "yabilir": 1455,
      "lendigini": 1456,
      "▁doneminin": 1457,
      "▁tuvaletler": 1458,
      "▁lid": 1459,
      "uye": 1460,
      "▁dusurmeye": 1461,
      "larında": 1462,
      "▁etrafını": 1463,
      "▁nakliy": 1464,
      "▁olanaklarini": 1465,
      "▁saraydan": 1466,
      "▁bulutlar": 1467,
      "▁zamanında": 1468,
      "suzlugunu": 1469,
      "or": 1470,
      "anlı": 1471,
      "▁evrende": 1472,
      "#": 1473,
      "▁malumat": 1474,
      "▁butc": 1475,
      "▁yans": 1476,
      "arası": 1477,
      "▁anket": 1478,
      "usunun": 1479,
      "iklik": 1480,
      "▁iceriden": 1481,
      "▁kıyısında": 1482,
      "ekt": 1483,
      "▁300": 1484,
      "▁soy": 1485,
      "▁yarım": 1486,
      "▁stand": 1487,
      "▁arkadasimla": 1488,
      "▁arabalar": 1489,
      "▁yapmad": 1490,
      "▁tesaduf": 1491,
      "▁husus": 1492,
      "isiyle": 1493,
      "▁piyas": 1494,
      "▁kısım": 1495,
      "ati": 1496,
      "▁kuslar": 1497,
      "▁cakıl": 1498,
      "▁kardesimin": 1499,
      "▁tebrik": 1500,
      "ukla": 1501,
      "▁cinc": 1502,
      "▁hizmetlerinin": 1503,
      "▁is": 1504,
      "ırıp": 1505,
      "▁ih": 1506,
      "▁gozda": 1507,
      "▁kavramının": 1508,
      "▁salas": 1509,
      "▁aquaparki": 1510,
      "▁aray": 1511,
      "▁emel": 1512,
      "iyla": 1513,
      "▁1992": 1514,
      "amiza": 1515,
      "▁gelir": 1516,
      "▁pencereden": 1517,
      "▁mes": 1518,
      "▁alt": 1519,
      "▁okuyucu": 1520,
      "▁kerp": 1521,
      "▁bey": 1522,
      "▁anlamak": 1523,
      "▁24": 1524,
      "▁hurmet": 1525,
      "▁karak": 1526,
      "▁edecegini": 1527,
      "▁dayanır": 1528,
      "▁kullanıl": 1529,
      "▁arkadasının": 1530,
      "▁gosteren": 1531,
      "▁portf": 1532,
      "▁200": 1533,
      "▁ef": 1534,
      "lasan": 1535,
      "▁ardına": 1536,
      "▁bin": 1537,
      "▁cerceveyi": 1538,
      "▁parkın": 1539,
      "▁seyh": 1540,
      "▁qu": 1541,
      "▁hıckır": 1542,
      ">": 1543,
      "▁satıslardan": 1544,
      "▁serg": 1545,
      "▁belki": 1546,
      "▁baslamıs": 1547,
      "▁turuna": 1548,
      "▁ark": 1549,
      "lanı": 1550,
      "tıgı": 1551,
      "▁islemi": 1552,
      "▁satım": 1553,
      "lesinin": 1554,
      "▁saglıklı": 1555,
      "▁vasıf": 1556,
      "▁karakol": 1557,
      "▁aleyhinde": 1558,
      "ayacak": 1559,
      "tiler": 1560,
      "▁beklem": 1561,
      "suzlugun": 1562,
      "▁yardıma": 1563,
      "iligi": 1564,
      "masında": 1565,
      "▁donmeye": 1566,
      "▁sakınca": 1567,
      "▁cebinden": 1568,
      "usten": 1569,
      "▁kavr": 1570,
      "51": 1571,
      "yaları": 1572,
      "ssa": 1573,
      "esizdi": 1574,
      "▁gurur": 1575,
      "▁gelmeyi": 1576,
      "▁saatine": 1577,
      "▁arabanın": 1578,
      "▁yasaları": 1579,
      "▁edemey": 1580,
      "▁soyleyin": 1581,
      "▁sınav": 1582,
      "▁bilez": 1583,
      "▁ta": 1584,
      "▁birbirleriyle": 1585,
      "▁cagın": 1586,
      "elikle": 1587,
      "▁elde": 1588,
      "▁dusunmedigini": 1589,
      "▁basvur": 1590,
      "▁sayfa": 1591,
      "▁soylenti": 1592,
      "▁eleman": 1593,
      "▁=": 1594,
      "▁duyur": 1595,
      "▁his": 1596,
      "▁r": 1597,
      "▁belediye": 1598,
      "piyat": 1599,
      "▁68": 1600,
      "'u": 1601,
      "a": 1602,
      "▁gelinceye": 1603,
      "▁erkege": 1604,
      "▁pazarının": 1605,
      "▁columbus": 1606,
      "▁bulunur": 1607,
      "▁yit": 1608,
      "▁olimpiyat": 1609,
      "▁etiket": 1610,
      "▁canım": 1611,
      "▁saygısız": 1612,
      "▁istifaya": 1613,
      "▁jandarma": 1614,
      "▁fonları": 1615,
      "▁cevresi": 1616,
      "▁sicakti": 1617,
      "▁varlıklar": 1618,
      "▁seslerini": 1619,
      "▁vatand": 1620,
      "▁yken": 1621,
      "▁fa": 1622,
      "▁olmaması": 1623,
      "▁yang": 1624,
      "esen": 1625,
      "▁dinle": 1626,
      "▁cevirmek": 1627,
      "▁orani": 1628,
      "▁beyef": 1629,
      "▁aslan": 1630,
      "▁harcamalar": 1631,
      "▁sınırlı": 1632,
      "▁ulkesinde": 1633,
      "larımızın": 1634,
      "▁dekorasyon": 1635,
      "▁meydanı": 1636,
      "uguna": 1637,
      "▁rekabetin": 1638,
      "allı": 1639,
      "▁arada": 1640,
      "▁talip": 1641,
      "▁oranları": 1642,
      "▁yuku": 1643,
      "▁elektronik": 1644,
      "▁sunum": 1645,
      "▁koy": 1646,
      "▁ani": 1647,
      "▁toh": 1648,
      "▁ima": 1649,
      "▁adamların": 1650,
      "▁lerin": 1651,
      "▁national": 1652,
      "▁konustu": 1653,
      "mazlık": 1654,
      "▁baskanlık": 1655,
      "▁adamcagız": 1656,
      "▁kud": 1657,
      "▁cıkarmayı": 1658,
      "egimi": 1659,
      "esap": 1660,
      "ıntıları": 1661,
      "▁esyalarını": 1662,
      "▁dalgası": 1663,
      "▁sozles": 1664,
      "/3": 1665,
      "▁dallarını": 1666,
      "▁vasatti": 1667,
      "▁sanay": 1668,
      "kilerden": 1669,
      "▁verdik": 1670,
      "ch": 1671,
      "▁dolap": 1672,
      "▁bugday": 1673,
      "▁surdurdu": 1674,
      "▁gostergesi": 1675,
      "▁kadav": 1676,
      "▁uzerindeydi": 1677,
      "▁gelme": 1678,
      "▁defasında": 1679,
      "▁agrıları": 1680,
      "▁girisimleri": 1681,
      "abının": 1682,
      "▁dizlerine": 1683,
      "▁satın": 1684,
      "▁marj": 1685,
      "▁baslarda": 1686,
      "▁gam": 1687,
      "ergah": 1688,
      "▁yapım": 1689,
      "▁katında": 1690,
      "▁hakkını": 1691,
      "▁seyahate": 1692,
      "▁temizligini": 1693,
      "▁sivil": 1694,
      "▁inc.": 1695,
      "▁misafirimiz": 1696,
      "atını": 1697,
      "▁tahv": 1698,
      "▁kazandı": 1699,
      "▁cogun": 1700,
      "▁icini": 1701,
      "▁raf": 1702,
      "▁cumleleri": 1703,
      "▁nez": 1704,
      "▁kayıt": 1705,
      "▁elinin": 1706,
      "▁cekilm": 1707,
      "▁sedy": 1708,
      "▁kelimelere": 1709,
      "▁ucretle": 1710,
      "▁denge": 1711,
      "▁yerlerden": 1712,
      "▁gucluk": 1713,
      "▁devral": 1714,
      "▁incir": 1715,
      "anlık": 1716,
      "▁mırıl": 1717,
      "naya": 1718,
      "▁dol": 1719,
      "▁dinlemek": 1720,
      "dikce": 1721,
      "▁ihracı": 1722,
      "▁ufakti": 1723,
      "eci": 1724,
      "▁verilir": 1725,
      "▁calisanlarin": 1726,
      "▁begendik": 1727,
      "▁kimya": 1728,
      "▁fet": 1729,
      "▁yeterli": 1730,
      "▁kadınlara": 1731,
      "▁iscilerin": 1732,
      "▁saatlere": 1733,
      "▁olmaya": 1734,
      "amam": 1735,
      "▁basarısız": 1736,
      "▁uyarı": 1737,
      "▁yuzyılın": 1738,
      "▁okuz": 1739,
      "ansız": 1740,
      "▁milleti": 1741,
      "edil": 1742,
      "kunu": 1743,
      "aba": 1744,
      "casına": 1745,
      "▁iste": 1746,
      "▁oyuncusu": 1747,
      "▁koltuguna": 1748,
      "onelik": 1749,
      "yabil": 1750,
      "▁ayrıntılarıyla": 1751,
      "▁hesaptan": 1752,
      "▁mintan": 1753,
      "▁gum": 1754,
      "▁teminat": 1755,
      ".m": 1756,
      "▁bilesik": 1757,
      "leye": 1758,
      "▁saha": 1759,
      "▁kaldır": 1760,
      "▁lokasyon": 1761,
      "▁cizg": 1762,
      "▁icra": 1763,
      "▁hayattan": 1764,
      "▁kimyasal": 1765,
      "es": 1766,
      "▁televizyona": 1767,
      "▁hukm": 1768,
      "▁yatırımı": 1769,
      "▁margar": 1770,
      "ba": 1771,
      "anmak": 1772,
      "▁polem": 1773,
      "▁akt": 1774,
      "▁konusmaya": 1775,
      "irim": 1776,
      "▁musluman": 1777,
      "▁129": 1778,
      "▁avluya": 1779,
      "ırtıcı": 1780,
      "pul": 1781,
      "▁sahipligi": 1782,
      "▁sembol": 1783,
      "satı": 1784,
      "▁ustumuze": 1785,
      "▁sofor": 1786,
      "▁musik": 1787,
      "▁yapmıstı": 1788,
      "astır": 1789,
      "'nde": 1790,
      "▁giyim": 1791,
      "luga": 1792,
      "▁sirkette": 1793,
      "▁isle": 1794,
      "▁mens": 1795,
      "▁faz": 1796,
      "▁hizmetinden": 1797,
      "▁masasına": 1798,
      "memize": 1799,
      "oludur": 1800,
      "▁verilm": 1801,
      "▁tarihli": 1802,
      "edi": 1803,
      "▁fu": 1804,
      "▁alttan": 1805,
      "▁acım": 1806,
      "fı": 1807,
      "▁bitiyor": 1808,
      "enlerden": 1809,
      "▁rahatti": 1810,
      "▁sondaj": 1811,
      "lest": 1812,
      "▁komisyonu": 1813,
      "54": 1814,
      "▁olmuyor": 1815,
      "annem": 1816,
      "ısın": 1817,
      "▁ekm": 1818,
      "anta": 1819,
      "▁sıv": 1820,
      "▁muf": 1821,
      "▁guclerini": 1822,
      "▁ongordu": 1823,
      "▁getirisi": 1824,
      "▁anım": 1825,
      "lamada": 1826,
      "artesi": 1827,
      "irk": 1828,
      "▁uyarısında": 1829,
      "▁rahmet": 1830,
      "bur": 1831,
      "ikleri": 1832,
      "▁yım": 1833,
      "imet": 1834,
      "▁hukumeti": 1835,
      "▁iceceklerden": 1836,
      "iyetle": 1837,
      "▁birisine": 1838,
      "▁tavrını": 1839,
      "undan": 1840,
      "▁ticarette": 1841,
      "▁burnunu": 1842,
      "▁isit": 1843,
      "▁suruyor": 1844,
      "▁yasamaya": 1845,
      "kum": 1846,
      "ap": 1847,
      "▁inti": 1848,
      "ikten": 1849,
      "ork": 1850,
      "▁nef": 1851,
      "▁memnuniyetini": 1852,
      "▁ihtimalini": 1853,
      "▁konunun": 1854,
      "▁ilgiyle": 1855,
      "▁tahvil": 1856,
      "▁pittsburgh'tan": 1857,
      "▁mutfaga": 1858,
      "▁pound": 1859,
      "dın": 1860,
      "▁daima": 1861,
      "▁sessiz": 1862,
      "▁kime": 1863,
      "tiginde": 1864,
      "▁hazret": 1865,
      "iv": 1866,
      "▁iklim": 1867,
      "▁olası": 1868,
      "emedim": 1869,
      "▁bolgesinde": 1870,
      "ni": 1871,
      "cun": 1872,
      "▁ısıgını": 1873,
      "▁adına": 1874,
      "▁saman": 1875,
      "▁icten": 1876,
      "▁kulaklarına": 1877,
      "▁deleg": 1878,
      "▁inis": 1879,
      "tmis": 1880,
      "▁adıyla": 1881,
      "almaya": 1882,
      "▁gordugunu": 1883,
      "▁olm": 1884,
      "▁bekliyordu": 1885,
      "▁istifa": 1886,
      "ess": 1887,
      "▁birini": 1888,
      "▁bankaları": 1889,
      "▁etrafa": 1890,
      "gır": 1891,
      "lanması": 1892,
      "▁dusundugunu": 1893,
      "▁hıy": 1894,
      "▁memnunuz": 1895,
      "▁ikmal": 1896,
      "▁gelecekteki": 1897,
      "▁eti": 1898,
      "▁calisanlar": 1899,
      "▁yılki": 1900,
      "▁gunune": 1901,
      "▁ilke": 1902,
      "anıt": 1903,
      "▁piyasasında": 1904,
      "▁piyasasına": 1905,
      "▁destekli": 1906,
      "inti": 1907,
      "▁dizginleri": 1908,
      "▁ihracat": 1909,
      "▁isbirligi": 1910,
      "▁yak": 1911,
      "▁dunyada": 1912,
      "▁ogrenmek": 1913,
      ".5": 1914,
      "▁durmak": 1915,
      "medim": 1916,
      "▁uretiyor": 1917,
      "▁bugunun": 1918,
      "▁milletin": 1919,
      "▁gosterin": 1920,
      "▁zorla": 1921,
      "▁kaybı": 1922,
      "▁siy": 1923,
      "atmak": 1924,
      "▁kotuluk": 1925,
      "▁kundur": 1926,
      "ıgım": 1927,
      "▁ramazan": 1928,
      "▁belirtti": 1929,
      "▁birlesik": 1930,
      "▁finc": 1931,
      "▁davasını": 1932,
      "kel": 1933,
      "kul": 1934,
      "▁sop": 1935,
      "▁soba": 1936,
      "▁ek": 1937,
      "▁tetkik": 1938,
      "▁baskasına": 1939,
      "▁rekabet": 1940,
      "▁urk": 1941,
      "ydı": 1942,
      "▁lehine": 1943,
      "▁ekonomisini": 1944,
      "▁hamla": 1945,
      "▁caddeye": 1946,
      "▁aydan": 1947,
      "▁kafam": 1948,
      "▁mcb": 1949,
      "lacagını": 1950,
      "▁duzen": 1951,
      "▁operasyonlarına": 1952,
      "abileceg": 1953,
      "▁cıgırt": 1954,
      "▁anim": 1955,
      "▁havaalanının": 1956,
      "tif": 1957,
      "larıma": 1958,
      "▁tahsil": 1959,
      "▁nit": 1960,
      "▁yanlıs": 1961,
      "▁adam": 1962,
      "▁odu": 1963,
      "▁abdul": 1964,
      "▁yaptıktan": 1965,
      "▁rezervasyon": 1966,
      "▁hicbirinin": 1967,
      "▁kanunlar": 1968,
      "goz": 1969,
      "kli": 1970,
      "iyorlardi": 1971,
      "▁edebiyatı": 1972,
      "usunu": 1973,
      "▁yardimci": 1974,
      "▁arzı": 1975,
      "▁indianapolis": 1976,
      "▁elindeki": 1977,
      "▁annemle": 1978,
      "▁gazel": 1979,
      "\\/8": 1980,
      "5'ini": 1981,
      "▁mandır": 1982,
      "▁teli": 1983,
      "▁bazilar": 1984,
      "▁gectigimiz": 1985,
      "▁sartlar": 1986,
      "sor": 1987,
      "▁emlak": 1988,
      "▁yapmayı": 1989,
      "eyebilir": 1990,
      "lik": 1991,
      "ji": 1992,
      "▁geb": 1993,
      "▁catma": 1994,
      "▁mute": 1995,
      "▁dog": 1996,
      "▁yetk": 1997,
      "▁gunah": 1998,
      "lenmesi": 1999,
      "poh": 2000,
      "▁guzelim": 2001,
      "iktir": 2002,
      "▁likidit": 2003,
      "▁nizam": 2004,
      "▁100'e": 2005,
      "esidir": 2006,
      "▁atlanta'dan": 2007,
      "▁war": 2008,
      "▁dilenci": 2009,
      "▁tehlikeye": 2010,
      "▁yenic": 2011,
      "▁bunca": 2012,
      "▁guvenc": 2013,
      "▁tarzı": 2014,
      "▁ikram": 2015,
      "_": 2016,
      "▁bicimde": 2017,
      "yken": 2018,
      "▁systems": 2019,
      "▁yayını": 2020,
      "▁saldırı": 2021,
      "lemis": 2022,
      "elim": 2023,
      "▁cir": 2024,
      "▁avukatlar": 2025,
      "▁dansı": 2026,
      "▁kalmak": 2027,
      "amızda": 2028,
      "lının": 2029,
      "▁isver": 2030,
      "▁varıyor": 2031,
      "▁hayvan": 2032,
      "▁fısıltı": 2033,
      "▁havalimanlarından": 2034,
      "aladıgını": 2035,
      "ebilecek": 2036,
      "▁olmadan": 2037,
      "▁terbiy": 2038,
      "lileri": 2039,
      "endis": 2040,
      "▁yanıtlar": 2041,
      "▁omuzlarına": 2042,
      "cel": 2043,
      "usuz": 2044,
      "▁basında": 2045,
      "▁ipe": 2046,
      "▁deniz": 2047,
      "hanenin": 2048,
      "▁gezin": 2049,
      "▁dov": 2050,
      "▁baskısı": 2051,
      "▁mini": 2052,
      "▁gunduz": 2053,
      "'in": 2054,
      "▁!": 2055,
      "▁suların": 2056,
      "aları": 2057,
      "▁tarihte": 2058,
      "▁birlesme": 2059,
      "▁vesik": 2060,
      "▁yanl": 2061,
      "▁ilgisizdi": 2062,
      "▁prensesi": 2063,
      "ansiyon": 2064,
      "▁iflas": 2065,
      "▁kun": 2066,
      "▁dokul": 2067,
      "▁varıs": 2068,
      "teki": 2069,
      "▁hind": 2070,
      "▁olumune": 2071,
      "▁kktc": 2072,
      "▁depreminin": 2073,
      "▁yabanci": 2074,
      "▁ugra": 2075,
      "▁atmak": 2076,
      "▁guvensizlik": 2077,
      "▁kul": 2078,
      "▁baslıyor": 2079,
      "▁yabancilara": 2080,
      "▁sokagı": 2081,
      "kik": 2082,
      "x": 2083,
      "atlı": 2084,
      "▁iskeleye": 2085,
      "▁evlerini": 2086,
      "▁takım": 2087,
      "▁guclerin": 2088,
      "80": 2089,
      "▁siyasal": 2090,
      "▁kın": 2091,
      "v": 2092,
      "▁cogunluk": 2093,
      "ya": 2094,
      "▁vermesini": 2095,
      "▁west": 2096,
      "gine": 2097,
      "▁ederdi": 2098,
      "▁tama": 2099,
      "▁oldugu": 2100,
      "▁me": 2101,
      "▁temeller": 2102,
      "▁teshis": 2103,
      "▁bildirim": 2104,
      "▁armut": 2105,
      "▁kimse": 2106,
      "▁yeterince": 2107,
      "▁insanlık": 2108,
      "▁odev": 2109,
      "ugunu": 2110,
      "▁kabugu": 2111,
      "▁caddenin": 2112,
      "▁karmasası": 2113,
      "▁kızlar": 2114,
      "▁anketi": 2115,
      "mey": 2116,
      "▁tadil": 2117,
      "▁ucmam": 2118,
      "ını": 2119,
      "▁yorgan": 2120,
      "▁buklum": 2121,
      "▁yed": 2122,
      "▁sahipti": 2123,
      "▁saglama": 2124,
      "▁bolun": 2125,
      "yeni": 2126,
      "▁iyims": 2127,
      "▁kasabanın": 2128,
      "▁evime": 2129,
      "▁baslan": 2130,
      "▁delta": 2131,
      "liyordu": 2132,
      "▁kurmaya": 2133,
      "▁$'a": 2134,
      "iyeleri": 2135,
      "▁ici": 2136,
      "▁dile": 2137,
      "▁hucum": 2138,
      "▁kapılarını": 2139,
      "▁korkusuyla": 2140,
      "▁buluyor": 2141,
      "▁disinden": 2142,
      "▁inkar": 2143,
      "▁bagım": 2144,
      "ligim": 2145,
      "ea": 2146,
      "igini": 2147,
      "▁uretimi": 2148,
      "unden": 2149,
      "▁sınır": 2150,
      "▁matematik": 2151,
      "▁hızla": 2152,
      "▁kanunu": 2153,
      "ecegim": 2154,
      "▁ordunun": 2155,
      "esini": 2156,
      "gıl": 2157,
      "evizyon": 2158,
      "▁georg": 2159,
      "▁cevirdi": 2160,
      "▁tura": 2161,
      "▁mobilya": 2162,
      "lub": 2163,
      "▁birilerini": 2164,
      "▁bakır": 2165,
      "▁acıkladı": 2166,
      "▁mukabele": 2167,
      "▁kurtarma": 2168,
      "▁kurs": 2169,
      "▁hafta": 2170,
      "▁kaynak": 2171,
      "▁siper": 2172,
      "▁tahakk": 2173,
      "▁gorus": 2174,
      "estiri": 2175,
      "▁kotul": 2176,
      "ardı": 2177,
      "▁yapılandırma": 2178,
      "▁kosulu": 2179,
      "▁fena": 2180,
      "ibin": 2181,
      "▁tarlayı": 2182,
      "▁perakendeciler": 2183,
      "▁yonleriyle": 2184,
      "▁yolculuga": 2185,
      "▁etmiyor": 2186,
      "▁pah": 2187,
      "alay": 2188,
      "▁kardes": 2189,
      "▁slog": 2190,
      "▁dereden": 2191,
      "▁sorunla": 2192,
      "▁universitede": 2193,
      "▁anlıslanabilirlik": 2194,
      "▁misafirimizle": 2195,
      "ıllı": 2196,
      "▁stad": 2197,
      "aller": 2198,
      "▁patates": 2199,
      "ncu": 2200,
      "os": 2201,
      "▁zarif": 2202,
      "osu": 2203,
      "▁basladıgında": 2204,
      "▁rady": 2205,
      "▁fan": 2206,
      "▁ver": 2207,
      "▁yapımı": 2208,
      "▁cen": 2209,
      "▁avuc": 2210,
      "yosu": 2211,
      "lıgına": 2212,
      "▁gunu": 2213,
      "ims": 2214,
      "adar": 2215,
      "▁vergiyi": 2216,
      "▁bazilari": 2217,
      "▁donum": 2218,
      "▁anlatmak": 2219,
      "▁sporcu": 2220,
      "▁dikkatimi": 2221,
      "▁fak": 2222,
      "▁taco": 2223,
      "kah": 2224,
      "cası": 2225,
      "▁sav": 2226,
      "ıkları": 2227,
      "▁sorum": 2228,
      "▁hurr": 2229,
      "meye": 2230,
      "▁onde": 2231,
      "▁satıl": 2232,
      "▁sakat": 2233,
      "ada": 2234,
      "larındaki": 2235,
      "▁olmasa": 2236,
      "dular": 2237,
      "▁mec": 2238,
      "ılımı": 2239,
      "▁filik": 2240,
      ".23": 2241,
      "lenmesini": 2242,
      "ed": 2243,
      "ısından": 2244,
      "1": 2245,
      "▁nereden": 2246,
      "▁yun": 2247,
      "▁konumu": 2248,
      "imdi": 2249,
      "ani": 2250,
      "dukları": 2251,
      "▁iade": 2252,
      "▁demektir": 2253,
      "4'de": 2254,
      "▁mektup": 2255,
      "▁tutarında": 2256,
      "▁futbolcu": 2257,
      "▁duvardan": 2258,
      "▁atmaya": 2259,
      "ont": 2260,
      "▁muteahh": 2261,
      "ilmedi": 2262,
      "▁seyiyle": 2263,
      "▁nut": 2264,
      "▁koye": 2265,
      "▁ayakk": 2266,
      "▁tan": 2267,
      "▁dusunuyordu": 2268,
      "hangi": 2269,
      "▁luzum": 2270,
      "▁sup": 2271,
      "▁eylemi": 2272,
      "▁1000": 2273,
      "▁ann": 2274,
      "duktan": 2275,
      "▁jap": 2276,
      "▁ailesi": 2277,
      "gılı": 2278,
      "▁bol": 2279,
      "▁maddes": 2280,
      "ınıyor": 2281,
      "▁kinden": 2282,
      "▁am": 2283,
      "▁3.": 2284,
      "▁sıcaktan": 2285,
      "▁zorlu": 2286,
      "kiler": 2287,
      "▁yarının": 2288,
      "▁altını": 2289,
      "▁turkler": 2290,
      "▁44": 2291,
      "▁yuzlerine": 2292,
      "▁ip": 2293,
      "▁uzerinden": 2294,
      "lardan": 2295,
      "izasyon": 2296,
      "ektr": 2297,
      "▁10'": 2298,
      "ızda": 2299,
      "▁romancının": 2300,
      "▁ye": 2301,
      "▁tak": 2302,
      "▁sıkınt": 2303,
      "▁bolgesi": 2304,
      "▁ayrı": 2305,
      "▁dilekce": 2306,
      "▁etti": 2307,
      "▁fin": 2308,
      ".ceyrek": 2309,
      "▁sapma": 2310,
      "▁mum": 2311,
      "ilet": 2312,
      "▁but": 2313,
      "▁istil": 2314,
      "▁uyu": 2315,
      "▁lobi": 2316,
      "▁ceket": 2317,
      "▁5\\/8": 2318,
      "▁dik": 2319,
      "▁faktorler": 2320,
      "▁dugun": 2321,
      "▁tastan": 2322,
      "iledi": 2323,
      "kal": 2324,
      "▁ayd": 2325,
      "▁izleyiciler": 2326,
      "▁ugradı": 2327,
      "▁simdi": 2328,
      "▁galibiyet": 2329,
      "eyn": 2330,
      "▁kullanımını": 2331,
      "▁oyuna": 2332,
      "▁kocası": 2333,
      "muyorum": 2334,
      "▁dusmanın": 2335,
      "▁politikaları": 2336,
      "▁teyzemin": 2337,
      "urt": 2338,
      "ciligi": 2339,
      "▁bekci": 2340,
      "▁tabana": 2341,
      "▁dayan": 2342,
      "▁usulu": 2343,
      "▁siddet": 2344,
      "▁kullandıgını": 2345,
      "▁trend": 2346,
      "▁kullanarak": 2347,
      "▁dudakları": 2348,
      "mekten": 2349,
      "▁alamet": 2350,
      "▁kayda": 2351,
      "▁kimliklerini": 2352,
      "edav": 2353,
      "▁vapur": 2354,
      "▁cep": 2355,
      "▁komutan": 2356,
      "lerinden": 2357,
      "iness": 2358,
      "lerinde": 2359,
      "▁yardımına": 2360,
      "amp": 2361,
      "▁degerlerine": 2362,
      "▁yardımcı": 2363,
      "▁yeryuz": 2364,
      "▁ey": 2365,
      "▁manzar": 2366,
      "ulup": 2367,
      "'un": 2368,
      "▁mukemmeldi": 2369,
      "asına": 2370,
      "▁cirkin": 2371,
      "▁sigorta": 2372,
      "▁sauna": 2373,
      "▁ruh": 2374,
      "▁kanal": 2375,
      "▁lakırtı": 2376,
      "▁partiye": 2377,
      "▁odunc": 2378,
      "▁yetenegi": 2379,
      "▁aki": 2380,
      "▁tasar": 2381,
      "▁dolardan": 2382,
      "▁fatih": 2383,
      "▁huzursuzluk": 2384,
      "▁muallim": 2385,
      "▁kalmamıs": 2386,
      "▁havalim": 2387,
      "▁gazino": 2388,
      "▁yumurta": 2389,
      "▁davranısını": 2390,
      "lerin": 2391,
      "▁ayakları": 2392,
      "▁mutlulugu": 2393,
      "▁coluk": 2394,
      "▁muda": 2395,
      "tc": 2396,
      "▁tasf": 2397,
      "este": 2398,
      "▁dumen": 2399,
      "outh": 2400,
      "▁tedav": 2401,
      "▁leblebi": 2402,
      "▁dikkate": 2403,
      "▁balon": 2404,
      "oz": 2405,
      "ediyor": 2406,
      "ecektir": 2407,
      "▁degildim": 2408,
      "▁onlugu": 2409,
      "▁destek": 2410,
      "▁yanı": 2411,
      "▁oglen": 2412,
      "lendim": 2413,
      "▁karsın": 2414,
      "▁ını": 2415,
      "▁teklifini": 2416,
      "gın": 2417,
      "▁muhalle": 2418,
      "endek": 2419,
      "▁idrak": 2420,
      "▁ford": 2421,
      "▁kurdu": 2422,
      "▁konsantr": 2423,
      "▁seyret": 2424,
      "abını": 2425,
      "▁hip": 2426,
      "▁koltuga": 2427,
      "▁2.5": 2428,
      "lasman": 2429,
      "▁giriyor": 2430,
      "▁hafiflet": 2431,
      "▁zamanlarını": 2432,
      "▁varan": 2433,
      "ter": 2434,
      "▁mikr": 2435,
      "isini": 2436,
      "▁magaz": 2437,
      "▁bilgilendir": 2438,
      "▁yo": 2439,
      "▁suvar": 2440,
      "▁indust": 2441,
      "▁yagmur": 2442,
      "▁dizisi": 2443,
      "▁kel": 2444,
      "▁elli": 2445,
      "▁ısıklar": 2446,
      "▁baskı": 2447,
      "uncu": 2448,
      "▁turunu": 2449,
      "▁enflasyonu": 2450,
      "▁kopek": 2451,
      "▁duzenleyici": 2452,
      "gusu": 2453,
      "▁ilgili": 2454,
      "▁boyu": 2455,
      "▁cikolat": 2456,
      "▁ert": 2457,
      "istirdi": 2458,
      "meden": 2459,
      "▁kamp": 2460,
      "ayi": 2461,
      "imizle": 2462,
      "▁gelistirmeye": 2463,
      "▁hizm": 2464,
      "▁3.1": 2465,
      "▁temerrut": 2466,
      "▁kadar": 2467,
      "▁mecl": 2468,
      "ımları": 2469,
      "▁bedeli": 2470,
      "▁cesmenin": 2471,
      "1'de": 2472,
      "▁bulundur": 2473,
      "umandan": 2474,
      "▁icimde": 2475,
      "▁hissini": 2476,
      "▁keci": 2477,
      "▁sabır": 2478,
      "rsı": 2479,
      "▁kalın": 2480,
      "▁sorgu": 2481,
      "lastırmak": 2482,
      "▁ofkesini": 2483,
      "▁cez": 2484,
      "▁cent": 2485,
      "▁bomba": 2486,
      "▁alısveris": 2487,
      "▁lamb": 2488,
      "▁tespit": 2489,
      "▁yazının": 2490,
      "▁meclisi": 2491,
      "▁birey": 2492,
      "▁puf": 2493,
      "▁fiyatına": 2494,
      "▁havası": 2495,
      "▁gene": 2496,
      "0'dan": 2497,
      "uyorum": 2498,
      "izler": 2499,
      "▁bakimsizdi": 2500,
      "▁uzunluk": 2501,
      "▁birco": 2502,
      "▁kostum": 2503,
      "hut": 2504,
      "▁teraz": 2505,
      "▁yek": 2506,
      "tenin": 2507,
      "▁istan": 2508,
      "▁hep": 2509,
      "ogret": 2510,
      "▁hop": 2511,
      "▁varsay": 2512,
      "▁po": 2513,
      "▁eylul": 2514,
      "▁&": 2515,
      "▁kıraat": 2516,
      "▁ormanda": 2517,
      "▁hak": 2518,
      "▁yatag": 2519,
      "▁hal": 2520,
      "▁hale": 2521,
      "▁ney": 2522,
      "tusu": 2523,
      "▁musaade": 2524,
      "▁if": 2525,
      "▁izah": 2526,
      "tırmak": 2527,
      "▁topragı": 2528,
      "▁listeleri": 2529,
      "▁kasabada": 2530,
      "▁calıstım": 2531,
      "ımızın": 2532,
      "▁olmadıgına": 2533,
      "▁eskiden": 2534,
      "enler": 2535,
      "▁yonetmen": 2536,
      "umus": 2537,
      "▁cleveland'a": 2538,
      "▁tir": 2539,
      "▁bezi": 2540,
      "▁karayolu": 2541,
      "▁icerisinde": 2542,
      "▁istanbul'un": 2543,
      "▁dayanagı": 2544,
      "kez": 2545,
      "▁zekası": 2546,
      "▁gozumde": 2547,
      "▁tukuruk": 2548,
      "▁merkez": 2549,
      "▁yurtdisinda": 2550,
      "▁etkinlikler": 2551,
      "▁yapıl": 2552,
      "umuzu": 2553,
      "▁topu": 2554,
      "▁miktarda": 2555,
      "▁yosun": 2556,
      "▁hamlenin": 2557,
      "▁sev": 2558,
      "▁lub": 2559,
      "▁gosterge": 2560,
      "▁mur": 2561,
      "▁ulk": 2562,
      "▁veriyor": 2563,
      "edir": 2564,
      "▁aldı": 2565,
      "▁pey": 2566,
      "▁guvence": 2567,
      "▁ceh": 2568,
      "emedik": 2569,
      "▁agzım": 2570,
      "▁acıldı": 2571,
      "▁cekirdek": 2572,
      "▁dizgin": 2573,
      "inleri": 2574,
      "▁dedik": 2575,
      "▁ign": 2576,
      "▁inanıyor": 2577,
      "ayın": 2578,
      "▁sevgi": 2579,
      "▁zirv": 2580,
      "▁artısına": 2581,
      "▁tunel": 2582,
      "▁kasım": 2583,
      "▁kasaba": 2584,
      "▁isleme": 2585,
      "ikasyon": 2586,
      "ne": 2587,
      "keti": 2588,
      "ri": 2589,
      "'a": 2590,
      "▁likid": 2591,
      "'ın": 2592,
      "▁rıht": 2593,
      "▁teknoloj": 2594,
      "▁tesisin": 2595,
      "ucunun": 2596,
      "▁chat": 2597,
      "ıtma": 2598,
      "▁yetersizdi": 2599,
      "▁rehberlik": 2600,
      "▁tah": 2601,
      "▁dogrul": 2602,
      "▁tarafından": 2603,
      "▁man": 2604,
      "▁59": 2605,
      "▁9'da": 2606,
      "▁baskın": 2607,
      "ru": 2608,
      "▁hanima": 2609,
      "▁iktidar": 2610,
      "▁sirketinin": 2611,
      "▁cesitli": 2612,
      "ort": 2613,
      "▁salatası": 2614,
      "▁kariyer": 2615,
      "▁anlasmazlık": 2616,
      "asyon": 2617,
      "▁yemis": 2618,
      "▁firmalar": 2619,
      "lirken": 2620,
      "▁sarkı": 2621,
      "▁algı": 2622,
      "▁hayatına": 2623,
      "▁sınıf": 2624,
      "▁musterileri": 2625,
      "▁sıcrama": 2626,
      "▁almanya": 2627,
      "ecegimi": 2628,
      "▁belli": 2629,
      "▁150": 2630,
      "▁proj": 2631,
      "▁reklam": 2632,
      "amad": 2633,
      "▁davran": 2634,
      "▁numaraları": 2635,
      "▁yakalama": 2636,
      "▁tasımacılıgı": 2637,
      "minin": 2638,
      "▁manz": 2639,
      "▁kelime": 2640,
      "▁hır": 2641,
      "▁basyaz": 2642,
      "▁verdiler": 2643,
      "▁faal": 2644,
      "ılmıs": 2645,
      "memiz": 2646,
      "▁bahan": 2647,
      "▁enst": 2648,
      "▁gozlem": 2649,
      "▁karnını": 2650,
      "▁operasyonlarını": 2651,
      "▁kumsali": 2652,
      "▁paydos": 2653,
      "▁iliskilerinde": 2654,
      "▁ulas": 2655,
      "▁doyum": 2656,
      "▁cabası": 2657,
      "[SEP]": 2658,
      "nal": 2659,
      "▁mail": 2660,
      "ezler": 2661,
      "▁acılım": 2662,
      "▁savun": 2663,
      "▁uc": 2664,
      "▁muhtır": 2665,
      "▁cim": 2666,
      "▁dinler": 2667,
      "▁kahvaltida": 2668,
      "▁sert": 2669,
      "ırım": 2670,
      "▁fab": 2671,
      "▁kopr": 2672,
      "▁dal": 2673,
      "▁kardesim": 2674,
      "▁tavaf": 2675,
      "dugunda": 2676,
      "mıs": 2677,
      "▁liseyi": 2678,
      "eger": 2679,
      "iti": 2680,
      "▁etmey": 2681,
      "▁dolayısıyla": 2682,
      "▁oturmak": 2683,
      "▁satırlar": 2684,
      "▁santr": 2685,
      "▁doktoru": 2686,
      "▁ulkenin": 2687,
      "▁cemiyetin": 2688,
      "▁cesi": 2689,
      "▁anlar": 2690,
      "onu": 2691,
      "▁damat": 2692,
      "▁mukellef": 2693,
      "ner": 2694,
      "▁zen": 2695,
      "▁oglum": 2696,
      "abilecegini": 2697,
      "▁anlay": 2698,
      "▁kurb": 2699,
      "▁sabaha": 2700,
      "▁murekk": 2701,
      "▁kutuphane": 2702,
      "▁satma": 2703,
      "▁planlıyor": 2704,
      "▁yanımda": 2705,
      "▁satıcısı": 2706,
      "▁kıyafet": 2707,
      "▁gruba": 2708,
      "kta": 2709,
      "▁binası": 2710,
      "▁yap": 2711,
      "▁ediyorlar": 2712,
      "▁duyg": 2713,
      "eginde": 2714,
      "▁yazıları": 2715,
      "▁millet": 2716,
      "▁insanog": 2717,
      "▁q": 2718,
      "▁anlasması": 2719,
      "▁yiy": 2720,
      "▁tarifeler": 2721,
      "▁guver": 2722,
      "▁balta": 2723,
      "▁kı": 2724,
      "▁iktis": 2725,
      "▁sebek": 2726,
      "▁degilsiniz": 2727,
      "dalı": 2728,
      "▁hastalar": 2729,
      "▁dahili": 2730,
      "▁bırakın": 2731,
      "▁ulkede": 2732,
      "▁charl": 2733,
      "▁harcamaları": 2734,
      "lere": 2735,
      "▁fiili": 2736,
      "▁olduklarını": 2737,
      "▁kurnaz": 2738,
      "▁birde": 2739,
      "▁esn": 2740,
      "lanmadı": 2741,
      "▁eglence": 2742,
      "▁cabasına": 2743,
      "▁konumda": 2744,
      "▁gorunce": 2745,
      "▁randev": 2746,
      "▁koyde": 2747,
      "▁ong": 2748,
      "▁pazarlama": 2749,
      "▁emn": 2750,
      "▁seklinde": 2751,
      "▁zevk": 2752,
      "kındaki": 2753,
      "▁goller": 2754,
      "▁lokant": 2755,
      "▁kattan": 2756,
      "▁alıp": 2757,
      "▁gelmeden": 2758,
      "▁seviyesinde": 2759,
      "▁orne": 2760,
      "▁ısıgın": 2761,
      "mamıstı": 2762,
      "▁cozul": 2763,
      "▁terti": 2764,
      "▁kes": 2765,
      "▁ornekler": 2766,
      "ceye": 2767,
      "lılar": 2768,
      "aliforn": 2769,
      "abeti": 2770,
      "▁kapıdan": 2771,
      "▁seattle'den": 2772,
      "▁duv": 2773,
      "egen": 2774,
      "▁hatası": 2775,
      "▁santim": 2776,
      "▁detroit": 2777,
      "▁olursa": 2778,
      "gım": 2779,
      "▁hınc": 2780,
      "▁muthis": 2781,
      ")": 2782,
      "▁icaz": 2783,
      "▁babasının": 2784,
      "▁muhafaza": 2785,
      "▁metrik": 2786,
      "maktadır": 2787,
      "▁temizlikten": 2788,
      "▁tesiste": 2789,
      "tlar": 2790,
      "guna": 2791,
      "▁icinden": 2792,
      "▁telesk": 2793,
      "▁ıs": 2794,
      "▁bili": 2795,
      "▁cocuk": 2796,
      "▁basla": 2797,
      "gulu": 2798,
      "ici": 2799,
      "▁lideri": 2800,
      "▁tatb": 2801,
      "▁kostu": 2802,
      "zen": 2803,
      "▁bilgi": 2804,
      "▁askerler": 2805,
      "▁isletim": 2806,
      "▁davanın": 2807,
      "▁olumunden": 2808,
      "lerimizin": 2809,
      "▁arazi": 2810,
      "▁kapıda": 2811,
      "▁makarn": 2812,
      "▁42": 2813,
      "ill": 2814,
      "▁imk": 2815,
      "▁sistem": 2816,
      "▁del": 2817,
      "▁endustrisinin": 2818,
      "▁kavramlar": 2819,
      "▁tet": 2820,
      "ıyı": 2821,
      "▁esnaf": 2822,
      "▁donemden": 2823,
      "▁teması": 2824,
      "▁sandıgı": 2825,
      "▁isteyen": 2826,
      "▁promosyon": 2827,
      "▁yolsuzluk": 2828,
      "dan": 2829,
      "aydı": 2830,
      "▁tahıl": 2831,
      "▁ontar": 2832,
      "oru": 2833,
      "▁ine": 2834,
      "▁subvansiyon": 2835,
      "▁cizgiler": 2836,
      "▁kahve": 2837,
      "▁stop": 2838,
      "▁esnasında": 2839,
      "▁kılıc": 2840,
      "▁duzel": 2841,
      "▁krizi": 2842,
      "▁esliginde": 2843,
      "ılıgıyla": 2844,
      ".65": 2845,
      "▁o": 2846,
      "▁nehri": 2847,
      "▁bırakmak": 2848,
      "▁milyar": 2849,
      "▁yılb": 2850,
      "▁verimli": 2851,
      "▁olmasi": 2852,
      "▁aktivite": 2853,
      "▁sehirler": 2854,
      "▁emper": 2855,
      "▁cad": 2856,
      "▁japonlar": 2857,
      "▁depremle": 2858,
      "▁sakak": 2859,
      "cılı": 2860,
      "arlık": 2861,
      "▁yer": 2862,
      "memis": 2863,
      "▁fazlası": 2864,
      "arın": 2865,
      "▁manasıyla": 2866,
      "ılıga": 2867,
      "▁pasa": 2868,
      "▁stratejisi": 2869,
      "▁almalar": 2870,
      "▁ulkelerin": 2871,
      "▁zorun": 2872,
      "▁rob": 2873,
      "tun": 2874,
      "▁ag": 2875,
      "1'e": 2876,
      "▁tavan": 2877,
      "lilerin": 2878,
      "▁hıc": 2879,
      "urg": 2880,
      "▁faturalar": 2881,
      "▁japonların": 2882,
      "▁islev": 2883,
      "▁tutar": 2884,
      "gında": 2885,
      "▁koylerinde": 2886,
      "▁gece": 2887,
      "irerek": 2888,
      "kın": 2889,
      "▁patron": 2890,
      "igine": 2891,
      "▁islemler": 2892,
      "▁canını": 2893,
      "▁demec": 2894,
      "▁bahceleri": 2895,
      "▁burokras": 2896,
      "▁yargıcı": 2897,
      "▁ustun": 2898,
      "▁val": 2899,
      "▁bahar": 2900,
      "▁bekleniyor": 2901,
      "ıklar": 2902,
      "▁dip": 2903,
      "lemek": 2904,
      "▁gittik": 2905,
      "ig": 2906,
      "▁kulaga": 2907,
      "▁sınavı": 2908,
      "▁rol": 2909,
      "agıyla": 2910,
      "▁taraftarları": 2911,
      "▁saglamayı": 2912,
      "▁kenarı": 2913,
      "▁gelistir": 2914,
      "ledigini": 2915,
      "▁ticarete": 2916,
      "▁yapısı": 2917,
      "▁alabilir": 2918,
      "▁katkı": 2919,
      "▁hile": 2920,
      "ıcak": 2921,
      "de": 2922,
      "▁ebe": 2923,
      "▁tadina": 2924,
      "ukle": 2925,
      "▁sayesinde": 2926,
      "▁toplum": 2927,
      "▁kullanılıyor": 2928,
      "ıgında": 2929,
      "▁cey": 2930,
      "▁hizmetlerini": 2931,
      "▁amerikalılar": 2932,
      "▁denetimi": 2933,
      "emmel": 2934,
      "▁kendime": 2935,
      "▁ora": 2936,
      "lerimize": 2937,
      "▁acıl": 2938,
      "▁genelkurmay": 2939,
      "▁yud": 2940,
      "▁kaliteyi": 2941,
      "▁kararıyla": 2942,
      "▁uzer": 2943,
      "bası": 2944,
      "▁veri": 2945,
      "▁tesise": 2946,
      "impiyat": 2947,
      "▁kotuye": 2948,
      "▁sozler": 2949,
      "gor": 2950,
      "ıslar": 2951,
      "▁hukumdar": 2952,
      "▁alakası": 2953,
      "▁felsef": 2954,
      "▁havayollarında": 2955,
      "▁cuk": 2956,
      "ilmesini": 2957,
      "▁isletiyor": 2958,
      "lug": 2959,
      "▁dah": 2960,
      "gının": 2961,
      "unuzu": 2962,
      "▁telekom": 2963,
      "▁kriz": 2964,
      "▁bilgisi": 2965,
      "uyup": 2966,
      "▁jet": 2967,
      "▁kulturel": 2968,
      "▁ureticiler": 2969,
      "esyon": 2970,
      "▁toplantılarında": 2971,
      "▁helik": 2972,
      "▁durum": 2973,
      "▁dus": 2974,
      "▁analistleri": 2975,
      "▁secim": 2976,
      "▁yargıclar": 2977,
      "▁gozyası": 2978,
      "▁yerel": 2979,
      "▁vapurun": 2980,
      "▁yanıma": 2981,
      "▁nashville'den": 2982,
      "▁sozun": 2983,
      "▁kimlik": 2984,
      "▁sigort": 2985,
      "▁kısmen": 2986,
      "▁zorluklarla": 2987,
      "▁kesint": 2988,
      "▁eylem": 2989,
      "▁turkiye'de": 2990,
      "▁gosteri": 2991,
      "▁istanbul'da": 2992,
      "▁imparator": 2993,
      "▁konforlu": 2994,
      "▁rengine": 2995,
      "▁abd": 2996,
      "▁sahibinin": 2997,
      "▁tuvalet": 2998,
      "▁kap": 2999,
      "ası": 3000,
      "▁hakkinda": 3001,
      "yıp": 3002,
      "▁form": 3003,
      "▁alarak": 3004,
      "000": 3005,
      "▁odaydi": 3006,
      "▁uzakti": 3007,
      "▁demokrasi": 3008,
      "▁kralı": 3009,
      "▁konusunu": 3010,
      "▁gurbet": 3011,
      "ukce": 3012,
      "zir": 3013,
      "▁zinciri": 3014,
      "▁sol": 3015,
      "▁aklimizda": 3016,
      "▁satırları": 3017,
      "▁becerik": 3018,
      "▁aklının": 3019,
      "iyorsunuz": 3020,
      "▁koc": 3021,
      "▁elimizde": 3022,
      "▁5'te": 3023,
      "▁dısı": 3024,
      "▁kalp": 3025,
      "duguna": 3026,
      "▁evlenme": 3027,
      "lasması": 3028,
      "▁itfa": 3029,
      "▁bazi": 3030,
      "▁sı": 3031,
      "▁anlatım": 3032,
      "▁cocugum": 3033,
      "▁ri": 3034,
      "ımda": 3035,
      "▁grev": 3036,
      "otiv": 3037,
      "▁ince": 3038,
      "eleri": 3039,
      "ack": 3040,
      "▁hamlesi": 3041,
      "▁kapıyı": 3042,
      "▁tuccarı": 3043,
      "lerdeki": 3044,
      "etik": 3045,
      "▁barıs": 3046,
      "▁tabanc": 3047,
      "▁performansa": 3048,
      "▁duzenlem": 3049,
      "/": 3050,
      "sunuz": 3051,
      "▁olaya": 3052,
      "▁hin": 3053,
      "div": 3054,
      "▁demet": 3055,
      "▁iceri": 3056,
      "▁sonu": 3057,
      "▁yt": 3058,
      "▁mahsulu": 3059,
      "ıl": 3060,
      "▁kalacagını": 3061,
      "▁masada": 3062,
      "▁kalkarak": 3063,
      "▁28": 3064,
      "▁ingiltere": 3065,
      "▁liderler": 3066,
      "▁rec": 3067,
      "▁sesinden": 3068,
      "▁merkezli": 3069,
      "azaran": 3070,
      "▁kast": 3071,
      "▁peynirleri": 3072,
      "▁aza": 3073,
      "lamıstır": 3074,
      "▁calı": 3075,
      "gunuz": 3076,
      "alarındaki": 3077,
      "▁mel": 3078,
      "▁izlen": 3079,
      "▁'li": 3080,
      "▁dergileri": 3081,
      "▁oranı": 3082,
      "▁olus": 3083,
      "▁serp": 3084,
      "▁dunyası": 3085,
      "▁juri": 3086,
      "alardan": 3087,
      "▁eglenceli": 3088,
      "▁maliyetleri": 3089,
      "▁ind": 3090,
      "▁basımı": 3091,
      "▁sozlesmesi": 3092,
      "lıgımı": 3093,
      "▁gorevleri": 3094,
      "▁yuksekti": 3095,
      "▁yapt": 3096,
      "▁biz": 3097,
      "▁dukkan": 3098,
      "▁kaldık": 3099,
      "▁sers": 3100,
      "ıc": 3101,
      "ellik": 3102,
      "▁oteden": 3103,
      "siz": 3104,
      "▁mevcut": 3105,
      "▁tatlilar": 3106,
      "▁katip": 3107,
      "▁dunyasından": 3108,
      "▁ogrencileri": 3109,
      "▁yaldız": 3110,
      "kun": 3111,
      "▁ucuna": 3112,
      "▁kanun": 3113,
      "▁cesedi": 3114,
      "▁editoru": 3115,
      "▁terey": 3116,
      "▁tutum": 3117,
      "▁derenin": 3118,
      "elere": 3119,
      "▁faktor": 3120,
      "uttu": 3121,
      "▁oturuyordu": 3122,
      "▁hus": 3123,
      "▁profes": 3124,
      "▁isti": 3125,
      "▁herk": 3126,
      "jde": 3127,
      "▁lacivert": 3128,
      "▁kisiyi": 3129,
      "▁bakı": 3130,
      "ıyorlardı": 3131,
      "lesme": 3132,
      "▁nush": 3133,
      "▁fırının": 3134,
      "▁hacmine": 3135,
      "▁varlıkların": 3136,
      "▁baspar": 3137,
      "▁suyunu": 3138,
      "▁sakinleri": 3139,
      "▁teg": 3140,
      "▁kurban": 3141,
      "▁2.6": 3142,
      "▁zamanın": 3143,
      "▁doku": 3144,
      "▁savur": 3145,
      "▁verim": 3146,
      "▁seyir": 3147,
      "▁aittir": 3148,
      "▁gozyas": 3149,
      "▁dul": 3150,
      "umuzde": 3151,
      "gmen": 3152,
      "▁parmagı": 3153,
      "▁onum": 3154,
      "▁kondu": 3155,
      "▁sekerleme": 3156,
      "▁1'de": 3157,
      "luye": 3158,
      "▁verdigini": 3159,
      "▁kimden": 3160,
      "▁lise": 3161,
      "arc": 3162,
      "▁newark": 3163,
      "adın": 3164,
      "unce": 3165,
      "▁onarım": 3166,
      "▁surduruyor": 3167,
      "▁yedi": 3168,
      "undeki": 3169,
      "ane": 3170,
      "▁balo": 3171,
      "▁muhim": 3172,
      "▁kirpik": 3173,
      "▁geleceg": 3174,
      "tik": 3175,
      "▁yazık": 3176,
      "▁sevimli": 3177,
      "▁meb": 3178,
      "ader": 3179,
      "▁likidite": 3180,
      "ozit": 3181,
      "lıkla": 3182,
      "▁kazancları": 3183,
      "sarak": 3184,
      "▁basa": 3185,
      "ozof": 3186,
      "opter": 3187,
      "▁sıralarda": 3188,
      "▁yapılması": 3189,
      "ebe": 3190,
      "▁coban": 3191,
      "▁ayından": 3192,
      "▁karabor": 3193,
      "▁olmak": 3194,
      "nost": 3195,
      "▁harf": 3196,
      "▁elbiselerini": 3197,
      "▁bab": 3198,
      "▁yıldızlar": 3199,
      "▁ugruna": 3200,
      "▁kada": 3201,
      "elendi": 3202,
      "▁imkan": 3203,
      "▁calısmaya": 3204,
      "▁kayıpların": 3205,
      "▁barikat": 3206,
      "▁oturum": 3207,
      "▁supurge": 3208,
      "▁eksikligi": 3209,
      "▁durusma": 3210,
      "▁silahlarını": 3211,
      "larımızda": 3212,
      "tem": 3213,
      "▁kod": 3214,
      "▁tenc": 3215,
      "▁mir": 3216,
      "▁bildigini": 3217,
      "▁tomurcuk": 3218,
      "lgelelim": 3219,
      "▁donanımı": 3220,
      ".2": 3221,
      "▁yoz": 3222,
      "isin": 3223,
      "essus": 3224,
      "▁plana": 3225,
      "▁aradan": 3226,
      "indeki": 3227,
      "▁ot": 3228,
      "▁arasında": 3229,
      "▁suclamalar": 3230,
      "▁seyahat": 3231,
      "▁editor": 3232,
      "▁resmin": 3233,
      "▁yeryuzunun": 3234,
      "▁devamı": 3235,
      "aklı": 3236,
      "▁yanıl": 3237,
      "5'te": 3238,
      "andev": 3239,
      "▁beklet": 3240,
      "ilmistir": 3241,
      "ong": 3242,
      "▁kalma": 3243,
      "▁umuduyla": 3244,
      "elendir": 3245,
      "▁seyrediyordu": 3246,
      "▁sekilde": 3247,
      "▁meyvelerini": 3248,
      "akki": 3249,
      "▁zavallı": 3250,
      "nam": 3251,
      "atsız": 3252,
      "desi": 3253,
      "▁ıskarta": 3254,
      "▁1985": 3255,
      "ash": 3256,
      "▁sahaya": 3257,
      "▁misali": 3258,
      "ot": 3259,
      "yla": 3260,
      "▁genclik": 3261,
      "▁korun": 3262,
      "▁docent": 3263,
      "▁fonlarının": 3264,
      "▁nin": 3265,
      "▁uzerinde": 3266,
      "▁kapmak": 3267,
      "▁konumunu": 3268,
      "uver": 3269,
      "▁ogul": 3270,
      "sal": 3271,
      "▁tekn": 3272,
      "▁tis": 3273,
      "▁dibe": 3274,
      "▁edenler": 3275,
      "▁yamac": 3276,
      "▁nese": 3277,
      "▁isveren": 3278,
      "▁astar": 3279,
      "▁mesafeyi": 3280,
      "▁oyn": 3281,
      "▁kokusu": 3282,
      "▁komsu": 3283,
      "▁kaptır": 3284,
      "▁kep": 3285,
      "tor": 3286,
      "▁serb": 3287,
      "unca": 3288,
      "rib": 3289,
      "▁zirveye": 3290,
      "▁olaydan": 3291,
      "▁anda": 3292,
      "gul": 3293,
      "eyim": 3294,
      "▁vakit": 3295,
      "▁1/4": 3296,
      "old": 3297,
      "atch": 3298,
      "▁olmadigini": 3299,
      "afeti": 3300,
      "▁pın": 3301,
      "▁sıkıs": 3302,
      "▁yaptıgını": 3303,
      "▁gerisi": 3304,
      "▁sevgisini": 3305,
      "iyetini": 3306,
      "▁yetenekleri": 3307,
      "▁etini": 3308,
      "▁mesrut": 3309,
      "▁sıkıntıya": 3310,
      "▁rahatsız": 3311,
      "▁mesaj": 3312,
      "nci": 3313,
      "▁taksit": 3314,
      "▁egzersiz": 3315,
      "▁doktu": 3316,
      "▁cekmec": 3317,
      "▁uret": 3318,
      "▁cekis": 3319,
      "▁burnundan": 3320,
      "apark": 3321,
      "▁sinc": 3322,
      "▁yangın": 3323,
      "▁ibadet": 3324,
      "▁yili": 3325,
      "ısız": 3326,
      "▁urunu": 3327,
      "▁disleri": 3328,
      "▁video": 3329,
      "▁ruba": 3330,
      "▁liberal": 3331,
      "imize": 3332,
      "▁arkada": 3333,
      "▁konferans": 3334,
      "▁dunyasına": 3335,
      "seydi": 3336,
      "raf": 3337,
      "▁detayları": 3338,
      "▁vagon": 3339,
      "▁hocamız": 3340,
      "▁sıcram": 3341,
      "▁sorumlulugunu": 3342,
      "▁arkasını": 3343,
      "inizi": 3344,
      "▁hicbiri": 3345,
      "▁yapacagı": 3346,
      "▁oynuyor": 3347,
      "▁?": 3348,
      "▁impar": 3349,
      "▁cerr": 3350,
      "o'dan": 3351,
      "▁sez": 3352,
      "ydi": 3353,
      "erate": 3354,
      "▁reasur": 3355,
      "▁ceketinin": 3356,
      "▁baglant": 3357,
      "▁vit": 3358,
      "▁yansı": 3359,
      "▁nisp": 3360,
      "▁feryat": 3361,
      "gan": 3362,
      "▁19": 3363,
      "▁satıslara": 3364,
      "▁finan": 3365,
      "▁dogur": 3366,
      "▁dallas": 3367,
      "▁saatlerde": 3368,
      "▁yargıc": 3369,
      "▁beden": 3370,
      "▁savası": 3371,
      "▁alternatif": 3372,
      "▁bırakmıs": 3373,
      "ulur": 3374,
      "▁yuzyılda": 3375,
      "▁girisi": 3376,
      "▁otur": 3377,
      "umuzda": 3378,
      "▁sag": 3379,
      "▁uyeleri": 3380,
      "trily": 3381,
      "▁onlerine": 3382,
      "▁kavramı": 3383,
      "▁pesinden": 3384,
      "▁goc": 3385,
      "lanmıstır": 3386,
      "▁kabın": 3387,
      "▁ihtiyar": 3388,
      "▁secimleri": 3389,
      "▁muhabbet": 3390,
      "▁dow": 3391,
      "acıkta": 3392,
      "kca": 3393,
      "▁ayrildik": 3394,
      "▁damak": 3395,
      "▁hamlede": 3396,
      "▁ithalat": 3397,
      "▁paraya": 3398,
      "▁yıl": 3399,
      "imlerin": 3400,
      "▁suphe": 3401,
      "bap": 3402,
      "ye": 3403,
      "▁hatır": 3404,
      "▁urunler": 3405,
      "▁cob": 3406,
      "▁masal": 3407,
      "▁konsep": 3408,
      "▁kavgası": 3409,
      "tugu": 3410,
      "▁sabah": 3411,
      "▁mucadelesi": 3412,
      "▁salt": 3413,
      "▁orgut": 3414,
      "▁af": 3415,
      "boy": 3416,
      "liligini": 3417,
      "seksen": 3418,
      "akal": 3419,
      "▁ikaz": 3420,
      "▁sper": 3421,
      "▁uzay": 3422,
      "▁sapkasını": 3423,
      "toru": 3424,
      "▁ortamında": 3425,
      "tili": 3426,
      "▁graf": 3427,
      "▁sade": 3428,
      "▁kısıtlama": 3429,
      "desinde": 3430,
      "▁”": 3431,
      "▁reklamları": 3432,
      "▁hattının": 3433,
      "▁karam": 3434,
      "▁caz": 3435,
      "▁yapabilir": 3436,
      "otlar": 3437,
      "▁doları": 3438,
      "▁carte": 3439,
      "▁bırakarak": 3440,
      "ental": 3441,
      "▁iddialar": 3442,
      "▁devrinin": 3443,
      "lesen": 3444,
      "▁edinmek": 3445,
      "▁bulabil": 3446,
      "liligi": 3447,
      "▁istihbar": 3448,
      "▁tex": 3449,
      "tern": 3450,
      "▁kadın": 3451,
      "▁haric": 3452,
      "ladi": 3453,
      "forlu": 3454,
      "▁kurulusunun": 3455,
      "▁bekl": 3456,
      "▁nerede": 3457,
      "▁zember": 3458,
      "▁yemegine": 3459,
      "▁amc": 3460,
      "▁suclar": 3461,
      "▁kaliforniya": 3462,
      "▁pahalıya": 3463,
      "▁kelimeler": 3464,
      "▁yerlerinde": 3465,
      "nin": 3466,
      "▁sirkete": 3467,
      "▁calıstı": 3468,
      "▁milwaukee'den": 3469,
      "▁standart": 3470,
      "▁anlamında": 3471,
      "▁torba": 3472,
      "▁yurtdısında": 3473,
      "▁hotel": 3474,
      "▁bassav": 3475,
      "▁odamiz": 3476,
      "▁muster": 3477,
      "▁gelisimini": 3478,
      "▁mig": 3479,
      "▁tarifesini": 3480,
      "▁merdiv": 3481,
      "▁merdivenin": 3482,
      "3": 3483,
      "▁arastırma": 3484,
      "er": 3485,
      "▁ulasımını": 3486,
      "▁battan": 3487,
      "▁deyip": 3488,
      "▁kentinde": 3489,
      "aylon": 3490,
      "▁programlarının": 3491,
      "▁hukumet": 3492,
      "▁selam": 3493,
      "▁ymis": 3494,
      "▁tuketicilerin": 3495,
      "▁programı": 3496,
      "▁alımları": 3497,
      "▁ortamına": 3498,
      "▁kapatmak": 3499,
      "▁ice": 3500,
      "▁kanada": 3501,
      "▁istikamet": 3502,
      "bah": 3503,
      "▁icerir": 3504,
      "▁birimini": 3505,
      "▁hakkı": 3506,
      "madıgını": 3507,
      "▁dunyayı": 3508,
      "▁iletisimi": 3509,
      "▁korkuya": 3510,
      "ca": 3511,
      "usune": 3512,
      "▁zulum": 3513,
      "ledik": 3514,
      "▁yardım": 3515,
      "▁tal": 3516,
      "▁kapandıktan": 3517,
      "▁utan": 3518,
      "▁sikay": 3519,
      "▁ofke": 3520,
      "▁dusunuyor": 3521,
      "▁fonun": 3522,
      "mektedir": 3523,
      "▁huzurlu": 3524,
      "▁eyalette": 3525,
      "▁ruya": 3526,
      "▁genelinde": 3527,
      "▁sarhos": 3528,
      "▁telefonla": 3529,
      "mız": 3530,
      "▁ihtiyacım": 3531,
      "agını": 3532,
      "▁yapmadıgını": 3533,
      "▁zarar": 3534,
      "▁calısan": 3535,
      "▁71": 3536,
      "▁halk": 3537,
      "▁evliligin": 3538,
      "▁zev": 3539,
      "itleri": 3540,
      "▁idman": 3541,
      "▁deterj": 3542,
      "▁ugr": 3543,
      "▁kocasının": 3544,
      "melerini": 3545,
      "▁altern": 3546,
      "▁bolumun": 3547,
      "▁boylesine": 3548,
      "▁otobusun": 3549,
      "▁ars": 3550,
      "tur": 3551,
      "▁azınlık": 3552,
      "▁satıcı": 3553,
      "▁dedesinin": 3554,
      "vel": 3555,
      "▁um": 3556,
      "und": 3557,
      "▁eczacı": 3558,
      "▁yakası": 3559,
      "▁cikolata": 3560,
      "▁kusagı": 3561,
      "layıp": 3562,
      "lusu": 3563,
      "cılıgına": 3564,
      "▁columbia": 3565,
      "ildigi": 3566,
      "▁saf": 3567,
      "gara": 3568,
      "▁renkte": 3569,
      "▁uyelerini": 3570,
      "atur": 3571,
      "▁haberi": 3572,
      "▁neticeye": 3573,
      "▁meydan": 3574,
      "▁duvarı": 3575,
      "▁cıt": 3576,
      "“": 3577,
      "▁1960": 3578,
      "olog": 3579,
      "▁sektorde": 3580,
      "▁hane": 3581,
      "▁aksam": 3582,
      "▁oldu": 3583,
      "​": 3584,
      "▁verimi": 3585,
      "avuz": 3586,
      "▁siddete": 3587,
      "▁heg": 3588,
      "▁yasamadik": 3589,
      "▁gemi": 3590,
      "▁ydı": 3591,
      "ika": 3592,
      "▁tl": 3593,
      "iyer": 3594,
      "▁nadir": 3595,
      "▁yasamına": 3596,
      "emek": 3597,
      "▁say": 3598,
      "▁sertifik": 3599,
      "onya": 3600,
      "▁kayna": 3601,
      "tema": 3602,
      "▁korumak": 3603,
      "▁adayları": 3604,
      "▁kahvaltisi": 3605,
      "▁kurtaj": 3606,
      "▁kızın": 3607,
      "▁baglılık": 3608,
      "▁uretiminde": 3609,
      "▁ekim": 3610,
      "atti": 3611,
      "▁kahramanlık": 3612,
      "▁ligin": 3613,
      "▁1990'": 3614,
      "▁fır": 3615,
      "▁olmayacak": 3616,
      "▁yık": 3617,
      "nın": 3618,
      "cul": 3619,
      "▁yaptirdi": 3620,
      "▁leri": 3621,
      "▁allah": 3622,
      "▁piyasasını": 3623,
      "▁dinlem": 3624,
      "▁gerc": 3625,
      "dıgınız": 3626,
      "▁9": 3627,
      "▁manevra": 3628,
      "▁roz": 3629,
      "dıg": 3630,
      "▁fizik": 3631,
      "▁%": 3632,
      "rlik": 3633,
      "lerde": 3634,
      "▁goturdu": 3635,
      "▁moral": 3636,
      "kit": 3637,
      "▁yetkilisi": 3638,
      "dikten": 3639,
      "esiyle": 3640,
      "iyet": 3641,
      "▁bura": 3642,
      "eten": 3643,
      "▁agr": 3644,
      "▁hil": 3645,
      "▁birbirlerini": 3646,
      "▁erkek": 3647,
      "▁minder": 3648,
      "▁sonraları": 3649,
      "▁yazım": 3650,
      "iller": 3651,
      "▁baskanlıgında": 3652,
      "▁gozlerim": 3653,
      "▁mulkiyet": 3654,
      "▁lastik": 3655,
      "▁hissediyor": 3656,
      "▁havayolları'nın": 3657,
      "▁haftanın": 3658,
      "▁yeniden": 3659,
      "▁ayrım": 3660,
      "▁bagırdı": 3661,
      "ham": 3662,
      "▁zah": 3663,
      "▁feder": 3664,
      "▁kitleye": 3665,
      "▁baslamıstı": 3666,
      ".000": 3667,
      "▁yede": 3668,
      "▁vurmak": 3669,
      "▁phoenix": 3670,
      "▁yasayı": 3671,
      "▁analiz": 3672,
      "▁arkadaslarıyla": 3673,
      "▁ofise": 3674,
      "▁destekley": 3675,
      "▁pasaj": 3676,
      "▁lisan": 3677,
      "▁gov": 3678,
      "▁rengi": 3679,
      "▁gorusmeleri": 3680,
      "▁duygusunun": 3681,
      "sun": 3682,
      "▁utu": 3683,
      "endir": 3684,
      "▁maruz": 3685,
      "▁ispat": 3686,
      "▁mitchell": 3687,
      "▁strateji": 3688,
      "▁urunun": 3689,
      "▁kaynaklandıgını": 3690,
      "▁kole": 3691,
      "▁vermektedir": 3692,
      "▁beyanat": 3693,
      "▁tespih": 3694,
      "▁ikibin": 3695,
      "giliz": 3696,
      "dikler": 3697,
      "tara": 3698,
      "▁hareketinin": 3699,
      "aya": 3700,
      "▁ra": 3701,
      "▁'lik": 3702,
      "▁tepsiye": 3703,
      "▁bankacılıgı": 3704,
      "▁vermedi": 3705,
      "▁somur": 3706,
      "▁nimet": 3707,
      "▁arastırmaları": 3708,
      "meliyim": 3709,
      "▁ayaklarını": 3710,
      "0'den": 3711,
      "▁sirketi": 3712,
      "▁semsiye": 3713,
      "▁birincisi": 3714,
      "▁yokus": 3715,
      "▁ex": 3716,
      "▁bilgisayar-programı": 3717,
      "▁gecirdik": 3718,
      "▁bolg": 3719,
      "orth": 3720,
      "▁kendine": 3721,
      "▁mahz": 3722,
      "▁lok": 3723,
      "yası": 3724,
      "▁yapılır": 3725,
      "▁ustelik": 3726,
      "▁sesini": 3727,
      "ulacak": 3728,
      "▁dikis": 3729,
      "ırak": 3730,
      "▁kons": 3731,
      "▁dantel": 3732,
      "▁partiyi": 3733,
      "▁gerekse": 3734,
      "▁panjur": 3735,
      "ukca": 3736,
      "▁diregi": 3737,
      "oy": 3738,
      "▁kocasına": 3739,
      "▁azabı": 3740,
      "▁phoeni": 3741,
      "▁konusunda": 3742,
      "▁mual": 3743,
      "rını": 3744,
      "▁birden": 3745,
      "▁og": 3746,
      "gim": 3747,
      "▁ziraat": 3748,
      "▁hayalet": 3749,
      "▁koop": 3750,
      "olojik": 3751,
      "▁arkadası": 3752,
      "▁degil": 3753,
      "ıcının": 3754,
      "lanarak": 3755,
      "▁mufett": 3756,
      "dig": 3757,
      "▁gelmis": 3758,
      "▁darbuk": 3759,
      "▁olu": 3760,
      "▁gazetenin": 3761,
      "▁yonet": 3762,
      "▁adamdı": 3763,
      "▁cıkıs": 3764,
      "▁belirtmek": 3765,
      "▁icti": 3766,
      "▁puanlama": 3767,
      "ıldı": 3768,
      "▁arap": 3769,
      "▁tiyatronun": 3770,
      "bia": 3771,
      "▁ekmek": 3772,
      "▁hastaneye": 3773,
      "erv": 3774,
      "▁muzigi": 3775,
      "▁sonundan": 3776,
      "▁hastane": 3777,
      "▁firar": 3778,
      "▁evlen": 3779,
      "▁tabi": 3780,
      "lanmasına": 3781,
      "emle": 3782,
      "ayı": 3783,
      "▁amerikan": 3784,
      "▁boyut": 3785,
      "▁ihalesinde": 3786,
      "▁gog": 3787,
      "▁uygulam": 3788,
      "▁sonbaharı": 3789,
      "▁yonden": 3790,
      "▁hikayesini": 3791,
      "▁cabalarını": 3792,
      "▁sirketin": 3793,
      "▁karab": 3794,
      "▁fiyatın": 3795,
      "▁tam": 3796,
      "mesin": 3797,
      "▁sendromu": 3798,
      "▁fasul": 3799,
      "▁artısı": 3800,
      "▁yabancıların": 3801,
      "▁yukarıya": 3802,
      "ık": 3803,
      "▁ont": 3804,
      "▁fark": 3805,
      "▁guclu": 3806,
      "isinda": 3807,
      "▁yıllardan": 3808,
      "▁sondur": 3809,
      "▁cemaat": 3810,
      "▁sit": 3811,
      "▁zihninde": 3812,
      "▁duduk": 3813,
      "ucu": 3814,
      "▁ayrılıp": 3815,
      "▁biraz": 3816,
      "▁hareketi": 3817,
      "▁7": 3818,
      "▁zih": 3819,
      "▁yonetiminin": 3820,
      "lıkların": 3821,
      "attle": 3822,
      "rlikte": 3823,
      "0'a": 3824,
      "▁ceph": 3825,
      "▁ucuslarınız": 3826,
      "▁dalına": 3827,
      "magını": 3828,
      "▁mahkemesi": 3829,
      "▁kampanyalardan": 3830,
      "▁isg": 3831,
      "▁sanatlar": 3832,
      "▁degirmen": 3833,
      "▁hepsinden": 3834,
      "▁isler": 3835,
      "▁yankı": 3836,
      "▁bulama": 3837,
      "▁ogr": 3838,
      "ala": 3839,
      "lilik": 3840,
      "▁hosgor": 3841,
      "▁uretiminin": 3842,
      "▁efsane": 3843,
      "▁orman": 3844,
      "imizin": 3845,
      "▁senden": 3846,
      "▁yoktur": 3847,
      "▁cifte": 3848,
      "▁onune": 3849,
      "▁odenek": 3850,
      "▁sıcagı": 3851,
      "▁resim": 3852,
      "▁londra": 3853,
      "▁baskumandan": 3854,
      "▁koyuldu": 3855,
      "▁sifir": 3856,
      "▁teyze": 3857,
      "▁merte": 3858,
      "meyerek": 3859,
      "▁beton": 3860,
      "▁orn": 3861,
      "dır": 3862,
      "▁gizlemek": 3863,
      "▁poker": 3864,
      "indi": 3865,
      "amı": 3866,
      "▁karısının": 3867,
      "▁kazancı": 3868,
      "▁gecici": 3869,
      "▁gogsunun": 3870,
      "▁kutlama": 3871,
      "▁fazilet": 3872,
      "▁kisinin": 3873,
      "▁tugla": 3874,
      "▁num": 3875,
      "mar": 3876,
      "▁beygir": 3877,
      "▁vir": 3878,
      "▁temsilcileri": 3879,
      "▁hissenin": 3880,
      "▁korkusu": 3881,
      "acaklar": 3882,
      "▁duruma": 3883,
      "lestirdi": 3884,
      "▁ayva": 3885,
      "dıgı": 3886,
      "▁yuzumu": 3887,
      "itli": 3888,
      "eksel": 3889,
      "▁kaba": 3890,
      "▁disi": 3891,
      "▁insanla": 3892,
      "uklugu": 3893,
      "▁sansur": 3894,
      "imlari": 3895,
      "▁yukarı": 3896,
      "▁yasay": 3897,
      "▁broker": 3898,
      "▁ileri": 3899,
      "▁pırıltı": 3900,
      "▁baglantı": 3901,
      "▁4": 3902,
      "▁tecrub": 3903,
      "▁degisikliklerin": 3904,
      "▁keten": 3905,
      "▁bolgesine": 3906,
      "▁first": 3907,
      "'la": 3908,
      "▁sel": 3909,
      "▁gununde": 3910,
      "▁rehberim": 3911,
      "▁islemlerine": 3912,
      "ana": 3913,
      "▁ucmanın": 3914,
      "▁etegi": 3915,
      "▁oakland'dan": 3916,
      "▁kirp": 3917,
      "elenen": 3918,
      "ganlık": 3919,
      "ciden": 3920,
      "▁anladım": 3921,
      "▁geceler": 3922,
      "▁baskalarının": 3923,
      "▁karısımı": 3924,
      "ecegimiz": 3925,
      "▁olume": 3926,
      "amızı": 3927,
      "kuz": 3928,
      "▁genislet": 3929,
      "sap": 3930,
      "▁muhabir": 3931,
      "larınla": 3932,
      "▁kırılması": 3933,
      "ısını": 3934,
      "▁lıgın": 3935,
      "▁sansını": 3936,
      "▁payı": 3937,
      "kten": 3938,
      "asur": 3939,
      "▁ırk": 3940,
      "▁oldum": 3941,
      "▁hedefleri": 3942,
      "ildigini": 3943,
      "▁senede": 3944,
      "▁jo": 3945,
      "gum": 3946,
      "▁setin": 3947,
      "▁balay": 3948,
      "▁cantasında": 3949,
      "▁gosterir": 3950,
      "▁harp": 3951,
      "▁tik": 3952,
      "▁odalardan": 3953,
      "▁gormez": 3954,
      "▁kitaplarını": 3955,
      "▁meden": 3956,
      "▁yem": 3957,
      "mamız": 3958,
      "▁odanın": 3959,
      "cagız": 3960,
      "▁icecekleri": 3961,
      "▁sattı": 3962,
      "▁lirayı": 3963,
      "▁puandan": 3964,
      "adel": 3965,
      "▁yola": 3966,
      "dini": 3967,
      "▁tadimiza": 3968,
      "▁tavr": 3969,
      "▁emrini": 3970,
      "▁faaliyette": 3971,
      "▁partisinin": 3972,
      "▁pist": 3973,
      "▁gorusmek": 3974,
      "▁hucre": 3975,
      "andır": 3976,
      "▁sahneye": 3977,
      "▁dolay": 3978,
      "sekiz": 3979,
      "▁ettigi": 3980,
      "luy": 3981,
      "o'ya": 3982,
      "▁ustlen": 3983,
      "ger": 3984,
      "▁class": 3985,
      "▁gunesten": 3986,
      "▁etmeli": 3987,
      "mur": 3988,
      "▁:": 3989,
      "▁ziyan": 3990,
      "orlu": 3991,
      "▁yarısını": 3992,
      "▁savcılar": 3993,
      "gunluk": 3994,
      "▁sonradan": 3995,
      "▁s&": 3996,
      "fes": 3997,
      "▁koyunun": 3998,
      "▁birles": 3999,
      "▁anladı": 4000,
      "▁cekmis": 4001,
      "alarını": 4002,
      "▁buzdolabı": 4003,
      "▁yonelikti": 4004,
      "▁endeks": 4005,
      "▁dusuk": 4006,
      "▁muhab": 4007,
      "▁bahanesiyle": 4008,
      "▁nufus": 4009,
      "▁kapsamlı": 4010,
      "▁kendinden": 4011,
      "▁filmleri": 4012,
      "▁hamle": 4013,
      "▁tulb": 4014,
      "▁aktar": 4015,
      "▁gon": 4016,
      "ost": 4017,
      "ew": 4018,
      "▁avına": 4019,
      "▁polon": 4020,
      "▁cagırdı": 4021,
      "kilerin": 4022,
      "▁traf": 4023,
      "lamasının": 4024,
      "▁mutfagi": 4025,
      "indir": 4026,
      "▁kerpic": 4027,
      "▁edip": 4028,
      "▁bakim": 4029,
      "▁krem": 4030,
      "anıklıgı": 4031,
      "▁espr": 4032,
      "▁seg": 4033,
      "▁versiyonu": 4034,
      "▁terliklerini": 4035,
      "▁anlıslanabili": 4036,
      "▁sırt": 4037,
      "undaki": 4038,
      "▁romant": 4039,
      "▁tek": 4040,
      "▁uzaklarda": 4041,
      "siye": 4042,
      "ksan": 4043,
      "▁iceriyor": 4044,
      "▁gorusuldu": 4045,
      "▁takı": 4046,
      "▁bula": 4047,
      "▁kalpak": 4048,
      "▁artıyor": 4049,
      "kan": 4050,
      "ilig": 4051,
      "▁fiyatlardan": 4052,
      "luyor": 4053,
      "▁rastlantı": 4054,
      "▁gormedi": 4055,
      "ysa": 4056,
      "▁fer": 4057,
      "aca": 4058,
      "▁reper": 4059,
      "▁haziranda": 4060,
      "'le": 4061,
      "▁teslimat": 4062,
      "▁kacak": 4063,
      "▁gars": 4064,
      "▁fasuly": 4065,
      "▁giriste": 4066,
      "▁dunyadan": 4067,
      "▁gostermeye": 4068,
      "▁belirtileri": 4069,
      "▁bacakları": 4070,
      "▁paris": 4071,
      "▁fakult": 4072,
      "▁macı": 4073,
      "inizin": 4074,
      "▁kasırga": 4075,
      "▁urunlerinin": 4076,
      "▁dolandırıcılık": 4077,
      "▁ticaretin": 4078,
      "▁olaylara": 4079,
      "▁kazayla": 4080,
      "nız": 4081,
      "osunda": 4082,
      "▁kagıdı": 4083,
      "▁rahip": 4084,
      "▁musam": 4085,
      "▁lir": 4086,
      "▁yapar": 4087,
      "▁malı": 4088,
      "▁inanilmaz": 4089,
      "etic": 4090,
      "ilendir": 4091,
      "▁mukemmel": 4092,
      "aralı": 4093,
      "▁agabey": 4094,
      "lan": 4095,
      "▁sık": 4096,
      "▁matba": 4097,
      "islik": 4098,
      "▁ile": 4099,
      "▁sermayesini": 4100,
      "▁kardesinin": 4101,
      "▁eserleri": 4102,
      "▁suik": 4103,
      "▁kapsamı": 4104,
      "▁yukselisle": 4105,
      "▁gec": 4106,
      "lukten": 4107,
      "▁hoc": 4108,
      "etini": 4109,
      "tane": 4110,
      "▁birbirler": 4111,
      "▁ster": 4112,
      "▁yararlanmadim": 4113,
      "▁disip": 4114,
      "▁atı": 4115,
      "▁bashek": 4116,
      "▁gosterdigini": 4117,
      "▁kısıt": 4118,
      "▁prosed": 4119,
      "▁hamam": 4120,
      "▁cevresine": 4121,
      "oyu": 4122,
      "▁obj": 4123,
      "▁odemesini": 4124,
      "▁ide": 4125,
      "▁artıs": 4126,
      "▁cıkmak": 4127,
      "▁bedel": 4128,
      "▁cekim": 4129,
      "med": 4130,
      "▁gazetesinin": 4131,
      "▁yedir": 4132,
      "▁stil": 4133,
      "▁suları": 4134,
      "▁kediyi": 4135,
      "▁suclama": 4136,
      "zırda": 4137,
      "▁duyguları": 4138,
      "▁kagıt": 4139,
      "▁serviste": 4140,
      "▁vizyon": 4141,
      "▁vazo": 4142,
      "▁herkes": 4143,
      "▁dalga": 4144,
      "▁8'den": 4145,
      "▁karmas": 4146,
      "▁dav": 4147,
      "▁kuy": 4148,
      "▁derde": 4149,
      "▁ucusla": 4150,
      "▁ayakkabılar": 4151,
      "▁ucuslarının": 4152,
      "▁enistemiz": 4153,
      "anması": 4154,
      "▁ertesi": 4155,
      "ladıgı": 4156,
      "▁cember": 4157,
      "▁sayılı": 4158,
      "cuların": 4159,
      "▁dosy": 4160,
      "▁hepimizi": 4161,
      "'dan": 4162,
      "▁sistemine": 4163,
      "▁tug": 4164,
      "kav": 4165,
      "▁hizmette": 4166,
      "ish": 4167,
      "▁onumuzdeki": 4168,
      "▁23": 4169,
      "▁derslerine": 4170,
      "▁sozluk": 4171,
      "▁kin": 4172,
      "▁ortalıgı": 4173,
      "isleri": 4174,
      "▁oyuncu": 4175,
      "4'te": 4176,
      "▁baskanlıgı": 4177,
      "anız": 4178,
      "*": 4179,
      "▁bakanlıgı": 4180,
      "▁kararsiz": 4181,
      "▁donemlerinde": 4182,
      "▁sims": 4183,
      "tanı": 4184,
      "▁sidd": 4185,
      "▁rakipleri": 4186,
      "apon": 4187,
      "▁ragmen": 4188,
      "▁sozcuk": 4189,
      "anlar": 4190,
      "▁tacirler": 4191,
      "▁no": 4192,
      "▁dergiler": 4193,
      "cag": 4194,
      "▁ilg": 4195,
      "▁tarak": 4196,
      "▁memnun": 4197,
      "3'te": 4198,
      "ıcı": 4199,
      "▁planlar": 4200,
      "▁kapısının": 4201,
      "ors": 4202,
      "▁mam": 4203,
      "▁incelem": 4204,
      "▁secimler": 4205,
      "▁tehdidini": 4206,
      "alari": 4207,
      "'ndan": 4208,
      "▁hapis": 4209,
      "▁nesesi": 4210,
      "aretle": 4211,
      "▁temet": 4212,
      "▁mul": 4213,
      "▁mode": 4214,
      "▁cadde": 4215,
      "▁yn": 4216,
      "▁yaslarına": 4217,
      "ex": 4218,
      "tıgına": 4219,
      "▁mektep": 4220,
      "▁adamının": 4221,
      "▁muzisy": 4222,
      "▁kadayıf": 4223,
      "▁kaleci": 4224,
      "▁etme": 4225,
      "▁akciger": 4226,
      "esinden": 4227,
      "sekse": 4228,
      "4'e": 4229,
      "eyle": 4230,
      "▁dep": 4231,
      "2'de": 4232,
      "▁tr": 4233,
      "▁dek": 4234,
      "▁kaliteye": 4235,
      "▁odasının": 4236,
      "▁kayb": 4237,
      "lilerden": 4238,
      "▁dogrult": 4239,
      "▁maas": 4240,
      "▁yapıs": 4241,
      "▁yılların": 4242,
      "▁yas": 4243,
      "▁heyecan": 4244,
      "▁bede": 4245,
      "eff": 4246,
      "▁bilgisini": 4247,
      "▁bulamac": 4248,
      "▁yaptım": 4249,
      "ibe": 4250,
      "▁arkası": 4251,
      "▁yelken": 4252,
      "▁mani": 4253,
      "▁vatanın": 4254,
      "▁karsılas": 4255,
      "▁oper": 4256,
      "▁doviz": 4257,
      "ini": 4258,
      "▁yaktı": 4259,
      "ogretim": 4260,
      "▁kaderi": 4261,
      "▁canları": 4262,
      "▁senator": 4263,
      "▁lezzetli": 4264,
      "▁talebe": 4265,
      "▁esyayı": 4266,
      "▁delik": 4267,
      "▁yonlendir": 4268,
      "▁ekledi": 4269,
      "▁rey": 4270,
      "▁halen": 4271,
      "meniz": 4272,
      "▁komur": 4273,
      "▁cleveland'dan": 4274,
      "▁vadesi": 4275,
      "▁oncesi": 4276,
      "▁tasarı": 4277,
      "▁ortak": 4278,
      "▁satır": 4279,
      "▁kasım'da": 4280,
      "▁bakıma": 4281,
      "tıgında": 4282,
      "▁komitesinin": 4283,
      "temelen": 4284,
      "▁konus": 4285,
      "▁camasır": 4286,
      "▁evr": 4287,
      "▁buldu": 4288,
      "▁sid": 4289,
      "ırtıları": 4290,
      "▁sın": 4291,
      "▁ist": 4292,
      "▁beri": 4293,
      "ahan": 4294,
      "▁doldurdu": 4295,
      "▁egem": 4296,
      "▁yapmadı": 4297,
      "▁dusuncesi": 4298,
      "▁tarcın": 4299,
      "▁kopar": 4300,
      "▁okulunda": 4301,
      "▁altına": 4302,
      "▁savas": 4303,
      "▁gorundu": 4304,
      "▁istiklal": 4305,
      "▁i": 4306,
      "▁kalmıs": 4307,
      "▁yerini": 4308,
      "▁kesim": 4309,
      "▁kongr": 4310,
      "▁bende": 4311,
      "▁taksi": 4312,
      "▁dor": 4313,
      "▁otelde": 4314,
      "▁kullanmayı": 4315,
      "▁kac": 4316,
      "▁fayda": 4317,
      "▁faizleri": 4318,
      "▁belge": 4319,
      "ından": 4320,
      "▁geyik": 4321,
      "izdi": 4322,
      "agına": 4323,
      "▁trav": 4324,
      "▁kodunu": 4325,
      "▁birin": 4326,
      "▁1991": 4327,
      "▁kahvaltı": 4328,
      "▁amel": 4329,
      "▁kactı": 4330,
      "▁girisim": 4331,
      "ebil": 4332,
      "▁geminin": 4333,
      "▁yanım": 4334,
      "emin": 4335,
      "▁ucusları": 4336,
      "lık": 4337,
      "▁patronu": 4338,
      "[MASK]": 4339,
      "▁otellerin": 4340,
      "▁sorusuna": 4341,
      "▁yoneticiler": 4342,
      "▁binayı": 4343,
      "▁luk": 4344,
      "ese": 4345,
      "▁peh": 4346,
      "▁tel": 4347,
      "▁bunların": 4348,
      "▁olması": 4349,
      "▁lezzetleri": 4350,
      "mustum": 4351,
      "onra": 4352,
      "▁hekim": 4353,
      "▁parkta": 4354,
      "▁vucudun": 4355,
      "▁kr": 4356,
      "▁kacın": 4357,
      "▁dord": 4358,
      "▁duser": 4359,
      "▁eve": 4360,
      "uz": 4361,
      "▁mort": 4362,
      "▁olmam": 4363,
      "▁kelimesi": 4364,
      "▁isteklerini": 4365,
      "▁kararlar": 4366,
      "▁renkleri": 4367,
      "aseb": 4368,
      "▁odalarin": 4369,
      "▁gomlegini": 4370,
      "▁oncelik": 4371,
      "larını": 4372,
      "lardı": 4373,
      "amba": 4374,
      "▁nedenleri": 4375,
      "▁yasama": 4376,
      ".75": 4377,
      "▁artık": 4378,
      "▁istanbul": 4379,
      "sinde": 4380,
      "▁ilgilendiler": 4381,
      "▁terbiye": 4382,
      "sına": 4383,
      "memi": 4384,
      "▁muhakkak": 4385,
      "dugu": 4386,
      "▁satıs": 4387,
      "▁talih": 4388,
      "▁ogrenim": 4389,
      "▁acık": 4390,
      "▁varil": 4391,
      "indeyiz": 4392,
      "▁domuz": 4393,
      "▁adamlar": 4394,
      "▁yıldız": 4395,
      "eciye": 4396,
      "▁salah": 4397,
      "▁degisiklikler": 4398,
      "▁unvanını": 4399,
      "ilar": 4400,
      "▁ydu": 4401,
      "▁alısver": 4402,
      "▁iddiaları": 4403,
      "▁kazanclarını": 4404,
      "▁mudahale": 4405,
      "▁semt": 4406,
      "▁kaybına": 4407,
      "▁7.9": 4408,
      "▁1.8": 4409,
      "▁tasv": 4410,
      "derek": 4411,
      "▁saglık": 4412,
      "enk": 4413,
      "▁yemege": 4414,
      "▁tuttur": 4415,
      "usup": 4416,
      "▁zaten": 4417,
      "dra": 4418,
      "▁capta": 4419,
      "▁skandal": 4420,
      "▁sevkiyat": 4421,
      "▁87": 4422,
      "▁saks": 4423,
      "▁yatırımcı": 4424,
      "▁saglıgını": 4425,
      "▁gecim": 4426,
      "▁endustriler": 4427,
      "▁havalimanı": 4428,
      "▁bekliyor": 4429,
      "▁atar": 4430,
      "▁sevgilisini": 4431,
      "▁degisime": 4432,
      "▁asamada": 4433,
      "▁arac": 4434,
      "▁beklentimi": 4435,
      "▁hazir": 4436,
      "▁fran": 4437,
      "▁fonlarını": 4438,
      "▁hayli": 4439,
      "▁elimize": 4440,
      "▁kayn": 4441,
      "▁sahibi": 4442,
      "liklerini": 4443,
      "▁calısanların": 4444,
      "▁sarsıntı": 4445,
      "▁munak": 4446,
      "dirde": 4447,
      "amak": 4448,
      "▁eline": 4449,
      "▁kasır": 4450,
      "▁1'den": 4451,
      "eh": 4452,
      "▁iz": 4453,
      "▁memuriyet": 4454,
      "▁ekstra": 4455,
      "▁sahiplerine": 4456,
      "▁34": 4457,
      "▁nem": 4458,
      "▁kahveyi": 4459,
      "▁onunla": 4460,
      "▁hepiniz": 4461,
      "cilerle": 4462,
      "▁uslu": 4463,
      "▁kaldim": 4464,
      "▁kıymetleri": 4465,
      "▁riv": 4466,
      "▁sorusturma": 4467,
      "▁durmamacasına": 4468,
      "▁itimat": 4469,
      "▁kalanlar": 4470,
      "▁kut": 4471,
      "▁dusunuyorum": 4472,
      "ecik": 4473,
      "▁bonoları": 4474,
      "▁surecini": 4475,
      "▁koydu": 4476,
      "tlu": 4477,
      "imiza": 4478,
      "ield": 4479,
      "▁duydu": 4480,
      "▁yukselt": 4481,
      "5'de": 4482,
      "▁aklın": 4483,
      "▁asans": 4484,
      "▁asker": 4485,
      "▁vaz": 4486,
      "▁insanoglu": 4487,
      "▁arkadan": 4488,
      "▁pahalı": 4489,
      "▁trafik": 4490,
      "ıver": 4491,
      "▁haftalarda": 4492,
      "▁pirz": 4493,
      "gut": 4494,
      "▁besin": 4495,
      "▁gemiydi": 4496,
      "▁huz": 4497,
      "▁sig": 4498,
      "melidir": 4499,
      "▁anası": 4500,
      "bs": 4501,
      "arken": 4502,
      "▁seytan": 4503,
      "▁ana": 4504,
      "▁mavzer": 4505,
      "▁yıldır": 4506,
      "▁kosullarına": 4507,
      "lanmak": 4508,
      "▁suresini": 4509,
      "▁fabrikada": 4510,
      "adını": 4511,
      "▁yatır": 4512,
      "dıgımız": 4513,
      "▁yıllara": 4514,
      "▁gazin": 4515,
      "▁evimde": 4516,
      "▁destekle": 4517,
      "▁uretic": 4518,
      "▁nazar": 4519,
      "leti": 4520,
      "▁kumas": 4521,
      "▁miami": 4522,
      "▁kosede": 4523,
      "11": 4524,
      "▁diktator": 4525,
      "▁ustunde": 4526,
      "▁hareketiyle": 4527,
      "▁katılımcıların": 4528,
      "gıyla": 4529,
      "▁kokuyor": 4530,
      "▁havl": 4531,
      "▁it": 4532,
      "▁samar": 4533,
      "▁fotograflar": 4534,
      "elige": 4535,
      "▁cift": 4536,
      "▁calıstır": 4537,
      "▁ben": 4538,
      "▁karla": 4539,
      "▁galiba": 4540,
      "▁suyu": 4541,
      "▁bizden": 4542,
      "▁bilgim": 4543,
      "▁kılıf": 4544,
      "▁du": 4545,
      "▁yukumluluk": 4546,
      "unan": 4547,
      "▁makineler": 4548,
      "▁yakıt": 4549,
      "▁isada": 4550,
      "essum": 4551,
      "▁zaferi": 4552,
      "ıyor": 4553,
      "dırdı": 4554,
      "ta": 4555,
      "▁ilgin": 4556,
      "ece": 4557,
      "bol": 4558,
      "▁enflasyon": 4559,
      "▁sanatı": 4560,
      "▁bayanlar": 4561,
      "asında": 4562,
      "cin": 4563,
      "▁yanda": 4564,
      "▁devlet": 4565,
      "▁cebinde": 4566,
      "iel": 4567,
      "iyordu": 4568,
      "▁ucretleri": 4569,
      "▁fikirler": 4570,
      "lıca": 4571,
      "▁balayi": 4572,
      "▁bulgu": 4573,
      "eniz": 4574,
      "▁kopru": 4575,
      "▁marka": 4576,
      "lerini": 4577,
      "ia": 4578,
      "bak": 4579,
      "dug": 4580,
      "▁buraya": 4581,
      "▁sonr": 4582,
      "▁glas": 4583,
      "itmek": 4584,
      "▁fırca": 4585,
      "▁listede": 4586,
      "▁ulusal": 4587,
      "▁tim": 4588,
      "alarda": 4589,
      "me": 4590,
      "▁fenalık": 4591,
      "▁dongu": 4592,
      "3'e": 4593,
      "▁sirketinden": 4594,
      "▁satımı": 4595,
      "va": 4596,
      "▁meseleler": 4597,
      "▁ovgu": 4598,
      "▁hasan": 4599,
      "▁kapasitesi": 4600,
      "▁ortalaması": 4601,
      ".875": 4602,
      "▁devlete": 4603,
      "▁kusların": 4604,
      "▁elimle": 4605,
      "▁faturamin": 4606,
      "▁prote": 4607,
      "▁mimarlık": 4608,
      "▁mit": 4609,
      "▁arabasına": 4610,
      "▁anad": 4611,
      "▁prop": 4612,
      "op": 4613,
      "▁za": 4614,
      "nun": 4615,
      "▁gazetecileri": 4616,
      "▁fabrika": 4617,
      "▁acen": 4618,
      "▁yetersiz": 4619,
      "▁ortami": 4620,
      "ilecek": 4621,
      "▁neredeyse": 4622,
      "▁beklenen": 4623,
      "lıc": 4624,
      "▁kulak": 4625,
      "▁buyudu": 4626,
      "▁cat": 4627,
      "▁turk": 4628,
      "▁olasılık": 4629,
      "▁gelmez": 4630,
      "▁fiyattan": 4631,
      "▁ayna": 4632,
      "▁adında": 4633,
      "▁sozlerine": 4634,
      "▁cocuklarını": 4635,
      "▁kahvehan": 4636,
      "eket": 4637,
      "▁soyluyorlar": 4638,
      "▁ogretmenim": 4639,
      "▁karsıladı": 4640,
      "▁aclıktan": 4641,
      "▁etmek": 4642,
      "▁piyasaya": 4643,
      "lamaz": 4644,
      "▁endustri": 4645,
      "yn": 4646,
      "▁burası": 4647,
      "▁oyunda": 4648,
      "▁degisik": 4649,
      "▁kesil": 4650,
      "▁jam": 4651,
      "▁fiyatlarla": 4652,
      "etteki": 4653,
      "▁com": 4654,
      "▁hiddet": 4655,
      "▁problemi": 4656,
      "▁mark": 4657,
      "▁kapısından": 4658,
      "lanır": 4659,
      "ladık": 4660,
      "▁gerceklestir": 4661,
      "▁aday": 4662,
      "▁emtia": 4663,
      "▁atılım": 4664,
      "▁ikin": 4665,
      "bu": 4666,
      "amay": 4667,
      "▁surdu": 4668,
      "▁ucretine": 4669,
      "▁sini": 4670,
      "▁rolunu": 4671,
      "▁sordum": 4672,
      "▁kucuk": 4673,
      "▁sun": 4674,
      "▁kulagını": 4675,
      "▁carsıya": 4676,
      "masını": 4677,
      "osun": 4678,
      "▁gav": 4679,
      "▁budak": 4680,
      "meti": 4681,
      "sul": 4682,
      "tıl": 4683,
      "▁bang": 4684,
      "▁tartısmaya": 4685,
      "dılar": 4686,
      "-": 4687,
      "▁bakan": 4688,
      "ina": 4689,
      "▁pesine": 4690,
      "▁kog": 4691,
      "▁subay": 4692,
      "ebilmek": 4693,
      "▁hissedarları": 4694,
      "▁sebebiyle": 4695,
      "▁cocuklug": 4696,
      "▁yazarı": 4697,
      "▁piyasanın": 4698,
      "phis": 4699,
      "▁icer": 4700,
      "▁hey": 4701,
      "▁tv": 4702,
      "▁sahne": 4703,
      "▁ru": 4704,
      "▁gonlunu": 4705,
      "▁artırmak": 4706,
      "▁yaptirmadim": 4707,
      "▁duzene": 4708,
      "▁asl": 4709,
      "▁belir": 4710,
      "▁icine": 4711,
      "▁benim": 4712,
      "▁mahallede": 4713,
      "▁tuyleri": 4714,
      "▁makaleye": 4715,
      "ur": 4716,
      "▁le": 4717,
      "▁geldikleri": 4718,
      "▁gururu": 4719,
      "iyorsun": 4720,
      "▁karaltı": 4721,
      "▁imzaladı": 4722,
      "▁sirketini": 4723,
      "▁tahta": 4724,
      "▁hukuk": 4725,
      "gımız": 4726,
      "▁olacaktı": 4727,
      "aparki": 4728,
      "▁etrafında": 4729,
      "▁ısıkları": 4730,
      "▁denli": 4731,
      "▁ocak": 4732,
      "▁pence": 4733,
      "▁gunluk": 4734,
      "▁sonucların": 4735,
      "▁calık": 4736,
      "▁illet": 4737,
      "acı": 4738,
      "inlik": 4739,
      "▁oykusu": 4740,
      "▁hanimla": 4741,
      "▁otobus": 4742,
      "▁varlıgını": 4743,
      "yi": 4744,
      "▁ikinci": 4745,
      "▁renkli": 4746,
      ".85": 4747,
      "▁kucuktu": 4748,
      "▁ansik": 4749,
      "▁topları": 4750,
      "▁gitar": 4751,
      "▁degerli": 4752,
      "deki": 4753,
      "▁20": 4754,
      "48": 4755,
      "▁gost": 4756,
      "▁fuze": 4757,
      "▁guluyor": 4758,
      "▁ibar": 4759,
      "ens": 4760,
      "▁ecz": 4761,
      "reti": 4762,
      "ef": 4763,
      "▁konak": 4764,
      "▁bakın": 4765,
      "fur": 4766,
      "ock": 4767,
      "▁acıklıyor": 4768,
      "▁cun": 4769,
      "unikasyon": 4770,
      "▁olculere": 4771,
      "▁kumsal": 4772,
      "▁uzum": 4773,
      "▁hun": 4774,
      "▁kentte": 4775,
      "asının": 4776,
      "amıs": 4777,
      "tasıyla": 4778,
      "▁padisah": 4779,
      "'": 4780,
      "▁duvarlar": 4781,
      "▁reorganizasyon": 4782,
      "▁1985'te": 4783,
      "elerinin": 4784,
      "▁rolu": 4785,
      "sızın": 4786,
      "▁duydum": 4787,
      "▁teklifin": 4788,
      "tti": 4789,
      "▁cagr": 4790,
      "▁vatandas": 4791,
      "▁cuval": 4792,
      "cesine": 4793,
      "ceklerini": 4794,
      "▁neden": 4795,
      "▁ode": 4796,
      "▁usta": 4797,
      "▁buyuklugu": 4798,
      "▁doruk": 4799,
      "▁ortamda": 4800,
      "▁teyp": 4801,
      "▁isci": 4802,
      "hu": 4803,
      "▁vız": 4804,
      "itti": 4805,
      "▁": 4806,
      "▁gunun": 4807,
      "▁hayatta": 4808,
      "▁sarlat": 4809,
      "▁getirdigini": 4810,
      "▁birisi": 4811,
      "▁zeki": 4812,
      "lıgıyla": 4813,
      "▁agrısı": 4814,
      "▁iyice": 4815,
      "▁salat": 4816,
      "▁havaalanından": 4817,
      "▁kilogram": 4818,
      "▁ucretlerini": 4819,
      "▁bazda": 4820,
      "iki": 4821,
      "▁yargıl": 4822,
      "asıtasıyla": 4823,
      "▁firmasının": 4824,
      "▁istatistik": 4825,
      "▁artı": 4826,
      "▁hayatımızın": 4827,
      "▁buldum": 4828,
      "▁yuvar": 4829,
      "acagini": 4830,
      "uyoruz": 4831,
      "▁imtiy": 4832,
      "▁yaptim": 4833,
      "lunun": 4834,
      "▁sarayın": 4835,
      "▁adamları": 4836,
      "▁fast": 4837,
      "legen": 4838,
      "▁.)": 4839,
      "gal": 4840,
      "▁kadınlar": 4841,
      "▁eserini": 4842,
      "▁onder": 4843,
      "▁seyr": 4844,
      "▁ihtimali": 4845,
      "▁eserler": 4846,
      "▁yasını": 4847,
      "▁kadına": 4848,
      "▁tered": 4849,
      "▁bayram": 4850,
      "▁kadrosu": 4851,
      "▁buyur": 4852,
      "▁gitgide": 4853,
      "▁hediye": 4854,
      "▁devre": 4855,
      "▁angeles'e": 4856,
      "▁kucagına": 4857,
      "▁hanım": 4858,
      "▁getirir": 4859,
      "▁yıllardır": 4860,
      "yasal": 4861,
      "enin": 4862,
      "▁edilen": 4863,
      "▁odam": 4864,
      "▁ayrıc": 4865,
      "lugunde": 4866,
      "▁a.m": 4867,
      "▁tedavulde": 4868,
      "▁ekibinin": 4869,
      "▁yonuyle": 4870,
      "▁davacı": 4871,
      "▁konuya": 4872,
      "ian": 4873,
      "▁dahi": 4874,
      "▁uygu": 4875,
      "uzu": 4876,
      "▁goruyor": 4877,
      "▁tif": 4878,
      "▁3\\/8": 4879,
      "▁temb": 4880,
      "▁kalmayı": 4881,
      "cilerin": 4882,
      "▁duserek": 4883,
      "▁dolasmaya": 4884,
      "▁dısarıda": 4885,
      "▁cıkıyordu": 4886,
      "▁cocuklu": 4887,
      "▁etmenin": 4888,
      "elleri": 4889,
      "▁cal": 4890,
      "▁ayrıca": 4891,
      "▁ehl": 4892,
      "▁lafa": 4893,
      "lısı": 4894,
      "▁misafirler": 4895,
      "▁suyuna": 4896,
      "▁ab": 4897,
      "▁komisyonları": 4898,
      "▁mas": 4899,
      "▁emekliye": 4900,
      "aja": 4901,
      "▁verime": 4902,
      "▁cizgileri": 4903,
      "▁cop": 4904,
      "▁katı": 4905,
      "▁nih": 4906,
      "▁dakika": 4907,
      "▁c": 4908,
      "manlar": 4909,
      "▁ekonomik": 4910,
      "▁dusunmuyor": 4911,
      "▁kaleme": 4912,
      "▁piyasalarını": 4913,
      "▁hou": 4914,
      "▁seans": 4915,
      "▁yıllarında": 4916,
      "▁kusagının": 4917,
      "▁yor": 4918,
      "▁ilisk": 4919,
      "▁hakikat": 4920,
      "▁tur": 4921,
      "▁ortadan": 4922,
      "uc": 4923,
      "▁otor": 4924,
      "▁onemi": 4925,
      "dıgımı": 4926,
      "he": 4927,
      "▁hukumetinin": 4928,
      "▁gel": 4929,
      "▁borsası'nda": 4930,
      "▁havaalanlarını": 4931,
      "▁aldik": 4932,
      "oeni": 4933,
      "▁rahat": 4934,
      "▁tazminat": 4935,
      "▁markaları": 4936,
      "▁karanfil": 4937,
      "▁lezz": 4938,
      "▁saglam": 4939,
      "▁karsiligini": 4940,
      "anını": 4941,
      "malıydı": 4942,
      "▁espri": 4943,
      "▁macın": 4944,
      "▁iceriye": 4945,
      "imum": 4946,
      "▁kaldırım": 4947,
      "▁.\"": 4948,
      "▁icat": 4949,
      "▁buranın": 4950,
      "▁zaaf": 4951,
      "▁pencerede": 4952,
      "▁dairesine": 4953,
      "▁odamın": 4954,
      "▁ins": 4955,
      "▁oyla": 4956,
      "▁beraber": 4957,
      "▁oldugunu": 4958,
      "▁kredilere": 4959,
      "niz": 4960,
      "ildi": 4961,
      "▁politikasını": 4962,
      "▁maske": 4963,
      "▁yuksek": 4964,
      "▁sosyalizm": 4965,
      "▁yetmis": 4966,
      "▁195": 4967,
      "▁bahis": 4968,
      "▁uygulamayı": 4969,
      "dev": 4970,
      "▁sisteminin": 4971,
      "▁av": 4972,
      "tih": 4973,
      "▁kafa": 4974,
      "▁modelleri": 4975,
      "▁magara": 4976,
      "▁acıklaması": 4977,
      "▁koltugun": 4978,
      "lasın": 4979,
      "umuza": 4980,
      "desinin": 4981,
      "▁daglara": 4982,
      "▁bonolar": 4983,
      "▁yazıyor": 4984,
      "▁kapan": 4985,
      "▁koruy": 4986,
      "▁yuzdelik": 4987,
      "ak": 4988,
      "▁met": 4989,
      "lugundan": 4990,
      "▁sız": 4991,
      "▁hatıra": 4992,
      "▁galip": 4993,
      "ır": 4994,
      "▁teror": 4995,
      "▁gerci": 4996,
      "▁m": 4997,
      "▁salonunda": 4998,
      "▁ayakta": 4999,
      "▁tutul": 5000,
      "sık": 5001,
      "▁elektr": 5002,
      "▁hastalıgına": 5003,
      "▁eser": 5004,
      "leyicileri": 5005,
      "▁yetkili": 5006,
      "▁ayr": 5007,
      "▁sovyetlerin": 5008,
      "aat": 5009,
      "▁hıckırık": 5010,
      "dokuz": 5011,
      "▁koyn": 5012,
      "▁muhafazak": 5013,
      "▁kapsa": 5014,
      "▁etmeyi": 5015,
      "▁siparisi": 5016,
      "kanlı": 5017,
      "▁rakibini": 5018,
      "▁uzaga": 5019,
      "▁tahsis": 5020,
      "▁milli": 5021,
      "iben": 5022,
      "▁profesoru": 5023,
      "▁tecrube": 5024,
      "▁201": 5025,
      "▁aylarında": 5026,
      "▁edecegim": 5027,
      "▁alay": 5028,
      "tator": 5029,
      "bin": 5030,
      "▁gurultusu": 5031,
      "▁gormus": 5032,
      "lular": 5033,
      "▁olan": 5034,
      "▁olanları": 5035,
      "▁kurumları": 5036,
      "▁80": 5037,
      "▁sinemaya": 5038,
      "▁yarısına": 5039,
      "▁york'a": 5040,
      "ili": 5041,
      "rt": 5042,
      "▁1/2'den": 5043,
      "▁balıkları": 5044,
      "▁nes": 5045,
      "▁omr": 5046,
      "▁servet": 5047,
      "▁isciyi": 5048,
      "▁uzman": 5049,
      "muslar": 5050,
      "▁sandaly": 5051,
      "▁zamankinden": 5052,
      "▁merkezinin": 5053,
      "▁por": 5054,
      "▁piyasada": 5055,
      "▁mektebi": 5056,
      "layın": 5057,
      "▁cinsiyet": 5058,
      "ldi": 5059,
      "ciger": 5060,
      "malar": 5061,
      "asıdır": 5062,
      "▁arastırmalar": 5063,
      "▁hareketini": 5064,
      "sızlıgı": 5065,
      "lılıgı": 5066,
      "▁satmaya": 5067,
      "tıs": 5068,
      "▁doktorun": 5069,
      "▁haberim": 5070,
      "▁hayatında": 5071,
      "▁bluz": 5072,
      "teri": 5073,
      "▁firma": 5074,
      "▁yapıyordu": 5075,
      "▁sehri": 5076,
      "▁referans": 5077,
      "▁tencer": 5078,
      "otu": 5079,
      "▁gercekleri": 5080,
      "▁ede": 5081,
      ".9": 5082,
      "oya": 5083,
      "▁projeleri": 5084,
      "▁goruntusu": 5085,
      "tum": 5086,
      "▁olabil": 5087,
      "▁sokagın": 5088,
      "▁mahkemeler": 5089,
      "▁gercekte": 5090,
      "▁onayına": 5091,
      "lesine": 5092,
      "▁konserv": 5093,
      "▁teb": 5094,
      "▁secmen": 5095,
      "stu": 5096,
      "▁st": 5097,
      "▁cizm": 5098,
      "▁artan": 5099,
      "▁topraga": 5100,
      "▁yabanc": 5101,
      "▁0.0": 5102,
      "▁cekildi": 5103,
      "▁indian": 5104,
      "▁es": 5105,
      "▁ailecek": 5106,
      "▁lam": 5107,
      "▁gayret": 5108,
      "must": 5109,
      "▁efendim": 5110,
      "▁soru": 5111,
      "▁sterlin": 5112,
      "▁kurucusu": 5113,
      "▁ipotekler": 5114,
      "▁biriydi": 5115,
      "▁munaseb": 5116,
      "▁sehirlerde": 5117,
      "ore": 5118,
      "▁uye": 5119,
      "▁yıla": 5120,
      "▁58": 5121,
      "▁hepsinin": 5122,
      "▁hukumetin": 5123,
      "▁genellikle": 5124,
      "irdi": 5125,
      "▁karbon": 5126,
      "▁akınt": 5127,
      "▁kanaat": 5128,
      "▁boluk": 5129,
      "▁noktaya": 5130,
      "▁miralay": 5131,
      "emizin": 5132,
      "▁kadir": 5133,
      "ya'da": 5134,
      "▁damarı": 5135,
      "▁kategorisi": 5136,
      "▁arabayı": 5137,
      "▁denizciler": 5138,
      "▁muzayede": 5139,
      "▁salon": 5140,
      "▁saglıgı": 5141,
      "▁dusuncenin": 5142,
      "▁artısın": 5143,
      "▁artıslarına": 5144,
      "▁maksat": 5145,
      "▁katılımcı": 5146,
      "imizi": 5147,
      "▁geli": 5148,
      "▁tedbirler": 5149,
      "▁danıs": 5150,
      "▁utop": 5151,
      "ndaki": 5152,
      "ilir": 5153,
      "adı": 5154,
      "▁seylerden": 5155,
      "▁kralic": 5156,
      "cagızı": 5157,
      "▁mim": 5158,
      "▁gaf": 5159,
      "lar": 5160,
      "▁tari": 5161,
      "▁ilcesinde": 5162,
      "kin": 5163,
      "▁doktora": 5164,
      "▁odalarda": 5165,
      "▁ob": 5166,
      "▁dısisleri": 5167,
      "▁acıgı": 5168,
      "ade": 5169,
      "▁kurumu": 5170,
      "▁dinlenmek": 5171,
      "▁mıyım": 5172,
      "▁malzeme": 5173,
      "▁tabancayı": 5174,
      "▁yastık": 5175,
      "▁arastırmacı": 5176,
      "istin": 5177,
      "▁binada": 5178,
      "▁sark": 5179,
      "▁ikna": 5180,
      "cular": 5181,
      "▁w": 5182,
      "▁sosyalist": 5183,
      "▁onlerinde": 5184,
      "▁arkamdan": 5185,
      "▁servisi": 5186,
      "ılmasını": 5187,
      "▁finansmanı": 5188,
      "▁katılım": 5189,
      "▁tutacak": 5190,
      "▁yah": 5191,
      "▁telas": 5192,
      "▁nakit": 5193,
      "▁cizgisini": 5194,
      "▁ralli": 5195,
      "▁charlotte'den": 5196,
      "▁bord": 5197,
      "▁aracılık": 5198,
      "▁patr": 5199,
      "▁mutfag": 5200,
      "▁secenek": 5201,
      "▁der": 5202,
      "▁cıngırak": 5203,
      "▁taht": 5204,
      "▁ayn": 5205,
      "▁dedi": 5206,
      "▁annesiyle": 5207,
      "▁enerj": 5208,
      "▁ticareti": 5209,
      "▁kacırmak": 5210,
      "▁getir": 5211,
      "▁konusu": 5212,
      "▁kasla": 5213,
      "▁fikir": 5214,
      "gam": 5215,
      "▁berab": 5216,
      "▁sonuclarından": 5217,
      "▁dostlar": 5218,
      "▁halka": 5219,
      "▁hazırladı": 5220,
      "▁musteri": 5221,
      "▁gole": 5222,
      "▁lodos": 5223,
      "▁ruhu": 5224,
      "ult": 5225,
      "irler": 5226,
      "ıldıgı": 5227,
      ";": 5228,
      "▁torbaya": 5229,
      "▁olmayacagını": 5230,
      "lesmis": 5231,
      "▁de": 5232,
      "▁coktan": 5233,
      "▁gorucu": 5234,
      "▁harcama": 5235,
      "▁bası": 5236,
      "▁kulag": 5237,
      "desini": 5238,
      "▁fiyatlarını": 5239,
      "▁uzattı": 5240,
      "▁fant": 5241,
      "cıyı": 5242,
      "eksu": 5243,
      "sis": 5244,
      "▁anında": 5245,
      "aff": 5246,
      "▁yorumunu": 5247,
      "▁uretime": 5248,
      "▁?..": 5249,
      "▁cokusunden": 5250,
      "▁verg": 5251,
      "▁mısınız": 5252,
      "▁boga": 5253,
      "▁birbir": 5254,
      "ettir": 5255,
      "▁cennet": 5256,
      "-sat": 5257,
      "▁yapragı": 5258,
      "▁196": 5259,
      "▁sarkının": 5260,
      "▁gizli": 5261,
      "▁serbet": 5262,
      "ayet": 5263,
      "▁inkılap": 5264,
      "ımı": 5265,
      "attı": 5266,
      "▁beylik": 5267,
      "▁kırmız": 5268,
      "▁toplantıya": 5269,
      "▁gaza": 5270,
      "▁18": 5271,
      "▁tanıklık": 5272,
      "▁duny": 5273,
      "▁kuk": 5274,
      "▁felsefe": 5275,
      "▁iznini": 5276,
      "▁ederiz": 5277,
      "ass": 5278,
      "uttur": 5279,
      "▁kalemi": 5280,
      "madım": 5281,
      "▁ettikleri": 5282,
      "▁kıta": 5283,
      "enlik": 5284,
      "▁sivr": 5285,
      "attan": 5286,
      "▁bugune": 5287,
      "▁terz": 5288,
      "▁adımlar": 5289,
      "▁esy": 5290,
      "▁ardında": 5291,
      "▁ekmegi": 5292,
      "▁noktasında": 5293,
      "lugunu": 5294,
      "▁olasılıgını": 5295,
      "▁ka": 5296,
      "▁yemegin": 5297,
      "▁karsılıgını": 5298,
      "▁muhasebe": 5299,
      "▁doları'na": 5300,
      "▁tarafını": 5301,
      "hakk": 5302,
      "▁ittifak": 5303,
      "▁niyetine": 5304,
      "▁onumuzde": 5305,
      "▁borclanma": 5306,
      "▁yog": 5307,
      "▁beni": 5308,
      "▁surum": 5309,
      "▁gorunumu": 5310,
      "▁sist": 5311,
      "▁veril": 5312,
      "▁imaj": 5313,
      "▁eli": 5314,
      "▁cicek": 5315,
      "▁amer": 5316,
      "▁evim": 5317,
      "▁yagm": 5318,
      "▁ceb": 5319,
      "▁ulasa": 5320,
      "ısı": 5321,
      "▁oynamaya": 5322,
      "▁uykuya": 5323,
      "unc": 5324,
      "▁agız": 5325,
      "▁mamafi": 5326,
      "iyetli": 5327,
      "▁pazarı": 5328,
      "▁ula": 5329,
      "rur": 5330,
      "telik": 5331,
      "dde": 5332,
      "'ı": 5333,
      "ulatif": 5334,
      "▁ekibine": 5335,
      "▁dogr": 5336,
      "▁kit": 5337,
      "ın": 5338,
      "▁hes": 5339,
      "▁akrep": 5340,
      "▁gidiyordu": 5341,
      "▁acıklama": 5342,
      "▁temizlikte": 5343,
      "ısım": 5344,
      "agi": 5345,
      "▁sofraya": 5346,
      "ari": 5347,
      "asa": 5348,
      "▁kahvesi": 5349,
      "endinin": 5350,
      "▁biyotekn": 5351,
      "▁devrinde": 5352,
      "▁japon": 5353,
      "▁acak": 5354,
      "▁uzere": 5355,
      "▁portfoyu": 5356,
      "ligini": 5357,
      "▁malzem": 5358,
      "▁hemen": 5359,
      "▁kamu": 5360,
      "▁kaldırma": 5361,
      "▁bekler": 5362,
      "▁yoldası": 5363,
      "▁mıdır": 5364,
      "uldeki": 5365,
      "▁mola": 5366,
      "▁one": 5367,
      "▁bad": 5368,
      "▁1\\/": 5369,
      "tu": 5370,
      "▁ihtiras": 5371,
      "larda": 5372,
      "▁rot": 5373,
      "▁bic": 5374,
      "▁argum": 5375,
      "▁cesitlendirme": 5376,
      "ek": 5377,
      "▁vurdu": 5378,
      "▁adeta": 5379,
      "▁bolumu": 5380,
      "▁bela": 5381,
      "▁vadeli": 5382,
      "▁sur": 5383,
      "▁oranla": 5384,
      "▁kredisi": 5385,
      "▁burosunda": 5386,
      "▁tasdik": 5387,
      "▁sip": 5388,
      "▁leble": 5389,
      "▁istedigim": 5390,
      "▁bizim": 5391,
      "▁yargı": 5392,
      "▁palas": 5393,
      "▁sahit": 5394,
      "ro": 5395,
      "▁istihbarat": 5396,
      "▁banyosu": 5397,
      "▁tekstil": 5398,
      "▁koca": 5399,
      "▁cenaze": 5400,
      "▁olanaklari": 5401,
      "▁cesidi": 5402,
      "ılır": 5403,
      "▁houston'a": 5404,
      "▁okullar": 5405,
      "▁ust": 5406,
      "▁etrafımda": 5407,
      "▁istemem": 5408,
      "▁insanların": 5409,
      "▁ruz": 5410,
      "iski": 5411,
      "▁rad": 5412,
      "p": 5413,
      "▁onemlisi": 5414,
      "▁yapr": 5415,
      "▁gecerli": 5416,
      "▁gazet": 5417,
      "▁baslarına": 5418,
      "ıyorsun": 5419,
      "▁yasasında": 5420,
      "usunuz": 5421,
      "▁planda": 5422,
      "▁sosyal": 5423,
      "▁miras": 5424,
      "▁osman": 5425,
      "malıyız": 5426,
      "▁konfor": 5427,
      "▁dusus": 5428,
      "▁derecede": 5429,
      "▁kaslarını": 5430,
      "luk": 5431,
      "▁kayıgın": 5432,
      "umluydu": 5433,
      "acıya": 5434,
      "▁olgu": 5435,
      "▁kaldırdı": 5436,
      "▁talebi": 5437,
      "▁halkın": 5438,
      "▁bunları": 5439,
      "rah": 5440,
      "▁daktil": 5441,
      "ecegi": 5442,
      "ville": 5443,
      "▁emin": 5444,
      "▁pik": 5445,
      "▁darı": 5446,
      "▁ogut": 5447,
      "▁bundan": 5448,
      "▁muess": 5449,
      "▁sınırlandır": 5450,
      "▁otomobiller": 5451,
      "▁istis": 5452,
      "▁cıkıyor": 5453,
      "▁iyiles": 5454,
      "▁ileride": 5455,
      "▁dili": 5456,
      "▁gogsunu": 5457,
      "cusu": 5458,
      "ilme": 5459,
      "▁firmalarının": 5460,
      "▁degismedi": 5461,
      "▁vitam": 5462,
      "▁edilmedi": 5463,
      "▁tamamı": 5464,
      "▁olgunluk": 5465,
      "▁redd": 5466,
      "aray": 5467,
      "▁zenginlik": 5468,
      "▁insaat": 5469,
      "ıyordu": 5470,
      "▁bakısta": 5471,
      "▁corp.": 5472,
      "mad": 5473,
      "▁yapının": 5474,
      "▁tutarı": 5475,
      "▁siyas": 5476,
      "▁boynunda": 5477,
      "▁saat": 5478,
      "▁cekin": 5479,
      "▁depol": 5480,
      "leri": 5481,
      "▁reisi": 5482,
      "▁sacak": 5483,
      "▁financi": 5484,
      "▁cay": 5485,
      "'lik": 5486,
      "arında": 5487,
      "▁yolları": 5488,
      "ki": 5489,
      "▁herkesi": 5490,
      "▁kollarını": 5491,
      "▁avans": 5492,
      "liginden": 5493,
      "▁pla": 5494,
      "▁agırlık": 5495,
      "▁bolgeleri": 5496,
      "ıktan": 5497,
      "▁stratejiler": 5498,
      "▁razı": 5499,
      "omosyon": 5500,
      "▁cozumu": 5501,
      "▁istatist": 5502,
      "adetin": 5503,
      "esin": 5504,
      "▁leh": 5505,
      "▁patlıc": 5506,
      "arlıgı": 5507,
      "▁post": 5508,
      "ilerin": 5509,
      "▁star": 5510,
      "▁kozmetik": 5511,
      "▁baktım": 5512,
      "▁hab": 5513,
      "▁itibaren": 5514,
      "lamalar": 5515,
      "acıları": 5516,
      "▁endust": 5517,
      "▁evin": 5518,
      "▁gi": 5519,
      "▁chicag": 5520,
      "▁petersburg": 5521,
      "▁mer": 5522,
      "asından": 5523,
      "▁zum": 5524,
      "▁mudurun": 5525,
      "▁tatbik": 5526,
      "▁yapmaları": 5527,
      "iyor": 5528,
      "▁iddialarını": 5529,
      "▁yarısı": 5530,
      "▁hesap": 5531,
      "▁yılından": 5532,
      "▁albay": 5533,
      "▁naf": 5534,
      "isten": 5535,
      "▁bizlere": 5536,
      "▁verici": 5537,
      "avv": 5538,
      "▁muhtar": 5539,
      "ite": 5540,
      "▁tutam": 5541,
      "▁ifade": 5542,
      "▁suikast": 5543,
      "▁muav": 5544,
      "▁fit": 5545,
      "▁kirem": 5546,
      "▁ask": 5547,
      "▁gozalt": 5548,
      "elerde": 5549,
      "▁azı": 5550,
      "▁gecmiste": 5551,
      "ince": 5552,
      "esi": 5553,
      "turel": 5554,
      "▁mevdu": 5555,
      "▁piyasaları": 5556,
      "▁kale": 5557,
      "ilerle": 5558,
      "▁mektu": 5559,
      "▁projeler": 5560,
      "▁tekst": 5561,
      "▁ablası": 5562,
      "▁oyununa": 5563,
      "▁polit": 5564,
      "▁annenin": 5565,
      "▁kategor": 5566,
      "▁gordum": 5567,
      "▁semp": 5568,
      "▁'lı": 5569,
      "▁bacagını": 5570,
      "▁kır": 5571,
      "▁id": 5572,
      "▁yılı": 5573,
      "▁hatt": 5574,
      "raz": 5575,
      "▁..": 5576,
      "▁siparis": 5577,
      "▁dereceye": 5578,
      "duklarını": 5579,
      "▁bayır": 5580,
      "▁beyazın": 5581,
      "▁horm": 5582,
      "▁bahseder": 5583,
      "fa": 5584,
      "▁yut": 5585,
      "▁eserin": 5586,
      "▁altinda": 5587,
      "ansal": 5588,
      "liye": 5589,
      "▁hadis": 5590,
      "istler": 5591,
      "digine": 5592,
      "▁sogan": 5593,
      "▁%1": 5594,
      "na": 5595,
      "▁milyondan": 5596,
      "▁suk": 5597,
      "▁hisselerine": 5598,
      "▁hostes": 5599,
      "▁merkezinde": 5600,
      "▁postacı": 5601,
      "▁kan": 5602,
      "▁muhar": 5603,
      "▁yatırım": 5604,
      "▁biliyor": 5605,
      "▁fırtına": 5606,
      "▁cıkınca": 5607,
      "▁topluma": 5608,
      "▁teselli": 5609,
      "▁planları": 5610,
      "▁sada": 5611,
      "emb": 5612,
      "▁kam": 5613,
      "▁kader": 5614,
      "▁tasıyan": 5615,
      "tarken": 5616,
      "▁karsıma": 5617,
      "▁kaplama": 5618,
      "▁eliyle": 5619,
      "▁lal": 5620,
      "▁muhendislik": 5621,
      "▁kisisi": 5622,
      "▁kaf": 5623,
      "▁teni": 5624,
      "▁havaal": 5625,
      "▁61": 5626,
      "▁tazminatı": 5627,
      "▁kitap": 5628,
      "▁nefer": 5629,
      "▁meydanda": 5630,
      "▁tanın": 5631,
      "▁goruyoruz": 5632,
      "kot": 5633,
      "▁dogruya": 5634,
      "▁davada": 5635,
      "▁yakin": 5636,
      "▁ail": 5637,
      "▁ucan": 5638,
      "▁bogum": 5639,
      "ırlı": 5640,
      "etre": 5641,
      "▁kahkahalar": 5642,
      "eginin": 5643,
      "▁endustrisi": 5644,
      "lıgın": 5645,
      "▁kop": 5646,
      "cak": 5647,
      "▁99": 5648,
      "▁bostan": 5649,
      "▁meclis": 5650,
      "▁teknolojisi": 5651,
      "▁arkadasa": 5652,
      "▁kıdemli": 5653,
      "▁panc": 5654,
      "▁yaka": 5655,
      "▁salvar": 5656,
      "▁otellerde": 5657,
      "▁perdeler": 5658,
      "▁ordu": 5659,
      "▁nisan": 5660,
      "▁bunlardan": 5661,
      "▁lun": 5662,
      "▁paraları": 5663,
      "▁kavga": 5664,
      "▁tecru": 5665,
      "▁tesiri": 5666,
      "▁malını": 5667,
      "▁isyan": 5668,
      "▁prosedur": 5669,
      "etin": 5670,
      "▁ismi": 5671,
      "▁parcaya": 5672,
      "▁hisse": 5673,
      "▁pansiyonda": 5674,
      "▁pencer": 5675,
      "lanta": 5676,
      "▁karısık": 5677,
      "▁kullanma": 5678,
      "▁duzeni": 5679,
      "gr": 5680,
      "uzluydu": 5681,
      "▁seyirci": 5682,
      "▁senato": 5683,
      "▁kabin": 5684,
      "▁yaver": 5685,
      "▁francisco'ya": 5686,
      "▁okka": 5687,
      "▁aj": 5688,
      "▁nine": 5689,
      "▁hasır": 5690,
      "▁kendilerine": 5691,
      "▁ucları": 5692,
      "▁kotu": 5693,
      "▁dil": 5694,
      "lugun": 5695,
      "▁olmasıdır": 5696,
      "▁kurtul": 5697,
      "▁ziyade": 5698,
      "▁arkadasını": 5699,
      "▁rov": 5700,
      "▁karlı": 5701,
      "▁pozisyonu": 5702,
      "▁olusan": 5703,
      "▁maddelerin": 5704,
      "▁guzeldi": 5705,
      "ıydı": 5706,
      "lendir": 5707,
      "▁gelisimi": 5708,
      "▁omru": 5709,
      "▁kaynagı": 5710,
      "▁geldigini": 5711,
      "sarken": 5712,
      "▁adamın": 5713,
      "▁sadece": 5714,
      "▁hek": 5715,
      "▁insanlıga": 5716,
      "▁kalemleri": 5717,
      "▁100000": 5718,
      "▁gercekten": 5719,
      "▁boston'dan": 5720,
      "▁prenses": 5721,
      "yonun": 5722,
      "▁balkon": 5723,
      "▁politika": 5724,
      "▁gayr": 5725,
      "▁istem": 5726,
      "▁delikanlının": 5727,
      "▁cogu": 5728,
      "▁cocukların": 5729,
      "▁ispirto": 5730,
      "▁cenneti": 5731,
      "▁govdes": 5732,
      "▁yukum": 5733,
      "▁saban": 5734,
      "▁savunu": 5735,
      "▁81": 5736,
      "▁dalgalar": 5737,
      "organ": 5738,
      "▁sozlesmeler": 5739,
      "▁dinlen": 5740,
      "▁turde": 5741,
      "esik": 5742,
      "▁muht": 5743,
      "▁cıv": 5744,
      "▁kazaz": 5745,
      "▁planladıgını": 5746,
      "▁ekonomistler": 5747,
      "dun": 5748,
      "▁muddet": 5749,
      "▁yerlerini": 5750,
      "▁istasyonu": 5751,
      "▁masrafı": 5752,
      "iyatr": 5753,
      "▁gozu": 5754,
      "▁risk": 5755,
      "▁hedef": 5756,
      "▁askerlik": 5757,
      "une": 5758,
      "atıcı": 5759,
      "▁sehrine": 5760,
      "▁tab": 5761,
      "▁lez": 5762,
      "▁kapılarında": 5763,
      "▁gezi": 5764,
      "▁kusk": 5765,
      "▁embriy": 5766,
      "▁duskunlugu": 5767,
      "▁gazi": 5768,
      "org": 5769,
      "▁adinaydi": 5770,
      "▁riskine": 5771,
      "▁vaj": 5772,
      "emis": 5773,
      "▁isminin": 5774,
      "▁nam": 5775,
      "▁degistirdi": 5776,
      "▁tasarımı": 5777,
      "▁yapildi": 5778,
      "▁psilyum": 5779,
      "▁kalkar": 5780,
      "▁onlar": 5781,
      "▁rezerve": 5782,
      "if": 5783,
      "use": 5784,
      "▁arastır": 5785,
      "▁zaf": 5786,
      "▁istih": 5787,
      "mayacagını": 5788,
      "▁kanunla": 5789,
      "▁tablo": 5790,
      "▁istikrar": 5791,
      "▁gayrimen": 5792,
      "▁mallar": 5793,
      "▁issizlik": 5794,
      "▁tahminini": 5795,
      "ıda": 5796,
      "▁univers": 5797,
      "yacag": 5798,
      "to": 5799,
      "▁bagları": 5800,
      "▁adet": 5801,
      "▁kafesi": 5802,
      "▁enflasyonun": 5803,
      "▁gezegen": 5804,
      "▁kursu": 5805,
      "▁ogretmenler": 5806,
      "▁kazancını": 5807,
      "▁paya": 5808,
      "tin": 5809,
      "arlandı": 5810,
      "▁pazarında": 5811,
      "▁icleri": 5812,
      "▁boncuk": 5813,
      "▁ondan": 5814,
      "▁kapattı": 5815,
      "▁ko": 5816,
      "layı": 5817,
      "▁hamal": 5818,
      "▁gelecegini": 5819,
      "▁dun": 5820,
      "▁baklav": 5821,
      "▁parmaklarını": 5822,
      "▁kamar": 5823,
      "atesi": 5824,
      "dukten": 5825,
      "▁beklenti": 5826,
      "▁dogasi": 5827,
      "▁imkanlarindan": 5828,
      "▁bulur": 5829,
      "uldum": 5830,
      "▁kolunu": 5831,
      "▁kaliteliydi": 5832,
      "▁tahminlerinin": 5833,
      "▁irade": 5834,
      "▁cıkarır": 5835,
      "▁yaz": 5836,
      "▁genel": 5837,
      "imizden": 5838,
      "▁kalmadı": 5839,
      "▁olusturdu": 5840,
      "do": 5841,
      "▁tedavi": 5842,
      "▁alanına": 5843,
      "▁partiler": 5844,
      "▁hay": 5845,
      "▁denilen": 5846,
      "▁ciftlik": 5847,
      "▁prensip": 5848,
      "▁ayında": 5849,
      "▁philadelphia": 5850,
      "▁perdeden": 5851,
      "lali": 5852,
      "▁hareketin": 5853,
      "▁kaput": 5854,
      "▁planın": 5855,
      "acının": 5856,
      "▁kapasit": 5857,
      "▁ofk": 5858,
      "▁yazarlar": 5859,
      "▁herhangi": 5860,
      "▁milyardan": 5861,
      "▁girince": 5862,
      "ktır": 5863,
      "▁a": 5864,
      "adde": 5865,
      "▁bat": 5866,
      "rak": 5867,
      "▁dallas'ta": 5868,
      "▁cocuklarının": 5869,
      "▁caminin": 5870,
      "▁oldukları": 5871,
      "▁olacagına": 5872,
      "▁ucretini": 5873,
      "▁topcu": 5874,
      "▁ustunu": 5875,
      "▁durumda": 5876,
      "▁gerekli": 5877,
      "▁nasihat": 5878,
      "▁marif": 5879,
      "▁katkıda": 5880,
      "▁york'tan": 5881,
      "▁babama": 5882,
      "dirdi": 5883,
      "▁sabahında": 5884,
      "▁beyni": 5885,
      "ph": 5886,
      "\\/8'e": 5887,
      "▁hafıza": 5888,
      "▁kaynaklarına": 5889,
      "onun": 5890,
      "armak": 5891,
      "▁gorunuse": 5892,
      "▁satısını": 5893,
      "▁dolma": 5894,
      "gisi": 5895,
      "▁otopark": 5896,
      "▁tuhaf": 5897,
      "▁milletvekil": 5898,
      "▁ev": 5899,
      "▁set": 5900,
      "▁param": 5901,
      "orm": 5902,
      "ı": 5903,
      "▁pemb": 5904,
      "▁salonu": 5905,
      "▁havlular": 5906,
      "cık": 5907,
      "▁etmesi": 5908,
      "▁amacıyla": 5909,
      "ehan": 5910,
      "estr": 5911,
      "▁kuzu": 5912,
      "▁kenarda": 5913,
      "▁istedig": 5914,
      "▁carda": 5915,
      "▁partn": 5916,
      "▁alıs": 5917,
      "▁binbası": 5918,
      ".5'e": 5919,
      "mki": 5920,
      "lasının": 5921,
      "▁adamı": 5922,
      "▁ettiklerini": 5923,
      "▁beklendigini": 5924,
      "ıh": 5925,
      "▁intik": 5926,
      "mesinden": 5927,
      "▁edildigini": 5928,
      "▁turkuler": 5929,
      "ılar": 5930,
      "▁acıga": 5931,
      "▁hissesi": 5932,
      "▁uzeri": 5933,
      "▁uykus": 5934,
      "▁birkacı": 5935,
      "▁kampanya": 5936,
      "lerinin": 5937,
      "▁bankacı": 5938,
      "▁olmasindan": 5939,
      "▁hizmetleri": 5940,
      "tigim": 5941,
      "▁kavgaya": 5942,
      "▁kisilerle": 5943,
      "▁tıpkı": 5944,
      "▁ortaokul": 5945,
      "▁yepyeni": 5946,
      "▁5.5": 5947,
      "▁kurustan": 5948,
      "▁duvarların": 5949,
      "▁tep": 5950,
      "▁etmiyorum": 5951,
      "▁otob": 5952,
      "▁sıkıstır": 5953,
      "▁alnına": 5954,
      "▁merhal": 5955,
      "▁ysa": 5956,
      "uzin": 5957,
      "▁kokain": 5958,
      "▁yetkililerine": 5959,
      "▁katildim": 5960,
      "▁made": 5961,
      "▁agacları": 5962,
      "▁nane": 5963,
      "▁yetkilileri": 5964,
      "▁cesitlilik": 5965,
      "briy": 5966,
      "▁casusluk": 5967,
      "▁zeytinyagı": 5968,
      "▁kese": 5969,
      "onom": 5970,
      "macı": 5971,
      "▁cm": 5972,
      "▁erik": 5973,
      "▁ureticilerinin": 5974,
      "▁alar": 5975,
      "macılar": 5976,
      "▁gerilim": 5977,
      "▁tehdid": 5978,
      "▁send": 5979,
      "lardi": 5980,
      "▁istemis": 5981,
      "▁amerikalıların": 5982,
      "▁yatırımcılarının": 5983,
      "meli": 5984,
      "▁gozunu": 5985,
      "▁tanrı": 5986,
      "▁trans": 5987,
      "▁dondur": 5988,
      "cilerinin": 5989,
      "iyetleri": 5990,
      "tileri": 5991,
      "▁kanuna": 5992,
      "▁seyleri": 5993,
      "▁cıp": 5994,
      "ırmak": 5995,
      "eler": 5996,
      "▁dikkatini": 5997,
      "▁mah": 5998,
      "▁ihr": 5999,
      "▁elemanlar": 6000,
      "▁limon": 6001,
      "▁cagrısı": 6002,
      "▁sahtek": 6003,
      "▁0.": 6004,
      "▁rezervasyonumu": 6005,
      "leriyle": 6006,
      "▁ni": 6007,
      "▁kansas": 6008,
      "▁deneyim": 6009,
      "▁yatırımcılara": 6010,
      "▁uyan": 6011,
      "▁ucuyla": 6012,
      "▁rezervasyonu": 6013,
      "▁ederim": 6014,
      "▁fırtın": 6015,
      "dadır": 6016,
      "▁evimizde": 6017,
      "▁anlattı": 6018,
      "▁hac": 6019,
      "▁gozum": 6020,
      "▁olamaz": 6021,
      "▁gelisme": 6022,
      "▁gucleri": 6023,
      "▁bagıs": 6024,
      "▁okulda": 6025,
      "▁komisyonu'na": 6026,
      "▁gecik": 6027,
      "▁fiyatını": 6028,
      "▁durak": 6029,
      "▁basladılar": 6030,
      "▁hamil": 6031,
      "▁sıp": 6032,
      "▁mahkem": 6033,
      "▁toplantıyı": 6034,
      "▁tasıt": 6035,
      "▁kocasını": 6036,
      "▁yapan": 6037,
      "▁kumandan": 6038,
      "▁uzerine": 6039,
      "▁kampanyalar": 6040,
      "inizde": 6041,
      "▁saksı": 6042,
      "▁did": 6043,
      "adıgı": 6044,
      "▁kontratı": 6045,
      "▁uyum": 6046,
      "▁aklına": 6047,
      "▁arttır": 6048,
      "▁kırdı": 6049,
      "▁badem": 6050,
      "▁kus": 6051,
      "▁lag": 6052,
      "▁kurgu": 6053,
      "▁turlarina": 6054,
      "ildim": 6055,
      "liyorum": 6056,
      "▁tarife": 6057,
      "▁hisselerde": 6058,
      "▁bellek": 6059,
      "▁kaldırımda": 6060,
      "▁nor": 6061,
      "▁az": 6062,
      "▁propaganda": 6063,
      "▁ikisi": 6064,
      "▁kimligi": 6065,
      "▁golg": 6066,
      "lıyor": 6067,
      "afor": 6068,
      "▁birimler": 6069,
      "emsiz": 6070,
      "▁satıcılar": 6071,
      "amızın": 6072,
      "▁cephe": 6073,
      "ov": 6074,
      "▁ciftci": 6075,
      "▁kalır": 6076,
      "stık": 6077,
      "ılabilir": 6078,
      "▁kopya": 6079,
      "miyor": 6080,
      "ıntı": 6081,
      "sız": 6082,
      "▁seyrediyor": 6083,
      "▁senetleri": 6084,
      "▁1987'de": 6085,
      "▁sorunlarını": 6086,
      "▁cumhur": 6087,
      "▁duvarlara": 6088,
      "▁arabadan": 6089,
      "▁giz": 6090,
      "▁degisiklikleri": 6091,
      "▁sizi": 6092,
      "▁yolu": 6093,
      "are": 6094,
      "▁dergi": 6095,
      "▁oda": 6096,
      "▁saatlerinde": 6097,
      "'de": 6098,
      "▁inanc": 6099,
      "▁ileriye": 6100,
      "▁sonrasına": 6101,
      "nc": 6102,
      "mem": 6103,
      "▁japonya": 6104,
      "▁tesisti": 6105,
      "▁cık": 6106,
      "iyorum": 6107,
      "▁fotografı": 6108,
      "▁siv": 6109,
      "▁faydasını": 6110,
      "geleri": 6111,
      "▁asist": 6112,
      "▁gures": 6113,
      "▁onar": 6114,
      "▁sahnenin": 6115,
      "▁subat": 6116,
      "▁telefona": 6117,
      "▁yahudi": 6118,
      "▁rolune": 6119,
      "▁ad": 6120,
      "▁soylemek": 6121,
      "▁george": 6122,
      "▁.": 6123,
      "▁vaziyet": 6124,
      "▁mudafa": 6125,
      "tıp": 6126,
      "▁savasta": 6127,
      "▁vurusu": 6128,
      "li": 6129,
      "▁tıkır": 6130,
      "▁cinsinden": 6131,
      "asyonu": 6132,
      "▁dokundu": 6133,
      "ıt": 6134,
      "▁zincir": 6135,
      "▁talebini": 6136,
      "▁ucretler": 6137,
      "▁asır": 6138,
      "tıgını": 6139,
      "▁varlıklarının": 6140,
      "▁aska": 6141,
      "▁degilse": 6142,
      "▁aracılı": 6143,
      "vec": 6144,
      "lıgı": 6145,
      "▁yuze": 6146,
      "▁katk": 6147,
      "▁reklamlar": 6148,
      "▁annesini": 6149,
      "▁amacları": 6150,
      "▁sayfaları": 6151,
      "▁acısından": 6152,
      "▁esek": 6153,
      "▁evler": 6154,
      "ezz": 6155,
      "din": 6156,
      "9": 6157,
      "untu": 6158,
      "lantılı": 6159,
      "▁kurum": 6160,
      "may": 6161,
      "▁kalıb": 6162,
      "▁odasi": 6163,
      "▁aklından": 6164,
      "▁kafayı": 6165,
      "▁ailesinden": 6166,
      "▁tacir": 6167,
      "▁zuh": 6168,
      "▁ayrica": 6169,
      "tluk": 6170,
      "irlik": 6171,
      "bac": 6172,
      "▁yavrusu": 6173,
      "▁kokuyordu": 6174,
      "lıları": 6175,
      "▁almadim": 6176,
      "sulu": 6177,
      "▁milyon": 6178,
      "▁taraflar": 6179,
      "▁genis": 6180,
      "▁islevi": 6181,
      "▁bom": 6182,
      "▁yaparlar": 6183,
      "mamıs": 6184,
      "▁gunlerde": 6185,
      "▁varacak": 6186,
      "▁odemeleri": 6187,
      "▁likit": 6188,
      "▁ken": 6189,
      "▁bakarak": 6190,
      "▁sille": 6191,
      "▁rekor": 6192,
      "st": 6193,
      "▁kor": 6194,
      "▁guven": 6195,
      "▁gelenlerin": 6196,
      "▁tartı": 6197,
      "▁rom": 6198,
      "aması": 6199,
      "▁kisiler": 6200,
      "▁dagın": 6201,
      "▁durumunu": 6202,
      "▁iliskin": 6203,
      "▁havuza": 6204,
      "▁taleb": 6205,
      "▁birim": 6206,
      "▁gobegi": 6207,
      "▁kendimize": 6208,
      "▁aksama": 6209,
      "agan": 6210,
      "ızın": 6211,
      "▁misal": 6212,
      "▁olayın": 6213,
      "▁oyunun": 6214,
      "▁satıslar": 6215,
      "canla": 6216,
      "▁alanlarda": 6217,
      "▁varlıga": 6218,
      "▁kıvılcım": 6219,
      "▁niyet": 6220,
      "▁lara": 6221,
      "▁hasta": 6222,
      "▁2000": 6223,
      "▁bekley": 6224,
      "▁topraktan": 6225,
      "▁arastırmacılar": 6226,
      "▁redingot": 6227,
      "▁sesi": 6228,
      "▁yaklastıgını": 6229,
      "tus": 6230,
      "▁vaktiyle": 6231,
      "▁satıslarını": 6232,
      "▁yeri": 6233,
      "layabilir": 6234,
      "▁balıgı": 6235,
      "▁aram": 6236,
      "▁pasta": 6237,
      "▁araclar": 6238,
      "af": 6239,
      "▁tiyatroda": 6240,
      "▁yoluna": 6241,
      "cil": 6242,
      "▁hayatımız": 6243,
      "▁52": 6244,
      "▁kovboy": 6245,
      "▁mobilyalar": 6246,
      "ret": 6247,
      "▁avantaj": 6248,
      "▁olcek": 6249,
      "▁cesitler": 6250,
      "▁komis": 6251,
      "▁senary": 6252,
      "▁evimize": 6253,
      "▁duzenlemeleri": 6254,
      "▁madde": 6255,
      "▁parasını": 6256,
      "▁civi": 6257,
      "▁tumuyle": 6258,
      "▁olusturuyor": 6259,
      "..": 6260,
      "lu": 6261,
      "▁yapamaz": 6262,
      "imler": 6263,
      "▁sıgır": 6264,
      "rut": 6265,
      "ilmesine": 6266,
      "otte": 6267,
      "▁7'de": 6268,
      "▁isinin": 6269,
      "80'": 6270,
      "▁cocugun": 6271,
      "▁giyin": 6272,
      "▁bilg": 6273,
      "▁haksızlık": 6274,
      "%": 6275,
      "▁duygusu": 6276,
      "▁bilhassa": 6277,
      "▁fiyatlari": 6278,
      "▁beklenenden": 6279,
      "▁motiv": 6280,
      "▁sınırları": 6281,
      "▁aran": 6282,
      "kti": 6283,
      "amadım": 6284,
      "ırtmak": 6285,
      "lamaya": 6286,
      "irmen": 6287,
      "▁cesaret": 6288,
      "▁egitmen": 6289,
      "▁imalat": 6290,
      "▁caddesi": 6291,
      "irgin": 6292,
      "▁temer": 6293,
      "▁komp": 6294,
      "▁sogut": 6295,
      "▁savcılıgın": 6296,
      "▁istediler": 6297,
      "pr": 6298,
      "▁kadının": 6299,
      "▁k": 6300,
      "▁toronto'dan": 6301,
      "kse": 6302,
      "▁dortte": 6303,
      "▁girer": 6304,
      "▁gununu": 6305,
      "▁kurallar": 6306,
      "dıkca": 6307,
      "▁versiyon": 6308,
      "▁refah": 6309,
      "acagı": 6310,
      "▁erkekler": 6311,
      "6'sı": 6312,
      "▁kurde": 6313,
      "▁tarihinin": 6314,
      "▁sob": 6315,
      "▁kitab": 6316,
      "▁bahcede": 6317,
      "ars": 6318,
      "dugunde": 6319,
      "▁guvertede": 6320,
      "5$": 6321,
      "▁keman": 6322,
      "aleti": 6323,
      "manının": 6324,
      "▁ekibi": 6325,
      "▁co": 6326,
      "w": 6327,
      "▁soyle": 6328,
      "▁lek": 6329,
      "▁yaklasım": 6330,
      "▁cograf": 6331,
      "▁domatesleri": 6332,
      "▁kendisinde": 6333,
      "▁ambargo": 6334,
      "▁fren": 6335,
      "▁yat": 6336,
      "▁cagrı": 6337,
      "▁aldigim": 6338,
      "▁vurgun": 6339,
      "▁yapıldı": 6340,
      "▁hoslan": 6341,
      "▁ogle": 6342,
      "mi": 6343,
      "fi": 6344,
      "▁cıkıp": 6345,
      "▁tasla": 6346,
      "lıgından": 6347,
      "▁minar": 6348,
      "▁cag": 6349,
      "▁pas": 6350,
      "▁serisi": 6351,
      "▁birinden": 6352,
      "adaki": 6353,
      "▁cekme": 6354,
      "▁cografy": 6355,
      "▁guzelligi": 6356,
      "▁kararnam": 6357,
      "▁denizde": 6358,
      "▁parlam": 6359,
      "▁yonune": 6360,
      "▁terk": 6361,
      "▁rev": 6362,
      "cilikten": 6363,
      "▁kanı": 6364,
      "▁cevaplar": 6365,
      "masız": 6366,
      "▁deh": 6367,
      "daydı": 6368,
      "▁magazası": 6369,
      "▁arasına": 6370,
      "te": 6371,
      "suz": 6372,
      "▁dusunceler": 6373,
      "▁duzeyine": 6374,
      "▁tenek": 6375,
      "▁sırtına": 6376,
      "▁kalabalık": 6377,
      "▁ren": 6378,
      "▁hokk": 6379,
      "▁onları": 6380,
      "landıgı": 6381,
      "▁bac": 6382,
      "▁otede": 6383,
      "▁str": 6384,
      "▁esi": 6385,
      "▁beyaz": 6386,
      "▁tiyatr": 6387,
      "▁sorunları": 6388,
      "usuna": 6389,
      "▁davalar": 6390,
      "▁sozcukleri": 6391,
      "=": 6392,
      "yak": 6393,
      "yin": 6394,
      "▁sesiyle": 6395,
      "ınıza": 6396,
      "▁siyaset": 6397,
      "han": 6398,
      "▁kompleksi": 6399,
      "▁gelirler": 6400,
      "abil": 6401,
      "▁yal": 6402,
      "▁ayık": 6403,
      "▁def": 6404,
      "luydu": 6405,
      "be": 6406,
      "▁tanıs": 6407,
      "▁al": 6408,
      "▁ozelligi": 6409,
      "▁sagduy": 6410,
      "▁2.": 6411,
      "▁milletvek": 6412,
      "▁babam": 6413,
      "cagını": 6414,
      "▁bildirildi": 6415,
      "▁cıktık": 6416,
      "▁30-hisse": 6417,
      "▁ettig": 6418,
      "▁1987": 6419,
      "▁diler": 6420,
      "▁tehlik": 6421,
      "▁yuzum": 6422,
      "▁vermiyor": 6423,
      "▁muhafız": 6424,
      "▁bahset": 6425,
      "▁iddia": 6426,
      "▁kl": 6427,
      "▁cic": 6428,
      "▁sahiptir": 6429,
      "▁telekomunikasyon": 6430,
      "du": 6431,
      "▁felaket": 6432,
      "▁nezaket": 6433,
      "[UNK]": 6434,
      "▁evlerde": 6435,
      "▁durumuna": 6436,
      "▁saglıgına": 6437,
      "her": 6438,
      "▁luz": 6439,
      "4'ten": 6440,
      "▁duyguların": 6441,
      "▁resimleri": 6442,
      "▁deneme": 6443,
      "gini": 6444,
      "▁otel": 6445,
      "▁1988'de": 6446,
      "ern": 6447,
      "▁tiyatro": 6448,
      "▁emri": 6449,
      "▁bildi": 6450,
      "▁pav": 6451,
      "▁geldiginde": 6452,
      "larıdır": 6453,
      "▁kaset": 6454,
      "▁okyan": 6455,
      "▁1988": 6456,
      "▁derhal": 6457,
      "▁genisleme": 6458,
      "masıyla": 6459,
      "mamacasına": 6460,
      "▁1.9": 6461,
      "▁namına": 6462,
      "▁yılları": 6463,
      "rar": 6464,
      "▁sus": 6465,
      "mez": 6466,
      "▁tarlaları": 6467,
      "▁dugmeleri": 6468,
      "▁hik": 6469,
      "▁hediy": 6470,
      "▁vur": 6471,
      "▁olustur": 6472,
      "▁planını": 6473,
      "▁ihtir": 6474,
      "▁munasebetsizlik": 6475,
      "▁havayollarının": 6476,
      "▁busbutun": 6477,
      "▁eden": 6478,
      "ilen": 6479,
      "▁ucuncu": 6480,
      "▁oteller": 6481,
      "▁hastalıkları": 6482,
      "urarak": 6483,
      "▁surat": 6484,
      "▁guvenlik": 6485,
      "▁oburleri": 6486,
      "▁musterilerin": 6487,
      "▁ogrendi": 6488,
      "inal": 6489,
      "▁meyv": 6490,
      "▁vadede": 6491,
      "▁bunda": 6492,
      "▁ruhunun": 6493,
      "▁beyle": 6494,
      "▁askın": 6495,
      "emesini": 6496,
      "▁yorum": 6497,
      "▁yere": 6498,
      "▁ofiste": 6499,
      "▁bankanın": 6500,
      "▁karton": 6501,
      "▁politikasının": 6502,
      "▁karısıklık": 6503,
      "▁10": 6504,
      "▁sevmek": 6505,
      "ınc": 6506,
      "▁hisseleri": 6507,
      "▁minnet": 6508,
      "▁sayi": 6509,
      "ily": 6510,
      "▁1": 6511,
      "daki": 6512,
      "▁keyif": 6513,
      "▁guvenini": 6514,
      "▁limanda": 6515,
      "▁onunde": 6516,
      "▁mesele": 6517,
      "olis": 6518,
      "umla": 6519,
      "ınızı": 6520,
      "▁atıyor": 6521,
      "▁fikr": 6522,
      "▁konaklama": 6523,
      "▁maliye": 6524,
      "ktu": 6525,
      "▁1970'": 6526,
      "▁gorun": 6527,
      "▁kafil": 6528,
      "▁ki": 6529,
      "lugune": 6530,
      "gu": 6531,
      "dirme": 6532,
      "▁isra": 6533,
      "▁celik": 6534,
      "lamak": 6535,
      "▁veya": 6536,
      "▁tul": 6537,
      "▁yoksul": 6538,
      "▁islerin": 6539,
      "▁durumdan": 6540,
      "▁ilave": 6541,
      "▁kotums": 6542,
      "▁gereken": 6543,
      "▁sehr": 6544,
      "▁fatura": 6545,
      "▁lezzetliydi": 6546,
      "▁oturumda": 6547,
      "▁vergisi": 6548,
      "▁yasındaki": 6549,
      "5'ten": 6550,
      "▁bunal": 6551,
      "▁kıs": 6552,
      "mal": 6553,
      "ick": 6554,
      "▁tarif": 6555,
      "▁dısarı": 6556,
      "▁kontrol": 6557,
      "▁basım": 6558,
      "▁yara": 6559,
      "▁zem": 6560,
      "▁turistlerin": 6561,
      "abına": 6562,
      "▁cesitliligi": 6563,
      "▁38": 6564,
      "▁yatagına": 6565,
      "▁yeteri": 6566,
      "yum": 6567,
      "▁barut": 6568,
      "▁37": 6569,
      "▁suruk": 6570,
      "▁nihai": 6571,
      "▁hosgoru": 6572,
      "▁satan": 6573,
      "▁lık": 6574,
      "elle": 6575,
      "▁kalıyor": 6576,
      "▁koleksiyon": 6577,
      "▁seksen": 6578,
      "▁past": 6579,
      "lasmıstı": 6580,
      "▁davranmak": 6581,
      "▁tic": 6582,
      "▁hoca": 6583,
      "kac": 6584,
      "▁bulmus": 6585,
      "▁stud": 6586,
      "▁arkadaslık": 6587,
      "▁)": 6588,
      "▁ade": 6589,
      "▁sayıya": 6590,
      "▁hayret": 6591,
      "ıcısı": 6592,
      "▁bilgiler": 6593,
      "iyete": 6594,
      "▁kanto": 6595,
      "▁adi": 6596,
      "ugum": 6597,
      "`": 6598,
      "b": 6599,
      "ku": 6600,
      "▁propag": 6601,
      "▁neticesinde": 6602,
      "▁tıp": 6603,
      "▁agab": 6604,
      "▁gozlerini": 6605,
      "atil": 6606,
      "▁oluk": 6607,
      "▁oturdu": 6608,
      "▁uykudan": 6609,
      "'nı": 6610,
      "▁tamamen": 6611,
      "▁yoneticileri": 6612,
      "▁mayıs": 6613,
      "▁hata": 6614,
      "▁engelleri": 6615,
      "enlerin": 6616,
      "▁eziyet": 6617,
      "▁alet": 6618,
      "▁dern": 6619,
      "▁sesin": 6620,
      "▁misafire": 6621,
      "▁isc": 6622,
      "▁gozunde": 6623,
      "20": 6624,
      "▁pazarlarda": 6625,
      "▁kazak": 6626,
      "▁rıhtıma": 6627,
      "▁kısıtlamaları": 6628,
      "sana": 6629,
      "▁haftada": 6630,
      "ad": 6631,
      "▁grafik": 6632,
      "▁14": 6633,
      "▁fiy": 6634,
      "▁agabeyim": 6635,
      "▁oncu": 6636,
      "▁testere": 6637,
      "▁kaydetti": 6638,
      "▁goruldu": 6639,
      "▁siirler": 6640,
      "▁hastaya": 6641,
      "agında": 6642,
      "▁cemiyet": 6643,
      "ıgının": 6644,
      "▁kalabalıgın": 6645,
      "▁getiriler": 6646,
      "iyle": 6647,
      "▁istirak": 6648,
      "▁yorg": 6649,
      "▁yasın": 6650,
      "▁islet": 6651,
      "▁oneri": 6652,
      "▁ler": 6653,
      "▁obu": 6654,
      "▁hakları": 6655,
      "dız": 6656,
      "▁olmakla": 6657,
      "▁vererek": 6658,
      "▁test": 6659,
      "▁spor": 6660,
      "▁mahkum": 6661,
      "▁duzeyi": 6662,
      "▁dukkanında": 6663,
      "▁seridi": 6664,
      "▁heps": 6665,
      "arlı": 6666,
      "▁plastik": 6667,
      "▁acmak": 6668,
      "▁bankalarının": 6669,
      "▁konular": 6670,
      "▁kendim": 6671,
      "▁halatlar": 6672,
      "ip": 6673,
      "▁yansıttıgını": 6674,
      "▁baslarını": 6675,
      "▁silk": 6676,
      "▁tipi": 6677,
      "▁degisti": 6678,
      "▁nebze": 6679,
      "▁dallas'tan": 6680,
      "▁takipsizlik": 6681,
      "▁kendimde": 6682,
      "▁kosul": 6683,
      "▁sunger": 6684,
      "▁seyler": 6685,
      "▁birik": 6686,
      "▁makineleri": 6687,
      "▁verdig": 6688,
      "▁ray": 6689,
      "▁seruv": 6690,
      "reet": 6691,
      "▁azade": 6692,
      "▁gurultu": 6693,
      "▁salata": 6694,
      "▁soylem": 6695,
      "▁sirketlerinin": 6696,
      "▁hayvanları": 6697,
      "▁ayagı": 6698,
      "▁yuzden": 6699,
      "▁mahkeme": 6700,
      "▁fikrini": 6701,
      "▁tiyatrosu": 6702,
      "▁pacific": 6703,
      "▁cekmeye": 6704,
      "izde": 6705,
      "acıların": 6706,
      "lah": 6707,
      "▁aya": 6708,
      "▁130": 6709,
      "▁sch": 6710,
      "▁memnunduk": 6711,
      "▁ciftligi": 6712,
      "▁ulasılamadı": 6713,
      "acaksın": 6714,
      "imini": 6715,
      "▁anal": 6716,
      "per": 6717,
      "▁rıza": 6718,
      "▁ediyorum": 6719,
      "iyat": 6720,
      "▁yuklu": 6721,
      "▁yerleri": 6722,
      "ida": 6723,
      "▁duygularını": 6724,
      "▁ıslah": 6725,
      "▁aldıgı": 6726,
      "▁kupası": 6727,
      "▁gizem": 6728,
      "▁alakali": 6729,
      "amayacag": 6730,
      "irligi": 6731,
      "▁kabile": 6732,
      "▁hareketlilik": 6733,
      "▁vatanı": 6734,
      "▁sinema": 6735,
      "▁tuccar": 6736,
      "▁bozuk": 6737,
      "▁mily": 6738,
      "▁bunlara": 6739,
      "agımı": 6740,
      "▁ent": 6741,
      "▁tencereyi": 6742,
      "▁yetersizligi": 6743,
      "▁7\\/8": 6744,
      "▁kazası": 6745,
      "▁eyaletler": 6746,
      "▁avrupalı": 6747,
      "▁kusak": 6748,
      "ımıza": 6749,
      "▁agası": 6750,
      "ibar": 6751,
      "▁balk": 6752,
      "▁maclarda": 6753,
      "maya": 6754,
      "ble": 6755,
      "▁corb": 6756,
      "aların": 6757,
      "leyiciler": 6758,
      "▁fedakar": 6759,
      "▁armag": 6760,
      "▁dibi": 6761,
      "▁dagları": 6762,
      "▁berber": 6763,
      "▁kısın": 6764,
      "▁haft": 6765,
      "stım": 6766,
      "▁annemden": 6767,
      "▁bıcak": 6768,
      "▁tatilimi": 6769,
      "▁kendin": 6770,
      "for": 6771,
      "isim": 6772,
      "▁ucagının": 6773,
      "▁ertel": 6774,
      "▁psil": 6775,
      "▁bizimle": 6776,
      "▁yemekleri": 6777,
      "cilikle": 6778,
      "▁baskenti": 6779,
      "▁sehirleri": 6780,
      "▁kurtulus": 6781,
      "bek": 6782,
      "▁profesyonel": 6783,
      "▁arkad": 6784,
      "lası": 6785,
      "▁paylasım": 6786,
      "▁aksamın": 6787,
      "ruf": 6788,
      "▁emniyet": 6789,
      "lıklar": 6790,
      "adıgını": 6791,
      "▁hızı": 6792,
      "▁erisim": 6793,
      "▁muzigin": 6794,
      "▁temyiz": 6795,
      "▁isinden": 6796,
      "▁birileri": 6797,
      "▁chicago": 6798,
      "la": 6799,
      "▁birka": 6800,
      "▁macta": 6801,
      "▁dukkanı": 6802,
      "▁ikide": 6803,
      "▁arıyorum": 6804,
      "ton": 6805,
      "▁wall": 6806,
      "ilim": 6807,
      "siyon": 6808,
      "arl": 6809,
      "▁enstit": 6810,
      "▁lunapark": 6811,
      "▁musterinin": 6812,
      "▁hubub": 6813,
      "▁sirketlerden": 6814,
      "▁artarak": 6815,
      "esil": 6816,
      "▁fırt": 6817,
      "▁aldat": 6818,
      "▁26": 6819,
      "▁edilebilir": 6820,
      "▁tasır": 6821,
      "▁olumle": 6822,
      "▁bahsederim": 6823,
      "▁baltimore'ye": 6824,
      "hiz": 6825,
      "▁baglantılı": 6826,
      "▁kandil": 6827,
      "▁isp": 6828,
      "▁sekil": 6829,
      "▁kuraklık": 6830,
      "▁faydalan": 6831,
      "▁nesi": 6832,
      "tmeye": 6833,
      "▁getirip": 6834,
      "▁karsısında": 6835,
      "▁sent": 6836,
      "▁dusunce": 6837,
      "▁mac": 6838,
      "ystems": 6839,
      "mek": 6840,
      "ıktı": 6841,
      "inlerin": 6842,
      "▁onemini": 6843,
      "▁esit": 6844,
      "▁nev": 6845,
      "▁soyler": 6846,
      "▁yasal": 6847,
      "▁insaf": 6848,
      "▁keh": 6849,
      "▁hukuka": 6850,
      "▁ozur": 6851,
      "ker": 6852,
      "▁ifadeler": 6853,
      "▁the": 6854,
      "▁yollarda": 6855,
      "▁ahır": 6856,
      "bal": 6857,
      "▁proje": 6858,
      "▁ron": 6859,
      "▁sabık": 6860,
      "asta": 6861,
      "▁farz": 6862,
      "▁tartısmayı": 6863,
      "▁peygam": 6864,
      "▁duvarlarında": 6865,
      "▁lazımdır": 6866,
      "▁kaldırıma": 6867,
      "▁elestirmenler": 6868,
      "▁raporunu": 6869,
      "▁arasındaki": 6870,
      "▁azından": 6871,
      "dıktan": 6872,
      "▁merkezlerini": 6873,
      "▁hizmet": 6874,
      "atın": 6875,
      "▁sıc": 6876,
      "▁mada": 6877,
      "▁oyunları": 6878,
      "▁'lu": 6879,
      "▁evde": 6880,
      "▁kuf": 6881,
      "▁mali": 6882,
      "etti": 6883,
      "▁aga": 6884,
      "▁kalmadik": 6885,
      "▁km": 6886,
      "▁kavun": 6887,
      "▁uyelerinin": 6888,
      "▁sorunumuz": 6889,
      "lat": 6890,
      "▁teknolojisini": 6891,
      "▁olmalıdır": 6892,
      "▁hacminde": 6893,
      "▁psik": 6894,
      "▁gozlerden": 6895,
      "▁yedek": 6896,
      "▁ufak": 6897,
      "us": 6898,
      "maz": 6899,
      "ede": 6900,
      "▁okur": 6901,
      "▁anımsa": 6902,
      "▁ogrenc": 6903,
      "▁attım": 6904,
      "▁zincirinin": 6905,
      "▁analizciler": 6906,
      "▁ataturk": 6907,
      "aydi": 6908,
      "▁basvurusu": 6909,
      "▁gonlum": 6910,
      "▁anlat": 6911,
      "▁onların": 6912,
      "ızı": 6913,
      "ayan": 6914,
      "▁analistlerin": 6915,
      "▁gecikme": 6916,
      "▁yaygın": 6917,
      "anlara": 6918,
      "▁tasarısı": 6919,
      "▁likor": 6920,
      "▁tır": 6921,
      "▁davranıs": 6922,
      "▁takv": 6923,
      "▁hakem": 6924,
      "▁--": 6925,
      "▁cef": 6926,
      "▁sapan": 6927,
      "▁ucusta": 6928,
      "▁seydir": 6929,
      "▁tuz": 6930,
      "▁cocuga": 6931,
      "▁devasa": 6932,
      "astırma": 6933,
      "▁menf": 6934,
      "▁hissesinin": 6935,
      "▁burbank": 6936,
      "emiyor": 6937,
      "alam": 6938,
      "cta": 6939,
      "kes": 6940,
      "▁planlamam": 6941,
      "▁takdirde": 6942,
      "▁sırf": 6943,
      "▁hizmeti": 6944,
      "▁kibr": 6945,
      "▁davranmaya": 6946,
      "ilmisti": 6947,
      "▁50": 6948,
      "luya": 6949,
      "lay": 6950,
      "▁faaliyet": 6951,
      "▁gazeteci": 6952,
      "▁siyah": 6953,
      "▁olsunlar": 6954,
      "▁cene": 6955,
      "mas": 6956,
      "ırk": 6957,
      "▁sabrı": 6958,
      "▁kadınların": 6959,
      "▁bonolarının": 6960,
      "▁karagoz": 6961,
      "emeyecegim": 6962,
      "▁dosyayı": 6963,
      "▁ilgilendi": 6964,
      "▁dc": 6965,
      "▁cav": 6966,
      "mayalım": 6967,
      "▁lamba": 6968,
      "▁patlaması": 6969,
      "asini": 6970,
      "eder": 6971,
      "▁yakinlar": 6972,
      "▁kendimizi": 6973,
      "▁city": 6974,
      "▁enf": 6975,
      "▁cıl": 6976,
      "ında": 6977,
      "▁bunlar": 6978,
      "▁ilham": 6979,
      "▁25": 6980,
      "▁milyonu": 6981,
      "▁tasımaya": 6982,
      "▁financial": 6983,
      "▁fiyatina": 6984,
      "▁kesintiye": 6985,
      "▁tesekkurler": 6986,
      "▁kredilerin": 6987,
      "imleri": 6988,
      "▁plat": 6989,
      "▁senedine": 6990,
      "erisi": 6991,
      "▁deger": 6992,
      "▁tepeden": 6993,
      "▁kızıl": 6994,
      "▁saglamaya": 6995,
      "agon": 6996,
      "▁etmis": 6997,
      "▁atlet": 6998,
      "▁sarkıları": 6999,
      "ge": 7000,
      "▁teklifte": 7001,
      "▁reklamcılar": 7002,
      "▁minibus": 7003,
      "▁farklılık": 7004,
      "▁hazin": 7005,
      "bere": 7006,
      "yerek": 7007,
      "air": 7008,
      "▁cog": 7009,
      "sagı": 7010,
      "ou": 7011,
      "▁ali": 7012,
      "▁kredi": 7013,
      "esindeki": 7014,
      "▁kırlarda": 7015,
      "▁eyaleti": 7016,
      "ezi": 7017,
      "▁yuksekten": 7018,
      "usun": 7019,
      "▁141": 7020,
      "▁irti": 7021,
      "▁pat": 7022,
      "gumuz": 7023,
      "▁ları": 7024,
      "▁etkisi": 7025,
      "▁fiyatının": 7026,
      "uvarı": 7027,
      "▁sindir": 7028,
      "▁loc": 7029,
      "▁zapt": 7030,
      "▁tekne": 7031,
      "▁s&p": 7032,
      "▁odama": 7033,
      "▁yaparım": 7034,
      "▁na": 7035,
      "arım": 7036,
      "▁muz": 7037,
      "▁tesisi": 7038,
      "▁bicimi": 7039,
      "▁capında": 7040,
      "▁denges": 7041,
      "▁badan": 7042,
      "▁yansıtıyor": 7043,
      "▁yonelik": 7044,
      "▁ısı": 7045,
      "▁cevr": 7046,
      "▁33": 7047,
      "▁goreve": 7048,
      "▁tezgahı": 7049,
      "▁fakir": 7050,
      "iyeli": 7051,
      "tay": 7052,
      "cılıg": 7053,
      "▁kendinde": 7054,
      "▁odası": 7055,
      "▁kapa": 7056,
      "▁ihan": 7057,
      "▁brit": 7058,
      "▁ahsap": 7059,
      "▁secildi": 7060,
      "ami": 7061,
      "▁topladı": 7062,
      "▁bekle": 7063,
      "▁odemeler": 7064,
      "indeydi": 7065,
      "▁ener": 7066,
      "iyeye": 7067,
      "▁onerileri": 7068,
      "celi": 7069,
      "▁ogretim": 7070,
      "▁osmanlı": 7071,
      "▁hayatın": 7072,
      "▁tamir": 7073,
      "▁sandalı": 7074,
      "▁uzmanlar": 7075,
      "▁ısıl": 7076,
      "▁turp": 7077,
      "▁oran": 7078,
      "▁sorular": 7079,
      "lasa": 7080,
      "▁onlardan": 7081,
      "▁edebil": 7082,
      "▁sayısının": 7083,
      "▁ibraz": 7084,
      "edig": 7085,
      "orc": 7086,
      "▁karsımda": 7087,
      "▁magazaların": 7088,
      "▁seslendi": 7089,
      "▁tuketici": 7090,
      "▁esyasını": 7091,
      "tig": 7092,
      "araj": 7093,
      "▁kısaltması": 7094,
      "▁havayı": 7095,
      "▁mucadelenin": 7096,
      "▁alanda": 7097,
      "gıc": 7098,
      "akını": 7099,
      "▁bizle": 7100,
      "▁arabaya": 7101,
      "▁ortalam": 7102,
      "▁tutmaya": 7103,
      "▁cogal": 7104,
      "cb": 7105,
      "▁yanına": 7106,
      "▁35": 7107,
      "▁gormezden": 7108,
      "▁ihtiyacımız": 7109,
      "▁cuh": 7110,
      "▁oneririm": 7111,
      "▁listeleyin": 7112,
      "il": 7113,
      "▁hicbirine": 7114,
      "tat": 7115,
      "▁lakin": 7116,
      "▁sozlesmesini": 7117,
      "▁programının": 7118,
      "▁lak": 7119,
      "▁bazılarının": 7120,
      "▁yatırımcıların": 7121,
      "leyen": 7122,
      "istan": 7123,
      "▁kafile": 7124,
      "▁paylar": 7125,
      "▁tovbe": 7126,
      "▁telef": 7127,
      "▁coc": 7128,
      "▁defter": 7129,
      "ıgına": 7130,
      "▁universit": 7131,
      "▁akrab": 7132,
      "malarına": 7133,
      "mik": 7134,
      "▁aracların": 7135,
      "8'de": 7136,
      "▁cakal": 7137,
      "detti": 7138,
      "iklerin": 7139,
      "▁ayı": 7140,
      "▁yapılacak": 7141,
      "▁mahkemede": 7142,
      "▁cayı": 7143,
      "▁aynı": 7144,
      "▁efendi": 7145,
      "▁ai": 7146,
      "acılara": 7147,
      "▁loh": 7148,
      "/8": 7149,
      "ete": 7150,
      "elir": 7151,
      "▁men": 7152,
      "▁yaklas": 7153,
      "acasına": 7154,
      "▁teseb": 7155,
      "▁isterseniz": 7156,
      "▁hindistan": 7157,
      "▁cimen": 7158,
      "▁ingil": 7159,
      "▁istasyonun": 7160,
      "▁alıskanlıgı": 7161,
      "▁tarihin": 7162,
      "▁kat": 7163,
      "▁kendisini": 7164,
      "▁reasurans": 7165,
      "▁faaliyetlerini": 7166,
      "▁yeme": 7167,
      "atıl": 7168,
      "ranc": 7169,
      "▁sek": 7170,
      "enili": 7171,
      "▁devri": 7172,
      "sas": 7173,
      "▁fir": 7174,
      "▁gorunum": 7175,
      "▁seattle'ye": 7176,
      "▁uslup": 7177,
      "▁horoz": 7178,
      "le": 7179,
      "'y": 7180,
      "▁burokrat": 7181,
      "▁yur": 7182,
      "▁duzeyde": 7183,
      "▁olmaz": 7184,
      "▁romatizm": 7185,
      "asıl": 7186,
      "▁parcayı": 7187,
      "▁isletmeleri": 7188,
      "▁ustalık": 7189,
      "phia": 7190,
      "gimde": 7191,
      "▁masası": 7192,
      "▁merhamet": 7193,
      "▁nobetci": 7194,
      "▁ste": 7195,
      "▁bug": 7196,
      "▁senaryo": 7197,
      "▁siddetle": 7198,
      "▁esas": 7199,
      "iligin": 7200,
      "▁diplomasi": 7201,
      "uluyor": 7202,
      "▁ingilter": 7203,
      "nı": 7204,
      "▁arz": 7205,
      "ırtı": 7206,
      "ette": 7207,
      "▁nakar": 7208,
      "bet": 7209,
      "▁milliyetci": 7210,
      "▁konularında": 7211,
      "'yu": 7212,
      "▁gul": 7213,
      "bil": 7214,
      "▁ch": 7215,
      "▁pitts": 7216,
      "▁yedikten": 7217,
      "gil": 7218,
      "▁studyo": 7219,
      "▁katal": 7220,
      "▁tarihi": 7221,
      "▁operasyonları": 7222,
      "▁can": 7223,
      "▁aksamı": 7224,
      "▁etmeye": 7225,
      "▁durmadan": 7226,
      "▁begenmedim": 7227,
      "▁okurlar": 7228,
      "▁secmek": 7229,
      "▁piy": 7230,
      "▁bakalım": 7231,
      "▁kulturune": 7232,
      "▁yasaya": 7233,
      "▁yatak": 7234,
      "▁indirimi": 7235,
      "▁kofte": 7236,
      "gı": 7237,
      "▁olas": 7238,
      "erin": 7239,
      "▁butceye": 7240,
      "▁gunler": 7241,
      "▁sozunu": 7242,
      "lasarak": 7243,
      "▁kendiler": 7244,
      "▁sacma": 7245,
      "▁yapmaktan": 7246,
      "▁altıda": 7247,
      "▁gozlerine": 7248,
      "▁turizm": 7249,
      "▁taf": 7250,
      "▁tın": 7251,
      "ekul": 7252,
      "▁ehemm": 7253,
      "▁edebilir": 7254,
      "▁tuzu": 7255,
      "▁kisileri": 7256,
      "▁verebilir": 7257,
      "▁dusunmeye": 7258,
      "▁5'ten": 7259,
      "▁arar": 7260,
      "▁canak": 7261,
      "▁ilkokul": 7262,
      "▁izni": 7263,
      "▁komplek": 7264,
      "▁bayiler": 7265,
      "▁akl": 7266,
      "▁esv": 7267,
      "▁ucte": 7268,
      "▁anlamıyla": 7269,
      "▁kaldırılması": 7270,
      "▁mudure": 7271,
      "▁yaptır": 7272,
      "gıcı": 7273,
      "▁internet": 7274,
      "▁temizligi": 7275,
      "▁yatagında": 7276,
      "iya": 7277,
      "sur": 7278,
      "mun": 7279,
      "▁oyley": 7280,
      "▁market": 7281,
      "▁kom": 7282,
      "ekti": 7283,
      "arak": 7284,
      "▁elimden": 7285,
      "ilige": 7286,
      "▁haberler": 7287,
      "itten": 7288,
      "▁parmaklarıyla": 7289,
      "▁gormedigini": 7290,
      "▁bekledi": 7291,
      "0000": 7292,
      "▁gorevl": 7293,
      "▁zil": 7294,
      "▁gevez": 7295,
      "▁opsiyon": 7296,
      "▁atları": 7297,
      "▁borsası": 7298,
      "▁pol": 7299,
      "▁medya": 7300,
      "larımızdan": 7301,
      "▁cezası": 7302,
      "▁mil": 7303,
      "▁falan": 7304,
      "▁iri": 7305,
      "▁nere": 7306,
      "▁yetki": 7307,
      "ihat": 7308,
      "▁maddeye": 7309,
      "▁sekl": 7310,
      "▁evlerin": 7311,
      "▁mutemadiyen": 7312,
      "▁kork": 7313,
      "▁sub": 7314,
      "▁aygıt": 7315,
      "▁yayın": 7316,
      "larımı": 7317,
      "▁gercekles": 7318,
      "▁kitabını": 7319,
      "▁davranısları": 7320,
      "▁yuzey": 7321,
      "▁yelpaze": 7322,
      "▁zeytiny": 7323,
      "▁parc": 7324,
      "▁hosg": 7325,
      "▁long": 7326,
      "▁gibi": 7327,
      "▁cıkması": 7328,
      "lerime": 7329,
      "▁kapali": 7330,
      "▁gıc": 7331,
      "▁sirketler": 7332,
      "ekl": 7333,
      "▁halt": 7334,
      "▁hadise": 7335,
      "▁davar": 7336,
      "▁balık": 7337,
      "▁birdenbire": 7338,
      "leyin": 7339,
      "mayacak": 7340,
      "▁geldiler": 7341,
      "▁39": 7342,
      "▁halkını": 7343,
      "▁fıs": 7344,
      "abın": 7345,
      "▁hedefi": 7346,
      "▁ulkeleri": 7347,
      "▁gazetelerin": 7348,
      "▁sevgili": 7349,
      "larıyla": 7350,
      "▁milletvekili": 7351,
      "teci": 7352,
      "enli": 7353,
      "▁sunuyor": 7354,
      "▁heyec": 7355,
      "-b": 7356,
      "etlerini": 7357,
      "▁sonuca": 7358,
      "alı": 7359,
      "▁gurult": 7360,
      "▁sikint": 7361,
      "atır": 7362,
      "▁rica": 7363,
      "▁verimlilik": 7364,
      "▁onlara": 7365,
      "▁analistler": 7366,
      "▁sıgın": 7367,
      "▁derste": 7368,
      "▁tencerede": 7369,
      "▁cevap": 7370,
      "▁kurallarına": 7371,
      "▁istedim": 7372,
      "amayı": 7373,
      "ersah": 7374,
      "▁meger": 7375,
      "labilir": 7376,
      "▁ettir": 7377,
      "▁bırakıyor": 7378,
      "sman": 7379,
      "▁mazer": 7380,
      "▁saniyede": 7381,
      "▁sokakta": 7382,
      "▁macları": 7383,
      "▁kimseyi": 7384,
      "▁yengec": 7385,
      "▁durdur": 7386,
      "▁tahk": 7387,
      "▁120": 7388,
      "▁ruzg": 7389,
      "▁ızdır": 7390,
      "▁komitesi": 7391,
      "ıya": 7392,
      "eki": 7393,
      "cıları": 7394,
      "▁televizyon": 7395,
      "isah": 7396,
      "erk": 7397,
      "pu": 7398,
      "▁yaptik": 7399,
      "▁bolgeye": 7400,
      "▁acıp": 7401,
      "▁yonunde": 7402,
      "▁tef": 7403,
      "▁hacmi": 7404,
      "▁apıs": 7405,
      "▁yatırımcının": 7406,
      "umun": 7407,
      "▁yani": 7408,
      "▁cevresinin": 7409,
      "arip": 7410,
      "▁laborat": 7411,
      "▁bakıs": 7412,
      "gis": 7413,
      "▁etrafta": 7414,
      "▁garanti": 7415,
      "▁gokyuzunu": 7416,
      "cuk": 7417,
      "▁gitmeyi": 7418,
      "▁fisek": 7419,
      "▁kendiniz": 7420,
      "▁dortluk": 7421,
      "▁batak": 7422,
      "▁vis": 7423,
      "▁soruyor": 7424,
      "▁fiyatlandırıldı": 7425,
      "ladıkları": 7426,
      "▁bale": 7427,
      "▁boru": 7428,
      "cum": 7429,
      "masa": 7430,
      "▁sof": 7431,
      "utlu": 7432,
      "▁yılının": 7433,
      "elt": 7434,
      "▁eksikleri": 7435,
      "▁ez": 7436,
      "▁hazine": 7437,
      "▁ariz": 7438,
      "▁solda": 7439,
      "▁zararlar": 7440,
      "ic": 7441,
      "▁etkili": 7442,
      "▁olanak": 7443,
      "▁had": 7444,
      "00'den": 7445,
      "yen": 7446,
      "▁cozmek": 7447,
      "▁eldiven": 7448,
      "–": 7449,
      "stır": 7450,
      "amaları": 7451,
      "▁olun": 7452,
      "▁teri": 7453,
      "▁aln": 7454,
      "▁reform": 7455,
      "▁noktada": 7456,
      "▁odami": 7457,
      "▁yasından": 7458,
      "▁vasıta": 7459,
      "kileri": 7460,
      "leyip": 7461,
      "▁hatırım": 7462,
      "▁mus": 7463,
      "▁hok": 7464,
      "dandır": 7465,
      "▁parka": 7466,
      "▁derginin": 7467,
      "let": 7468,
      "iyesi": 7469,
      "▁bulun": 7470,
      "▁ortaklık": 7471,
      "▁vali": 7472,
      "itliydi": 7473,
      "▁ci": 7474,
      "▁gonullu": 7475,
      "erlik": 7476,
      "▁dest": 7477,
      "▁deplasmanda": 7478,
      "▁devralma": 7479,
      "▁parcacıklar": 7480,
      "▁getirilerinin": 7481,
      "▁abi": 7482,
      "▁canlı": 7483,
      "▁salkım": 7484,
      "▁duygular": 7485,
      "dugum": 7486,
      "▁kılavuz": 7487,
      "▁yabancı": 7488,
      "▁hakim": 7489,
      "▁karaya": 7490,
      "▁tram": 7491,
      "ıv": 7492,
      "▁emegi": 7493,
      "▁alıcıları": 7494,
      "▁otek": 7495,
      "▁cizgi": 7496,
      "▁pırıl": 7497,
      "lenmesine": 7498,
      "▁hur": 7499,
      "45'ten": 7500,
      "▁worth": 7501,
      "▁istifade": 7502,
      "▁ekonomisi": 7503,
      "da": 7504,
      "▁ucakların": 7505,
      "▁aleminde": 7506,
      "▁ilav": 7507,
      "likle": 7508,
      "▁tiyatroya": 7509,
      "▁calısanlar": 7510,
      "▁endisesi": 7511,
      "▁trilyon": 7512,
      "▁hayır": 7513,
      "▁havaalanı'ndan": 7514,
      "▁baskent": 7515,
      "deydi": 7516,
      "▁vatan": 7517,
      "▁kızına": 7518,
      "panya": 7519,
      "agat": 7520,
      "▁band": 7521,
      "▁nasıl": 7522,
      "▁bebek": 7523,
      "▁durumu": 7524,
      "▁canına": 7525,
      "ordu": 7526,
      "▁jandar": 7527,
      "▁cel": 7528,
      "▁degerlendirmek": 7529,
      "▁karı": 7530,
      "▁orneklerini": 7531,
      "▁li": 7532,
      "▁basıma": 7533,
      "▁hususunda": 7534,
      "▁uyeligi": 7535,
      "▁mevz": 7536,
      "uklar": 7537,
      "▁halbuki": 7538,
      "iyetine": 7539,
      "▁ogluna": 7540,
      "▁degisikligi": 7541,
      "▁kuz": 7542,
      "▁kimin": 7543,
      "▁gazoz": 7544,
      "▁parti": 7545,
      "acaat": 7546,
      "▁gecede": 7547,
      "▁serin": 7548,
      "▁satıyor": 7549,
      "▁iktidara": 7550,
      "▁big": 7551,
      "▁7.8": 7552,
      "madılar": 7553,
      "▁rub": 7554,
      "sın": 7555,
      "▁kuc": 7556,
      "jik": 7557,
      "ıgın": 7558,
      "▁bulus": 7559,
      "▁hizmete": 7560,
      "lugu": 7561,
      "ind": 7562,
      "▁yazma": 7563,
      "una": 7564,
      "▁moder": 7565,
      "▁buyukler": 7566,
      "▁turn": 7567,
      "▁asırı": 7568,
      "▁listesine": 7569,
      "▁pet": 7570,
      "▁surecinin": 7571,
      "▁fincanını": 7572,
      "erek": 7573,
      "▁tatlı": 7574,
      "▁!..": 7575,
      "▁harmanı": 7576,
      "▁minneapolis": 7577,
      "▁idar": 7578,
      "▁hesabını": 7579,
      "▁hayv": 7580,
      "▁bucak": 7581,
      "▁halef": 7582,
      "▁konu": 7583,
      "▁baslangıc": 7584,
      "▁gelecekte": 7585,
      "agoz": 7586,
      "▁saatin": 7587,
      "▁yakından": 7588,
      "▁dolayi": 7589,
      "▁arama": 7590,
      "▁dogru": 7591,
      "▁kalmıstı": 7592,
      "▁radyoyu": 7593,
      "▁sezon": 7594,
      "▁havaalanı'nda": 7595,
      "▁ilan": 7596,
      "▁tasavv": 7597,
      "▁ası": 7598,
      "▁halli": 7599,
      "▁yirmi": 7600,
      "▁cleveland": 7601,
      "▁alıskan": 7602,
      "ikler": 7603,
      "▁yarıya": 7604,
      "▁performansı": 7605,
      "▁hatun": 7606,
      "ice": 7607,
      "▁eastern": 7608,
      "▁ucaga": 7609,
      "▁ense": 7610,
      "▁kullanılan": 7611,
      "▁acar": 7612,
      "▁piyade": 7613,
      "▁gorusler": 7614,
      "ıb": 7615,
      "▁ucagı": 7616,
      "ayım": 7617,
      "▁oteye": 7618,
      "▁isleminin": 7619,
      "▁kimseye": 7620,
      "▁ucurt": 7621,
      "▁ig": 7622,
      "▁kadını": 7623,
      "▁kalk": 7624,
      "$": 7625,
      "▁istek": 7626,
      "▁operasyonu": 7627,
      "▁sayet": 7628,
      "▁guverte": 7629,
      "▁sular": 7630,
      "▁ayagın": 7631,
      "▁onculuk": 7632,
      "▁tumu": 7633,
      "yince": 7634,
      "▁pudra": 7635,
      "▁kaybetti": 7636,
      "mekt": 7637,
      "▁boyle": 7638,
      "▁hamami": 7639,
      "sin": 7640,
      "▁yurut": 7641,
      "▁bahsediyor": 7642,
      "▁yad": 7643,
      "cal": 7644,
      "▁kambiy": 7645,
      "▁personelinin": 7646,
      "▁planı": 7647,
      "▁carsamba": 7648,
      "int": 7649,
      "▁yerlere": 7650,
      "izmi": 7651,
      "▁kızgınlık": 7652,
      "▁maliyetini": 7653,
      "▁aglamaya": 7654,
      "▁dinam": 7655,
      "▁gazeteyi": 7656,
      "▁dedim": 7657,
      "rik": 7658,
      "lanab": 7659,
      "▁city'e": 7660,
      "'s": 7661,
      "▁orijinal": 7662,
      "▁ulkeler": 7663,
      "▁zihin": 7664,
      "▁gordugu": 7665,
      "▁baskasının": 7666,
      "layacak": 7667,
      "▁bahtiy": 7668,
      "mak": 7669,
      "ann": 7670,
      "▁bakar": 7671,
      "▁mar": 7672,
      "▁dur": 7673,
      "kiz": 7674,
      "▁goruyorum": 7675,
      "▁mi": 7676,
      "▁ayakkabı": 7677,
      "▁zey": 7678,
      "▁bence": 7679,
      "▁tecessus": 7680,
      "izlerdi": 7681,
      "▁ayakkabılarını": 7682,
      "\\": 7683,
      "▁zamana": 7684,
      "▁kullanıcı": 7685,
      "▁boston": 7686,
      "▁mensup": 7687,
      "alarım": 7688,
      "sında": 7689,
      "▁yataga": 7690,
      "lant": 7691,
      "▁maglub": 7692,
      "▁gib": 7693,
      "ec": 7694,
      "▁merc": 7695,
      "▁rap": 7696,
      "▁hol": 7697,
      "▁inek": 7698,
      "edikten": 7699,
      "istal": 7700,
      "▁mumu": 7701,
      "▁defteri": 7702,
      "▁grup": 7703,
      "▁havasında": 7704,
      "eliyor": 7705,
      "▁ucunu": 7706,
      "▁yıldırım": 7707,
      "mini": 7708,
      "ktan": 7709,
      "▁karsılıklı": 7710,
      "▁getirmek": 7711,
      "▁ordusunun": 7712,
      "lamıslar": 7713,
      "▁bel": 7714,
      "▁boy": 7715,
      "iciye": 7716,
      "r": 7717,
      "anet": 7718,
      "▁sorunlarına": 7719,
      "ion": 7720,
      "▁karav": 7721,
      "▁12'den": 7722,
      "▁yardımıyla": 7723,
      "▁kendimi": 7724,
      "▁yont": 7725,
      "▁dısarıdan": 7726,
      "▁bilgilerini": 7727,
      "▁gidisat": 7728,
      "rat": 7729,
      "▁zayıf": 7730,
      "▁belirli": 7731,
      "ıtı": 7732,
      "▁golgesinde": 7733,
      "▁mikrofon": 7734,
      "▁gelisim": 7735,
      "▁degistirmek": 7736,
      "▁formulu": 7737,
      "▁anah": 7738,
      "▁jener": 7739,
      "▁yolcu": 7740,
      "▁yelpaz": 7741,
      "▁bosalt": 7742,
      "▁mortgage": 7743,
      "▁kacır": 7744,
      "▁ders": 7745,
      "▁kızların": 7746,
      "▁tehlikesi": 7747,
      "ksa": 7748,
      "▁anahtarı": 7749,
      "▁anne": 7750,
      "▁iht": 7751,
      "▁pisir": 7752,
      "▁koltukta": 7753,
      "▁manevr": 7754,
      "mer": 7755,
      "▁yumuk": 7756,
      "melerde": 7757,
      "▁bit": 7758,
      "▁bilanc": 7759,
      "▁eklen": 7760,
      "▁kerem": 7761,
      "▁pus": 7762,
      "▁evvela": 7763,
      "▁sırtını": 7764,
      "7'nin": 7765,
      "alif": 7766,
      "▁har": 7767,
      "▁uvey": 7768,
      "▁birlestir": 7769,
      "▁hocalık": 7770,
      "amdan": 7771,
      "▁teor": 7772,
      "mustur": 7773,
      "anam": 7774,
      "▁yeraltı": 7775,
      "▁dokuz": 7776,
      "aran": 7777,
      "yalar": 7778,
      "bilecegini": 7779,
      "▁kala": 7780,
      "▁basımda": 7781,
      "▁numarasını": 7782,
      "etsiz": 7783,
      "mis": 7784,
      "medig": 7785,
      "legi": 7786,
      "▁yaprakları": 7787,
      "▁stokları": 7788,
      "ecileri": 7789,
      "▁yiyecek": 7790,
      "'te": 7791,
      "▁nereler": 7792,
      "▁sanatcılar": 7793,
      "yan": 7794,
      "oj": 7795,
      "▁ciftciler": 7796,
      "▁veren": 7797,
      "▁delikan": 7798,
      "▁etkil": 7799,
      "▁teori": 7800,
      "elerini": 7801,
      "▁kilisesi": 7802,
      "▁on": 7803,
      "▁yavasca": 7804,
      "▁faiz": 7805,
      "▁anasının": 7806,
      "ilm": 7807,
      "▁yerde": 7808,
      "▁indirimlerden": 7809,
      "▁fal": 7810,
      "▁basta": 7811,
      "angi": 7812,
      "▁doldur": 7813,
      "▁yes": 7814,
      "aklıgı": 7815,
      "▁kabiliyet": 7816,
      "▁demek": 7817,
      "▁koyluler": 7818,
      "▁ihtimal": 7819,
      "▁alanlarında": 7820,
      "▁gorevli": 7821,
      "▁vaktim": 7822,
      "▁merdivenleri": 7823,
      "▁sıhh": 7824,
      "▁dusunuyoruz": 7825,
      "rek": 7826,
      "▁masadan": 7827,
      "▁fırsat": 7828,
      "▁kokuları": 7829,
      "▁golge": 7830,
      "▁gozlu": 7831,
      "▁miami'ye": 7832,
      "▁vazgec": 7833,
      "▁olmadı": 7834,
      "▁seneden": 7835,
      "▁onunuz": 7836,
      "▁sabahtan": 7837,
      "▁tesisten": 7838,
      "anma": 7839,
      "uzluk": 7840,
      "▁cekir": 7841,
      "▁devrim": 7842,
      "▁programına": 7843,
      "▁emperyalizm": 7844,
      "▁nedenini": 7845,
      "▁bıcagı": 7846,
      "▁harc": 7847,
      "▁isimler": 7848,
      "sanız": 7849,
      "▁etmesine": 7850,
      "▁rok": 7851,
      "▁sep": 7852,
      "▁cark": 7853,
      "▁katına": 7854,
      "▁memphis'ten": 7855,
      "sini": 7856,
      "▁bildigi": 7857,
      "'ten": 7858,
      "▁endustrileri": 7859,
      "▁direnis": 7860,
      "▁baskanının": 7861,
      "▁nas": 7862,
      "▁ucusunun": 7863,
      "ulması": 7864,
      "▁“": 7865,
      "▁artcı": 7866,
      "▁sudan": 7867,
      "▁yay": 7868,
      "▁an": 7869,
      "▁gelistiriciler": 7870,
      "▁acıklanmadı": 7871,
      "▁birligini": 7872,
      "bert": 7873,
      "▁yuzleri": 7874,
      "▁elbet": 7875,
      "▁donemde": 7876,
      "eda": 7877,
      "▁hucr": 7878,
      "▁otların": 7879,
      "▁koyun": 7880,
      "▁vucudu": 7881,
      "▁bayrak": 7882,
      "▁a.": 7883,
      "▁aktiv": 7884,
      "▁yaklasık": 7885,
      "▁tazmin": 7886,
      "▁sagladı": 7887,
      "▁taahhut": 7888,
      "▁bankası'nın": 7889,
      "saydı": 7890,
      "▁kalfa": 7891,
      "▁hizmetin": 7892,
      "▁hekimi": 7893,
      "▁urun": 7894,
      "▁bazen": 7895,
      "▁62": 7896,
      "▁rop": 7897,
      "▁jul": 7898,
      "▁denem": 7899,
      "▁girdi": 7900,
      "▁tatili": 7901,
      "▁unif": 7902,
      "mel": 7903,
      "▁agzında": 7904,
      "sızlıgını": 7905,
      "▁misyon": 7906,
      "▁muhaliflerin": 7907,
      "▁veterin": 7908,
      "▁isy": 7909,
      "ons": 7910,
      "▁cocugunun": 7911,
      "▁erkegi": 7912,
      "▁acaktı": 7913,
      "▁oldugumu": 7914,
      "amıyor": 7915,
      "▁heyetin": 7916,
      "▁tarafına": 7917,
      "amda": 7918,
      "▁cesaretini": 7919,
      "▁dinliyor": 7920,
      "▁haberin": 7921,
      "▁herifin": 7922,
      "▁randevu": 7923,
      "▁koz": 7924,
      "▁defa": 7925,
      "▁beyefendi": 7926,
      "▁turb": 7927,
      "▁burjuv": 7928,
      ",": 7929,
      "gen": 7930,
      "ift": 7931,
      "▁bet": 7932,
      "▁ekonom": 7933,
      "▁topr": 7934,
      "▁finanse": 7935,
      "▁okumak": 7936,
      "▁gulery": 7937,
      "▁altmıs": 7938,
      "▁liber": 7939,
      "dı": 7940,
      "▁koku": 7941,
      "ikli": 7942,
      "▁ekipman": 7943,
      "▁gar": 7944,
      "▁masayı": 7945,
      "▁levh": 7946,
      "▁kullan": 7947,
      "langıc": 7948,
      "▁fincanı": 7949,
      "▁manzara": 7950,
      "▁sukur": 7951,
      "▁bilinc": 7952,
      "▁dagıt": 7953,
      "▁hattı": 7954,
      "lıgım": 7955,
      "▁meseleyi": 7956,
      "▁rakamı": 7957,
      "akk": 7958,
      "▁hesabı": 7959,
      "▁silah": 7960,
      "▁isimleri": 7961,
      "▁talebinin": 7962,
      "▁soylendi": 7963,
      "▁dizi": 7964,
      "▁olumden": 7965,
      "▁herkesin": 7966,
      "▁genetik": 7967,
      "▁kesinlik": 7968,
      "anının": 7969,
      "▁kıy": 7970,
      "yal": 7971,
      "▁kuyu": 7972,
      "ustuk": 7973,
      "▁sarh": 7974,
      "▁kısıtlamalar": 7975,
      "▁ihtiy": 7976,
      "▁telefonu": 7977,
      "▁hayaller": 7978,
      "▁rehberimiz": 7979,
      "kinin": 7980,
      "asıyla": 7981,
      "▁uzat": 7982,
      "lemeler": 7983,
      "▁anlasmaya": 7984,
      "▁bilgisayar-pr": 7985,
      "ilya": 7986,
      "▁mut": 7987,
      "▁eksi": 7988,
      "elektr": 7989,
      "▁vakfı": 7990,
      "elen": 7991,
      "▁mef": 7992,
      "▁ustune": 7993,
      "emiz": 7994,
      "▁kurulunun": 7995,
      "▁klima": 7996,
      "▁maharetle": 7997,
      "▁gectikten": 7998,
      "▁yazılım": 7999,
      "▁arkasına": 8000,
      "▁harcam": 8001,
      "gısını": 8002,
      "yon": 8003,
      "▁duygusal": 8004,
      "uyen": 8005,
      "ıyoruz": 8006,
      "yalı": 8007,
      "▁kopegi": 8008,
      "alma": 8009,
      "▁amcam": 8010,
      "arlar": 8011,
      "▁nicin": 8012,
      "▁biletleri": 8013,
      "▁metaller": 8014,
      "▁1988'in": 8015,
      "▁ucusun": 8016,
      "ucular": 8017,
      "▁ayrılmak": 8018,
      "▁be": 8019,
      "ational": 8020,
      "▁kendimden": 8021,
      "▁daktilo": 8022,
      "▁dak": 8023,
      "▁dahil": 8024,
      "▁hareketler": 8025,
      "▁duvarlarına": 8026,
      "▁shearson": 8027,
      "asını": 8028,
      "▁vucuduna": 8029,
      "mesiyle": 8030,
      "▁mahkumu": 8031,
      "▁hakikaten": 8032,
      "▁zevkimize": 8033,
      "enn": 8034,
      "▁kalite": 8035,
      "▁gonlu": 8036,
      "▁corbayı": 8037,
      "tiz": 8038,
      "▁fikirleri": 8039,
      "▁makya": 8040,
      "▁sanki": 8041,
      "▁mahall": 8042,
      "▁sureci": 8043,
      "▁sonucları": 8044,
      "ındık": 8045,
      "▁temiz": 8046,
      "▁tecavuz": 8047,
      "▁toplamak": 8048,
      "▁gulu": 8049,
      "▁mutf": 8050,
      "▁karsıt": 8051,
      "▁karlar": 8052,
      "▁malları": 8053,
      "tiniz": 8054,
      "▁sigortacılar": 8055,
      "luler": 8056,
      "▁kaya": 8057,
      "an": 8058,
      "▁muc": 8059,
      "▁metr": 8060,
      "▁macer": 8061,
      "▁bahceler": 8062,
      "▁harman": 8063,
      "▁n": 8064,
      "▁haval": 8065,
      "▁muzakere": 8066,
      "▁gidil": 8067,
      "▁13": 8068,
      "anda": 8069,
      "▁camasırları": 8070,
      "▁sapkası": 8071,
      "▁gercegi": 8072,
      "▁sonbaharda": 8073,
      "▁calmaya": 8074,
      "▁beyn": 8075,
      "▁hatırı": 8076,
      "▁sarmas": 8077,
      "▁genelde": 8078,
      "ft": 8079,
      "▁telefon": 8080,
      "▁pilav": 8081,
      "▁denizden": 8082,
      "▁guzellik": 8083,
      "▁ahkam": 8084,
      "▁yasa": 8085,
      "enizin": 8086,
      "▁insaatı": 8087,
      "▁masallar": 8088,
      "▁hataları": 8089,
      "asyonun": 8090,
      "▁kira": 8091,
      "▁kulagımdan": 8092,
      "▁tukur": 8093,
      "▁verdi": 8094,
      "▁zihnini": 8095,
      "▁masasında": 8096,
      "▁gerceklik": 8097,
      "▁ucuslarını": 8098,
      "▁tarihe": 8099,
      "▁actı": 8100,
      "isti": 8101,
      "eyecek": 8102,
      "▁ugras": 8103,
      "▁toprak": 8104,
      "▁fındık": 8105,
      "▁kosullar": 8106,
      "10": 8107,
      "▁gasp": 8108,
      "iliginden": 8109,
      "▁takımları": 8110,
      "▁sosyete": 8111,
      "▁sut": 8112,
      "▁erdog": 8113,
      "▁vardır": 8114,
      "▁bush": 8115,
      "▁yalı": 8116,
      "▁yararı": 8117,
      "▁becer": 8118,
      "▁insandan": 8119,
      "▁ismini": 8120,
      "▁herhalde": 8121,
      "▁muzik": 8122,
      "▁birinde": 8123,
      "ebiliyor": 8124,
      "▁projesi": 8125,
      "▁tahl": 8126,
      "▁mana": 8127,
      "▁basları": 8128,
      "▁aktor": 8129,
      "ende": 8130,
      "-pr": 8131,
      "▁evv": 8132,
      "▁iskence": 8133,
      "iyenin": 8134,
      "▁hastaları": 8135,
      "▁calısanları": 8136,
      "acıklar": 8137,
      "▁marangoz": 8138,
      "▁qx": 8139,
      "▁vucut": 8140,
      "ans": 8141,
      "▁dagdan": 8142,
      "▁cinsten": 8143,
      "▁em": 8144,
      "▁ut": 8145,
      "▁iktid": 8146,
      "▁ozellikle": 8147,
      "▁icerde": 8148,
      "▁dalgalan": 8149,
      "luge": 8150,
      "▁yandı": 8151,
      "▁1/": 8152,
      "zır": 8153,
      "▁galib": 8154,
      "▁yapmakta": 8155,
      "▁kiracı": 8156,
      "▁kurtulur": 8157,
      "▁oturan": 8158,
      "°": 8159,
      "▁soyleyebilir": 8160,
      "▁gunlerinde": 8161,
      "▁kost": 8162,
      "▁davasının": 8163,
      "▁ulkeden": 8164,
      "▁muhal": 8165,
      "▁endustrinin": 8166,
      "▁benziyor": 8167,
      "▁teklifi": 8168,
      "ediy": 8169,
      "oglanı": 8170,
      "▁sigortası": 8171,
      "▁ihal": 8172,
      "▁rakam": 8173,
      "imde": 8174,
      "▁notlar": 8175,
      "orn": 8176,
      "men": 8177,
      "▁cıktım": 8178,
      "muyor": 8179,
      "▁tavana": 8180,
      "▁secimlerde": 8181,
      "cilik": 8182,
      "▁dusuncesini": 8183,
      "▁ickiye": 8184,
      "▁cont": 8185,
      "▁dinin": 8186,
      "▁geri": 8187,
      "▁istiyorum": 8188,
      "▁gelenler": 8189,
      "askanı": 8190,
      "▁attı": 8191,
      "▁hanimdi": 8192,
      "▁tablosu": 8193,
      "lemeye": 8194,
      "▁sayg": 8195,
      "▁medy": 8196,
      "itesi": 8197,
      "▁bitim": 8198,
      "▁ucret": 8199,
      "▁getirileri": 8200,
      "egi": 8201,
      "et": 8202,
      "▁yuregim": 8203,
      "dını": 8204,
      "47": 8205,
      "▁degilim": 8206,
      "▁ihtis": 8207,
      "▁topluluk": 8208,
      "ifi": 8209,
      "▁90": 8210,
      "▁karsılastırıldıgında": 8211,
      "▁yaslarında": 8212,
      "▁traj": 8213,
      "▁rezerv": 8214,
      "yle": 8215,
      "▁yurd": 8216,
      "▁edit": 8217,
      "▁belg": 8218,
      "▁tohumu": 8219,
      "▁ormanın": 8220,
      "▁sım": 8221,
      "kor": 8222,
      "▁liderlik": 8223,
      "ersey": 8224,
      "▁bagımlı": 8225,
      "trilyon": 8226,
      "▁havasını": 8227,
      "▁kalkıs": 8228,
      "▁bırakma": 8229,
      "larının": 8230,
      "▁kestane": 8231,
      "▁bardagı": 8232,
      "▁cezaev": 8233,
      "ko": 8234,
      "etici": 8235,
      "▁kamera": 8236,
      "▁adımda": 8237,
      "▁gozle": 8238,
      "▁francisco'dan": 8239,
      "ban": 8240,
      "las": 8241,
      "▁umdugunu": 8242,
      "▁konserve": 8243,
      "▁hukumete": 8244,
      "▁cihazlar": 8245,
      "▁ziyareti": 8246,
      "▁ilcesine": 8247,
      "▁ac": 8248,
      "▁lazım": 8249,
      "▁abla": 8250,
      "▁depremden": 8251,
      "tim": 8252,
      "▁kalorifer": 8253,
      "▁bık": 8254,
      "▁iman": 8255,
      "esinin": 8256,
      "mustu": 8257,
      "▁sendik": 8258,
      "▁hulya": 8259,
      "▁bus": 8260,
      "▁genc": 8261,
      "▁yaralan": 8262,
      "▁anay": 8263,
      "▁bilirim": 8264,
      "▁cami": 8265,
      "▁yolda": 8266,
      "esli": 8267,
      "adet": 8268,
      "▁goster": 8269,
      "▁gozume": 8270,
      "▁faizini": 8271,
      "▁faturami": 8272,
      "▁ifadesini": 8273,
      "▁gerektir": 8274,
      "▁lah": 8275,
      "▁zavall": 8276,
      "▁cicekler": 8277,
      "▁gag": 8278,
      "anlarda": 8279,
      "▁komuru": 8280,
      "uza": 8281,
      "▁halden": 8282,
      "▁denetim": 8283,
      "▁tutuyor": 8284,
      "▁arıtma": 8285,
      "▁program": 8286,
      "ılma": 8287,
      "lanmıs": 8288,
      "▁soylen": 8289,
      "▁dusundum": 8290,
      "ındaki": 8291,
      "▁diril": 8292,
      "res": 8293,
      "ecegiz": 8294,
      "▁dolar": 8295,
      "▁kenti": 8296,
      "▁icimden": 8297,
      "▁mesaf": 8298,
      "lasma": 8299,
      "▁golun": 8300,
      "▁yolculugun": 8301,
      "6'ya": 8302,
      "mesinin": 8303,
      "▁muhalif": 8304,
      "iyorlardı": 8305,
      "▁temizleme": 8306,
      "▁calisirim": 8307,
      "▁rejim": 8308,
      "▁alakaliydi": 8309,
      "anları": 8310,
      "▁haf": 8311,
      "inlerini": 8312,
      "▁sis": 8313,
      "▁om": 8314,
      "▁kutu": 8315,
      "▁vakıf": 8316,
      "▁36": 8317,
      "▁arasından": 8318,
      "raber": 8319,
      "▁dediler": 8320,
      "▁kullandı": 8321,
      "▁yanıt": 8322,
      "▁40'": 8323,
      "▁simdiden": 8324,
      "▁malum": 8325,
      "▁bekledigimden": 8326,
      "▁onay": 8327,
      "nem": 8328,
      "▁oranlarına": 8329,
      "▁kısı": 8330,
      "alisyon": 8331,
      "▁ornek": 8332,
      "▁yururluge": 8333,
      "otekn": 8334,
      "▁;": 8335,
      "▁haberdar": 8336,
      "iligini": 8337,
      "▁vide": 8338,
      "▁geregi": 8339,
      "ırp": 8340,
      "▁listeye": 8341,
      "▁spekulasyon": 8342,
      "▁sirketlerini": 8343,
      "▁yaratır": 8344,
      "▁kullanmaya": 8345,
      "▁yatırımların": 8346,
      "ly": 8347,
      "oloji": 8348,
      "▁yılın": 8349,
      "▁insanlardan": 8350,
      "▁bulunmaktadır": 8351,
      "tıklarını": 8352,
      "▁gevs": 8353,
      ".6": 8354,
      "▁houston'dan": 8355,
      "u": 8356,
      "sil": 8357,
      "▁sozcuklerin": 8358,
      "mistir": 8359,
      "▁kapılar": 8360,
      "diye": 8361,
      "ıma": 8362,
      "▁gold": 8363,
      "ebilir": 8364,
      "▁murekkep": 8365,
      "arya": 8366,
      "▁kelebek": 8367,
      "▁ısır": 8368,
      "▁muhur": 8369,
      "▁sairleri": 8370,
      "▁kacındı": 8371,
      "how": 8372,
      "▁bayr": 8373,
      "latmak": 8374,
      "▁mekan": 8375,
      "▁fazl": 8376,
      "▁hizmetler": 8377,
      "▁kuyruk": 8378,
      "▁geciyor": 8379,
      "▁kayın": 8380,
      "ang": 8381,
      "▁aktiviteleri": 8382,
      "4": 8383,
      "▁32": 8384,
      "▁yol": 8385,
      "anya": 8386,
      "▁irf": 8387,
      "▁katalog": 8388,
      "▁kimi": 8389,
      "▁baglam": 8390,
      "▁acıdan": 8391,
      "▁halı": 8392,
      "▁buyumesi": 8393,
      "memek": 8394,
      "▁etmem": 8395,
      "▁alımının": 8396,
      "▁bizde": 8397,
      "▁koalisyon": 8398,
      "/4": 8399,
      "bardım": 8400,
      "▁sohret": 8401,
      "inlere": 8402,
      "▁belgeler": 8403,
      "▁stu": 8404,
      "▁yakıs": 8405,
      "▁pul": 8406,
      "larımızı": 8407,
      "mazdı": 8408,
      "▁olmayan": 8409,
      "▁alım": 8410,
      "▁bilet": 8411,
      "aduf": 8412,
      "'tan": 8413,
      "digini": 8414,
      "▁dakikadan": 8415,
      "▁stres": 8416,
      "▁philadel": 8417,
      "▁parkı": 8418,
      "▁alınması": 8419,
      "▁ellerinden": 8420,
      "▁ulkeye": 8421,
      "▁acmıs": 8422,
      "▁uretimini": 8423,
      "▁yim": 8424,
      "▁umuyor": 8425,
      "▁sizlere": 8426,
      "▁endeksinin": 8427,
      "▁olanakları": 8428,
      "asyona": 8429,
      "▁misin": 8430,
      "▁etki": 8431,
      "▁doları'nda": 8432,
      "▁kontak": 8433,
      "▁altından": 8434,
      "▁bı": 8435,
      "▁gozlerle": 8436,
      "▁tar": 8437,
      "▁listesi": 8438,
      "▁fac": 8439,
      "▁duygularla": 8440,
      "retli": 8441,
      "▁maddenin": 8442,
      "▁gerekir": 8443,
      "▁yonetic": 8444,
      "▁gergin": 8445,
      "real": 8446,
      "alarla": 8447,
      "▁masaj": 8448,
      "▁ortagı": 8449,
      "▁1\\/2": 8450,
      "sizlik": 8451,
      "▁tasa": 8452,
      "▁verdigi": 8453,
      "acılıgı": 8454,
      "▁zırh": 8455,
      "▁gecelerde": 8456,
      "▁telaf": 8457,
      "▁yapıldıgını": 8458,
      "▁kred": 8459,
      "▁yapımını": 8460,
      "▁cocugu": 8461,
      "uncusu": 8462,
      "▁hafif": 8463,
      "9'un": 8464,
      "▁yazıya": 8465,
      "”": 8466,
      ".8": 8467,
      "▁beyan": 8468,
      "▁etrafı": 8469,
      "▁kenarında": 8470,
      "▁tarafindan": 8471,
      "▁luks": 8472,
      "▁muharr": 8473,
      "▁direnc": 8474,
      "▁ekipmanı": 8475,
      "▁dusmus": 8476,
      "▁fev": 8477,
      "tle": 8478,
      "▁cumlesinde": 8479,
      "▁kolayca": 8480,
      "ıcılar": 8481,
      "▁fransız": 8482,
      "▁gozyasları": 8483,
      "▁degi": 8484,
      "▁aslına": 8485,
      "▁edec": 8486,
      "▁isini": 8487,
      "▁sertif": 8488,
      "▁kablo": 8489,
      "▁bun": 8490,
      "▁dusuktu": 8491,
      "▁aylık": 8492,
      "▁basarılı": 8493,
      "laya": 8494,
      "turu": 8495,
      "▁gunlerinden": 8496,
      "▁olc": 8497,
      "▁yeryuzunde": 8498,
      "▁kendi": 8499,
      "▁kosullara": 8500,
      "▁biter": 8501,
      "kili": 8502,
      "▁uzan": 8503,
      "uler": 8504,
      "▁omuzlarını": 8505,
      "▁planlarını": 8506,
      "yıl": 8507,
      "▁saunayi": 8508,
      "▁gorevini": 8509,
      "▁planimiz": 8510,
      "▁hafifce": 8511,
      "▁direkt": 8512,
      "cemi": 8513,
      "▁gid": 8514,
      "▁gittikce": 8515,
      "▁arkadaslar": 8516,
      "gili": 8517,
      "▁27": 8518,
      "▁araclara": 8519,
      "saca": 8520,
      "▁multeci": 8521,
      "▁pazarlam": 8522,
      "▁kahram": 8523,
      "vey": 8524,
      "▁maymun": 8525,
      "▁60": 8526,
      "▁numaralı": 8527,
      "▁yse": 8528,
      "▁iletisim": 8529,
      "▁kayıplar": 8530,
      "▁calar": 8531,
      "▁uluslararası": 8532,
      "tarak": 8533,
      "▁kapsamına": 8534,
      "▁yerles": 8535,
      "▁mirası": 8536,
      "▁elbette": 8537,
      "ler": 8538,
      "▁farklı": 8539,
      "eginiz": 8540,
      "▁dolandır": 8541,
      "▁inan": 8542,
      "▁problem": 8543,
      "▁titr": 8544,
      "▁gururunu": 8545,
      "▁gur": 8546,
      "▁sokaklarında": 8547,
      "▁she": 8548,
      "▁gun": 8549,
      "▁personeller": 8550,
      "arda": 8551,
      "▁ata": 8552,
      "▁raporlar": 8553,
      "▁ihalesi": 8554,
      "▁neti": 8555,
      "▁guleryuzlu": 8556,
      "kur": 8557,
      "▁bitkiler": 8558,
      "▁listele": 8559,
      "▁hizmetci": 8560,
      "ilerini": 8561,
      "ncak": 8562,
      "'ndaki": 8563,
      "▁sektore": 8564,
      "▁gorunmuyor": 8565,
      "all": 8566,
      "▁tahkikat": 8567,
      "unt": 8568,
      "▁defne": 8569,
      "▁sanayicileri": 8570,
      "▁dergisinde": 8571,
      "makta": 8572,
      "▁gozlerinin": 8573,
      "▁egilimi": 8574,
      "▁tamamıyla": 8575,
      "▁hacmin": 8576,
      "▁katana": 8577,
      "▁faturam": 8578,
      "▁ellerimi": 8579,
      "▁ziyafet": 8580,
      "▁balik": 8581,
      "▁ydım": 8582,
      "▁madem": 8583,
      "▁sırrı": 8584,
      "van": 8585,
      "▁beklemeye": 8586,
      "▁tartısma": 8587,
      "▁kızının": 8588,
      "embe": 8589,
      "▁garant": 8590,
      "▁adımları": 8591,
      "▁sahn": 8592,
      "vert": 8593,
      "▁gorec": 8594,
      "layıcı": 8595,
      "▁yufka": 8596,
      "▁bulas": 8597,
      "▁ikisin": 8598,
      "▁tarifeleri": 8599,
      "▁peri": 8600,
      "▁aramızda": 8601,
      "▁poyraz": 8602,
      "▁evleri": 8603,
      "▁tasarrufu": 8604,
      "izli": 8605,
      "▁fert": 8606,
      "▁filan": 8607,
      "▁duyul": 8608,
      "▁art": 8609,
      "▁onem": 8610,
      "▁''": 8611,
      "▁anlaya": 8612,
      "eleme": 8613,
      "ust": 8614,
      "▁etk": 8615,
      "▁tulbent": 8616,
      "▁beye": 8617,
      "▁per": 8618,
      "▁baslat": 8619,
      "elik": 8620,
      "▁ocagı": 8621,
      "masıdır": 8622,
      "▁yetistir": 8623,
      "▁aranmak": 8624,
      "cunun": 8625,
      "▁tehdit": 8626,
      "▁peters": 8627,
      "▁sapka": 8628,
      "▁dugmesini": 8629,
      "▁karsıtı": 8630,
      "▁yurur": 8631,
      "▁kredinin": 8632,
      "▁fersah": 8633,
      "▁insan": 8634,
      "▁aylarda": 8635,
      "▁planının": 8636,
      "▁ramaz": 8637,
      "▁bok": 8638,
      "▁birinin": 8639,
      "▁noktasına": 8640,
      "▁katılıyor": 8641,
      "▁olacak": 8642,
      "▁politikaya": 8643,
      "mıstır": 8644,
      "▁tribun": 8645,
      "▁gayet": 8646,
      "▁yasad": 8647,
      "▁tahrik": 8648,
      "sizim": 8649,
      "▁umit": 8650,
      "▁okullarda": 8651,
      "▁vatandası": 8652,
      "▁yalnızca": 8653,
      "▁balıkcılar": 8654,
      "▁toronto'ya": 8655,
      "▁rakip": 8656,
      "anların": 8657,
      "▁dugmesine": 8658,
      "▁arkadasımın": 8659,
      ".4": 8660,
      "▁teknik": 8661,
      "▁resesyon": 8662,
      "▁satılması": 8663,
      "▁kamyonu": 8664,
      "▁sah": 8665,
      "set": 8666,
      "▁ugur": 8667,
      "▁hizli": 8668,
      "▁verip": 8669,
      "▁avukatı": 8670,
      "▁catı": 8671,
      "antr": 8672,
      "▁ku": 8673,
      "▁desteklemek": 8674,
      "▁biletlerini": 8675,
      "▁ziyaret": 8676,
      "▁adin": 8677,
      "ız": 8678,
      "▁gecen": 8679,
      "▁cik": 8680,
      "umda": 8681,
      "▁toplumun": 8682,
      "vas": 8683,
      "▁kıza": 8684,
      "▁ink": 8685,
      "▁kullanmak": 8686,
      "▁kıyıda": 8687,
      "?": 8688,
      "▁istedigi": 8689,
      "dikleri": 8690,
      "aclı": 8691,
      "▁45": 8692,
      "▁ilerleme": 8693,
      "lerimizden": 8694,
      "▁giris": 8695,
      "▁havalar": 8696,
      "▁donmustu": 8697,
      "▁alınan": 8698,
      "▁yukseldi": 8699,
      "▁asagıya": 8700,
      "ırı": 8701,
      "▁talep": 8702,
      "piyon": 8703,
      "larım": 8704,
      "▁cozum": 8705,
      "eciler": 8706,
      "▁tahminle": 8707,
      "acılar": 8708,
      "acısı": 8709,
      "▁g": 8710,
      "imden": 8711,
      "▁ederken": 8712,
      "▁tarih": 8713,
      "▁terlik": 8714,
      "▁meht": 8715,
      "▁reklamların": 8716,
      "▁olmad": 8717,
      "▁prot": 8718,
      "▁buz": 8719,
      "▁seviye": 8720,
      "imle": 8721,
      "▁kacta": 8722,
      "isco": 8723,
      "▁avucuna": 8724,
      "▁mahluk": 8725,
      "dıran": 8726,
      "▁adamakıllı": 8727,
      "▁yasıyor": 8728,
      "▁karının": 8729,
      "mayın": 8730,
      "▁bilin": 8731,
      "unun": 8732,
      "▁degiller": 8733,
      "▁bohc": 8734,
[...]
