{
  "version": "1.0",
  "truncation": null,
  "padding": null,
  "added_tokens": [
    {
      "id": 2728,
      "content": "[PAD]",
      "single_word": false,
      "lstrip": false,
      "rstrip": false,
      "normalized": false,
      "special": true
    },
    {
      "id": 3092,
      "content": "[UNK]",
      "single_word": false,
      "lstrip": false,
      "rstrip": false,
      "normalized": false,
      "special": true
    },
    {
      "id": 3333,
      "content": "[SEP]",
      "single_word": false,
      "lstrip": false,
      "rstrip": false,
      "normalized": false,
      "special": true
    },
    {
      "id": 5462,
      "content": "[CLS]",
      "single_word": false,
      "lstrip": false,
      "rstrip": false,
      "normalized": false,
      "special": true
    },
    {
      "id": 6683,
      "content": "[MASK]",
      "single_word": false,
      "lstrip": false,
      "rstrip": false,
      "normalized": false,
      "special": true
    }
  ],
  "normalizer": {
    "type": "Sequence",
    "normalizers": [
      {
        "type": "NFD"
      },
      {
        "type": "Lowercase"
      },
      {
        "type": "StripAccents"
      }
    ]
  },
  "pre_tokenizer": {
    "type": "Sequence",
    "pretokenizers": [
      {
        "type": "Metaspace",
        "replacement": "▁",
        "prepend_scheme": "always",
        "split": true
      }
    ]
  },
  "post_processor": {
    "type": "TemplateProcessing",
    "single": [
      {
        "SpecialToken": {
          "id": "[CLS]",
          "type_id": 0
        }
      },
      {
        "Sequence": {
          "id": "A",
          "type_id": 0
        }
      },
      {
        "SpecialToken": {
          "id": "[SEP]",
          "type_id": 0
        }
      }
    ],
    "pair": [
      {
        "SpecialToken": {
          "id": "[CLS]",
          "type_id": 0
        }
      },
      {
        "Sequence": {
          "id": "A",
          "type_id": 0
        }
      },
      {
        "SpecialToken": {
          "id": "[SEP]",
          "type_id": 0
        }
      },
      {
        "Sequence": {
          "id": "B",
          "type_id": 1
        }
      },
      {
        "SpecialToken": {
          "id": "[SEP]",
          "type_id": 1
        }
      }
    ],
    "special_tokens": {
      "[CLS]": {
        "id": "[CLS]",
        "ids": [
          5462
        ],
        "tokens": [
          "[CLS]"
        ]
      },
      "[SEP]": {
        "id": "[SEP]",
        "ids": [
          3333
        ],
        "tokens": [
          "[SEP]"
        ]
      }
    }
  },
  "decoder": {
    "type": "Metaspace",
    "replacement": "▁",
    "prepend_scheme": "always",
    "split": true
  },
  "model": {
    "type": "BPE",
    "dropout": null,
    "unk_token": "[UNK]",
    "continuing_subword_prefix": null,
    "end_of_word_suffix": null,
    "fuse_unk": false,
    "byte_fallback": false,
    "ignore_merges": false,
    "vocab": {
      "apolis": 0,
      "ikti": 1,
      "▁odaya": 2,
      "ebilecek": 3,
      "ıb": 4,
      "▁efendi": 5,
      "sem": 6,
      "ırdı": 7,
      "▁kanunu": 8,
      "inde": 9,
      "▁kısa": 10,
      "▁bebek": 11,
      "▁yonetiminin": 12,
      "▁sahneye": 13,
      "▁cocugu": 14,
      "▁cikis": 15,
      "ler": 16,
      "oc": 17,
      "▁fazlaydi": 18,
      "lav": 19,
      "isco": 20,
      "▁fidan": 21,
      "▁yetis": 22,
      "▁sikint": 23,
      "▁haberleri": 24,
      "▁istemiyorum": 25,
      "▁yargı": 26,
      "▁hissenin": 27,
      "▁bodr": 28,
      "elerde": 29,
      "laydi": 30,
      "lenme": 31,
      "▁reng": 32,
      "imci": 33,
      "▁alıskan": 34,
      "▁seye": 35,
      "▁mesaf": 36,
      "▁sarı": 37,
      "▁perakende": 38,
      "tıs": 39,
      "▁23": 40,
      "▁mustes": 41,
      "▁sıra": 42,
      "▁baslık": 43,
      "▁gorevli": 44,
      "elle": 45,
      "anlı": 46,
      "▁had": 47,
      "larini": 48,
      "▁ko": 49,
      "anta": 50,
      "▁okulun": 51,
      "▁gayet": 52,
      "▁ag": 53,
      "▁orland": 54,
      "▁ancak": 55,
      "ince": 56,
      "▁oranı": 57,
      "▁kemik": 58,
      "▁halkı": 59,
      "▁eline": 60,
      "lıp": 61,
      "▁kendileri": 62,
      "ly": 63,
      "unda": 64,
      "▁devir": 65,
      "ru": 66,
      "▁kerv": 67,
      "tmek": 68,
      "▁iddia": 69,
      "▁amel": 70,
      "▁500": 71,
      "▁konusmak": 72,
      "▁pantol": 73,
      "▁hareketi": 74,
      "▁izlen": 75,
      "▁oc": 76,
      "ledi": 77,
      "▁olabilirdi": 78,
      "luk": 79,
      "▁dis": 80,
      "▁itibar": 81,
      "▁dolandır": 82,
      "▁merkeze": 83,
      "▁soyle": 84,
      "yle": 85,
      "▁pit": 86,
      "▁anlattı": 87,
      "iyordu": 88,
      "▁kahkah": 89,
      "▁beb": 90,
      "▁muzakere": 91,
      "▁bunu": 92,
      "▁kuvvetleri": 93,
      "▁piyasa": 94,
      "r": 95,
      "▁idi": 96,
      "▁araya": 97,
      "leyiciler": 98,
      "▁indi": 99,
      "▁karsılık": 100,
      "▁yurek": 101,
      "ladı": 102,
      "▁hava": 103,
      "▁gosterdi": 104,
      "▁yumurta": 105,
      "▁milletvek": 106,
      "acıları": 107,
      "▁not": 108,
      "▁eyl": 109,
      "vel": 110,
      "▁ilav": 111,
      "▁toh": 112,
      "▁cır": 113,
      "siye": 114,
      "▁gozlerim": 115,
      "▁rak": 116,
      "madan": 117,
      "▁alanı": 118,
      "unu": 119,
      "▁takv": 120,
      "▁pesinde": 121,
      "▁)": 122,
      "▁yemeklerden": 123,
      "▁halbu": 124,
      "▁sul": 125,
      "▁edilm": 126,
      "▁yaklasım": 127,
      "▁fot": 128,
      "▁zeytin": 129,
      "▁kızın": 130,
      "w": 131,
      "▁doktorlar": 132,
      "▁uzakti": 133,
      "▁toplum": 134,
      "▁ihtil": 135,
      "▁taahh": 136,
      "▁millet": 137,
      "uyla": 138,
      "ge": 139,
      "▁kabul": 140,
      "▁suphe": 141,
      "▁chat": 142,
      "▁tavır": 143,
      "▁ellerini": 144,
      "▁otlar": 145,
      "iyetle": 146,
      "▁icme": 147,
      "ır": 148,
      "ess": 149,
      "▁organ": 150,
      "form": 151,
      "▁enf": 152,
      "▁yalan": 153,
      "▁fa": 154,
      "ise": 155,
      "▁nobet": 156,
      "um": 157,
      "▁redd": 158,
      "▁depr": 159,
      "▁tane": 160,
      "rlikte": 161,
      "▁oglan": 162,
      "▁renkli": 163,
      "ey": 164,
      "▁gercek": 165,
      "▁=": 166,
      "▁muhareb": 167,
      "dikten": 168,
      "▁bilgis": 169,
      "▁aydınlık": 170,
      "urt": 171,
      "▁sebeb": 172,
      "▁sahibinin": 173,
      "ısız": 174,
      "▁iyiye": 175,
      "▁aracları": 176,
      "una": 177,
      "▁hayata": 178,
      "alari": 179,
      "oz": 180,
      "▁numar": 181,
      "▁avukat": 182,
      "gin": 183,
      "▁ba": 184,
      "▁kor": 185,
      "eticisi": 186,
      "ımla": 187,
      "uma": 188,
      "▁sh": 189,
      "ih": 190,
      "▁gurult": 191,
      ".5": 192,
      "▁kuram": 193,
      "▁arb": 194,
      "▁kr": 195,
      "▁baglantı": 196,
      "ikat": 197,
      "▁first": 198,
      "layan": 199,
      "▁muhar": 200,
      "▁tiyatr": 201,
      "▁yoneticiler": 202,
      "▁kendim": 203,
      "erk": 204,
      "▁kazanclar": 205,
      "▁teseb": 206,
      "▁acıga": 207,
      "▁sav": 208,
      "▁yaptıgı": 209,
      "▁sınıfı": 210,
      "▁oldug": 211,
      "'d": 212,
      "▁analizciler": 213,
      "▁koyu": 214,
      "▁tasımacılıgı": 215,
      "▁otobus": 216,
      "▁corb": 217,
      "▁yıllar": 218,
      "tıklarını": 219,
      "▁onemli": 220,
      "▁olduk": 221,
      "dıgından": 222,
      "▁krav": 223,
      "▁durusma": 224,
      "▁iktis": 225,
      "▁firmaları": 226,
      "▁kadınları": 227,
      "▁serisi": 228,
      "▁ev": 229,
      "▁kapıları": 230,
      "▁muhalefet": 231,
      "lemesi": 232,
      "lo": 233,
      "▁uretimi": 234,
      "▁kendisini": 235,
      "▁gizli": 236,
      "▁tah": 237,
      "▁ekmek": 238,
      "▁zirv": 239,
      "▁etti": 240,
      "▁kafası": 241,
      "▁sorunların": 242,
      "▁sakız": 243,
      "▁talep": 244,
      "▁bayram": 245,
      "uslar": 246,
      "▁am": 247,
      "atli": 248,
      "tıgında": 249,
      "▁kesif": 250,
      "ımız": 251,
      "▁satır": 252,
      "▁ozelligi": 253,
      "tigim": 254,
      "▁baslangıc": 255,
      "ene": 256,
      "▁isci": 257,
      "▁lezz": 258,
      "▁kagıdı": 259,
      "▁hatır": 260,
      "alt": 261,
      "▁yurtd": 262,
      "▁dunyanın": 263,
      "▁koyun": 264,
      "cılıgı": 265,
      "meyen": 266,
      "▁sır": 267,
      "▁sorumluluk": 268,
      "▁bul": 269,
      "▁denver'e": 270,
      "▁zem": 271,
      "▁surpr": 272,
      "lanmasını": 273,
      "sın": 274,
      "ına": 275,
      "▁dere": 276,
      "▁kitaplar": 277,
      "▁$'a": 278,
      "▁kasık": 279,
      "eleri": 280,
      "endi": 281,
      "sik": 282,
      "lah": 283,
      "▁sof": 284,
      "▁baslıyor": 285,
      "▁kurk": 286,
      "▁mes": 287,
      "▁kucuk": 288,
      "▁;": 289,
      "▁senedi": 290,
      "▁niyet": 291,
      "artesi": 292,
      "aliforn": 293,
      "▁oncesi": 294,
      "▁yild": 295,
      "▁buz": 296,
      "esinden": 297,
      "▁gercekles": 298,
      "at": 299,
      "ach": 300,
      "▁utanc": 301,
      "▁hırs": 302,
      "▁herh": 303,
      "▁mev": 304,
      "▁yavru": 305,
      "mamıs": 306,
      "en": 307,
      "▁hafif": 308,
      "▁yuzme": 309,
      "memiz": 310,
      "▁yaptirmadim": 311,
      "▁cami": 312,
      "▁kuzey": 313,
      "▁veril": 314,
      "▁del": 315,
      "▁kuzu": 316,
      "▁dayak": 317,
      "▁boston'a": 318,
      "lıkla": 319,
      "ell": 320,
      "▁kilo": 321,
      "▁direktoru": 322,
      "▁listesini": 323,
      "▁eglence": 324,
      "▁muhal": 325,
      "▁tutum": 326,
      "▁hem": 327,
      "▁dagıtım": 328,
      "▁kodu": 329,
      "▁ses": 330,
      "▁nihayet": 331,
      "▁dusunuyor": 332,
      "etre": 333,
      "erken": 334,
      "inizin": 335,
      "▁insanı": 336,
      "▁akr": 337,
      "▁toz": 338,
      "▁anda": 339,
      "▁berab": 340,
      "ıtı": 341,
      "▁yumur": 342,
      "▁pas": 343,
      "ne": 344,
      "▁adam": 345,
      "▁merkezine": 346,
      "madi": 347,
      "▁sırada": 348,
      "▁konfor": 349,
      "cu": 350,
      "▁ihrac": 351,
      "▁ucretlerini": 352,
      "▁arap": 353,
      "ind": 354,
      "▁kıskanc": 355,
      "▁ucretler": 356,
      "▁etrafını": 357,
      "▁ceviri": 358,
      "▁tahsis": 359,
      "▁lok": 360,
      "▁ocagı": 361,
      "▁korun": 362,
      "landır": 363,
      "▁destek": 364,
      "▁olimpiyat": 365,
      "▁agacın": 366,
      "erin": 367,
      "▁zihn": 368,
      "▁ziy": 369,
      "▁birisi": 370,
      "derken": 371,
      "▁sogan": 372,
      "▁basladı": 373,
      "▁10'dan": 374,
      "emey": 375,
      "▁data": 376,
      "ere": 377,
      "▁olayı": 378,
      "▁etki": 379,
      "▁dunyaya": 380,
      "▁cob": 381,
      "▁agzı": 382,
      "ılıs": 383,
      "▁iler": 384,
      "ayan": 385,
      "ask": 386,
      "▁kasabaya": 387,
      "▁bugunun": 388,
      "▁termal": 389,
      "▁oncelik": 390,
      "abilecegini": 391,
      "▁geride": 392,
      "▁muster": 393,
      "likler": 394,
      "▁birimi": 395,
      "lunun": 396,
      "▁unsur": 397,
      "imden": 398,
      "ayım": 399,
      "▁edebilir": 400,
      "▁omr": 401,
      "acılara": 402,
      "▁tem": 403,
      "co": 404,
      "larıma": 405,
      "emmel": 406,
      "▁dam": 407,
      "▁fabrik": 408,
      "▁olmasın": 409,
      "▁sistem": 410,
      "emiyor": 411,
      "'ndan": 412,
      "▁bes": 413,
      "▁yatırımcının": 414,
      "of": 415,
      "▁yum": 416,
      "amak": 417,
      "ligini": 418,
      "▁kapıyı": 419,
      "▁art": 420,
      "▁salonu": 421,
      "▁mevdu": 422,
      "yse": 423,
      "ime": 424,
      "▁ink": 425,
      "dan": 426,
      "onra": 427,
      "▁tarihinde": 428,
      "▁hizmette": 429,
      "ikler": 430,
      "yal": 431,
      "▁agaclar": 432,
      "iniz": 433,
      "▁gel": 434,
      "▁dibinde": 435,
      "▁meb": 436,
      "▁penc": 437,
      "▁kal": 438,
      "erh": 439,
      "▁gorunum": 440,
      "▁yemek": 441,
      "▁bors": 442,
      "irip": 443,
      "▁alakasi": 444,
      "▁ekonomisi": 445,
      "alle": 446,
      "▁munasebet": 447,
      "▁uzman": 448,
      "▁lakin": 449,
      "▁sıfır": 450,
      "▁dokun": 451,
      "ay": 452,
      "▁bicim": 453,
      "▁gecmiste": 454,
      "▁mudur": 455,
      "aset": 456,
      "▁icr": 457,
      "▁fiyatlandır": 458,
      "▁anlasmayı": 459,
      "▁atese": 460,
      "▁kardesinin": 461,
      "emm": 462,
      "▁eseri": 463,
      "▁cekilm": 464,
      "▁bilgisi": 465,
      "dam": 466,
      "▁huk": 467,
      "▁benz": 468,
      "ver": 469,
      "alım": 470,
      "▁degisimi": 471,
      "▁bulama": 472,
      "aklar": 473,
      "▁fikir": 474,
      "▁fasul": 475,
      "▁yurum": 476,
      "uvar": 477,
      "▁nis": 478,
      "▁fazlası": 479,
      "▁ayag": 480,
      "lıların": 481,
      "▁burc": 482,
      "lk": 483,
      "▁otur": 484,
      "▁balik": 485,
      "klerini": 486,
      "▁gerceklesti": 487,
      "lem": 488,
      "▁universite": 489,
      "tif": 490,
      "▁cıkıyor": 491,
      "oru": 492,
      "bil": 493,
      "▁past": 494,
      "dukca": 495,
      "▁kıyas": 496,
      "▁kahram": 497,
      "▁guzel": 498,
      "ısıyla": 499,
      "▁suya": 500,
      "▁metal": 501,
      "▁mudahale": 502,
      "▁banyosu": 503,
      "det": 504,
      "daki": 505,
      "▁ilgi": 506,
      "ı": 507,
      "lemek": 508,
      "uyordu": 509,
      "memek": 510,
      "▁hacmi": 511,
      "▁yas": 512,
      "▁beni": 513,
      "▁enerj": 514,
      "▁okula": 515,
      "ncu": 516,
      "▁siyaset": 517,
      "▁yedi": 518,
      "agı": 519,
      "▁uygul": 520,
      "ez": 521,
      "▁ulkemiz": 522,
      "leye": 523,
      "▁tac": 524,
      "▁biber": 525,
      "▁ressam": 526,
      "▁say": 527,
      "▁hastan": 528,
      "▁alay": 529,
      "▁analiz": 530,
      "▁vaat": 531,
      "▁kadar": 532,
      "▁dagın": 533,
      "▁geregi": 534,
      "▁bufe": 535,
      "▁dolas": 536,
      "▁istedi": 537,
      "▁1\\/": 538,
      "ili": 539,
      "▁gorur": 540,
      "muz": 541,
      "odu": 542,
      "ond": 543,
      "▁izin": 544,
      "▁tahk": 545,
      "▁seyden": 546,
      "▁kahvalt": 547,
      "▁onların": 548,
      "▁hesabı": 549,
      "alamak": 550,
      "▁babam": 551,
      "iz": 552,
      "▁cadır": 553,
      "arın": 554,
      "▁karsilama": 555,
      "▁andan": 556,
      "▁sa": 557,
      "▁ken": 558,
      "▁a": 559,
      "ide": 560,
      "▁senaryo": 561,
      "unun": 562,
      "▁&": 563,
      "▁goz": 564,
      "▁must": 565,
      "▁imz": 566,
      "▁bazi": 567,
      "▁kayık": 568,
      "▁odası": 569,
      "▁sabah": 570,
      "ation": 571,
      "▁evini": 572,
      "▁damar": 573,
      "iligini": 574,
      "▁kazancları": 575,
      "▁calisanlarin": 576,
      "nci": 577,
      "▁etmeyi": 578,
      "▁operasyon": 579,
      "▁bitki": 580,
      "▁temettu": 581,
      "baz": 582,
      "▁cık": 583,
      "▁gom": 584,
      "iyla": 585,
      "▁cogunlugu": 586,
      "▁yasına": 587,
      "tan": 588,
      "▁bus": 589,
      "▁karsiligini": 590,
      "▁q": 591,
      "▁varmak": 592,
      "uyorlardı": 593,
      "▁def": 594,
      "▁sultan": 595,
      "igim": 596,
      "lenin": 597,
      "ırım": 598,
      "▁gozlerle": 599,
      "▁tahv": 600,
      "▁yorgunluk": 601,
      "▁bolumu": 602,
      "▁fiyatlarını": 603,
      "▁gununun": 604,
      "▁tanım": 605,
      "▁savunma": 606,
      "melere": 607,
      "▁video": 608,
      "▁ucusu": 609,
      "▁oranda": 610,
      "▁vermis": 611,
      "▁olan": 612,
      "ecekler": 613,
      "▁sular": 614,
      "irleri": 615,
      "▁kiralama": 616,
      "▁?": 617,
      "▁sıkıntı": 618,
      "ilendir": 619,
      "▁asırı": 620,
      "lamadı": 621,
      "▁fiyatlarının": 622,
      "▁milliyet": 623,
      "▁sekl": 624,
      "▁bogaz": 625,
      "▁dusmanı": 626,
      "▁odalari": 627,
      "▁evlat": 628,
      "▁18": 629,
      "▁komisyonları": 630,
      "▁once": 631,
      "▁soyledi": 632,
      "gisi": 633,
      "▁samim": 634,
      "▁cif": 635,
      "▁entar": 636,
      "▁kazandı": 637,
      "▁ten": 638,
      "ersiz": 639,
      "eli": 640,
      "▁birtak": 641,
      "▁yasa": 642,
      "▁surec": 643,
      "ter": 644,
      "▁baslamak": 645,
      "▁oakland'a": 646,
      "▁17": 647,
      "rken": 648,
      "▁kalkıp": 649,
      "▁31": 650,
      "▁kil": 651,
      "▁piyasasında": 652,
      "▁olsun": 653,
      "▁olaydan": 654,
      "▁12": 655,
      "▁ren": 656,
      "▁hanimdi": 657,
      "▁limuzin": 658,
      "abını": 659,
      "ilim": 660,
      "00": 661,
      "▁satıs": 662,
      "liginden": 663,
      "▁bolumunu": 664,
      "▁kısı": 665,
      "▁kardesi": 666,
      "acagını": 667,
      "▁bin": 668,
      "▁zaman": 669,
      "▁dov": 670,
      "▁city": 671,
      "▁lam": 672,
      "▁gezi": 673,
      "▁doldur": 674,
      "▁maliyet": 675,
      "▁ikisi": 676,
      "altı": 677,
      "▁pisir": 678,
      "▁sevk": 679,
      "fet": 680,
      "▁sor": 681,
      "▁dusundu": 682,
      "▁sayg": 683,
      "▁esyalar": 684,
      "▁vol": 685,
      "▁alabilir": 686,
      "ılım": 687,
      "▁har": 688,
      "▁tır": 689,
      "▁rezervasyonu": 690,
      "▁otomobiller": 691,
      "▁lob": 692,
      "▁cift": 693,
      "tek": 694,
      "▁gelenek": 695,
      "▁futbol": 696,
      "▁ayagını": 697,
      "0": 698,
      "▁kesin": 699,
      "▁baz": 700,
      "▁ip": 701,
      "▁turlar": 702,
      "▁dar": 703,
      "▁yarar": 704,
      "ekt": 705,
      "▁uc": 706,
      "alet": 707,
      "▁sar": 708,
      "▁kadın": 709,
      "tih": 710,
      "▁kalkan": 711,
      "▁ticari": 712,
      "pa": 713,
      "▁h": 714,
      "▁iyi": 715,
      "isinda": 716,
      "imen": 717,
      "ayı": 718,
      "▁ici": 719,
      "emez": 720,
      "▁neh": 721,
      "att": 722,
      "▁tanesi": 723,
      "▁kans": 724,
      "▁dayan": 725,
      "▁inter": 726,
      "ye": 727,
      "▁saglık": 728,
      "▁mesaj": 729,
      "dırım": 730,
      "ade": 731,
      "8": 732,
      "▁mucev": 733,
      "▁esim": 734,
      "▁ingil": 735,
      "'y": 736,
      "ıklar": 737,
      "▁direktor": 738,
      "▁emir": 739,
      "▁a.": 740,
      "yen": 741,
      "▁ceket": 742,
      "'ne": 743,
      "▁kov": 744,
      "▁hizmet": 745,
      "▁kapıya": 746,
      "▁199": 747,
      "▁final": 748,
      "▁t": 749,
      "▁ortam": 750,
      "▁onemi": 751,
      "2": 752,
      "▁havuzlar": 753,
      "”": 754,
      "tıgını": 755,
      "say": 756,
      "▁program": 757,
      "mem": 758,
      "▁uyar": 759,
      "▁taz": 760,
      "▁yansıt": 761,
      "sinin": 762,
      "dası": 763,
      "▁ediliyor": 764,
      "▁cer": 765,
      "▁sayıda": 766,
      "▁sadakat": 767,
      "ogram": 768,
      "▁puanlama": 769,
      "▁piyasanın": 770,
      "cisi": 771,
      "▁pesinden": 772,
      "▁dusunuyorum": 773,
      "▁yonde": 774,
      "▁kuyruk": 775,
      "▁icecekleri": 776,
      "▁yoluna": 777,
      "▁umit": 778,
      "amayacagını": 779,
      "▁rutubet": 780,
      "denin": 781,
      "▁acent": 782,
      "▁dok": 783,
      "ydı": 784,
      "▁malı": 785,
      "▁kahval": 786,
      "▁coc": 787,
      "fi": 788,
      "iri": 789,
      "▁olmasa": 790,
      "▁yukum": 791,
      "▁deri": 792,
      "▁esi": 793,
      "▁civ": 794,
      "▁babama": 795,
      "▁rehberlik": 796,
      "▁newark": 797,
      "▁to": 798,
      "▁tic": 799,
      "▁muhabbet": 800,
      "▁mavi": 801,
      "▁arbitraj": 802,
      "▁geri": 803,
      "▁yat": 804,
      "▁pilotlar": 805,
      "arında": 806,
      "▁parki": 807,
      "▁il": 808,
      "▁fırsatı": 809,
      "lık": 810,
      "▁bilimin": 811,
      "▁kamyon": 812,
      "▁devleti": 813,
      "unlu": 814,
      "▁yasındaki": 815,
      "▁dunyası": 816,
      "uzları": 817,
      "▁pah": 818,
      "ıyorum": 819,
      "▁sez": 820,
      "▁can": 821,
      "▁oteldi": 822,
      "▁koylu": 823,
      "▁cın": 824,
      "▁bununla": 825,
      "▁kost": 826,
      "dek": 827,
      "▁ellerinde": 828,
      "▁inan": 829,
      "gis": 830,
      "'de": 831,
      "ılıgında": 832,
      "▁ima": 833,
      "▁derece": 834,
      "▁urun": 835,
      "▁tuketiciler": 836,
      "▁hissesini": 837,
      "▁yolu": 838,
      "▁tabur": 839,
      "ayi": 840,
      "▁komite": 841,
      "▁korku": 842,
      "iza": 843,
      "▁indir": 844,
      "acıların": 845,
      "▁nokta": 846,
      "umuzun": 847,
      "▁gidis": 848,
      "ısık": 849,
      "▁sadece": 850,
      "etici": 851,
      "▁ihracları": 852,
      "▁golg": 853,
      "▁cenaz": 854,
      "▁dib": 855,
      "leme": 856,
      "▁editor": 857,
      "▁sun": 858,
      "as": 859,
      "▁1/2": 860,
      "▁raporu": 861,
      "▁benimle": 862,
      "▁fig": 863,
      "▁burası": 864,
      "agın": 865,
      "▁ucusların": 866,
      "▁amc": 867,
      "apark": 868,
      "▁kendisi": 869,
      "▁karabiber": 870,
      "▁gerektigini": 871,
      "▁peki": 872,
      "▁bası": 873,
      "▁veren": 874,
      "▁kapsam": 875,
      "▁tahvili": 876,
      "ento": 877,
      "▁baslar": 878,
      "▁fener": 879,
      "▁chp": 880,
      "▁oakland": 881,
      "▁medeniyet": 882,
      "mak": 883,
      "▁vazif": 884,
      "70'": 885,
      "▁ilisk": 886,
      "▁pat": 887,
      "▁duvarın": 888,
      "▁bogazici": 889,
      "▁meyve": 890,
      "▁vuc": 891,
      "▁kimseyi": 892,
      "▁herif": 893,
      "digimi": 894,
      "▁deg": 895,
      "madım": 896,
      "▁aradi": 897,
      "▁roman": 898,
      "▁islemlerin": 899,
      "▁yaptı": 900,
      "▁topluma": 901,
      "▁meydan": 902,
      "▁isletmeler": 903,
      "▁faktor": 904,
      "▁endise": 905,
      "▁ol": 906,
      "▁devlet": 907,
      "▁mahkemede": 908,
      "▁tesh": 909,
      "▁tav": 910,
      "iyeti": 911,
      "▁yanında": 912,
      "turdu": 913,
      "▁kisiler": 914,
      "▁kavg": 915,
      "▁palt": 916,
      "▁hurr": 917,
      "▁mez": 918,
      "▁uygundu": 919,
      "▁evet": 920,
      ".m": 921,
      "\\": 922,
      "▁telgraf": 923,
      "▁mahkeme": 924,
      "▁zinc": 925,
      "yas": 926,
      "▁ask": 927,
      "▁toplam": 928,
      "aduf": 929,
      "ork": 930,
      "▁sikinti": 931,
      "lasıyor": 932,
      "▁hasta": 933,
      "▁yuzlu": 934,
      "▁dıs": 935,
      "▁delta": 936,
      "ot": 937,
      "▁hay": 938,
      "▁sepet": 939,
      "cısı": 940,
      "▁amac": 941,
      "▁stu": 942,
      "▁sit": 943,
      "▁davran": 944,
      "▁dag": 945,
      "▁norma": 946,
      "▁konusma": 947,
      "▁yemekler": 948,
      "▁at": 949,
      "arası": 950,
      "derek": 951,
      "▁imam": 952,
      "▁kend": 953,
      "▁havuz": 954,
      "kun": 955,
      "imore": 956,
      "par": 957,
      "▁olcu": 958,
      "▁bilinc": 959,
      "▁tahta": 960,
      "▁proje": 961,
      "3'e": 962,
      "▁seyi": 963,
      "yiz": 964,
      "ılıgını": 965,
      "madim": 966,
      "▁dip": 967,
      "▁(": 968,
      "▁orman": 969,
      "▁ediyorum": 970,
      "▁makam": 971,
      "▁seyir": 972,
      "erek": 973,
      "▁sutu": 974,
      "▁sapk": 975,
      "▁reklamlar": 976,
      "▁ote": 977,
      "▁cebinden": 978,
      "op": 979,
      "▁koruma": 980,
      "▁sistemini": 981,
      "▁ceph": 982,
      "▁varlık": 983,
      "▁v": 984,
      "tıgına": 985,
      "masında": 986,
      "▁dokuz": 987,
      "ilmesine": 988,
      "▁makinesi": 989,
      "▁fed": 990,
      "▁kocası": 991,
      "ın": 992,
      "▁ihmal": 993,
      "▁kazanmak": 994,
      "iger": 995,
      "▁sahis": 996,
      "▁yaptir": 997,
      "▁tesaduf": 998,
      "▁dede": 999,
      "fer": 1000,
      "itraj": 1001,
      "▁gecenin": 1002,
      "lasman": 1003,
      "▁kef": 1004,
      "eginden": 1005,
      "▁tep": 1006,
      "▁denver'den": 1007,
      "▁isbirligi": 1008,
      "ari": 1009,
      "▁fiyatını": 1010,
      "▁topluluk": 1011,
      "bası": 1012,
      "▁zamanı": 1013,
      "▁hizmete": 1014,
      "▁taraftar": 1015,
      "▁umur": 1016,
      "ait": 1017,
      "▁sendika": 1018,
      "uguna": 1019,
      "▁iliskisi": 1020,
      "ebilir": 1021,
      "▁yemegi": 1022,
      "▁tamamen": 1023,
      "▁herhal": 1024,
      "▁ayrıntı": 1025,
      ".3": 1026,
      "bin": 1027,
      "▁sebze": 1028,
      "▁herkese": 1029,
      "▁ilgilendiler": 1030,
      "▁nar": 1031,
      "▁yorum": 1032,
      "▁kuc": 1033,
      "esil": 1034,
      "▁pist": 1035,
      "▁icerisinde": 1036,
      "▁ulkede": 1037,
      "oy": 1038,
      "▁panik": 1039,
      "cılar": 1040,
      "ba": 1041,
      "▁kızım": 1042,
      "▁fiyata": 1043,
      "▁birey": 1044,
      "(": 1045,
      "ri": 1046,
      "set": 1047,
      "▁kocaman": 1048,
      "▁yogurt": 1049,
      "▁esv": 1050,
      "iden": 1051,
      "▁okullar": 1052,
      "▁veyahut": 1053,
      "anma": 1054,
      "▁kartı": 1055,
      "▁kadınlara": 1056,
      "yacak": 1057,
      "▁balta": 1058,
      "▁sik": 1059,
      "▁bosa": 1060,
      "▁ucusuna": 1061,
      "▁hedefleri": 1062,
      "▁dow": 1063,
      "▁rıht": 1064,
      "▁isg": 1065,
      "▁cograf": 1066,
      "▁vermeye": 1067,
      "sur": 1068,
      "iski": 1069,
      "▁univers": 1070,
      "▁ruzg": 1071,
      "▁darbe": 1072,
      "▁mevzuat": 1073,
      "▁san": 1074,
      "▁denizde": 1075,
      "▁u": 1076,
      "▁giden": 1077,
      "▁milyondan": 1078,
      "▁havlular": 1079,
      "▁gelmis": 1080,
      "▁avuk": 1081,
      "▁sozcu": 1082,
      "▁hol": 1083,
      "gam": 1084,
      "▁dikkat": 1085,
      "▁iste": 1086,
      "▁teskil": 1087,
      "▁kurek": 1088,
      "malar": 1089,
      "▁eb": 1090,
      "stu": 1091,
      "tlu": 1092,
      "▁gene": 1093,
      "urk": 1094,
      "▁milyardan": 1095,
      "▁sure": 1096,
      "▁cıkar": 1097,
      "'in": 1098,
      "▁gon": 1099,
      "▁isaret": 1100,
      "istler": 1101,
      "▁duyar": 1102,
      "ukee": 1103,
      "▁45": 1104,
      "bat": 1105,
      "▁40": 1106,
      "▁kahvalti": 1107,
      "meye": 1108,
      "▁huzun": 1109,
      "▁ıs": 1110,
      "▁personelin": 1111,
      "▁seyr": 1112,
      "isinin": 1113,
      "bus": 1114,
      "▁koy": 1115,
      "▁amacı": 1116,
      "dir": 1117,
      "▁alısver": 1118,
      "▁intik": 1119,
      "▁gunun": 1120,
      "▁ortal": 1121,
      "▁hadis": 1122,
      "▁ciddi": 1123,
      "▁kurumlar": 1124,
      "bas": 1125,
      "▁pabuc": 1126,
      "oj": 1127,
      "▁insanları": 1128,
      "liligini": 1129,
      "siyon": 1130,
      "▁sokaklarda": 1131,
      "▁hicbir": 1132,
      "▁gid": 1133,
      "ow": 1134,
      "ilmek": 1135,
      "labilir": 1136,
      "▁acente": 1137,
      "▁gey": 1138,
      "▁koyde": 1139,
      "ugunu": 1140,
      "▁zamandan": 1141,
      "geleri": 1142,
      "▁yaklasık": 1143,
      "▁gozune": 1144,
      "▁yaln": 1145,
      "▁ayni": 1146,
      "▁gorevi": 1147,
      "▁getirmek": 1148,
      "▁mi": 1149,
      "▁dil": 1150,
      "dikleri": 1151,
      "▁ist": 1152,
      "▁ker": 1153,
      "▁programı": 1154,
      "▁ayakkabı": 1155,
      "▁kud": 1156,
      "▁kus": 1157,
      "▁sorular": 1158,
      "▁resim": 1159,
      "▁yalı": 1160,
      "▁kem": 1161,
      "tir": 1162,
      "▁amerikan": 1163,
      "▁be": 1164,
      "larımı": 1165,
      "enuz": 1166,
      "▁olacagını": 1167,
      "▁aylarda": 1168,
      "▁acisindan": 1169,
      "▁dumanı": 1170,
      "▁dolar": 1171,
      "▁enstit": 1172,
      "▁tası": 1173,
      "▁korumak": 1174,
      "▁teyz": 1175,
      "▁durdu": 1176,
      "ake": 1177,
      "▁surede": 1178,
      "▁birer": 1179,
      "▁cocuklu": 1180,
      "▁sevg": 1181,
      "▁hikaye": 1182,
      "enc": 1183,
      "▁tucc": 1184,
      "▁kayıp": 1185,
      "▁kadınların": 1186,
      "▁telefonla": 1187,
      "▁sef": 1188,
      "acık": 1189,
      "▁dısarı": 1190,
      "▁pad": 1191,
      "▁bolgenin": 1192,
      "▁agır": 1193,
      "▁indianapolis": 1194,
      "tın": 1195,
      "eda": 1196,
      "lastır": 1197,
      "ıntı": 1198,
      "▁sanatcılar": 1199,
      "▁eylul": 1200,
      "▁beyin": 1201,
      "umuzu": 1202,
      "▁calısan": 1203,
      "▁ekledi": 1204,
      "indeydi": 1205,
      "▁peynir": 1206,
      "likle": 1207,
      "▁cek": 1208,
      "agına": 1209,
      "uktu": 1210,
      "luguna": 1211,
      "eger": 1212,
      "▁1/": 1213,
      "▁boncuk": 1214,
      "▁et": 1215,
      "▁cikol": 1216,
      "culuk": 1217,
      "▁roportaj": 1218,
      "ucu": 1219,
      "▁calgı": 1220,
      "lanması": 1221,
      "▁kedi": 1222,
      "▁muslum": 1223,
      "▁otob": 1224,
      "sali": 1225,
      "▁sir": 1226,
      "▁yetkisi": 1227,
      "▁karsın": 1228,
      "▁isleri": 1229,
      "▁sent": 1230,
      "▁hic": 1231,
      "▁projesi": 1232,
      "▁yem": 1233,
      "▁guv": 1234,
      "▁icten": 1235,
      "lerimize": 1236,
      "cuk": 1237,
      "▁--": 1238,
      "▁siddet": 1239,
      "▁artır": 1240,
      "her": 1241,
      "ınır": 1242,
      "▁makin": 1243,
      "▁sekreteri": 1244,
      "kiler": 1245,
      "▁ayı": 1246,
      "▁yatak": 1247,
      "▁cuk": 1248,
      "▁bun": 1249,
      "▁hac": 1250,
      "madı": 1251,
      "▁haval": 1252,
      "isindan": 1253,
      "▁karsiladi": 1254,
      "▁mikr": 1255,
      "ılan": 1256,
      "dil": 1257,
      "▁den": 1258,
      "▁hakim": 1259,
      "▁telefon": 1260,
      "gec": 1261,
      "▁saglam": 1262,
      "▁yolcul": 1263,
      "▁umut": 1264,
      "▁duzel": 1265,
      "▁atılım": 1266,
      "▁tadını": 1267,
      "▁cant": 1268,
      "▁borcun": 1269,
      "▁kib": 1270,
      "▁tab": 1271,
      "▁”": 1272,
      "▁hukuk": 1273,
      "▁kad": 1274,
      "▁fatura": 1275,
      "atları": 1276,
      "ıg": 1277,
      "▁saygı": 1278,
      "▁deli": 1279,
      "▁urunleri": 1280,
      "▁orta": 1281,
      "▁bina": 1282,
      "▁hız": 1283,
      "ima": 1284,
      "▁dern": 1285,
      "▁tazmin": 1286,
      "▁gunlerini": 1287,
      "ese": 1288,
      "▁haber": 1289,
      "▁hani": 1290,
      "▁jo": 1291,
      "▁fi": 1292,
      "yet": 1293,
      "▁veya": 1294,
      "▁sacları": 1295,
      "▁bilimi": 1296,
      "▁saga": 1297,
      "▁banka": 1298,
      "tem": 1299,
      "▁ye": 1300,
      "▁hosuma": 1301,
      "▁anal": 1302,
      "▁karar": 1303,
      "elerin": 1304,
      "uf": 1305,
      "izin": 1306,
      "lerini": 1307,
      "▁kap": 1308,
      "▁tr": 1309,
      "ıklarını": 1310,
      "ecegim": 1311,
      ".8": 1312,
      "el": 1313,
      "unde": 1314,
      "▁sınır": 1315,
      "▁hastal": 1316,
      "yo": 1317,
      "▁imaj": 1318,
      "▁orada": 1319,
      "desi": 1320,
      "▁misin": 1321,
      "c": 1322,
      "ekli": 1323,
      "▁olanaklari": 1324,
      "duk": 1325,
      "suzluk": 1326,
      "▁kaldı": 1327,
      "▁gune": 1328,
      "cul": 1329,
      "arılı": 1330,
      "▁baban": 1331,
      "attı": 1332,
      "▁tramv": 1333,
      "tiv": 1334,
      "▁yerler": 1335,
      "▁gozleri": 1336,
      "▁adeta": 1337,
      "▁acıklama": 1338,
      "▁kimsenin": 1339,
      "▁altından": 1340,
      "▁iskel": 1341,
      "▁bek": 1342,
      "gın": 1343,
      "▁istiklal": 1344,
      "▁sosyal": 1345,
      "▁min": 1346,
      "▁senetlerinin": 1347,
      "▁tanıs": 1348,
      "▁bosluk": 1349,
      "▁lik": 1350,
      "▁hisseye": 1351,
      "▁onc": 1352,
      "▁bacak": 1353,
      "ij": 1354,
      "▁bili": 1355,
      "▁tesisten": 1356,
      "gınlık": 1357,
      "▁otuz": 1358,
      "▁ceyrekte": 1359,
      "▁yud": 1360,
      "▁bilgilendirilmek": 1361,
      "▁inis": 1362,
      "atlı": 1363,
      "ern": 1364,
      "ga": 1365,
      "▁gozle": 1366,
      "▁gunes": 1367,
      "▁iptal": 1368,
      "ud": 1369,
      "lamam": 1370,
      "▁bahar": 1371,
      "tusu": 1372,
      "ıslı": 1373,
      "bol": 1374,
      "▁cumle": 1375,
      "▁listeleyin": 1376,
      "▁cic": 1377,
      "▁dort": 1378,
      "▁…": 1379,
      "▁odada": 1380,
      "ali": 1381,
      "agon": 1382,
      "erindeki": 1383,
      "▁tuh": 1384,
      "▁petrol": 1385,
      "▁ne": 1386,
      "▁kitab": 1387,
      "▁masal": 1388,
      "▁tamir": 1389,
      "tıgı": 1390,
      "▁apartman": 1391,
      "luyor": 1392,
      "angi": 1393,
      "▁ediyor": 1394,
      "▁fonu": 1395,
      "▁japon": 1396,
      "▁koye": 1397,
      "▁um": 1398,
      "▁komsu": 1399,
      "▁animasyon": 1400,
      "▁kisiye": 1401,
      "nak": 1402,
      "▁kaybetti": 1403,
      "ustuk": 1404,
      "▁hukumeti": 1405,
      "ısından": 1406,
      "▁avrupa": 1407,
      "▁om": 1408,
      "▁nuf": 1409,
      "▁cam": 1410,
      "▁piyas": 1411,
      "▁uste": 1412,
      "▁dey": 1413,
      "▁toprak": 1414,
      "▁rezerv": 1415,
      "▁olup": 1416,
      "arak": 1417,
      "▁bahcı": 1418,
      "▁set": 1419,
      "aki": 1420,
      "▁duy": 1421,
      "▁lar": 1422,
      "▁strate": 1423,
      "▁hayatın": 1424,
      "▁yapılandır": 1425,
      "is": 1426,
      "anet": 1427,
      "6": 1428,
      "▁baslamıstı": 1429,
      "▁un": 1430,
      "▁adamın": 1431,
      "▁...": 1432,
      "▁bahce": 1433,
      "▁fabr": 1434,
      "ladıgı": 1435,
      "▁munaseb": 1436,
      "keti": 1437,
      "▁fran": 1438,
      "▁tuhaf": 1439,
      "▁duygularını": 1440,
      "▁malz": 1441,
      "▁haric": 1442,
      "▁hus": 1443,
      "▁ucte": 1444,
      "▁gorevlisi": 1445,
      "▁oyunlar": 1446,
      "ıgından": 1447,
      "▁zevk": 1448,
      "▁matematik": 1449,
      "ası": 1450,
      "▁sanatcı": 1451,
      "otte": 1452,
      "▁kuz": 1453,
      "▁askerler": 1454,
      "▁saglamak": 1455,
      "anan": 1456,
      "▁depremden": 1457,
      "▁pir": 1458,
      "▁surat": 1459,
      "▁ogrenc": 1460,
      "▁tasarısı": 1461,
      "▁saati": 1462,
      "sanız": 1463,
      "▁pittsburgh'tan": 1464,
      "▁durum": 1465,
      "endir": 1466,
      "0.": 1467,
      "▁sokaga": 1468,
      "eligini": 1469,
      "▁kenarına": 1470,
      "▁bel": 1471,
      "▁yeter": 1472,
      "▁ogret": 1473,
      "▁yuze": 1474,
      "▁ode": 1475,
      "▁birlesme": 1476,
      "‘": 1477,
      "▁yılında": 1478,
      "▁borsası'nda": 1479,
      "▁varlıklar": 1480,
      "mos": 1481,
      "▁ankete": 1482,
      "▁kenara": 1483,
      "▁indian": 1484,
      "▁siyas": 1485,
      "▁trafik": 1486,
      "▁res": 1487,
      "ukca": 1488,
      "▁iliskin": 1489,
      "▁duydu": 1490,
      "tikce": 1491,
      "erik": 1492,
      "▁`": 1493,
      "ıs": 1494,
      "'un": 1495,
      "cag": 1496,
      "ur": 1497,
      "▁doktorun": 1498,
      "▁sirketler": 1499,
      "▁sonucları": 1500,
      "▁aldıgını": 1501,
      "leniyor": 1502,
      "▁isini": 1503,
      "ceyr": 1504,
      "▁terbiye": 1505,
      "▁mufet": 1506,
      "▁mekana": 1507,
      "asyon": 1508,
      "▁selam": 1509,
      "lul": 1510,
      "▁olma": 1511,
      "▁lut": 1512,
      "lıdır": 1513,
      "▁baltimore'ye": 1514,
      "lıc": 1515,
      "▁ayd": 1516,
      "ımı": 1517,
      "sis": 1518,
      "yı": 1519,
      "▁gerdan": 1520,
      "▁mel": 1521,
      "▁mahk": 1522,
      "▁icimi": 1523,
      "▁degerinde": 1524,
      "▁yun": 1525,
      "ize": 1526,
      "▁sok": 1527,
      "▁mode": 1528,
      "uza": 1529,
      "▁sorusturma": 1530,
      "▁oglunun": 1531,
      "▁dunyada": 1532,
      "▁asagıda": 1533,
      "▁kriz": 1534,
      "ıydı": 1535,
      "▁yeteri": 1536,
      "▁basbak": 1537,
      "▁hizmetten": 1538,
      "anının": 1539,
      "▁yemeklerini": 1540,
      "▁koru": 1541,
      "▁vadesi": 1542,
      "▁cim": 1543,
      "▁kumas": 1544,
      "gıcı": 1545,
      "▁teslim": 1546,
      "▁domates": 1547,
      "▁uygulama": 1548,
      "▁raf": 1549,
      "▁cumhur": 1550,
      "medik": 1551,
      "ayla": 1552,
      "▁saman": 1553,
      "▁cumhuriyetci": 1554,
      "▁benim": 1555,
      "ligin": 1556,
      "▁tur": 1557,
      "▁his": 1558,
      "▁asans": 1559,
      "▁genellikle": 1560,
      "▁ailesi": 1561,
      "gıt": 1562,
      "▁anlamı": 1563,
      "▁pop": 1564,
      "▁bos": 1565,
      "▁hat": 1566,
      "▁gunde": 1567,
      "▁eskiydi": 1568,
      "▁konusmaya": 1569,
      "▁musterileri": 1570,
      "▁portfoy": 1571,
      "eri": 1572,
      "▁havlu": 1573,
      "▁teb": 1574,
      "▁gulery": 1575,
      "▁corba": 1576,
      "▁mukemmel": 1577,
      "▁havuzu": 1578,
      "▁sınav": 1579,
      "▁cayır": 1580,
      "▁avantaj": 1581,
      "layarak": 1582,
      "▁varlıgını": 1583,
      "hur": 1584,
      "▁sirket": 1585,
      "▁ederek": 1586,
      "▁insanların": 1587,
      "▁ad": 1588,
      "▁temizligi": 1589,
      "▁sog": 1590,
      "▁org": 1591,
      "itler": 1592,
      "▁bilgilerini": 1593,
      "▁mum": 1594,
      "▁pencerenin": 1595,
      "▁atlanta'ya": 1596,
      "▁koseye": 1597,
      "▁acik": 1598,
      "aklık": 1599,
      "ıstır": 1600,
      "▁kims": 1601,
      "▁ozellikle": 1602,
      "▁ilg": 1603,
      "dugu": 1604,
      "▁donemi": 1605,
      "▁memnunum": 1606,
      "ecekti": 1607,
      ".ceyr": 1608,
      "▁kalitesi": 1609,
      "gor": 1610,
      "▁banyo": 1611,
      "▁sonr": 1612,
      "ol": 1613,
      "▁sureci": 1614,
      "▁yasıyor": 1615,
      "▁soyledik": 1616,
      "met": 1617,
      "▁mir": 1618,
      "mazlık": 1619,
      "▁iy": 1620,
      "lılıg": 1621,
      "▁bilin": 1622,
      "▁oteden": 1623,
      "▁cizgi": 1624,
      "▁pac": 1625,
      "▁baskent": 1626,
      "anından": 1627,
      "▁rakamları": 1628,
      "▁birinde": 1629,
      "▁sehri": 1630,
      "▁gozlerimi": 1631,
      "▁calısıyor": 1632,
      "▁sonraki": 1633,
      "▁ai": 1634,
      "▁paylas": 1635,
      "ıcının": 1636,
      "▁gorusu": 1637,
      "▁yapması": 1638,
      "▁tal": 1639,
      "▁corap": 1640,
      "▁yemegin": 1641,
      "▁teror": 1642,
      "▁patlıcan": 1643,
      "▁yarad": 1644,
      "▁hattı": 1645,
      "▁ilgisizdi": 1646,
      "▁kapısında": 1647,
      "▁bakkal": 1648,
      "▁hazir": 1649,
      "▁temp": 1650,
      "rada": 1651,
      "▁sı": 1652,
      "▁kampanyalardan": 1653,
      "yon": 1654,
      "▁tesir": 1655,
      "ekti": 1656,
      "▁tutma": 1657,
      "av": 1658,
      "▁olus": 1659,
      "▁7'den": 1660,
      "▁kenar": 1661,
      "ad": 1662,
      "aya": 1663,
      "▁parm": 1664,
      "larından": 1665,
      "▁geleni": 1666,
      "▁haberler": 1667,
      "var": 1668,
      "▁sif": 1669,
      "▁maas": 1670,
      "▁etrafı": 1671,
      "▁olum": 1672,
      "▁kapanıs": 1673,
      "uy": 1674,
      "▁miktar": 1675,
      "bab": 1676,
      "▁cevre": 1677,
      "▁cadde": 1678,
      "▁bulgur": 1679,
      "vil": 1680,
      "▁varil": 1681,
      "▁planı": 1682,
      "▁odun": 1683,
      "▁yeten": 1684,
      "▁portf": 1685,
      "▁1.": 1686,
      "▁25": 1687,
      "▁kupon": 1688,
      "▁abon": 1689,
      "ati": 1690,
      "▁cercevesinde": 1691,
      "▁kaldırım": 1692,
      "san": 1693,
      "izlik": 1694,
      "asi": 1695,
      "▁oak": 1696,
      "mur": 1697,
      "▁yelpaz": 1698,
      "▁6'dan": 1699,
      "▁ogretmen": 1700,
      "aga": 1701,
      "▁buyuk": 1702,
      "▁karlar": 1703,
      "▁ula": 1704,
      "ota": 1705,
      "▁kim": 1706,
      "▁temiz": 1707,
      "▁esy": 1708,
      "▁oda": 1709,
      "▁sen": 1710,
      "▁uzeri": 1711,
      "asından": 1712,
      "▁yakin": 1713,
      "▁philadelphia": 1714,
      "▁mahkemesi": 1715,
      "▁karab": 1716,
      "▁yanından": 1717,
      "▁yonu": 1718,
      "ımızda": 1719,
      "▁basvuru": 1720,
      "it": 1721,
      "▁fikr": 1722,
      "▁arm": 1723,
      "▁sekilde": 1724,
      "ebilmek": 1725,
      "▁etkisi": 1726,
      "▁havayı": 1727,
      "on": 1728,
      "ılması": 1729,
      "▁yayın": 1730,
      "▁orgut": 1731,
      "▁ortada": 1732,
      "▁yurt": 1733,
      "▁kulag": 1734,
      "▁gelistirme": 1735,
      "iyle": 1736,
      "▁orn": 1737,
      "▁akrab": 1738,
      "▁fil": 1739,
      "lendir": 1740,
      "▁temin": 1741,
      "▁mater": 1742,
      "▁kusk": 1743,
      "▁uzere": 1744,
      "▁yana": 1745,
      "masız": 1746,
      "anlar": 1747,
      "obil": 1748,
      "▁1989": 1749,
      "dıgını": 1750,
      "tin": 1751,
      "rne": 1752,
      "iyetine": 1753,
      "▁kanaat": 1754,
      "▁dizgin": 1755,
      "▁100": 1756,
      "▁nes": 1757,
      "▁tadima": 1758,
      "inn": 1759,
      "▁baskı": 1760,
      "▁tercih": 1761,
      "▁katk": 1762,
      "▁cagr": 1763,
      "▁vb": 1764,
      "▁tespit": 1765,
      "▁odasında": 1766,
      "▁yoluyla": 1767,
      "ligi": 1768,
      "▁diye": 1769,
      "▁35": 1770,
      "▁onunden": 1771,
      "▁ettik": 1772,
      "▁1": 1773,
      "▁yakın": 1774,
      "▁dakik": 1775,
      "▁yahut": 1776,
      "▁yuzunde": 1777,
      "▁kadını": 1778,
      "▁camur": 1779,
      "▁varsa": 1780,
      "▁alternatif": 1781,
      "lilig": 1782,
      "usun": 1783,
      "▁dostu": 1784,
      "▁gelisim": 1785,
      "▁vardi": 1786,
      "h": 1787,
      "ber": 1788,
      "5": 1789,
      "▁yuzden": 1790,
      "▁pl": 1791,
      "▁sayfa": 1792,
      "▁id": 1793,
      "▁yabancı": 1794,
      "▁bulur": 1795,
      "din": 1796,
      "▁adamları": 1797,
      "▁dibine": 1798,
      "▁puan": 1799,
      "▁kotu": 1800,
      "▁kork": 1801,
      "▁oylama": 1802,
      "5'": 1803,
      "ine": 1804,
      "▁seferinde": 1805,
      "▁sirkette": 1806,
      "etsiz": 1807,
      "▁yanı": 1808,
      "▁ap": 1809,
      "▁tev": 1810,
      "▁send": 1811,
      "lanma": 1812,
      "▁stat": 1813,
      "▁ney": 1814,
      "▁yetki": 1815,
      "▁cıkardı": 1816,
      "erans": 1817,
      "▁sonuna": 1818,
      "▁kemal": 1819,
      "▁civarı": 1820,
      "▁icini": 1821,
      "▁pap": 1822,
      "▁kun": 1823,
      "▁beyler": 1824,
      "▁tacirler": 1825,
      "▁dak": 1826,
      "nuz": 1827,
      "▁urunu": 1828,
      "cılıgın": 1829,
      "▁ankar": 1830,
      "ecilik": 1831,
      "▁konu": 1832,
      "zet": 1833,
      "▁sartları": 1834,
      "▁iskem": 1835,
      "▁yası": 1836,
      "▁yonuyle": 1837,
      "▁askı": 1838,
      "gu": 1839,
      "▁business": 1840,
      "lıgıyla": 1841,
      "▁iyice": 1842,
      "ington": 1843,
      "▁mens": 1844,
      "▁tehd": 1845,
      "▁sirk": 1846,
      "▁vs": 1847,
      "▁unut": 1848,
      "or": 1849,
      "lemis": 1850,
      "▁10": 1851,
      "▁halen": 1852,
      "ta": 1853,
      "▁iliskileri": 1854,
      "▁yolun": 1855,
      "islari": 1856,
      "lerim": 1857,
      "▁birinin": 1858,
      "▁onde": 1859,
      "▁baska": 1860,
      "ilik": 1861,
      "▁haziran": 1862,
      "▁hasret": 1863,
      "lugunda": 1864,
      "▁yatır": 1865,
      "▁elem": 1866,
      "ian": 1867,
      "maz": 1868,
      "▁bi": 1869,
      "sim": 1870,
      "▁amerikalılar": 1871,
      "siy": 1872,
      "digine": 1873,
      "▁hep": 1874,
      "▁sel": 1875,
      "ed": 1876,
      "▁muz": 1877,
      "▁asker": 1878,
      "osu": 1879,
      "▁aydın": 1880,
      "▁mantık": 1881,
      "▁hav": 1882,
      "▁hareketler": 1883,
      "muyordu": 1884,
      "▁ve": 1885,
      "▁altın": 1886,
      "▁polis": 1887,
      "▁olaylar": 1888,
      "▁cesaret": 1889,
      "▁kotuydu": 1890,
      "▁eglen": 1891,
      "▁hizmetleri": 1892,
      "▁hemen": 1893,
      "▁odak": 1894,
      "▁vade": 1895,
      "▁yon": 1896,
      "▁hey": 1897,
      "▁sal": 1898,
      "▁sahiptir": 1899,
      "▁muhab": 1900,
      "▁teknoloji": 1901,
      "▁ver": 1902,
      "▁olmayan": 1903,
      "▁bankası": 1904,
      "lenir": 1905,
      "▁mukemmeldi": 1906,
      "▁ilgilenmedi": 1907,
      "▁icer": 1908,
      "▁yollar": 1909,
      "isten": 1910,
      "tat": 1911,
      "▁malzemeleri": 1912,
      "imiz": 1913,
      "'e": 1914,
      "▁kaptan": 1915,
      "▁co": 1916,
      "onik": 1917,
      "▁skandal": 1918,
      "▁saka": 1919,
      "▁dest": 1920,
      "▁elleri": 1921,
      "▁ch": 1922,
      "▁calisanlardan": 1923,
      "▁yonetmen": 1924,
      "aman": 1925,
      "▁yaklasımı": 1926,
      "▁odadan": 1927,
      "▁dedi": 1928,
      "lanan": 1929,
      "▁sabahı": 1930,
      "▁sp": 1931,
      "▁planlıyor": 1932,
      "▁fan": 1933,
      "ıla": 1934,
      "▁konusu": 1935,
      "dadır": 1936,
      "▁olc": 1937,
      "▁ortalık": 1938,
      "os": 1939,
      "▁eger": 1940,
      "▁olmasına": 1941,
      "▁fab": 1942,
      "▁netic": 1943,
      "▁temsilcisi": 1944,
      "▁kredi": 1945,
      "▁cin": 1946,
      "▁kural": 1947,
      "makta": 1948,
      "▁harek": 1949,
      "▁bolg": 1950,
      "tu": 1951,
      "ce": 1952,
      "▁yaz": 1953,
      "▁havaalanı": 1954,
      "▁bagı": 1955,
      "'i": 1956,
      "▁city'den": 1957,
      "▁on": 1958,
      "▁isinden": 1959,
      "▁mamafi": 1960,
      "lan": 1961,
      "▁hedef": 1962,
      "use": 1963,
      "▁dayanıs": 1964,
      "▁sask": 1965,
      "atur": 1966,
      "▁etmiyor": 1967,
      "▁oyuncak": 1968,
      "▁pasif": 1969,
      "▁kentin": 1970,
      "▁degildi": 1971,
      "ormal": 1972,
      "▁temer": 1973,
      "▁ipotek": 1974,
      "▁konser": 1975,
      "ice": 1976,
      "▁sozles": 1977,
      "▁aktivite": 1978,
      "bul": 1979,
      "▁ortasında": 1980,
      "▁alana": 1981,
      "▁``": 1982,
      "▁sesler": 1983,
      "uyu": 1984,
      "ınt": 1985,
      "▁sasır": 1986,
      "▁reklam": 1987,
      "▁tecru": 1988,
      "phis": 1989,
      "▁dısına": 1990,
      "▁kulak": 1991,
      "▁yetkili": 1992,
      "▁olmadi": 1993,
      "▁ilgiliydi": 1994,
      "hu": 1995,
      "▁olabil": 1996,
      "▁oy": 1997,
      "▁cocukların": 1998,
      "▁secim": 1999,
      "▁oyunun": 2000,
      "▁beraber": 2001,
      "▁gunler": 2002,
      "▁pır": 2003,
      "eyin": 2004,
      "▁muhend": 2005,
      "▁veriyorum": 2006,
      "▁tartısma": 2007,
      "▁bazı": 2008,
      "▁alaka": 2009,
      "▁cins": 2010,
      "▁ugras": 2011,
      "aralı": 2012,
      "▁kapısından": 2013,
      "▁agr": 2014,
      "▁dolayi": 2015,
      "▁ab": 2016,
      "▁hayır": 2017,
      "▁mav": 2018,
      "▁mudahal": 2019,
      "▁uzuntu": 2020,
      "▁vazgec": 2021,
      "▁menk": 2022,
      "ktu": 2023,
      "▁yolunu": 2024,
      "▁parasını": 2025,
      "ktur": 2026,
      "▁in": 2027,
      "▁mevki": 2028,
      "ums": 2029,
      "▁tavuk": 2030,
      "▁oku": 2031,
      "aydi": 2032,
      "lıktan": 2033,
      "meger": 2034,
      "▁vakt": 2035,
      "▁lan": 2036,
      "lerimizi": 2037,
      "▁otelin": 2038,
      "aliydi": 2039,
      "▁gurultu": 2040,
      "eklen": 2041,
      "▁elbet": 2042,
      "▁kapısını": 2043,
      "▁lezzetliydi": 2044,
      "▁etk": 2045,
      "ısında": 2046,
      "eyr": 2047,
      "▁heyeti": 2048,
      "▁uretim": 2049,
      "▁alıyor": 2050,
      "▁kaliteli": 2051,
      "urup": 2052,
      "▁sakat": 2053,
      "▁yıla": 2054,
      "▁ucrete": 2055,
      "▁rah": 2056,
      "ubet": 2057,
      "▁telefonu": 2058,
      "ile": 2059,
      "▁mukem": 2060,
      "▁zır": 2061,
      "▁acaba": 2062,
      "▁altına": 2063,
      "▁sayisi": 2064,
      "ligine": 2065,
      "▁arabanın": 2066,
      "▁bec": 2067,
      "▁tet": 2068,
      "amet": 2069,
      "▁er": 2070,
      "▁parcasını": 2071,
      "▁sorunları": 2072,
      "▁br": 2073,
      "▁dısarıdan": 2074,
      "▁arası": 2075,
      "▁oyuna": 2076,
      "▁restor": 2077,
      "▁alan": 2078,
      "▁gencler": 2079,
      "▁yarıs": 2080,
      "▁bakıma": 2081,
      "daydı": 2082,
      "▁getirdi": 2083,
      "▁listele": 2084,
      "▁26": 2085,
      "▁kir": 2086,
      "▁yabanci": 2087,
      "▁faaliyet": 2088,
      "▁elinde": 2089,
      "▁almaya": 2090,
      "▁butu": 2091,
      "▁jand": 2092,
      "▁ajans": 2093,
      "▁tutun": 2094,
      "▁makine": 2095,
      "▁gars": 2096,
      "▁tahmini": 2097,
      "▁basarıya": 2098,
      "ıc": 2099,
      "▁cekim": 2100,
      "▁capında": 2101,
      "▁payını": 2102,
      "ledim": 2103,
      "mul": 2104,
      "y": 2105,
      "ezi": 2106,
      "▁karsılıgında": 2107,
      "▁masaj": 2108,
      "▁bog": 2109,
      "gı": 2110,
      "▁gozlem": 2111,
      "▁soy": 2112,
      "▁katana": 2113,
      "▁yerlere": 2114,
      "▁musterilere": 2115,
      "ers": 2116,
      "les": 2117,
      "▁muhtar": 2118,
      "▁darb": 2119,
      "teki": 2120,
      "▁birkac": 2121,
      "▁anim": 2122,
      "liydi": 2123,
      "oloji": 2124,
      "▁ihtiyat": 2125,
      "▁patates": 2126,
      "▁de": 2127,
      "usune": 2128,
      "▁sesini": 2129,
      "▁gir": 2130,
      "▁iflas": 2131,
      "▁duzine": 2132,
      "▁itibariyle": 2133,
      "▁kazanc": 2134,
      "lerde": 2135,
      "▁karanlık": 2136,
      "o'dan": 2137,
      "▁ornegin": 2138,
      "▁tasıy": 2139,
      "▁fut": 2140,
      "'s": 2141,
      "▁ihtiyac": 2142,
      "▁hamle": 2143,
      "lanacak": 2144,
      "hiss": 2145,
      "▁mart": 2146,
      "lendirme": 2147,
      "▁kontrol": 2148,
      "▁j": 2149,
      "kler": 2150,
      "▁yapının": 2151,
      "imde": 2152,
      "▁oz": 2153,
      "▁piy": 2154,
      "eligi": 2155,
      "x": 2156,
      "▁davr": 2157,
      "▁bileti": 2158,
      "▁herkesin": 2159,
      "lılar": 2160,
      "▁odayı": 2161,
      "▁sonra": 2162,
      "▁duz": 2163,
      "meyi": 2164,
      "=": 2165,
      "▁olarak": 2166,
      "▁tedar": 2167,
      "▁odamdan": 2168,
      "▁gayrimen": 2169,
      "▁don": 2170,
      "▁tavsiye": 2171,
      "▁yasamın": 2172,
      "▁cuz": 2173,
      "ıkları": 2174,
      "4": 2175,
      "▁ekip": 2176,
      "▁ilave": 2177,
      "▁si": 2178,
      "▁yasında": 2179,
      "▁umid": 2180,
      "▁konut": 2181,
      "▁arabalar": 2182,
      "ukluk": 2183,
      "▁yaptıgını": 2184,
      "▁magaza": 2185,
      "▁reddet": 2186,
      "▁isyan": 2187,
      "▁toparlan": 2188,
      "▁calısmak": 2189,
      "▁if": 2190,
      "▁e": 2191,
      "ıt": 2192,
      "acagına": 2193,
      "▁kisiyi": 2194,
      "acagız": 2195,
      "land": 2196,
      "▁haftada": 2197,
      "▁pasa": 2198,
      "▁epey": 2199,
      "▁hukum": 2200,
      "ilmesi": 2201,
      "'ın": 2202,
      "▁bakıyor": 2203,
      "▁ucus": 2204,
      "▁havuzun": 2205,
      "▁endustrisi": 2206,
      "mal": 2207,
      "▁acen": 2208,
      "▁9": 2209,
      "▁faz": 2210,
      "▁ked": 2211,
      "▁tahıl": 2212,
      "▁pur": 2213,
      "malıdır": 2214,
      "onun": 2215,
      "kah": 2216,
      "▁konuları": 2217,
      "▁beyle": 2218,
      "▁haklarını": 2219,
      "▁ucuslar": 2220,
      "▁amacıyla": 2221,
      "▁cag": 2222,
      "▁arabaya": 2223,
      "▁basladılar": 2224,
      "may": 2225,
      "▁oldukca": 2226,
      "▁aradan": 2227,
      "▁gecm": 2228,
      "ediy": 2229,
      "zir": 2230,
      "▁almayı": 2231,
      "ci": 2232,
      "lilik": 2233,
      "▁kimlik": 2234,
      "▁ho": 2235,
      "g": 2236,
      "▁ayakk": 2237,
      "ettim": 2238,
      "▁polit": 2239,
      "▁stok": 2240,
      "isti": 2241,
      "▁meclis": 2242,
      "▁kılıc": 2243,
      "0'": 2244,
      "▁far": 2245,
      "▁,": 2246,
      "▁kapının": 2247,
      "▁safh": 2248,
      "▁ameliyat": 2249,
      "▁yitir": 2250,
      "edil": 2251,
      "▁emeklilik": 2252,
      "cagız": 2253,
      "▁yerine": 2254,
      "imler": 2255,
      "▁cicek": 2256,
      "iyetini": 2257,
      "▁avru": 2258,
      "▁prenses": 2259,
      "▁kıymet": 2260,
      "▁bitir": 2261,
      "▁kalma": 2262,
      "▁kelep": 2263,
      "▁meydana": 2264,
      "▁yavas": 2265,
      "▁durumdan": 2266,
      "▁sipar": 2267,
      "▁ragmen": 2268,
      "▁salt": 2269,
      "▁nakit": 2270,
      "sil": 2271,
      "art": 2272,
      "▁vardır": 2273,
      "▁hakem": 2274,
      "mıyor": 2275,
      "▁w": 2276,
      "▁planlarını": 2277,
      "amıs": 2278,
      "▁fasuly": 2279,
      "▁uzak": 2280,
      "adde": 2281,
      "sız": 2282,
      "piyat": 2283,
      "▁fiyati": 2284,
      "▁yaban": 2285,
      "▁net": 2286,
      "▁orani": 2287,
      "▁bakan": 2288,
      "▁sonradan": 2289,
      "▁herk": 2290,
      "▁siper": 2291,
      "mekte": 2292,
      "▁gov": 2293,
      "▁havaalanından": 2294,
      "▁endust": 2295,
      "rı": 2296,
      "▁zafer": 2297,
      "▁onunla": 2298,
      "▁tehlike": 2299,
      "▁yiyecekler": 2300,
      "▁agzını": 2301,
      "▁olmuyor": 2302,
      "▁caz": 2303,
      "▁buyukel": 2304,
      "▁hayal": 2305,
      "▁bey": 2306,
      "amdan": 2307,
      "▁ithalat": 2308,
      "▁hayv": 2309,
      "dem": 2310,
      "aket": 2311,
      "▁iletisim": 2312,
      "▁hazine": 2313,
      "▁cd": 2314,
      "▁ogle": 2315,
      "▁kurulunun": 2316,
      "▁komisyon": 2317,
      "dar": 2318,
      "▁konuk": 2319,
      "▁fik": 2320,
      "erhal": 2321,
      "lere": 2322,
      "ımın": 2323,
      "acagım": 2324,
      "ust": 2325,
      "inizde": 2326,
      "▁zamanla": 2327,
      "▁atol": 2328,
      "▁ingiliz": 2329,
      "▁daglar": 2330,
      "▁seytan": 2331,
      "▁ayna": 2332,
      "▁kalb": 2333,
      "▁memur": 2334,
      "▁gore": 2335,
      "a'nın": 2336,
      "▁hangisi": 2337,
      "miyorum": 2338,
      "imize": 2339,
      "▁fırsat": 2340,
      "▁borc": 2341,
      "▁ikin": 2342,
      "▁mor": 2343,
      "▁muhafaza": 2344,
      "▁odul": 2345,
      "▁begenmedim": 2346,
      "▁duvarda": 2347,
      "▁yavr": 2348,
      "▁sanırım": 2349,
      "isah": 2350,
      "▁kuslar": 2351,
      "▁telafi": 2352,
      "▁kesinlikle": 2353,
      "▁iliskiler": 2354,
      "▁universit": 2355,
      "▁strateji": 2356,
      "pe": 2357,
      "▁kalitesinden": 2358,
      "▁arkadasım": 2359,
      "▁odan": 2360,
      "dıgına": 2361,
      "▁dua": 2362,
      "▁hayvan": 2363,
      "▁resepsiyon": 2364,
      "meyecegini": 2365,
      "▁torun": 2366,
      "lerimizin": 2367,
      "▁oncesine": 2368,
      "etini": 2369,
      "larca": 2370,
      "▁kasaba": 2371,
      "▁egitimi": 2372,
      "ti": 2373,
      "orm": 2374,
      "▁gece": 2375,
      "▁isbir": 2376,
      "lari": 2377,
      "▁oyna": 2378,
      "▁kurallar": 2379,
      "▁kullanmadim": 2380,
      "memis": 2381,
      "▁odaydi": 2382,
      "▁he": 2383,
      "▁isimler": 2384,
      "▁olanaklarını": 2385,
      "▁itir": 2386,
      "ley": 2387,
      "▁guzeldi": 2388,
      "▁duman": 2389,
      "esiyle": 2390,
      "▁birles": 2391,
      "▁seattle": 2392,
      "tıl": 2393,
      "▁cezası": 2394,
      "lerimin": 2395,
      "mayın": 2396,
      "▁islemler": 2397,
      "▁yıllardır": 2398,
      "▁kot": 2399,
      "▁28": 2400,
      "▁degisiklikleri": 2401,
      "eyn": 2402,
      "usunun": 2403,
      "▁arkada": 2404,
      "▁gittim": 2405,
      "▁kez": 2406,
      "ec": 2407,
      "lıgından": 2408,
      "dı": 2409,
      "cak": 2410,
      "▁etmeye": 2411,
      "▁sarap": 2412,
      "▁zih": 2413,
      "▁icra": 2414,
      "▁sandaly": 2415,
      "▁salınc": 2416,
      "▁bom": 2417,
      "▁bolum": 2418,
      "▁keleb": 2419,
      "masını": 2420,
      "▁bakım": 2421,
      "arlan": 2422,
      "▁depart": 2423,
      "esini": 2424,
      "ont": 2425,
      "rarak": 2426,
      "adar": 2427,
      "▁lutfen": 2428,
      "▁sapka": 2429,
      "▁piyasasının": 2430,
      "▁cip": 2431,
      "▁sabahın": 2432,
      "▁edip": 2433,
      "▁kalite": 2434,
      "▁isletme": 2435,
      "▁yoktu": 2436,
      "▁ih": 2437,
      "▁zul": 2438,
      "▁ayın": 2439,
      "▁ik": 2440,
      "▁akt": 2441,
      "ls": 2442,
      "▁oturma": 2443,
      "ma": 2444,
      "▁ziyaret": 2445,
      "aren": 2446,
      "▁cit": 2447,
      "▁te": 2448,
      "phia": 2449,
      "hal": 2450,
      "▁doların": 2451,
      "▁hiss": 2452,
      "onya": 2453,
      "enleri": 2454,
      "▁oyn": 2455,
      "▁gozunu": 2456,
      "mekle": 2457,
      "▁za": 2458,
      "ayet": 2459,
      ".0": 2460,
      "▁ekonomist": 2461,
      "▁nedenle": 2462,
      "erince": 2463,
      "ton": 2464,
      ";": 2465,
      "▁yog": 2466,
      "▁ticareti": 2467,
      "▁hakikat": 2468,
      "▁gunden": 2469,
      "ume": 2470,
      "eyle": 2471,
      "▁kısk": 2472,
      "▁ust": 2473,
      "▁hucre": 2474,
      "▁bug": 2475,
      "▁memnun": 2476,
      "▁idare": 2477,
      "▁27": 2478,
      "▁pay": 2479,
      "▁agac": 2480,
      "▁miy": 2481,
      "rut": 2482,
      "▁havaya": 2483,
      "a'ya": 2484,
      "▁ayrılık": 2485,
      "▁sırtını": 2486,
      "cek": 2487,
      "ildi": 2488,
      "▁mısır": 2489,
      "▁29": 2490,
      "▁sorustur": 2491,
      "ani": 2492,
      "▁soylemek": 2493,
      "▁dallas": 2494,
      "▁kaydetti": 2495,
      "▁sola": 2496,
      "▁detay": 2497,
      "▁durdur": 2498,
      "emek": 2499,
      "iya": 2500,
      "gan": 2501,
      "▁kaldır": 2502,
      "adı": 2503,
      "▁ramaz": 2504,
      "▁temel": 2505,
      "▁seviyede": 2506,
      "▁yurd": 2507,
      "▁lobi": 2508,
      "▁vergi": 2509,
      "▁guver": 2510,
      "agım": 2511,
      "▁teklifi": 2512,
      "▁dr": 2513,
      "dut": 2514,
      "▁askeri": 2515,
      "▁saldırı": 2516,
      "▁elini": 2517,
      "▁islemlerinde": 2518,
      "▁yaslı": 2519,
      "▁sayı": 2520,
      "▁bulas": 2521,
      "amız": 2522,
      "▁tatlilar": 2523,
      "▁belki": 2524,
      "▁med": 2525,
      "▁sansur": 2526,
      "uyorlar": 2527,
      "▁kapalı": 2528,
      "▁biy": 2529,
      "▁odalardan": 2530,
      "▁gozluk": 2531,
      "asa": 2532,
      "iss": 2533,
      "▁senetleri": 2534,
      "▁igne": 2535,
      "aması": 2536,
      "▁uret": 2537,
      "▁calismasina": 2538,
      "▁tarafına": 2539,
      "▁yuzune": 2540,
      "▁pak": 2541,
      "▁sise": 2542,
      "▁3": 2543,
      "▁gozlerini": 2544,
      "▁secenek": 2545,
      "▁tarl": 2546,
      "reti": 2547,
      "▁ekonomik": 2548,
      "las": 2549,
      "▁lezzetleri": 2550,
      "▁geliyor": 2551,
      "▁yansı": 2552,
      "▁kuf": 2553,
      "▁lu": 2554,
      "andan": 2555,
      "▁av": 2556,
      "▁altern": 2557,
      "▁%2": 2558,
      "7": 2559,
      "▁borsa": 2560,
      "ok": 2561,
      "▁dalı": 2562,
      "ırak": 2563,
      "▁ek": 2564,
      "▁duskun": 2565,
      "▁evin": 2566,
      "uya": 2567,
      "▁standart": 2568,
      "se": 2569,
      "▁cevr": 2570,
      "▁meclisi": 2571,
      "▁onunde": 2572,
      "▁mekte": 2573,
      "lamayı": 2574,
      "▁gozlerinin": 2575,
      "elerle": 2576,
      "▁cekic": 2577,
      "▁orne": 2578,
      "▁farklılık": 2579,
      "estiri": 2580,
      "▁ayagı": 2581,
      "lin": 2582,
      "ruf": 2583,
      "adel": 2584,
      "▁evvel": 2585,
      "▁tip": 2586,
      "ding": 2587,
      "▁vatandas": 2588,
      "sini": 2589,
      "ıyoruz": 2590,
      "▁ele": 2591,
      "gunu": 2592,
      "▁eyalet": 2593,
      "masıyla": 2594,
      "▁sehrine": 2595,
      "▁gerekiyor": 2596,
      "▁24": 2597,
      "▁birini": 2598,
      "▁donuyor": 2599,
      "▁sas": 2600,
      "▁giriste": 2601,
      "▁zararı": 2602,
      "▁kat": 2603,
      "ucuk": 2604,
      "▁anayasa": 2605,
      "▁mola": 2606,
      "▁buna": 2607,
      "▁taraf": 2608,
      "▁girmek": 2609,
      "n": 2610,
      "▁dav": 2611,
      "▁agırlık": 2612,
      "areti": 2613,
      "idi": 2614,
      "▁verim": 2615,
      "amaz": 2616,
      "ılmaz": 2617,
      "agında": 2618,
      "egen": 2619,
      "▁pantolon": 2620,
      "▁tesebbus": 2621,
      "ncak": 2622,
      "▁hur": 2623,
      "▁hucr": 2624,
      "▁ac": 2625,
      "▁azalt": 2626,
      "▁elestir": 2627,
      "▁ciro": 2628,
      "lının": 2629,
      "▁yemekten": 2630,
      "▁gunlerde": 2631,
      "ou": 2632,
      "tum": 2633,
      "▁ortaydi": 2634,
      "▁maliye": 2635,
      "'ten": 2636,
      "▁konuyla": 2637,
      "▁seyirci": 2638,
      "▁deng": 2639,
      "akat": 2640,
      "▁seviyesinde": 2641,
      "▁anlamak": 2642,
      "tar": 2643,
      "▁kultur": 2644,
      "▁garson": 2645,
      "▁direk": 2646,
      "abı": 2647,
      "▁katıl": 2648,
      "▁ayaklarının": 2649,
      "kten": 2650,
      "attle": 2651,
      "olis": 2652,
      "▁mektep": 2653,
      "▁muhasebe": 2654,
      "acılıgı": 2655,
      "▁cekici": 2656,
      "▁unu": 2657,
      "cut": 2658,
      "antaj": 2659,
      "▁maliyeti": 2660,
      "▁gosterin": 2661,
      "▁faiz": 2662,
      "▁ihracı": 2663,
      "▁evi": 2664,
      "▁planın": 2665,
      "▁nas": 2666,
      "ov": 2667,
      "▁borcunu": 2668,
      "▁ins": 2669,
      "▁kapan": 2670,
      "▁giyim": 2671,
      "▁kardesim": 2672,
      "▁sozlerine": 2673,
      "▁politikası": 2674,
      "▁kom": 2675,
      "▁parti": 2676,
      "▁tarafını": 2677,
      "▁tutar": 2678,
      "▁sup": 2679,
      "▁rıh": 2680,
      "▁bana": 2681,
      "▁3'ten": 2682,
      "▁teor": 2683,
      "▁tanr": 2684,
      "▁sohbet": 2685,
      "▁dusunceler": 2686,
      "▁kırk": 2687,
      "ecek": 2688,
      "▁cocuklarını": 2689,
      "▁nik": 2690,
      "▁deprem": 2691,
      "▁oyunc": 2692,
      "mel": 2693,
      "▁yi": 2694,
      "▁aktor": 2695,
      "▁turlu": 2696,
      "▁yatırımcılar": 2697,
      "eveyn": 2698,
      "▁top": 2699,
      "▁siir": 2700,
      "▁bakalım": 2701,
      "$": 2702,
      "▁197": 2703,
      "▁hır": 2704,
      "et": 2705,
      "▁getir": 2706,
      "▁kisi": 2707,
      "▁ekm": 2708,
      "▁terk": 2709,
      "▁ittifak": 2710,
      "ucusu": 2711,
      "▁mobil": 2712,
      "▁boyun": 2713,
      "dig": 2714,
      "▁supur": 2715,
      "itr": 2716,
      "▁tepki": 2717,
      "▁kayn": 2718,
      "v": 2719,
      "▁savun": 2720,
      "sı": 2721,
      "leyen": 2722,
      "▁deney": 2723,
      "▁sahil": 2724,
      "lıyordu": 2725,
      "kili": 2726,
      "▁intih": 2727,
      "[PAD]": 2728,
      "▁arab": 2729,
      "▁yakinlar": 2730,
      "▁boyu": 2731,
      "▁uyk": 2732,
      "▁karak": 2733,
      "lıgı": 2734,
      "▁aga": 2735,
      "▁kira": 2736,
      "▁gerek": 2737,
      "▁bizimle": 2738,
      "▁baskaları": 2739,
      "▁muay": 2740,
      "/4'e": 2741,
      "▁kolu": 2742,
      "▁eder": 2743,
      "▁parca": 2744,
      "abil": 2745,
      "▁plana": 2746,
      "▁oyku": 2747,
      "▁tek": 2748,
      "mustu": 2749,
      "▁cıkarmaya": 2750,
      "ecekleri": 2751,
      "▁ulus": 2752,
      "▁gru": 2753,
      "ecegine": 2754,
      "'u": 2755,
      "▁zah": 2756,
      "▁bulbul": 2757,
      "elemek": 2758,
      "▁sayısını": 2759,
      "orma": 2760,
      "ki": 2761,
      "▁ulasım": 2762,
      "▁francisco": 2763,
      "yalizm": 2764,
      "▁ortaklık": 2765,
      "▁tesisi": 2766,
      "▁oranlarının": 2767,
      "▁serin": 2768,
      "▁edi": 2769,
      "▁guleryuzluydu": 2770,
      "osyon": 2771,
      "ulu": 2772,
      "alara": 2773,
      "▁havuzlari": 2774,
      "▁koku": 2775,
      "▁burun": 2776,
      "▁arkadası": 2777,
      "▁ile": 2778,
      "▁yagmur": 2779,
      "mes": 2780,
      "▁bunları": 2781,
      "▁ade": 2782,
      "▁yılının": 2783,
      "alarda": 2784,
      "▁yapma": 2785,
      "▁sıc": 2786,
      "▁yukseldi": 2787,
      "▁gozlerinden": 2788,
      "▁sirketleri": 2789,
      "▁arkadaslar": 2790,
      "duz": 2791,
      "▁adım": 2792,
      "olu": 2793,
      "▁vali": 2794,
      "cıların": 2795,
      "▁cep": 2796,
      "▁13": 2797,
      "▁fıs": 2798,
      "ant": 2799,
      "▁kup": 2800,
      "liklerini": 2801,
      "▁begendim": 2802,
      "▁sevda": 2803,
      "▁aramız": 2804,
      "▁arz": 2805,
      "▁dislerini": 2806,
      "▁kavram": 2807,
      "▁rahat": 2808,
      "maktan": 2809,
      "amba": 2810,
      "▁as": 2811,
      "6'dan": 2812,
      "▁zamanda": 2813,
      "▁end": 2814,
      "▁oranını": 2815,
      "&": 2816,
      "paz": 2817,
      "lamasını": 2818,
      "bur": 2819,
      "▁kollarını": 2820,
      "▁oyunu": 2821,
      "▁devreye": 2822,
      "▁kalıyor": 2823,
      "▁grev": 2824,
      "▁em": 2825,
      "▁yemeklerde": 2826,
      "▁torb": 2827,
      "▁ruy": 2828,
      "▁ic": 2829,
      "es": 2830,
      "ıya": 2831,
      "▁sınıfın": 2832,
      "▁tarihin": 2833,
      "▁iceriden": 2834,
      "▁arasındaki": 2835,
      "▁arasından": 2836,
      "▁mek": 2837,
      "▁hayatta": 2838,
      "elt": 2839,
      "▁balkon": 2840,
      "▁dc": 2841,
      "▁cet": 2842,
      "▁muhafazakar": 2843,
      "▁corp.": 2844,
      "▁evinin": 2845,
      "▁yolcu": 2846,
      "▁asık": 2847,
      "▁go": 2848,
      "▁seyahat": 2849,
      "▁sana": 2850,
      "▁planlamam": 2851,
      "▁konusuyor": 2852,
      "lerimiz": 2853,
      "▁kred": 2854,
      "?": 2855,
      "▁tenis": 2856,
      "▁bugday": 2857,
      "▁luz": 2858,
      "▁olumu": 2859,
      "▁vermedi": 2860,
      "▁onu": 2861,
      "▁ısrar": 2862,
      "▁kategor": 2863,
      "▁kent": 2864,
      "▁dır": 2865,
      "ılık": 2866,
      "▁yesil": 2867,
      "▁iktidar": 2868,
      "▁boru": 2869,
      "ık": 2870,
      "▁yapmadı": 2871,
      "▁gonder": 2872,
      "▁kum": 2873,
      "▁phoeni": 2874,
      "…": 2875,
      "▁tahr": 2876,
      "▁eleman": 2877,
      "▁yardım": 2878,
      "▁yans": 2879,
      "0-": 2880,
      "▁performansi": 2881,
      "▁ef": 2882,
      "▁yargıc": 2883,
      "akal": 2884,
      "ınız": 2885,
      "▁yasamak": 2886,
      "▁ipot": 2887,
      "▁efendim": 2888,
      "▁rus": 2889,
      "▁ilan": 2890,
      "▁halde": 2891,
      "▁dl": 2892,
      "elig": 2893,
      "▁ce": 2894,
      "▁ucuslarını": 2895,
      "▁sonuclarını": 2896,
      "▁sermaye": 2897,
      "▁ucusunu": 2898,
      "▁yuksek": 2899,
      "▁milyon": 2900,
      "▁basladım": 2901,
      "▁ozellikleri": 2902,
      "▁istedig": 2903,
      "▁gıda": 2904,
      "▁duygu": 2905,
      "▁sekil": 2906,
      "▁gur": 2907,
      "▁calısma": 2908,
      "▁cizg": 2909,
      "tılı": 2910,
      "ıgını": 2911,
      "ustu": 2912,
      "asındaki": 2913,
      "▁ak": 2914,
      "▁imkan": 2915,
      "▁topraga": 2916,
      "▁spekulasyon": 2917,
      "▁cas": 2918,
      "ınıza": 2919,
      "▁memlekette": 2920,
      "▁erkek": 2921,
      "▁hayat": 2922,
      "▁y": 2923,
      "orlu": 2924,
      "▁uye": 2925,
      "kal": 2926,
      "▁kitapları": 2927,
      "▁digerleri": 2928,
      "▁sov": 2929,
      "▁bon": 2930,
      "▁kalem": 2931,
      "ansiyon": 2932,
      "▁sendik": 2933,
      "verdi": 2934,
      "▁guzelligi": 2935,
      "▁ihale": 2936,
      "▁ders": 2937,
      "▁onceki": 2938,
      "▁ucaklar": 2939,
      "▁ay": 2940,
      "uye": 2941,
      "▁doga": 2942,
      "l": 2943,
      "▁ceza": 2944,
      "▁ucuslarla": 2945,
      "▁danısman": 2946,
      "▁odeme": 2947,
      "▁yaprak": 2948,
      "▁faaliyetleri": 2949,
      "▁pilav": 2950,
      "▁dekorasyonu": 2951,
      "▁mal": 2952,
      "▁ceyr": 2953,
      "▁cogunluk": 2954,
      "▁dagdan": 2955,
      "ıga": 2956,
      "▁muhafaz": 2957,
      "ah": 2958,
      "▁zay": 2959,
      "▁doktora": 2960,
      "▁cıglık": 2961,
      "ji": 2962,
      "larımızın": 2963,
      "isler": 2964,
      "▁fatur": 2965,
      "▁analistler": 2966,
      "▁kendisine": 2967,
      "▁sab": 2968,
      "▁ikiye": 2969,
      "▁talih": 2970,
      "▁ucagın": 2971,
      "▁maliyetleri": 2972,
      "▁sterlin": 2973,
      "▁dudak": 2974,
      "egim": 2975,
      "▁uygar": 2976,
      "▁kayb": 2977,
      "-": 2978,
      "▁kendilerine": 2979,
      "▁finanse": 2980,
      "▁geliyordu": 2981,
      "mac": 2982,
      "hanede": 2983,
      "▁aldılar": 2984,
      "▁tatil": 2985,
      "+": 2986,
      "▁zorluk": 2987,
      "▁alet": 2988,
      "▁olanakları": 2989,
      "▁prot": 2990,
      "▁mevsim": 2991,
      "▁amer": 2992,
      "ayıf": 2993,
      "uga": 2994,
      "ması": 2995,
      "aret": 2996,
      "▁kız": 2997,
      "▁taks": 2998,
      "▁turkiye": 2999,
      "▁altı": 3000,
      "stı": 3001,
      "▁oper": 3002,
      "▁gununu": 3003,
      "▁gu": 3004,
      "▁etek": 3005,
      "▁ız": 3006,
      "▁birinci": 3007,
      "dal": 3008,
      "*": 3009,
      "▁yıllarında": 3010,
      "'ı": 3011,
      "▁olac": 3012,
      "▁incel": 3013,
      "ınc": 3014,
      "ındı": 3015,
      "▁arada": 3016,
      "▁vatan": 3017,
      "kul": 3018,
      "▁topr": 3019,
      "–": 3020,
      "▁harp": 3021,
      "▁herhalde": 3022,
      "▁agab": 3023,
      "▁chic": 3024,
      "▁cekmek": 3025,
      "ram": 3026,
      "▁cab": 3027,
      "▁fit": 3028,
      "▁yani": 3029,
      "▁isle": 3030,
      "lasma": 3031,
      "▁gomleg": 3032,
      "medi": 3033,
      "lat": 3034,
      "▁som": 3035,
      "▁kapısı": 3036,
      "▁hamam": 3037,
      "ra": 3038,
      "lanmak": 3039,
      "▁dogasi": 3040,
      "▁havayolları": 3041,
      "▁demokratlar": 3042,
      "▁hızı": 3043,
      "▁duruma": 3044,
      "▁tatlı": 3045,
      "▁olmaktan": 3046,
      "▁ipek": 3047,
      "▁ozur": 3048,
      "▁atat": 3049,
      "ilir": 3050,
      "▁olmak": 3051,
      "▁degn": 3052,
      "▁acıkladı": 3053,
      "▁kaldik": 3054,
      "▁fir": 3055,
      "▁donem": 3056,
      "kt": 3057,
      "amam": 3058,
      "▁halef": 3059,
      "▁lezzeti": 3060,
      "cı": 3061,
      "asına": 3062,
      "arlı": 3063,
      "▁yuk": 3064,
      "▁eglenc": 3065,
      "▁cir": 3066,
      "▁musteriler": 3067,
      "▁kagıt": 3068,
      "q": 3069,
      "▁etmek": 3070,
      "▁bankalar": 3071,
      "▁kod": 3072,
      "iyorlar": 3073,
      "▁airlines": 3074,
      "uncu": 3075,
      "yasal": 3076,
      "▁yumus": 3077,
      "meler": 3078,
      "▁han": 3079,
      "lıkları": 3080,
      "▁okumak": 3081,
      "ran": 3082,
      "▁nedir": 3083,
      "▁sac": 3084,
      "▁buyum": 3085,
      "▁cil": 3086,
      "▁gunduz": 3087,
      "▁kıl": 3088,
      "▁ind": 3089,
      "▁nitelik": 3090,
      "uluyor": 3091,
      "[UNK]": 3092,
      "▁ucunu": 3093,
      "kan": 3094,
      "▁yonetici": 3095,
      "▁bulmak": 3096,
      "▁olacak": 3097,
      "2'ye": 3098,
      "lanıyor": 3099,
      "▁servet": 3100,
      "1'de": 3101,
      "gundu": 3102,
      "anmak": 3103,
      "isin": 3104,
      "▁tap": 3105,
      "mayan": 3106,
      "he": 3107,
      "▁vucu": 3108,
      "ırda": 3109,
      "▁philadelphia'ya": 3110,
      "▁heps": 3111,
      "im": 3112,
      "emi": 3113,
      "▁hissed": 3114,
      "evizyon": 3115,
      "▁elbise": 3116,
      "▁alb": 3117,
      "giniz": 3118,
      "▁mani": 3119,
      "eral": 3120,
      "▁borsasında": 3121,
      "▁sınırları": 3122,
      "▁d": 3123,
      "▁mud": 3124,
      "raz": 3125,
      "ılı": 3126,
      "▁tut": 3127,
      "▁buradan": 3128,
      "gini": 3129,
      "▁prosedur": 3130,
      "▁henuz": 3131,
      "▁kalab": 3132,
      "▁bazıları": 3133,
      "▁duk": 3134,
      "edir": 3135,
      "▁kimse": 3136,
      "▁uyum": 3137,
      "emis": 3138,
      "ılmasını": 3139,
      "▁lider": 3140,
      "oyu": 3141,
      "▁duzeni": 3142,
      "▁ger": 3143,
      "▁prov": 3144,
      "▁havayollarında": 3145,
      "▁kendilerini": 3146,
      "aydı": 3147,
      "mıslar": 3148,
      "▁tir": 3149,
      "lara": 3150,
      "▁hazin": 3151,
      "ıyordu": 3152,
      "▁disi": 3153,
      "▁sehirler": 3154,
      "gunluk": 3155,
      "▁cıkıs": 3156,
      "▁baslarında": 3157,
      "▁bunlar": 3158,
      "edeki": 3159,
      "▁anah": 3160,
      "▁kurdu": 3161,
      "▁labor": 3162,
      "▁kaya": 3163,
      "▁paraya": 3164,
      "lev": 3165,
      "mam": 3166,
      "▁tuccar": 3167,
      "▁gorun": 3168,
      "▁bit": 3169,
      "▁buy": 3170,
      "▁giy": 3171,
      "▁risk": 3172,
      "▁hakları": 3173,
      "▁calısanları": 3174,
      "▁arkadasim": 3175,
      "▁gos": 3176,
      "▁isler": 3177,
      "turu": 3178,
      "▁": 3179,
      "▁yukseldigini": 3180,
      "▁demis": 3181,
      "▁ulkenin": 3182,
      "▁beklenti": 3183,
      "▁eski": 3184,
      "za": 3185,
      "▁palto": 3186,
      "▁tasf": 3187,
      "erv": 3188,
      "▁tedirgin": 3189,
      "▁dusmus": 3190,
      "▁ustun": 3191,
      "▁prob": 3192,
      "▁kelimesi": 3193,
      "▁muduru": 3194,
      "▁heves": 3195,
      "▁grupları": 3196,
      "yerek": 3197,
      "▁baltimore": 3198,
      "▁th": 3199,
      "▁psik": 3200,
      "▁insaat": 3201,
      "an": 3202,
      "ami": 3203,
      "itli": 3204,
      "▁mil": 3205,
      "sine": 3206,
      "▁sesiyle": 3207,
      "▁fery": 3208,
      "▁husus": 3209,
      "▁potansiyel": 3210,
      "▁cehr": 3211,
      "▁balık": 3212,
      "iyi": 3213,
      "▁anım": 3214,
      "▁beydi": 3215,
      "▁insanlardan": 3216,
      "egin": 3217,
      "▁hayatımda": 3218,
      "▁tesvik": 3219,
      "▁mutf": 3220,
      "ort": 3221,
      "▁rec": 3222,
      "▁personel": 3223,
      "▁veririm": 3224,
      "▁sm": 3225,
      "▁fal": 3226,
      "▁moda": 3227,
      "▁dava": 3228,
      "▁degerlendir": 3229,
      "▁olmalı": 3230,
      "▁makaleye": 3231,
      "▁evla": 3232,
      "▁isten": 3233,
      "▁alım-sat": 3234,
      "▁oldur": 3235,
      "▁takım": 3236,
      "▁tarafı": 3237,
      "▁bay": 3238,
      "▁uyeleri": 3239,
      "▁harcam": 3240,
      "▁armag": 3241,
      "digim": 3242,
      "ekul": 3243,
      "▁geyik": 3244,
      "▁demokrasi": 3245,
      "▁antr": 3246,
      "▁doviz": 3247,
      "▁konum": 3248,
      "elere": 3249,
      "▁yab": 3250,
      "▁aleyh": 3251,
      "▁fen": 3252,
      "irler": 3253,
      "biye": 3254,
      "▁zey": 3255,
      "▁cos": 3256,
      "▁duvarı": 3257,
      "'tan": 3258,
      "▁8": 3259,
      "▁orgu": 3260,
      "▁yapmıs": 3261,
      "kar": 3262,
      "luga": 3263,
      "di": 3264,
      "▁gibiydi": 3265,
      "▁gorus": 3266,
      "▁cocukluk": 3267,
      "▁fazlasını": 3268,
      "▁beden": 3269,
      "▁hakkinda": 3270,
      "beri": 3271,
      "▁guclu": 3272,
      "▁manev": 3273,
      "▁suda": 3274,
      "▁muzigi": 3275,
      "ibar": 3276,
      "▁okudu": 3277,
      "▁isimiz": 3278,
      "▁lira": 3279,
      "ardı": 3280,
      "▁hel": 3281,
      "imizda": 3282,
      "▁rot": 3283,
      "▁bankacılık": 3284,
      "gıc": 3285,
      "▁basımıza": 3286,
      "malı": 3287,
      "▁cuma": 3288,
      "▁imal": 3289,
      "▁mul": 3290,
      "▁transfer": 3291,
      "▁baskanı": 3292,
      "▁milyona": 3293,
      "▁bura": 3294,
      "▁olanlar": 3295,
      "▁annesinin": 3296,
      "▁sonuc": 3297,
      "▁gordum": 3298,
      "sef": 3299,
      "▁alamadim": 3300,
      "uzin": 3301,
      "aların": 3302,
      "▁ols": 3303,
      "▁ail": 3304,
      "▁mer": 3305,
      "tal": 3306,
      "dugum": 3307,
      "00'": 3308,
      "▁yuksekti": 3309,
      "▁benden": 3310,
      "▁yagı": 3311,
      "▁komutan": 3312,
      "▁cay": 3313,
      "▁yerden": 3314,
      "▁gercekl": 3315,
      "▁ayaklarını": 3316,
      "▁biri": 3317,
      "▁hazır": 3318,
      "▁feda": 3319,
      "unca": 3320,
      "▁canlı": 3321,
      "▁lif": 3322,
      "da": 3323,
      "iste": 3324,
      "▁kar": 3325,
      "▁angel": 3326,
      "▁mik": 3327,
      "▁raporda": 3328,
      "▁emniyet": 3329,
      "▁protokol": 3330,
      "▁yil": 3331,
      "du": 3332,
      "[SEP]": 3333,
      "ilen": 3334,
      "leti": 3335,
      "▁diyet": 3336,
      "▁manzar": 3337,
      "▁turden": 3338,
      "▁yururluge": 3339,
      "larla": 3340,
      "▁neden": 3341,
      "▁41": 3342,
      "▁olas": 3343,
      "▁barıs": 3344,
      "▁muhalif": 3345,
      "▁seans": 3346,
      "▁derecede": 3347,
      "▁mis": 3348,
      "▁kadınlar": 3349,
      "▁hakk": 3350,
      "▁ulkelerde": 3351,
      "▁tedavi": 3352,
      "▁yetenek": 3353,
      "ıyla": 3354,
      "ut": 3355,
      "▁aram": 3356,
      "ektedir": 3357,
      "lendirmek": 3358,
      "▁pamuk": 3359,
      "▁hukumet": 3360,
      "▁mat": 3361,
      "▁girisim": 3362,
      "▁gonl": 3363,
      "▁aqu": 3364,
      "▁nasıl": 3365,
      "▁ortalıgı": 3366,
      "▁piyasaları": 3367,
      "▁cocuga": 3368,
      "▁bulundugu": 3369,
      "▁yıldız": 3370,
      "▁pencere": 3371,
      "▁en": 3372,
      ".ceyrek": 3373,
      "▁hanima": 3374,
      "▁vak": 3375,
      "'da": 3376,
      "▁noktaya": 3377,
      "ını": 3378,
      "▁tabi": 3379,
      "▁odalar": 3380,
      "▁mac": 3381,
      "▁ondan": 3382,
      "▁kurs": 3383,
      "▁yerlerden": 3384,
      "▁pencereden": 3385,
      "'den": 3386,
      "lisi": 3387,
      "▁mo": 3388,
      "▁aras": 3389,
      "si": 3390,
      "kil": 3391,
      "▁leblebi": 3392,
      "▁haklar": 3393,
      "istir": 3394,
      "▁ob": 3395,
      "▁kesi": 3396,
      "▁komit": 3397,
      "▁tuccarlar": 3398,
      "ıldıgını": 3399,
      "▁teh": 3400,
      "▁kalmak": 3401,
      "▁isleme": 3402,
      "▁ki": 3403,
      "▁komur": 3404,
      "▁edit": 3405,
      "▁ayrım": 3406,
      "▁yurudu": 3407,
      "▁fiyatina": 3408,
      "rak": 3409,
      "▁istifa": 3410,
      "▁heyec": 3411,
      "▁mendil": 3412,
      "▁dilim": 3413,
      "▁benzin": 3414,
      "▁hisseler": 3415,
      "▁olanları": 3416,
      "▁temizlikten": 3417,
      "▁bakar": 3418,
      "▁kanser": 3419,
      "ator": 3420,
      "▁hepsini": 3421,
      "emli": 3422,
      "▁hatun": 3423,
      "▁iht": 3424,
      "▁nerede": 3425,
      "▁satıslar": 3426,
      "▁fin": 3427,
      "istiri": 3428,
      "▁dah": 3429,
      "adet": 3430,
      "▁goc": 3431,
      "▁doneminde": 3432,
      "▁dolarlık": 3433,
      "▁memphis": 3434,
      "▁francisco'dan": 3435,
      "▁veto": 3436,
      "▁sektoru": 3437,
      "▁sahn": 3438,
      "▁harc": 3439,
      "▁kırmızı": 3440,
      "▁rakı": 3441,
      "em": 3442,
      "uzlu": 3443,
      "▁ilgisi": 3444,
      "▁30": 3445,
      "▁aqua": 3446,
      "▁hab": 3447,
      "▁hoc": 3448,
      "▁ustune": 3449,
      "ayacagını": 3450,
      "'ta": 3451,
      "sak": 3452,
      "▁arazi": 3453,
      "▁etkil": 3454,
      "▁medya": 3455,
      "▁goster": 3456,
      "▁verg": 3457,
      "▁yap": 3458,
      "ıcısı": 3459,
      "mi": 3460,
      "▁evde": 3461,
      "▁her": 3462,
      "▁carsaf": 3463,
      "▁misafirimiz": 3464,
      "▁eh": 3465,
      "misler": 3466,
      "atıl": 3467,
      "▁vaz": 3468,
      "yan": 3469,
      "▁hamal": 3470,
      "usuna": 3471,
      "▁yıllık": 3472,
      "▁hasar": 3473,
      "▁neredeyse": 3474,
      "▁aklına": 3475,
      "▁nih": 3476,
      "▁buldu": 3477,
      "▁soguktu": 3478,
      "cılık": 3479,
      "▁pazartesi": 3480,
      "▁hacı": 3481,
      "adan": 3482,
      "▁salonunda": 3483,
      "▁insa": 3484,
      "▁devralma": 3485,
      "▁pazarda": 3486,
      "enlere": 3487,
      "▁imalat": 3488,
      "▁internet": 3489,
      "▁cerey": 3490,
      "▁reddetti": 3491,
      "la": 3492,
      "dır": 3493,
      "▁diyor": 3494,
      "▁persembe": 3495,
      "▁muzak": 3496,
      "▁pu": 3497,
      "▁olumlu": 3498,
      "likte": 3499,
      "lıgında": 3500,
      "▁abla": 3501,
      "▁bakıs": 3502,
      "▁rekabet": 3503,
      "▁okulda": 3504,
      "▁kabil": 3505,
      "uz": 3506,
      "uzel": 3507,
      "▁hastalık": 3508,
      "▁devri": 3509,
      "▁pazarlık": 3510,
      "ellikle": 3511,
      "▁?..": 3512,
      "0000": 3513,
      "iyon": 3514,
      "▁simdiye": 3515,
      "▁musteri": 3516,
      "▁miktarda": 3517,
      "usu": 3518,
      "ilisi": 3519,
      "▁50": 3520,
      "ımda": 3521,
      "▁continental": 3522,
      "j": 3523,
      "▁prosed": 3524,
      "▁so": 3525,
      "▁cesitlilik": 3526,
      "▁post": 3527,
      "▁cat": 3528,
      "▁bakıyordu": 3529,
      "▁bis": 3530,
      "lıyor": 3531,
      "▁agz": 3532,
      "▁otelde": 3533,
      "ic": 3534,
      "allı": 3535,
      "▁yuzu": 3536,
      "▁ons": 3537,
      "▁arıyor": 3538,
      "▁mali": 3539,
      "uluk": 3540,
      "▁yapti": 3541,
      "▁etmedi": 3542,
      "▁neyse": 3543,
      "▁$": 3544,
      "▁tam": 3545,
      "▁sın": 3546,
      "▁ozgurluk": 3547,
      "aba": 3548,
      "▁cambaz": 3549,
      "▁memleket": 3550,
      "▁charl": 3551,
      "▁geminin": 3552,
      "▁niz": 3553,
      "▁petr": 3554,
      "▁yetersizdi": 3555,
      "▁verdigi": 3556,
      "▁getirisi": 3557,
      "enlik": 3558,
      "edikten": 3559,
      "▁tari": 3560,
      "▁kazancı": 3561,
      "▁dos": 3562,
      "▁ali": 3563,
      "▁muhtesem": 3564,
      "▁mevzu": 3565,
      "▁defa": 3566,
      "▁one": 3567,
      "▁aktiviteler": 3568,
      "▁oldugunu": 3569,
      "▁gidi": 3570,
      "ini": 3571,
      "▁sınıf": 3572,
      "▁bulmaya": 3573,
      "ıklıgı": 3574,
      "▁yemis": 3575,
      "▁geldi": 3576,
      "▁bugun": 3577,
      "▁nisan": 3578,
      "▁genc": 3579,
      "lamaz": 3580,
      "ekkur": 3581,
      "▁iddi": 3582,
      "▁cevir": 3583,
      "▁bonolar": 3584,
      "▁tenek": 3585,
      "0'da": 3586,
      "▁rej": 3587,
      "▁ark": 3588,
      "larımın": 3589,
      "▁yarı": 3590,
      "ekk": 3591,
      "mini": 3592,
      "▁yapacagını": 3593,
      "▁tum": 3594,
      "▁hizmeti": 3595,
      "▁maddes": 3596,
      "▁l": 3597,
      "▁oldugundan": 3598,
      "masına": 3599,
      "▁gormeye": 3600,
      "ılır": 3601,
      "▁sahtek": 3602,
      "▁gunah": 3603,
      "ilerdi": 3604,
      "▁sozlesme": 3605,
      "▁krem": 3606,
      "▁kadro": 3607,
      "mar": 3608,
      "▁ulasımını": 3609,
      "▁yenil": 3610,
      "▁nez": 3611,
      "isim": 3612,
      "▁ted": 3613,
      "▁kan": 3614,
      "▁kıymetleri": 3615,
      "▁baskan": 3616,
      "▁tahviller": 3617,
      "lay": 3618,
      "▁americ": 3619,
      "▁kuralları": 3620,
      "▁aktarmasız": 3621,
      "▁rezervasyon": 3622,
      "▁yetkilileri": 3623,
      "▁icecekler": 3624,
      "▁kog": 3625,
      "▁anlamda": 3626,
      "▁parkı": 3627,
      "lek": 3628,
      "iran": 3629,
      "ciler": 3630,
      "lamıs": 3631,
      "▁hangi": 3632,
      "▁sam": 3633,
      "▁istatist": 3634,
      "unc": 3635,
      "indi": 3636,
      "ug": 3637,
      "▁gostergeleri": 3638,
      "▁ogrenci": 3639,
      "eyaz": 3640,
      "▁uzmanlar": 3641,
      "▁vat": 3642,
      "▁yasan": 3643,
      "▁duyguları": 3644,
      "▁merdiv": 3645,
      "▁lak": 3646,
      "ustan": 3647,
      "▁zorunda": 3648,
      "▁tanık": 3649,
      "mas": 3650,
      "acaklarını": 3651,
      "▁gonul": 3652,
      "▁olamaz": 3653,
      "▁dahi": 3654,
      "▁finc": 3655,
      "..": 3656,
      "▁st.": 3657,
      "okul": 3658,
      "▁gereksin": 3659,
      "▁hissesi": 3660,
      "▁sırtına": 3661,
      "▁sebz": 3662,
      "▁pek": 3663,
      "irmen": 3664,
      "ger": 3665,
      "▁insanlar": 3666,
      "▁!": 3667,
      "▁baskanın": 3668,
      "▁camasır": 3669,
      "amaları": 3670,
      "gen": 3671,
      "▁grubun": 3672,
      "▁oglu": 3673,
      "▁sist": 3674,
      "ttı": 3675,
      "ginde": 3676,
      "▁yatırım": 3677,
      "▁cocukları": 3678,
      "pan": 3679,
      "▁hesap": 3680,
      "▁animator": 3681,
      "ılıgı": 3682,
      "▁verdik": 3683,
      "▁kılav": 3684,
      "▁verme": 3685,
      "▁12'den": 3686,
      "▁masasında": 3687,
      "▁fırt": 3688,
      "▁bahan": 3689,
      "liyor": 3690,
      "isk": 3691,
      "▁komisyonlar": 3692,
      "aca": 3693,
      "▁gecesi": 3694,
      "▁bakmak": 3695,
      "▁depo": 3696,
      "layacagını": 3697,
      "▁gulums": 3698,
      "▁giz": 3699,
      "▁sozlesmesi": 3700,
      "▁girdi": 3701,
      "▁ign": 3702,
      "▁sonunda": 3703,
      "▁yuzyılın": 3704,
      "▁yo": 3705,
      "▁cıkmak": 3706,
      "▁suları": 3707,
      "▁ulk": 3708,
      "▁sip": 3709,
      "▁gorusmek": 3710,
      "ım": 3711,
      "▁taleb": 3712,
      "▁imparator": 3713,
      "▁taklit": 3714,
      "une": 3715,
      "▁sec": 3716,
      "▁defter": 3717,
      "▁itibaren": 3718,
      "▁yaptır": 3719,
      "▁yetkilisi": 3720,
      "▁noktası": 3721,
      "▁etkinlik": 3722,
      "lemeyi": 3723,
      "'na": 3724,
      "▁kole": 3725,
      "▁tren": 3726,
      "lig": 3727,
      "▁dolara": 3728,
      "▁hata": 3729,
      "▁tatile": 3730,
      "▁beyefendi": 3731,
      "▁islere": 3732,
      "▁lir": 3733,
      "▁toplantıda": 3734,
      "▁dr.": 3735,
      "tım": 3736,
      "▁protesto": 3737,
      "▁ilgili": 3738,
      "isinde": 3739,
      "▁sık": 3740,
      "▁dukkan": 3741,
      "▁birbirler": 3742,
      "▁pozisyon": 3743,
      "▁otek": 3744,
      "▁babası": 3745,
      "▁sirketlerinin": 3746,
      "▁beri": 3747,
      "▁hisselerini": 3748,
      "▁general": 3749,
      "▁hukmu": 3750,
      "▁tramvay": 3751,
      "▁saclarını": 3752,
      "▁mont": 3753,
      "▁ayakta": 3754,
      "▁kaldim": 3755,
      "▁federal": 3756,
      "▁rakib": 3757,
      "asindan": 3758,
      "▁hafız": 3759,
      "yar": 3760,
      "▁tedavulde": 3761,
      "▁yonel": 3762,
      "▁taham": 3763,
      "etli": 3764,
      "▁daima": 3765,
      "dın": 3766,
      "▁istedim": 3767,
      "▁gob": 3768,
      "▁sezlong": 3769,
      "onto": 3770,
      "5'ten": 3771,
      "▁cıktı": 3772,
      "▁gib": 3773,
      "▁re": 3774,
      "isel": 3775,
      "▁ona": 3776,
      "liginde": 3777,
      "bak": 3778,
      "▁mim": 3779,
      "iren": 3780,
      "▁domuz": 3781,
      "▁cog": 3782,
      "▁telaf": 3783,
      "▁kapasitesi": 3784,
      "▁bar": 3785,
      "▁kilis": 3786,
      "▁eser": 3787,
      "ville": 3788,
      "▁potansiy": 3789,
      "▁ortalaması": 3790,
      "▁yıld": 3791,
      "melidir": 3792,
      "▁yontem": 3793,
      "▁otele": 3794,
      "vr": 3795,
      "▁holding": 3796,
      "▁mevduat": 3797,
      "▁gelirleri": 3798,
      "▁kurumu": 3799,
      "▁biles": 3800,
      "▁duv": 3801,
      "▁kaliteye": 3802,
      "▁ayrı": 3803,
      "▁topu": 3804,
      "mli": 3805,
      "▁menfaat": 3806,
      "▁yapım": 3807,
      "▁ton": 3808,
      "iv": 3809,
      "dıg": 3810,
      "le": 3811,
      "▁par": 3812,
      "▁manz": 3813,
      "▁bilmem": 3814,
      "dev": 3815,
      "▁dunya": 3816,
      "8'den": 3817,
      "▁!..": 3818,
      "lugunun": 3819,
      "▁mon": 3820,
      "ladım": 3821,
      "▁sakin": 3822,
      "▁get": 3823,
      "9'a": 3824,
      "gun": 3825,
      "masının": 3826,
      "▁suru": 3827,
      "▁fuz": 3828,
      "▁denizin": 3829,
      "▁annem": 3830,
      "▁tuketici": 3831,
      "▁tutmak": 3832,
      "▁ustunde": 3833,
      "▁ilgil": 3834,
      "▁ikide": 3835,
      "lag": 3836,
      "▁inanc": 3837,
      "adaki": 3838,
      "osunu": 3839,
      "▁gecer": 3840,
      "▁maden": 3841,
      "▁ozlem": 3842,
      "▁gazete": 3843,
      "▁dukkanı": 3844,
      "mayı": 3845,
      "▁kızları": 3846,
      "anda": 3847,
      "▁olmad": 3848,
      "ee": 3849,
      "lıkta": 3850,
      "▁mektu": 3851,
      "▁rengi": 3852,
      "div": 3853,
      "▁sozunu": 3854,
      "▁kırm": 3855,
      "▁gomlek": 3856,
      "▁laz": 3857,
      "▁saatte": 3858,
      "▁konumu": 3859,
      "▁karsilik": 3860,
      "▁inc.": 3861,
      "laması": 3862,
      "atist": 3863,
      "/2": 3864,
      "▁seklinde": 3865,
      "▁paraları": 3866,
      "▁agrı": 3867,
      "nd": 3868,
      "▁oranlar": 3869,
      "▁kon": 3870,
      "lerden": 3871,
      "mıstım": 3872,
      "▁ortamda": 3873,
      "▁mutluluk": 3874,
      "bire": 3875,
      "▁bak": 3876,
      "▁dieg": 3877,
      "▁nok": 3878,
      "ip": 3879,
      "▁haz": 3880,
      "▁istek": 3881,
      "▁icimden": 3882,
      "▁kullan": 3883,
      "alarının": 3884,
      "▁calısması": 3885,
      "▁ucundan": 3886,
      "▁kayak": 3887,
      "▁hızla": 3888,
      "▁bulut": 3889,
      "▁gay": 3890,
      "▁alın": 3891,
      "▁/": 3892,
      "lardı": 3893,
      "▁basından": 3894,
      "ıgında": 3895,
      "▁onlem": 3896,
      "▁okum": 3897,
      "▁senar": 3898,
      "▁surecin": 3899,
      "▁ogul": 3900,
      "▁patlıc": 3901,
      "▁ruz": 3902,
      "▁iceri": 3903,
      "▁but": 3904,
      "▁performans": 3905,
      "▁belirtti": 3906,
      "ig": 3907,
      "▁atıs": 3908,
      "▁uyku": 3909,
      "▁oldugun": 3910,
      "tluk": 3911,
      "▁oncesinde": 3912,
      "▁tarife": 3913,
      "▁alt": 3914,
      "▁istiyorum": 3915,
      "▁anla": 3916,
      "▁uyarı": 3917,
      "▁malzemeler": 3918,
      "▁verdigini": 3919,
      "▁fes": 3920,
      "osunda": 3921,
      "▁gordu": 3922,
      "▁olursa": 3923,
      "▁cinayet": 3924,
      "ladık": 3925,
      "amaya": 3926,
      "seniz": 3927,
      "▁vide": 3928,
      "▁gec": 3929,
      "elik": 3930,
      "▁hoca": 3931,
      "▁arkasından": 3932,
      "▁organizasyon": 3933,
      "▁az": 3934,
      "▁cırp": 3935,
      "▁gerekir": 3936,
      "▁sigortası": 3937,
      "▁butc": 3938,
      "▁hesaba": 3939,
      "▁davranıs": 3940,
      "▁laik": 3941,
      "lardan": 3942,
      "▁kongre": 3943,
      "▁yok": 3944,
      "▁temizlik": 3945,
      "mer": 3946,
      "▁peyn": 3947,
      "ruk": 3948,
      "alog": 3949,
      "▁kahkaha": 3950,
      "ici": 3951,
      "man": 3952,
      "▁stratej": 3953,
      "▁tv": 3954,
      "▁fark": 3955,
      "▁vef": 3956,
      "▁huy": 3957,
      "▁sebebi": 3958,
      "▁dususu": 3959,
      "▁kaygı": 3960,
      "ele": 3961,
      "▁turb": 3962,
      "▁tasv": 3963,
      "▁yonet": 3964,
      "000": 3965,
      "alma": 3966,
      "▁pahali": 3967,
      "▁muhtemelen": 3968,
      "yabilir": 3969,
      "yıl": 3970,
      "▁paranın": 3971,
      "gul": 3972,
      "▁kravat": 3973,
      "alif": 3974,
      "zer": 3975,
      "▁yonelik": 3976,
      "asıl": 3977,
      "▁kasıgı": 3978,
      "▁bekledi": 3979,
      "▁ogleden": 3980,
      "▁normaldi": 3981,
      "▁misaf": 3982,
      "estr": 3983,
      "▁otede": 3984,
      "▁kansas": 3985,
      "▁yardimci": 3986,
      "▁iz": 3987,
      "▁yazık": 3988,
      "▁yolunda": 3989,
      "usten": 3990,
      "▁yerde": 3991,
      "▁alır": 3992,
      "▁degerlendiririm": 3993,
      "▁baslangıcı": 3994,
      "unden": 3995,
      "▁deh": 3996,
      "▁kamp": 3997,
      "lup": 3998,
      "▁ti": 3999,
      "men": 4000,
      "▁ekl": 4001,
      "▁emn": 4002,
      "gil": 4003,
      "▁raporları": 4004,
      "▁gerekti": 4005,
      "▁sonbah": 4006,
      "▁merkez": 4007,
      "kilerin": 4008,
      "▁yiyeceklerin": 4009,
      "▁kapat": 4010,
      "oker": 4011,
      "egor": 4012,
      "▁olmadıgını": 4013,
      "▁kuvvet": 4014,
      "▁do": 4015,
      "ıh": 4016,
      "izi": 4017,
      "▁mı": 4018,
      "▁lis": 4019,
      "▁ettiler": 4020,
      "▁lou": 4021,
      "▁bono": 4022,
      "▁donemde": 4023,
      "▁iki": 4024,
      "estir": 4025,
      "▁degil": 4026,
      "▁dolayı": 4027,
      "▁bakanı": 4028,
      "▁spons": 4029,
      "▁bilgisayar": 4030,
      "gre": 4031,
      "▁agız": 4032,
      "▁pansiyon": 4033,
      "▁govde": 4034,
      "▁tarafından": 4035,
      "mine": 4036,
      "▁vadede": 4037,
      "▁'": 4038,
      "▁kısm": 4039,
      "cıya": 4040,
      "▁destekl": 4041,
      "▁pazarı": 4042,
      "▁sonucunda": 4043,
      "▁tabii": 4044,
      "▁dakika": 4045,
      "medim": 4046,
      "▁yapı": 4047,
      "▁enflasyon": 4048,
      "▁zen": 4049,
      "mesine": 4050,
      "▁cihaz": 4051,
      "▁hele": 4052,
      "▁vap": 4053,
      "▁aln": 4054,
      "▁aktivit": 4055,
      "▁cesitliligi": 4056,
      "▁sahili": 4057,
      "azla": 4058,
      "▁reviz": 4059,
      "▁birtakım": 4060,
      "▁imkanlari": 4061,
      "▁4'ten": 4062,
      "▁kendimi": 4063,
      "▁b": 4064,
      "▁yak": 4065,
      "▁hurriyet": 4066,
      "▁odalarin": 4067,
      "▁parayı": 4068,
      "▁bulun": 4069,
      "okol": 4070,
      "▁washington": 4071,
      "▁ed": 4072,
      "▁bayan": 4073,
      "▁cumartesi": 4074,
      "▁hırsız": 4075,
      "▁eksikligi": 4076,
      "niz": 4077,
      "▁uretici": 4078,
      "▁numara": 4079,
      "▁calısmaya": 4080,
      "lıgımı": 4081,
      "▁gucluk": 4082,
      "▁edilir": 4083,
      "▁yuks": 4084,
      "▁yeni": 4085,
      "ige": 4086,
      "▁sonuclar": 4087,
      "lerdi": 4088,
      "▁degis": 4089,
      "▁kaz": 4090,
      "▁davası": 4091,
      "esiz": 4092,
      "▁it": 4093,
      "▁sid": 4094,
      "dıgın": 4095,
      "▁operator": 4096,
      "▁toplantısında": 4097,
      "▁fabrika": 4098,
      "▁rom": 4099,
      "▁tar": 4100,
      "qu": 4101,
      "▁azından": 4102,
      "▁aldıgı": 4103,
      "▁icimde": 4104,
      "oks": 4105,
      "▁basbakan": 4106,
      "ediyor": 4107,
      "gr": 4108,
      "▁cagır": 4109,
      "▁gosteriyor": 4110,
      "alar": 4111,
      "▁bolun": 4112,
      "▁tutarında": 4113,
      "▁philadel": 4114,
      "meleri": 4115,
      "▁col": 4116,
      "▁nere": 4117,
      "▁havayol": 4118,
      "larınız": 4119,
      "▁kas": 4120,
      "▁acıklanmadı": 4121,
      "▁dusunc": 4122,
      "▁calıs": 4123,
      "▁yuksel": 4124,
      "▁satısları": 4125,
      "dıgım": 4126,
      "▁hakkını": 4127,
      "cev": 4128,
      "leriniz": 4129,
      "▁asl": 4130,
      "▁teklifini": 4131,
      "▁listel": 4132,
      "ston": 4133,
      "imizde": 4134,
      "▁adımlarla": 4135,
      "▁odanın": 4136,
      "▁sigar": 4137,
      "▁yad": 4138,
      "▁derde": 4139,
      "▁tuvalet": 4140,
      "sun": 4141,
      "▁ciz": 4142,
      "isine": 4143,
      "bal": 4144,
      "liy": 4145,
      "▁sevinc": 4146,
      "▁poz": 4147,
      "▁sogu": 4148,
      "▁le": 4149,
      "▁kons": 4150,
      "▁hicbiri": 4151,
      "▁sebep": 4152,
      "▁olmustu": 4153,
      "▁kl": 4154,
      "▁saray": 4155,
      "▁dısarıda": 4156,
      "▁eylem": 4157,
      "▁cogu": 4158,
      "lenen": 4159,
      "▁sahipleri": 4160,
      "▁mad": 4161,
      "▁turn": 4162,
      "▁zehir": 4163,
      "▁yaptirdi": 4164,
      "▁muam": 4165,
      "▁meg": 4166,
      "▁cıg": 4167,
      "▁ucmak": 4168,
      "▁begen": 4169,
      "usunu": 4170,
      "▁buny": 4171,
      "▁bankaları": 4172,
      "▁gar": 4173,
      "ırt": 4174,
      "▁yolda": 4175,
      "▁pil": 4176,
      "▁harikaydi": 4177,
      "liginin": 4178,
      "▁franc": 4179,
      "▁seviye": 4180,
      "3": 4181,
      "tikten": 4182,
      "▁telefonda": 4183,
      "▁kapsamında": 4184,
      "▁agzına": 4185,
      "uldu": 4186,
      "▁karısının": 4187,
      "su": 4188,
      "▁buldum": 4189,
      "▁cev": 4190,
      "masi": 4191,
      "ların": 4192,
      "▁seyleri": 4193,
      "▁jap": 4194,
      "▁konferans": 4195,
      "▁sektorunde": 4196,
      "▁gormek": 4197,
      "eci": 4198,
      "acının": 4199,
      "▁cehen": 4200,
      "▁1.5": 4201,
      "▁leble": 4202,
      "▁istegi": 4203,
      "▁dik": 4204,
      "▁erk": 4205,
      "▁memnuniyeti": 4206,
      "▁firmanın": 4207,
      "▁sesi": 4208,
      "▁temizliginden": 4209,
      "▁men": 4210,
      "▁zayıf": 4211,
      "ıstı": 4212,
      "▁onur": 4213,
      "▁yuzunden": 4214,
      "itesi": 4215,
      "▁pazarın": 4216,
      "▁kaf": 4217,
      "akları": 4218,
      "▁hayret": 4219,
      "▁muht": 4220,
      "▁beyef": 4221,
      "▁bekledigini": 4222,
      "apon": 4223,
      "▁istihdam": 4224,
      "'n": 4225,
      "ie": 4226,
      "▁da": 4227,
      "▁bayr": 4228,
      "lak": 4229,
      "medigini": 4230,
      "e": 4231,
      "▁yolculuk": 4232,
      "▁vers": 4233,
      "lıgın": 4234,
      "elerden": 4235,
      "eh": 4236,
      "▁dor": 4237,
      "▁oldugu": 4238,
      "▁yarısı": 4239,
      "emden": 4240,
      "undan": 4241,
      "▁duzeyde": 4242,
      "▁konuya": 4243,
      "▁red": 4244,
      "▁kurumları": 4245,
      "ebilecegini": 4246,
      "▁baskalarına": 4247,
      "▁topragı": 4248,
      "▁gok": 4249,
      "▁tahvillerin": 4250,
      "▁getiri": 4251,
      "if": 4252,
      "▁tesekkur": 4253,
      "van": 4254,
      "▁temsil": 4255,
      "ugu": 4256,
      "uzu": 4257,
      "▁salonda": 4258,
      "▁ro": 4259,
      "▁endustri": 4260,
      "▁istif": 4261,
      "▁kıt": 4262,
      "▁sozlerini": 4263,
      "▁yasası": 4264,
      "ileri": 4265,
      "sir": 4266,
      "▁beklen": 4267,
      "oroz": 4268,
      "▁n": 4269,
      "▁key": 4270,
      "▁ilham": 4271,
      "▁hala": 4272,
      "▁memuru": 4273,
      "▁tak": 4274,
      "▁konsol": 4275,
      "▁biz": 4276,
      "▁ustunden": 4277,
      "▁gorgu": 4278,
      "▁havaalanı'nda": 4279,
      "▁inek": 4280,
      "▁rehber": 4281,
      "igi": 4282,
      "asında": 4283,
      "ıklık": 4284,
      "▁esk": 4285,
      "▁toplan": 4286,
      "▁cesidi": 4287,
      "▁cesitleri": 4288,
      "▁tedav": 4289,
      "▁itaat": 4290,
      "eceksin": 4291,
      "▁cey": 4292,
      "▁yenilik": 4293,
      "▁oglen": 4294,
      "acagı": 4295,
      "mesinin": 4296,
      "▁geceleri": 4297,
      "edigim": 4298,
      "▁parası": 4299,
      "▁eliyle": 4300,
      "▁avukatlar": 4301,
      "▁dısar": 4302,
      "▁day": 4303,
      "'si": 4304,
      "▁kopr": 4305,
      "▁partisi": 4306,
      "macı": 4307,
      "▁basarılı": 4308,
      "▁personellerden": 4309,
      "esinde": 4310,
      "▁sıkınt": 4311,
      "iydi": 4312,
      "▁kırık": 4313,
      "▁tered": 4314,
      "▁parcası": 4315,
      "▁kapasit": 4316,
      "▁gunumuzde": 4317,
      "p": 4318,
      "▁delikanlı": 4319,
      "▁sebeplerden": 4320,
      "enek": 4321,
      "▁sabır": 4322,
      "▁kısım": 4323,
      "▁kurul": 4324,
      "igine": 4325,
      "larında": 4326,
      "▁ar": 4327,
      "lamaları": 4328,
      "▁dog": 4329,
      "kuz": 4330,
      "▁kongr": 4331,
      "▁calısanı": 4332,
      "▁esnaf": 4333,
      "▁ısı": 4334,
      "▁eli": 4335,
      "▁buc": 4336,
      "▁akl": 4337,
      "eden": 4338,
      "▁dusun": 4339,
      "▁hayatını": 4340,
      "▁durumun": 4341,
      "▁jaguar": 4342,
      "▁seh": 4343,
      "▁evren": 4344,
      "▁hun": 4345,
      "▁kalkıs": 4346,
      "ıcılar": 4347,
      "▁dosy": 4348,
      "ınızda": 4349,
      "ustugunu": 4350,
      "▁tıp": 4351,
      "▁ayır": 4352,
      "▁finansman": 4353,
      "▁bilet": 4354,
      "mekten": 4355,
      "▁i": 4356,
      "burgh": 4357,
      "▁yatırımcıların": 4358,
      "▁ge": 4359,
      "eviz": 4360,
      "▁katı": 4361,
      "ya": 4362,
      "▁kaydı": 4363,
      "mektedir": 4364,
      "▁kıraat": 4365,
      "▁angeles": 4366,
      "▁sonucu": 4367,
      "▁su": 4368,
      "▁adi": 4369,
      "▁gorusuldu": 4370,
      "alarını": 4371,
      "uler": 4372,
      "un": 4373,
      "▁plat": 4374,
      "▁sayf": 4375,
      "▁cıkan": 4376,
      "▁yuzey": 4377,
      "/4": 4378,
      "andı": 4379,
      "▁zav": 4380,
      "▁dur": 4381,
      "▁kararı": 4382,
      "▁ig": 4383,
      "udu": 4384,
      "▁buzdol": 4385,
      "▁ozgur": 4386,
      "er": 4387,
      "▁uzakta": 4388,
      "▁hisselerinin": 4389,
      "▁mutlaka": 4390,
      "▁yerinde": 4391,
      "bi": 4392,
      "▁kalmadim": 4393,
      "▁muh": 4394,
      "▁basımı": 4395,
      "▁etmez": 4396,
      "▁hikay": 4397,
      "▁benzer": 4398,
      "▁oyle": 4399,
      "▁alım": 4400,
      "leket": 4401,
      "▁tahmin": 4402,
      "▁konak": 4403,
      "luluk": 4404,
      "▁moral": 4405,
      "▁kurus": 4406,
      "▁lafı": 4407,
      "▁bede": 4408,
      "tas": 4409,
      "ims": 4410,
      "▁yarın": 4411,
      "sman": 4412,
      "▁etmekten": 4413,
      "▁tun": 4414,
      "▁bo": 4415,
      "lik": 4416,
      "▁argum": 4417,
      "cum": 4418,
      "▁nedenlerden": 4419,
      "eksiyon": 4420,
      "likten": 4421,
      "anoz": 4422,
      "ore": 4423,
      "▁kasır": 4424,
      "▁politika": 4425,
      "▁plani": 4426,
      "▁dem": 4427,
      "aguar": 4428,
      "▁endek": 4429,
      "▁anket": 4430,
      "ka": 4431,
      "sızlık": 4432,
      "▁onlara": 4433,
      "▁ambar": 4434,
      "▁saba": 4435,
      "▁iyilik": 4436,
      "▁edecegini": 4437,
      "▁yonetimi": 4438,
      "▁arkasına": 4439,
      "▁elma": 4440,
      "ib": 4441,
      "▁bunun": 4442,
      "▁sertif": 4443,
      "jik": 4444,
      "ılıga": 4445,
      "▁dep": 4446,
      "▁naz": 4447,
      "▁sampiyon": 4448,
      "dikler": 4449,
      "nun": 4450,
      "▁ta": 4451,
      "▁luk": 4452,
      "kce": 4453,
      "larak": 4454,
      "nc": 4455,
      "til": 4456,
      "▁class": 4457,
      "▁kral": 4458,
      "▁acıklam": 4459,
      "▁pis": 4460,
      "▁fonları": 4461,
      "▁yarım": 4462,
      "▁ayrıl": 4463,
      "▁mesafe": 4464,
      "siz": 4465,
      "▁yag": 4466,
      "ısın": 4467,
      "▁kol": 4468,
      "▁ir": 4469,
      "▁yetkililer": 4470,
      "▁yazarın": 4471,
      "▁dusuncelerini": 4472,
      "▁fedakar": 4473,
      "▁lakırtı": 4474,
      "ının": 4475,
      "▁ifade": 4476,
      "▁alısveris": 4477,
      "arip": 4478,
      "▁tabak": 4479,
      "▁onumuz": 4480,
      "des": 4481,
      "▁gelmek": 4482,
      "▁pul": 4483,
      "lerinin": 4484,
      "▁ikinci": 4485,
      "▁akın": 4486,
      "▁eroin": 4487,
      "▁oden": 4488,
      "▁arastırma": 4489,
      "▁demektir": 4490,
      "▁kullanım": 4491,
      "atı": 4492,
      "▁rap": 4493,
      "ational": 4494,
      "▁ortaya": 4495,
      "▁tulum": 4496,
      "▁basta": 4497,
      "▁asagı": 4498,
      "▁karg": 4499,
      "▁1988'de": 4500,
      "▁meyhan": 4501,
      "▁sorunu": 4502,
      "▁avukatları": 4503,
      "▁mem": 4504,
      "b": 4505,
      "▁ilgililerdi": 4506,
      "▁karsısına": 4507,
      "▁kızlar": 4508,
      "▁anti": 4509,
      "▁belir": 4510,
      "▁geldim": 4511,
      "▁evlere": 4512,
      "▁tan": 4513,
      "▁cocuklug": 4514,
      "▁delik": 4515,
      "sin": 4516,
      "▁oturum": 4517,
      "▁havaalan": 4518,
      "▁kut": 4519,
      "▁yemeklerinden": 4520,
      "▁tezgah": 4521,
      "▁espr": 4522,
      "▁azal": 4523,
      "▁ulastı": 4524,
      "▁alk": 4525,
      "▁rast": 4526,
      "▁yonetim": 4527,
      "▁yeryuz": 4528,
      "▁evlerinin": 4529,
      "▁alacak": 4530,
      "ub": 4531,
      "▁tipi": 4532,
      "▁bilg": 4533,
      "▁agacı": 4534,
      "▁gecir": 4535,
      "▁dedikodu": 4536,
      "▁cem": 4537,
      "'ni": 4538,
      "adem": 4539,
      "▁dı": 4540,
      "yarak": 4541,
      "aat": 4542,
      "▁duruyor": 4543,
      "▁boyunca": 4544,
      "erleri": 4545,
      "dug": 4546,
      "manın": 4547,
      "▁epe": 4548,
      "'nı": 4549,
      "▁elbette": 4550,
      "▁artısla": 4551,
      "▁sim": 4552,
      "▁aktif": 4553,
      "▁mill": 4554,
      "▁has": 4555,
      "▁depremin": 4556,
      "▁dus": 4557,
      "▁kars": 4558,
      "otuz": 4559,
      "▁iscileri": 4560,
      "anti": 4561,
      "▁deyim": 4562,
      "▁ata": 4563,
      "▁ticarette": 4564,
      "▁yine": 4565,
      "▁yirmi": 4566,
      "▁kelimeyle": 4567,
      "▁karsılastır": 4568,
      "▁giysi": 4569,
      "alan": 4570,
      "▁boyle": 4571,
      "▁burn": 4572,
      "▁alım-satım": 4573,
      "▁seks": 4574,
      "ult": 4575,
      "▁cav": 4576,
      "▁durak": 4577,
      "▁oturdu": 4578,
      "▁tabl": 4579,
      "▁personelleri": 4580,
      "▁hissedar": 4581,
      "▁degerlendirmeye": 4582,
      "▁personeller": 4583,
      "▁evlilik": 4584,
      "▁mun": 4585,
      "▁okulu": 4586,
      "▁posta": 4587,
      "emiz": 4588,
      "arl": 4589,
      "▁ban": 4590,
      "▁paket": 4591,
      "▁bildir": 4592,
      "▁aj": 4593,
      "▁ucreti": 4594,
      "▁arkadas": 4595,
      "▁aca": 4596,
      "▁washington'a": 4597,
      "▁tom": 4598,
      "ulmus": 4599,
      "▁baslamıs": 4600,
      "▁yay": 4601,
      "ograf": 4602,
      "▁kisilik": 4603,
      "▁verildi": 4604,
      "▁yav": 4605,
      "ecegi": 4606,
      "▁sob": 4607,
      "▁gitti": 4608,
      "▁beyan": 4609,
      "▁anayas": 4610,
      "leriyle": 4611,
      "▁kalktı": 4612,
      "▁ner": 4613,
      "▁tahminlerinin": 4614,
      "▁sinem": 4615,
      "▁galiba": 4616,
      "ast": 4617,
      "▁tarih": 4618,
      "ladılar": 4619,
      "▁dedik": 4620,
      "#": 4621,
      "▁finans": 4622,
      "▁sıv": 4623,
      "▁heyet": 4624,
      "asın": 4625,
      "▁kes": 4626,
      "▁bahceye": 4627,
      "▁yakıt": 4628,
      "▁daha": 4629,
      "▁cekir": 4630,
      "anc": 4631,
      "▁vegas": 4632,
      "imli": 4633,
      "▁yuzume": 4634,
      "to": 4635,
      "▁isinin": 4636,
      "▁suyun": 4637,
      "ist": 4638,
      "▁danıs": 4639,
      "▁ortalam": 4640,
      "▁198": 4641,
      "▁ornek": 4642,
      "▁kardes": 4643,
      "ıl": 4644,
      "▁dagıt": 4645,
      "deydi": 4646,
      "▁kaynakları": 4647,
      "▁farkında": 4648,
      "▁kosede": 4649,
      "▁oglum": 4650,
      "▁uzerinden": 4651,
      "▁rakam": 4652,
      "▁rekor": 4653,
      "▁bahc": 4654,
      "▁sezlon": 4655,
      "▁nesil": 4656,
      "▁alem": 4657,
      "nem": 4658,
      "▁beyn": 4659,
      "▁prens": 4660,
      "▁sop": 4661,
      "lenmek": 4662,
      "lum": 4663,
      "sat": 4664,
      "▁zam": 4665,
      "atın": 4666,
      "▁turkc": 4667,
      "▁tenc": 4668,
      "▁personellerin": 4669,
      "▁acıdan": 4670,
      "▁fena": 4671,
      "▁adına": 4672,
      "leyi": 4673,
      "▁basamak": 4674,
      "▁kenarında": 4675,
      "▁boston": 4676,
      "nız": 4677,
      "▁diger": 4678,
      "▁lid": 4679,
      "▁yollarını": 4680,
      "▁ordu": 4681,
      "ten": 4682,
      "▁ofk": 4683,
      "▁uzun": 4684,
      "▁kek": 4685,
      "▁ekim": 4686,
      "▁kutup": 4687,
      "est": 4688,
      "▁geli": 4689,
      "▁sembol": 4690,
      "lac": 4691,
      "▁baltimore'den": 4692,
      "▁jur": 4693,
      "▁fren": 4694,
      "ph": 4695,
      "▁bastan": 4696,
      "tarı": 4697,
      "▁kampanyalar": 4698,
      "▁for": 4699,
      "▁im": 4700,
      "▁guz": 4701,
      "▁3/": 4702,
      "sınız": 4703,
      "ıldı": 4704,
      "▁artısı": 4705,
      "▁kalabal": 4706,
      "▁kis": 4707,
      "erli": 4708,
      "▁ener": 4709,
      "▁caba": 4710,
      "▁bira": 4711,
      "▁ora": 4712,
      "▁tehlik": 4713,
      "▁laborat": 4714,
      "▁coktu": 4715,
      "ıyor": 4716,
      "▁gerekcesiyle": 4717,
      "ansız": 4718,
      "▁sark": 4719,
      "ızlı": 4720,
      "▁pa": 4721,
      "▁kagıd": 4722,
      "enli": 4723,
      "edef": 4724,
      "mistim": 4725,
      "▁harit": 4726,
      "▁hukumdar": 4727,
      "ısır": 4728,
      "be": 4729,
      "abet": 4730,
      "▁gozuyle": 4731,
      "iyoruz": 4732,
      "▁tahvil": 4733,
      "▁kosulları": 4734,
      "dum": 4735,
      "meli": 4736,
      "▁plaji": 4737,
      "▁superdi": 4738,
      "▁eda": 4739,
      "▁tarif": 4740,
      "mesinden": 4741,
      "▁anay": 4742,
      "▁krizi": 4743,
      "▁dair": 4744,
      "▁is": 4745,
      "▁hedefi": 4746,
      "▁turist": 4747,
      "▁erken": 4748,
      "▁bilim": 4749,
      "▁ardında": 4750,
      "▁anlam": 4751,
      "icisi": 4752,
      "▁alıs": 4753,
      "▁yeterince": 4754,
      "▁yık": 4755,
      "imleri": 4756,
      "▁dilek": 4757,
      "dirme": 4758,
      "▁cıkmıs": 4759,
      "▁uz": 4760,
      "ence": 4761,
      "▁tadimiza": 4762,
      "▁edil": 4763,
      "▁kec": 4764,
      "▁cel": 4765,
      "in": 4766,
      "ik": 4767,
      "sunuz": 4768,
      "alarıyla": 4769,
      "▁dogr": 4770,
      "ve": 4771,
      "lesti": 4772,
      "▁basıma": 4773,
      "ark": 4774,
      "▁kanat": 4775,
      "gur": 4776,
      "▁lah": 4777,
      "▁8'den": 4778,
      "▁nelerdir": 4779,
      "istan": 4780,
      "▁div": 4781,
      "▁yanlıs": 4782,
      "▁sonda": 4783,
      "▁hediy": 4784,
      "▁kosesinde": 4785,
      "▁mallar": 4786,
      "uru": 4787,
      "▁ilk": 4788,
      "▁yudum": 4789,
      "lge": 4790,
      "▁21": 4791,
      "▁perde": 4792,
      "▁kayıt": 4793,
      "maması": 4794,
      "▁sarf": 4795,
      "▁seref": 4796,
      "▁oteli": 4797,
      "▁itiraf": 4798,
      "▁ter": 4799,
      "▁karın": 4800,
      "9": 4801,
      "▁yastık": 4802,
      "▁almıs": 4803,
      "ht": 4804,
      "▁satım": 4805,
      "ları": 4806,
      "mızı": 4807,
      "iyeler": 4808,
      "▁komplek": 4809,
      "▁7": 4810,
      "▁nedeniyle": 4811,
      "▁sekreter": 4812,
      "▁sehirde": 4813,
      "▁lig": 4814,
      "lanmadı": 4815,
      "emizin": 4816,
      "▁mayıs": 4817,
      "▁kosesine": 4818,
      "▁cidd": 4819,
      "▁okuyucu": 4820,
      "▁sıkı": 4821,
      "▁haberdar": 4822,
      "▁kahvaltı": 4823,
      "▁kanı": 4824,
      "▁herkes": 4825,
      "▁anlas": 4826,
      "▁galib": 4827,
      "isyon": 4828,
      "oloj": 4829,
      "▁kısmı": 4830,
      "otu": 4831,
      "taj": 4832,
      "▁tabir": 4833,
      "▁onem": 4834,
      "emde": 4835,
      "▁beklent": 4836,
      "▁grub": 4837,
      "▁gal": 4838,
      "▁surekli": 4839,
      "lanır": 4840,
      "▁gorev": 4841,
      "▁suph": 4842,
      "▁agzından": 4843,
      "▁farkı": 4844,
      "▁bıc": 4845,
      "▁ulke": 4846,
      "▁eks": 4847,
      "▁cumhurb": 4848,
      "▁dagı": 4849,
      "▁tadı": 4850,
      "▁misiniz": 4851,
      "▁sıg": 4852,
      "fa": 4853,
      "lerin": 4854,
      "▁kahve": 4855,
      "▁bulgu": 4856,
      "▁sauna": 4857,
      "gır": 4858,
      "▁bilmiyorum": 4859,
      "▁bank": 4860,
      "digini": 4861,
      "ill": 4862,
      "▁cumhurbaskanı": 4863,
      "▁inc": 4864,
      "▁kitapta": 4865,
      "▁ası": 4866,
      "▁herkesi": 4867,
      "▁oluyordu": 4868,
      "▁kalemi": 4869,
      "▁tiyatrosu": 4870,
      "ecegini": 4871,
      "▁oteki": 4872,
      "maları": 4873,
      "▁pazarlama": 4874,
      "▁yanına": 4875,
      "tansiy": 4876,
      "▁cocuklara": 4877,
      "▁havayollarını": 4878,
      "▁guleryuzlu": 4879,
      "forlu": 4880,
      "ılma": 4881,
      "▁vet": 4882,
      "▁yili": 4883,
      "▁%": 4884,
      "▁ka": 4885,
      "▁yes": 4886,
      "▁kaza": 4887,
      "▁kuru": 4888,
      "▁adr": 4889,
      "ında": 4890,
      "▁vurdu": 4891,
      "sizlik": 4892,
      "▁haft": 4893,
      "▁satmak": 4894,
      "▁pros": 4895,
      "tim": 4896,
      "▁ucak": 4897,
      "▁uslu": 4898,
      "▁merm": 4899,
      "gesi": 4900,
      "leyici": 4901,
      "lastik": 4902,
      "▁kurulus": 4903,
      "▁borsası": 4904,
      "▁ufak": 4905,
      "▁ucusunun": 4906,
      "▁ga": 4907,
      "eg": 4908,
      "'dan": 4909,
      "▁etrafına": 4910,
      "ap": 4911,
      "▁olu": 4912,
      "▁basarı": 4913,
      "vas": 4914,
      "▁anlamına": 4915,
      "ucc": 4916,
      "▁ucret": 4917,
      "yum": 4918,
      "▁kala": 4919,
      "▁ufuk": 4920,
      "▁kıymetler": 4921,
      "gah": 4922,
      "lerinden": 4923,
      "▁duserek": 4924,
      "▁14": 4925,
      "▁fır": 4926,
      "▁bile": 4927,
      "▁kasım": 4928,
      "▁harekete": 4929,
      "▁ucuna": 4930,
      "▁deneyim": 4931,
      "▁kuvv": 4932,
      "mad": 4933,
      "▁ogrenciler": 4934,
      "▁tatmin": 4935,
      "▁gev": 4936,
      "▁kontr": 4937,
      "erler": 4938,
      "▁doları'ndan": 4939,
      "etin": 4940,
      "▁kuv": 4941,
      "alarına": 4942,
      "▁kadr": 4943,
      "▁ero": 4944,
      "askanı": 4945,
      "▁idar": 4946,
      "▁satıcı": 4947,
      "▁geliri": 4948,
      "▁lun": 4949,
      "umu": 4950,
      "▁mıs": 4951,
      "▁atlanta": 4952,
      "▁turuna": 4953,
      "▁bankanın": 4954,
      "ayol": 4955,
      "▁icecek": 4956,
      "▁titr": 4957,
      "laya": 4958,
      "uyorum": 4959,
      "emiyorum": 4960,
      "▁basit": 4961,
      "▁ozen": 4962,
      "▁fiyat": 4963,
      "▁ikna": 4964,
      "esti": 4965,
      "▁portakal": 4966,
      "▁yapılanma": 4967,
      "agını": 4968,
      "▁tarla": 4969,
      "▁lideri": 4970,
      "▁kur": 4971,
      "▁lisans": 4972,
      "▁ilgilen": 4973,
      "▁cevabı": 4974,
      "▁masaya": 4975,
      "▁dedim": 4976,
      "ıgının": 4977,
      "▁sonu": 4978,
      "▁parc": 4979,
      "▁soyley": 4980,
      "▁basvur": 4981,
      "▁ydı": 4982,
      "▁sandık": 4983,
      "▁isciler": 4984,
      "▁dısisleri": 4985,
      "▁butce": 4986,
      "▁hucum": 4987,
      "eket": 4988,
      "▁kok": 4989,
      "▁aks": 4990,
      "landı": 4991,
      "ash": 4992,
      "▁gelecegi": 4993,
      "▁tarafında": 4994,
      "legi": 4995,
      "▁alma": 4996,
      "▁ureticileri": 4997,
      "▁aralarında": 4998,
      "▁cesit": 4999,
      "▁sırt": 5000,
      "▁eslik": 5001,
      "▁basım": 5002,
      "lbu": 5003,
      "ladi": 5004,
      "lerinde": 5005,
      "▁taslar": 5006,
      "inc": 5007,
      "▁silah": 5008,
      "▁halat": 5009,
      "▁baglant": 5010,
      "▁pet": 5011,
      "▁gerekse": 5012,
      "miyordu": 5013,
      "tay": 5014,
      "▁elli": 5015,
      "▁koz": 5016,
      "▁yakinlarima": 5017,
      "▁tanrı": 5018,
      "▁veri": 5019,
      "▁asam": 5020,
      "detti": 5021,
      "▁olması": 5022,
      "ar": 5023,
      "▁gum": 5024,
      "▁zeka": 5025,
      "▁tuz": 5026,
      "ab": 5027,
      "agi": 5028,
      "▁dek": 5029,
      "▁eti": 5030,
      "▁daire": 5031,
      "dak": 5032,
      "▁ekonominin": 5033,
      "▁hatta": 5034,
      "liye": 5035,
      "lerek": 5036,
      "▁degildir": 5037,
      "▁hepimiz": 5038,
      "▁tı": 5039,
      "▁siv": 5040,
      "▁dernegi": 5041,
      "▁azdi": 5042,
      "ster": 5043,
      "▁dısı": 5044,
      "yım": 5045,
      "▁adet": 5046,
      "▁yazarı": 5047,
      "▁olduklarını": 5048,
      "▁sistemleri": 5049,
      "▁baskanlık": 5050,
      "▁bab": 5051,
      "tıp": 5052,
      "▁hazırlan": 5053,
      "▁alev": 5054,
      "▁mademki": 5055,
      "▁senat": 5056,
      "okr": 5057,
      "▁oksur": 5058,
      "▁4": 5059,
      "▁nefret": 5060,
      "ıldıgında": 5061,
      "▁pr": 5062,
      "▁bankaların": 5063,
      "lastı": 5064,
      "▁taht": 5065,
      "deki": 5066,
      "usuyla": 5067,
      "▁bıcak": 5068,
      "▁egil": 5069,
      "ep": 5070,
      "▁edilmesi": 5071,
      "▁adama": 5072,
      "▁kulub": 5073,
      "▁ecz": 5074,
      "▁ilkbah": 5075,
      "▁isgal": 5076,
      "▁hastalıgı": 5077,
      "▁radyo": 5078,
      "▁isine": 5079,
      "▁ileri": 5080,
      "▁dısında": 5081,
      "uklu": 5082,
      "▁iskonto": 5083,
      "▁kapas": 5084,
      "▁hisselerin": 5085,
      "▁kaybet": 5086,
      "▁arastır": 5087,
      "▁okul": 5088,
      "▁actı": 5089,
      "cinin": 5090,
      "▁stan": 5091,
      "▁mıy": 5092,
      "▁ihtiyacım": 5093,
      "▁komut": 5094,
      "alarla": 5095,
      "▁icin": 5096,
      "▁olun": 5097,
      "▁alıp": 5098,
      "lılıgını": 5099,
      "▁seyinden": 5100,
      "▁balayi": 5101,
      "▁mumkun": 5102,
      "▁vek": 5103,
      "▁po": 5104,
      "▁manzarasi": 5105,
      "▁hapis": 5106,
      "▁yuzluydu": 5107,
      "▁gelmedi": 5108,
      "▁kacak": 5109,
      "▁vermek": 5110,
      "▁temsilcileri": 5111,
      "▁carte": 5112,
      ".4": 5113,
      "▁alıcılar": 5114,
      "lugun": 5115,
      "▁goturdu": 5116,
      "▁zira": 5117,
      "▁bera": 5118,
      "▁efsan": 5119,
      "▁uyan": 5120,
      "misti": 5121,
      "ina": 5122,
      "▁sahip": 5123,
      "▁kopek": 5124,
      "cular": 5125,
      "▁kıyıya": 5126,
      "etti": 5127,
      "▁animasyonu": 5128,
      "▁politik": 5129,
      "▁zincir": 5130,
      "▁tatli": 5131,
      "▁muddet": 5132,
      "alam": 5133,
      "▁boz": 5134,
      "▁bahsederim": 5135,
      "▁barın": 5136,
      "▁miting": 5137,
      "▁metre": 5138,
      "▁arkad": 5139,
      "▁ayda": 5140,
      "mayacak": 5141,
      "▁anne": 5142,
      "▁islem": 5143,
      "▁ediyordu": 5144,
      "am": 5145,
      "▁teklifin": 5146,
      "ola": 5147,
      "eland": 5148,
      "▁yasamını": 5149,
      "▁ihr": 5150,
      "▁evinde": 5151,
      "amıyor": 5152,
      "▁dinlemek": 5153,
      "▁sigort": 5154,
      "▁dost": 5155,
      "▁istis": 5156,
      "▁semt": 5157,
      "▁bilgileri": 5158,
      "▁uzmanları": 5159,
      "lug": 5160,
      "▁geril": 5161,
      "▁kendime": 5162,
      "ızı": 5163,
      "lu": 5164,
      "▁gide": 5165,
      "▁eksiklik": 5166,
      "ydi": 5167,
      "ustos": 5168,
      "▁arkadasları": 5169,
      "bilir": 5170,
      "▁vakıf": 5171,
      "▁ayıp": 5172,
      "▁hak": 5173,
      "rsı": 5174,
      "▁seg": 5175,
      "▁prop": 5176,
      "▁onayına": 5177,
      "▁gelistir": 5178,
      "▁ettim": 5179,
      "▁ahlak": 5180,
      "umlu": 5181,
      "▁stand": 5182,
      "▁emek": 5183,
      "▁yola": 5184,
      "▁gun": 5185,
      "▁milletin": 5186,
      "▁piyasalar": 5187,
      "anmıs": 5188,
      "kiz": 5189,
      "▁japonya": 5190,
      "ılmaya": 5191,
      "lıklı": 5192,
      "ban": 5193,
      "▁karsıtı": 5194,
      "▁sut": 5195,
      "▁ort": 5196,
      "▁saadet": 5197,
      "▁dev": 5198,
      "▁temet": 5199,
      "▁sahit": 5200,
      "▁altında": 5201,
      "ete": 5202,
      "▁lev": 5203,
      "▁ortalama": 5204,
      "usunda": 5205,
      "▁0.": 5206,
      "▁tuv": 5207,
      "anını": 5208,
      "▁tedarik": 5209,
      "▁bicimde": 5210,
      "▁dolap": 5211,
      "▁canı": 5212,
      "iyete": 5213,
      "▁tamamı": 5214,
      "▁zarf": 5215,
      "▁birik": 5216,
      "▁teknoloj": 5217,
      "▁anlasma": 5218,
      "▁ofis": 5219,
      "▁vic": 5220,
      "▁tamam": 5221,
      "▁sozler": 5222,
      "▁buraya": 5223,
      "▁kirpik": 5224,
      "alık": 5225,
      "▁karsı": 5226,
      "edik": 5227,
      "▁islemlerde": 5228,
      "▁sahne": 5229,
      "▁cez": 5230,
      "ugum": 5231,
      "▁ediyoruz": 5232,
      "▁ettigi": 5233,
      "▁personellerinden": 5234,
      "ikleri": 5235,
      "▁mahkum": 5236,
      "▁ongor": 5237,
      "▁cun": 5238,
      "▁gaf": 5239,
      "▁subat": 5240,
      "▁kirp": 5241,
      "bah": 5242,
      "▁yer": 5243,
      "▁cleveland": 5244,
      "atik": 5245,
      "dur": 5246,
      "ro": 5247,
      "▁diy": 5248,
      "mıyordu": 5249,
      "eyim": 5250,
      "▁para": 5251,
      "▁piyasada": 5252,
      "eki": 5253,
      "▁danısmanı": 5254,
      "lip": 5255,
      "▁durumu": 5256,
      "▁cig": 5257,
      "▁gaz": 5258,
      "▁otelden": 5259,
      "▁borcu": 5260,
      "minde": 5261,
      "▁turk": 5262,
      "▁kenarları": 5263,
      "▁yang": 5264,
      "1'e": 5265,
      "▁ham": 5266,
      "▁icinde": 5267,
      "▁almak": 5268,
      "▁airlin": 5269,
      "▁uzer": 5270,
      "larımız": 5271,
      "wa": 5272,
      "iligi": 5273,
      "▁hosg": 5274,
      "▁puandan": 5275,
      "▁temyiz": 5276,
      "▁kosullar": 5277,
      "▁ser": 5278,
      "▁sefer": 5279,
      "amay": 5280,
      "sek": 5281,
      "▁pam": 5282,
      "▁atesi": 5283,
      "i'nin": 5284,
      "▁gozler": 5285,
      "▁yanıt": 5286,
      "istim": 5287,
      "▁kafa": 5288,
      "▁gibi": 5289,
      "▁istem": 5290,
      "▁yuzyıl": 5291,
      "▁ucuyor": 5292,
      "▁%8": 5293,
      "▁kopru": 5294,
      "alı": 5295,
      "▁planını": 5296,
      "▁og": 5297,
      "▁hizmetinden": 5298,
      "▁1990'da": 5299,
      "▁suresi": 5300,
      "edigi": 5301,
      "▁kel": 5302,
      "▁kalabalık": 5303,
      "'daki": 5304,
      "▁seydi": 5305,
      "▁terbiy": 5306,
      "▁dum": 5307,
      "▁market": 5308,
      "▁cozum": 5309,
      "isi": 5310,
      "▁miras": 5311,
      "kı": 5312,
      "▁urunlerin": 5313,
      "▁birligi": 5314,
      "00'den": 5315,
      "izma": 5316,
      "▁tencer": 5317,
      "ıyordum": 5318,
      "▁ok": 5319,
      "▁atlanta'dan": 5320,
      "▁tekn": 5321,
      "anlardan": 5322,
      "▁hayatı": 5323,
      "-a": 5324,
      "abileceg": 5325,
      "▁karı": 5326,
      "ırlar": 5327,
      "ılmak": 5328,
      "▁ismi": 5329,
      "▁op": 5330,
      "▁lık": 5331,
      "▁sırtında": 5332,
      "larımıza": 5333,
      "gum": 5334,
      "len": 5335,
      "▁kimi": 5336,
      "▁sol": 5337,
      "▁yoksa": 5338,
      "▁yiyecek": 5339,
      "▁davaya": 5340,
      "▁komp": 5341,
      "▁ciftciler": 5342,
      "▁dogrudan": 5343,
      "yol": 5344,
      "▁fel": 5345,
      "▁aktar": 5346,
      "▁ince": 5347,
      "▁yapmayı": 5348,
      "▁dert": 5349,
      "▁sayısı": 5350,
      "enden": 5351,
      "▁hizm": 5352,
      "ibi": 5353,
      "▁yatırımcı": 5354,
      "▁plastik": 5355,
      "mma": 5356,
      "'yı": 5357,
      "mıyorum": 5358,
      "▁duvar": 5359,
      "▁karsıya": 5360,
      "▁co.": 5361,
      "▁hip": 5362,
      "▁edebil": 5363,
      "▁kolunu": 5364,
      "landıgını": 5365,
      "▁olmus": 5366,
      "▁tekrar": 5367,
      "▁soylediler": 5368,
      "▁esir": 5369,
      ",": 5370,
      "▁kalmadı": 5371,
      "▁ekib": 5372,
      "▁sair": 5373,
      "▁ittif": 5374,
      "fı": 5375,
      "▁olmayacak": 5376,
      "▁demokras": 5377,
      "▁teori": 5378,
      "'a": 5379,
      "cilik": 5380,
      "▁ceh": 5381,
      "▁hitap": 5382,
      "ost": 5383,
      "▁skan": 5384,
      "ulur": 5385,
      "▁genel": 5386,
      "▁las": 5387,
      "cuları": 5388,
      "▁edep": 5389,
      "asının": 5390,
      "▁milwaukee": 5391,
      "▁onceden": 5392,
      "▁devr": 5393,
      "me": 5394,
      "elerinin": 5395,
      "▁acıldı": 5396,
      "rını": 5397,
      "▁semp": 5398,
      "elli": 5399,
      "▁-": 5400,
      "▁tas": 5401,
      "▁yazı": 5402,
      "▁pes": 5403,
      "▁sovyetler": 5404,
      "▁sak": 5405,
      "▁birdenbire": 5406,
      "uydu": 5407,
      "ada": 5408,
      "▁bakır": 5409,
      "ogu": 5410,
      "▁ves": 5411,
      "▁nob": 5412,
      "▁genis": 5413,
      "ho": 5414,
      "▁konustu": 5415,
      "▁bostan": 5416,
      "lıgına": 5417,
      "▁yasak": 5418,
      "▁kayıplar": 5419,
      "▁varan": 5420,
      "▁sehr": 5421,
      "eticiler": 5422,
      "mesini": 5423,
      "ende": 5424,
      "▁bocek": 5425,
      "asır": 5426,
      "▁dunyayı": 5427,
      "anla": 5428,
      "▁soluk": 5429,
      "▁ilac": 5430,
      "▁aday": 5431,
      "▁yılından": 5432,
      "kel": 5433,
      "▁kak": 5434,
      "▁pazar": 5435,
      "▁egilim": 5436,
      "lam": 5437,
      "▁duyg": 5438,
      "▁united": 5439,
      "iy": 5440,
      "enler": 5441,
      "▁arzu": 5442,
      "ose": 5443,
      "▁tekl": 5444,
      "▁anası": 5445,
      "ege": 5446,
      "▁gor": 5447,
      "▁fırc": 5448,
      "▁halbuki": 5449,
      "▁tıras": 5450,
      "▁yardımcısı": 5451,
      "▁elimden": 5452,
      "ıcı": 5453,
      "istel": 5454,
      "▁devam": 5455,
      "ısını": 5456,
      "must": 5457,
      "ebilirim": 5458,
      "▁halk": 5459,
      "▁rakamlar": 5460,
      "▁atmak": 5461,
      "[CLS]": 5462,
      "▁memleketin": 5463,
      "’": 5464,
      "sel": 5465,
      "▁ama": 5466,
      "▁wash": 5467,
      "▁suc": 5468,
      "ars": 5469,
      "▁pus": 5470,
      "▁yukselerek": 5471,
      "ıp": 5472,
      "inlik": 5473,
      "▁sandal": 5474,
      "▁peyniri": 5475,
      "▁annemin": 5476,
      "ida": 5477,
      "▁ardına": 5478,
      "▁mu": 5479,
      "▁sizi": 5480,
      "▁soya": 5481,
      "▁gunluk": 5482,
      ".1": 5483,
      "anıs": 5484,
      "▁asır": 5485,
      "o'ya": 5486,
      "umun": 5487,
      "▁ice": 5488,
      "▁gazin": 5489,
      "▁zamanlarda": 5490,
      "▁takdir": 5491,
      "irdi": 5492,
      "▁hal": 5493,
      "cileri": 5494,
      "▁uygulam": 5495,
      "▁malzeme": 5496,
      "ırmak": 5497,
      "ımızı": 5498,
      "dıgımı": 5499,
      "▁dahil": 5500,
      "inler": 5501,
      "luydu": 5502,
      "▁uy": 5503,
      "▁faturami": 5504,
      "onelik": 5505,
      "▁turku": 5506,
      "▁es": 5507,
      "▁ucmam": 5508,
      "aleti": 5509,
      "▁cumhuriyet": 5510,
      "urdu": 5511,
      "▁teklif": 5512,
      "▁savas": 5513,
      "▁gider": 5514,
      "▁mahall": 5515,
      "dıgımız": 5516,
      "eti": 5517,
      "1": 5518,
      "▁edin": 5519,
      "▁profes": 5520,
      "suz": 5521,
      "izm": 5522,
      "▁egit": 5523,
      "▁ec": 5524,
      "▁aslan": 5525,
      "▁milyar": 5526,
      "gim": 5527,
      "arlar": 5528,
      "25": 5529,
      "▁sekiz": 5530,
      "diginden": 5531,
      "rlik": 5532,
      "lıg": 5533,
      "▁isterim": 5534,
      "▁arttıgını": 5535,
      "▁yıl": 5536,
      "unce": 5537,
      "mki": 5538,
      "ank": 5539,
      "▁yerini": 5540,
      "▁bolge": 5541,
      "▁gormedim": 5542,
      "▁evlerin": 5543,
      "ku": 5544,
      "▁meyv": 5545,
      "▁oyuncusu": 5546,
      "▁tarihe": 5547,
      "▁karmas": 5548,
      "▁faal": 5549,
      "▁kalit": 5550,
      "▁yukselisle": 5551,
      "elen": 5552,
      "▁ana": 5553,
      "▁gorul": 5554,
      "▁gemi": 5555,
      "lamıstı": 5556,
      "▁boston'dan": 5557,
      "▁eksiklikler": 5558,
      "▁kolon": 5559,
      "▁aktarma": 5560,
      "▁veg": 5561,
      "▁ayrıca": 5562,
      "▁kayı": 5563,
      "esem": 5564,
      "▁hiz": 5565,
      "▁ekonomi": 5566,
      "umuzde": 5567,
      "ımızdan": 5568,
      "▁agabey": 5569,
      "▁sanat": 5570,
      "reet": 5571,
      "▁kanal": 5572,
      "▁sona": 5573,
      "▁ilgis": 5574,
      "▁limon": 5575,
      "▁kumandan": 5576,
      "ulan": 5577,
      "▁kisisel": 5578,
      "ıgına": 5579,
      "▁icap": 5580,
      "▁odanin": 5581,
      "▁ulu": 5582,
      "▁iceriyor": 5583,
      "▁tarafa": 5584,
      "lantı": 5585,
      "▁kı": 5586,
      "▁yildizli": 5587,
      "▁yetk": 5588,
      "▁soz": 5589,
      "▁olgu": 5590,
      "sizdi": 5591,
      "▁kilit": 5592,
      "ren": 5593,
      "▁kırıklıgı": 5594,
      "▁denet": 5595,
      "ıyı": 5596,
      "▁soru": 5597,
      "▁basa": 5598,
      "ultu": 5599,
      "▁ilet": 5600,
      "▁guzellik": 5601,
      "▁kendi": 5602,
      "▁olcude": 5603,
      "▁zek": 5604,
      "▁badem": 5605,
      "▁kokusu": 5606,
      "nam": 5607,
      "▁yetkililerine": 5608,
      "▁vil": 5609,
      "▁el": 5610,
      "▁vur": 5611,
      "▁dikkate": 5612,
      "ecegiz": 5613,
      "▁vapur": 5614,
      "▁seviy": 5615,
      "'nda": 5616,
      "▁ederiz": 5617,
      ".2": 5618,
      "▁dusunce": 5619,
      "▁suz": 5620,
      "▁eden": 5621,
      "etle": 5622,
      "▁resmi": 5623,
      "▁tanı": 5624,
      "▁5'ten": 5625,
      "▁tasa": 5626,
      "ifti": 5627,
      "▁sorum": 5628,
      "▁geldigini": 5629,
      "mamız": 5630,
      "▁etmis": 5631,
      "▁bugune": 5632,
      "▁normal": 5633,
      "▁tef": 5634,
      "▁kisilerin": 5635,
      "▁vakit": 5636,
      "▁yonunde": 5637,
      "▁ithal": 5638,
      "▁''": 5639,
      "▁#": 5640,
      "▁ates": 5641,
      "▁washington'dan": 5642,
      "▁gokyuz": 5643,
      "das": 5644,
      "▁seni": 5645,
      "▁kısmını": 5646,
      "▁bulunan": 5647,
      "kon": 5648,
      "▁20": 5649,
      "▁care": 5650,
      "▁ucusa": 5651,
      "​": 5652,
      "▁duyuru": 5653,
      "▁yurut": 5654,
      "ule": 5655,
      "▁olayda": 5656,
      "▁basar": 5657,
      "▁soyl": 5658,
      "ısma": 5659,
      "▁yuzunun": 5660,
      "▁nokt": 5661,
      "lıydı": 5662,
      "▁havayollarının": 5663,
      "▁ayar": 5664,
      "▁konusur": 5665,
      "▁kızı": 5666,
      "lendi": 5667,
      "▁cesitli": 5668,
      "meldi": 5669,
      "▁senet": 5670,
      "▁neler": 5671,
      "▁ısıgında": 5672,
      "▁bekle": 5673,
      "▁gunku": 5674,
      "▁usul": 5675,
      "▁dosya": 5676,
      "▁harcama": 5677,
      "▁annesi": 5678,
      "erlik": 5679,
      "▁merkezi": 5680,
      "arda": 5681,
      "▁tekne": 5682,
      "▁koltuga": 5683,
      "▁korid": 5684,
      "▁ebeveyn": 5685,
      "▁karısı": 5686,
      "▁hatt": 5687,
      "▁boynuna": 5688,
      "▁yalnızlık": 5689,
      "ak": 5690,
      "od": 5691,
      "uyle": 5692,
      "▁gunesi": 5693,
      "▁american": 5694,
      "▁dunyasında": 5695,
      "▁kalacak": 5696,
      "ate": 5697,
      "teri": 5698,
      "▁uygu": 5699,
      "▁ozellik": 5700,
      "▁temmuz": 5701,
      "▁ucuz": 5702,
      "▁takip": 5703,
      "▁zaf": 5704,
      "▁gormez": 5705,
      "▁gerceklestir": 5706,
      "▁katkı": 5707,
      "▁noktasına": 5708,
      "▁dans": 5709,
      "▁gunleri": 5710,
      "▁rol": 5711,
      "iliyor": 5712,
      "▁tu": 5713,
      "▁mucade": 5714,
      "2'de": 5715,
      "▁sah": 5716,
      "day": 5717,
      "▁soze": 5718,
      "0'dan": 5719,
      "▁fakult": 5720,
      "▁saldır": 5721,
      "▁tey": 5722,
      "▁mini": 5723,
      "ite": 5724,
      "d": 5725,
      "▁impar": 5726,
      "iledi": 5727,
      "emedim": 5728,
      "▁oranında": 5729,
      "▁ugr": 5730,
      "ha": 5731,
      "edi": 5732,
      "istirdi": 5733,
      "▁15": 5734,
      "▁mulk": 5735,
      "▁mahkem": 5736,
      "▁gond": 5737,
      "▁evler": 5738,
      "▁yararlan": 5739,
      "▁felsef": 5740,
      "diginde": 5741,
      "▁vucudu": 5742,
      "▁dondu": 5743,
      "▁adalet": 5744,
      "sizligi": 5745,
      "lenmis": 5746,
      "▁bilgisay": 5747,
      "▁devletin": 5748,
      "▁degisiklik": 5749,
      "daydi": 5750,
      "▁istan": 5751,
      "▁ot": 5752,
      "iyordum": 5753,
      "▁mit": 5754,
      "▁kam": 5755,
      "larının": 5756,
      "▁hepsi": 5757,
      "▁adlı": 5758,
      "▁geriye": 5759,
      "▁bardak": 5760,
      "▁kendimiz": 5761,
      "dip": 5762,
      "ıslar": 5763,
      "▁oradan": 5764,
      "▁donan": 5765,
      "▁herhangi": 5766,
      "▁yasad": 5767,
      "gım": 5768,
      "▁mutfak": 5769,
      "▁dig": 5770,
      "\"": 5771,
      "▁jon": 5772,
      "dım": 5773,
      "▁gayr": 5774,
      "▁verir": 5775,
      "cagım": 5776,
      "▁cor": 5777,
      "▁islemin": 5778,
      "▁ceyrek": 5779,
      "▁hou": 5780,
      "▁sehrin": 5781,
      "▁paz": 5782,
      "▁katil": 5783,
      "▁aylık": 5784,
      "rik": 5785,
      "▁suk": 5786,
      "oksa": 5787,
      "▁ogrenmek": 5788,
      "kinden": 5789,
      "▁.'": 5790,
      "▁ihal": 5791,
      "▁trans": 5792,
      "▁baslan": 5793,
      "▁verin": 5794,
      "▁ortak": 5795,
      "▁konforu": 5796,
      "▁iyiydi": 5797,
      "▁birim": 5798,
      "▁lez": 5799,
      "ibe": 5800,
      "▁konf": 5801,
      "▁ucusları": 5802,
      "ılacak": 5803,
      "▁beyaz": 5804,
      "den": 5805,
      "tr": 5806,
      "dizli": 5807,
      "madıgını": 5808,
      "▁deve": 5809,
      "▁milyara": 5810,
      "oya": 5811,
      "`": 5812,
      "elerini": 5813,
      "▁zarar": 5814,
      "layı": 5815,
      "▁aksam": 5816,
      "▁donemin": 5817,
      "▁mag": 5818,
      "ından": 5819,
      "▁fay": 5820,
      "▁burokrat": 5821,
      "esi": 5822,
      "▁davet": 5823,
      "anı": 5824,
      "▁agustos": 5825,
      "▁sozc": 5826,
      "▁list": 5827,
      "▁baskanlıgı": 5828,
      "mey": 5829,
      "ırtı": 5830,
      "osun": 5831,
      "“": 5832,
      "acaktır": 5833,
      "lant": 5834,
      "▁yaklas": 5835,
      "lıga": 5836,
      "idir": 5837,
      "▁ısıgı": 5838,
      "▁belgeleri": 5839,
      "yip": 5840,
      "▁tank": 5841,
      "▁mak": 5842,
      "▁fikri": 5843,
      "\\/": 5844,
      "▁karsi": 5845,
      "▁okuz": 5846,
      "▁fon": 5847,
      "▁anlayıs": 5848,
      "▁inceleme": 5849,
      "▁ikti": 5850,
      "▁spor": 5851,
      "▁meden": 5852,
      "anlık": 5853,
      "▁havaliman": 5854,
      "lusu": 5855,
      "▁doy": 5856,
      "▁marj": 5857,
      "larını": 5858,
      "▁phil": 5859,
      "▁parkın": 5860,
      "75": 5861,
      "yuz": 5862,
      "▁dallas'tan": 5863,
      "▁tarihte": 5864,
      "yız": 5865,
      "landıgında": 5866,
      "▁odedigim": 5867,
      "kır": 5868,
      "▁imkanlar": 5869,
      "▁aileler": 5870,
      "▁cumhuriyetciler": 5871,
      "▁sev": 5872,
      "▁iddiaları": 5873,
      "▁elden": 5874,
      "▁insan": 5875,
      "0'a": 5876,
      "▁toplant": 5877,
      "▁hev": 5878,
      "▁guven": 5879,
      "▁elektrik": 5880,
      "▁hes": 5881,
      "▁pro": 5882,
      "▁birlikte": 5883,
      "▁yılların": 5884,
      "▁doktoru": 5885,
      "▁mot": 5886,
      "atif": 5887,
      "etic": 5888,
      "gal": 5889,
      "meden": 5890,
      "▁gorunce": 5891,
      "and": 5892,
      "atlar": 5893,
      "▁teminat": 5894,
      "▁zev": 5895,
      "▁kurumsal": 5896,
      "▁sokakta": 5897,
      "▁siparis": 5898,
      "kleri": 5899,
      "iyorlardı": 5900,
      "eder": 5901,
      "▁la": 5902,
      "lattı": 5903,
      "▁coban": 5904,
      "mı": 5905,
      "lal": 5906,
      "▁kıza": 5907,
      "tır": 5908,
      "▁baba": 5909,
      "▁tama": 5910,
      "▁saniye": 5911,
      "isle": 5912,
      "▁mekan": 5913,
      "▁enst": 5914,
      "▁uluslararası": 5915,
      "▁fırın": 5916,
      "▁beye": 5917,
      "▁bagıs": 5918,
      "▁ır": 5919,
      "ıcılık": 5920,
      "▁katılım": 5921,
      "▁dostluk": 5922,
      "lıgının": 5923,
      "dıkları": 5924,
      "▁ler": 5925,
      "▁yokus": 5926,
      "dıktan": 5927,
      "ıltı": 5928,
      "▁duzenlem": 5929,
      "miyor": 5930,
      "▁senator": 5931,
      "stım": 5932,
      "'t": 5933,
      "▁sezon": 5934,
      "▁yuruy": 5935,
      "umsal": 5936,
      "▁yanak": 5937,
      "▁mermer": 5938,
      "▁merak": 5939,
      "unuz": 5940,
      "▁kalitesini": 5941,
      "▁zengin": 5942,
      "etr": 5943,
      "▁cıl": 5944,
      "▁binanın": 5945,
      "lamaya": 5946,
      "▁kosk": 5947,
      "anın": 5948,
      "ındaki": 5949,
      "▁mamafih": 5950,
      "ilmesini": 5951,
      "▁hasıl": 5952,
      "enlerin": 5953,
      "engin": 5954,
      "▁dolay": 5955,
      "▁gr": 5956,
      "▁sirketlerin": 5957,
      "▁car": 5958,
      "▁soyler": 5959,
      "▁emtia": 5960,
      "▁yar": 5961,
      "▁sabaha": 5962,
      "▁dile": 5963,
      "u": 5964,
      "!": 5965,
      "▁hek": 5966,
      "▁bat": 5967,
      "▁balt": 5968,
      "▁masraf": 5969,
      "▁reh": 5970,
      "▁dergi": 5971,
      "anlarda": 5972,
      "▁yuregi": 5973,
      "▁erkekler": 5974,
      "s": 5975,
      "▁umud": 5976,
      "▁guc": 5977,
      "▁di": 5978,
      "▁istasyon": 5979,
      "yosu": 5980,
      "▁kendine": 5981,
      "▁size": 5982,
      "▁gucu": 5983,
      "▁olay": 5984,
      "▁kale": 5985,
      "imini": 5986,
      "do": 5987,
      "igini": 5988,
      "▁konularda": 5989,
      "▁rez": 5990,
      "▁alıcı": 5991,
      "lıklar": 5992,
      "▁tesisti": 5993,
      "▁ogretmeni": 5994,
      "▁masanın": 5995,
      "▁azınlık": 5996,
      "▁deneme": 5997,
      "▁seri": 5998,
      "imizden": 5999,
      "▁geciyor": 6000,
      "▁analistlerin": 6001,
      "▁kuy": 6002,
      "amadı": 6003,
      "▁muda": 6004,
      "▁fer": 6005,
      "▁rakip": 6006,
      "▁yalnızca": 6007,
      "lestir": 6008,
      "▁ucuslarının": 6009,
      "▁iade": 6010,
      "▁kıs": 6011,
      "ivers": 6012,
      "▁halini": 6013,
      "▁takımı": 6014,
      "▁bil": 6015,
      "▁tesekkurler": 6016,
      "dılar": 6017,
      "▁dondur": 6018,
      "▁magaz": 6019,
      "▁rolu": 6020,
      "▁koydu": 6021,
      "▁sap": 6022,
      "om": 6023,
      "▁mesel": 6024,
      "▁yerlerde": 6025,
      "▁alanlar": 6026,
      "▁cark": 6027,
      "'": 6028,
      "▁uretic": 6029,
      "▁plak": 6030,
      "▁ellerinden": 6031,
      "azı": 6032,
      "siniz": 6033,
      "▁aramızda": 6034,
      "▁tuketim": 6035,
      "▁derg": 6036,
      "▁animasyonlar": 6037,
      "▁goruyor": 6038,
      "▁emr": 6039,
      "▁demokr": 6040,
      "kinin": 6041,
      "▁ismini": 6042,
      "imle": 6043,
      "▁kır": 6044,
      "z": 6045,
      "▁ekipman": 6046,
      "▁fak": 6047,
      "▁cesitler": 6048,
      "▁model": 6049,
      "▁kapı": 6050,
      "▁adı": 6051,
      "lendirdi": 6052,
      "▁etkisini": 6053,
      "▁mas": 6054,
      "▁zamana": 6055,
      "id": 6056,
      "elir": 6057,
      "▁huc": 6058,
      "▁ola": 6059,
      "▁kara": 6060,
      "estirdi": 6061,
      "▁“": 6062,
      "▁toplantı": 6063,
      "▁duny": 6064,
      "▁malum": 6065,
      "▁havalim": 6066,
      "▁insanlara": 6067,
      "ehir": 6068,
      "ai": 6069,
      "▁sanki": 6070,
      "madik": 6071,
      "▁gotur": 6072,
      "▁havada": 6073,
      "▁eg": 6074,
      "▁ocak": 6075,
      "usundan": 6076,
      "asıyla": 6077,
      "▁saatleri": 6078,
      "▁ala": 6079,
      "▁vicdan": 6080,
      "▁istifade": 6081,
      "▁fiz": 6082,
      "▁cub": 6083,
      "▁ceyreginde": 6084,
      "▁yapmaya": 6085,
      "▁iplik": 6086,
      "▁sart": 6087,
      "▁rev": 6088,
      "▁tanıt": 6089,
      "▁ucretleri": 6090,
      "▁oyuncular": 6091,
      "▁denetim": 6092,
      "▁endeksi": 6093,
      "▁fransız": 6094,
      "ret": 6095,
      "tigine": 6096,
      "▁bıraktı": 6097,
      "▁hale": 6098,
      "ord": 6099,
      "▁dogrusu": 6100,
      "asını": 6101,
      "▁gereken": 6102,
      "▁ster": 6103,
      "ts": 6104,
      "▁yardımcı": 6105,
      "▁made": 6106,
      "▁oysa": 6107,
      "▁gecirdi": 6108,
      "▁uzum": 6109,
      "▁meslek": 6110,
      "abaz": 6111,
      "lasyon": 6112,
      "▁mily": 6113,
      "▁havalimanı": 6114,
      "cog": 6115,
      "▁satıslarının": 6116,
      "▁vakti": 6117,
      "▁sayet": 6118,
      "abın": 6119,
      "nin": 6120,
      "▁ulası": 6121,
      "▁yandan": 6122,
      "ata": 6123,
      "emedi": 6124,
      "▁ayaga": 6125,
      "▁bayrak": 6126,
      "tla": 6127,
      "▁sırasında": 6128,
      "▁bunlardan": 6129,
      "5'e": 6130,
      "▁davayı": 6131,
      "▁catal": 6132,
      "▁bilgiler": 6133,
      "▁laf": 6134,
      "▁saatlerinde": 6135,
      "▁kısıt": 6136,
      "▁donus": 6137,
      "ev": 6138,
      "▁kamu": 6139,
      "▁ihracat": 6140,
      "umuz": 6141,
      "ska": 6142,
      "▁durumlarda": 6143,
      "▁sinyal": 6144,
      "▁ucunda": 6145,
      "▁abd": 6146,
      "▁katına": 6147,
      "▁ca": 6148,
      "▁sada": 6149,
      "▁rop": 6150,
      "▁servisi": 6151,
      "▁televizyon": 6152,
      "▁aksama": 6153,
      "eyebilir": 6154,
      "acag": 6155,
      "▁mide": 6156,
      "▁ydi": 6157,
      "▁ticaretinde": 6158,
      "▁kagı": 6159,
      "sul": 6160,
      "'nden": 6161,
      "dıgında": 6162,
      "▁bu": 6163,
      "▁kay": 6164,
      "▁ide": 6165,
      "hi": 6166,
      "▁hos": 6167,
      "▁yumruk": 6168,
      "cagı": 6169,
      "▁li": 6170,
      "▁erkegi": 6171,
      "tigi": 6172,
      "cık": 6173,
      "▁kose": 6174,
      "—": 6175,
      "▁belli": 6176,
      "▁tarihi": 6177,
      "tur": 6178,
      "▁rady": 6179,
      "▁hizmetler": 6180,
      "▁bisik": 6181,
      "▁se": 6182,
      "▁etkin": 6183,
      "▁resep": 6184,
      "▁sevgil": 6185,
      "▁hizmetci": 6186,
      "ane": 6187,
      "sekiz": 6188,
      "▁2": 6189,
      "orta": 6190,
      "▁dısarıya": 6191,
      "▁kısalt": 6192,
      "▁dallas'a": 6193,
      "▁katır": 6194,
      "▁gerektir": 6195,
      "▁bıy": 6196,
      "a": 6197,
      "▁kalkıyor": 6198,
      "▁iceriye": 6199,
      "edav": 6200,
      "▁planları": 6201,
      "atla": 6202,
      "iklik": 6203,
      "▁olustur": 6204,
      "sacak": 6205,
      "▁alımı": 6206,
      "▁amma": 6207,
      "uh": 6208,
      "▁ı": 6209,
      "▁sozleri": 6210,
      "▁karayolu": 6211,
      "▁saatlerini": 6212,
      "▁od": 6213,
      "▁mevz": 6214,
      "iligin": 6215,
      "lukte": 6216,
      "▁aralık": 6217,
      "▁koca": 6218,
      "etleri": 6219,
      "▁doları'na": 6220,
      "▁universitesi": 6221,
      "tısı": 6222,
      "anları": 6223,
      "▁maz": 6224,
      "▁salı": 6225,
      "▁yan": 6226,
      "org": 6227,
      "▁belge": 6228,
      "▁akla": 6229,
      "a'da": 6230,
      "▁matem": 6231,
      "▁istedigini": 6232,
      "lulugu": 6233,
      "▁isk": 6234,
      "▁ulas": 6235,
      "▁kıyı": 6236,
      "▁avukatı": 6237,
      "▁personeli": 6238,
      "▁tasarruf": 6239,
      "▁kabuk": 6240,
      "▁sade": 6241,
      "▁kapıdan": 6242,
      "▁uyesi": 6243,
      "▁huz": 6244,
      "▁vucud": 6245,
      "▁salat": 6246,
      "▁vardı": 6247,
      "▁cont": 6248,
      "▁islemi": 6249,
      "▁ib": 6250,
      "▁bagır": 6251,
      "▁uf": 6252,
      "kez": 6253,
      "▁ber": 6254,
      "▁kaynak": 6255,
      "ia": 6256,
      "▁varlıgı": 6257,
      "ırken": 6258,
      "▁bal": 6259,
      "ca": 6260,
      "▁degistir": 6261,
      "▁konusmayı": 6262,
      "▁basında": 6263,
      "▁derd": 6264,
      "lar": 6265,
      "▁*": 6266,
      "▁bakın": 6267,
      "▁esya": 6268,
      "▁sonlarında": 6269,
      "▁acısından": 6270,
      "▁ellerine": 6271,
      "▁kisileri": 6272,
      "▁dususle": 6273,
      "▁karsıl": 6274,
      "dol": 6275,
      "▁acılıs": 6276,
      "vi": 6277,
      "▁egem": 6278,
      "▁cukur": 6279,
      "▁idaresi": 6280,
      "▁vah": 6281,
      "▁zor": 6282,
      "▁ces": 6283,
      "▁diren": 6284,
      "▁esnada": 6285,
      "▁kos": 6286,
      "▁gecen": 6287,
      "▁zar": 6288,
      "▁tesisin": 6289,
      "▁gunesin": 6290,
      "▁vası": 6291,
      "▁ediyorlar": 6292,
      "▁belg": 6293,
      "▁egzersiz": 6294,
      "▁hali": 6295,
      "▁tasarım": 6296,
      "▁cak": 6297,
      "▁gitmek": 6298,
      "ılmıs": 6299,
      "▁gecik": 6300,
      "▁yılı": 6301,
      "▁muk": 6302,
      "▁merhaba": 6303,
      "▁olur": 6304,
      "amda": 6305,
      "bu": 6306,
      "ich": 6307,
      "▁calıstı": 6308,
      "▁sokak": 6309,
      "▁karakter": 6310,
      "osuna": 6311,
      "▁endis": 6312,
      "▁boyn": 6313,
      "▁yolları": 6314,
      "m": 6315,
      "▁etrafa": 6316,
      "telik": 6317,
      "air": 6318,
      "▁adamı": 6319,
      "▁damak": 6320,
      "▁guney": 6321,
      "tıg": 6322,
      "▁demek": 6323,
      "▁malzem": 6324,
      ":": 6325,
      "ugun": 6326,
      "▁sordu": 6327,
      "st": 6328,
      "▁kadına": 6329,
      "af": 6330,
      "▁gali": 6331,
      "▁tura": 6332,
      "▁suren": 6333,
      "▁programları": 6334,
      "▁ciftlik": 6335,
      "▁dusus": 6336,
      "uyordum": 6337,
      "▁vergisi": 6338,
      "larım": 6339,
      "▁katkıda": 6340,
      "▁oranları": 6341,
      "▁a.m": 6342,
      "▁spot": 6343,
      "▁tesis": 6344,
      "▁yel": 6345,
      "inda": 6346,
      "▁acık": 6347,
      "▁vucut": 6348,
      "▁tedavul": 6349,
      "araj": 6350,
      "▁suruyor": 6351,
      "'lik": 6352,
      "▁kah": 6353,
      "mamak": 6354,
      "imdi": 6355,
      "▁islemleri": 6356,
      "inceye": 6357,
      "▁emlak": 6358,
      "acı": 6359,
      "eginde": 6360,
      "▁denizi": 6361,
      "go": 6362,
      "▁omuz": 6363,
      "▁olmadıgı": 6364,
      "▁kimyasal": 6365,
      "▁sarım": 6366,
      "▁usak": 6367,
      "▁5": 6368,
      "▁toront": 6369,
      "▁pey": 6370,
      "▁cogun": 6371,
      "▁erik": 6372,
      "▁ayakları": 6373,
      "▁ma": 6374,
      "▁santr": 6375,
      "larıyla": 6376,
      "der": 6377,
      "▁air": 6378,
      "▁yeniden": 6379,
      "▁kub": 6380,
      "▁nus": 6381,
      "▁devrim": 6382,
      "▁yasamı": 6383,
      "▁eksik": 6384,
      "▁yasay": 6385,
      "ımızın": 6386,
      "▁siyasi": 6387,
      "▁ucretine": 6388,
      "▁verdi": 6389,
      "ılıg": 6390,
      "▁bunların": 6391,
      "mec": 6392,
      "▁sevin": 6393,
      "▁edebiyat": 6394,
      "▁yıgın": 6395,
      "▁huzur": 6396,
      "▁bahs": 6397,
      "▁deniz": 6398,
      "▁konular": 6399,
      "▁yılın": 6400,
      "▁senin": 6401,
      "ıyorlar": 6402,
      "▁p": 6403,
      "▁sinir": 6404,
      "▁yıllardan": 6405,
      "▁sonucların": 6406,
      "▁ocagın": 6407,
      "isiyle": 6408,
      "▁mutla": 6409,
      "▁olmasını": 6410,
      "▁olar": 6411,
      "lige": 6412,
      "▁aray": 6413,
      "▁or": 6414,
      "▁mus": 6415,
      "▁ork": 6416,
      "enin": 6417,
      "ates": 6418,
      "▁dili": 6419,
      "▁satıslara": 6420,
      "▁mut": 6421,
      "ela": 6422,
      "▁gitmis": 6423,
      "▁city'e": 6424,
      "▁sovyet": 6425,
      "ilig": 6426,
      "edig": 6427,
      "udur": 6428,
      "▁tasavv": 6429,
      "▁clas": 6430,
      "▁kontrolu": 6431,
      "▁sikay": 6432,
      "▁cennet": 6433,
      "▁oldugum": 6434,
      "▁dusuk": 6435,
      "arı": 6436,
      "▁gogs": 6437,
      "ligiyle": 6438,
      "manı": 6439,
      "end": 6440,
      "▁geceler": 6441,
      "▁sistemi": 6442,
      "▁ugra": 6443,
      "alama": 6444,
      "tig": 6445,
      "▁degirmen": 6446,
      "▁rut": 6447,
      "▁saf": 6448,
      "▁otomobil": 6449,
      "▁sened": 6450,
      "▁gul": 6451,
      "era": 6452,
      "▁oner": 6453,
      "▁anlat": 6454,
      "▁yukarı": 6455,
      "▁aldı": 6456,
      "▁traf": 6457,
      "▁fazl": 6458,
      "▁hazırlık": 6459,
      "▁ann": 6460,
      "▁keyif": 6461,
      "▁oyun": 6462,
      "unluk": 6463,
      "▁ait": 6464,
      "▁f": 6465,
      "lemeye": 6466,
      "lın": 6467,
      "eyh": 6468,
      "▁bır": 6469,
      "▁sans": 6470,
      "▁:": 6471,
      "▁edilen": 6472,
      "▁pos": 6473,
      "▁onay": 6474,
      "▁ulusal": 6475,
      "ıma": 6476,
      "▁likid": 6477,
      "▁biliyor": 6478,
      "▁insana": 6479,
      "▁cemiyet": 6480,
      "▁olayın": 6481,
      "▁gittik": 6482,
      "▁menkul": 6483,
      "▁teraz": 6484,
      "dıgı": 6485,
      "▁saat": 6486,
      "▁hik": 6487,
      "▁kuyu": 6488,
      "▁isim": 6489,
      "mesin": 6490,
      "▁alanında": 6491,
      "▁harika": 6492,
      "ans": 6493,
      "▁yont": 6494,
      "yi": 6495,
      "▁icki": 6496,
      "▁bekl": 6497,
      "mistir": 6498,
      "▁kurban": 6499,
      "raber": 6500,
      "▁kac": 6501,
      "▁aile": 6502,
      "us": 6503,
      "▁gucunu": 6504,
      "▁islet": 6505,
      "uzluydu": 6506,
      "▁ni": 6507,
      "8'de": 6508,
      "▁onlar": 6509,
      "mesi": 6510,
      "▁fonlar": 6511,
      "▁lokma": 6512,
      "▁birden": 6513,
      "▁ticaret": 6514,
      "▁serv": 6515,
      "▁mec": 6516,
      "▁kuyr": 6517,
      "▁savası": 6518,
      "▁kahv": 6519,
      "▁ozel": 6520,
      "stır": 6521,
      "▁kitabı": 6522,
      "yalar": 6523,
      "▁ez": 6524,
      "▁iscilerin": 6525,
      "▁ya": 6526,
      "▁odasi": 6527,
      "▁imza": 6528,
      "umuze": 6529,
      "▁sever": 6530,
      "ıgın": 6531,
      "sal": 6532,
      "▁elimi": 6533,
      "▁yapıyor": 6534,
      "▁buh": 6535,
      "▁2'den": 6536,
      "eni": 6537,
      "ama": 6538,
      "▁ilc": 6539,
      "▁yoldan": 6540,
      "lugunu": 6541,
      "▁ey": 6542,
      "▁haftanın": 6543,
      "▁digeri": 6544,
      "▁vez": 6545,
      "ınca": 6546,
      "vet": 6547,
      "▁versiyon": 6548,
      "isleri": 6549,
      "imi": 6550,
      "▁kit": 6551,
      "▁elestirmen": 6552,
      "▁pittsburgh'a": 6553,
      "aları": 6554,
      "mekt": 6555,
      "▁cars": 6556,
      "▁kadeh": 6557,
      "▁hemsir": 6558,
      "▁af": 6559,
      "▁denizinden": 6560,
      "▁kolt": 6561,
      "stık": 6562,
      "labil": 6563,
      "▁goruntu": 6564,
      "mis": 6565,
      "▁cuv": 6566,
      "▁firma": 6567,
      "▁sekret": 6568,
      "▁isabet": 6569,
      "▁sigorta": 6570,
      "iler": 6571,
      "▁vagon": 6572,
      "▁protest": 6573,
      "▁yal": 6574,
      "▁alama": 6575,
      "▁onları": 6576,
      "▁bizde": 6577,
      "\\/8": 6578,
      "▁ceviz": 6579,
      "▁charlotte": 6580,
      "▁havayolu": 6581,
      "geler": 6582,
      "▁firması": 6583,
      "▁kutuk": 6584,
      "▁ph": 6585,
      "▁sohret": 6586,
      "▁sıf": 6587,
      "▁haline": 6588,
      "▁kaynagı": 6589,
      "▁parmak": 6590,
      "▁manzara": 6591,
      "▁kalan": 6592,
      "▁yangın": 6593,
      "medig": 6594,
      "ıyorsun": 6595,
      "▁sosy": 6596,
      "▁gerekc": 6597,
      "mıstır": 6598,
      "▁hekim": 6599,
      "yası": 6600,
      "▁sozcusu": 6601,
      "umde": 6602,
      "▁suy": 6603,
      "▁ettigini": 6604,
      "▁sars": 6605,
      "▁ataturk": 6606,
      "▁mah": 6607,
      "▁yuv": 6608,
      "▁kursun": 6609,
      "f": 6610,
      "▁kere": 6611,
      "▁lake": 6612,
      "▁hakaret": 6613,
      "edigini": 6614,
      "▁gazeteci": 6615,
      "▁seftali": 6616,
      "amın": 6617,
      "tor": 6618,
      "▁surdu": 6619,
      "▁tutul": 6620,
      "▁ucuza": 6621,
      "▁yıldızı": 6622,
      "▁baglı": 6623,
      "▁yarısından": 6624,
      "▁yukse": 6625,
      "▁tarzı": 6626,
      "▁konusunda": 6627,
      "▁sikayet": 6628,
      "cıları": 6629,
      "az": 6630,
      "▁hisseyi": 6631,
      "▁bor": 6632,
      "▁garsonlar": 6633,
      "ıtma": 6634,
      "▁talim": 6635,
      "▁mur": 6636,
      "▁temsilci": 6637,
      "▁artıs": 6638,
      "▁yaka": 6639,
      "rar": 6640,
      "▁fr": 6641,
      "orn": 6642,
      "▁0": 6643,
      "▁.": 6644,
      "emeye": 6645,
      "▁egitim": 6646,
      "▁marka": 6647,
      "▁kaybı": 6648,
      "eb": 6649,
      "▁sevgi": 6650,
      "▁ucretini": 6651,
      "gi": 6652,
      "▁sehir": 6653,
      "▁gorunuyor": 6654,
      "inin": 6655,
      "cun": 6656,
      "▁bol": 6657,
      "▁ipotege": 6658,
      "/8": 6659,
      "▁indirim": 6660,
      "▁toren": 6661,
      "▁bizi": 6662,
      "▁borsada": 6663,
      "▁ard": 6664,
      "piyon": 6665,
      "▁kelime": 6666,
      "▁hepsinin": 6667,
      "▁kesim": 6668,
      "▁gobek": 6669,
      "mıstı": 6670,
      "t": 6671,
      "▁akıl": 6672,
      "tanbul": 6673,
      "▁ihtimal": 6674,
      "▁ızdır": 6675,
      "▁yere": 6676,
      "▁dustugunu": 6677,
      "▁viski": 6678,
      "▁biliyorum": 6679,
      "mafi": 6680,
      "▁gorunuse": 6681,
      "▁sessiz": 6682,
      "[MASK]": 6683,
      "▁donemlerde": 6684,
      "▁fık": 6685,
      "son": 6686,
      "▁duzen": 6687,
      "▁kumar": 6688,
      "▁hareket": 6689,
      "▁fonların": 6690,
      "▁tutam": 6691,
      "▁reform": 6692,
      "▁uyusturucu": 6693,
      "ekler": 6694,
      "abilmek": 6695,
      "▁tul": 6696,
      "samba": 6697,
      "▁olmay": 6698,
      "gının": 6699,
      "▁gunu": 6700,
      "▁cıkarmak": 6701,
      "▁kelim": 6702,
      "▁muzik": 6703,
      "▁vatand": 6704,
      "▁ters": 6705,
      "gmen": 6706,
      "▁harcamaları": 6707,
      "▁izn": 6708,
      "▁edecek": 6709,
      "▁us": 6710,
      "▁keyf": 6711,
      "▁arasına": 6712,
      "▁hot": 6713,
      "%": 6714,
      "▁k": 6715,
      "up": 6716,
      "liligi": 6717,
      "▁kesinti": 6718,
      "▁etrafında": 6719,
      "▁cakmak": 6720,
      "▁karıstır": 6721,
      "▁tuf": 6722,
      "lasmıs": 6723,
      "▁atıl": 6724,
      "▁tec": 6725,
      "ızda": 6726,
      "usa": 6727,
      "minin": 6728,
      "▁soylem": 6729,
      "▁boylece": 6730,
      "▁burosu": 6731,
      "▁zemin": 6732,
      "▁son": 6733,
      "eledi": 6734,
      "▁araz": 6735,
      "▁tayin": 6736,
      "▁sonrasında": 6737,
      "▁francisco'ya": 6738,
      "▁sonrası": 6739,
      "▁misafir": 6740,
      "▁halı": 6741,
      "lacak": 6742,
      "inleri": 6743,
      "ktan": 6744,
      "▁parcaları": 6745,
      "ıf": 6746,
      "▁kitap": 6747,
      "▁gelecekte": 6748,
      "▁senato": 6749,
      "▁gorevini": 6750,
      "iyor": 6751,
      "▁ortagı": 6752,
      "▁kapital": 6753,
      "li": 6754,
      "▁kurt": 6755,
      "eceg": 6756,
      "▁yapılacak": 6757,
      "▁dom": 6758,
      "▁karsısında": 6759,
      "sen": 6760,
      "cok": 6761,
      "▁burokr": 6762,
      "▁oyk": 6763,
      "▁muhafazak": 6764,
      "▁.)": 6765,
      "▁ihtiyacı": 6766,
      "▁val": 6767,
      "▁yatırımcıları": 6768,
      "▁utan": 6769,
      "▁hissediyor": 6770,
      "▁omur": 6771,
      "▁donusu": 6772,
      "▁kıy": 6773,
      "▁koms": 6774,
      "▁dalg": 6775,
      "▁nak": 6776,
      "▁oturu": 6777,
      "▁sigara": 6778,
      "eliydi": 6779,
      "▁degisiklikler": 6780,
      "▁gostermek": 6781,
      "▁talebi": 6782,
      "hangi": 6783,
      "▁cocugun": 6784,
      "egine": 6785,
      "▁bilgi": 6786,
      "▁gercegi": 6787,
      "▁ise": 6788,
      "▁bolgede": 6789,
      "▁burada": 6790,
      "▁kurtaj": 6791,
      "▁burnu": 6792,
      "lılıgı": 6793,
      "bir": 6794,
      "▁196": 6795,
      "dim": 6796,
      "▁yoneticisi": 6797,
      "▁ha": 6798,
      "▁test": 6799,
      "▁yalnız": 6800,
      "▁sesle": 6801,
      "▁nefes": 6802,
      "▁dogru": 6803,
      "▁sirketine": 6804,
      "ısına": 6805,
      "▁taraftan": 6806,
      "▁cen": 6807,
      "▁muhaseb": 6808,
      "▁37": 6809,
      "eginin": 6810,
      "▁arac": 6811,
      "▁bilgilendir": 6812,
      "▁endeks": 6813,
      "▁cad": 6814,
      "tern": 6815,
      "acılar": 6816,
      "▁mesele": 6817,
      "▁elb": 6818,
      "▁derin": 6819,
      "▁git": 6820,
      "▁basv": 6821,
      "▁leh": 6822,
      "▁ede": 6823,
      "agının": 6824,
      "luge": 6825,
      "▁evr": 6826,
      "▁tasım": 6827,
      "▁katilmak": 6828,
      "▁insanın": 6829,
      "▁gercekten": 6830,
      "▁grubu": 6831,
      "gını": 6832,
      "▁olanak": 6833,
      "▁piyan": 6834,
      "lamalar": 6835,
      ".7": 6836,
      "▁alkol": 6837,
      "▁gelirler": 6838,
      "▁corp": 6839,
      "uste": 6840,
      "▁bundan": 6841,
      "yuzlu": 6842,
      "▁problem": 6843,
      "▁saun": 6844,
      ".9": 6845,
      "▁%4": 6846,
      "va": 6847,
      "▁sig": 6848,
      "iyer": 6849,
      "▁salonun": 6850,
      "▁kendiler": 6851,
      "▁ekibi": 6852,
      "▁hayran": 6853,
      "▁tay": 6854,
      "▁200": 6855,
      "▁sert": 6856,
      "▁sonundan": 6857,
      "▁ruya": 6858,
      "▁sur": 6859,
      "tik": 6860,
      "▁tiyatro": 6861,
      "▁basını": 6862,
      "▁aldım": 6863,
      "▁dusman": 6864,
      "▁kurb": 6865,
      "▁elestiri": 6866,
      "▁fasulye": 6867,
      "▁kusur": 6868,
      "▁z": 6869,
      "▁kop": 6870,
      "▁alak": 6871,
      "izdi": 6872,
      "▁bulunuyor": 6873,
      "▁restoran": 6874,
      "▁yapılan": 6875,
      "▁olm": 6876,
      "▁cik": 6877,
      "▁programını": 6878,
      "▁aklı": 6879,
      "▁turu": 6880,
      "▁ongoru": 6881,
      "let": 6882,
      "▁boya": 6883,
      "▁philadelphia'dan": 6884,
      "▁\"": 6885,
      "▁dogal": 6886,
      "▁darbuk": 6887,
      "▁kıv": 6888,
      "larda": 6889,
      "▁durgunluk": 6890,
      "eler": 6891,
      "▁tasar": 6892,
      "▁mada": 6893,
      "▁form": 6894,
      "▁catı": 6895,
      "leleri": 6896,
      "▁celik": 6897,
      "▁gayrimenkul": 6898,
      "▁11": 6899,
      "▁duzenleme": 6900,
      "▁yapmak": 6901,
      "▁lı": 6902,
      "tarak": 6903,
      "net": 6904,
      "▁yoneticileri": 6905,
      "▁ureticisi": 6906,
      "▁irade": 6907,
      "▁sıkıntısı": 6908,
      "▁genelde": 6909,
      "▁proj": 6910,
      "▁gem": 6911,
      "▁hisse": 6912,
      "▁bence": 6913,
      "tia": 6914,
      "lerimi": 6915,
      "ebil": 6916,
      "▁bizim": 6917,
      "▁cercev": 6918,
      "▁hijyen": 6919,
      "▁amerik": 6920,
      "orth": 6921,
      "▁dakikada": 6922,
      "▁bahcede": 6923,
      "adır": 6924,
      "mız": 6925,
      "'ye": 6926,
      "tık": 6927,
      "▁yiy": 6928,
      "▁onun": 6929,
      "▁met": 6930,
      "▁allah": 6931,
      "▁sus": 6932,
      "▁dairesi": 6933,
      "▁york": 6934,
      "▁kiz": 6935,
      "ef": 6936,
      "▁hanimla": 6937,
      "▁calismas": 6938,
      "urken": 6939,
      "▁milwa": 6940,
      "▁memnunuz": 6941,
      "ahi": 6942,
      "▁ustu": 6943,
      "▁seker": 6944,
      "▁liraya": 6945,
      "gar": 6946,
      "▁noktada": 6947,
      "▁mektup": 6948,
      "▁tat": 6949,
      "▁may": 6950,
      "▁bize": 6951,
      "▁duser": 6952,
      "eme": 6953,
      "hane": 6954,
      "▁gelin": 6955,
      "▁.\"": 6956,
      "goz": 6957,
      "▁yapıt": 6958,
      "▁gures": 6959,
      "▁aynı": 6960,
      "acak": 6961,
      "▁seyler": 6962,
      "amiza": 6963,
      "▁isp": 6964,
      "▁koymak": 6965,
      "▁klim": 6966,
      "▁bah": 6967,
      "▁planimiz": 6968,
      "all": 6969,
      "▁iceride": 6970,
      "▁gelisme": 6971,
      "▁bicimi": 6972,
      "▁yerel": 6973,
      "tak": 6974,
      "▁konuyu": 6975,
      "▁egz": 6976,
      "onu": 6977,
      "▁ben": 6978,
      "lelim": 6979,
      "▁belirt": 6980,
      "▁19": 6981,
      "▁sofra": 6982,
      "▁yoksul": 6983,
      "▁soyluyor": 6984,
      "allas": 6985,
      "ong": 6986,
      "▁icine": 6987,
      "▁birbirine": 6988,
      "▁istih": 6989,
      "▁sahib": 6990,
      "▁sarkı": 6991,
      "▁yonetic": 6992,
      "▁deger": 6993,
      "eye": 6994,
      "▁nevi": 6995,
      "▁aslında": 6996,
      "og": 6997,
      "anların": 6998,
      "▁ens": 6999,
      "bet": 7000,
      "▁sil": 7001,
      "▁seviyesinden": 7002,
      "▁bl": 7003,
      "impiyat": 7004,
      "▁meselesi": 7005,
      "▁9'dan": 7006,
      "▁gayret": 7007,
      "▁urunler": 7008,
      "▁kurulu": 7009,
      "hut": 7010,
      "▁ila": 7011,
      "▁soylen": 7012,
      "▁yemeklerin": 7013,
      "dık": 7014,
      "▁bulundu": 7015,
      "▁asagıya": 7016,
      "▁koltuk": 7017,
      "eceklerini": 7018,
      "▁sahibi": 7019,
      "▁karargah": 7020,
      "▁yanl": 7021,
      "▁ket": 7022,
      "▁muhat": 7023,
      "▁gog": 7024,
      "dıklarını": 7025,
      "▁cekti": 7026,
      "▁uzerine": 7027,
      "▁sos": 7028,
      "▁ogr": 7029,
      "▁tık": 7030,
      "▁olasılık": 7031,
      "▁bırak": 7032,
      "▁ugul": 7033,
      "▁seylerin": 7034,
      "▁olmayı": 7035,
      "lamak": 7036,
      "▁soruları": 7037,
      "▁ada": 7038,
      "▁yerinden": 7039,
      "▁yuz": 7040,
      "▁rapor": 7041,
      "▁otel": 7042,
      "▁halkla": 7043,
      "▁yapar": 7044,
      "yacag": 7045,
      "▁babasının": 7046,
      "▁ayv": 7047,
      "▁kredileri": 7048,
      "lerle": 7049,
      "▁hanım": 7050,
      "▁profesor": 7051,
      "larımızı": 7052,
      "▁arkasında": 7053,
      "▁amerikalı": 7054,
      "▁yataklar": 7055,
      "▁yapacak": 7056,
      "▁aileye": 7057,
      "tali": 7058,
      "▁ofisi": 7059,
      "▁ayak": 7060,
      "▁ikram": 7061,
      "▁kav": 7062,
      "makla": 7063,
      "▁teker": 7064,
      "▁dengesi": 7065,
      "▁bisiklet": 7066,
      "▁secen": 7067,
      "▁rehberimiz": 7068,
      "▁anketi": 7069,
      "kin": 7070,
      "▁koc": 7071,
      "▁gelis": 7072,
      "elim": 7073,
      "ag": 7074,
      "▁bag": 7075,
      "▁tor": 7076,
      "▁kanadı": 7077,
      "▁gazetenin": 7078,
      "▁atlar": 7079,
      "egiyle": 7080,
      "illeri": 7081,
      "▁dolardan": 7082,
      "ılıyor": 7083,
      "▁kul": 7084,
      "bar": 7085,
      "▁diplom": 7086,
      "▁doktor": 7087,
      "mu": 7088,
      "▁takdirde": 7089,
      "▁ong": 7090,
      "atır": 7091,
      "ital": 7092,
      "▁lezzet": 7093,
      "lulugunu": 7094,
      "umus": 7095,
      "yanın": 7096,
      "▁str": 7097,
      "▁cum": 7098,
      "▁adını": 7099,
      "evi": 7100,
      "▁sizin": 7101,
      "ket": 7102,
      "▁koyden": 7103,
      "ıv": 7104,
      "iness": 7105,
      "akende": 7106,
      "ilecegi": 7107,
      "tıktan": 7108,
      "▁havaal": 7109,
      "▁gosterir": 7110,
      "▁merh": 7111,
      "lidir": 7112,
      "▁gelen": 7113,
      "▁disk": 7114,
      "onom": 7115,
      "uyoruz": 7116,
      "sa": 7117,
      "onel": 7118,
      "▁yılına": 7119,
      "eo": 7120,
      "▁dustu": 7121,
      "▁bırakmak": 7122,
      "▁calısanlar": 7123,
      "▁ucaga": 7124,
      "▁hap": 7125,
      "▁hakkında": 7126,
      "lı": 7127,
      "▁dogum": 7128,
      "liyat": 7129,
      "▁olsa": 7130,
      "eydi": 7131,
      "iyim": 7132,
      "▁basına": 7133,
      "▁dolu": 7134,
      "▁pla": 7135,
      "▁tabanc": 7136,
      "liler": 7137,
      "▁acmak": 7138,
      "satı": 7139,
      "ız": 7140,
      "▁iliski": 7141,
      "▁karsılıgı": 7142,
      "maktadır": 7143,
      "▁lim": 7144,
      "▁bolumunde": 7145,
      "▁num": 7146,
      "ilm": 7147,
      "andır": 7148,
      "ıdır": 7149,
      "▁tarz": 7150,
      "cılara": 7151,
      "ain": 7152,
      "▁ahır": 7153,
      "▁gecit": 7154,
      "re": 7155,
      "▁ardından": 7156,
      "▁odasına": 7157,
      "vek": 7158,
      "izasyon": 7159,
      "ni": 7160,
      "▁mutlu": 7161,
      "▁karıs": 7162,
      "▁doları": 7163,
      "▁kurum": 7164,
      "emem": 7165,
      "▁sozcuk": 7166,
      "▁cevresinde": 7167,
      "▁muhendis": 7168,
      "▁babamın": 7169,
      "▁norm": 7170,
      "▁omz": 7171,
      "▁koridor": 7172,
      "▁yeterli": 7173,
      "odr": 7174,
      "lon": 7175,
      "▁tarafta": 7176,
      "▁cok": 7177,
      "▁hacim": 7178,
      "▁dusuktu": 7179,
      "▁pant": 7180,
      "▁calısmaları": 7181,
      "▁ortadan": 7182,
      "▁madde": 7183,
      "oglu": 7184,
      "▁bagım": 7185,
      "▁kolay": 7186,
      "dugunu": 7187,
      "▁kanun": 7188,
      "▁kavanoz": 7189,
      "▁and": 7190,
      "▁per": 7191,
      "▁ucuncu": 7192,
      "▁ucagı": 7193,
      "izli": 7194,
      "iyet": 7195,
      "▁vir": 7196,
      "▁ara": 7197,
      "▁sozu": 7198,
      "acılık": 7199,
      "▁mehmet": 7200,
      "▁baslarını": 7201,
      "mek": 7202,
      "ul": 7203,
      "▁fiyatı": 7204,
      "▁pittsburgh": 7205,
      "amac": 7206,
      "▁yurur": 7207,
      "▁kablo": 7208,
      "▁nedeni": 7209,
      "tiler": 7210,
      "▁kapattı": 7211,
      "▁ars": 7212,
      "▁bagr": 7213,
      "▁kahvaltisi": 7214,
      "▁oluyor": 7215,
      "▁gecti": 7216,
      "ıcak": 7217,
      "▁sız": 7218,
      "▁cuval": 7219,
      "afet": 7220,
      "ldi": 7221,
      "anlara": 7222,
      "▁muamel": 7223,
      "▁tohum": 7224,
      "ing": 7225,
      "▁altını": 7226,
      "▁baskalarının": 7227,
      "▁ister": 7228,
      "▁ihtiy": 7229,
      "gıl": 7230,
      "▁avuc": 7231,
      "▁durus": 7232,
      "tıkları": 7233,
      "eren": 7234,
      "'yi": 7235,
      "▁anlasmaya": 7236,
      "▁kapısına": 7237,
      "▁kariyer": 7238,
      "▁kola": 7239,
      "mustum": 7240,
      "ek": 7241,
      "▁bekleniyor": 7242,
      "▁uyelerinin": 7243,
      "▁ogl": 7244,
      "▁bire": 7245,
      "▁s": 7246,
      "▁uygulamaları": 7247,
      "▁ıskar": 7248,
      "sam": 7249,
      "▁kab": 7250,
      "▁yasama": 7251,
      "ıgı": 7252,
      "▁sat": 7253,
      "5'te": 7254,
      "▁ucu": 7255,
      "▁ardı": 7256,
      "▁anı": 7257,
      "▁basın": 7258,
      "ir": 7259,
      "▁edildi": 7260,
      "'nun": 7261,
      "▁lamb": 7262,
      "▁acısı": 7263,
      "int": 7264,
      "▁patr": 7265,
      "▁sukur": 7266,
      "lesi": 7267,
      "▁yarat": 7268,
      "▁evleri": 7269,
      "masından": 7270,
      "▁aracı": 7271,
      "▁anlama": 7272,
      "▁yapan": 7273,
      "▁ulasımı": 7274,
      "▁birlik": 7275,
      "kları": 7276,
      "▁fas": 7277,
      "▁olmaya": 7278,
      "▁hij": 7279,
      "▁kayd": 7280,
      "uc": 7281,
      "▁olaylara": 7282,
      "▁evine": 7283,
      "/": 7284,
      "▁mey": 7285,
      "▁seb": 7286,
      "▁bedel": 7287,
      "▁ideal": 7288,
      "▁hafta": 7289,
      "▁secmen": 7290,
      "ahat": 7291,
      "ieg": 7292,
      "▁pab": 7293,
      "kac": 7294,
      "inize": 7295,
      "▁esn": 7296,
      "▁sifir": 7297,
      "▁komun": 7298,
      "▁calisanlar": 7299,
      "urg": 7300,
      "▁sene": 7301,
      "▁gununden": 7302,
      "▁lek": 7303,
      "▁ing": 7304,
      "▁ov": 7305,
      "▁istey": 7306,
      "▁sesleri": 7307,
      "▁tad": 7308,
      "▁asıl": 7309,
      "▁ucusta": 7310,
      "ited": 7311,
      "▁gez": 7312,
      "▁sag": 7313,
      "▁odam": 7314,
      "▁batı": 7315,
      "▁kalk": 7316,
      "▁sektor": 7317,
      "▁tel": 7318,
      "lıgını": 7319,
      "iber": 7320,
      "▁ul": 7321,
      "sas": 7322,
      "'deki": 7323,
      "▁sıcak": 7324,
      "▁pers": 7325,
      "▁sirketinin": 7326,
      "▁kapısının": 7327,
      "▁rezerve": 7328,
      "▁satısa": 7329,
      "▁uzerinde": 7330,
      "▁yuzunu": 7331,
      "▁musait": 7332,
      "▁suik": 7333,
      "▁park": 7334,
      "▁mucadele": 7335,
      "irmi": 7336,
      "7'de": 7337,
      "astır": 7338,
      "manlar": 7339,
      "▁canım": 7340,
      "▁kazan": 7341,
      "lerine": 7342,
      "▁goze": 7343,
      "▁isc": 7344,
      "avv": 7345,
      "▁farklı": 7346,
      "lıs": 7347,
      "gili": 7348,
      "▁puana": 7349,
      "eyi": 7350,
      "▁tedbir": 7351,
      "▁olabilecegini": 7352,
      "tırmak": 7353,
      "▁sahada": 7354,
      "▁merdiven": 7355,
      "▁liderleri": 7356,
      "▁demet": 7357,
      "▁isi": 7358,
      "diye": 7359,
      "▁lazım": 7360,
      "tti": 7361,
      "lerce": 7362,
      "▁uzerindeki": 7363,
      "▁ric": 7364,
      "▁olmakla": 7365,
      "▁ucretin": 7366,
      "▁sermay": 7367,
      "▁tez": 7368,
      "▁etme": 7369,
      "▁kusku": 7370,
      "▁polisler": 7371,
      "cilerin": 7372,
      "▁uzat": 7373,
      "▁gelir": 7374,
      "▁olurdu": 7375,
      "▁sis": 7376,
      "▁hayalet": 7377,
      "▁dizi": 7378,
      "de": 7379,
      "han": 7380,
      "▁elektr": 7381,
      "▁adamlar": 7382,
      "▁tazminat": 7383,
      "o": 7384,
      "▁yor": 7385,
      "ımıza": 7386,
      "▁kacır": 7387,
      "sk": 7388,
      "▁masa": 7389,
      "▁arabayı": 7390,
      "/8'e": 7391,
      "ara": 7392,
      "▁kof": 7393,
      "▁bilmek": 7394,
      "lit": 7395,
      "▁imk": 7396,
      "▁mahalle": 7397,
      "▁kapandı": 7398,
      "▁zeytiny": 7399,
      "▁nakliye": 7400,
      "▁yerleri": 7401,
      "▁pilot": 7402,
      "▁parlam": 7403,
      "▁eve": 7404,
      "lası": 7405,
      "▁attı": 7406,
      "umuza": 7407,
      "▁gozleriyle": 7408,
      "▁olduguna": 7409,
      "▁tehdit": 7410,
      "▁sakal": 7411,
      "tiy": 7412,
      ">": 7413,
      "▁sorunun": 7414,
      "▁1980'": 7415,
      "▁itiraz": 7416,
      "▁yapmaktan": 7417,
      "▁..\"": 7418,
      "erdi": 7419,
      "▁heyecan": 7420,
      "▁kampanya": 7421,
      "cılıg": 7422,
      "uyor": 7423,
      "ıda": 7424,
      "▁hisseleri": 7425,
      "▁rad": 7426,
      "▁payları": 7427,
      "▁zaten": 7428,
      "aj": 7429,
      "▁yerles": 7430,
      "▁yur": 7431,
      "▁onumuzdeki": 7432,
      "▁terz": 7433,
      "▁disiplin": 7434,
      "ıza": 7435,
      "▁etraf": 7436,
      "▁boyut": 7437,
      "ektr": 7438,
      "▁bulus": 7439,
      "▁duzelt": 7440,
      "▁salon": 7441,
      "▁felaket": 7442,
      "leri": 7443,
      "▁kesint": 7444,
      "esik": 7445,
      "▁pan": 7446,
      "▁der": 7447,
      "▁diz": 7448,
      "▁yeme": 7449,
      "▁cid": 7450,
      "▁yanımda": 7451,
      "▁nef": 7452,
      "▁kucuktu": 7453,
      "▁aleyhine": 7454,
      "▁uluslar": 7455,
      "▁engel": 7456,
      "▁bilgiye": 7457,
      "▁yiyecekleri": 7458,
      "▁paranin": 7459,
      "dat": 7460,
      "▁fayda": 7461,
      "▁degilim": 7462,
      "ens": 7463,
      "imizi": 7464,
      "▁carsamba": 7465,
      "anıt": 7466,
      "▁gitmeyi": 7467,
      "▁aktiv": 7468,
      "▁meger": 7469,
      "asyonu": 7470,
      "agından": 7471,
      "▁super": 7472,
      "▁personelden": 7473,
      "▁kıyafet": 7474,
      "ediye": 7475,
      "▁bekliyor": 7476,
      "▁etmem": 7477,
      "▁sarsıntı": 7478,
      "abor": 7479,
      "▁esit": 7480,
      "abilir": 7481,
      "▁gurur": 7482,
      "▁soh": 7483,
      "▁ord": 7484,
      "▁surdur": 7485,
      "cının": 7486,
      "▁sms": 7487,
      "▁dusunmuyor": 7488,
      "▁gerc": 7489,
      "▁ailelerin": 7490,
      "▁milleti": 7491,
      "▁duvarlar": 7492,
      "▁bet": 7493,
      "▁harik": 7494,
      "▁araba": 7495,
      "▁fiyatlar": 7496,
      "ahan": 7497,
      "sarak": 7498,
      "▁birbir": 7499,
      "na": 7500,
      "meyecek": 7501,
      "▁kaymak": 7502,
      "▁kadının": 7503,
      "▁dol": 7504,
      "▁yerin": 7505,
      "diklerini": 7506,
      "▁cur": 7507,
      "muyor": 7508,
      "▁kafasına": 7509,
      "ken": 7510,
      "▁degerini": 7511,
      "▁olabilir": 7512,
      "▁tuttu": 7513,
      "ikt": 7514,
      "▁mimar": 7515,
      "▁yara": 7516,
      "▁metr": 7517,
      "▁gonlum": 7518,
      "▁alanda": 7519,
      "▁servis": 7520,
      "esinin": 7521,
      "▁aksamı": 7522,
      "▁terey": 7523,
      "▁oneri": 7524,
      "▁gozden": 7525,
      "▁bahseder": 7526,
      "▁imkanı": 7527,
      "▁stud": 7528,
      "▁..": 7529,
      "▁mevcut": 7530,
      "inden": 7531,
      "oh": 7532,
      "▁barda": 7533,
      "▁ortasına": 7534,
      "▁kasab": 7535,
      "▁%1": 7536,
      "▁6": 7537,
      "▁new": 7538,
      "▁zayifti": 7539,
      "▁karn": 7540,
      "▁kurulusu": 7541,
      "▁okur": 7542,
      "▁korum": 7543,
      "mus": 7544,
      "▁islerin": 7545,
      "▁yazar": 7546,
      "▁anlasması": 7547,
      "▁yaklasimi": 7548,
      "▁durumda": 7549,
      "▁tepeden": 7550,
      "▁istiyor": 7551,
      "▁kullanıyor": 7552,
      "▁cesi": 7553,
      "alarım": 7554,
      "▁boy": 7555,
      "▁nine": 7556,
      "tis": 7557,
      "▁port": 7558,
      "▁nam": 7559,
      "▁elinin": 7560,
      "▁sirketi": 7561,
      "▁telef": 7562,
      "▁olmaz": 7563,
      "▁guler": 7564,
      "eciler": 7565,
      "▁tarihine": 7566,
      "▁anlamıyla": 7567,
      "▁bolgesi": 7568,
      "▁tartıs": 7569,
      "▁opsiyon": 7570,
      "ze": 7571,
      "ibaren": 7572,
      "▁man": 7573,
      "▁sını": 7574,
      "▁miami": 7575,
      "▁dusur": 7576,
      "▁...\"": 7577,
      "▁olmadı": 7578,
      "▁kimseye": 7579,
      "▁denize": 7580,
      "▁kurtar": 7581,
      "eldi": 7582,
      "▁m": 7583,
      "▁st": 7584,
      "▁cekildi": 7585,
      "k": 7586,
      "▁ayr": 7587,
      "▁yardımı": 7588,
      "▁ayında": 7589,
      "larına": 7590,
      "▁kendis": 7591,
      ".": 7592,
      "irk": 7593,
      "ham": 7594,
      "ugunda": 7595,
      "▁renk": 7596,
      "ızın": 7597,
      "▁tahvilleri": 7598,
      "▁sem": 7599,
      "▁ayından": 7600,
      "▁sponsor": 7601,
      "▁dalgalan": 7602,
      "▁oraya": 7603,
      "▁aktarmalı": 7604,
      "▁cuzdan": 7605,
      "▁kada": 7606,
      "yla": 7607,
      "▁duzey": 7608,
      "▁sorun": 7609,
      "makt": 7610,
      "▁coluk": 7611,
      "uk": 7612,
      "▁yıllarda": 7613,
      "▁ceb": 7614,
      "iyesi": 7615,
      "▁cıkarma": 7616,
      "egi": 7617,
      "ac": 7618,
      "iki": 7619,
      "▁ablam": 7620,
      "▁oyuncu": 7621,
      "▁edeb": 7622,
      "▁asag": 7623,
      "▁zil": 7624,
      "▁yemekleri": 7625,
      "inti": 7626,
      "al": 7627,
      "▁kampan": 7628,
      "▁kizim": 7629,
      "▁mezar": 7630,
      "▁ulasılamadı": 7631,
      "▁bardagı": 7632,
      "▁denge": 7633,
      "▁satısların": 7634,
      "embe": 7635,
      "▁phoenix": 7636,
      "tigini": 7637,
      "▁muhalef": 7638,
      "▁konus": 7639,
      "▁stokları": 7640,
      "ahh": 7641,
      "▁cal": 7642,
      "▁mucevher": 7643,
      "indeki": 7644,
      "▁fırtına": 7645,
      "▁yuzde": 7646,
      "ede": 7647,
      "▁yabanc": 7648,
      "tırma": 7649,
      "▁komisyonu": 7650,
      "▁kalmıs": 7651,
      "▁falan": 7652,
      "▁zap": 7653,
      "▁yılda": 7654,
      "▁enist": 7655,
      "▁tahsil": 7656,
      "irli": 7657,
      "▁calisanlari": 7658,
      "▁istik": 7659,
      "aco": 7660,
      "▁cumhuriyeti": 7661,
      "▁detayları": 7662,
      "▁piyasaya": 7663,
      "▁nit": 7664,
      "▁aklıma": 7665,
      "▁rica": 7666,
      "▁kalp": 7667,
      "▁ihtir": 7668,
      "▁siyah": 7669,
      "▁cap": 7670,
      "▁derec": 7671,
      "▁uygun": 7672,
      "▁siz": 7673,
      "▁des": 7674,
      "_": 7675,
      "▁juri": 7676,
      "▁toplumun": 7677,
      "▁chicag": 7678,
      "▁kasırg": 7679,
      "▁mustaf": 7680,
      "lanı": 7681,
      "▁ilim": 7682,
      "ble": 7683,
      "▁adina": 7684,
      "▁part": 7685,
      "il": 7686,
      "▁merk": 7687,
      "'nın": 7688,
      "▁haf": 7689,
      "▁hakkı": 7690,
      "▁ayn": 7691,
      "▁saatlerde": 7692,
      "▁oteller": 7693,
      "ustur": 7694,
      "▁elinden": 7695,
      "▁bircok": 7696,
      "esine": 7697,
      "▁3.": 7698,
      "▁yet": 7699,
      "enk": 7700,
      "▁oldular": 7701,
      "▁komitesi": 7702,
      "▁anneme": 7703,
      "▁sanayi": 7704,
      "'nin": 7705,
      "▁konumunu": 7706,
      "'te": 7707,
      "gel": 7708,
      "▁dukk": 7709,
      "layıp": 7710,
      "▁degiller": 7711,
      "▁mar": 7712,
      "▁kosul": 7713,
      "▁iklim": 7714,
      "▁cent": 7715,
      "▁yig": 7716,
      "▁isver": 7717,
      "▁yen": 7718,
      "lardır": 7719,
      "raf": 7720,
      "imin": 7721,
      "▁okuy": 7722,
      "▁pal": 7723,
      "▁saz": 7724,
      "▁por": 7725,
      "isini": 7726,
      "indan": 7727,
      "▁ucusun": 7728,
      "▁ustelik": 7729,
      "ınlık": 7730,
      "▁bez": 7731,
      "-sat": 7732,
      "▁vermeyi": 7733,
      "▁cocuk": 7734,
      "▁tasın": 7735,
      "ilige": 7736,
      "▁kendini": 7737,
      "▁yeri": 7738,
      "▁dugun": 7739,
      "ana": 7740,
      "▁lokanta": 7741,
      "▁sub": 7742,
      "▁belediye": 7743,
      "▁bask": 7744,
      "▁vad": 7745,
      "▁artırmak": 7746,
      "▁artık": 7747,
      "▁dun": 7748,
      "9'da": 7749,
      "▁satısı": 7750,
      "▁ruzgar": 7751,
      "▁dug": 7752,
      "▁buk": 7753,
      "▁arama": 7754,
      "▁siy": 7755,
      "ksa": 7756,
      "▁sehre": 7757,
      "igin": 7758,
      ")": 7759,
      "▁prof": 7760,
      "▁duruyordu": 7761,
      "▁hanim": 7762,
      "▁endustr": 7763,
      "▁birbirlerine": 7764,
      "▁icim": 7765,
      "yor": 7766,
      "▁film": 7767,
      "adıgını": 7768,
      "min": 7769,
      "▁ah": 7770,
      "▁ettig": 7771,
      "▁butun": 7772,
      "mıs": 7773,
      "▁taksi": 7774,
      "▁lezzetli": 7775,
      "▁temizdi": 7776,
      "▁korkusu": 7777,
      "▁tok": 7778,
      "▁dekor": 7779,
      "▁gogus": 7780,
      "▁muhaf": 7781,
      "atını": 7782,
      "▁din": 7783,
      "▁ihtiyacları": 7784,
      "temelen": 7785,
      "▁macı": 7786,
      "▁demir": 7787,
      "▁havası": 7788,
      "▁ropor": 7789,
      "▁islerini": 7790,
      "▁menf": 7791,
      "▁gorusme": 7792,
      "gru": 7793,
      "imizin": 7794,
      "▁olacaktır": 7795,
      "▁disip": 7796,
      "▁mail": 7797,
      "▁nufus": 7798,
      "▁olmasi": 7799,
      "gimiz": 7800,
      "▁muc": 7801,
      "▁gost": 7802,
      "▁milletvekili": 7803,
      "▁miz": 7804,
      "▁pirinc": 7805,
      "▁halinde": 7806,
      "▁degi": 7807,
      "▁kutu": 7808,
      "▁ailenin": 7809,
      "▁hast": 7810,
      "▁acıl": 7811,
      "▁degillerdi": 7812,
      ".6": 7813,
      "▁c": 7814,
      "▁elde": 7815,
      "▁gundeme": 7816,
      "▁g": 7817,
      "▁dal": 7818,
      "▁alman": 7819,
      "▁sorunlar": 7820,
      "urlu": 7821,
      "▁tram": 7822,
      "▁cunku": 7823,
      "▁ogren": 7824,
      "▁tabiat": 7825,
      "▁yapısı": 7826,
      "▁tuk": 7827,
      "▁giris": 7828,
      "▁makal": 7829,
      "▁ailelere": 7830,
      "▁rek": 7831,
      "▁lirayı": 7832,
      "▁sep": 7833,
      "iyorum": 7834,
      "▁yard": 7835,
      "lugu": 7836,
      "▁miktarı": 7837,
      "ons": 7838,
      "▁yollarda": 7839,
      "▁ut": 7840,
      "tı": 7841,
      "▁baktı": 7842,
      "▁odamiz": 7843,
      "▁kavga": 7844,
      "kat": 7845,
      "▁buf": 7846,
      "▁parayi": 7847,
      "egini": 7848,
      "▁sirketin": 7849,
      "▁oldu": 7850,
      "▁acıgı": 7851,
      "▁22": 7852,
      "▁veriyor": 7853,
      "▁spekul": 7854,
      "pr": 7855,
      "cegini": 7856,
      "▁kagıtları": 7857,
      "▁acı": 7858,
      "ika": 7859,
      "▁carp": 7860,
      "aklı": 7861,
      "▁animasyonlari": 7862,
      "▁kade": 7863,
      "▁tarım": 7864,
      "▁buyume": 7865,
      "▁konuda": 7866,
      "▁mark": 7867,
      "▁faturam": 7868,
      "▁ayagına": 7869,
      "etik": 7870,
      "▁gecirmek": 7871,
      "▁biraz": 7872,
      "ekl": 7873,
      "▁milli": 7874,
      "▁duygular": 7875,
      "▁arasında": 7876,
      "ex": 7877,
      "lama": 7878,
      "▁karsıma": 7879,
      "▁dusunur": 7880,
      "maya": 7881,
      "maca": 7882,
      "ift": 7883,
      "▁gosteri": 7884,
      "▁asla": 7885,
      "9'un": 7886,
      "lgelelim": 7887,
      "▁coz": 7888,
      "▁pitts": 7889,
      "mada": 7890,
      "▁got": 7891,
      "etim": 7892,
      "▁piyasası": 7893,
      "°": 7894,
      "▁delikan": 7895,
      "▁sahs": 7896,
      "ard": 7897,
      "▁seviyesine": 7898,
      "inizi": 7899,
      "▁enerji": 7900,
      "▁anlasmanın": 7901,
      "▁subay": 7902,
      "te": 7903,
      "▁ruh": 7904,
      "▁oran": 7905,
      "▁genclik": 7906,
      "▁fazla": 7907,
      "ch": 7908,
      "▁olmustur": 7909,
      "uzluk": 7910,
      "▁hızlı": 7911,
      "▁cares": 7912,
      "▁uzaktan": 7913,
      "▁bildirdi": 7914,
      "macılar": 7915,
      "lılık": 7916,
      "▁arttı": 7917,
      "▁sınıfta": 7918,
      "ediklerini": 7919,
      "▁sey": 7920,
      "▁usta": 7921,
      "▁ilgilendi": 7922,
      "masın": 7923,
      "▁meh": 7924,
      "▁vadeli": 7925,
      "ecektir": 7926,
      "▁efend": 7927,
      "▁sin": 7928,
      "▁fis": 7929,
      "mez": 7930,
      "dik": 7931,
      "kur": 7932,
      "▁ısık": 7933,
      "▁houston": 7934,
      "▁dalga": 7935,
      "▁ekonom": 7936,
      "inci": 7937,
      "▁uzay": 7938,
      "▁r": 7939,
      "▁bilir": 7940,
      "▁tablo": 7941,
      "▁merkezinde": 7942,
      "▁of": 7943,
      "▁cop": 7944,
      "▁los": 7945,
      "▁motiv": 7946,
      "▁ucusunda": 7947,
      "▁damla": 7948,
      "▁bir": 7949,
      "▁ra": 7950,
      "▁1988": 7951,
      "32": 7952,
      "▁tırnak": 7953,
      "▁konumundan": 7954,
      "ıy": 7955,
      "▁tuy": 7956,
      "ırk": 7957,
      "▁verdigim": 7958,
      "▁yasam": 7959,
      "▁otom": 7960,
      "elleri": 7961,
      "▁onune": 7962,
      "irgin": 7963,
      "ob": 7964,
      "▁kalır": 7965,
      "▁basarısız": 7966,
      "▁bazen": 7967,
      "kk": 7968,
      "isinden": 7969,
      "▁fakat": 7970,
      "▁motor": 7971,
      "▁istanbul": 7972,
      "▁sogut": 7973,
      "▁bic": 7974,
      "▁ekmegi": 7975,
      "▁du": 7976,
      "graf": 7977,
      "▁zir": 7978,
      "▁beg": 7979,
      "cih": 7980,
      "▁sayesinde": 7981,
      "iti": 7982,
      "▁sofr": 7983,
      "▁jandar": 7984,
      "▁tesp": 7985,
      "▁cevap": 7986,
      "▁degerleri": 7987,
      "asız": 7988,
      "iye": 7989,
      "▁hangileri": 7990,
      "▁anahtar": 7991,
      "▁uyustur": 7992,
      "▁kurtul": 7993,
      "▁ref": 7994,
      "ımları": 7995,
      "lanmıs": 7996,
      "▁heykel": 7997,
      "arım": 7998,
      "▁annemle": 7999,
      "ısı": 8000,
      "▁analist": 8001,
      "▁hit": 8002,
      "'nde": 8003,
      "▁dortluk": 8004,
      "ilmis": 8005,
      "▁ederim": 8006,
      "▁degisim": 8007,
      "▁adayı": 8008,
      "▁zamanlar": 8009,
      "leg": 8010,
      "▁osman": 8011,
      "▁degisik": 8012,
      "▁tesv": 8013,
      "▁gorduk": 8014,
      "▁ıskarta": 8015,
      "per": 8016,
      "ladıgını": 8017,
      "▁soguk": 8018,
      "▁oldum": 8019,
      "olog": 8020,
      "larındaki": 8021,
      "▁kıvıl": 8022,
      "▁yoktur": 8023,
      "▁gozu": 8024,
      "▁faaliyeti": 8025,
      "▁elbis": 8026,
      "digi": 8027,
      "imiza": 8028,
      "fen": 8029,
      "▁geriledi": 8030,
      "▁plan": 8031,
      "'ya": 8032,
      "▁yapıl": 8033,
      "▁an": 8034,
      "▁baslarına": 8035,
      "▁clev": 8036,
      "▁donanma": 8037,
      "▁apart": 8038,
      "▁yetersiz": 8039,
      "ınızı": 8040,
      "eleriyle": 8041,
      "▁halka": 8042,
      "▁kisinin": 8043,
      "▁getirir": 8044,
      "menin": 8045,
      "▁degeri": 8046,
      "emin": 8047,
      "oeni": 8048,
      "▁teklifler": 8049,
      "ent": 8050,
      "▁cikista": 8051,
      "▁agzında": 8052,
      "▁istir": 8053,
      "ırı": 8054,
      "▁calı": 8055,
      "ugunun": 8056,
      "▁baskısı": 8057,
      "▁cih": 8058,
      "▁civarında": 8059,
      "▁kullanı": 8060,
      "▁yıldan": 8061,
      "▁kanıt": 8062,
      "▁fotograf": 8063,
      "▁kası": 8064,
      "▁anlay": 8065,
      "▁pol": 8066,
      "▁16": 8067,
      "▁pahaliydi": 8068,
      "▁girer": 8069,
      "▁garanti": 8070,
      "amı": 8071,
      "▁ihtim": 8072,
      "▁artarak": 8073,
      "eyen": 8074,
      "▁bas": 8075,
      "▁isin": 8076,
      "▁karayol": 8077,
      "00'e": 8078,
      "▁fiyatları": 8079,
      "▁davul": 8080,
      "▁nedenini": 8081,
      "▁bakanlıgı": 8082,
      "▁gen": 8083,
      "▁durumunda": 8084,
      "▁surucu": 8085,
      "tun": 8086,
      "▁cocuklar": 8087,
      "umda": 8088,
      "▁icat": 8089,
      "▁sinema": 8090,
      "mustur": 8091,
      "▁viz": 8092,
      "ardan": 8093,
      "▁gidiyor": 8094,
      "i": 8095,
      "▁payı": 8096,
      "▁paran": 8097,
      "▁duvara": 8098,
      "▁o": 8099,
      "▁suyunu": 8100,
      "▁gozyas": 8101,
      "▁al": 8102,
      "▁serg": 8103,
      "▁basla": 8104,
      "ımdan": 8105,
      "▁karan": 8106,
      "burg": 8107,
      "layacak": 8108,
      "▁ihtiyar": 8109,
      "▁ur": 8110,
      "▁yuzuk": 8111,
      "▁haberi": 8112,
      "▁satın": 8113,
      "▁oranla": 8114,
      "▁nikah": 8115,
      "▁ayına": 8116,
      "lom": 8117,
      "▁gelecek": 8118,
      "▁ert": 8119,
      "▁simdi": 8120,
      "▁mecl": 8121,
      "▁sofor": 8122,
      "uv": 8123,
      "dugunde": 8124,
      "▁dir": 8125,
      "ısının": 8126,
      "▁gol": 8127,
      "▁ayının": 8128,
      "▁kıvılc": 8129,
      "▁icinden": 8130,
      "▁pencer": 8131,
      "▁kalmaya": 8132,
      "▁kart": 8133,
      "▁suyu": 8134,
      "▁hamur": 8135,
      "▁evlerine": 8136,
      "▁atlan": 8137,
      "▁zahmet": 8138,
      "▁gecmis": 8139,
      "▁guvenlik": 8140,
      "▁piyasayı": 8141,
      "▁grup": 8142,
      "▁gi": 8143,
      "▁sergi": 8144,
      "sıyla": 8145,
      "▁hul": 8146,
      "▁kendiniz": 8147,
      "▁kep": 8148,
      "▁perform": 8149,
      "▁calis": 8150,
      "▁denver": 8151,
      "▁var": 8152,
      "▁hukumetin": 8153,
      "uar": 8154,
      "▁otesinde": 8155,
      "lim": 8156,
      "biy": 8157,
      "▁mektubu": 8158,
      "amıza": 8159,
      "▁yazılım": 8160,
      "▁gelgelelim": 8161,
      "▁kalıb": 8162,
      "▁bur": 8163,
      "▁iyil": 8164,
      "▁sansı": 8165,
      "alıgı": 8166,
      "▁disinda": 8167,
      "irim": 8168,
      "▁seyin": 8169,
      "▁tes": 8170,
      "▁namaz": 8171,
      "▁issizlik": 8172,
      "▁masada": 8173,
      "▁ant": 8174,
      "▁iktid": 8175,
      "▁yol": 8176,
      "▁gazet": 8177,
      "▁golge": 8178,
      "▁toplamda": 8179,
      "▁sek": 8180,
      "▁yuklen": 8181,
      "▁plaj": 8182,
      "▁contin": 8183,
      "iyat": 8184,
      "ental": 8185,
      "▁evden": 8186,
      "▁$'dan": 8187,
      "aseb": 8188,
      "▁halkın": 8189,
      "alardan": 8190,
      "iyatr": 8191
    },
    "merges": [
      [
        "i",
        "bi"
      ],
      [
        "it",
        "li"
      ],
      [
        "▁doktor",
        "un"
      ],
      [
        "▁od",
        "asi"
      ],
      [
        "b",
        "us"
      ],
      [
        "▁pay",
        "ını"
      ],
      [
        "k",
        "sa"
      ],
      [
        "▁tarih",
        "in"
      ],
      [
        "▁kuz",
        "ey"
      ],
      [
        "▁d",
        "ort"
      ],
      [
        "si",
        "k"
      ],
      [
        "▁ucret",
        "e"
      ],
      [
        "▁hik",
        "ay"
      ],
      [
        "▁dog",
        "ru"
      ],
      [
        "▁b",
        "elli"
      ],
      [
        "▁bin",
        "anın"
      ],
      [
        "▁s",
        "ans"
      ],
      [
        "u",
        "l"
      ],
      [
        "▁g",
        "um"
      ],
      [
        "▁ekip",
        "man"
      ],
      [
        "co",
        "g"
      ],
      [
        "▁kor",
        "k"
      ],
      [
        "▁al",
        "lah"
      ],
      [
        "lay",
        "acagını"
      ],
      [
        "l",
        "om"
      ],
      [
        "▁y",
        "emek"
      ],
      [
        "▁yonetim",
        "inin"
      ],
      [
        "▁ar",
        "tıs"
      ],
      [
        "▁mum",
        "kun"
      ],
      [
        "is",
        "el"
      ],
      [
        "re",
        "et"
      ],
      [
        "▁p",
        "ayı"
      ],
      [
        "▁es",
        "pr"
      ],
      [
        "▁b",
        "izi"
      ],
      [
        "▁had",
        "is"
      ],
      [
        "▁tar",
        "la"
      ],
      [
        "▁yap",
        "tır"
      ],
      [
        "▁faturam",
        "i"
      ],
      [
        "▁az",
        "alt"
      ],
      [
        "▁y",
        "ab"
      ],
      [
        "vil",
        "le"
      ],
      [
        "▁cocuk",
        "larını"
      ],
      [
        "y",
        "en"
      ],
      [
        "▁tem",
        "iz"
      ],
      [
        "▁yuz",
        "yıl"
      ],
      [
        "▁aile",
        "lerin"
      ],
      [
        "is",
        "tan"
      ],
      [
        "▁gay",
        "ret"
      ],
      [
        "▁mil",
        "let"
      ],
      [
        "mekt",
        "edir"
      ],
      [
        "▁muh",
        "ab"
      ],
      [
        "▁yaptir",
        "madim"
      ],
      [
        "▁s",
        "as"
      ],
      [
        "▁ar",
        "d"
      ],
      [
        "▁hac",
        "im"
      ],
      [
        "▁muda",
        "hal"
      ],
      [
        "ar",
        "en"
      ],
      [
        "▁sık",
        "ı"
      ],
      [
        "h",
        "ut"
      ],
      [
        "▁oldu",
        "gu"
      ],
      [
        "▁kosul",
        "lar"
      ],
      [
        "▁tas",
        "a"
      ],
      [
        "▁gun",
        "umuzde"
      ],
      [
        "▁eglen",
        "ce"
      ],
      [
        "g",
        "ah"
      ],
      [
        "▁kol",
        "e"
      ],
      [
        "▁2",
        "0"
      ],
      [
        "tı",
        "n"
      ],
      [
        "▁dun",
        "y"
      ],
      [
        "at",
        "li"
      ],
      [
        "ur",
        "u"
      ],
      [
        "▁soyl",
        "en"
      ],
      [
        "▁om",
        "ur"
      ],
      [
        "▁tan",
        "r"
      ],
      [
        "▁ya",
        "vas"
      ],
      [
        "▁co",
        "z"
      ],
      [
        "▁p",
        "ol"
      ],
      [
        "▁t",
        "eh"
      ],
      [
        "▁kom",
        "ur"
      ],
      [
        "▁b",
        "ank"
      ],
      [
        "▁kız",
        "ları"
      ],
      [
        "▁i",
        "f"
      ],
      [
        "▁par",
        "ayı"
      ],
      [
        "▁zay",
        "ıf"
      ],
      [
        "ların",
        "da"
      ],
      [
        "▁yaklas",
        "imi"
      ],
      [
        "▁on",
        "ay"
      ],
      [
        "▁olu",
        "p"
      ],
      [
        "▁okul",
        "a"
      ],
      [
        "▁",
        "ır"
      ],
      [
        "n",
        "a"
      ],
      [
        "p",
        "a"
      ],
      [
        "▁ara",
        "larında"
      ],
      [
        "▁toh",
        "um"
      ],
      [
        "▁tedav",
        "i"
      ],
      [
        "▁olma",
        "ktan"
      ],
      [
        "▁sigort",
        "ası"
      ],
      [
        "▁ya",
        "lan"
      ],
      [
        "id",
        "ir"
      ],
      [
        "d",
        "uz"
      ],
      [
        "▁dum",
        "an"
      ],
      [
        "d",
        "at"
      ],
      [
        "▁",
        "ekl"
      ],
      [
        "▁sup",
        "he"
      ],
      [
        "▁yemek",
        "ler"
      ],
      [
        "▁bat",
        "ı"
      ],
      [
        "ay",
        "dı"
      ],
      [
        "▁gordu",
        "k"
      ],
      [
        "▁ay",
        "ında"
      ],
      [
        "▁zar",
        "f"
      ],
      [
        "'n",
        "un"
      ],
      [
        "▁",
        "dik"
      ],
      [
        "▁hap",
        "is"
      ],
      [
        "▁kendi",
        "ler"
      ],
      [
        "3",
        "'e"
      ],
      [
        "ak",
        "lı"
      ],
      [
        "▁s",
        "ıg"
      ],
      [
        "▁d",
        "ieg"
      ],
      [
        "i",
        "ran"
      ],
      [
        "▁bilgi",
        "say"
      ],
      [
        "▁3",
        "0"
      ],
      [
        "▁yanı",
        "t"
      ],
      [
        "▁piyas",
        "aya"
      ],
      [
        "▁gar",
        "anti"
      ],
      [
        "▁ev",
        "den"
      ],
      [
        "ul",
        "ur"
      ],
      [
        "▁y",
        "az"
      ],
      [
        "i",
        "y"
      ],
      [
        "▁cer",
        "cev"
      ],
      [
        "▁sekl",
        "inde"
      ],
      [
        "ib",
        "ar"
      ],
      [
        "▁kal",
        "maya"
      ],
      [
        "ok",
        "r"
      ],
      [
        "il",
        "l"
      ],
      [
        "▁tes",
        "p"
      ],
      [
        "▁m",
        "ez"
      ],
      [
        "ekt",
        "r"
      ],
      [
        "te",
        "k"
      ],
      [
        "er",
        "n"
      ],
      [
        "▁m",
        "ek"
      ],
      [
        "uz",
        "a"
      ],
      [
        "▁sec",
        "men"
      ],
      [
        "▁yap",
        "tıgı"
      ],
      [
        "▁v",
        "ali"
      ],
      [
        "▁oda",
        "dan"
      ],
      [
        "es",
        "inden"
      ],
      [
        "▁amerik",
        "an"
      ],
      [
        "▁ne",
        "yse"
      ],
      [
        "ol",
        "a"
      ],
      [
        "kt",
        "u"
      ],
      [
        "▁ti",
        "tr"
      ],
      [
        "▁y",
        "anından"
      ],
      [
        "▁siy",
        "ah"
      ],
      [
        "▁gun",
        "ah"
      ],
      [
        "▁tak",
        "ımı"
      ],
      [
        "▁en",
        "st"
      ],
      [
        "r",
        "e"
      ],
      [
        "gi",
        "li"
      ],
      [
        "g",
        "imiz"
      ],
      [
        "▁se",
        "b"
      ],
      [
        "▁dur",
        "us"
      ],
      [
        "▁kay",
        "bet"
      ],
      [
        "▁hukum",
        "dar"
      ],
      [
        "▁ust",
        "unde"
      ],
      [
        "▁gec",
        "enin"
      ],
      [
        "▁v",
        "et"
      ],
      [
        "▁s",
        "u"
      ],
      [
        "▁e",
        "m"
      ],
      [
        "▁al",
        "ak"
      ],
      [
        "▁kars",
        "i"
      ],
      [
        "▁altın",
        "dan"
      ],
      [
        "▁sey",
        "leri"
      ],
      [
        "▁",
        "ak"
      ],
      [
        "▁be",
        "raber"
      ],
      [
        "▁",
        "oy"
      ],
      [
        "▁dav",
        "ul"
      ],
      [
        "m",
        "emis"
      ],
      [
        "▁ta",
        "bi"
      ],
      [
        "▁kol",
        "ay"
      ],
      [
        "▁bab",
        "an"
      ],
      [
        "ers",
        "iz"
      ],
      [
        "s",
        "al"
      ],
      [
        "▁tay",
        "in"
      ],
      [
        "uyor",
        "um"
      ],
      [
        "▁hal",
        "e"
      ],
      [
        "im",
        "de"
      ],
      [
        "lar",
        "dı"
      ],
      [
        "▁goz",
        "une"
      ],
      [
        "u",
        "b"
      ],
      [
        "▁c",
        "et"
      ],
      [
        "lar",
        "ının"
      ],
      [
        "▁sanat",
        "cı"
      ],
      [
        "▁is",
        "t"
      ],
      [
        "▁is",
        "lere"
      ],
      [
        "▁mal",
        "i"
      ],
      [
        "▁elektr",
        "ik"
      ],
      [
        "me",
        "ye"
      ],
      [
        "▁americ",
        "an"
      ],
      [
        "▁c",
        "anlı"
      ],
      [
        "▁y",
        "di"
      ],
      [
        "▁di",
        "z"
      ],
      [
        "▁kab",
        "uk"
      ],
      [
        "lar",
        "ca"
      ],
      [
        "cul",
        "uk"
      ],
      [
        "o",
        "t"
      ],
      [
        "▁soyl",
        "em"
      ],
      [
        "ol",
        "oj"
      ],
      [
        "▁krav",
        "at"
      ],
      [
        "▁st",
        "r"
      ],
      [
        "▁har",
        "ic"
      ],
      [
        "▁kad",
        "ın"
      ],
      [
        "▁say",
        "isi"
      ],
      [
        "▁mek",
        "tu"
      ],
      [
        "▁siy",
        "as"
      ],
      [
        "as",
        "ız"
      ],
      [
        "▁gog",
        "s"
      ],
      [
        "▁yetk",
        "ili"
      ],
      [
        "▁der",
        "gi"
      ],
      [
        "▁uz",
        "erindeki"
      ],
      [
        "sa",
        "cak"
      ],
      [
        "▁el",
        "estiri"
      ],
      [
        "▁al",
        "an"
      ],
      [
        "u",
        "lu"
      ],
      [
        "lıg",
        "ı"
      ],
      [
        "▁kimse",
        "ye"
      ],
      [
        "▁ca",
        "p"
      ],
      [
        "▁ama",
        "c"
      ],
      [
        "a",
        "l"
      ],
      [
        "▁a",
        "lev"
      ],
      [
        "▁he",
        "m"
      ],
      [
        "▁sak",
        "ız"
      ],
      [
        "▁dig",
        "er"
      ],
      [
        "▁ist",
        "edigini"
      ],
      [
        "iz",
        "ma"
      ],
      [
        "▁acı",
        "dan"
      ],
      [
        "en",
        "lere"
      ],
      [
        "▁k",
        "anı"
      ],
      [
        "▁sar",
        "ım"
      ],
      [
        "▁kos",
        "esinde"
      ],
      [
        "▁sp",
        "ons"
      ],
      [
        "▁",
        "ih"
      ],
      [
        "▁dogr",
        "usu"
      ],
      [
        "▁c",
        "ark"
      ],
      [
        "▁di",
        "le"
      ],
      [
        "▁pittsburgh",
        "'a"
      ],
      [
        "▁muz",
        "ik"
      ],
      [
        "▁y",
        "ine"
      ],
      [
        "▁mark",
        "a"
      ],
      [
        "an",
        "c"
      ],
      [
        "ac",
        "agı"
      ],
      [
        "▁",
        "ar"
      ],
      [
        "▁bas",
        "arılı"
      ],
      [
        "▁d",
        "ef"
      ],
      [
        "▁",
        "mek"
      ],
      [
        "-",
        "a"
      ],
      [
        "▁oran",
        "ları"
      ],
      [
        "▁t",
        "iyatr"
      ],
      [
        "▁ter",
        "ed"
      ],
      [
        "▁m",
        "ısır"
      ],
      [
        "in",
        "da"
      ],
      [
        "▁lezzet",
        "leri"
      ],
      [
        "▁ol",
        "masi"
      ],
      [
        "▁cesit",
        "ler"
      ],
      [
        "▁om",
        "uz"
      ],
      [
        "▁uret",
        "ic"
      ],
      [
        "▁ser",
        "v"
      ],
      [
        "▁y",
        "eni"
      ],
      [
        "▁bo",
        "l"
      ],
      [
        "▁ort",
        "aydi"
      ],
      [
        "▁r",
        "ak"
      ],
      [
        "▁m",
        "ev"
      ],
      [
        ".",
        "."
      ],
      [
        "▁y",
        "ıla"
      ],
      [
        "▁anlam",
        "ıyla"
      ],
      [
        "▁f",
        "ay"
      ],
      [
        "▁duv",
        "ara"
      ],
      [
        "acı",
        "ların"
      ],
      [
        "▁p",
        "u"
      ],
      [
        "ed",
        "igi"
      ],
      [
        "▁ge",
        "c"
      ],
      [
        "c",
        "ak"
      ],
      [
        "▁",
        "if"
      ],
      [
        "▁soyl",
        "ey"
      ],
      [
        "c",
        "ag"
      ],
      [
        "▁ger",
        "c"
      ],
      [
        "▁baltimore",
        "'ye"
      ],
      [
        "a",
        "rı"
      ],
      [
        "▁kagı",
        "t"
      ],
      [
        "▁m",
        "uc"
      ],
      [
        "ab",
        "il"
      ],
      [
        "▁ortam",
        "da"
      ],
      [
        "▁acık",
        "ladı"
      ],
      [
        "▁olay",
        "lar"
      ],
      [
        "▁ic",
        "in"
      ],
      [
        "▁kur",
        "al"
      ],
      [
        "▁yardım",
        "cısı"
      ],
      [
        "ler",
        "den"
      ],
      [
        "▁do",
        "v"
      ],
      [
        "lan",
        "an"
      ],
      [
        "▁zaman",
        "lar"
      ],
      [
        "▁odan",
        "ın"
      ],
      [
        "▁",
        "ı"
      ],
      [
        "▁ham",
        "am"
      ],
      [
        "▁program",
        "ları"
      ],
      [
        "ay",
        "ol"
      ],
      [
        "▁sef",
        "er"
      ],
      [
        "ka",
        "n"
      ],
      [
        "▁tut",
        "mak"
      ],
      [
        "▁siy",
        "aset"
      ],
      [
        "▁",
        "edi"
      ],
      [
        "siz",
        "ligi"
      ],
      [
        "erin",
        "deki"
      ],
      [
        "▁olma",
        "yı"
      ],
      [
        "▁hizmet",
        "te"
      ],
      [
        "▁havalim",
        "an"
      ],
      [
        "k",
        "on"
      ],
      [
        "▁c",
        "ın"
      ],
      [
        "▁ort",
        "ak"
      ],
      [
        "▁kon",
        "ak"
      ],
      [
        "▁kel",
        "ep"
      ],
      [
        "i",
        "a"
      ],
      [
        "▁durum",
        "dan"
      ],
      [
        "▁or",
        "g"
      ],
      [
        "m",
        "isti"
      ],
      [
        "aları",
        "yla"
      ],
      [
        "▁h",
        "ızı"
      ],
      [
        "▁pilot",
        "lar"
      ],
      [
        "se",
        "f"
      ],
      [
        "el",
        "li"
      ],
      [
        "▁ac",
        "ıldı"
      ],
      [
        "▁ogret",
        "men"
      ],
      [
        "▁yolcu",
        "luk"
      ],
      [
        "▁ser",
        "may"
      ],
      [
        "▁yet",
        "kili"
      ],
      [
        "▁ol",
        "mustur"
      ],
      [
        "▁birlik",
        "te"
      ],
      [
        "▁v",
        "urdu"
      ],
      [
        "▁el",
        "estir"
      ],
      [
        "ki",
        "z"
      ],
      [
        "▁hanim",
        "la"
      ],
      [
        "len",
        "dir"
      ],
      [
        "▁sas",
        "ır"
      ],
      [
        "▁dıs",
        "isleri"
      ],
      [
        "ı",
        "l"
      ],
      [
        "▁",
        "uz"
      ],
      [
        "▁ko",
        "c"
      ],
      [
        "▁kat",
        "egor"
      ],
      [
        "▁",
        "at"
      ],
      [
        "▁yer",
        "in"
      ],
      [
        "▁",
        "eda"
      ],
      [
        "▁animasyon",
        "lar"
      ],
      [
        "▁og",
        "le"
      ],
      [
        "▁",
        "y"
      ],
      [
        "▁kur",
        "t"
      ],
      [
        "▁",
        "4"
      ],
      [
        "▁bas",
        "lamak"
      ],
      [
        "c",
        "ısı"
      ],
      [
        "▁asag",
        "ıya"
      ],
      [
        "ak",
        "ları"
      ],
      [
        "▁eks",
        "ik"
      ],
      [
        "l",
        "ayı"
      ],
      [
        "▁kalit",
        "esinden"
      ],
      [
        "len",
        "en"
      ],
      [
        "▁a",
        "mma"
      ],
      [
        "▁sag",
        "lık"
      ],
      [
        "▁alak",
        "a"
      ],
      [
        "▁tarih",
        "ine"
      ],
      [
        "▁gerek",
        "tir"
      ],
      [
        "v",
        "i"
      ],
      [
        "▁at",
        "lar"
      ],
      [
        "▁kit",
        "abı"
      ],
      [
        "▁mevz",
        "u"
      ],
      [
        "▁g",
        "ov"
      ],
      [
        "▁al",
        "maya"
      ],
      [
        "▁5",
        "0"
      ],
      [
        "▁mill",
        "eti"
      ],
      [
        "y",
        "osu"
      ],
      [
        "ma",
        "n"
      ],
      [
        "▁da",
        "h"
      ],
      [
        "iyat",
        "r"
      ],
      [
        "▁bu",
        "las"
      ],
      [
        "ler",
        "e"
      ],
      [
        "▁iht",
        "iy"
      ],
      [
        "▁ticaret",
        "inde"
      ],
      [
        "▁gerekti",
        "gini"
      ],
      [
        "▁h",
        "af"
      ],
      [
        "▁ark",
        "asında"
      ],
      [
        "▁sınır",
        "ları"
      ],
      [
        "id",
        "a"
      ],
      [
        "▁karsı",
        "tı"
      ],
      [
        "il",
        "leri"
      ],
      [
        "▁y",
        "uk"
      ],
      [
        "o",
        "f"
      ],
      [
        "larımız",
        "ın"
      ],
      [
        "▁",
        "25"
      ],
      [
        "sı",
        "z"
      ],
      [
        "▁s",
        "av"
      ],
      [
        "▁tucc",
        "ar"
      ],
      [
        "▁ma",
        "lum"
      ],
      [
        "▁or",
        "ta"
      ],
      [
        "▁kan",
        "un"
      ],
      [
        "▁karar",
        "gah"
      ],
      [
        "gi",
        "n"
      ],
      [
        "a",
        "b"
      ],
      [
        "▁ka",
        "lit"
      ],
      [
        "ı",
        "rı"
      ],
      [
        "▁pro",
        "f"
      ],
      [
        "ust",
        "ur"
      ],
      [
        "▁hal",
        "k"
      ],
      [
        "▁oran",
        "larının"
      ],
      [
        "▁d",
        "agı"
      ],
      [
        "le",
        "v"
      ],
      [
        "▁dus",
        "unce"
[...]
