{
  "version": "1.0",
  "truncation": null,
  "padding": null,
  "added_tokens": [
    {
      "id": 562,
      "content": "[UNK]",
      "single_word": false,
      "lstrip": false,
      "rstrip": false,
      "normalized": false,
      "special": true
    },
    {
      "id": 820,
      "content": "[MASK]",
      "single_word": false,
      "lstrip": false,
      "rstrip": false,
      "normalized": false,
      "special": true
    },
    {
      "id": 4271,
      "content": "[CLS]",
      "single_word": false,
      "lstrip": false,
      "rstrip": false,
      "normalized": false,
      "special": true
    },
    {
      "id": 5710,
      "content": "[SEP]",
      "single_word": false,
      "lstrip": false,
      "rstrip": false,
      "normalized": false,
      "special": true
    },
    {
      "id": 6123,
      "content": "[PAD]",
      "single_word": false,
      "lstrip": false,
      "rstrip": false,
      "normalized": false,
      "special": true
    }
  ],
  "normalizer": {
    "type": "Sequence",
    "normalizers": [
      {
        "type": "NFD"
      },
      {
        "type": "Lowercase"
      },
      {
        "type": "StripAccents"
      }
    ]
  },
  "pre_tokenizer": {
    "type": "Sequence",
    "pretokenizers": [
      {
        "type": "Metaspace",
        "replacement": "▁",
        "prepend_scheme": "always",
        "split": true
      }
    ]
  },
  "post_processor": {
    "type": "TemplateProcessing",
    "single": [
      {
        "SpecialToken": {
          "id": "[CLS]",
          "type_id": 0
        }
      },
      {
        "Sequence": {
          "id": "A",
          "type_id": 0
        }
      },
      {
        "SpecialToken": {
          "id": "[SEP]",
          "type_id": 0
        }
      }
    ],
    "pair": [
      {
        "SpecialToken": {
          "id": "[CLS]",
          "type_id": 0
        }
      },
      {
        "Sequence": {
          "id": "A",
          "type_id": 0
        }
      },
      {
        "SpecialToken": {
          "id": "[SEP]",
          "type_id": 0
        }
      },
      {
        "Sequence": {
          "id": "B",
          "type_id": 1
        }
      },
      {
        "SpecialToken": {
          "id": "[SEP]",
          "type_id": 1
        }
      }
    ],
    "special_tokens": {
      "[CLS]": {
        "id": "[CLS]",
        "ids": [
          4271
        ],
        "tokens": [
          "[CLS]"
        ]
      },
      "[SEP]": {
        "id": "[SEP]",
        "ids": [
          5710
        ],
        "tokens": [
          "[SEP]"
        ]
      }
    }
  },
  "decoder": {
    "type": "Metaspace",
    "replacement": "▁",
    "prepend_scheme": "always",
    "split": true
  },
  "model": {
    "type": "Unigram",
    "unk_id": 562,
    "vocab": [
      [
        "▁40",
        -6.045535918803367
      ],
      [
        "az",
        -8.895652220484273
      ],
      [
        "▁istiyoru",
        -5.066155671076176
      ],
      [
        "▁yarısı",
        -9.25496088864322
      ],
      [
        "▁medya",
        -9.222455595441172
      ],
      [
        "▁yazılım",
        -9.38817901611938
      ],
      [
        "▁orgu",
        -9.68169905630364
      ],
      [
        "▁elbet",
        -6.771714475515565
      ],
      [
        "▁elimde",
        -9.560730865293479
      ],
      [
        "▁zamanı",
        -8.626130107246297
      ],
      [
        "▁dilim",
        -9.008356897369895
      ],
      [
        "▁zorluklar",
        -9.925048239101265
      ],
      [
        "▁satıyor",
        -8.779282749074019
      ],
      [
        "▁atıyor",
        -8.333497825657489
      ],
      [
        "▁karsilama",
        -8.275826153557919
      ],
      [
        "▁balo",
        -9.500575991409896
      ],
      [
        "▁yolu",
        -8.024695299742799
      ],
      [
        "▁mıydı",
        -5.937353458778416
      ],
      [
        "▁program",
        -8.248347034730642
      ],
      [
        "▁icmek",
        -10.156511511353978
      ],
      [
        "▁arayısı",
        -9.972400786612475
      ],
      [
        "ne",
        -7.508679295573124
      ],
      [
        "ar",
        -7.493436261772175
      ],
      [
        "▁kot",
        -10.087578710351782
      ],
      [
        "▁problem",
        -8.437271872515112
      ],
      [
        "tasıy",
        -7.833408465297406
      ],
      [
        "▁dahil",
        -8.059242805474966
      ],
      [
        "00'de",
        -9.816987984054753
      ],
      [
        "l",
        -6.569307647131929
      ],
      [
        "▁benim",
        -8.657290628416938
      ],
      [
        "▁oturuyor",
        -8.703918861795998
      ],
      [
        "▁buyukler",
        -10.013955457539678
      ],
      [
        "▁resimler",
        -10.160488546714054
      ],
      [
        "▁d",
        -7.195383266702848
      ],
      [
        "▁eczane",
        -10.176306519491936
      ],
      [
        "ta",
        -6.309472583087412
      ],
      [
        "niz",
        -8.41654031657255
      ],
      [
        "▁beceri",
        -10.02795621098985
      ],
      [
        "▁daglar",
        -9.389478689073899
      ],
      [
        "el",
        -8.691758636762444
      ],
      [
        "▁sucu",
        -10.11500007940874
      ],
      [
        "▁raporu",
        -9.236827379202545
      ],
      [
        "▁ok",
        -9.19190345034056
      ],
      [
        "▁yazarlar",
        -9.843590467644018
      ],
      [
        "a",
        -12.802702672349763
      ],
      [
        "iyet",
        -8.358596479865508
      ],
      [
        "▁yıllarında",
        -10.115277939990477
      ],
      [
        "ha",
        -8.439566849849676
      ],
      [
        "▁bir",
        -1.2266873658587887
      ],
      [
        "▁cocugu",
        -8.553997961061583
      ],
      [
        "▁yasa",
        -8.193458424390169
      ],
      [
        "▁herif",
        -9.28311556223514
      ],
      [
        "▁ala",
        -8.093254663736081
      ],
      [
        "▁turu",
        -9.419532734274473
      ],
      [
        "▁disleri",
        -10.032415391346117
      ],
      [
        "▁sınav",
        -9.376403135358858
      ],
      [
        "▁kaldırma",
        -9.681834339984965
      ],
      [
        "▁yarar",
        -9.642015797079011
      ],
      [
        "▁destekl",
        -7.771508578799349
      ],
      [
        "▁der",
        -9.662001043245109
      ],
      [
        "mal",
        -9.24465330033221
      ],
      [
        "p",
        -4.215807387704473
      ],
      [
        "kin",
        -5.764318754693728
      ],
      [
        "y",
        -9.699613634584775
      ],
      [
        "▁gelis",
        -8.914849163749613
      ],
      [
        "▁du",
        -8.633377315617889
      ],
      [
        "▁meclisi",
        -9.488398315088952
      ],
      [
        "▁d",
        -8.73131632082943
      ],
      [
        "▁toprag",
        -9.75972422173824
      ],
      [
        "▁20",
        -5.2040630633608735
      ],
      [
        "▁katana",
        -10.100767139187075
      ],
      [
        "ser",
        -9.454922673236004
      ],
      [
        "yil",
        -8.126759085737312
      ],
      [
        "▁aralık",
        -7.542248708489103
      ],
      [
        "lılar",
        -9.499587971746385
      ],
      [
        "idir",
        -7.271293307017589
      ],
      [
        "▁beni",
        -8.490688144540702
      ],
      [
        "▁kızı",
        -8.362776734903555
      ],
      [
        "%",
        -4.15274950330704
      ],
      [
        "▁bizler",
        -6.88459860956202
      ],
      [
        "abilir",
        -6.895848050690989
      ],
      [
        "▁mola",
        -8.864551498422216
      ],
      [
        "▁dusunce",
        -8.837703919749423
      ],
      [
        "ask",
        -5.901277785160477
      ],
      [
        "▁ust",
        -8.814400935681396
      ],
      [
        "▁bakkal",
        -9.588709681879443
      ],
      [
        "ak",
        -8.1590688120904
      ],
      [
        "▁baslarını",
        -9.96323597301498
      ],
      [
        "▁yurudu",
        -8.099884682814995
      ],
      [
        "▁1/",
        -5.763313856350588
      ],
      [
        "▁ureticileri",
        -9.217825228227522
      ],
      [
        "▁ticaret",
        -7.89414403646159
      ],
      [
        "klı",
        -8.389136496097425
      ],
      [
        "ndek",
        -8.781845562392554
      ],
      [
        "▁saz",
        -9.468007100654543
      ],
      [
        "▁sat",
        -9.282994712297379
      ],
      [
        "▁boyutu",
        -10.17211018631584
      ],
      [
        "g",
        -7.27912895775941
      ],
      [
        "▁bagır",
        -8.921535024572322
      ],
      [
        "▁asagıda",
        -8.947762715351653
      ],
      [
        "▁olus",
        -8.063743019982343
      ],
      [
        "▁not",
        -9.076649044407533
      ],
      [
        "▁duyar",
        -8.477995964029375
      ],
      [
        "▁tepe",
        -8.934446019529291
      ],
      [
        "▁bunda",
        -7.388617737186985
      ],
      [
        "▁derdin",
        -9.950705520755738
      ],
      [
        "▁yalan",
        -9.026041349589276
      ],
      [
        "▁kalır",
        -8.265413742871766
      ],
      [
        "ley",
        -8.09942688615328
      ],
      [
        "▁olumun",
        -9.881758854614137
      ],
      [
        "tim",
        -9.759050628751005
      ],
      [
        "▁kurt",
        -8.100519537105876
      ],
      [
        "▁worth'da",
        -7.589467204646883
      ],
      [
        "taki",
        -7.906016675487488
      ],
      [
        "▁is",
        -3.0359727194443247
      ],
      [
        "unla",
        -5.843073533484597
      ],
      [
        "▁icinde",
        -6.990497544409592
      ],
      [
        "▁vatan",
        -8.953586680142813
      ],
      [
        "dan",
        -7.068713376293524
      ],
      [
        "▁yoneticilerin",
        -10.045568750929457
      ],
      [
        "▁kusur",
        -8.597400942839396
      ],
      [
        "▁duzen",
        -8.760545102418082
      ],
      [
        "▁planını",
        -9.49354510337759
      ],
      [
        "er",
        -6.344730511987983
      ],
      [
        "▁kalanı",
        -9.78615477272875
      ],
      [
        "▁katkı",
        -8.219387496515498
      ],
      [
        "▁ahmet",
        -7.460731861142552
      ],
      [
        "r",
        -3.023477297952499
      ],
      [
        "▁fed",
        -8.333756907682446
      ],
      [
        "▁anladı",
        -7.889241620264003
      ],
      [
        "▁kaymakam",
        -9.96128918225597
      ],
      [
        "▁insaat",
        -8.525222547279625
      ],
      [
        "▁bagı",
        -9.286723585521381
      ],
      [
        "▁cevril",
        -8.862144432819633
      ],
      [
        "boy",
        -9.336408938206505
      ],
      [
        "s",
        -6.083064316595122
      ],
      [
        "kle",
        -9.95801683559978
      ],
      [
        "▁babasını",
        -9.587439996024191
      ],
      [
        "▁milyon",
        -3.278490722863072
      ],
      [
        "onun",
        -7.534328467502998
      ],
      [
        "▁ikna",
        -9.54526251206085
      ],
      [
        "▁beklentimi",
        -9.702099216139644
      ],
      [
        "▁isler",
        -8.386896412792455
      ],
      [
        "i",
        -5.429547822392264
      ],
      [
        "▁gez",
        -8.570622304197522
      ],
      [
        "▁seviyesinde",
        -8.72094694578546
      ],
      [
        "▁hedefi",
        -9.515155519137078
      ],
      [
        "▁bilim",
        -7.662561484827333
      ],
      [
        "▁koku",
        -8.606913650886579
      ],
      [
        "▁biraz",
        -4.687763168436832
      ],
      [
        "▁isciler",
        -9.190904928471841
      ],
      [
        "▁tank",
        -10.101973055010296
      ],
      [
        "▁hareketi",
        -9.135351422442254
      ],
      [
        "rasın",
        -9.899731043873167
      ],
      [
        "▁tarla",
        -8.578038325302416
      ],
      [
        "go",
        -9.390059215577775
      ],
      [
        "▁ba",
        -10.862362165488445
      ],
      [
        "▁isleri",
        -8.875601072342603
      ],
      [
        "lig",
        -8.089036832501955
      ],
      [
        "▁12",
        -5.275039660619872
      ],
      [
        "elim",
        -7.365055789653665
      ],
      [
        "▁buray",
        -8.816156833311346
      ],
      [
        "▁donmus",
        -8.632329422279831
      ],
      [
        "▁seker",
        -8.821906893987967
      ],
      [
        "▁manzara",
        -8.86077082738922
      ],
      [
        "▁bilet",
        -8.115318340459279
      ],
      [
        "▁ahlak",
        -9.352464664864762
      ],
      [
        "▁yag",
        -8.859907012059347
      ],
      [
        "▁analistlerin",
        -9.791144315709953
      ],
      [
        "▁listele",
        -6.288078952484841
      ],
      [
        "▁isi",
        -7.63177770188299
      ],
      [
        "▁site",
        -9.430930275508057
      ],
      [
        "▁onu",
        -3.8180555155698697
      ],
      [
        "▁otele",
        -9.107129534568209
      ],
      [
        "▁hayret",
        -9.503565205984996
      ],
      [
        "▁dalgası",
        -9.945123973302215
      ],
      [
        "▁payı",
        -9.076288429974616
      ],
      [
        "il",
        -8.173817287568653
      ],
      [
        "▁tas",
        -7.769951234426223
      ],
      [
        "▁kazan",
        -8.069428999623325
      ],
      [
        "▁tasarruf",
        -8.931278739456356
      ],
      [
        "cusu",
        -8.775820001971322
      ],
      [
        "▁kazanclarını",
        -10.15015676454814
      ],
      [
        "sunda",
        -9.737939332797993
      ],
      [
        "▁seviye",
        -8.781735365320223
      ],
      [
        "▁gorevini",
        -9.710729246234315
      ],
      [
        "▁sure",
        -8.439721005658491
      ],
      [
        "▁kon",
        -9.043153699131825
      ],
      [
        "▁sezon",
        -9.32640493569606
      ],
      [
        "▁paket",
        -9.077992976361653
      ],
      [
        "▁ruya",
        -9.047881765274155
      ],
      [
        "dı",
        -8.828757258661337
      ],
      [
        ".",
        -11.199601737652316
      ],
      [
        "▁kıymet",
        -9.532102391429213
      ],
      [
        "▁ortalama",
        -7.953295515025677
      ],
      [
        "▁kaybed",
        -8.422957492860599
      ],
      [
        "▁toren",
        -9.348433164536573
      ],
      [
        "▁boz",
        -8.993643064736178
      ],
      [
        "▁li",
        -5.934253238643644
      ],
      [
        "▁bagıs",
        -9.763614522246431
      ],
      [
        "s",
        -7.700008686485435
      ],
      [
        "sız",
        -7.68390184486632
      ],
      [
        "▁asagı",
        -8.030071702686872
      ],
      [
        "▁sahibi",
        -8.006511560293184
      ],
      [
        "▁konularda",
        -9.765378252759087
      ],
      [
        "sinde",
        -6.939929353281317
      ],
      [
        "▁a",
        -11.666990925470232
      ],
      [
        "▁sade",
        -8.413972647884538
      ],
      [
        "▁guven",
        -7.80006567003667
      ],
      [
        "li",
        -7.25093721435945
      ],
      [
        "▁halat",
        -9.476720170732563
      ],
      [
        "▁ben",
        -8.121804347121888
      ],
      [
        "▁hale",
        -7.8724649417536625
      ],
      [
        "▁calısanı",
        -9.997789448345761
      ],
      [
        "ki",
        -4.637459479808163
      ],
      [
        "▁laf",
        -8.688684367095606
      ],
      [
        "▁a",
        -7.494713518214896
      ],
      [
        "▁ceker",
        -8.094654426537014
      ],
      [
        "▁al",
        -7.921560354734069
      ],
      [
        "ıldıgını",
        -9.922435339828112
      ],
      [
        "▁batı",
        -7.674105944717036
      ],
      [
        "mıyordu",
        -8.97466979098834
      ],
      [
        "▁istemedi",
        -8.81689682717978
      ],
      [
        "▁elestirmenler",
        -10.09938414814534
      ],
      [
        "mus",
        -6.151906848605292
      ],
      [
        "▁cekmek",
        -9.512381499328749
      ],
      [
        "▁patlıcan",
        -9.555015586494136
      ],
      [
        "hi",
        -10.103717129124831
      ],
      [
        "▁ne",
        -6.301448313353806
      ],
      [
        "en",
        -3.944717042641246
      ],
      [
        "siniz",
        -5.458119837635438
      ],
      [
        "o",
        -3.5207675806184575
      ],
      [
        "▁yuzum",
        -9.389348011833786
      ],
      [
        "▁nine",
        -9.64072118265808
      ],
      [
        "▁suren",
        -8.678254924265296
      ],
      [
        "0'",
        -9.29357026099132
      ],
      [
        "▁gelme",
        -9.073631287557042
      ],
      [
        "sizi",
        -8.487682742887753
      ],
      [
        "▁fiyatlandırıl",
        -8.817047450100558
      ],
      [
        "▁ma",
        -7.653124638385439
      ],
      [
        "▁edep",
        -10.17635909151889
      ],
      [
        "m",
        -3.07230917458263
      ],
      [
        "▁muddet",
        -9.681777560504104
      ],
      [
        "sem",
        -7.580612882548985
      ],
      [
        "sı",
        -7.695684531623616
      ],
      [
        "u",
        -2.3223596860280313
      ],
      [
        "zat",
        -7.044131657787526
      ],
      [
        "▁tasarım",
        -10.117604556648836
      ],
      [
        "▁gostergeleri",
        -10.154681540608664
      ],
      [
        "▁kazancı",
        -9.148563357798139
      ],
      [
        "kun",
        -6.943139555201732
      ],
      [
        "▁sansı",
        -9.393177814110729
      ],
      [
        "▁degistirdi",
        -8.77446383201015
      ],
      [
        "▁yıldızı",
        -9.919421123305144
      ],
      [
        "▁iliskisi",
        -9.572067012884922
      ],
      [
        "▁gorusu",
        -9.460026849046645
      ],
      [
        "▁mucadele",
        -8.457538330445674
      ],
      [
        "▁irade",
        -9.68197835266456
      ],
      [
        "meyecek",
        -8.240813819155417
      ],
      [
        "▁memnunu",
        -7.304399173983059
      ],
      [
        "▁dıs",
        -7.897161349086526
      ],
      [
        "▁tavuk",
        -9.132759522835405
      ],
      [
        "ler",
        -6.545964428951377
      ],
      [
        "▁dinliyor",
        -8.909340136835514
      ],
      [
        "▁cel",
        -9.439450279716286
      ],
      [
        "▁gorgu",
        -10.100431459635612
      ],
      [
        "▁park",
        -9.03867064454416
      ],
      [
        "▁anlamak",
        -9.57985081227829
      ],
      [
        "▁yataklar",
        -9.199400534552248
      ],
      [
        "ti",
        -9.518487782928336
      ],
      [
        "▁pesinde",
        -9.399697435476128
      ],
      [
        "▁say",
        -7.889436589253908
      ],
      [
        "umuz",
        -9.13768353941226
      ],
      [
        "▁kendinde",
        -7.5574632228605765
      ],
      [
        "▁kollarını",
        -9.813794325992033
      ],
      [
        "▁imza",
        -8.952780908389883
      ],
      [
        "▁tavan",
        -9.216361951348235
      ],
      [
        "do",
        -9.411609804799925
      ],
      [
        "▁verdik",
        -8.37332680053282
      ],
      [
        "▁stres",
        -10.027958577597177
      ],
      [
        "▁tespit",
        -9.388060574962118
      ],
      [
        "la",
        -6.957578549967413
      ],
      [
        "▁yenilik",
        -10.033512972978448
      ],
      [
        "ılmıs",
        -8.955605062090278
      ],
      [
        "▁askı",
        -8.892757752597085
      ],
      [
        "▁sultan",
        -10.099466164170556
      ],
      [
        "▁muzigi",
        -9.352486890600112
      ],
      [
        "▁kayık",
        -9.732082580424596
      ],
      [
        "▁oturmus",
        -8.643265822089745
      ],
      [
        "▁muhafazakar",
        -10.015756133760597
      ],
      [
        "▁bir",
        -3.027951570239419
      ],
      [
        "▁bul",
        -6.973767915580445
      ],
      [
        "i'ni",
        -7.8121410590960405
      ],
      [
        "▁yemeklerini",
        -9.647257132258368
      ],
      [
        "▁acmak",
        -9.73561689830387
      ],
      [
        "▁ikinci",
        -7.527984601976824
      ],
      [
        "▁sozlerin",
        -9.567665124975543
      ],
      [
        "ap",
        -9.696673656981849
      ],
      [
        "▁numaraları",
        -10.10776106426873
      ],
      [
        "▁gidebilir",
        -8.55148205818069
      ],
      [
        "▁gosterebilir",
        -8.641556204342253
      ],
      [
        "▁bakım",
        -8.657158927084662
      ],
      [
        "▁malzeme",
        -9.197694214851929
      ],
      [
        "▁suruyor",
        -8.154890350883278
      ],
      [
        "▁noktada",
        -9.597264908837829
      ],
      [
        "ler",
        -8.293736253779967
      ],
      [
        "▁yaptirmadi",
        -7.668360967160927
      ],
      [
        "▁sahi",
        -8.37558660362646
      ],
      [
        "▁satısın",
        -10.081064046834289
      ],
      [
        "mıs",
        -5.907845273333249
      ],
      [
        "▁yuregi",
        -9.426467513827543
      ],
      [
        "▁yer",
        -6.709275396757743
      ],
      [
        "▁kılıc",
        -9.388470585647063
      ],
      [
        "eli",
        -7.901174086956096
      ],
      [
        "▁tahsil",
        -9.681777779103093
      ],
      [
        "▁elleri",
        -8.542535200705814
      ],
      [
        "▁en",
        -9.027318293757833
      ],
      [
        "da",
        -8.580004578459501
      ],
      [
        "▁kasım",
        -9.254011791240673
      ],
      [
        "▁bulbul",
        -9.545230135397654
      ],
      [
        "cısı",
        -9.475195413956325
      ],
      [
        "larında",
        -6.764478216958829
      ],
      [
        "▁tokyo",
        -7.688891124280381
      ],
      [
        "▁karıs",
        -9.472290271886614
      ],
      [
        "▁ibr",
        -9.733281341773084
      ],
      [
        "0",
        -4.429548908795914
      ],
      [
        "▁inan",
        -10.009015801910463
      ],
      [
        "▁kırdı",
        -8.876370957919564
      ],
      [
        "▁sebepler",
        -9.738937941738005
      ],
      [
        "▁buyuk",
        -4.679393483842886
      ],
      [
        "▁ede",
        -7.714236608470222
      ],
      [
        "▁tak",
        -8.558546933359
      ],
      [
        "▁vucudunu",
        -10.142720556696712
      ],
      [
        "▁iliski",
        -8.498192686010002
      ],
      [
        "▁b",
        -6.181687063550272
      ],
      [
        "▁grubu",
        -8.91842378130133
      ],
      [
        "▁milletvekili",
        -9.681777540852375
      ],
      [
        "▁kimse",
        -5.611770680556417
      ],
      [
        "▁pazarın",
        -9.99542799926481
      ],
      [
        "yu",
        -7.30521058749544
      ],
      [
        "▁yag",
        -8.75080633261224
      ],
      [
        "▁kırık",
        -8.713542532022968
      ],
      [
        "▁olacagın",
        -10.097706272108027
      ],
      [
        "▁ucagın",
        -9.062541823749962
      ],
      [
        "▁calisanlar",
        -8.451190507419271
      ],
      [
        "▁fırladı",
        -8.369706604505089
      ],
      [
        "▁gorusmedi",
        -8.475486177294048
      ],
      [
        "▁karargah",
        -10.17632271773052
      ],
      [
        "▁yardım",
        -7.700401982923568
      ],
      [
        "▁taraf",
        -8.33326154799446
      ],
      [
        "rak",
        -9.576017997809247
      ],
      [
        "▁neler",
        -6.5615336919270835
      ],
      [
        "▁ressam",
        -9.784409228734647
      ],
      [
        "u",
        -12.802702672349787
      ],
      [
        "yla",
        -6.08064716344082
      ],
      [
        "▁ise",
        -5.47635401040524
      ],
      [
        "▁attı",
        -7.228921289009988
      ],
      [
        "▁ekonomisi",
        -9.99149768418922
      ],
      [
        "▁gunah",
        -9.316180005601641
      ],
      [
        "▁dısarı",
        -8.954487943796014
      ],
      [
        "▁yurutme",
        -10.17752141794601
      ],
      [
        "▁hem",
        -10.124775861415383
      ],
      [
        "▁gosterme",
        -9.033000685819797
      ],
      [
        "▁kucuk",
        -10.09947418054391
      ],
      [
        "▁bıcagı",
        -10.02796270594045
      ],
      [
        "5'te",
        -9.400912591879324
      ],
      [
        "▁fis",
        -9.84479382296291
      ],
      [
        "▁kusur",
        -8.878201817879823
      ],
      [
        "le",
        -5.607696273133939
      ],
      [
        "▁varlıklarını",
        -10.133292778970045
      ],
      [
        "▁gecirme",
        -9.968241530120903
      ],
      [
        "▁el",
        -7.121537686409118
      ],
      [
        "▁teneke",
        -9.839971889310402
      ],
      [
        "▁urunlerin",
        -10.174768530805872
      ],
      [
        "▁olamaz",
        -8.248500242077554
      ],
      [
        "▁usul",
        -9.57791944524333
      ],
      [
        "msal",
        -7.709211565662931
      ],
      [
        "▁ihrac",
        -9.1356813010215
      ],
      [
        "▁tam",
        -6.157110276087403
      ],
      [
        "▁baglantı",
        -8.558446525903918
      ],
      [
        "bana",
        -7.997178458702052
      ],
      [
        "▁finans",
        -8.703959539085703
      ],
      [
        "▁tutar",
        -8.450152712240655
      ],
      [
        "▁mantık",
        -9.784515649460069
      ],
      [
        "ıyor",
        -5.993377616709272
      ],
      [
        "▁olay",
        -8.532423512986664
      ],
      [
        "▁birisi",
        -5.941560191445756
      ],
      [
        "ilmesi",
        -8.767337684604929
      ],
      [
        "▁duzey",
        -8.676576879367577
      ],
      [
        "▁1.4",
        -6.918729662637256
      ],
      [
        "j",
        -8.833535509724033
      ],
      [
        "▁olmad",
        -7.939023621311465
      ],
      [
        "▁burbank'",
        -8.02300114871696
      ],
      [
        "▁hepiniz",
        -8.40781988619197
      ],
      [
        "▁doktoru",
        -10.137337218627348
      ],
      [
        "▁eleman",
        -9.609669947885482
      ],
      [
        "imi",
        -8.225362412535004
      ],
      [
        "▁konusmak",
        -10.14278396148935
      ],
      [
        "▁top",
        -8.791269755188685
      ],
      [
        "ver",
        -9.328905761475522
      ],
      [
        "▁girer",
        -7.986300337386995
      ],
      [
        "▁koymak",
        -10.125614594233852
      ],
      [
        "▁urunleri",
        -8.491121160725452
      ],
      [
        "▁kom",
        -8.406286050718897
      ],
      [
        "▁an",
        -7.253157750539298
      ],
      [
        "▁dolu",
        -9.68141741916745
      ],
      [
        "umuzu",
        -9.979769215844442
      ],
      [
        "fa",
        -8.236962644876998
      ],
      [
        "▁acısı",
        -9.60828977778807
      ],
      [
        "▁dibin",
        -9.653935786447724
      ],
      [
        "▁tarafta",
        -9.075157683382377
      ],
      [
        "▁getirdi",
        -7.54586179864851
      ],
      [
        "▁hakaret",
        -9.839967279433267
      ],
      [
        "ında",
        -9.876441737514408
      ],
      [
        "▁kampanya",
        -9.4610964972156
      ],
      [
        "▁yasıyor",
        -7.827542717097652
      ],
      [
        "▁basım",
        -9.007302168122843
      ],
      [
        "▁talih",
        -9.991367078384396
      ],
      [
        "ecegim",
        -8.149937177607747
      ],
      [
        "▁t",
        -8.63893619005369
      ],
      [
        "▁din",
        -8.36319265213686
      ],
      [
        "▁yaban",
        -9.816126622255092
      ],
      [
        "▁saglık",
        -8.308972200964265
      ],
      [
        "erek",
        -4.620556824828748
      ],
      [
        "▁dakika",
        -7.926822097218136
      ],
      [
        "▁ce",
        -8.630760411379411
      ],
      [
        "▁kimligi",
        -10.05878268146811
      ],
      [
        "y",
        -6.016951674088136
      ],
      [
        "▁gelmis",
        -7.242049449828504
      ],
      [
        "▁surec",
        -9.032522031285588
      ],
      [
        "▁gonderil",
        -8.841942330050186
      ],
      [
        "▁asık",
        -9.294108187717914
      ],
      [
        "▁4'te",
        -9.425273786177542
      ],
      [
        "▁mut",
        -7.576081653053345
      ],
      [
        "▁2.",
        -6.760491276534013
      ],
      [
        "▁alıcı",
        -9.204266343929657
      ],
      [
        "▁ucusu",
        -6.911962657851482
      ],
      [
        "irdi",
        -8.81715352692327
      ],
      [
        "▁sekeri",
        -10.171670314155797
      ],
      [
        "ın",
        -7.1382036613530975
      ],
      [
        "▁memleket",
        -9.163506997750266
      ],
      [
        "ne",
        -8.868581305044112
      ],
      [
        "▁dalga",
        -9.090413544921676
      ],
      [
        "▁sacma",
        -9.6680409872341
      ],
      [
        "ıkca",
        -7.569260549122383
      ],
      [
        "▁mektubu",
        -9.503559021775825
      ],
      [
        "landırma",
        -9.976313057674073
      ],
      [
        "▁ya",
        -8.979871755568054
      ],
      [
        "▁b",
        -6.664377335583076
      ],
      [
        "▁bakıyordu",
        -8.053434577520717
      ],
      [
        "▁bardak",
        -8.820914813311493
      ],
      [
        "▁baltimore",
        -6.988389840421726
      ],
      [
        "▁alı",
        -7.238867173783138
      ],
      [
        "▁trust",
        -8.038755782515096
      ],
      [
        "▁ipotek",
        -9.07793100919478
      ],
      [
        "▁konfor",
        -9.49767627630761
      ],
      [
        "▁masa",
        -7.487651087162699
      ],
      [
        "▁sayı",
        -8.049930564720723
      ],
      [
        "▁havuz",
        -7.553635438764325
      ],
      [
        "▁pasifi",
        -10.176339914504073
      ],
      [
        "▁bilgilendirilme",
        -9.898788205694114
      ],
      [
        "▁vermeyi",
        -9.970445761275114
      ],
      [
        "▁hafta",
        -6.995095917046984
      ],
      [
        "▁en",
        -3.960848580067063
      ],
      [
        "▁ac",
        -8.763939298272472
      ],
      [
        "▁oyle",
        -7.3329560468483335
      ],
      [
        "ız",
        -6.912663209463112
      ],
      [
        "▁garsonlar",
        -9.668687083054863
      ],
      [
        "▁rutubet",
        -10.099383444022127
      ],
      [
        "▁un",
        -8.933659764201568
      ],
      [
        "▁parcaları",
        -9.257862277569538
      ],
      [
        "▁kocası",
        -9.48957503466519
      ],
      [
        "c",
        -8.444674680457622
      ],
      [
        "▁sehr",
        -9.580824132283274
      ],
      [
        "▁gur",
        -8.754298629300687
      ],
      [
        "▁rapor",
        -8.364219369745673
      ],
      [
        "nde",
        -8.378991300973894
      ],
      [
        "▁kapsamı",
        -10.073395182269731
      ],
      [
        "▁dordu",
        -6.775844926385021
      ],
      [
        "yu",
        -9.885733217074922
      ],
      [
        "▁bulma",
        -8.200271641100349
      ],
      [
        "▁boston",
        -5.725254465815135
      ],
      [
        "▁mı",
        -3.073600583083266
      ],
      [
        "▁ciro",
        -9.6817879070544
      ],
      [
        "▁seyler",
        -7.533892322096259
      ],
      [
        "▁nefret",
        -9.503559024341422
      ],
      [
        "▁getirildi",
        -8.74038531707846
      ],
      [
        "lerinde",
        -7.180831886062232
      ],
      [
        "▁bagırıyor",
        -8.567278301936506
      ],
      [
        "▁arkadaslarım",
        -10.106927655582886
      ],
      [
        "▁ulkeni",
        -9.468852020963244
      ],
      [
        "▁richard",
        -8.203039213365276
      ],
      [
        "▁gecit",
        -10.176314105870317
      ],
      [
        "▁banyo",
        -8.959937894538117
      ],
      [
        "▁muze",
        -9.655050222055591
      ],
      [
        "▁olanakları",
        -9.128498837378137
      ],
      [
        "likle",
        -4.864519917768543
      ],
      [
        "'te",
        -7.4383271455888815
      ],
      [
        "sunu",
        -8.139020331463861
      ],
      [
        "▁hukum",
        -9.164130204410856
      ],
      [
        "▁kurulusu",
        -9.36547738844179
      ],
      [
        "▁temmuz",
        -7.357692698517294
      ],
      [
        "▁anayasa",
        -8.906796287053954
      ],
      [
        "▁sene",
        -8.047000242491155
      ],
      [
        "▁olum",
        -8.381255984402511
      ],
      [
        "'yi",
        -7.535730970715371
      ],
      [
        "▁fiyatlarını",
        -8.502246758446596
      ],
      [
        "ların",
        -5.822373631677756
      ],
      [
        "▁siiri",
        -9.579907074373475
      ],
      [
        "▁vurguladı",
        -8.993549426561932
      ],
      [
        "▁ofis",
        -8.532985755864122
      ],
      [
        "▁serviste",
        -10.121152331840733
      ],
      [
        "t",
        -5.881101381461162
      ],
      [
        "▁ayarlama",
        -9.843895531024948
      ],
      [
        "▁hak",
        -7.729205598386269
      ],
      [
        "▁erdi",
        -8.431431407403752
      ],
      [
        "▁sev",
        -8.53771475141324
      ],
      [
        "▁vur",
        -8.667016132592863
      ],
      [
        "▁yansıtıyor",
        -8.839403376458073
      ],
      [
        "▁analizciler",
        -9.468118507357525
      ],
      [
        "▁maliyet",
        -9.38997019893446
      ],
      [
        "▁nesne",
        -10.027962576838817
      ],
      [
        "ah",
        -9.74152942759214
      ],
      [
        "▁bina",
        -8.330526690321093
      ],
      [
        "▁ucak",
        -7.495092111532389
      ],
      [
        "▁agacı",
        -9.489588388751885
      ],
      [
        "▁birl",
        -8.456773045245946
      ],
      [
        "▁kalın",
        -7.871277273894357
      ],
      [
        "ral",
        -7.850009928623745
      ],
      [
        "ları",
        -5.202785875483254
      ],
      [
        "▁jaguar",
        -8.186284359692328
      ],
      [
        "▁butun",
        -5.344965932495676
      ],
      [
        "▁kapısı",
        -9.747252001832258
      ],
      [
        "▁gozle",
        -9.758184097762403
      ],
      [
        "inden",
        -7.24288112292709
      ],
      [
        "▁geyik",
        -9.428120454168996
      ],
      [
        "▁varlıklar",
        -9.162171742281748
      ],
      [
        "▁dag",
        -8.4041239470628
      ],
      [
        "▁yap",
        -7.263302533159046
      ],
      [
        "▁nizam",
        -10.099393280936482
      ],
      [
        "▁ajans",
        -9.663148754414797
      ],
      [
        "▁dergi",
        -8.763330812989416
      ],
      [
        "▁anadolu",
        -7.548407391738422
      ],
      [
        "obur",
        -7.915910986663735
      ],
      [
        "▁kampanyası",
        -10.17249418211567
      ],
      [
        "▁icer",
        -7.4531731918603485
      ],
      [
        "▁kendileri",
        -6.4584490618068315
      ],
      [
        "▁sesi",
        -8.054006287479474
      ],
      [
        "▁pazarlama",
        -9.433953407864275
      ],
      [
        "den",
        -5.116964283332215
      ],
      [
        "▁satıslar",
        -7.845565416299318
      ],
      [
        "▁ilgilendi",
        -5.891913083861172
      ],
      [
        "▁in",
        -8.52834500238243
      ],
      [
        "dik",
        -7.989629979835144
      ],
      [
        "▁acık",
        -7.077738448004128
      ],
      [
        "▁kafes",
        -9.636981518048827
      ],
      [
        "▁7",
        -9.13548420762703
      ],
      [
        "▁ma",
        -8.229336250571645
      ],
      [
        "tif",
        -8.766456092828673
      ],
      [
        "▁yuzu",
        -8.211114819763608
      ],
      [
        "▁duzenleme",
        -9.299916222852957
      ],
      [
        "▁kısım",
        -9.683411840185798
      ],
      [
        "[UNK]",
        0.0
      ],
      [
        "irlik",
        -5.69607855368877
      ],
      [
        "▁beklen",
        -8.350184568134853
      ],
      [
        "▁belgeler",
        -10.079361600325171
      ],
      [
        "▁huzur",
        -8.335024299760093
      ],
      [
        "▁nar",
        -9.991211812676784
      ],
      [
        "▁tas",
        -8.036544719945457
      ],
      [
        "▁vakti",
        -9.1468317347821
      ],
      [
        "on",
        -8.553878951677497
      ],
      [
        "▁guleryuzluydu",
        -7.450109174233483
      ],
      [
        "▁mustafa",
        -6.756573711528863
      ],
      [
        "▁onayladı",
        -8.869533620624868
      ],
      [
        "▁kurumlar",
        -9.568285482620283
      ],
      [
        "gına",
        -9.474672855815495
      ],
      [
        "▁hosum",
        -9.324638127994817
      ],
      [
        "1",
        -4.618758539404044
      ],
      [
        "▁ortalama",
        -8.786515745869476
      ],
      [
        "▁1991",
        -6.854734288346393
      ],
      [
        "kte",
        -7.35037593173012
      ],
      [
        "▁sokakta",
        -9.23751043591343
      ],
      [
        "▁dedi",
        -5.072186116662261
      ],
      [
        "▁kontrol",
        -8.273674508363424
      ],
      [
        "▁arka",
        -7.766725027347814
      ],
      [
        "▁beyaz",
        -6.453228638200443
      ],
      [
        "▁dura",
        -7.954299185685494
      ],
      [
        "▁yazarın",
        -9.74051462064538
      ],
      [
        "un",
        -6.563803247053544
      ],
      [
        "ing",
        -8.127706819579522
      ],
      [
        "▁tayin",
        -9.909167236538035
      ],
      [
        "▁liderleri",
        -9.917800473886896
      ],
      [
        "▁ası",
        -9.136026126089154
      ],
      [
        "ım",
        -8.123091178542019
      ],
      [
        "▁anketi",
        -9.918143064014307
      ],
      [
        "tik",
        -8.469767063087144
      ],
      [
        "▁diego'da",
        -7.712745988696155
      ],
      [
        "gerek",
        -11.723165890820209
      ],
      [
        "lik",
        -6.753790400369471
      ],
      [
        "▁rahat",
        -8.30828836050418
      ],
      [
        "▁menkul",
        -7.708471482838003
      ],
      [
        "kın",
        -8.009400675272627
      ],
      [
        "▁detayları",
        -9.933873014794552
      ],
      [
        "▁mezarlıg",
        -10.078626411539368
      ],
      [
        "▁tumu",
        -9.642897545484663
      ],
      [
        "▁tarafı",
        -8.873916754521687
      ],
      [
        "▁kalem",
        -8.571863380421307
      ],
      [
        "▁rezerv",
        -9.026172845798996
      ],
      [
        "▁amacı",
        -8.761236760230933
      ],
      [
        "▁masasında",
        -10.110744340670944
      ],
      [
        "gına",
        -8.805672343527606
      ],
      [
        "▁duzeni",
        -9.544373912816015
      ],
      [
        "▁telafi",
        -9.961289600938311
      ],
      [
        "luk",
        -7.3279065542286155
      ],
      [
        "u",
        -6.171224191710348
      ],
      [
        "▁guzel",
        -9.520797235601473
      ],
      [
        "▁on",
        -4.304254523933001
      ],
      [
        "▁pamuk",
        -9.503559251394204
      ],
      [
        "▁60",
        -6.569104616035265
      ],
      [
        "▁sehrinde",
        -10.02111740899522
      ],
      [
        "▁personellerin",
        -8.604486416868925
      ],
      [
        "▁giriste",
        -8.82352498013531
      ],
      [
        "▁oglen",
        -9.155198217634887
      ],
      [
        "▁katı",
        -9.353557516694686
      ],
      [
        "▁yag",
        -8.69843710349425
      ],
      [
        "▁aktif",
        -10.028811117525926
      ],
      [
        "c",
        -4.853219729400437
      ],
      [
        "▁yabancı",
        -6.776956764796946
      ],
      [
        "▁kentin",
        -9.304529142227553
      ],
      [
        "▁hay",
        -7.9578980602846805
      ],
      [
        "▁ibm",
        -8.101680442143891
      ],
      [
        "▁sure",
        -7.178789539008516
      ],
      [
        "▁ruhunu",
        -10.07076078525426
      ],
      [
        "▁ilk",
        -6.030188554215659
      ],
      [
        "lardı",
        -6.078459275901821
      ],
      [
        "r",
        -6.567973232437638
      ],
      [
        "▁bakanlıgı",
        -9.22118038976795
      ],
      [
        "▁tasfiye",
        -10.027955222793066
      ],
      [
        "sal",
        -6.949778621849322
      ],
      [
        "▁ed",
        -9.642248305141756
      ],
      [
        "▁jose'",
        -7.937863731996809
      ],
      [
        "▁k",
        -7.04288363211813
      ],
      [
        "▁gid",
        -7.611832682912436
      ],
      [
        "▁avukatları",
        -9.76576722388539
      ],
      [
        "▁kahvalti",
        -8.64651079456628
      ],
      [
        "vası",
        -7.7579027535534415
      ],
      [
        "▁uyar",
        -8.86990868471675
      ],
      [
        "▁ya",
        -7.800671762227191
      ],
      [
        "▁konumunu",
        -9.180186230315737
      ],
      [
        "▁dıs",
        -9.819834443049993
      ],
      [
        "▁cumhuriyetciler",
        -9.954647661707778
      ],
      [
        "▁fazla",
        -9.88892981459929
      ],
      [
        "▁bugunu",
        -10.023601099324305
      ],
      [
        "▁olacagı",
        -8.59383980791911
      ],
      [
        "▁yiyecek",
        -8.038314954375355
      ],
      [
        "▁gecmiste",
        -9.596058229391648
      ],
      [
        "▁ogret",
        -8.58660390765957
      ],
      [
        "▁mes",
        -7.913471993062716
      ],
      [
        "▁servis",
        -7.706834943466836
      ],
      [
        "▁acıkca",
        -7.836464028264578
      ],
      [
        "is",
        -9.536430054437192
      ],
      [
        "mak",
        -7.3460374908202715
      ],
      [
        "a",
        -3.4131311993495164
      ],
      [
        "▁sabah",
        -6.71879558616918
      ],
      [
        "▁onda",
        -5.624473296084898
      ],
      [
        "▁programları",
        -9.406167622714309
      ],
      [
        "▁gerek",
        -8.412238183017557
      ],
      [
        "▁zamanla",
        -9.548810788520214
      ],
      [
        "▁guvence",
        -10.030702236771088
      ],
      [
        "▁bir",
        -8.128846427857315
      ],
      [
        "gıy",
        -8.2890619212006
      ],
      [
        "▁cirkin",
        -8.643477938749065
      ],
      [
        "▁iscileri",
        -10.082158043620332
      ],
      [
        "▁gectigi",
        -10.176342399518962
      ],
      [
        "▁duygu",
        -8.664012020547107
      ],
      [
        "▁edemez",
        -8.929675118898468
      ],
      [
        "uc",
        -7.358803221942155
      ],
      [
        "▁ulasım",
        -8.107208203177096
      ],
      [
        "▁al",
        -6.818875026143415
      ],
      [
        "diginde",
        -9.261154911964987
      ],
      [
        "dıgında",
        -10.01061901644487
      ],
      [
        "▁bura",
        -8.627745509352419
      ],
      [
        "▁agır",
        -6.5087600341821235
      ],
      [
        "be",
        -8.024463293400846
      ],
      [
        "ılır",
        -8.908554240632473
      ],
      [
        "ecegi",
        -8.455051797831048
      ],
      [
        "▁sakal",
        -9.720225591644784
      ],
      [
        "▁ozellikleri",
        -9.80067817527313
      ],
      [
        "▁yo",
        -5.081569992204334
      ],
      [
        "▁tarzı",
        -9.66389574725743
      ],
      [
        "▁herkes",
        -4.990935261703556
      ],
      [
        "▁hayatta",
        -9.015868861565448
      ],
      [
        "▁yapıyordu",
        -8.691621262236108
      ],
      [
        "▁pencerede",
        -9.878649366832258
      ],
      [
        "▁he",
        -8.944634002943305
      ],
      [
        "▁ruyalar",
        -10.06126358052391
      ],
      [
        "▁boyut",
        -9.737474989898924
      ],
      [
        "▁telefonu",
        -9.533436158810954
      ],
      [
        "erken",
        -9.82859201530854
      ],
      [
        "▁mus",
        -8.849031723806384
      ],
      [
        "▁sonucları",
        -9.166465491897181
      ],
      [
        "▁bun",
        -4.95641735510991
      ],
      [
        "▁tokyo'da",
        -8.0894890395314
      ],
      [
        "c",
        -6.430645875655387
      ],
      [
        "▁tir",
        -10.054082463885758
      ],
      [
        "▁dusuyor",
        -8.52874364892277
      ],
      [
        "▁subat",
        -10.176342700985744
      ],
      [
        "▁oncelik",
        -9.802085881887965
      ],
      [
        "▁gir",
        -9.814648296717749
      ],
      [
        "▁ilac",
        -8.327369878882932
      ],
      [
        "▁yemek",
        -7.04818349101189
      ],
      [
        "▁ayse",
        -7.510401831356775
      ],
      [
        "▁iletisim",
        -8.906791306865296
      ],
      [
        "▁done",
        -8.549931206463363
      ],
      [
        "▁cesitlilik",
        -9.35414792959789
      ],
      [
        "▁kenarında",
        -9.916452154465002
      ],
      [
        "▁etrafını",
        -9.985736855095386
      ],
      [
        "▁uzakta",
        -8.90686077852975
      ],
      [
        "▁kral",
        -9.209788753549926
      ],
      [
        "▁degerlendirir",
        -7.936053310413518
      ],
      [
        "meye",
        -8.517338851597493
      ],
      [
        "▁tv",
        -9.963149910357057
      ],
      [
        "▁isletme",
        -8.091427451980877
      ],
      [
        "▁gorun",
        -8.35481860629487
      ],
      [
        "sadık",
        -8.785851219264412
      ],
      [
        "▁av",
        -8.912702494874924
      ],
      [
        "▁calısır",
        -8.62064494205179
      ],
      [
        "▁han",
        -8.220608278298114
      ],
      [
        "▁yen",
        -8.91987149853127
      ],
      [
        "▁fiyatları",
        -7.528386336713049
      ],
      [
        "▁oldugunu",
        -6.6320035446136485
      ],
      [
        "▁hatırlıyor",
        -8.983894176264691
      ],
      [
        "▁yuz",
        -7.136694801828874
      ],
      [
        "▁atlanta'da",
        -5.474516033211378
      ],
      [
        "▁ucunda",
        -9.237163884950764
      ],
      [
        "▁tarihi",
        -8.787980470110972
      ],
      [
        "▁bırakır",
        -8.823648138360552
      ],
      [
        "▁beyin",
        -8.945315564120122
      ],
      [
        "▁uzerinde",
        -7.335585220165018
      ],
      [
        "lerde",
        -7.883651144811564
      ],
      [
        "▁o",
        -6.656188534955952
      ],
      [
        "▁yaptıkları",
        -10.092164471546344
      ],
      [
        "▁belli",
        -6.73284087628194
      ],
      [
        "▁l.",
        -8.244531548830729
      ],
      [
        "▁bayragı",
        -10.029736935692771
      ],
      [
        "▁kaydı",
        -9.318953389262523
      ],
      [
        "▁temizliginde",
        -9.912975790743861
      ],
      [
        "▁gelmez",
        -8.561449333581786
      ],
      [
        "▁yas",
        -7.6627350208943135
      ],
      [
        "▁azal",
        -8.084599415076477
      ],
      [
        "▁duvarın",
        -9.746312922021659
      ],
      [
        "▁mevzuat",
        -9.505274579889681
      ],
      [
        "nun",
        -7.144868135823923
      ],
      [
        "di",
        -6.312665811588268
      ],
      [
        "▁marka",
        -8.755330167483978
      ],
      [
        "▁anne",
        -8.06044990547132
      ],
      [
        "▁sohret",
        -9.96128820819943
      ],
      [
        "▁zamanlarda",
        -8.690946024645553
      ],
      [
        "▁sabahın",
        -9.582976070353572
      ],
      [
        "▁felaket",
        -8.976583976376892
      ],
      [
        "ev",
        -11.802702672349788
      ],
      [
        "▁18",
        -6.19934010069746
      ],
      [
        "▁yollarını",
        -9.649508490948353
      ],
      [
        "▁kazanıyor",
        -8.677768484021755
      ],
      [
        "▁uygun",
        -5.712330602846942
      ],
      [
        "▁baz",
        -8.954841698433572
      ],
      [
        "▁cesaret",
        -9.505192659935961
      ],
      [
        "▁vicdan",
        -10.099390810160177
      ],
      [
        "ı",
        -5.39340979290086
      ],
      [
        "▁olacaktı",
        -7.593186088791428
      ],
      [
        "▁his",
        -9.028715750299629
      ],
      [
        "acagını",
        -8.36946230824155
      ],
      [
        "leme",
        -8.752240956617467
      ],
      [
        "▁onumuzde",
        -6.668482556610607
      ],
      [
        "▁cocuk",
        -6.950026888484662
      ],
      [
        "▁hayalet",
        -9.684735700091442
      ],
      [
        "▁kardesim",
        -9.199429465060454
      ],
      [
        "'nde",
        -9.02261788587439
      ],
      [
        "▁am",
        -9.787539236234135
      ],
      [
        "▁kurulunu",
        -9.957794281027798
      ],
      [
        "▁agacın",
        -9.400602521960336
      ],
      [
        "▁ayrılı",
        -7.428865757157178
      ],
      [
        "▁konaklama",
        -10.10620647034998
      ],
      [
        "▁istiyor",
        -7.248337486283619
      ],
      [
        "▁tabanca",
        -9.841153446677636
      ],
      [
        "▁kur",
        -8.480735570377263
      ],
      [
        "ilir",
        -8.905063552606952
      ],
      [
        "▁kasım",
        -7.35180394814709
      ],
      [
        "▁tahta",
        -8.540975213102287
      ],
      [
        "▁yukseli",
        -8.66601270666713
      ],
      [
        "sının",
        -8.021049553262518
      ],
      [
        "nız",
        -8.9761765064011
      ],
      [
        "▁emtia",
        -9.545233840569516
      ],
      [
        "▁kaldırdı",
        -8.661956045636629
      ],
      [
        "▁listesini",
        -8.934168726339886
      ],
      [
        "▁inc",
        -10.175789490991116
      ],
      [
        "▁gelmisti",
        -7.989491741900458
      ],
      [
        "▁bakar",
        -8.391798449487462
      ],
      [
        "▁siddet",
        -8.144050475235517
      ],
      [
        "la",
        -9.407996616393934
      ],
      [
        "▁idi",
        -7.511409065945472
      ],
      [
        "d",
        -2.8362636927302933
      ],
      [
        "▁",
        -3.0610943902395027
      ],
      [
        "▁turku",
        -8.96106072235399
      ],
      [
        "▁odasi",
        -9.998572175966158
      ],
      [
        "125",
        -7.299233959202321
      ],
      [
        "li",
        -6.5813309168742915
      ],
      [
        "▁isgal",
        -9.464543151220076
      ],
      [
        "▁gomlegi",
        -9.961788069568284
      ],
      [
        "mesinde",
        -9.954439342077542
      ],
      [
        "▁sov",
        -9.66074054809487
      ],
      [
        "▁sapka",
        -9.252524341816518
      ],
      [
        "▁genisleme",
        -10.099384793827735
      ],
      [
        "▁mah",
        -7.958157901483875
      ],
      [
        "▁dunyada",
        -8.662924463930517
      ],
      [
        "ının",
        -7.434663971060818
      ],
      [
        "▁pantolon",
        -9.813441498087043
      ],
      [
        "▁hi",
        -4.718511553182138
      ],
      [
        "▁ortalama",
        -8.925071780503455
      ],
      [
        "▁ab",
        -7.913838431680318
      ],
      [
        "[MASK]",
        0.0
      ],
      [
        "▁artırmak",
        -10.130191895755623
      ],
      [
        "su",
        -7.924619150497522
      ],
      [
        "▁14",
        -6.171359778606929
      ],
      [
        "dıklarını",
        -9.083449298985379
      ],
      [
        "▁sahiptir",
        -8.097176859383168
      ],
      [
        "k",
        -4.867414459287313
      ],
      [
        "▁gec",
        -6.671592612544241
      ],
      [
        "b",
        -4.519809914103928
      ],
      [
        "▁gıda",
        -9.318010529249102
      ],
      [
        "▁ana",
        -6.921880696346016
      ],
      [
        "▁michael",
        -8.23485118517964
      ],
      [
        "▁tuttu",
        -7.728201734259003
      ],
      [
        "▁acıyor",
        -8.480887171902681
      ],
      [
        "▁yuzuk",
        -10.160436784076024
      ],
      [
        "▁bura",
        -9.384434815636821
      ],
      [
        "▁omzun",
        -9.839999200256216
      ],
      [
        "gunluk",
        -7.899583056749842
      ],
      [
        "▁bizde",
        -5.95228552226769
      ],
      [
        "▁yapan",
        -7.980874798477355
      ],
      [
        "c",
        -12.802702672349787
      ],
      [
        "sız",
        -5.222971193390283
      ],
      [
        "▁",
        -1.1272729554258527
      ],
      [
        "▁eli",
        -8.457184022659963
      ],
      [
        "▁kosu",
        -9.682658097284005
      ],
      [
        "▁strateji",
        -8.866081951164054
      ],
      [
        "▁niyeti",
        -9.991697538625006
      ],
      [
        "▁cephe",
        -9.545247164627115
      ],
      [
        "tıkları",
        -10.088927738497613
      ],
      [
        "▁harc",
        -9.389076008399204
      ],
      [
        "▁daire",
        -8.923101054410221
      ],
      [
        "▁saglar",
        -8.625819800825848
      ],
      [
        "misti",
        -6.886512725471708
      ],
      [
        "▁sam",
        -9.760514042953503
      ],
      [
        "gı",
        -9.946781938701653
      ],
      [
        "▁sozcuk",
        -10.137773558147515
      ],
      [
        "▁gelme",
        -8.405286920219678
      ],
      [
        "▁em",
        -9.899379635950531
      ],
      [
        "cisin",
        -8.50560428261596
      ],
      [
        "▁met",
        -9.286233455962261
      ],
      [
        "▁catı",
        -9.395090979680848
      ],
      [
        "▁konusuyor",
        -7.991218854827705
      ],
      [
        "▁has",
        -8.726625874575694
      ],
      [
        "▁newark",
        -8.322903132594115
      ],
      [
        "▁civi",
        -9.908603422026763
      ],
      [
        "▁yapar",
        -7.492585274946969
      ],
      [
        "▁renk",
        -8.489938794462145
      ],
      [
        "▁umit",
        -9.682020189701694
      ],
      [
        "▁gen",
        -9.44286859152004
      ],
      [
        "▁mahmut",
        -8.349867822604647
      ],
      [
        "▁gelin",
        -9.029883074868255
      ],
      [
        "▁mis",
        -9.819443482122338
      ],
      [
        "▁bostan",
        -9.839977317846747
      ],
      [
        "g",
        -7.954734784177553
      ],
      [
        "▁ipek",
        -9.840855766466511
      ],
      [
        "▁salt",
        -6.502997576983729
      ],
      [
        "▁a.b.d.",
        -7.883420276119656
      ],
      [
        "▁piyasalar",
        -9.390592593834782
      ],
      [
        "▁geri",
        -5.740966921982887
      ],
      [
        "▁seyirci",
        -9.580982662220896
      ],
      [
        "sini",
        -6.643606470944175
      ],
      [
        "▁mısır",
        -9.317864041341757
      ],
      [
        "▁baskısı",
        -9.715224041672592
      ],
      [
        "s",
        -6.235752450749961
      ],
      [
        "▁harbi",
        -10.028996846705237
      ],
      [
        "▁araba",
        -7.390177687859514
      ],
      [
        "▁atar",
        -8.477347546865632
      ],
      [
        "▁onayın",
        -9.693661875665496
      ],
      [
        "▁degildi",
        -2.1591214805820806
      ],
      [
        "mıyor",
        -8.120844345982926
      ],
      [
        "▁kisiligi",
        -10.03768051986126
      ],
      [
        "?",
        -7.234115120256197
      ],
      [
        "▁bicim",
        -9.12897725221357
      ],
      [
        "▁kısıtlama",
        -10.088835247788381
      ],
      [
        "▁yapa",
        -7.878229298172798
      ],
      [
        "▁veremem",
        -8.922545305763009
      ],
      [
        "▁secim",
        -8.155428260484406
      ],
      [
        "▁2.7",
        -6.961798254303082
      ],
      [
        "▁houston",
        -7.917246887274478
      ],
      [
        "▁bekleniyor",
        -7.467868611709613
      ],
      [
        "malı",
        -7.911962755465249
      ],
      [
        "▁olanlar",
        -8.859120513036865
      ],
      [
        "▁5\\/",
        -7.490278875194841
      ],
      [
        "▁oldugunda",
        -9.388716179643913
      ],
      [
        "▁aga",
        -9.293604007853729
      ],
      [
        "▁aldigim",
        -7.999018699062792
      ],
      [
        "▁abd",
        -9.018203724862193
      ],
      [
        "ro",
        -9.329657738259748
      ],
      [
        "▁oyuncak",
        -9.545493361723906
      ],
      [
        "▁ardın",
        -9.831359114004032
      ],
      [
        "▁agzım",
        -10.071754245963115
      ],
      [
        "bas",
        -9.73482674025703
      ],
      [
        "u",
        -4.295690201514403
      ],
      [
        "'n",
        -8.895051255182251
      ],
      [
        "▁insanın",
        -8.053885929431505
      ],
      [
        "▁dısarıda",
        -9.125481341494325
      ],
      [
        "▁yonelikti",
        -8.984151719158826
      ],
      [
        "▁celik",
        -9.637473253330748
      ],
      [
        "once",
        -8.201754415952724
      ],
      [
        "meger",
        -11.466125186009307
      ],
      [
        "▁gittik",
        -8.172715816911975
      ],
      [
        "deta",
        -6.817374011480661
      ],
      [
        "▁iri",
        -7.672692456991397
      ],
      [
        "▁kursun",
        -9.130062933655955
      ],
      [
        "▁tv",
        -7.8500461917645055
      ],
      [
        "!",
        -5.67393291373121
      ],
      [
        "ki",
        -6.163275855025009
      ],
      [
        "▁elektrik",
        -8.535626293936236
      ],
      [
        "e",
        -2.992640360500946
      ],
      [
        "▁kulak",
        -8.54936847653918
      ],
      [
        "▁noriega",
        -8.157756258636748
      ],
      [
        ";",
        -5.873728944142089
      ],
      [
        "▁kili",
        -9.54452857506321
      ],
      [
        "▁etki",
        -8.755337772436024
      ],
      [
        "▁sık",
        -6.294492815396526
      ],
      [
        "▁icat",
        -9.787400603600602
      ],
      [
        "anan",
        -7.995654658330354
      ],
      [
        "▁birim",
        -8.395280471262884
      ],
      [
        "▁mesaj",
        -9.087040788791018
      ],
      [
        "meli",
        -7.884648755290539
      ],
      [
        "▁tanım",
        -9.465889182675804
      ],
      [
        "▁ekonomi",
        -6.9467799020503
      ],
      [
        "▁tanıtım",
        -9.73179415939358
      ],
      [
        "▁savunma",
        -8.507626232015093
      ],
      [
        "▁tedavi",
        -9.051615248573828
      ],
      [
        "▁karsılıgı",
        -10.05534453367848
      ],
      [
        "▁201",
        -7.22957117844715
      ],
      [
        "▁philadelphia'",
        -5.795188323964599
      ],
      [
        "▁koyar",
        -8.929749474043742
      ],
      [
        "▁kapattı",
        -8.197820325348946
      ],
      [
        "▁suleyman",
        -8.171091438037156
      ],
      [
        "nc",
        -8.425730389423945
      ],
      [
        "▁denge",
        -8.365464385128696
      ],
      [
        "▁ne",
        -3.7234659756415116
      ],
      [
        "▁ydı",
        -4.64779151718307
      ],
      [
        "samba",
        -9.511335110794256
      ],
      [
        "▁perdeleri",
        -10.059278603846176
      ],
      [
        "▁oto",
        -10.037699603495344
      ],
      [
        "anları",
        -9.929758015086326
      ],
      [
        "ca",
        -4.628700976346801
      ],
      [
        "▁ayrıla",
        -8.541486726465003
      ],
      [
        "larındaki",
        -8.04462031994002
      ],
      [
        "▁verildi",
        -7.933705345787441
      ],
      [
        "ımlı",
        -8.741268454258853
      ],
      [
        "▁karsılıgın",
        -9.699936220710619
      ],
      [
        "oru",
        -10.159233915415598
      ],
      [
        "▁tam",
        -6.196690295557846
      ],
      [
        "▁dukkan",
        -9.002823560416946
      ],
      [
        "▁sanatın",
        -9.911929129849161
      ],
      [
        "kim",
        -8.26198940192859
      ],
      [
        "▁yollar",
        -9.479169749949811
      ],
      [
        "▁cam",
        -8.695754096765462
      ],
      [
        "▁seyin",
        -8.939452334445637
      ],
      [
        "▁matematik",
        -9.503559129858214
      ],
      [
        "▁oncesinde",
        -10.001388230872562
      ],
      [
        "▁bunun",
        -4.410861678317182
      ],
      [
        "▁bankaları",
        -9.786640222402534
      ],
      [
        "▁sofor",
        -9.35234754464399
      ],
      [
        "▁havada",
        -9.018095627213606
      ],
      [
        "▁bulur",
        -8.626900255411407
      ],
      [
        "▁17",
        -6.060985725555577
      ],
      [
        "▁ihracları",
        -9.737291670311754
      ],
      [
        "▁olurdu",
        -7.836422650470835
      ],
      [
        "lıklı",
        -8.655911197312777
      ],
      [
        "▁yatakta",
        -10.104024107748941
      ],
      [
        "▁her",
        -6.384114116204266
      ],
      [
        "▁bay",
        -5.740823400342939
      ],
      [
        "▁",
        -3.611816305408839
      ],
      [
        "▁animasyonlar",
        -8.800910853448345
      ],
      [
        "▁6",
        -4.8583629380426645
      ],
      [
        "sa",
        -6.264005283029503
      ],
      [
        "▁hos",
        -7.4533846115195175
      ],
      [
        "el",
        -10.025638889085528
      ],
      [
        "▁cosku",
        -9.839965461447157
      ],
      [
        "▁getirir",
        -8.422242266768187
      ],
      [
        "ine",
        -6.367280183706213
      ],
      [
        "▁temsilcisi",
        -10.026857298643908
      ],
      [
        "▁uzuntu",
        -9.463559474819293
      ],
      [
        "▁kalma",
        -8.665694095106254
      ],
      [
        "te",
        -8.427401427900064
      ],
      [
        "▁surucu",
        -9.687413232304921
      ],
      [
        "▁halini",
        -9.91402809057909
      ],
      [
        "dıkları",
        -9.22884054416976
      ],
      [
        "▁kar",
        -8.661770229349568
      ],
      [
        "▁yerlesti",
        -8.909326767480927
      ],
      [
        "▁normaldi",
        -7.636592726183154
      ],
      [
        "▁polisler",
        -9.77313611037931
      ],
      [
        "▁memlekette",
        -10.043217391028039
      ],
      [
        "▁burası",
        -9.164577691862215
      ],
      [
        "ala",
        -7.800581317341299
      ],
      [
        "▁ko",
        -8.436188161531723
      ],
      [
        "y",
        -7.483793500799078
      ],
      [
        "▁haz",
        -9.776818375318673
      ],
      [
        "▁islemciler",
        -9.995697055916596
      ],
      [
        "3.",
        -9.786542199125012
      ],
      [
        "lerinden",
        -7.266441926719326
      ],
      [
        "▁yanıt",
        -9.076997358637659
      ],
      [
        "makta",
        -7.57840801026483
      ],
      [
        "▁karanlık",
        -8.182000264629504
      ],
      [
        "▁dur",
        -4.965681247810773
      ],
      [
        "▁savas",
        -8.11008171951308
      ],
      [
        "▁birileri",
        -7.533993563251414
      ],
      [
        "▁agustos",
        -8.339196146707526
      ],
      [
        "▁cok",
        -5.414069203518935
      ],
      [
        "▁de",
        -7.641308725991195
      ],
      [
        "la",
        -8.564281887977364
      ],
      [
        "▁gecirmek",
        -10.117022664124258
      ],
      [
        "▁sol",
        -9.374127836672955
      ],
      [
        "▁yuzunde",
        -8.820854640649852
      ],
      [
        "▁canı",
        -9.364691146536423
      ],
      [
        "▁koca",
        -9.150608636084922
      ],
      [
        "si",
        -8.713504458098699
      ],
      [
        "▁partisi",
        -9.291229875328499
      ],
      [
        "▁mayıs",
        -9.284960019837818
      ],
      [
        "▁toplantı",
        -8.762775170958706
      ],
      [
        "sekiz",
        -7.187399372377987
      ],
      [
        "▁dus",
        -7.087842971002945
      ],
      [
        "▁gorustu",
        -7.861515663917695
      ],
      [
        "nen",
        -8.589195314917719
      ],
      [
        "▁kimyasal",
        -10.17639053921947
      ],
      [
        "▁tabiat",
        -9.58937557646203
      ],
      [
        "a",
        -6.331761979549196
      ],
      [
        "▁bir",
        -4.592889084469568
      ],
      [
        "▁kosullar",
        -9.27955590978804
      ],
      [
        "daki",
        -5.614571492439549
      ],
      [
        "▁piyasasını",
        -9.94340852802911
      ],
      [
        "▁gunumuz",
        -9.315078347139123
      ],
      [
        "▁acık",
        -6.410109475772573
      ],
      [
        "▁ya",
        -8.672989836050743
      ],
      [
        "▁yapa",
        -6.83511149287275
      ],
      [
        "iz",
        -5.780786808737579
      ],
      [
        "▁tarım",
        -10.1061880324005
      ],
      [
        "▁francisco",
        -5.916503277408278
      ],
      [
        "▁varıyor",
        -8.34515357867274
      ],
      [
        "▁bel",
        -5.7176907548495475
      ],
      [
        "▁genis",
        -6.394814429886786
      ],
      [
        "▁lokma",
        -9.425097551142379
      ],
      [
        "▁gitmis",
        -8.45465393681831
      ],
      [
        "leri",
        -6.24116818408501
      ],
      [
        "▁g",
        -7.539574150770843
      ],
      [
        "▁ebe",
        -10.176804106856439
      ],
      [
        "kla",
        -9.650649354893167
      ],
      [
        "ci",
        -6.394586723850148
      ],
      [
        "▁tarz",
        -9.606571365006298
      ],
      [
        "n",
        -5.575916566983608
      ],
      [
        "▁akla",
        -9.911082623440754
      ],
      [
        "▁gokyuzu",
        -9.889586371945413
      ],
      [
        "▁arkadasını",
        -9.84883664501737
      ],
      [
        "▁elin",
        -9.08095877868757
      ],
      [
        "▁dile",
        -8.376631499678519
      ],
      [
        "▁devre",
        -9.65794869431061
      ],
      [
        "▁secenegi",
        -9.731777690440051
      ],
      [
        "lma",
        -9.26285473463345
      ],
      [
        "▁uretiyor",
        -8.987684972151193
      ],
      [
        "▁espri",
        -10.176310124468328
      ],
      [
        "▁cıkacak",
        -8.37941486865802
      ],
      [
        "▁reform",
        -9.19002058832326
      ],
      [
        "▁beach'",
        -7.723797446186319
      ],
      [
        "ne",
        -6.372458135960013
      ],
      [
        "▁c",
        -8.176196859020525
      ],
      [
        "▁ceket",
        -9.57781190397138
      ],
      [
        "▁ted",
        -8.684857678773056
      ],
      [
        "▁dogru",
        -6.176161593885435
      ],
      [
        "▁iktisa",
        -10.099383475193198
      ],
      [
        "▁bicimde",
        -8.95967775692757
      ],
      [
        "▁merak",
        -8.34823750861066
      ],
      [
        "▁piyasaları",
        -9.045352689517891
      ],
      [
        "▁g",
        -5.746819020120408
      ],
      [
        "▁kaybetti",
        -8.103100706566854
      ],
      [
        "ne",
        -8.670205081013911
      ],
      [
        "▁dere",
        -9.20346031322747
      ],
      [
        "▁yapıl",
        -8.196809659325119
      ],
      [
        "▁kuzey",
        -8.404421094313163
      ],
      [
        "ildi",
        -7.720625603517544
      ],
      [
        "▁guler",
        -8.99214286523438
      ],
      [
        "▁cevabı",
        -9.90878325412876
      ],
      [
        "▁tadim",
        -9.902383224581786
      ],
      [
        "▁hepimiz",
        -6.275153793410539
      ],
      [
        "▁lacivert",
        -8.643565974139694
      ],
      [
        "▁tekne",
        -8.785880812263883
      ],
      [
        "▁muhte",
        -8.816883149632384
      ],
      [
        "malıyı",
        -8.534609415842482
      ],
      [
        "▁sermaye",
        -8.158982237006747
      ],
      [
        "karsı",
        -8.672606795851351
      ],
      [
        "▁tuketiciler",
        -9.817296569774479
      ],
      [
        "▁yazdı",
        -8.34747446254708
      ],
      [
        "▁turkiye'",
        -7.001723637470341
      ],
      [
        "▁kullan",
        -8.103839210606088
      ],
      [
        "▁hanım",
        -7.660419018851054
      ],
      [
        "▁soyler",
        -7.567079229894271
      ],
      [
        "▁kazı",
        -9.923883595833724
      ],
      [
        "▁oglu",
        -9.002644128372792
      ],
      [
        "▁kararı",
        -8.451582348528722
      ],
      [
        "▁para",
        -6.293343894658395
      ],
      [
        "verdi",
        -8.642731606583155
      ],
      [
        "▁hattı",
        -9.344312983132905
      ],
      [
        "'ı",
        -7.531868235774581
      ],
      [
        "▁mahkemeler",
        -10.110801739287414
      ],
      [
        "▁dr",
        -9.640234918142674
      ],
      [
        "▁sorunları",
        -8.980413227840844
      ],
      [
        "▁toz",
        -9.034991605204695
      ],
      [
        "▁39",
        -7.370096993076277
      ],
      [
        "▁sanıyor",
        -8.989273905348202
      ],
      [
        "▁osmanlı",
        -10.176306523747355
      ],
      [
        "▁etegi",
        -9.963472663086431
      ],
      [
        "▁sunu",
        -6.508308482124722
      ],
      [
        "▁kaybı",
        -9.112788505815248
      ],
      [
        "▁kiler",
        -5.651095447333789
      ],
      [
        "k",
        -7.6999088048560616
      ],
      [
        "mel",
        -6.735596847557808
      ],
      [
        "▁elli",
        -6.208347808831624
      ],
      [
        "▁baglıdır",
        -8.984089547613655
      ],
      [
        "▁on",
        -8.874754401523898
      ],
      [
        "▁gozunu",
        -9.043805839056281
      ],
      [
        "▁ekibi",
        -8.599650905280164
      ],
      [
        "▁hangisi",
        -5.9097176655688965
      ],
      [
        "▁uyesi",
        -9.248191344963487
      ],
      [
        "▁degisimi",
        -9.433211713207333
      ],
      [
        "p",
        -6.721259251721647
      ],
      [
        "esine",
        -8.638187463584957
      ],
      [
        "▁ekim",
        -8.781367136409346
      ],
      [
        "▁benzer",
        -8.438803253213491
      ],
      [
        "▁borsası'n",
        -9.347630248547983
      ],
      [
        "▁onlem",
        -9.827886111185482
      ],
      [
        "▁yarısında",
        -10.119984521761173
      ],
      [
        "▁saf",
        -9.595732172082787
      ],
      [
        "lıkta",
        -8.783287026036604
      ],
      [
        "▁birinde",
        -9.660756128219527
      ],
      [
        "ysa",
        -8.923158557709659
      ],
      [
        "▁42",
        -6.850838654741995
      ],
      [
        "9",
        -9.250370492216216
      ],
      [
        "▁olacak",
        -6.4534331667041505
      ],
      [
        "▁ogrenme",
        -8.963108022459721
      ],
      [
        "▁dusunuyoru",
        -7.936326132982003
      ],
      [
        "▁yargıc",
        -9.309953506436738
      ],
      [
        "▁abla",
        -9.669122519172426
      ],
      [
        "▁evlerin",
        -9.160221444309563
      ],
      [
        "deli",
        -8.805753695423384
      ],
      [
        "▁nashville'",
        -8.158896956107267
      ],
      [
        "▁gitmedi",
        -8.694558242223044
      ],
      [
        "▁ısık",
        -8.647876846624788
      ],
      [
        "▁bosluk",
        -9.352371643719387
      ],
      [
        "▁gozler",
        -9.475116490179351
      ],
      [
        "000",
        -5.453798378371451
      ],
      [
        "gunu",
        -8.038785707820793
      ],
      [
        "▁sırtın",
        -9.520665550190852
      ],
      [
        "▁paranın",
        -9.397819787769821
      ],
      [
        "'li",
        -9.501379903322782
      ],
      [
        "▁degerleri",
        -9.794979178840636
      ],
      [
        "z",
        -7.384597776793819
      ],
      [
        "▁bahcede",
        -10.002459801582635
      ],
      [
        "▁soyle",
        -9.494150251336517
      ],
      [
        "▁2.6",
        -7.411926299767766
      ],
      [
        "▁firmalar",
        -10.045476330812885
      ],
      [
        "da",
        -6.760170719648695
      ],
      [
        "ta",
        -6.454986418729423
      ],
      [
        "▁calısması",
        -9.808017031406411
      ],
      [
        "▁ailesi",
        -8.837864937168845
      ],
      [
        "▁iskonto",
        -9.634158521606492
      ],
      [
        "mıs",
        -5.402299570920755
      ],
      [
        "▁haftalı",
        -8.124062166503307
      ],
      [
        "▁olanak",
        -9.890132118667397
      ],
      [
        "▁kendisi",
        -5.0164946613251225
      ],
      [
        "▁programını",
        -10.058215202521042
      ],
      [
        "▁edilmisti",
        -8.558904034577523
      ],
      [
        "▁dergileri",
        -10.170901839799004
      ],
      [
        "r",
        -8.379793470514926
      ],
      [
        "▁tekrar",
        -10.027959167188518
      ],
      [
        "▁incele",
        -8.863858087018537
      ],
      [
        "▁ayagı",
        -9.485580065562894
      ],
      [
        "▁saclarını",
        -9.270267167087468
      ],
      [
        "▁robert",
        -7.895259777079192
      ],
      [
        "▁bulut",
        -9.990166237487966
      ],
      [
        "▁alma",
        -7.837406765681065
      ],
      [
        "▁pembe",
        -8.497597246521899
      ],
      [
        "▁sorumluluk",
        -9.252512195081142
      ],
      [
        "▁beni",
        -4.178270586993837
      ],
      [
        "▁unsurlar",
        -10.027960222287422
      ],
      [
        "t",
        -6.092549449512361
      ],
      [
        "▁aglama",
        -9.569229174643645
      ],
      [
        "▁i",
        -10.719126777139204
      ],
      [
        "tan",
        -8.270755903086206
      ],
      [
        "▁y",
        -5.850136498665641
      ],
      [
        "▁ele",
        -7.950758561699387
      ],
      [
        "ciler",
        -8.46502594691078
      ],
      [
        "▁ayakkabı",
        -9.22656885844339
      ],
      [
        "▁belediye",
        -8.685905025051714
      ],
      [
        "▁atılım",
        -9.681818272061033
      ],
      [
        "▁gobegi",
        -9.898788223443866
      ],
      [
        "▁duyguları",
        -9.352151855756665
      ],
      [
        "9",
        -12.802702672349787
      ],
      [
        "nızda",
        -9.700767021435666
      ],
      [
        "▁rejimi",
        -10.105422984540573
      ],
      [
        "▁konus",
        -7.812994629712506
      ],
      [
        "▁arası",
        -7.666211944241718
      ],
      [
        "▁uc",
        -8.79408648688098
      ],
      [
        "▁guzelligin",
        -10.110205662251174
      ],
      [
        "▁oturdu",
        -7.985250454652396
      ],
      [
        "ılmaya",
        -10.082743612195616
      ],
      [
        "daha",
        -8.298177487120773
      ],
      [
        "▁ocagı",
        -9.573635785422411
      ],
      [
        "▁bey",
        -6.737353057666577
      ],
      [
        "▁saldırı",
        -9.000988579347535
      ],
      [
        "▁farklı",
        -6.676524239915737
      ],
      [
        "ıldıgında",
        -9.793963860751573
      ],
      [
        "▁temizligi",
        -7.252699985157385
      ],
      [
        "ize",
        -9.059258807384358
      ],
      [
        "▁yapılıyor",
        -8.55978477419495
      ],
      [
        "yim",
        -8.132157031008926
      ],
      [
        "▁sonrasın",
        -8.902465002295541
      ],
      [
        "▁tak",
        -8.240254249428206
      ],
      [
        "mı",
        -6.850188499010792
      ],
      [
        "iyetli",
        -8.76819856306355
      ],
      [
        "▁gosteri",
        -8.748069987395736
      ],
      [
        "▁toreni",
        -9.968613943074939
      ],
      [
        "▁saglamak",
        -9.732430649089874
      ],
      [
        "▁yasadıgı",
        -8.813047333474
      ],
      [
        "▁camı",
        -10.108694217533863
      ],
      [
        "▁ortalaması",
        -9.861720721015878
      ],
      [
        "▁yolları",
        -9.551497187714887
      ],
      [
        "▁avantaj",
        -9.961288205867998
      ],
      [
        "▁dususu",
        -9.743798403295195
      ],
      [
        "▁ayrıl",
        -10.06642596044384
      ],
      [
        "▁ekmek",
        -8.143479642098928
      ],
      [
        "▁biri",
        -4.369579569371211
      ],
      [
        "▁tampa'",
        -8.04256393082669
      ],
      [
        "▁yok",
        -5.684098178948602
      ],
      [
        "▁artı",
        -9.883734229734173
      ],
      [
        "▁baslangıcta",
        -10.046132570670753
      ],
      [
        "▁emin",
        -7.957651102672362
      ],
      [
        "▁urunu",
        -9.519447931114566
      ],
      [
        "ar",
        -7.789969017039488
      ],
      [
        "▁etrafı",
        -9.567909472275549
      ],
      [
        "h",
        -7.355463683374132
      ],
      [
        "os",
        -8.746422819519674
      ],
      [
        "▁cocukların",
        -8.935037522774369
      ],
      [
        "▁baltimore'de",
        -5.9201318121674325
      ],
      [
        "▁angeles",
        -7.726528662700389
      ],
      [
        "▁kim",
        -8.612603231965428
      ],
      [
        "▁olma",
        -8.327551674180558
      ],
      [
        "▁bolumunu",
        -9.578886711684827
      ],
      [
        "ben",
        -7.409524854259412
      ],
      [
        "▁bu",
        -8.475115123595803
      ],
      [
        "▁se",
        -7.921130552514963
      ],
      [
        "dizli",
        -7.5921693520752385
      ],
      [
        "▁ciftci",
        -10.00917270794909
      ],
      [
        "meye",
        -7.097658097142998
      ],
      [
        "▁algı",
        -9.786599116956806
      ],
      [
        "▁temizlik",
        -7.570978775726861
      ],
      [
        "▁tamamlanması",
        -10.028341493889213
      ],
      [
        "▁durur",
        -8.507663793948545
      ],
      [
        "▁enerji",
        -8.505090174006728
      ],
      [
        "▁adım",
        -7.970055869561174
      ],
      [
        "▁sessiz",
        -8.168404297102164
      ],
      [
        "▁don",
        -8.594968907651552
      ],
      [
        "▁10",
        -9.692815490797145
      ],
      [
        "▁sise",
        -8.993515567574804
      ],
      [
        "▁yetmis",
        -7.281993076538759
      ],
      [
        "acagın",
        -9.692622814088317
      ],
      [
        "▁kelimeler",
        -9.654851107532753
      ],
      [
        "ları",
        -8.642392733446677
      ],
      [
        "▁girisimci",
        -10.162745993712457
      ],
      [
        "esinde",
        -8.037033013156538
      ],
      [
        "yla",
        -8.527917099610294
      ],
      [
        "▁yuksel",
        -6.724838392089302
      ],
      [
        "nin",
        -5.371980879799208
      ],
      [
        "▁ver",
        -7.757383306895422
      ],
      [
        "▁kayıp",
        -9.718502707064934
      ],
      [
        "▁sıcaklıgı",
        -10.102513109469697
      ],
      [
        "▁evde",
        -7.922848743487957
      ],
      [
        "▁disi",
        -10.002730052937018
      ],
      [
        "▁dekorasyon",
        -9.59278878207029
      ],
      [
        "▁igne",
        -9.077931516598774
      ],
      [
        "▁dus",
        -8.074622497849719
      ],
      [
        "▁baltimore'",
        -5.677488900809902
      ],
      [
        "▁bilir",
        -7.661525956525454
      ],
      [
        "▁din",
        -8.772571516085511
      ],
      [
        "▁olmasını",
        -9.408956917122655
      ],
      [
        "▁gozun",
        -9.832149310665965
      ],
      [
        "▁hizmetleri",
        -8.479199578103698
      ],
      [
        "eki",
        -7.37202748704168
      ],
      [
        "▁196",
        -7.2077126022460485
      ],
      [
        "▁yemin",
        -10.121660776672964
      ],
      [
        "▁reviz",
        -9.842184818766533
      ],
      [
        "ayım",
        -7.6859265003636414
      ],
      [
        "▁restoran",
        -8.9427192758341
      ],
      [
        "temiz",
        -8.736503455565757
      ],
      [
        "▁turkiye'de",
        -7.000061765398926
      ],
      [
        "gen",
        -9.541992278161736
      ],
      [
        "▁ilave",
        -8.820732222415621
      ],
      [
        "▁kotu",
        -9.027620293444341
      ],
      [
        "▁ısrar",
        -9.190718972691087
      ],
      [
        "▁kaliforniya",
        -7.288443125848875
      ],
      [
        "▁alınması",
        -9.802064193336117
      ],
      [
        "ı'nda",
        -9.982245808995913
      ],
      [
        "▁sirketlerin",
        -9.173260950921502
      ],
      [
        "▁emekli",
        -9.706755216632546
      ],
      [
        "▁ten",
        -9.271559594488435
      ],
      [
        "ri",
        -8.564658674161267
      ],
      [
        "▁ihti",
        -10.175867856166766
      ],
      [
        "▁tezgah",
        -8.551251395668611
      ],
      [
        "▁dusunme",
        -9.236863906947674
      ],
      [
        "▁ola",
        -3.6807569053633458
      ],
      [
        "▁'li",
        -7.839626404640395
      ],
      [
        "a",
        -3.09665466283172
      ],
      [
        "likle",
        -9.41212490638606
      ],
      [
        "▁muayene",
        -9.898788631119888
      ],
      [
        "▁kuyruk",
        -10.099383443260237
      ],
      [
        "mamıs",
        -8.715796391966146
      ],
      [
        "▁tedbir",
        -9.555498809352807
      ],
      [
        "▁ur",
        -9.565880591616192
      ],
      [
        "▁esnaf",
        -10.100852251687009
      ],
      [
        "▁kes",
        -9.56406673324829
      ],
      [
        "▁veriri",
        -6.949690088469152
      ],
      [
        "ese",
        -9.881881994760931
      ],
      [
        "'e",
        -6.643965634587967
      ],
      [
        "bu",
        -7.536628892704085
      ],
      [
        "▁ust",
        -7.1185545875493945
      ],
      [
        "▁seferinde",
        -10.041355966591373
      ],
      [
        "n",
        -3.3624344811246516
      ],
      [
        "▁sizi",
        -5.685998760825111
      ],
      [
        "▁icim",
        -9.468346139214574
      ],
      [
        "▁maliyeti",
        -8.856568842384432
      ],
      [
        "▁cene",
        -9.396304266801241
      ],
      [
        "▁geciriyor",
        -8.97826817279288
      ],
      [
        "…",
        -11.802702672349788
      ],
      [
        "▁denver",
        -5.849706285433557
      ],
      [
        "▁fırtına",
        -9.503560550674445
      ],
      [
        "bir",
        -9.84958288323799
      ],
      [
        "▁ayın",
        -9.093543592366688
      ],
      [
        "▁borsacılar",
        -9.820683887405949
      ],
      [
        "▁zihni",
        -9.352356641873245
      ],
      [
        "an",
        -5.478366728993746
      ],
      [
        "▁kuyrug",
        -9.961291372508823
      ],
      [
        "▁ote",
        -8.811459287778568
      ],
      [
        "▁olsun",
        -6.4577419455461555
      ],
      [
        "▁calisanlarin",
        -9.652676106882078
      ],
      [
        "▁mevcut",
        -8.53562629492314
      ],
      [
        "em",
        -11.24164467511393
      ],
      [
        "▁bulundu",
        -7.4509989034172435
      ],
      [
        "bit",
        -7.884899262457655
      ],
      [
        "▁kuvvet",
        -8.653153039540047
      ],
      [
        "▁edile",
        -6.753902923589754
      ],
      [
        "▁egilim",
        -9.771582995565357
      ],
      [
        "▁karsili",
        -9.75983346347905
      ],
      [
        "▁an",
        -8.887923568972717
      ],
      [
        "▁kalktı",
        -7.850631911405777
      ],
      [
        "▁mayıs",
        -7.853242583760244
      ],
      [
        "muyor",
        -8.887006599081129
      ],
      [
        "▁er",
        -8.700371133238654
      ],
      [
        "▁bedel",
        -9.627050437823856
      ],
      [
        "▁etek",
        -9.546130420249298
      ],
      [
        "▁kadar",
        -2.999792704414248
      ],
      [
        "eydi",
        -8.683181099212039
      ],
      [
        "▁dukkanı",
        -9.261399958872248
      ],
      [
        "▁yuz",
        -7.819115651053656
      ],
      [
        "▁hareket",
        -7.179087371462134
      ],
      [
        "▁mektup",
        -9.037910817890115
      ],
      [
        "▁iste",
        -6.53043461090222
      ],
      [
        "anlar",
        -8.824912802788182
      ],
      [
        "▁sut",
        -8.437730812120556
      ],
      [
        "▁kazandı",
        -7.244566509318416
      ],
      [
        "ır",
        -6.836961157106803
      ],
      [
        "▁suphe",
        -9.077931162377652
      ],
      [
        "▁onları",
        -4.32931003779788
      ],
      [
        "▁et",
        -7.977902231821705
      ],
      [
        "resmi",
        -7.411034989182304
      ],
      [
        "▁birbirimizi",
        -7.931464907644399
      ],
      [
        "ince",
        -8.412645061292471
      ],
      [
        "▁dıs",
        -7.3237373920557545
      ],
      [
        "▁tanıdı",
        -8.989818678570579
      ],
      [
        "▁yi",
        -7.627729954608208
      ],
      [
        "▁katilmadi",
        -8.719325271321853
      ],
      [
        "▁s",
        -4.608337497691909
      ],
      [
        "du",
        -6.548127996053304
      ],
      [
        "▁odemeleri",
        -10.014966629987367
      ],
      [
        "▁tanı",
        -9.951936020626722
      ],
      [
        "▁york'",
        -7.743241407897625
      ],
      [
        "▁tekrar",
        -5.767848238720847
      ],
      [
        "▁viski",
        -9.73177809877729
      ],
      [
        "▁fiyat",
        -6.557092855673658
      ],
      [
        "masını",
        -9.315357988667206
      ],
      [
        "▁cennet",
        -9.388061656636005
      ],
      [
        "▁sevgi",
        -8.21302224722421
      ],
      [
        "▁sonu",
        -8.926218032566185
      ],
      [
        "▁ogrencilerin",
        -10.081492073819541
      ],
      [
        "▁ney",
        -7.091303821092808
      ],
      [
        "▁jandarma",
        -10.09938347931497
      ],
      [
        "▁ciddiyet",
        -10.114539314776483
      ],
      [
        "eri",
        -9.54628451110906
      ],
      [
        "▁the",
        -8.031754556602847
      ],
      [
        "▁tut",
        -9.264779273854861
      ],
      [
        "▁lider",
        -9.357372627103146
      ],
      [
        "im",
        -6.016458627655229
      ],
      [
        "▁milwaukee'",
        -6.945673137830503
      ],
      [
        "▁aleyhin",
        -9.639663332716289
      ],
      [
        "▁yandı",
        -8.595998178871497
      ],
      [
        "g",
        -12.03594578210268
      ],
      [
        "▁donuyor",
        -7.859736831894503
      ],
      [
        "▁polis",
        -8.672681835406959
      ],
      [
        "▁aksama",
        -9.064690899448768
      ],
      [
        "▁gecmisi",
        -9.650152424623215
      ],
      [
        "▁gormedi",
        -7.227313266941329
      ],
      [
        "▁kitapta",
        -9.857500563517922
      ],
      [
        "sem",
        -8.756476009551317
      ],
      [
        "▁1990'da",
        -10.114116436988432
      ],
      [
        "▁gelir",
        -7.122760924582713
      ],
      [
        "▁kesildi",
        -8.206220208250325
      ],
      [
        "▁evleri",
        -9.751822333142407
      ],
      [
        "▁muhte",
        -7.212527407828399
      ],
      [
        "bu",
        -5.9800526379311565
      ],
      [
        "▁abd",
        -5.865467032327615
      ],
      [
        "▁personeller",
        -6.953658375263141
      ],
      [
        "veren",
        -7.632551302984505
      ],
      [
        "▁dost",
        -9.159382066634302
      ],
      [
        "▁mi",
        -8.917711727719045
      ],
      [
        "▁kus",
        -8.304898194217728
      ],
      [
        "▁satın",
        -7.26239506977346
      ],
      [
        "▁mutl",
        -7.604344951822323
      ],
      [
        "ifir",
        -9.651230914103254
      ],
      [
        "▁aramızda",
        -9.906198772500684
      ],
      [
        "kleri",
        -8.632289154070612
      ],
      [
        "n",
        -4.673264323980474
      ],
      [
        "▁duygusu",
        -9.904042037979433
      ],
      [
        "▁icinde",
        -6.7321078423567275
      ],
      [
        "▁hep",
        -5.352880005653416
      ],
      [
        "▁siparis",
        -9.425891822123686
      ],
      [
        "▁fırın",
        -9.373465126223689
      ],
      [
        "▁r",
        -7.410864347944156
      ],
      [
        "▁kum",
        -8.709698375969285
      ],
      [
        "cılar",
        -8.198668733583938
      ],
      [
        "▁demek",
        -8.50134191261293
      ],
      [
        "▁kapa",
        -7.8899446309259185
      ],
      [
        "▁tutku",
        -9.84065981773592
      ],
      [
        "▁asil",
        -8.765996421951185
      ],
      [
        "sine",
        -8.708260001900612
      ],
      [
        "▁islemlerini",
        -10.098549019085574
      ],
      [
        "▁bunda",
        -5.599372556045785
      ],
      [
        "▁degerlendiril",
        -8.930782825273832
      ],
      [
        "▁karı",
        -8.382959139033732
      ],
      [
        "urekli",
        -6.170784925687602
      ],
      [
        "lerimizi",
        -8.739944220313054
      ],
      [
        "altı",
        -6.945780996775762
      ],
      [
        "▁fen",
        -9.90136458781137
      ],
      [
        "▁kaldı",
        -6.776605112657178
      ],
      [
        "▁gece",
        -5.900191116805786
      ],
      [
        "▁yeri",
        -8.607230413926226
      ],
      [
        "▁liste",
        -9.294978021087838
      ],
      [
        "▁senator",
        -9.547466244575492
      ],
      [
        "▁yukseltti",
        -8.47359224882392
      ],
      [
        "▁iyiydi",
        -4.7290992028879995
      ],
      [
        "▁konusunda",
        -7.275564498343578
      ],
      [
        "▁olus",
        -10.026280586485553
      ],
      [
        "▁verim",
        -8.592015102401916
      ],
      [
        "▁100",
        -5.485529480805205
      ],
      [
        "▁1.3",
        -6.781587815894188
      ],
      [
        "▁ydu",
        -5.652411369949245
      ],
      [
        "▁kalı",
        -9.613261888813568
      ],
      [
        "▁neden",
        -7.921010624178378
      ],
      [
        "▁tabi",
        -6.9922903682893205
      ],
      [
        "▁onc",
        -8.378922882909404
      ],
      [
        "▁long",
        -7.475427347950381
      ],
      [
        "in",
        -8.211738689545989
      ],
      [
        "ton",
        -7.6226007165899015
      ],
      [
        "▁terk",
        -8.761725752512001
      ],
      [
        "▁cok",
        -2.7145552025289366
      ],
      [
        "▁magaza",
        -8.699573723744928
      ],
      [
        "▁ham",
        -9.408971673825073
      ],
      [
        "▁a.s",
        -8.24939069284674
      ],
      [
        "▁girme",
        -9.721543412487161
      ],
      [
        "▁m",
        -6.5695762177022194
      ],
      [
        "▁co",
        -6.63193344196444
      ],
      [
        "▁11",
        -5.819399660742911
      ],
      [
        "▁getiriyor",
        -8.394380446292567
      ],
      [
        "arı",
        -7.8898253505434965
      ],
      [
        "▁surece",
        -10.146877091174007
      ],
      [
        "▁yasanan",
        -8.872996337712346
      ],
      [
        "▁hamil",
        -10.100688252047803
      ],
      [
        "c",
        -6.519041070915973
      ],
      [
        "▁simdi",
        -8.74166400253032
      ],
      [
        "▁hukumet",
        -7.753369232637409
      ],
      [
        "▁deniz",
        -6.759021777013119
      ],
      [
        "▁guzellik",
        -9.25747601761982
      ],
      [
        "▁kes",
        -8.49539614775726
      ],
      [
        "▁t",
        -7.020996493100862
      ],
      [
        "kten",
        -8.797004257726309
      ],
      [
        "▁yoneticiler",
        -9.603031612271701
      ],
      [
        "▁ani",
        -8.28649486386787
      ],
      [
        "▁karısı",
        -8.979260648993218
      ],
      [
        "▁tava",
        -9.604799374117562
      ],
      [
        "▁tur",
        -6.953862621762375
      ],
      [
        "▁cıkar",
        -7.850134360737044
      ],
      [
        "lı",
        -7.37465092610085
      ],
      [
        "ur",
        -8.202635811154943
      ],
      [
        "▁annesi",
        -8.685483443707465
      ],
      [
        "▁sim",
        -9.867616385383444
      ],
      [
        "▁dusundu",
        -7.624996139132827
      ],
      [
        "▁yapılandırma",
        -10.176777900111974
      ],
      [
        "en",
        -5.482431047333141
      ],
      [
        "▁?",
        -9.528807987385584
      ],
      [
        "▁gormustu",
        -8.770407357830713
      ],
      [
        "▁sonuclar",
        -9.03438505163045
      ],
      [
        "▁tuvalet",
        -9.681777541057489
      ],
      [
        "eter",
        -7.8667924199507695
      ],
      [
        "▁sirke",
        -10.094971749289478
      ],
      [
        "▁husus",
        -9.486190526816815
      ],
      [
        "▁kendim",
        -6.106222814598597
      ],
      [
        "▁si",
        -8.204993804943655
      ],
      [
        "▁icti",
        -8.916813856535772
      ],
      [
        "▁donem",
        -8.508751581394174
      ],
      [
        "▁cogunluk",
        -10.028352161615711
      ],
      [
        "▁mutfag",
        -10.133096532288812
      ],
      [
        "▁yan",
        -7.089498539665826
      ],
      [
        "etli",
        -7.679016588071063
      ],
      [
        "▁tarihin",
        -9.541570193097701
      ],
      [
        "▁saadet",
        -9.839966836605857
      ],
      [
        "▁saye",
        -9.246294790240505
      ],
      [
        "yen",
        -8.128156989424735
      ],
      [
        "7",
        -8.60043337456942
      ],
      [
        "▁istiyorlar",
        -8.645649407889769
      ],
      [
        "▁tartısmalar",
        -9.809230014363088
      ],
      [
        "▁sat",
        -8.287939209819793
      ],
      [
        "birli",
        -7.476480969195897
      ],
      [
        "▁degiller",
        -6.357911091308022
      ],
      [
        "▁4",
        -4.732260125815868
      ],
      [
        "▁s&p",
        -7.841850890772225
      ],
      [
        "▁alamadi",
        -7.110493000190174
      ],
      [
        "▁da",
        -6.4410868306485405
      ],
      [
        "sını",
        -6.846899612822898
      ],
      [
        "▁gri",
        -8.79177908488022
      ],
      [
        "▁hayatı",
        -8.827664083635032
      ],
      [
        "▁cins",
        -9.57484381486226
      ],
      [
        "▁nereler",
        -8.402931740133155
      ],
      [
        "▁milwaukee'de",
        -6.77260024927041
      ],
      [
        "▁mesru",
        -10.176451532373644
      ],
      [
        "▁kendilerini",
        -5.975809907058947
      ],
      [
        "▁shearson",
        -7.729454416255125
      ],
      [
        "▁alnı",
        -9.824864442680468
      ],
      [
        "/",
        -11.25927492062213
      ],
      [
        "▁in",
        -8.736883981384644
      ],
      [
        "▁ettik",
        -9.63697492735361
      ],
      [
        "▁bela",
        -9.64019733773208
      ],
      [
        "▁ucuslar",
        -6.226607001372271
      ],
      [
        "▁kutu",
        -8.907957771236369
      ],
      [
        "amıyor",
        -8.561465753375602
      ],
      [
        "▁benim",
        -4.0962344854904496
      ],
      [
        "▁ceki",
        -8.25258121538745
      ],
      [
        "▁kriz",
        -8.950712703366941
      ],
      [
        "ip",
        -6.160296091166794
      ],
      [
        "▁epey",
        -7.231327411727682
      ],
      [
        "ici",
        -9.190071964540754
      ],
      [
        "▁cark",
        -9.990291553159597
      ],
      [
        "l",
        -5.464349539545049
      ],
      [
        "▁kitle",
        -9.284542095105428
      ],
      [
        "den",
        -10.015566736665784
      ],
      [
        "▁donemin",
        -9.563913423682447
      ],
      [
        "▁nobet",
        -9.956147461863296
      ],
      [
        "▁agacları",
        -10.12930319527217
      ],
      [
        "▁ihtiyacı",
        -8.922156465549888
      ],
      [
        "▁kokuyor",
        -8.406969869292503
      ],
      [
        "dar",
        -9.008516505021177
      ],
      [
        "▁kek",
        -9.8444222300883
      ],
      [
        "hangi",
        -6.332774858632261
      ],
      [
        "▁c",
        -8.835176991413645
      ],
      [
        "lar",
        -5.089393930338147
      ],
      [
        "▁gidecek",
        -8.892196047842369
      ],
      [
        "▁uzerinde",
        -7.192513175418255
      ],
      [
        "▁38",
        -7.462788926884992
      ],
      [
        "▁muharebe",
        -10.027954882261838
      ],
      [
        "▁sekreteri",
        -10.175456115339292
      ],
      [
        "bi",
        -8.330910199020057
      ],
      [
        "▁endustri",
        -8.662054579652594
      ],
      [
        "gun",
        -7.780179854067352
      ],
      [
        "▁yat",
        -8.637622034214361
      ],
      [
        "▁kadın",
        -7.139996715033832
      ],
      [
        "▁paral",
        -8.757584074758762
      ],
      [
        "▁romanı",
        -9.80011442256934
      ],
      [
        "▁agı",
        -9.783707167991384
      ],
      [
        "▁topu",
        -8.869599354673486
      ],
      [
        "▁gu",
        -8.981896830048388
      ],
      [
        "at",
        -7.621242717650691
      ],
      [
        "'da",
        -7.32189348330439
      ],
      [
        "▁bil",
        -8.09607963168584
      ],
      [
        "▁tarif",
        -9.441353927576536
      ],
      [
        "▁denile",
        -8.392108695656162
      ],
      [
        "▁idaresi",
        -10.029794420743364
      ],
      [
        "▁onunde",
        -7.891866653735919
      ],
      [
        "▁alın",
        -7.703435514389548
      ],
      [
        "▁kararın",
        -10.020394302321462
      ],
      [
        "tı",
        -6.533048043276507
      ],
      [
        "▁ustu",
        -8.119876797186569
      ],
      [
        "▁siyaset",
        -9.025974237435822
      ],
      [
        "▁hu",
        -9.272782073453898
      ],
      [
        "▁hayatımda",
        -10.030868283166498
      ],
      [
        "▁ucma",
        -9.465813993018015
      ],
      [
        "▁bunları",
        -4.754133212558791
      ],
      [
        "yacagını",
        -9.870692076268401
      ],
      [
        "▁uyelerini",
        -10.059751300219366
      ],
      [
        "▁bolunme",
        -10.176308528487697
      ],
      [
        "il",
        -5.634874555172873
      ],
      [
        "▁yuzme",
        -8.096801228991408
      ],
      [
        "▁cozumu",
        -10.119909264580079
      ],
      [
        "ya",
        -5.177865719692096
      ],
      [
        "▁yerin",
        -7.675975537647208
      ],
      [
        "▁arkasında",
        -8.676772776857902
      ],
      [
        "ken",
        -6.060788260110395
      ],
      [
        "▁arada",
        -7.853921508429677
      ],
      [
        "▁ustun",
        -7.669550475578329
      ],
      [
        "▁karanlık",
        -9.35542658815751
      ],
      [
        "▁grev",
        -9.84030795842964
      ],
      [
        "▁basarı",
        -7.3714420937058875
      ],
      [
        "▁serbest",
        -7.789340364422177
      ],
      [
        "▁bank",
        -9.294192961321905
      ],
      [
        "▁lu",
        -6.665428194656309
      ],
      [
        "▁ed",
        -7.1708712442653155
      ],
      [
        "▁b",
        -8.717094528754002
      ],
      [
        "▁evini",
        -9.860601656571463
      ],
      [
        "lere",
        -6.718424578081387
      ],
      [
        "▁hap",
        -9.684091964855947
      ],
      [
        "▁ba",
        -8.250698502706395
      ],
      [
        "▁salon",
        -9.313286607515286
      ],
      [
        "▁kaydetti",
        -8.0862778225748
      ],
      [
        "▁egzersiz",
        -9.898788204443438
      ],
      [
        "ıcı",
        -9.706071748122376
      ],
      [
        "gim",
        -8.580777891417519
      ],
      [
        "▁hapis",
        -9.83870516448642
      ],
      [
        "▁atlanta",
        -6.31894185821857
      ],
      [
        "▁avlu",
        -9.733037426563115
      ],
      [
        "▁gir",
        -7.837707612100456
      ],
      [
        "▁ufak",
        -7.167207725982407
      ],
      [
        "▁keyfi",
        -10.008716770093423
      ],
      [
        "k",
        -3.7536644229821867
      ],
      [
        "▁yayın",
        -8.346542982790393
      ],
      [
        "b",
        -4.9619664055615145
      ],
      [
        "▁fas",
        -9.944519103383069
      ],
      [
        "▁gozlerinde",
        -9.802636247428138
      ],
      [
        "▁yavru",
        -9.835361322714311
      ],
      [
        "hur",
        -8.534767387330675
      ],
      [
        "▁dibinde",
        -9.594409727035153
      ],
      [
        "▁altı",
        -9.204764587307537
      ],
      [
        "▁operasyon",
        -9.818683997843163
      ],
      [
        "▁secildi",
        -8.562563816311796
      ],
      [
        "▁kal",
        -8.926845014747215
      ],
      [
        "onu",
        -9.375389590120458
      ],
      [
        "▁buldu",
        -6.947249804135142
      ],
      [
        "▁",
        -0.7087938101118976
      ],
      [
        "▁koyun",
        -8.555752820450682
      ],
      [
        "▁hicbiri",
        -6.194402383819175
      ],
      [
        "▁col",
        -9.404595495280669
      ],
      [
        "▁angeles'",
        -7.507348018654785
      ],
      [
        "lıyor",
        -8.619197819846697
      ],
      [
        "mez",
        -7.976211492001962
      ],
      [
        "▁oldugu",
        -6.415749648565442
      ],
      [
        "▁mantık",
        -8.140580639447716
      ],
      [
        "▁fonları",
        -9.288211731547781
      ],
      [
        "se",
        -6.524670498750343
      ],
      [
        "▁ulas",
        -8.378419935276916
      ],
      [
        "▁26",
        -6.241788422066687
      ],
      [
        "v",
        -8.402736224443764
      ],
      [
        "ı",
        -6.29015103576089
      ],
      [
        "▁memuru",
        -9.715491174134428
      ],
      [
        "'nu",
        -9.63997103399947
      ],
      [
        "mayın",
        -8.60470207058859
      ],
      [
        "▁olmasını",
        -8.907086360566069
      ],
      [
        "▁par",
        -9.31585612835367
      ],
      [
        "▁fare",
        -9.805715464932174
      ],
      [
        "▁kuzey",
        -9.840016173829856
      ],
      [
        "▁lıgını",
        -9.816874660396156
      ],
      [
        "▁kazanma",
        -9.186372041853364
      ],
      [
        "mayacagını",
        -9.62583367441017
      ],
      [
        "▁mah",
        -9.629370971422599
      ],
      [
        "layan",
        -7.7732711328130035
      ],
      [
        "▁cat",
        -9.775175077416865
      ],
      [
        "mle",
        -8.266579360532228
      ],
      [
        "▁fidan",
        -10.099894237935029
      ],
      [
        "▁siz",
        -4.451945015214789
      ],
      [
        "ha",
        -9.255242096426834
      ],
      [
        "▁satımı",
        -10.08699982032948
      ],
      [
        "ydi",
        -6.289332781259884
      ],
      [
        "▁haric",
        -8.907546030502688
      ],
      [
        "▁st",
        -5.907715493414773
      ],
      [
        "▁washington",
        -5.8176565671691725
      ],
      [
        "▁oldugunu",
        -6.570795219592205
      ],
      [
        "▁sezonu",
        -10.081196948330284
      ],
      [
        "▁su",
        -8.062729926363533
      ],
      [
        "▁yolun",
        -9.025729710395156
      ],
      [
        "▁karsıt",
        -9.656700389044717
      ],
      [
        "'da",
        -5.987685472531846
      ],
      [
        "ki",
        -12.24335423160404
      ],
      [
        "▁kızları",
        -9.570294522171942
      ],
      [
        "▁belirlen",
        -8.762830260190547
      ],
      [
        "lık",
        -6.551850487952047
      ],
      [
        "▁bugun",
        -5.851725009106645
      ],
      [
        "▁yalnız",
        -7.341033475000972
      ],
      [
        "ut",
        -7.534273502585786
      ],
      [
        "▁teması",
        -10.129050509233291
      ],
      [
        "▁salonun",
        -9.676534641689232
      ],
      [
        "▁yen",
        -8.510431705826226
      ],
      [
        "▁senetleri",
        -8.573480278845839
      ],
      [
        "nce",
        -6.808974596992564
      ],
      [
        "c",
        -4.705204350413798
      ],
      [
        "▁guzelligi",
        -10.068095102832398
      ],
      [
        "▁fer",
        -10.036843037872668
      ],
      [
        "▁nerede",
        -7.3722393738330165
      ],
      [
        "▁yasamın",
        -9.847412851478763
      ],
      [
        "▁satma",
        -9.705961312885858
      ],
      [
        "▁kidder",
        -8.102063970095287
      ],
      [
        "▁otesin",
        -9.717200920616726
      ],
      [
        "▁puanlama",
        -9.230765593019072
      ],
      [
        "landı",
        -8.616952141013547
      ],
      [
        "▁bucuk",
        -8.762695278337272
      ],
      [
        "▁malzemeleri",
        -9.632691586173252
      ],
      [
        "▁yemeklerinde",
        -8.942323754339125
      ],
      [
        "▁gerekir",
        -7.608638063474874
      ],
      [
        "k",
        -11.802702672349778
      ],
      [
        "▁alet",
        -9.106665118044283
      ],
      [
        "▁memphis'",
        -6.872706489303382
      ],
      [
        "▁hacı",
        -9.736971626111522
      ],
      [
        "gı",
        -7.311332294522567
      ],
      [
        "▁teror",
        -9.638821719350156
      ],
      [
        "▁olmakta",
        -9.934700432357364
      ],
      [
        "▁evrenin",
        -10.153091330659816
      ],
      [
        "acaklar",
        -10.046307959045059
      ],
      [
        "lu",
        -7.858190321473151
      ],
      [
        "▁kur",
        -7.696678492179027
      ],
      [
        "gı",
        -7.533626846813169
      ],
      [
        "▁olanaklari",
        -8.208132508337261
      ],
      [
        "▁sah",
        -8.821733507347759
      ],
      [
        "hen",
        -7.322566510349346
      ],
      [
        "▁kagıt",
        -8.328420949255925
      ],
      [
        "▁senet",
        -9.928353417102489
      ],
      [
        "▁gor",
        -8.335605312791776
      ],
      [
        "▁bo",
        -8.71876655247448
      ],
      [
        "tik",
        -7.798881633101012
      ],
      [
        "▁ders",
        -8.611169654404495
      ],
      [
        "▁acısın",
        -8.746028472792368
      ],
      [
        "▁teklifi",
        -8.56319848433306
      ],
      [
        "▁var",
        -7.216725724892594
      ],
      [
        "ki",
        -7.374134809775947
      ],
      [
        "▁hukumleri",
        -10.166513706190461
      ],
      [
        "likler",
        -9.74805582976275
      ],
      [
        "▁kaygı",
        -9.31865280160732
      ],
      [
        "▁sak",
        -10.034184629155014
      ],
      [
        "esme",
        -8.089439494467394
      ],
      [
        "▁dis",
        -8.762716897582234
      ],
      [
        "▁ar",
        -8.762983023464987
      ],
      [
        "▁genc",
        -6.319296118895047
      ],
      [
        "▁bocek",
        -9.734584937955978
      ],
      [
        "if",
        -7.979262804391219
      ],
      [
        "▁ozgurluk",
        -9.545393248740346
      ],
      [
        "▁tatlı",
        -9.966325246435403
      ],
      [
        "▁oglan",
        -9.134794056343434
      ],
      [
        "▁avustralya",
        -8.21737928119759
      ],
      [
        "▁yukseliyor",
        -8.9311493194657
      ],
      [
        "lik",
        -7.6912088397564204
      ],
      [
        "lıları",
        -9.900620448652255
      ],
      [
        "▁ku",
        -8.336693040225477
      ],
      [
        "▁abd'de",
        -7.61346576758946
      ],
      [
        "▁5",
        -9.686824028192062
      ],
      [
        "▁sefi",
        -9.912948494423272
      ],
      [
        "▁misafirimiz",
        -8.302108868095317
      ],
      [
        "▁bulundugu",
        -8.199107879652507
      ],
      [
        "▁ot",
        -9.263674057864478
      ],
      [
        "▁birinde",
        -6.609824599980316
      ],
      [
        "▁haberleri",
        -9.56244668862595
      ],
      [
        "mus",
        -9.73849442012877
      ],
      [
        "gide",
        -8.415439818925279
      ],
      [
        "▁gorusuldu",
        -5.592085806786611
      ],
      [
        "▁sehir",
        -7.523227552497981
      ],
      [
        "▁minneapolis'",
        -8.087928756756636
      ],
      [
        "▁edilme",
        -10.116222025379756
      ],
      [
        "▁istasyonu",
        -9.843391243278663
      ],
      [
        "▁tabak",
        -9.596603435279572
      ],
      [
        "▁gereken",
        -8.271974686107184
      ],
      [
        "▁kullanılıyor",
        -8.637384791258192
      ],
      [
        "▁ordu",
        -8.655793240910679
      ],
      [
        "▁sun",
        -8.492721875837578
      ],
      [
        "▁uyku",
        -8.658353768370624
      ],
      [
        "▁catal",
        -10.099932248558858
      ],
      [
        "▁elini",
        -8.42755988549434
      ],
      [
        "▁nedenini",
        -10.092635857836182
      ],
      [
        "'de",
        -7.3956080720555555
      ],
      [
        "▁aldıgı",
        -9.701920018131442
      ],
      [
        "▁eksik",
        -7.945101635592103
      ],
      [
        "▁bilimin",
        -9.676684569030588
      ],
      [
        "▁oldukların",
        -9.695767607960633
      ],
      [
        "▁doktorlar",
        -9.709936332735392
      ],
      [
        "▁olan",
        -6.016898818599858
      ],
      [
        "▁aktivite",
        -8.881085897016066
      ],
      [
        "▁ingilizce",
        -8.342281573157742
      ],
      [
        "▁gucluk",
        -9.963597627531078
      ],
      [
        "▁mıs",
        -5.556776113669009
      ],
      [
        "▁dun",
        -8.01255692530411
      ],
      [
        "▁arkadasım",
        -9.38298637726125
      ],
      [
        "▁kalıyor",
        -8.010636646992333
      ],
      [
        "▁sahipleri",
        -8.854869794341063
      ],
      [
        "▁kadını",
        -8.959563370933473
      ],
      [
        "ip",
        -7.673280800405093
      ],
      [
        "▁plaj",
        -8.66807289723069
      ],
      [
        "amadı",
        -8.121727097340102
      ],
      [
        "gin",
        -7.749270011919657
      ],
      [
        "▁muht",
        -8.652134073756198
      ],
      [
        "▁ba",
        -8.816175872557334
      ],
      [
        "met",
        -8.920252266160633
      ],
      [
        "▁etmiyor",
        -7.938923573294892
      ],
      [
        "▁buyudu",
        -8.649143620517247
      ],
      [
        "▁kez",
        -8.23057518310227
      ],
      [
        "▁tuzu",
        -10.172129953908131
      ],
      [
        "▁ulasımı",
        -8.10503468296628
      ],
      [
        "nın",
        -7.557663351227015
      ],
      [
        "▁kansas",
        -6.518973960745943
      ],
      [
        "▁alanın",
        -10.116695820009241
      ],
      [
        "▁tahvil",
        -7.700473365226528
      ],
      [
        "▁ucusu",
        -8.875815659425072
      ],
      [
        "▁keman",
        -10.028054830917247
      ],
      [
        "ktan",
        -7.570124476525819
      ],
      [
        "d",
        -7.542520493800576
      ],
      [
        "▁gorunumu",
        -9.995295213879357
      ],
      [
        "▁sinirl",
        -8.387794097518851
      ],
      [
        "▁national",
        -7.583431328833911
      ],
      [
        "▁miktarda",
        -9.435329573077782
      ],
      [
        "▁hisselerini",
        -9.108568335989721
      ],
      [
        "▁havlu",
        -9.794811738051994
      ],
      [
        "g",
        -12.802702672349787
      ],
      [
        "▁kiler",
        -8.43945657651828
      ],
      [
        "▁aracı",
        -8.565091357527306
      ],
      [
        "▁kusku",
        -9.320018486843525
      ],
      [
        "▁konak",
        -9.781389478093885
      ],
      [
        "at",
        -7.90805334966808
      ],
      [
        "▁pazartesi",
        -5.966423898325285
      ],
      [
        "▁pahali",
        -7.513252741739036
      ],
      [
        "▁ro",
        -9.849057067141707
      ],
      [
        "▁cicekleri",
        -9.938560881763214
      ],
      [
        "▁ucusunda",
        -9.740569674823274
      ],
      [
        "▁babamı",
        -9.238847057613217
      ],
      [
        "▁senin",
        -5.127217236835529
      ],
      [
        "▁calıs",
        -8.158654180536228
      ],
      [
        "▁britanya",
        -8.270531144018506
      ],
      [
        "lı",
        -4.604940978868521
      ],
      [
        "lari",
        -9.02566953343354
      ],
      [
        "▁kimi",
        -5.800937397148719
      ],
      [
        "▁git",
        -8.203735645719512
      ],
      [
        "▁cevre",
        -8.776037273577483
      ],
      [
        "▁oldugu",
        -6.514803343798484
      ],
      [
        "dıgı",
        -7.497773407287866
      ],
      [
        "c",
        -4.254761954954862
      ],
      [
        "nc",
        -6.268229403463587
      ],
      [
        "▁konusma",
        -8.466836762364819
      ],
      [
        "▁olacak",
        -7.7873202747897015
      ],
      [
        "▁kur",
        -8.649571579533106
      ],
      [
        "▁mahkeme",
        -8.332293654226584
      ],
      [
        "▁a",
        -6.925115723606802
      ],
      [
        "▁ozlem",
        -10.099793987715172
      ],
      [
        "▁baktı",
        -7.217780060325734
      ],
      [
        "len",
        -8.606878197165472
      ],
      [
        "▁hastalıgın",
        -9.692363190312465
      ],
      [
        "▁birlesme",
        -9.3524288834491
      ],
      [
        "▁aydınlık",
        -9.683424034988784
      ],
      [
        "▁reklamlar",
        -9.715111295998994
      ],
      [
        "▁etmez",
        -8.402905412534649
      ],
      [
        "▁senaryo",
        -9.503559021193887
      ],
      [
        "▁sahil",
        -9.871734920613857
      ],
      [
        "▁tesekkurler",
        -8.355981129017952
      ],
      [
        "▁kasaba",
        -8.714788299477227
      ],
      [
        "▁tuhaf",
        -9.681777544876232
      ],
      [
        "▁yapmak",
        -7.650732240233854
      ],
      [
        "▁h",
        -7.908592599068421
      ],
      [
        "▁kucuktu",
        -6.800379671239655
      ],
      [
        "▁ugra",
        -8.75604721363435
      ],
      [
        "▁baca",
        -9.916314471843394
      ],
      [
        "▁se",
        -9.073968805023135
      ],
      [
        "▁oyna",
        -8.71470554994653
      ],
      [
        "la",
        -5.588970610126578
      ],
      [
        "▁kendiniz",
        -7.8085068326066045
      ],
      [
        "\"",
        -9.187979756183216
      ],
      [
        "degil",
        -6.466618770077644
      ],
      [
        "▁sorunlar",
        -9.490798685909239
      ],
      [
        "▁getirme",
        -10.128651962989087
      ],
      [
        "▁ruzgar",
        -8.534832494043581
      ],
      [
        ".",
        -6.508779962973538
      ],
      [
        "▁ceke",
        -8.506260510674569
      ],
      [
        "iz",
        -6.722998754508661
      ],
      [
        "▁sistem",
        -8.5550162528031
      ],
      [
        "▁ra",
        -6.318499422728735
      ],
      [
        "uydu",
        -8.444303099905767
      ],
      [
        "▁uyu",
        -8.857746709871154
      ],
      [
        "▁sık",
        -7.865762091284761
      ],
      [
        "▁kaldır",
        -8.203179932934313
      ],
      [
        "▁dikkat",
        -7.762260855898051
      ],
      [
        "ek",
        -8.432671710188803
      ],
      [
        "▁bugun",
        -8.5054214846172
      ],
      [
        "▁izin",
        -8.06606867969676
      ],
      [
        "▁air",
        -6.400627223074339
      ],
      [
        "▁boston'",
        -5.7300222215715975
      ],
      [
        "▁tahıl",
        -10.099383610263072
      ],
      [
        "▁gelir",
        -7.236166032174328
      ],
      [
        "s",
        -3.5806418659215655
      ],
      [
        "▁kalabal",
        -8.642406211698741
      ],
      [
        "▁gayrimenkul",
        -8.976583914708986
      ],
      [
        "▁mevduat",
        -9.190718972431164
      ],
      [
        "▁proje",
        -8.608999389147906
      ],
      [
        "▁frank",
        -8.183849809091923
      ],
      [
        "▁fransa",
        -7.751101815802764
      ],
      [
        "▁seri",
        -8.243574936551441
      ],
      [
        "v",
        -2.1317723992754427
      ],
      [
        "ın",
        -7.603130702621772
      ],
      [
        "▁dert",
        -9.222456960263028
      ],
      [
        "▁mutlulugu",
        -9.898809951219079
      ],
      [
        "▁odasında",
        -9.619762070545278
      ],
      [
        "▁yanlıs",
        -7.173834167548121
      ],
      [
        "▁h",
        -5.985551101189425
      ],
      [
        "tmek",
        -9.053152365390176
      ],
      [
        "▁nefes",
        -8.535628100949914
      ],
      [
        "▁boya",
        -8.699390086872718
      ],
      [
        "▁bonoları",
        -9.844535751102892
      ],
      [
        "▁inis",
        -9.505831809886843
      ],
      [
        "▁hesap",
        -8.472348899116426
      ],
      [
        "▁depo",
        -9.247761026159576
      ],
      [
        "erhal",
        -6.774381132419854
      ],
      [
        "▁cekici",
        -10.091002699376881
      ],
      [
        "▁hızl",
        -7.233125527976824
      ],
      [
        "'",
        -4.880245595332602
      ],
      [
        "ys",
        -8.722692971893338
      ],
      [
        "▁gidi",
        -8.507190404784332
      ],
      [
        "▁yaprak",
        -9.534795903407524
      ],
      [
        "▁basarılar",
        -10.084661539777777
      ],
      [
        "un",
        -7.2760231975603205
      ],
      [
        "▁degistir",
        -8.386234304028083
      ],
      [
        "▁pat",
        -9.353628425222205
      ],
      [
        "ye",
        -8.934712087907656
      ],
      [
        "▁arsa",
        -10.177888296469376
      ],
      [
        "▁yara",
        -8.7097833716027
      ],
      [
        "▁tesis",
        -6.491561047697874
      ],
      [
        "▁yanında",
        -8.105873293626296
      ],
      [
        "▁az",
        -9.081384129597188
      ],
      [
        "2",
        -4.354190389322459
      ],
      [
        "▁uye",
        -9.14465989434117
      ],
      [
        "▁sırtı",
        -10.011895749845706
      ],
      [
        "▁197",
        -7.0704416662705025
      ],
      [
        "▁koca",
        -6.809408070987436
      ],
      [
        "▁gercek",
        -6.589993971854006
      ],
      [
        "sizdi",
        -7.302852581424851
      ],
      [
        "▁hane",
        -9.714586629406083
      ],
      [
        "▁oynuyor",
        -8.597214366004762
      ],
      [
        "han",
        -7.500671672989282
      ],
      [
        "▁deniz",
        -7.832670221880124
      ],
      [
        "▁yılı",
        -8.43853412990898
      ],
      [
        "▁temettu",
        -9.425097575752517
      ],
      [
        "▁koltugun",
        -9.426853438671538
      ],
      [
        "lara",
        -6.088226839202348
      ],
      [
        "▁dunya",
        -6.9119997996284415
      ],
      [
        "▁brit",
        -8.283373850844672
      ],
      [
        "▁yetkilisi",
        -9.751782883278619
      ],
      [
        "▁yasam",
        -8.274972980735114
      ],
      [
        "▁dondu",
        -7.247701092557411
      ],
      [
        "n",
        -5.646770103360007
      ],
      [
        "▁serisi",
        -9.858514028274088
      ],
      [
        "▁muhabbet",
        -9.898788204341304
      ],
      [
        "▁ilkbahar",
        -10.176306548601257
      ],
      [
        "ye",
        -4.573780734147815
      ],
      [
        "▁sozler",
        -9.150381284519948
      ],
      [
        "▁gidis",
        -7.275597656799717
      ],
      [
        "▁ulkemiz",
        -9.720805320377922
      ],
      [
        "▁dusmustu",
        -8.772714181010123
      ],
      [
        "ını",
        -9.346227941632481
      ],
      [
        "▁vardi",
        -6.25965259201028
      ],
      [
        "▁davranısları",
        -10.121395994028479
      ],
      [
        "▁havlular",
        -10.085710723543382
      ],
      [
        "im",
        -6.091841997074982
      ],
      [
        "▁artar",
        -6.100708116629359
      ],
      [
        "▁k",
        -7.400253612310262
      ],
      [
        "▁v",
        -6.0393683046606
      ],
      [
        "▁basa",
        -8.938239744269362
      ],
      [
        "▁plani",
        -8.963316057467402
      ],
      [
        "▁alt",
        -9.135988264403592
      ],
      [
        "▁konusmalar",
        -9.776197238184754
      ],
      [
        "▁mum",
        -7.091078631728467
      ],
      [
        "▁duse",
        -8.108067187189583
      ],
      [
        "▁kıs",
        -8.16188244775315
      ],
      [
        "▁sınıfta",
        -9.682043651263077
      ],
      [
        "▁yuru",
        -8.112127916766505
      ],
      [
        "▁oldukları",
        -10.10172081833627
      ],
      [
        "▁asker",
        -7.442105382177113
      ],
      [
        "▁kacırdı",
        -8.660523831971638
      ],
      [
        "▁cin",
        -7.368193966484965
      ],
      [
        "▁o",
        -8.092435956467884
      ],
      [
        "▁hayatımız",
        -9.65866042893382
      ],
      [
        "▁dolasır",
        -8.89996157177276
      ],
      [
        "▁etkisi",
        -8.800946385665007
      ],
      [
        "▁kadın",
        -7.276920919816217
      ],
      [
        "▁",
        -2.794952726960486
      ],
      [
        "▁calıyor",
        -8.64180874580059
      ],
      [
        "▁kahraman",
        -9.740566509759715
      ],
      [
        "▁%",
        -3.886665045624931
      ],
      [
        "▁kaza",
        -8.70092915544905
      ],
      [
        "▁gorunuyor",
        -7.329012415121878
      ],
      [
        "▁tadin",
        -10.131937287938579
      ],
      [
        "▁yumusa",
        -7.937687443718504
      ],
      [
        "▁misafirler",
        -10.175422158622158
      ],
      [
        "▁farklılık",
        -9.463568055742341
      ],
      [
        "▁metal",
        -9.968492785979299
      ],
      [
        "▁tarihte",
        -9.486521108875616
      ],
      [
        "▁sonun",
        -8.803058278580057
      ],
      [
        "▁bell",
        -8.087504603383183
      ],
      [
        "▁arkadası",
        -9.191533550312586
      ],
      [
        "▁donusu",
        -9.904280407684318
      ],
      [
        "m",
        -7.306008514562447
      ],
      [
        "▁aradi",
        -6.904955733429157
      ],
      [
        "▁yapıl",
        -8.10621368155349
      ],
      [
        "▁dusurdu",
        -8.65564333787797
      ],
      [
        "▁lisans",
        -9.765134140293098
      ],
      [
        "▁tem",
        -8.774564596340506
      ],
      [
        "▁bil",
        -9.160273757143404
      ],
      [
        "elik",
        -7.316834905725904
      ],
      [
        "▁ticareti",
        -9.102055495733044
      ],
      [
        "▁dolay",
        -7.717462518062002
      ],
      [
        "▁gunde",
        -8.476532335746565
      ],
      [
        "▁bisiklet",
        -9.190718972122085
      ],
      [
        "▁kaldi",
        -5.2177456527900095
      ],
      [
        "▁tutar",
        -8.751826610679233
      ],
      [
        "▁sordu",
        -7.199582620796439
      ],
      [
        "▁mail",
        -8.977112453687816
      ],
      [
        "▁davran",
        -10.031742736123626
      ],
      [
        "▁eksiklikler",
        -9.80882622491417
      ],
      [
        "▁yapti",
        -7.330535609409531
      ],
      [
        "▁ga",
        -8.354126557654107
      ],
      [
        "▁acente",
        -9.221023903206838
      ],
      [
        "▁ceki",
        -9.953660747419946
      ],
      [
        "▁sayısı",
        -8.850120445906203
      ],
      [
        "▁kaynak",
        -8.437709221412401
      ],
      [
        "▁bazılarını",
        -7.1808326104309605
      ],
      [
        "ks",
        -7.172960641244545
      ],
      [
        "z",
        -8.00771259404701
      ],
      [
        "▁guney",
        -9.354587190467058
      ],
      [
        "▁baslama",
        -9.877372180848177
      ],
      [
        "iyor",
        -6.336532059662523
      ],
      [
        "▁parcasını",
        -9.931054780960062
      ],
      [
        "uluslar",
        -7.940276082175659
      ],
      [
        "▁cesitleri",
        -9.024489889078694
      ],
      [
        "▁imkanı",
        -9.809412900824166
      ],
      [
        "▁protokol",
        -9.898788205135313
      ],
      [
        "▁bile",
        -4.691592204789792
      ],
      [
        "▁gezegen",
        -10.099383669928596
      ],
      [
        "▁farkında",
        -9.05606138431989
      ],
      [
        "▁avrupa'da",
        -7.497466820441639
      ],
      [
        "▁usak",
        -9.78564415234703
      ],
      [
        "▁kalmadı",
        -8.05967011986296
      ],
      [
        "▁tesebbus",
        -9.961288204304765
      ],
      [
        "▁yetkililerin",
        -9.955539903894952
      ],
      [
        "uncu",
        -8.61725654199062
      ],
      [
        "▁kalmadigim",
        -8.593248975650528
      ],
      [
        "ımızda",
        -9.456512668188527
      ],
      [
        "niye",
        -7.497200092075518
      ],
      [
        "▁yurtdisi",
        -10.176369002332425
      ],
      [
        "▁cocuklarını",
        -9.87857394031911
      ],
      [
        "ala",
        -9.934545394150513
      ],
      [
        "▁cogunu",
        -6.8282652036770175
      ],
      [
        "▁canta",
        -9.43380009853546
      ],
      [
        "▁memleketi",
        -9.45203776698574
      ],
      [
        "▁seans",
        -10.176693901680071
      ],
      [
        "▁dersler",
        -9.861561624944828
      ],
      [
        "▁omuz",
        -9.498887763814203
      ],
      [
        "lı",
        -9.494718087596715
      ],
      [
        "▁hareketler",
        -9.851691809617757
      ],
      [
        "▁di",
        -7.868016944370776
      ],
      [
        "▁or",
        -8.776706927948519
      ],
      [
        "▁ucte",
        -9.692536767517128
      ],
      [
        "▁sendika",
        -8.761295826763716
      ],
      [
        "▁sokaklarda",
        -9.940964433706096
      ],
      [
        "eye",
        -8.445803057601927
      ],
      [
        "▁art",
        -8.34966157181385
      ],
      [
        "▁hissesi",
        -8.84984704461063
      ],
      [
        "ılması",
        -9.18157451446561
      ],
      [
        "▁ogul",
        -9.388069455949507
      ],
      [
        "▁degerinde",
        -9.62358275230318
      ],
      [
        "▁ucus",
        -6.03403805912337
      ],
      [
        "▁akın",
        -9.416464943945256
      ],
      [
        "▁almıstı",
        -8.26669788043316
      ],
      [
        "▁21",
        -10.075403991707969
      ],
      [
        "▁tempo",
        -9.961288306100972
      ],
      [
        "▁projeler",
        -9.993267168099354
      ],
      [
        "▁pazar",
        -7.728872626375107
      ],
      [
        "▁ardı",
        -9.096310906775095
      ],
      [
        "▁odalarin",
        -9.86179393245019
      ],
      [
        "▁arzu",
        -9.414567750936037
      ],
      [
        "layıcı",
        -9.785961341914795
      ],
      [
        "▁ucaklar",
        -9.923714832988189
      ],
      [
        "▁gunun",
        -9.057313968999544
      ],
      [
        "▁mısın",
        -5.888033299562615
      ],
      [
        "▁yonlendirdi",
        -8.590458517060359
      ],
      [
        "▁kardes",
        -8.761804183716109
      ],
      [
        "▁temyiz",
        -9.898788475843814
      ],
      [
        "▁ani",
        -8.79281280256296
      ],
      [
        "▁lynch",
        -7.449314816384752
      ],
      [
        "▁mev",
        -6.723538293557618
      ],
      [
        "▁ilk",
        -5.422088086439556
      ],
      [
        "g",
        -3.2365275863870604
      ],
      [
        "▁48",
        -7.5100789310058484
      ],
      [
        "▁say",
        -8.601413518006044
      ],
      [
        "▁yasama",
        -9.290968408141373
      ],
      [
        "▁kalkı",
        -7.267763976070212
      ],
      [
        "a",
        -3.0926384863008716
      ],
      [
        "t",
        -4.499821088122294
      ],
      [
        "▁cerceve",
        -9.48028381112767
      ],
      [
        "ma",
        -7.210875628337654
      ],
      [
        "▁kesi",
        -9.840505596841776
      ],
      [
        "▁mevcuttu",
        -8.719263994653152
      ],
      [
        "ck",
        -9.730324022110045
      ],
      [
        "▁bazıları",
        -5.5918974405545265
      ],
      [
        "rim",
        -8.384658300147619
      ],
      [
        "▁oteki",
        -9.394865802868292
      ],
      [
        "▁haberi",
        -9.143730186962621
      ],
      [
        "▁y",
        -8.402677086191826
      ],
      [
        "▁giysi",
        -9.896033604246243
      ],
      [
        "▁ki",
        -4.876365201347605
      ],
      [
        "▁devletin",
        -8.955932366704994
      ],
      [
        "▁mendil",
        -9.63831965350276
      ],
      [
        "▁cabaları",
        -9.824044767723132
      ],
      [
        "▁ilham",
        -9.898792276994744
      ],
      [
        "▁bir",
        -9.466504618835748
      ],
      [
        "▁gibi",
        -2.7839934559607933
      ],
      [
        "▁",
        -1.6692032132785002
      ],
      [
        "d",
        -10.41573712684167
      ],
      [
        "ındaki",
        -6.092440581840932
      ],
      [
        "▁gelmek",
        -10.139684800257376
      ],
      [
        "mus",
        -7.133927853654196
      ],
      [
        "li",
        -4.226068988600278
      ],
      [
        "ser",
        -8.204035589256511
      ],
      [
        "▁halin",
        -8.061212722566438
      ],
      [
        "▁kal",
        -7.282630546391927
      ],
      [
        "▁tet",
        -9.971693668032536
      ],
      [
        "▁karsısında",
        -8.340710661550004
      ],
      [
        "lar",
        -5.938162244444685
      ],
      [
        "ib",
        -8.443565151977818
      ],
      [
        "▁gonul",
        -8.685782438594025
      ],
      [
        "▁biri",
        -8.103945585282604
      ],
      [
        "▁birimleri",
        -9.849805264073815
      ],
      [
        "▁makam",
        -9.326351905680895
      ],
      [
        "▁ismi",
        -9.07129098005496
      ],
      [
        "▁tat",
        -8.421261695602189
      ],
      [
        "yı",
        -7.484810634208488
      ],
      [
        "▁bilmez",
        -8.829397188792624
      ],
      [
        "▁sevk",
        -9.058340020872963
      ],
      [
        "▁yolcu",
        -9.301193601585384
      ],
      [
        "▁baskaların",
        -9.885017231106316
      ],
      [
        "▁bulunur",
        -8.476663089240876
      ],
      [
        "▁bas",
        -8.71803223951012
      ],
      [
        "▁cin",
        -9.412701785363131
      ],
      [
        "▁pilot",
        -9.179428283106308
      ],
      [
        "me",
        -5.2378659416475815
      ],
      [
        "▁gelecek",
        -8.722608883497415
      ],
      [
        "▁olu",
        -8.104139197010909
      ],
      [
        "lıdır",
        -8.38877795466395
      ],
      [
        "▁ad",
        -8.443510750513518
      ],
      [
        "▁eseri",
        -9.570614074160249
      ],
      [
        "▁phoenix'",
        -7.466919520995885
      ],
      [
        "▁satıla",
        -8.673308091097581
      ],
      [
        "▁hafif",
        -9.784411629154848
      ],
      [
        "▁ilgili",
        -5.433302855292382
      ],
      [
        "▁yorumu",
        -10.131584221384946
      ],
      [
        "▁sef",
        -9.720951734830283
      ],
      [
        "▁general",
        -9.503609200063003
      ],
      [
        "▁dort",
        -4.533641774591931
      ],
      [
        "um",
        -8.157346347107445
      ],
      [
        "▁bizim",
        -8.887491071444323
      ],
      [
        "diyet",
        -10.055140237513573
      ],
      [
        "▁asl",
        -6.096723680153653
      ],
      [
        "▁acı",
        -7.056702490320647
      ],
      [
        "▁kaynakları",
        -10.082680496103205
      ],
      [
        "▁yukselis",
        -9.287647646000012
      ],
      [
        "▁fırsat",
        -8.887356588716647
      ],
      [
        "▁olmasi",
        -8.069279641447574
      ],
      [
        "▁coban",
        -9.132813731911387
      ],
      [
        "▁10'da",
        -8.9072343506926
      ],
      [
        "▁hepsin",
        -7.702472197409441
      ],
      [
        "cak",
        -9.936236622001802
      ],
      [
        "anında",
        -8.40981763361465
      ],
      [
        "▁vucudu",
        -9.013434932526655
      ],
      [
        "▁cesidi",
        -9.545229079044596
      ],
      [
        "▁sınır",
        -8.873058586037608
      ],
      [
        "▁savunma",
        -8.59965757261485
      ],
      [
        "▁ana",
        -8.123154413437375
      ],
      [
        "ma",
        -7.885474611994246
      ],
      [
        "▁donanma",
        -9.9612952389662
      ],
      [
        "▁yuva",
        -9.190725585311082
      ],
      [
        "▁cekme",
        -9.573104498831874
      ],
      [
        "▁detroit'",
        -7.969483508508505
      ],
      [
        "▁arkadaslarını",
        -9.983658905905342
      ],
      [
        "▁kardesi",
        -9.256702743071234
      ],
      [
        "▁ons",
        -9.503844011320158
      ],
      [
        "▁olabil",
        -8.713444226035984
      ],
      [
        "▁hem",
        -7.1543483918530395
      ],
      [
        "▁milyar",
        -3.833066983694204
      ],
      [
        "▁araya",
        -9.098155667118299
      ],
      [
        "▁ru",
        -9.911620533097965
      ],
      [
        "▁tasıy",
        -8.788852378251818
      ],
      [
        "du",
        -4.695439442154072
      ],
      [
        "▁uretimin",
        -10.117528220816402
      ],
      [
        "an",
        -7.668036448599423
      ],
      [
        "▁uzeri",
        -9.847020909720055
      ],
      [
        "▁olcude",
        -8.134554722448769
      ],
      [
        "▁alacaklılar",
        -10.099387746426071
      ],
      [
        "▁kırı",
        -9.416457010547024
      ],
      [
        "▁etkinlikler",
        -10.104792365865622
      ],
      [
        "▁atesi",
        -9.478528338261963
      ],
      [
        "▁dar",
        -8.800840261690531
      ],
      [
        "asında",
        -8.166110055285735
      ],
      [
        "▁yatırımcılar",
        -8.121210068307999
      ],
      [
        "▁sarf",
        -9.735064691053784
      ],
      [
        "▁merkezin",
        -8.384095811287757
      ],
      [
        "▁nere",
        -7.87386553786739
      ],
      [
        "arlı",
        -8.385711642184877
      ],
      [
        "▁final",
        -9.962155315635727
      ],
      [
        "lı",
        -6.982746712373694
      ],
      [
        "▁arası",
        -8.719200024991633
      ],
      [
        "izim",
        -9.416666702438333
      ],
      [
        "▁ebeveyn",
        -9.89878821135957
      ],
      [
        "l",
        -5.218757669442791
      ],
      [
        "▁27",
        -5.792169366662349
      ],
      [
        "▁kalk",
        -7.808387586939307
      ],
      [
        "medi",
        -8.684851290272388
      ],
      [
        "▁istanbul",
        -9.96128821890015
      ],
      [
        "▁gozyası",
        -10.100250421485434
      ],
      [
        "▁pazartesi",
        -8.841572573686888
      ],
      [
        "liler",
        -9.2559040580401
      ],
      [
        "ecek",
        -6.942638364273837
      ],
      [
        "▁tesisin",
        -7.7225546497668
      ],
      [
        "▁kurtar",
        -8.75406711257996
      ],
      [
        "▁kulube",
        -9.731950323231946
      ],
      [
        "▁kosulları",
        -8.903629589352315
      ],
      [
        "▁oldugunu",
        -6.165144376664872
      ],
      [
        "▁mus",
        -5.417352690502484
      ],
      [
        "▁aktar",
        -8.557557591398407
      ],
      [
        "▁city'de",
        -6.691157918871967
      ],
      [
        "me",
        -6.988268616501213
      ],
      [
        "▁damar",
        -9.223508737285991
      ],
      [
        "▁heykel",
        -9.588703726555861
      ],
      [
        "▁murat",
        -7.8009368883497014
      ],
      [
        "tı",
        -7.681218418207465
      ],
      [
        "▁roman",
        -8.67870320455323
      ],
      [
        "▁ogrenci",
        -8.628430691241318
      ],
      [
        "▁francisco'da",
        -6.025430847554295
      ],
      [
        "▁milletin",
        -9.884502465727437
      ],
      [
        "cok",
        -7.7790295307327
      ],
      [
        "▁iste",
        -8.510664841238706
      ],
      [
        "▁gerilim",
        -9.899017082693598
      ],
      [
        "▁klima",
        -9.731789348372295
      ],
      [
        "▁olma",
        -8.219141381625018
      ],
      [
        "▁1'de",
        -9.944204246475987
      ],
      [
        "yıp",
        -8.391723566680888
      ],
      [
        "▁alanında",
        -9.576566600744552
      ],
      [
        "▁havayollarında",
        -9.18005665783941
      ],
      [
        "▁`",
        -10.557597422589598
      ],
      [
        "▁disk",
        -9.897849372135186
      ],
      [
        "▁ve",
        -9.324294636803664
      ],
      [
        "▁yerde",
        -7.464550409284563
      ],
      [
        "▁diyorlar",
        -8.719058831820329
      ],
      [
        "▁birimi",
        -9.079338503737416
      ],
      [
        "c",
        -7.456203092935342
      ],
      [
        "▁adlandır",
        -8.986658973389298
      ],
      [
        "▁kızgın",
        -8.448632793234832
      ],
      [
        "h",
        -6.8306572091775175
      ],
      [
        "l",
        -8.749613634584774
      ],
      [
        "unca",
        -8.7553797887651
      ],
      [
        "▁defa",
        -7.8570215822027265
      ],
      [
        "ustu",
        -8.194458491228332
      ],
      [
        "▁orman",
        -8.73864421595255
      ],
      [
        "▁lake",
        -6.5192866892006665
      ],
      [
        "degildi",
        -6.026328461764028
      ],
      [
        "d",
        -8.872852067275208
      ],
      [
        "▁mer",
        -9.650884615613794
      ],
      [
        "▁telgraf",
        -9.6817775410691
      ],
      [
        "▁aralık",
        -8.624708951799668
      ],
      [
        "ırdı",
        -8.961977914066345
      ],
      [
        "▁video",
        -9.898788742717059
      ],
      [
        "aki",
        -9.842291196683833
      ],
      [
        "mme",
        -8.46388241452652
      ],
      [
        "lugun",
        -9.02743639049772
      ],
      [
        "▁dusuncelerini",
        -9.814156930692292
      ],
      [
        "▁deger",
        -8.564624529595992
      ],
      [
        "▁zeytinyagı",
        -9.8990152205951
      ],
      [
        "kları",
        -8.18186495674875
      ],
      [
        "▁anlamın",
        -8.667727003793141
      ],
      [
        "▁kolları",
        -9.668656990385578
      ],
      [
        "▁pabuc",
        -9.961288504087978
      ],
      [
        "▁ayrı",
        -6.924261573818779
      ],
      [
        "▁otomobil",
        -8.162766323009114
      ],
      [
        "▁listeler",
        -10.15595264998559
      ],
      [
        "▁durumunda",
        -9.20807689804445
      ],
      [
        "▁sergi",
        -9.391465603081233
      ],
      [
        "▁altın",
        -7.732290616877832
      ],
      [
        "▁tat",
        -9.94127929063789
      ],
      [
        "▁isteye",
        -8.487280285385715
      ],
      [
        "▁international",
        -7.381709683577083
      ],
      [
        "▁kinde",
        -8.752373795451286
      ],
      [
        "4",
        -4.477827337596428
      ],
      [
        "▁washington'",
        -6.646016631355564
      ],
      [
        "malı",
        -7.558597932781802
      ],
      [
        "sı",
        -5.98069388927272
      ],
      [
        "s",
        -7.940678475384541
      ],
      [
        "▁bakan",
        -8.503176993550035
      ],
      [
        "▁sec",
        -9.67506594097043
      ],
      [
        "p",
        -6.8247742603690735
      ],
      [
        "▁almadi",
        -8.49758417346879
      ],
      [
        "▁alısveris",
        -8.650504011945234
      ],
      [
        "▁parmaklarını",
        -10.155688713725567
      ],
      [
        "▁suları",
        -9.49447986135329
      ],
      [
        "▁satıl",
        -8.447879124150518
      ],
      [
        "▁turlu",
        -9.849311209251749
      ],
      [
        "▁bak",
        -6.688141638355412
      ],
      [
        "▁kalka",
        -5.973555474754623
      ],
      [
        "▁acı",
        -8.944201768988743
      ],
      [
        "▁ucusun",
        -8.963200431225864
      ],
      [
        "▁yelken",
        -10.099426674421828
      ],
      [
        "ra",
        -8.02860155091519
      ],
      [
        "▁kı",
        -9.091885006746914
      ],
      [
        "▁dua",
        -9.253947174923486
      ],
      [
        "sin",
        -6.581261317813709
      ],
      [
        "um",
        -8.272284003403877
      ],
      [
        "▁domates",
        -9.161307313560851
      ],
      [
        "▁medeniyet",
        -9.993615089422743
      ],
      [
        "la",
        -6.132318751279013
      ],
      [
        "▁iscilerin",
        -10.081839858487871
      ],
      [
        "sıyla",
        -8.35400897442734
      ],
      [
        "▁ayrı",
        -9.854775937987112
      ],
      [
        "▁keci",
        -9.90030134107932
      ],
      [
        "mayacak",
        -8.02928527110474
      ],
      [
        "▁turkce",
        -9.507764318493315
      ],
      [
        "▁arama",
        -9.153752784598844
      ],
      [
        "▁johnson",
        -8.251172929802237
      ],
      [
        "▁ilginc",
        -8.144211706128466
      ],
      [
        "oglu",
        -7.150144633485656
      ],
      [
        "▁sana",
        -5.075330108084433
      ],
      [
        "▁yanı",
        -8.182411643847345
      ],
      [
        "on",
        -7.34108458799203
      ],
      [
        "▁oyuncu",
        -8.781026114965462
      ],
      [
        "▁japon",
        -8.87653550079035
      ],
      [
        "▁devrim",
        -8.986069756895095
      ],
      [
        "kca",
        -6.111250826125482
      ],
      [
        "o",
        -7.261688420079819
      ],
      [
        "▁beyaz",
        -7.733156618765178
      ],
      [
        "la",
        -8.064272540337956
      ],
      [
        "ca",
        -7.126501367689933
      ],
      [
        "▁degillerdi",
        -5.210354841089645
      ],
      [
        "▁halkın",
        -9.155915851191189
      ],
      [
        "▁kumas",
        -8.54737490138734
      ],
      [
        "▁kalbi",
        -8.90195992367343
      ],
      [
        "▁seyleri",
        -9.245548949399652
      ],
      [
        "▁bozu",
        -8.196383960105303
      ],
      [
        "20",
        -7.338029211449448
      ],
      [
        "▁30",
        -5.020739400265071
      ],
      [
        "▁yardımı",
        -9.524638233090094
      ],
      [
        "▁kabugu",
        -9.961297261452875
      ],
      [
        "▁borcu",
        -9.106454503439359
      ],
      [
        "▁makine",
        -8.699882033332251
      ],
      [
        "▁ayrıntı",
        -9.982183285441105
      ],
      [
        "▁fiyatı",
        -8.104388814826956
      ],
      [
        "▁eglence",
        -8.3643068913649
      ],
      [
        "▁dısında",
        -8.638334062284523
      ],
      [
        "up",
        -6.6607683440219585
      ],
      [
        "▁dogu",
        -9.460722736516619
      ],
      [
        "▁kadınların",
        -9.410845817875007
      ],
      [
        "▁oyle",
        -5.64675409423086
      ],
      [
        "▁kalitesinde",
        -9.688663249052219
      ],
      [
        "▁mahkemesi",
        -9.170752230859287
      ],
      [
        "▁as",
        -8.92902715994748
      ],
      [
        "am",
        -8.203053439865858
      ],
      [
        "tugunu",
        -9.895312985320421
      ],
      [
        "▁yana",
        -7.967408395125522
      ],
      [
        "▁memnuniyeti",
        -9.332804354839322
      ],
      [
        "▁kesti",
        -8.354104924663527
      ],
      [
        "▁biliyorsun",
        -8.513719304853531
      ],
      [
        "ve",
        -8.34043871392612
      ],
      [
        "▁alındı",
        -8.242877549426627
      ],
      [
        "▁cık",
        -9.22812729007157
      ],
      [
        "▁sepet",
        -9.221022831859003
      ],
      [
        "i",
        -5.1748346016730125
      ],
      [
        "de",
        -5.3119117464301135
      ],
      [
        "▁yoneticileri",
        -9.029736131100314
      ],
      [
        "▁yetenegi",
        -9.731777600237008
      ],
      [
        "▁kullanıl",
        -9.984311047867841
      ],
      [
        "▁iliskiler",
        -9.217403290933165
      ],
      [
        "▁9",
        -9.847620743981723
      ],
      [
        "▁roman",
        -8.767074616928863
      ],
      [
        "▁oyna",
        -8.800579132089798
      ],
      [
        "6",
        -4.861426244991477
      ],
      [
        "▁sahip",
        -7.125997578852691
      ],
      [
        "ir",
        -7.148358618459739
      ],
      [
        "▁kanı",
        -9.699076013591327
      ],
      [
        "▁etmeye",
        -8.60391832722236
      ],
      [
        "▁sahit",
        -9.844165710833515
      ],
      [
        "▁ucretler",
        -9.828351584213445
      ],
      [
        "▁oteli",
        -8.334414863697841
      ],
      [
        "▁bin",
        -9.098347269171132
      ],
      [
        "▁mil",
        -9.296771882692502
      ],
      [
        "▁muamele",
        -9.841444417754163
      ],
      [
        "▁sever",
        -8.379594481509272
      ],
      [
        "▁tum",
        -9.767859317495851
      ],
      [
        "▁ikisini",
        -10.081807435033255
      ],
      [
        "▁seattle'de",
        -7.736604950268081
      ],
      [
        "siz",
        -9.316193889768682
      ],
      [
        "▁birden",
        -5.965201419918159
      ],
      [
        "▁tı",
        -3.8255906107362634
      ],
      [
        "▁fazlayd",
        -7.924852259340486
      ],
      [
        "▁imkanlari",
        -8.197066319430158
      ],
      [
        "▁ciftciler",
        -9.76095616239001
      ],
      [
        "▁carsı",
        -9.76713553837982
      ],
      [
        "▁isbirligi",
        -9.388071001272964
      ],
      [
        "▁etmem",
        -7.047862303539295
      ],
      [
        "▁olustur",
        -8.362266560705175
      ],
      [
        "▁yaptıgı",
        -9.530972440713322
      ],
      [
        "▁uretimi",
        -9.196504066006984
      ],
      [
        "▁olan",
        -5.550474496869134
      ],
      [
        "in",
        -7.8985262541354775
      ],
      [
        "ti",
        -6.333955093263915
      ],
      [
        "▁ek",
        -7.776167075372319
      ],
      [
        "▁makineler",
        -10.004973521239007
      ],
      [
        "▁ev",
        -6.967179451191135
      ],
      [
        "▁donuk",
        -8.251428758321687
      ],
      [
        "▁alımı",
        -9.247177367792514
      ],
      [
        "▁kapı",
        -7.110422021678579
      ],
      [
        "▁dusunmuyor",
        -7.909101768927735
      ],
      [
        "▁fikirleri",
        -9.93757780266876
      ],
      [
        "▁yudum",
        -9.588704079200895
      ],
      [
        "digini",
        -8.87967269104562
      ],
      [
        "▁3.",
        -5.926069570258965
      ],
      [
        "ini",
        -6.472149562561188
      ],
      [
        "▁karısı",
        -7.861529256305433
      ],
      [
        "▁yerleri",
        -9.340908858874725
      ],
      [
        "▁etraf",
        -9.793188637503686
      ],
      [
        "▁kilise",
        -9.906152944056421
      ],
      [
        "▁alabilir",
        -7.939674457776553
      ],
      [
        "▁sorar",
        -8.925500732484089
      ],
      [
        "▁ha",
        -6.19103839345896
      ],
      [
        "▁kolunu",
        -9.809103802455034
      ],
      [
        "▁as",
        -8.157936438625255
      ],
      [
        "▁arama",
        -8.939955690604096
      ],
      [
        "▁havayollarını",
        -8.639005343874722
      ],
      [
        "▁ekim'de",
        -8.241055313297913
      ],
      [
        "'ta",
        -7.520272229818984
      ],
      [
        "▁meksika",
        -8.241621926134677
      ],
      [
        "▁yuksekti",
        -7.399467889293652
      ],
      [
        "▁oturur",
        -8.88414114551697
      ],
      [
        "#",
        -10.352702672349787
      ],
      [
        "▁guzeldi",
        -4.537164040841041
      ],
      [
        "▁cins",
        -8.401508958306177
      ],
      [
        "▁suyunu",
        -9.31334735143945
      ],
      [
        "▁150",
        -7.07966151810731
      ],
      [
        "▁love",
        -8.038754973731502
      ],
      [
        "▁pul",
        -9.900343246757283
      ],
      [
        "▁tıp",
        -7.74869399277782
      ],
      [
        "▁on",
        -6.089300112861576
      ],
      [
        "▁iflas",
        -9.000974308690981
      ],
      [
        "▁cicegi",
        -9.961288660300598
      ],
      [
        "▁zorunlu",
        -8.250197031507545
      ],
      [
        "az",
        -7.193482929552111
      ],
      [
        "▁ici",
        -8.034754760992879
      ],
      [
        "▁hak",
        -8.039075256986914
      ],
      [
        "▁ucusunu",
        -9.103552939318078
      ],
      [
        "▁kara",
        -6.747199164576152
      ],
      [
        "acık",
        -8.623245486613722
      ],
      [
        "▁ka",
        -8.106646594323895
      ],
      [
        "▁y",
        -4.965192930665413
      ],
      [
        "sen",
        -8.844703592031276
      ],
      [
        "ne",
        -7.295935539686148
      ],
      [
        "▁ozelligi",
        -9.68178123981591
      ],
      [
        "sef",
        -8.617685786776235
      ],
      [
        "▁izliyor",
        -8.537743364796476
      ],
      [
        "▁i",
        -8.2117958667695
      ],
      [
        "tor",
        -8.808427977446238
      ],
      [
        "▁tarihi",
        -8.471746516546451
      ],
      [
        "▁sa",
        -7.0975332469066545
      ],
      [
        "▁hayır",
        -8.741477556596884
      ],
      [
        "▁azın",
        -8.761996323733628
      ],
      [
        "▁daha",
        -3.284001868858846
      ],
      [
        "▁chicago'",
        -7.087735294209967
      ],
      [
        "▁durumda",
        -7.989172410941645
      ],
      [
        "▁uca",
        -7.87841749773607
      ],
      [
        "▁bildiri",
        -10.151582657944523
      ],
      [
        "▁oldugum",
        -7.761207621413908
      ],
      [
        "▁morgan",
        -8.02159012207175
      ],
      [
        "▁cenaze",
        -9.73177821926435
      ],
      [
        "▁kanal",
        -9.50695513549429
      ],
      [
        "▁macın",
        -9.908899552062785
      ],
      [
        "▁recep",
        -8.028165502541958
      ],
      [
        "▁samimiyet",
        -10.099384998815786
      ],
      [
        "kan",
        -8.228826236194081
      ],
      [
        "▁oteller",
        -9.592591539968534
      ],
      [
        "▁ver",
        -6.800698001091943
      ],
      [
        "▁konumu",
        -6.499462957718281
      ],
      [
        "▁te",
        -8.312220911521178
      ],
      [
        "n",
        -3.1048016047906444
      ],
      [
        "▁modern",
        -8.32293323141083
      ],
      [
        "▁sanat",
        -8.01771506420495
      ],
      [
        "▁sikayet",
        -8.616313470723844
      ],
      [
        "▁korkusu",
        -9.501033329530696
      ],
      [
        "▁birlikte",
        -9.506821890762895
      ],
      [
        "▁baslar",
        -8.104971779029713
      ],
      [
        "rey",
        -7.657601966742109
      ],
      [
        "▁kadının",
        -8.890467343514041
      ],
      [
        "▁bankacılık",
        -9.734997260303432
      ],
      [
        "▁yaptıgı",
        -7.911382389790713
      ],
      [
        "▁oturma",
        -9.006914855031079
      ],
      [
        "▁anlat",
        -7.658866901519624
      ],
      [
        "aj",
        -8.71637342584558
      ],
      [
        "▁sa",
        -10.185553443214632
      ],
      [
        "▁oz",
        -8.528572754610598
      ],
      [
        "▁satır",
        -9.419776761960076
      ],
      [
        "▁kenar",
        -8.869829890011221
      ],
      [
        "▁sel",
        -9.340747207174411
      ],
      [
        "▁hazırlanı",
        -8.60948257515803
      ],
      [
        "▁kac",
        -9.64012321911973
      ],
      [
        "▁guc",
        -8.484829431853754
      ],
      [
        "▁minneapolis'te",
        -7.80806283380964
      ],
      [
        "▁lezzet",
        -7.531795148909234
      ],
      [
        "▁cuma",
        -6.531198751131021
      ],
      [
        "▁yuzey",
        -10.160486951901962
      ],
      [
        "▁allah",
        -7.16049805218705
      ],
      [
        "▁evin",
        -7.900547210114244
      ],
      [
        "▁toprakta",
        -10.130749130091008
      ],
      [
        "ah",
        -9.046029151116501
      ],
      [
        "▁gorunuyordu",
        -8.399398132123714
      ],
      [
        "▁aralık'ta",
        -7.801440471665967
      ],
      [
        "cik",
        -8.648041836038566
      ],
      [
        "ak",
        -5.6150221036885055
      ],
      [
        "▁pazarlık",
        -9.921016104073146
      ],
      [
        "ice",
        -8.482527239851917
      ],
      [
        "▁anası",
        -9.96795764319258
      ],
      [
        "his",
        -9.766569249382886
      ],
      [
        "▁uste",
        -9.167391036297659
      ],
      [
        "▁iptal",
        -9.317926482454055
      ],
      [
        "▁arttı",
        -7.288317713889354
      ],
      [
        "▁azınlık",
        -9.475888231649405
      ],
      [
        "▁et",
        -8.321809319540604
      ],
      [
        "▁gelisme",
        -9.477404925955732
      ],
      [
        "▁pist",
        -10.102042436144153
      ],
      [
        "▁bulmustu",
        -8.875136507883106
      ],
      [
        "▁inan",
        -8.237798417040526
      ],
      [
        "▁ayrım",
        -9.950642533034092
      ],
      [
        "▁sen",
        -9.812195872594582
      ],
      [
        "▁veril",
        -8.651422521145161
      ],
      [
        "▁degis",
        -9.819863821392921
      ],
      [
        "▁annem",
        -7.927872486840817
      ],
      [
        "▁odam",
        -8.866890846165742
      ],
      [
        "▁mar",
        -9.941042940090952
      ],
      [
        "▁icecekler",
        -8.728824381593366
      ],
      [
        "culuk",
        -10.125816019006361
      ],
      [
        "▁calısmak",
        -10.159859087824124
      ],
      [
        "lıg",
        -8.185077983117543
      ],
      [
        "▁balıkcı",
        -9.258921993791102
      ],
      [
        "kul",
        -7.4453938067184895
      ],
      [
        "▁sizler",
        -6.647737353980031
      ],
      [
        "▁katında",
        -9.933035242646179
      ],
      [
        "▁adayı",
        -9.826992613791248
      ],
      [
        "▁ar",
        -7.983228872390977
      ],
      [
        "▁otel",
        -6.564227737254304
      ],
      [
        "▁taklit",
        -9.961299035953658
      ],
      [
        "▁gar",
        -7.791208451061799
      ],
      [
        "rekt",
        -7.869188788552224
      ],
      [
        "▁istanbul",
        -7.119125226265863
      ],
      [
        "▁unutma",
        -8.89612686320126
      ],
      [
        "▁arıyor",
        -8.595136619822092
      ],
      [
        "▁kurtulma",
        -10.099433054744358
      ],
      [
        "▁havası",
        -9.260814202752023
      ],
      [
        "tan",
        -6.593577048707708
      ],
      [
        "i",
        -3.0732711944739446
      ],
      [
        "le",
        -6.887670592142281
      ],
      [
        "▁dusmus",
        -8.040705993777241
      ],
      [
        "▁dogrusu",
        -9.793982868722638
      ],
      [
        "lıgı",
        -7.295390723859495
      ],
      [
        "▁yılın",
        -8.103197668202917
      ],
      [
        "▁kalite",
        -7.559607377155033
      ],
      [
        "tur",
        -8.819366815259794
      ],
      [
        "▁kedi",
        -8.78033624729348
      ],
      [
        "▁model",
        -9.588565085266548
      ],
      [
        "▁izlenim",
        -10.099385506330542
      ],
      [
        "▁gelen",
        -6.427638887850488
      ],
      [
        "▁kitabı",
        -8.395278315555252
      ],
      [
        "o",
        -7.574551781463574
      ],
      [
        "'te",
        -7.554695699613818
      ],
      [
        "▁gr",
        -9.154959786745597
      ],
      [
        "▁yaglı",
        -8.374836103730527
      ],
      [
        "lı",
        -8.492081405086125
      ],
      [
        "iz",
        -8.183355803138426
      ],
      [
        "▁duy",
        -8.257526842417558
      ],
      [
        "▁hakları",
        -9.100872865306915
      ],
      [
        "▁guzeli",
        -9.840031321485315
      ],
      [
        "▁de",
        -4.7753992930642415
      ],
      [
        "▁bak",
        -9.230458550180934
      ],
      [
        "▁yet",
        -8.23393354649901
      ],
      [
        "▁yararlan",
        -8.845664920075984
      ],
      [
        "▁yalan",
        -8.661791620680985
      ],
      [
        "mistir",
        -7.393870760329985
      ],
      [
        "▁iklim",
        -9.731779073918077
      ],
      [
        "▁kalite",
        -8.086079676156018
      ],
      [
        "▁kıyasla",
        -10.099384009801785
      ],
      [
        "▁hakem",
        -9.786090566208077
      ],
      [
        "man",
        -7.430768097625315
      ],
      [
        "▁kosar",
        -8.545452459367537
      ],
      [
        "uz",
        -7.511655463535279
      ],
      [
        "mezse",
        -8.951956085730325
      ],
      [
        "▁secenekleri",
        -9.811522159002134
      ],
      [
        "▁do",
        -8.74462179382095
      ],
      [
        "▁or",
        -8.424261484288385
      ],
      [
        "▁dalgalanma",
        -9.359165965968899
      ],
      [
        "ikti",
        -7.773889039990507
      ],
      [
        "▁biliyoru",
        -8.063107911446123
      ],
      [
        "▁merdiven",
        -9.202070911828507
      ],
      [
        "▁surdurme",
        -10.123829912148182
      ],
      [
        "▁turk",
        -8.316638070285958
      ],
      [
        "▁ortak",
        -7.415942942524557
      ],
      [
        "▁yarar",
        -8.314234146588847
      ],
      [
        "▁yaptıgını",
        -9.698508421734758
      ],
      [
        "▁hekim",
        -9.42518242392351
      ],
      [
        "▁izni",
        -10.101710088371963
      ],
      [
        "▁hikaye",
        -8.954794110588836
      ],
      [
        "▁gitmey",
        -9.726527988738102
      ],
      [
        "▁inc.",
        -6.717419652120548
      ],
      [
        "niz",
        -7.208870524936368
      ],
      [
        "▁benzin",
        -9.227489269690349
      ],
      [
        "▁cevre",
        -8.155252259757777
      ],
      [
        "esit",
        -8.457035336407902
      ],
      [
        "▁duyu",
        -10.169574247767137
      ],
      [
        "▁soz",
        -7.18716750733744
      ],
      [
        "▁ayn",
        -8.14989803709778
      ],
      [
        "▁ugur",
        -8.287684213582361
      ],
      [
        "bası",
        -9.126196892774178
      ],
      [
        "▁suret",
        -9.96061599886573
      ],
      [
        "▁pers",
        -6.945780476725198
      ],
      [
        "▁ideal",
        -7.703491446277126
      ],
      [
        "ına",
        -6.50476145244419
      ],
      [
        "ci",
        -7.164295727968464
      ],
      [
        "▁yayım",
        -10.10617171383075
      ],
      [
        "hi",
        -8.532206181582685
      ],
      [
        "▁nam",
        -9.898878174741265
      ],
      [
        "▁kong",
        -8.207051402981307
      ],
      [
        "los",
        -6.830333516071331
      ],
      [
        "▁lobi",
        -9.532990322077815
      ],
      [
        "▁takımın",
        -9.886587548122073
      ],
      [
        "▁istanbul'da",
        -7.214311956576788
      ],
      [
        "y",
        -6.026507368091297
      ],
      [
        "emel",
        -7.841634726129378
      ],
      [
        "▁co.",
        -6.692764384855116
      ],
      [
        "▁di",
        -4.275857339641559
      ],
      [
        "▁ayna",
        -8.820826662821869
      ],
      [
        "bi",
        -7.635688365991328
      ],
      [
        "▁okuz",
        -10.027988110952872
      ],
      [
        "▁konferans",
        -9.545225687760327
      ],
      [
        "▁calisanlari",
        -9.406056947040303
      ],
      [
        "▁ez",
        -8.519130447258377
      ],
      [
        "▁veri",
        -8.424047217170443
      ],
      [
        "▁9'da",
        -9.464245342922277
      ],
      [
        "▁worth'",
        -8.05789206003537
      ],
      [
        "ar",
        -9.083209676993548
      ],
      [
        "▁buyu",
        -8.465510865884635
      ],
      [
        "ama",
        -3.6363263764093876
      ],
      [
        "▁bin",
        -4.672987243887961
      ],
      [
        "▁insanları",
        -8.632788717963848
      ],
      [
        "▁muzik",
        -8.78046548787884
      ],
      [
        "▁faaliyetleri",
        -9.631667217583457
      ],
      [
        "▁verdigi",
        -7.59691637411164
      ],
      [
        "▁aklım",
        -8.979274193437202
      ],
      [
        "▁sehrin",
        -8.706545768462188
      ],
      [
        "▁hissesini",
        -9.900638890416296
      ],
      [
        "▁deme",
        -10.007580637473058
      ],
      [
        "▁kaf",
        -10.15152951437429
      ],
      [
        "▁",
        -1.722964280954951
      ],
      [
        "▁gecen",
        -8.292071992581839
      ],
      [
        "▁yaklasım",
        -9.76935352486221
      ],
      [
        "75",
        -6.51104329968174
      ],
      [
        "▁cekti",
        -7.180773397373516
      ],
      [
        "▁geceleri",
        -9.493602722950293
      ],
      [
        "a",
        -3.8394838638049187
      ],
      [
        "▁tutun",
        -8.94935896824732
      ],
      [
        "n",
        -3.992344194334313
      ],
      [
        "▁duvar",
        -8.483693411000996
      ],
      [
        "▁yesil",
        -7.105361669994656
      ],
      [
        "▁tabi",
        -7.957719662881686
      ],
      [
        "▁minder",
        -9.961351037459501
      ],
      [
        "▁esyalar",
        -9.937510679677654
      ],
      [
        "▁be",
        -8.245822081507646
      ],
      [
        "yı",
        -10.198812178070302
      ],
      [
        "ce",
        -5.493483117133953
      ],
      [
        "▁damla",
        -9.206842524637553
      ],
      [
        "▁dagın",
        -9.783398704583282
      ],
      [
        "▁dus",
        -8.356397854454613
      ],
      [
        "mesi",
        -8.895541088606443
      ],
      [
        "▁kalk",
        -8.03923805967623
      ],
      [
        "▁mart",
        -7.772148254078754
      ],
      [
        "▁talebi",
        -9.827272506449066
      ],
      [
        "▁alma",
        -8.747938226174629
      ],
      [
        "▁cevir",
        -8.9035554935799
      ],
      [
        "▁55",
        -7.4605303065268
      ],
      [
        "▁arabası",
        -10.081171128103982
      ],
      [
        "▁gazeteciler",
        -10.055070894717892
      ],
      [
        "▁musun",
        -5.9490528284716895
      ],
      [
        "▁hizmette",
        -9.025795269934877
      ],
      [
        "▁inceleme",
        -9.46358696690262
      ],
      [
        "▁hafif",
        -7.869072630271415
      ],
      [
        "▁ardın",
        -7.0154321903276164
      ],
      [
        "ye",
        -4.130045537692629
      ],
      [
        "es",
        -8.029639286721329
      ],
      [
        "▁oranında",
        -9.060606660716383
      ],
      [
        "▁gece",
        -8.193348723431459
      ],
      [
        "▁yetkili",
        -9.884612982566159
      ],
      [
        "lug",
        -9.106061645483363
      ],
      [
        "▁yarısma",
        -9.765107715714581
      ],
      [
        "▁komisyonlar",
        -9.465975961131313
      ],
      [
        "▁izledi",
        -8.524102975840872
      ],
      [
        "▁kultur",
        -8.792801063351465
      ],
      [
        "▁cag",
        -9.046629717161853
      ],
      [
        "▁kendinizi",
        -7.1322740463500285
      ],
      [
        "▁zemin",
        -9.503584882749177
      ],
      [
        "▁gerceklestir",
        -8.33592997092666
      ],
      [
        "▁arta",
        -7.919814251811303
      ],
      [
        "gr",
        -7.792940288498962
      ],
      [
        "▁bagladı",
        -8.40916909884605
      ],
      [
        "▁onum",
        -10.074278550673682
      ],
      [
        "▁istemiyoru",
        -6.493869047259434
      ],
      [
        "▁kondu",
        -9.95492379375878
      ],
      [
        "▁hamam",
        -8.505261288109775
      ],
      [
        "▁tıp",
        -9.961347685408866
      ],
      [
        "▁gelis",
        -7.943382877162252
      ],
      [
        "▁acik",
        -9.285701377818139
      ],
      [
        "▁bomba",
        -10.02811213195596
      ],
      [
        "▁bedeli",
        -10.038637413974527
      ],
      [
        "▁olmalıdır",
        -8.773223519812422
      ],
      [
        "cıya",
        -9.54504138754449
      ],
      [
        "▁demokratlar",
        -9.81995241137955
      ],
      [
        "▁hakk",
        -5.840372106910847
      ],
      [
        "▁mani",
        -9.35902080046072
      ],
      [
        "▁istanbul'",
        -7.378445772261323
      ],
      [
        "niz",
        -6.58899655814921
      ],
      [
        "▁begenmedi",
        -7.03843907103994
      ],
      [
        "▁arkasın",
        -9.33153179757923
      ],
      [
        "▁komsu",
        -9.163427406385562
      ],
      [
        "▁duzenleyici",
        -9.898918069758826
      ],
      [
        "▁kurul",
        -9.154591988471726
      ],
      [
        "▁tutma",
        -9.428853006966248
      ],
      [
        "▁kumar",
        -9.588493882903812
      ],
      [
        "▁e",
        -7.672348431626707
      ],
      [
        "dan",
        -7.21729541521439
      ],
      [
        "▁d",
        -4.83334840146909
      ],
      [
        "▁bicimi",
        -9.624701487487027
      ],
      [
        "▁delikanlı",
        -9.077931579463096
      ],
      [
        "unda",
        -7.883768488942473
      ],
      [
        "yonel",
        -8.267010652555069
      ],
      [
        "▁sa",
        -4.233276091639059
      ],
      [
        "▁bu",
        -3.2839112180953753
      ],
      [
        "▁gider",
        -9.257611054080776
      ],
      [
        "▁yonu",
        -9.237367111174482
      ],
      [
        "de",
        -3.7122609263462767
      ],
      [
        "▁kurumu",
        -9.697526815018145
      ],
      [
        "▁ibrahim",
        -8.082282298943525
      ],
      [
        "is",
        -8.791895758751275
      ],
      [
        "▁entari",
        -9.898794601533897
      ],
      [
        "▁islerini",
        -8.97806999204746
      ],
      [
        "▁agabey",
        -9.591779372212681
      ],
      [
        "▁agustos'ta",
        -7.065037496654867
      ],
      [
        "▁i",
        -8.445387722296196
      ],
      [
        "▁yerinde",
        -8.10903683046838
      ],
      [
        "digi",
        -8.739211324983032
      ],
      [
        "▁yuruyor",
        -8.931271884895946
      ],
      [
        "▁olayı",
        -9.454386977148788
      ],
      [
        "ıyordu",
        -7.374090680716897
      ],
      [
        "▁ısı",
        -8.938704222429386
      ],
      [
        "▁gider",
        -7.9139364172019135
      ],
      [
        "▁kullanmadi",
        -7.102732034173352
      ],
      [
        "▁yerli",
        -8.020395032599572
      ],
      [
        "▁lamba",
        -9.906066473416569
      ],
      [
        "dı",
        -9.485167678842888
      ],
      [
        "▁donu",
        -7.913212704786867
      ],
      [
        "▁olagan",
        -7.911512602829754
      ],
      [
        "'y",
        -7.276589864572725
      ],
      [
        "mayı",
        -9.07042839687421
      ],
      [
        "▁a.",
        -9.686675429960625
      ],
      [
        "▁birey",
        -9.906189883889063
      ],
      [
        "▁seviyesin",
        -8.340031629482022
      ],
      [
        "▁o",
        -7.153300629920321
      ],
      [
        "▁kadeh",
        -9.317873482261907
      ],
      [
        "▁kıyafet",
        -9.252272005916486
      ],
      [
        "adan",
        -8.199381015443652
      ],
      [
        "▁baskanlıgı",
        -9.807948632610456
      ],
      [
        "▁efendim",
        -9.966582973674122
      ],
      [
        "▁catla",
        -8.58703951183536
      ],
      [
        "▁birini",
        -6.202515730872842
      ],
      [
        "▁uzerin",
        -7.65898580193947
      ],
      [
        "yle",
        -8.30944781805835
      ],
      [
        "i",
        -5.235142918594545
      ],
      [
        "▁kasık",
        -9.840366698471442
      ],
      [
        "mayı",
        -7.570190234101887
      ],
      [
        "ma",
        -7.228102024339413
      ],
      [
        "▁var",
        -6.912256961521406
      ],
      [
        "▁kaya",
        -8.21999649607372
      ],
      [
        "cilik",
        -8.734942781277397
      ],
      [
        "▁satıs",
        -7.571482897019807
      ],
      [
        "ler",
        -5.1989788782877175
      ],
      [
        "▁odalar",
        -7.885137097626414
      ],
      [
        "▁temmuz'da",
        -7.093763077525752
      ],
      [
        "▁yaprakları",
        -10.080867121152952
      ],
      [
        "▁hay",
        -9.326527326021203
      ],
      [
        "nca",
        -6.940399481638486
      ],
      [
        "▁sattı",
        -8.33891154611181
      ],
      [
        "▁cıkarma",
        -8.651393530057593
      ],
      [
        "▁varan",
        -6.420723393827976
      ],
      [
        "▁okuyucu",
        -9.83997565013528
      ],
      [
        "▁icini",
        -9.512689509422472
      ],
      [
        "▁bul",
        -9.107810426061974
      ],
      [
        "amaz",
        -7.8741649218845975
      ],
      [
        "▁komitesi",
        -9.410370628246364
      ],
      [
        "▁degis",
        -7.8792488915533365
      ],
      [
        "▁issizlik",
        -10.034007605394846
      ],
      [
        "▁top",
        -8.668808268477356
      ],
      [
        "▁bırakı",
        -8.076229761590735
      ],
      [
        "uyordu",
        -8.149199591787955
      ],
      [
        "▁burcu",
        -9.906364138136519
      ],
      [
        "▁gazino",
        -9.898820973626105
      ],
      [
        "▁boyun",
        -8.11357489172889
      ],
      [
        "▁h",
        -7.00259217053511
      ],
      [
        "▁vakit",
        -8.446707740706218
      ],
      [
        "▁barıs",
        -9.211405767758823
      ],
      [
        "lan",
        -7.373043220940611
      ],
      [
        "▁3",
        -4.285712194127713
      ],
      [
        "▁express",
        -7.930444356622351
      ],
      [
        "▁elestiri",
        -9.361792668885556
      ],
      [
        "▁ucreti",
        -7.551276077846978
      ],
      [
        "▁iyi",
        -4.128386314809931
      ],
      [
        "▁elde",
        -7.561680282535533
      ],
      [
        "▁burada",
        -8.52069999775598
      ],
      [
        "▁adl",
        -9.727380685811266
      ],
      [
        "▁destan",
        -10.177372969074415
      ],
      [
        "lestirme",
        -9.76714853176554
      ],
      [
        "▁ucag",
        -8.719760043123967
      ],
      [
        "ılmaz",
        -8.605627263129815
      ],
      [
        "▁faiz",
        -7.569278245820745
      ],
      [
        "▁kent",
        -8.820022798647859
      ],
      [
        "▁is",
        -8.322910808840675
      ],
      [
        "▁ham",
        -8.266761426584225
      ],
      [
        "▁20.",
        -7.512346450622075
      ],
      [
        "▁dizi",
        -8.438656295283696
      ],
      [
        "▁mo",
        -9.663875549988024
      ],
      [
        "ınca",
        -7.855047507413307
      ],
      [
        "▁kısmını",
        -9.192611694383602
      ],
      [
        "▁mukemmeldi",
        -7.49030928232392
      ],
      [
        "lar",
        -4.391463901597749
      ],
      [
        "▁kayak",
        -9.696878794461847
      ],
      [
        "▁tasları",
        -10.011874144373344
      ],
      [
        "▁yurdun",
        -10.060957923928555
      ],
      [
        "ya",
        -3.9236136214403894
      ],
      [
        "x",
        -9.50355901977652
      ],
      [
        "▁yatırımcıları",
        -9.28533371678243
      ],
      [
        "▁transfer",
        -9.784409358523284
      ],
      [
        "▁cıkmıs",
        -7.677117904496876
      ],
      [
        "▁likidite",
        -10.027954871528824
      ],
      [
        "▁he",
        -9.926427091418343
      ],
      [
        "▁istihdam",
        -9.252299578021919
      ],
      [
        "▁nikkei",
        -8.082275281830622
      ],
      [
        "▁kupe",
        -9.70542588960913
      ],
      [
        "▁itibar",
        -9.560361244724534
      ],
      [
        "▁zayıf",
        -7.375879946029334
      ],
      [
        "ra",
        -4.169188514330976
      ],
      [
        "▁orta",
        -7.215193928687246
      ],
      [
        "▁eve",
        -7.843391170197548
      ],
      [
        "▁sonra",
        -9.015702093379858
      ],
      [
        "nizi",
        -9.245207654772182
      ],
      [
        "▁yapacak",
        -7.631070474136227
      ],
      [
        "en",
        -3.774149274510564
      ],
      [
        "▁edildi",
        -7.112644125918844
      ],
      [
        "▁bıcak",
        -9.104959107507359
      ],
      [
        "▁cak",
        -9.831654391003575
      ],
      [
        "▁ger",
        -8.440538536993506
      ],
      [
        "▁yolculuk",
        -9.026779404903621
      ],
      [
        "mıs",
        -9.656561144778305
      ],
      [
        "▁yaka",
        -9.267382900168894
      ],
      [
        "▁istifa",
        -8.551553864635249
      ],
      [
        "▁wall",
        -6.797825513385183
      ],
      [
        "▁insan",
        -6.772208448614279
      ],
      [
        "1'",
        -9.638300116710315
      ],
      [
        "ra",
        -7.399667956763753
      ],
      [
        "▁kalma",
        -8.985956914890293
      ],
      [
        "▁biber",
        -9.503559097418835
      ],
      [
        "▁birbirleri",
        -7.979369573870796
      ],
      [
        "▁kendilerin",
        -6.5666059748182395
      ],
      [
        "▁milyon",
        -7.95304805884153
      ],
      [
        "▁bakıs",
        -8.971038785178763
      ],
      [
        "▁ingiltere'de",
        -8.366542670502627
      ],
      [
        "▁me",
        -8.112532873127401
      ],
      [
        "daki",
        -7.907859580847811
      ],
      [
        "▁houston'da",
        -7.399320492664192
      ],
      [
        "u",
        -4.975797338804984
      ],
      [
        "▁sesle",
        -9.599340737475087
      ],
      [
        "▁portfoy",
        -9.67286810865098
      ],
      [
        "▁rezervasyonlar",
        -9.897026042573076
      ],
      [
        "▁dusur",
        -8.703653151283008
      ],
      [
        "▁musterilerin",
        -10.165017494786618
      ],
      [
        "▁olmadı",
        -7.903863843873827
      ],
      [
        "▁baslayacak",
        -8.338687462296841
      ],
      [
        "▁mehmet",
        -6.7206985485298185
      ],
      [
        "dir",
        -5.261977899536268
      ],
      [
        "▁personeli",
        -8.173548878260362
      ],
      [
        "▁soru",
        -8.310461091813991
      ],
      [
        "▁yo",
        -8.053728763625166
      ],
      [
        "▁saatler",
        -9.387980027189904
      ],
      [
        "takım",
        -8.102059635887393
      ],
      [
        "ekli",
        -8.384168101461615
      ],
      [
        "▁olma",
        -7.478987926777426
      ],
      [
        "▁bal",
        -8.501775148304622
      ],
      [
        "▁yanı",
        -9.831820816877359
      ],
      [
        "▁0.1",
        -7.272046684752251
      ],
      [
        "▁hakkı",
        -6.866394034265104
      ],
      [
        "▁ugrun",
        -9.840026999471531
      ],
      [
        "▁bira",
        -7.941284487515571
      ],
      [
        "▁oakland",
        -6.972867370550637
      ],
      [
        "▁fakir",
        -10.02795526861517
      ],
      [
        "▁arka",
        -8.97010769601486
      ],
      [
        "▁bizi",
        -9.81424531816548
      ],
      [
        "▁zirve",
        -9.821882843123424
      ],
      [
        "kanlı",
        -8.637540324805098
      ],
      [
        "▁karnı",
        -9.805327314940376
      ],
      [
        "▁cicekler",
        -9.944374540817076
      ],
      [
        "▁komisyoncu",
        -10.006780883963096
      ],
      [
        "▁baslay",
        -8.676663356897368
      ],
      [
        "▁yan",
        -8.784985264815454
      ],
      [
        "z",
        -12.24335423160404
      ],
      [
        "eyim",
        -7.631005962396693
      ],
      [
        "▁dusuk",
        -10.177826207598109
      ],
      [
        "▁idi",
        -6.074590586554409
      ],
      [
        "fede",
        -7.484040725045101
      ],
      [
        "▁usta",
        -8.744238749966126
      ],
      [
        "b",
        -2.3576107270349222
      ],
      [
        "▁ikisi",
        -8.902820018747077
      ],
      [
        "▁amerika'da",
        -8.238249559532939
      ],
      [
        "▁etmiyoru",
        -8.901048496910327
      ],
      [
        "karlı",
        -8.704985432091185
      ],
      [
        "▁neler",
        -6.671905713767435
      ],
      [
        "'un",
        -5.705129799005704
      ],
      [
        "▁alca",
        -8.710539605164598
      ],
      [
        "med",
        -8.27747926085322
      ],
      [
        "▁ikram",
        -9.463510612576894
      ],
      [
        "maktadır",
        -6.555822043178019
      ],
      [
        "▁annemi",
        -9.303451698471392
      ],
      [
        "▁dallas'",
        -5.766594172843666
      ],
      [
        "▁ingiliz",
        -8.629042701527156
      ],
      [
        "▁yapması",
        -10.080699850569536
      ],
      [
        "▁maal",
        -8.592757761456934
      ],
      [
        "▁erke",
        -6.306517948433615
      ],
      [
        "▁de",
        -2.1420817504035963
      ],
      [
        "▁57",
        -6.850345209755751
      ],
      [
        "▁",
        -2.1816253217106656
      ],
      [
        "▁-",
        -9.780423386250764
      ],
      [
        "▁gercekte",
        -5.957249809190558
      ],
      [
        "▁azal",
        -8.816811300481247
      ],
      [
        "▁edilebilir",
        -8.721184716247883
      ],
      [
        "m",
        -12.802702672349787
      ],
      [
        "▁kırk",
        -6.011931561604349
      ],
      [
        "▁tedarik",
        -9.898788539929395
      ],
      [
        "▁bugun",
        -7.7021913401115185
      ],
      [
        "▁surdu",
        -8.170091370177579
      ],
      [
        "▁nedeni",
        -8.218284755068288
      ],
      [
        "▁vurdu",
        -7.931053114036544
      ],
      [
        "▁musterileri",
        -9.6166894312521
      ],
      [
        "y",
        -5.3092215007041865
      ],
      [
        "▁protesto",
        -9.588703950607409
      ],
      [
        "▁hayali",
        -10.126757931821963
      ],
      [
        "▁parası",
        -9.788347346725232
      ],
      [
        "▁isaret",
        -8.723687188696665
      ],
      [
        "ndaki",
        -6.837847642730788
      ],
      [
        "masını",
        -7.720199677341871
      ],
      [
        "▁hic",
        -9.107136274934724
      ],
      [
        "cagı",
        -8.866042356328895
      ],
      [
        "▁ederler",
        -8.457905368567584
      ],
      [
        "▁kacındı",
        -8.682777785872004
      ],
      [
        "klarını",
        -8.01160706971895
      ],
      [
        "▁ilgilen",
        -8.80957480562433
      ],
      [
        "▁sartlar",
        -10.098468827187261
      ],
      [
        "▁muh",
        -9.654544092529875
      ],
      [
        "▁sen",
        -4.319077519014069
      ],
      [
        "▁yıla",
        -9.005965724713821
      ],
      [
        "▁ayhan",
        -7.795699687227096
      ],
      [
        "irim",
        -8.732761594764893
      ],
      [
        "▁ekim",
        -7.390394719216669
      ],
      [
        "▁kız",
        -7.518530729266395
      ],
      [
        "▁devri",
        -8.987832157644203
      ],
      [
        "▁dekor",
        -10.096867418781645
      ],
      [
        "al",
        -8.653393854644328
      ],
      [
        "siniz",
        -6.719970420927141
      ],
      [
        "▁biliyordu",
        -8.696926177736215
      ],
      [
        "▁d",
        -6.355214304135228
      ],
      [
        "▁kasıgı",
        -8.668055877683774
      ],
      [
        "▁erkekler",
        -9.131674107176757
      ],
      [
        "▁bol",
        -7.374533476326934
      ],
      [
        "sıdır",
        -7.665272996025402
      ],
      [
        "▁per",
        -9.597625556347497
      ],
      [
        "tan",
        -6.71001812456258
      ],
      [
        "▁kirpikleri",
        -9.899888494819841
      ],
      [
        "▁miami'",
        -6.944090027143235
      ],
      [
        "▁tatmin",
        -9.682009987460795
      ],
      [
        "▁neredey",
        -6.709668161950811
      ],
      [
        "▁yasa",
        -7.764477575068115
      ],
      [
        "miz",
        -7.990299717316589
      ],
      [
        "▁ısıgında",
        -10.03562329776869
      ],
      [
        "▁azaldı",
        -8.740053742127603
      ],
      [
        "▁iz",
        -9.042932649999065
      ],
      [
        "▁hukumdar",
        -10.028292034638103
      ],
      [
        "e",
        -5.432312471123907
      ],
      [
        "▁dinlenme",
        -10.029227822821818
      ],
      [
        "▁gelistirme",
        -8.952777185085118
      ],
      [
        "▁hissedarları",
        -9.848696089389737
      ],
      [
        "▁fatura",
        -8.945908498056825
      ],
      [
        "rate",
        -7.759016430197842
      ],
      [
        "▁grupları",
        -9.6024788590753
      ],
      [
        "▁don",
        -8.33302328191867
      ],
      [
        "▁ipek",
        -8.702773194668113
      ],
      [
        "▁suc",
        -8.753881233597081
      ],
      [
        "▁devam",
        -6.929316789098013
      ],
      [
        "▁gunduz",
        -8.952784687052596
      ],
      [
        "kten",
        -7.762450431380673
      ],
      [
        "▁yatagı",
        -9.78059337427087
      ],
      [
        "▁ileri",
        -8.810318801485373
      ],
      [
        "▁haziran",
        -7.47108916219549
      ],
      [
        "▁karsılık",
        -8.932930162794593
      ],
      [
        "y",
        -7.313964468619801
      ],
      [
        "▁yanı",
        -8.40901648852667
      ],
      [
        "▁olmak",
        -7.594056185166778
      ],
      [
        "▁temsilcileri",
        -9.969331734021548
      ],
      [
        "kları",
        -8.336851683863237
      ],
      [
        "▁fırsatı",
        -9.914457701644807
      ],
      [
        "▁havalimanı",
        -9.985448338665414
      ],
      [
        "▁derecede",
        -9.06336029561371
      ],
      [
        "▁ihracat",
        -9.293498469541351
      ],
      [
        "▁iplik",
        -10.031348902919618
      ],
      [
        "▁yeni",
        -5.517189378335924
      ],
      [
        "dir",
        -4.9026885762141
      ],
      [
        "lu",
        -5.7724310591815975
      ],
      [
        "▁esim",
        -8.849214992701357
      ],
      [
        "▁aylık",
        -8.26065003154103
      ],
      [
        "▁re",
        -8.109570025134946
      ],
      [
        "▁acı",
        -8.125234066085818
      ],
      [
        "▁oranları",
        -8.786510176948203
      ],
      [
        "▁ortaklık",
        -9.68905807457707
      ],
      [
        "▁uyarı",
        -9.424327231269922
      ],
      [
        "▁north",
        -7.6318907800417985
      ],
      [
        "▁politikasını",
        -10.094570483863755
      ],
      [
        "▁roportaj",
        -9.545225690685925
      ],
      [
        "▁te",
        -8.037907189863349
      ],
      [
        "▁telas",
        -9.809131550117428
      ],
      [
        "▁unu",
        -9.692980022103566
      ],
      [
        "▁seattle'",
        -6.9235613597176755
      ],
      [
        "z",
        -6.428989089571596
      ],
      [
        "va",
        -8.36708514772662
      ],
      [
        "▁ahlak",
        -8.699058204417298
      ],
      [
        "ve",
        -6.34156215292432
      ],
      [
        "▁kasım'da",
        -7.5567862262712815
      ],
      [
        "8'de",
        -9.557143200006559
      ],
      [
        "▁uzay",
        -9.545978465714553
      ],
      [
        "h",
        -8.209950746419374
      ],
      [
        "▁agustos",
        -7.762595169095416
      ],
      [
        "▁artıslar",
        -10.121629511679128
      ],
      [
        "▁sahi",
        -9.408194958898127
      ],
      [
        "▁hay",
        -9.861965038483364
      ],
      [
        "▁zaman",
        -8.439869080536015
      ],
      [
        "r",
        -7.411357469477656
      ],
      [
        "abe",
        -8.567426442434614
      ],
      [
        "▁golge",
        -8.689588648075269
      ],
      [
        "▁karayolu",
        -7.722123478142257
      ],
      [
        "▁duyuyor",
        -8.35496780627116
      ],
      [
        "▁yel",
        -9.859568894769861
      ],
      [
        "▁okullar",
        -9.90621378562223
      ],
      [
        "▁nedenle",
        -8.868026099633237
      ],
      [
        "▁tarih",
        -7.937604691362203
      ],
      [
        "tur",
        -9.316611696601868
      ],
      [
        "i",
        -11.302702672349787
      ],
      [
        "▁corp",
        -7.847558852625813
      ],
      [
        "lilik",
        -9.25563980352296
      ],
      [
        "a",
        -3.734063582320184
      ],
      [
        "▁d",
        -5.706696958748632
      ],
      [
        "▁seslendi",
        -8.855931036941463
      ],
      [
        "se",
        -8.083804748240649
      ],
      [
        "▁b",
        -3.7367717215100518
      ],
      [
        "▁tulum",
        -10.031228399526876
      ],
      [
        "veya",
        -7.07356391847621
      ],
      [
        "▁bunlarda",
        -6.246440461648687
      ],
      [
        "▁ma",
        -8.359153135301831
      ],
      [
        "▁edil",
        -8.317273230341463
      ],
      [
        "▁oyun",
        -7.986455557914242
      ],
      [
        "▁yasamak",
        -10.004434795353417
      ],
      [
        "▁kelebek",
        -9.961288206586492
      ],
      [
        "▁bahcesi",
        -10.050090460415383
      ],
      [
        "ne",
        -8.562322028383878
      ],
      [
        "▁sefer",
        -8.206113373132904
      ],
      [
        "▁gunlerde",
        -8.684531975954954
      ],
      [
        "▁diyordu",
        -8.551748048018602
      ],
      [
        "▁gunu",
        -6.261576438994198
      ],
      [
        "▁tarafında",
        -7.2894598664073325
      ],
      [
        "▁hepsinde",
        -6.975710945347217
      ],
      [
        "▁nisan",
        -7.524823421296444
      ],
      [
        "▁sıra",
        -7.542075982091267
      ],
      [
        "nc",
        -8.015339232914753
      ],
      [
        "▁ed",
        -8.766915707344921
      ],
      [
        "lıydı",
        -8.728352446842617
      ],
      [
        "ni",
        -6.2097340952788675
      ],
      [
        "▁aldıgı",
        -8.664394379052851
      ],
      [
        "▁yasadı",
        -8.302029221697184
      ],
      [
        "nde",
        -7.954801055741926
      ],
      [
        "▁reis",
        -10.04210633282311
      ],
      [
        "'",
        -5.949124632523341
      ],
      [
        "lendirme",
        -9.146810883104212
      ],
      [
        "▁erkek",
        -7.700621246120635
      ],
      [
        "▁tesvik",
        -8.741473247416302
      ],
      [
        "▁se",
        -4.925808727806685
      ],
      [
        "bili",
        -7.975758866809144
      ],
      [
        "sup",
        -8.315980552459447
      ],
      [
        "▁sınıfı",
        -8.329497744088732
      ],
      [
        "▁adı",
        -7.912290995364163
      ],
      [
        "▁sizde",
        -7.649578489204442
      ],
      [
        "▁ilim",
        -10.175052043667677
      ],
      [
        "▁istek",
        -9.6626349425898
      ],
      [
        "▁ruh",
        -8.851394083083383
      ],
      [
        "▁yapmaya",
        -8.994102931319333
      ],
      [
        "▁temas",
        -9.720909502351768
      ],
      [
        "gın",
        -7.896431926828196
      ],
      [
        "▁sunul",
        -8.788777249236997
      ],
      [
        "▁ocak",
        -8.616422290520799
      ],
      [
        "▁dusman",
        -8.961184695262556
      ],
      [
        "er",
        -11.017488162037896
      ],
      [
        "▁yogurt",
        -9.961288690617186
      ],
      [
        "mada",
        -6.606015577227643
      ],
      [
        "▁kasa",
        -9.316510407630512
      ],
      [
        "le",
        -7.2319893104787205
      ],
      [
        "▁brown",
        -8.353357083995984
      ],
      [
        "▁vatandas",
        -9.179384697132873
      ],
      [
        "▁memnun",
        -4.600898477285771
      ],
      [
        "▁meyve",
        -8.741473493392682
      ],
      [
        "▁dusunceleri",
        -9.801713321340417
      ],
      [
        "ı",
        -4.541321046145934
      ],
      [
        "▁kose",
        -8.562478436117292
      ],
      [
        "▁batı",
        -8.91975921435579
      ],
      [
        "▁anlatır",
        -8.695687201380682
      ],
      [
        "nin",
        -8.505245470600455
      ],
      [
        "▁demek",
        -7.615228327851538
      ],
      [
        "▁il",
        -8.546225476510248
      ],
      [
        "utton",
        -8.29976267104842
      ],
      [
        "▁tiyatrosu",
        -9.744822123766994
      ],
      [
        "▁kitap",
        -8.219778592254045
      ],
      [
        "▁ediliyor",
        -7.876687468298929
      ],
      [
        "luluk",
        -10.05584762641078
      ],
      [
        "▁denge",
        -9.24186321670924
      ],
      [
        "▁ice",
        -9.44822320249457
      ],
      [
        "▁kardesini",
        -9.987837553518851
      ],
      [
        "cıları",
        -9.000535322295027
      ],
      [
        "▁temmuz",
        -9.132737828564636
      ],
      [
        "▁tasıyor",
        -8.71866270334188
      ],
      [
        "'nun",
        -6.178313541810417
      ],
      [
        "▁etti",
        -5.191383391828558
      ],
      [
        "▁annesini",
        -9.434375946396758
      ],
      [
        "▁yapılır",
        -8.281788296923454
      ],
      [
        "▁199",
        -7.246510262211592
      ],
      [
        "▁yapmak",
        -8.205927415013317
      ],
      [
        "'i",
        -7.496868105289672
      ],
      [
        "▁olması",
        -7.471201391435197
      ],
      [
        "▁cıkar",
        -6.98398357556363
      ],
      [
        "yan",
        -8.239439808111698
      ],
      [
        "sın",
        -6.587334162141272
      ],
      [
        "▁51",
        -7.440225150164746
      ],
      [
        "▁sok",
        -8.819062772029946
      ],
      [
        "▁muzakere",
        -9.051615185622504
      ],
      [
        "▁cıkan",
        -7.929176093768962
      ],
      [
        "▁boyun",
        -9.02683500592994
      ],
      [
[...]
