{
  "version": "1.0",
  "truncation": null,
  "padding": null,
  "added_tokens": [
    {
      "id": 1299,
      "content": "[SEP]",
      "single_word": false,
      "lstrip": false,
      "rstrip": false,
      "normalized": false,
      "special": true
    },
    {
      "id": 2124,
      "content": "[MASK]",
      "single_word": false,
      "lstrip": false,
      "rstrip": false,
      "normalized": false,
      "special": true
    },
    {
      "id": 3183,
      "content": "[UNK]",
      "single_word": false,
      "lstrip": false,
      "rstrip": false,
      "normalized": false,
      "special": true
    },
    {
      "id": 4401,
      "content": "[PAD]",
      "single_word": false,
      "lstrip": false,
      "rstrip": false,
      "normalized": false,
      "special": true
    },
    {
      "id": 5127,
      "content": "[CLS]",
      "single_word": false,
      "lstrip": false,
      "rstrip": false,
      "normalized": false,
      "special": true
    }
  ],
  "normalizer": {
    "type": "Sequence",
    "normalizers": [
      {
        "type": "NFD"
      },
      {
        "type": "Lowercase"
      },
      {
        "type": "StripAccents"
      }
    ]
  },
  "pre_tokenizer": {
    "type": "Sequence",
    "pretokenizers": [
      {
        "type": "Metaspace",
        "replacement": "▁",
        "prepend_scheme": "always",
        "split": true
      }
    ]
  },
  "post_processor": {
    "type": "TemplateProcessing",
    "single": [
      {
        "SpecialToken": {
          "id": "[CLS]",
          "type_id": 0
        }
      },
      {
        "Sequence": {
          "id": "A",
          "type_id": 0
        }
      },
      {
        "SpecialToken": {
          "id": "[SEP]",
          "type_id": 0
        }
      }
    ],
    "pair": [
      {
        "SpecialToken": {
          "id": "[CLS]",
          "type_id": 0
        }
      },
      {
        "Sequence": {
          "id": "A",
          "type_id": 0
        }
      },
      {
        "SpecialToken": {
          "id": "[SEP]",
          "type_id": 0
        }
      },
      {
        "Sequence": {
          "id": "B",
          "type_id": 1
        }
      },
      {
        "SpecialToken": {
          "id": "[SEP]",
          "type_id": 1
        }
      }
    ],
    "special_tokens": {
      "[CLS]": {
        "id": "[CLS]",
        "ids": [
          5127
        ],
        "tokens": [
          "[CLS]"
        ]
      },
      "[SEP]": {
        "id": "[SEP]",
        "ids": [
          1299
        ],
        "tokens": [
          "[SEP]"
        ]
      }
    }
  },
  "decoder": {
    "type": "Metaspace",
    "replacement": "▁",
    "prepend_scheme": "always",
    "split": true
  },
  "model": {
    "type": "WordPiece",
    "unk_token": "[UNK]",
    "continuing_subword_prefix": "##",
    "max_input_chars_per_word": 100,
    "vocab": {
      "▁olacaktır": 0,
      "▁etmez": 1,
      "▁avrupa": 2,
      "▁ciro": 3,
      "▁odanin": 4,
      "▁acente": 5,
      "▁muhafazakar": 6,
      "▁dort": 7,
      "▁kırmızı": 8,
      "▁hav": 9,
      "##tal": 10,
      "##yal": 11,
      "▁yavru": 12,
      "▁kolu": 13,
      "▁memur": 14,
      "▁pahali": 15,
      "▁bec": 16,
      "▁sırtında": 17,
      "▁akr": 18,
      "##yım": 19,
      "##ah": 20,
      "▁calisanlari": 21,
      "▁hicbir": 22,
      "##mafih": 23,
      "▁ilgisi": 24,
      "▁ellerinde": 25,
      "▁bulunuyor": 26,
      "▁okuy": 27,
      "▁sakız": 28,
      "▁boz": 29,
      "▁roman": 30,
      "▁sampiyon": 31,
      "##gili": 32,
      "▁halb": 33,
      "▁kıyı": 34,
      "▁dengesi": 35,
      "▁teklifler": 36,
      "##yon": 37,
      "▁onunden": 38,
      "▁oglunun": 39,
      "▁esim": 40,
      "▁zamanı": 41,
      "▁gonder": 42,
      "▁destekl": 43,
      "▁cır": 44,
      "▁penc": 45,
      "g": 46,
      "##gimiz": 47,
      "▁seh": 48,
      "##be": 49,
      "▁bina": 50,
      "##lattı": 51,
      "▁konser": 52,
      "##manlar": 53,
      "▁ediyordu": 54,
      "##udu": 55,
      "▁gobek": 56,
      "##ek": 57,
      "▁ner": 58,
      "##mis": 59,
      "▁fiyati": 60,
      "▁onceden": 61,
      "▁francisco": 62,
      "▁baskanı": 63,
      "##esil": 64,
      "##anma": 65,
      "▁islemleri": 66,
      "▁demis": 67,
      "▁turist": 68,
      "▁bulbul": 69,
      "##ket": 70,
      "▁geriledi": 71,
      "▁bog": 72,
      "▁ted": 73,
      "▁blok": 74,
      "▁karsilama": 75,
      "▁di": 76,
      "▁havlu": 77,
      "##emmel": 78,
      "▁talim": 79,
      "▁kırık": 80,
      "▁olanaklarını": 81,
      "▁milyara": 82,
      "▁burnu": 83,
      "##egi": 84,
      "##mistim": 85,
      "▁ulasımı": 86,
      "▁memnunum": 87,
      "##onto": 88,
      "##ebilecek": 89,
      "##ılacak": 90,
      "▁yapıyor": 91,
      "▁bolgenin": 92,
      "▁rus": 93,
      "##lemeyi": 94,
      "▁ticaretinde": 95,
      "##must": 96,
      "▁arkadasim": 97,
      "##istirdi": 98,
      "▁oy": 99,
      "##lılık": 100,
      "▁karakter": 101,
      "▁kalitesini": 102,
      "▁nokt": 103,
      "▁yok": 104,
      "▁lim": 105,
      "##ılı": 106,
      "▁mek": 107,
      "▁lan": 108,
      "##landıgında": 109,
      "##imizde": 110,
      "▁senar": 111,
      "▁dolara": 112,
      "▁saniye": 113,
      "##nız": 114,
      "▁e": 115,
      "▁duvarda": 116,
      "##ınca": 117,
      "▁sonunda": 118,
      "▁olmustur": 119,
      "##org": 120,
      "##ab": 121,
      "▁toplam": 122,
      "▁americ": 123,
      "##ile": 124,
      "▁dustu": 125,
      "▁york": 126,
      "##ilige": 127,
      "##acagını": 128,
      "##abilmek": 129,
      "##mesinin": 130,
      "##larca": 131,
      "▁indirim": 132,
      "▁bulunan": 133,
      "##rlikte": 134,
      "▁ortada": 135,
      "▁mamafih": 136,
      "▁apart": 137,
      "▁lira": 138,
      "▁united": 139,
      "▁kolon": 140,
      "▁bakmak": 141,
      "▁diger": 142,
      "##miyor": 143,
      "▁gor": 144,
      "▁makal": 145,
      "▁yuklen": 146,
      "▁ebeveyn": 147,
      "▁kalktı": 148,
      "##eyr": 149,
      "▁dayanıs": 150,
      "▁namaz": 151,
      "▁ogrenciler": 152,
      "▁stratej": 153,
      "▁cant": 154,
      "▁kaza": 155,
      "▁fiyatları": 156,
      "▁annesinin": 157,
      "▁oldukca": 158,
      "##hane": 159,
      "▁pencere": 160,
      "▁cip": 161,
      "▁olsun": 162,
      "▁dogrudan": 163,
      "▁ayaklarının": 164,
      "##aları": 165,
      "▁karsı": 166,
      "##akende": 167,
      "▁seyinden": 168,
      "##tıl": 169,
      "##sk": 170,
      "▁bugun": 171,
      "▁koltuklar": 172,
      "▁fas": 173,
      "▁vermeyi": 174,
      "▁uzak": 175,
      "▁den": 176,
      "▁manzarasi": 177,
      "▁heyeti": 178,
      "▁bitki": 179,
      "▁gecit": 180,
      "▁damla": 181,
      "▁aileler": 182,
      "▁ilc": 183,
      "▁fonlar": 184,
      "##kan": 185,
      "▁oldugun": 186,
      "▁pab": 187,
      "▁tatil": 188,
      "▁sıg": 189,
      "##giniz": 190,
      "▁telgraf": 191,
      "##dıgını": 192,
      "▁cumhuriyetciler": 193,
      "▁dilim": 194,
      "▁sezlong": 195,
      "▁sıra": 196,
      "▁isten": 197,
      "▁varlıgı": 198,
      "▁gucunu": 199,
      "▁hisselerin": 200,
      "▁ens": 201,
      "▁lob": 202,
      "▁tedavul": 203,
      "▁etkinlik": 204,
      "▁gom": 205,
      "▁sak": 206,
      "▁savunma": 207,
      "▁mill": 208,
      "▁mustes": 209,
      "▁kum": 210,
      "▁gecir": 211,
      "▁soguktu": 212,
      "▁dairesi": 213,
      "▁uste": 214,
      "▁tank": 215,
      "▁saatleri": 216,
      "##lılıg": 217,
      "▁catal": 218,
      "▁degerlendir": 219,
      "▁numar": 220,
      "##ekti": 221,
      "##'ya": 222,
      "▁darb": 223,
      "▁bilgiye": 224,
      "▁alım-satım": 225,
      "▁nefes": 226,
      "▁bagr": 227,
      "▁dalı": 228,
      "##enler": 229,
      "▁depo": 230,
      "▁yollar": 231,
      "▁gosterdi": 232,
      "▁depr": 233,
      "▁pantol": 234,
      "▁memlekette": 235,
      "##uzel": 236,
      "▁mak": 237,
      "##leriyle": 238,
      "##gal": 239,
      "##0'a": 240,
      "##ast": 241,
      "▁...\"": 242,
      "▁ceyreginde": 243,
      "▁mucevher": 244,
      "▁aramız": 245,
      "##or": 246,
      "▁geceleri": 247,
      "▁hangi": 248,
      "▁cehr": 249,
      "▁acılıs": 250,
      "▁ulası": 251,
      "##iyor": 252,
      "##lamam": 253,
      "##amın": 254,
      "▁ic": 255,
      "▁cıkarmak": 256,
      "c": 257,
      "##lıgımı": 258,
      "▁bogaz": 259,
      "▁vakt": 260,
      "▁degerleri": 261,
      "▁eks": 262,
      "▁benzer": 263,
      "##dam": 264,
      "▁konsol": 265,
      "▁ucuyor": 266,
      "▁lik": 267,
      "##ımla": 268,
      "▁konforu": 269,
      "##5'ten": 270,
      "▁gogus": 271,
      "▁durumunda": 272,
      "##asır": 273,
      "##deydi": 274,
      "▁degerini": 275,
      "▁ba": 276,
      "▁tabl": 277,
      "▁beb": 278,
      "##uar": 279,
      "▁hasıl": 280,
      "8": 281,
      "▁cer": 282,
      "##ur": 283,
      "▁mor": 284,
      "##alarına": 285,
      "▁miktar": 286,
      "▁egitimi": 287,
      "▁portakal": 288,
      "▁yuregi": 289,
      "##ada": 290,
      "##dıklarını": 291,
      "▁contin": 292,
      "▁gotur": 293,
      "▁oldug": 294,
      "▁endustr": 295,
      "▁sonra": 296,
      "▁kartı": 297,
      "##ub": 298,
      "▁oku": 299,
      "▁basına": 300,
      "##larımızı": 301,
      "##ag": 302,
      "▁dum": 303,
      "▁sekret": 304,
      "##endi": 305,
      "▁sahib": 306,
      "▁adina": 307,
      "▁mevzu": 308,
      "▁egz": 309,
      "▁rıh": 310,
      "5": 311,
      "▁kodu": 312,
      "▁saka": 313,
      "▁mendil": 314,
      "▁nesil": 315,
      "▁bi": 316,
      "##ımız": 317,
      "▁yurek": 318,
      "▁babası": 319,
      "▁sektorunde": 320,
      "▁karsıl": 321,
      "▁yuk": 322,
      "##tik": 323,
      "▁kotuydu": 324,
      "▁diyet": 325,
      "▁corp": 326,
      "▁vah": 327,
      "▁lig": 328,
      "▁yag": 329,
      "##inn": 330,
      "##eger": 331,
      "▁donuyor": 332,
      "▁heyet": 333,
      "▁olmasına": 334,
      "▁naz": 335,
      "▁``": 336,
      "##medig": 337,
      "##gıc": 338,
      "▁aktif": 339,
      "▁konusuyor": 340,
      "▁los": 341,
      "▁'": 342,
      "▁il": 343,
      "##d": 344,
      "▁durus": 345,
      "▁masanın": 346,
      "▁karanlık": 347,
      "▁en": 348,
      "▁akın": 349,
      "##sman": 350,
      "▁%2": 351,
      "▁gunde": 352,
      ":": 353,
      "▁prov": 354,
      "▁seyden": 355,
      "▁huy": 356,
      "▁zamanla": 357,
      "▁ard": 358,
      "▁yolculuk": 359,
      "▁sebze": 360,
      "##eyim": 361,
      "##ımın": 362,
      "▁ilet": 363,
      "▁banyo": 364,
      "▁yapması": 365,
      "▁kurumlar": 366,
      "##idi": 367,
      "▁siir": 368,
      "▁hamur": 369,
      "▁efsan": 370,
      "##aklı": 371,
      "##rı": 372,
      "▁sp": 373,
      "##akal": 374,
      "▁ediyoruz": 375,
      "▁arab": 376,
      "▁itaat": 377,
      "▁anlasmanın": 378,
      "▁sorun": 379,
      "▁yon": 380,
      "##unce": 381,
      "##tıkları": 382,
      "▁mukelle": 383,
      "##isi": 384,
      "▁ucusların": 385,
      "##ını": 386,
      "▁muhend": 387,
      "!": 388,
      "▁klim": 389,
      "▁plaj": 390,
      "▁pay": 391,
      "##vet": 392,
      "…": 393,
      "▁unsur": 394,
      "▁durumlarda": 395,
      "▁ulasım": 396,
      "▁vef": 397,
      "▁dusman": 398,
      "▁guv": 399,
      "▁zamanlarda": 400,
      "▁korku": 401,
      "▁ikti": 402,
      "▁davayı": 403,
      "##;": 404,
      "##iyorlardı": 405,
      "▁sonda": 406,
      "▁mucadele": 407,
      "##likte": 408,
      "▁mı": 409,
      "▁seye": 410,
      "▁butu": 411,
      "▁arttıgını": 412,
      "▁bur": 413,
      "▁ucusunda": 414,
      "▁sorunlar": 415,
      "▁calıs": 416,
      "▁sonucunda": 417,
      "##culuk": 418,
      "##eceklerini": 419,
      "##verdi": 420,
      "##sacak": 421,
      "▁gulums": 422,
      "##iyetini": 423,
      "▁tem": 424,
      "▁yuzu": 425,
      "▁yasamı": 426,
      "##inizde": 427,
      "▁oak": 428,
      "▁dr.": 429,
      "▁sermaye": 430,
      "▁partisi": 431,
      "▁zul": 432,
      "▁bıraktı": 433,
      "▁kiz": 434,
      "▁odasına": 435,
      "+": 436,
      "▁10'dan": 437,
      "▁zek": 438,
      "▁ayda": 439,
      "▁airlines": 440,
      "▁buny": 441,
      "▁itiraf": 442,
      "▁inceleme": 443,
      "##macı": 444,
      "##uv": 445,
      "▁agzına": 446,
      "▁pa": 447,
      "▁oden": 448,
      "▁fikri": 449,
      "##siz": 450,
      "##alama": 451,
      "▁alıcı": 452,
      "▁emir": 453,
      "▁havaliman": 454,
      "##ti": 455,
      "▁sonuclar": 456,
      "##mustur": 457,
      "##pe": 458,
      "##ilmesini": 459,
      "▁temsilcisi": 460,
      "▁odalari": 461,
      "##meyecek": 462,
      "##tim": 463,
      "▁gencler": 464,
      "▁or": 465,
      "▁ydi": 466,
      "▁ister": 467,
      "▁babamın": 468,
      "▁bekledigini": 469,
      "▁fık": 470,
      "##eceksin": 471,
      "##asıl": 472,
      "▁kon": 473,
      "▁asagıda": 474,
      "##edef": 475,
      "##lam": 476,
      "▁cumle": 477,
      "▁baskalarına": 478,
      "▁mutlu": 479,
      "▁meselesi": 480,
      "##isco": 481,
      "##o": 482,
      "##ik": 483,
      "▁neyse": 484,
      "▁dert": 485,
      "▁ozellikleri": 486,
      "▁merdiven": 487,
      "▁cih": 488,
      "▁tamam": 489,
      "▁atlanta": 490,
      "▁nar": 491,
      "▁soyluyor": 492,
      "##urken": 493,
      "##ersiz": 494,
      "▁kasık": 495,
      "▁koruma": 496,
      "▁kıymet": 497,
      "##icisi": 498,
      "▁menkul": 499,
      "▁kisi": 500,
      "▁sacları": 501,
      "##inc": 502,
      "▁maz": 503,
      "▁duyar": 504,
      "▁dair": 505,
      "##seniz": 506,
      "##ınt": 507,
      "##ıklarını": 508,
      "##eri": 509,
      "##umlu": 510,
      "▁sırada": 511,
      "▁verdim": 512,
      "▁yolunu": 513,
      "▁farkı": 514,
      "▁merak": 515,
      "▁kurus": 516,
      "▁las": 517,
      "▁seattle": 518,
      "▁nobet": 519,
      "▁spot": 520,
      "▁fırsatı": 521,
      "##anıt": 522,
      "▁temmuz": 523,
      "##emeye": 524,
      "▁tadı": 525,
      "▁edebiyat": 526,
      "##ond": 527,
      "▁ipotek": 528,
      "▁sektoru": 529,
      "##usunu": 530,
      "▁pam": 531,
      "▁senetlerinin": 532,
      "▁tuh": 533,
      "▁mevki": 534,
      "▁sovyetler": 535,
      "▁cıkmıs": 536,
      "▁askeri": 537,
      "▁hurriyet": 538,
      "▁fot": 539,
      "##len": 540,
      "▁pamuk": 541,
      "▁kara": 542,
      "##lugun": 543,
      "##kı": 544,
      "▁cid": 545,
      "▁doktorlar": 546,
      "##ulmus": 547,
      "##satı": 548,
      "▁ti": 549,
      "▁bana": 550,
      "▁annesi": 551,
      "▁carsaflar": 552,
      "##ehir": 553,
      "6": 554,
      "▁dır": 555,
      "▁yumruk": 556,
      "▁pit": 557,
      "##7'de": 558,
      "##alan": 559,
      "##tigine": 560,
      "▁cekic": 561,
      "##eligi": 562,
      "##gec": 563,
      "##lıg": 564,
      "▁barda": 565,
      "##s": 566,
      "▁buyukel": 567,
      "▁dekorasyonu": 568,
      "##oeni": 569,
      "▁gelin": 570,
      "##+": 571,
      "▁lev": 572,
      "##ugunu": 573,
      "▁must": 574,
      "▁sadakat": 575,
      "##lum": 576,
      "▁olay": 577,
      "##imen": 578,
      "▁tanr": 579,
      "▁oncesine": 580,
      "▁airlin": 581,
      "▁seferinde": 582,
      "▁cagır": 583,
      "▁numara": 584,
      "##oks": 585,
      "##ikler": 586,
      "▁kims": 587,
      "▁ziy": 588,
      "▁sirketlerin": 589,
      "##el": 590,
      "▁kilit": 591,
      "▁gecmis": 592,
      "▁kredileri": 593,
      "▁yapmak": 594,
      "##og": 595,
      "▁yenilik": 596,
      "▁resep": 597,
      "##2'den": 598,
      "##erin": 599,
      "▁sarap": 600,
      "##cılıgı": 601,
      "▁kuzey": 602,
      "▁dr": 603,
      "▁azal": 604,
      "▁yalan": 605,
      "▁tufek": 606,
      "▁cıkarma": 607,
      "▁bilmem": 608,
      "▁memleketin": 609,
      "▁sov": 610,
      "▁rakib": 611,
      "▁ceviri": 612,
      "▁oyunc": 613,
      "▁tanıt": 614,
      "##na": 615,
      "##sızlık": 616,
      "▁ar": 617,
      "▁pil": 618,
      "▁kenara": 619,
      "▁yurtd": 620,
      "▁temp": 621,
      "▁kahv": 622,
      "▁ameliyat": 623,
      "##ıgından": 624,
      "##ıyorlar": 625,
      "▁zihn": 626,
      "▁ec": 627,
      "▁hasar": 628,
      "##sız": 629,
      "▁hitap": 630,
      "▁eseri": 631,
      "▁etek": 632,
      "##tıs": 633,
      "▁fr": 634,
      "▁ara": 635,
      "▁yardımı": 636,
      "▁makin": 637,
      "▁yarıs": 638,
      "▁degeri": 639,
      "##amız": 640,
      "▁agaclar": 641,
      "▁bircok": 642,
      "▁houston": 643,
      "▁iyi": 644,
      "▁kalan": 645,
      "▁yemeklerini": 646,
      "▁(": 647,
      "▁oylama": 648,
      "##ugun": 649,
      "▁ortaydi": 650,
      "▁iddi": 651,
      "▁gogs": 652,
      "▁kırıklıgı": 653,
      "▁agrı": 654,
      "##emiyor": 655,
      "▁bazı": 656,
      "##adan": 657,
      "▁vicdan": 658,
      "▁pilotlar": 659,
      "##ktu": 660,
      "▁borsada": 661,
      "▁hot": 662,
      "▁evlat": 663,
      "##mamız": 664,
      "▁katıl": 665,
      "▁dokun": 666,
      "▁gev": 667,
      "##alıgı": 668,
      "▁he": 669,
      "▁duz": 670,
      "##ahh": 671,
      "▁sa": 672,
      "▁dumanı": 673,
      "##ota": 674,
      "▁tasım": 675,
      "▁bıy": 676,
      "▁rapor": 677,
      "##c": 678,
      "▁oluyordu": 679,
      "▁gob": 680,
      "▁sahipleri": 681,
      "▁end": 682,
      "▁mevsim": 683,
      "##tis": 684,
      "▁kabuk": 685,
      "▁kızı": 686,
      "##dıg": 687,
      "▁secen": 688,
      "▁bahs": 689,
      "▁tesir": 690,
      "▁sanat": 691,
      "▁gidi": 692,
      "##ıl": 693,
      "▁patlıcan": 694,
      "▁veto": 695,
      "##ların": 696,
      "▁lid": 697,
      "##dugunu": 698,
      "▁etrafını": 699,
      "#": 700,
      "##ekli": 701,
      "▁butc": 702,
      "▁yans": 703,
      "##1": 704,
      "##ri": 705,
      "▁anket": 706,
      "##iyer": 707,
      "▁iceriden": 708,
      "▁soy": 709,
      "▁yarım": 710,
      "▁stand": 711,
      "##ırım": 712,
      "▁arabalar": 713,
      "▁tesaduf": 714,
      "▁husus": 715,
      "▁piyas": 716,
      "##uste": 717,
      "##lom": 718,
      "▁kısım": 719,
      "▁kuslar": 720,
      "▁is": 721,
      "▁ih": 722,
      "##ıcının": 723,
      "▁aray": 724,
      "▁gelir": 725,
      "▁pencereden": 726,
      "▁mes": 727,
      "▁alt": 728,
      "▁okuyucu": 729,
      "##lik": 730,
      "▁bey": 731,
      "▁anlamak": 732,
      "##irdi": 733,
      "▁karak": 734,
      "▁edecegini": 735,
      "▁portf": 736,
      "▁200": 737,
      "▁ef": 738,
      "▁ardına": 739,
      "▁bin": 740,
      "▁parkın": 741,
      "##'y": 742,
      "##ladılar": 743,
      "##ugunda": 744,
      ">": 745,
      "▁serg": 746,
      "▁belki": 747,
      "##cul": 748,
      "▁turuna": 749,
      "▁baslamıs": 750,
      "▁ark": 751,
      "▁islemi": 752,
      "▁satım": 753,
      "▁karakol": 754,
      "##cagı": 755,
      "##'in": 756,
      "##lerinden": 757,
      "▁cebinden": 758,
      "##esti": 759,
      "##emek": 760,
      "▁gurur": 761,
      "##larımıza": 762,
      "##ran": 763,
      "##ani": 764,
      "▁arabanın": 765,
      "▁sınav": 766,
      "##iri": 767,
      "▁ta": 768,
      "▁elde": 769,
      "▁basvur": 770,
      "▁sayfa": 771,
      "▁eleman": 772,
      "▁=": 773,
      "▁his": 774,
      "##estir": 775,
      "▁r": 776,
      "▁belediye": 777,
      "##lul": 778,
      "a": 779,
      "##emi": 780,
      "▁olimpiyat": 781,
      "▁canım": 782,
      "▁fonları": 783,
      "##irim": 784,
      "##eler": 785,
      "▁vatand": 786,
      "▁varlıklar": 787,
      "▁fa": 788,
      "▁yang": 789,
      "▁orani": 790,
      "▁beyef": 791,
      "##olog": 792,
      "▁aslan": 793,
      "##alık": 794,
      "▁arada": 795,
      "▁oranları": 796,
      "▁koy": 797,
      "▁toh": 798,
      "▁ima": 799,
      "▁konustu": 800,
      "▁baskanlık": 801,
      "▁kud": 802,
      "##eyh": 803,
      "▁sozles": 804,
      "##akları": 805,
      "▁verdik": 806,
      "▁dolap": 807,
      "▁bugday": 808,
      "##ete": 809,
      "##ımı": 810,
      "##labil": 811,
      "▁satın": 812,
      "▁marj": 813,
      "▁yapım": 814,
      "▁hakkını": 815,
      "##imizin": 816,
      "##ınız": 817,
      "▁inc.": 818,
      "▁misafirimiz": 819,
      "##ol": 820,
      "▁tahv": 821,
      "▁kazandı": 822,
      "▁cogun": 823,
      "▁icini": 824,
      "▁raf": 825,
      "▁nez": 826,
      "▁kayıt": 827,
      "▁elinin": 828,
      "▁cekilm": 829,
      "▁denge": 830,
      "▁yerlerden": 831,
      "▁gucluk": 832,
      "##kilerin": 833,
      "▁dol": 834,
      "▁dinlemek": 835,
      "##aga": 836,
      "▁ihracı": 837,
      "##lıgıyla": 838,
      "▁calisanlarin": 839,
      "##ba": 840,
      "▁yeterli": 841,
      "▁kadınlara": 842,
      "##leyici": 843,
      "##eyen": 844,
      "▁iscilerin": 845,
      "▁olmaya": 846,
      "##azı": 847,
      "▁basarısız": 848,
      "▁uyarı": 849,
      "▁yuzyılın": 850,
      "▁okuz": 851,
      "##digine": 852,
      "▁milleti": 853,
      "##estiri": 854,
      "▁iste": 855,
      "▁oyuncusu": 856,
      "##in": 857,
      "##aklar": 858,
      "##fih": 859,
      "▁gum": 860,
      "▁teminat": 861,
      "##temelen": 862,
      "##undan": 863,
      "▁kaldır": 864,
      "##lenin": 865,
      "▁cizg": 866,
      "▁icra": 867,
      "##rt": 868,
      "▁kimyasal": 869,
      "##landı": 870,
      "##indan": 871,
      "▁akt": 872,
      "▁konusmaya": 873,
      "##ida": 874,
      "▁sembol": 875,
      "##ola": 876,
      "▁sofor": 877,
      "▁giyim": 878,
      "▁sirkette": 879,
      "▁isle": 880,
      "▁mens": 881,
      "▁faz": 882,
      "▁hizmetinden": 883,
      "##de": 884,
      "##ow": 885,
      "▁komisyonu": 886,
      "▁olmuyor": 887,
      "▁ekm": 888,
      "▁sıv": 889,
      "▁getirisi": 890,
      "▁anım": 891,
      "##istel": 892,
      "▁hukumeti": 893,
      "##amadı": 894,
      "##o'ya": 895,
      "##lerden": 896,
      "##yol": 897,
      "##ans": 898,
      "▁ticarette": 899,
      "##ncu": 900,
      "▁suruyor": 901,
      "▁nef": 902,
      "##iyesi": 903,
      "▁tahvil": 904,
      "▁pittsburgh'tan": 905,
      "##tat": 906,
      "▁daima": 907,
      "▁sessiz": 908,
      "▁iklim": 909,
      "##'un": 910,
      "▁adına": 911,
      "▁saman": 912,
      "▁icten": 913,
      "▁inis": 914,
      "##lamak": 915,
      "▁olm": 916,
      "##diye": 917,
      "▁istifa": 918,
      "##mıstım": 919,
      "▁birini": 920,
      "▁bankaları": 921,
      "▁etrafa": 922,
      "##inlik": 923,
      "▁memnunuz": 924,
      "▁eti": 925,
      "▁calisanlar": 926,
      "##gi": 927,
      "▁piyasasında": 928,
      "##lari": 929,
      "##memis": 930,
      "▁ihracat": 931,
      "▁isbirligi": 932,
      "▁yak": 933,
      "▁dunyada": 934,
      "▁ogrenmek": 935,
      "▁bugunun": 936,
      "▁milletin": 937,
      "▁gosterin": 938,
      "##mma": 939,
      "▁kaybı": 940,
      "▁siy": 941,
      "##tiv": 942,
      "▁belirtti": 943,
      "▁birlesik": 944,
      "▁finc": 945,
      "##lusu": 946,
      "▁sop": 947,
      "▁ek": 948,
      "▁rekabet": 949,
      "▁duzen": 950,
      "##erlik": 951,
      "##aba": 952,
      "▁anim": 953,
      "##dir": 954,
      "##atlar": 955,
      "▁nit": 956,
      "##lerle": 957,
      "▁yanlıs": 958,
      "▁adam": 959,
      "▁tahsil": 960,
      "▁rezervasyon": 961,
      "##maya": 962,
      "▁yardimci": 963,
      "▁indianapolis": 964,
      "▁annemle": 965,
      "##digi": 966,
      "##unu": 967,
      "▁yapmayı": 968,
      "▁emlak": 969,
      "▁dog": 970,
      "▁yetk": 971,
      "▁gunah": 972,
      "##gın": 973,
      "▁atlanta'dan": 974,
      "▁tarzı": 975,
      "##ruf": 976,
      "▁ikram": 977,
      "_": 978,
      "▁bicimde": 979,
      "##abet": 980,
      "▁saldırı": 981,
      "##rken": 982,
      "▁cir": 983,
      "▁avukatlar": 984,
      "▁kalmak": 985,
      "▁isver": 986,
      "▁hayvan": 987,
      "▁terbiy": 988,
      "##diginden": 989,
      "##ıda": 990,
      "▁basında": 991,
      "▁deniz": 992,
      "▁dov": 993,
      "▁baskısı": 994,
      "▁mini": 995,
      "▁gunduz": 996,
      "▁!": 997,
      "▁tarihte": 998,
      "▁birlesme": 999,
      "##olu": 1000,
      "▁yanl": 1001,
      "▁ilgisizdi": 1002,
      "▁iflas": 1003,
      "▁kun": 1004,
      "##ilm": 1005,
      "##abilecegini": 1006,
      "▁yabanci": 1007,
      "▁atmak": 1008,
      "▁ugra": 1009,
      "▁kul": 1010,
      "▁baslıyor": 1011,
      "##4'e": 1012,
      "x": 1013,
      "▁takım": 1014,
      "v": 1015,
      "▁cogunluk": 1016,
      "▁tama": 1017,
      "▁oldugu": 1018,
      "▁kimse": 1019,
      "▁yeterince": 1020,
      "▁kızlar": 1021,
      "▁anketi": 1022,
      "##graf": 1023,
      "##ırken": 1024,
      "▁ucmam": 1025,
      "##gu": 1026,
      "▁bolun": 1027,
      "▁kasabanın": 1028,
      "##umus": 1029,
      "▁baslan": 1030,
      "▁delta": 1031,
      "▁$'a": 1032,
      "▁ici": 1033,
      "▁dile": 1034,
      "▁hucum": 1035,
      "▁bagım": 1036,
      "▁uretimi": 1037,
      "▁sınır": 1038,
      "###": 1039,
      "▁matematik": 1040,
      "▁hızla": 1041,
      "▁kanunu": 1042,
      "##misler": 1043,
      "##tas": 1044,
      "▁tura": 1045,
      "##mez": 1046,
      "▁bakır": 1047,
      "▁acıkladı": 1048,
      "##anmak": 1049,
      "##lası": 1050,
      "▁kurs": 1051,
      "▁hafta": 1052,
      "▁kaynak": 1053,
      "▁siper": 1054,
      "▁gorus": 1055,
      "▁fena": 1056,
      "▁etmiyor": 1057,
      "▁pah": 1058,
      "▁kardes": 1059,
      "##lit": 1060,
      "##larımız": 1061,
      "▁patates": 1062,
      "▁rady": 1063,
      "▁fan": 1064,
      "▁ver": 1065,
      "▁cen": 1066,
      "▁avuc": 1067,
      "##ecekler": 1068,
      "▁gunu": 1069,
      "##00'e": 1070,
      "##imli": 1071,
      "▁fak": 1072,
      "▁sav": 1073,
      "##ildi": 1074,
      "▁sorum": 1075,
      "▁hurr": 1076,
      "##avv": 1077,
      "▁sakat": 1078,
      "▁onde": 1079,
      "▁olmasa": 1080,
      "▁mec": 1081,
      "##dar": 1082,
      "##mesin": 1083,
      "##ladıgı": 1084,
      "1": 1085,
      "▁yun": 1086,
      "▁konumu": 1087,
      "▁iade": 1088,
      "▁demektir": 1089,
      "▁mektup": 1090,
      "▁tutarında": 1091,
      "##use": 1092,
      "▁futbolcu": 1093,
      "▁koye": 1094,
      "▁ayakk": 1095,
      "▁tan": 1096,
      "▁sup": 1097,
      "▁ann": 1098,
      "##lukte": 1099,
      "▁jap": 1100,
      "▁ailesi": 1101,
      "##leleri": 1102,
      "##ımızda": 1103,
      "▁bol": 1104,
      "▁maddes": 1105,
      "▁am": 1106,
      "▁altını": 1107,
      "##rut": 1108,
      "##arlan": 1109,
      "▁ip": 1110,
      "▁uzerinden": 1111,
      "##isiyle": 1112,
      "##maca": 1113,
      "▁ye": 1114,
      "▁tak": 1115,
      "▁sıkınt": 1116,
      "▁bolgesi": 1117,
      "▁ayrı": 1118,
      "##memiz": 1119,
      "▁etti": 1120,
      "▁fin": 1121,
      "▁mum": 1122,
      "▁but": 1123,
      "##par": 1124,
      "##cıların": 1125,
      "▁lobi": 1126,
      "▁ceket": 1127,
      "▁dik": 1128,
      "▁dugun": 1129,
      "▁ayd": 1130,
      "▁simdi": 1131,
      "▁oyuna": 1132,
      "▁kocası": 1133,
      "##sak": 1134,
      "##'ni": 1135,
      "▁dayan": 1136,
      "▁siddet": 1137,
      "▁vapur": 1138,
      "▁cep": 1139,
      "▁komutan": 1140,
      "##tıgı": 1141,
      "##lıgına": 1142,
      "##2'ye": 1143,
      "▁yardımcı": 1144,
      "▁yeryuz": 1145,
      "▁ey": 1146,
      "▁manzar": 1147,
      "▁mukemmeldi": 1148,
      "▁sigorta": 1149,
      "▁sauna": 1150,
      "▁ruh": 1151,
      "##iyorum": 1152,
      "##uma": 1153,
      "##lastı": 1154,
      "▁kanal": 1155,
      "▁lakırtı": 1156,
      "##lastır": 1157,
      "▁tasar": 1158,
      "▁dolardan": 1159,
      "▁havalim": 1160,
      "▁yumurta": 1161,
      "▁ayakları": 1162,
      "▁coluk": 1163,
      "▁muda": 1164,
      "##att": 1165,
      "▁tasf": 1166,
      "▁leblebi": 1167,
      "▁tedav": 1168,
      "▁dikkate": 1169,
      "▁destek": 1170,
      "▁yanı": 1171,
      "▁oglen": 1172,
      "▁karsın": 1173,
      "▁teklifini": 1174,
      "##ya": 1175,
      "▁kurdu": 1176,
      "##dal": 1177,
      "▁koltuga": 1178,
      "##adar": 1179,
      "▁hip": 1180,
      "##una": 1181,
      "▁varan": 1182,
      "▁mikr": 1183,
      "▁magaz": 1184,
      "▁bilgilendir": 1185,
      "▁yo": 1186,
      "▁yagmur": 1187,
      "▁kel": 1188,
      "▁baskı": 1189,
      "▁kopek": 1190,
      "▁ilgili": 1191,
      "##elere": 1192,
      "▁boyu": 1193,
      "▁ert": 1194,
      "▁kamp": 1195,
      "▁hizm": 1196,
      "▁kadar": 1197,
      "▁mecl": 1198,
      "##desi": 1199,
      "▁bedeli": 1200,
      "▁icimde": 1201,
      "##ecegi": 1202,
      "▁sabır": 1203,
      "##isk": 1204,
      "▁cez": 1205,
      "▁cent": 1206,
      "▁alısveris": 1207,
      "▁lamb": 1208,
      "▁tespit": 1209,
      "##asyon": 1210,
      "##net": 1211,
      "▁meclisi": 1212,
      "▁birey": 1213,
      "##lardır": 1214,
      "▁havası": 1215,
      "▁gene": 1216,
      "##ecekleri": 1217,
      "▁teraz": 1218,
      "▁istan": 1219,
      "▁hep": 1220,
      "▁po": 1221,
      "▁eylul": 1222,
      "▁&": 1223,
      "▁kıraat": 1224,
      "▁hak": 1225,
      "▁hal": 1226,
      "▁hale": 1227,
      "▁if": 1228,
      "##amay": 1229,
      "▁topragı": 1230,
      "##tr": 1231,
      "##edigini": 1232,
      "▁yonetmen": 1233,
      "▁tir": 1234,
      "▁karayolu": 1235,
      "▁icerisinde": 1236,
      "##gel": 1237,
      "▁merkez": 1238,
      "##ence": 1239,
      "▁yapıl": 1240,
      "▁miktarda": 1241,
      "▁topu": 1242,
      "##'ta": 1243,
      "##cılık": 1244,
      "▁sev": 1245,
      "##ki": 1246,
      "▁mur": 1247,
      "▁ulk": 1248,
      "▁veriyor": 1249,
      "▁aldı": 1250,
      "▁pey": 1251,
      "##'a": 1252,
      "▁ceh": 1253,
      "▁acıldı": 1254,
      "▁dizgin": 1255,
      "▁dedik": 1256,
      "▁ign": 1257,
      "▁sevgi": 1258,
      "▁zirv": 1259,
      "▁kasım": 1260,
      "▁kasaba": 1261,
      "▁isleme": 1262,
      "##lanmak": 1263,
      "##ge": 1264,
      "▁likid": 1265,
      "▁rıht": 1266,
      "▁teknoloj": 1267,
      "▁tesisin": 1268,
      "▁chat": 1269,
      "▁yetersizdi": 1270,
      "▁rehberlik": 1271,
      "▁tah": 1272,
      "▁tarafından": 1273,
      "▁man": 1274,
      "##.8": 1275,
      "▁hanima": 1276,
      "▁iktidar": 1277,
      "▁sirketinin": 1278,
      "▁cesitli": 1279,
      "##tu": 1280,
      "▁kariyer": 1281,
      "▁yemis": 1282,
      "▁sarkı": 1283,
      "▁sınıf": 1284,
      "▁musterileri": 1285,
      "▁belli": 1286,
      "▁proj": 1287,
      "▁reklam": 1288,
      "▁davran": 1289,
      "▁tasımacılıgı": 1290,
      "▁manz": 1291,
      "▁kelime": 1292,
      "▁hır": 1293,
      "▁faal": 1294,
      "▁bahan": 1295,
      "▁enst": 1296,
      "▁gozlem": 1297,
      "▁ulas": 1298,
      "[SEP]": 1299,
      "▁mail": 1300,
      "▁savun": 1301,
      "▁uc": 1302,
      "##lon": 1303,
      "▁cim": 1304,
      "▁sert": 1305,
      "▁fab": 1306,
      "▁kopr": 1307,
      "▁dal": 1308,
      "▁kardesim": 1309,
      "##ilim": 1310,
      "##oh": 1311,
      "▁santr": 1312,
      "▁doktoru": 1313,
      "▁ulkenin": 1314,
      "▁cesi": 1315,
      "##keti": 1316,
      "▁zen": 1317,
      "▁oglum": 1318,
      "▁anlay": 1319,
      "▁kurb": 1320,
      "▁sabaha": 1321,
      "▁yanımda": 1322,
      "▁planlıyor": 1323,
      "▁kıyafet": 1324,
      "##ası": 1325,
      "▁yap": 1326,
      "▁ediyorlar": 1327,
      "##iran": 1328,
      "▁duyg": 1329,
      "▁millet": 1330,
      "▁q": 1331,
      "▁anlasması": 1332,
      "▁yiy": 1333,
      "##mekten": 1334,
      "▁guver": 1335,
      "▁balta": 1336,
      "▁kı": 1337,
      "▁iktis": 1338,
      "▁ulkede": 1339,
      "▁charl": 1340,
      "▁harcamaları": 1341,
      "▁olduklarını": 1342,
      "▁esn": 1343,
      "▁eglence": 1344,
      "##dıgında": 1345,
      "▁koyde": 1346,
      "▁ong": 1347,
      "▁pazarlama": 1348,
      "▁emn": 1349,
      "▁seklinde": 1350,
      "▁zevk": 1351,
      "▁alıp": 1352,
      "▁seviyesinde": 1353,
      "▁orne": 1354,
      "##'den": 1355,
      "##sizligi": 1356,
      "▁kes": 1357,
      "##lu": 1358,
      "##ational": 1359,
      "▁kapıdan": 1360,
      "##’": 1361,
      "▁duv": 1362,
      "##mustum": 1363,
      "▁olursa": 1364,
      ")": 1365,
      "##umda": 1366,
      "▁babasının": 1367,
      "▁muhafaza": 1368,
      "▁temizlikten": 1369,
      "▁icinden": 1370,
      "▁ıs": 1371,
      "##cular": 1372,
      "▁bili": 1373,
      "▁cocuk": 1374,
      "▁basla": 1375,
      "▁lideri": 1376,
      "▁bilgi": 1377,
      "▁askerler": 1378,
      "▁arazi": 1379,
      "▁imk": 1380,
      "##usun": 1381,
      "▁sistem": 1382,
      "▁del": 1383,
      "▁tet": 1384,
      "▁esnaf": 1385,
      "▁tahıl": 1386,
      "▁kahve": 1387,
      "▁kılıc": 1388,
      "##kleri": 1389,
      "▁duzel": 1390,
      "▁krizi": 1391,
      "▁o": 1392,
      "▁bırakmak": 1393,
      "▁milyar": 1394,
      "##masında": 1395,
      "##se": 1396,
      "▁olmasi": 1397,
      "▁aktivite": 1398,
      "▁sehirler": 1399,
      "▁cad": 1400,
      "▁japonlar": 1401,
      "▁yer": 1402,
      "▁fazlası": 1403,
      "▁pasa": 1404,
      "##onun": 1405,
      "▁ag": 1406,
      "##osun": 1407,
      "##say": 1408,
      "▁tutar": 1409,
      "▁gece": 1410,
      "##acılıgı": 1411,
      "##ikleri": 1412,
      "##medi": 1413,
      "▁patron": 1414,
      "▁islemler": 1415,
      "▁ustun": 1416,
      "▁val": 1417,
      "▁bahar": 1418,
      "▁bekleniyor": 1419,
      "▁dip": 1420,
      "▁gittik": 1421,
      "▁rol": 1422,
      "▁gelistir": 1423,
      "▁yapısı": 1424,
      "▁alabilir": 1425,
      "▁katkı": 1426,
      "##lendirdi": 1427,
      "##ediyor": 1428,
      "▁sayesinde": 1429,
      "▁toplum": 1430,
      "▁cey": 1431,
      "▁amerikalılar": 1432,
      "##ligine": 1433,
      "▁ora": 1434,
      "▁acıl": 1435,
      "##cog": 1436,
      "▁yud": 1437,
      "##ov": 1438,
      "##ceyr": 1439,
      "▁uzer": 1440,
      "▁veri": 1441,
      "▁sozler": 1442,
      "▁hukumdar": 1443,
      "▁felsef": 1444,
      "▁havayollarında": 1445,
      "▁cuk": 1446,
      "▁dah": 1447,
      "▁kriz": 1448,
      "▁bilgisi": 1449,
      "▁durum": 1450,
      "▁dus": 1451,
      "##ess": 1452,
      "▁secim": 1453,
      "##rak": 1454,
      "##agına": 1455,
      "##ilmek": 1456,
      "##gor": 1457,
      "##edigi": 1458,
      "▁yerel": 1459,
      "##usunun": 1460,
      "##liydi": 1461,
      "▁kimlik": 1462,
      "▁sigort": 1463,
      "▁kesint": 1464,
      "▁eylem": 1465,
      "▁gosteri": 1466,
      "##h": 1467,
      "▁imparator": 1468,
      "▁abd": 1469,
      "##aydı": 1470,
      "▁sahibinin": 1471,
      "▁tuvalet": 1472,
      "▁kap": 1473,
      "▁hakkinda": 1474,
      "##lat": 1475,
      "▁form": 1476,
      "▁uzakti": 1477,
      "##lanacak": 1478,
      "▁odaydi": 1479,
      "▁demokrasi": 1480,
      "▁sol": 1481,
      "▁koc": 1482,
      "▁dısı": 1483,
      "▁kalp": 1484,
      "▁bazi": 1485,
      "▁sı": 1486,
      "##reti": 1487,
      "##udur": 1488,
      "▁grev": 1489,
      "##eni": 1490,
      "▁ince": 1491,
      "##ec": 1492,
      "▁kapıyı": 1493,
      "▁barıs": 1494,
      "▁tabanc": 1495,
      "▁duzenlem": 1496,
      "/": 1497,
      "##egin": 1498,
      "##eti": 1499,
      "##legi": 1500,
      "##may": 1501,
      "▁demet": 1502,
      "##co": 1503,
      "▁iceri": 1504,
      "▁sonu": 1505,
      "##ahat": 1506,
      "▁masada": 1507,
      "▁rec": 1508,
      "##ecek": 1509,
      "##.4": 1510,
      "▁calı": 1511,
      "##dim": 1512,
      "▁mel": 1513,
      "##inti": 1514,
      "▁izlen": 1515,
      "▁oranı": 1516,
      "▁olus": 1517,
      "▁basımı": 1518,
      "##han": 1519,
      "▁juri": 1520,
      "▁ind": 1521,
      "▁maliyetleri": 1522,
      "▁dunyası": 1523,
      "▁sozlesmesi": 1524,
      "▁yuksekti": 1525,
      "▁biz": 1526,
      "▁dukkan": 1527,
      "▁oteden": 1528,
      "▁mevcut": 1529,
      "▁tatlilar": 1530,
      "▁ucuna": 1531,
      "##cev": 1532,
      "▁kanun": 1533,
      "##ıyı": 1534,
      "▁terey": 1535,
      "▁tutum": 1536,
      "##elerini": 1537,
      "##las": 1538,
      "##ir": 1539,
      "▁faktor": 1540,
      "▁hus": 1541,
      "▁profes": 1542,
      "▁herk": 1543,
      "▁kisiyi": 1544,
      "##esem": 1545,
      "▁suyunu": 1546,
      "▁kurban": 1547,
      "##imler": 1548,
      "▁seyir": 1549,
      "▁verim": 1550,
      "##mıyordu": 1551,
      "▁gozyas": 1552,
      "##ayla": 1553,
      "##tek": 1554,
      "##ivers": 1555,
      "##gre": 1556,
      "##mazdı": 1557,
      "▁verdigini": 1558,
      "##ısır": 1559,
      "▁newark": 1560,
      "▁yedi": 1561,
      "##ultu": 1562,
      "▁kirpik": 1563,
      "▁yazık": 1564,
      "▁meb": 1565,
      "▁kazancları": 1566,
      "##yle": 1567,
      "▁basa": 1568,
      "##ırmak": 1569,
      "▁coban": 1570,
      "▁ayından": 1571,
      "▁olmak": 1572,
      "▁bab": 1573,
      "▁ugruna": 1574,
      "▁kada": 1575,
      "▁imkan": 1576,
      "▁calısmaya": 1577,
      "##lıga": 1578,
      "▁oturum": 1579,
      "▁eksikligi": 1580,
      "▁durusma": 1581,
      "##iza": 1582,
      "▁kod": 1583,
      "##,": 1584,
      "▁tenc": 1585,
      "▁mir": 1586,
      "##umuza": 1587,
      "▁plana": 1588,
      "▁aradan": 1589,
      "▁ot": 1590,
      "▁arasında": 1591,
      "▁seyahat": 1592,
      "##acagız": 1593,
      "▁editor": 1594,
      "▁kalma": 1595,
      "▁sekilde": 1596,
      "▁ıskarta": 1597,
      "▁genclik": 1598,
      "##asındaki": 1599,
      "▁korun": 1600,
      "▁uzerinde": 1601,
      "▁konumunu": 1602,
      "▁ogul": 1603,
      "▁tekn": 1604,
      "##ator": 1605,
      "▁oyn": 1606,
      "▁kokusu": 1607,
      "▁komsu": 1608,
      "▁kep": 1609,
      "▁olaydan": 1610,
      "##edigim": 1611,
      "▁anda": 1612,
      "▁vakit": 1613,
      "▁yaptıgını": 1614,
      "##lının": 1615,
      "##acının": 1616,
      "▁mesaj": 1617,
      "##arlandı": 1618,
      "##eviz": 1619,
      "▁egzersiz": 1620,
      "▁uret": 1621,
      "##ılmak": 1622,
      "##sanız": 1623,
      "▁yangın": 1624,
      "▁yili": 1625,
      "▁urunu": 1626,
      "▁video": 1627,
      "▁arkada": 1628,
      "▁konferans": 1629,
      "▁detayları": 1630,
      "▁vagon": 1631,
      "##af": 1632,
      "##cu": 1633,
      "▁?": 1634,
      "▁impar": 1635,
      "##iste": 1636,
      "▁sez": 1637,
      "##8'de": 1638,
      "▁baglant": 1639,
      "▁yansı": 1640,
      "▁19": 1641,
      "▁satıslara": 1642,
      "##ika": 1643,
      "▁dallas": 1644,
      "▁saatlerde": 1645,
      "▁gelge": 1646,
      "▁yargıc": 1647,
      "##'ı": 1648,
      "▁beden": 1649,
      "▁savası": 1650,
      "▁alternatif": 1651,
      "▁otur": 1652,
      "▁sag": 1653,
      "▁uyeleri": 1654,
      "##ıla": 1655,
      "##kiz": 1656,
      "##cilerin": 1657,
      "##lerimiz": 1658,
      "##day": 1659,
      "▁pesinden": 1660,
      "▁goc": 1661,
      "▁ihtiyar": 1662,
      "##leti": 1663,
      "▁muhabbet": 1664,
      "##\"": 1665,
      "##tiy": 1666,
      "▁damak": 1667,
      "▁ithalat": 1668,
      "▁paraya": 1669,
      "▁yıl": 1670,
      "▁suphe": 1671,
      "▁hatır": 1672,
      "▁urunler": 1673,
      "##geler": 1674,
      "▁masal": 1675,
      "▁cob": 1676,
      "▁sabah": 1677,
      "##esiz": 1678,
      "▁salt": 1679,
      "▁orgut": 1680,
      "##ber": 1681,
      "▁af": 1682,
      "▁uzay": 1683,
      "▁sade": 1684,
      "▁”": 1685,
      "##ıgı": 1686,
      "▁caz": 1687,
      "##uya": 1688,
      "▁doları": 1689,
      "▁carte": 1690,
      "▁istihbar": 1691,
      "▁kadın": 1692,
      "▁haric": 1693,
      "▁bekl": 1694,
      "▁nerede": 1695,
      "▁amc": 1696,
      "##oc": 1697,
      "##ızda": 1698,
      "##lamadı": 1699,
      "▁calıstı": 1700,
      "##ıza": 1701,
      "▁standart": 1702,
      "▁odamiz": 1703,
      "▁muster": 1704,
      "▁merdiv": 1705,
      "3": 1706,
      "▁arastırma": 1707,
      "▁ulasımını": 1708,
      "▁hukumet": 1709,
      "▁selam": 1710,
      "▁programı": 1711,
      "▁ice": 1712,
      "▁hakkı": 1713,
      "▁dunyayı": 1714,
      "▁yardım": 1715,
      "▁tal": 1716,
      "▁utan": 1717,
      "▁sikay": 1718,
      "▁dusunuyor": 1719,
      "▁ruya": 1720,
      "▁telefonla": 1721,
      "▁ihtiyacım": 1722,
      "▁zarar": 1723,
      "▁calısan": 1724,
      "▁halk": 1725,
      "▁zev": 1726,
      "##anla": 1727,
      "##inden": 1728,
      "▁ugr": 1729,
      "##.5": 1730,
      "▁altern": 1731,
      "▁ars": 1732,
      "##iyet": 1733,
      "▁azınlık": 1734,
      "▁satıcı": 1735,
      "##ustur": 1736,
      "▁um": 1737,
      "##raz": 1738,
      "▁saf": 1739,
      "▁haberi": 1740,
      "▁meydan": 1741,
      "▁duvarı": 1742,
      "“": 1743,
      "▁aksam": 1744,
      "▁oldu": 1745,
      "​": 1746,
      "##sem": 1747,
      "##dır": 1748,
      "▁gemi": 1749,
      "▁ydı": 1750,
      "##uza": 1751,
      "##ap": 1752,
      "▁say": 1753,
      "##ons": 1754,
      "##uyorlar": 1755,
      "▁korumak": 1756,
      "▁kahvaltisi": 1757,
      "▁kurtaj": 1758,
      "##-sat": 1759,
      "▁kızın": 1760,
      "▁ekim": 1761,
      "##umun": 1762,
      "▁fır": 1763,
      "▁olmayacak": 1764,
      "▁yık": 1765,
      "▁yaptirdi": 1766,
      "##imci": 1767,
      "##larının": 1768,
      "▁gerc": 1769,
      "##egen": 1770,
      "▁9": 1771,
      "##uyla": 1772,
      "##iyetine": 1773,
      "▁%": 1774,
      "▁moral": 1775,
      "▁goturdu": 1776,
      "▁yetkilisi": 1777,
      "▁agr": 1778,
      "▁erkek": 1779,
      "##esi": 1780,
      "##maktan": 1781,
      "##enlerin": 1782,
      "▁gozlerim": 1783,
      "##agının": 1784,
      "▁hissediyor": 1785,
      "▁haftanın": 1786,
      "▁yeniden": 1787,
      "▁ayrım": 1788,
      "▁zah": 1789,
      "▁baslamıstı": 1790,
      "▁phoenix": 1791,
      "##inda": 1792,
      "▁analiz": 1793,
      "▁gov": 1794,
      "▁rengi": 1795,
      "##uluk": 1796,
      "▁strateji": 1797,
      "##eyle": 1798,
      "##laya": 1799,
      "▁kole": 1800,
      "▁ra": 1801,
      "▁vermedi": 1802,
      "▁ayaklarını": 1803,
      "▁sirketi": 1804,
      "▁yokus": 1805,
      "▁bolg": 1806,
      "▁kendine": 1807,
      "▁lok": 1808,
      "▁sesini": 1809,
      "▁kons": 1810,
      "##irmi": 1811,
      "▁gerekse": 1812,
      "##cık": 1813,
      "##istim": 1814,
      "▁phoeni": 1815,
      "▁konusunda": 1816,
      "##eder": 1817,
      "▁birden": 1818,
      "▁og": 1819,
      "▁hayalet": 1820,
      "▁arkadası": 1821,
      "▁degil": 1822,
      "▁gelmis": 1823,
      "▁darbuk": 1824,
      "▁olu": 1825,
      "▁gazetenin": 1826,
      "▁yonet": 1827,
      "##gesi": 1828,
      "##iren": 1829,
      "▁cıkıs": 1830,
      "▁puanlama": 1831,
      "▁arap": 1832,
      "▁ekmek": 1833,
      "##iyim": 1834,
      "▁muzigi": 1835,
      "▁sonundan": 1836,
      "##enin": 1837,
      "▁tabi": 1838,
      "▁amerikan": 1839,
      "▁boyut": 1840,
      "▁gog": 1841,
      "▁uygulam": 1842,
      "##ilmesine": 1843,
      "▁sirketin": 1844,
      "▁karab": 1845,
      "##inler": 1846,
      "##ob": 1847,
      "▁tam": 1848,
      "##uvar": 1849,
      "##luyor": 1850,
      "▁fasul": 1851,
      "▁artısı": 1852,
      "▁fark": 1853,
      "▁guclu": 1854,
      "▁yıllardan": 1855,
      "▁sit": 1856,
      "▁yonetiminin": 1857,
      "▁biraz": 1858,
      "▁hareketi": 1859,
      "▁7": 1860,
      "▁zih": 1861,
      "##atla": 1862,
      "##anından": 1863,
      "##emem": 1864,
      "▁ceph": 1865,
      "▁mahkemesi": 1866,
      "▁kampanyalardan": 1867,
      "▁isg": 1868,
      "▁degirmen": 1869,
      "##sunuz": 1870,
      "▁isler": 1871,
      "##3": 1872,
      "▁bulama": 1873,
      "▁ogr": 1874,
      "##otu": 1875,
      "▁orman": 1876,
      "##dum": 1877,
      "▁yoktur": 1878,
      "##ilik": 1879,
      "▁onune": 1880,
      "▁resim": 1881,
      "##umuzu": 1882,
      "▁sifir": 1883,
      "##lanan": 1884,
      "##luluk": 1885,
      "▁orn": 1886,
      "▁karısının": 1887,
      "##esiyle": 1888,
      "▁kazancı": 1889,
      "▁kisinin": 1890,
      "##ıg": 1891,
      "▁num": 1892,
      "▁vir": 1893,
      "▁temsilcileri": 1894,
      "▁hissenin": 1895,
      "▁korkusu": 1896,
      "▁duruma": 1897,
      "##taj": 1898,
      "##duk": 1899,
      "▁disi": 1900,
      "▁sansur": 1901,
      "▁yukarı": 1902,
      "▁yasay": 1903,
      "▁ileri": 1904,
      "▁baglantı": 1905,
      "▁4": 1906,
      "▁first": 1907,
      "##der": 1908,
      "▁sel": 1909,
      "▁kirp": 1910,
      "##orta": 1911,
      "▁geceler": 1912,
      "▁baskalarının": 1913,
      "##isine": 1914,
      "##isah": 1915,
      "▁payı": 1916,
      "##lac": 1917,
      "▁oldum": 1918,
      "▁hedefleri": 1919,
      "▁jo": 1920,
      "▁gosterir": 1921,
      "▁harp": 1922,
      "▁odalardan": 1923,
      "▁gormez": 1924,
      "▁meden": 1925,
      "▁yem": 1926,
      "▁odanın": 1927,
      "▁sattı": 1928,
      "▁icecekleri": 1929,
      "▁lirayı": 1930,
      "▁puandan": 1931,
      "▁yola": 1932,
      "▁tadimiza": 1933,
      "▁pist": 1934,
      "▁gorusmek": 1935,
      "▁hucre": 1936,
      "▁sahneye": 1937,
      "##lerimin": 1938,
      "▁dolay": 1939,
      "▁ettigi": 1940,
      "▁class": 1941,
      "▁:": 1942,
      "▁birles": 1943,
      "▁endeks": 1944,
      "▁dusuk": 1945,
      "▁muhab": 1946,
      "▁nufus": 1947,
      "▁hamle": 1948,
      "▁aktar": 1949,
      "▁gon": 1950,
      "▁traf": 1951,
      "▁edip": 1952,
      "##otte": 1953,
      "##izlik": 1954,
      "▁krem": 1955,
      "▁espr": 1956,
      "▁seg": 1957,
      "▁sırt": 1958,
      "▁tek": 1959,
      "▁iceriyor": 1960,
      "##x": 1961,
      "▁gorusuldu": 1962,
      "##ali": 1963,
      "##agon": 1964,
      "##abilir": 1965,
      "##oglu": 1966,
      "##istan": 1967,
      "▁fer": 1968,
      "##layacak": 1969,
      "▁kacak": 1970,
      "▁gars": 1971,
      "▁fasuly": 1972,
      "▁giriste": 1973,
      "##dın": 1974,
      "##​": 1975,
      "▁fakult": 1976,
      "▁macı": 1977,
      "▁olaylara": 1978,
      "▁kagıdı": 1979,
      "▁lir": 1980,
      "▁yapar": 1981,
      "▁malı": 1982,
      "▁mukemmel": 1983,
      "##ılır": 1984,
      "▁agabey": 1985,
      "##yacak": 1986,
      "▁sık": 1987,
      "▁ile": 1988,
      "▁kardesinin": 1989,
      "##zer": 1990,
      "▁suik": 1991,
      "▁yukselisle": 1992,
      "▁gec": 1993,
      "▁hoc": 1994,
      "##etr": 1995,
      "▁birbirler": 1996,
      "▁ster": 1997,
      "▁disip": 1998,
      "▁kısıt": 1999,
      "▁prosed": 2000,
      "▁hamam": 2001,
      "##ıcak": 2002,
      "##iyete": 2003,
      "▁ide": 2004,
      "▁artıs": 2005,
      "▁cıkmak": 2006,
      "▁bedel": 2007,
      "▁cekim": 2008,
      "▁suları": 2009,
      "##medik": 2010,
      "▁duyguları": 2011,
      "▁kagıt": 2012,
      "▁herkes": 2013,
      "▁dalga": 2014,
      "▁8'den": 2015,
      "▁karmas": 2016,
      "▁dav": 2017,
      "▁kuy": 2018,
      "▁derde": 2019,
      "▁ucuslarının": 2020,
      "##abil": 2021,
      "##arda": 2022,
      "▁dosy": 2023,
      "##siyon": 2024,
      "▁hizmette": 2025,
      "##cinin": 2026,
      "▁onumuzdeki": 2027,
      "##emm": 2028,
      "▁ortalıgı": 2029,
      "▁oyuncu": 2030,
      "##7": 2031,
      "▁baskanlıgı": 2032,
      "*": 2033,
      "▁bakanlıgı": 2034,
      "##tiler": 2035,
      "▁ragmen": 2036,
      "##ig": 2037,
      "▁sozcuk": 2038,
      "##abın": 2039,
      "▁tacirler": 2040,
      "##meyecegini": 2041,
      "▁ilg": 2042,
      "▁memnun": 2043,
      "▁kapısının": 2044,
      "▁hapis": 2045,
      "▁temet": 2046,
      "▁mul": 2047,
      "▁mode": 2048,
      "▁cadde": 2049,
      "##w": 2050,
      "▁mektep": 2051,
      "▁etme": 2052,
      "##vr": 2053,
      "▁dep": 2054,
      "▁tr": 2055,
      "▁dek": 2056,
      "▁kaliteye": 2057,
      "▁kayb": 2058,
      "▁dogrult": 2059,
      "▁maas": 2060,
      "▁yılların": 2061,
      "▁yas": 2062,
      "##lıp": 2063,
      "▁bede": 2064,
      "▁heyecan": 2065,
      "▁mani": 2066,
      "▁oper": 2067,
      "▁doviz": 2068,
      "▁senator": 2069,
      "▁lezzetli": 2070,
      "▁delik": 2071,
      "▁ekledi": 2072,
      "##>": 2073,
      "▁halen": 2074,
      "##fa": 2075,
      "▁komur": 2076,
      "▁vadesi": 2077,
      "##agında": 2078,
      "▁oncesi": 2079,
      "▁ortak": 2080,
      "##ent": 2081,
      "▁satır": 2082,
      "##lilik": 2083,
      "▁bakıma": 2084,
      "▁konus": 2085,
      "▁camasır": 2086,
      "▁evr": 2087,
      "▁buldu": 2088,
      "▁sid": 2089,
      "▁sın": 2090,
      "▁ist": 2091,
      "▁beri": 2092,
      "##edik": 2093,
      "▁egem": 2094,
      "▁yapmadı": 2095,
      "##ib": 2096,
      "▁altına": 2097,
      "▁savas": 2098,
      "▁istiklal": 2099,
      "▁i": 2100,
      "##agını": 2101,
      "##enuz": 2102,
      "▁yerini": 2103,
      "▁kalmıs": 2104,
      "▁kesim": 2105,
      "▁kongr": 2106,
      "▁taksi": 2107,
      "▁dor": 2108,
      "▁otelde": 2109,
      "▁kac": 2110,
      "▁fayda": 2111,
      "##ıstı": 2112,
      "▁belge": 2113,
      "▁geyik": 2114,
      "##em": 2115,
      "##ecegiz": 2116,
      "##piyat": 2117,
      "▁kahvaltı": 2118,
      "▁amel": 2119,
      "▁girisim": 2120,
      "▁geminin": 2121,
      "##ich": 2122,
      "▁ucusları": 2123,
      "[MASK]": 2124,
      "##sel": 2125,
      "▁yoneticiler": 2126,
      "▁luk": 2127,
      "▁tel": 2128,
      "##stu": 2129,
      "▁bunların": 2130,
      "▁olması": 2131,
      "▁lezzetleri": 2132,
      "##liligi": 2133,
      "▁hekim": 2134,
      "##luydu": 2135,
      "▁kr": 2136,
      "▁duser": 2137,
      "▁eve": 2138,
      "▁kelimesi": 2139,
      "##he": 2140,
      "▁odalarin": 2141,
      "▁oncelik": 2142,
      "##nak": 2143,
      "▁yasama": 2144,
      "▁artık": 2145,
      "▁istanbul": 2146,
      "##ladı": 2147,
      "▁ilgilendiler": 2148,
      "▁terbiye": 2149,
      "▁satıs": 2150,
      "▁talih": 2151,
      "▁acık": 2152,
      "▁varil": 2153,
      "▁domuz": 2154,
      "▁adamlar": 2155,
      "##os": 2156,
      "▁yıldız": 2157,
      "▁degisiklikler": 2158,
      "▁alısver": 2159,
      "▁iddiaları": 2160,
      "##r": 2161,
      "##usten": 2162,
      "▁mudahale": 2163,
      "▁semt": 2164,
      "##vek": 2165,
      "▁tasv": 2166,
      "▁saglık": 2167,
      "▁zaten": 2168,
      "▁skandal": 2169,
      "▁yatırımcı": 2170,
      "▁havalimanı": 2171,
      "▁bekliyor": 2172,
      "##lenme": 2173,
      "##op": 2174,
      "##lendirme": 2175,
      "▁arac": 2176,
      "▁hazir": 2177,
      "▁fran": 2178,
      "##ıyordu": 2179,
      "▁kayn": 2180,
      "▁sahibi": 2181,
      "▁sarsıntı": 2182,
      "▁eline": 2183,
      "▁kasır": 2184,
      "▁iz": 2185,
      "##ediye": 2186,
      "▁onunla": 2187,
      "##ıldıgını": 2188,
      "▁uslu": 2189,
      "##onom": 2190,
      "▁kaldim": 2191,
      "▁kıymetleri": 2192,
      "▁sorusturma": 2193,
      "▁kut": 2194,
      "▁dusunuyorum": 2195,
      "▁koydu": 2196,
      "▁duydu": 2197,
      "▁asans": 2198,
      "▁asker": 2199,
      "▁vaz": 2200,
      "##obil": 2201,
      "##ited": 2202,
      "▁trafik": 2203,
      "##dılar": 2204,
      "▁sig": 2205,
      "▁huz": 2206,
      "▁anası": 2207,
      "▁seytan": 2208,
      "▁ana": 2209,
      "##siye": 2210,
      "##isten": 2211,
      "▁yatır": 2212,
      "▁gazin": 2213,
      "▁uretic": 2214,
      "▁miami": 2215,
      "▁kumas": 2216,
      "▁kosede": 2217,
      "▁ustunde": 2218,
      "##ij": 2219,
      "##irgin": 2220,
      "##mesinden": 2221,
      "▁it": 2222,
      "##is": 2223,
      "▁cift": 2224,
      "▁ben": 2225,
      "▁galiba": 2226,
      "▁suyu": 2227,
      "##uzu": 2228,
      "▁du": 2229,
      "▁makineler": 2230,
      "▁yakıt": 2231,
      "##ıf": 2232,
      "##mayı": 2233,
      "▁enflasyon": 2234,
      "▁devlet": 2235,
      "▁ucretleri": 2236,
      "▁balayi": 2237,
      "▁bulgu": 2238,
      "▁kopru": 2239,
      "▁marka": 2240,
      "▁buraya": 2241,
      "▁sonr": 2242,
      "▁ulusal": 2243,
      "##lıyordu": 2244,
      "##tay": 2245,
      "##eginde": 2246,
      "▁kapasitesi": 2247,
      "▁ortalaması": 2248,
      "▁mit": 2249,
      "##alar": 2250,
      "▁prop": 2251,
      "▁za": 2252,
      "▁fabrika": 2253,
      "▁acen": 2254,
      "▁yetersiz": 2255,
      "▁neredeyse": 2256,
      "▁kulak": 2257,
      "▁turk": 2258,
      "▁cat": 2259,
      "▁olasılık": 2260,
      "▁ayna": 2261,
      "▁sozlerine": 2262,
      "▁cocuklarını": 2263,
      "##?": 2264,
      "▁etmek": 2265,
      "▁piyasaya": 2266,
      "▁endustri": 2267,
      "##”": 2268,
      "▁burası": 2269,
      "▁degisik": 2270,
      "##liy": 2271,
      "▁mark": 2272,
      "▁kapısından": 2273,
      "▁gerceklestir": 2274,
      "▁aday": 2275,
      "▁emtia": 2276,
      "▁atılım": 2277,
      "▁ikin": 2278,
      "▁ucretine": 2279,
      "▁surdu": 2280,
      "##ız": 2281,
      "▁kucuk": 2282,
      "▁sun": 2283,
      "##ham": 2284,
      "##ıma": 2285,
      "##elleri": 2286,
      "##eleri": 2287,
      "-": 2288,
      "##den": 2289,
      "▁bakan": 2290,
      "▁kog": 2291,
      "▁subay": 2292,
      "##land": 2293,
      "▁cocuklug": 2294,
      "▁yazarı": 2295,
      "▁piyasanın": 2296,
      "▁icer": 2297,
      "▁hey": 2298,
      "▁tv": 2299,
      "▁sahne": 2300,
      "▁artırmak": 2301,
      "▁yaptirmadim": 2302,
      "▁asl": 2303,
      "▁belir": 2304,
      "▁icine": 2305,
      "▁benim": 2306,
      "▁makaleye": 2307,
      "▁le": 2308,
      "##stım": 2309,
      "▁tahta": 2310,
      "▁hukuk": 2311,
      "▁etrafında": 2312,
      "▁ocak": 2313,
      "▁gunluk": 2314,
      "▁sonucların": 2315,
      "▁hanimla": 2316,
      "▁otobus": 2317,
      "▁varlıgını": 2318,
      "▁ikinci": 2319,
      "▁kucuktu": 2320,
      "##amdan": 2321,
      "▁20": 2322,
      "▁gost": 2323,
      "##st": 2324,
      "##ılmaya": 2325,
      "▁ecz": 2326,
      "▁konak": 2327,
      "##lar": 2328,
      "##ıslı": 2329,
      "##era": 2330,
      "▁bakın": 2331,
      "##25": 2332,
      "##fi": 2333,
      "##inizin": 2334,
      "▁uzum": 2335,
      "▁hun": 2336,
      "##lıgı": 2337,
      "##lenmek": 2338,
      "'": 2339,
      "▁duvarlar": 2340,
      "##lıyor": 2341,
      "▁rolu": 2342,
      "##li": 2343,
      "##iyi": 2344,
      "▁teklifin": 2345,
      "##ce": 2346,
      "##0'dan": 2347,
      "▁cagr": 2348,
      "▁vatandas": 2349,
      "▁cuval": 2350,
      "▁neden": 2351,
      "▁ode": 2352,
      "▁usta": 2353,
      "▁ortamda": 2354,
      "▁isci": 2355,
      "▁": 2356,
      "▁gunun": 2357,
      "▁hayatta": 2358,
      "▁iyice": 2359,
      "▁salat": 2360,
      "▁havaalanından": 2361,
      "▁ucretlerini": 2362,
      "▁buldum": 2363,
      "▁adamları": 2364,
      "##van": 2365,
      "##ıp": 2366,
      "##egiyle": 2367,
      "▁.)": 2368,
      "▁kadınlar": 2369,
      "##emden": 2370,
      "▁seyr": 2371,
      "▁kadına": 2372,
      "▁tered": 2373,
      "##cileri": 2374,
      "▁bayram": 2375,
      "##oker": 2376,
      "▁hanım": 2377,
      "##labilir": 2378,
      "▁getirir": 2379,
      "▁yıllardır": 2380,
      "▁edilen": 2381,
      "▁odam": 2382,
      "▁a.m": 2383,
      "▁tedavulde": 2384,
      "##amac": 2385,
      "▁yonuyle": 2386,
      "▁konuya": 2387,
      "▁dahi": 2388,
      "▁uygu": 2389,
      "##ikti": 2390,
      "▁goruyor": 2391,
      "##g": 2392,
      "▁duserek": 2393,
      "##lesi": 2394,
      "▁dısarıda": 2395,
      "▁cocuklu": 2396,
      "##usuyla": 2397,
      "▁cal": 2398,
      "▁ayrıca": 2399,
      "##kon": 2400,
      "##mer": 2401,
      "▁ab": 2402,
      "▁komisyonları": 2403,
      "▁mas": 2404,
      "##isyon": 2405,
      "##amı": 2406,
      "▁cop": 2407,
      "▁katı": 2408,
      "▁dakika": 2409,
      "▁nih": 2410,
      "▁c": 2411,
      "▁ekonomik": 2412,
      "##erv": 2413,
      "▁dusunmuyor": 2414,
      "##arlar": 2415,
      "▁hou": 2416,
      "▁seans": 2417,
      "▁yıllarında": 2418,
      "▁ilisk": 2419,
      "▁yor": 2420,
      "▁hakikat": 2421,
      "▁tur": 2422,
      "▁ortadan": 2423,
      "##lasmıs": 2424,
      "▁onemi": 2425,
      "▁gel": 2426,
      "▁borsası'nda": 2427,
      "##meye": 2428,
      "##sın": 2429,
      "▁rahat": 2430,
      "▁tazminat": 2431,
      "##ene": 2432,
      "##meldi": 2433,
      "▁lezz": 2434,
      "▁karsiligini": 2435,
      "▁iceriye": 2436,
      "▁kaldırım": 2437,
      "##urg": 2438,
      "▁.\"": 2439,
      "▁icat": 2440,
      "▁ins": 2441,
      "▁beraber": 2442,
      "▁oldugunu": 2443,
      "▁yuksek": 2444,
      "▁sosyalizm": 2445,
      "▁av": 2446,
      "▁kafa": 2447,
      "##iz": 2448,
      "##emli": 2449,
      "▁bonolar": 2450,
      "##leyen": 2451,
      "▁kapan": 2452,
      "▁met": 2453,
      "▁teror": 2454,
      "▁m": 2455,
      "▁salonunda": 2456,
      "▁ayakta": 2457,
      "▁tutul": 2458,
      "##alardan": 2459,
      "▁elektr": 2460,
      "▁eser": 2461,
      "▁yetkili": 2462,
      "▁ayr": 2463,
      "##olis": 2464,
      "▁muhafazak": 2465,
      "▁etmeyi": 2466,
      "##digini": 2467,
      "▁tahsis": 2468,
      "▁milli": 2469,
      "##ip": 2470,
      "▁alay": 2471,
      "▁olan": 2472,
      "▁olanları": 2473,
      "##ni": 2474,
      "##kce": 2475,
      "##'dan": 2476,
      "▁kurumları": 2477,
      "##yasal": 2478,
      "##var": 2479,
      "▁nes": 2480,
      "▁omr": 2481,
      "▁servet": 2482,
      "▁uzman": 2483,
      "▁sandaly": 2484,
      "▁por": 2485,
      "▁piyasada": 2486,
      "##areti": 2487,
      "##madan": 2488,
      "##izdi": 2489,
      "▁doktorun": 2490,
      "▁firma": 2491,
      "▁sehri": 2492,
      "▁tencer": 2493,
      "##ates": 2494,
      "▁ede": 2495,
      "##ulur": 2496,
      "##anın": 2497,
      "##phia": 2498,
      "▁olabil": 2499,
      "▁onayına": 2500,
      "##nin": 2501,
      "▁teb": 2502,
      "▁secmen": 2503,
      "▁st": 2504,
      "▁topraga": 2505,
      "▁yabanc": 2506,
      "▁cekildi": 2507,
      "▁indian": 2508,
      "▁es": 2509,
      "▁lam": 2510,
      "▁gayret": 2511,
      "▁efendim": 2512,
      "▁sterlin": 2513,
      "▁soru": 2514,
      "▁munaseb": 2515,
      "▁uye": 2516,
      "▁yıla": 2517,
      "##makt": 2518,
      "▁hukumetin": 2519,
      "▁genellikle": 2520,
      "▁kanaat": 2521,
      "▁noktaya": 2522,
      "##atıl": 2523,
      "##ısız": 2524,
      "##bas": 2525,
      "▁arabayı": 2526,
      "▁salon": 2527,
      "##das": 2528,
      "##andan": 2529,
      "##oloji": 2530,
      "##aduf": 2531,
      "▁danıs": 2532,
      "▁mim": 2533,
      "▁gaf": 2534,
      "▁tari": 2535,
      "▁doktora": 2536,
      "▁ob": 2537,
      "##kur": 2538,
      "▁dısisleri": 2539,
      "▁acıgı": 2540,
      "▁kurumu": 2541,
      "##isinde": 2542,
      "▁malzeme": 2543,
      "▁yastık": 2544,
      "##lendirmek": 2545,
      "▁sark": 2546,
      "##agım": 2547,
      "▁w": 2548,
      "▁ikna": 2549,
      "▁servisi": 2550,
      "##imden": 2551,
      "##arası": 2552,
      "##gınlık": 2553,
      "▁katılım": 2554,
      "▁nakit": 2555,
      "▁patr": 2556,
      "##elemek": 2557,
      "▁secenek": 2558,
      "▁der": 2559,
      "▁taht": 2560,
      "▁ayn": 2561,
      "##menin": 2562,
      "▁dedi": 2563,
      "▁enerj": 2564,
      "##'ne": 2565,
      "▁ticareti": 2566,
      "##lup": 2567,
      "▁getir": 2568,
      "▁konusu": 2569,
      "##cısı": 2570,
      "▁fikir": 2571,
      "▁berab": 2572,
      "##iligin": 2573,
      "▁halka": 2574,
      "▁musteri": 2575,
      "##det": 2576,
      "##enleri": 2577,
      ";": 2578,
      "▁de": 2579,
      "##lig": 2580,
      "▁bası": 2581,
      "▁harcama": 2582,
      "##maları": 2583,
      "▁kulag": 2584,
      "##od": 2585,
      "▁fiyatlarını": 2586,
      "▁?..": 2587,
      "▁verg": 2588,
      "▁birbir": 2589,
      "▁cennet": 2590,
      "##adı": 2591,
      "▁196": 2592,
      "▁gizli": 2593,
      "##imi": 2594,
      "▁18": 2595,
      "▁duny": 2596,
      "▁felsefe": 2597,
      "##suz": 2598,
      "▁ederiz": 2599,
      "▁kalemi": 2600,
      "##e": 2601,
      "▁bugune": 2602,
      "▁terz": 2603,
      "▁esy": 2604,
      "▁ardında": 2605,
      "▁ekmegi": 2606,
      "▁ka": 2607,
      "▁yemegin": 2608,
      "▁muhasebe": 2609,
      "▁doları'na": 2610,
      "▁tarafını": 2611,
      "▁ittifak": 2612,
      "▁yog": 2613,
      "▁beni": 2614,
      "▁sist": 2615,
      "▁veril": 2616,
      "▁imaj": 2617,
      "▁cicek": 2618,
      "▁amer": 2619,
      "▁eli": 2620,
      "##andı": 2621,
      "▁ceb": 2622,
      "▁agız": 2623,
      "▁pazarı": 2624,
      "▁ula": 2625,
      "##ladık": 2626,
      "##diginde": 2627,
      "▁dogr": 2628,
      "▁kit": 2629,
      "▁hes": 2630,
      "▁acıklama": 2631,
      "##il": 2632,
      "##ekler": 2633,
      "▁japon": 2634,
      "▁uzere": 2635,
      "##.ceyr": 2636,
      "##nuz": 2637,
      "##'i": 2638,
      "▁malzem": 2639,
      "▁hemen": 2640,
      "▁kamu": 2641,
      "▁mola": 2642,
      "▁one": 2643,
      "##5'e": 2644,
      "##ede": 2645,
      "▁rot": 2646,
      "▁bic": 2647,
      "▁argum": 2648,
      "▁vurdu": 2649,
      "▁adeta": 2650,
      "▁bolumu": 2651,
      "##ili": 2652,
      "▁vadeli": 2653,
      "▁sur": 2654,
      "▁oranla": 2655,
      "##do": 2656,
      "▁sip": 2657,
      "▁leble": 2658,
      "##emis": 2659,
      "▁bizim": 2660,
      "▁yargı": 2661,
      "▁sahit": 2662,
      "▁banyosu": 2663,
      "▁koca": 2664,
      "▁olanaklari": 2665,
      "▁cesidi": 2666,
      "▁okullar": 2667,
      "▁ust": 2668,
      "▁insanların": 2669,
      "▁ruz": 2670,
      "##ması": 2671,
      "▁rad": 2672,
      "p": 2673,
      "▁gazet": 2674,
      "▁baslarına": 2675,
      "##enk": 2676,
      "##ıltı": 2677,
      "##larına": 2678,
      "▁sosyal": 2679,
      "▁miras": 2680,
      "▁osman": 2681,
      "▁konfor": 2682,
      "▁dusus": 2683,
      "▁derecede": 2684,
      "▁olgu": 2685,
      "▁talebi": 2686,
      "▁bunları": 2687,
      "▁halkın": 2688,
      "##lerim": 2689,
      "▁bundan": 2690,
      "▁otomobiller": 2691,
      "▁istis": 2692,
      "▁cıkıyor": 2693,
      "##siy": 2694,
      "▁dili": 2695,
      "##‘": 2696,
      "▁tamamı": 2697,
      "▁redd": 2698,
      "##eland": 2699,
      "▁insaat": 2700,
      "▁corp.": 2701,
      "▁yapının": 2702,
      "▁siyas": 2703,
      "##larla": 2704,
      "##ait": 2705,
      "▁saat": 2706,
      "▁cay": 2707,
      "##yiz": 2708,
      "▁yolları": 2709,
      "▁herkesi": 2710,
      "▁kollarını": 2711,
      "##eyi": 2712,
      "##nc": 2713,
      "##ogu": 2714,
      "▁pla": 2715,
      "▁agırlık": 2716,
      "##unku": 2717,
      "▁istatist": 2718,
      "▁leh": 2719,
      "##ikt": 2720,
      "##acılık": 2721,
      "▁patlıc": 2722,
      "##lıktan": 2723,
      "##9": 2724,
      "▁post": 2725,
      "##yum": 2726,
      "##iligi": 2727,
      "▁hab": 2728,
      "▁itibaren": 2729,
      "▁chicag": 2730,
      "▁endust": 2731,
      "▁evin": 2732,
      "▁gi": 2733,
      "##ere": 2734,
      "▁mer": 2735,
      "##lıkları": 2736,
      "▁yarısı": 2737,
      "▁hesap": 2738,
      "▁yılından": 2739,
      "##masız": 2740,
      "##tı": 2741,
      "▁muhtar": 2742,
      "▁tutam": 2743,
      "▁ifade": 2744,
      "▁fit": 2745,
      "▁ask": 2746,
      "▁gecmiste": 2747,
      "▁piyasaları": 2748,
      "▁mevdu": 2749,
      "▁kale": 2750,
      "▁mektu": 2751,
      "▁polit": 2752,
      "▁kategor": 2753,
      "▁gordum": 2754,
      "▁semp": 2755,
      "▁kır": 2756,
      "▁id": 2757,
      "▁yılı": 2758,
      "##vil": 2759,
      "▁hatt": 2760,
      "##'s": 2761,
      "▁..": 2762,
      "▁siparis": 2763,
      "▁bahseder": 2764,
      "##ılıgını": 2765,
      "##oy": 2766,
      "▁hadis": 2767,
      "▁sogan": 2768,
      "▁%1": 2769,
      "▁milyondan": 2770,
      "▁suk": 2771,
      "▁merkezinde": 2772,
      "##jik": 2773,
      "▁kan": 2774,
      "▁muhar": 2775,
      "▁yatırım": 2776,
      "▁biliyor": 2777,
      "▁fırtına": 2778,
      "▁topluma": 2779,
      "▁planları": 2780,
      "▁sada": 2781,
      "▁kam": 2782,
      "▁karsıma": 2783,
      "▁eliyle": 2784,
      "▁kaf": 2785,
      "▁havaal": 2786,
      "▁kitap": 2787,
      "##miyordu": 2788,
      "##9'a": 2789,
      "▁yakin": 2790,
      "▁ail": 2791,
      "##ıklık": 2792,
      "▁endustrisi": 2793,
      "▁kop": 2794,
      "▁bostan": 2795,
      "▁meclis": 2796,
      "▁yaka": 2797,
      "▁ordu": 2798,
      "▁nisan": 2799,
      "▁lun": 2800,
      "▁paraları": 2801,
      "▁kavga": 2802,
      "▁tecru": 2803,
      "▁isyan": 2804,
      "▁prosedur": 2805,
      "▁ismi": 2806,
      "▁hisse": 2807,
      "##ims": 2808,
      "▁pencer": 2809,
      "##'nden": 2810,
      "##ont": 2811,
      "▁duzeni": 2812,
      "##dugunde": 2813,
      "▁seyirci": 2814,
      "▁senato": 2815,
      "▁francisco'ya": 2816,
      "▁aj": 2817,
      "▁nine": 2818,
      "▁kotu": 2819,
      "▁dil": 2820,
      "▁kurtul": 2821,
      "##sur": 2822,
      "##lilig": 2823,
      "##arak": 2824,
      "##ume": 2825,
      "▁guzeldi": 2826,
      "##aca": 2827,
      "▁kaynagı": 2828,
      "▁geldigini": 2829,
      "▁adamın": 2830,
      "▁sadece": 2831,
      "▁hek": 2832,
      "▁gercekten": 2833,
      "▁boston'dan": 2834,
      "▁prenses": 2835,
      "▁balkon": 2836,
      "▁politika": 2837,
      "▁gayr": 2838,
      "▁istem": 2839,
      "▁cogu": 2840,
      "▁cocukların": 2841,
      "##dip": 2842,
      "##uz": 2843,
      "▁yukum": 2844,
      "##ake": 2845,
      "##al": 2846,
      "▁muht": 2847,
      "##ane": 2848,
      "▁muddet": 2849,
      "##aj": 2850,
      "▁gozu": 2851,
      "▁risk": 2852,
      "▁hedef": 2853,
      "▁sehrine": 2854,
      "▁tab": 2855,
      "▁lez": 2856,
      "##acı": 2857,
      "▁gezi": 2858,
      "▁kusk": 2859,
      "##lanıyor": 2860,
      "##mızı": 2861,
      "▁nam": 2862,
      "▁onlar": 2863,
      "▁rezerve": 2864,
      "▁arastır": 2865,
      "▁zaf": 2866,
      "▁istih": 2867,
      "▁tablo": 2868,
      "▁gayrimen": 2869,
      "▁mallar": 2870,
      "▁issizlik": 2871,
      "##eledi": 2872,
      "▁univers": 2873,
      "##isim": 2874,
      "▁adet": 2875,
      "▁boncuk": 2876,
      "▁ondan": 2877,
      "▁kapattı": 2878,
      "▁ko": 2879,
      "▁hamal": 2880,
      "▁dun": 2881,
      "▁beklenti": 2882,
      "▁dogasi": 2883,
      "▁bulur": 2884,
      "##irip": 2885,
      "▁kolunu": 2886,
      "▁tahminlerinin": 2887,
      "##usundan": 2888,
      "▁irade": 2889,
      "##igine": 2890,
      "▁yaz": 2891,
      "▁genel": 2892,
      "▁kalmadı": 2893,
      "▁tedavi": 2894,
      "##lav": 2895,
      "▁hay": 2896,
      "▁ciftlik": 2897,
      "▁ayında": 2898,
      "▁philadelphia": 2899,
      "▁planın": 2900,
      "▁kapasit": 2901,
      "▁ofk": 2902,
      "▁herhangi": 2903,
      "▁milyardan": 2904,
      "▁a": 2905,
      "▁bat": 2906,
      "##etini": 2907,
      "##let": 2908,
      "▁ucretini": 2909,
      "##eyn": 2910,
      "▁durumda": 2911,
      "▁katkıda": 2912,
      "▁babama": 2913,
      "##ogram": 2914,
      "▁gorunuse": 2915,
      "##ıklıgı": 2916,
      "▁tuhaf": 2917,
      "▁ev": 2918,
      "▁set": 2919,
      "##onra": 2920,
      "ı": 2921,
      "▁salonu": 2922,
      "▁havlular": 2923,
      "##eket": 2924,
      "▁amacıyla": 2925,
      "▁kuzu": 2926,
      "##ımda": 2927,
      "▁istedig": 2928,
      "▁alıs": 2929,
      "▁adamı": 2930,
      "▁intik": 2931,
      "##erh": 2932,
      "##ska": 2933,
      "▁hissesi": 2934,
      "▁acıga": 2935,
      "▁uzeri": 2936,
      "▁kampanya": 2937,
      "▁hizmetleri": 2938,
      "▁tep": 2939,
      "▁otob": 2940,
      "▁yetkililerine": 2941,
      "▁yetkilileri": 2942,
      "▁cesitlilik": 2943,
      "##mada": 2944,
      "##lsun": 2945,
      "▁erik": 2946,
      "▁send": 2947,
      "##zet": 2948,
      "##ıgının": 2949,
      "▁gozunu": 2950,
      "▁tanrı": 2951,
      "▁trans": 2952,
      "▁dondur": 2953,
      "▁seyleri": 2954,
      "##erken": 2955,
      "▁mah": 2956,
      "▁ihr": 2957,
      "▁limon": 2958,
      "##elerinin": 2959,
      "▁sahtek": 2960,
      "▁0.": 2961,
      "▁ni": 2962,
      "▁kansas": 2963,
      "▁deneyim": 2964,
      "▁uyan": 2965,
      "▁rezervasyonu": 2966,
      "▁ederim": 2967,
      "▁anlattı": 2968,
      "▁hac": 2969,
      "▁olamaz": 2970,
      "▁gelisme": 2971,
      "##attı": 2972,
      "▁bagıs": 2973,
      "▁okulda": 2974,
      "▁gecik": 2975,
      "##ugum": 2976,
      "▁fiyatını": 2977,
      "▁durak": 2978,
      "▁basladılar": 2979,
      "##ının": 2980,
      "▁mahkem": 2981,
      "##dug": 2982,
      "▁yapan": 2983,
      "▁kumandan": 2984,
      "▁uzerine": 2985,
      "▁kampanyalar": 2986,
      "▁uyum": 2987,
      "▁aklına": 2988,
      "▁badem": 2989,
      "▁kus": 2990,
      "##ektedir": 2991,
      "##masın": 2992,
      "▁tarife": 2993,
      "▁az": 2994,
      "▁ikisi": 2995,
      "##izma": 2996,
      "▁golg": 2997,
      "▁kalır": 2998,
      "##cının": 2999,
      "##tmek": 3000,
      "▁senetleri": 3001,
      "##adem": 3002,
      "▁cumhur": 3003,
      "▁giz": 3004,
      "▁degisiklikleri": 3005,
      "▁sizi": 3006,
      "▁yolu": 3007,
      "##ıcılar": 3008,
      "##'u": 3009,
      "▁dergi": 3010,
      "▁oda": 3011,
      "▁saatlerinde": 3012,
      "▁inanc": 3013,
      "##ade": 3014,
      "##ut": 3015,
      "▁tesisti": 3016,
      "▁cık": 3017,
      "##uyle": 3018,
      "▁siv": 3019,
      "▁gures": 3020,
      "▁subat": 3021,
      "##gır": 3022,
      "▁ad": 3023,
      "##suzluk": 3024,
      "▁soylemek": 3025,
      "##lerce": 3026,
      "▁.": 3027,
      "##tem": 3028,
      "##emiz": 3029,
      "##eldi": 3030,
      "##mekte": 3031,
      "##layan": 3032,
      "▁zincir": 3033,
      "▁ucretler": 3034,
      "##8": 3035,
      "▁asır": 3036,
      "▁yuze": 3037,
      "▁katk": 3038,
      "▁reklamlar": 3039,
      "##azla": 3040,
      "▁acısından": 3041,
      "▁evler": 3042,
      "9": 3043,
      "▁odasi": 3044,
      "▁kurum": 3045,
      "▁kalıb": 3046,
      "##it": 3047,
      "##igin": 3048,
      "##ısından": 3049,
      "▁milyon": 3050,
      "▁genis": 3051,
      "##tır": 3052,
      "▁bom": 3053,
      "▁gunlerde": 3054,
      "▁odemeleri": 3055,
      "▁ken": 3056,
      "▁rekor": 3057,
      "▁kor": 3058,
      "▁guven": 3059,
      "##bir": 3060,
      "▁rom": 3061,
      "##aat": 3062,
      "▁kisiler": 3063,
      "##ibe": 3064,
      "▁dagın": 3065,
      "▁iliskin": 3066,
      "▁taleb": 3067,
      "▁birim": 3068,
      "##.3": 3069,
      "▁aksama": 3070,
      "▁olayın": 3071,
      "▁oyunun": 3072,
      "##ese": 3073,
      "▁satıslar": 3074,
      "##lıklı": 3075,
      "▁niyet": 3076,
      "▁hasta": 3077,
      "##erler": 3078,
      "##ami": 3079,
      "▁birta": 3080,
      "▁sesi": 3081,
      "▁yeri": 3082,
      "▁aram": 3083,
      "##lant": 3084,
      "##leye": 3085,
      "▁yoluna": 3086,
      "##ekul": 3087,
      "▁avantaj": 3088,
      "▁cesitler": 3089,
      "##oroz": 3090,
      "▁madde": 3091,
      "▁parasını": 3092,
      "##00'den": 3093,
      "▁isinin": 3094,
      "▁cocugun": 3095,
      "▁bilg": 3096,
      "%": 3097,
      "▁duygusu": 3098,
      "▁motiv": 3099,
      "▁sınırları": 3100,
      "##si": 3101,
      "▁cesaret": 3102,
      "▁imalat": 3103,
      "▁temer": 3104,
      "▁komp": 3105,
      "▁sogut": 3106,
      "▁kadının": 3107,
      "▁k": 3108,
      "##ıtma": 3109,
      "▁girer": 3110,
      "▁gununu": 3111,
      "##anoz": 3112,
      "▁versiyon": 3113,
      "▁kurallar": 3114,
      "##sınız": 3115,
      "▁erkekler": 3116,
      "▁sob": 3117,
      "▁kitab": 3118,
      "▁bahcede": 3119,
      "##bet": 3120,
      "▁ekibi": 3121,
      "▁co": 3122,
      "w": 3123,
      "▁soyle": 3124,
      "▁lek": 3125,
      "▁yaklasım": 3126,
      "▁cograf": 3127,
      "▁fren": 3128,
      "▁yat": 3129,
      "##la": 3130,
      "##denin": 3131,
      "▁ogle": 3132,
      "##anı": 3133,
      "▁cag": 3134,
      "▁pas": 3135,
      "▁serisi": 3136,
      "▁guzelligi": 3137,
      "▁denizde": 3138,
      "▁parlam": 3139,
      "▁terk": 3140,
      "▁rev": 3141,
      "▁kanı": 3142,
      "▁deh": 3143,
      "▁arasına": 3144,
      "▁dusunceler": 3145,
      "##ga": 3146,
      "▁tenek": 3147,
      "▁sırtına": 3148,
      "▁kalabalık": 3149,
      "▁ren": 3150,
      "▁onları": 3151,
      "▁otede": 3152,
      "##meleri": 3153,
      "▁str": 3154,
      "▁esi": 3155,
      "##mar": 3156,
      "▁beyaz": 3157,
      "▁tiyatr": 3158,
      "▁sorunları": 3159,
      "##iyat": 3160,
      "=": 3161,
      "▁sesiyle": 3162,
      "▁siyaset": 3163,
      "##arın": 3164,
      "▁gelirler": 3165,
      "▁yal": 3166,
      "▁def": 3167,
      "▁tanıs": 3168,
      "▁al": 3169,
      "##imleri": 3170,
      "▁ozelligi": 3171,
      "▁milletvek": 3172,
      "▁babam": 3173,
      "▁ettig": 3174,
      "▁tehlik": 3175,
      "##ekkur": 3176,
      "▁iddia": 3177,
      "##lın": 3178,
      "▁cic": 3179,
      "▁kl": 3180,
      "▁sahiptir": 3181,
      "▁felaket": 3182,
      "[UNK]": 3183,
      "▁luz": 3184,
      "▁deneme": 3185,
      "▁otel": 3186,
      "▁1988'de": 3187,
      "▁tiyatro": 3188,
      "##atist": 3189,
      "##lasma": 3190,
      "▁sus": 3191,
      "▁hik": 3192,
      "▁hediy": 3193,
      "▁vur": 3194,
      "▁olustur": 3195,
      "▁planını": 3196,
      "▁ihtir": 3197,
      "##av": 3198,
      "▁havayollarının": 3199,
      "▁eden": 3200,
      "##0'da": 3201,
      "▁oteller": 3202,
      "▁surat": 3203,
      "▁guvenlik": 3204,
      "##di": 3205,
      "##.ceyrek": 3206,
      "▁meyv": 3207,
      "##iya": 3208,
      "▁vadede": 3209,
      "▁beyle": 3210,
      "▁yorum": 3211,
      "▁yere": 3212,
      "▁bankanın": 3213,
      "▁10": 3214,
      "##osuna": 3215,
      "▁hisseleri": 3216,
      "▁1": 3217,
      "##endir": 3218,
      "▁keyif": 3219,
      "##yip": 3220,
      "▁onunde": 3221,
      "▁mesele": 3222,
      "▁fikr": 3223,
      "▁maliye": 3224,
      "▁gorun": 3225,
      "▁ki": 3226,
      "▁celik": 3227,
      "▁tul": 3228,
      "▁veya": 3229,
      "##estirdi": 3230,
      "▁yoksul": 3231,
      "▁islerin": 3232,
      "▁durumdan": 3233,
      "▁ilave": 3234,
      "▁sehr": 3235,
      "▁gereken": 3236,
      "▁fatura": 3237,
      "▁lezzetliydi": 3238,
      "▁vergisi": 3239,
      "▁yasındaki": 3240,
      "##lılıgını": 3241,
      "▁kıs": 3242,
      "##usa": 3243,
      "▁tarif": 3244,
      "##ımları": 3245,
      "▁kontrol": 3246,
      "▁dısarı": 3247,
      "▁basım": 3248,
      "▁yara": 3249,
      "▁zem": 3250,
      "▁cesitliligi": 3251,
      "▁yeteri": 3252,
      "##ayan": 3253,
      "##arılı": 3254,
      "▁kalıyor": 3255,
      "##ısına": 3256,
      "▁past": 3257,
      "▁tic": 3258,
      "▁hoca": 3259,
      "▁stud": 3260,
      "▁)": 3261,
      "▁ade": 3262,
      "##egini": 3263,
      "▁hayret": 3264,
      "▁bilgiler": 3265,
      "##baz": 3266,
      "`": 3267,
      "b": 3268,
      "▁tıp": 3269,
      "▁agab": 3270,
      "▁gozlerini": 3271,
      "##lıların": 3272,
      "##uki": 3273,
      "▁oturdu": 3274,
      "##cılıgın": 3275,
      "▁tamamen": 3276,
      "▁yoneticileri": 3277,
      "▁mayıs": 3278,
      "▁hata": 3279,
      "▁alet": 3280,
      "▁dern": 3281,
      "##ell": 3282,
      "▁isc": 3283,
      "▁haftada": 3284,
      "##eksiyon": 3285,
      "▁14": 3286,
      "##acıların": 3287,
      "▁kaydetti": 3288,
      "▁cemiyet": 3289,
      "▁islet": 3290,
      "▁oneri": 3291,
      "▁hakları": 3292,
      "▁olmakla": 3293,
      "▁mahkum": 3294,
      "▁test": 3295,
      "▁spor": 3296,
      "##ılıgında": 3297,
      "▁heps": 3298,
      "▁plastik": 3299,
      "▁acmak": 3300,
      "▁kendim": 3301,
      "▁konular": 3302,
      "##rarak": 3303,
      "▁baslarını": 3304,
      "▁tipi": 3305,
      "▁dallas'tan": 3306,
      "▁kosul": 3307,
      "▁seyler": 3308,
      "##mel": 3309,
      "▁birik": 3310,
      "##lerimi": 3311,
      "##ma": 3312,
      "▁gurultu": 3313,
      "▁soylem": 3314,
      "▁sirketlerinin": 3315,
      "##altı": 3316,
      "▁ayagı": 3317,
      "▁yuzden": 3318,
      "▁mahkeme": 3319,
      "▁tiyatrosu": 3320,
      "##amıs": 3321,
      "##vel": 3322,
      "▁ulasılamadı": 3323,
      "▁anal": 3324,
      "##mos": 3325,
      "▁ediyorum": 3326,
      "▁yerleri": 3327,
      "▁duygularını": 3328,
      "▁aldıgı": 3329,
      "##agın": 3330,
      "##yse": 3331,
      "▁sinema": 3332,
      "▁tuccar": 3333,
      "▁mily": 3334,
      "##_": 3335,
      "##izin": 3336,
      "▁corb": 3337,
      "▁fedakar": 3338,
      "▁armag": 3339,
      "▁haft": 3340,
      "▁bıcak": 3341,
      "▁bizimle": 3342,
      "▁yemekleri": 3343,
      "▁arkad": 3344,
      "▁emniyet": 3345,
      "##impiyat": 3346,
      "##ima": 3347,
      "##ırlar": 3348,
      "▁hızı": 3349,
      "▁temyiz": 3350,
      "▁isinden": 3351,
      "▁dukkanı": 3352,
      "▁ikide": 3353,
      "##sek": 3354,
      "▁enstit": 3355,
      "▁artarak": 3356,
      "▁fırt": 3357,
      "▁26": 3358,
      "##ve": 3359,
      "##ecegine": 3360,
      "##itesi": 3361,
      "▁bahsederim": 3362,
      "▁baltimore'ye": 3363,
      "##igi": 3364,
      "##cı": 3365,
      "▁isp": 3366,
      "▁sekil": 3367,
      "▁karsısında": 3368,
      "▁sent": 3369,
      "▁dusunce": 3370,
      "▁mac": 3371,
      "##biy": 3372,
      "##anlar": 3373,
      "▁esit": 3374,
      "▁soyler": 3375,
      "▁ozur": 3376,
      "##iyeti": 3377,
      "▁yollarda": 3378,
      "▁ahır": 3379,
      "▁proje": 3380,
      "##.9": 3381,
      "▁arasındaki": 3382,
      "▁azından": 3383,
      "▁hizmet": 3384,
      "▁sıc": 3385,
      "▁mada": 3386,
      "##tık": 3387,
      "▁evde": 3388,
      "▁kuf": 3389,
      "▁mali": 3390,
      "##anları": 3391,
      "▁aga": 3392,
      "##enc": 3393,
      "▁uyelerinin": 3394,
      "##sen": 3395,
      "##tur": 3396,
      "▁psik": 3397,
      "▁ufak": 3398,
      "▁okur": 3399,
      "▁ogrenc": 3400,
      "▁analizciler": 3401,
      "##uzları": 3402,
      "▁gonlum": 3403,
      "▁anlat": 3404,
      "▁onların": 3405,
      "▁analistlerin": 3406,
      "##urk": 3407,
      "▁tasarısı": 3408,
      "▁tır": 3409,
      "▁davranıs": 3410,
      "▁takv": 3411,
      "▁--": 3412,
      "▁hakem": 3413,
      "##inin": 3414,
      "▁ucusta": 3415,
      "##eciler": 3416,
      "▁tuz": 3417,
      "▁cocuga": 3418,
      "▁menf": 3419,
      "▁planlamam": 3420,
      "▁takdirde": 3421,
      "▁hizmeti": 3422,
      "▁50": 3423,
      "##mul": 3424,
      "▁gazeteci": 3425,
      "▁faaliyet": 3426,
      "▁siyah": 3427,
      "▁kadınların": 3428,
      "▁ilgilendi": 3429,
      "▁dc": 3430,
      "▁cav": 3431,
      "▁yakinlar": 3432,
      "▁city": 3433,
      "##iss": 3434,
      "▁enf": 3435,
      "▁bunlar": 3436,
      "▁cıl": 3437,
      "▁25": 3438,
      "##ington": 3439,
      "▁ilham": 3440,
      "##dol": 3441,
      "▁fiyatina": 3442,
      "##ebil": 3443,
      "▁tesekkurler": 3444,
      "##leyiciler": 3445,
      "##irleri": 3446,
      "▁plat": 3447,
      "▁deger": 3448,
      "▁tepeden": 3449,
      "▁saye": 3450,
      "##kları": 3451,
      "▁etmis": 3452,
      "▁farklılık": 3453,
      "▁hazin": 3454,
      "##mli": 3455,
      "▁cog": 3456,
      "▁ali": 3457,
      "▁kredi": 3458,
      "##uzluydu": 3459,
      "▁pat": 3460,
      "▁etkisi": 3461,
      "▁tekne": 3462,
      "▁muz": 3463,
      "▁tesisi": 3464,
      "▁bicimi": 3465,
      "▁capında": 3466,
      "▁yonelik": 3467,
      "▁ısı": 3468,
      "▁cevr": 3469,
      "▁fakir": 3470,
      "▁odası": 3471,
      "##anmıs": 3472,
      "▁bekle": 3473,
      "##isini": 3474,
      "▁ener": 3475,
      "##etin": 3476,
      "##.": 3477,
      "##\\": 3478,
      "▁hayatın": 3479,
      "##eo": 3480,
      "▁tamir": 3481,
      "##erans": 3482,
      "▁uzmanlar": 3483,
      "▁oran": 3484,
      "▁sorular": 3485,
      "##alt": 3486,
      "▁edebil": 3487,
      "▁tuketici": 3488,
      "▁havayı": 3489,
      "▁alanda": 3490,
      "##osunu": 3491,
      "##bası": 3492,
      "##mad": 3493,
      "##erik": 3494,
      "▁ortalam": 3495,
      "##ian": 3496,
      "▁arabaya": 3497,
      "▁yanına": 3498,
      "##ou": 3499,
      "▁listeleyin": 3500,
      "##eden": 3501,
      "##irler": 3502,
      "▁lakin": 3503,
      "▁lak": 3504,
      "##ini": 3505,
      "▁yatırımcıların": 3506,
      "▁telef": 3507,
      "▁coc": 3508,
      "▁defter": 3509,
      "▁akrab": 3510,
      "▁universit": 3511,
      "▁ayı": 3512,
      "▁yapılacak": 3513,
      "##allı": 3514,
      "##ıyorum": 3515,
      "▁mahkemede": 3516,
      "▁aynı": 3517,
      "▁efendi": 3518,
      "▁ai": 3519,
      "##lantı": 3520,
      "▁men": 3521,
      "▁yaklas": 3522,
      "##esine": 3523,
      "▁teseb": 3524,
      "▁ingil": 3525,
      "▁tarihin": 3526,
      "▁kat": 3527,
      "▁kendisini": 3528,
      "▁yeme": 3529,
      "▁sek": 3530,
      "##ukee": 3531,
      "▁devri": 3532,
      "▁fir": 3533,
      "▁gorunum": 3534,
      "##ukluk": 3535,
      "▁burokrat": 3536,
      "▁yur": 3537,
      "▁duzeyde": 3538,
      "▁olmaz": 3539,
      "##tla": 3540,
      "▁bug": 3541,
      "▁senaryo": 3542,
      "##mıstır": 3543,
      "▁arz": 3544,
      "##acag": 3545,
      "▁gul": 3546,
      "▁pitts": 3547,
      "▁ch": 3548,
      "##osyon": 3549,
      "▁tarihi": 3550,
      "##yız": 3551,
      "▁can": 3552,
      "▁aksamı": 3553,
      "▁etmeye": 3554,
      "▁begenmedim": 3555,
      "▁piy": 3556,
      "▁bakalım": 3557,
      "▁yatak": 3558,
      "▁olas": 3559,
      "▁gunler": 3560,
      "▁sozunu": 3561,
      "▁kendiler": 3562,
      "▁yapmaktan": 3563,
      "##lisi": 3564,
      "▁edebilir": 3565,
      "▁kisileri": 3566,
      "##isindan": 3567,
      "##liginde": 3568,
      "▁5'ten": 3569,
      "▁komplek": 3570,
      "▁akl": 3571,
      "▁esv": 3572,
      "▁ucte": 3573,
      "▁anlamıyla": 3574,
      "▁yaptır": 3575,
      "▁internet": 3576,
      "▁temizligi": 3577,
      "▁market": 3578,
      "▁kom": 3579,
      "▁elimden": 3580,
      "▁haberler": 3581,
      "##du": 3582,
      "▁bekledi": 3583,
      "##muyordu": 3584,
      "▁zil": 3585,
      "▁opsiyon": 3586,
      "##uc": 3587,
      "▁borsası": 3588,
      "▁pol": 3589,
      "##kah": 3590,
      "▁medya": 3591,
      "▁cezası": 3592,
      "▁mil": 3593,
      "▁falan": 3594,
      "▁yetki": 3595,
      "▁nere": 3596,
      "##aret": 3597,
      "▁sekl": 3598,
      "▁evlerin": 3599,
      "▁sub": 3600,
      "▁kork": 3601,
      "▁yayın": 3602,
      "▁gercekles": 3603,
      "▁yuzey": 3604,
      "##cıları": 3605,
      "▁parc": 3606,
      "▁zeytiny": 3607,
      "##ısın": 3608,
      "▁hosg": 3609,
      "▁gibi": 3610,
      "▁sirketler": 3611,
      "##ılım": 3612,
      "▁balık": 3613,
      "##ank": 3614,
      "▁birdenbire": 3615,
      "▁fıs": 3616,
      "▁hedefi": 3617,
      "▁milletvekili": 3618,
      "▁heyec": 3619,
      "##larımın": 3620,
      "▁gurult": 3621,
      "▁sikint": 3622,
      "▁rica": 3623,
      "▁onlara": 3624,
      "▁analistler": 3625,
      "##ırdı": 3626,
      "▁cevap": 3627,
      "▁istedim": 3628,
      "▁meger": 3629,
      "▁sokakta": 3630,
      "##amba": 3631,
      "##uler": 3632,
      "##mamıs": 3633,
      "##ahi": 3634,
      "▁kimseyi": 3635,
      "▁durdur": 3636,
      "▁tahk": 3637,
      "▁ruzg": 3638,
      "▁ızdır": 3639,
      "▁komitesi": 3640,
      "##alle": 3641,
      "▁televizyon": 3642,
      "##ileri": 3643,
      "##usu": 3644,
      "▁yonunde": 3645,
      "▁tef": 3646,
      "▁hacmi": 3647,
      "▁yatırımcının": 3648,
      "▁yani": 3649,
      "##itli": 3650,
      "▁laborat": 3651,
      "▁bakıs": 3652,
      "▁garanti": 3653,
      "##madıgını": 3654,
      "##kili": 3655,
      "▁gitmeyi": 3656,
      "▁dortluk": 3657,
      "▁boru": 3658,
      "▁sof": 3659,
      "##les": 3660,
      "▁yılının": 3661,
      "▁ez": 3662,
      "▁hazine": 3663,
      "▁olanak": 3664,
      "▁had": 3665,
      "–": 3666,
      "▁olun": 3667,
      "▁aln": 3668,
      "▁reform": 3669,
      "▁noktada": 3670,
      "▁mus": 3671,
      "▁bulun": 3672,
      "##ısma": 3673,
      "▁ortaklık": 3674,
      "▁vali": 3675,
      "##dugum": 3676,
      "▁dest": 3677,
      "##teri": 3678,
      "▁devralma": 3679,
      "▁canlı": 3680,
      "▁duygular": 3681,
      "▁yabancı": 3682,
      "▁hakim": 3683,
      "##ınızda": 3684,
      "▁tram": 3685,
      "##aya": 3686,
      "▁otek": 3687,
      "▁cizgi": 3688,
      "▁hur": 3689,
      "▁istifade": 3690,
      "▁ekonomisi": 3691,
      "##mi": 3692,
      "▁ilav": 3693,
      "▁calısanlar": 3694,
      "##adır": 3695,
      "▁hayır": 3696,
      "▁havaalanı'ndan": 3697,
      "▁baskent": 3698,
      "▁vatan": 3699,
      "##lak": 3700,
      "▁nasıl": 3701,
      "▁bebek": 3702,
      "▁durumu": 3703,
      "▁jandar": 3704,
      "▁cel": 3705,
      "▁karı": 3706,
      "##ach": 3707,
      "▁li": 3708,
      "##cok": 3709,
      "▁basıma": 3710,
      "▁mevz": 3711,
      "##odu": 3712,
      "▁halbuki": 3713,
      "##uru": 3714,
      "▁kuz": 3715,
      "▁parti": 3716,
      "▁serin": 3717,
      "##uguna": 3718,
      "▁kuc": 3719,
      "▁bulus": 3720,
      "▁hizmete": 3721,
      "▁turn": 3722,
      "▁asırı": 3723,
      "▁pet": 3724,
      "▁!..": 3725,
      "▁tatlı": 3726,
      "▁idar": 3727,
      "▁hayv": 3728,
      "▁halef": 3729,
      "▁konu": 3730,
      "▁baslangıc": 3731,
      "▁gelecekte": 3732,
      "##ydı": 3733,
      "▁dolayi": 3734,
      "##indeki": 3735,
      "▁arama": 3736,
      "▁dogru": 3737,
      "##ınır": 3738,
      "##tti": 3739,
      "##gru": 3740,
      "▁sezon": 3741,
      "▁havaalanı'nda": 3742,
      "▁ilan": 3743,
      "▁tasavv": 3744,
      "▁ası": 3745,
      "##!": 3746,
      "▁yirmi": 3747,
      "##eginden": 3748,
      "▁alıskan": 3749,
      "##lamalar": 3750,
      "▁hatun": 3751,
      "##afet": 3752,
      "▁ucaga": 3753,
      "##uydu": 3754,
      "##etleri": 3755,
      "▁ucagı": 3756,
      "▁kimseye": 3757,
      "▁ig": 3758,
      "▁kadını": 3759,
      "▁kalk": 3760,
      "$": 3761,
      "▁istek": 3762,
      "▁sayet": 3763,
      "▁guverte": 3764,
      "▁sular": 3765,
      "##ph": 3766,
      "##ardı": 3767,
      "▁kaybetti": 3768,
      "▁boyle": 3769,
      "▁yurut": 3770,
      "##da": 3771,
      "##samba": 3772,
      "▁yad": 3773,
      "▁planı": 3774,
      "▁carsamba": 3775,
      "▁yerlere": 3776,
      "##masının": 3777,
      "▁dedim": 3778,
      "▁city'e": 3779,
      "▁bakar": 3780,
      "▁mar": 3781,
      "▁dur": 3782,
      "##ulu": 3783,
      "▁mi": 3784,
      "▁ayakkabı": 3785,
      "▁zey": 3786,
      "▁bence": 3787,
      "##iledi": 3788,
      "##liyor": 3789,
      "\\": 3790,
      "▁zamana": 3791,
      "▁boston": 3792,
      "▁gib": 3793,
      "##elerle": 3794,
      "▁rap": 3795,
      "▁hol": 3796,
      "▁inek": 3797,
      "▁grup": 3798,
      "▁ucunu": 3799,
      "##a": 3800,
      "##sas": 3801,
      "##egine": 3802,
      "▁getirmek": 3803,
      "▁bel": 3804,
      "▁boy": 3805,
      "##ince": 3806,
      "r": 3807,
      "▁12'den": 3808,
      "##asından": 3809,
      "▁yont": 3810,
      "▁kendimi": 3811,
      "▁dısarıdan": 3812,
      "▁bilgilerini": 3813,
      "▁zayıf": 3814,
      "▁gelisim": 3815,
      "##tin": 3816,
      "▁anah": 3817,
      "▁yolcu": 3818,
      "▁yelpaz": 3819,
      "##adde": 3820,
      "##ly": 3821,
      "▁kacır": 3822,
      "▁ders": 3823,
      "##'e": 3824,
      "##beri": 3825,
      "##liler": 3826,
      "▁anne": 3827,
      "▁iht": 3828,
      "▁pisir": 3829,
      "▁bit": 3830,
      "##yar": 3831,
      "▁pus": 3832,
      "▁sırtını": 3833,
      "▁har": 3834,
      "▁teor": 3835,
      "▁kala": 3836,
      "##etti": 3837,
      "▁stokları": 3838,
      "▁yiyecek": 3839,
      "▁sanatcılar": 3840,
      "▁ciftciler": 3841,
      "▁veren": 3842,
      "▁delikan": 3843,
      "▁etkil": 3844,
      "▁teori": 3845,
      "▁on": 3846,
      "▁faiz": 3847,
      "##eral": 3848,
      "▁yerde": 3849,
      "▁fal": 3850,
      "▁basta": 3851,
      "▁doldur": 3852,
      "▁yes": 3853,
      "▁demek": 3854,
      "▁ihtimal": 3855,
      "▁gorevli": 3856,
      "▁fırsat": 3857,
      "▁golge": 3858,
      "▁olmadı": 3859,
      "##–": 3860,
      "▁vazgec": 3861,
      "▁tesisten": 3862,
      "▁cekir": 3863,
      "▁devrim": 3864,
      "▁nedenini": 3865,
      "##ıyorsun": 3866,
      "##alamak": 3867,
      "▁harc": 3868,
      "##liginden": 3869,
      "▁isimler": 3870,
      "##usuna": 3871,
      "▁sep": 3872,
      "##u": 3873,
      "▁cark": 3874,
      "▁katına": 3875,
      "▁nas": 3876,
      "▁ucusunun": 3877,
      "▁“": 3878,
      "▁yay": 3879,
      "▁an": 3880,
      "▁acıklanmadı": 3881,
      "▁elbet": 3882,
      "▁donemde": 3883,
      "▁hucr": 3884,
      "▁koyun": 3885,
      "▁vucudu": 3886,
      "▁a.": 3887,
      "▁bayrak": 3888,
      "▁aktiv": 3889,
      "▁yaklasık": 3890,
      "▁tazmin": 3891,
      "##lerinin": 3892,
      "▁urun": 3893,
      "▁bazen": 3894,
      "▁rop": 3895,
      "##9'da": 3896,
      "▁girdi": 3897,
      "##ho": 3898,
      "▁agzında": 3899,
      "▁erkegi": 3900,
      "##muz": 3901,
      "▁tarafına": 3902,
      "▁cesaretini": 3903,
      "▁koz": 3904,
      "▁defa": 3905,
      "▁beyefendi": 3906,
      "▁turb": 3907,
      ",": 3908,
      "▁bet": 3909,
      "##aliydi": 3910,
      "▁ekonom": 3911,
      "▁topr": 3912,
      "▁gulery": 3913,
      "▁finanse": 3914,
      "▁okumak": 3915,
      "##mac": 3916,
      "▁koku": 3917,
      "▁ekipman": 3918,
      "▁gar": 3919,
      "▁levh": 3920,
      "▁kullan": 3921,
      "▁manzara": 3922,
      "##ege": 3923,
      "▁sukur": 3924,
      "▁bilinc": 3925,
      "▁dagıt": 3926,
      "▁hattı": 3927,
      "##erdi": 3928,
      "▁hesabı": 3929,
      "▁silah": 3930,
      "##landıgını": 3931,
      "##atlı": 3932,
      "▁dizi": 3933,
      "▁herkesin": 3934,
      "▁kuyu": 3935,
      "▁kıy": 3936,
      "##uluyor": 3937,
      "▁ihtiy": 3938,
      "▁telefonu": 3939,
      "▁rehberimiz": 3940,
      "##abileceg": 3941,
      "##nam": 3942,
      "##ırak": 3943,
      "▁uzat": 3944,
      "##dev": 3945,
      "▁anlasmaya": 3946,
      "▁mut": 3947,
      "##%": 3948,
      "▁ustune": 3949,
      "▁kurulunun": 3950,
      "##inleri": 3951,
      "▁yazılım": 3952,
      "▁arkasına": 3953,
      "▁harcam": 3954,
      "▁amcam": 3955,
      "##'lik": 3956,
      "▁ucusun": 3957,
      "##ler": 3958,
      "▁be": 3959,
      "▁dak": 3960,
      "▁dahil": 3961,
      "▁hareketler": 3962,
      "▁kalite": 3963,
      "##i'nin": 3964,
      "▁sanki": 3965,
      "▁mahall": 3966,
      "▁sureci": 3967,
      "▁sonucları": 3968,
      "▁temiz": 3969,
      "▁mutf": 3970,
      "##lanmıs": 3971,
      "▁karlar": 3972,
      "##lendir": 3973,
      "▁kaya": 3974,
      "▁muc": 3975,
      "▁metr": 3976,
      "▁n": 3977,
      "▁haval": 3978,
      "▁muzakere": 3979,
      "▁13": 3980,
      "##ine": 3981,
      "##tigim": 3982,
      "▁gercegi": 3983,
      "▁beyn": 3984,
      "▁genelde": 3985,
      "▁telefon": 3986,
      "▁pilav": 3987,
      "▁guzellik": 3988,
      "▁yasa": 3989,
      "▁kira": 3990,
      "##yıl": 3991,
      "▁verdi": 3992,
      "##emde": 3993,
      "▁masasında": 3994,
      "▁ucuslarını": 3995,
      "▁tarihe": 3996,
      "▁actı": 3997,
      "##dım": 3998,
      "##tih": 3999,
      "▁ugras": 4000,
      "▁toprak": 4001,
      "##lanmasını": 4002,
      "##\\/": 4003,
      "▁kosullar": 4004,
      "##lıc": 4005,
      "▁sut": 4006,
      "▁vardır": 4007,
      "▁yalı": 4008,
      "▁ismini": 4009,
      "▁muzik": 4010,
      "▁birinde": 4011,
      "▁projesi": 4012,
      "▁aktor": 4013,
      "##malıdır": 4014,
      "##mesi": 4015,
      "▁calısanları": 4016,
      "▁vucut": 4017,
      "▁dagdan": 4018,
      "▁em": 4019,
      "##ital": 4020,
      "▁ut": 4021,
      "▁iktid": 4022,
      "##orm": 4023,
      "▁ozellikle": 4024,
      "▁dalgalan": 4025,
      "▁1/": 4026,
      "▁galib": 4027,
      "°": 4028,
      "▁kost": 4029,
      "▁muhal": 4030,
      "##cagım": 4031,
      "▁teklifi": 4032,
      "▁sigortası": 4033,
      "▁ihal": 4034,
      "▁rakam": 4035,
      "▁cont": 4036,
      "▁geri": 4037,
      "▁istiyorum": 4038,
      "▁attı": 4039,
      "▁hanimdi": 4040,
      "▁sayg": 4041,
      "▁ucret": 4042,
      "##liginin": 4043,
      "▁degilim": 4044,
      "##tun": 4045,
      "▁topluluk": 4046,
      "▁rezerv": 4047,
      "▁yurd": 4048,
      "##yı": 4049,
      "▁edit": 4050,
      "##0-": 4051,
      "▁belg": 4052,
      "▁kalkıs": 4053,
      "##ginde": 4054,
      "▁bardagı": 4055,
      "▁gozle": 4056,
      "▁francisco'dan": 4057,
      "▁ac": 4058,
      "▁lazım": 4059,
      "▁abla": 4060,
      "##daki": 4061,
      "▁depremden": 4062,
      "▁sendik": 4063,
      "▁bus": 4064,
      "##yor": 4065,
      "▁genc": 4066,
      "▁anay": 4067,
      "##layıp": 4068,
      "▁cami": 4069,
      "▁yolda": 4070,
      "##evizyon": 4071,
      "▁goster": 4072,
      "##manın": 4073,
      "▁faturami": 4074,
      "▁lah": 4075,
      "▁gerektir": 4076,
      "##tıktan": 4077,
      "##ez": 4078,
      "##8'den": 4079,
      "▁denetim": 4080,
      "▁program": 4081,
      "▁soylen": 4082,
      "##lelim": 4083,
      "▁dolar": 4084,
      "▁icimden": 4085,
      "▁mesaf": 4086,
      "##rar": 4087,
      "▁muhalif": 4088,
      "##ru": 4089,
      "##lere": 4090,
      "##acılara": 4091,
      "▁haf": 4092,
      "##mur": 4093,
      "▁sis": 4094,
      "▁om": 4095,
      "▁kutu": 4096,
      "▁vakıf": 4097,
      "▁arasından": 4098,
      "▁yanıt": 4099,
      "▁malum": 4100,
      "▁onay": 4101,
      "##aliforn": 4102,
      "▁kısı": 4103,
      "▁ornek": 4104,
      "▁yururluge": 4105,
      "▁;": 4106,
      "##kun": 4107,
      "▁haberdar": 4108,
      "▁vide": 4109,
      "▁geregi": 4110,
      "▁spekulasyon": 4111,
      "##stır": 4112,
      "##1'de": 4113,
      "▁yılın": 4114,
      "▁insanlardan": 4115,
      "u": 4116,
      "##medigini": 4117,
      "▁bayr": 4118,
      "##aların": 4119,
      "▁mekan": 4120,
      "▁fazl": 4121,
      "▁hizmetler": 4122,
      "▁kuyruk": 4123,
      "▁geciyor": 4124,
      "4": 4125,
      "▁yol": 4126,
      "▁kimi": 4127,
      "##iye": 4128,
      "▁acıdan": 4129,
      "▁halı": 4130,
      "##aki": 4131,
      "▁etmem": 4132,
      "▁sohret": 4133,
      "▁stu": 4134,
      "▁pul": 4135,
      "▁olmayan": 4136,
      "▁alım": 4137,
      "▁bilet": 4138,
      "▁philadel": 4139,
      "▁parkı": 4140,
      "▁ellerinden": 4141,
      "##`": 4142,
      "##lemis": 4143,
      "##acık": 4144,
      "▁olanakları": 4145,
      "▁misin": 4146,
      "▁etki": 4147,
      "▁altından": 4148,
      "▁gozlerle": 4149,
      "▁tar": 4150,
      "▁gerekir": 4151,
      "▁yonetic": 4152,
      "▁masaj": 4153,
      "▁ortagı": 4154,
      "▁tasa": 4155,
      "##eren": 4156,
      "▁verdigi": 4157,
      "▁telaf": 4158,
      "▁kred": 4159,
      "▁cocugu": 4160,
      "▁hafif": 4161,
      "##wa": 4162,
      "##unca": 4163,
      "”": 4164,
      "▁beyan": 4165,
      "▁etrafı": 4166,
      "##yla": 4167,
      "▁kenarında": 4168,
      "▁dusmus": 4169,
      "##iydi": 4170,
      "##mustu": 4171,
      "▁fransız": 4172,
      "##ver": 4173,
      "▁degi": 4174,
      "##atları": 4175,
      "▁isini": 4176,
      "▁sertif": 4177,
      "▁kablo": 4178,
      "▁bun": 4179,
      "▁dusuktu": 4180,
      "▁aylık": 4181,
      "▁basarılı": 4182,
      "▁olc": 4183,
      "▁kendi": 4184,
      "##ttı": 4185,
      "##nem": 4186,
      "##ton": 4187,
      "▁planlarını": 4188,
      "▁gorevini": 4189,
      "▁planimiz": 4190,
      "▁gid": 4191,
      "▁arkadaslar": 4192,
      "##amam": 4193,
      "▁27": 4194,
      "▁kahram": 4195,
      "##lugunda": 4196,
      "##ldi": 4197,
      "▁iletisim": 4198,
      "▁kayıplar": 4199,
      "▁uluslararası": 4200,
      "▁yerles": 4201,
      "▁elbette": 4202,
      "▁farklı": 4203,
      "▁dolandır": 4204,
      "▁problem": 4205,
      "▁inan": 4206,
      "▁titr": 4207,
      "▁gur": 4208,
      "##ısının": 4209,
      "▁gun": 4210,
      "▁personeller": 4211,
      "▁ata": 4212,
      "##dırım": 4213,
      "▁guleryuzlu": 4214,
      "▁listele": 4215,
      "▁hizmetci": 4216,
      "▁gozlerinin": 4217,
      "▁katana": 4218,
      "▁faturam": 4219,
      "▁balik": 4220,
      "▁madem": 4221,
      "▁tartısma": 4222,
      "##ugunun": 4223,
      "▁sahn": 4224,
      "▁bulas": 4225,
      "▁aramızda": 4226,
      "▁evleri": 4227,
      "▁art": 4228,
      "▁onem": 4229,
      "▁''": 4230,
      "##ındaki": 4231,
      "▁etk": 4232,
      "▁beye": 4233,
      "▁per": 4234,
      "▁ocagı": 4235,
      "##acagına": 4236,
      "##larım": 4237,
      "▁tehdit": 4238,
      "▁sapka": 4239,
      "##unda": 4240,
      "▁karsıtı": 4241,
      "▁yurur": 4242,
      "▁insan": 4243,
      "▁aylarda": 4244,
      "▁planının": 4245,
      "▁ramaz": 4246,
      "▁birinin": 4247,
      "▁noktasına": 4248,
      "##sul": 4249,
      "▁olacak": 4250,
      "▁gayet": 4251,
      "##ore": 4252,
      "▁yasad": 4253,
      "▁umit": 4254,
      "##amak": 4255,
      "##cag": 4256,
      "▁yalnızca": 4257,
      "▁rakip": 4258,
      "▁sah": 4259,
      "##ize": 4260,
      "▁avukatı": 4261,
      "▁catı": 4262,
      "##mem": 4263,
      "▁ziyaret": 4264,
      "▁gecen": 4265,
      "▁toplumun": 4266,
      "▁cik": 4267,
      "▁ink": 4268,
      "▁kıza": 4269,
      "##5": 4270,
      "?": 4271,
      "##gis": 4272,
      "##ılma": 4273,
      "##ne": 4274,
      "▁giris": 4275,
      "▁yukseldi": 4276,
      "▁asagıya": 4277,
      "▁talep": 4278,
      "##andır": 4279,
      "▁cozum": 4280,
      "##ormal": 4281,
      "▁g": 4282,
      "##ıgına": 4283,
      "▁tarih": 4284,
      "##ng": 4285,
      "▁olmad": 4286,
      "▁prot": 4287,
      "▁buz": 4288,
      "▁seviye": 4289,
      "##.1": 4290,
      "##ieg": 4291,
      "##itraj": 4292,
      "▁yasıyor": 4293,
      "▁bilin": 4294,
      "▁kosk": 4295,
      "▁tuk": 4296,
      "▁erk": 4297,
      "##ıgın": 4298,
      "▁devam": 4299,
      "▁evlilik": 4300,
      "▁bolge": 4301,
      "▁nok": 4302,
      "▁onur": 4303,
      "▁strate": 4304,
      "▁araya": 4305,
      "▁yitir": 4306,
      "▁torb": 4307,
      "▁kullanıyor": 4308,
      "▁soya": 4309,
      "▁sergi": 4310,
      "▁veyahut": 4311,
      "▁agzını": 4312,
      "##meli": 4313,
      "##bol": 4314,
      "▁yapmıs": 4315,
      "##emizin": 4316,
      "▁sektor": 4317,
      "▁konuları": 4318,
      "##…": 4319,
      "▁elinden": 4320,
      "▁toparlan": 4321,
      "▁isine": 4322,
      "▁gozuyle": 4323,
      "▁atlar": 4324,
      "##yl": 4325,
      "##sir": 4326,
      "▁uygun": 4327,
      "▁finans": 4328,
      "▁takdir": 4329,
      "▁sarım": 4330,
      "▁nedenle": 4331,
      "▁gider": 4332,
      "▁kentin": 4333,
      "▁f": 4334,
      "##ılıga": 4335,
      "▁ilgilen": 4336,
      "▁fabrikası": 4337,
      "▁kampan": 4338,
      "▁ettiler": 4339,
      "##imdi": 4340,
      "▁askı": 4341,
      "▁istir": 4342,
      "▁yonde": 4343,
      "##tıp": 4344,
      "▁kof": 4345,
      "▁vegas": 4346,
      "##div": 4347,
      "▁ila": 4348,
      "##ırt": 4349,
      "▁fik": 4350,
      "##ıkları": 4351,
      "▁dilek": 4352,
      "▁davası": 4353,
      "▁ruzgar": 4354,
      "▁perde": 4355,
      "▁icme": 4356,
      "##gıcı": 4357,
      "##uklu": 4358,
      "▁yemekten": 4359,
      "##itr": 4360,
      "▁grubu": 4361,
      "##cisi": 4362,
      "▁meh": 4363,
      "##:": 4364,
      "##iyetle": 4365,
      "▁ga": 4366,
      "▁nokta": 4367,
      "t": 4368,
      "▁kov": 4369,
      "▁anlayıs": 4370,
      "##a'nın": 4371,
      "▁kent": 4372,
      "▁ulkemizde": 4373,
      "##leme": 4374,
      "▁fig": 4375,
      "▁br": 4376,
      "▁5": 4377,
      "▁uyusturucu": 4378,
      "▁bilimin": 4379,
      "##if": 4380,
      "▁masraf": 4381,
      "▁olsa": 4382,
      "▁ideal": 4383,
      "▁uzun": 4384,
      "▁arzu": 4385,
      "▁parki": 4386,
      "▁gozune": 4387,
      "▁bilgis": 4388,
      "▁uygulama": 4389,
      "##cuları": 4390,
      "▁izn": 4391,
      "▁yasamını": 4392,
      "▁paylas": 4393,
      "▁cıkar": 4394,
      "▁dukk": 4395,
      "▁kolt": 4396,
      "▁oranda": 4397,
      "##ule": 4398,
      "##bilir": 4399,
      "▁tarım": 4400,
      "[PAD]": 4401,
      "##lanması": 4402,
      "▁haziran": 4403,
      "##kler": 4404,
      "##amayacagını": 4405,
      "▁ulu": 4406,
      "▁yurum": 4407,
      "##oyu": 4408,
      "▁ucusunu": 4409,
      "▁tabir": 4410,
      "▁tarihinde": 4411,
      "▁kerv": 4412,
      "▁alb": 4413,
      "##mıslar": 4414,
      "##emiyorum": 4415,
      "▁nedeniyle": 4416,
      "▁dag": 4417,
      "##akat": 4418,
      "▁sistemleri": 4419,
      "▁ucaklar": 4420,
      "##yan": 4421,
      "▁temizlik": 4422,
      "▁geliri": 4423,
      "▁pap": 4424,
      "▁gercek": 4425,
      "▁yuzyıl": 4426,
      "▁kupon": 4427,
      "▁anlasmayı": 4428,
      "##arı": 4429,
      "▁cevresinde": 4430,
      "##onel": 4431,
      "##mek": 4432,
      "▁piyasa": 4433,
      "▁saldır": 4434,
      "▁samim": 4435,
      "▁doları'ndan": 4436,
      "▁pansiyon": 4437,
      "▁aca": 4438,
      "▁muhaf": 4439,
      "##ak": 4440,
      "▁hos": 4441,
      "▁borc": 4442,
      "▁gunleri": 4443,
      "##cılıg": 4444,
      "##lemek": 4445,
      "▁suda": 4446,
      "##ebilir": 4447,
      "▁as": 4448,
      "##askanı": 4449,
      "##kul": 4450,
      "##ort": 4451,
      "▁kelimeyle": 4452,
      "▁cos": 4453,
      "▁komit": 4454,
      "▁aradi": 4455,
      "##elerden": 4456,
      "▁doga": 4457,
      "▁dondu": 4458,
      "▁sehirde": 4459,
      "▁hij": 4460,
      "▁surede": 4461,
      "▁anlam": 4462,
      "##ızı": 4463,
      "▁eger": 4464,
      "▁hazır": 4465,
      "▁transfer": 4466,
      "##isin": 4467,
      "▁boyunca": 4468,
      "##/8'e": 4469,
      "▁haklar": 4470,
      "▁davaya": 4471,
      "▁fatur": 4472,
      "▁para": 4473,
      "▁taslar": 4474,
      "##lag": 4475,
      "▁tadima": 4476,
      "▁duvar": 4477,
      "##'na": 4478,
      "▁bolumunu": 4479,
      "▁havaya": 4480,
      "▁dos": 4481,
      "▁st.": 4482,
      "▁asıl": 4483,
      "▁dususle": 4484,
      "▁oc": 4485,
      "##biye": 4486,
      "▁kalit": 4487,
      "▁100": 4488,
      "▁yiyecekler": 4489,
      "##ikat": 4490,
      "▁dieg": 4491,
      "▁futbol": 4492,
      "▁yerinden": 4493,
      "▁pazar": 4494,
      "##esini": 4495,
      "▁aqu": 4496,
      "▁tabii": 4497,
      "▁meyve": 4498,
      "▁cumhurbaskanı": 4499,
      "##ınızı": 4500,
      "▁tucc": 4501,
      "▁cas": 4502,
      "▁hız": 4503,
      "▁turden": 4504,
      "▁bulut": 4505,
      "▁tesv": 4506,
      "▁usul": 4507,
      "▁taklit": 4508,
      "##gının": 4509,
      "▁konusur": 4510,
      "##eticiler": 4511,
      "▁dem": 4512,
      "▁11": 4513,
      "▁termal": 4514,
      "##'te": 4515,
      "##dil": 4516,
      "▁cum": 4517,
      "▁verir": 4518,
      "##ay": 4519,
      "##niz": 4520,
      "##sim": 4521,
      "▁kultur": 4522,
      "##es": 4523,
      "##eg": 4524,
      "▁asagida": 4525,
      "▁altı": 4526,
      "▁pır": 4527,
      "▁duk": 4528,
      "##lacak": 4529,
      "▁uzuntu": 4530,
      "▁iceride": 4531,
      "▁odayı": 4532,
      "##isinin": 4533,
      "▁gitti": 4534,
      "▁sirket": 4535,
      "▁basımıza": 4536,
      "##ciler": 4537,
      "▁cambaz": 4538,
      "▁oysa": 4539,
      "##manı": 4540,
      "▁toront": 4541,
      "▁demokr": 4542,
      "▁onlem": 4543,
      "##'": 4544,
      "▁isterim": 4545,
      "▁elinde": 4546,
      "##medim": 4547,
      "▁pittsburgh": 4548,
      "▁tip": 4549,
      "▁cevre": 4550,
      "##tig": 4551,
      "##ental": 4552,
      "’": 4553,
      "▁kesif": 4554,
      "▁portfoy": 4555,
      "▁yesil": 4556,
      "▁bor": 4557,
      "▁sart": 4558,
      "▁gecesi": 4559,
      "▁pan": 4560,
      "▁yolcul": 4561,
      "▁saatte": 4562,
      "▁zafer": 4563,
      "▁cekti": 4564,
      "##elim": 4565,
      "##bur": 4566,
      "d": 4567,
      "▁yasamak": 4568,
      "▁eh": 4569,
      "##ind": 4570,
      "▁deri": 4571,
      "▁gostergeleri": 4572,
      "▁ne": 4573,
      "##'yi": 4574,
      "▁mudahal": 4575,
      "##dı": 4576,
      "##kten": 4577,
      "▁mav": 4578,
      "▁olaylar": 4579,
      "##lamasını": 4580,
      "##adaki": 4581,
      "▁mekte": 4582,
      "##ifti": 4583,
      "▁cet": 4584,
      "##likle": 4585,
      "▁yeni": 4586,
      "▁kagı": 4587,
      "##mamıstı": 4588,
      "##izm": 4589,
      "##arl": 4590,
      "▁hayran": 4591,
      "▁baska": 4592,
      "▁alman": 4593,
      "▁angel": 4594,
      "##ster": 4595,
      "▁bil": 4596,
      "##im": 4597,
      "##l": 4598,
      "▁isin": 4599,
      "▁kabil": 4600,
      "▁continental": 4601,
      "##lek": 4602,
      "##set": 4603,
      "##yi": 4604,
      "▁deney": 4605,
      "▁siyasi": 4606,
      "##ıga": 4607,
      "▁animator": 4608,
      "▁sayısı": 4609,
      "▁gen": 4610,
      "##lerdi": 4611,
      "▁bah": 4612,
      "▁degerlendiririm": 4613,
      "▁im": 4614,
      "▁vad": 4615,
      "▁dakikada": 4616,
      "##unun": 4617,
      "▁phil": 4618,
      "▁potansiy": 4619,
      "▁geride": 4620,
      "▁belgeleri": 4621,
      "▁yasası": 4622,
      "▁parası": 4623,
      "##lerimizin": 4624,
      "▁panik": 4625,
      "▁mu": 4626,
      "##digim": 4627,
      "▁tad": 4628,
      "##en": 4629,
      "▁eder": 4630,
      "▁anahtar": 4631,
      "▁ket": 4632,
      "▁milwaukee": 4633,
      "▁kend": 4634,
      "▁norma": 4635,
      "##ımızın": 4636,
      "##embe": 4637,
      "▁yiyecekleri": 4638,
      "##ır": 4639,
      "▁hiz": 4640,
      "▁yuz": 4641,
      "▁cif": 4642,
      "##cuk": 4643,
      "▁isciler": 4644,
      "▁cırp": 4645,
      "▁pros": 4646,
      "▁zira": 4647,
      "##ladi": 4648,
      "▁yonu": 4649,
      "▁halkla": 4650,
      "##ediy": 4651,
      "▁ero": 4652,
      "▁antr": 4653,
      "▁karsılıgında": 4654,
      "▁sask": 4655,
      "▁piyasayı": 4656,
      "▁lut": 4657,
      "▁uretim": 4658,
      "##madım": 4659,
      "##iyordu": 4660,
      "▁cogunlugu": 4661,
      "▁isabet": 4662,
      "▁stat": 4663,
      "▁bl": 4664,
      "##kil": 4665,
      "▁burun": 4666,
      "▁yaln": 4667,
      "▁$": 4668,
      "▁$'dan": 4669,
      "▁plani": 4670,
      "▁yanak": 4671,
      "##us": 4672,
      "▁kek": 4673,
      "▁gunesin": 4674,
      "▁telefonda": 4675,
      "▁ola": 4676,
      "▁bogazici": 4677,
      "##orth": 4678,
      "▁vergi": 4679,
      "##anların": 4680,
      "▁kuralları": 4681,
      "▁cercevesinde": 4682,
      "▁merm": 4683,
      "##ts": 4684,
      "▁lider": 4685,
      "▁gidiyor": 4686,
      "▁denet": 4687,
      "▁hat": 4688,
      "▁tap": 4689,
      "##ızlı": 4690,
      "▁istey": 4691,
      "▁bul": 4692,
      "▁olayda": 4693,
      "##ih": 4694,
      "▁parcasını": 4695,
      "▁ozel": 4696,
      "▁evi": 4697,
      "▁anayas": 4698,
      "##ustuk": 4699,
      "▁yasında": 4700,
      "##at": 4701,
      "▁buy": 4702,
      "▁otelden": 4703,
      "▁tenis": 4704,
      "##ift": 4705,
      "▁karısı": 4706,
      "##ecekti": 4707,
      "▁evren": 4708,
      "▁oteki": 4709,
      "##anıs": 4710,
      "##bat": 4711,
      "##asa": 4712,
      "▁business": 4713,
      "▁kosulları": 4714,
      "▁krav": 4715,
      "▁etraf": 4716,
      "▁eksiklikler": 4717,
      "▁okulu": 4718,
      "▁avukatları": 4719,
      "##layacagını": 4720,
      "▁roportaj": 4721,
      "▁dolarlık": 4722,
      "▁ucreti": 4723,
      "▁hissedar": 4724,
      "▁muslum": 4725,
      "##mıs": 4726,
      "▁isbir": 4727,
      "▁biliyorum": 4728,
      "##landır": 4729,
      "##izli": 4730,
      "▁aracı": 4731,
      "▁geliyor": 4732,
      "▁dom": 4733,
      "##ic": 4734,
      "▁maden": 4735,
      "▁cıkan": 4736,
      "▁kahvalti": 4737,
      "▁gitmek": 4738,
      "▁haberleri": 4739,
      "▁des": 4740,
      "▁kanadı": 4741,
      "▁bay": 4742,
      "##ımıza": 4743,
      "▁icin": 4744,
      "▁tun": 4745,
      "##ger": 4746,
      "▁parca": 4747,
      "▁okum": 4748,
      "▁beyin": 4749,
      "▁atese": 4750,
      "▁burn": 4751,
      "▁elbis": 4752,
      "##gum": 4753,
      "▁odasında": 4754,
      "▁parcası": 4755,
      "##lerek": 4756,
      "##asindan": 4757,
      "▁birlik": 4758,
      "▁oldular": 4759,
      "▁tas": 4760,
      "##lasıyor": 4761,
      "▁bilmek": 4762,
      "▁kurumsal": 4763,
      "▁dusur": 4764,
      "▁dunyaya": 4765,
      "##ıntı": 4766,
      "##dat": 4767,
      "##ers": 4768,
      "▁yası": 4769,
      "▁aldılar": 4770,
      "##.0": 4771,
      "▁dusunur": 4772,
      "▁gucu": 4773,
      "▁yuruy": 4774,
      "▁fiyatlar": 4775,
      "##00'": 4776,
      "▁buh": 4777,
      "##mekt": 4778,
      "##enlere": 4779,
      "##usune": 4780,
      "▁yuzune": 4781,
      "▁vardı": 4782,
      "▁karsiladi": 4783,
      "▁soze": 4784,
      "##est": 4785,
      "▁geriye": 4786,
      "▁kendini": 4787,
      "▁ort": 4788,
      "▁port": 4789,
      "▁etrafına": 4790,
      "▁suru": 4791,
      "▁evvel": 4792,
      "##meyi": 4793,
      "##lardı": 4794,
      "##tırmak": 4795,
      "▁kitaplar": 4796,
      "▁mikrop": 4797,
      "▁yaklasimi": 4798,
      "▁get": 4799,
      "##leyi": 4800,
      "▁kalabal": 4801,
      "▁tavır": 4802,
      "▁kalacak": 4803,
      "▁tutmak": 4804,
      "▁katır": 4805,
      "##abını": 4806,
      "▁kuv": 4807,
      "▁baskanın": 4808,
      "▁reviz": 4809,
      "▁eglen": 4810,
      "▁omz": 4811,
      "##des": 4812,
      "▁tedirgin": 4813,
      "▁begen": 4814,
      "▁paranın": 4815,
      "▁baskaları": 4816,
      "▁prof": 4817,
      "##ige": 4818,
      "▁aracları": 4819,
      "##masından": 4820,
      "▁tuketiciler": 4821,
      "▁duvara": 4822,
      "##'nde": 4823,
      "▁durgunluk": 4824,
      "▁sebeplerden": 4825,
      "##imize": 4826,
      "##agından": 4827,
      "y": 4828,
      "▁hast": 4829,
      "▁vazif": 4830,
      "▁suz": 4831,
      "▁dibine": 4832,
      "▁taraftar": 4833,
      "▁zamanda": 4834,
      "▁mutlaka": 4835,
      "▁sorumluluk": 4836,
      "▁tersine": 4837,
      "##elt": 4838,
      "▁haber": 4839,
      "▁199": 4840,
      "▁degildir": 4841,
      "▁dısına": 4842,
      "▁sakin": 4843,
      "▁personelden": 4844,
      "▁hayal": 4845,
      "▁sec": 4846,
      "##iyla": 4847,
      "##etsiz": 4848,
      "##fet": 4849,
      "▁muk": 4850,
      "▁kah": 4851,
      "##tansiy": 4852,
      "##ladıgını": 4853,
      "▁yukseldigini": 4854,
      "##gun": 4855,
      "▁yumur": 4856,
      "▁carsaf": 4857,
      "##ırtı": 4858,
      "▁devletin": 4859,
      "▁edi": 4860,
      "▁kosesine": 4861,
      "▁calismas": 4862,
      "▁kararı": 4863,
      "▁zav": 4864,
      "▁sabahın": 4865,
      "##sıyla": 4866,
      "▁yahut": 4867,
      "▁taahh": 4868,
      "##gen": 4869,
      "▁gitmis": 4870,
      "▁edeb": 4871,
      "▁gordu": 4872,
      "▁cek": 4873,
      "▁siz": 4874,
      "##urt": 4875,
      "▁rakamlar": 4876,
      "▁suresi": 4877,
      "▁asam": 4878,
      "▁istihdam": 4879,
      "▁cev": 4880,
      "▁sim": 4881,
      "##san": 4882,
      "▁animasyonlari": 4883,
      "##n": 4884,
      "▁te": 4885,
      "▁tahmini": 4886,
      "▁konusma": 4887,
      "##gil": 4888,
      "##mu": 4889,
      "▁olum": 4890,
      "##lestir": 4891,
      "▁hukmu": 4892,
      "▁yonetici": 4893,
      "##f": 4894,
      "▁gittim": 4895,
      "▁fi": 4896,
      "▁spons": 4897,
      "##eligini": 4898,
      "##rik": 4899,
      "▁olcu": 4900,
      "▁viski": 4901,
      "▁pahaliydi": 4902,
      "▁sayısını": 4903,
      "▁pac": 4904,
      "##bak": 4905,
      "▁franc": 4906,
      "##burg": 4907,
      "▁tren": 4908,
      "▁sal": 4909,
      "▁seni": 4910,
      "▁dallas'a": 4911,
      "▁yemeklerde": 4912,
      "▁tasıy": 4913,
      "▁reng": 4914,
      "▁makine": 4915,
      "▁suph": 4916,
      "##kat": 4917,
      "##anti": 4918,
      "▁uygulamaları": 4919,
      "▁gaz": 4920,
      "##imizda": 4921,
      "▁sevgil": 4922,
      "▁parm": 4923,
      "▁vez": 4924,
      "##mekle": 4925,
      "##'ten": 4926,
      "▁ayni": 4927,
      "##5'": 4928,
      "▁katil": 4929,
      "▁buzdol": 4930,
      "▁hemsir": 4931,
      "▁vol": 4932,
      "▁buyum": 4933,
      "▁8": 4934,
      "▁mart": 4935,
      "##ları": 4936,
      "▁cares": 4937,
      "▁kalitesi": 4938,
      "##raber": 4939,
      "▁arkadasları": 4940,
      "##acaklarını": 4941,
      "▁cumhuriyetci": 4942,
      "▁yetenek": 4943,
      "▁sigar": 4944,
      "▁\"": 4945,
      "▁kayıp": 4946,
      "▁harikaydi": 4947,
      "▁yana": 4948,
      "▁parayı": 4949,
      "##isinda": 4950,
      "##luga": 4951,
      "▁faaliyeti": 4952,
      "▁esir": 4953,
      "▁avuk": 4954,
      "##dıkları": 4955,
      "j": 4956,
      "▁hayatını": 4957,
      "▁birtakım": 4958,
      "▁taz": 4959,
      "▁engel": 4960,
      "▁oranlarının": 4961,
      "l": 4962,
      "##dık": 4963,
      "▁elleri": 4964,
      "▁odaya": 4965,
      "▁diz": 4966,
      "##lerini": 4967,
      "▁aktarmasız": 4968,
      "▁turu": 4969,
      "▁sınıfı": 4970,
      "##ira": 4971,
      "▁chp": 4972,
      "▁feda": 4973,
      "▁duvarın": 4974,
      "##ari": 4975,
      "##aydi": 4976,
      "▁takımı": 4977,
      "▁kendisine": 4978,
      "▁vat": 4979,
      "▁veririm": 4980,
      "▁verdigim": 4981,
      "##enlik": 4982,
      "▁yemeklerinden": 4983,
      "##ucu": 4984,
      "▁fiyata": 4985,
      "##ından": 4986,
      "▁mezar": 4987,
      "##ele": 4988,
      "▁sona": 4989,
      "▁hayat": 4990,
      "▁klor": 4991,
      "##*": 4992,
      "▁geleni": 4993,
      "##lk": 4994,
      "▁arıyor": 4995,
      "▁coktu": 4996,
      "▁karn": 4997,
      "▁derin": 4998,
      "▁tav": 4999,
      "▁sozcu": 5000,
      "▁turlu": 5001,
      "▁elestiri": 5002,
      "##emedim": 5003,
      "▁ortaya": 5004,
      "▁borsa": 5005,
      "▁clas": 5006,
      "##atır": 5007,
      "▁neh": 5008,
      "▁surec": 5009,
      "▁sar": 5010,
      "##lerde": 5011,
      "▁gol": 5012,
      "▁utanc": 5013,
      "▁banka": 5014,
      "##eci": 5015,
      "▁rak": 5016,
      "▁kup": 5017,
      "##iden": 5018,
      "▁kız": 5019,
      "▁tabiat": 5020,
      "##as": 5021,
      "▁kib": 5022,
      "##min": 5023,
      "##isinden": 5024,
      "▁imkanlar": 5025,
      "##imizden": 5026,
      "▁gos": 5027,
      "▁artısla": 5028,
      "▁gercekl": 5029,
      "▁kıymetler": 5030,
      "▁oteldi": 5031,
      "##ustan": 5032,
      "▁uyku": 5033,
      "##atif": 5034,
      "▁isleri": 5035,
      "##000": 5036,
      "▁j": 5037,
      "##ime": 5038,
      "▁misaf": 5039,
      "▁aydın": 5040,
      "▁dev": 5041,
      "▁yıld": 5042,
      "▁egit": 5043,
      "▁arkadas": 5044,
      "##ost": 5045,
      "▁bak": 5046,
      "##ekl": 5047,
      "##illeri": 5048,
      "▁islemlerde": 5049,
      "▁of": 5050,
      "▁oykuler": 5051,
      "▁cam": 5052,
      "▁calısma": 5053,
      "▁seyi": 5054,
      "##ai": 5055,
      "##digimi": 5056,
      "##kinden": 5057,
      "▁yaklasımı": 5058,
      "##ısını": 5059,
      "▁paket": 5060,
      "##gunu": 5061,
      "▁alak": 5062,
      "▁sorunu": 5063,
      "▁sokaga": 5064,
      "##imore": 5065,
      "##mec": 5066,
      "▁olar": 5067,
      "▁lif": 5068,
      "▁toplantıda": 5069,
      "##dıgı": 5070,
      "##stı": 5071,
      "▁caba": 5072,
      "▁ardından": 5073,
      "##yosu": 5074,
      "##all": 5075,
      "##larından": 5076,
      "▁dig": 5077,
      "▁teh": 5078,
      "▁sevk": 5079,
      "##ılıgı": 5080,
      "▁calismasina": 5081,
      "▁vası": 5082,
      "##minin": 5083,
      "##oj": 5084,
      "##etic": 5085,
      "▁dalg": 5086,
      "▁gunku": 5087,
      "m": 5088,
      "▁supur": 5089,
      "▁mater": 5090,
      "q": 5091,
      "##tın": 5092,
      "##eliydi": 5093,
      "▁ork": 5094,
      "##izasyon": 5095,
      "▁l": 5096,
      "▁simdiye": 5097,
      "▁saglamak": 5098,
      "▁intihar": 5099,
      "▁yuzlu": 5100,
      "▁denizinden": 5101,
      "##angi": 5102,
      "##turdu": 5103,
      "▁sozc": 5104,
      "▁kapital": 5105,
      "▁cıkardı": 5106,
      "##erek": 5107,
      "▁,": 5108,
      "▁bos": 5109,
      "##of": 5110,
      "▁taraf": 5111,
      "##eda": 5112,
      "▁liraya": 5113,
      "▁onceki": 5114,
      "n": 5115,
      "▁ph": 5116,
      "##orma": 5117,
      "▁hisselerini": 5118,
      "▁imza": 5119,
      "▁ayına": 5120,
      "▁dısarıya": 5121,
      "▁bahc": 5122,
      "▁tut": 5123,
      "▁nefret": 5124,
      "▁cın": 5125,
      "▁yum": 5126,
      "[CLS]": 5127,
      "▁lake": 5128,
      "##edil": 5129,
      "▁mekana": 5130,
      "▁musterilere": 5131,
      "▁gerekcesiyle": 5132,
      "▁t": 5133,
      "▁pis": 5134,
      "▁aralarında": 5135,
      "▁disinda": 5136,
      "▁guleryuzluydu": 5137,
      "▁konuyla": 5138,
      "▁nak": 5139,
      "▁atıs": 5140,
      "▁ithal": 5141,
      "▁programını": 5142,
      "▁oyku": 5143,
      "▁eglenc": 5144,
      "##alarının": 5145,
      "▁goruntu": 5146,
      "##yası": 5147,
      "▁donemi": 5148,
      "▁so": 5149,
      "##gundu": 5150,
      "▁hakkında": 5151,
      "▁yet": 5152,
      "▁yapı": 5153,
      "▁ucunda": 5154,
      "##dikler": 5155,
      "##araj": 5156,
      "▁cocukluk": 5157,
      "▁prob": 5158,
      "##2": 5159,
      "▁degildi": 5160,
      "##yuzlu": 5161,
      "▁toren": 5162,
      "##'de": 5163,
      "##ram": 5164,
      "▁kitapta": 5165,
      "▁daire": 5166,
      "▁hazırlık": 5167,
      "▁tanım": 5168,
      "▁sik": 5169,
      "##per": 5170,
      "▁muduru": 5171,
      "▁labor": 5172,
      "▁yuzunde": 5173,
      "▁cur": 5174,
      "▁sam": 5175,
      "##unde": 5176,
      "▁bolum": 5177,
      "▁soyley": 5178,
      "##anlara": 5179,
      "▁bildir": 5180,
      "▁#": 5181,
      "▁ozellik": 5182,
      "##ınc": 5183,
      "▁mat": 5184,
      "▁gibiydi": 5185,
      "▁normaldi": 5186,
      "▁hastalık": 5187,
      "▁%4": 5188,
      "▁ekonomi": 5189,
      "▁ger": 5190,
      "▁dam": 5191,
      "▁karan": 5192,
      "▁kendisi": 5193,
      "▁idaresi": 5194,
      "##tıklarını": 5195,
      "##ım": 5196,
      "▁ya": 5197,
      "▁tedbir": 5198,
      "▁icr": 5199,
      "▁dolas": 5200,
      "##ilig": 5201,
      "▁yiyeceklerin": 5202,
      "▁tedarik": 5203,
      "▁oyna": 5204,
      "▁ortasına": 5205,
      "▁sıcak": 5206,
      "▁dl": 5207,
      "▁sonuna": 5208,
      "▁ancak": 5209,
      "▁annemin": 5210,
      "##bu": 5211,
      "7": 5212,
      "##to": 5213,
      "##va": 5214,
      "##tıgında": 5215,
      "▁musait": 5216,
      "▁bilimi": 5217,
      "▁hijyen": 5218,
      "▁imz": 5219,
      "##ekt": 5220,
      "▁ofis": 5221,
      "▁mevzuat": 5222,
      "▁muhaseb": 5223,
      "▁emeklilik": 5224,
      "##4": 5225,
      "▁yasam": 5226,
      "##az": 5227,
      "▁er": 5228,
      "▁calısanı": 5229,
      "▁satmak": 5230,
      "##sa": 5231,
      "##ilmis": 5232,
      "##tım": 5233,
      "▁ittif": 5234,
      "▁corap": 5235,
      "▁ısrar": 5236,
      "▁air": 5237,
      "▁uretici": 5238,
      "▁mo": 5239,
      "▁kagıd": 5240,
      "▁sonuclarını": 5241,
      "▁kanser": 5242,
      "▁goz": 5243,
      "▁ucrete": 5244,
      "▁lokanta": 5245,
      "▁git": 5246,
      "▁21": 5247,
      "▁tatile": 5248,
      "##rlik": 5249,
      "▁ucretin": 5250,
      "▁yatırımcılar": 5251,
      "##mas": 5252,
      "##ılan": 5253,
      "##am": 5254,
      "##asını": 5255,
      "##'d": 5256,
      "▁once": 5257,
      "▁kaygı": 5258,
      "▁ik": 5259,
      "▁salınc": 5260,
      "▁turkiye": 5261,
      "▁koyu": 5262,
      "▁alana": 5263,
      "▁yuzunun": 5264,
      "▁saygı": 5265,
      "▁huk": 5266,
      "▁plak": 5267,
      "▁tıras": 5268,
      "▁lı": 5269,
      "▁personellerinden": 5270,
      "##erindeki": 5271,
      "▁islem": 5272,
      "##gan": 5273,
      "▁tarafında": 5274,
      "▁ilk": 5275,
      "▁tor": 5276,
      "##larımı": 5277,
      "▁...": 5278,
      "▁cem": 5279,
      "▁dusun": 5280,
      "##ot": 5281,
      "▁gazete": 5282,
      "▁for": 5283,
      "▁etmedi": 5284,
      "▁muam": 5285,
      "##iyatr": 5286,
      "▁kızları": 5287,
      "▁3/": 5288,
      "##geleri": 5289,
      "▁teknoloji": 5290,
      "##tarı": 5291,
      "##imle": 5292,
      "##apon": 5293,
      "▁kuvvet": 5294,
      "▁kadınları": 5295,
      "##acıları": 5296,
      "▁olurdu": 5297,
      "▁mev": 5298,
      "▁sekiz": 5299,
      "##urup": 5300,
      "##gıl": 5301,
      "##mıyorum": 5302,
      "##ayı": 5303,
      "▁plan": 5304,
      "##ati": 5305,
      "▁3'ten": 5306,
      "▁aktarmalı": 5307,
      "▁merk": 5308,
      "##akin": 5309,
      "▁tahvillerin": 5310,
      "▁istedi": 5311,
      "▁muay": 5312,
      "##ia": 5313,
      "▁yild": 5314,
      "▁yontem": 5315,
      "▁gosteriyor": 5316,
      "▁agacın": 5317,
      "▁lokma": 5318,
      "##ekk": 5319,
      "##ye": 5320,
      "▁havuzun": 5321,
      "▁gerekti": 5322,
      "▁iliskisi": 5323,
      "▁jur": 5324,
      "▁etkisini": 5325,
      "▁pers": 5326,
      "##uncu": 5327,
      "▁gundeme": 5328,
      "▁deg": 5329,
      "▁pur": 5330,
      "##ul": 5331,
      "▁zararı": 5332,
      "▁gorusu": 5333,
      "▁faaliyetleri": 5334,
      "##ist": 5335,
      "##ina": 5336,
      "##uyoruz": 5337,
      "##ımızdan": 5338,
      "▁yıllarda": 5339,
      "▁raporları": 5340,
      "▁laik": 5341,
      "▁hiss": 5342,
      "▁zemin": 5343,
      "▁sıkıntı": 5344,
      "▁degerinde": 5345,
      "▁kurulus": 5346,
      "##leket": 5347,
      "▁cikista": 5348,
      "▁viz": 5349,
      "▁abon": 5350,
      "▁urunleri": 5351,
      "▁ayıp": 5352,
      "##deki": 5353,
      "▁gorunuyor": 5354,
      "##j": 5355,
      "▁kade": 5356,
      "▁skan": 5357,
      "##ilmesi": 5358,
      "▁korum": 5359,
      "▁2'den": 5360,
      "##lerimizi": 5361,
      "▁niz": 5362,
      "▁fed": 5363,
      "▁alaka": 5364,
      "##egim": 5365,
      "▁gumruk": 5366,
      "▁rakı": 5367,
      "▁karıstır": 5368,
      "##ilisi": 5369,
      "##dıgım": 5370,
      "##ıdır": 5371,
      "▁temsilci": 5372,
      "##madim": 5373,
      "▁kurulu": 5374,
      "▁yıgın": 5375,
      "##abı": 5376,
      "▁degisimi": 5377,
      "▁merkezi": 5378,
      "▁ucagın": 5379,
      "##meyen": 5380,
      "▁ucuslar": 5381,
      "##anlık": 5382,
      "▁emek": 5383,
      "▁yuzuk": 5384,
      "▁philadelphia'dan": 5385,
      "▁hafız": 5386,
      "##istir": 5387,
      "▁ucusa": 5388,
      "▁yasamın": 5389,
      "▁persembe": 5390,
      "▁muamel": 5391,
      "▁tok": 5392,
      "▁hayvanlar": 5393,
      "o": 5394,
      "##tia": 5395,
      "##lıgında": 5396,
      "▁dısında": 5397,
      "▁dusundu": 5398,
      "▁tramv": 5399,
      "▁mot": 5400,
      "▁burosu": 5401,
      "▁sikinti": 5402,
      "▁uygar": 5403,
      "▁sozlesme": 5404,
      "▁iskem": 5405,
      "##gmen": 5406,
      "▁odadan": 5407,
      "##ain": 5408,
      "▁lutfen": 5409,
      "▁havuz": 5410,
      "▁suya": 5411,
      "▁aile": 5412,
      "▁sac": 5413,
      "▁vak": 5414,
      "##dıgından": 5415,
      "▁gecenin": 5416,
      "▁et": 5417,
      "##apolis": 5418,
      "##bul": 5419,
      "▁vaat": 5420,
      "##isle": 5421,
      "##iv": 5422,
      "▁alın": 5423,
      "▁endis": 5424,
      "▁fırın": 5425,
      "##ums": 5426,
      "▁zeytin": 5427,
      "▁harika": 5428,
      "##ıc": 5429,
      "##lama": 5430,
      "▁uyk": 5431,
      "▁tehlike": 5432,
      "▁baslık": 5433,
      "▁sahis": 5434,
      "▁kongre": 5435,
      "▁kısm": 5436,
      "▁bankalar": 5437,
      "▁ilgiliydi": 5438,
      "▁sened": 5439,
      "▁mesafe": 5440,
      "##ef": 5441,
      "▁bes": 5442,
      "▁plaji": 5443,
      "▁ressam": 5444,
      "▁dibinde": 5445,
      "▁fidan": 5446,
      "▁yukse": 5447,
      "▁nob": 5448,
      "▁gormek": 5449,
      "▁calisanlardan": 5450,
      "▁yasak": 5451,
      "##tikce": 5452,
      "▁istedigini": 5453,
      "▁uzmanları": 5454,
      "▁kisiye": 5455,
      "##esinin": 5456,
      "▁tasarruf": 5457,
      "▁fakat": 5458,
      "▁gelecek": 5459,
      "▁itir": 5460,
      "▁olumlu": 5461,
      "▁olmadıgı": 5462,
      "▁beklent": 5463,
      "▁yuzde": 5464,
      "##alet": 5465,
      "##mine": 5466,
      "▁kravat": 5467,
      "▁gozleriyle": 5468,
      "▁gelmek": 5469,
      "▁kayık": 5470,
      "▁la": 5471,
      "▁olmalı": 5472,
      "▁ucuslarla": 5473,
      "▁mobil": 5474,
      "▁memuru": 5475,
      "##uyor": 5476,
      "▁bastan": 5477,
      "▁damar": 5478,
      "▁kenar": 5479,
      "▁palt": 5480,
      "▁mem": 5481,
      "▁memleket": 5482,
      "&": 5483,
      "▁servis": 5484,
      "##tusu": 5485,
      "▁burc": 5486,
      "##pa": 5487,
      "▁arm": 5488,
      "##ku": 5489,
      "▁arkadasım": 5490,
      "▁domates": 5491,
      "▁tesekkur": 5492,
      "▁kadro": 5493,
      "##til": 5494,
      "##emey": 5495,
      "▁toplantısında": 5496,
      "▁munasebet": 5497,
      "##fer": 5498,
      "##erhal": 5499,
      "▁ipot": 5500,
      "▁12": 5501,
      "▁mısır": 5502,
      "▁kavanoz": 5503,
      "▁birlikte": 5504,
      "▁payları": 5505,
      "##masi": 5506,
      "▁kıvılc": 5507,
      "▁ailelerin": 5508,
      "▁verin": 5509,
      "▁nitelik": 5510,
      "▁durumun": 5511,
      "##muyor": 5512,
      "▁kalkıyor": 5513,
      "▁alem": 5514,
      "▁civarı": 5515,
      "▁duruyordu": 5516,
      "▁yonetimi": 5517,
      "▁kalitesinden": 5518,
      "##yanın": 5519,
      "▁koltuk": 5520,
      "▁petrol": 5521,
      "##bab": 5522,
      "▁washington": 5523,
      "##luguna": 5524,
      "▁kulub": 5525,
      "▁soz": 5526,
      "▁iskonto": 5527,
      "##inizi": 5528,
      "##bar": 5529,
      "▁basv": 5530,
      "##sizdi": 5531,
      "##'nın": 5532,
      "##meler": 5533,
      "▁sasır": 5534,
      "▁umut": 5535,
      "▁operator": 5536,
      "▁sordu": 5537,
      "##ılıyor": 5538,
      "##eye": 5539,
      "▁aldıgını": 5540,
      "e": 5541,
      "##ayacagını": 5542,
      "▁universitesi": 5543,
      "##elen": 5544,
      "▁paz": 5545,
      "▁dere": 5546,
      "##lerine": 5547,
      "▁kal": 5548,
      "▁olabilir": 5549,
      "▁muhendis": 5550,
      "▁muzaker": 5551,
      "##ızın": 5552,
      "##lesti": 5553,
      "▁ucus": 5554,
      "##lugunun": 5555,
      "▁zar": 5556,
      "▁kahval": 5557,
      "▁rut": 5558,
      "##iti": 5559,
      "▁kanat": 5560,
      "▁havayolları": 5561,
      "▁personeli": 5562,
      "▁iscileri": 5563,
      "▁eg": 5564,
      "##ugu": 5565,
      "##tigi": 5566,
      "▁basını": 5567,
      "▁civ": 5568,
      "▁mon": 5569,
      "▁far": 5570,
      "##ecilik": 5571,
      "##ustos": 5572,
      "▁eyalet": 5573,
      "##amiza": 5574,
      "▁sinyal": 5575,
      "▁satısı": 5576,
      "##aman": 5577,
      "▁annem": 5578,
      "▁atesi": 5579,
      "##ban": 5580,
      "▁perakende": 5581,
      "▁restor": 5582,
      "▁rutub": 5583,
      "▁dusuncelerini": 5584,
      "▁yarat": 5585,
      "▁danısman": 5586,
      "▁personelin": 5587,
      "▁piyano": 5588,
      "##ro": 5589,
      "▁cikis": 5590,
      "▁diye": 5591,
      "##edav": 5592,
      "##ısıyla": 5593,
      "▁eb": 5594,
      "▁insa": 5595,
      "▁fon": 5596,
      "▁sorunun": 5597,
      "▁baz": 5598,
      "▁seyin": 5599,
      "▁sayıda": 5600,
      "##ate": 5601,
      "▁ilkbah": 5602,
      "▁komisyon": 5603,
      "▁oglan": 5604,
      "▁kas": 5605,
      "h": 5606,
      "▁dey": 5607,
      "▁fil": 5608,
      "##arım": 5609,
      "▁durdu": 5610,
      "▁fiyatlarının": 5611,
      "##anlı": 5612,
      "▁ay": 5613,
      "▁asla": 5614,
      "▁peynir": 5615,
      "##oksa": 5616,
      "▁derec": 5617,
      "▁tarihine": 5618,
      "##oru": 5619,
      "▁aydınlık": 5620,
      "##sal": 5621,
      "▁tavsiye": 5622,
      "##uzluk": 5623,
      "##ıydı": 5624,
      "##acaktır": 5625,
      "##asi": 5626,
      "▁okula": 5627,
      "##ecektir": 5628,
      "##kk": 5629,
      "▁tartıs": 5630,
      "▁tramvay": 5631,
      "##ukca": 5632,
      "##ıcı": 5633,
      "▁min": 5634,
      "▁rehber": 5635,
      "▁un": 5636,
      "##eli": 5637,
      "▁yerine": 5638,
      "▁basladım": 5639,
      "▁ugul": 5640,
      "▁bulmak": 5641,
      "##yerek": 5642,
      "▁basın": 5643,
      "▁sokaklarda": 5644,
      "▁manev": 5645,
      "▁bankacılık": 5646,
      "##larak": 5647,
      "##le": 5648,
      "▁vermek": 5649,
      "▁ihale": 5650,
      "▁teyz": 5651,
      "▁ız": 5652,
      "▁posta": 5653,
      "▁sana": 5654,
      "##acagım": 5655,
      "▁uz": 5656,
      "▁konuyu": 5657,
      "▁pos": 5658,
      "▁ces": 5659,
      "▁yapmaya": 5660,
      "##lb": 5661,
      "▁anı": 5662,
      "▁avru": 5663,
      "▁sahip": 5664,
      "▁ciz": 5665,
      "##eb": 5666,
      "▁kontrolu": 5667,
      "##uyorum": 5668,
      "▁ekl": 5669,
      "##ev": 5670,
      "##larımızın": 5671,
      "▁sef": 5672,
      "▁haklarını": 5673,
      "▁tezgah": 5674,
      "##imizi": 5675,
      "##ust": 5676,
      "▁oyk": 5677,
      "▁efend": 5678,
      "▁gelis": 5679,
      "▁kursun": 5680,
      "##end": 5681,
      "▁cakmak": 5682,
      "▁kullanı": 5683,
      "▁giden": 5684,
      "▁bilgileri": 5685,
      "##lan": 5686,
      "▁sene": 5687,
      "▁ogretmen": 5688,
      "##ter": 5689,
      "▁eski": 5690,
      "##eyaz": 5691,
      "▁kıskanc": 5692,
      "▁org": 5693,
      "▁duzelt": 5694,
      "▁tabak": 5695,
      "▁mal": 5696,
      "▁kars": 5697,
      "##acagı": 5698,
      "##ayıf": 5699,
      "▁ayrılık": 5700,
      "▁ruy": 5701,
      "##ulan": 5702,
      "▁ing": 5703,
      "▁piyan": 5704,
      "▁kırm": 5705,
      "▁yazarın": 5706,
      "▁arb": 5707,
      "▁sınıfta": 5708,
      "▁istegi": 5709,
      "##lıgının": 5710,
      "▁kilis": 5711,
      "▁clev": 5712,
      "▁ocagın": 5713,
      "▁gormedim": 5714,
      "▁asık": 5715,
      "▁taham": 5716,
      "##ıya": 5717,
      "▁aldım": 5718,
      "▁koridor": 5719,
      "▁sesler": 5720,
      "##ars": 5721,
      "##hangi": 5722,
      "▁lezzeti": 5723,
      "##iler": 5724,
      "##orn": 5725,
      "▁yeten": 5726,
      "##su": 5727,
      "▁meslek": 5728,
      "▁mik": 5729,
      "▁mavi": 5730,
      "##cut": 5731,
      "▁odun": 5732,
      "▁azalt": 5733,
      "##iniz": 5734,
      "▁muhafaz": 5735,
      "▁vet": 5736,
      "##lıgını": 5737,
      "▁konut": 5738,
      "▁dok": 5739,
      "▁baskan": 5740,
      "▁donusu": 5741,
      "▁kesinlikle": 5742,
      "▁ucuza": 5743,
      "##un": 5744,
      "##ıklar": 5745,
      "▁surekli": 5746,
      "▁ihrac": 5747,
      "▁karsıya": 5748,
      "▁6'dan": 5749,
      "▁kızım": 5750,
      "▁sebep": 5751,
      "##ıldıgında": 5752,
      "▁ilac": 5753,
      "##inize": 5754,
      "▁evla": 5755,
      "▁ona": 5756,
      "▁cevir": 5757,
      "▁olmaktan": 5758,
      "##miyorum": 5759,
      "▁okudu": 5760,
      "##6'dan": 5761,
      "##dıgımı": 5762,
      "##onelik": 5763,
      "##lim": 5764,
      "▁sem": 5765,
      "##ayım": 5766,
      "##edig": 5767,
      "▁oranını": 5768,
      "▁od": 5769,
      "▁guney": 5770,
      "▁ureticileri": 5771,
      "▁kans": 5772,
      "▁bır": 5773,
      "▁getiri": 5774,
      "##ligi": 5775,
      "##une": 5776,
      "▁ayrıl": 5777,
      "▁ceyr": 5778,
      "▁ayak": 5779,
      "▁198": 5780,
      "▁radyo": 5781,
      "##yas": 5782,
      "▁vade": 5783,
      "▁kılav": 5784,
      "▁komite": 5785,
      "##cılara": 5786,
      "##a'da": 5787,
      "▁guc": 5788,
      "▁ozen": 5789,
      "▁muhtemelen": 5790,
      "▁salı": 5791,
      "▁sonbah": 5792,
      "##ıstır": 5793,
      "▁sul": 5794,
      "##sinin": 5795,
      "▁temizliginden": 5796,
      "▁altında": 5797,
      "▁oyuncak": 5798,
      "▁basbakan": 5799,
      "##yacag": 5800,
      "▁protest": 5801,
      "▁sozu": 5802,
      "▁imkanlari": 5803,
      "▁yaban": 5804,
      "▁aras": 5805,
      "▁kral": 5806,
      "▁burokr": 5807,
      "▁onumuz": 5808,
      "##tıgını": 5809,
      "▁davul": 5810,
      "##ustu": 5811,
      "##anet": 5812,
      "▁listesini": 5813,
      "▁yardımcısı": 5814,
      "▁kapıları": 5815,
      "▁yumus": 5816,
      "##3'e": 5817,
      "▁anlama": 5818,
      "##lıdır": 5819,
      "▁cevabı": 5820,
      "▁gidis": 5821,
      "▁limuzin": 5822,
      "▁ada": 5823,
      "▁yapacak": 5824,
      "▁turkc": 5825,
      "▁otelin": 5826,
      "▁dedikodu": 5827,
      "▁olayı": 5828,
      "▁muamele": 5829,
      "▁toplamda": 5830,
      "##ha": 5831,
      "▁odak": 5832,
      "▁hel": 5833,
      "▁evinde": 5834,
      "▁ait": 5835,
      "▁suyun": 5836,
      "▁ber": 5837,
      "▁has": 5838,
      "##ıyor": 5839,
      "▁aslında": 5840,
      "▁cor": 5841,
      "▁saadet": 5842,
      "▁zam": 5843,
      "##alı": 5844,
      "▁netic": 5845,
      "▁hul": 5846,
      "##gr": 5847,
      "▁devleti": 5848,
      "▁uzakta": 5849,
      "▁varsa": 5850,
      "▁ucusuna": 5851,
      "▁fen": 5852,
      "▁yine": 5853,
      "▁olumu": 5854,
      "▁merkeze": 5855,
      "▁sonuc": 5856,
      "▁kurt": 5857,
      "##stık": 5858,
      "##ren": 5859,
      "▁hissed": 5860,
      "▁coz": 5861,
      "▁tes": 5862,
      "##int": 5863,
      "##ji": 5864,
      "▁havuzlari": 5865,
      "##lendi": 5866,
      "##ligin": 5867,
      "▁si": 5868,
      "##ult": 5869,
      "▁aleyhine": 5870,
      "▁ankete": 5871,
      "▁delikanlı": 5872,
      "##gul": 5873,
      "▁bosluk": 5874,
      "▁temin": 5875,
      "▁tehd": 5876,
      "▁gunesi": 5877,
      "##kel": 5878,
      "##cilik": 5879,
      "▁karar": 5880,
      "##on": 5881,
      "▁cd": 5882,
      "▁sm": 5883,
      "▁merh": 5884,
      "▁ote": 5885,
      "▁evlerine": 5886,
      "▁bankaların": 5887,
      "##ıtı": 5888,
      "▁mis": 5889,
      "▁seviy": 5890,
      "##ze": 5891,
      "▁uygundu": 5892,
      "##ardan": 5893,
      "▁aralık": 5894,
      "▁zor": 5895,
      "▁insanlara": 5896,
      "▁menfaat": 5897,
      "##unden": 5898,
      "▁mahk": 5899,
      "▁sehrin": 5900,
      "▁direk": 5901,
      "▁umid": 5902,
      "▁baktı": 5903,
      "▁kil": 5904,
      "##5'te": 5905,
      "▁elbise": 5906,
      "▁fotograf": 5907,
      "z": 5908,
      "▁alev": 5909,
      "▁yakinlarima": 5910,
      "##aguar": 5911,
      "##astır": 5912,
      "##indi": 5913,
      "▁yi": 5914,
      "##a'ya": 5915,
      "▁oluyor": 5916,
      "▁alma": 5917,
      "▁ustu": 5918,
      "▁tarafta": 5919,
      "##arında": 5920,
      "▁baslarında": 5921,
      "▁polis": 5922,
      "##kır": 5923,
      "▁danısmanı": 5924,
      "▁yaprak": 5925,
      "▁petr": 5926,
      "▁perform": 5927,
      "##urdu": 5928,
      "▁herh": 5929,
      "▁kisisel": 5930,
      "##ang": 5931,
      "▁tulum": 5932,
      "##rada": 5933,
      "▁mukem": 5934,
      "▁ihracları": 5935,
      "▁pesinde": 5936,
      "##bi": 5937,
      "▁sozleri": 5938,
      "▁acısı": 5939,
      "▁gal": 5940,
      "▁yerden": 5941,
      "##inceye": 5942,
      "##ilerdi": 5943,
      "▁bazıları": 5944,
      "▁sahil": 5945,
      "▁ates": 5946,
      "▁yarad": 5947,
      "▁sos": 5948,
      "▁karsi": 5949,
      "▁ortalama": 5950,
      "▁olduguna": 5951,
      "##mamak": 5952,
      "▁pl": 5953,
      "▁p": 5954,
      "##gunluk": 5955,
      "▁kelim": 5956,
      "▁edecek": 5957,
      "▁ayır": 5958,
      "▁oyle": 5959,
      "▁mutfak": 5960,
      "▁cuma": 5961,
      "##0'": 5962,
      "##gisi": 5963,
      "##amaz": 5964,
      "▁yoktu": 5965,
      "##lardan": 5966,
      "▁ceza": 5967,
      "▁sola": 5968,
      "▁evet": 5969,
      "##mam": 5970,
      "▁paranin": 5971,
      "▁fırc": 5972,
      "▁buna": 5973,
      "▁sinir": 5974,
      "▁vurgu": 5975,
      "▁kalb": 5976,
      "##lıkta": 5977,
      "▁ulkelerde": 5978,
      "##8'e": 5979,
      "##z": 5980,
      "▁anla": 5981,
      "▁boyn": 5982,
      "##-": 5983,
      "##asında": 5984,
      "▁sıf": 5985,
      "##ci": 5986,
      "##yabilir": 5987,
      "▁dernegi": 5988,
      "▁kurek": 5989,
      "##usunda": 5990,
      "##eme": 5991,
      "▁kalmaya": 5992,
      "▁ah": 5993,
      "##ıyla": 5994,
      "##lıydı": 5995,
      "▁yapacagını": 5996,
      "▁ban": 5997,
      "▁sabahı": 5998,
      "##ansiyon": 5999,
      "▁kasabaya": 6000,
      "▁isaret": 6001,
      "##evi": 6002,
      "##'si": 6003,
      "▁tac": 6004,
      "##aleti": 6005,
      "##luk": 6006,
      "##iski": 6007,
      "▁fuz": 6008,
      "▁4'ten": 6009,
      "▁yaptıgı": 6010,
      "▁mudur": 6011,
      "▁hic": 6012,
      "▁gay": 6013,
      "##om": 6014,
      "##ecegini": 6015,
      "▁superdi": 6016,
      "##hal": 6017,
      "▁oranında": 6018,
      "▁se": 6019,
      "▁bilgisay": 6020,
      "▁bulundu": 6021,
      "▁oglu": 6022,
      "▁almaya": 6023,
      "▁suren": 6024,
      "▁merhaba": 6025,
      "##irli": 6026,
      "##attle": 6027,
      "▁mevduat": 6028,
      "##eh": 6029,
      "▁tekl": 6030,
      "##istler": 6031,
      "▁cit": 6032,
      "▁oldugundan": 6033,
      "▁ustunden": 6034,
      "##ara": 6035,
      "▁gorevi": 6036,
      "##00": 6037,
      "▁liderleri": 6038,
      "##ee": 6039,
      "##sun": 6040,
      "▁dis": 6041,
      "▁maliyeti": 6042,
      "▁mermer": 6043,
      "##lıgından": 6044,
      "##lenmis": 6045,
      "▁konuk": 6046,
      "##lamaya": 6047,
      "▁iyiye": 6048,
      "▁koylu": 6049,
      "▁makam": 6050,
      "▁tahr": 6051,
      "▁matem": 6052,
      "##asız": 6053,
      "▁dogrusu": 6054,
      "##anc": 6055,
      "▁carsı": 6056,
      "▁vs": 6057,
      "##ına": 6058,
      "▁amacı": 6059,
      "##maması": 6060,
      "▁esya": 6061,
      "▁gorevlisi": 6062,
      "##'nin": 6063,
      "▁ardı": 6064,
      "▁ogret": 6065,
      "▁alkol": 6066,
      "▁boya": 6067,
      "▁saz": 6068,
      "▁yurt": 6069,
      "▁olmay": 6070,
      "▁sefer": 6071,
      "▁okulun": 6072,
      "▁kavg": 6073,
      "▁yagı": 6074,
      "▁yapıt": 6075,
      "▁son": 6076,
      "▁zengin": 6077,
      "▁sigara": 6078,
      "##elir": 6079,
      "▁yıllar": 6080,
      "▁bakanı": 6081,
      "▁goze": 6082,
      "▁sofra": 6083,
      "▁bodr": 6084,
      "##ble": 6085,
      "##ılık": 6086,
      "##ınlık": 6087,
      "▁kedi": 6088,
      "##'t": 6089,
      "##umsal": 6090,
      "##cegini": 6091,
      "▁at": 6092,
      "▁tahvilleri": 6093,
      "▁analist": 6094,
      "▁oyuncular": 6095,
      "##ediklerini": 6096,
      "▁doktor": 6097,
      "▁dakik": 6098,
      "##mak": 6099,
      "▁yararlan": 6100,
      "▁yab": 6101,
      "▁kitapları": 6102,
      "▁atlan": 6103,
      "▁normal": 6104,
      "##kin": 6105,
      "▁tez": 6106,
      "▁gokyuz": 6107,
      "##atik": 6108,
      "##ta": 6109,
      "▁3": 6110,
      "##0.": 6111,
      "##igim": 6112,
      "##adel": 6113,
      "▁elektrik": 6114,
      "##gim": 6115,
      "▁grub": 6116,
      "▁alakasi": 6117,
      "▁vic": 6118,
      "##alım": 6119,
      "##ca": 6120,
      "▁fiyatı": 6121,
      "▁biy": 6122,
      "##p": 6123,
      "##ark": 6124,
      "##gar": 6125,
      "▁ayv": 6126,
      "▁gerekc": 6127,
      "##uslar": 6128,
      "##vi": 6129,
      "▁kolay": 6130,
      "▁insanın": 6131,
      "▁makinesi": 6132,
      "▁kahkaha": 6133,
      "##larda": 6134,
      "▁yolun": 6135,
      "▁hit": 6136,
      "▁maliyet": 6137,
      "▁havaalan": 6138,
      "▁cap": 6139,
      "▁isi": 6140,
      "▁buk": 6141,
      "▁yatırımcıları": 6142,
      "▁sevinc": 6143,
      "▁derd": 6144,
      "▁kusur": 6145,
      "▁gu": 6146,
      "▁digerleri": 6147,
      "##sizlik": 6148,
      "▁amma": 6149,
      "▁hala": 6150,
      "##aması": 6151,
      "▁sahs": 6152,
      "▁kısmını": 6153,
      "▁seref": 6154,
      "▁onun": 6155,
      "##gım": 6156,
      "▁elb": 6157,
      "##cagız": 6158,
      "▁endek": 6159,
      "##tırma": 6160,
      "##madı": 6161,
      "▁alama": 6162,
      "##ledim": 6163,
      "▁taks": 6164,
      "▁derg": 6165,
      "▁misafir": 6166,
      "##lıklar": 6167,
      "▁chic": 6168,
      "▁gerek": 6169,
      "##dugu": 6170,
      "▁toplantı": 6171,
      "▁dagıtım": 6172,
      "▁nevi": 6173,
      "▁odeme": 6174,
      "##iyeler": 6175,
      "▁tey": 6176,
      "▁kafasına": 6177,
      "▁lafı": 6178,
      "##hut": 6179,
      "▁ozlem": 6180,
      "##unuz": 6181,
      "▁esnada": 6182,
      "▁soguk": 6183,
      "##gah": 6184,
      "▁adlı": 6185,
      "▁sozlerini": 6186,
      "##detti": 6187,
      "##osunda": 6188,
      "##mız": 6189,
      "▁aktiviteler": 6190,
      "▁ticaret": 6191,
      "▁jand": 6192,
      "▁kere": 6193,
      "▁avukat": 6194,
      "##anta": 6195,
      "▁jaguar": 6196,
      "▁calısmaları": 6197,
      "▁ulkemiz": 6198,
      "▁kapsamında": 6199,
      "##ansız": 6200,
      "##dıgına": 6201,
      "▁ropor": 6202,
      "##tarak": 6203,
      "##alarla": 6204,
      "▁vek": 6205,
      "▁oksur": 6206,
      "▁ha": 6207,
      "▁div": 6208,
      "▁aklıma": 6209,
      "##tern": 6210,
      "##eveyn": 6211,
      "##(": 6212,
      "##ılıg": 6213,
      "##erleri": 6214,
      "▁%8": 6215,
      "▁ediyor": 6216,
      "▁vardi": 6217,
      "▁1990'da": 6218,
      "▁denize": 6219,
      "▁hissesini": 6220,
      "##liklerini": 6221,
      "##lige": 6222,
      "▁ked": 6223,
      "▁girmek": 6224,
      "▁alamadim": 6225,
      "▁soyledi": 6226,
      "▁agac": 6227,
      "▁bon": 6228,
      "▁konularda": 6229,
      "##odr": 6230,
      "▁kurulusu": 6231,
      "▁ekib": 6232,
      "##alog": 6233,
      "##siniz": 6234,
      "▁karsılıgı": 6235,
      "▁ilim": 6236,
      "##hu": 6237,
      "##ında": 6238,
      "##amet": 6239,
      "▁usak": 6240,
      "▁canı": 6241,
      "▁yav": 6242,
      "▁alk": 6243,
      "▁olarak": 6244,
      "##elig": 6245,
      "▁edilm": 6246,
      "▁ters": 6247,
      "▁uyar": 6248,
      "▁sonraki": 6249,
      "▁dusmanı": 6250,
      "▁gostermek": 6251,
      "▁olmadıgını": 6252,
      "▁icimi": 6253,
      "##eceg": 6254,
      "##masına": 6255,
      "▁kaymak": 6256,
      "▁guzel": 6257,
      "▁sen": 6258,
      "##enden": 6259,
      "##emez": 6260,
      "▁burada": 6261,
      "▁civarında": 6262,
      "▁cins": 6263,
      "##paz": 6264,
      "##alarını": 6265,
      "▁bakıyor": 6266,
      "▁san": 6267,
      "▁doneminde": 6268,
      "##eyin": 6269,
      "▁pozisyon": 6270,
      "▁borcun": 6271,
      "▁egil": 6272,
      "▁zeka": 6273,
      "▁`": 6274,
      "▁yarar": 6275,
      "▁seviyede": 6276,
      "▁yil": 6277,
      "▁olmayı": 6278,
      "##ilen": 6279,
      "##ud": 6280,
      "▁kazanmak": 6281,
      "▁gok": 6282,
      "▁ala": 6283,
      "▁ise": 6284,
      "▁tanık": 6285,
      "▁sarf": 6286,
      "▁acentamiza": 6287,
      "##edi": 6288,
      "▁saclarını": 6289,
      "▁sonlarında": 6290,
      "##.7": 6291,
      "▁denver": 6292,
      "▁yan": 6293,
      "▁tesvik": 6294,
      "##gı": 6295,
      "##klerini": 6296,
      "##leri": 6297,
      "▁lis": 6298,
      "▁umur": 6299,
      "▁gecti": 6300,
      "▁ilgi": 6301,
      "##lidir": 6302,
      "▁degistir": 6303,
      "##ıldı": 6304,
      "▁puana": 6305,
      "##okol": 6306,
      "▁urunlerin": 6307,
      "▁kisilik": 6308,
      "▁turlar": 6309,
      "▁herif": 6310,
      "▁bicim": 6311,
      "▁digeri": 6312,
      "##ad": 6313,
      "##ebilmek": 6314,
      "▁diy": 6315,
      "▁otesinde": 6316,
      "▁iplik": 6317,
      "(": 6318,
      "▁elma": 6319,
      "f": 6320,
      "▁gerekiyor": 6321,
      "▁protokol": 6322,
      "##0": 6323,
      "▁kelep": 6324,
      "▁iki": 6325,
      "▁ihtim": 6326,
      "▁data": 6327,
      "##lı": 6328,
      "▁dı": 6329,
      "##gin": 6330,
      "▁holding": 6331,
      "##lık": 6332,
      "▁ornegin": 6333,
      "▁birkac": 6334,
      "▁cumartesi": 6335,
      "▁9'dan": 6336,
      "##uye": 6337,
      "▁tuketim": 6338,
      "▁dikkat": 6339,
      "▁su": 6340,
      "##uktu": 6341,
      "▁direktor": 6342,
      "▁tahvili": 6343,
      "▁ogretmeni": 6344,
      "▁odan": 6345,
      "##gını": 6346,
      "▁alan": 6347,
      "▁almıs": 6348,
      "▁halkı": 6349,
      "▁orta": 6350,
      "▁1980'": 6351,
      "▁muh": 6352,
      "▁laz": 6353,
      "▁sebebi": 6354,
      "▁buyume": 6355,
      "▁ord": 6356,
      "▁merkezine": 6357,
      "▁yakın": 6358,
      "▁uf": 6359,
      "##okr": 6360,
      "##ıb": 6361,
      "▁dusunc": 6362,
      "##'nda": 6363,
      "▁amerik": 6364,
      "▁kapanıs": 6365,
      "##mazlık": 6366,
      "▁zahmet": 6367,
      "##ens": 6368,
      "##ep": 6369,
      "▁kagıtları": 6370,
      "##tan": 6371,
      "▁apartman": 6372,
      "▁senedi": 6373,
      "▁oradan": 6374,
      "▁bile": 6375,
      "▁ref": 6376,
      "##orlu": 6377,
      "▁gune": 6378,
      "▁tuy": 6379,
      "▁cihaz": 6380,
      "▁kadr": 6381,
      "##ucuk": 6382,
      "▁kutup": 6383,
      "##cıya": 6384,
      "▁tay": 6385,
      "▁buf": 6386,
      "▁politikası": 6387,
      "▁cesit": 6388,
      "##lip": 6389,
      "##pr": 6390,
      "▁sandal": 6391,
      "##lara": 6392,
      "▁temel": 6393,
      "▁hisseye": 6394,
      "##ice": 6395,
      "▁net": 6396,
      "▁cub": 6397,
      "▁ufuk": 6398,
      "##anda": 6399,
      "##acak": 6400,
      "##tir": 6401,
      "▁memnuniyeti": 6402,
      "##son": 6403,
      "▁kardesi": 6404,
      "▁baslangıcı": 6405,
      "▁hikay": 6406,
      "▁diplom": 6407,
      "▁meg": 6408,
      "▁kesin": 6409,
      "▁suy": 6410,
      "▁yolunda": 6411,
      "▁v": 6412,
      "▁henuz": 6413,
      "##iklik": 6414,
      "▁acı": 6415,
      "##arlı": 6416,
      "▁cerey": 6417,
      "##iyordum": 6418,
      "##hanede": 6419,
      "##ucc": 6420,
      "▁dogal": 6421,
      "▁tepki": 6422,
      "▁sutu": 6423,
      "▁ves": 6424,
      "▁ol": 6425,
      "##maz": 6426,
      "##agı": 6427,
      "▁ele": 6428,
      "▁huc": 6429,
      "▁cayır": 6430,
      "▁degerlendirmeye": 6431,
      "▁safh": 6432,
      "▁pek": 6433,
      "▁olmasın": 6434,
      "▁dunyanın": 6435,
      "▁vb": 6436,
      "▁altın": 6437,
      "▁kaydı": 6438,
      "▁yaslı": 6439,
      "▁karayol": 6440,
      "▁kir": 6441,
      "▁seylerin": 6442,
      "▁mumkun": 6443,
      "▁sanayi": 6444,
      "▁ediliyor": 6445,
      "##larında": 6446,
      "##°": 6447,
      "▁kad": 6448,
      "▁ceyrek": 6449,
      "▁tesis": 6450,
      "##lılar": 6451,
      "##uyu": 6452,
      "##lıgın": 6453,
      "##ellikle": 6454,
      "##&": 6455,
      "▁halde": 6456,
      "▁birbirine": 6457,
      "▁pal": 6458,
      "▁ric": 6459,
      "##artesi": 6460,
      "▁neler": 6461,
      "▁salonda": 6462,
      "▁kos": 6463,
      "▁takip": 6464,
      "##lemeye": 6465,
      "##iki": 6466,
      "##uk": 6467,
      "▁hisselerinin": 6468,
      "▁ed": 6469,
      "▁koms": 6470,
      "▁duzine": 6471,
      "▁pirinc": 6472,
      "##isti": 6473,
      "##ılmaz": 6474,
      "▁car": 6475,
      "▁tutun": 6476,
      "▁sponsor": 6477,
      "▁agacı": 6478,
      "▁reh": 6479,
      "▁olduk": 6480,
      "▁tuf": 6481,
      "▁istiyor": 6482,
      "▁yapılandır": 6483,
      "##70'": 6484,
      "##lem": 6485,
      "##lıs": 6486,
      "##teki": 6487,
      "##b": 6488,
      "▁milliyet": 6489,
      "▁gorgu": 6490,
      "##ındı": 6491,
      "##gıt": 6492,
      "##kez": 6493,
      "▁cumhuriyet": 6494,
      "##an": 6495,
      "▁sif": 6496,
      "##i": 6497,
      "▁agzından": 6498,
      "▁poz": 6499,
      "▁bisik": 6500,
      "▁tahviller": 6501,
      "##piyon": 6502,
      "▁elestir": 6503,
      "▁butun": 6504,
      "▁huzur": 6505,
      "▁kurk": 6506,
      "##ılmasını": 6507,
      "▁mufet": 6508,
      "▁ser": 6509,
      "▁cocuklara": 6510,
      "▁ilgilenmedi": 6511,
      "▁gozlerinden": 6512,
      "##anlardan": 6513,
      "▁bors": 6514,
      "▁gorev": 6515,
      "▁aklı": 6516,
      "▁seks": 6517,
      "▁american": 6518,
      "▁hali": 6519,
      "##m": 6520,
      "▁konf": 6521,
      "##kal": 6522,
      "▁dost": 6523,
      "▁bitir": 6524,
      "▁anlamda": 6525,
      "▁kav": 6526,
      "▁personellerin": 6527,
      "▁iliski": 6528,
      "##anının": 6529,
      "▁sat": 6530,
      "##madi": 6531,
      "▁kemer": 6532,
      "▁olcude": 6533,
      "▁1.": 6534,
      "▁sepet": 6535,
      "▁sapk": 6536,
      "▁sebz": 6537,
      "▁ikiye": 6538,
      "▁sap": 6539,
      "##etim": 6540,
      "▁geliyordu": 6541,
      "▁ur": 6542,
      "▁fonu": 6543,
      "##igini": 6544,
      "▁ortalık": 6545,
      "▁islerini": 6546,
      "▁sirk": 6547,
      "##..": 6548,
      "▁havaalanı": 6549,
      "##ebilecegini": 6550,
      "▁s": 6551,
      "▁kay": 6552,
      "▁temsil": 6553,
      "▁kisilerin": 6554,
      "▁evinin": 6555,
      "▁zay": 6556,
      "▁mud": 6557,
      "▁cak": 6558,
      "▁kaliteli": 6559,
      "▁adayı": 6560,
      "##liye": 6561,
      "▁ov": 6562,
      "##ısık": 6563,
      "##iyoruz": 6564,
      "▁arttı": 6565,
      "▁kasab": 6566,
      "▁kis": 6567,
      "▁tavuk": 6568,
      "▁cunku": 6569,
      "▁anlamı": 6570,
      "##ug": 6571,
      "▁yemekler": 6572,
      "▁op": 6573,
      "▁butce": 6574,
      "▁ihtil": 6575,
      "##imde": 6576,
      "▁inter": 6577,
      "##engin": 6578,
      "##ern": 6579,
      "##mini": 6580,
      "▁gununun": 6581,
      "▁koru": 6582,
      "▁arası": 6583,
      "##-a": 6584,
      "##ecegim": 6585,
      "▁sas": 6586,
      "##imini": 6587,
      "▁egilim": 6588,
      "##etik": 6589,
      "▁duzey": 6590,
      "▁in": 6591,
      "##amaları": 6592,
      "##ligiyle": 6593,
      "▁denver'den": 6594,
      "▁olmadi": 6595,
      "▁basarı": 6596,
      "▁incel": 6597,
      "▁otom": 6598,
      "##alara": 6599,
      "▁lu": 6600,
      "▁kazan": 6601,
      "##ht": 6602,
      "▁odamdan": 6603,
      "▁hatta": 6604,
      "▁potansiyel": 6605,
      "▁med": 6606,
      "▁bagı": 6607,
      "▁yuv": 6608,
      "##o'dan": 6609,
      "▁endise": 6610,
      "##atı": 6611,
      "▁kendis": 6612,
      "##sil": 6613,
      "▁yoluyla": 6614,
      "▁temettu": 6615,
      "▁ilgililerdi": 6616,
      "▁kalmadim": 6617,
      "##ıh": 6618,
      "##lamaları": 6619,
      "▁sevin": 6620,
      "▁fiyat": 6621,
      "▁bilmiyorum": 6622,
      "▁ozgurluk": 6623,
      "▁sevg": 6624,
      "##anını": 6625,
      "##irmen": 6626,
      "▁baslamak": 6627,
      "##9'un": 6628,
      "▁garsonlar": 6629,
      "##et": 6630,
      "▁hangisi": 6631,
      "▁yıllık": 6632,
      "▁kadeh": 6633,
      "▁sure": 6634,
      "▁palto": 6635,
      "▁hukum": 6636,
      "##lamıstı": 6637,
      "##ilendir": 6638,
      "▁personel": 6639,
      "##ord": 6640,
      "##6": 6641,
      "▁yoneticisi": 6642,
      "##dikleri": 6643,
      "▁gerceklesti": 6644,
      "▁ham": 6645,
      "##memek": 6646,
      "##makta": 6647,
      "▁gecirmek": 6648,
      "▁birer": 6649,
      "▁konuda": 6650,
      "▁acıklam": 6651,
      "▁yonel": 6652,
      "▁atol": 6653,
      "▁konusmayı": 6654,
      "▁atlanta'ya": 6655,
      "▁nedir": 6656,
      "##eyebilir": 6657,
      "▁huzun": 6658,
      "##lanmadı": 6659,
      "##larını": 6660,
      "##lamayı": 6661,
      "▁belirt": 6662,
      "▁masaya": 6663,
      "▁seri": 6664,
      "▁ayının": 6665,
      "▁kart": 6666,
      "##eliginde": 6667,
      "##macılar": 6668,
      "▁cıg": 6669,
      "▁park": 6670,
      "▁listel": 6671,
      "▁sorunların": 6672,
      "▁pisti": 6673,
      "▁cocukları": 6674,
      "▁yansıt": 6675,
      "##kt": 6676,
      "##y": 6677,
      "▁bek": 6678,
      "▁ilgis": 6679,
      "▁oyunlar": 6680,
      "▁beydi": 6681,
      "▁spekul": 6682,
      "▁kiralama": 6683,
      "##ettim": 6684,
      "##amıyor": 6685,
      "▁oner": 6686,
      "▁dava": 6687,
      "▁yerlerde": 6688,
      "▁evlerinin": 6689,
      "▁sarı": 6690,
      "▁adımlarla": 6691,
      "##lugu": 6692,
      "##ktur": 6693,
      "##ayol": 6694,
      "▁gereksin": 6695,
      "▁kalkıp": 6696,
      "▁alanı": 6697,
      "##go": 6698,
      "▁vil": 6699,
      "▁6": 6700,
      "▁sozcusu": 6701,
      "##erk": 6702,
      "‘": 6703,
      "▁oakland'a": 6704,
      "▁saatlerini": 6705,
      "▁eksiklik": 6706,
      "▁bisiklet": 6707,
      "▁meydana": 6708,
      "##esinden": 6709,
      "▁harekete": 6710,
      "▁nus": 6711,
      "▁payını": 6712,
      "▁dudak": 6713,
      "▁cadır": 6714,
      "▁izin": 6715,
      "▁mun": 6716,
      "##asıyla": 6717,
      "##lasman": 6718,
      "▁sise": 6719,
      "▁oteli": 6720,
      "▁farkında": 6721,
      "▁sıfır": 6722,
      "##ograf": 6723,
      "▁tırnak": 6724,
      "▁enerji": 6725,
      "##fen": 6726,
      "▁tekrar": 6727,
      "▁muhareb": 6728,
      "▁edin": 6729,
      "▁idi": 6730,
      "▁2": 6731,
      "##etli": 6732,
      "▁buyuk": 6733,
      "▁oraya": 6734,
      "▁yılında": 6735,
      "##yalar": 6736,
      "▁bayan": 6737,
      "▁pittsburgh'a": 6738,
      "▁temizdi": 6739,
      "##ırı": 6740,
      "▁gomleg": 6741,
      "##tanbul": 6742,
      "▁sir": 6743,
      "▁muzak": 6744,
      "▁resepsiyon": 6745,
      "##oz": 6746,
      "##goz": 6747,
      "##isleri": 6748,
      "▁general": 6749,
      "▁veg": 6750,
      "▁ucuz": 6751,
      "▁ogrenci": 6752,
      "▁bulmaya": 6753,
      "##uyordum": 6754,
      "▁dua": 6755,
      "▁yenil": 6756,
      "▁odada": 6757,
      "▁duyuru": 6758,
      "▁bankası": 6759,
      "▁yemek": 6760,
      "▁kapının": 6761,
      "##umuz": 6762,
      "▁edilmesi": 6763,
      "▁kurtar": 6764,
      "▁got": 6765,
      "▁entar": 6766,
      "▁sizin": 6767,
      "▁ayagına": 6768,
      "▁kaybet": 6769,
      "##.m": 6770,
      "▁mademki": 6771,
      "▁otomobil": 6772,
      "▁hap": 6773,
      "▁ve": 6774,
      "▁tık": 6775,
      "##.6": 6776,
      "▁metal": 6777,
      "##agi": 6778,
      "▁kizim": 6779,
      "▁sekreter": 6780,
      "##ley": 6781,
      "▁cin": 6782,
      "▁eskiydi": 6783,
      "##ey": 6784,
      "##tıgına": 6785,
      "▁u": 6786,
      "▁hizmetten": 6787,
      "▁yoldan": 6788,
      "—": 6789,
      "▁basar": 6790,
      "▁kıv": 6791,
      "▁stan": 6792,
      "▁duskun": 6793,
      "▁fiyatlandır": 6794,
      "▁tabur": 6795,
      "▁super": 6796,
      "▁anayasa": 6797,
      "▁pazarda": 6798,
      "▁doy": 6799,
      "i": 6800,
      "##lugunu": 6801,
      "##dirme": 6802,
      "▁halini": 6803,
      "▁oyunu": 6804,
      "▁olabilirdi": 6805,
      "▁pop": 6806,
      "▁dar": 6807,
      "▁karabiber": 6808,
      "##ok": 6809,
      "▁kamyon": 6810,
      "▁gecirdi": 6811,
      "▁ca": 6812,
      "▁fut": 6813,
      "##alarıyla": 6814,
      "▁bolumunde": 6815,
      "▁serv": 6816,
      "▁halinde": 6817,
      "▁degisim": 6818,
      "▁daglar": 6819,
      "▁sistemini": 6820,
      "##iligini": 6821,
      "▁vucud": 6822,
      "▁saga": 6823,
      "▁camur": 6824,
      "▁fabr": 6825,
      "##art": 6826,
      "##iyon": 6827,
      "▁masa": 6828,
      "▁zarf": 6829,
      "▁esk": 6830,
      "##ısı": 6831,
      "▁yerin": 6832,
      "▁yetkililer": 6833,
      "▁olmus": 6834,
      "▁17": 6835,
      "##malar": 6836,
      "▁gunlerini": 6837,
      "▁boston'a": 6838,
      "▁sonucu": 6839,
      "##ork": 6840,
      "▁muhalef": 6841,
      "▁organ": 6842,
      "▁gunden": 6843,
      "##dik": 6844,
      "##mes": 6845,
      "▁binanın": 6846,
      "▁odedigim": 6847,
      "▁kıvıl": 6848,
      "▁geril": 6849,
      "▁yıldan": 6850,
      "▁mad": 6851,
      "▁kalkan": 6852,
      "▁gorur": 6853,
      "##“": 6854,
      "▁.'": 6855,
      "##mey": 6856,
      "▁depart": 6857,
      "##itler": 6858,
      "##emin": 6859,
      "▁cumhurb": 6860,
      "▁alımı": 6861,
      "▁kısmı": 6862,
      "▁wash": 6863,
      "##hur": 6864,
      "▁organizasyon": 6865,
      "▁din": 6866,
      "▁ıskar": 6867,
      "▁motor": 6868,
      "##elerde": 6869,
      "▁alım-sat": 6870,
      "▁profesor": 6871,
      "▁sogu": 6872,
      "##ustugunu": 6873,
      "##dıgın": 6874,
      "▁pazarlık": 6875,
      "▁som": 6876,
      "▁olmustu": 6877,
      "▁isletmeler": 6878,
      "##2'de": 6879,
      "▁universite": 6880,
      "▁kazanc": 6881,
      "##ıcısı": 6882,
      "▁yılda": 6883,
      "▁iy": 6884,
      "▁care": 6885,
      "▁kuram": 6886,
      "▁olma": 6887,
      "▁ir": 6888,
      "▁raporu": 6889,
      "▁yıldızı": 6890,
      "▁teklif": 6891,
      "##egor": 6892,
      "▁magaza": 6893,
      "##lerinde": 6894,
      "▁gozleri": 6895,
      "▁detay": 6896,
      "##ebilirim": 6897,
      "▁polisler": 6898,
      "▁guler": 6899,
      "▁sms": 6900,
      "▁indir": 6901,
      "▁demokras": 6902,
      "▁cars": 6903,
      "▁geldi": 6904,
      "▁cab": 6905,
      "▁beg": 6906,
      "▁reddetti": 6907,
      "▁yasan": 6908,
      "##gini": 6909,
      "▁unu": 6910,
      "▁kapıya": 6911,
      "##inci": 6912,
      "##eleriyle": 6913,
      "▁hosuma": 6914,
      "▁verildi": 6915,
      "##rne": 6916,
      "##tor": 6917,
      "▁borsasında": 6918,
      "▁lezzet": 6919,
      "▁duygu": 6920,
      "##ıs": 6921,
      "▁gununden": 6922,
      "▁ortasında": 6923,
      "##bil": 6924,
      "▁prens": 6925,
      "▁miktarı": 6926,
      "▁kuvv": 6927,
      "▁elestirmen": 6928,
      "▁mulk": 6929,
      "##misti": 6930,
      "##umuzun": 6931,
      "▁..\"": 6932,
      "##and": 6933,
      "##ık": 6934,
      "▁mucade": 6935,
      "▁deng": 6936,
      "▁sever": 6937,
      "▁corba": 6938,
      "▁depremin": 6939,
      "##hi": 6940,
      "▁istemiyorum": 6941,
      "▁ısıgı": 6942,
      "##'ın": 6943,
      "▁uyesi": 6944,
      "▁itibariyle": 6945,
      "▁kufur": 6946,
      "▁kapsam": 6947,
      "▁uluslar": 6948,
      "▁anlasma": 6949,
      "▁zamandan": 6950,
      "▁yavr": 6951,
      "##ezi": 6952,
      "##mesini": 6953,
      "▁sesle": 6954,
      "▁pad": 6955,
      "▁baban": 6956,
      "▁ekonominin": 6957,
      "▁salonun": 6958,
      "▁itiraz": 6959,
      "##sef": 6960,
      "▁tom": 6961,
      "▁darbe": 6962,
      "▁asagı": 6963,
      ".": 6964,
      "▁harit": 6965,
      "▁peki": 6966,
      "▁sermay": 6967,
      "▁igne": 6968,
      "2": 6969,
      "▁re": 6970,
      "##uyorlardı": 6971,
      "##um": 6972,
      "▁alır": 6973,
      "▁tercih": 6974,
      "▁seviyesine": 6975,
      "▁dayak": 6976,
      "▁sirketine": 6977,
      "##ash": 6978,
      "▁fis": 6979,
      "▁cumhuriyeti": 6980,
      "▁peyn": 6981,
      "▁cehen": 6982,
      "##allas": 6983,
      "##lulugu": 6984,
      "##sekiz": 6985,
      "▁gorul": 6986,
      "▁oakland": 6987,
      "▁icim": 6988,
      "▁ok": 6989,
      "▁tatli": 6990,
      "▁kalem": 6991,
      "▁dosya": 6992,
      "##ilir": 6993,
      "▁ayrıntı": 6994,
      "▁etkin": 6995,
      "▁ısıgında": 6996,
      "▁kesi": 6997,
      "▁orgu": 6998,
      "▁boylece": 6999,
      "▁ayar": 7000,
      "▁paran": 7001,
      "▁iyiydi": 7002,
      "▁don": 7003,
      "▁kavram": 7004,
      "▁rast": 7005,
      "▁disk": 7006,
      "##elle": 7007,
      "▁oturma": 7008,
      "▁kullanım": 7009,
      "▁calısmak": 7010,
      "▁bar": 7011,
      "▁performans": 7012,
      "##ise": 7013,
      "##sali": 7014,
      "▁ısık": 7015,
      "##dek": 7016,
      "▁baslayacak": 7017,
      "▁ogleden": 7018,
      "##kım": 7019,
      "##alarda": 7020,
      "##mı": 7021,
      "##lastik": 7022,
      "##re": 7023,
      "▁ekonomist": 7024,
      "##lamaz": 7025,
      "▁olmasını": 7026,
      "##etici": 7027,
      "▁oz": 7028,
      "##aklık": 7029,
      "▁muhalefet": 7030,
      "##ama": 7031,
      "▁kapısı": 7032,
      "##uga": 7033,
      "▁sayisi": 7034,
      "▁zayifti": 7035,
      "##dukca": 7036,
      "▁dustugunu": 7037,
      "▁tuttu": 7038,
      "▁harik": 7039,
      "▁donemin": 7040,
      "▁gey": 7041,
      "##bal": 7042,
      "▁karsilik": 7043,
      "▁gelen": 7044,
      "▁insana": 7045,
      "▁do": 7046,
      "▁bank": 7047,
      "▁gerektigini": 7048,
      "▁iyil": 7049,
      "▁animasyon": 7050,
      "##uf": 7051,
      "▁kot": 7052,
      "▁aleyh": 7053,
      "##lanır": 7054,
      "▁ten": 7055,
      "▁donanma": 7056,
      "▁ellerine": 7057,
      "▁endeksi": 7058,
      "▁bira": 7059,
      "▁basbak": 7060,
      "▁sistemi": 7061,
      "##edir": 7062,
      "▁ker": 7063,
      "##tılı": 7064,
      "##lanı": 7065,
      "##mus": 7066,
      "##umuzde": 7067,
      "▁gecer": 7068,
      "▁ozgur": 7069,
      "▁kaldı": 7070,
      "▁agz": 7071,
      "▁nedeni": 7072,
      "##uzin": 7073,
      "▁kaz": 7074,
      "▁sebeb": 7075,
      "▁baltimore": 7076,
      "▁fiz": 7077,
      "▁kafası": 7078,
      "▁kutuk": 7079,
      "▁telafi": 7080,
      "▁sultan": 7081,
      "▁atıl": 7082,
      "▁hacim": 7083,
      "▁bunun": 7084,
      "▁bolgede": 7085,
      "▁inc": 7086,
      "##tif": 7087,
      "▁gr": 7088,
      "▁imal": 7089,
      "▁bu": 7090,
      "▁kapalı": 7091,
      "▁hepsi": 7092,
      "▁gıda": 7093,
      "##mayan": 7094,
      "▁keyf": 7095,
      "▁karsılık": 7096,
      "##lılıgı": 7097,
      "##lay": 7098,
      "▁bildirdi": 7099,
      "▁hayatı": 7100,
      "▁calısıyor": 7101,
      "▁boynuna": 7102,
      "▁kab": 7103,
      "▁davr": 7104,
      "##1'e": 7105,
      "▁nikah": 7106,
      "▁buradan": 7107,
      "▁istasyon": 7108,
      "▁final": 7109,
      "▁icecekler": 7110,
      "▁kıl": 7111,
      "##eki": 7112,
      "##lemesi": 7113,
      "▁halat": 7114,
      "▁denizin": 7115,
      "▁arkasında": 7116,
      "▁hikaye": 7117,
      "##unc": 7118,
      "##alam": 7119,
      "▁arkasından": 7120,
      "##.2": 7121,
      "▁nedenlerden": 7122,
      "▁iliskileri": 7123,
      "▁esyalar": 7124,
      "▁omur": 7125,
      "▁pazartesi": 7126,
      "##adet": 7127,
      "▁ap": 7128,
      "▁yandan": 7129,
      "▁insanları": 7130,
      "##luge": 7131,
      "▁firmanın": 7132,
      "▁kilo": 7133,
      "▁yanında": 7134,
      "▁muhat": 7135,
      "▁sog": 7136,
      "▁haz": 7137,
      "##ladım": 7138,
      "##lasyon": 7139,
      "##makla": 7140,
      "▁dans": 7141,
      "##ibar": 7142,
      "▁sını": 7143,
      "▁sekreteri": 7144,
      "##ide": 7145,
      "▁sartları": 7146,
      "▁co.": 7147,
      "▁tarla": 7148,
      "##lulugunu": 7149,
      "▁cok": 7150,
      "##imin": 7151,
      "▁moda": 7152,
      "▁bizi": 7153,
      "▁islemlerin": 7154,
      "▁kim": 7155,
      "▁yard": 7156,
      "##irk": 7157,
      "##ledi": 7158,
      "▁sohbet": 7159,
      "▁koymak": 7160,
      "▁surpr": 7161,
      "##yuz": 7162,
      "##hiss": 7163,
      "▁batı": 7164,
      "▁dekor": 7165,
      "##tikten": 7166,
      "▁tev": 7167,
      "##masını": 7168,
      "▁tanı": 7169,
      "##lerimize": 7170,
      "▁han": 7171,
      "▁kısk": 7172,
      "##ruk": 7173,
      "▁sezlon": 7174,
      "▁itibar": 7175,
      "▁15": 7176,
      "##ıyordum": 7177,
      "▁gelmedi": 7178,
      "▁kontr": 7179,
      "##antaj": 7180,
      "##elli": 7181,
      "▁andan": 7182,
      "▁ipotege": 7183,
      "##sine": 7184,
      "##'tan": 7185,
      "▁zorluk": 7186,
      "▁carp": 7187,
      "▁piyasası": 7188,
      "▁ucusu": 7189,
      "▁sehir": 7190,
      "▁ama": 7191,
      "▁seydi": 7192,
      "##bire": 7193,
      "##v": 7194,
      "▁emr": 7195,
      "▁surdur": 7196,
      "##leg": 7197,
      "▁musteriler": 7198,
      "▁edildi": 7199,
      "##ing": 7200,
      "▁nakliye": 7201,
      "▁dolu": 7202,
      "▁zır": 7203,
      "▁kitabın": 7204,
      "▁finansman": 7205,
      "▁medeniyet": 7206,
      "▁olup": 7207,
      "▁tu": 7208,
      "▁kayak": 7209,
      "▁gozler": 7210,
      "▁kapısını": 7211,
      "##madik": 7212,
      "##—": 7213,
      "▁icecek": 7214,
      "▁biles": 7215,
      "▁kayd": 7216,
      "▁giy": 7217,
      "▁ayın": 7218,
      "▁dagı": 7219,
      "▁mesel": 7220,
      "▁parayi": 7221,
      "▁soylediler": 7222,
      "##cılar": 7223,
      "▁tane": 7224,
      "▁ipek": 7225,
      "▁cidd": 7226,
      "##cak": 7227,
      "▁firmaları": 7228,
      "▁aktivit": 7229,
      "▁icap": 7230,
      "▁ant": 7231,
      "▁hisseyi": 7232,
      "▁kimsenin": 7233,
      "##ant": 7234,
      "▁etkileri": 7235,
      "▁miz": 7236,
      "▁ekip": 7237,
      "▁enist": 7238,
      "▁sırasında": 7239,
      "##'nun": 7240,
      "##me": 7241,
      "▁kuru": 7242,
      "##abaz": 7243,
      "##erince": 7244,
      "▁eksik": 7245,
      "▁saun": 7246,
      "▁piyasalar": 7247,
      "▁yerler": 7248,
      "▁konum": 7249,
      "▁havayolu": 7250,
      "▁komun": 7251,
      "##rını": 7252,
      "▁senet": 7253,
      "▁sofr": 7254,
      "▁senin": 7255,
      "▁yel": 7256,
      "▁sor": 7257,
      "##rsı": 7258,
      "▁buc": 7259,
      "▁parcaları": 7260,
      "▁kenarına": 7261,
      "▁orland": 7262,
      "##=": 7263,
      "▁cercev": 7264,
      "▁cekmek": 7265,
      "▁ciddi": 7266,
      "##amıza": 7267,
      "▁aileye": 7268,
      "▁sayf": 7269,
      "▁gelgelelim": 7270,
      "▁pant": 7271,
      "▁borcunu": 7272,
      "▁peyniri": 7273,
      "▁cuv": 7274,
      "▁kayı": 7275,
      "##ahan": 7276,
      "▁ingiliz": 7277,
      "▁fener": 7278,
      "▁lisans": 7279,
      "▁reddet": 7280,
      "##asına": 7281,
      "▁ayag": 7282,
      "▁kapat": 7283,
      "▁ucu": 7284,
      "##imiza": 7285,
      "##ncak": 7286,
      "▁tesp": 7287,
      "▁heykel": 7288,
      "▁gormeye": 7289,
      "##up": 7290,
      "▁saray": 7291,
      "##mayacak": 7292,
      "▁umud": 7293,
      "##ılıs": 7294,
      "▁hareket": 7295,
      "##lenen": 7296,
      "▁yerinde": 7297,
      "##'ndan": 7298,
      "▁hakk": 7299,
      "▁sorustur": 7300,
      "▁cig": 7301,
      "##nun": 7302,
      "▁nik": 7303,
      "##iber": 7304,
      "▁almak": 7305,
      "▁bono": 7306,
      "##onu": 7307,
      "▁ettigini": 7308,
      "##erli": 7309,
      "▁baltimore'den": 7310,
      "▁yuzume": 7311,
      "▁ihmal": 7312,
      "##ong": 7313,
      "##lev": 7314,
      "▁bize": 7315,
      "▁kitabı": 7316,
      "▁norm": 7317,
      "##bus": 7318,
      "▁verme": 7319,
      "▁ederek": 7320,
      "▁karg": 7321,
      "▁anti": 7322,
      "▁ortal": 7323,
      "▁onu": 7324,
      "▁cıglık": 7325,
      "▁kur": 7326,
      "▁sok": 7327,
      "##etre": 7328,
      "##mayın": 7329,
      "##sik": 7330,
      "▁olacagını": 7331,
      "▁ak": 7332,
      "▁top": 7333,
      "##umuze": 7334,
      "▁disiplin": 7335,
      "##izi": 7336,
      "▁bilgisayar": 7337,
      "▁dususu": 7338,
      "▁amerikalı": 7339,
      "##dak": 7340,
      "##estr": 7341,
      "##ıslar": 7342,
      "▁alanında": 7343,
      "▁charlotte": 7344,
      "▁gozlerimi": 7345,
      "▁philadelphia'ya": 7346,
      "▁fery": 7347,
      "▁angeles": 7348,
      "▁isimiz": 7349,
      "▁sil": 7350,
      "▁res": 7351,
      "▁kesinti": 7352,
      "▁tasın": 7353,
      "##istiri": 7354,
      "##eydi": 7355,
      "##asyonu": 7356,
      "▁red": 7357,
      "##lunun": 7358,
      "##lo": 7359,
      "▁beklen": 7360,
      "▁z": 7361,
      "▁karargah": 7362,
      "▁basladı": 7363,
      "▁her": 7364,
      "▁operasyon": 7365,
      "##iyle": 7366,
      "▁donan": 7367,
      "▁hacı": 7368,
      "▁fasulye": 7369,
      "##ıt": 7370,
      "▁satısa": 7371,
      "▁kub": 7372,
      "▁agzı": 7373,
      "▁gelecegi": 7374,
      "▁havalimanından": 7375,
      "▁ambar": 7376,
      "▁nelerdir": 7377,
      "##aseb": 7378,
      "##alma": 7379,
      "▁gelistirme": 7380,
      "▁oldugum": 7381,
      "##daydi": 7382,
      "▁yurudu": 7383,
      "▁kurul": 7384,
      "##ısında": 7385,
      "▁politik": 7386,
      "##ktan": 7387,
      "▁gali": 7388,
      "##ıy": 7389,
      "##iliyor": 7390,
      "▁fazla": 7391,
      "▁adını": 7392,
      "▁sokak": 7393,
      "##qu": 7394,
      "▁pes": 7395,
      "▁ettim": 7396,
      "▁satısları": 7397,
      "##cum": 7398,
      "▁fazlasını": 7399,
      "▁sh": 7400,
      "▁hırsız": 7401,
      "##ıv": 7402,
      "▁ongoru": 7403,
      "▁sanatcı": 7404,
      "▁bire": 7405,
      "▁kısa": 7406,
      "▁duruyor": 7407,
      "▁bununla": 7408,
      "▁uygul": 7409,
      "▁tanıtım": 7410,
      "▁hasret": 7411,
      "▁kapas": 7412,
      "▁animasyonu": 7413,
      "▁daha": 7414,
      "▁ma": 7415,
      "▁soruları": 7416,
      "▁istik": 7417,
      "▁eslik": 7418,
      "▁rez": 7419,
      "▁yar": 7420,
      "▁koyden": 7421,
      "▁tuccarlar": 7422,
      "##er": 7423,
      "▁aqua": 7424,
      "▁cicekleri": 7425,
      "▁duman": 7426,
      "▁gide": 7427,
      "▁anneme": 7428,
      "▁animasyonlar": 7429,
      "##imiz": 7430,
      "▁hakaret": 7431,
      "▁araba": 7432,
      "▁ellerini": 7433,
      "▁adama": 7434,
      "▁elini": 7435,
      "##sini": 7436,
      "##indeydi": 7437,
      "▁sars": 7438,
      "▁seviyesinden": 7439,
      "▁sesleri": 7440,
      "##uzlu": 7441,
      "##ımızı": 7442,
      "▁bilir": 7443,
      "##derken": 7444,
      "##abor": 7445,
      "▁insanlar": 7446,
      "##larıma": 7447,
      "▁/": 7448,
      "▁amac": 7449,
      "▁senat": 7450,
      "▁bahceye": 7451,
      "▁araz": 7452,
      "0": 7453,
      "▁zamanlar": 7454,
      "##gam": 7455,
      "▁satısların": 7456,
      "▁hastal": 7457,
      "▁ır": 7458,
      "##melidir": 7459,
      "▁toz": 7460,
      "##larıyla": 7461,
      "▁cuz": 7462,
      "\"": 7463,
      "▁dısar": 7464,
      "▁mimar": 7465,
      "▁yataklar": 7466,
      "▁bardak": 7467,
      "##adıgını": 7468,
      "▁ogl": 7469,
      "▁tarz": 7470,
      "▁col": 7471,
      "▁artır": 7472,
      "##dası": 7473,
      "▁cuzdan": 7474,
      "▁yaptir": 7475,
      "▁nuf": 7476,
      "▁go": 7477,
      "##liligini": 7478,
      "▁konusmak": 7479,
      "▁personellerden": 7480,
      "▁otele": 7481,
      "▁pro": 7482,
      "▁tohum": 7483,
      "▁bakım": 7484,
      "▁ton": 7485,
      "▁isgal": 7486,
      "##lerin": 7487,
      "##te": 7488,
      "▁bosa": 7489,
      "▁yılına": 7490,
      "##raf": 7491,
      "▁bilgilendirilmek": 7492,
      "##esinde": 7493,
      "▁azdi": 7494,
      "▁sikayet": 7495,
      "▁miting": 7496,
      "▁hisseler": 7497,
      "▁kabul": 7498,
      "▁arbitraj": 7499,
      "▁karıs": 7500,
      "▁dıs": 7501,
      "##osu": 7502,
      "##emedi": 7503,
      "##diklerini": 7504,
      "▁kec": 7505,
      "▁kapandı": 7506,
      "▁pir": 7507,
      "▁sirketleri": 7508,
      "##islari": 7509,
      "▁yogurt": 7510,
      "▁soyledik": 7511,
      "▁degis": 7512,
      "▁duy": 7513,
      "##'n": 7514,
      "▁kol": 7515,
      "##derek": 7516,
      "##q": 7517,
      "▁onemli": 7518,
      "▁sosy": 7519,
      "▁mag": 7520,
      "##ation": 7521,
      "▁fazlaydi": 7522,
      "▁fes": 7523,
      "▁sıkıntısı": 7524,
      "▁alıyor": 7525,
      "▁tahmin": 7526,
      "▁size": 7527,
      "##bah": 7528,
      "▁ter": 7529,
      "▁karın": 7530,
      "▁sevda": 7531,
      "▁asag": 7532,
      "▁sanırım": 7533,
      "##ch": 7534,
      "##ektr": 7535,
      "▁uyustur": 7536,
      "##tısı": 7537,
      "▁yonetim": 7538,
      "##elerin": 7539,
      "▁diren": 7540,
      "##duz": 7541,
      "▁olabilecegini": 7542,
      "▁ihtiyacı": 7543,
      "▁bakkal": 7544,
      "▁yen": 7545,
      "▁edilir": 7546,
      "▁kalab": 7547,
      "▁bileti": 7548,
      "##lah": 7549,
      "▁okul": 7550,
      "▁adalet": 7551,
      "##leniyor": 7552,
      "▁kaptan": 7553,
      "##ret": 7554,
      "▁guz": 7555,
      "##layarak": 7556,
      "##k": 7557,
      "▁kuyr": 7558,
      "▁icinde": 7559,
      "▁ortam": 7560,
      "▁…": 7561,
      "##mesine": 7562,
      "▁sır": 7563,
      "▁nis": 7564,
      "▁yemeklerden": 7565,
      "##umu": 7566,
      "##ibi": 7567,
      "##ılması": 7568,
      "▁imam": 7569,
      "▁sayı": 7570,
      "▁borcu": 7571,
      "##ici": 7572,
      "▁unut": 7573,
      "##ken": 7574,
      "▁kenarları": 7575,
      "##za": 7576,
      "▁dir": 7577,
      "##uyordu": 7578,
      "▁sandık": 7579,
      "▁bagır": 7580,
      "▁performansi": 7581,
      "##asının": 7582,
      "▁evden": 7583,
      "▁bal": 7584,
      "##lge": 7585,
      "##unluk": 7586,
      "▁gez": 7587,
      "##nci": 7588,
      "##ıcılık": 7589,
      "▁isim": 7590,
      "▁birinci": 7591,
      "##id": 7592,
      "▁diyor": 7593,
      "##)": 7594,
      "▁elem": 7595,
      "##yalizm": 7596,
      "##yo": 7597,
      "▁sahili": 7598,
      "▁iliskiler": 7599,
      "▁keleb": 7600,
      "▁toplan": 7601,
      "▁pasif": 7602,
      "##mıyor": 7603,
      "▁tedar": 7604,
      "▁demokratlar": 7605,
      "▁duzenleme": 7606,
      "▁zinc": 7607,
      "##ayi": 7608,
      "▁yuzme": 7609,
      "▁dolayı": 7610,
      "▁hastan": 7611,
      "##atını": 7612,
      "▁ureticisi": 7613,
      "▁denizi": 7614,
      "##tak": 7615,
      "##eginin": 7616,
      "▁saati": 7617,
      "##ka": 7618,
      "▁iyilik": 7619,
      "▁programları": 7620,
      "▁piyasasının": 7621,
      "##dadır": 7622,
      "▁teskil": 7623,
      "▁yollarını": 7624,
      "▁imkanı": 7625,
      "▁uzaktan": 7626,
      "▁satıslarının": 7627,
      "▁may": 7628,
      "##oloj": 7629,
      "▁deprem": 7630,
      "▁cikol": 7631,
      "▁vucu": 7632,
      "▁gonl": 7633,
      "▁alanlar": 7634,
      "▁harek": 7635,
      "▁geldim": 7636,
      "▁bahce": 7637,
      "▁adr": 7638,
      "##amaya": 7639,
      "▁karsılastır": 7640,
      "▁kumar": 7641,
      "▁sonrasında": 7642,
      "▁muhtesem": 7643,
      "##lug": 7644,
      "▁tat": 7645,
      "▁sonbahar": 7646,
      "▁resmi": 7647,
      "▁bırak": 7648,
      "▁insanı": 7649,
      "▁pazarın": 7650,
      "##urlu": 7651,
      "▁firması": 7652,
      "▁zorunda": 7653,
      "▁surucu": 7654,
      "▁onc": 7655,
      "▁ayagını": 7656,
      "▁yuks": 7657,
      "▁tarafı": 7658,
      "▁us": 7659,
      "▁sehre": 7660,
      "▁yapti": 7661,
      "▁vers": 7662,
      "##ra": 7663,
      "▁yaptı": 7664,
      "▁ajans": 7665,
      "▁calgı": 7666,
      "##anlarda": 7667,
      "▁kasırg": 7668,
      "##dur": 7669,
      "##asın": 7670,
      "▁surecin": 7671,
      "▁olanlar": 7672,
      "▁barın": 7673,
      "▁bir": 7674,
      "▁boyun": 7675,
      "▁soyl": 7676,
      "▁basamak": 7677,
      "▁to": 7678,
      "##ana": 7679,
      "▁komisyonlar": 7680,
      "▁cinayet": 7681,
      "##dut": 7682,
      "▁cıkarmaya": 7683,
      "##ımdan": 7684,
      "▁teker": 7685,
      "##apark": 7686,
      "▁islemlerinde": 7687,
      "▁ucundan": 7688,
      "##aren": 7689,
      "▁dede": 7690,
      "##cek": 7691,
      "##elik": 7692,
      "##sat": 7693,
      "▁islere": 7694,
      "▁zaman": 7695,
      "▁rakamları": 7696,
      "▁baslar": 7697,
      "▁var": 7698,
      "▁devir": 7699,
      "▁acent": 7700,
      "▁boyutu": 7701,
      "▁donemlerde": 7702,
      "##dan": 7703,
      "▁dunyasında": 7704,
      "##malı": 7705,
      "▁oldur": 7706,
      "▁not": 7707,
      "▁hastalıgı": 7708,
      "▁tesh": 7709,
      "▁elden": 7710,
      "▁edep": 7711,
      "▁ailenin": 7712,
      "▁yapılanma": 7713,
      "##ınıza": 7714,
      "▁tayin": 7715,
      "▁yanından": 7716,
      "##iy": 7717,
      "▁kural": 7718,
      "##aket": 7719,
      "▁kası": 7720,
      "▁cenaz": 7721,
      "▁-": 7722,
      "▁baglı": 7723,
      "##dem": 7724,
      "▁devr": 7725,
      "▁begendim": 7726,
      "▁siparisini": 7727,
      "▁gir": 7728,
      "##uh": 7729,
      "▁ihtiyac": 7730,
      "▁milwa": 7731,
      "##ıyoruz": 7732,
      "▁govde": 7733,
      "▁benzin": 7734,
      "##melere": 7735,
      "▁istif": 7736,
      "##'da": 7737,
      "▁zir": 7738,
      "▁alındı": 7739,
      "▁list": 7740,
      "▁calis": 7741,
      "▁isk": 7742,
      "▁vap": 7743,
      "▁kapısına": 7744,
      "▁taraftan": 7745,
      "▁yarattı": 7746,
      "▁cil": 7747,
      "▁anlamına": 7748,
      "▁olur": 7749,
      "##sis": 7750,
      "▁cukur": 7751,
      "##maktadır": 7752,
      "▁ceviz": 7753,
      "▁bakıyordu": 7754,
      "▁mucev": 7755,
      "##ask": 7756,
      "▁kola": 7757,
      "▁new": 7758,
      "▁devreye": 7759,
      "▁ses": 7760,
      "▁tutma": 7761,
      "▁puan": 7762,
      "##dıgımız": 7763,
      "▁tesebbus": 7764,
      "▁ge": 7765,
      "▁yorgunluk": 7766,
      "▁yetkisi": 7767,
      "▁bez": 7768,
      "▁soh": 7769,
      "▁garson": 7770,
      "▁anlas": 7771,
      "▁baba": 7772,
      "▁birligi": 7773,
      "▁sin": 7774,
      "▁varmak": 7775,
      "▁malzemeleri": 7776,
      "▁iptal": 7777,
      "##ıgında": 7778,
      "##etle": 7779,
      "▁konumundan": 7780,
      "▁hev": 7781,
      "▁sonrası": 7782,
      "▁dostluk": 7783,
      "▁oranlar": 7784,
      "▁federal": 7785,
      "▁gem": 7786,
      "▁stok": 7787,
      "▁bunu": 7788,
      "▁bıc": 7789,
      "##isler": 7790,
      "▁hayatımda": 7791,
      "▁tadını": 7792,
      "##ydi": 7793,
      "##unlu": 7794,
      "▁oyun": 7795,
      "▁fabrik": 7796,
      "▁katilmak": 7797,
      "▁sinem": 7798,
      "▁gayrimenkul": 7799,
      "▁havada": 7800,
      "▁meyhan": 7801,
      "##dig": 7802,
      "▁havuzlar": 7803,
      "▁deyim": 7804,
      "▁yarısından": 7805,
      "▁kemik": 7806,
      "▁kullanmadim": 7807,
      "▁calısması": 7808,
      "▁gerdan": 7809,
      "▁ib": 7810,
      "##iyorlar": 7811,
      "▁laf": 7812,
      "▁hani": 7813,
      "##minde": 7814,
      "▁milyona": 7815,
      "▁ettik": 7816,
      "▁cekici": 7817,
      "▁tası": 7818,
      "▁yalnızlık": 7819,
      "▁dib": 7820,
      "##sı": 7821,
      "▁intih": 7822,
      "▁eroin": 7823,
      "▁islemin": 7824,
      "▁tatmin": 7825,
      "##yet": 7826,
      "▁gunes": 7827,
      "▁kıyas": 7828,
      "▁kazanclar": 7829,
      "▁hayata": 7830,
      "▁par": 7831,
      "▁yig": 7832,
      "▁sahada": 7833,
      "▁torun": 7834,
      "▁30": 7835,
      "##met": 7836,
      "▁etmekten": 7837,
      "##alari": 7838,
      "▁kosesinde": 7839,
      "##ksa": 7840,
      "▁yuksel": 7841,
      "▁gore": 7842,
      "▁kıt": 7843,
      "▁uze": 7844,
      "##ar": 7845,
      "▁alıcılar": 7846,
      "▁hava": 7847,
      "▁agır": 7848,
      "▁derece": 7849,
      "##laması": 7850,
      "▁dunya": 7851,
      "##amda": 7852,
      "▁kak": 7853,
      "▁getirdi": 7854,
      "▁gozluk": 7855,
      "##tigini": 7856,
      "▁ons": 7857,
      "▁denver'e": 7858,
      "▁donus": 7859,
      "##'daki": 7860,
      "▁pu": 7861,
      "##tıg": 7862,
      "▁dogum": 7863,
      "▁davet": 7864,
      "##tum": 7865,
      "▁gru": 7866,
      "▁ucmak": 7867,
      "▁kar": 7868,
      "▁odalar": 7869,
      "▁kok": 7870,
      "▁ihtiyacları": 7871,
      "▁pencerenin": 7872,
      "▁sakal": 7873,
      "▁protesto": 7874,
      "##alarım": 7875,
      "▁yoksa": 7876,
      "▁gozden": 7877,
      "▁komut": 7878,
      "▁ayaga": 7879,
      "▁yarın": 7880,
      "▁malzemeler": 7881,
      "##mal": 7882,
      "##ibaren": 7883,
      "▁aktarma": 7884,
      "▁odul": 7885,
      "▁adı": 7886,
      "##kiler": 7887,
      "##lamıs": 7888,
      "▁olac": 7889,
      "##laydi": 7890,
      "##ill": 7891,
      "▁bulundugu": 7892,
      "▁bahcı": 7893,
      "▁zehir": 7894,
      "▁ilgil": 7895,
      "##tali": 7896,
      "▁basarıya": 7897,
      "##atın": 7898,
      "▁ongor": 7899,
      "▁mahalle": 7900,
      "▁gelenek": 7901,
      "##lanma": 7902,
      "▁kasıgı": 7903,
      "▁yasına": 7904,
      "##ten": 7905,
      "▁pilot": 7906,
      "▁day": 7907,
      "▁sans": 7908,
      "▁vermis": 7909,
      "##meden": 7910,
      "##'ye": 7911,
      "##ende": 7912,
      "▁yalnız": 7913,
      "##kar": 7914,
      "▁bocek": 7915,
      "▁tanesi": 7916,
      "▁*": 7917,
      "▁yemegi": 7918,
      "▁hesaba": 7919,
      "▁personelleri": 7920,
      "##leriniz": 7921,
      "▁idare": 7922,
      "▁ogren": 7923,
      "##ding": 7924,
      "▁yavas": 7925,
      "▁oncesinde": 7926,
      "▁vakti": 7927,
      "▁evlere": 7928,
      "▁sınıfın": 7929,
      "▁demir": 7930,
      "▁sipar": 7931,
      "##sin": 7932,
      "▁pr": 7933,
      "##ligini": 7934,
      "▁renk": 7935,
      "##uy": 7936,
      "▁gunumuzde": 7937,
      "▁kem": 7938,
      "▁ulke": 7939,
      "▁yemeklerin": 7940,
      "▁icki": 7941,
      "##iness": 7942,
      "▁hırs": 7943,
      "##ard": 7944,
      "▁yuzunden": 7945,
      "▁pak": 7946,
      "▁hepimiz": 7947,
      "▁gorduk": 7948,
      "▁kapı": 7949,
      "##mistir": 7950,
      "##tar": 7951,
      "▁biri": 7952,
      "▁heves": 7953,
      "▁deve": 7954,
      "▁giysi": 7955,
      "##cih": 7956,
      "▁seftali": 7957,
      "▁yapma": 7958,
      "##mıstı": 7959,
      "▁kahvalt": 7960,
      "##liyat": 7961,
      "##air": 7962,
      "▁ul": 7963,
      "▁havayollarını": 7964,
      "▁noktası": 7965,
      "▁bilim": 7966,
      "▁rek": 7967,
      "##larınız": 7968,
      "▁tı": 7969,
      "▁tarl": 7970,
      "▁deli": 7971,
      "▁yeter": 7972,
      "▁koseye": 7973,
      "▁fay": 7974,
      "▁teslim": 7975,
      "▁fel": 7976,
      "▁ceyrekte": 7977,
      "▁orada": 7978,
      "▁egitim": 7979,
      "▁elimi": 7980,
      "▁soluk": 7981,
      "▁malz": 7982,
      "▁tarafa": 7983,
      "▁gonul": 7984,
      "▁metre": 7985,
      "▁indi": 7986,
      "▁birimi": 7987,
      "▁tasarım": 7988,
      "▁bacak": 7989,
      "▁dug": 7990,
      "##pan": 7991,
      "▁ulus": 7992,
      "##idir": 7993,
      "▁kahkah": 7994,
      "▁alacak": 7995,
      "##lal": 7996,
      "▁kıyıya": 7997,
      "▁gelirleri": 7998,
      "##oya": 7999,
      "##t": 8000,
      "##form": 8001,
      "▁gorusme": 8002,
      "##ı": 8003,
      "##ılmıs": 8004,
      "▁biber": 8005,
      "▁benz": 8006,
      "▁bis": 8007,
      "▁cesitleri": 8008,
      "▁bas": 8009,
      "##enek": 8010,
      "▁film": 8011,
      "▁seb": 8012,
      "##masıyla": 8013,
      "##/": 8014,
      "▁almayı": 8015,
      "▁nihayet": 8016,
      "k": 8017,
      "▁basından": 8018,
      "##eklen": 8019,
      "▁ofisi": 8020,
      "##man": 8021,
      "##burgh": 8022,
      "▁ticari": 8023,
      "▁197": 8024,
      "▁edil": 8025,
      "##ata": 8026,
      "▁vuc": 8027,
      "▁kapısında": 8028,
      "##men": 8029,
      "##inde": 8030,
      "▁model": 8031,
      "▁havayol": 8032,
      "▁yarı": 8033,
      "▁akla": 8034,
      "▁cocuklar": 8035,
      "▁hem": 8036,
      "##ston": 8037,
      "▁tuv": 8038,
      "▁evine": 8039,
      "▁parmak": 8040,
      "▁yapılan": 8041,
      "▁degisiklik": 8042,
      "##ento": 8043,
      "▁otlar": 8044,
      "▁uy": 8045,
      "▁dostu": 8046,
      "##kac": 8047,
      "▁and": 8048,
      "##sam": 8049,
      "▁kusku": 8050,
      "▁degn": 8051,
      "▁acisindan": 8052,
      "##daydı": 8053,
      "##larini": 8054,
      "##din": 8055,
      "▁kef": 8056,
      "▁bag": 8057,
      "▁mez": 8058,
      "▁gond": 8059,
      "▁mutluluk": 8060,
      "▁tec": 8061,
      "##likten": 8062,
      "##layı": 8063,
      "##ıgını": 8064,
      "##ayet": 8065,
      "##lıkla": 8066,
      "▁iskel": 8067,
      "▁key": 8068,
      "▁sey": 8069,
      "▁haline": 8070,
      "▁part": 8071,
      "▁adım": 8072,
      "▁direktoru": 8073,
      "▁sansı": 8074,
      "▁yazar": 8075,
      "##eticisi": 8076,
      "▁ulastı": 8077,
      "▁bulgur": 8078,
      "##umde": 8079,
      "##yen": 8080,
      "##ucusu": 8081,
      "▁hanim": 8082,
      "▁fonların": 8083,
      "▁mide": 8084,
      "▁gecm": 8085,
      "▁rej": 8086,
      "▁acik": 8087,
      "▁kuvvetleri": 8088,
      "##lenir": 8089,
      "▁restoran": 8090,
      "▁7'den": 8091,
      "▁korid": 8092,
      "▁bo": 8093,
      "▁balt": 8094,
      "▁kaynakları": 8095,
      "▁gomlek": 8096,
      "▁ihtiyat": 8097,
      "▁aks": 8098,
      "▁beyler": 8099,
      "▁mey": 8100,
      "▁mektubu": 8101,
      "##dikten": 8102,
      "▁iler": 8103,
      "▁b": 8104,
      "##kinin": 8105,
      "▁pabuc": 8106,
      "▁varlık": 8107,
      "▁toplant": 8108,
      "▁kaldik": 8109,
      "▁h": 8110,
      "▁d": 8111,
      "##enli": 8112,
      "▁kısalt": 8113,
      "▁omuz": 8114,
      "▁mantık": 8115,
      "##ite": 8116,
      "▁ahlak": 8117,
      "▁dislerini": 8118,
      "▁yuzluydu": 8119,
      "▁ucak": 8120,
      "##ac": 8121,
      "▁sair": 8122,
      "▁sendika": 8123,
      "▁ablam": 8124,
      "▁yetis": 8125,
      "▁pantolon": 8126,
      "▁kanıt": 8127,
      "▁bask": 8128,
      "##lin": 8129,
      "▁karsısına": 8130,
      "▁cıktı": 8131,
      "##alif": 8132,
      "##fı": 8133,
      "##ed": 8134,
      "▁hazırlan": 8135,
      "##ın": 8136,
      "▁ho": 8137,
      "▁turku": 8138,
      "##likler": 8139,
      "##edikten": 8140,
      "▁rah": 8141,
      "▁eda": 8142,
      "▁agustos": 8143,
      "▁uzerindeki": 8144,
      "▁grubun": 8145,
      "▁veriyorum": 8146,
      "▁havuzu": 8147,
      "▁bufe": 8148,
      "▁hele": 8149,
      "▁seker": 8150,
      "##uldu": 8151,
      "##onya": 8152,
      "##acılar": 8153,
      "▁yudum": 8154,
      "##her": 8155,
      "▁vermeye": 8156,
      "▁zap": 8157,
      "##isel": 8158,
      "▁grupları": 8159,
      "##gur": 8160,
      "▁akıl": 8161,
      "##okul": 8162,
      "▁isletme": 8163,
      "▁suc": 8164,
      "▁evini": 8165,
      "▁sab": 8166,
      "▁raporda": 8167,
      "▁yazı": 8168,
      "▁kez": 8169,
      "##atur": 8170,
      "##dıktan": 8171,
      "▁donem": 8172,
      "▁ailelere": 8173,
      "▁yuzunu": 8174,
      "##'nı": 8175,
      "▁da": 8176,
      "▁yukselerek": 8177,
      "▁tum": 8178,
      "##$": 8179,
      "▁doların": 8180,
      "▁basvuru": 8181,
      "▁kose": 8182,
      "▁erken": 8183,
      "▁hızlı": 8184,
      "▁sovyet": 8185,
      "##nd": 8186,
      "▁y": 8187,
      "▁el": 8188,
      "s": 8189,
      "##mektedir": 8190,
      "▁mutla": 8191
    }
  }
}