{
  "version": "1.0",
  "truncation": null,
  "padding": null,
  "added_tokens": [
    {
      "id": 1394,
      "content": "[CLS]",
      "single_word": false,
      "lstrip": false,
      "rstrip": false,
      "normalized": false,
      "special": true
    },
    {
      "id": 2706,
      "content": "[MASK]",
      "single_word": false,
      "lstrip": false,
      "rstrip": false,
      "normalized": false,
      "special": true
    },
    {
      "id": 5543,
      "content": "[PAD]",
      "single_word": false,
      "lstrip": false,
      "rstrip": false,
      "normalized": false,
      "special": true
    },
    {
      "id": 5938,
      "content": "[UNK]",
      "single_word": false,
      "lstrip": false,
      "rstrip": false,
      "normalized": false,
      "special": true
    },
    {
      "id": 7906,
      "content": "[SEP]",
      "single_word": false,
      "lstrip": false,
      "rstrip": false,
      "normalized": false,
      "special": true
    }
  ],
  "normalizer": {
    "type": "Sequence",
    "normalizers": [
      {
        "type": "NFD"
      },
      {
        "type": "Lowercase"
      },
      {
        "type": "StripAccents"
      }
    ]
  },
  "pre_tokenizer": {
    "type": "Sequence",
    "pretokenizers": [
      {
        "type": "Metaspace",
        "replacement": "▁",
        "prepend_scheme": "always",
        "split": true
      }
    ]
  },
  "post_processor": {
    "type": "TemplateProcessing",
    "single": [
      {
        "SpecialToken": {
          "id": "[CLS]",
          "type_id": 0
        }
      },
      {
        "Sequence": {
          "id": "A",
          "type_id": 0
        }
      },
      {
        "SpecialToken": {
          "id": "[SEP]",
          "type_id": 0
        }
      }
    ],
    "pair": [
      {
        "SpecialToken": {
          "id": "[CLS]",
          "type_id": 0
        }
      },
      {
        "Sequence": {
          "id": "A",
          "type_id": 0
        }
      },
      {
        "SpecialToken": {
          "id": "[SEP]",
          "type_id": 0
        }
      },
      {
        "Sequence": {
          "id": "B",
          "type_id": 1
        }
      },
      {
        "SpecialToken": {
          "id": "[SEP]",
          "type_id": 1
        }
      }
    ],
    "special_tokens": {
      "[CLS]": {
        "id": "[CLS]",
        "ids": [
          1394
        ],
        "tokens": [
          "[CLS]"
        ]
      },
      "[SEP]": {
        "id": "[SEP]",
        "ids": [
          7906
        ],
        "tokens": [
          "[SEP]"
        ]
      }
    }
  },
  "decoder": {
    "type": "Metaspace",
    "replacement": "▁",
    "prepend_scheme": "always",
    "split": true
  },
  "model": {
    "type": "Unigram",
    "unk_id": 5938,
    "vocab": [
      [
        "▁gerek",
        -8.296474538707882
      ],
      [
        "▁gur",
        -8.754298629300687
      ],
      [
        "▁mimari",
        -10.040485304708879
      ],
      [
        "▁merak",
        -8.34823750861066
      ],
      [
        "▁yas",
        -7.6627350208943135
      ],
      [
        "▁tepki",
        -8.650504897838957
      ],
      [
        "▁for",
        -9.633703182114914
      ],
      [
        "▁calısanlar",
        -9.619213442794594
      ],
      [
        "u",
        -2.3223596860280313
      ],
      [
        "▁dava",
        -7.416854356841948
      ],
      [
        "▁ilgi",
        -7.407675563774309
      ],
      [
        "▁onum",
        -10.074278550673682
      ],
      [
        "▁hasan",
        -7.397104490957706
      ],
      [
        "▁ic",
        -8.077256345274252
      ],
      [
        "▁dar",
        -7.483731200604239
      ],
      [
        "▁edi",
        -9.823117951535089
      ],
      [
        "yel",
        -8.565582910227288
      ],
      [
        "▁ilkbahar",
        -10.176306548601257
      ],
      [
        "▁burbank'",
        -8.02300114871696
      ],
      [
        "4",
        -4.477827337596428
      ],
      [
        "▁bur",
        -8.106338960283185
      ],
      [
        "▁edilmisti",
        -8.558904034577523
      ],
      [
        "▁kosullar",
        -9.27955590978804
      ],
      [
        "▁anti",
        -9.806657078347875
      ],
      [
        "▁armagan",
        -9.96128849415019
      ],
      [
        "▁celik",
        -9.637473253330748
      ],
      [
        "▁da",
        -6.4410868306485405
      ],
      [
        "▁gerektigin",
        -8.245551379704741
      ],
      [
        "▁az",
        -6.275881960714947
      ],
      [
        "ıldıgını",
        -9.922435339828112
      ],
      [
        "▁arası",
        -8.719200024991633
      ],
      [
        "▁zul",
        -9.96224487757874
      ],
      [
        "▁acıldı",
        -7.815745461521954
      ],
      [
        "▁yay",
        -9.172843885906271
      ],
      [
        "▁kapsam",
        -10.121671761467756
      ],
      [
        "ca",
        -7.126501367689933
      ],
      [
        "v",
        -8.75940854179063
      ],
      [
        "▁na",
        -8.892240073692037
      ],
      [
        "▁guzellik",
        -9.257476017619823
      ],
      [
        "▁kırmızı",
        -6.9982941575363355
      ],
      [
        "▁yar",
        -9.033632502059604
      ],
      [
        "nla",
        -6.5872534608028825
      ],
      [
        "▁dusuk",
        -10.177826207598109
      ],
      [
        "onun",
        -7.534328467502998
      ],
      [
        "▁yag",
        -8.69843710349425
      ],
      [
        "▁otlar",
        -9.933807559153596
      ],
      [
        "▁tutarın",
        -9.603023960450425
      ],
      [
        "▁ihtiyacları",
        -9.592524914350065
      ],
      [
        "▁demir",
        -8.584467275682043
      ],
      [
        "mme",
        -8.46388241452652
      ],
      [
        "d",
        -7.542520493800575
      ],
      [
        "▁koyu",
        -8.621327095156678
      ],
      [
        "▁inis",
        -9.505831809886843
      ],
      [
        "▁rahatt",
        -8.888391099397307
      ],
      [
        "▁sekilde",
        -6.801347640637176
      ],
      [
        "!",
        -5.67393291373121
      ],
      [
        "dir",
        -4.9026885762141
      ],
      [
        "▁cocugun",
        -8.76386824041687
      ],
      [
        "▁kazan",
        -8.782007187408357
      ],
      [
        "▁arastırma",
        -8.347302501262961
      ],
      [
        "▁sınır",
        -8.873058586037608
      ],
      [
        "▁ihtiyar",
        -7.886401087484883
      ],
      [
        "▁donanım",
        -10.027984876606899
      ],
      [
        "▁efendi",
        -8.324733704506215
      ],
      [
        "ıyla",
        -7.904251157180966
      ],
      [
        "▁ba",
        -8.816175872557334
      ],
      [
        "▁hız",
        -9.412075947313848
      ],
      [
        "▁gercek",
        -8.681267543453057
      ],
      [
        "▁tarihi",
        -8.471746516546451
      ],
      [
        "▁turkiye'y",
        -7.808037361817595
      ],
      [
        "▁meyhane",
        -9.731779560636362
      ],
      [
        "▁bu",
        -3.2839112180953753
      ],
      [
        "ne",
        -8.670205081013911
      ],
      [
        "▁iceri",
        -7.9611731144626905
      ],
      [
        "▁avuc",
        -9.012374300356274
      ],
      [
        "ifir",
        -9.651230914103254
      ],
      [
        "▁montreal'",
        -7.525611315602173
      ],
      [
        "▁espri",
        -10.176310124468328
      ],
      [
        "▁satıyor",
        -8.779282749074019
      ],
      [
        "▁kapattı",
        -8.197820325348946
      ],
      [
        "▁baslayacak",
        -8.338687462296841
      ],
      [
        "▁personeli",
        -8.173548878260362
      ],
      [
        "▁kalmadigim",
        -8.593248975650528
      ],
      [
        "▁oyku",
        -8.967680444711432
      ],
      [
        "▁milyar",
        -8.289509678381295
      ],
      [
        "▁yururlug",
        -9.84373710024193
      ],
      [
        "▁ola",
        -3.6807569053633467
      ],
      [
        "▁ed",
        -9.642248305141754
      ],
      [
        "▁kusu",
        -9.77065027931747
      ],
      [
        "▁donusu",
        -9.904280407684318
      ],
      [
        "▁satısı",
        -9.026517819365987
      ],
      [
        "▁teklifini",
        -9.38023279005533
      ],
      [
        "lar",
        -5.938162244444685
      ],
      [
        "▁suru",
        -8.216014328189306
      ],
      [
        "▁kahraman",
        -9.740566509759715
      ],
      [
        "▁personeller",
        -6.953658375263141
      ],
      [
        "▁dusmanı",
        -9.770830622780482
      ],
      [
        "▁ayrıldı",
        -8.31492241112143
      ],
      [
        "▁olmadıgı",
        -9.389487602082133
      ],
      [
        "▁kapasite",
        -9.441969772730122
      ],
      [
        "▁degisiyor",
        -8.798215330754697
      ],
      [
        "ıntı",
        -9.638548665459286
      ],
      [
        "mus",
        -6.151906848605292
      ],
      [
        "karlı",
        -8.704985432091185
      ],
      [
        "▁eylem",
        -8.58329847556055
      ],
      [
        "dır",
        -7.667202842089157
      ],
      [
        "caba",
        -7.273779888668228
      ],
      [
        "▁sık",
        -7.865762091284761
      ],
      [
        "▁hap",
        -9.684091964855948
      ],
      [
        "▁500",
        -6.435639842843321
      ],
      [
        "▁artı",
        -8.581293221837413
      ],
      [
        "▁iste",
        -6.53043461090222
      ],
      [
        "un",
        -6.563803247053545
      ],
      [
        "▁sona",
        -8.216296537348098
      ],
      [
        "▁git",
        -7.190858593130086
      ],
      [
        "▁james",
        -7.95169686791302
      ],
      [
        "▁tahvili",
        -9.422038822775892
      ],
      [
        "▁not",
        -9.076649044407535
      ],
      [
        "▁etmekte",
        -8.074015997544667
      ],
      [
        "▁tesekkurler",
        -8.355981129017952
      ],
      [
        "▁kararı",
        -8.451582348528722
      ],
      [
        "▁piyasaları",
        -9.04535268951789
      ],
      [
        "▁mektep",
        -9.877497385507173
      ],
      [
        "▁belir",
        -7.5840970746139265
      ],
      [
        "▁sırasın",
        -9.295461748669172
      ],
      [
        "▁etkinlikler",
        -10.104792365865622
      ],
      [
        "▁it",
        -9.668468271312399
      ],
      [
        "ap",
        -9.696673656981849
      ],
      [
        "▁artırmak",
        -10.130191895755623
      ],
      [
        "▁zor",
        -6.587348648101007
      ],
      [
        "▁yanı",
        -8.447338164011763
      ],
      [
        "tugunu",
        -9.895312985320421
      ],
      [
        "▁disind",
        -9.88828398815754
      ],
      [
        "▁say",
        -8.601413518006044
      ],
      [
        "00",
        -5.835146209538178
      ],
      [
        "▁konak",
        -9.781389478093885
      ],
      [
        "▁haberi",
        -9.143730186962621
      ],
      [
        "▁george",
        -7.757454851077565
      ],
      [
        "▁takım",
        -8.363941752206525
      ],
      [
        "▁tramvay",
        -9.839964701466275
      ],
      [
        "▁yokusu",
        -10.156004573145616
      ],
      [
        "▁washington'da",
        -6.676110632476292
      ],
      [
        "iy",
        -7.061574036687148
      ],
      [
        "▁hepsini",
        -5.598394737968925
      ],
      [
        "e",
        -3.88025217154164
      ],
      [
        "▁men",
        -7.508210131102051
      ],
      [
        "▁alanlar",
        -9.91674114156219
      ],
      [
        "di",
        -6.312665811588268
      ],
      [
        "▁sektoru",
        -9.234330448925931
      ],
      [
        "anın",
        -8.954895890707656
      ],
      [
        "▁yabancı",
        -9.144305549961988
      ],
      [
        "▁ozur",
        -9.9003112286958
      ],
      [
        "▁do",
        -4.997386800813171
      ],
      [
        "iyetli",
        -8.76819856306355
      ],
      [
        "▁ordu",
        -8.655793240910679
      ],
      [
        "▁nine",
        -9.64072118265808
      ],
      [
        "cılıgı",
        -9.73056426807076
      ],
      [
        "▁mu",
        -3.89386215236744
      ],
      [
        "▁saydı",
        -8.874757166580626
      ],
      [
        "▁magaza",
        -8.699573723744928
      ],
      [
        "k",
        -4.867414459287315
      ],
      [
        "▁risk",
        -8.6540423995259
      ],
      [
        "▁bile",
        -8.260251071771943
      ],
      [
        "▁ote",
        -8.811459287778568
      ],
      [
        "▁terzi",
        -9.961679631713977
      ],
      [
        "▁dol",
        -8.66387183973334
      ],
      [
        "ve",
        -6.34156215292432
      ],
      [
        "'un",
        -5.705129799005704
      ],
      [
        "▁karsıladı",
        -8.821245097391964
      ],
      [
        "ra",
        -7.8013411078404635
      ],
      [
        "▁turkler",
        -10.057369690323853
      ],
      [
        "▁jose'",
        -7.937863731996809
      ],
      [
        "▁nedenini",
        -10.092635857836182
      ],
      [
        "▁dallas'",
        -5.766594172843666
      ],
      [
        "or",
        -8.349775983074409
      ],
      [
        "▁doviz",
        -9.077957755805825
      ],
      [
        "▁oyunu",
        -8.983267063291773
      ],
      [
        "ger",
        -10.108427299989048
      ],
      [
        "acagın",
        -9.692622814088317
      ],
      [
        "▁cozme",
        -10.176565007971936
      ],
      [
        "bilir",
        -8.554670004530216
      ],
      [
        "▁harcamalar",
        -9.98868784188273
      ],
      [
        "sıdır",
        -7.665272996025402
      ],
      [
        "▁hay",
        -9.861965038483362
      ],
      [
        "lıgın",
        -8.22435030857279
      ],
      [
        "▁kullanıyor",
        -8.063980962690811
      ],
      [
        "9",
        -12.802702672349787
      ],
      [
        "▁yen'",
        -7.390874940176632
      ],
      [
        "▁bulasık",
        -10.099387814778495
      ],
      [
        "▁gorunmuyor",
        -8.817720247176707
      ],
      [
        "▁kese",
        -9.260685805622622
      ],
      [
        "▁kur",
        -8.480735570377263
      ],
      [
        "▁matematik",
        -9.503559129858214
      ],
      [
        "▁insanoglu",
        -10.028651519830227
      ],
      [
        "▁kaybed",
        -8.422957492860599
      ],
      [
        "▁bir",
        -3.027951570239419
      ],
      [
        "▁brit",
        -8.283373850844672
      ],
      [
        "▁kapatma",
        -9.784721361772128
      ],
      [
        "▁beraber",
        -6.830449956414693
      ],
      [
        "ele",
        -12.03594578210268
      ],
      [
        "▁buyu",
        -8.465510865884635
      ],
      [
        "▁ithalatı",
        -10.105385285784285
      ],
      [
        "acak",
        -6.715720254579955
      ],
      [
        "dar",
        -9.008516505021177
      ],
      [
        "asa",
        -9.345251328416396
      ],
      [
        "▁va",
        -8.405399899478365
      ],
      [
        "▁perde",
        -8.87250336850531
      ],
      [
        "▁analiz",
        -9.420752979345163
      ],
      [
        "▁cesur",
        -8.757668871855296
      ],
      [
        "egi",
        -9.52537270335491
      ],
      [
        "▁devaml",
        -8.604073543861139
      ],
      [
        "▁tur",
        -8.673507487778625
      ],
      [
        "▁halini",
        -9.91402809057909
      ],
      [
        "▁muzakere",
        -9.051615185622504
      ],
      [
        "▁yasadı",
        -8.302029221697184
      ],
      [
        "▁usta",
        -8.744238749966124
      ],
      [
        "▁",
        -2.896334987865555
      ],
      [
        "▁sofa",
        -10.02798537911513
      ],
      [
        "▁ekim",
        -8.781367136409346
      ],
      [
        "▁anne",
        -8.06044990547132
      ],
      [
        "▁bekliyordu",
        -8.664945580834615
      ],
      [
        "▁hal",
        -5.532686542076543
      ],
      [
        "▁yiyecekler",
        -8.760890723576999
      ],
      [
        "▁sizler",
        -6.647737353980031
      ],
      [
        "lenme",
        -8.398491152170017
      ],
      [
        "▁planı",
        -8.78924027281415
      ],
      [
        "▁3",
        -8.77475317842362
      ],
      [
        "▁piyasada",
        -8.941238431749783
      ],
      [
        "▁sucu",
        -10.115000079408741
      ],
      [
        "▁seyler",
        -7.533892322096259
      ],
      [
        "▁bey'i",
        -7.943703266449726
      ],
      [
        "▁bildiri",
        -10.151582657944523
      ],
      [
        "▁veremem",
        -8.922545305763009
      ],
      [
        "▁metre",
        -9.051936923862101
      ],
      [
        "k",
        -6.621157945432206
      ],
      [
        "▁ucret",
        -6.618443757329016
      ],
      [
        "kanlı",
        -8.637540324805098
      ],
      [
        "▁hatırlıyor",
        -8.983894176264693
      ],
      [
        "▁sirkette",
        -9.501554893267384
      ],
      [
        "▁sokak",
        -8.91063302929388
      ],
      [
        "▁tasfiye",
        -10.027955222793066
      ],
      [
        "mıs",
        -9.656561144778307
      ],
      [
        "▁bakan",
        -9.173415625446918
      ],
      [
        "i",
        -11.302702672349787
      ],
      [
        "▁calısıyor",
        -7.241602594793623
      ],
      [
        "▁kuvvet",
        -8.653153039540047
      ],
      [
        "▁basın",
        -7.010086775906844
      ],
      [
        "▁halat",
        -9.476720170732563
      ],
      [
        "▁hesabı",
        -9.491123367339966
      ],
      [
        "▁havuz",
        -7.553635438764325
      ],
      [
        "▁o",
        -7.746745249832147
      ],
      [
        "▁fis",
        -9.84479382296291
      ],
      [
        "ucu",
        -7.189250133002087
      ],
      [
        "▁ot",
        -9.26367405786448
      ],
      [
        "▁surpriz",
        -10.176306519499931
      ],
      [
        "▁torba",
        -9.545264262929203
      ],
      [
        "▁kucu",
        -8.433503492467294
      ],
      [
        "▁sanıyor",
        -8.989273905348202
      ],
      [
        "▁zeka",
        -9.556666898656779
      ],
      [
        "▁cıkarı",
        -8.227993096103734
      ],
      [
        "c",
        -6.519041070915973
      ],
      [
        "▁aktar",
        -8.557557591398407
      ],
      [
        "▁temsilcileri",
        -9.969331734021548
      ],
      [
        "west",
        -8.20326549531011
      ],
      [
        "▁olun",
        -8.377341387300296
      ],
      [
        "let",
        -9.116262885499474
      ],
      [
        "▁38",
        -7.462788926884992
      ],
      [
        "▁altında",
        -8.279205524189702
      ],
      [
        "▁getirileri",
        -10.10467236238045
      ],
      [
        "▁gerc",
        -7.974863682372032
      ],
      [
        "madı",
        -7.855064716859427
      ],
      [
        "▁uyar",
        -8.869908684716748
      ],
      [
        "sine",
        -7.109072515836234
      ],
      [
        "▁yasamadi",
        -7.882358148687448
      ],
      [
        "▁yazık",
        -9.637372338127363
      ],
      [
        "▁rakı",
        -8.884615069901558
      ],
      [
        "an",
        -5.478366728993746
      ],
      [
        "▁sanatın",
        -9.911929129849161
      ],
      [
        "▁hapis",
        -9.83870516448642
      ],
      [
        "▁bakın",
        -7.978477074509707
      ],
      [
        "▁meger",
        -8.017094335820264
      ],
      [
        "landırma",
        -9.976313057674073
      ],
      [
        "▁han",
        -9.509940598920425
      ],
      [
        "t",
        -4.499821088122294
      ],
      [
        "▁govde",
        -9.317863410592889
      ],
      [
        "▁hali",
        -7.346246457342755
      ],
      [
        "▁kocası",
        -9.48957503466519
      ],
      [
        "▁halka",
        -8.733263719970633
      ],
      [
        "▁eskid",
        -7.508059908398208
      ],
      [
        "▁cuma",
        -7.854205231719183
      ],
      [
        "▁mucevher",
        -10.027954870968268
      ],
      [
        "▁gece",
        -6.8423262270207905
      ],
      [
        "▁bazıları",
        -5.5918974405545265
      ],
      [
        "▁yapılmıs",
        -8.707561720268505
      ],
      [
        "▁soz",
        -7.18716750733744
      ],
      [
        "▁piyano",
        -9.634161728938029
      ],
      [
        "▁yapılaca",
        -7.3771974283079125
      ],
      [
        "▁gidiyordu",
        -8.28223365653192
      ],
      [
        "▁gor",
        -9.03372810685519
      ],
      [
        "▁fikirleri",
        -9.93757780266876
      ],
      [
        "▁ydı",
        -4.64779151718307
      ],
      [
        "nda",
        -7.109897563474514
      ],
      [
        "▁turist",
        -9.849466911861473
      ],
      [
        "yana",
        -10.207067491320931
      ],
      [
        "ce",
        -8.215244953050739
      ],
      [
        "▁onay",
        -8.920931674093227
      ],
      [
        "▁kamp",
        -9.731332177663372
      ],
      [
        "▁fi",
        -8.41869457856785
      ],
      [
        "▁tehlike",
        -8.616313472017437
      ],
      [
        "bas",
        -9.734826740257034
      ],
      [
        "▁gozluk",
        -10.11395654490097
      ],
      [
        "▁7",
        -4.986624988114711
      ],
      [
        "3.",
        -9.78654219912501
      ],
      [
        "▁superdi",
        -7.66835887429291
      ],
      [
        "▁etrafında",
        -8.912962544846803
      ],
      [
        "▁aktarma",
        -8.780315375189966
      ],
      [
        "ti",
        -7.68877548875577
      ],
      [
        "▁kampanyalar",
        -8.961630770618617
      ],
      [
        "▁guney",
        -9.354587190467058
      ],
      [
        "▁2",
        -8.646052158374655
      ],
      [
        "▁chp",
        -10.027959879663948
      ],
      [
        "▁dernegi",
        -9.898792593859621
      ],
      [
        "▁mulk",
        -9.21770056680246
      ],
      [
        "▁bakım",
        -7.325904814344627
      ],
      [
        "▁dır",
        -4.287573368195668
      ],
      [
        "▁oglan",
        -9.134794056343434
      ],
      [
        "▁var",
        -4.321802231705819
      ],
      [
        "▁dusunce",
        -8.837703919749423
      ],
      [
        "gı",
        -7.311332294522567
      ],
      [
        "▁imalat",
        -9.931051704375001
      ],
      [
        "▁kalmadı",
        -8.05967011986296
      ],
      [
        "▁olimpiyat",
        -10.099383442451256
      ],
      [
        "▁bankası",
        -8.971689021421026
      ],
      [
        "gı",
        -7.533626846813169
      ],
      [
        "▁muke",
        -6.741757312203705
      ],
      [
        "▁takip",
        -8.378171620062815
      ],
      [
        "▁cerceve",
        -9.48028381112767
      ],
      [
        "degil",
        -6.466618770077644
      ],
      [
        "▁odun",
        -9.003910930160355
      ],
      [
        "▁sorular",
        -9.385492202949857
      ],
      [
        "▁soyluyor",
        -6.643198559782432
      ],
      [
        "mda",
        -8.60230388528225
      ],
      [
        "▁yazı",
        -7.783176098005122
      ],
      [
        "▁herkeste",
        -8.043909796658193
      ],
      [
        "▁tahminler",
        -10.038235155733137
      ],
      [
        "▁sevim",
        -8.479737472403365
      ],
      [
        "▁deney",
        -9.385931831663807
      ],
      [
        "ınca",
        -6.707064326619587
      ],
      [
        "▁kurmay",
        -9.991806458079878
      ],
      [
        "▁sabah",
        -7.865268865524003
      ],
      [
        "dikte",
        -9.564994323174624
      ],
      [
        "▁kazan",
        -8.069428999623325
      ],
      [
        "▁turku",
        -8.96106072235399
      ],
      [
        "larımız",
        -8.465347348793486
      ],
      [
        "▁cocukların",
        -8.935037522774369
      ],
      [
        "▁dunya",
        -7.414707195677696
      ],
      [
        "▁yangın",
        -9.197757897059883
      ],
      [
        "▁saglan",
        -8.779514365581953
      ],
      [
        "▁duyguları",
        -9.352151855756665
      ],
      [
        "▁kursu",
        -9.820665026709506
      ],
      [
        "▁memur",
        -9.198649640383747
      ],
      [
        "▁surede",
        -9.747935441946622
      ],
      [
        "▁cıl",
        -8.446789978081668
      ],
      [
        "fes",
        -8.44847588586754
      ],
      [
        "▁mutlulugu",
        -9.898809951219079
      ],
      [
        "tmek",
        -9.053152365390176
      ],
      [
        "tim",
        -9.759050628751005
      ],
      [
        "de",
        -7.316563460623829
      ],
      [
        "▁cd",
        -10.03094319182007
      ],
      [
        "▁ulus",
        -7.1751403943790955
      ],
      [
        "▁altını",
        -10.097490040919691
      ],
      [
        "▁felc",
        -10.176406429104931
      ],
      [
        "be",
        -8.024463293400846
      ],
      [
        "▁acık",
        -7.077738448004128
      ],
      [
        "▁kagıt",
        -8.695749535606591
      ],
      [
        "▁tercih",
        -7.236352838464994
      ],
      [
        "▁anlamın",
        -8.667727003793141
      ],
      [
        "▁ziya",
        -7.9923065931273936
      ],
      [
        "▁tuz",
        -8.505937628549546
      ],
      [
        "tı",
        -6.533048043276506
      ],
      [
        "▁anlat",
        -10.100097808831135
      ],
      [
        "gibi",
        -6.566016267340741
      ],
      [
        "▁sacma",
        -9.6680409872341
      ],
      [
        "▁okulları",
        -10.037010142944899
      ],
      [
        "▁beklene",
        -8.47202102089458
      ],
      [
        "▁ebeveyn",
        -9.89878821135957
      ],
      [
        "▁iceri",
        -8.544337723926773
      ],
      [
        "▁konfor",
        -9.49767627630761
      ],
      [
        "▁ab",
        -9.048126099292816
      ],
      [
        "▁tac",
        -9.743094837817933
      ],
      [
        "▁kitapta",
        -9.857500563517922
      ],
      [
        "▁saglıgı",
        -9.51725885490152
      ],
      [
        "▁duygularını",
        -9.648204618878912
      ],
      [
        "▁kira",
        -9.165111240138561
      ],
      [
        "g",
        -6.440338115441626
      ],
      [
        "▁bahsediyor",
        -8.932971530601117
      ],
      [
        "▁calısan",
        -7.888338589848209
      ],
      [
        "▁pantolon",
        -9.813441498087043
      ],
      [
        "▁yolda",
        -8.393275256506886
      ],
      [
        "▁ve",
        -9.324294636803662
      ],
      [
        "▁dogan",
        -8.004232559420316
      ],
      [
        "▁anlatıyor",
        -8.627852953287539
      ],
      [
        "dir",
        -7.640704596950814
      ],
      [
        "▁ureticileri",
        -9.217825228227522
      ],
      [
        "▁deli",
        -7.876917093199866
      ],
      [
        "▁otel",
        -6.564227737254304
      ],
      [
        "maları",
        -8.445191383645746
      ],
      [
        "▁camur",
        -9.638292889229072
      ],
      [
        "lıkla",
        -7.8693673310211
      ],
      [
        "▁sorunların",
        -9.498826213888377
      ],
      [
        "▁mutemadi",
        -8.499264931476192
      ],
      [
        "▁carpı",
        -8.579111127910924
      ],
      [
        "▁gar",
        -9.394616829782438
      ],
      [
        "▁takımı",
        -9.153568245556777
      ],
      [
        "▁oyle",
        -5.64675409423086
      ],
      [
        "▁q",
        -9.784778051374488
      ],
      [
        "▁david",
        -8.039645432221675
      ],
      [
        "▁seydi",
        -8.329338082289006
      ],
      [
        "▁2.",
        -6.760491276534013
      ],
      [
        "h",
        -7.355463683374131
      ],
      [
        "▁industries",
        -8.129913594326528
      ],
      [
        "▁israil",
        -7.753206403420731
      ],
      [
        "abe",
        -8.567426442434614
      ],
      [
        "▁kalın",
        -7.871277273894357
      ],
      [
        "▁taslar",
        -9.459288508097751
      ],
      [
        "▁kuzey",
        -9.840016173829856
      ],
      [
        "▁program",
        -8.248347034730642
      ],
      [
        "▁gobegi",
        -9.898788223443866
      ],
      [
        "▁pahalı",
        -8.022469362426737
      ],
      [
        "▁dekorasyon",
        -9.59278878207029
      ],
      [
        "▁piyasa",
        -7.0856450867964575
      ],
      [
        "▁sabahın",
        -9.582976070353574
      ],
      [
        "▁6",
        -9.584661568756681
      ],
      [
        "▁kablo",
        -10.02795487413912
      ],
      [
        "▁acıg",
        -9.943966886247065
      ],
      [
        "▁rezerv",
        -9.026172845798996
      ],
      [
        "▁cocuklugum",
        -10.152071898991176
      ],
      [
        "ve",
        -5.575675023950563
      ],
      [
        "▁yanakları",
        -9.761956326264338
      ],
      [
        "▁muhafaza",
        -9.83978976160156
      ],
      [
        "lıklı",
        -8.655911197312777
      ],
      [
        "▁konus",
        -7.812994629712507
      ],
      [
        "▁hırsız",
        -9.348754442590266
      ],
      [
        "▁idaresi",
        -10.029794420743364
      ],
      [
        "▁ayrıl",
        -10.06642596044384
      ],
      [
        "▁mart",
        -7.772148254078754
      ],
      [
        "▁acık",
        -9.529548342468617
      ],
      [
        "▁tabi",
        -7.957719662881686
      ],
      [
        "▁avrupa'da",
        -7.497466820441639
      ],
      [
        "▁sıra",
        -7.542075982091267
      ],
      [
        "▁birini",
        -9.101330180289109
      ],
      [
        "len",
        -8.606878197165472
      ],
      [
        "▁klasik",
        -8.450304039233234
      ],
      [
        "kları",
        -8.336851683863237
      ],
      [
        "▁huner",
        -10.17640952252387
      ],
      [
        "▁video",
        -9.898788742717059
      ],
      [
        "▁kal",
        -8.221986803257368
      ],
      [
        "▁donu",
        -7.913212704786867
      ],
      [
        "los",
        -6.830333516071331
      ],
      [
        "▁giden",
        -8.50264301676016
      ],
      [
        "▁roman",
        -8.67870320455323
      ],
      [
        "▁aynı",
        -5.643781137011638
      ],
      [
        "▁borsada",
        -10.151187105812363
      ],
      [
        "su",
        -7.924619150497522
      ],
      [
        "▁iyiydi",
        -4.7290992028879995
      ],
      [
        "▁cizgi",
        -8.599697044837516
      ],
      [
        "▁kaldır",
        -8.203179932934313
      ],
      [
        "ında",
        -9.876441737514408
      ],
      [
        "▁dergileri",
        -10.170901839799004
      ],
      [
        "s",
        -6.14942133002761
      ],
      [
        "▁yapacagın",
        -9.856402556141848
      ],
      [
        "cık",
        -8.991392569339848
      ],
      [
        "▁aksi",
        -8.334466707343594
      ],
      [
        "▁gundem",
        -9.4508856950423
      ],
      [
        "▁yasanan",
        -8.872996337712346
      ],
      [
        "▁toreni",
        -9.968613943074939
      ],
      [
        "▁kıyas",
        -8.665428957164131
      ],
      [
        "▁aras",
        -8.438320933674301
      ],
      [
        "▁sa",
        -8.941774617687713
      ],
      [
        "▁simdi",
        -4.839658505846723
      ],
      [
        "lerde",
        -7.091786562618415
      ],
      [
        "▁iliski",
        -8.49819268601
      ],
      [
        "▁senaryo",
        -9.503559021193887
      ],
      [
        "▁jandarma",
        -10.09938347931497
      ],
      [
        "▁artı",
        -5.0609734598905
      ],
      [
        "▁istemez",
        -8.675704496356854
      ],
      [
        "▁yat",
        -8.637622034214361
      ],
      [
        "la",
        -7.519647211782816
      ],
      [
        "▁55",
        -7.460530306526801
      ],
      [
        "ar",
        -8.291577834059105
      ],
      [
        "▁mana",
        -9.333127142874101
      ],
      [
        "▁kazı",
        -9.923883595833724
      ],
      [
        "▁denge",
        -9.24186321670924
      ],
      [
        "▁tadim",
        -9.902383224581786
      ],
      [
        "si",
        -5.480218201930448
      ],
      [
        "▁ciro",
        -9.6817879070544
      ],
      [
        "▁suleyman",
        -8.171091438037156
      ],
      [
        "▁bunun",
        -4.410861678317182
      ],
      [
        "▁kuru",
        -7.42690891198972
      ],
      [
        "▁borsa",
        -8.232929035492822
      ],
      [
        "ce",
        -7.37276765553874
      ],
      [
        "▁tur",
        -6.953862621762375
      ],
      [
        "▁neresi",
        -7.338079000641589
      ],
      [
        "met",
        -8.920252266160631
      ],
      [
        "▁kesinti",
        -9.672130108627927
      ],
      [
        "▁ga",
        -8.354126557654107
      ],
      [
        "▁kent",
        -8.820022798647859
      ],
      [
        "▁arkadasları",
        -9.273898327030595
      ],
      [
        "▁pazartesi",
        -5.966423898325285
      ],
      [
        "▁hissesini",
        -9.900638890416296
      ],
      [
        "▁rakamlar",
        -9.102259444037267
      ],
      [
        "eri",
        -9.546284511109059
      ],
      [
        "▁kendim",
        -6.106222814598597
      ],
      [
        "▁programını",
        -10.058215202521042
      ],
      [
        "▁konfor",
        -8.869514621312884
      ],
      [
        "sef",
        -8.617685786776235
      ],
      [
        "▁yuzme",
        -8.096801228991408
      ],
      [
        "▁bankacılık",
        -9.734997260303432
      ],
      [
        "tıgını",
        -9.655417311116329
      ],
      [
        "gin",
        -8.712800069914545
      ],
      [
        "▁fasulye",
        -9.352346798710434
      ],
      [
        "▁yukarı",
        -7.702108339243992
      ],
      [
        "acık",
        -8.623245486613722
      ],
      [
        "▁tarafı",
        -8.873916754521687
      ],
      [
        "▁kurt",
        -9.101662322509156
      ],
      [
        "▁yasamı",
        -9.674112405155809
      ],
      [
        "y",
        -7.270921725675689
      ],
      [
        "▁omur",
        -9.388068113744115
      ],
      [
        "▁eylul'de",
        -7.876697701139456
      ],
      [
        "▁projeler",
        -9.993267168099354
      ],
      [
        "▁yılını",
        -9.419117431568528
      ],
      [
        "anları",
        -9.929758015086326
      ],
      [
        "▁ozellikleri",
        -9.80067817527313
      ],
      [
        "tan",
        -8.184196537499542
      ],
      [
        "▁kazanclar",
        -9.40150821751051
      ],
      [
        "aj",
        -8.71637342584558
      ],
      [
        "▁cocukları",
        -8.61257065397782
      ],
      [
        "n",
        -5.029702813057831
      ],
      [
        "▁olusturuyor",
        -8.98898901840053
      ],
      [
        "▁degerlendir",
        -8.832463340496707
      ],
      [
        "▁cennet",
        -9.388061656636005
      ],
      [
        "▁biliyorsun",
        -8.513719304853531
      ],
      [
        "▁bolgede",
        -9.334914488197855
      ],
      [
        "▁donemi",
        -9.2180066677954
      ],
      [
        "tır",
        -8.673098603175978
      ],
      [
        "▁gerektigin",
        -8.675450598764355
      ],
      [
        "▁calısanı",
        -9.997789448345761
      ],
      [
        "▁gezegen",
        -10.099383669928596
      ],
      [
        "tır",
        -6.406876942945082
      ],
      [
        "▁sonun",
        -8.803058278580057
      ],
      [
        "▁pist",
        -10.102042436144153
      ],
      [
        "▁iki",
        -9.017387623429535
      ],
      [
        "▁protesto",
        -9.588703950607409
      ],
      [
        "▁etki",
        -8.755337772436024
      ],
      [
        "nce",
        -8.56076424898551
      ],
      [
        "▁yukseldigin",
        -9.98395312191137
      ],
      [
        "2",
        -8.759042508593922
      ],
      [
        "▁durumunda",
        -9.20807689804445
      ],
      [
        "▁tir",
        -10.054082463885758
      ],
      [
        "▁damar",
        -9.223508737285991
      ],
      [
        "▁isten",
        -9.46691484763397
      ],
      [
        "▁sinema",
        -8.909794434433106
      ],
      [
        "▁uyandır",
        -8.973804091799792
      ],
      [
        "▁gerilim",
        -9.899017082693597
      ],
      [
        "ligin",
        -8.547454000500942
      ],
      [
        "▁hastalıkları",
        -9.998876992084204
      ],
      [
        "▁ic",
        -6.5122645661677705
      ],
      [
        "▁iade",
        -9.589202606109824
      ],
      [
        "yen",
        -6.847219483426914
      ],
      [
        "▁avrupa",
        -6.539587593629259
      ],
      [
        "▁has",
        -8.726625874575694
      ],
      [
        "▁bes",
        -4.200467720609225
      ],
      [
        "▁uzak",
        -7.416518726101365
      ],
      [
        "▁aksam",
        -6.6552843446679555
      ],
      [
        "▁bakim",
        -8.692247591030657
      ],
      [
        "▁aldıgın",
        -9.838312008048877
      ],
      [
        "▁beye",
        -9.42061064649915
      ],
      [
        "▁alıcılar",
        -9.71855325324909
      ],
      [
        "▁umit",
        -9.682020189701694
      ],
      [
        "▁pansiyon",
        -9.840509826671362
      ],
      [
        "▁vurgu",
        -9.843553437044294
      ],
      [
        "▁tu",
        -3.938386220041247
      ],
      [
        "miyoru",
        -8.840425377936985
      ],
      [
        "▁av",
        -8.912702494874924
      ],
      [
        "▁kendi",
        -3.6923164518459464
      ],
      [
        "la",
        -6.087479352776021
      ],
      [
        "▁gereke",
        -8.279110484610474
      ],
      [
        "dıgını",
        -8.3116168872929
      ],
      [
        "abı",
        -8.959536421818612
      ],
      [
        "▁oner",
        -8.88718245362589
      ],
      [
        "mak",
        -7.3460374908202715
      ],
      [
        "▁hukumetin",
        -9.003947220779283
      ],
      [
        "▁tuzu",
        -10.172129953908133
      ],
      [
        "▁toplantısında",
        -9.968292445252656
      ],
      [
        "▁calısanları",
        -9.334138148264898
      ],
      [
        "▁ustun",
        -8.03828813011044
      ],
      [
        "gen",
        -9.541992278161736
      ],
      [
        "▁ta",
        -7.96713719833811
      ],
      [
        "▁guleryuzluler",
        -8.983893706116032
      ],
      [
        "sız",
        -7.68390184486632
      ],
      [
        "▁suphe",
        -8.404558566732096
      ],
      [
        "▁edilebilir",
        -8.721184716247883
      ],
      [
        "▁dehset",
        -10.176306543441548
      ],
      [
        "kten",
        -8.797004257726309
      ],
      [
        "▁ust",
        -8.814400935681396
      ],
      [
        "▁ogrenme",
        -8.963108022459721
      ],
      [
        "▁onc",
        -8.378922882909404
      ],
      [
        "▁hukuku",
        -10.156121939738544
      ],
      [
        "lerin",
        -5.965664511949906
      ],
      [
        "hane",
        -8.761309486121394
      ],
      [
        "▁guzel",
        -4.693236553347686
      ],
      [
        "▁roman",
        -8.767074616928863
      ],
      [
        "▁endise",
        -8.543527610458806
      ],
      [
        "o",
        -7.574551781463574
      ],
      [
        "▁ucus",
        -6.034038059123369
      ],
      [
        "▁juri",
        -9.682096862266452
      ],
      [
        "▁gucunu",
        -9.680857585735655
      ],
      [
        "▁atı",
        -8.736617046334695
      ],
      [
        "▁sev",
        -9.653691124748601
      ],
      [
        "▁mahmut",
        -8.349867822604647
      ],
      [
        "nın",
        -5.270078756239349
      ],
      [
        "▁calar",
        -8.686754818092272
      ],
      [
        "ımızda",
        -9.456512668188527
      ],
      [
        "▁altı",
        -4.934015652473771
      ],
      [
        "lıkla",
        -9.466805567770962
      ],
      [
        "▁di",
        -9.030980831435159
      ],
      [
        "▁ucusunda",
        -9.740569674823274
      ],
      [
        "▁araya",
        -8.525755107115026
      ],
      [
        "▁pilot",
        -9.179428283106308
      ],
      [
        "▁savası",
        -8.858226428398872
      ],
      [
        "▁10",
        -9.692815490797141
      ],
      [
        "▁sendika",
        -8.761295826763716
      ],
      [
        "▁han",
        -8.220608278298114
      ],
      [
        "▁cel",
        -9.439450279716288
      ],
      [
        "▁firmalar",
        -10.045476330812885
      ],
      [
        "▁ka",
        -8.294860978827629
      ],
      [
        "yı",
        -7.484810634208488
      ],
      [
        "u",
        -4.295690201514403
      ],
      [
        "▁odedigim",
        -6.715099991319124
      ],
      [
        "▁secildi",
        -8.562563816311796
      ],
      [
        "er",
        -11.017488162037896
      ],
      [
        "mus",
        -6.6063377594969
      ],
      [
        "li",
        -4.226068988600278
      ],
      [
        "▁kendisinde",
        -6.859663833901616
      ],
      [
        "▁oldugum",
        -7.761207621413908
      ],
      [
        "ala",
        -9.934545394150513
      ],
      [
        "c",
        -4.254761954954862
      ],
      [
        "▁bıyıkları",
        -9.930145198806969
      ],
      [
        "▁duzeltme",
        -9.96129022858815
      ],
      [
        "▁catla",
        -8.58703951183536
      ],
      [
        "yabilir",
        -8.683868959968766
      ],
      [
        "▁teması",
        -10.129050509233291
      ],
      [
        "▁gectigim",
        -8.61122539536374
      ],
      [
        "an",
        -5.667896662926791
      ],
      [
        "▁davran",
        -8.567626557843383
      ],
      [
        "▁pencereler",
        -10.029770948742803
      ],
      [
        "▁mi",
        -8.917711727719045
      ],
      [
        "▁mekan",
        -9.026338614908672
      ],
      [
        "▁degil",
        -2.538634238983531
      ],
      [
        "▁pesinde",
        -9.399697435476128
      ],
      [
        "▁buyudu",
        -8.649143620517247
      ],
      [
        "▁etrafın",
        -10.136963803077741
      ],
      [
        "▁hassas",
        -8.493380798764369
      ],
      [
        "▁rezervasyonu",
        -8.18447371030464
      ],
      [
        "▁ucunda",
        -9.237163884950764
      ],
      [
        "▁12'de",
        -9.318108265949274
      ],
      [
        "▁kadro",
        -9.909209297356702
      ],
      [
        "▁tane",
        -8.049627557567952
      ],
      [
        "▁issizlik",
        -10.034007605394846
      ],
      [
        "▁air",
        -6.400627223074339
      ],
      [
        "▁kiralama",
        -9.590902527996828
      ],
      [
        "▁kara",
        -6.747199164576153
      ],
      [
        "w",
        -9.781666471481843
      ],
      [
        "larınız",
        -9.941314595417547
      ],
      [
        "▁oteldi",
        -7.362574892416137
      ],
      [
        "▁olmasi",
        -8.069279641447574
      ],
      [
        "▁tiyatro",
        -8.47177574109336
      ],
      [
        "luk",
        -7.58203323543242
      ],
      [
        "▁bilmiyor",
        -8.847560148342811
      ],
      [
        "▁muzik",
        -8.78046548787884
      ],
      [
        "▁kuvvetleri",
        -9.41937412799869
      ],
      [
        "▁etmez",
        -8.402905412534649
      ],
      [
        "▁barıs",
        -9.211405767758823
      ],
      [
        "▁devrim",
        -8.986069756895095
      ],
      [
        "▁ton",
        -8.87131314257021
      ],
      [
        "uncu",
        -8.61725654199062
      ],
      [
        "▁olabil",
        -8.713444226035984
      ],
      [
        "▁sepet",
        -9.221022831859003
      ],
      [
        "▁yetkili",
        -8.701522635090374
      ],
      [
        "▁ugradı",
        -8.493231302896067
      ],
      [
        "e",
        -3.073718075016717
      ],
      [
        "nı",
        -6.614792509908661
      ],
      [
        "▁talebin",
        -10.14181767284516
      ],
      [
        "bi",
        -7.635688365991328
      ],
      [
        "▁m",
        -6.868818945363074
      ],
      [
        "▁kap",
        -8.457335684643596
      ],
      [
        "▁basarılar",
        -10.084661539777777
      ],
      [
        "▁ucmak",
        -7.751648479573512
      ],
      [
        "▁saskın",
        -10.16592614192194
      ],
      [
        "▁bos",
        -6.966195874127998
      ],
      [
        "▁ilgiliydi",
        -6.005176198909274
      ],
      [
        "▁hem",
        -10.124775861415383
      ],
      [
        "▁az",
        -9.08138412959719
      ],
      [
        "▁1.2",
        -6.764701618245941
      ],
      [
        "▁aklın",
        -8.968615808990311
      ],
      [
        "▁7\\/",
        -6.8180399467908055
      ],
      [
        "▁",
        -6.206069250914624
      ],
      [
        "▁yargıc",
        -9.309953506436738
      ],
      [
        "▁tava",
        -9.604799374117562
      ],
      [
        "▁donanma",
        -9.9612952389662
      ],
      [
        "▁senetlerini",
        -9.722694093378706
      ],
      [
        "▁kay",
        -8.977307347852069
      ],
      [
        "▁buyu",
        -8.752636958249342
      ],
      [
        "▁yapılan",
        -6.93763034813531
      ],
      [
        "▁bankalar",
        -9.212912823398511
      ],
      [
        "▁olur",
        -6.171130023010019
      ],
      [
        "dır",
        -6.552896859402912
      ],
      [
        "▁oysa",
        -7.627516959748585
      ],
      [
        "ta",
        -6.454986418729423
      ],
      [
        "ar",
        -7.961408490009891
      ],
      [
        "▁bulut",
        -9.990166237487966
      ],
      [
        "man",
        -7.430768097625315
      ],
      [
        "▁yer",
        -8.688531086050851
      ],
      [
        "▁dusundugum",
        -8.699969769942838
      ],
      [
        "b",
        -7.787526154383432
      ],
      [
        "▁anda",
        -7.30972984251379
      ],
      [
        "▁doldurdu",
        -8.373924564541808
      ],
      [
        "cak",
        -9.936236622001802
      ],
      [
        "▁arkadaslarını",
        -9.983658905905342
      ],
      [
        "%",
        -12.802702672349787
      ],
      [
        "▁sıkıntısı",
        -9.759684477952904
      ],
      [
        "▁deyi",
        -8.927813869620405
      ],
      [
        "▁yerin",
        -7.675975537647207
      ],
      [
        "▁domuz",
        -10.043087244351216
      ],
      [
        "▁in",
        -8.52834500238243
      ],
      [
        "ni",
        -6.209734095278867
      ],
      [
        "▁bıcak",
        -9.104959107507359
      ],
      [
        "▁kaynaklar",
        -10.024337628608066
      ],
      [
        "▁tekrar",
        -5.767848238720847
      ],
      [
        "▁kasaba",
        -8.714788299477227
      ],
      [
        "▁ucusları",
        -5.574783406367256
      ],
      [
        "lere",
        -6.718424578081387
      ],
      [
        "▁8",
        -9.21782146353967
      ],
      [
        "▁sozcuk",
        -10.137773558147515
      ],
      [
        "▁kendin",
        -8.523181040772364
      ],
      [
        "▁yaz",
        -7.950343997234887
      ],
      [
        "▁emri",
        -10.008130402691323
      ],
      [
        "=",
        -11.302702672349787
      ],
      [
        "▁kimi",
        -5.800937397148718
      ],
      [
        "▁lif",
        -10.104734135233922
      ],
      [
        "▁cark",
        -9.990291553159597
      ],
      [
        "▁yıl",
        -7.903817682942627
      ],
      [
        "▁bag",
        -8.454239985352551
      ],
      [
        "▁yumusa",
        -7.937687443718504
      ],
      [
        "▁kos",
        -8.476965782490117
      ],
      [
        "▁hatıraları",
        -9.92793722173556
      ],
      [
        "▁ucus",
        -8.859418453043288
      ],
      [
        "▁bir",
        -9.466504618835746
      ],
      [
        "▁bildir",
        -8.667162452386297
      ],
      [
        "▁yolculuk",
        -9.026779404903621
      ],
      [
        "ecegini",
        -9.093451078693175
      ],
      [
        "▁haftalı",
        -8.124062166503307
      ],
      [
        "▁yuk",
        -8.917091074180817
      ],
      [
        "us",
        -8.454761038481479
      ],
      [
        "▁verdik",
        -8.37332680053282
      ],
      [
        "▁yuvarla",
        -8.408690023685082
      ],
      [
        "▁denile",
        -8.392108695656162
      ],
      [
        "s",
        -4.8952306501044145
      ],
      [
        "▁uygundu",
        -7.652345947537907
      ],
      [
        "▁paul'",
        -7.571377764242304
      ],
      [
        "▁strateji",
        -8.866081951164054
      ],
      [
        "▁ak",
        -7.232676296493377
      ],
      [
        "▁azın",
        -8.761996323733628
      ],
      [
        "▁mesajı",
        -10.074939671293993
      ],
      [
        "mamıs",
        -8.715796391966146
      ],
      [
        "▁cıkmak",
        -9.44121842133861
      ],
      [
        "▁ruyalar",
        -10.06126358052391
      ],
      [
        "▁baglantı",
        -9.190719112153191
      ],
      [
        "ebilir",
        -6.895147310968675
      ],
      [
        "▁uyusturucu",
        -9.961288204397356
      ],
      [
        "▁onem",
        -8.643818201763617
      ],
      [
        "▁yardimci",
        -8.062726031045958
      ],
      [
        "hi",
        -8.532206181582685
      ],
      [
        "▁yaktı",
        -8.727458179960532
      ],
      [
        "▁2.6",
        -7.411926299767766
      ],
      [
        "ince",
        -9.74008781387159
      ],
      [
        "ındaki",
        -6.092440581840932
      ],
      [
        "▁sise",
        -8.993515567574804
      ],
      [
        "tab",
        -9.553635617866544
      ],
      [
        "▁birl",
        -8.456773045245946
      ],
      [
        "min",
        -8.42882417760081
      ],
      [
        "▁huzun",
        -9.839981764676583
      ],
      [
        "▁borcu",
        -9.106454503439359
      ],
      [
        "▁arkadasım",
        -9.38298637726125
      ],
      [
        "▁va",
        -8.05949518139524
      ],
      [
        "▁gorur",
        -8.108774746381336
      ],
      [
        "▁cesitli",
        -7.127344675886908
      ],
      [
        "ak",
        -5.6150221036885055
      ],
      [
        "▁iletisim",
        -8.906791306865296
      ],
      [
        "sunda",
        -9.737939332797993
      ],
      [
        "▁inc",
        -6.94299459218671
      ],
      [
        "miyor",
        -7.394474598951474
      ],
      [
        "de",
        -7.712219109088788
      ],
      [
        "▁eyalet",
        -8.956685606151593
      ],
      [
        "▁malzemeleri",
        -9.632691586173252
      ],
      [
        "▁olacaktı",
        -7.593186088791428
      ],
      [
        "▁bag",
        -8.348181691497707
      ],
      [
        "de",
        -5.3119117464301135
      ],
      [
        "▁satıslarını",
        -10.04604061866052
      ],
      [
        "▁toplam",
        -7.814002498854201
      ],
      [
        "▁sesini",
        -9.305212463784807
      ],
      [
        "▁mantık",
        -8.140580639447716
      ],
      [
        "▁gorustu",
        -7.861515663917697
      ],
      [
        "▁iskonto",
        -9.634158521606492
      ],
      [
        "▁etmeye",
        -8.487263288025593
      ],
      [
        "▁girmis",
        -8.899909960239881
      ],
      [
        "lar",
        -4.391463901597749
      ],
      [
        "▁bankacılar",
        -10.104451138281064
      ],
      [
        "▁supurge",
        -10.09938344970753
      ],
      [
        "▁burnu",
        -9.769690976943249
      ],
      [
        "▁analizciler",
        -9.468118507357525
      ],
      [
        "▁bakanlıgı'n",
        -9.735304766074414
      ],
      [
        "▁13",
        -6.181566688398235
      ],
      [
        "bili",
        -7.975758866809144
      ],
      [
        "▁artısla",
        -7.9198143635756715
      ],
      [
        "▁safha",
        -10.061217263481858
      ],
      [
        "yorum",
        -7.974039099820722
      ],
      [
        "▁mut",
        -9.641235584015035
      ],
      [
        "▁sekeri",
        -10.171670314155797
      ],
      [
        "▁koydu",
        -7.595980521404155
      ],
      [
        "▁pasifi",
        -10.176339914504073
      ],
      [
        "▁gidebilir",
        -8.55148205818069
      ],
      [
        "▁otelde",
        -8.362671288111375
      ],
      [
        "▁koku",
        -8.606913650886579
      ],
      [
        "▁sok",
        -8.819062772029946
      ],
      [
        "▁tahammul",
        -10.176306519337402
      ],
      [
        "▁olmaya",
        -8.999355224745273
      ],
      [
        "▁satımı",
        -10.08699982032948
      ],
      [
        "▁d",
        -7.853809268752026
      ],
      [
        "▁okulda",
        -9.755748721482224
      ],
      [
        "▁continental",
        -6.602896564173301
      ],
      [
        "▁gecim",
        -10.027970653918251
      ],
      [
        "▁kasa",
        -9.316510407630513
      ],
      [
        "▁yanıyor",
        -8.330972364980287
      ],
      [
        "asla",
        -7.040142036828939
      ],
      [
        "k",
        -4.230434075455024
      ],
      [
        "▁saki",
        -6.997830724557234
      ],
      [
        "▁ani",
        -8.79281280256296
      ],
      [
        "▁yerinde",
        -8.10903683046838
      ],
      [
        "co",
        -7.900338045405286
      ],
      [
        "▁yagmur",
        -8.776268612890473
      ],
      [
        "▁kosar",
        -8.545452459367537
      ],
      [
        "▁dus",
        -8.356397854454613
      ],
      [
        "ser",
        -9.454922673236004
      ],
      [
        "▁ilgili",
        -5.433302855292382
      ],
      [
        "▁suret",
        -9.96061599886573
      ],
      [
        "il",
        -5.634874555172875
      ],
      [
        "▁icer",
        -7.4531731918603485
      ],
      [
        "▁fiyatını",
        -9.847664704190294
      ],
      [
        "▁",
        -2.4272339966376846
      ],
      [
        "▁gid",
        -10.066910852838207
      ],
      [
        "▁tuketiciler",
        -9.817296569774479
      ],
      [
        "▁25",
        -5.692044772168898
      ],
      [
        "▁kaf",
        -10.15152951437429
      ],
      [
        "▁haric",
        -8.90754603050269
      ],
      [
        "gını",
        -7.402387239815231
      ],
      [
        "▁karsilama",
        -8.275826153557919
      ],
      [
        "▁yıla",
        -9.005965724713821
      ],
      [
        "yuklu",
        -8.623668324093863
      ],
      [
        "▁cık",
        -9.228127290071571
      ],
      [
        "▁yollarda",
        -9.882917668955027
      ],
      [
        "▁200",
        -6.130752197523192
      ],
      [
        "▁hayatın",
        -8.780401696211944
      ],
      [
        "▁uyusturucu",
        -8.114764989686812
      ],
      [
        "▁guc",
        -8.484829431853754
      ],
      [
        "▁salonda",
        -10.045538622986157
      ],
      [
        "e",
        -3.9469061176939917
      ],
      [
        "▁his",
        -9.02871575029963
      ],
      [
        "▁omuz",
        -9.498887763814203
      ],
      [
        "▁ucusu",
        -8.875815659425072
      ],
      [
        "eden",
        -7.420764609517118
      ],
      [
        "▁raporları",
        -9.723926673866265
      ],
      [
        "▁oray",
        -8.045194802792096
      ],
      [
        "un",
        -6.350571138778809
      ],
      [
        "▁rakam",
        -9.59406119181797
      ],
      [
        "asagı",
        -7.350576247561033
      ],
      [
        "▁goruyordu",
        -8.798388002219562
      ],
      [
        "meger",
        -11.466125186009307
      ],
      [
        "▁paket",
        -9.077992976361653
      ],
      [
        "▁kelimeler",
        -9.654851107532753
      ],
      [
        "▁etti",
        -5.191383391828558
      ],
      [
        "▁baslangıc",
        -9.626689896391797
      ],
      [
        "ha",
        -8.439566849849674
      ],
      [
        "gında",
        -8.635260897970294
      ],
      [
        "ı",
        -6.290151035760891
      ],
      [
        "▁arasın",
        -7.727391433307153
      ],
      [
        "▁beni",
        -8.490688144540702
      ],
      [
        "▁dolas",
        -8.399356915511563
      ],
      [
        "▁davet",
        -8.906669749917386
      ],
      [
        "▁masal",
        -9.74177515102914
      ],
      [
        "▁bun",
        -4.9564173551099096
      ],
      [
        "▁olursa",
        -7.118533903910536
      ],
      [
        "ton",
        -7.6226007165899015
      ],
      [
        "▁yarın",
        -7.798529823267751
      ],
      [
        "▁zihni",
        -9.352356641873245
      ],
      [
        "▁kayıp",
        -9.718502707064934
      ],
      [
        "▁merhaba",
        -9.588704027903454
      ],
      [
        "▁her",
        -6.384114116204266
      ],
      [
        "▁cesitli",
        -8.766884099657567
      ],
      [
        "i'ni",
        -7.8121410590960405
      ],
      [
        "▁de",
        -4.7753992930642415
      ],
      [
        "▁ithalat",
        -9.188764188110053
      ],
      [
        "▁bonoları",
        -9.844535751102892
      ],
      [
        "▁john",
        -7.546371710635979
      ],
      [
        "▁baskan",
        -8.311889032106556
      ],
      [
        "▁olum",
        -7.852817688776028
      ],
      [
        "f",
        -11.199613634584775
      ],
      [
        "▁dunyasında",
        -9.870222895633555
      ],
      [
        "▁tabak",
        -9.596603435279572
      ],
      [
        "▁lezzetleri",
        -8.841774605790807
      ],
      [
        "▁h",
        -8.166014944829916
      ],
      [
        "▁eylul",
        -7.337048712433888
      ],
      [
        "dan",
        -7.21729541521439
      ],
      [
        "em",
        -11.24164467511393
      ],
      [
        "▁cins",
        -9.574843814862259
      ],
      [
        "mısım",
        -8.80969525404123
      ],
      [
        "▁japon",
        -8.87653550079035
      ],
      [
        "▁198",
        -5.050423814575034
      ],
      [
        "▁beach'",
        -7.723797446186319
      ],
      [
        "▁yuzde",
        -8.42352930436707
      ],
      [
        "▁var",
        -6.912256961521406
      ],
      [
        "ya",
        -3.9236136214403894
      ],
      [
        "um",
        -8.272284003403879
      ],
      [
        "▁sehir",
        -7.523227552497981
      ],
      [
        "▁saglam",
        -7.505608927072872
      ],
      [
        "▁islem",
        -7.574287524716424
      ],
      [
        "▁doları'n",
        -8.3343778319604
      ],
      [
        "ri",
        -7.982229087466196
      ],
      [
        "▁degisiklik",
        -9.132239279850799
      ],
      [
        "▁elin",
        -9.08095877868757
      ],
      [
        "▁dondu",
        -7.247701092557411
      ],
      [
        "▁tanıdı",
        -8.98981867857058
      ],
      [
        "▁olmalı",
        -8.049370882092017
      ],
      [
        "gim",
        -8.580777891417519
      ],
      [
        "▁hafif",
        -6.813099720239409
      ],
      [
        "▁a",
        -11.666990925470232
      ],
      [
        "▁bir",
        -4.592889084469568
      ],
      [
        "sun",
        -6.380546687901305
      ],
      [
        "▁degisiklikleri",
        -9.737757836939593
      ],
      [
        "▁yollar",
        -9.479169749949811
      ],
      [
        "▁51",
        -7.440225150164746
      ],
      [
        "▁kisi",
        -6.912513065481617
      ],
      [
        "▁a",
        -7.494713518214896
      ],
      [
        "▁verin",
        -7.821727333853647
      ],
      [
        "▁don",
        -8.33302328191867
      ],
      [
        "▁kolları",
        -9.668656990385578
      ],
      [
        "▁rejimi",
        -10.105422984540573
      ],
      [
        "▁il",
        -6.111403265351347
      ],
      [
        "▁muhafazakar",
        -10.015756133760597
      ],
      [
        "▁ilim",
        -10.175052043667677
      ],
      [
        "▁gemi",
        -8.030048486366617
      ],
      [
        "▁ver",
        -9.660257612604756
      ],
      [
        "▁reis",
        -10.04210633282311
      ],
      [
        "dır",
        -6.256740043874634
      ],
      [
        "abiliyor",
        -8.925362242997718
      ],
      [
        "▁bahis",
        -9.961635955940734
      ],
      [
        "▁adını",
        -8.665192071365222
      ],
      [
        "▁yukselmesin",
        -10.116305003309563
      ],
      [
        "”",
        -9.78282532741986
      ],
      [
        "▁adl",
        -9.727380685811266
      ],
      [
        "▁darbe",
        -8.741639967505368
      ],
      [
        "▁itibari",
        -9.017076635215918
      ],
      [
        "▁atolye",
        -10.176314329951936
      ],
      [
        "cılar",
        -8.198668733583938
      ],
      [
        "▁kimligi",
        -10.05878268146811
      ],
      [
        "▁gunu",
        -6.261576438994198
      ],
      [
        "▁romancı",
        -9.905789648861171
      ],
      [
        "▁parcası",
        -8.776336492385395
      ],
      [
        "▁ulus",
        -9.442710698366719
      ],
      [
        "▁pis",
        -7.848255553532132
      ],
      [
        "▁saatte",
        -9.311704084058814
      ],
      [
        "▁musluman",
        -10.17630669875712
      ],
      [
        "▁digerleri",
        -8.869316216106464
      ],
      [
        "▁modeller",
        -10.142952558085575
      ],
      [
        "▁bitti",
        -8.307250127795333
      ],
      [
        "▁borsası'n",
        -9.347630248547981
      ],
      [
        "v",
        -8.402736224443764
      ],
      [
        "▁genclik",
        -9.505446400030156
      ],
      [
        "▁seri",
        -8.243574936551441
      ],
      [
        "ers",
        -8.328627332885318
      ],
      [
        "d",
        -10.41573712684167
      ],
      [
        "▁yurt",
        -8.633242658341526
      ],
      [
        "▁49",
        -7.116235119124601
      ],
      [
        "▁yeter",
        -7.718708084894754
      ],
      [
        "▁1.7",
        -6.892164186865186
      ],
      [
        "hic",
        -7.843634605618451
      ],
      [
        "▁iste",
        -8.510664841238706
      ],
      [
        "▁edebilir",
        -7.8848612233505015
      ],
      [
        "▁ucagı",
        -9.60639638912383
      ],
      [
        "▁gorusmelerin",
        -10.053437432546678
      ],
      [
        "p",
        -6.8247742603690735
      ],
      [
        "▁calısma",
        -8.10203209878561
      ],
      [
        "▁ede",
        -7.714236608470222
      ],
      [
        "▁sahipleri",
        -8.854869794341063
      ],
      [
        "imle",
        -6.45089307209828
      ],
      [
        "▁gozum",
        -9.442287388069516
      ],
      [
        "▁rezervasyon",
        -8.341319845706803
      ],
      [
        "▁cap",
        -8.46574441981694
      ],
      [
        "▁polis",
        -8.672681835406959
      ],
      [
        "larını",
        -5.940442738682342
      ],
      [
        "▁firs",
        -8.260342780382578
      ],
      [
        "▁cukur",
        -9.73178083591959
      ],
      [
        "▁kendisi",
        -5.0164946613251225
      ],
      [
        "▁kurus",
        -9.240599693927493
      ],
      [
        "▁ait",
        -5.924503288156106
      ],
      [
        "▁isini",
        -8.842625661587274
      ],
      [
        "▁kiler",
        -5.651095447333789
      ],
      [
        "▁kume",
        -9.972631952549222
      ],
      [
        "▁cabası",
        -9.985016124795752
      ],
      [
        "▁beri",
        -7.337470521257895
      ],
      [
        "▁gun",
        -6.073615341159536
      ],
      [
        "▁soguktu",
        -8.111127033409582
      ],
      [
        "▁mecbur",
        -8.757778843797404
      ],
      [
        "▁geciyor",
        -7.629980189897767
      ],
      [
        "▁donemde",
        -8.584642946794908
      ],
      [
        "▁hukumet",
        -7.753369232637409
      ],
      [
        "▁saatleri",
        -9.435544304845438
      ],
      [
        "zl",
        -8.922167783293098
      ],
      [
        "▁donmus",
        -8.632329422279831
      ],
      [
        "klarını",
        -8.01160706971895
      ],
      [
        "▁izledi",
        -8.524102975840872
      ],
      [
        "▁pers",
        -6.945780476725198
      ],
      [
        "▁konuda",
        -8.42416431949812
      ],
      [
        "▁cenaze",
        -9.73177821926435
      ],
      [
        "▁muh",
        -7.142172831036666
      ],
      [
        "▁harp",
        -9.354356062149309
      ],
      [
        "▁on",
        -4.304254523933001
      ],
      [
        "maz",
        -8.055526155489876
      ],
      [
        "▁columbus'",
        -7.644761089220504
      ],
      [
        "ip",
        -8.147036271354292
      ],
      [
        "▁ilan",
        -8.40688179167035
      ],
      [
        "▁oranında",
        -9.060606660716383
      ],
      [
        "▁fena",
        -6.973697154414399
      ],
      [
        "▁kac",
        -8.390868883630446
      ],
      [
        "mesi",
        -7.080830730383252
      ],
      [
        "▁cart",
        -9.915449896328374
      ],
      [
        "▁detroit'",
        -7.969483508508505
      ],
      [
        "▁agzım",
        -10.071754245963115
      ],
      [
        "▁tutuyor",
        -8.171606175707474
      ],
      [
        "seniz",
        -8.278469743849517
      ],
      [
        "▁evin",
        -7.900547210114244
      ],
      [
        "▁at",
        -7.897438011233419
      ],
      [
        "gari",
        -8.52184592464536
      ],
      [
        "▁yapil",
        -8.217889134525423
      ],
      [
        "▁bolge",
        -8.187216144554789
      ],
      [
        "▁dah",
        -8.480184938324264
      ],
      [
        "▁hacim",
        -8.633448972456822
      ],
      [
        "▁hosum",
        -9.324638127994817
      ],
      [
        "▁sırrı",
        -10.03063674747972
      ],
      [
        "▁mezarlıg",
        -10.078626411539368
      ],
      [
        "▁sal",
        -8.638283497642895
      ],
      [
        "▁karargah",
        -10.17632271773052
      ],
      [
        "▁yuz",
        -7.136694801828874
      ],
      [
        "sına",
        -8.177988959580906
      ],
      [
        "▁sinirl",
        -8.387794097518851
      ],
      [
        "▁babası",
        -8.400178371391771
      ],
      [
        "n",
        -4.673264323980474
      ],
      [
        "▁mahalle",
        -8.53562653892827
      ],
      [
        "▁gel",
        -10.166042678300542
      ],
      [
        "muyor",
        -8.887006599081129
      ],
      [
        "▁duzenleyici",
        -9.898918069758826
      ],
      [
        "▁kimse",
        -5.611770680556417
      ],
      [
        "▁biz",
        -3.7492545438091254
      ],
      [
        "▁sıcaklıgı",
        -10.1025131094697
      ],
      [
        "▁basi",
        -8.216603476879973
      ],
      [
        "▁efendi",
        -8.861329985137164
      ],
      [
        "▁yetmis",
        -7.281993076538758
      ],
      [
        "▁41",
        -7.4311418763838955
      ],
      [
        "▁demek",
        -8.50134191261293
      ],
      [
        "▁dinledi",
        -8.832263879187543
      ],
      [
        "▁surduruyor",
        -8.974412156770702
      ],
      [
        "▁duzey",
        -8.676576879367577
      ],
      [
        "▁imkan",
        -9.039542137071635
      ],
      [
        "▁siparis",
        -9.425891822123686
      ],
      [
        "ck",
        -9.730324022110045
      ],
      [
        "▁umut",
        -8.757223261879995
      ],
      [
        "ca",
        -6.700528424006959
      ],
      [
        "sı",
        -7.695684531623617
      ],
      [
        "z",
        -7.384597776793819
      ],
      [
        "med",
        -8.277479260853221
      ],
      [
        "▁sorunları",
        -8.980413227840844
      ],
      [
        "am",
        -8.20305343986586
      ],
      [
        "▁b",
        -7.979129003456873
      ],
      [
        "▁kral",
        -9.209788753549924
      ],
      [
        "▁nesne",
        -10.027962576838817
      ],
      [
        "▁yapılıyor",
        -8.55978477419495
      ],
      [
        "▁temsilci",
        -9.435818223790776
      ],
      [
        "▁performans",
        -7.7281858015286415
      ],
      [
        "▁ur",
        -9.565880591616196
      ],
      [
        "▁amca",
        -9.373444494424884
      ],
      [
        "ilmesi",
        -9.742608723853618
      ],
      [
        "▁satır",
        -9.419776761960076
      ],
      [
        "▁hamil",
        -10.100688252047803
      ],
      [
        "▁dis",
        -8.762716897582234
      ],
      [
        "▁sık",
        -9.062557474228768
      ],
      [
        "ter",
        -9.08251890692444
      ],
      [
        "▁hat",
        -6.71359374354625
      ],
      [
        "▁esir",
        -9.690295719121902
      ],
      [
        "▁dogum",
        -9.109234376530999
      ],
      [
        "▁herif",
        -9.28311556223514
      ],
      [
        "▁sokakta",
        -9.23751043591343
      ],
      [
        "▁ust",
        -6.960954297026537
      ],
      [
        "▁indirim",
        -9.22308498276562
      ],
      [
        "da",
        -4.263949664924009
      ],
      [
        "▁guclu",
        -6.756960068152731
      ],
      [
        "▁nisan'da",
        -8.039728696473313
      ],
      [
        "▁temiz",
        -9.417912382638608
      ],
      [
        "▁cumle",
        -8.79203147997116
      ],
      [
        "▁bulma",
        -8.200271641100349
      ],
      [
        "▁dolu",
        -9.68141741916745
      ],
      [
        "lerinin",
        -7.048839165006188
      ],
      [
        "mıs",
        -5.907845273333249
      ],
      [
        "ah",
        -9.046029151116501
      ],
      [
        "▁yasamını",
        -9.777995228649637
      ],
      [
        "▁kir",
        -8.350401563254998
      ],
      [
        "▁si",
        -8.08769010824167
      ],
      [
        "▁dibin",
        -9.653935786447724
      ],
      [
        "▁ceke",
        -8.506260510674569
      ],
      [
        "▁hareketler",
        -9.851691809617757
      ],
      [
        "likte",
        -9.377477656973944
      ],
      [
        "▁karsı",
        -7.1093484264581885
      ],
      [
        "▁william",
        -8.133740340470013
      ],
      [
        "▁lideri",
        -9.206097026749788
      ],
      [
        "▁fare",
        -9.805715464932172
      ],
      [
        "▁chicago'",
        -7.087735294209967
      ],
      [
        "ish",
        -8.135967148555501
      ],
      [
        "▁eski",
        -9.166939153720872
      ],
      [
        "▁vatandas",
        -9.179384697132875
      ],
      [
        "▁devir",
        -9.16151096693278
      ],
      [
        "lli",
        -10.00962853070794
      ],
      [
        "▁erdi",
        -8.431431407403752
      ],
      [
        "▁nisan",
        -7.524823421296444
      ],
      [
        "▁y",
        -5.777906907927925
      ],
      [
        "▁plan",
        -8.174638849426035
      ],
      [
        "▁hugo",
        -8.297326668612873
      ],
      [
        "m",
        -7.317767413586324
      ],
      [
        "▁arka",
        -8.97010769601486
      ],
      [
        "▁koyar",
        -8.929749474043742
      ],
      [
        "▁10",
        -4.109372079715847
      ],
      [
        "ev",
        -11.802702672349788
      ],
      [
        "sal",
        -9.743346260171108
      ],
      [
        "▁tat",
        -9.94127929063789
      ],
      [
        "malıyı",
        -8.534609415842482
      ],
      [
        "▁ucusların",
        -8.601780166162772
      ],
      [
        "▁sonra",
        -9.015702093379858
      ],
      [
        "▁doku",
        -9.543372928171543
      ],
      [
        "likler",
        -9.74805582976275
      ],
      [
        "▁harikayd",
        -7.727006982039751
      ],
      [
        "▁sınırları",
        -9.92729118554825
      ],
      [
        "▁",
        -4.112376981790044
      ],
      [
        "▁havayolları",
        -7.381762203133278
      ],
      [
        "▁ates",
        -8.046196687550465
      ],
      [
        "amadı",
        -8.121727097340102
      ],
      [
        "▁ses",
        -8.142506613852813
      ],
      [
        "▁yukseliyor",
        -8.9311493194657
      ],
      [
        "maya",
        -8.182278342934532
      ],
      [
        "▁cleveland'",
        -6.731610941983823
      ],
      [
        "▁gununu",
        -9.661428608773617
      ],
      [
        "▁endustri",
        -8.404622234089935
      ],
      [
        "▁akın",
        -9.416464943945254
      ],
      [
        "▁hangi",
        -5.368112293086949
      ],
      [
        "▁sureci",
        -9.352866642455568
      ],
      [
        "den",
        -6.363492151075381
      ],
      [
        "▁basbakan",
        -8.998840710106132
      ],
      [
        "▁sauna",
        -9.026230235829168
      ],
      [
        "ler",
        -6.5459644289513745
      ],
      [
        "▁muht",
        -8.652134073756198
      ],
      [
        "▁sokaklarda",
        -9.940964433706096
      ],
      [
        "▁kemer",
        -10.027967940388443
      ],
      [
        "▁temiz",
        -5.287015000360598
      ],
      [
        "l",
        -11.802702672349783
      ],
      [
        "▁oyuncuları",
        -10.009465591098657
      ],
      [
        "▁ayn",
        -8.14989803709778
      ],
      [
        "▁hakaret",
        -9.839967279433267
      ],
      [
        "▁guney",
        -8.542530109911308
      ],
      [
        "yı",
        -10.198812178070302
      ],
      [
        "yle",
        -6.079427766229643
      ],
      [
        "▁gumus",
        -8.45347510151566
      ],
      [
        "▁sus",
        -9.25545221535005
      ],
      [
        "▁kanaat",
        -10.176503824252304
      ],
      [
        "▁tv",
        -9.963149910357057
      ],
      [
        "▁sunuyor",
        -8.247961421687432
      ],
      [
        "▁geldigi",
        -9.76990739698125
      ],
      [
        "▁icim",
        -9.468346139214574
      ],
      [
        "▁zorla",
        -9.865764098379396
      ],
      [
        "▁yorum",
        -7.473244579711905
      ],
      [
        "▁siyah",
        -6.842527925617158
      ],
      [
        "▁arkadasim",
        -9.287327542846604
      ],
      [
        "▁hukumdar",
        -10.028292034638103
      ],
      [
        "um",
        -5.302043147095822
      ],
      [
        "▁gercegi",
        -9.478259416220363
      ],
      [
        "ıyor",
        -5.993377616709273
      ],
      [
        "mıslar",
        -8.516242560934442
      ],
      [
        "▁yuzyıl",
        -9.20266588896032
      ],
      [
        "▁kanser",
        -10.028740504082913
      ],
      [
        "▁yuzun",
        -8.771282901498608
      ],
      [
        "▁ankara'da",
        -8.068013582008785
      ],
      [
        "▁bagıs",
        -9.763614522246431
      ],
      [
        "▁yem",
        -10.057358476085383
      ],
      [
        "▁geldigi",
        -8.734703190597383
      ],
      [
        "▁cevap",
        -7.970495569301766
      ],
      [
        "▁ali",
        -9.832542820111843
      ],
      [
        "ucu",
        -8.345145413273505
      ],
      [
        "▁plak",
        -9.84078522561127
      ],
      [
        "▁ceza",
        -8.513282690908323
      ],
      [
        "▁yudum",
        -9.588704079200895
      ],
      [
        "▁ok",
        -9.19190345034056
      ],
      [
        "▁giris",
        -8.903702275728136
      ],
      [
        "▁8",
        -5.673436706926549
      ],
      [
        "▁kır",
        -8.70003233104945
      ],
      [
        "▁bur",
        -9.130313384216718
      ],
      [
        "▁kurek",
        -9.841128280526995
      ],
      [
        "▁bebegi",
        -9.731783113876025
      ],
      [
        "▁komisyoncu",
        -10.006780883963096
      ],
      [
        "yonel",
        -8.267010652555069
      ],
      [
        "▁imkanlari",
        -8.197066319430158
      ],
      [
        "tıkları",
        -10.088927738497613
      ],
      [
        "sız",
        -5.222971193390283
      ],
      [
        "▁dev",
        -8.103747686579705
      ],
      [
        "▁calısma",
        -8.205016407846024
      ],
      [
        "▁faiz",
        -7.569278245820745
      ],
      [
        "unca",
        -8.7553797887651
      ],
      [
        "▁dıs",
        -9.819834443049995
      ],
      [
        "▁yatakta",
        -10.104024107748941
      ],
      [
        "▁adl",
        -8.700475544561737
      ],
      [
        "▁kaba",
        -8.083097393987945
      ],
      [
        "▁sec",
        -9.67506594097043
      ],
      [
        "▁maliyeti",
        -8.856568842384432
      ],
      [
        "▁sırtında",
        -9.248174937240988
      ],
      [
        "▁oranı",
        -8.278025444848112
      ],
      [
        "go",
        -9.390059215577775
      ],
      [
        "▁north",
        -7.6318907800417985
      ],
      [
        "v",
        -2.1317723992754427
      ],
      [
        "8'",
        -9.57672400455771
      ],
      [
        "f",
        -6.873351135099573
      ],
      [
        "san",
        -8.521219724256412
      ],
      [
        "▁bilme",
        -8.736281404901153
      ],
      [
        "▁birkacı",
        -7.919278159635382
      ],
      [
        "▁artıs",
        -8.226404791128935
      ],
      [
        "▁civarın",
        -8.841332353855309
      ],
      [
        "▁gitmey",
        -9.726527988738102
      ],
      [
        "▁fırsat",
        -8.887356588716647
      ],
      [
        "▁kalkıs",
        -9.425118005240805
      ],
      [
        "▁de",
        -2.1420817504035963
      ],
      [
        "niz",
        -7.208870524936369
      ],
      [
        "▁cogu",
        -6.224369063045475
      ],
      [
        "▁hayalet",
        -9.684735700091442
      ],
      [
        "▁tas",
        -7.769951234426223
      ],
      [
        "▁turun",
        -9.444409889529535
      ],
      [
        "▁1.8",
        -7.194900721909706
      ],
      [
        "▁egilimi",
        -9.976814305479753
      ],
      [
        "▁tezgah",
        -8.551251395668611
      ],
      [
        "nız",
        -8.9761765064011
      ],
      [
        "▁tulum",
        -10.031228399526876
      ],
      [
        "▁tanım",
        -9.465889182675804
      ],
      [
        "▁dun",
        -7.095161307844825
      ],
      [
        "▁sahip",
        -7.125997578852691
      ],
      [
        "▁maddeler",
        -10.038267883525439
      ],
      [
        "▁arastırmacılar",
        -9.92528903036257
      ],
      [
        "▁katılıyor",
        -8.87340093009841
      ],
      [
        "5",
        -8.718768001777528
      ],
      [
        "▁kurallar",
        -9.569816938132561
      ],
      [
        "▁gorusuldu",
        -5.592085806786611
      ],
      [
        "u",
        -6.037542124203377
      ],
      [
        "▁babam",
        -7.957281844091082
      ],
      [
        "▁ak",
        -8.327752057745448
      ],
      [
        "▁ilac",
        -8.327369878882932
      ],
      [
        "▁150",
        -7.07966151810731
      ],
      [
        "▁gelsin",
        -8.553001439315752
      ],
      [
        "▁dusur",
        -8.703653151283008
      ],
      [
        "▁ucun",
        -9.761221787834884
      ],
      [
        "▁sehirde",
        -9.862544190036687
      ],
      [
        "ı",
        -9.759274920622126
      ],
      [
        "▁fe",
        -9.388681622242569
      ],
      [
        "▁tasıy",
        -8.788852378251816
      ],
      [
        "▁baz",
        -6.262548399340187
      ],
      [
        "e",
        -3.854973002944332
      ],
      [
        "▁aylar",
        -8.304850012234626
      ],
      [
        "▁misafir",
        -8.364704594804103
      ],
      [
        "agdas",
        -8.551816640104498
      ],
      [
        "▁cekildi",
        -8.318295234492446
      ],
      [
        "▁yuruyor",
        -8.931271884895946
      ],
      [
        "lik",
        -4.866178197012406
      ],
      [
        "▁kıs",
        -8.16188244775315
      ],
      [
        "▁tanesi",
        -9.480765008071737
      ],
      [
        "▁toprakta",
        -10.130749130091008
      ],
      [
        "▁bilegi",
        -9.840621378714005
      ],
      [
        "▁gid",
        -7.946850644407117
      ],
      [
        "▁osmanlı",
        -10.176306523747355
      ],
      [
        "▁konforu",
        -9.16550654484513
      ],
      [
        "▁edecegim",
        -8.75739503068936
      ],
      [
        "▁evlilik",
        -9.733379916610138
      ],
      [
        "▁kur",
        -8.649571579533106
      ],
      [
        "▁taban",
        -9.424452366415947
      ],
      [
        "▁bakısları",
        -9.813868759814532
      ],
      [
        "▁vah",
        -9.96497469740806
      ],
      [
        "▁borc",
        -7.904741797904549
      ],
      [
        "suzlugun",
        -10.060776792041327
      ],
      [
        "▁kızım",
        -9.651578552640403
      ],
      [
        "iydi",
        -7.5635232602572104
      ],
      [
        "▁mini",
        -7.61749490319521
      ],
      [
        "gım",
        -8.973138979571997
      ],
      [
        "▁parmakları",
        -9.654740449415382
      ],
      [
        "ilen",
        -8.726137893235784
      ],
      [
        "▁yakın",
        -6.535228700885873
      ],
      [
        "▁satısları",
        -8.552764030970033
      ],
      [
        "▁rahat",
        -6.60639805817359
      ],
      [
        "▁sadakat",
        -9.545225838492424
      ],
      [
        "ara",
        -6.535783394481454
      ],
      [
        "st",
        -8.027352174336574
      ],
      [
        "▁herkesin",
        -8.90156954631914
      ],
      [
        "▁gol",
        -8.660016704727319
      ],
      [
        "▁or",
        -8.776706927948519
      ],
      [
        "▁konu",
        -7.343086555651011
      ],
      [
        "▁gelen",
        -6.427638887850488
      ],
      [
        "▁yansıt",
        -8.692503256416227
      ],
      [
        "▁ayrı",
        -9.854775937987112
      ],
      [
        "▁p",
        -7.245265053176569
      ],
      [
        "▁yavaslama",
        -9.90427355227271
      ],
      [
        "▁'li",
        -7.839626404640395
      ],
      [
        "▁degirmen",
        -10.099391662292133
      ],
      [
        "▁kadın",
        -7.139996715033832
      ],
      [
        "▁gelin",
        -8.78066237604558
      ],
      [
        "▁asıl",
        -7.381204309289477
      ],
      [
        "mde",
        -8.409015759923683
      ],
      [
        "▁sut",
        -8.437730812120558
      ],
      [
        "▁hangisi",
        -5.9097176655688965
      ],
      [
        "ız",
        -6.912663209463112
      ],
      [
        "▁orgu",
        -9.68169905630364
      ],
      [
        "r",
        -2.7496375480404023
      ],
      [
        "▁a",
        -8.372294347240885
      ],
      [
        "mıs",
        -5.402299570920754
      ],
      [
        "▁ilgilenmedi",
        -7.791466542886641
      ],
      [
        "▁programın",
        -9.942613539069423
      ],
      [
        "▁o",
        -8.046953897321263
      ],
      [
        "▁lıgı",
        -9.835187222313825
      ],
      [
        "▁oburu",
        -7.437531266809803
      ],
      [
        "▁pembe",
        -8.497597246521899
      ],
      [
        "▁yasa",
        -8.194870699168721
      ],
      [
        "e",
        -14.014958445102625
      ],
      [
        "bana",
        -7.9971784587020505
      ],
      [
        "▁per",
        -8.356093819964316
      ],
      [
        "▁sermaye",
        -8.158982237006747
      ],
      [
        "▁196",
        -7.207712602246048
      ],
      [
        "▁mo",
        -9.663875549988024
      ],
      [
        "▁zorluk",
        -10.068971704360656
      ],
      [
        "▁kural",
        -9.621470858763235
      ],
      [
        "sik",
        -8.110083134767015
      ],
      [
        "▁sev",
        -8.53771475141324
      ],
      [
        "▁yatırımcıların",
        -9.16029165589428
      ],
      [
        "▁york'ta",
        -6.469904347778425
      ],
      [
        "▁gunluk",
        -9.752278957368022
      ],
      [
        "▁as",
        -8.157936438625255
      ],
      [
        "▁sonucların",
        -9.838595366595994
      ],
      [
        "mesini",
        -8.110554120596017
      ],
      [
        "▁ticaret",
        -7.89414403646159
      ],
      [
        "▁hissedarlar",
        -10.075795892286449
      ],
      [
        "ra",
        -7.399667956763753
      ],
      [
        "▁degerlendiril",
        -8.930782825273832
      ],
      [
        "▁tv",
        -7.8500461917645055
      ],
      [
        "▁kac",
        -6.757270404007121
      ],
      [
        "dik",
        -7.9896299798351444
      ],
      [
        "▁r",
        -7.410864347944156
      ],
      [
        "▁agzında",
        -9.476126195109426
      ],
      [
        "▁konustu",
        -7.374095003939511
      ],
      [
        "0",
        -4.429548908795915
      ],
      [
        "▁kadar",
        -8.616559021729449
      ],
      [
        "▁nerede",
        -7.3722393738330165
      ],
      [
        "▁milyon",
        -7.95304805884153
      ],
      [
        "▁ihmal",
        -10.027955926792348
      ],
      [
        "▁montreal",
        -8.204171178266979
      ],
      [
        "▁igne",
        -9.077931516598774
      ],
      [
        "▁sistemini",
        -10.010398046037011
      ],
      [
        "amıyor",
        -8.561465753375602
      ],
      [
        "▁ekonomisi",
        -9.99149768418922
      ],
      [
        "▁ip",
        -9.135473775176331
      ],
      [
        "▁bul",
        -6.973767915580445
      ],
      [
        "▁ihracları",
        -9.737291670311754
      ],
      [
        "'y",
        -7.276589864572725
      ],
      [
        "▁uretiyor",
        -8.987684972151193
      ],
      [
        "▁serisi",
        -9.858514028274088
      ],
      [
        "▁sabahlar",
        -8.336444228612429
      ],
      [
        "▁bo",
        -7.697034901542983
      ],
      [
        "sa",
        -8.006803653686841
      ],
      [
        "[CLS]",
        0.0
      ],
      [
        "▁mar",
        -9.941042940090952
      ],
      [
        "▁am",
        -5.947568370575268
      ],
      [
        "▁kurtulma",
        -10.099433054744356
      ],
      [
        "olası",
        -7.743034153911136
      ],
      [
        "nızı",
        -9.560424600803687
      ],
      [
        "▁california",
        -8.208073781562616
      ],
      [
        "▁sel",
        -9.340747207174411
      ],
      [
        "▁tazminat",
        -9.463559023593156
      ],
      [
        "▁ayagı",
        -9.485580065562894
      ],
      [
        "▁rast",
        -8.69910028835359
      ],
      [
        "mle",
        -8.266579360532228
      ],
      [
        "▁general",
        -9.503609200063003
      ],
      [
        "▁agzını",
        -9.239677395863332
      ],
      [
        "▁mani",
        -9.35902080046072
      ],
      [
        "▁degerlendirir",
        -7.9360533104135165
      ],
      [
        "▁iyilik",
        -9.689192436051076
      ],
      [
        "▁calısan",
        -9.85729305802764
      ],
      [
        "eyim",
        -7.631005962396692
      ],
      [
        "▁acmak",
        -9.73561689830387
      ],
      [
        "▁yanın",
        -8.896047332263043
      ],
      [
        "▁koyuldu",
        -8.928491243566912
      ],
      [
        "▁kurumları",
        -9.700618830011411
      ],
      [
        "▁yapı",
        -8.070770407087547
      ],
      [
        "m",
        -4.809409968019235
      ],
      [
        "▁ka",
        -6.481825642100741
      ],
      [
        "▁cumhurbaskanı",
        -9.199984978793871
      ],
      [
        "▁edilme",
        -10.116222025379756
      ],
      [
        "▁oy",
        -7.883383855276201
      ],
      [
        "▁kat",
        -8.447485081271845
      ],
      [
        "mayacagını",
        -9.62583367441017
      ],
      [
        "▁tam",
        -6.157110276087403
      ],
      [
        "▁kurulu'n",
        -9.85921704199614
      ],
      [
        "▁son",
        -7.840299127282927
      ],
      [
        "ca",
        -7.195586049672088
      ],
      [
        "▁ayrıla",
        -8.541486726465003
      ],
      [
        "▁1991",
        -6.854734288346393
      ],
      [
        "▁gune",
        -9.6147789616426
      ],
      [
        "▁vegas'",
        -6.918877935752587
      ],
      [
        "▁duvarda",
        -10.041532666986507
      ],
      [
        "un",
        -5.755775350433605
      ],
      [
        "▁burcu",
        -9.906364138136519
      ],
      [
        "▁city'",
        -6.532412024171423
      ],
      [
        "▁al",
        -7.464332101553018
      ],
      [
        "▁york'",
        -7.743241407897627
      ],
      [
        "▁tedarik",
        -9.898788539929395
      ],
      [
        "lıgını",
        -8.386447475964392
      ],
      [
        "sem",
        -7.580612882548985
      ],
      [
        "▁degerini",
        -9.764085255479827
      ],
      [
        "▁haber",
        -7.807144546263004
      ],
      [
        "▁y",
        -8.967331541838378
      ],
      [
        "▁ya",
        -8.979871755568054
      ],
      [
        "umuzu",
        -9.97976921584444
      ],
      [
        "▁teklifin",
        -9.921198031278603
      ],
      [
        "▁ilgisi",
        -8.48874555409208
      ],
      [
        "▁sebebi",
        -8.884569232965749
      ],
      [
        "▁tedbirler",
        -10.081753967631986
      ],
      [
        "yonlu",
        -8.780767043391974
      ],
      [
        "▁olmadıgını",
        -8.380001185977228
      ],
      [
        "▁dusuncelerini",
        -9.814156930692292
      ],
      [
        "▁kalktı",
        -7.850631911405777
      ],
      [
        "▁birbirimiz",
        -7.457556533410018
      ],
      [
        "▁unutma",
        -8.89612686320126
      ],
      [
        "▁direnis",
        -9.89879570404329
      ],
      [
        "ını",
        -9.346227941632481
      ],
      [
        "▁ot",
        -7.384762552971319
      ],
      [
        "▁kullanma",
        -9.961561106823638
      ],
      [
        "ine",
        -6.049563716949283
      ],
      [
        "▁ydi",
        -4.345530577115908
      ],
      [
        "x",
        -9.50355901977652
      ],
      [
        "▁yetersizligi",
        -10.10718662087776
      ],
      [
        "r",
        -6.326167901266359
      ],
      [
        "▁bozu",
        -8.196383960105303
      ],
      [
        "digini",
        -7.772256147668039
      ],
      [
        "▁ede",
        -8.516662764865059
      ],
      [
        "▁edin",
        -7.975179900692033
      ],
      [
        "▁gercek",
        -6.589993971854005
      ],
      [
        "▁adet",
        -7.83891926579264
      ],
      [
        "b",
        -7.70537449612564
      ],
      [
        "▁konusu",
        -8.495655781651896
      ],
      [
        "▁bardagı",
        -8.952832819384154
      ],
      [
        "▁goruyoru",
        -8.635430427404502
      ],
      [
        "▁fazlasını",
        -9.515903573722623
      ],
      [
        "▁sandık",
        -9.604238114303593
      ],
      [
        "▁ornek",
        -8.663211245940706
      ],
      [
        "▁boru",
        -9.295847899440883
      ],
      [
        "▁polonya",
        -8.29676673508626
      ],
      [
        "▁istanbul",
        -9.96128821890015
      ],
      [
        "icin",
        -7.37606402349094
      ],
      [
        "▁aksam",
        -8.353179542310087
      ],
      [
        "▁geceler",
        -10.020834042443354
      ],
      [
        "▁yerini",
        -8.572497199261655
      ],
      [
        "▁olanları",
        -9.613464201864575
      ],
      [
        "'yi",
        -7.535730970715371
      ],
      [
        "▁yan",
        -7.701764539820724
      ],
      [
        "▁cene",
        -9.396304266801241
      ],
      [
        "▁ay",
        -8.332692143939353
      ],
      [
        "▁1.4",
        -6.918729662637256
      ],
      [
        "▁orada",
        -8.536837084496895
      ],
      [
        "▁yan",
        -8.784985264815456
      ],
      [
        "▁is",
        -8.322910808840675
      ],
      [
        "▁dur",
        -8.282044598869458
      ],
      [
        "▁nitelik",
        -9.839969061007531
      ],
      [
        "▁bi",
        -4.970497081628544
      ],
      [
        "▁kusku",
        -9.320018486843525
      ],
      [
        "▁olmuyor",
        -8.208307800258376
      ],
      [
        "al",
        -6.13264604344052
      ],
      [
        "▁hijyen",
        -7.885679353100061
      ],
      [
        "▁d",
        -6.355214304135228
      ],
      [
        "▁digeri",
        -9.388110615917757
      ],
      [
        "▁adin",
        -8.827650671289945
      ],
      [
        "▁kendimde",
        -7.695269369691355
      ],
      [
        "▁kupe",
        -9.70542588960913
      ],
      [
        "▁mis",
        -5.918581206871204
      ],
      [
        "acagını",
        -8.36946230824155
      ],
      [
        "▁ayarlama",
        -9.843895531024948
      ],
      [
        "▁girdi",
        -7.004464833341264
      ],
      [
        "▁kopek",
        -8.708068765892875
      ],
      [
        "▁lezzet",
        -7.531795148909234
      ],
      [
        "ınca",
        -7.855047507413307
      ],
      [
        "▁trust",
        -8.038755782515096
      ],
      [
        "▁vapur",
        -8.928723133369974
      ],
      [
        "▁agrı",
        -9.590026000383634
      ],
      [
        "▁gorun",
        -7.339522011104732
      ],
      [
        "▁on",
        -8.874754401523898
      ],
      [
        "▁ekim'de",
        -8.241055313297913
      ],
      [
        "▁yer",
        -8.608293665629773
      ],
      [
        "▁burun",
        -9.223407655628371
      ],
      [
        "en",
        -5.482431047333141
      ],
      [
        "▁degilse",
        -6.117869861012117
      ],
      [
        "▁yonde",
        -9.838663524783215
      ],
      [
        "sıyla",
        -8.35400897442734
      ],
      [
        "▁okuz",
        -10.027988110952872
      ],
      [
        "▁kurtarma",
        -9.681994873495775
      ],
      [
        "▁alına",
        -8.18756117274245
      ],
      [
        "ak",
        -5.826425994507126
      ],
      [
        "▁kahvalti",
        -8.64651079456628
      ],
      [
        "▁ah",
        -9.477517866865652
      ],
      [
        "▁dekor",
        -10.096867418781645
      ],
      [
        "▁durum",
        -7.774867782029894
      ],
      [
        "▁yuz",
        -5.128319349560085
      ],
      [
        "▁top",
        -8.791269755188685
      ],
      [
        "angır",
        -10.03363671925797
      ],
      [
        "lendigi",
        -9.588755078420647
      ],
      [
        "▁oturu",
        -8.138288562191024
      ],
      [
        "▁istifa",
        -8.551553864635249
      ],
      [
        "▁toparlanma",
        -9.388221931562184
      ],
      [
        "▁dunyada",
        -8.662924463930517
      ],
      [
        "▁duser",
        -8.161663015630488
      ],
      [
        "▁1991'",
        -10.104586352469717
      ],
      [
        "▁gecmed",
        -8.58436374682337
      ],
      [
        "▁harcama",
        -9.373508906833392
      ],
      [
        "▁icecekleri",
        -9.329857543726453
      ],
      [
        "▁viski",
        -9.73177809877729
      ],
      [
        "▁yapması",
        -10.080699850569536
      ],
      [
        "▁nese",
        -9.3530962536617
      ],
      [
        "▁hakkı",
        -8.527726883230859
      ],
      [
        "▁gozun",
        -9.832149310665965
      ],
      [
        "▁hepimizi",
        -7.106313200253321
      ],
      [
        "▁mukemmeldi",
        -7.49030928232392
      ],
      [
        "▁musun",
        -5.9490528284716895
      ],
      [
        "▁itiraz",
        -8.952774919008
      ],
      [
        "▁calisanlari",
        -9.406056947040303
      ],
      [
        "▁onayladı",
        -8.869533620624868
      ],
      [
        "▁etki",
        -8.564285244318832
      ],
      [
        "▁bakır",
        -9.681807290131578
      ],
      [
        "dizli",
        -7.5921693520752385
      ],
      [
        "lari",
        -9.02566953343354
      ],
      [
        "▁ilk",
        -6.030188554215659
      ],
      [
        "▁dinlenme",
        -10.029227822821818
      ],
      [
        "▁gunleri",
        -8.499476119786385
      ],
      [
        "▁louis",
        -8.193652694080182
      ],
      [
        "irlik",
        -5.69607855368877
      ],
      [
        "▁disleri",
        -10.032415391346117
      ],
      [
        "▁d",
        -5.706696958748632
      ],
      [
        "n",
        -5.646770103360007
      ],
      [
        "k",
        -4.614728346358913
      ],
      [
        "▁adamdı",
        -8.648796851814279
      ],
      [
        "▁tak",
        -8.921665169072927
      ],
      [
        "▁siyasi",
        -7.447874088442382
      ],
      [
        "▁sola",
        -9.757401054567033
      ],
      [
        "'",
        -4.880245595332602
      ],
      [
        "▁donu",
        -8.515294939942681
      ],
      [
        "▁bayragı",
        -10.029736935692773
      ],
      [
        "▁soyluyorlar",
        -8.719631693301242
      ],
      [
        "▁suresi",
        -9.24815065282652
      ],
      [
        "▁sol",
        -7.288741515228045
      ],
      [
        "▁gosterge",
        -9.557040616335092
      ],
      [
        "▁ne",
        -5.752760880288738
      ],
      [
        "▁yeter",
        -9.396350735354401
      ],
      [
        "▁biz",
        -8.575322793666926
      ],
      [
        "▁eda",
        -9.716654193794971
      ],
      [
        "▁varlıgını",
        -10.0331272882364
      ],
      [
        "▁ya",
        -4.6340088249593085
      ],
      [
        "▁para",
        -6.293343894658395
      ],
      [
        "▁b",
        -7.3537497720859495
      ],
      [
        "▁ele",
        -7.950758561699387
      ],
      [
        "te",
        -6.916883204630375
      ],
      [
        "▁farkı",
        -10.085308891937023
      ],
      [
        "k",
        -4.834402831400872
      ],
      [
        "▁dr",
        -9.640234918142674
      ],
      [
        "d",
        -7.691019141028298
      ],
      [
        "▁ardın",
        -9.831359114004032
      ],
      [
        "▁tas",
        -8.036544719945457
      ],
      [
        "mistir",
        -7.393870760329985
      ],
      [
        "▁dusunmuyor",
        -7.909101768927736
      ],
      [
        "▁vicdan",
        -10.099390810160177
      ],
      [
        "▁saygı",
        -8.884589432051769
      ],
      [
        "'da",
        -7.32189348330439
      ],
      [
        "▁degistirdi",
        -8.774463832010149
      ],
      [
        "▁arama",
        -9.153752784598844
      ],
      [
        "or",
        -8.073425769230546
      ],
      [
        "▁goren",
        -8.559329733512701
      ],
      [
        "▁fakir",
        -10.02795526861517
      ],
      [
        "man",
        -6.967207500182004
      ],
      [
        "▁zamanlar",
        -8.320324976703688
      ],
      [
        "▁yanlıs",
        -7.173834167548121
      ],
      [
        "▁oyna",
        -8.71470554994653
      ],
      [
        "▁yıllık",
        -6.382629120949315
      ],
      [
        "▁ayag",
        -9.334954406174006
      ],
      [
        "▁vakit",
        -8.446707740706218
      ],
      [
        "▁ne",
        -5.899376330339412
      ],
      [
        "▁tesekkur",
        -7.628335301429562
      ],
      [
        "▁uvey",
        -8.404350908401213
      ],
      [
        "▁faturami",
        -9.628836188013388
      ],
      [
        "▁semsiye",
        -10.099383701981903
      ],
      [
        "▁gidecek",
        -8.892196047842369
      ],
      [
        "▁tadi",
        -9.871181928851414
      ],
      [
        "▁hulya",
        -7.7047836763041735
      ],
      [
        "ecegi",
        -8.455051797831048
      ],
      [
        "▁dc'",
        -6.929069485296443
      ],
      [
        "▁kollarını",
        -9.813794325992033
      ],
      [
        "▁kileri",
        -8.495443798036117
      ],
      [
        "dan",
        -5.047107723493265
      ],
      [
        "▁ofisi",
        -9.510550268492079
      ],
      [
        "▁iyi",
        -8.824871429613378
      ],
      [
        "▁lezzet",
        -6.738159429138998
      ],
      [
        "▁dogu",
        -8.316181923838723
      ],
      [
        "▁yı",
        -6.932780921650514
      ],
      [
        "▁genc",
        -6.319296118895047
      ],
      [
        "ınızı",
        -9.99741286964868
      ],
      [
        "▁gercekles",
        -8.75011416711016
      ],
      [
        "▁co",
        -8.999032869630469
      ],
      [
        "▁kullanılıyor",
        -8.637384791258192
      ],
      [
        "y",
        -6.016951674088136
      ],
      [
        "▁dar",
        -9.435386092095698
      ],
      [
        "den",
        -5.765485517110782
      ],
      [
        "▁karsı",
        -8.528476335610403
      ],
      [
        "▁cesaret",
        -9.505192659935961
      ],
      [
        "▁yapılan",
        -7.503148608251517
      ],
      [
        "▁seattle'",
        -6.9235613597176755
      ],
      [
        "▁oluyor",
        -6.656929846062734
      ],
      [
        "▁",
        -3.0610943902395027
      ],
      [
        "▁hata",
        -8.856630027823316
      ],
      [
        "da",
        -7.4775877335030305
      ],
      [
        "▁benzer",
        -7.005280275749671
      ],
      [
        "ı",
        -4.541321046145934
      ],
      [
        "▁internet",
        -9.399588498970061
      ],
      [
        "▁ya",
        -7.800671762227191
      ],
      [
        "lanabil",
        -8.71366260953483
      ],
      [
        "unları",
        -8.274387771946522
      ],
      [
        "▁tahıl",
        -10.099383610263072
      ],
      [
        "▁ara",
        -7.73045778762757
      ],
      [
        "▁agac",
        -8.676026421383433
      ],
      [
        "▁surat",
        -9.48383432924823
      ],
      [
        "▁gene",
        -9.959218377141555
      ],
      [
        "▁oyunlar",
        -9.458918430767664
      ],
      [
        "▁ismail",
        -8.287676678548952
      ],
      [
        "ıcı",
        -9.706071748122376
      ],
      [
        "▁degistiriyor",
        -8.88595308683686
      ],
      [
        "▁koyde",
        -9.783821659253821
      ],
      [
        "▁gunduz",
        -8.952784687052596
      ],
      [
        "▁uretimin",
        -10.117528220816402
      ],
      [
        "▁odeme",
        -8.258984852288858
      ],
      [
        "▁saatlerini",
        -10.109691280817165
      ],
      [
        "▁gelirleri",
        -9.701371991359487
      ],
      [
        "▁bagırıyor",
        -8.567278301936506
      ],
      [
        "▁holding",
        -9.252272002155264
      ],
      [
        "▁uzerin",
        -7.65898580193947
      ],
      [
        "▁bırakı",
        -8.076229761590735
      ],
      [
        "▁toronto'da",
        -7.1939430775272815
      ],
      [
        "▁olmadi",
        -7.00798770819523
      ],
      [
        "▁dayak",
        -9.732459305100274
      ],
      [
        "his",
        -8.33901680755023
      ],
      [
        "▁denver",
        -5.849706285433558
      ],
      [
        "mayacak",
        -8.02928527110474
      ],
      [
        "z",
        -6.495138589354349
      ],
      [
        "▁onun",
        -8.004732474360113
      ],
      [
        "'",
        -8.76949670889076
      ],
      [
        "▁yukselis",
        -9.287647646000012
      ],
      [
        "u",
        -7.836156681655368
      ],
      [
        "▁verdigi",
        -7.848720553159801
      ],
      [
        "sa",
        -8.730346947336994
      ],
      [
        "▁bin",
        -9.098347269171132
      ],
      [
        "▁duman",
        -8.918523449449658
      ],
      [
        "▁epey",
        -7.231327411727682
      ],
      [
        "▁",
        -1.1272729554258527
      ],
      [
        "▁gectigi",
        -10.176342399518962
      ],
      [
        "▁orada",
        -5.86959198151261
      ],
      [
        "▁kıdem",
        -8.54089098847471
      ],
      [
        "ba",
        -7.912119567372226
      ],
      [
        "'la",
        -8.10892179497952
      ],
      [
        "▁kilise",
        -9.906152944056421
      ],
      [
        "▁ol",
        -6.906079594147441
      ],
      [
        "▁adalet",
        -9.588915965358067
      ],
      [
        "pa",
        -9.362876472104805
      ],
      [
        "▁birinci",
        -6.187553792563394
      ],
      [
        "▁b",
        -8.717094528754002
      ],
      [
        "▁derecede",
        -9.06336029561371
      ],
      [
        "▁turkce",
        -9.507764318493315
      ],
      [
        "▁ilgilendi",
        -5.891913083861172
      ],
      [
        "▁ressam",
        -9.78440922873465
      ],
      [
        "▁arkadası",
        -9.191533550312586
      ],
      [
        "▁ablam",
        -10.044914674658257
      ],
      [
        "▁zayif",
        -7.789192305816158
      ],
      [
        "▁ez",
        -8.519130447258377
      ],
      [
        "mek",
        -7.738690938566126
      ],
      [
        "▁uc",
        -8.018569844224036
      ],
      [
        "▁bilgiler",
        -9.857120081204787
      ],
      [
        "▁oakland'da",
        -6.905772572692245
      ],
      [
        "▁calısan",
        -8.488539675596368
      ],
      [
        "ince",
        -6.116245953076076
      ],
      [
        "▁zirve",
        -9.821882843123424
      ],
      [
        "▁daha",
        -3.284001868858846
      ],
      [
        "▁oglen",
        -9.155198217634887
      ],
      [
        "▁basarısız",
        -8.331545846004797
      ],
      [
        "▁icra",
        -9.130440742747137
      ],
      [
        "nın",
        -7.557663351227015
      ],
      [
        "uyordu",
        -8.149199591787955
      ],
      [
        "▁gerceklestir",
        -8.335929970926658
      ],
      [
        "▁carsaflar",
        -9.910506716871799
      ],
      [
        "▁dostu",
        -8.68618618731025
      ],
      [
        "▁yen",
        -8.91987149853127
      ],
      [
        "m",
        -3.07230917458263
      ],
      [
        "▁baslay",
        -8.40026921577704
      ],
      [
        "▁taze",
        -10.17772646491369
      ],
      [
        "▁fazla",
        -5.624075162825826
      ],
      [
        "u",
        -5.3681920564335766
      ],
      [
        "▁komisyonlar",
        -9.465975961131315
      ],
      [
        "▁ayna",
        -8.820826662821869
      ],
      [
        "ss",
        -9.437149516960732
      ],
      [
        "▁geliri",
        -8.887282647919083
      ],
      [
        "apta",
        -8.563359285759493
      ],
      [
        "▁gunde",
        -8.476532335746565
      ],
      [
        "▁olma",
        -8.327551674180558
      ],
      [
        "▁hanim",
        -7.2388062908630735
      ],
      [
        "▁otesin",
        -9.717200920616726
      ],
      [
        "▁artı",
        -9.883734229734173
      ],
      [
        "▁basında",
        -7.516456770486618
      ],
      [
        "▁yok",
        -6.0614869854364954
      ],
      [
        "▁duzenl",
        -8.012533933194753
      ],
      [
        "▁islemi",
        -9.37753684306707
      ],
      [
        "▁sovyetler",
        -9.546139016407322
      ],
      [
        "▁cogu",
        -8.347333542906144
      ],
      [
        "▁istiklal",
        -10.176309908739809
      ],
      [
        "▁surec",
        -9.032522031285588
      ],
      [
        "▁meslegi",
        -10.099454154532044
      ],
      [
        "▁adım",
        -7.9700558695611745
      ],
      [
        "▁nedenle",
        -8.868026099633237
      ],
      [
        "▁ideoloji",
        -10.099396375757067
      ],
      [
        "▁zi",
        -9.710230322338369
      ],
      [
        "▁arama",
        -8.939955690604094
      ],
      [
        "▁hijyen",
        -9.681777542521186
      ],
      [
        "erek",
        -4.620556824828748
      ],
      [
        "▁kardesi",
        -9.256702743071235
      ],
      [
        "▁sandal",
        -10.038304269088346
      ],
      [
        "lu",
        -7.588867179938893
      ],
      [
        "5'",
        -9.069650681526054
      ],
      [
        "▁yardım",
        -8.050861218284576
      ],
      [
        "▁boslugu",
        -9.784624660640539
      ],
      [
        "▁ham",
        -8.266761426584225
      ],
      [
        "▁dolap",
        -9.705380773102355
      ],
      [
        "▁amerikalılar",
        -9.845581996881368
      ],
      [
        "▁civi",
        -9.908603422026763
      ],
      [
        "▁zorunlu",
        -8.250197031507545
      ],
      [
        "▁siddetl",
        -8.007686364282007
      ],
      [
        "▁corap",
        -9.681779395371713
      ],
      [
        "▁yaptıkları",
        -10.092164471546344
      ],
      [
        "▁street",
        -7.067541525998615
      ],
      [
        "▁cosku",
        -9.839965461447157
      ],
      [
        "▁universitesi",
        -10.12603875134285
      ],
      [
        "▁saglaya",
        -8.56834986359032
      ],
      [
        "▁da",
        -3.8220161579732874
      ],
      [
        "▁bugun",
        -5.851725009106645
      ],
      [
        "▁yarar",
        -9.642015797079011
      ],
      [
        "▁artırma",
        -9.63024277168118
      ],
      [
        "▁mimar",
        -9.836782827391236
      ],
      [
        "▁aydın",
        -9.781395920528716
      ],
      [
        "▁board",
        -8.29110027533374
      ],
      [
        "▁tarih",
        -7.937604691362203
      ],
      [
        "▁ana",
        -6.921880696346015
      ],
      [
        "re",
        -7.834029344712912
      ],
      [
        "▁dugme",
        -9.644068824649649
      ],
      [
        "▁bekledigim",
        -8.296463657058505
      ],
      [
        "▁francisco'",
        -5.008242822283211
      ],
      [
        "▁yıldızı",
        -9.919421123305144
      ],
      [
        "mıyor",
        -8.120844345982924
      ],
      [
        "▁ucusun",
        -8.963200431225864
      ],
      [
        "▁elbise",
        -8.490165131119257
      ],
      [
        "▁sef",
        -9.720951734830285
      ],
      [
        "▁geldi",
        -5.550090260586221
      ],
      [
        "▁arbitraj",
        -10.027954870968621
      ],
      [
        "▁boston'",
        -5.7300222215715975
      ],
      [
        "▁misin",
        -4.5273534770033566
      ],
      [
        "▁ingiliz",
        -8.629042701527156
      ],
      [
        "▁fikir",
        -8.794698090747088
      ],
      [
        "vası",
        -7.7579027535534415
      ],
      [
        "▁ne",
        -8.6287222467038
      ],
      [
        "▁sene",
        -7.609387360849591
      ],
      [
        "▁suları",
        -9.49447986135329
      ],
      [
        "▁sorunlarını",
        -10.086896771127213
      ],
      [
        "▁haklarını",
        -9.863668296466095
      ],
      [
        "i",
        -4.651691431969576
      ],
      [
        "▁baskanı",
        -7.480618363551514
      ],
      [
        "?",
        -4.9897436379284725
      ],
      [
        "▁saniye",
        -9.588813320634655
      ],
      [
        "▁derin",
        -6.939283912333373
      ],
      [
        "▁spor",
        -8.760450205795337
      ],
      [
        "▁sizin",
        -5.649030984391743
      ],
      [
        "▁ilkeleri",
        -9.787206208661992
      ],
      [
        "evi",
        -9.045549806112712
      ],
      [
        "ak",
        -3.6704506036336477
      ],
      [
        "▁bas",
        -7.550150096265826
      ],
      [
        "iz",
        -5.780786808737579
      ],
      [
        "▁gosterme",
        -9.033000685819797
      ],
      [
        "▁sirketlerin",
        -9.173260950921502
      ],
      [
        "▁birimi",
        -9.079338503737416
      ],
      [
        "▁yara",
        -8.318483706895702
      ],
      [
        ";",
        -5.873728944142089
      ],
      [
        "▁goru",
        -7.85111392973881
      ],
      [
        "▁tavır",
        -9.221101577252782
      ],
      [
        "▁ala",
        -8.750586296997628
      ],
      [
        "▁",
        -3.611816305408839
      ],
      [
        "▁guney",
        -7.673310704006244
      ],
      [
        "▁sıfır",
        -10.176306528439833
      ],
      [
        "▁etmis",
        -7.424545476230384
      ],
      [
        "dıgını",
        -7.4734858745138135
      ],
      [
        "▁edilmis",
        -8.41947527806638
      ],
      [
        "▁guven",
        -7.80006567003667
      ],
      [
        "▁44",
        -7.3247160992506455
      ],
      [
        "▁banyo",
        -8.959937894538117
      ],
      [
        "lerimizi",
        -8.739944220313054
      ],
      [
        "erken",
        -6.4253651959846225
      ],
      [
        "▁or",
        -8.424261484288385
      ],
      [
        "▁havaalanında",
        -9.130813574367995
      ],
      [
        "▁ayhan",
        -7.795699687227096
      ],
      [
        "▁yuzuk",
        -10.160436784076024
      ],
      [
        "▁orlando'da",
        -7.851290146829394
      ],
      [
        "▁gomlegi",
        -9.961788069568284
      ],
      [
        "%",
        -4.152749503307038
      ],
      [
        "ustu",
        -8.224255914410714
      ],
      [
        "▁veriri",
        -6.949690088469152
      ],
      [
        "▁yaratma",
        -9.8481034135493
      ],
      [
        "▁sunlar",
        -6.837551784206271
      ],
      [
        "▁nam",
        -9.898878174741265
      ],
      [
        "deli",
        -8.805753695423384
      ],
      [
        "lık",
        -6.994200312939683
      ],
      [
        "▁arsa",
        -10.177888296469376
      ],
      [
        "▁kalkı",
        -7.267763976070212
      ],
      [
        "s",
        -4.897377101943285
      ],
      [
        "▁tahvilleri",
        -8.704830990606728
      ],
      [
        "kla",
        -9.650649354893169
      ],
      [
        "▁yılda",
        -8.287996893319182
      ],
      [
        "▁isciler",
        -9.190904928471841
      ],
      [
        "▁basladı",
        -5.910406136442483
      ],
      [
        "▁5\\/",
        -7.490278875194841
      ],
      [
        "▁lar",
        -7.76677043803274
      ],
      [
        "▁karnı",
        -9.805327314940376
      ],
      [
        "msal",
        -7.709211565662931
      ],
      [
        "▁kapsamında",
        -9.843589208735022
      ],
      [
        "▁dısın",
        -9.727688964572602
      ],
      [
        "dur",
        -7.5373835156814595
      ],
      [
        "▁boya",
        -8.699390086872718
      ],
      [
        "▁havlular",
        -10.08571072354338
      ],
      [
        "▁ay",
        -7.794879922627048
      ],
      [
        "ıp",
        -5.680099940697676
      ],
      [
        "la",
        -9.407996616393934
      ],
      [
        "▁ikisi",
        -8.902820018747077
      ],
      [
        "ma",
        -7.210875628337654
      ],
      [
        "▁yemegi",
        -8.51965576413553
      ],
      [
        "▁anadolu",
        -7.548407391738422
      ],
      [
        "▁kapsa",
        -8.866467111529529
      ],
      [
        "▁rusvet",
        -10.027975718338798
      ],
      [
        "▁kaybetti",
        -8.103100706566854
      ],
      [
        "▁orgutu",
        -9.961745052421316
      ],
      [
        "▁yaprak",
        -9.534795903407524
      ],
      [
        "▁sun",
        -8.492721875837578
      ],
      [
        "▁kır",
        -8.353375277400975
      ],
      [
        "▁ihtiyac",
        -8.446957045202934
      ],
      [
        "▁begendi",
        -6.8067495557106055
      ],
      [
        "▁oyle",
        -7.3329560468483335
      ],
      [
        "▁felsefe",
        -9.317863399957002
      ],
      [
        "▁cadır",
        -9.741864204765001
      ],
      [
        "'le",
        -7.744582706234022
      ],
      [
        "▁kurtaj",
        -9.105122140708016
      ],
      [
        "▁havalimanı",
        -9.985448338665414
      ],
      [
        "y",
        -7.419258641381592
      ],
      [
        "▁t",
        -7.355080114010372
      ],
      [
        "ima",
        -7.584234974254349
      ],
      [
        "▁havayollarını",
        -8.639005343874722
      ],
      [
        "▁genclig",
        -10.002181696893619
      ],
      [
        "▁kadınlar",
        -8.168349924665097
      ],
      [
        "3",
        -8.69894836470608
      ],
      [
        "▁gidi",
        -8.507190404784332
      ],
      [
        "▁kısıtlama",
        -10.088835247788381
      ],
      [
        "▁kosede",
        -9.631745221284612
      ],
      [
        "lama",
        -7.964587865557944
      ],
      [
        "▁soylemedi",
        -8.802041596917288
      ],
      [
        "e",
        -6.609056326747761
      ],
      [
        "▁veto",
        -9.252488100374558
      ],
      [
        "▁ter",
        -7.9587557691801205
      ],
      [
        "▁calısmaları",
        -9.720947299594505
      ],
      [
        "▁basarı",
        -7.3714420937058875
      ],
      [
        "▁alman",
        -8.290865567730531
      ],
      [
        "l",
        -5.742139703486586
      ],
      [
        "az",
        -6.848167859171971
      ],
      [
        "▁tarihinde",
        -8.806592547542401
      ],
      [
        "▁vuruyor",
        -8.639505053341562
      ],
      [
        "▁adama",
        -9.750625148084284
      ],
      [
        "▁konser",
        -9.463427135642661
      ],
      [
        "▁guc",
        -7.810627353668535
      ],
      [
        "ti",
        -9.518487782928336
      ],
      [
        "▁tadı",
        -9.716902433738959
      ],
      [
        "▁a",
        -6.925115723606801
      ],
      [
        "amaz",
        -7.8741649218845975
      ],
      [
        "cagız",
        -8.852217712868713
      ],
      [
        "▁degis",
        -8.930267587809201
      ],
      [
        "p",
        -5.819386245122589
      ],
      [
        "▁nikkei",
        -8.082275281830622
      ],
      [
        "bası",
        -9.126196892774178
      ],
      [
        "▁hanım",
        -7.660419018851055
      ],
      [
        "o",
        -6.336011923027601
      ],
      [
        "▁guzel",
        -8.23111534209698
      ],
      [
        "▁yuva",
        -9.190725585311082
      ],
      [
        "▁anayasa",
        -8.906796287053954
      ],
      [
        "za",
        -8.319808492142993
      ],
      [
        "▁sayi",
        -9.088853596333422
      ],
      [
        "▁kong",
        -8.207051402981307
      ],
      [
        "oysa",
        -10.862622396443756
      ],
      [
        "mb",
        -9.93860409767162
      ],
      [
        "ecegini",
        -8.109272319833789
      ],
      [
        "▁sarı",
        -7.0652933009073
      ],
      [
        "▁gorduk",
        -8.204857589315335
      ],
      [
        "▁dedikodu",
        -9.68177754047301
      ],
      [
        "▁ayda",
        -9.222768464991724
      ],
      [
        "▁ibr",
        -9.733281341773084
      ],
      [
        "unlu",
        -7.55797632889681
      ],
      [
        "diklerini",
        -9.563799112323956
      ],
      [
        "▁egitim",
        -8.608605471742159
      ],
      [
        "sizlik",
        -8.726956400589636
      ],
      [
        "▁girmek",
        -9.86944151338043
      ],
      [
        "▁davası",
        -9.524786672774674
      ],
      [
        "▁amerikalı",
        -9.505843033947713
      ],
      [
        "z",
        -8.00771259404701
      ],
      [
        "▁vere",
        -8.764434579335369
      ],
      [
        "▁birbirini",
        -6.541637450514566
      ],
      [
        "5",
        -4.1197129008691356
      ],
      [
        "▁kanı",
        -9.699076013591327
      ],
      [
        "ma",
        -7.885474611994246
      ],
      [
        "▁sordu",
        -7.199582620796439
      ],
      [
        "▁eve",
        -7.843391170197548
      ],
      [
        "▁yi",
        -7.627729954608207
      ],
      [
        "▁iceride",
        -9.640979202956911
      ],
      [
        "▁otobus",
        -9.252006462204942
      ],
      [
        "▁sembol",
        -10.176307051899972
      ],
      [
        "▁fazlayd",
        -7.924852259340485
      ],
      [
        "▁varlıgı",
        -9.485017235781896
      ],
      [
        "▁mis",
        -9.819443482122338
      ],
      [
        "▁ek",
        -7.776167075372317
      ],
      [
        "▁bin",
        -4.672987243887961
      ],
      [
        "▁duk",
        -6.451917218688736
      ],
      [
        "▁edil",
        -8.317273230341463
      ],
      [
        "▁sonrası",
        -9.042567599840298
      ],
      [
        "▁ihtimal",
        -9.349804811665535
      ],
      [
        "mus",
        -7.133927853654196
      ],
      [
        "▁oldu",
        -5.026169973079062
      ],
      [
        "eki",
        -7.37202748704168
      ],
      [
        "tu",
        -8.32122468562093
      ],
      [
        "▁aleyhin",
        -9.639663332716289
      ],
      [
        "▁yazıl",
        -8.531756839054287
      ],
      [
        "▁rehber",
        -8.390338289493616
      ],
      [
        "lug",
        -9.106061645483365
      ],
      [
        "▁tele",
        -7.449750743010933
      ],
      [
        "▁ge",
        -8.649999240391375
      ],
      [
        "ile",
        -3.939922469606252
      ],
      [
        "▁col",
        -9.404595495280669
      ],
      [
        "▁co",
        -6.63193344196444
      ],
      [
        "▁kalitesi",
        -7.130877389292354
      ],
      [
        "u",
        -7.761819605784515
      ],
      [
        "▁sp",
        -9.700462861705386
      ],
      [
        "▁ayaklarını",
        -9.479291333207899
      ],
      [
        "▁buyukler",
        -10.013955457539678
      ],
      [
        "▁deneme",
        -8.704103972269603
      ],
      [
        "▁hakkı",
        -6.866394034265104
      ],
      [
        "▁rezervasyonlar",
        -9.897026042573076
      ],
      [
        "▁sirketin",
        -7.61958858029728
      ],
      [
        "▁sevgili",
        -8.590160799265618
      ],
      [
        "▁ahlak",
        -8.699058204417298
      ],
      [
        "▁samimiyet",
        -10.099384998815786
      ],
      [
        "▁veri",
        -9.342413328585724
      ],
      [
        "▁d",
        -8.73131632082943
      ],
      [
        "▁ku",
        -8.336693040225477
      ],
      [
        "▁ici",
        -7.0951664394874765
      ],
      [
        "▁tam",
        -6.196690295557846
      ],
      [
        "▁noktası",
        -9.307364665833756
      ],
      [
        "yet",
        -8.428836460289046
      ],
      [
        "▁canım",
        -9.145652803144792
      ],
      [
        "▁mesaj",
        -9.087040788791018
      ],
      [
        "▁arıyor",
        -8.595136619822092
      ],
      [
        "ligin",
        -8.373256264924269
      ],
      [
        "▁menkul",
        -7.708471482838003
      ],
      [
        "▁bircogunu",
        -8.407429037175746
      ],
      [
        "▁is",
        -6.739784994148765
      ],
      [
        "▁karsısın",
        -9.663606179991183
      ],
      [
        "▁kredileri",
        -9.4950678401657
      ],
      [
        "▁havada",
        -9.018095627213606
      ],
      [
        "▁otur",
        -8.64822380741516
      ],
      [
        "▁bizleri",
        -7.670619926103663
      ],
      [
        "▁begenmedi",
        -7.038439071039937
      ],
      [
        "▁oray",
        -9.330200629699952
      ],
      [
        "armasık",
        -8.737098179833303
      ],
      [
        "▁s",
        -8.215671686759379
      ],
      [
        "▁olmakta",
        -9.934700432357364
      ],
      [
        "▁bakkal",
        -9.588709681879443
      ],
      [
        "▁un",
        -8.933659764201568
      ],
      [
        "▁dusunme",
        -8.508532822693187
      ],
      [
        "▁seks",
        -9.846673138093799
      ],
      [
        "▁ediyoru",
        -7.149364542599121
      ],
      [
        "ist",
        -8.715686349140379
      ],
      [
        "▁agustos",
        -7.762595169095416
      ],
      [
        "▁olamaz",
        -8.248500242077554
      ],
      [
        "▁akıl",
        -8.741502408257068
      ],
      [
        "▁ogle",
        -6.785321901487954
      ],
      [
        "▁benze",
        -8.633245905412128
      ],
      [
        "▁ya",
        -8.672989836050743
      ],
      [
        "▁bagl",
        -6.9916458664582715
      ],
      [
        "▁ucusunu",
        -9.103552939318078
      ],
      [
        "t",
        -4.63770091598948
      ],
      [
        "▁cekiyor",
        -8.366328643620314
      ],
      [
        "▁dahil",
        -8.059242805474966
      ],
      [
        "▁cin",
        -9.41270178536313
      ],
      [
        "▁buyuklugu",
        -9.853416834468753
      ],
      [
        "tıg",
        -9.390766392205336
      ],
      [
        "▁milyon",
        -3.278490722863072
      ],
      [
        "▁ayak",
        -8.133508879127785
      ],
      [
        "▁cıkıs",
        -9.304245273955258
      ],
      [
        "▁ayın",
        -9.093543592366688
      ],
      [
        "▁kuyrug",
        -9.961291372508825
      ],
      [
        "▁de",
        -8.926184400510895
      ],
      [
        "▁fikirler",
        -10.07385062014206
      ],
      [
        "malı",
        -7.911962755465249
      ],
      [
        "▁kullan",
        -8.573655447972792
      ],
      [
        "▁francisco",
        -5.916503277408279
      ],
      [
        "▁lisans",
        -9.765134140293098
      ],
      [
        "▁pisti",
        -8.276569974260577
      ],
      [
        "b",
        -4.519809914103928
      ],
      [
        "▁avlu",
        -9.733037426563115
      ],
      [
        "▁ekim",
        -7.390394719216669
      ],
      [
        "▁yerlerinde",
        -10.120228836944353
      ],
      [
        "▁ardı",
        -9.096310906775097
      ],
      [
        "sk",
        -8.542066468770411
      ],
      [
        "▁naz",
        -9.790934710960983
      ],
      [
        "olumlu",
        -7.522201059196778
      ],
      [
        "▁tut",
        -8.419149438072651
      ],
      [
        "▁karlar",
        -9.644523215288611
      ],
      [
        "▁1988'de",
        -9.687631647870099
      ],
      [
        "▁bagım",
        -7.806174640195771
      ],
      [
        "ur",
        -8.001044014675022
      ],
      [
        "▁caba",
        -8.667692459110786
      ],
      [
        "ıs",
        -8.287789809995358
      ],
      [
        "▁olması",
        -8.4525594019771
      ],
      [
        "▁makale",
        -9.173030829496582
      ],
      [
        "▁gir",
        -8.874950813836348
      ],
      [
        "▁verecek",
        -8.242449862483065
      ],
      [
        "▁baslama",
        -9.877372180848177
      ],
      [
        "▁yet",
        -8.23393354649901
      ],
      [
        "ız",
        -7.944659124749509
      ],
      [
        "▁maliyetleri",
        -9.0921208033651
      ],
      [
        "▁4'te",
        -9.425273786177542
      ],
      [
        "lıdır",
        -8.38877795466395
      ],
      [
        "▁atesi",
        -9.478528338261963
      ],
      [
        "▁maliyet",
        -9.38997019893446
      ],
      [
        "▁fila",
        -8.50141288075814
      ],
      [
        "▁uc",
        -3.768878928525731
      ],
      [
        "sın",
        -6.587334162141272
      ],
      [
        "▁vurguladı",
        -8.993549426561932
      ],
      [
        "▁pence",
        -9.784025858259682
      ],
      [
        "▁gec",
        -6.671592612544241
      ],
      [
        "rken",
        -5.256495546297504
      ],
      [
        "▁mıyı",
        -6.689581830074623
      ],
      [
        "▁reddetti",
        -7.374678696110597
      ],
      [
        "▁tıp",
        -9.961347685408866
      ],
      [
        "▁yaptıgı",
        -7.911382389790713
      ],
      [
        "▁finans",
        -8.703959539085703
      ],
      [
        "leri",
        -5.269717383689015
      ],
      [
        "'",
        -5.94912463252334
      ],
      [
        "▁japonya",
        -7.316375579672631
      ],
      [
        "▁durumu",
        -8.336494175419743
      ],
      [
        "h",
        -6.8306572091775175
      ],
      [
        "▁yatırımcıları",
        -9.285333716782429
      ],
      [
        "▁ortalaması",
        -9.861720721015878
      ],
      [
        "ya",
        -8.255055954866737
      ],
      [
        "kten",
        -7.762450431380673
      ],
      [
        "▁komitesi",
        -9.410370628246365
      ],
      [
        "▁olmadı",
        -7.903863843873827
      ],
      [
        "▁sonu",
        -8.926218032566185
      ],
      [
        "sin",
        -6.581261317813709
      ],
      [
        "la",
        -8.564281887977364
      ],
      [
        "sekiz",
        -7.187399372377986
      ],
      [
        "▁musteriler",
        -8.983354635122309
      ],
      [
        "▁po",
        -9.093012455231381
      ],
      [
        "▁minder",
        -9.961351037459501
      ],
      [
        ".",
        -5.610172373097261
      ],
      [
        "▁yıl",
        -6.210710416873581
      ],
      [
        "▁icimi",
        -10.13295513687529
      ],
      [
        "▁ramiz",
        -8.214293832917615
      ],
      [
        "ligini",
        -8.491438222075587
      ],
      [
        "▁d",
        -7.023744093450079
      ],
      [
        "▁egitimi",
        -9.89884720421777
      ],
      [
        "▁dil",
        -7.9105737774877145
      ],
      [
        "▁kapa",
        -8.465281544283624
      ],
      [
        "▁seyleri",
        -9.245548949399652
      ],
      [
        "▁ogul",
        -9.388069455949507
      ],
      [
        "▁yatırımcılar",
        -8.121210068307999
      ],
      [
        "▁savas",
        -8.11008171951308
      ],
      [
        "n",
        -3.1048016047906444
      ],
      [
        "▁atmak",
        -10.10616071610771
      ],
      [
        "ma",
        -7.59784297526015
      ],
      [
        "▁dusunuyoru",
        -7.936326132982003
      ],
      [
        "▁alındı",
        -8.242877549426627
      ],
      [
        "li",
        -7.25093721435945
      ],
      [
        "▁ual",
        -7.259611041686999
      ],
      [
        "▁sezon",
        -9.32640493569606
      ],
      [
        "▁hizmetleri",
        -8.479199578103698
      ],
      [
        "▁ardında",
        -8.789851841036207
      ],
      [
        "▁esyalar",
        -9.937510679677654
      ],
      [
        "a",
        -3.7340635823201858
      ],
      [
        "▁yukselme",
        -10.106342076184713
      ],
      [
        "▁kriz",
        -8.950712703366941
      ],
      [
        "ist",
        -8.724220420575483
      ],
      [
        "▁baca",
        -9.916314471843394
      ],
      [
        "▁dısı",
        -8.59931508030196
      ],
      [
        "o",
        -2.8956488792173376
      ],
      [
        "000",
        -5.453798378371451
      ],
      [
        "▁salon",
        -9.313286607515286
      ],
      [
        "▁alkıs",
        -10.176420834463917
      ],
      [
        "▁degili",
        -4.9352643412096375
      ],
      [
        "▁yarısında",
        -10.119984521761173
      ],
      [
        "mesini",
        -9.423200336228406
      ],
      [
        "▁bırak",
        -8.087005017576926
      ],
      [
        "▁yanda",
        -8.473281903296023
      ],
      [
        "▁mutfag",
        -10.133096532288812
      ],
      [
        "▁tablo",
        -9.273388188902809
      ],
      [
        "▁sınıfta",
        -9.682043651263077
      ],
      [
        "▁gurur",
        -9.703473493071634
      ],
      [
        "▁kapasitesi",
        -9.148537665959672
      ],
      [
        "▁tesisti",
        -5.8698609312335055
      ],
      [
        "▁borsacılar",
        -9.820683887405949
      ],
      [
        "ların",
        -5.822373631677756
      ],
      [
        "▁birileri",
        -7.533993563251414
      ],
      [
        "▁tamam",
        -7.655270434831342
      ],
      [
        "ik",
        -6.414547574206891
      ],
      [
        "▁bekle",
        -8.897327571080764
      ],
      [
        "anlıslanabilirli",
        -9.316260684444142
      ],
      [
        "▁kagıdı",
        -9.25891184888112
      ],
      [
        "ı",
        -5.124368161599107
      ],
      [
        "▁aralık",
        -8.624708951799668
      ],
      [
        "ktan",
        -7.570124476525819
      ],
      [
        "▁yaglı",
        -8.374836103730527
      ],
      [
        "▁yatırımları",
        -10.102330154374162
      ],
      [
        "▁pacific",
        -7.77626416492925
      ],
      [
        "▁daya",
        -7.9449521610679685
      ],
      [
        "▁yaslı",
        -7.2585974104414905
      ],
      [
        "▁hotel",
        -10.099385481680233
      ],
      [
        "▁makaley",
        -9.375053159760592
      ],
      [
        "▁uzakta",
        -8.90686077852975
      ],
      [
        "▁burada",
        -6.054666224502334
      ],
      [
        "▁tasarısı",
        -9.824075609531539
      ],
      [
        "▁memleket",
        -9.163506997750266
      ],
      [
        "likle",
        -4.864519917768543
      ],
      [
        "▁kalabalık",
        -9.132744748277593
      ],
      [
        "▁olu",
        -8.177197239088652
      ],
      [
        "▁heves",
        -9.545363629685887
      ],
      [
        "▁bakar",
        -8.391798449487462
      ],
      [
        "▁bire",
        -7.825813201879836
      ],
      [
        "an",
        -8.145310038240687
      ],
      [
        "▁basvuru",
        -9.992200443220051
      ],
      [
        "▁ask",
        -8.359024794103153
      ],
      [
        "kadar",
        -6.308773486617229
      ],
      [
        "▁baska",
        -5.723382860041157
      ],
      [
        "an",
        -5.165519414905496
      ],
      [
        "yasal",
        -8.29276946333895
      ],
      [
        "▁43",
        -7.045957252005733
      ],
      [
        "▁louis'",
        -7.684873794446817
      ],
      [
        "▁kampanyalarda",
        -9.484923836012163
      ],
      [
        "▁sekil",
        -9.600866890666095
      ],
      [
        "▁bebek",
        -9.051619517415112
      ],
      [
        "ayım",
        -7.6859265003636414
      ],
      [
        "▁olan",
        -5.550474496869134
      ],
      [
        "da",
        -8.580004578459501
      ],
      [
        "▁gorme",
        -9.094165276293777
      ],
      [
        "▁coktu",
        -8.069253367073108
      ],
      [
        "cilikte",
        -9.984003370183311
      ],
      [
        "▁sacları",
        -8.654364807881777
      ],
      [
        "le",
        -6.887670592142281
      ],
      [
        "▁avukatlar",
        -9.380435123512369
      ],
      [
        "▁16",
        -6.1378288923756
      ],
      [
        "▁kesin",
        -6.101322210378779
      ],
      [
        "▁mudahale",
        -9.425097498358895
      ],
      [
        "▁.",
        -7.7838188156415065
      ],
      [
        "isi",
        -7.860989098248773
      ],
      [
        "▁dogu",
        -9.460722736516619
      ],
      [
        "▁ciftci",
        -10.00917270794909
      ],
      [
        "nca",
        -6.940399481638486
      ],
      [
        "▁temmuz",
        -9.132737828564636
      ],
      [
        "▁ada",
        -9.26697282358467
      ],
      [
        "▁banyosu",
        -9.716343694527893
      ],
      [
        "9",
        -4.905248477984599
      ],
      [
        "▁ucu",
        -8.759623308473152
      ],
      [
        "▁sas",
        -8.73377471350154
      ],
      [
        "▁2016",
        -7.418523353450368
      ],
      [
        "▁h",
        -7.308813907456981
      ],
      [
        "▁lo",
        -7.2307686568052425
      ],
      [
        "▁baskısı",
        -9.715224041672592
      ],
      [
        "▁yorgunluk",
        -9.731777540758229
      ],
      [
        "▁telefon",
        -7.746732095705221
      ],
      [
        "▁burası",
        -9.164577691862215
      ],
      [
        "▁milliyetci",
        -9.998685687496819
      ],
      [
        "▁istasyon",
        -9.933447877503541
      ],
      [
        "▁ay",
        -6.952583744070843
      ],
      [
        "▁doksan",
        -7.243696276708544
      ],
      [
        "l",
        -7.804722282254636
      ],
      [
        "▁seni",
        -5.079941773321164
      ],
      [
        "▁keyfi",
        -10.008716770093423
      ],
      [
        "▁ruzgar",
        -8.534832494043581
      ],
      [
        "▁surucu",
        -9.687413232304921
      ],
      [
        "lar",
        -8.974590896815133
      ],
      [
        "▁oluyordu",
        -7.938753560825946
      ],
      [
        "▁alanları",
        -9.91771508461618
      ],
      [
        "▁vardi",
        -6.25965259201028
      ],
      [
        "▁ber",
        -9.757124592665104
      ],
      [
        "▁odasında",
        -9.619762070545278
      ],
      [
        "▁sozlesmesi",
        -9.489451320783097
      ],
      [
        "▁secenek",
        -10.063390971741276
      ],
      [
        "e",
        -1.5758668895254075
      ],
      [
        "▁polisler",
        -9.77313611037931
      ],
      [
        "▁resmi",
        -9.297254908374638
      ],
      [
        "siz",
        -5.279569494377398
      ],
      [
        "▁gecmis",
        -8.245109124772139
      ],
      [
        "▁olacagın",
        -10.097706272108027
      ],
      [
        "▁sehirler",
        -9.99233184891468
      ],
      [
        "▁yerde",
        -7.464550409284563
      ],
      [
        "▁kaza",
        -8.70092915544905
      ],
      [
        "ıp",
        -6.402716634388267
      ],
      [
        "▁hi",
        -4.718511553182138
      ],
      [
        "▁kazanc",
        -7.9540988363322525
      ],
      [
        "▁uyandı",
        -8.937823148113935
      ],
      [
        "aki",
        -9.842291196683833
      ],
      [
        "y",
        -7.483793500799078
      ],
      [
        "▁hu",
        -9.272782073453897
      ],
      [
        "▁degisti",
        -8.572063572961621
      ],
      [
        "▁kıymetler",
        -7.9999068003386675
      ],
      [
        "lar",
        -7.1060434803029695
      ],
      [
        "▁yuku",
        -9.85627808983994
      ],
      [
        "▁eroin",
        -9.317911900446479
      ],
      [
        "▁cay",
        -8.32300333454649
      ],
      [
        "▁gosterebilir",
        -8.641556204342253
      ],
      [
        "jik",
        -8.46688497866116
      ],
      [
        "▁yakın",
        -8.49017966735875
      ],
      [
        "▁ayn",
        -7.320358475157959
      ],
      [
        "▁cıkar",
        -7.850134360737045
      ],
      [
        "▁donus",
        -7.070469128436656
      ],
      [
        "▁sehri",
        -9.322761658677091
      ],
      [
        "▁inc.",
        -6.717419652120548
      ],
      [
        "ecegim",
        -8.149937177607747
      ],
      [
        "▁washington",
        -5.8176565671691725
      ],
      [
        "▁yoneticiler",
        -9.603031612271701
      ],
      [
        "▁ittifak",
        -9.731777589579602
      ],
      [
        "▁dalgası",
        -9.945123973302213
      ],
      [
        "▁mi",
        -3.4668702953631687
      ],
      [
        "▁dalga",
        -9.090413544921676
      ],
      [
        "lastı",
        -8.414492341744435
      ],
      [
        "▁sag",
        -8.545254756250406
      ],
      [
        "▁ise",
        -7.4655513964881015
      ],
      [
        "▁gelin",
        -9.029883074868255
      ],
      [
        "▁gereken",
        -8.271974686107184
      ],
      [
        "▁asker",
        -8.463880583702121
      ],
      [
        "▁ba",
        -8.347483849452207
      ],
      [
        "▁siddet",
        -9.251475543341009
      ],
      [
        "▁konferans",
        -9.545225687760327
      ],
      [
        "ek",
        -8.432671710188803
      ],
      [
        "▁bırakıyor",
        -8.981153612705864
      ],
      [
        "▁ayakkabı",
        -9.22656885844339
      ],
      [
        "▁yolculugun",
        -10.012965429684366
      ],
      [
        "▁amacı",
        -8.761236760230933
      ],
      [
        "▁olum",
        -8.381255984402511
      ],
      [
        "▁deneyim",
        -9.32385775830296
      ],
      [
        "▁ikinci",
        -8.80037423770089
      ],
      [
        "▁isbirligi",
        -9.388071001272964
      ],
      [
        "▁aslan",
        -9.638062185868833
      ],
      [
        "▁oburleri",
        -8.403162188594626
      ],
      [
        "▁donus",
        -8.386906347591124
      ],
      [
        "▁yapmakta",
        -9.616799066584193
      ],
      [
        "▁suc",
        -8.753881233597081
      ],
      [
        "▁divan",
        -9.784513306649947
      ],
      [
        "▁dolarl",
        -7.883214119606064
      ],
      [
        "▁kapat",
        -8.414151104144743
      ],
      [
        "▁$'",
        -8.253779457063484
      ],
      [
        "f",
        -8.77684154095741
      ],
      [
        "▁s",
        -6.552837919622918
      ],
      [
        "▁buray",
        -8.816156833311346
      ],
      [
        "fede",
        -7.484040725045101
      ],
      [
        "▁bolumu",
        -8.824032392199864
      ],
      [
        "ecek",
        -7.550345091321895
      ],
      [
        "▁haber",
        -7.724663502312925
      ],
      [
        "▁sarf",
        -9.735064691053784
      ],
      [
        "▁ayagın",
        -9.85526369457546
      ],
      [
        "va",
        -8.36708514772662
      ],
      [
        "▁butce",
        -8.567126298350564
      ],
      [
        "▁philadelphia",
        -6.792612375923283
      ],
      [
        "▁h",
        -9.964554393764933
      ],
      [
        "g",
        -12.03594578210268
      ],
      [
        "▁sektor",
        -8.627948444872032
      ],
      [
        "▁sebze",
        -9.425097673573475
      ],
      [
        "g",
        -7.279128957759411
      ],
      [
        "yuzlu",
        -6.498143314138133
      ],
      [
        "▁oranını",
        -9.922684427998972
      ],
      [
        "▁getiri",
        -8.53269356888715
      ],
      [
        "▁tanır",
        -8.942681667312854
      ],
      [
        "▁sur",
        -7.903491867822824
      ],
      [
        "▁meyve",
        -8.741473493392682
      ],
      [
        "▁topla",
        -9.923559338187342
      ],
      [
        "▁madde",
        -8.435323559749296
      ],
      [
        "▁etek",
        -9.546130420249298
      ],
      [
        "yıp",
        -6.838689337787059
      ],
      [
        "▁sahi",
        -9.408194958898127
      ],
      [
        "▁soluk",
        -8.486440128272543
      ],
      [
        "▁hikayesi",
        -9.87330354634194
      ],
      [
        "▁23",
        -6.3598901647095225
      ],
      [
        "▁seytan",
        -10.038190774411573
      ],
      [
        "▁tekne",
        -8.785880812263882
      ],
      [
        "▁indianapolis'",
        -7.852477390095281
      ],
      [
        "▁say",
        -9.377001667389834
      ],
      [
        "ba",
        -7.838062294258242
      ],
      [
        "▁b",
        -7.1790279934012275
      ],
      [
        "▁almak",
        -7.554787128737007
      ],
      [
        "▁denetim",
        -9.503560689995004
      ],
      [
        "▁geciriyor",
        -8.97826817279288
      ],
      [
        "▁bulunma",
        -9.720920436738968
      ],
      [
        "▁karakol",
        -10.02798614523226
      ],
      [
        "▁niyeti",
        -9.991697538625006
      ],
      [
        "▁kim",
        -4.773235186824169
      ],
      [
        "&",
        -7.467592664439693
      ],
      [
        "lıgı",
        -7.295390723859494
      ],
      [
        "▁a.",
        -9.686675429960625
      ],
      [
        "▁r",
        -9.255097890467018
      ],
      [
        "▁h",
        -8.704138099229652
      ],
      [
        "▁turkce",
        -8.333911123962746
      ],
      [
        "▁kredi",
        -7.508044632282202
      ],
      [
        "ı",
        -6.441841627999206
      ],
      [
        "▁semt",
        -9.898821012024692
      ],
      [
        "▁isti",
        -9.537931426145981
      ],
      [
        "▁isimler",
        -9.687177521584637
      ],
      [
        "▁bakıyor",
        -7.699961730503101
      ],
      [
        "▁almanya",
        -7.48228014697874
      ],
      [
        "li",
        -8.076561838336984
      ],
      [
        "▁macın",
        -9.908899552062785
      ],
      [
        "▁goturdu",
        -8.067399066742995
      ],
      [
        "▁yumurta",
        -8.74147407194992
      ],
      [
        "▁universite",
        -8.746930950243414
      ],
      [
        "▁yogurt",
        -9.961288690617186
      ],
      [
        "esik",
        -8.186275057097657
      ],
      [
        "▁gorunumu",
        -9.995295213879357
      ],
      [
        "▁minneapolis'te",
        -7.80806283380964
      ],
      [
        "▁park",
        -9.03867064454416
      ],
      [
        "▁dogru",
        -7.603731796977202
      ],
      [
        "zat",
        -7.044131657787526
      ],
      [
        "▁amerika",
        -7.0730111501400605
      ],
      [
        "▁temsilcisi",
        -10.026857298643908
      ],
      [
        "lerini",
        -6.198054628146535
      ],
      [
        "▁pi",
        -8.667031882608265
      ],
      [
        "▁som",
        -9.931908182173604
      ],
      [
        "▁plaj",
        -8.66807289723069
      ],
      [
        "ici",
        -9.190071964540753
      ],
      [
        "lerinde",
        -7.953111759744621
      ],
      [
        "▁te",
        -8.037907189863349
      ],
      [
        "▁zahmet",
        -9.898788250969275
      ],
      [
        "▁sistem",
        -8.5550162528031
      ],
      [
        "▁nası",
        -7.849488159887262
      ],
      [
        "larındaki",
        -8.04462031994002
      ],
      [
        "▁niteligi",
        -10.027969514692597
      ],
      [
        "▁hacı",
        -9.736971626111522
      ],
      [
        "▁girisim",
        -8.676098862616607
      ],
      [
        "▁buyur",
        -8.91523839938762
      ],
      [
        "▁liman",
        -9.5819867660019
      ],
      [
        "▁varır",
        -8.930957075891941
      ],
      [
        "▁ta",
        -8.71936292060021
      ],
      [
        "▁cekim",
        -9.704636773468454
      ],
      [
        "▁fonları",
        -9.288211731547781
      ],
      [
        "▁altı",
        -9.204764587307537
      ],
      [
        "▁serbet",
        -10.176337805418049
      ],
      [
        "▁bahsetti",
        -8.786500663505338
      ],
      [
        "▁ortak",
        -7.415942942524557
      ],
      [
        "▁kav",
        -9.26293564680918
      ],
      [
        "▁otur",
        -8.181847693026166
      ],
      [
        "▁ro",
        -9.849057067141707
      ],
      [
        "▁sus",
        -8.71781129166186
      ],
      [
        "▁sura",
        -9.661642800352633
      ],
      [
        "▁durumun",
        -9.718196917460132
      ],
      [
        "▁beceri",
        -10.02795621098985
      ],
      [
        "▁neler",
        -6.5615336919270835
      ],
      [
        "▁duyar",
        -8.477995964029375
      ],
      [
        "biri",
        -7.795027831883358
      ],
      [
        "▁kızını",
        -10.170464120476051
      ],
      [
        "▁kisilerin",
        -9.673796189139086
      ],
      [
        "▁profesor",
        -10.114736595122597
      ],
      [
        "▁yemekler",
        -6.814815299899861
      ],
      [
        "▁ihracatı",
        -10.1565616956555
      ],
      [
        "▁yuksel",
        -6.724838392089302
      ],
      [
        "▁op",
        -9.905942988507055
      ],
      [
        "▁hasta",
        -7.42318872215738
      ],
      [
        "▁pek",
        -4.940017877222247
      ],
      [
        "▁havaalanı'nda",
        -9.531892303693649
      ],
      [
        "▁geldigi",
        -8.54225955231983
      ],
      [
        "▁irak",
        -7.4470760111475
      ],
      [
        "▁sohret",
        -9.96128820819943
      ],
      [
        "it",
        -6.62179741126329
      ],
      [
        "kan",
        -8.228826236194081
      ],
      [
        "▁bu",
        -3.2396197333277525
      ],
      [
        "▁kıy",
        -7.644915052644335
      ],
      [
        "▁yetenegi",
        -9.731777600237006
      ],
      [
        "▁saglıyor",
        -8.437526152176615
      ],
      [
        "'n",
        -8.895051255182253
      ],
      [
        "▁yanlıs",
        -9.473925961783046
      ],
      [
        "▁civarı",
        -8.95383114979398
      ],
      [
        "berg",
        -8.3300530085768
      ],
      [
        "rasın",
        -9.899731043873167
      ],
      [
        "▁dalgalanma",
        -9.359165965968899
      ],
      [
        "▁yaptıgı",
        -7.8310214212526015
      ],
      [
        "▁istasyonu",
        -9.843391243278663
      ],
      [
        "u",
        -5.721531573000035
      ],
      [
        "▁uzlasma",
        -9.899027426538266
      ],
      [
        "daki",
        -7.907859580847811
      ],
      [
        "▁ulkeni",
        -9.46885202096324
      ],
      [
        "▁bush'u",
        -8.327269850396899
      ],
      [
        "▁ihrac",
        -9.1356813010215
      ],
      [
        "▁tavuk",
        -9.132759522835405
      ],
      [
        "▁dua",
        -9.253947174923486
      ],
      [
        "▁iscileri",
        -10.082158043620332
      ],
      [
        "▁capital",
        -7.917623560782287
      ],
      [
        "▁istiyordu",
        -8.186160079181052
      ],
      [
        "tik",
        -7.798881633101012
      ],
      [
        "men",
        -7.749488467529847
      ],
      [
        "▁dallas'ta",
        -5.771591626541849
      ],
      [
        "▁getiri",
        -8.300033995827805
      ],
      [
        "▁sozlerini",
        -9.664947539044828
      ],
      [
        "▁faaliyetleri",
        -9.631667217583457
      ],
      [
        "▁eleman",
        -9.609669947885482
      ],
      [
        "larında",
        -6.764478216958829
      ],
      [
        "▁gorune",
        -8.773770914155817
      ],
      [
        "▁mat",
        -9.85194878631517
      ],
      [
        "nomi",
        -8.594515191948783
      ],
      [
        "larını",
        -8.192570554273463
      ],
      [
        "▁panik",
        -9.731781746461262
      ],
      [
        "▁bekledigin",
        -9.503636431935313
      ],
      [
        "▁kullan",
        -9.69747947159117
      ],
      [
        "▁hizmet",
        -5.988713322378943
      ],
      [
        "▁yonunde",
        -9.904001868006459
      ],
      [
        "ende",
        -8.218905369026418
      ],
      [
        "▁mevcut",
        -8.53562629492314
      ],
      [
        "▁united",
        -6.265269205589437
      ],
      [
        "▁teminat",
        -9.285526757157653
      ],
      [
        "▁kap",
        -8.325077204612565
      ],
      [
        "▁durumunu",
        -9.903044785438974
      ],
      [
        "▁hayret",
        -9.503565205984996
      ],
      [
        "▁evde",
        -7.922848743487957
      ],
      [
        "▁kurumu",
        -9.697526815018145
      ],
      [
        "▁kaldi",
        -5.2177456527900095
      ],
      [
        "▁etraf",
        -9.793188637503686
      ],
      [
        "me",
        -7.409974667313414
      ],
      [
        "▁caz",
        -10.17763445491045
      ],
      [
        "▁kızı",
        -8.362776734903555
      ],
      [
        "▁birinde",
        -9.660756128219527
      ],
      [
        "▁co",
        -6.843950054630211
      ],
      [
        "▁kurul",
        -9.154591988471726
      ],
      [
        "acaklar",
        -10.046307959045059
      ],
      [
        "▁yapti",
        -7.330535609409531
      ],
      [
        "▁corba",
        -8.567133811979403
      ],
      [
        "▁duse",
        -8.108067187189583
      ],
      [
        "r",
        -5.432628029726923
      ],
      [
        "▁erte",
        -7.7401241470957824
      ],
      [
        "▁buz",
        -8.909279493203545
      ],
      [
        "▁actı",
        -6.946060288884619
      ],
      [
        "hazır",
        -7.439275110079495
      ],
      [
        "cilik",
        -8.734942781277397
      ],
      [
        "▁car",
        -8.66649618217978
      ],
      [
        "▁yasaya",
        -8.566349252591053
      ],
      [
        "▁gozlerini",
        -8.144196334393618
      ],
      [
        "▁7",
        -9.13548420762703
      ],
      [
        "▁ce",
        -8.630760411379411
      ],
      [
        "▁balta",
        -9.968619833188546
      ],
      [
        "▁sans",
        -9.39759483347852
      ],
      [
        "▁tabur",
        -9.681783751789169
      ],
      [
        "▁m",
        -6.5695762177022194
      ],
      [
        "zu",
        -9.062179647118034
      ],
      [
        "▁gelmisti",
        -7.989491741900457
      ],
      [
        "▁itibar",
        -9.560361244724534
      ],
      [
        "▁tumu",
        -9.642897545484665
      ],
      [
        "▁ceyrekte",
        -8.690799461797374
      ],
      [
        "▁re",
        -8.109570025134946
      ],
      [
        "sı",
        -5.98069388927272
      ],
      [
        "▁cbs",
        -8.11443270675226
      ],
      [
        "▁fazla",
        -9.88892981459929
      ],
      [
        "▁sopa",
        -10.099561623012166
      ],
      [
        "▁yesil",
        -7.1053616699946565
      ],
      [
        "▁calıs",
        -8.158654180536226
      ],
      [
        "▁havayolu",
        -8.533400074323996
      ],
      [
        "▁odul",
        -9.131832059876302
      ],
      [
        "▁bil",
        -8.09607963168584
      ],
      [
        "▁sek",
        -9.644614060358744
      ],
      [
        "▁uyku",
        -8.658353768370624
      ],
      [
        "▁tavrı",
        -9.545348657560876
      ],
      [
        "indek",
        -7.156888779365852
      ],
      [
        "▁tutar",
        -8.751826610679235
      ],
      [
        "▁fiyatlandırıl",
        -8.81704745010056
      ],
      [
        "ılan",
        -8.795705729473106
      ],
      [
        "▁class",
        -8.102140046027774
      ],
      [
        "▁gokyuzu",
        -9.889586371945413
      ],
      [
        "▁onur",
        -9.645832059158476
      ],
      [
        "▁otur",
        -10.09174853301049
      ],
      [
        "▁gostere",
        -8.567719247690754
      ],
      [
        "▁egzersiz",
        -9.898788204443438
      ],
      [
        "▁huzur",
        -9.585538907225526
      ],
      [
        "▁cocug",
        -9.521137257041133
      ],
      [
        "▁hos",
        -7.4533846115195175
      ],
      [
        "▁misafirler",
        -10.175422158622158
      ],
      [
        "▁19",
        -5.584042382710445
      ],
      [
        "▁s",
        -6.730562792173902
      ],
      [
        "t",
        -7.412679545745386
      ],
      [
        "▁yana",
        -7.967408395125522
      ],
      [
        "▁l.",
        -8.244531548830729
      ],
      [
        "▁meclisi",
        -9.488398315088952
      ],
      [
        "▁fiyati",
        -8.262748942114406
      ],
      [
        "▁fiyatları",
        -7.528386336713049
      ],
      [
        "bes",
        -6.886558564358985
      ],
      [
        "▁calismasin",
        -9.972070510621354
      ],
      [
        "▁cogunu",
        -6.8282652036770175
      ],
      [
        "▁faaliyeti",
        -9.73201111754953
      ],
      [
        "▁solda",
        -10.103849978618
      ],
      [
        "▁yarı",
        -9.285883971297814
      ],
      [
        "▁okul",
        -8.299799684002835
      ],
      [
        "lı",
        -4.604940978868521
      ],
      [
        "▁kadeh",
        -9.317873482261907
      ],
      [
        "▁ları",
        -7.663888550713381
      ],
      [
        "▁verdigim",
        -6.835097742576261
      ],
      [
        "▁grev",
        -9.84030795842964
      ],
      [
        "▁geri",
        -7.1818834557223115
      ],
      [
        "▁temel",
        -9.145378862916143
      ],
      [
        "▁boston'da",
        -4.920164314759336
      ],
      [
        "▁karsılıgı",
        -10.055344533678479
      ],
      [
        "▁anlam",
        -7.970774144990175
      ],
      [
        "yla",
        -6.609948332917524
      ],
      [
        "▁",
        -0.7087938101118976
      ],
      [
        "▁manevra",
        -10.027954872153177
      ],
      [
        "▁paral",
        -8.757584074758762
      ],
      [
        "▁gerdan",
        -10.028031525663467
      ],
      [
        "'de",
        -7.3956080720555555
      ],
      [
        "▁burbank'ta",
        -8.151789344953354
      ],
      [
        "▁mah",
        -7.958157901483875
      ],
      [
        "▁bizler",
        -6.884598609562019
      ],
      [
        "▁guzeli",
        -9.840031321485315
      ],
      [
        "ustu",
        -9.709057569124546
      ],
      [
        "▁konusuyor",
        -7.991218854827705
      ],
      [
        "▁yapılacak",
        -7.973143572100478
      ],
      [
        "▁cehre",
        -9.634158951449331
      ],
      [
        "▁diyordu",
        -8.551748048018604
      ],
      [
        "▁ozgurluk",
        -9.545393248740346
      ],
      [
        "▁ber",
        -8.189873495288287
      ],
      [
        "▁yollarını",
        -9.649508490948353
      ],
      [
        "likti",
        -8.983522397378565
      ],
      [
        "▁dus",
        -7.087842971002945
      ],
      [
        "▁etegi",
        -9.963472663086431
      ],
      [
        "▁kıs",
        -7.698404602811573
      ],
      [
        "ral",
        -7.850009928623745
      ],
      [
        "▁si",
        -8.204993804943657
      ],
      [
        "▁kule",
        -9.764468063566792
      ],
      [
        "▁ikisi",
        -7.407822385017121
      ],
      [
        "uluslar",
        -7.940276082175659
      ],
      [
        "'ta",
        -7.520272229818984
      ],
      [
        "▁kucuk",
        -5.347611134457678
      ],
      [
        "▁yıllar",
        -7.3342302490251665
      ],
      [
        "▁gelen",
        -7.085954173273364
      ],
      [
        "▁bilimin",
        -9.676684569030588
      ],
      [
        "▁selim",
        -8.335026046683401
      ],
      [
        "▁niyetin",
        -10.124494910143229
      ],
      [
        "▁gecer",
        -8.113339694802196
      ],
      [
        "▁bina",
        -8.330526690321093
      ],
      [
        "▁sandıgı",
        -9.610750263166949
      ],
      [
        "▁don",
        -8.594968907651552
      ],
      [
        "cilerin",
        -9.454733499136953
      ],
      [
        "▁soruyor",
        -8.44349555851925
      ],
      [
        "once",
        -8.201754415952724
      ],
      [
        "30'da",
        -9.898747425593585
      ],
      [
        "▁cocugu",
        -8.553997961061583
      ],
      [
        "▁varan",
        -6.420723393827976
      ],
      [
        "▁seattle'de",
        -7.736604950268081
      ],
      [
        "▁lobi",
        -9.532990322077815
      ],
      [
        "▁etmekte",
        -10.063844626027926
      ],
      [
        "▁17",
        -6.060985725555577
      ],
      [
        "▁kondu",
        -9.95492379375878
      ],
      [
        "▁yelpaze",
        -9.8987882453021
      ],
      [
        "▁elini",
        -8.42755988549434
      ],
      [
        "▁keyif",
        -9.839965081303454
      ],
      [
        "mıyordu",
        -8.97466979098834
      ],
      [
        "▁p",
        -8.14999619319001
      ],
      [
        "▁gormek",
        -8.82888745678303
      ],
      [
        "▁onem",
        -8.376841534820752
      ],
      [
        "▁benziyor",
        -8.111115775284727
      ],
      [
        "dugunu",
        -9.014151791985217
      ],
      [
        "▁kusagı",
        -9.785260874639443
      ],
      [
        "bilecegini",
        -10.006574746860593
      ],
      [
        "▁esim",
        -8.849214992701357
      ],
      [
        "▁vakıf",
        -9.83996922321247
      ],
      [
        "▁sat",
        -8.287939209819793
      ],
      [
        "▁ciddi",
        -7.125527463986875
      ],
      [
        "▁toplum",
        -8.571312796715956
      ],
      [
        "▁olu",
        -9.453047351663177
      ],
      [
        "▁tasır",
        -8.357631695138384
      ],
      [
        "▁alaca",
        -9.87386606740583
      ],
      [
        "▁si",
        -9.41211622225353
      ],
      [
        "▁siz",
        -4.45194501521479
      ],
      [
        "▁yiyecek",
        -8.038314954375355
      ],
      [
        "▁makine",
        -8.699882033332251
      ],
      [
        "▁taklit",
        -9.961299035953658
      ],
      [
        "▁ucuslar",
        -6.226607001372271
      ],
      [
        "▁dısarıy",
        -10.113317753487436
      ],
      [
        "▁disiplin",
        -9.588704011363905
      ],
      [
        "▁kıymetleri",
        -9.704965609927637
      ],
      [
        "▁kapılar",
        -10.076104653236136
      ],
      [
        "▁ikram",
        -9.463510612576894
      ],
      [
        "▁yemeklerinde",
        -8.942323754339125
      ],
      [
        "▁doga",
        -7.4439148638797
      ],
      [
        "▁olmasa",
        -8.08972077167079
      ],
      [
        "▁kalı",
        -9.613261888813568
      ],
      [
        "▁degil",
        -8.983271483320548
      ],
      [
        "ecektir",
        -8.41134730618427
      ],
      [
        "▁anlasma",
        -7.6809048270765
      ],
      [
        "▁cocuklu",
        -6.318261283568042
      ],
      [
        "▁toprag",
        -9.75972422173824
      ],
      [
        "▁vur",
        -8.667016132592863
      ],
      [
        "▁tespit",
        -9.388060574962118
      ],
      [
        "7.5",
        -7.365955940349483
      ],
      [
        "▁mev",
        -6.723538293557618
      ],
      [
        "▁icerisin",
        -9.130906480212799
      ],
      [
        "▁karısı",
        -7.861529256305433
      ],
      [
        "sen",
        -8.844703592031276
      ],
      [
        "▁tutum",
        -9.690219046556447
      ],
      [
        "▁ka",
        -8.452763212227412
      ],
      [
        "▁model",
        -9.588565085266548
      ],
      [
        "▁topragı",
        -10.036109280649892
      ],
      [
        ":",
        -9.634102769573646
      ],
      [
        "▁muht",
        -7.687568239938022
      ],
      [
        "▁calisanlar",
        -8.451190507419271
      ],
      [
        "▁tesisi",
        -8.73748748029383
      ],
      [
        "ko",
        -9.146986028858954
      ],
      [
        "▁dolardı",
        -8.494333369675527
      ],
      [
        "▁dinleme",
        -10.108995046220212
      ],
      [
        "▁gozlerinde",
        -9.802636247428136
      ],
      [
        "▁hac",
        -9.954002518195564
      ],
      [
        "uydu",
        -8.444303099905767
      ],
      [
        "▁havlu",
        -9.794811738051994
      ],
      [
        "▁er",
        -8.700371133238654
      ],
      [
        "▁istiyor",
        -7.248337486283619
      ],
      [
        "▁alıs",
        -9.844086729919212
      ],
      [
        "▁dayan",
        -8.44335773969743
      ],
      [
        "▁cogunlugu",
        -9.733291077118754
      ],
      [
        "lardan",
        -7.249411938855201
      ],
      [
        "▁bulur",
        -8.626900255411407
      ],
      [
        "▁201",
        -7.22957117844715
      ],
      [
        "▁recep",
        -8.028165502541958
      ],
      [
        "sını",
        -6.90342527436048
      ],
      [
        "▁bizde",
        -5.95228552226769
      ],
      [
        "▁dede",
        -9.285486363373447
      ],
      [
        "▁inanıyor",
        -8.10059766672821
      ],
      [
        "ya",
        -7.487244857637893
      ],
      [
        "▁bilgisi",
        -9.644954691250906
      ],
      [
        "cısı",
        -9.475195413956325
      ],
      [
        "▁dere",
        -9.20346031322747
      ],
      [
        "▁acı",
        -7.056702490320647
      ],
      [
        "▁sahibi",
        -8.006511560293184
      ],
      [
        "▁hastalıgı",
        -9.687587611766823
      ],
      [
        "▁gelmez",
        -8.561449333581786
      ],
      [
        "l",
        -6.569307647131929
      ],
      [
        "▁mehmet",
        -6.7206985485298185
      ],
      [
        "▁bak",
        -8.304093235211965
      ],
      [
        "a",
        -5.585152189824249
      ],
      [
        "▁cicek",
        -8.898336946219947
      ],
      [
        "itap",
        -9.32509797271633
      ],
      [
        "▁muhalefet",
        -9.588703947383507
      ],
      [
        "▁piyasasında",
        -9.658861879222217
      ],
      [
        "▁kart",
        -9.189992150669402
      ],
      [
        "▁bunlar",
        -4.7085310956851325
      ],
      [
        "▁karakter",
        -9.317866457466437
      ],
      [
        "▁oldugu",
        -6.415749648565442
      ],
      [
        "▁direktoru",
        -9.432795783194631
      ],
      [
        "▁af",
        -9.38672672478809
      ],
      [
        "▁bekleniyor",
        -7.467868611709613
      ],
      [
        "▁numaral",
        -7.903709266781838
      ],
      [
        "iz",
        -6.722998754508661
      ],
      [
        "lar",
        -7.86989936685246
      ],
      [
        "▁persembe",
        -7.9882735904532
      ],
      [
        "▁alacaklılar",
        -10.099387746426071
      ],
      [
        "[MASK]",
        0.0
      ],
      [
        "▁tutun",
        -8.810343286394296
      ],
      [
        "▁ucak",
        -7.495092111532389
      ],
      [
        "caya",
        -10.00891786781166
      ],
      [
        "▁brook",
        -8.356747212025537
      ],
      [
        "▁kurulunu",
        -9.957794281027798
      ],
      [
        "▁uzun",
        -5.554823761362111
      ],
      [
        "15",
        -7.46284826929287
      ],
      [
        "▁makinesi",
        -9.547658553534372
      ],
      [
        "▁har",
        -8.954336312690904
      ],
      [
        "▁londra",
        -7.490199595551225
      ],
      [
        "▁netice",
        -9.89775350625891
      ],
      [
        "▁hanim",
        -6.97677476295359
      ],
      [
        "le",
        -7.2319893104787205
      ],
      [
        "ice",
        -8.482527239851917
      ],
      [
        "▁olus",
        -8.063743019982343
      ],
      [
        "▁hanım",
        -8.483935485787732
      ],
      [
        "▁birlik",
        -9.461689217271887
      ],
      [
        "▁yolcu",
        -9.301193601585384
      ],
      [
        "▁projesi",
        -9.950826026567828
      ],
      [
        "▁reagan",
        -8.23246718729969
      ],
      [
        "ut",
        -7.534273502585786
      ],
      [
        "g",
        -12.802702672349787
      ],
      [
        "culuk",
        -10.125816019006361
      ],
      [
        "▁gecirmek",
        -10.117022664124258
      ],
      [
        "inde",
        -7.05693297867705
      ],
      [
        "▁arizona",
        -8.243637910701775
      ],
      [
        "▁istedigi",
        -9.897672029807197
      ],
      [
        "▁bas",
        -8.34427474861392
      ],
      [
        "▁elektr",
        -7.78279836205093
      ],
      [
        "▁krizi",
        -9.39126167023608
      ],
      [
        "mu",
        -8.513807239803416
      ],
      [
        "▁sozlesme",
        -8.526786491629075
      ],
      [
        "▁yonetici",
        -9.104428611078283
      ],
      [
        "de",
        -8.341909469523006
      ],
      [
        "ının",
        -7.434663971060819
      ],
      [
        "▁kalmaya",
        -9.443564264510108
      ],
      [
        "▁curuk",
        -8.549299797388718
      ],
      [
        "▁demek",
        -7.615228327851538
      ],
      [
        "ir",
        -7.332362169299999
      ],
      [
        "▁sevk",
        -9.058340020872963
      ],
      [
        "▁bankaları",
        -9.786640222402532
      ],
      [
        "▁palto",
        -9.50363589255112
      ],
      [
        "▁bela",
        -9.64019733773208
      ],
      [
        "inci",
        -7.5171329511596365
      ],
      [
        "deta",
        -6.817374011480661
      ],
      [
        "s",
        -4.747466569578413
      ],
      [
        "▁karanlık",
        -8.182000264629504
      ],
      [
        "▁yasak",
        -9.690601658290701
      ],
      [
        "▁9",
        -9.847620743981723
      ],
      [
        "sinde",
        -6.939929353281317
      ],
      [
        "niz",
        -8.41654031657255
      ],
      [
        "▁ceki",
        -9.953660747419944
      ],
      [
        "▁kaynak",
        -8.437709221412401
      ],
      [
        "▁mucadele",
        -8.457538330445674
      ],
      [
        "▁cep",
        -9.084679298816
      ],
      [
        "▁gorun",
        -8.35481860629487
      ],
      [
        "▁bileti",
        -8.698950887448296
      ],
      [
        "▁batı",
        -8.91975921435579
      ],
      [
        "▁dokuz",
        -5.927416539257818
      ],
      [
        "▁ettigi",
        -8.456570324960014
      ],
      [
        "▁ataturk'u",
        -7.98641216010333
      ],
      [
        "▁vardı",
        -5.557788530853439
      ],
      [
        "tmak",
        -9.844705116610644
      ],
      [
        "umsal",
        -8.471888645126688
      ],
      [
        "▁karın",
        -9.109624617500852
      ],
      [
        "urekli",
        -6.170784925687602
      ],
      [
        "degildi",
        -6.026328461764027
      ],
      [
        "lerinde",
        -7.180831886062232
      ],
      [
        "▁olan",
        -4.305715080017117
      ],
      [
        "akka",
        -8.407853895765978
      ],
      [
        "▁3.5",
        -7.033184509879598
      ],
      [
        "▁konaklama",
        -10.10620647034998
      ],
      [
        "▁evladı",
        -10.028939703693947
      ],
      [
        "▁ortam",
        -9.560588117639252
      ],
      [
        "▁yagı",
        -9.400359553507474
      ],
      [
        "▁etkisi",
        -8.800946385665007
      ],
      [
        "▁olma",
        -8.219141381625018
      ],
      [
        "▁kisiligi",
        -10.03768051986126
      ],
      [
        "▁kaldı",
        -6.776605112657178
      ],
      [
        "▁kılıc",
        -9.388470585647063
      ],
      [
        "▁lezzet",
        -6.942877474157928
      ],
      [
        "leme",
        -8.752240956617467
      ],
      [
        "▁koltuklar",
        -9.713713888874889
      ],
      [
        "▁talebe",
        -10.02795973487089
      ],
      [
        "▁isci",
        -8.526004654713148
      ],
      [
        "▁birilerini",
        -8.052026896391645
      ],
      [
        "7",
        -4.751300342131521
      ],
      [
        "lerini",
        -8.443773640625864
      ],
      [
        "hanede",
        -9.85255874724039
      ],
      [
        "▁yaklasimi",
        -8.9534099964119
      ],
      [
        "▁maddeleri",
        -10.116570597679411
      ],
      [
        "in",
        -9.939112769974844
      ],
      [
        "en",
        -8.333530082193722
      ],
      [
        "▁paul",
        -7.718110480898946
      ],
      [
        "▁cop",
        -9.052883868088564
      ],
      [
        "ford",
        -8.212381102015502
      ],
      [
        "▁kisi",
        -7.406179170664951
      ],
      [
        "kul",
        -7.4453938067184895
      ],
      [
        "▁kolay",
        -6.787546431258131
      ],
      [
        "▁hafif",
        -7.869072630271413
      ],
      [
        "▁can",
        -7.814479418953498
      ],
      [
        "▁havalimanların",
        -10.176306670827618
      ],
      [
        "luydu",
        -8.015190650603543
      ],
      [
        "▁ucretini",
        -9.506389400318113
      ],
      [
        "▁musterilerin",
        -10.165017494786618
      ],
      [
        "▁yurudu",
        -8.099884682814995
      ],
      [
        "p",
        -7.104379602674954
      ],
      [
        "▁ayagını",
        -10.173278551371022
      ],
      [
        "▁gunlu",
        -6.633656965974765
      ],
      [
        "▁kırdı",
        -8.876370957919564
      ],
      [
        "▁duzine",
        -10.102660495195828
      ],
      [
        "▁yer",
        -6.709275396757743
      ],
      [
        "▁verim",
        -8.592015102401916
      ],
      [
        "a",
        -7.245905658753115
      ],
      [
        "yı",
        -5.7838344117797655
      ],
      [
        "▁giren",
        -8.974633600176379
      ],
      [
        "▁boston",
        -5.725254465815135
      ],
      [
        "▁acısın",
        -8.746028472792368
      ],
      [
        "▁almadi",
        -8.49758417346879
      ],
      [
        "▁tartısma",
        -9.219812792516983
      ],
      [
        "▁g",
        -6.207197408240738
      ],
      [
        "landı",
        -8.616952141013547
      ],
      [
        "▁yoneticisi",
        -9.230221279409637
      ],
      [
        "▁husus",
        -9.486190526816815
      ],
      [
        "▁egitim",
        -8.230646439887273
      ],
      [
        "yor",
        -9.43130156208674
      ],
      [
        "▁sirket",
        -6.571667865376545
      ],
      [
        "tir",
        -8.286739654787315
      ],
      [
        "e",
        -5.432312471123907
      ],
      [
        "▁bol",
        -7.374533476326934
      ],
      [
        "sadık",
        -8.785851219264412
      ],
      [
        "▁du",
        -8.633377315617889
      ],
      [
        "▁il",
        -8.546225476510248
      ],
      [
        "▁kızlar",
        -9.283330140268468
      ],
      [
        "▁dai",
        -8.212908243381195
      ],
      [
        "▁5'te",
        -8.673930322492833
      ],
      [
        "▁giyim",
        -10.029187246934415
      ],
      [
        "▁katı",
        -8.6831241940934
      ],
      [
        "▁olumun",
        -9.881758854614137
      ],
      [
        "et",
        -7.705239959680849
      ],
      [
        "▁alkol",
        -9.463894329840402
      ],
      [
        "▁ac",
        -7.39820185274849
      ],
      [
        "▁sahil",
        -9.871734920613857
      ],
      [
        "▁basım",
        -9.007302168122843
      ],
      [
        "sa",
        -6.5155796323438
      ],
      [
        "▁hafıza",
        -10.097066737359361
      ],
      [
        "▁seyirci",
        -9.580982662220894
      ],
      [
        "▁federa",
        -7.494668383299166
      ],
      [
        "▁acıkca",
        -7.836464028264578
      ],
      [
        "▁kurt",
        -8.100519537105876
      ],
      [
        "▁sultan",
        -10.099466164170558
      ],
      [
        "in",
        -5.913242392268193
      ],
      [
        "▁asırı",
        -7.315089100310389
      ],
      [
        "gıy",
        -8.2890619212006
      ],
      [
        "▁islemlerde",
        -9.363893797897529
      ],
      [
        "z",
        -12.24335423160404
      ],
      [
        "▁chat",
        -9.784422293608284
      ],
      [
        "iyordu",
        -7.24001537771692
      ],
      [
        "dıgı",
        -7.497773407287866
      ],
      [
        "takım",
        -8.102059635887393
      ],
      [
        "▁on",
        -6.089300112861576
      ],
      [
        "▁la",
        -8.401058469814458
      ],
      [
        "esinde",
        -8.037033013156538
      ],
      [
        "▁alma",
        -7.837406765681065
      ],
      [
        "▁ediyorlar",
        -7.83363057979426
      ],
      [
        "▁bunlarda",
        -6.246440461648687
      ],
      [
        "▁yak",
        -8.742968103304275
      ],
      [
        "▁rejim",
        -10.169833781291858
      ],
      [
        "▁yalan",
        -8.661791620680985
      ],
      [
        "il",
        -8.173817287568653
      ],
      [
        "▁ihale",
        -9.136050874296938
      ],
      [
        "▁art",
        -8.34966157181385
      ],
      [
        "▁kullanım",
        -9.73327634572113
      ],
      [
        "▁us",
        -7.929442508986908
      ],
      [
        "▁analist",
        -9.35734640338719
      ],
      [
        "▁yardımı",
        -9.524638233090094
      ],
      [
        "▁temizlik",
        -7.570978775726861
      ],
      [
        "▁guler",
        -6.447968603411418
      ],
      [
        "▁olunc",
        -8.094357719033704
      ],
      [
        "▁saatli",
        -8.686326185010666
      ],
      [
        "me",
        -8.78759046311184
      ],
      [
        "▁aray",
        -8.62889675731824
      ],
      [
        "▁kavga",
        -8.780603919748645
      ],
      [
        "▁kendinde",
        -7.5574632228605765
      ],
      [
        "▁fırsatı",
        -9.914457701644807
      ],
      [
        "lı",
        -6.982746712373694
      ],
      [
        "ser",
        -8.204035589256511
      ],
      [
        "▁zarar",
        -8.130252587908764
      ],
      [
        "b",
        -4.9619664055615145
      ],
      [
        "▁d",
        -6.354337849338902
      ],
      [
        "▁ote",
        -8.930247758712309
      ],
      [
        "▁asil",
        -8.765996421951185
      ],
      [
        "▁long",
        -7.475427347950381
      ],
      [
        "gini",
        -9.449215099077806
      ],
      [
        "▁kim",
        -8.612603231965428
      ],
      [
        "▁tavan",
        -9.216361951348235
      ],
      [
        "▁ga",
        -9.373935020747375
      ],
      [
        "'e",
        -6.643965634587966
      ],
      [
        "▁gorunuyordu",
        -8.399398132123714
      ],
      [
        "sizce",
        -8.503372912292296
      ],
      [
        "▁hisse",
        -6.210847457890608
      ],
      [
        "rate",
        -7.759016430197842
      ],
      [
        "▁yaslar",
        -9.68776049744027
      ],
      [
        "▁ideal",
        -7.703491446277125
      ],
      [
        "▁camı",
        -10.108694217533863
      ],
      [
        "▁bilmiyoru",
        -7.427216640962722
      ],
      [
        "▁veya",
        -4.768733796629289
      ],
      [
        "▁cam",
        -8.42113710003153
      ],
      [
        "▁oldugu",
        -6.514803343798484
      ],
      [
        "▁sistemleri",
        -9.525138397876685
      ],
      [
        "▁hayali",
        -10.126757931821963
      ],
      [
        "sa",
        -7.17472110376118
      ],
      [
        "▁soy",
        -9.411257373386187
      ],
      [
        "▁goruntu",
        -9.964963849448939
      ],
      [
        "▁alamadi",
        -7.110493000190174
      ],
      [
        "▁yuksekti",
        -7.399467889293652
      ],
      [
        "▁2",
        -4.210742886992678
      ],
      [
        "yle",
        -6.049537958767083
      ],
      [
        "▁far",
        -9.812744003314252
      ],
      [
        "▁gucluk",
        -9.963597627531078
      ],
      [
        "▁umidi",
        -9.961302382394118
      ],
      [
        "▁elleri",
        -8.542535200705814
      ],
      [
        "▁terbiye",
        -9.50356476188681
      ],
      [
        "▁acıklama",
        -8.43819539316909
      ],
      [
        "▁odayd",
        -7.483536853650766
      ],
      [
        "▁ford",
        -7.740421862401378
      ],
      [
        "▁20",
        -5.2040630633608735
      ],
      [
        "▁eg",
        -9.518608298380018
      ],
      [
        "▁son",
        -5.069177350025438
      ],
      [
        "p",
        -8.916280301211483
      ],
      [
        "▁kasırga",
        -9.85216468699212
      ],
      [
        "▁edep",
        -10.17635909151889
      ],
      [
        "▁pahali",
        -7.513252741739036
      ],
      [
        "▁bakanlıgı",
        -9.22118038976795
      ],
      [
        "▁delikanlı",
        -9.077931579463096
      ],
      [
        "▁ilet",
        -8.815100080097915
      ],
      [
        "▁bil",
        -9.160273757143404
      ],
      [
        "▁bıraktı",
        -7.2803044256168885
      ],
      [
        "▁sevinc",
        -9.317948706583564
      ],
      [
        "digi",
        -7.523939267719567
      ],
      [
        "acılı",
        -8.57891234025382
      ],
      [
        "sal",
        -6.949778621849322
      ],
      [
        "▁erkek",
        -7.700621246120635
      ],
      [
        "▁gecmis",
        -7.743741673401963
      ],
      [
        "▁art",
        -8.734986798094713
      ],
      [
        "karsı",
        -8.672606795851351
      ],
      [
        "▁ogren",
        -8.548932240484582
      ],
      [
        "▁dal",
        -8.638363326934957
      ],
      [
        "ılmıs",
        -8.955605062090278
      ],
      [
        "▁mevduat",
        -9.190718972431164
      ],
      [
        "▁agla",
        -8.990658502096522
      ],
      [
        "ve",
        -8.340438713926119
      ],
      [
        "▁cocukluk",
        -9.975916177691685
      ],
      [
        "▁bile",
        -4.691592204789792
      ],
      [
        "▁tur",
        -8.238759759001939
      ],
      [
        "il",
        -8.130101516559689
      ],
      [
        "▁ederdi",
        -8.32431761267153
      ],
      [
        "sınız",
        -7.163623255565687
      ],
      [
        "hen",
        -7.322566510349346
      ],
      [
        "ic",
        -7.409719644704607
      ],
      [
        "▁biliyor",
        -7.830368955866254
      ],
      [
        "▁naci",
        -7.836373764627838
      ],
      [
        "z",
        -6.428989089571596
      ],
      [
        "▁hong",
        -7.670114815154395
      ],
      [
        "mektedir",
        -6.62505658846603
      ],
      [
        "▁odalari",
        -8.891308180108481
      ],
      [
        "na",
        -4.888725468870101
      ],
      [
        "▁ru",
        -9.911620533097965
      ],
      [
        "▁etkinlik",
        -9.957152782255507
      ],
      [
        "san",
        -8.356714171594742
      ],
      [
        "▁yi",
        -6.724826691407346
      ],
      [
        "▁gitmeli",
        -8.726426822934037
      ],
      [
        "▁'",
        -10.790149558202552
      ],
      [
        "▁bulus",
        -9.770574868789485
      ],
      [
        "etle",
        -8.613674263760398
      ],
      [
        "32",
        -7.1802315731724295
      ],
      [
        "▁patlıcan",
        -9.555015586494136
      ],
      [
        "▁tel",
        -8.409827562471282
      ],
      [
        "ntılı",
        -8.723225714792484
      ],
      [
        "▁merdiven",
        -9.202070911828507
      ],
      [
        "▁babamı",
        -9.238847057613217
      ],
      [
        "likle",
        -9.41212490638606
      ],
      [
        "ısı",
        -9.436286980122786
      ],
      [
        "▁mahkeme",
        -8.332293654226584
      ],
      [
        "▁rıhtım",
        -9.588703947451293
      ],
      [
        "▁gecme",
        -8.528279297089854
      ],
      [
        "▁okuyucu",
        -9.83997565013528
      ],
      [
        "▁ticareti",
        -9.102055495733044
      ],
      [
        "▁be",
        -8.575160649515613
      ],
      [
        "▁gelecek",
        -8.722608883497415
      ],
      [
        "▁yazıyor",
        -8.698200826647508
      ],
      [
        "▁donem",
        -8.508751581394174
      ],
      [
        "enler",
        -8.962301596262993
      ],
      [
        "▁koltugun",
        -9.426853438671536
      ],
      [
        "▁kapanıs",
        -9.751968950195126
      ],
      [
        "▁kurum",
        -9.164335285633994
      ],
      [
        "▁parki",
        -9.710015743780994
      ],
      [
        "▁deniz",
        -6.7590217770131185
      ],
      [
        "kendi",
        -8.045656625088052
      ],
      [
        "▁cıglık",
        -9.503559087281548
      ],
      [
        "▁evim",
        -10.121827745461408
      ],
      [
        "▁duygusu",
        -9.904042037979433
      ],
      [
        "▁york",
        -5.812414345836371
      ],
      [
        "in",
        -5.266157079427771
      ],
      [
        "▁yapılandırma",
        -10.176777900111974
      ],
      [
        "▁se",
        -4.925808727806685
      ],
      [
        "▁tamam",
        -6.411602014418075
      ],
      [
        "▁konum",
        -7.663484770741308
      ],
      [
        "▁tedavi",
        -9.051615248573828
      ],
      [
        "ık",
        -7.114014088154494
      ],
      [
        "unda",
        -7.883768488942473
      ],
      [
        "▁yaygın",
        -8.144458538871316
      ],
      [
        "▁taraf",
        -5.733464205858842
      ],
      [
        "▁ongoru",
        -9.899597538988907
      ],
      [
        "w",
        -7.401227196623928
      ],
      [
        "▁kalk",
        -7.808387586939307
      ],
      [
        "▁tohum",
        -9.352355013205953
      ],
      [
        "▁",
        -1.6692032132785002
      ],
      [
        "▁isyan",
        -9.422215140818539
      ],
      [
        "▁puanlama",
        -9.230765593019072
      ],
      [
        "▁daire",
        -8.923101054410221
      ],
      [
        "imiz",
        -7.864450820875663
      ],
      [
        "▁degerl",
        -7.960113259088484
      ],
      [
        "▁olmasın",
        -8.543613904840175
      ],
      [
        "▁payını",
        -10.071813302935361
      ],
      [
        "▁borsası",
        -8.700895984341411
      ],
      [
        "▁aksamı",
        -8.487971800465674
      ],
      [
        "▁hepsinde",
        -6.975710945347217
      ],
      [
        "aka",
        -7.864848662931541
      ],
      [
        "▁attı",
        -7.228921289009988
      ],
      [
        "▁bizim",
        -8.925075863130537
      ],
      [
        "▁hucre",
        -9.640978283192933
      ],
      [
        "▁cografya",
        -10.027955719886071
      ],
      [
        "▁yetkilileri",
        -8.255147153631782
      ],
      [
        "'a",
        -6.486896813030918
      ],
      [
        "▁sevgi",
        -8.21302224722421
      ],
      [
        "▁yag",
        -8.859907012059345
      ],
      [
        "▁ilk",
        -5.422088086439556
      ],
      [
        "▁yere",
        -7.548976951796603
      ],
      [
        "▁uzattı",
        -8.875928235773182
      ],
      [
        "m",
        -3.7415001008522433
      ],
      [
        "▁fotograf",
        -8.598209790831888
      ],
      [
        "▁elbet",
        -6.771714475515565
      ],
      [
        "▁dert",
        -9.222456960263028
      ],
      [
        "▁gorunuyor",
        -7.329012415121878
      ],
      [
        "▁onemli",
        -9.223548455251475
      ],
      [
        "ıyordu",
        -7.374090680716897
      ],
      [
        "▁sen",
        -4.319077519014069
      ],
      [
        "▁tarihi",
        -8.787980470110972
      ],
      [
        "▁bugun",
        -7.7021913401115185
      ],
      [
        "▁duru",
        -7.994628757533105
      ],
      [
        "▁cap",
        -8.722198952302024
      ],
      [
        "▁birlikte",
        -9.506821890762895
      ],
      [
        "▁yurume",
        -9.799047690078682
      ],
      [
        "▁kactı",
        -8.370402907592506
      ],
      [
        "▁ulkemiz",
        -9.720805320377922
      ],
      [
        "ana",
        -9.21544090621301
      ],
      [
        "▁dusunuyor",
        -7.334633409121821
      ],
      [
        "▁dar",
        -8.800840261690531
      ],
      [
        "▁fil",
        -9.277021208571226
      ],
      [
        "▁sene",
        -8.047000242491155
      ],
      [
        "▁asık",
        -8.748523953003708
      ],
      [
        "▁etkisini",
        -9.925766945060985
      ],
      [
        "▁numaraları",
        -10.107761064268733
      ],
      [
        "▁reklam",
        -8.20979923344931
      ],
      [
        "▁tı",
        -3.8255906107362634
      ],
      [
        "▁done",
        -8.549931206463363
      ],
      [
        "▁aktiviteler",
        -9.649341757599423
      ],
      [
        "▁senedi",
        -7.575877352547784
      ],
      [
        "k",
        -3.6593738698329767
      ],
      [
        "▁zemin",
        -9.503584882749177
      ],
      [
        "▁p",
        -8.460981100461925
      ],
      [
        "▁gelisim",
        -9.22663563219178
      ],
      [
        "▁kesif",
        -10.100788637107245
      ],
      [
        "▁gecit",
        -10.176314105870317
      ],
      [
        "▁bay",
        -5.740823400342939
      ],
      [
        "▁uc",
        -8.905597330756807
      ],
      [
        "▁azaldı",
        -8.740053742127603
      ],
      [
        "▁newark",
        -8.322903132594115
      ],
      [
        "▁gorevlileri",
        -10.057179658678415
      ],
      [
        "una",
        -8.555042958872406
      ],
      [
        "▁karsılık",
        -8.932930162794593
      ],
      [
        "—",
        -12.802702672349787
      ],
      [
        "▁besin",
        -10.066526697676238
      ],
      [
        "ce",
        -5.493483117133953
      ],
      [
        "▁bardak",
        -8.820914813311493
      ],
      [
        "m",
        -5.428279150912085
      ],
      [
        "'te",
        -7.4383271455888815
      ],
      [
        "▁mallar",
        -10.040834748567462
      ],
      [
        "▁kalan",
        -8.315480082012462
      ],
      [
        "▁almaya",
        -9.332407476350078
      ],
      [
        "▁herkesi",
        -6.809658253762853
      ],
      [
        "dik",
        -8.13981050282566
      ],
      [
        "▁alanında",
        -9.576566600744552
      ],
      [
        "▁haziran",
        -9.352346615039366
      ],
      [
        "▁sabahı",
        -7.590061537648854
      ],
      [
        "▁karsılas",
        -8.994687238802442
      ],
      [
        "▁cıka",
        -7.995320739530353
      ],
      [
        "ar",
        -7.789969017039488
      ],
      [
        "hi",
        -10.103717129124831
      ],
      [
        "▁...",
        -14.014958445102625
      ],
      [
        "▁serviste",
        -10.121152331840733
      ],
      [
        "▁satmak",
        -9.982702885413612
      ],
      [
        "▁ailesini",
        -10.11042592895173
      ],
      [
        "meyi",
        -8.10650288274687
      ],
      [
        "▁birinde",
        -6.609824599980316
      ],
      [
        "▁getir",
        -7.48412188471217
      ],
      [
        "▁talebi",
        -9.827272506449066
      ],
      [
        "is",
        -7.51314299891555
      ],
      [
        "▁lokasyon",
        -9.961288401769867
      ],
      [
        "▁be",
        -8.359584221464628
      ],
      [
        "▁tampa'",
        -8.04256393082669
      ],
      [
        "▁oteki",
        -9.394865802868292
      ],
      [
        "kları",
        -8.18186495674875
      ],
      [
        "▁abd'de",
        -7.61346576758946
      ],
      [
        "▁verdi",
        -6.149864983269833
      ],
      [
        "yle",
        -6.687487082009293
      ],
      [
        "▁memnunu",
        -9.961293573901283
      ],
      [
        "▁yetki",
        -9.60838829825206
      ],
      [
        "▁ilce",
        -9.555620432924748
      ],
      [
        "▁onun",
        -3.672885360996781
      ],
      [
        "▁48",
        -7.5100789310058484
      ],
      [
        "rak",
        -9.576017997809247
      ],
      [
        "▁zor",
        -8.624213414908162
      ],
      [
        "e",
        -3.054524576694323
      ],
      [
        "▁warner",
        -8.301998511863564
      ],
      [
        "celik",
        -8.70922937823941
      ],
      [
        "▁adı",
        -7.912290995364163
      ],
      [
        "▁tanrı",
        -9.190727846644307
      ],
      [
        "tti",
        -8.687810749592234
      ],
      [
        "▁leri",
        -8.23078403741966
      ],
      [
        "eye",
        -8.445803057601927
      ],
      [
        "▁mutl",
        -7.186288115784883
      ],
      [
        "▁bit",
        -9.297466431301773
      ],
      [
        "▁canta",
        -9.43380009853546
      ],
      [
        "▁ba",
        -10.862362165488445
      ],
      [
        "▁ba",
        -3.487307104758375
      ],
      [
        "▁onlarda",
        -6.646122847704282
      ],
      [
        "▁atar",
        -8.477347546865632
      ],
      [
        "▁baslarını",
        -9.96323597301498
      ],
      [
        "▁du",
        -3.325300845033725
      ],
      [
        "▁kidder",
        -8.102063970095287
      ],
      [
        "▁yasa",
        -7.764477575068115
      ],
      [
        "▁keskin",
        -7.6602917997901345
      ],
      [
        "▁kolunu",
        -9.809103802455034
      ],
      [
        "▁oturma",
        -9.006914855031079
      ],
      [
        "▁yuze",
        -10.023168721163861
      ],
      [
        "▁dusman",
        -8.365598061910442
      ],
      [
        "▁kaya",
        -8.21999649607372
      ],
      [
        "▁sinirleri",
        -10.095602822742745
      ],
      [
        "▁organ",
        -10.140976049736675
      ],
      [
        "▁ayse",
        -7.510401831356775
      ],
      [
        "▁gorevli",
        -9.987020335150074
      ],
      [
        "▁adamlar",
        -9.753380050102518
      ],
      [
        "a",
        -3.306240950764071
      ],
      [
        "▁yonetmen",
        -10.071234505648677
      ],
      [
        "▁degerleri",
        -9.794979178840636
      ],
      [
        "▁hisselerini",
        -9.10856833598972
      ],
      [
        "5",
        -12.802702672349787
      ],
      [
        "teki",
        -7.067770979414239
      ],
      [
        "'",
        -7.112561032152628
      ],
      [
        "▁erkegi",
        -9.692414491405758
      ],
      [
        "▁tehdit",
        -9.252272004954593
      ],
      [
        "lılıgı",
        -10.030882922241545
      ],
      [
        "▁iflas",
        -9.000974308690981
      ],
      [
        "▁johnson",
        -8.251172929802237
      ],
      [
        "ye",
        -8.934712087907656
      ],
      [
        "▁he",
        -9.926427091418343
      ],
      [
        "▁analistler",
        -8.288576354641005
      ],
      [
        "▁uygulamaları",
        -9.661107740529044
      ],
      [
        "▁benim",
        -8.925328068397013
      ],
      [
        "▁zeytinyagı",
        -9.899015220595098
      ],
      [
        "▁kavanoz",
        -10.176306897581949
      ],
      [
        "▁seslendi",
        -8.855931036941463
      ],
      [
        "▁bush",
        -7.397549214620362
      ],
      [
        "d",
        -4.831539974861214
      ],
      [
        "ye",
        -4.573780734147815
      ],
      [
        "▁perdeleri",
        -10.059278603846174
      ],
      [
        "▁oturdu",
        -7.985250454652396
      ],
      [
        "▁taze",
        -7.7460431805793695
      ],
      [
        "▁haftada",
        -9.302263279508805
      ],
[...]
