{
  "version": "1.0",
  "truncation": null,
  "padding": null,
  "added_tokens": [
    {
      "id": 5392,
      "content": "[PAD]",
      "single_word": false,
      "lstrip": false,
      "rstrip": false,
      "normalized": false,
      "special": true
    },
    {
      "id": 6143,
      "content": "[UNK]",
      "single_word": false,
      "lstrip": false,
      "rstrip": false,
      "normalized": false,
      "special": true
    },
    {
      "id": 6629,
      "content": "[SEP]",
      "single_word": false,
      "lstrip": false,
      "rstrip": false,
      "normalized": false,
      "special": true
    },
    {
      "id": 10844,
      "content": "[CLS]",
      "single_word": false,
      "lstrip": false,
      "rstrip": false,
      "normalized": false,
      "special": true
    },
    {
      "id": 13331,
      "content": "[MASK]",
      "single_word": false,
      "lstrip": false,
      "rstrip": false,
      "normalized": false,
      "special": true
    }
  ],
  "normalizer": {
    "type": "Sequence",
    "normalizers": [
      {
        "type": "NFD"
      },
      {
        "type": "Lowercase"
      },
      {
        "type": "StripAccents"
      }
    ]
  },
  "pre_tokenizer": {
    "type": "Sequence",
    "pretokenizers": [
      {
        "type": "Metaspace",
        "replacement": "▁",
        "prepend_scheme": "always",
        "split": true
      }
    ]
  },
  "post_processor": {
    "type": "TemplateProcessing",
    "single": [
      {
        "SpecialToken": {
          "id": "[CLS]",
          "type_id": 0
        }
      },
      {
        "Sequence": {
          "id": "A",
          "type_id": 0
        }
      },
      {
        "SpecialToken": {
          "id": "[SEP]",
          "type_id": 0
        }
      }
    ],
    "pair": [
      {
        "SpecialToken": {
          "id": "[CLS]",
          "type_id": 0
        }
      },
      {
        "Sequence": {
          "id": "A",
          "type_id": 0
        }
      },
      {
        "SpecialToken": {
          "id": "[SEP]",
          "type_id": 0
        }
      },
      {
        "Sequence": {
          "id": "B",
          "type_id": 1
        }
      },
      {
        "SpecialToken": {
          "id": "[SEP]",
          "type_id": 1
        }
      }
    ],
    "special_tokens": {
      "[CLS]": {
        "id": "[CLS]",
        "ids": [
          10844
        ],
        "tokens": [
          "[CLS]"
        ]
      },
      "[SEP]": {
        "id": "[SEP]",
        "ids": [
          6629
        ],
        "tokens": [
          "[SEP]"
        ]
      }
    }
  },
  "decoder": {
    "type": "Metaspace",
    "replacement": "▁",
    "prepend_scheme": "always",
    "split": true
  },
  "model": {
    "type": "BPE",
    "dropout": null,
    "unk_token": "[UNK]",
    "continuing_subword_prefix": null,
    "end_of_word_suffix": null,
    "fuse_unk": false,
    "byte_fallback": false,
    "ignore_merges": false,
    "vocab": {
      "apolis": 0,
      "▁tahkik": 1,
      "ikti": 2,
      "▁akade": 3,
      "fur": 4,
      "▁odaya": 5,
      "kse": 6,
      "ebilecek": 7,
      "ıb": 8,
      "▁efendi": 9,
      "sem": 10,
      "▁yakasına": 11,
      "ırdı": 12,
      "▁isveren": 13,
      "▁kanunu": 14,
      "▁merkezinin": 15,
      "ılıgına": 16,
      "▁cıkmam": 17,
      "inde": 18,
      "▁129": 19,
      "▁kısa": 20,
      "▁konusuyla": 21,
      "▁kini": 22,
      "▁bebek": 23,
      "▁sahneye": 24,
      "▁yonetiminin": 25,
      "▁cocugu": 26,
      "▁cikis": 27,
      "landırdı": 28,
      "▁koylerde": 29,
      "▁'l": 30,
      "▁ekonomistler": 31,
      "▁gozlu": 32,
      "ler": 33,
      "▁tezgahı": 34,
      "▁1/8": 35,
      "dandı": 36,
      "▁indianapolis'ten": 37,
      "▁sahası": 38,
      "▁misafirleri": 39,
      "oc": 40,
      "▁fazlaydi": 41,
      "lav": 42,
      "▁secimler": 43,
      "▁80'": 44,
      "isco": 45,
      "▁fidan": 46,
      "▁karsıladı": 47,
      "▁yetis": 48,
      "▁sikint": 49,
      "▁hızlıca": 50,
      "▁haberleri": 51,
      "▁istemiyorum": 52,
      "▁veriyordu": 53,
      "▁mich": 54,
      "▁yargı": 55,
      "▁yaslarında": 56,
      "▁multeci": 57,
      "▁hissenin": 58,
      "▁sube": 59,
      "▁karla": 60,
      "ece": 61,
      "trily": 62,
      "elerde": 63,
      "▁bodr": 64,
      "laydi": 65,
      "lenme": 66,
      "acıklar": 67,
      "elek": 68,
      "▁ustur": 69,
      "▁reng": 70,
      "imci": 71,
      "▁malını": 72,
      "indedir": 73,
      "▁alıskan": 74,
      "▁buyukluk": 75,
      "cesi": 76,
      "ekom": 77,
      "▁seye": 78,
      "▁mesaf": 79,
      "▁sarı": 80,
      "▁perakende": 81,
      "▁gucunun": 82,
      "tıs": 83,
      "▁profesyonel": 84,
      "▁23": 85,
      "▁mustes": 86,
      "▁sıra": 87,
      "▁baslık": 88,
      "▁gorevli": 89,
      "elle": 90,
      "▁ipucu": 91,
      "▁muesses": 92,
      "anlı": 93,
      "▁had": 94,
      "larini": 95,
      "▁ko": 96,
      "anta": 97,
      "▁tesiri": 98,
      "▁kamar": 99,
      "▁hucreleri": 100,
      "▁alakali": 101,
      "▁urunlerini": 102,
      "▁seyahate": 103,
      "▁ymis": 104,
      "▁okulun": 105,
      "▁cikolata": 106,
      "lestirme": 107,
      "▁gayet": 108,
      "▁ag": 109,
      "dukten": 110,
      "▁pacaları": 111,
      "▁orland": 112,
      "▁ancak": 113,
      "▁havaalanı'na": 114,
      "▁gemilere": 115,
      "▁12.5": 116,
      "ince": 117,
      "▁oranı": 118,
      "▁kemik": 119,
      "▁paul": 120,
      "imet": 121,
      "▁halkı": 122,
      "▁malın": 123,
      "▁eline": 124,
      "lıp": 125,
      "▁gosterge": 126,
      "▁unvan": 127,
      "umluydu": 128,
      "▁kendileri": 129,
      "▁devir": 130,
      "unda": 131,
      "ly": 132,
      "▁muv": 133,
      "▁kursu": 134,
      "ru": 135,
      "ayık": 136,
      "▁ederdi": 137,
      "▁kerv": 138,
      "▁saglama": 139,
      "▁muhendisi": 140,
      "tmek": 141,
      "▁teklifine": 142,
      "▁iddia": 143,
      "▁amel": 144,
      "▁yavrusu": 145,
      "▁kapsamlı": 146,
      "▁500": 147,
      "mamıstı": 148,
      "▁konusmak": 149,
      "▁testi": 150,
      "▁canavar": 151,
      "▁pantol": 152,
      "▁she": 153,
      "▁bucagından": 154,
      "▁vezn": 155,
      "▁iyisi": 156,
      "ogramı": 157,
      "▁hareketi": 158,
      "▁isaretleri": 159,
      "▁bitk": 160,
      "▁motorun": 161,
      "▁izlen": 162,
      "hiz": 163,
      "▁oc": 164,
      "ledi": 165,
      "▁ulkeye": 166,
      "▁olabilirdi": 167,
      "▁havayolunun": 168,
      "▁huv": 169,
      "luk": 170,
      "▁hi": 171,
      "▁dis": 172,
      "▁avlu": 173,
      "▁itibar": 174,
      "▁acıyla": 175,
      "ucular": 176,
      "▁dolandır": 177,
      "▁merkeze": 178,
      "▁kilometre": 179,
      "▁muf": 180,
      "▁goller": 181,
      "▁muthis": 182,
      "▁agrısı": 183,
      "▁olumsuzluk": 184,
      "▁soyle": 185,
      "▁kayalar": 186,
      "▁hane": 187,
      "yle": 188,
      "▁pit": 189,
      "▁anlattı": 190,
      "dv": 191,
      "iyordu": 192,
      "▁iyilerini": 193,
      "▁ayse": 194,
      "▁kahkah": 195,
      "▁beb": 196,
      "▁muzakere": 197,
      "▁balo": 198,
      "▁kagıda": 199,
      "▁dogrul": 200,
      "▁bunu": 201,
      "▁beyg": 202,
      "▁kuvvetleri": 203,
      "▁piyasa": 204,
      "larımızdan": 205,
      "▁merdivenleri": 206,
      "r": 207,
      "▁idi": 208,
      "▁sasırtıcı": 209,
      "▁araya": 210,
      "anya": 211,
      "▁indi": 212,
      "▁karsılık": 213,
      "▁yurek": 214,
      "leyiciler": 215,
      "▁gecirdik": 216,
      "▁yaptıklarını": 217,
      "▁korsan": 218,
      "▁katilmadim": 219,
      "▁restoranlar": 220,
      "ladı": 221,
      "▁hava": 222,
      "▁gosterdi": 223,
      "▁santimetre": 224,
      "▁yumurta": 225,
      "▁milletvek": 226,
      "acıları": 227,
      "▁geldik": 228,
      "▁hayrete": 229,
      "▁not": 230,
      "▁satıslarını": 231,
      "▁eyl": 232,
      "vel": 233,
      "▁ilav": 234,
      "▁toh": 235,
      "▁cır": 236,
      "▁sım": 237,
      "siye": 238,
      "▁planlar": 239,
      "▁icime": 240,
      "▁gozlerim": 241,
      "malıyım": 242,
      "▁rak": 243,
      "▁yatagın": 244,
      "madan": 245,
      "▁ihtilal": 246,
      "▁adamının": 247,
      "▁alanı": 248,
      "▁lin": 249,
      "▁dibinden": 250,
      "▁atolye": 251,
      "unu": 252,
      "▁takv": 253,
      "▁pesinde": 254,
      "▁)": 255,
      "▁ilgin": 256,
      "▁onunu": 257,
      "▁eris": 258,
      "▁olusturmak": 259,
      "▁yemeklerden": 260,
      "▁lisansını": 261,
      "▁ugruna": 262,
      "▁halbu": 263,
      "▁sul": 264,
      "▁ex": 265,
      "▁savur": 266,
      "▁edilm": 267,
      "▁yaklasım": 268,
      "▁okuma": 269,
      "▁dizisi": 270,
      "▁fot": 271,
      "lacagını": 272,
      "▁zeytin": 273,
      "▁kızın": 274,
      "w": 275,
      "▁doktorlar": 276,
      "▁uzakti": 277,
      "▁aldik": 278,
      "▁toplum": 279,
      "▁ihtil": 280,
      "▁taahh": 281,
      "▁gosterebilir": 282,
      "▁millet": 283,
      "uyla": 284,
      "▁tepesinde": 285,
      "ge": 286,
      "▁kabul": 287,
      "▁suphe": 288,
      "▁denizci": 289,
      "▁ucurt": 290,
      "▁baki": 291,
      "▁gas": 292,
      "▁samimiyet": 293,
      "▁chat": 294,
      "▁romancı": 295,
      "▁oyley": 296,
      "▁tavır": 297,
      "▁ellerini": 298,
      "▁otlar": 299,
      "ledigini": 300,
      "iyetle": 301,
      "▁izledi": 302,
      "▁icme": 303,
      "ır": 304,
      "ess": 305,
      "▁organ": 306,
      "duklarını": 307,
      "form": 308,
      "▁enf": 309,
      "▁yalan": 310,
      "▁fa": 311,
      "▁aydan": 312,
      "gımız": 313,
      "▁arkadan": 314,
      "ise": 315,
      "▁nobet": 316,
      "um": 317,
      "▁redd": 318,
      "▁isteklerini": 319,
      "▁tahakkuk": 320,
      "▁wh": 321,
      "▁depr": 322,
      "▁tane": 323,
      "▁hade": 324,
      "▁hayvanlar": 325,
      "rlikte": 326,
      "▁oglan": 327,
      "▁renkli": 328,
      "ey": 329,
      "▁muhac": 330,
      "▁gercek": 331,
      "▁=": 332,
      "▁geldiginde": 333,
      "▁muhareb": 334,
      "▁frans": 335,
      "▁belirterek": 336,
      "▁yanlis": 337,
      "dikten": 338,
      "▁bilgis": 339,
      "▁aydınlık": 340,
      "▁tırn": 341,
      "urt": 342,
      "▁sebeb": 343,
      "▁tasarımı": 344,
      "▁ikl": 345,
      "▁kazaz": 346,
      "▁sahibinin": 347,
      "ısız": 348,
      "▁iyiye": 349,
      "▁sehrinden": 350,
      "▁kıdemli": 351,
      "▁kalabalıgı": 352,
      "essum": 353,
      "▁aracları": 354,
      "▁iyimserlik": 355,
      "▁kisilere": 356,
      "una": 357,
      "▁insanlıga": 358,
      "▁kulce": 359,
      "lıgımız": 360,
      "▁hayata": 361,
      "alari": 362,
      "▁sabık": 363,
      "▁yedikten": 364,
      "oz": 365,
      "▁numar": 366,
      "▁avukat": 367,
      "gin": 368,
      "▁ba": 369,
      "▁traktor": 370,
      "▁ornekler": 371,
      "▁dantel": 372,
      "▁kor": 373,
      "eticisi": 374,
      "▁suyunun": 375,
      "ımla": 376,
      "mamı": 377,
      "▁denizciler": 378,
      "uma": 379,
      "▁sh": 380,
      "ih": 381,
      "▁gurult": 382,
      "▁arastırmada": 383,
      "enti": 384,
      "▁likidit": 385,
      "▁performansı": 386,
      ".5": 387,
      "▁donemlerinde": 388,
      "▁mers": 389,
      "▁kuram": 390,
      "▁lahana": 391,
      "▁binaen": 392,
      "▁kr": 393,
      "▁baglantı": 394,
      "▁arb": 395,
      "ikat": 396,
      "ırtıcı": 397,
      "layan": 398,
      "iyetli": 399,
      "▁first": 400,
      "▁muhar": 401,
      "▁tiyatr": 402,
      "▁yoneticiler": 403,
      "▁vaktim": 404,
      "▁teslimat": 405,
      "▁kendim": 406,
      "erk": 407,
      "▁ithalatı": 408,
      "▁kazanclar": 409,
      "hazırda": 410,
      "▁teseb": 411,
      "▁sukun": 412,
      "▁acıga": 413,
      "▁pom": 414,
      "▁kahveden": 415,
      "▁teri": 416,
      "▁ayrılıp": 417,
      "mazdı": 418,
      "▁davranmaya": 419,
      "▁yurutme": 420,
      "▁sav": 421,
      "▁tadına": 422,
      "▁tarlayı": 423,
      "▁yaptıgı": 424,
      "▁gecimini": 425,
      "▁ovgu": 426,
      "▁sınıfı": 427,
      "▁serveti": 428,
      "▁doktorların": 429,
      "mektir": 430,
      "▁oldug": 431,
      "▁verilir": 432,
      "▁'li": 433,
      "'d": 434,
      "▁baktım": 435,
      "▁analizciler": 436,
      "▁koyu": 437,
      "▁tasımacılıgı": 438,
      "▁otobus": 439,
      "▁bozuk": 440,
      "▁corb": 441,
      "▁yapabilir": 442,
      "▁yıllar": 443,
      "tıklarını": 444,
      "▁onemli": 445,
      "▁dayı": 446,
      "▁faydasını": 447,
      "▁hatıra": 448,
      "▁somur": 449,
      "▁olduk": 450,
      "ett": 451,
      "▁olsaydı": 452,
      "▁davanın": 453,
      "dıgından": 454,
      "▁krav": 455,
      "▁catlak": 456,
      "▁baslayacagını": 457,
      "▁tutumu": 458,
      "▁durusma": 459,
      "▁iktis": 460,
      "▁alemi": 461,
      "▁firmaları": 462,
      "rur": 463,
      "▁kadınları": 464,
      "▁kosu": 465,
      "▁musluk": 466,
      "▁serisi": 467,
      "▁ev": 468,
      "atıcı": 469,
      "▁kapıları": 470,
      "▁asf": 471,
      "alarımı": 472,
      "▁sularda": 473,
      "▁muhalefet": 474,
      "▁seyrediyor": 475,
      "lemesi": 476,
      "lo": 477,
      "▁uretimi": 478,
      "▁kendisini": 479,
      "▁gizli": 480,
      "▁tah": 481,
      "▁bilez": 482,
      "▁ekmek": 483,
      "▁hasan": 484,
      "▁angeles'e": 485,
      "endis": 486,
      "▁odedi": 487,
      "oları": 488,
      "▁zirv": 489,
      "▁kafası": 490,
      "▁etti": 491,
      "▁saglar": 492,
      "▁sorunların": 493,
      "▁talep": 494,
      "▁sakız": 495,
      "▁elci": 496,
      "▁getiriler": 497,
      "▁olabilecegine": 498,
      "▁bayram": 499,
      "uslar": 500,
      "▁am": 501,
      "▁kusagının": 502,
      "atli": 503,
      "tıgında": 504,
      "▁sini": 505,
      "▁kesif": 506,
      "▁1991": 507,
      "ımız": 508,
      "▁satır": 509,
      "▁populer": 510,
      "▁ozelligi": 511,
      "▁uygulan": 512,
      "tigim": 513,
      "▁baslangıc": 514,
      "ene": 515,
      "▁kayda": 516,
      "▁isci": 517,
      "▁lezz": 518,
      "▁kagıdı": 519,
      "asti": 520,
      "▁59": 521,
      "▁hatır": 522,
      "kileri": 523,
      "▁acmıs": 524,
      "ılgan": 525,
      "alt": 526,
      "▁yurtd": 527,
      "▁1.4": 528,
      "▁0.0": 529,
      "▁surpriz": 530,
      "▁dunyanın": 531,
      "▁koyun": 532,
      "cılıgı": 533,
      "▁dunyadan": 534,
      "▁kalmıstı": 535,
      "▁onunuz": 536,
      "▁begenmedik": 537,
      "▁zekası": 538,
      "▁kotuluk": 539,
      "meyen": 540,
      "▁siyasal": 541,
      "▁sır": 542,
      "▁dususten": 543,
      "▁sorumluluk": 544,
      "▁bul": 545,
      "▁cıp": 546,
      "▁zem": 547,
      "▁denver'e": 548,
      "▁surpr": 549,
      "▁hastane": 550,
      "lanmasını": 551,
      "▁dillere": 552,
      "▁rum": 553,
      "sın": 554,
      "ına": 555,
      "▁soganı": 556,
      "▁dere": 557,
      "▁cocuklarının": 558,
      "▁buyumeye": 559,
      "▁kitaplar": 560,
      "▁york'tan": 561,
      "▁$'a": 562,
      "▁kasık": 563,
      "▁zur": 564,
      "▁dusecegini": 565,
      "eleri": 566,
      "endi": 567,
      "▁asistan": 568,
      "sik": 569,
      "lah": 570,
      "▁sahile": 571,
      "▁sof": 572,
      "▁projeyi": 573,
      "▁baslıyor": 574,
      "▁kurk": 575,
      "▁ekran": 576,
      "▁mes": 577,
      "▁kucuk": 578,
      "▁rengine": 579,
      "▁;": 580,
      "▁kuyum": 581,
      "undeki": 582,
      "▁senedi": 583,
      "▁niyet": 584,
      "artesi": 585,
      "▁oncesi": 586,
      "aliforn": 587,
      "▁yild": 588,
      "▁gorucu": 589,
      "▁yurumek": 590,
      "▁buz": 591,
      "▁idman": 592,
      "▁etmesine": 593,
      "esinden": 594,
      "ang": 595,
      "▁gercekles": 596,
      "at": 597,
      "ach": 598,
      "▁milwaukee'ye": 599,
      "▁utanc": 600,
      "▁modelleri": 601,
      "memize": 602,
      "▁ofisleri": 603,
      "▁hırs": 604,
      "▁telerate": 605,
      "▁amir": 606,
      "▁herh": 607,
      "▁mev": 608,
      "▁yavru": 609,
      "mamıs": 610,
      "▁satılması": 611,
      "▁aittir": 612,
      "en": 613,
      "▁hafif": 614,
      "▁yuzme": 615,
      "memiz": 616,
      "▁sunuyor": 617,
      "▁aklımdan": 618,
      "▁ihtiyacını": 619,
      "▁kuzey": 620,
      "▁cami": 621,
      "▁yaptirmadim": 622,
      "rol": 623,
      "▁veril": 624,
      "▁del": 625,
      "▁serit": 626,
      "▁ugrama": 627,
      "▁kuzu": 628,
      "▁dayak": 629,
      "▁birbirinden": 630,
      "▁bicmek": 631,
      "▁boston'a": 632,
      "▁ihtiyarın": 633,
      "▁tif": 634,
      "lıkla": 635,
      "ell": 636,
      "▁kilo": 637,
      "▁direktoru": 638,
      "▁listesini": 639,
      "▁oykusu": 640,
      "▁eglence": 641,
      "▁california": 642,
      "▁muhal": 643,
      "▁tutum": 644,
      "▁avantajı": 645,
      "ment": 646,
      "▁efsane": 647,
      "▁hem": 648,
      "▁dagıtım": 649,
      "▁daktilo": 650,
      "▁kodu": 651,
      "▁yanıtını": 652,
      "▁ses": 653,
      "▁yatagı": 654,
      "▁helikopter": 655,
      "▁taco": 656,
      "▁nihayet": 657,
      "▁dusunuyor": 658,
      "etre": 659,
      "▁araclara": 660,
      "erken": 661,
      "▁cagrısı": 662,
      "▁saatini": 663,
      "inizin": 664,
      "▁kamuoyuna": 665,
      ".875": 666,
      "cil": 667,
      "▁insanı": 668,
      "▁tovbe": 669,
      "▁hesapların": 670,
      "▁akr": 671,
      "▁kacırdı": 672,
      "▁toz": 673,
      "▁ozet": 674,
      "▁kenarda": 675,
      "▁anda": 676,
      "▁donuk": 677,
      "▁b.": 678,
      "ıtı": 679,
      "▁yumur": 680,
      "▁pas": 681,
      "▁berab": 682,
      "▁muayen": 683,
      "ne": 684,
      "▁adam": 685,
      "▁merkezine": 686,
      "▁terliklerini": 687,
      "madi": 688,
      "▁sırada": 689,
      "▁meydanı": 690,
      "▁bilanc": 691,
      "▁konfor": 692,
      "cu": 693,
      "▁ihrac": 694,
      "▁gorundu": 695,
      "▁ucretlerini": 696,
      "▁belleg": 697,
      "▁masadan": 698,
      "▁refah": 699,
      "▁arap": 700,
      "dıran": 701,
      "arken": 702,
      "▁vererek": 703,
      "ind": 704,
      "▁tecavuz": 705,
      "▁acak": 706,
      "▁evime": 707,
      "▁kıskanc": 708,
      "▁ceyrege": 709,
      "eff": 710,
      "▁geciyordu": 711,
      "▁kaynaklarına": 712,
      "▁ucretler": 713,
      "▁etrafını": 714,
      "▁serk": 715,
      "▁ceviri": 716,
      "▁tahsis": 717,
      "▁lok": 718,
      "▁ocagı": 719,
      "▁acıkca": 720,
      "▁seyrediyordu": 721,
      "▁korun": 722,
      "landır": 723,
      "▁gorunumu": 724,
      "▁destek": 725,
      "▁tersan": 726,
      "▁olimpiyat": 727,
      "▁saskınlık": 728,
      "ulmesi": 729,
      "▁sente": 730,
      "▁agacın": 731,
      "erin": 732,
      "▁zihn": 733,
      "▁sonbaharda": 734,
      "▁ziy": 735,
      "▁birisi": 736,
      "derken": 737,
      "▁sogan": 738,
      "▁basladı": 739,
      "▁bitirdi": 740,
      "▁sorununa": 741,
      "▁tablosu": 742,
      "▁10'dan": 743,
      "lanın": 744,
      "▁kabus": 745,
      "emey": 746,
      "▁data": 747,
      "ere": 748,
      "▁olayı": 749,
      "▁yuf": 750,
      "▁cene": 751,
      "▁yukselen": 752,
      "▁etki": 753,
      "▁sakak": 754,
      "▁dunyaya": 755,
      "▁cob": 756,
      "▁agzı": 757,
      "dirde": 758,
      "▁doc": 759,
      "ılıs": 760,
      "mıstık": 761,
      "▁tasır": 762,
      "▁iler": 763,
      "▁delikanl": 764,
      "ayan": 765,
      "ask": 766,
      "▁kasabaya": 767,
      "▁bugunun": 768,
      "▁termal": 769,
      "▁bitim": 770,
      "▁oncelik": 771,
      "▁yasaya": 772,
      "abilecegini": 773,
      "▁geride": 774,
      "▁muster": 775,
      "▁pahal": 776,
      "▁guclerini": 777,
      "▁ogrenim": 778,
      "tom": 779,
      "likler": 780,
      "tt": 781,
      "▁birimi": 782,
      "▁degismedi": 783,
      "▁aradilar": 784,
      "lunun": 785,
      "▁unsur": 786,
      "imden": 787,
      "▁kelimelere": 788,
      "ayım": 789,
      "▁edebilir": 790,
      "▁avucuna": 791,
      "▁seviyeye": 792,
      "▁omr": 793,
      "acılara": 794,
      "▁tem": 795,
      "co": 796,
      "larıma": 797,
      "emmel": 798,
      "▁kasar": 799,
      "▁dam": 800,
      "▁doktu": 801,
      "▁fabrik": 802,
      "▁hindistan": 803,
      "▁olmasın": 804,
      "tc": 805,
      "▁odem": 806,
      "▁sistem": 807,
      "emiyor": 808,
      "▁mab": 809,
      "▁rolunu": 810,
      "'ndan": 811,
      "▁bes": 812,
      "▁yatırımcının": 813,
      "▁sedy": 814,
      "▁odagı": 815,
      "of": 816,
      "▁talepte": 817,
      "▁yum": 818,
      "▁hayvanların": 819,
      "amak": 820,
      "ligini": 821,
      "▁kapıyı": 822,
      "▁art": 823,
      "▁salonu": 824,
      "▁cıkacagını": 825,
      "▁mevdu": 826,
      "▁suretle": 827,
      "▁konserve": 828,
      "yse": 829,
      "eceksiniz": 830,
      "ime": 831,
      "▁ink": 832,
      "dan": 833,
      "onra": 834,
      "▁yaralan": 835,
      "▁tarihinde": 836,
      "▁hizmette": 837,
      "gn": 838,
      "▁cirkin": 839,
      "ikler": 840,
      "▁akımı": 841,
      "tuk": 842,
      "▁yılını": 843,
      "▁yanakları": 844,
      "yal": 845,
      "▁sergisi": 846,
      "usunden": 847,
      "▁agaclar": 848,
      "▁kolundan": 849,
      "iniz": 850,
      "▁gel": 851,
      "▁kurulusunun": 852,
      "▁dibinde": 853,
      "▁meb": 854,
      "▁orgutu": 855,
      "▁penc": 856,
      "▁kal": 857,
      "▁meht": 858,
      "erh": 859,
      "ırıl": 860,
      "▁gorunum": 861,
      "▁yemek": 862,
      "▁bacaklarını": 863,
      "▁intihar": 864,
      "ıntılı": 865,
      "▁bors": 866,
      "▁fet": 867,
      "▁yaptıkları": 868,
      "▁deter": 869,
      "umuzdan": 870,
      "▁gecme": 871,
      "▁gorustu": 872,
      "irip": 873,
      "▁alakasi": 874,
      "▁ekonomisi": 875,
      "alle": 876,
      "▁munasebet": 877,
      "▁uzman": 878,
      "▁sindir": 879,
      "▁lakin": 880,
      "▁kızını": 881,
      "▁sıfır": 882,
      "▁kalitede": 883,
      "▁dokun": 884,
      "ay": 885,
      "▁bicim": 886,
      "▁gecmiste": 887,
      "▁ornegi": 888,
      "▁mudur": 889,
      "aset": 890,
      "▁icr": 891,
      "mamacasına": 892,
      "atesi": 893,
      "mıyorlar": 894,
      "▁fiyatlandır": 895,
      "esindeydi": 896,
      "▁ambargo": 897,
      "▁anlasmayı": 898,
      "▁ozelliklerinden": 899,
      "▁atese": 900,
      "▁avına": 901,
      "▁dizinin": 902,
      "▁kardesinin": 903,
      "emm": 904,
      "▁eseri": 905,
      "ımdır": 906,
      "▁cekilm": 907,
      "▁kapak": 908,
      "▁bilgisi": 909,
      "▁43": 910,
      "ilme": 911,
      "▁koalisyon": 912,
      "dam": 913,
      "▁kolları": 914,
      "▁baslayan": 915,
      "▁huk": 916,
      "▁benz": 917,
      "ver": 918,
      "▁belinde": 919,
      "▁stad": 920,
      "▁kapıda": 921,
      "▁tarihlerinde": 922,
      "alım": 923,
      "▁programın": 924,
      "▁hisseden": 925,
      "▁degisimi": 926,
      "▁bulama": 927,
      "▁cisim": 928,
      "aklar": 929,
      "▁fikir": 930,
      "▁fasul": 931,
      "▁yurum": 932,
      "uvar": 933,
      "▁nis": 934,
      "▁evlerini": 935,
      "▁hissedarların": 936,
      "▁sertifik": 937,
      "isme": 938,
      "▁fazlası": 939,
      "▁ayag": 940,
      "▁kelimeler": 941,
      "ergah": 942,
      "pu": 943,
      "lıların": 944,
      "▁burc": 945,
      "▁kredisi": 946,
      "▁onerileri": 947,
      "▁toky": 948,
      "lk": 949,
      "▁kaynaklar": 950,
      "▁otur": 951,
      "▁balik": 952,
      "▁sosyalist": 953,
      "klerini": 954,
      "▁acaktı": 955,
      "▁hissettim": 956,
      "▁gerceklesti": 957,
      "lem": 958,
      "▁hattının": 959,
      "▁universite": 960,
      "tif": 961,
      "▁fotografı": 962,
      "▁kartal": 963,
      "▁kucagına": 964,
      "▁cıkıyor": 965,
      "▁ucları": 966,
      "▁kavr": 967,
      "oru": 968,
      "er'in": 969,
      "▁dayanık": 970,
      "bil": 971,
      "▁past": 972,
      "▁dilenci": 973,
      "dukca": 974,
      "▁kıyas": 975,
      "▁heyetin": 976,
      "▁etkileri": 977,
      "▁kahram": 978,
      "▁guzel": 979,
      "▁bildi": 980,
      "ısıyla": 981,
      "▁suya": 982,
      "▁metal": 983,
      "▁mudahale": 984,
      "malarını": 985,
      "▁kopekler": 986,
      "▁banyosu": 987,
      "det": 988,
      "daki": 989,
      "▁ilgi": 990,
      "ı": 991,
      "▁cerceve": 992,
      "lemek": 993,
      "▁promosyon": 994,
      "▁hazırlıkları": 995,
      "▁ual": 996,
      "uyordu": 997,
      "memek": 998,
      "▁hacmi": 999,
      "eor": 1000,
      "▁yas": 1001,
      "▁yukunu": 1002,
      "▁sirketinden": 1003,
      "▁satıcısı": 1004,
      "▁beni": 1005,
      "▁enerj": 1006,
      "▁universiteden": 1007,
      "▁dikkatini": 1008,
      "▁mahsul": 1009,
      "▁okula": 1010,
      "ncu": 1011,
      "▁siyaset": 1012,
      "▁seneye": 1013,
      "▁ayrılan": 1014,
      "▁evlen": 1015,
      "▁keske": 1016,
      "metler": 1017,
      "▁yedi": 1018,
      "agı": 1019,
      "▁uygul": 1020,
      "▁kanunlar": 1021,
      "ez": 1022,
      "▁surecte": 1023,
      "dos": 1024,
      "ganlık": 1025,
      "▁ulkemiz": 1026,
      "leye": 1027,
      "▁tac": 1028,
      "▁biber": 1029,
      "▁pilotların": 1030,
      "▁zorun": 1031,
      "▁tecrub": 1032,
      "aff": 1033,
      "▁ressam": 1034,
      "▁say": 1035,
      "▁hastan": 1036,
      "▁alay": 1037,
      "▁vizyon": 1038,
      "▁olasılıgı": 1039,
      "▁analiz": 1040,
      "▁vaat": 1041,
      "▁isterseniz": 1042,
      "▁kadar": 1043,
      "▁kafil": 1044,
      "▁baslangıcta": 1045,
      "▁ajansı": 1046,
      "▁dagın": 1047,
      "▁geregi": 1048,
      "▁taleplerinin": 1049,
      "▁bufe": 1050,
      "res": 1051,
      "▁dolas": 1052,
      "▁sozcuklerin": 1053,
      "▁defne": 1054,
      "▁cevresinin": 1055,
      "leyicileri": 1056,
      "▁istedi": 1057,
      "▁1\\/": 1058,
      "emizde": 1059,
      "ili": 1060,
      "▁gorur": 1061,
      "muz": 1062,
      "odu": 1063,
      "▁tehlikesi": 1064,
      "▁genisleme": 1065,
      "ond": 1066,
      "▁avrupalı": 1067,
      "▁izin": 1068,
      "▁hareketle": 1069,
      "▁tahk": 1070,
      "▁seyden": 1071,
      "▁dururdu": 1072,
      "▁diregi": 1073,
      "▁destekley": 1074,
      "▁kahvalt": 1075,
      "▁duvarların": 1076,
      "▁giyin": 1077,
      "▁kurucusu": 1078,
      "▁toplantıyı": 1079,
      "▁onların": 1080,
      "▁brons": 1081,
      "kti": 1082,
      "▁hesabı": 1083,
      "alamak": 1084,
      "▁gelmeye": 1085,
      "▁babam": 1086,
      "iz": 1087,
      "▁komunistler": 1088,
      "▁cadır": 1089,
      "arın": 1090,
      "usuz": 1091,
      "▁karsilama": 1092,
      "▁ekonomisini": 1093,
      "▁kopegi": 1094,
      "▁andan": 1095,
      "▁sa": 1096,
      "▁ken": 1097,
      "▁a": 1098,
      "▁hastalıgına": 1099,
      "▁durumuna": 1100,
      "▁basımda": 1101,
      "ide": 1102,
      "▁buyumesi": 1103,
      "▁senaryo": 1104,
      "▁elimizde": 1105,
      "unun": 1106,
      "▁fol": 1107,
      "▁&": 1108,
      "▁goz": 1109,
      "▁atesten": 1110,
      "▁rakipleri": 1111,
      "▁must": 1112,
      "▁imz": 1113,
      "▁bazi": 1114,
      "▁kayık": 1115,
      "▁seylerden": 1116,
      "▁odası": 1117,
      "gulu": 1118,
      "▁sabah": 1119,
      "ation": 1120,
      "▁evini": 1121,
      "▁damar": 1122,
      "▁gormedi": 1123,
      "▁birbiriyle": 1124,
      "▁bıyık": 1125,
      "iligini": 1126,
      "▁sera": 1127,
      "▁kazancları": 1128,
      "▁calisanlarin": 1129,
      "▁piyasalarda": 1130,
      "▁kirlilik": 1131,
      "nci": 1132,
      "▁etmeyi": 1133,
      "▁operasyon": 1134,
      "▁bitki": 1135,
      "▁temettu": 1136,
      "asur": 1137,
      "baz": 1138,
      "▁cık": 1139,
      "▁gom": 1140,
      "iyla": 1141,
      "▁yetkililerin": 1142,
      "▁macları": 1143,
      "▁cogunlugu": 1144,
      "▁anında": 1145,
      "▁yasına": 1146,
      "igimi": 1147,
      "▁incelen": 1148,
      "tan": 1149,
      "▁bus": 1150,
      "▁kavus": 1151,
      "▁suclamaları": 1152,
      "▁karsiligini": 1153,
      "▁yarısının": 1154,
      "▁filik": 1155,
      "▁q": 1156,
      "▁varmak": 1157,
      "uyorlardı": 1158,
      "olojik": 1159,
      "▁mudafa": 1160,
      "▁def": 1161,
      "▁verilen": 1162,
      "▁sultan": 1163,
      "igim": 1164,
      "lenin": 1165,
      "▁ogrendi": 1166,
      "▁beyz": 1167,
      "ea": 1168,
      "▁burnundan": 1169,
      "ırım": 1170,
      "▁turizm": 1171,
      "▁gozlerle": 1172,
      "abilirdi": 1173,
      "▁taksit": 1174,
      "juv": 1175,
      "bs": 1176,
      "▁tahv": 1177,
      "▁sınırlarını": 1178,
      "▁yorgunluk": 1179,
      "▁satıslarda": 1180,
      "▁bolumu": 1181,
      "▁fiyatlarını": 1182,
      "▁gununun": 1183,
      "▁tanım": 1184,
      "▁davasına": 1185,
      "emeyecek": 1186,
      "uklar": 1187,
      "▁savunma": 1188,
      "melere": 1189,
      "▁video": 1190,
      "▁odasından": 1191,
      "▁ucusu": 1192,
      "▁oranda": 1193,
      "▁vermis": 1194,
      "yacaklar": 1195,
      "▁eserini": 1196,
      "▁olan": 1197,
      "ecekler": 1198,
      "▁paylasım": 1199,
      "▁sular": 1200,
      "irleri": 1201,
      "▁kiralama": 1202,
      "▁sonuclarının": 1203,
      "▁charlotte'ye": 1204,
      "▁yaptıg": 1205,
      "pektif": 1206,
      "▁dukkanlar": 1207,
      "▁?": 1208,
      "▁gidiyorum": 1209,
      "▁kontrolunu": 1210,
      "▁sıkıntı": 1211,
      "ilendir": 1212,
      "▁asırı": 1213,
      "▁avans": 1214,
      "▁karton": 1215,
      "▁olasılıkla": 1216,
      "▁sanız": 1217,
      "▁aramak": 1218,
      "▁atan": 1219,
      "▁sessizce": 1220,
      "▁uykus": 1221,
      "lamadı": 1222,
      "▁oranın": 1223,
      "▁dosyada": 1224,
      "▁fiyatlarının": 1225,
      "▁milliyet": 1226,
      "▁kanalı": 1227,
      "▁misali": 1228,
      "▁vardiy": 1229,
      "▁sekl": 1230,
      "▁bogaz": 1231,
      "▁tasla": 1232,
      "▁dusmanı": 1233,
      "▁nisp": 1234,
      "▁odalari": 1235,
      "▁mahal": 1236,
      "▁evlat": 1237,
      "▁18": 1238,
      "▁komisyonları": 1239,
      "▁once": 1240,
      "▁ehl": 1241,
      "▁hisselerde": 1242,
      "▁soyledi": 1243,
      "gisi": 1244,
      "ecileri": 1245,
      "▁samim": 1246,
      "▁cif": 1247,
      "▁kafayla": 1248,
      "▁duskunlugu": 1249,
      "▁sende": 1250,
      "▁entar": 1251,
      "▁kazandı": 1252,
      "▁ihan": 1253,
      "▁sahipler": 1254,
      "▁ten": 1255,
      "ersiz": 1256,
      "▁zavallı": 1257,
      "▁olaganustu": 1258,
      "▁siparisleri": 1259,
      "▁ortu": 1260,
      "lesiyor": 1261,
      "eli": 1262,
      "musum": 1263,
      "▁birtak": 1264,
      "▁yasa": 1265,
      "casına": 1266,
      "▁fat": 1267,
      "▁rıza": 1268,
      "▁surec": 1269,
      "▁hepsinden": 1270,
      "ter": 1271,
      "▁baslamak": 1272,
      "▁hallerini": 1273,
      "▁bale": 1274,
      "▁gogsune": 1275,
      "iyatri": 1276,
      "▁rahatlıgı": 1277,
      "▁oakland'a": 1278,
      "▁17": 1279,
      "rken": 1280,
      "▁parcalar": 1281,
      "▁kalkıp": 1282,
      "▁31": 1283,
      "arına": 1284,
      "▁sahan": 1285,
      "▁kil": 1286,
      "▁wil": 1287,
      "▁piyasasında": 1288,
      "▁olsun": 1289,
      "▁ebe": 1290,
      "▁olaydan": 1291,
      "▁12": 1292,
      "▁ren": 1293,
      "▁hanimdi": 1294,
      "▁koltukta": 1295,
      "▁kestir": 1296,
      "▁derste": 1297,
      "▁limuzin": 1298,
      "▁akp": 1299,
      "▁aracılı": 1300,
      "▁basketbol": 1301,
      "abını": 1302,
      "▁sims": 1303,
      "yonun": 1304,
      "ilim": 1305,
      "00": 1306,
      "▁kaleci": 1307,
      "ilebilir": 1308,
      "▁satıs": 1309,
      "liginden": 1310,
      "▁bolumunu": 1311,
      "▁kısı": 1312,
      "▁haftaya": 1313,
      "▁boynuz": 1314,
      "▁loc": 1315,
      "▁kardesi": 1316,
      "▁baklav": 1317,
      "acagını": 1318,
      "▁bin": 1319,
      "▁zaman": 1320,
      "▁dov": 1321,
      "▁lam": 1322,
      "▁gezi": 1323,
      "▁city": 1324,
      "▁uzlas": 1325,
      "▁doldur": 1326,
      "▁maliyet": 1327,
      "▁sozum": 1328,
      "▁bozul": 1329,
      "▁ikisi": 1330,
      "altı": 1331,
      "▁pisir": 1332,
      "▁sevk": 1333,
      "fet": 1334,
      "▁sor": 1335,
      "▁dusundu": 1336,
      "▁sayg": 1337,
      "▁esyalar": 1338,
      "▁vol": 1339,
      "▁alabilir": 1340,
      "▁teyp": 1341,
      "▁anlıslanabilirlik": 1342,
      "▁havalimanı'nda": 1343,
      "▁iktisat": 1344,
      "ılım": 1345,
      "gara": 1346,
      "▁har": 1347,
      "▁tır": 1348,
      "▁rezervasyonu": 1349,
      "orc": 1350,
      "▁lob": 1351,
      "▁otomobiller": 1352,
      "▁cift": 1353,
      "tek": 1354,
      "▁gemiler": 1355,
      "▁sablon": 1356,
      "▁acmayı": 1357,
      "▁gelenek": 1358,
      "▁futbol": 1359,
      "▁pilavı": 1360,
      "▁ayagını": 1361,
      "0": 1362,
      "▁kesin": 1363,
      "▁baz": 1364,
      "▁ip": 1365,
      "ararak": 1366,
      "▁turlar": 1367,
      "ilya": 1368,
      "▁dar": 1369,
      "▁fabrikayı": 1370,
      "▁yarar": 1371,
      "ekt": 1372,
      "▁gelmiyor": 1373,
      "▁onayladı": 1374,
      "dedir": 1375,
      "ogret": 1376,
      "▁uc": 1377,
      "alet": 1378,
      "▁sokagın": 1379,
      "▁sar": 1380,
      "butun": 1381,
      "▁kadın": 1382,
      "tih": 1383,
      "amul": 1384,
      "▁devrimci": 1385,
      "▁kalkan": 1386,
      "▁ticari": 1387,
      "katli": 1388,
      "pa": 1389,
      "▁h": 1390,
      "▁iyi": 1391,
      "isinda": 1392,
      "imen": 1393,
      "iel": 1394,
      "▁sevgisi": 1395,
      "▁politikacılar": 1396,
      "ayı": 1397,
      "▁minibar": 1398,
      "digimden": 1399,
      "▁ici": 1400,
      "emez": 1401,
      "▁televizyonda": 1402,
      "▁neh": 1403,
      "att": 1404,
      "50'": 1405,
      "duksiyon": 1406,
      "▁rezalet": 1407,
      "▁projede": 1408,
      "▁teneke": 1409,
      "▁tanesi": 1410,
      "▁kans": 1411,
      "▁kelimeleri": 1412,
      "▁operasyonu": 1413,
      "▁dayan": 1414,
      "▁inter": 1415,
      "ye": 1416,
      "ebiliriz": 1417,
      "▁saglık": 1418,
      "▁mesaj": 1419,
      "dırım": 1420,
      "▁iscinin": 1421,
      "▁bizler": 1422,
      "sık": 1423,
      "ade": 1424,
      "8": 1425,
      "▁mucev": 1426,
      "▁evvela": 1427,
      "▁esim": 1428,
      "▁olunca": 1429,
      "▁ingil": 1430,
      "▁saban": 1431,
      "ıklar": 1432,
      "'y": 1433,
      "▁ihtiyacim": 1434,
      "yen": 1435,
      "▁emir": 1436,
      "▁direktor": 1437,
      "▁ceket": 1438,
      "▁a.": 1439,
      "▁basak": 1440,
      "'ne": 1441,
      "▁onundeki": 1442,
      "▁anlıs": 1443,
      "▁nav": 1444,
      "▁kov": 1445,
      "▁hizmet": 1446,
      "▁kapıya": 1447,
      "▁199": 1448,
      "▁indianapolis'e": 1449,
      "▁final": 1450,
      "▁t": 1451,
      "▁denli": 1452,
      "▁doneme": 1453,
      "▁ortam": 1454,
      "▁kaymakam": 1455,
      "▁hok": 1456,
      "▁medy": 1457,
      "▁bagımsız": 1458,
      "▁onemi": 1459,
      "▁bosal": 1460,
      "▁kokteyl": 1461,
      "tıcı": 1462,
      "2": 1463,
      "▁havuzlar": 1464,
      "fes": 1465,
      "▁dusmesine": 1466,
      "”": 1467,
      "tıgını": 1468,
      "▁nan": 1469,
      "say": 1470,
      "▁program": 1471,
      "▁mobilyalar": 1472,
      "▁onerdi": 1473,
      "▁mahallede": 1474,
      "mem": 1475,
      "▁uyar": 1476,
      "▁taz": 1477,
      "▁yansıt": 1478,
      "sinin": 1479,
      "iyede": 1480,
      "▁seyret": 1481,
      "▁faaliyetlerinin": 1482,
      "dası": 1483,
      "▁ediliyor": 1484,
      "▁yemegine": 1485,
      "▁cer": 1486,
      "▁sayıda": 1487,
      "itti": 1488,
      "▁sadakat": 1489,
      "▁musam": 1490,
      "ogram": 1491,
      "▁bolumun": 1492,
      "▁puanlama": 1493,
      "▁selef": 1494,
      "▁piyasanın": 1495,
      "▁ets": 1496,
      "cisi": 1497,
      "▁dusunuyorum": 1498,
      "▁bilgil": 1499,
      "▁pesinden": 1500,
      "▁arastırmalar": 1501,
      "▁yonde": 1502,
      "▁kuyruk": 1503,
      "▁baskal": 1504,
      "▁icecekleri": 1505,
      "▁yoluna": 1506,
      "▁oncelikle": 1507,
      "▁umit": 1508,
      "▁yoneticilerine": 1509,
      "▁gonlunu": 1510,
      "▁karam": 1511,
      "oza": 1512,
      "amayacagını": 1513,
      "▁48": 1514,
      "denin": 1515,
      "▁acent": 1516,
      "▁rutubet": 1517,
      "▁ifsa": 1518,
      "▁hendek": 1519,
      "kkat": 1520,
      "▁dok": 1521,
      "ydı": 1522,
      "▁belgeler": 1523,
      "▁malı": 1524,
      "▁kahval": 1525,
      "▁lehine": 1526,
      "▁coc": 1527,
      "fi": 1528,
      "▁kararları": 1529,
      "▁evimde": 1530,
      "iri": 1531,
      "▁konforlu": 1532,
      "leyip": 1533,
      "▁deri": 1534,
      "▁olmasa": 1535,
      "▁esi": 1536,
      "▁yukum": 1537,
      "▁pazarına": 1538,
      "▁civ": 1539,
      "▁babama": 1540,
      "▁rehberlik": 1541,
      "▁kahvenin": 1542,
      "▁gazeteleri": 1543,
      "▁ruzgarı": 1544,
      "▁kalanlar": 1545,
      "▁newark": 1546,
      "▁bitmis": 1547,
      "▁edecekti": 1548,
      "▁to": 1549,
      "▁tiyatroda": 1550,
      "▁konsey": 1551,
      "▁mecmu": 1552,
      "▁tic": 1553,
      "▁muhabbet": 1554,
      "langıc": 1555,
      "▁jet": 1556,
      "▁enflasyonun": 1557,
      "▁canları": 1558,
      "▁mavi": 1559,
      "lasarak": 1560,
      "▁arbitraj": 1561,
      "▁gorusmelerin": 1562,
      "▁kapmak": 1563,
      "▁isletmelere": 1564,
      "▁geri": 1565,
      "▁endiseleri": 1566,
      "▁yat": 1567,
      "▁pilotlar": 1568,
      "arında": 1569,
      "▁haket": 1570,
      "▁topa": 1571,
      "▁parki": 1572,
      "▁il": 1573,
      "▁fırsatı": 1574,
      "ordu": 1575,
      "▁haberde": 1576,
      "lık": 1577,
      "lardir": 1578,
      "▁hanımı": 1579,
      "▁bilimin": 1580,
      "▁kusak": 1581,
      "▁gazel": 1582,
      "▁kamyon": 1583,
      "▁devleti": 1584,
      "▁tazminatı": 1585,
      "unlu": 1586,
      "▁dinam": 1587,
      "▁yasındaki": 1588,
      "▁hareketin": 1589,
      "▁dunyası": 1590,
      "uzları": 1591,
      "▁pah": 1592,
      "ıyorum": 1593,
      "▁odemeyi": 1594,
      "▁ıslık": 1595,
      "▁ruhsat": 1596,
      "yumda": 1597,
      "▁durumunun": 1598,
      "▁bolgesine": 1599,
      "▁suclamalar": 1600,
      "▁sez": 1601,
      "▁boyutta": 1602,
      "▁can": 1603,
      "▁tıkır": 1604,
      "▁direksiyon": 1605,
      "▁oteldi": 1606,
      "eller": 1607,
      "▁asist": 1608,
      "▁maddesi": 1609,
      "▁koylu": 1610,
      "▁yazarlarının": 1611,
      "▁nezaket": 1612,
      "▁cın": 1613,
      "sekse": 1614,
      "▁bununla": 1615,
      "▁endustriler": 1616,
      "▁kost": 1617,
      "dek": 1618,
      "▁ellerinde": 1619,
      "bre": 1620,
      "▁inan": 1621,
      "gis": 1622,
      "▁olayla": 1623,
      "▁davetliler": 1624,
      "'de": 1625,
      "ılıgında": 1626,
      "▁ima": 1627,
      "▁edilecegini": 1628,
      "▁derece": 1629,
      "▁urun": 1630,
      "▁gorunus": 1631,
      "narak": 1632,
      "▁tuketiciler": 1633,
      "▁hissesini": 1634,
      "▁bilete": 1635,
      "▁yolu": 1636,
      "▁maks": 1637,
      "▁doldurdu": 1638,
      "▁dallarını": 1639,
      "▁simgesi": 1640,
      "▁tabur": 1641,
      "ayi": 1642,
      "▁bakanlıgı'nın": 1643,
      "▁komite": 1644,
      "ecen": 1645,
      "▁faaliyetlerini": 1646,
      "▁ulkelerden": 1647,
      "▁korku": 1648,
      "iza": 1649,
      "▁indir": 1650,
      "acıların": 1651,
      "▁oil": 1652,
      "▁nokta": 1653,
      "▁bulunmaktadır": 1654,
      "▁trilyon": 1655,
      "umuzun": 1656,
      "▁gidis": 1657,
      "ısık": 1658,
      "▁5\\/8": 1659,
      "▁gorusmeler": 1660,
      "▁sadece": 1661,
      "▁cekip": 1662,
      "▁muhalle": 1663,
      "▁desteklen": 1664,
      "etici": 1665,
      "▁cırpıda": 1666,
      "▁isletmesi": 1667,
      "▁ihracları": 1668,
      "▁uykusuna": 1669,
      "▁onlerinde": 1670,
      "▁agacların": 1671,
      "▁golg": 1672,
      "▁cenaz": 1673,
      "gusu": 1674,
      "▁dib": 1675,
      "▁suruk": 1676,
      "▁reding": 1677,
      "▁carsıda": 1678,
      "leme": 1679,
      "▁hastalıgın": 1680,
      "▁editor": 1681,
      "▁yiyor": 1682,
      "▁sun": 1683,
      "▁piyango": 1684,
      "▁arkasını": 1685,
      "as": 1686,
      "▁hakkın": 1687,
      "▁kararsizim": 1688,
      "dirdi": 1689,
      "▁1/2": 1690,
      "▁iktidara": 1691,
      "▁kabukları": 1692,
      "▁raporu": 1693,
      "▁benimle": 1694,
      "▁fig": 1695,
      "sinde": 1696,
      "▁emperyalizm": 1697,
      "lanmasına": 1698,
      "▁burası": 1699,
      "▁sandıgı": 1700,
      "▁bayır": 1701,
      "ilmez": 1702,
      "agın": 1703,
      "▁ucusların": 1704,
      "▁amc": 1705,
      "▁sıcaktan": 1706,
      "isimi": 1707,
      "▁enstitusu": 1708,
      "apark": 1709,
      "▁sacı": 1710,
      "▁karabiber": 1711,
      "▁kendisi": 1712,
      "▁kilisesi": 1713,
      "▁karac": 1714,
      "▁performanstan": 1715,
      "▁kandil": 1716,
      "▁gerektigini": 1717,
      "▁sonbaharı": 1718,
      "▁dogruya": 1719,
      "▁patiska": 1720,
      "▁etkinlikler": 1721,
      "▁peki": 1722,
      "▁bası": 1723,
      "▁veren": 1724,
      "▁kapsam": 1725,
      "▁tahvili": 1726,
      "ento": 1727,
      "▁talebin": 1728,
      "▁baslar": 1729,
      "▁fener": 1730,
      "▁chp": 1731,
      "▁kafamda": 1732,
      "▁anlattım": 1733,
      "▁tex": 1734,
      "▁oakland": 1735,
      "▁sahilde": 1736,
      "▁medeniyet": 1737,
      "inaen": 1738,
      "mak": 1739,
      "▁vazif": 1740,
      "70'": 1741,
      "▁elinizde": 1742,
      "▁olgunluk": 1743,
      "▁ilisk": 1744,
      "ystems": 1745,
      "▁edilebilir": 1746,
      "▁pat": 1747,
      "▁duvarın": 1748,
      "▁bogazici": 1749,
      "▁iman": 1750,
      "▁meyve": 1751,
      "batı": 1752,
      "▁ertesi": 1753,
      "▁vuc": 1754,
      "▁kimseyi": 1755,
      "dırarak": 1756,
      "▁herif": 1757,
      "leyecek": 1758,
      "digimi": 1759,
      "▁bildirildi": 1760,
      "▁deg": 1761,
      "▁3.ceyrek": 1762,
      "▁birligi'nin": 1763,
      "madım": 1764,
      "dart": 1765,
      "▁bilgim": 1766,
      "▁aradi": 1767,
      "▁istediler": 1768,
      "yalı": 1769,
      "▁tırman": 1770,
      "▁dolarına": 1771,
      "▁oakland'dan": 1772,
      "▁roman": 1773,
      "▁islemlerin": 1774,
      "▁metrek": 1775,
      "▁yaptı": 1776,
      "▁hastaya": 1777,
      "▁alıyordu": 1778,
      "▁futbolcu": 1779,
      "▁satıcıları": 1780,
      "▁topluma": 1781,
      "ilmisti": 1782,
      "▁prensip": 1783,
      "▁cıkarları": 1784,
      "▁meydan": 1785,
      "▁minder": 1786,
      "▁esyaları": 1787,
      "▁isletmeler": 1788,
      "nı": 1789,
      "▁faktor": 1790,
      "▁endise": 1791,
      "▁ol": 1792,
      "▁devlet": 1793,
      "▁mahkemede": 1794,
      "▁tesh": 1795,
      "▁hataları": 1796,
      "▁tav": 1797,
      "▁artısına": 1798,
      "▁secmek": 1799,
      "iyeti": 1800,
      "▁tıpkı": 1801,
      "▁yanında": 1802,
      "▁cografya": 1803,
      "▁kisiler": 1804,
      "▁palt": 1805,
      "▁kavg": 1806,
      "turdu": 1807,
      "arlandı": 1808,
      "▁hurr": 1809,
      "ırtıları": 1810,
      "▁mez": 1811,
      "▁uygundu": 1812,
      "▁evet": 1813,
      "▁merte": 1814,
      ".m": 1815,
      "\\": 1816,
      "▁telgraf": 1817,
      "▁mahkeme": 1818,
      "▁zinc": 1819,
      "▁hayatımı": 1820,
      "▁kahveci": 1821,
      "yas": 1822,
      "▁toronto'dan": 1823,
      "▁ask": 1824,
      "▁yasanan": 1825,
      "▁iznini": 1826,
      "▁mitchell": 1827,
      "▁toplam": 1828,
      "aduf": 1829,
      "▁kızdır": 1830,
      "▁cana": 1831,
      "ork": 1832,
      "▁sikinti": 1833,
      "▁dan": 1834,
      "lasıyor": 1835,
      "▁hasta": 1836,
      "▁yuzlu": 1837,
      "▁dıs": 1838,
      "▁delta": 1839,
      "ot": 1840,
      "▁baslaması": 1841,
      "▁hay": 1842,
      "▁degerine": 1843,
      "▁tesisleri": 1844,
      "▁ihalesi": 1845,
      "irerek": 1846,
      "▁pudra": 1847,
      "▁sepet": 1848,
      "cısı": 1849,
      "▁gan": 1850,
      "▁amac": 1851,
      "▁stu": 1852,
      "▁toparlanma": 1853,
      "▁sit": 1854,
      "▁taraflar": 1855,
      "▁taraftarları": 1856,
      "▁davran": 1857,
      "▁dag": 1858,
      "▁konusma": 1859,
      "▁norma": 1860,
      "▁yemekler": 1861,
      "yst": 1862,
      "▁at": 1863,
      "▁edemey": 1864,
      "arası": 1865,
      "derek": 1866,
      "lerimizden": 1867,
      "ıktı": 1868,
      "▁imam": 1869,
      "▁neyi": 1870,
      "▁kend": 1871,
      "ortu": 1872,
      "▁saldırgan": 1873,
      "▁havuz": 1874,
      "▁sampanya": 1875,
      "kun": 1876,
      "imore": 1877,
      "par": 1878,
      "▁kullandıgını": 1879,
      "▁carsıya": 1880,
      "▁mucadeleyi": 1881,
      "▁olcu": 1882,
      "▁performansa": 1883,
      "iska": 1884,
      "▁bilinc": 1885,
      "▁gecekon": 1886,
      "▁tahta": 1887,
      "▁proje": 1888,
      "3'e": 1889,
      "▁hissede": 1890,
      "kını": 1891,
      "▁seyi": 1892,
      "yiz": 1893,
      "▁edici": 1894,
      "ılıgını": 1895,
      "tıga": 1896,
      "madim": 1897,
      "tlar": 1898,
      "acısı": 1899,
      "▁cıkarmıs": 1900,
      "▁dip": 1901,
      "▁detroit": 1902,
      "▁(": 1903,
      "▁gunune": 1904,
      "▁rey": 1905,
      "▁davar": 1906,
      "▁vas": 1907,
      "▁orman": 1908,
      "▁ediyorum": 1909,
      ".625": 1910,
      "▁89": 1911,
      "▁noktasında": 1912,
      "agımı": 1913,
      "▁kerp": 1914,
      "▁makam": 1915,
      "▁seyir": 1916,
      "erek": 1917,
      "ulacak": 1918,
      "▁sapk": 1919,
      "▁sutu": 1920,
      "▁tesiste": 1921,
      "▁babasından": 1922,
      "▁derecelendirme": 1923,
      "▁annemden": 1924,
      "▁baskumandan": 1925,
      "▁reklamlar": 1926,
      "▁ote": 1927,
      "maların": 1928,
      "tesi": 1929,
      "▁cebinden": 1930,
      "op": 1931,
      "▁yuvarlak": 1932,
      "▁koruma": 1933,
      "erdeki": 1934,
      "▁mans": 1935,
      "an'ın": 1936,
      "▁sistemini": 1937,
      "▁ceph": 1938,
      "▁varlık": 1939,
      "▁v": 1940,
      "▁elle": 1941,
      "▁cıkması": 1942,
      "tıgına": 1943,
      "masında": 1944,
      "▁ansik": 1945,
      "▁dokuz": 1946,
      "emon": 1947,
      "ilmesine": 1948,
      "▁studyo": 1949,
      "▁ucakları": 1950,
      "▁makinesi": 1951,
      "▁cantasında": 1952,
      "▁baglan": 1953,
      "▁zapt": 1954,
      "▁aylarında": 1955,
      "▁fed": 1956,
      "▁seattle'den": 1957,
      "▁kocası": 1958,
      "ın": 1959,
      "▁ihmal": 1960,
      "▁kavramının": 1961,
      "ale": 1962,
      "iger": 1963,
      "▁kazanmak": 1964,
      "▁ayrica": 1965,
      "▁iclerinde": 1966,
      "▁davasında": 1967,
      "magını": 1968,
      "indir": 1969,
      "▁sahis": 1970,
      "▁yaptir": 1971,
      "▁201": 1972,
      "▁tesaduf": 1973,
      "celeri": 1974,
      "▁cıkarıyor": 1975,
      "▁gercege": 1976,
      "▁dede": 1977,
      "▁cirit": 1978,
      "fer": 1979,
      "itraj": 1980,
      "▁gecenin": 1981,
      "lasman": 1982,
      "▁tıg": 1983,
      "▁kef": 1984,
      "▁jandarma": 1985,
      "eginden": 1986,
      "▁oynuyor": 1987,
      "uklugu": 1988,
      "▁tep": 1989,
      "▁denver'den": 1990,
      "▁isbirligi": 1991,
      "tam": 1992,
      "ari": 1993,
      "▁misafirin": 1994,
      "▁kosullarına": 1995,
      "▁tavr": 1996,
      "▁fiyatını": 1997,
      "▁topluluk": 1998,
      "bası": 1999,
      "▁zamanı": 2000,
      "▁riske": 2001,
      "▁hizmete": 2002,
      "▁taraftar": 2003,
      "▁hatası": 2004,
      "▁umur": 2005,
      "▁fakul": 2006,
      "ait": 2007,
      "▁sendika": 2008,
      "▁yazısı": 2009,
      "▁yapımı": 2010,
      "▁vesik": 2011,
      "uguna": 2012,
      "▁iliskisi": 2013,
      "▁fac": 2014,
      "▁kitaplara": 2015,
      "ebilir": 2016,
      "▁yemegi": 2017,
      "▁ayrılmak": 2018,
      "▁grubunun": 2019,
      "▁endisesi": 2020,
      "▁tamamen": 2021,
      "▁herhal": 2022,
      "▁ayrıntı": 2023,
      ".3": 2024,
      "bin": 2025,
      "▁sebze": 2026,
      "▁yede": 2027,
      "▁herkese": 2028,
      "▁gırtlag": 2029,
      "▁bakıyorum": 2030,
      "▁programının": 2031,
      "▁derken": 2032,
      "▁anadolu": 2033,
      "▁obu": 2034,
      "▁nar": 2035,
      "▁ilgilendiler": 2036,
      "▁yorum": 2037,
      "▁kuc": 2038,
      "esil": 2039,
      "▁pist": 2040,
      "▁icerisinde": 2041,
      "▁boyutu": 2042,
      "▁batak": 2043,
      "▁ulkede": 2044,
      "▁panel": 2045,
      "oy": 2046,
      "▁sıkıntıları": 2047,
      "▁birco": 2048,
      "mislerdir": 2049,
      "▁panik": 2050,
      "▁kumsali": 2051,
      "▁lal": 2052,
      "cılar": 2053,
      "▁dostlar": 2054,
      "▁bardagın": 2055,
      "ba": 2056,
      "▁vaktinde": 2057,
      "gırak": 2058,
      "▁kızım": 2059,
      "▁fiyata": 2060,
      "▁birey": 2061,
      "▁ortamında": 2062,
      "(": 2063,
      "▁piyano": 2064,
      "▁bine": 2065,
      "▁phoenix'den": 2066,
      "ri": 2067,
      "set": 2068,
      "▁album": 2069,
      "cuyu": 2070,
      "▁kocaman": 2071,
      "▁yogurt": 2072,
      "▁esv": 2073,
      "iden": 2074,
      "▁dolardı": 2075,
      "▁ederler": 2076,
      "ific": 2077,
      "▁okullar": 2078,
      "▁dusuyor": 2079,
      "▁veyahut": 2080,
      "anma": 2081,
      "▁kartı": 2082,
      "▁kadınlara": 2083,
      "▁ederken": 2084,
      "yacak": 2085,
      "▁kazanım": 2086,
      "▁oldugumuz": 2087,
      "kca": 2088,
      "lardaki": 2089,
      "▁chicago'dan": 2090,
      "▁balta": 2091,
      "▁sik": 2092,
      "▁karsilamadi": 2093,
      "▁bosa": 2094,
      "▁ucusuna": 2095,
      "▁hedefleri": 2096,
      "▁iskele": 2097,
      "▁dow": 2098,
      "▁rıht": 2099,
      "▁isg": 2100,
      "▁cograf": 2101,
      "▁planladıgını": 2102,
      "▁vermeye": 2103,
      "▁sevimli": 2104,
      "sur": 2105,
      "▁vurus": 2106,
      "▁mahp": 2107,
      "iski": 2108,
      "▁univers": 2109,
      "▁ruzg": 2110,
      "▁cogunun": 2111,
      "▁onder": 2112,
      "▁belirtildi": 2113,
      "▁darbe": 2114,
      "uyup": 2115,
      "▁mevzuat": 2116,
      "▁san": 2117,
      "▁ortusu": 2118,
      "▁namına": 2119,
      "▁denizde": 2120,
      "▁u": 2121,
      "▁gram": 2122,
      "▁kimya": 2123,
      "ulmustu": 2124,
      "▁giden": 2125,
      "▁babanın": 2126,
      "▁milyondan": 2127,
      "▁havlular": 2128,
      "▁gelmis": 2129,
      "lasması": 2130,
      "▁avuk": 2131,
      "▁sozcu": 2132,
      "▁hol": 2133,
      "▁surun": 2134,
      "▁satırları": 2135,
      "gam": 2136,
      "▁dikkat": 2137,
      "▁iste": 2138,
      "yeni": 2139,
      "manız": 2140,
      "▁kızlarla": 2141,
      "ahede": 2142,
      "▁mesa": 2143,
      "▁teskil": 2144,
      "▁kurek": 2145,
      "malar": 2146,
      "▁nereye": 2147,
      "▁eb": 2148,
      "▁kazasında": 2149,
      "▁dinlen": 2150,
      "▁formulu": 2151,
      "stu": 2152,
      "▁1'den": 2153,
      "▁haps": 2154,
      "tlu": 2155,
      "▁yargıl": 2156,
      "itleri": 2157,
      "▁gene": 2158,
      "▁basarısı": 2159,
      "urk": 2160,
      "▁yukselis": 2161,
      "▁gelistirmek": 2162,
      "▁milyardan": 2163,
      "▁cıgır": 2164,
      "▁sure": 2165,
      "▁bayi": 2166,
      "▁taahhut": 2167,
      "▁milyonu": 2168,
      "▁cırak": 2169,
      "▁cıkar": 2170,
      "'in": 2171,
      "▁gon": 2172,
      "bay": 2173,
      "▁aslına": 2174,
      "ilikleri": 2175,
      "▁isaret": 2176,
      "istler": 2177,
      "▁kimseler": 2178,
      "▁duyar": 2179,
      "ukee": 2180,
      "▁45": 2181,
      "jde": 2182,
      "bat": 2183,
      "▁40": 2184,
      "▁ayrıldı": 2185,
      "▁donusum": 2186,
      "▁yaprakları": 2187,
      "▁kahvalti": 2188,
      "meye": 2189,
      "▁huzun": 2190,
      "▁ıs": 2191,
      "▁fikirler": 2192,
      "▁personelin": 2193,
      "▁seyr": 2194,
      "▁kalabalıgın": 2195,
      "isinin": 2196,
      "▁raporun": 2197,
      "bus": 2198,
      "▁yetersizligi": 2199,
      "▁koy": 2200,
      "▁dine": 2201,
      "▁yaptim": 2202,
      "▁cincinnati": 2203,
      "▁amacı": 2204,
      "▁izlenim": 2205,
      "▁serp": 2206,
      "▁arabası": 2207,
      "dir": 2208,
      "▁alısver": 2209,
      "egimizi": 2210,
      "▁intik": 2211,
      "▁gunun": 2212,
      "▁kemer": 2213,
      "▁ortal": 2214,
      "▁hadis": 2215,
      "▁varıncaya": 2216,
      "▁ciddi": 2217,
      "▁kurumlar": 2218,
      "bas": 2219,
      "lıgım": 2220,
      "▁zavallının": 2221,
      "ezz": 2222,
      "▁sobanın": 2223,
      "▁gomlegi": 2224,
      "▁imparatorlugu": 2225,
      "▁pabuc": 2226,
      "▁yarıda": 2227,
      "oj": 2228,
      "▁insanları": 2229,
      "liligini": 2230,
      "siyon": 2231,
      "▁madam": 2232,
      "▁sokaklarda": 2233,
      "▁bahset": 2234,
      "▁hicbir": 2235,
      "▁gelismeler": 2236,
      "▁kıdem": 2237,
      "▁gid": 2238,
      "ow": 2239,
      "▁ureticilerinin": 2240,
      "ilmek": 2241,
      "▁arkası": 2242,
      "▁kuvvetler": 2243,
      "labilir": 2244,
      "lugunde": 2245,
      "▁olurlar": 2246,
      "▁tereyagı": 2247,
      "▁artırma": 2248,
      "▁dusurmek": 2249,
      "▁acente": 2250,
      "▁gey": 2251,
      "▁boyunda": 2252,
      "▁gecim": 2253,
      "▁koyde": 2254,
      "ugunu": 2255,
      "▁zamandan": 2256,
      "geleri": 2257,
      "▁gecmisi": 2258,
      "▁kayın": 2259,
      "▁yaklasık": 2260,
      "meniz": 2261,
      "▁gozune": 2262,
      "▁fiy": 2263,
      "▁eziyet": 2264,
      "▁yaln": 2265,
      "▁ayni": 2266,
      "▁gorevi": 2267,
      "▁tabancayı": 2268,
      "▁bırakır": 2269,
      "▁kusu": 2270,
      "▁getirmek": 2271,
      "▁newark'a": 2272,
      "▁seninle": 2273,
      "▁mi": 2274,
      "▁dil": 2275,
      "dikleri": 2276,
      "▁ahkam": 2277,
      "▁ist": 2278,
      "▁ker": 2279,
      "▁programı": 2280,
      "▁oburleri": 2281,
      "▁ayakkabı": 2282,
      "▁kud": 2283,
      "▁kullanılan": 2284,
      "▁elbiselerini": 2285,
      "▁kus": 2286,
      "▁calısıyorum": 2287,
      "▁kurtulur": 2288,
      "▁sorular": 2289,
      "▁resim": 2290,
      "▁yalı": 2291,
      "▁saglıgı": 2292,
      "▁cimento": 2293,
      "▁40'": 2294,
      "▁sanmıyorum": 2295,
      "▁international": 2296,
      "▁sendromu": 2297,
      "▁kem": 2298,
      "tir": 2299,
      "▁onemini": 2300,
      "▁dergiler": 2301,
      "▁amerikan": 2302,
      "▁baskanlıgında": 2303,
      "▁be": 2304,
      "larımı": 2305,
      "▁onlugu": 2306,
      "▁bahceleri": 2307,
      "▁vucudun": 2308,
      "▁belirli": 2309,
      "enuz": 2310,
      "▁mısınız": 2311,
      "▁olacagını": 2312,
      "▁aylarda": 2313,
      "▁acisindan": 2314,
      "▁dumanı": 2315,
      "▁olmasindan": 2316,
      "▁koprunun": 2317,
      "▁girdim": 2318,
      "d.": 2319,
      "▁sırtından": 2320,
      "▁dolar": 2321,
      "▁enstit": 2322,
      "▁acıklıyor": 2323,
      "▁boslukta": 2324,
      "▁tohumu": 2325,
      "▁tası": 2326,
      "▁odaları": 2327,
      "▁korumak": 2328,
      "▁teyz": 2329,
      "▁kızıl": 2330,
      "▁durdu": 2331,
      "▁maddeleri": 2332,
      "ake": 2333,
      "▁surede": 2334,
      "▁baskanları": 2335,
      "▁birer": 2336,
      "▁cocuklu": 2337,
      "▁sevg": 2338,
      "▁hikaye": 2339,
      "ıyım": 2340,
      "▁fiyatlarıyla": 2341,
      "▁arkamdan": 2342,
      "enc": 2343,
      "▁yek": 2344,
      "▁yakında": 2345,
      "ert": 2346,
      "▁mulkiyet": 2347,
      "▁doyum": 2348,
      "▁ent": 2349,
      "▁tucc": 2350,
      "▁kayıp": 2351,
      "▁kadınların": 2352,
      "▁biletleri": 2353,
      "▁ayagın": 2354,
      "▁bunlara": 2355,
      "▁pasaj": 2356,
      "▁telefonla": 2357,
      "▁sef": 2358,
      "acık": 2359,
      "▁dısarı": 2360,
      "▁pad": 2361,
      "▁bolgenin": 2362,
      "▁agır": 2363,
      "▁adin": 2364,
      "▁birbirinin": 2365,
      "lenmesine": 2366,
      "▁indianapolis": 2367,
      "tın": 2368,
      "eda": 2369,
      "lastır": 2370,
      "ıntı": 2371,
      "▁sanatcılar": 2372,
      "▁eylul": 2373,
      "mik": 2374,
      "▁fırının": 2375,
      "▁beyin": 2376,
      "▁calısan": 2377,
      "umuzu": 2378,
      "▁1.7": 2379,
      "▁uyelik": 2380,
      "▁tomurcuk": 2381,
      "unuzu": 2382,
      "▁ekledi": 2383,
      "indeydi": 2384,
      "▁peynir": 2385,
      "▁kolayını": 2386,
      "▁ucagını": 2387,
      "▁boynunda": 2388,
      "likle": 2389,
      "▁cek": 2390,
      "ullu": 2391,
      "agına": 2392,
      "uktu": 2393,
      "luguna": 2394,
      "eger": 2395,
      "▁1/": 2396,
      "▁tanın": 2397,
      "▁boncuk": 2398,
      "▁et": 2399,
      "▁cikol": 2400,
      "▁hub": 2401,
      "▁cihazı": 2402,
      "culuk": 2403,
      "▁roportaj": 2404,
      "ucu": 2405,
      "▁calgı": 2406,
      "lanması": 2407,
      "▁varol": 2408,
      "▁sertifikaları": 2409,
      "▁terti": 2410,
      "▁kedi": 2411,
      "▁adamdı": 2412,
      "▁muslum": 2413,
      "▁entari": 2414,
      "▁otob": 2415,
      "sali": 2416,
      "ukle": 2417,
      "▁nut": 2418,
      "▁sir": 2419,
      "▁nashville": 2420,
      "▁borclarını": 2421,
      "▁yetkisi": 2422,
      "▁olcum": 2423,
      "▁yapraklar": 2424,
      "▁karsın": 2425,
      "▁isleri": 2426,
      "▁sent": 2427,
      "▁guvenini": 2428,
      "▁vaktiyle": 2429,
      "▁hic": 2430,
      "▁hastalıkların": 2431,
      "erisi": 2432,
      "▁otor": 2433,
      "▁degilsin": 2434,
      "▁bitis": 2435,
      "▁islev": 2436,
      "▁kontratı": 2437,
      "▁projesi": 2438,
      "urcuk": 2439,
      "▁desteklemek": 2440,
      "▁suresini": 2441,
      "▁yem": 2442,
      "▁subesi": 2443,
      "▁guv": 2444,
      "▁istasyonun": 2445,
      "▁torba": 2446,
      "▁koylulerin": 2447,
      "▁pilak": 2448,
      "▁karbon": 2449,
      "▁icten": 2450,
      "lerimize": 2451,
      "cuk": 2452,
      "▁calisan": 2453,
      "▁--": 2454,
      "▁kitle": 2455,
      "manlık": 2456,
      "▁yanım": 2457,
      "▁siddet": 2458,
      "egimi": 2459,
      "▁artır": 2460,
      "her": 2461,
      "elendir": 2462,
      "ınır": 2463,
      "▁makin": 2464,
      "▁sekreteri": 2465,
      "▁ozenle": 2466,
      "▁reklamcılık": 2467,
      "kiler": 2468,
      "▁ayı": 2469,
      "▁cozmek": 2470,
      "▁yaradılıs": 2471,
      "▁yatak": 2472,
      "▁52": 2473,
      "▁baspar": 2474,
      "▁kategorisi": 2475,
      "▁cuk": 2476,
      "med": 2477,
      "▁bun": 2478,
      "lanmıstı": 2479,
      "▁tasıyor": 2480,
      "▁ailesini": 2481,
      "▁cazib": 2482,
      "deri": 2483,
      "▁koop": 2484,
      "▁bolgeden": 2485,
      "▁varmıs": 2486,
      "▁hac": 2487,
      "▁montaj": 2488,
      "▁dizlerine": 2489,
      "madı": 2490,
      "▁haval": 2491,
      "▁yenilg": 2492,
      "▁muzigini": 2493,
      "▁os": 2494,
      "▁bulutu": 2495,
      "▁dizay": 2496,
      "isindan": 2497,
      "▁diplomasi": 2498,
      "▁sarsıntıda": 2499,
      "▁karsiladi": 2500,
      "▁mikr": 2501,
      "ılan": 2502,
      "dil": 2503,
      "unuza": 2504,
      "▁ilgiliydiler": 2505,
      "▁den": 2506,
      "▁hakim": 2507,
      "▁aklım": 2508,
      "urarak": 2509,
      "▁telefon": 2510,
      "gec": 2511,
      "▁binayı": 2512,
      "▁saglam": 2513,
      "▁yolcul": 2514,
      "▁umut": 2515,
      "▁duzel": 2516,
      "▁atılım": 2517,
      "ayıcı": 2518,
      "▁guvensizlik": 2519,
      "▁ortaklıgı": 2520,
      "▁tadını": 2521,
      "▁muamele": 2522,
      "▁cant": 2523,
      "▁borcun": 2524,
      "otiv": 2525,
      "▁kib": 2526,
      "▁etmekte": 2527,
      "asinda": 2528,
      "▁durumunu": 2529,
      "▁vaziyet": 2530,
      "▁tab": 2531,
      "▁”": 2532,
      "▁hukuk": 2533,
      "▁kad": 2534,
      "▁fatura": 2535,
      "atları": 2536,
      "▁masasına": 2537,
      "▁beta": 2538,
      "ıg": 2539,
      "▁saygı": 2540,
      "▁deli": 2541,
      "▁olmas": 2542,
      "▁kızar": 2543,
      "▁urunleri": 2544,
      "▁orta": 2545,
      "▁salata": 2546,
      "araya": 2547,
      "▁bina": 2548,
      "▁hız": 2549,
      "▁seyim": 2550,
      "▁beach": 2551,
      "ima": 2552,
      "▁dern": 2553,
      "▁rekabetin": 2554,
      "▁tazmin": 2555,
      "▁gunlerini": 2556,
      "ese": 2557,
      "▁haber": 2558,
      "▁yapabil": 2559,
      "▁yuzyılda": 2560,
      "▁sikintimiz": 2561,
      "▁yuruyordu": 2562,
      "▁senatorler": 2563,
      "▁tahminini": 2564,
      "▁gorusleri": 2565,
      "▁orgutun": 2566,
      "▁uzerime": 2567,
      "▁hani": 2568,
      "▁jo": 2569,
      "▁tatildi": 2570,
      "▁fi": 2571,
      "yet": 2572,
      "▁ateste": 2573,
      "iyenin": 2574,
      "▁bahcenin": 2575,
      "▁veya": 2576,
      "▁sacları": 2577,
      "cayı": 2578,
      "▁evimizde": 2579,
      "▁hisselere": 2580,
      "▁bilimi": 2581,
      "▁sual": 2582,
      "▁saga": 2583,
      "cusu": 2584,
      "▁banka": 2585,
      "tem": 2586,
      "▁com": 2587,
      "▁ye": 2588,
      "▁hosuma": 2589,
      "cagını": 2590,
      "8'in": 2591,
      "▁verenler": 2592,
      "cesine": 2593,
      "▁anal": 2594,
      "amadım": 2595,
      "▁kazananlar": 2596,
      "▁karar": 2597,
      "elerin": 2598,
      "▁gelecekteki": 2599,
      "lesmis": 2600,
      "▁montreal": 2601,
      "ezler": 2602,
      "uf": 2603,
      "▁oturmak": 2604,
      "izin": 2605,
      "▁hatirlamiyorum": 2606,
      "lerini": 2607,
      "▁kap": 2608,
      "▁tr": 2609,
      "▁irf": 2610,
      "ıklarını": 2611,
      "ecegim": 2612,
      ".8": 2613,
      "▁buklum": 2614,
      "▁pazara": 2615,
      "el": 2616,
      "unde": 2617,
      "▁sınır": 2618,
      "▁tekerlek": 2619,
      "▁hastal": 2620,
      "yo": 2621,
      "▁glas": 2622,
      "▁imaj": 2623,
      "6'sı": 2624,
      "▁orada": 2625,
      "desi": 2626,
      "▁harita": 2627,
      "▁misin": 2628,
      "c": 2629,
      "▁hın": 2630,
      "ekli": 2631,
      "▁olanaklari": 2632,
      "▁hocam": 2633,
      "duk": 2634,
      "▁oynad": 2635,
      "suzluk": 2636,
      "▁kaliforn": 2637,
      "▁kaldı": 2638,
      "▁revize": 2639,
      "▁irmik": 2640,
      "▁gune": 2641,
      "sarken": 2642,
      "cul": 2643,
      "▁gonlumu": 2644,
      "lamalarını": 2645,
      "▁hayatımız": 2646,
      "▁columbia": 2647,
      "arılı": 2648,
      "usup": 2649,
      "ona": 2650,
      "▁istemiyor": 2651,
      "▁baban": 2652,
      "▁ayakkabılarını": 2653,
      "attı": 2654,
      "▁tramv": 2655,
      "tiv": 2656,
      "▁yerler": 2657,
      "▁gozleri": 2658,
      "▁adeta": 2659,
      "▁acıklama": 2660,
      "▁kimsenin": 2661,
      "▁intern": 2662,
      "▁altından": 2663,
      "▁mıdır": 2664,
      "▁iskel": 2665,
      "▁bek": 2666,
      "▁uzerindeydi": 2667,
      "gın": 2668,
      "▁istiklal": 2669,
      "▁sosyal": 2670,
      "▁min": 2671,
      "▁yasın": 2672,
      "▁senetlerinin": 2673,
      "▁calısıyorlar": 2674,
      "▁bosluk": 2675,
      "▁tanıs": 2676,
      "▁lik": 2677,
      "▁prote": 2678,
      "avr": 2679,
      "▁hisseye": 2680,
      "▁onc": 2681,
      "▁mısın": 2682,
      "▁bacak": 2683,
      "▁teknede": 2684,
      "ij": 2685,
      "▁sandıg": 2686,
      "▁sayfaları": 2687,
      "▁umuduyla": 2688,
      "▁bili": 2689,
      "▁sayın": 2690,
      "▁catısma": 2691,
      "▁sokaklarında": 2692,
      "▁tesisten": 2693,
      "▁hissine": 2694,
      "gınlık": 2695,
      "▁otuz": 2696,
      "▁ceyrekte": 2697,
      "▁yud": 2698,
      "▁kazancın": 2699,
      "▁acısıyla": 2700,
      "▁giderleri": 2701,
      "▁bakanlar": 2702,
      "▁bilgilendirilmek": 2703,
      "▁fonlarına": 2704,
      "▁kattan": 2705,
      "▁takipsizlik": 2706,
      "▁kuvvetin": 2707,
      "▁otomobile": 2708,
      "▁inis": 2709,
      "atlı": 2710,
      "ern": 2711,
      "ga": 2712,
      "▁gozle": 2713,
      "▁gunes": 2714,
      "ıverdi": 2715,
      "▁iptal": 2716,
      "ud": 2717,
      "▁istanbul'a": 2718,
      "▁bob": 2719,
      "▁islemciler": 2720,
      "▁gorevden": 2721,
      "▁ism": 2722,
      "lamam": 2723,
      "▁icermektedir": 2724,
      "▁bircogu": 2725,
      "▁bahar": 2726,
      "▁fısıltı": 2727,
      "tusu": 2728,
      "▁gelme": 2729,
      "▁berbat": 2730,
      "ıslı": 2731,
      "bol": 2732,
      "▁cumle": 2733,
      "▁dusundum": 2734,
      "▁listeleyin": 2735,
      "▁alıntı": 2736,
      "▁pacific": 2737,
      "▁cic": 2738,
      "▁alabil": 2739,
      "▁vapurun": 2740,
      "▁dort": 2741,
      "▁ikinc": 2742,
      "▁topları": 2743,
      "▁olculere": 2744,
      "acagini": 2745,
      "▁sonucunu": 2746,
      "▁…": 2747,
      "eginiz": 2748,
      "memistim": 2749,
      "desinde": 2750,
      "▁odada": 2751,
      "▁kanuna": 2752,
      "ali": 2753,
      "osunun": 2754,
      "agon": 2755,
      "▁sakaya": 2756,
      "▁notu": 2757,
      "erindeki": 2758,
      "▁milyonluk": 2759,
      "▁altmıs": 2760,
      "utlu": 2761,
      "▁tuh": 2762,
      "▁kurtarma": 2763,
      "ner": 2764,
      "▁petrol": 2765,
      "▁tutt": 2766,
      "▁ne": 2767,
      "▁kitab": 2768,
      "▁masal": 2769,
      "▁tamir": 2770,
      "▁kendisinden": 2771,
      "tıgı": 2772,
      "urlar": 2773,
      "▁parkta": 2774,
      "▁kopya": 2775,
      "▁isletmeleri": 2776,
      "▁isimlerini": 2777,
      "▁apartman": 2778,
      "luyor": 2779,
      "▁toplantının": 2780,
      "angi": 2781,
      "▁fonu": 2782,
      "▁ediyor": 2783,
      "▁japon": 2784,
      "arındaki": 2785,
      "▁yonlerden": 2786,
      "▁koye": 2787,
      "▁dolusu": 2788,
      "▁um": 2789,
      "▁elimde": 2790,
      "▁komsu": 2791,
      "▁animasyon": 2792,
      "▁kisiye": 2793,
      "▁koseyi": 2794,
      "nak": 2795,
      "giliz": 2796,
      "▁kaybetti": 2797,
      "uzey": 2798,
      "▁surer": 2799,
      "ustuk": 2800,
      "▁patlıcanı": 2801,
      "▁hukumeti": 2802,
      "ısından": 2803,
      "▁avrupa": 2804,
      "▁airlines'in": 2805,
      "emle": 2806,
      "ann": 2807,
      "▁om": 2808,
      "▁nuf": 2809,
      "▁cam": 2810,
      "▁serbest": 2811,
      "▁yavasca": 2812,
      "▁inat": 2813,
      "▁piyas": 2814,
      "▁uyarısında": 2815,
      "▁uste": 2816,
      "▁dey": 2817,
      "▁toprak": 2818,
      "suzlugunu": 2819,
      "▁rezerv": 2820,
      "▁sehrinde": 2821,
      "▁olup": 2822,
      "▁misafirimizle": 2823,
      "▁ruzgarların": 2824,
      "arak": 2825,
      "▁bahcı": 2826,
      "▁set": 2827,
      "▁beline": 2828,
      "▁ilgiyi": 2829,
      "▁rıhtım": 2830,
      "aki": 2831,
      "▁duy": 2832,
      "▁lar": 2833,
      "ısal": 2834,
      "▁strate": 2835,
      "agoz": 2836,
      "▁hayatın": 2837,
      "oludur": 2838,
      "▁yapılandır": 2839,
      "is": 2840,
      "anet": 2841,
      "▁anlarda": 2842,
      "▁keb": 2843,
      "6": 2844,
      "▁yetenegi": 2845,
      "▁baslamıstı": 2846,
      "▁havuzdan": 2847,
      "▁un": 2848,
      "▁gorusmeleri": 2849,
      "▁agb": 2850,
      "▁alar": 2851,
      "▁adamın": 2852,
      "▁...": 2853,
      "▁yonetiminde": 2854,
      "▁bahce": 2855,
      "▁fabr": 2856,
      "▁yapmadıgını": 2857,
      "ıyorlardı": 2858,
      "ladıgı": 2859,
      "▁kalorifer": 2860,
      "▁saksı": 2861,
      "▁munaseb": 2862,
      "▁muess": 2863,
      "▁ruhunu": 2864,
      "▁calısanlarının": 2865,
      "▁evimize": 2866,
      "keti": 2867,
      "▁fran": 2868,
      "▁tuhaf": 2869,
      "▁duygularını": 2870,
      "▁odasının": 2871,
      "▁sakınca": 2872,
      "▁edecegim": 2873,
      "▁malz": 2874,
      "▁dolabın": 2875,
      "▁haric": 2876,
      "▁hus": 2877,
      "▁ucte": 2878,
      "▁hizmetini": 2879,
      "▁ustası": 2880,
      "▁beygir": 2881,
      "▁gorevlisi": 2882,
      "▁oyunlar": 2883,
      "ıgından": 2884,
      "▁zevk": 2885,
      "▁matematik": 2886,
      "ası": 2887,
      "▁sanatcı": 2888,
      "▁tatbik": 2889,
      "otte": 2890,
      "attan": 2891,
      "▁saatin": 2892,
      "▁kuz": 2893,
      "▁askerler": 2894,
      "▁saglamak": 2895,
      "anan": 2896,
      "▁depremden": 2897,
      "▁pir": 2898,
      "▁surat": 2899,
      "▁kalor": 2900,
      "▁bereket": 2901,
      "isli": 2902,
      "▁poker": 2903,
      "arını": 2904,
      "▁ogrenc": 2905,
      "lesinin": 2906,
      "▁cesmenin": 2907,
      "▁verileri": 2908,
      "▁obj": 2909,
      "▁tasarısı": 2910,
      "kam": 2911,
      "▁derecelen": 2912,
      "▁saati": 2913,
      "sanız": 2914,
      "▁pittsburgh'tan": 2915,
      "▁durum": 2916,
      "endir": 2917,
      "0.": 2918,
      "▁sokaga": 2919,
      "▁atların": 2920,
      "eligini": 2921,
      "▁kenarına": 2922,
      "▁bel": 2923,
      "▁yeter": 2924,
      "▁ogret": 2925,
      "▁yuze": 2926,
      "▁ode": 2927,
      "▁birlesme": 2928,
      "▁algı": 2929,
      "▁ilce": 2930,
      "▁budak": 2931,
      "▁yeng": 2932,
      "‘": 2933,
      "▁yılında": 2934,
      "diklerinde": 2935,
      "larınızla": 2936,
      "▁kararın": 2937,
      "▁trib": 2938,
      "▁borsası'nda": 2939,
      "▁bildigi": 2940,
      "ligimin": 2941,
      "▁varlıklar": 2942,
      "mos": 2943,
      "▁alımlar": 2944,
      "▁yanları": 2945,
      "▁ankete": 2946,
      "▁kaps": 2947,
      "▁kenara": 2948,
      "▁zorla": 2949,
      "▁indian": 2950,
      "old": 2951,
      "▁siyas": 2952,
      "▁yorumlara": 2953,
      "▁yapmadim": 2954,
      "▁kondu": 2955,
      "▁trafik": 2956,
      "▁res": 2957,
      "ukca": 2958,
      "▁oturumda": 2959,
      "lob": 2960,
      "▁yılan": 2961,
      "▁iliskin": 2962,
      "▁duydu": 2963,
      "▁secimleri": 2964,
      "▁keci": 2965,
      "▁terzi": 2966,
      "tili": 2967,
      "▁gozlerden": 2968,
      "tikce": 2969,
      "▁seyh": 2970,
      "erik": 2971,
      "▁`": 2972,
      "ıs": 2973,
      "'un": 2974,
      "cag": 2975,
      "ur": 2976,
      "▁doktorun": 2977,
      "▁nabz": 2978,
      "▁sirketler": 2979,
      "▁sonucları": 2980,
      "▁aldıgını": 2981,
      "▁iyiles": 2982,
      "leniyor": 2983,
      "▁atmosfer": 2984,
      "▁kafayı": 2985,
      "▁isini": 2986,
      "▁mutemadiyen": 2987,
      "▁mukelle": 2988,
      "▁telefonuma": 2989,
      "▁imtiy": 2990,
      "▁kitaplarını": 2991,
      "ceyr": 2992,
      "▁terbiye": 2993,
      "▁mufet": 2994,
      "▁mekana": 2995,
      "▁inanclar": 2996,
      "▁1980'lerin": 2997,
      "▁reklamların": 2998,
      "asyon": 2999,
      "▁selam": 3000,
      "▁onerisi": 3001,
      "▁halden": 3002,
      "▁fert": 3003,
      "lul": 3004,
      "▁kısıtlaması": 3005,
      "tema": 3006,
      "▁olma": 3007,
      "▁filmi": 3008,
      "▁lut": 3009,
      "amızı": 3010,
      "lıdır": 3011,
      "▁odami": 3012,
      "▁baltimore'ye": 3013,
      "lıc": 3014,
      "▁dim": 3015,
      "▁kendinin": 3016,
      "▁katal": 3017,
      "▁ayd": 3018,
      "▁gerceklik": 3019,
      "▁42": 3020,
      "ımı": 3021,
      "▁8'de": 3022,
      "▁golgesinde": 3023,
      "sis": 3024,
      "yı": 3025,
      "▁gerdan": 3026,
      "▁mel": 3027,
      "▁teklifte": 3028,
      "▁mahk": 3029,
      "▁projenin": 3030,
      "▁icimi": 3031,
      "▁degerinde": 3032,
      "▁rehberim": 3033,
      "▁yun": 3034,
      "ize": 3035,
      "▁yuzle": 3036,
      "▁sok": 3037,
      "▁mode": 3038,
      "uza": 3039,
      "▁varlıgın": 3040,
      "▁sopa": 3041,
      "▁sorusturma": 3042,
      "▁elemanlar": 3043,
      "▁oglunun": 3044,
      "▁tasıt": 3045,
      "▁dunyada": 3046,
      "▁tasarruflar": 3047,
      "▁asagıda": 3048,
      "▁kriz": 3049,
      "ıydı": 3050,
      "▁yeteri": 3051,
      "▁basbak": 3052,
      "▁onar": 3053,
      "▁sacma": 3054,
      "▁hizmetten": 3055,
      "▁ulasimi": 3056,
      "▁hayalleri": 3057,
      "anının": 3058,
      "▁yemeklerini": 3059,
      "▁koru": 3060,
      "▁vadesi": 3061,
      "▁cim": 3062,
      "▁kumas": 3063,
      "gıcı": 3064,
      "▁teslim": 3065,
      "afeti": 3066,
      "▁toplamaya": 3067,
      "▁temizlikte": 3068,
      "▁domates": 3069,
      "▁uygulama": 3070,
      "▁raf": 3071,
      "▁karsılastırıldıgında": 3072,
      "▁zamankinden": 3073,
      "cası": 3074,
      "▁verdigimiz": 3075,
      "▁cumhur": 3076,
      "▁mintan": 3077,
      "▁zaferi": 3078,
      "medik": 3079,
      "ayla": 3080,
      "▁uzaga": 3081,
      "▁saman": 3082,
      "▁cumhuriyetci": 3083,
      "▁havadan": 3084,
      "▁mektuplar": 3085,
      "▁benim": 3086,
      "ligin": 3087,
      "▁tur": 3088,
      "▁his": 3089,
      "▁vasıf": 3090,
      "▁asans": 3091,
      "▁genellikle": 3092,
      "▁ailesi": 3093,
      "gıt": 3094,
      "▁oldukları": 3095,
      "▁kosesinden": 3096,
      "▁pop": 3097,
      "▁anlamı": 3098,
      "▁gozumde": 3099,
      "▁ekonomisinin": 3100,
      "▁bos": 3101,
      "nın": 3102,
      "▁hat": 3103,
      "▁gunde": 3104,
      "▁eskiydi": 3105,
      "arson": 3106,
      "▁ilgisizlik": 3107,
      "▁konusmaya": 3108,
      "▁soval": 3109,
      "▁varlıkların": 3110,
      "▁musterileri": 3111,
      "▁portfoy": 3112,
      "lulerin": 3113,
      "eri": 3114,
      "▁kanunla": 3115,
      "▁seslere": 3116,
      "▁havlu": 3117,
      "▁teb": 3118,
      "▁gazeteler": 3119,
      "▁fonun": 3120,
      "▁gulery": 3121,
      "▁suyla": 3122,
      "▁corba": 3123,
      "▁mukemmel": 3124,
      "▁havuzu": 3125,
      "▁sınav": 3126,
      "▁cayır": 3127,
      "▁gugum": 3128,
      "emiydi": 3129,
      "▁yuzbası": 3130,
      "▁duyguların": 3131,
      "▁avantaj": 3132,
      "layarak": 3133,
      "▁expr": 3134,
      "▁araplar": 3135,
      "▁varlıgını": 3136,
      "hur": 3137,
      "▁sirket": 3138,
      "▁konuma": 3139,
      "▁ederek": 3140,
      "▁insanların": 3141,
      "▁gre": 3142,
      "▁ad": 3143,
      "emeyecegini": 3144,
      "▁vucuda": 3145,
      "▁uretiminde": 3146,
      "▁tumu": 3147,
      "▁ihtilaf": 3148,
      "▁temizligi": 3149,
      "▁sog": 3150,
      "▁hırsızlar": 3151,
      "▁org": 3152,
      "itler": 3153,
      "tmis": 3154,
      "▁bilgilerini": 3155,
      "▁mum": 3156,
      "▁pencerenin": 3157,
      "▁atlanta'ya": 3158,
      "▁hırsızlık": 3159,
      "▁koseye": 3160,
      "▁acik": 3161,
      "aklık": 3162,
      "▁yt": 3163,
      "▁aynısını": 3164,
      "▁istasyonda": 3165,
      "▁sanatkar": 3166,
      "▁sormak": 3167,
      "ıstır": 3168,
      "▁kims": 3169,
      "▁adında": 3170,
      "▁ozellikle": 3171,
      "▁havale": 3172,
      "▁ilg": 3173,
      "▁tamamlanması": 3174,
      "asıdır": 3175,
      "dugu": 3176,
      "▁donemi": 3177,
      "▁memnunum": 3178,
      "▁pekala": 3179,
      "sızın": 3180,
      "▁kime": 3181,
      "ecekti": 3182,
      ".ceyr": 3183,
      "▁sorusuna": 3184,
      "▁bulamac": 3185,
      "▁kaldırımın": 3186,
      "▁onlerine": 3187,
      "▁varıs": 3188,
      "▁kalitesi": 3189,
      "▁deliye": 3190,
      "▁yenilen": 3191,
      "gor": 3192,
      "▁durmadan": 3193,
      "▁mikrop": 3194,
      "▁dansı": 3195,
      "▁banyo": 3196,
      "▁sonr": 3197,
      "ol": 3198,
      "etler": 3199,
      "▁sureci": 3200,
      "▁birbirini": 3201,
      "▁yasıyor": 3202,
      "▁ormanları": 3203,
      "▁soyledik": 3204,
      "▁geyikleri": 3205,
      "ılıyordu": 3206,
      "met": 3207,
      "▁mir": 3208,
      "▁uretiyor": 3209,
      "▁atıyor": 3210,
      "▁kurulunda": 3211,
      "mazlık": 3212,
      "▁iy": 3213,
      "lılıg": 3214,
      "▁bilin": 3215,
      "▁ankara": 3216,
      "▁oteden": 3217,
      "▁cizgi": 3218,
      "▁pac": 3219,
      "▁baskent": 3220,
      "anından": 3221,
      "▁rakamları": 3222,
      "▁heye": 3223,
      "▁birinde": 3224,
      "▁unite": 3225,
      "▁sehri": 3226,
      "▁kargasa": 3227,
      "lasa": 3228,
      "▁beyzbol": 3229,
      "▁tuketic": 3230,
      "▁katında": 3231,
      "▁dinler": 3232,
      "▁goruyorum": 3233,
      "▁gozlerimi": 3234,
      "▁iyims": 3235,
      "▁calısıyor": 3236,
      "lugune": 3237,
      "▁kokulu": 3238,
      "bac": 3239,
      "▁omuzlarına": 3240,
      "ysa": 3241,
      "▁verimli": 3242,
      "▁sırtı": 3243,
      "▁istirak": 3244,
      "▁vurgu": 3245,
      "▁sonraki": 3246,
      "▁mirası": 3247,
      "▁ai": 3248,
      "▁anlasmaları": 3249,
      "▁bıyıkları": 3250,
      "▁saglıyor": 3251,
      "madıgı": 3252,
      "▁pantolonunu": 3253,
      "▁gogsunu": 3254,
      "▁paylas": 3255,
      "▁siirler": 3256,
      "ıcının": 3257,
      "▁gorusu": 3258,
      "▁yapması": 3259,
      "▁polem": 3260,
      "▁tal": 3261,
      "▁corap": 3262,
      "▁yemegin": 3263,
      "▁arad": 3264,
      "▁tutuk": 3265,
      "▁teror": 3266,
      "▁valisi": 3267,
      "▁patlıcan": 3268,
      "▁tavrı": 3269,
      "▁yarad": 3270,
      "▁hattı": 3271,
      "eceginden": 3272,
      "▁ilgisizdi": 3273,
      "▁kapısında": 3274,
      "▁ayrık": 3275,
      "▁bakkal": 3276,
      "▁hazir": 3277,
      "▁temp": 3278,
      "rada": 3279,
      "▁sı": 3280,
      "▁genelinde": 3281,
      "▁kampanyalardan": 3282,
      "▁amerika": 3283,
      "▁iltif": 3284,
      "▁nesir": 3285,
      "yon": 3286,
      "▁tesir": 3287,
      "ekti": 3288,
      "lamanın": 3289,
      "▁tutma": 3290,
      "▁jose": 3291,
      "av": 3292,
      "▁olus": 3293,
      "▁kaybe": 3294,
      "▁7'den": 3295,
      "▁kenar": 3296,
      "▁yardımc": 3297,
      "▁simdiden": 3298,
      "ad": 3299,
      "aya": 3300,
      "▁parm": 3301,
      "larından": 3302,
      "▁geleni": 3303,
      "▁haberler": 3304,
      "▁papaz": 3305,
      "▁kambiyo": 3306,
      "var": 3307,
      "▁katildim": 3308,
      "▁alanlarında": 3309,
      "▁sif": 3310,
      "▁kaba": 3311,
      "▁maas": 3312,
      "▁misafire": 3313,
      "▁etrafı": 3314,
      "▁olum": 3315,
      "▁kapanıs": 3316,
      "▁gazetesinin": 3317,
      "▁benzerlik": 3318,
      "uy": 3319,
      "▁derv": 3320,
      "▁miktar": 3321,
      "▁espri": 3322,
      "bab": 3323,
      "▁cevre": 3324,
      "▁cadde": 3325,
      "▁bulgur": 3326,
      "vil": 3327,
      "ribut": 3328,
      "▁varil": 3329,
      "gısını": 3330,
      "▁planı": 3331,
      "▁kampanyası": 3332,
      "▁odun": 3333,
      "▁birimini": 3334,
      "▁yeten": 3335,
      "▁yazarları": 3336,
      "▁portf": 3337,
      "▁1.": 3338,
      "▁soyun": 3339,
      "▁huner": 3340,
      "▁25": 3341,
      "▁sorunlarının": 3342,
      "▁noh": 3343,
      "▁kupon": 3344,
      "▁elimle": 3345,
      "▁digerine": 3346,
      "▁abon": 3347,
      "▁soyledim": 3348,
      "kum": 3349,
      "vert": 3350,
      "how": 3351,
      "ati": 3352,
      "▁cercevesinde": 3353,
      "▁dolma": 3354,
      "▁anladı": 3355,
      "▁kaldırım": 3356,
      "▁hastalar": 3357,
      "san": 3358,
      "izlik": 3359,
      "asi": 3360,
      "▁satıslardan": 3361,
      "▁oak": 3362,
      "▁ensesine": 3363,
      "mur": 3364,
      "▁yelpaz": 3365,
      "▁6'dan": 3366,
      "▁boks": 3367,
      "▁ogretmen": 3368,
      "aga": 3369,
      "▁buyuk": 3370,
      "abz": 3371,
      "▁daireleri": 3372,
      "▁sulara": 3373,
      "▁karlar": 3374,
      "▁ula": 3375,
      "▁karsılıgını": 3376,
      "ota": 3377,
      "▁isimizi": 3378,
      "▁acılıyor": 3379,
      "▁ilcesinde": 3380,
      "▁arzı": 3381,
      "▁tumuyle": 3382,
      "▁kim": 3383,
      "▁zarfın": 3384,
      "tanın": 3385,
      "▁temiz": 3386,
      "▁esy": 3387,
      "▁ziyafet": 3388,
      "▁dogrusunu": 3389,
      "▁yengec": 3390,
      "ksan": 3391,
      "▁oda": 3392,
      "ilmaz": 3393,
      "▁sen": 3394,
      "▁uzeri": 3395,
      "▁dahilinde": 3396,
      "▁9'da": 3397,
      "asından": 3398,
      "▁yakin": 3399,
      "▁ray": 3400,
      "▁dul": 3401,
      "▁titriyordu": 3402,
      "▁philadelphia": 3403,
      "▁tavan": 3404,
      "▁kapatıl": 3405,
      "▁mahkemesi": 3406,
      "▁karab": 3407,
      "▁yanından": 3408,
      "lenecek": 3409,
      "▁hastası": 3410,
      "▁calık": 3411,
      "▁elektron": 3412,
      "▁yonu": 3413,
      "▁arif": 3414,
      "ımızda": 3415,
      "▁sabrı": 3416,
      "▁corbası": 3417,
      "dıgınız": 3418,
      "▁basvuru": 3419,
      "▁ihracının": 3420,
      "it": 3421,
      "▁fikr": 3422,
      "▁arm": 3423,
      "▁urunlerde": 3424,
      "▁sekilde": 3425,
      "ebilmek": 3426,
      "▁mumu": 3427,
      "▁ense": 3428,
      "▁donen": 3429,
      "▁etkisi": 3430,
      "▁havayı": 3431,
      "▁icaz": 3432,
      "amadıgını": 3433,
      "on": 3434,
      "▁babamı": 3435,
      "ılması": 3436,
      "▁kadir": 3437,
      "▁yayın": 3438,
      "▁bahceyi": 3439,
      "▁orgut": 3440,
      "▁ortada": 3441,
      "▁yurt": 3442,
      "rill": 3443,
      "▁kulag": 3444,
      "imum": 3445,
      "▁paydos": 3446,
      "yacagı": 3447,
      "▁gelistirme": 3448,
      "ily": 3449,
      "iyle": 3450,
      "▁orn": 3451,
      "▁santral": 3452,
      "▁anac": 3453,
      "opter": 3454,
      "▁akrab": 3455,
      "▁fil": 3456,
      "lendir": 3457,
      "▁temin": 3458,
      "▁tezk": 3459,
      "▁kurustan": 3460,
      "▁sum": 3461,
      "▁sirkete": 3462,
      "▁goruntusu": 3463,
      "▁mater": 3464,
      "▁kusk": 3465,
      "▁uzere": 3466,
      "▁yana": 3467,
      "masız": 3468,
      "▁bırakıp": 3469,
      "lamıyor": 3470,
      "▁ediyorlardı": 3471,
      "anlar": 3472,
      "▁ayri": 3473,
      "0'den": 3474,
      "▁pansiyonda": 3475,
      "obil": 3476,
      "▁1989": 3477,
      "▁dedig": 3478,
      "tin": 3479,
      "dıgını": 3480,
      "▁manasıyla": 3481,
      "rne": 3482,
      "nla": 3483,
      "iyetine": 3484,
      "▁kanaat": 3485,
      "▁dizgin": 3486,
      "▁100": 3487,
      "▁nush": 3488,
      "▁genclere": 3489,
      "▁birahan": 3490,
      "▁nes": 3491,
      "▁sitesinden": 3492,
      "▁tadima": 3493,
      "▁zaaf": 3494,
      "▁gelmesini": 3495,
      "inn": 3496,
      "▁satısını": 3497,
      "▁baskı": 3498,
      "▁tercih": 3499,
      "▁katk": 3500,
      "▁havanın": 3501,
      "▁cagr": 3502,
      "▁vb": 3503,
      "▁yazıyor": 3504,
      "▁arkadasa": 3505,
      "▁tespit": 3506,
      "▁topragın": 3507,
      "▁odasında": 3508,
      "▁yoluyla": 3509,
      "ilini": 3510,
      "▁kullanılıyor": 3511,
      "▁parmakları": 3512,
      "▁girip": 3513,
      "ligi": 3514,
      "▁analizi": 3515,
      "▁diye": 3516,
      "▁islemci": 3517,
      "bere": 3518,
      "▁baca": 3519,
      "▁35": 3520,
      "▁onunden": 3521,
      "▁ettik": 3522,
      "▁1": 3523,
      "▁abdul": 3524,
      "▁yakın": 3525,
      "▁dakik": 3526,
      "▁yahut": 3527,
      "▁yuzunde": 3528,
      "▁kısıtlamasını": 3529,
      "▁kadını": 3530,
      "▁oncul": 3531,
      "lendim": 3532,
      "▁camur": 3533,
      "kor": 3534,
      "▁varsa": 3535,
      "▁davalar": 3536,
      "▁suratı": 3537,
      "▁alternatif": 3538,
      "uldum": 3539,
      "lilig": 3540,
      "▁sozune": 3541,
      "usun": 3542,
      "▁dostu": 3543,
      "▁gelisim": 3544,
      "▁vardi": 3545,
      "h": 3546,
      "▁bekar": 3547,
      "ber": 3548,
      "5": 3549,
      "▁yuzden": 3550,
      "▁pl": 3551,
      "▁bagırsak": 3552,
      "▁sayfa": 3553,
      "▁id": 3554,
      "▁yabancı": 3555,
      "▁bulur": 3556,
      "din": 3557,
      "lirken": 3558,
      "▁adamları": 3559,
      "▁dibine": 3560,
      "▁puan": 3561,
      "▁kotu": 3562,
      "▁gruplar": 3563,
      "▁kork": 3564,
      "▁oylama": 3565,
      "5'": 3566,
      "▁onum": 3567,
      "▁hamlede": 3568,
      "▁nota": 3569,
      "ine": 3570,
      "▁muhtır": 3571,
      "▁seferinde": 3572,
      "▁'lı": 3573,
      "▁sirkette": 3574,
      "etsiz": 3575,
      "▁yanı": 3576,
      "▁ap": 3577,
      "▁akım": 3578,
      "▁konumda": 3579,
      "▁tev": 3580,
      "▁send": 3581,
      "lanma": 3582,
      "▁stat": 3583,
      "▁esnasında": 3584,
      "▁yetki": 3585,
      "▁ney": 3586,
      "▁kendimize": 3587,
      "▁dama": 3588,
      "▁ihtiyacımız": 3589,
      "▁tuyu": 3590,
      "▁puani": 3591,
      "▁cıkardı": 3592,
      "bilecegini": 3593,
      "dadı": 3594,
      "▁yurumeye": 3595,
      "▁kızına": 3596,
      "erans": 3597,
      "▁sonuna": 3598,
      "▁kemal": 3599,
      "tac": 3600,
      "▁iti": 3601,
      "for": 3602,
      "▁civarı": 3603,
      "▁icini": 3604,
      "▁sozde": 3605,
      "▁pap": 3606,
      "▁ogluna": 3607,
      "▁soyleyebilir": 3608,
      "▁kun": 3609,
      "▁kitaba": 3610,
      "▁beyler": 3611,
      "▁tacirler": 3612,
      "▁askerlerle": 3613,
      "▁dak": 3614,
      "nuz": 3615,
      "▁urunu": 3616,
      "cılıgın": 3617,
      "▁lıgı": 3618,
      "▁ankar": 3619,
      "▁tokyo": 3620,
      "iciye": 3621,
      "ecilik": 3622,
      "▁konu": 3623,
      "▁ulasa": 3624,
      "▁kaldırma": 3625,
      "zet": 3626,
      "▁sartları": 3627,
      "▁parayla": 3628,
      "▁yaslarına": 3629,
      "▁iskem": 3630,
      "▁yası": 3631,
      "▁cama": 3632,
      "▁yonuyle": 3633,
      "▁askı": 3634,
      "gu": 3635,
      "▁almalar": 3636,
      "▁bagımlılıgı": 3637,
      "hti": 3638,
      "▁agaclarının": 3639,
      "▁business": 3640,
      "lıgıyla": 3641,
      "▁iyice": 3642,
      "ington": 3643,
      "▁resmin": 3644,
      "▁otomotiv": 3645,
      "▁fez": 3646,
      "▁yaver": 3647,
      "▁mens": 3648,
      "▁odev": 3649,
      "▁tehd": 3650,
      "▁sirk": 3651,
      "▁vs": 3652,
      "▁unut": 3653,
      "▁aksaklik": 3654,
      "▁yapamaz": 3655,
      "▁dinle": 3656,
      "or": 3657,
      "lemis": 3658,
      "iyorsunuz": 3659,
      "▁gunlerden": 3660,
      "▁10": 3661,
      "▁hurmet": 3662,
      "▁halen": 3663,
      "ta": 3664,
      "▁mood": 3665,
      "▁dilleri": 3666,
      "umk": 3667,
      "▁iliskileri": 3668,
      "▁yolun": 3669,
      "▁artan": 3670,
      "islari": 3671,
      "lerim": 3672,
      "▁birinin": 3673,
      "▁onde": 3674,
      "▁maliyetlerini": 3675,
      "▁baska": 3676,
      "ilik": 3677,
      "▁haziran": 3678,
      "▁yatır": 3679,
      "▁hasret": 3680,
      "lugunda": 3681,
      "▁elem": 3682,
      "ian": 3683,
      "▁tulb": 3684,
      "maz": 3685,
      "▁bi": 3686,
      "▁firar": 3687,
      "sim": 3688,
      "▁amerikalılar": 3689,
      "mayacagını": 3690,
      "luye": 3691,
      "▁onlemler": 3692,
      "ikasyon": 3693,
      "siy": 3694,
      "digine": 3695,
      "▁war": 3696,
      "▁baglilik": 3697,
      "▁kacta": 3698,
      "▁hep": 3699,
      "▁sel": 3700,
      "ed": 3701,
      "▁ailesinden": 3702,
      "▁kırıs": 3703,
      "▁muz": 3704,
      "▁asker": 3705,
      "osu": 3706,
      "▁aydın": 3707,
      "▁mantık": 3708,
      "▁operasyonlarını": 3709,
      "▁dilinin": 3710,
      "▁rıhtıma": 3711,
      "▁reorganizasyon": 3712,
      "▁durgun": 3713,
      "▁hav": 3714,
      "▁hareketler": 3715,
      "danoz": 3716,
      "emeyi": 3717,
      "▁bulabil": 3718,
      "teci": 3719,
      "▁balıkcılar": 3720,
      "▁gozume": 3721,
      "muyordu": 3722,
      "▁derdi": 3723,
      "▁ve": 3724,
      "▁bogurt": 3725,
      "▁gozalt": 3726,
      "▁altın": 3727,
      "anlarim": 3728,
      "▁polis": 3729,
      "▁bula": 3730,
      "▁olaylar": 3731,
      "▁cesaret": 3732,
      "ılımı": 3733,
      "▁kotuydu": 3734,
      "▁eglen": 3735,
      "▁hizmetleri": 3736,
      "▁hemen": 3737,
      "▁odak": 3738,
      "▁segment": 3739,
      "▁alıcıları": 3740,
      "▁alttan": 3741,
      "▁apıs": 3742,
      "▁modeller": 3743,
      "▁vade": 3744,
      "▁yon": 3745,
      "▁hey": 3746,
      "▁1.1": 3747,
      "▁sal": 3748,
      "▁sahiptir": 3749,
      "▁muhab": 3750,
      "▁misafiri": 3751,
      "▁soylendi": 3752,
      "▁teknoloji": 3753,
      "▁ver": 3754,
      "▁olmayan": 3755,
      "▁bankası": 3756,
      "lenir": 3757,
      "▁hatıraları": 3758,
      "▁bosalt": 3759,
      "▁mukemmeldi": 3760,
      "▁ruhundan": 3761,
      "masa": 3762,
      "▁cekisme": 3763,
      "▁ilgilenmedi": 3764,
      "▁icer": 3765,
      "▁solda": 3766,
      "▁omrunun": 3767,
      "▁hazırlanan": 3768,
      "▁talip": 3769,
      "▁sicak": 3770,
      "▁yollar": 3771,
      "isten": 3772,
      "▁malzemeleri": 3773,
      "tat": 3774,
      "imiz": 3775,
      "'e": 3776,
      "▁kaptan": 3777,
      "▁memurlar": 3778,
      "▁indirimi": 3779,
      "ekte": 3780,
      "▁gectigini": 3781,
      "▁dezav": 3782,
      "▁aygıt": 3783,
      "▁co": 3784,
      "▁yasını": 3785,
      "▁ucmanın": 3786,
      "onik": 3787,
      "aladıgını": 3788,
      "▁northwest": 3789,
      "▁salın": 3790,
      "▁skandal": 3791,
      "▁evlerde": 3792,
      "▁resmini": 3793,
      "lemeler": 3794,
      "▁saka": 3795,
      "▁dest": 3796,
      "▁elleri": 3797,
      "▁isra": 3798,
      "▁bekliyordu": 3799,
      "ıgıyla": 3800,
      "▁ch": 3801,
      "▁yılki": 3802,
      "▁calısanların": 3803,
      "▁kimligi": 3804,
      "▁terorizm": 3805,
      "▁calisanlardan": 3806,
      "▁dalkav": 3807,
      "▁yonetmen": 3808,
      "aman": 3809,
      "▁dayanagı": 3810,
      "▁yaklasımı": 3811,
      "▁yayım": 3812,
      "▁titizlik": 3813,
      "▁yureginde": 3814,
      "▁odadan": 3815,
      "▁dedi": 3816,
      "lanan": 3817,
      "▁sabahı": 3818,
      "▁sp": 3819,
      "▁planlıyor": 3820,
      "▁kapsa": 3821,
      "▁fan": 3822,
      "ıla": 3823,
      "▁konusu": 3824,
      "▁yusuf": 3825,
      "dadır": 3826,
      "▁olc": 3827,
      "▁dusunuyordu": 3828,
      "▁ortalık": 3829,
      "▁muallim": 3830,
      "▁gunahı": 3831,
      "os": 3832,
      "▁eger": 3833,
      "▁ikam": 3834,
      "▁olumunden": 3835,
      "▁olmasına": 3836,
      "▁eas": 3837,
      "▁tansiyon": 3838,
      "▁fab": 3839,
      "▁netic": 3840,
      "▁qu": 3841,
      "▁gozunun": 3842,
      "▁etmeyecegini": 3843,
      "▁gunlerinden": 3844,
      "▁fonksiyon": 3845,
      "▁temsilcisi": 3846,
      "▁mır": 3847,
      "▁vurgun": 3848,
      "▁kain": 3849,
      "▁bilmiyor": 3850,
      "▁cin": 3851,
      "▁kredi": 3852,
      "▁piyasasını": 3853,
      "eyecek": 3854,
      "▁kural": 3855,
      "▁harek": 3856,
      "makta": 3857,
      "▁bolg": 3858,
      "▁kadınla": 3859,
      "▁luzum": 3860,
      "▁milyarlar": 3861,
      "acakları": 3862,
      "▁gorusmeyi": 3863,
      "tu": 3864,
      "ce": 3865,
      "▁avcı": 3866,
      "▁ogretmenler": 3867,
      "▁aklın": 3868,
      "▁yaz": 3869,
      "▁havaalanı": 3870,
      "lendigini": 3871,
      "▁bagı": 3872,
      "▁olmasina": 3873,
      "'i": 3874,
      "▁city'den": 3875,
      "ilet": 3876,
      "▁on": 3877,
      "▁isinden": 3878,
      "▁hizmetlerinin": 3879,
      "▁mamafi": 3880,
      "lan": 3881,
      "▁hedef": 3882,
      "use": 3883,
      "▁dayanıs": 3884,
      "▁borca": 3885,
      "▁korkusuyla": 3886,
      "▁iliskiye": 3887,
      "▁sask": 3888,
      "atur": 3889,
      "ılmasına": 3890,
      "▁etmiyor": 3891,
      "▁oyuncak": 3892,
      "▁pasif": 3893,
      "▁kentin": 3894,
      "▁uyeligini": 3895,
      "▁degildi": 3896,
      "ormal": 3897,
      "▁temer": 3898,
      "▁ipotek": 3899,
      "▁telif": 3900,
      "▁sunumu": 3901,
      "▁nihai": 3902,
      "▁konser": 3903,
      "ice": 3904,
      "▁doruk": 3905,
      "▁kuvvetli": 3906,
      "▁sozles": 3907,
      "▁cılgın": 3908,
      "▁aktivite": 3909,
      "▁tarifeleri": 3910,
      "ameti": 3911,
      "▁programlar": 3912,
      "bul": 3913,
      "▁ortasında": 3914,
      "▁alana": 3915,
      "▁``": 3916,
      "▁sizler": 3917,
      "▁sesler": 3918,
      "uyu": 3919,
      "ınt": 3920,
      "▁sasır": 3921,
      "▁salona": 3922,
      "▁etiket": 3923,
      "▁lerin": 3924,
      "▁azade": 3925,
      "▁reklam": 3926,
      "▁tecru": 3927,
      "▁mutfakta": 3928,
      "▁kurallarını": 3929,
      "▁nu": 3930,
      "▁secenekleri": 3931,
      "phis": 3932,
      "▁satımı": 3933,
      "▁dısına": 3934,
      "▁kulak": 3935,
      "▁yetkili": 3936,
      "▁olmadi": 3937,
      "▁qx": 3938,
      "▁gazino": 3939,
      "▁ilgiliydi": 3940,
      "hu": 3941,
      "▁olabil": 3942,
      "▁profesyon": 3943,
      "▁oy": 3944,
      "▁cocukların": 3945,
      "▁secim": 3946,
      "▁oyunun": 3947,
      "▁kısın": 3948,
      "ehan": 3949,
      "▁kardeslik": 3950,
      "▁beraber": 3951,
      "▁gunler": 3952,
      "▁diego'ya": 3953,
      "▁pır": 3954,
      "eyin": 3955,
      "acaklar": 3956,
      "▁finansmanı": 3957,
      "▁muhend": 3958,
      "▁veriyorum": 3959,
      "▁tartısma": 3960,
      "▁cabasına": 3961,
      "▁seydir": 3962,
      "▁bazı": 3963,
      "▁alaka": 3964,
      "▁cins": 3965,
      "▁ugras": 3966,
      "▁54": 3967,
      "aralı": 3968,
      "▁olanagı": 3969,
      "▁gozet": 3970,
      "▁kapısından": 3971,
      "▁yelk": 3972,
      "▁agr": 3973,
      "▁dordu": 3974,
      "▁oranının": 3975,
      "▁sirketlerini": 3976,
      "layın": 3977,
      "▁dolayi": 3978,
      "▁ab": 3979,
      "▁oldugunda": 3980,
      "▁hayır": 3981,
      "▁mav": 3982,
      "▁mudahal": 3983,
      "▁montreal'a": 3984,
      "▁yarattı": 3985,
      "▁talimat": 3986,
      "▁parktan": 3987,
      "▁uzuntu": 3988,
      "▁vazgec": 3989,
      "▁menk": 3990,
      "ktu": 3991,
      "▁3/4'e": 3992,
      "▁oluk": 3993,
      "▁yolunu": 3994,
      "▁parasını": 3995,
      "ktur": 3996,
      "dugune": 3997,
      "▁sozlesmesini": 3998,
      "▁endustrileri": 3999,
      "▁miralay": 4000,
      "▁yasamadik": 4001,
      "▁bildigini": 4002,
      "▁siddetini": 4003,
      "▁in": 4004,
      "▁mevki": 4005,
      "▁tavuk": 4006,
      "ums": 4007,
      "▁oku": 4008,
      "aydi": 4009,
      "▁adamla": 4010,
      "▁hasarı": 4011,
      "lıktan": 4012,
      "▁tersine": 4013,
      "▁fırında": 4014,
      "meger": 4015,
      "▁vakt": 4016,
      "▁lan": 4017,
      "lerimizi": 4018,
      "▁otelin": 4019,
      "▁yavrum": 4020,
      "▁hastalıga": 4021,
      "▁gemiyi": 4022,
      "aliydi": 4023,
      "▁gurultu": 4024,
      "▁kaybeden": 4025,
      "▁satımında": 4026,
      "eklen": 4027,
      "mun": 4028,
      "▁sıkıya": 4029,
      "▁elbet": 4030,
      "▁ısın": 4031,
      "imlerin": 4032,
      "▁goren": 4033,
      "▁dalgası": 4034,
      "ette": 4035,
      "▁burcu": 4036,
      "emeyecegim": 4037,
      "▁kesinlik": 4038,
      "▁sayede": 4039,
      "▁omru": 4040,
      "▁kapısını": 4041,
      "▁lezzetliydi": 4042,
      "▁kust": 4043,
      "ft": 4044,
      "▁etk": 4045,
      "ısında": 4046,
      "eyr": 4047,
      "▁heyeti": 4048,
      "▁problemi": 4049,
      "▁sayi": 4050,
      "▁uretim": 4051,
      "▁fare": 4052,
      "▁kahveyi": 4053,
      "▁alıyor": 4054,
      "▁bonosu": 4055,
      "▁flor": 4056,
      "▁yukarıya": 4057,
      "▁destegini": 4058,
      "esyon": 4059,
      "▁anlatmak": 4060,
      "▁arzusu": 4061,
      "▁nufuz": 4062,
      "▁kaliteli": 4063,
      "urup": 4064,
      "▁yardıma": 4065,
      "▁sakat": 4066,
      "▁sanatı": 4067,
      "▁yıla": 4068,
      "▁ucrete": 4069,
      "▁capta": 4070,
      "▁uretimin": 4071,
      "▁dokundu": 4072,
      "anlarla": 4073,
      "▁rah": 4074,
      "ologlar": 4075,
      "ubet": 4076,
      "▁telefonu": 4077,
      "▁malzemesi": 4078,
      "ile": 4079,
      "▁mukem": 4080,
      "▁zır": 4081,
      "▁acaba": 4082,
      "▁altına": 4083,
      "▁maymun": 4084,
      "▁teshir": 4085,
      "▁sayisi": 4086,
      "▁iadesi": 4087,
      "ligine": 4088,
      "▁arabanın": 4089,
      "▁buyumenin": 4090,
      "▁34": 4091,
      "▁karıstırın": 4092,
      "▁bec": 4093,
      "▁dakikadan": 4094,
      "▁tet": 4095,
      "▁elmayı": 4096,
      "amet": 4097,
      "▁memuriyet": 4098,
      "▁neticeye": 4099,
      "▁evliligin": 4100,
      "▁er": 4101,
      "▁parcasını": 4102,
      "▁sorunları": 4103,
      "▁kullanılır": 4104,
      "rily": 4105,
      "▁kalabalik": 4106,
      "▁br": 4107,
      "▁dısarıdan": 4108,
      "▁tahvillerinin": 4109,
      "▁arası": 4110,
      "etteki": 4111,
      "▁oyuna": 4112,
      "3.2": 4113,
      "▁restor": 4114,
      "▁cerr": 4115,
      "▁kaldırılması": 4116,
      "▁alan": 4117,
      "▁dediler": 4118,
      "▁gencler": 4119,
      "▁yarıs": 4120,
      "▁bakıma": 4121,
      "daydı": 4122,
      "lamasına": 4123,
      "▁getirdi": 4124,
      "▁listele": 4125,
      "▁26": 4126,
      "▁kırlangıc": 4127,
      "▁kir": 4128,
      "▁yukar": 4129,
      "▁yabanci": 4130,
      "▁faaliyet": 4131,
      "▁elinde": 4132,
      "▁almaya": 4133,
      "▁butu": 4134,
      "mayla": 4135,
      "▁jand": 4136,
      "▁ajans": 4137,
      "▁tursu": 4138,
      "▁guzelligin": 4139,
      "▁yuzeyinde": 4140,
      "▁tutun": 4141,
      "▁makine": 4142,
      "▁gerisi": 4143,
      "▁portfoyu": 4144,
      "▁gars": 4145,
      "▁sınavı": 4146,
      "▁festiv": 4147,
      "emenin": 4148,
      "▁havasında": 4149,
      "▁tahmini": 4150,
      "▁yapıyorlar": 4151,
      "▁basarıya": 4152,
      "▁kafasını": 4153,
      "▁olumsuz": 4154,
      "▁ailesinin": 4155,
      "ıc": 4156,
      "▁cekim": 4157,
      "▁ipi": 4158,
      "▁capında": 4159,
      "▁davasını": 4160,
      "▁payını": 4161,
      "▁duvarlarında": 4162,
      "▁ziraat": 4163,
      "▁eserin": 4164,
      "▁birincisi": 4165,
      "ledim": 4166,
      "mul": 4167,
      "▁kullanarak": 4168,
      "y": 4169,
      "ezi": 4170,
      "▁karsılıgında": 4171,
      "▁masaj": 4172,
      "▁tasarısını": 4173,
      "3'te": 4174,
      "▁bog": 4175,
      "▁acıyor": 4176,
      "gı": 4177,
      "▁gozlem": 4178,
      "▁soy": 4179,
      "▁cezasını": 4180,
      "uge": 4181,
      "▁armagan": 4182,
      "▁katana": 4183,
      "▁kitapcı": 4184,
      "▁yerlere": 4185,
      "▁sefi": 4186,
      "▁indirimlerden": 4187,
      "▁musterilere": 4188,
      "ers": 4189,
      "▁hayatına": 4190,
      "les": 4191,
      "▁muhtar": 4192,
      "▁eserleri": 4193,
      "▁havuzundan": 4194,
      "▁subv": 4195,
      "acaktı": 4196,
      "▁darb": 4197,
      "teki": 4198,
      "▁birkac": 4199,
      "▁600": 4200,
      "▁anim": 4201,
      "liydi": 4202,
      "▁kavur": 4203,
      "▁ısır": 4204,
      "ellik": 4205,
      "▁almadim": 4206,
      "oloji": 4207,
      "▁programlarının": 4208,
      "▁ihtiyat": 4209,
      "artım": 4210,
      "▁patates": 4211,
      "▁tenkit": 4212,
      "▁domatesleri": 4213,
      "▁nebze": 4214,
      "▁satmayı": 4215,
      "▁direkt": 4216,
      "▁de": 4217,
      "▁katılımcıların": 4218,
      "usune": 4219,
      "▁tamamladı": 4220,
      "▁sesini": 4221,
      "mıyla": 4222,
      "▁iddialarını": 4223,
      "▁boynu": 4224,
      "▁gir": 4225,
      "▁iflas": 4226,
      "▁duzine": 4227,
      "bap": 4228,
      "▁musik": 4229,
      "▁tarifesi": 4230,
      "▁mesafeyi": 4231,
      "▁rul": 4232,
      "▁egr": 4233,
      "▁itibariyle": 4234,
      "▁kazanc": 4235,
      "▁tenezz": 4236,
      "▁hamami": 4237,
      "▁halihazırda": 4238,
      "▁kızının": 4239,
      "▁olmasıdır": 4240,
      "▁karanlık": 4241,
      "lerde": 4242,
      "▁cagrı": 4243,
      "o'dan": 4244,
      "▁ornegin": 4245,
      "▁tasıy": 4246,
      "▁fut": 4247,
      "▁gaza": 4248,
      "▁dilinden": 4249,
      "'s": 4250,
      "▁ihtiyac": 4251,
      "▁hamle": 4252,
      "lanacak": 4253,
      "hiss": 4254,
      "▁mart": 4255,
      "lendirme": 4256,
      "▁yse": 4257,
      "▁kontrol": 4258,
      "▁yapr": 4259,
      "▁karanfil": 4260,
      "▁j": 4261,
      "kler": 4262,
      "▁sentten": 4263,
      "▁marat": 4264,
      "▁hosgor": 4265,
      "▁agactan": 4266,
      "dız": 4267,
      "▁yapının": 4268,
      "▁kurtu": 4269,
      "imde": 4270,
      "▁oz": 4271,
      "▁piy": 4272,
      "▁mavisi": 4273,
      "ininin": 4274,
      "▁yansıtıyor": 4275,
      "eligi": 4276,
      "x": 4277,
      "▁korkunc": 4278,
      "▁merrill": 4279,
      "▁davr": 4280,
      "▁kullanmaya": 4281,
      "▁bileti": 4282,
      "▁hissedarları": 4283,
      "▁eksi": 4284,
      "▁mam": 4285,
      "▁ulkeleri": 4286,
      "▁stratejisi": 4287,
      "▁herkesin": 4288,
      "lılar": 4289,
      "▁kamuoy": 4290,
      "▁zat": 4291,
      "▁odayı": 4292,
      "▁sonra": 4293,
      "▁87": 4294,
      "▁gemiydi": 4295,
      "▁duz": 4296,
      "▁minnet": 4297,
      "▁kalabalikti": 4298,
      "meyi": 4299,
      "=": 4300,
      "▁olarak": 4301,
      "▁tedar": 4302,
      "▁odamdan": 4303,
      "▁gayrimen": 4304,
      "'ini": 4305,
      "▁govdes": 4306,
      "▁olagand": 4307,
      "▁partilerin": 4308,
      "▁kupeler": 4309,
      "▁faizi": 4310,
      "larınızı": 4311,
      "▁don": 4312,
      "▁sizlere": 4313,
      "▁tavsiye": 4314,
      "▁kurnaz": 4315,
      "▁yasamın": 4316,
      "▁psil": 4317,
      "▁cuz": 4318,
      "tiginde": 4319,
      "ıkları": 4320,
      "4": 4321,
      "▁ekip": 4322,
      "▁mahluk": 4323,
      "▁ibadet": 4324,
      "▁yuzum": 4325,
      "▁ilave": 4326,
      "▁si": 4327,
      "▁bord": 4328,
      "▁yasında": 4329,
      "▁umid": 4330,
      "▁konut": 4331,
      "▁arabalar": 4332,
      "▁dibe": 4333,
      "ukluk": 4334,
      "▁carpıs": 4335,
      "▁cakı": 4336,
      "▁yaptıgını": 4337,
      "▁magaza": 4338,
      "▁hacmine": 4339,
      "▁yazılımı": 4340,
      "▁baglantılı": 4341,
      "▁ret": 4342,
      "yoz": 4343,
      "▁gitar": 4344,
      "malıyız": 4345,
      "nasında": 4346,
      "▁reddet": 4347,
      "▁anlamiyla": 4348,
      "▁isyan": 4349,
      "▁asansor": 4350,
      "▁toparlan": 4351,
      "▁degilse": 4352,
      "▁calısmak": 4353,
      "▁saclarına": 4354,
      "▁burosunda": 4355,
      "▁if": 4356,
      "▁e": 4357,
      "▁perdesi": 4358,
      "▁ulkeler": 4359,
      "▁kıyıda": 4360,
      "ıt": 4361,
      "acagına": 4362,
      "▁kisiyi": 4363,
      "▁karları": 4364,
      "▁calısa": 4365,
      "acagız": 4366,
      "▁3/8": 4367,
      "▁hukm": 4368,
      "▁ogrencileri": 4369,
      "▁islemlerine": 4370,
      "land": 4371,
      "▁hemsire": 4372,
      "▁haftada": 4373,
      "▁pasa": 4374,
      "▁baglam": 4375,
      "▁epey": 4376,
      "▁hukum": 4377,
      "ilmesi": 4378,
      "'ın": 4379,
      "▁bakıyor": 4380,
      "▁ucus": 4381,
      "▁dukkanında": 4382,
      "▁havuzun": 4383,
      "▁yasadık": 4384,
      "▁endustrisi": 4385,
      "mal": 4386,
      "▁saglıgını": 4387,
      "▁romatizm": 4388,
      "▁acen": 4389,
      "▁9": 4390,
      "▁faz": 4391,
      "▁ked": 4392,
      "▁tahıl": 4393,
      "▁celiski": 4394,
      "▁pur": 4395,
      "▁rezervasyonla": 4396,
      "▁kendimden": 4397,
      "▁zorluklarla": 4398,
      "kah": 4399,
      "onun": 4400,
      "malıdır": 4401,
      "▁calıstım": 4402,
      "▁yargıclar": 4403,
      "▁konuları": 4404,
      "▁beyle": 4405,
      "▁otoy": 4406,
      "▁haklarını": 4407,
      "▁ucuslar": 4408,
      "▁amacıyla": 4409,
      "▁cag": 4410,
      "▁arabaya": 4411,
      "▁agabeyim": 4412,
      "▁basladılar": 4413,
      "may": 4414,
      "▁oldukca": 4415,
      "▁sarkının": 4416,
      "▁camasırları": 4417,
      "▁aradan": 4418,
      "▁kaplama": 4419,
      "▁arabasıyla": 4420,
      "oca": 4421,
      "medigi": 4422,
      "▁yazarlık": 4423,
      "▁karlarının": 4424,
      "▁gecm": 4425,
      "ediy": 4426,
      "▁ucagına": 4427,
      "zir": 4428,
      "▁almayı": 4429,
      "ci": 4430,
      "lilik": 4431,
      "▁aylar": 4432,
      "▁kimlik": 4433,
      "outh": 4434,
      "▁ho": 4435,
      "acaat": 4436,
      "▁bogazına": 4437,
      "▁saraydan": 4438,
      "ledigi": 4439,
      "g": 4440,
      "▁telefonun": 4441,
      "▁ayakk": 4442,
      "ettim": 4443,
      "▁polit": 4444,
      "▁sonuca": 4445,
      "▁stok": 4446,
      "isti": 4447,
      "▁meclis": 4448,
      "▁kılıc": 4449,
      "ugunde": 4450,
      "0'": 4451,
      "▁far": 4452,
      "▁kapının": 4453,
      "▁,": 4454,
      "▁safh": 4455,
      "▁ameliyat": 4456,
      "▁haklarına": 4457,
      ".85": 4458,
      "▁kayısı": 4459,
      "▁iskence": 4460,
      "▁aldık": 4461,
      "▁filmleri": 4462,
      "▁yitir": 4463,
      "edil": 4464,
      "▁emeklilik": 4465,
      "▁salatası": 4466,
      "▁zer": 4467,
      "▁tanıtım": 4468,
      "cagız": 4469,
      "▁yerine": 4470,
      "imler": 4471,
      "▁cicek": 4472,
      "edildi": 4473,
      "iyetini": 4474,
      "▁avru": 4475,
      "▁prenses": 4476,
      "▁kıymet": 4477,
      "▁munak": 4478,
      "▁bitir": 4479,
      "▁kalma": 4480,
      "▁iskemle": 4481,
      "mayalım": 4482,
      "kika": 4483,
      "▁duran": 4484,
      "▁baslayacak": 4485,
      "▁kelep": 4486,
      "▁meydana": 4487,
      "▁yavas": 4488,
      "▁kimliklerini": 4489,
      "▁durumdan": 4490,
      "▁kafam": 4491,
      "▁sipar": 4492,
      "▁cıkmadı": 4493,
      "▁ragmen": 4494,
      "▁oyuncuların": 4495,
      "▁musa": 4496,
      "▁rakamların": 4497,
      "▁salt": 4498,
      "▁nakit": 4499,
      "-k": 4500,
      "▁300": 4501,
      "sil": 4502,
      "art": 4503,
      "▁vardır": 4504,
      "▁degisimin": 4505,
      "▁portr": 4506,
      "▁hakem": 4507,
      "mıyor": 4508,
      "▁w": 4509,
      "▁ymıs": 4510,
      "▁israil": 4511,
      "▁planlarını": 4512,
      "▁beklentileri": 4513,
      "▁kisiden": 4514,
      "▁temelinde": 4515,
      "▁sahipti": 4516,
      "▁yene": 4517,
      "amıs": 4518,
      "▁agızlarına": 4519,
      "▁fasuly": 4520,
      "▁uzak": 4521,
      "▁cekiyor": 4522,
      "▁gecis": 4523,
      "adde": 4524,
      "sız": 4525,
      "piyat": 4526,
      "▁fiyati": 4527,
      "▁yiyeceklerde": 4528,
      "▁yaban": 4529,
      "▁saglayacak": 4530,
      "▁net": 4531,
      "▁orani": 4532,
      "▁bakan": 4533,
      "▁kakao": 4534,
      "▁sonradan": 4535,
      "▁herk": 4536,
      "▁siper": 4537,
      "mekte": 4538,
      "▁ablası": 4539,
      "▁gov": 4540,
      "▁babasını": 4541,
      "▁ekibine": 4542,
      "▁zararlar": 4543,
      "▁havaalanından": 4544,
      "▁endust": 4545,
      "▁lot": 4546,
      "▁fenalık": 4547,
      "rı": 4548,
      "▁zafer": 4549,
      "▁yorg": 4550,
      "▁tehlike": 4551,
      "▁onunla": 4552,
      "▁yiyecekler": 4553,
      "▁agzını": 4554,
      "akar": 4555,
      "▁olmuyor": 4556,
      "▁yatırımları": 4557,
      "▁caz": 4558,
      "▁buyukel": 4559,
      "▁hayal": 4560,
      "▁bey": 4561,
      "amdan": 4562,
      "izmi": 4563,
      "▁ithalat": 4564,
      "▁hayv": 4565,
      "▁safhada": 4566,
      "ral": 4567,
      "▁erkegin": 4568,
      "dem": 4569,
      "lumu": 4570,
      "aket": 4571,
      "▁tipik": 4572,
      "▁iletisim": 4573,
      "▁sefalet": 4574,
      "▁hazine": 4575,
      "▁cd": 4576,
      "▁ogle": 4577,
      "▁vegas'a": 4578,
      "▁kurulunun": 4579,
      "▁mobilya": 4580,
      "▁komisyon": 4581,
      "meti": 4582,
      "dar": 4583,
      "▁konuk": 4584,
      "▁fik": 4585,
      "▁vilayet": 4586,
      "cılıgına": 4587,
      "erhal": 4588,
      "lere": 4589,
      "ısım": 4590,
      "▁yazıyı": 4591,
      "▁alabilecegini": 4592,
      "▁izleme": 4593,
      "20": 4594,
      "▁biter": 4595,
      "ımın": 4596,
      "acagım": 4597,
      "ust": 4598,
      "inizde": 4599,
      "▁isminde": 4600,
      "▁iskenc": 4601,
      "▁zamanla": 4602,
      "▁bulunmak": 4603,
      "▁dergisinde": 4604,
      "▁atol": 4605,
      "▁ingiliz": 4606,
      "▁daglar": 4607,
      "▁seytan": 4608,
      "▁ayna": 4609,
      "▁kalb": 4610,
      "▁memur": 4611,
      "▁ortamı": 4612,
      "▁gore": 4613,
      "▁cevapları": 4614,
      "a'nın": 4615,
      "▁gelmesi": 4616,
      "▁kaydet": 4617,
      "▁hangisi": 4618,
      "miyorum": 4619,
      "▁asama": 4620,
      "▁rastlantı": 4621,
      "▁omrunde": 4622,
      "imize": 4623,
      "▁mevcuttur": 4624,
      "▁fırsat": 4625,
      "▁istasyonu": 4626,
      "▁tuyleri": 4627,
      "▁borc": 4628,
      "duguna": 4629,
      "▁ikin": 4630,
      "▁mor": 4631,
      "▁barikat": 4632,
      "▁muhafaza": 4633,
      "▁odul": 4634,
      "▁yerlesim": 4635,
      "▁tutarı": 4636,
      "▁toplumlar": 4637,
      "▁begenmedim": 4638,
      "▁surecinde": 4639,
      "▁duvarda": 4640,
      "▁yavr": 4641,
      "este": 4642,
      "▁recete": 4643,
      "▁sanırım": 4644,
      "▁beklentilerimi": 4645,
      "▁kızların": 4646,
      "isah": 4647,
      "▁ciftlikleri": 4648,
      "▁bakanlıgı'na": 4649,
      "▁sebebini": 4650,
      "▁kuslar": 4651,
      "▁iceceklerden": 4652,
      "▁bayragı": 4653,
      "▁telafi": 4654,
      "▁haksızlık": 4655,
      "▁sebepleri": 4656,
      "▁kesinlikle": 4657,
      "▁iliskiler": 4658,
      "▁isletiyor": 4659,
      "▁universit": 4660,
      "▁strateji": 4661,
      "▁tecrube": 4662,
      "▁televizyona": 4663,
      "pe": 4664,
      "▁kalitesinden": 4665,
      "▁doner": 4666,
      "▁fiyatın": 4667,
      "▁arkadasım": 4668,
      "▁odan": 4669,
      "dıgına": 4670,
      "▁dua": 4671,
      "▁yerlerinden": 4672,
      "▁halkalar": 4673,
      "▁hayvan": 4674,
      "▁kisilig": 4675,
      "ılda": 4676,
      "▁hasılat": 4677,
      "▁resepsiyon": 4678,
      "meyecegini": 4679,
      "▁torun": 4680,
      "▁cıt": 4681,
      "▁denizasır": 4682,
      "lerimizin": 4683,
      "▁oncesine": 4684,
      "▁cozumler": 4685,
      "etini": 4686,
      "▁1985'te": 4687,
      "▁ısıkları": 4688,
      "▁yazmak": 4689,
      "larca": 4690,
      "▁kasaba": 4691,
      "emezsiniz": 4692,
      "▁egitimi": 4693,
      "▁kuvveti": 4694,
      "dort": 4695,
      "ebilirdi": 4696,
      "'li": 4697,
      "▁arkadasını": 4698,
      "ti": 4699,
      "orm": 4700,
      "rem": 4701,
      "▁12'si": 4702,
      "▁gece": 4703,
      "▁keman": 4704,
      "▁ydim": 4705,
      "▁isbir": 4706,
      "lari": 4707,
      "▁oyna": 4708,
      "▁cıkarmayı": 4709,
      "▁kurallar": 4710,
      "▁kullanmadim": 4711,
      "▁alab": 4712,
      "memis": 4713,
      "▁odaydi": 4714,
      "▁yaparlar": 4715,
      "▁hacminin": 4716,
      "▁he": 4717,
      "▁odalarında": 4718,
      "▁isimler": 4719,
      "▁olanaklarını": 4720,
      "▁fabrikada": 4721,
      "▁itir": 4722,
      "ley": 4723,
      "▁karsıdan": 4724,
      "▁kendilerinden": 4725,
      "▁guzeldi": 4726,
      "▁duman": 4727,
      "▁kalmadigim": 4728,
      "▁dinlenmek": 4729,
      "▁layık": 4730,
      "esiyle": 4731,
      "▁birles": 4732,
      "▁seattle": 4733,
      "▁bebegi": 4734,
      "▁sandalye": 4735,
      "▁caddenin": 4736,
      "▁mavzer": 4737,
      "▁cezası": 4738,
      "tıl": 4739,
      "▁kediyi": 4740,
      "▁1969'a": 4741,
      "▁toronto'ya": 4742,
      "lerimin": 4743,
      "mayın": 4744,
      "▁islemler": 4745,
      "▁salıncaga": 4746,
      "▁yıllardır": 4747,
      "▁kot": 4748,
      "▁sovyetlerin": 4749,
      "▁sapma": 4750,
      "muslar": 4751,
      "▁operasyonları": 4752,
      "▁28": 4753,
      "▁defasında": 4754,
      "▁degisiklikleri": 4755,
      "eyn": 4756,
      "▁bela": 4757,
      "asyonun": 4758,
      "▁karmasık": 4759,
      "▁zulum": 4760,
      "usunun": 4761,
      "▁arkada": 4762,
      "▁sunları": 4763,
      "▁gittim": 4764,
      "▁sırayla": 4765,
      "dogu": 4766,
      "▁kez": 4767,
      "▁gorunmuyor": 4768,
      "▁vapura": 4769,
      "▁becerik": 4770,
      "▁2017": 4771,
      "ec": 4772,
      "▁zeytinyagı": 4773,
      "lıgından": 4774,
      "cak": 4775,
      "dı": 4776,
      "▁doları'nda": 4777,
      "▁etmeye": 4778,
      "▁sarap": 4779,
      "▁nefese": 4780,
      "▁bankacı": 4781,
      "▁zih": 4782,
      "▁icra": 4783,
      "du.": 4784,
      "▁herkesten": 4785,
      "dugumdan": 4786,
      "▁sandaly": 4787,
      "▁salınc": 4788,
      "▁kusagın": 4789,
      "▁bom": 4790,
      "▁bolum": 4791,
      "dun": 4792,
      "▁keleb": 4793,
      "itliydi": 4794,
      "▁zember": 4795,
      "masını": 4796,
      "▁bakım": 4797,
      "arlan": 4798,
      "▁birileri": 4799,
      "▁kapatmak": 4800,
      "▁bilesik": 4801,
      "▁depart": 4802,
      "▁seylere": 4803,
      "▁ikisinin": 4804,
      "▁dahiliye": 4805,
      "esini": 4806,
      "ont": 4807,
      "▁masallar": 4808,
      "rarak": 4809,
      "adar": 4810,
      "▁davranısını": 4811,
      "▁sanduk": 4812,
      "▁kararıyla": 4813,
      "▁cıktıgını": 4814,
      "▁lutfen": 4815,
      "▁sapka": 4816,
      "▁diktator": 4817,
      "▁piyasasının": 4818,
      "▁cip": 4819,
      "▁secimi": 4820,
      "▁sabahın": 4821,
      "▁tarafın": 4822,
      "▁edemiyor": 4823,
      "iyesini": 4824,
      "▁edip": 4825,
      "▁1960": 4826,
      "▁gozetim": 4827,
      "▁kalite": 4828,
      "▁tahammul": 4829,
      "▁isletme": 4830,
      "▁yoktu": 4831,
      "▁ih": 4832,
      "▁zul": 4833,
      "▁ayın": 4834,
      "▁ik": 4835,
      "▁ureticiler": 4836,
      "▁konaklama": 4837,
      "▁boylu": 4838,
      "▁onlarda": 4839,
      "▁sapı": 4840,
      "▁akt": 4841,
      "ls": 4842,
      "▁oturma": 4843,
      "▁goruldu": 4844,
      "▁dostum": 4845,
      "ma": 4846,
      "▁vergiler": 4847,
      "▁adamlarının": 4848,
      "▁ziyaret": 4849,
      "▁rahmet": 4850,
      "▁hediye": 4851,
      "▁onsu": 4852,
      "aren": 4853,
      "▁cit": 4854,
      "▁te": 4855,
      "▁kaldıgı": 4856,
      "▁gav": 4857,
      "phia": 4858,
      "▁azaltma": 4859,
      "hal": 4860,
      "▁doların": 4861,
      "▁hiss": 4862,
      "▁nitelikte": 4863,
      "onya": 4864,
      "▁basbakanı": 4865,
      "▁kazık": 4866,
      "▁oyn": 4867,
      "enleri": 4868,
      "▁gozunu": 4869,
      "mekle": 4870,
      "▁magazaları": 4871,
      "▁zincirinin": 4872,
      "▁za": 4873,
      "ayet": 4874,
      "▁yorumunu": 4875,
      "▁destekli": 4876,
      ".0": 4877,
      "▁ekonomist": 4878,
      "▁resesyon": 4879,
      "▁nedenle": 4880,
      "▁yanını": 4881,
      "▁isciyi": 4882,
      "▁dukkanın": 4883,
      "▁danısmanlık": 4884,
      "▁ugur": 4885,
      "erince": 4886,
      "▁katlı": 4887,
      "ton": 4888,
      ";": 4889,
      "▁katından": 4890,
      "▁degerlendirmek": 4891,
      "▁yog": 4892,
      "▁ticareti": 4893,
      "▁pasap": 4894,
      "yince": 4895,
      "▁hakikat": 4896,
      "▁gunden": 4897,
      "▁senden": 4898,
      "▁hıckırık": 4899,
      "ume": 4900,
      "eyle": 4901,
      "ılırsa": 4902,
      "▁kısk": 4903,
      "▁ust": 4904,
      "▁hucre": 4905,
      "▁bug": 4906,
      "▁memnun": 4907,
      "▁idare": 4908,
      "▁27": 4909,
      "▁pay": 4910,
      "▁olumune": 4911,
      "▁ettikten": 4912,
      "▁talebini": 4913,
      "▁agac": 4914,
      "lest": 4915,
      "▁artısları": 4916,
      "▁miy": 4917,
      "rut": 4918,
      "▁havaya": 4919,
      "▁dusmek": 4920,
      "▁yukselisi": 4921,
      "a'ya": 4922,
      "▁akıllı": 4923,
      "▁sırtını": 4924,
      "▁ayrılık": 4925,
      "▁yemin": 4926,
      "▁ortası": 4927,
      "cek": 4928,
      "ildi": 4929,
      "▁duzenleyici": 4930,
      "▁mısır": 4931,
      "▁sorustur": 4932,
      "▁29": 4933,
      "ani": 4934,
      "dırma": 4935,
      "▁soylemek": 4936,
      "▁dallas": 4937,
      "▁kaydetti": 4938,
      "▁temerrut": 4939,
      "▁rub": 4940,
      "▁ucretlerin": 4941,
      "▁kısmının": 4942,
      "▁sola": 4943,
      "▁detay": 4944,
      "▁kayanın": 4945,
      "▁durdur": 4946,
      "emek": 4947,
      "▁kaldır": 4948,
      "gan": 4949,
      "iya": 4950,
      "adı": 4951,
      "▁ast": 4952,
      "▁kisilerle": 4953,
      "▁ramaz": 4954,
      "▁kapasitesine": 4955,
      "▁temel": 4956,
      "▁seviyede": 4957,
      "▁yurd": 4958,
      "▁lobi": 4959,
      "▁vergi": 4960,
      "▁verebilirim": 4961,
      "▁camlar": 4962,
      "▁guver": 4963,
      "agım": 4964,
      "▁teklifi": 4965,
      "▁dr": 4966,
      "dut": 4967,
      "▁beton": 4968,
      "▁elektronik": 4969,
      "▁sarkılar": 4970,
      "▁askeri": 4971,
      "▁saldırı": 4972,
      "▁telas": 4973,
      "▁viraj": 4974,
      "▁keresinde": 4975,
      "▁elini": 4976,
      "▁islemlerinde": 4977,
      "▁bahcesinde": 4978,
      "▁yaslı": 4979,
      "▁birimleri": 4980,
      "▁sayı": 4981,
      "▁bulas": 4982,
      "enizin": 4983,
      "▁sinemaya": 4984,
      "▁ogut": 4985,
      "▁kadrosu": 4986,
      "amız": 4987,
      "▁oyunlarının": 4988,
      "▁tatlilar": 4989,
      "▁temmuz'da": 4990,
      "▁icmek": 4991,
      "▁belki": 4992,
      "▁yuvası": 4993,
      "▁ellerinin": 4994,
      "▁bahceden": 4995,
      "▁med": 4996,
      "▁sansur": 4997,
      "▁tepk": 4998,
      "are": 4999,
      "▁dalgalanması": 5000,
      "▁birimin": 5001,
      "▁salvar": 5002,
      "▁kalmad": 5003,
      "uyorlar": 5004,
      "▁kapalı": 5005,
      "▁biy": 5006,
      "▁odalardan": 5007,
      "▁davacı": 5008,
      "▁muhendislik": 5009,
      "▁gozluk": 5010,
      "▁yarısına": 5011,
      "▁sikintilardan": 5012,
      "asa": 5013,
      "▁atmayı": 5014,
      "iss": 5015,
      "▁senetleri": 5016,
      "▁igne": 5017,
      "▁kamyonu": 5018,
      "▁saglıklı": 5019,
      "▁uret": 5020,
      "ustr": 5021,
      "aması": 5022,
      "▁calismasina": 5023,
      "▁tarafına": 5024,
      "5'i": 5025,
      "ladıkları": 5026,
      "▁oteye": 5027,
      "▁yuzune": 5028,
      "▁pak": 5029,
      "▁sise": 5030,
      "▁kofte": 5031,
      "▁3": 5032,
      "▁gozlerini": 5033,
      "▁secenek": 5034,
      "alın": 5035,
      "▁fonlarının": 5036,
      "uldeki": 5037,
      "▁olayların": 5038,
      "▁reper": 5039,
      "▁tehdidini": 5040,
      "▁tarl": 5041,
      "▁soba": 5042,
      "▁bekleme": 5043,
      "reti": 5044,
      "▁ekonomik": 5045,
      "▁100000": 5046,
      "ikli": 5047,
      "las": 5048,
      "▁global": 5049,
      "uston": 5050,
      "▁belirtmek": 5051,
      "▁lezzetleri": 5052,
      "▁geliyor": 5053,
      "▁kuf": 5054,
      "▁yansı": 5055,
      "▁dalgalar": 5056,
      "▁lu": 5057,
      "andan": 5058,
      "▁ızgar": 5059,
      "▁av": 5060,
      "▁koleksiyon": 5061,
      "▁santaj": 5062,
      "▁uzaklarda": 5063,
      "▁kurallarına": 5064,
      "▁cıktım": 5065,
      "▁artısının": 5066,
      "▁altern": 5067,
      "▁3\\/4": 5068,
      "▁%2": 5069,
      "7": 5070,
      "▁numaralı": 5071,
      "ok": 5072,
      "▁borsa": 5073,
      "▁dalı": 5074,
      "▁azabı": 5075,
      "ırak": 5076,
      "▁fedakarlık": 5077,
      "▁ek": 5078,
      "▁bro": 5079,
      "mıslardı": 5080,
      "▁tarihli": 5081,
      "▁duskun": 5082,
      "▁evin": 5083,
      "uya": 5084,
      "▁ufaklık": 5085,
      "▁standart": 5086,
      "eyif": 5087,
      "se": 5088,
      "▁cevr": 5089,
      "▁38": 5090,
      "▁meclisi": 5091,
      "▁onunde": 5092,
      "▁dairesine": 5093,
      "▁mekte": 5094,
      "lamayı": 5095,
      "▁alcak": 5096,
      "elerle": 5097,
      "▁gozlerinin": 5098,
      "▁cıkmayı": 5099,
      "▁girisimleri": 5100,
      "▁cagırdı": 5101,
      "▁inanmak": 5102,
      "▁cekic": 5103,
      "▁orne": 5104,
      "▁farklılık": 5105,
      "estiri": 5106,
      "▁ayagı": 5107,
      "lin": 5108,
      "▁kurmay": 5109,
      "▁dyp": 5110,
      "▁hosumuza": 5111,
      "▁masası": 5112,
      "▁dusuncesini": 5113,
      "ruf": 5114,
      "▁biris": 5115,
      "adel": 5116,
      "ıver": 5117,
      "▁depremle": 5118,
      "▁evvel": 5119,
      "▁tip": 5120,
      "ding": 5121,
      "▁yapildi": 5122,
      "▁duvardan": 5123,
      "▁vatandas": 5124,
      "▁hazret": 5125,
      "▁musterinin": 5126,
      "▁sevkiyat": 5127,
      "▁degerler": 5128,
      "sini": 5129,
      "ıyoruz": 5130,
      "ecilerin": 5131,
      "▁ayrildik": 5132,
      "▁demokrat": 5133,
      "▁ele": 5134,
      "gunu": 5135,
      "▁eyalet": 5136,
      "masıyla": 5137,
      "layabil": 5138,
      "▁cehre": 5139,
      "▁sehrine": 5140,
      "▁neres": 5141,
      "▁gerekiyor": 5142,
      "▁24": 5143,
      "▁birini": 5144,
      "▁lap": 5145,
      "▁donuyor": 5146,
      "▁sas": 5147,
      "luyordu": 5148,
      "▁etegi": 5149,
      "▁giriste": 5150,
      "nal": 5151,
      "▁zararı": 5152,
      "▁kat": 5153,
      "▁treni": 5154,
      "ucuk": 5155,
      "▁anayasa": 5156,
      "▁mola": 5157,
      "▁satımda": 5158,
      "▁buna": 5159,
      "▁taraf": 5160,
      "lanta": 5161,
      "▁sonuclarından": 5162,
      "▁girmek": 5163,
      "n": 5164,
      "▁dav": 5165,
      "▁agırlık": 5166,
      "areti": 5167,
      "▁ogrenme": 5168,
      "idi": 5169,
      "▁1986": 5170,
      "▁verim": 5171,
      "amaz": 5172,
      "▁varması": 5173,
      "▁kullanıl": 5174,
      "ılmaz": 5175,
      "▁ruhunun": 5176,
      "agında": 5177,
      "egen": 5178,
      "▁pantolon": 5179,
      "5'lik": 5180,
      "▁tesebbus": 5181,
      "ugune": 5182,
      "▁yolculugun": 5183,
      "ncak": 5184,
      "▁hur": 5185,
      "▁hucr": 5186,
      "▁beyazın": 5187,
      "ikr": 5188,
      "▁getirileri": 5189,
      "▁kalmadik": 5190,
      "▁ac": 5191,
      "▁azalt": 5192,
      "▁karısına": 5193,
      "▁ste": 5194,
      "▁kolayca": 5195,
      "▁elestir": 5196,
      "▁ciro": 5197,
      "lının": 5198,
      "▁yemekten": 5199,
      "▁cevresine": 5200,
      "▁duygularıyla": 5201,
      "▁gunlerde": 5202,
      "ou": 5203,
      "tum": 5204,
      "▁ortaydi": 5205,
      "▁maliye": 5206,
      "'ten": 5207,
      "▁hastanın": 5208,
      "▁balıgı": 5209,
      "▁yapmayacagını": 5210,
      "▁edilemez": 5211,
      "▁konuyla": 5212,
      "▁gorec": 5213,
      "▁kaptır": 5214,
      "▁kıc": 5215,
      "lular": 5216,
      "▁seyirci": 5217,
      "▁eastern": 5218,
      "▁deng": 5219,
      "▁siddetli": 5220,
      "▁guvenli": 5221,
      "akat": 5222,
      "▁seviyesinde": 5223,
      "▁anlamak": 5224,
      "tar": 5225,
      "und": 5226,
      "▁cebine": 5227,
      "▁kultur": 5228,
      "▁garson": 5229,
      "▁direk": 5230,
      "abı": 5231,
      "▁katıl": 5232,
      "▁journ": 5233,
      "melerini": 5234,
      "▁ayaklarının": 5235,
      "▁dini": 5236,
      "▁konsept": 5237,
      "kten": 5238,
      "▁kurulusun": 5239,
      "attle": 5240,
      "▁bazda": 5241,
      "olis": 5242,
      "malık": 5243,
      "ındık": 5244,
      "▁davranislari": 5245,
      "▁mektep": 5246,
      "▁1.3": 5247,
      "▁bekler": 5248,
      "▁derdin": 5249,
      "▁kazancını": 5250,
      "▁muhasebe": 5251,
      "▁arabacı": 5252,
      "acılıgı": 5253,
      "▁tik": 5254,
      "▁dakikasında": 5255,
      "▁surecini": 5256,
      "▁cekici": 5257,
      "▁unu": 5258,
      "cut": 5259,
      "veri": 5260,
      "antaj": 5261,
      "▁goruluyor": 5262,
      "▁gelmeden": 5263,
      "▁durumla": 5264,
      "▁maliyeti": 5265,
      "▁kelimesinin": 5266,
      "▁gosterin": 5267,
      "▁guvence": 5268,
      "▁faiz": 5269,
      "▁ihracı": 5270,
      "▁evi": 5271,
      "▁bakanlıgın": 5272,
      "▁planın": 5273,
      "▁nas": 5274,
      "▁erkege": 5275,
      "ov": 5276,
      "▁borcunu": 5277,
      "▁ins": 5278,
      "▁kapan": 5279,
      "▁denetimi": 5280,
      "▁giyim": 5281,
      "▁kactı": 5282,
      "esin": 5283,
      "▁dola": 5284,
      "▁kardesim": 5285,
      "▁sozlerine": 5286,
      "▁politikası": 5287,
      "▁duyur": 5288,
      "▁ikaz": 5289,
      "▁kom": 5290,
      "▁parti": 5291,
      "zırda": 5292,
      "▁yeryuzune": 5293,
      "▁tarafını": 5294,
      "▁tutar": 5295,
      "▁sup": 5296,
      "alarında": 5297,
      "▁mufettis": 5298,
      "▁rıh": 5299,
      "ilecek": 5300,
      "▁bana": 5301,
      "▁teor": 5302,
      "▁anad": 5303,
      "▁3'ten": 5304,
      "▁nort": 5305,
      "▁tanr": 5306,
      "▁sohbet": 5307,
      "▁mutlul": 5308,
      "▁dusunceler": 5309,
      "▁antika": 5310,
      "▁seyle": 5311,
      "▁kırk": 5312,
      "ecek": 5313,
      "▁ugram": 5314,
      "▁cocuklarını": 5315,
      "▁suyuna": 5316,
      "▁temeller": 5317,
      "▁nik": 5318,
      "▁deprem": 5319,
      "gında": 5320,
      "▁sehit": 5321,
      "▁oyunc": 5322,
      "mel": 5323,
      "▁yi": 5324,
      "▁aktor": 5325,
      "▁sigarasını": 5326,
      "▁turlu": 5327,
      "▁zeyt": 5328,
      "▁yatırımcılar": 5329,
      "annem": 5330,
      "▁columbus": 5331,
      "▁egi": 5332,
      "▁ceketinin": 5333,
      "eveyn": 5334,
      "▁3\\/8": 5335,
      "▁top": 5336,
      "▁siir": 5337,
      "▁bakalım": 5338,
      "$": 5339,
      "▁197": 5340,
      "▁hır": 5341,
      "memi": 5342,
      "▁yanisi": 5343,
      "▁2'ye": 5344,
      "et": 5345,
      "▁getir": 5346,
      "▁ilgilenmediler": 5347,
      "gunuz": 5348,
      "tıldı": 5349,
      "▁kisi": 5350,
      "▁ekm": 5351,
      "▁hınc": 5352,
      "▁toreni": 5353,
      "onlar": 5354,
      "▁damarı": 5355,
      "▁ipuc": 5356,
      "▁terk": 5357,
      "▁ittifak": 5358,
      "▁hadisenin": 5359,
      "ucusu": 5360,
      "▁mobil": 5361,
      "▁boyun": 5362,
      "dig": 5363,
      "▁supur": 5364,
      "▁iftir": 5365,
      "itr": 5366,
      "▁tepki": 5367,
      "▁gag": 5368,
      "▁kayn": 5369,
      "▁istanbul'un": 5370,
      "v": 5371,
      "▁savun": 5372,
      "▁sisteminin": 5373,
      "sı": 5374,
      "leyen": 5375,
      "▁deney": 5376,
      "▁ihtimalini": 5377,
      "▁versiyonu": 5378,
      "▁sektorde": 5379,
      "▁sahil": 5380,
      "▁yemegini": 5381,
      "▁cember": 5382,
      "▁gazoz": 5383,
      "lıyordu": 5384,
      "kili": 5385,
      "▁georg": 5386,
      ".375": 5387,
      "▁programında": 5388,
      "▁intih": 5389,
      "emiyordu": 5390,
      "▁gunlerinde": 5391,
      "[PAD]": 5392,
      "▁mustesar": 5393,
      "▁arab": 5394,
      "▁yakinlar": 5395,
      "▁1.0": 5396,
      "▁boyu": 5397,
      "▁uyk": 5398,
      "▁karak": 5399,
      "lıgı": 5400,
      "anıklıgı": 5401,
      "▁aga": 5402,
      "▁kira": 5403,
      "▁kulu": 5404,
      "▁gerek": 5405,
      "▁bizimle": 5406,
      "▁baskaları": 5407,
      "▁muay": 5408,
      "/4'e": 5409,
      "▁ustunluk": 5410,
      "gide": 5411,
      "▁kolu": 5412,
      "kunc": 5413,
      "▁kaleme": 5414,
      "▁eder": 5415,
      "lararası": 5416,
      "▁feragat": 5417,
      "▁bilgisayarı": 5418,
      "▁parca": 5419,
      "abil": 5420,
      "▁plana": 5421,
      "▁75": 5422,
      "▁ruyamda": 5423,
      "▁oyku": 5424,
      "▁tek": 5425,
      "mustu": 5426,
      "▁cıkarmaya": 5427,
      "▁iltifat": 5428,
      "ecekleri": 5429,
      "▁ulus": 5430,
      "▁1970'": 5431,
      "▁yufka": 5432,
      "▁gru": 5433,
      "▁anlıslanabili": 5434,
      "▁havacılık": 5435,
      "meyerek": 5436,
      "▁sokaklara": 5437,
      "ecegine": 5438,
      "▁zah": 5439,
      "'u": 5440,
      "▁sezonu": 5441,
      "▁bulbul": 5442,
      "▁bazilari": 5443,
      "▁degerinin": 5444,
      "▁yayınlar": 5445,
      "▁uslup": 5446,
      "siyi": 5447,
      "elemek": 5448,
      "▁sayısını": 5449,
      "▁mahs": 5450,
      "ki": 5451,
      "orma": 5452,
      "▁ulasım": 5453,
      "yalizm": 5454,
      "▁ortaklık": 5455,
      "▁francisco": 5456,
      "▁mute": 5457,
      "▁tohumları": 5458,
      "▁londra": 5459,
      "anması": 5460,
      "▁tesisi": 5461,
      "▁oranlarının": 5462,
      "▁sokaktan": 5463,
      "▁parka": 5464,
      "▁serin": 5465,
      "▁ihtiyacimiz": 5466,
      "pul": 5467,
      "uncaya": 5468,
      "▁ihtiyaci": 5469,
      "▁edi": 5470,
      "▁guleryuzluydu": 5471,
      "osyon": 5472,
      "ulu": 5473,
      "▁suzgec": 5474,
      "▁anlar": 5475,
      "▁girisimler": 5476,
      "illi": 5477,
      "ırtmak": 5478,
      "▁tavla": 5479,
      "alara": 5480,
      "eceginin": 5481,
      "▁alkıs": 5482,
      "▁havuzlari": 5483,
      "▁koku": 5484,
      "▁burun": 5485,
      "▁arkadası": 5486,
      "▁ile": 5487,
      "▁amcam": 5488,
      "▁birlesik": 5489,
      "▁yagmur": 5490,
      "▁amacları": 5491,
      "▁gosterdigini": 5492,
      "mes": 5493,
      "▁bunları": 5494,
      "▁akısı": 5495,
      "▁ade": 5496,
      "▁degerlendirme": 5497,
      "▁yılının": 5498,
      "▁7.8": 5499,
      "▁talebinin": 5500,
      "anam": 5501,
      "alarda": 5502,
      "culugu": 5503,
      "▁eki": 5504,
      "▁tasları": 5505,
      "▁yapma": 5506,
      "▁sıc": 5507,
      "▁aynen": 5508,
      "▁yukseldi": 5509,
      "▁gozlerinden": 5510,
      "▁ugradı": 5511,
      "gumuz": 5512,
      "▁yerlerini": 5513,
      "▁secimin": 5514,
      "▁sirketleri": 5515,
      "▁arkadaslar": 5516,
      "duz": 5517,
      "▁kızcagız": 5518,
      "bulans": 5519,
      "▁adım": 5520,
      "olu": 5521,
      "▁vali": 5522,
      "▁etmey": 5523,
      "▁edilecek": 5524,
      "cıların": 5525,
      "▁mih": 5526,
      "▁usa": 5527,
      "▁cep": 5528,
      "▁cinc": 5529,
      "▁biriktir": 5530,
      "▁fıs": 5531,
      "▁13": 5532,
      "ant": 5533,
      "▁carsıdan": 5534,
      "▁kup": 5535,
      "▁tampa'dan": 5536,
      "liklerini": 5537,
      "▁begendim": 5538,
      "▁sevda": 5539,
      "▁aramız": 5540,
      "▁muayene": 5541,
      "▁buluyor": 5542,
      "▁arz": 5543,
      "▁dislerini": 5544,
      "▁kavram": 5545,
      "▁yapılmıs": 5546,
      "ildigini": 5547,
      "▁tatili": 5548,
      "▁aglamaya": 5549,
      "6'da": 5550,
      "▁rahat": 5551,
      "▁alakadar": 5552,
      "▁doku": 5553,
      "▁yoz": 5554,
      "maktan": 5555,
      "amba": 5556,
      "▁ayık": 5557,
      "▁defterleri": 5558,
      "▁abi": 5559,
      "▁ilgisini": 5560,
      "▁durumlar": 5561,
      "▁as": 5562,
      "6'dan": 5563,
      "isiniz": 5564,
      "▁zamanda": 5565,
      "▁end": 5566,
      "celi": 5567,
      "eniz": 5568,
      "▁oranını": 5569,
      "▁van": 5570,
      "&": 5571,
      "▁sizden": 5572,
      "paz": 5573,
      "lamasını": 5574,
      "▁mana": 5575,
      "▁duygusunu": 5576,
      "bur": 5577,
      "▁kollarını": 5578,
      "▁oyunu": 5579,
      "▁elektrigi": 5580,
      "▁askın": 5581,
      "▁devreye": 5582,
      "▁bombardım": 5583,
      "▁kalıyor": 5584,
      "▁kalkıslı": 5585,
      "▁grev": 5586,
      "▁davranısları": 5587,
      "▁yukarıda": 5588,
      "▁em": 5589,
      "▁yemeklerde": 5590,
      "▁mutlulugu": 5591,
      "▁kırılması": 5592,
      "▁ekibinin": 5593,
      "▁torb": 5594,
      "▁surdurdu": 5595,
      "▁kargo": 5596,
      "▁takımın": 5597,
      "▁ruy": 5598,
      "▁ic": 5599,
      "es": 5600,
      "ıya": 5601,
      "▁sınıfın": 5602,
      "aller": 5603,
      "▁tarihin": 5604,
      "▁iceriden": 5605,
      "▁arasındaki": 5606,
      "▁gordugum": 5607,
      "▁kulah": 5608,
      "▁arasından": 5609,
      "▁mek": 5610,
      "perv": 5611,
      "▁merkezli": 5612,
      "▁volatil": 5613,
      "▁cekmec": 5614,
      "▁hayatta": 5615,
      "elt": 5616,
      "▁dayım": 5617,
      "▁uzmanların": 5618,
      "▁balkon": 5619,
      "▁oturup": 5620,
      "▁gundem": 5621,
      "▁cet": 5622,
      "▁dc": 5623,
      "▁murekk": 5624,
      "▁hastanede": 5625,
      "▁bankasının": 5626,
      "▁baglama": 5627,
      "▁devamı": 5628,
      "▁muhafazakar": 5629,
      "▁nehrin": 5630,
      "▁corp.": 5631,
      "▁evinin": 5632,
      "uculuk": 5633,
      "▁kararnam": 5634,
      "▁sozcukleri": 5635,
      "▁yolcu": 5636,
      "▁asık": 5637,
      "▁dolandırıcılık": 5638,
      "▁go": 5639,
      "▁yabancıların": 5640,
      "▁kamera": 5641,
      "▁seyahat": 5642,
      "ith": 5643,
      "▁sana": 5644,
      "alik": 5645,
      "▁atları": 5646,
      "▁0.2": 5647,
      "▁planlamam": 5648,
      "▁dahası": 5649,
      "▁konusuyor": 5650,
      "lerimiz": 5651,
      "▁feder": 5652,
      "▁varlıklarının": 5653,
      "▁kred": 5654,
      "?": 5655,
      "▁hid": 5656,
      "▁ri": 5657,
      "▁asab": 5658,
      "▁tenis": 5659,
      "▁1'e": 5660,
      "▁bugday": 5661,
      "▁luz": 5662,
      "▁olumu": 5663,
      "▁vermedi": 5664,
      "▁ısrar": 5665,
      "▁onu": 5666,
      "acagim": 5667,
      "▁temb": 5668,
      "lamur": 5669,
      "▁kategor": 5670,
      "▁81": 5671,
      "▁ciger": 5672,
      "▁makineleri": 5673,
      "▁merdivenlerden": 5674,
      "▁kent": 5675,
      "▁dır": 5676,
      "ılık": 5677,
      "▁halleri": 5678,
      "▁yesil": 5679,
      "▁gecirir": 5680,
      "▁yanıyordu": 5681,
      "▁iktidar": 5682,
      "▁boru": 5683,
      "▁elime": 5684,
      "▁kırıklıgına": 5685,
      "mısım": 5686,
      "▁gencin": 5687,
      "▁etmemek": 5688,
      "ık": 5689,
      "▁yapmadı": 5690,
      "▁yuregim": 5691,
      "▁gonder": 5692,
      "▁kısaca": 5693,
      "▁lor": 5694,
      "▁kum": 5695,
      "▁phoeni": 5696,
      "▁nakar": 5697,
      "▁tımar": 5698,
      "▁maruz": 5699,
      "…": 5700,
      "▁tahr": 5701,
      "▁muhtac": 5702,
      "▁eleman": 5703,
      "larınla": 5704,
      "▁tedbiri": 5705,
      "▁yardım": 5706,
      "▁neti": 5707,
      "▁33": 5708,
      "▁cincinnati'den": 5709,
      "▁yans": 5710,
      "▁gorunmek": 5711,
      "0-": 5712,
      "▁performansi": 5713,
      "▁1991'de": 5714,
      "enlerden": 5715,
      "▁ef": 5716,
      "▁yargıc": 5717,
      "akal": 5718,
      "▁ciftlerine": 5719,
      "ınız": 5720,
      "▁yasamak": 5721,
      "▁magazada": 5722,
      "▁koskun": 5723,
      "▁kanunun": 5724,
      "▁konforluydu": 5725,
      "asal": 5726,
      "▁ipot": 5727,
      "▁yahudi": 5728,
      "▁ormanın": 5729,
      "▁efendim": 5730,
      "▁1987": 5731,
      "▁heyecanla": 5732,
      "▁gelmez": 5733,
      "▁rus": 5734,
      "▁ilkbahar": 5735,
      "▁ilan": 5736,
      "▁kalmayı": 5737,
      "▁siiri": 5738,
      "▁halde": 5739,
      "legin": 5740,
      "▁dl": 5741,
      "▁beklentimin": 5742,
      "ulmustur": 5743,
      "▁bosu": 5744,
      "elig": 5745,
      "▁ce": 5746,
      "▁ucuslarını": 5747,
      "▁sonuclarını": 5748,
      "▁renklerin": 5749,
      "▁mutema": 5750,
      "30": 5751,
      "▁tarihten": 5752,
      "▁sermaye": 5753,
      "makıllı": 5754,
      "▁ucusunu": 5755,
      "▁yuksek": 5756,
      "▁goruyordu": 5757,
      "▁sirketini": 5758,
      "▁milyon": 5759,
      "▁basladım": 5760,
      "▁ozellikleri": 5761,
      "▁istedig": 5762,
      "▁gıda": 5763,
      "▁navl": 5764,
      "▁annemi": 5765,
      "▁kaybederek": 5766,
      "▁duygu": 5767,
      "▁sekil": 5768,
      "▁$'": 5769,
      "▁gur": 5770,
      "▁calısma": 5771,
      "▁cizg": 5772,
      "tılı": 5773,
      "ıgını": 5774,
      "ustu": 5775,
      "asındaki": 5776,
      "▁imkan": 5777,
      "▁ak": 5778,
      "▁topraga": 5779,
      "▁spekulasyon": 5780,
      "▁cas": 5781,
      "▁anlatım": 5782,
      "ınıza": 5783,
      "▁memlekette": 5784,
      "▁erkek": 5785,
      "▁hayat": 5786,
      "▁bagları": 5787,
      "▁y": 5788,
      "orlu": 5789,
      "▁uye": 5790,
      "emesi": 5791,
      "▁sesinin": 5792,
      "kal": 5793,
      "▁kitapları": 5794,
      "▁digerleri": 5795,
      "usunde": 5796,
      "▁zeki": 5797,
      "▁sov": 5798,
      "▁bon": 5799,
      "▁icerir": 5800,
      "▁kalem": 5801,
      "ansiyon": 5802,
      "▁sendik": 5803,
      "verdi": 5804,
      "lıklarını": 5805,
      "islerden": 5806,
      "alarındaki": 5807,
      "▁ifadesini": 5808,
      "▁getirildi": 5809,
      "▁dikkatle": 5810,
      "▁guzelligi": 5811,
      "▁paya": 5812,
      "▁sonuclara": 5813,
      "▁tuzu": 5814,
      "▁ihale": 5815,
      "▁kovustur": 5816,
      "▁ders": 5817,
      "▁onceki": 5818,
      "▁temsilciler": 5819,
      "▁1992'de": 5820,
      "▁ucaklar": 5821,
      "▁azalması": 5822,
      "▁sigor": 5823,
      "▁ay": 5824,
      "uye": 5825,
      "▁doga": 5826,
      "▁olmayacagını": 5827,
      "▁varlıkları": 5828,
      "l": 5829,
      "inlere": 5830,
      "▁kısıtlamalar": 5831,
      "▁ceza": 5832,
      "ektir": 5833,
      "▁ucuslarla": 5834,
      "▁danısman": 5835,
      "▁odeme": 5836,
      "▁yaprak": 5837,
      "▁cicegi": 5838,
      "▁faaliyetleri": 5839,
      "▁annesiyle": 5840,
      "▁pilav": 5841,
      "▁karısık": 5842,
      "▁national": 5843,
      "▁dekorasyonu": 5844,
      "▁evlilig": 5845,
      "▁mal": 5846,
      "▁ceyr": 5847,
      "▁sofraya": 5848,
      "▁cogunluk": 5849,
      "▁nesesi": 5850,
      "▁dagdan": 5851,
      "ıga": 5852,
      "▁muhafaz": 5853,
      "ah": 5854,
      "▁zay": 5855,
      "▁yeg": 5856,
      "▁universitesi'nde": 5857,
      "▁parmagını": 5858,
      "▁miami'ye": 5859,
      "▁doktora": 5860,
      "▁mahsulu": 5861,
      "▁cıglık": 5862,
      "endek": 5863,
      "▁reasur": 5864,
      "▁delikanlının": 5865,
      "ji": 5866,
      "larımızın": 5867,
      "▁tavana": 5868,
      "▁canav": 5869,
      "isler": 5870,
      "▁fatur": 5871,
      "▁analistler": 5872,
      "▁kendisine": 5873,
      "▁kopuk": 5874,
      "▁sab": 5875,
      "▁ikiye": 5876,
      "irlik": 5877,
      "▁icleri": 5878,
      "▁istah": 5879,
      "▁talih": 5880,
      "▁mecliste": 5881,
      "▁ucagın": 5882,
      "▁maliyetleri": 5883,
      "▁imparatorluk": 5884,
      "▁sterlin": 5885,
      "▁gunese": 5886,
      "emezdi": 5887,
      "▁dudak": 5888,
      "▁guvenil": 5889,
      "egim": 5890,
      "duktan": 5891,
      "▁uygar": 5892,
      "▁kayb": 5893,
      "-": 5894,
      "▁kendilerine": 5895,
      "▁finanse": 5896,
      "▁resimler": 5897,
      "▁insanog": 5898,
      "▁geliyordu": 5899,
      "▁fikirleri": 5900,
      "▁saygıyla": 5901,
      "▁cocuklarına": 5902,
      "mac": 5903,
      "hanede": 5904,
      "▁detaylar": 5905,
      "▁aldılar": 5906,
      "▁koyuldu": 5907,
      "▁esvap": 5908,
      "▁tatil": 5909,
      "▁ysa": 5910,
      "alıyor": 5911,
      "▁dizg": 5912,
      "+": 5913,
      "▁basrol": 5914,
      "▁keyifli": 5915,
      "▁zorluk": 5916,
      "▁kucucuk": 5917,
      "▁alet": 5918,
      "▁cevaplar": 5919,
      "▁olanakları": 5920,
      "▁egilimleri": 5921,
      "▁prot": 5922,
      "▁mevsim": 5923,
      "ayıf": 5924,
      "▁amer": 5925,
      "uga": 5926,
      "ması": 5927,
      "aret": 5928,
      "▁dekorasyon": 5929,
      "▁kız": 5930,
      "▁taks": 5931,
      "▁meyvelerini": 5932,
      "▁sorununu": 5933,
      "▁turkiye": 5934,
      "▁yuzleri": 5935,
      "▁altı": 5936,
      "stı": 5937,
      "▁tehdid": 5938,
      "ciden": 5939,
      "▁takımları": 5940,
      "▁oper": 5941,
      "▁saate": 5942,
      "▁endustrinin": 5943,
      "▁enflasyona": 5944,
      "▁kord": 5945,
      "▁gununu": 5946,
      "▁gu": 5947,
      "▁ız": 5948,
      "▁etek": 5949,
      "▁rahatsızlık": 5950,
      "▁derslerinde": 5951,
      "▁birinci": 5952,
      "dal": 5953,
      "*": 5954,
      "▁yıllarında": 5955,
      "▁temas": 5956,
      "▁calisirim": 5957,
      "'ı": 5958,
      "▁olac": 5959,
      "▁incel": 5960,
      "asini": 5961,
      "▁basbakanlık": 5962,
      "▁penceresinden": 5963,
      "▁odulu": 5964,
      "▁buyukelci": 5965,
      "ınc": 5966,
      "ettir": 5967,
      "ındı": 5968,
      "landırıldı": 5969,
      "▁arada": 5970,
      "▁vatan": 5971,
      "▁kontak": 5972,
      "▁artırmaya": 5973,
      "▁donemden": 5974,
      "▁patron": 5975,
      "▁partiye": 5976,
      "▁30-hisse": 5977,
      "▁bulasık": 5978,
      "kul": 5979,
      "▁topr": 5980,
      "▁pic": 5981,
      "bardım": 5982,
      "–": 5983,
      "▁harp": 5984,
      "▁getirisini": 5985,
      "▁karsiligi": 5986,
      "▁sokakları": 5987,
      "▁herhalde": 5988,
      "▁ihlal": 5989,
      "▁bayramı": 5990,
      "▁toprakta": 5991,
      "undur": 5992,
      "osk": 5993,
      "lamasının": 5994,
      "ıldım": 5995,
      "▁agab": 5996,
      "▁planda": 5997,
      "▁gelinceye": 5998,
      "▁chic": 5999,
      "▁cekmek": 6000,
      "▁hatir": 6001,
      "ram": 6002,
      "▁acıyı": 6003,
      "▁cab": 6004,
      "▁fit": 6005,
      "▁azı": 6006,
      "▁barınak": 6007,
      "▁yani": 6008,
      "▁ortalamaydi": 6009,
      "▁isle": 6010,
      "▁dolardır": 6011,
      "lasma": 6012,
      "▁gomleg": 6013,
      "▁hibe": 6014,
      "medi": 6015,
      "▁cizgileri": 6016,
      "▁yaparım": 6017,
      "tugu": 6018,
      "lat": 6019,
      "▁som": 6020,
      "▁olmalıydı": 6021,
      "▁kapısı": 6022,
      "▁surum": 6023,
      "▁tavada": 6024,
      "▁bekcisi": 6025,
      "▁hamam": 6026,
      "▁yegen": 6027,
      "ra": 6028,
      "▁put": 6029,
      "lanmak": 6030,
      "▁eyaleti": 6031,
      "▁izleri": 6032,
      "▁ruyalar": 6033,
      "▁dogasi": 6034,
      "▁sedir": 6035,
      "▁havayolları": 6036,
      "▁roz": 6037,
      "▁demokratlar": 6038,
      "▁hızı": 6039,
      "▁duruma": 6040,
      "ceye": 6041,
      "▁olusturuyor": 6042,
      "▁soyu": 6043,
      "▁tatlı": 6044,
      "▁mucadelesi": 6045,
      "▁olmaktan": 6046,
      "▁ipek": 6047,
      "▁gunlerin": 6048,
      "▁ozur": 6049,
      "▁kerpic": 6050,
      "▁atat": 6051,
      "ilir": 6052,
      "▁olmak": 6053,
      "▁dusmustu": 6054,
      "▁acıkladı": 6055,
      "▁kaldik": 6056,
      "▁degn": 6057,
      "▁tuttum": 6058,
      "▁fir": 6059,
      "▁donem": 6060,
      "kt": 6061,
      "amam": 6062,
      "▁halef": 6063,
      "▁lezzeti": 6064,
      "▁sagda": 6065,
      "▁kavak": 6066,
      "ser": 6067,
      "cı": 6068,
      ".25": 6069,
      "▁satı": 6070,
      "▁ikmal": 6071,
      "▁hareketlerini": 6072,
      "asına": 6073,
      "▁ipotekleri": 6074,
      "arlı": 6075,
      "▁yuk": 6076,
      "▁yasanın": 6077,
      "▁kule": 6078,
      "▁eglenc": 6079,
      "▁gelistirmeye": 6080,
      "▁manevra": 6081,
      "ludur": 6082,
      "▁onumuzde": 6083,
      "▁site": 6084,
      "▁kullanıldıgını": 6085,
      "▁cir": 6086,
      "dırdı": 6087,
      "▁musteriler": 6088,
      "▁icraat": 6089,
      "▁kagıt": 6090,
      "▁sorgu": 6091,
      "q": 6092,
      "▁etmek": 6093,
      "▁bankalar": 6094,
      "▁kod": 6095,
      "▁iliskinin": 6096,
      "mesiyle": 6097,
      "iyorlar": 6098,
      "▁kapa": 6099,
      "▁airlines": 6100,
      "▁otomobili": 6101,
      "▁demiryolu": 6102,
      "uncu": 6103,
      "yasal": 6104,
      "▁kiler": 6105,
      "madigim": 6106,
      "▁kıyısında": 6107,
      "▁yetisk": 6108,
      "▁miami'den": 6109,
      "▁yıldızlar": 6110,
      "▁yumus": 6111,
      "meler": 6112,
      "▁yasayıs": 6113,
      "▁han": 6114,
      "lıkları": 6115,
      "▁kızgınlık": 6116,
      "▁okumak": 6117,
      "▁bulacak": 6118,
      "▁kabın": 6119,
      "caya": 6120,
      "▁sorar": 6121,
      "adına": 6122,
      "ran": 6123,
      "yap": 6124,
      "▁nedir": 6125,
      "▁sac": 6126,
      "▁bilgilerin": 6127,
      "▁lacivert": 6128,
      "▁buyum": 6129,
      "▁cil": 6130,
      "istal": 6131,
      "▁gunduz": 6132,
      "▁isgali": 6133,
      "acasına": 6134,
      "▁kıl": 6135,
      "▁milletvekilleri": 6136,
      "▁ind": 6137,
      "▁kurumların": 6138,
      "▁nitelik": 6139,
      "▁bık": 6140,
      "uluyor": 6141,
      "▁atalarımızın": 6142,
      "[UNK]": 6143,
      "▁ucunu": 6144,
      "▁antren": 6145,
      "kan": 6146,
      "▁yonetici": 6147,
      "▁nal": 6148,
      "▁olacak": 6149,
      "▁bulmak": 6150,
      "▁55": 6151,
      "2'ye": 6152,
      "dıkca": 6153,
      "lanıyor": 6154,
      "▁servet": 6155,
      "▁kast": 6156,
      "▁fesi": 6157,
      "1'de": 6158,
      "gundu": 6159,
      "inlerin": 6160,
      "▁guzelim": 6161,
      "▁urk": 6162,
      "▁alınan": 6163,
      "anmak": 6164,
      "▁dallas'ta": 6165,
      "▁bang": 6166,
      "▁aletler": 6167,
      "▁umdugunu": 6168,
      "isin": 6169,
      "ustum": 6170,
      "iginde": 6171,
      "▁pırıl": 6172,
      "▁tap": 6173,
      "▁planının": 6174,
      "▁resmen": 6175,
      "▁oranlarına": 6176,
      "mayan": 6177,
      "he": 6178,
      "▁vucu": 6179,
      "agat": 6180,
      "eles": 6181,
      "▁avucunun": 6182,
      "ırda": 6183,
      "▁bıcagı": 6184,
      "▁philadelphia'ya": 6185,
      "▁heps": 6186,
      "im": 6187,
      "emi": 6188,
      "▁mahkemenin": 6189,
      "iliyordu": 6190,
      "▁77": 6191,
      "▁nev": 6192,
      "▁kediye": 6193,
      "▁hissed": 6194,
      "evizyon": 6195,
      "▁elbise": 6196,
      "▁alb": 6197,
      "giniz": 6198,
      "▁okyan": 6199,
      "▁mani": 6200,
      "eral": 6201,
      "▁olsunlar": 6202,
      "▁borsasında": 6203,
      "▁sayılı": 6204,
      "▁vermiyor": 6205,
      "▁deyisle": 6206,
      "▁duydum": 6207,
      "ingi": 6208,
      "▁tatilimiz": 6209,
      "▁sorumlulugunu": 6210,
      "▁sınırları": 6211,
      "▁tahminle": 6212,
      "▁d": 6213,
      "▁mud": 6214,
      "▁meseleler": 6215,
      "▁senetlerini": 6216,
      "▁sigortacılar": 6217,
      "raz": 6218,
      "▁listeleyebilir": 6219,
      "▁oto": 6220,
      "ılı": 6221,
      "'unu": 6222,
      "▁bagın": 6223,
      "▁tut": 6224,
      "▁tezker": 6225,
      "▁buradan": 6226,
      "melerine": 6227,
      "▁lag": 6228,
      "▁1.9": 6229,
      "gini": 6230,
      "▁prosedur": 6231,
      "▁henuz": 6232,
      "mil": 6233,
      "▁gulus": 6234,
      "▁kalab": 6235,
      "▁bazıları": 6236,
      "▁acılar": 6237,
      "▁bilgilendirme": 6238,
      "▁patronun": 6239,
      "▁turistlerin": 6240,
      "▁duk": 6241,
      "▁konsolos": 6242,
      "▁ite": 6243,
      "▁kasabada": 6244,
      "edir": 6245,
      "▁sattı": 6246,
      "▁kimse": 6247,
      "▁uyum": 6248,
      "▁kayıpları": 6249,
      "emis": 6250,
      "ılmasını": 6251,
      "▁lider": 6252,
      "meliyim": 6253,
      "oyu": 6254,
      "▁duzeni": 6255,
      "▁ger": 6256,
      "▁minneapolis'ten": 6257,
      "▁prov": 6258,
      "▁havayollarında": 6259,
      "▁kendilerini": 6260,
      "aydı": 6261,
      "▁guldu": 6262,
      "mıslar": 6263,
      "▁tir": 6264,
      "lara": 6265,
      "▁46": 6266,
      "▁s&p": 6267,
      "▁hazin": 6268,
      "▁mekanizm": 6269,
      "▁yatıs": 6270,
      "ıyordu": 6271,
      "▁tanrısı": 6272,
      "▁disi": 6273,
      "▁atar": 6274,
      "▁sehirler": 6275,
      "gunluk": 6276,
      "▁cift-a": 6277,
      "sizce": 6278,
      "▁cıkıs": 6279,
      "▁bilgilerine": 6280,
      "▁soygun": 6281,
      "▁yurtdısında": 6282,
      "▁baslarında": 6283,
      "▁mikrofon": 6284,
      "▁bunlar": 6285,
      "▁1/2'den": 6286,
      "edeki": 6287,
      "▁anah": 6288,
      "▁kurdu": 6289,
      "▁badan": 6290,
      "▁teklifleri": 6291,
      "▁labor": 6292,
      "▁broker": 6293,
      "▁kaya": 6294,
      "▁zihnini": 6295,
      "▁mehtap": 6296,
      "▁hec": 6297,
      "▁paraya": 6298,
      "▁yit": 6299,
      "lev": 6300,
      "mam": 6301,
      "▁tuccar": 6302,
      "kta": 6303,
      "▁kanada": 6304,
      "▁bit": 6305,
      "▁gorun": 6306,
      "▁buy": 6307,
      "▁giy": 6308,
      "▁verici": 6309,
      "▁risk": 6310,
      "▁hakları": 6311,
      "▁calısanları": 6312,
      "ems": 6313,
      "▁arkadasim": 6314,
      "▁gazi": 6315,
      "sıyor": 6316,
      "▁gos": 6317,
      "▁atı": 6318,
      "▁isler": 6319,
      "▁reisi": 6320,
      "turu": 6321,
      "▁": 6322,
      "▁duzgun": 6323,
      "▁insul": 6324,
      "▁vaka": 6325,
      "▁yukseldigini": 6326,
      "▁ford": 6327,
      "ursuz": 6328,
      "▁sanayicileri": 6329,
      "▁demis": 6330,
      "▁ulkenin": 6331,
      "▁yıgını": 6332,
      "▁vatandası": 6333,
      "▁gelmeyi": 6334,
      "10": 6335,
      "▁alıskanlıgı": 6336,
      "▁beklenti": 6337,
      "▁eski": 6338,
      "za": 6339,
      "▁alındı": 6340,
      "▁palto": 6341,
      "▁fotografta": 6342,
      "▁tasf": 6343,
      "▁dogrultusunda": 6344,
      "▁nimet": 6345,
      "▁nesne": 6346,
      "▁7.5": 6347,
      "▁sic": 6348,
      "erv": 6349,
      "▁yataktan": 6350,
      "▁tedirgin": 6351,
      "▁ettiklerini": 6352,
      "▁ayva": 6353,
      "▁sınırlı": 6354,
      "▁iletisimi": 6355,
      "▁bolgelerinde": 6356,
      "▁dusmus": 6357,
      "▁ustun": 6358,
      "▁prob": 6359,
      "▁kelimesi": 6360,
      "▁ertel": 6361,
      "▁muduru": 6362,
      "▁heves": 6363,
      "▁bucuk": 6364,
      "▁agızları": 6365,
      "▁grupları": 6366,
      "agıyla": 6367,
      "▁hekimi": 6368,
      "yerek": 6369,
      "▁islemlerinin": 6370,
      "▁baltimore": 6371,
      "▁th": 6372,
      "▁biliyordu": 6373,
      "▁psik": 6374,
      "▁insaat": 6375,
      "▁alayı": 6376,
      "▁turp": 6377,
      "▁ustanın": 6378,
      "an": 6379,
      "ami": 6380,
      "▁guvercin": 6381,
      "itli": 6382,
      "▁yır": 6383,
      "▁mil": 6384,
      "sine": 6385,
      "▁yepyeni": 6386,
      "▁agası": 6387,
      "▁sesiyle": 6388,
      "▁fery": 6389,
      "▁tasımaya": 6390,
      ".125": 6391,
      "▁olusturdu": 6392,
      "▁husus": 6393,
      "▁dusurdu": 6394,
      "▁babadan": 6395,
      "▁karısımı": 6396,
      "▁faizleri": 6397,
      "▁62": 6398,
      "▁potansiyel": 6399,
      "▁maliyetlerinin": 6400,
      "▁cehr": 6401,
      "▁kuraklık": 6402,
      "▁balık": 6403,
      "iyi": 6404,
      "▁anım": 6405,
      "▁beydi": 6406,
      "▁insanlardan": 6407,
      "▁yasıyorum": 6408,
      "egin": 6409,
      "▁hayatımda": 6410,
      "▁tesvik": 6411,
      "▁mutf": 6412,
      "ort": 6413,
      "▁rec": 6414,
      "▁calısmalar": 6415,
      "▁personel": 6416,
      "▁veririm": 6417,
      "▁bulundugunu": 6418,
      "utmak": 6419,
      "▁sm": 6420,
      "▁fal": 6421,
      "▁moda": 6422,
      "▁dava": 6423,
      "▁degerlendir": 6424,
      "▁olmalı": 6425,
      "▁makaleye": 6426,
      "▁evla": 6427,
      "▁depremde": 6428,
      "▁isten": 6429,
      "▁gorebilir": 6430,
      "▁alım-sat": 6431,
      "▁muracaat": 6432,
      "▁oldur": 6433,
      "▁yoldası": 6434,
      "▁hepiniz": 6435,
      "▁bacakları": 6436,
      "suna": 6437,
      "▁takım": 6438,
      "▁aldim": 6439,
      "▁tarafı": 6440,
      "▁guvertede": 6441,
      "▁bay": 6442,
      "▁uyeleri": 6443,
      "▁harcam": 6444,
      "▁armag": 6445,
      "digim": 6446,
      "▁arttır": 6447,
      "ekul": 6448,
      "▁kapasite": 6449,
      "▁geyik": 6450,
      "ıldıgına": 6451,
      "▁demokrasi": 6452,
      "▁anlatmaya": 6453,
      "▁antr": 6454,
      "▁doviz": 6455,
      "▁aleyh": 6456,
      "▁konum": 6457,
      "elere": 6458,
      "▁yab": 6459,
      "▁akraba": 6460,
      "▁tekk": 6461,
      "▁fen": 6462,
      "irler": 6463,
      "ipler": 6464,
      "ziv": 6465,
      "▁birbirimizi": 6466,
      "mediler": 6467,
      "▁tercum": 6468,
      "biye": 6469,
      "▁zey": 6470,
      "▁cos": 6471,
      "▁duvarı": 6472,
      "'tan": 6473,
      "▁8": 6474,
      "▁yapmıs": 6475,
      "▁yasadı": 6476,
      "▁orgu": 6477,
      "▁binalar": 6478,
      "kar": 6479,
      "▁asagılık": 6480,
      "▁ustesinden": 6481,
      "luga": 6482,
      "di": 6483,
      "ayeti": 6484,
      "▁gibiydi": 6485,
      "▁karara": 6486,
      "▁gorus": 6487,
      "▁cocukluk": 6488,
      "▁icti": 6489,
      "▁fazlasını": 6490,
      "▁isminin": 6491,
      "▁beden": 6492,
      "▁hakkinda": 6493,
      "beri": 6494,
      "▁mudure": 6495,
      "▁guclu": 6496,
      "tigimiz": 6497,
      "▁icindeki": 6498,
      "▁manev": 6499,
      "▁bakıcı": 6500,
      "▁nispeten": 6501,
      "▁suda": 6502,
      "▁gonderdi": 6503,
      "▁muzigi": 6504,
      "▁sanatın": 6505,
      "▁kalbini": 6506,
      "▁tartısmaların": 6507,
      "ibar": 6508,
      "▁okudu": 6509,
      "▁isimiz": 6510,
      "▁ihtimalle": 6511,
      "larımdan": 6512,
      "▁lira": 6513,
      "ardı": 6514,
      "▁haziran'da": 6515,
      "▁hel": 6516,
      "imizda": 6517,
      "▁topladı": 6518,
      "▁rot": 6519,
      "▁bankacılık": 6520,
      "gıc": 6521,
      "▁basımıza": 6522,
      "malı": 6523,
      "danın": 6524,
      "▁cuma": 6525,
      "▁bizleri": 6526,
      "▁sarmas": 6527,
      "▁imal": 6528,
      "▁musterilerin": 6529,
      "▁mul": 6530,
      "▁transfer": 6531,
      "▁sonrasına": 6532,
      "▁pirz": 6533,
      "▁havalimanlarından": 6534,
      "ssa": 6535,
      "▁yumusak": 6536,
      "▁baskanı": 6537,
      "▁milyona": 6538,
      "▁bura": 6539,
      "▁20.": 6540,
      "▁lyn": 6541,
      "▁olanlar": 6542,
      "▁annesinin": 6543,
      "▁sonuc": 6544,
      "▁yargıcı": 6545,
      "▁dust": 6546,
      "▁cagında": 6547,
      "▁gordum": 6548,
      "▁telekom": 6549,
      "sef": 6550,
      "uzin": 6551,
      "▁alamadim": 6552,
      "melerde": 6553,
      "▁yadig": 6554,
      "▁gelip": 6555,
      "akta": 6556,
      "▁infil": 6557,
      "aların": 6558,
      "▁ols": 6559,
      "▁dunyasına": 6560,
      "▁gozyası": 6561,
      "▁kazancların": 6562,
      "▁tencerede": 6563,
      "ometr": 6564,
      "▁barısı": 6565,
      "▁benziyordu": 6566,
      "▁ail": 6567,
      "▁a.b.d.": 6568,
      "▁cezalan": 6569,
      "▁mer": 6570,
      "tal": 6571,
      "dugum": 6572,
      "00'": 6573,
      "▁yuksekti": 6574,
      "▁benden": 6575,
      "▁yagı": 6576,
      "▁ustumuze": 6577,
      "▁felce": 6578,
      "▁komutan": 6579,
      "▁kese": 6580,
      "▁cay": 6581,
      "inan": 6582,
      "▁yarısını": 6583,
      "▁erdi": 6584,
      "▁seneden": 6585,
      "▁romant": 6586,
      "▁engellemek": 6587,
      "▁ozgu": 6588,
      "digimiz": 6589,
      "▁yerden": 6590,
      "▁mask": 6591,
      "▁likor": 6592,
      "▁gercekl": 6593,
      "▁hind": 6594,
      "▁politikasını": 6595,
      "▁enistemiz": 6596,
      "▁ayaklarını": 6597,
      "▁biri": 6598,
      "▁hazır": 6599,
      "▁gercekte": 6600,
      "▁feda": 6601,
      "▁hikayesini": 6602,
      "unca": 6603,
      "▁canlı": 6604,
      "▁sureli": 6605,
      "▁lif": 6606,
      "urn": 6607,
      "anıyla": 6608,
      "da": 6609,
      "▁havaalanı'ndan": 6610,
      "▁sanay": 6611,
      "ılmıstır": 6612,
      "iste": 6613,
      "▁hukumete": 6614,
      "▁seylerle": 6615,
      "▁kar": 6616,
      "▁angel": 6617,
      "▁80": 6618,
      "▁yenic": 6619,
      "▁mik": 6620,
      "▁raporda": 6621,
      "▁emniyet": 6622,
      "lenmesi": 6623,
      "▁turklerin": 6624,
      "▁cıktısı": 6625,
      "▁protokol": 6626,
      "▁yil": 6627,
      "du": 6628,
      "[SEP]": 6629,
      "▁musabak": 6630,
      "▁puanlarim": 6631,
      "ilen": 6632,
      "▁graf": 6633,
      "leti": 6634,
      "▁fey": 6635,
      "▁alarak": 6636,
      "▁diyet": 6637,
      "▁akciger": 6638,
      "▁manzar": 6639,
      "▁kurulunu": 6640,
      "▁turden": 6641,
      "▁yururluge": 6642,
      "larla": 6643,
      "xpr": 6644,
      "▁neden": 6645,
      "▁41": 6646,
      "▁pesine": 6647,
      "bert": 6648,
      "▁olas": 6649,
      "leyin": 6650,
      "▁rehberi": 6651,
      "trilyon": 6652,
      "▁fuze": 6653,
      "eyl": 6654,
      "▁barıs": 6655,
      "▁muhalif": 6656,
      "▁seans": 6657,
      "▁kuması": 6658,
      "▁yapıyı": 6659,
      "▁derecede": 6660,
      "▁mis": 6661,
      "▁onlardan": 6662,
      "▁kadınlar": 6663,
      "▁guzele": 6664,
      "▁hakk": 6665,
      "▁ulkelerde": 6666,
      "ceklerini": 6667,
      "▁tedavi": 6668,
      "▁yetenek": 6669,
      "ıyla": 6670,
      "ut": 6671,
      "sadı": 6672,
      "▁gavur": 6673,
      "▁kurulusların": 6674,
      "▁istanbul'da": 6675,
      "▁aram": 6676,
      "ektedir": 6677,
      "▁hayvanları": 6678,
      "tıyor": 6679,
      "▁sırası": 6680,
      "lendirmek": 6681,
      "▁pamuk": 6682,
      "▁va": 6683,
      "▁hukumet": 6684,
      "▁mat": 6685,
      "▁secimlerin": 6686,
      "▁girisim": 6687,
      "▁gonl": 6688,
      "▁aqu": 6689,
      "▁nasıl": 6690,
      "▁ortalıgı": 6691,
      "▁dolarda": 6692,
      "▁prim": 6693,
      "aclı": 6694,
      "▁piyasaları": 6695,
      "▁cocuga": 6696,
      "6's": 6697,
      "▁bulundugu": 6698,
      "▁yırt": 6699,
      "▁renginde": 6700,
      "▁yıldız": 6701,
      "▁pencere": 6702,
      "▁en": 6703,
      "▁nehri": 6704,
      "▁faci": 6705,
      "▁ayrıntıları": 6706,
      ".ceyrek": 6707,
      "▁duvarlarına": 6708,
      "▁hanima": 6709,
      "▁lokasyon": 6710,
      "esim": 6711,
      "▁vak": 6712,
      "'da": 6713,
      "▁noktaya": 6714,
      "alarımızı": 6715,
      "ını": 6716,
      "▁kampanyalarla": 6717,
      "▁tabi": 6718,
      "▁odalar": 6719,
      "▁dunku": 6720,
      "▁ondan": 6721,
      "▁mac": 6722,
      "▁kurs": 6723,
      "▁yerlerden": 6724,
      "▁ucusla": 6725,
      "▁pencereden": 6726,
      "▁macta": 6727,
      "'den": 6728,
      "lisi": 6729,
      "▁mo": 6730,
      "▁alındıgında": 6731,
      "▁aras": 6732,
      "si": 6733,
      "▁kardesimin": 6734,
      "▁kazası": 6735,
      "kil": 6736,
      "▁sinirleri": 6737,
      "▁bakla": 6738,
      "▁leblebi": 6739,
      "▁anlatır": 6740,
      "▁haklar": 6741,
      "▁koruk": 6742,
      "istir": 6743,
      "-b": 6744,
      "▁ob": 6745,
      "▁kesi": 6746,
      "▁komit": 6747,
      "▁44": 6748,
      "▁bakımdan": 6749,
      "▁toplu": 6750,
      "▁sirketlere": 6751,
      "▁ormanı": 6752,
      "▁burokras": 6753,
      "▁tuccarlar": 6754,
      "ıldıgını": 6755,
      "▁teh": 6756,
      "▁kalmak": 6757,
      "ekon": 6758,
      "▁isleme": 6759,
      "▁ki": 6760,
      "▁gordug": 6761,
      "▁bilhassa": 6762,
      "▁komur": 6763,
      "itten": 6764,
      "▁aclık": 6765,
      "▁basvurusu": 6766,
      "▁tarihleri": 6767,
      "▁silahı": 6768,
      "▁mukaf": 6769,
      "▁opsiyonu": 6770,
      "▁universiteyi": 6771,
      "▁etrafta": 6772,
      "▁edit": 6773,
      "▁ayrım": 6774,
      "▁yonlendir": 6775,
      "▁yurudu": 6776,
      "▁fiyatina": 6777,
      "▁yankı": 6778,
      "▁dikis": 6779,
      "etidir": 6780,
      "▁sidde": 6781,
      "rak": 6782,
      "▁istifa": 6783,
      "▁heyec": 6784,
      "▁mendil": 6785,
      "▁dilim": 6786,
      "▁benzin": 6787,
      "▁hisseler": 6788,
      "▁bakar": 6789,
      "▁olanları": 6790,
      "▁temizlikten": 6791,
      "▁kanser": 6792,
      "▁doneminden": 6793,
      "5'de": 6794,
      "▁havaalanının": 6795,
      "ator": 6796,
      "▁casus": 6797,
      "▁hepsini": 6798,
      "emli": 6799,
      "▁hatun": 6800,
      "▁nazır": 6801,
      "▁iht": 6802,
      "▁dant": 6803,
      "saca": 6804,
      "▁muzaker": 6805,
      "▁nerede": 6806,
      "▁saunadan": 6807,
      "▁satıslar": 6808,
      "▁fin": 6809,
      "istiri": 6810,
      "▁dah": 6811,
      "▁kilogram": 6812,
      "▁birlesimi": 6813,
      "▁teknolojisinin": 6814,
      "adet": 6815,
      "▁tiyatronun": 6816,
      "▁ibret": 6817,
      "▁goc": 6818,
      "▁olanlara": 6819,
      "▁doneminde": 6820,
      "▁ont": 6821,
      "▁dolarlık": 6822,
      "▁memphis": 6823,
      "noz": 6824,
      "▁ilgisinden": 6825,
      "etlerini": 6826,
      "▁francisco'dan": 6827,
      "▁jam": 6828,
      "kini": 6829,
      "▁veto": 6830,
      "▁gunlerinin": 6831,
      "▁apartmanın": 6832,
      "▁seyde": 6833,
      "▁zarif": 6834,
      "▁sektoru": 6835,
      "▁attım": 6836,
      "▁sahn": 6837,
      "▁harc": 6838,
      "erb": 6839,
      "▁kırmızı": 6840,
      "▁rakı": 6841,
      "▁gununde": 6842,
      "▁girisimi": 6843,
      "em": 6844,
      "▁kadıncagız": 6845,
      "ılıp": 6846,
      "▁pencerelere": 6847,
      "▁depol": 6848,
      "uzlu": 6849,
      "▁ilgisi": 6850,
      "▁30": 6851,
      "▁yorgun": 6852,
      "▁artcı": 6853,
      "▁guleryuzlulerdi": 6854,
      "▁aqua": 6855,
      "▁hab": 6856,
      "▁yonlendirdi": 6857,
      "▁hoc": 6858,
      "▁muhabiri": 6859,
      "▁ustune": 6860,
      "ayacagını": 6861,
      "▁karlı": 6862,
      "▁isimleri": 6863,
      "▁partiyi": 6864,
      "▁bekci": 6865,
      "▁birkacı": 6866,
      "'ta": 6867,
      "sak": 6868,
      "▁bilgisayarlarının": 6869,
      "▁tezgahın": 6870,
      "▁kasırgası": 6871,
      "▁arazi": 6872,
      "▁ortalıkta": 6873,
      "cuya": 6874,
      "▁alnına": 6875,
      "▁etkil": 6876,
      "▁medya": 6877,
      "▁kasla": 6878,
      "▁dongu": 6879,
      "▁kapılarını": 6880,
      "iligine": 6881,
      "▁nic": 6882,
      "▁goster": 6883,
      "▁verg": 6884,
      "▁yap": 6885,
      "ıcısı": 6886,
      "mi": 6887,
      "▁gidelim": 6888,
      "▁hissesine": 6889,
      "▁evde": 6890,
      "▁yarından": 6891,
      "▁her": 6892,
      "▁carsaf": 6893,
      "▁misafirimiz": 6894,
      "▁dord": 6895,
      "bek": 6896,
      "▁durup": 6897,
      "▁masrafı": 6898,
      "▁zararları": 6899,
      "▁eh": 6900,
      "misler": 6901,
      "atıl": 6902,
      "▁sirke": 6903,
      "▁vaz": 6904,
      "yan": 6905,
      "▁kılıf": 6906,
      "▁pik": 6907,
      "▁izleyiciler": 6908,
      "▁jener": 6909,
      "iriz": 6910,
      "▁ifa": 6911,
      "▁durumları": 6912,
      "▁itfa": 6913,
      "▁hamal": 6914,
      "▁satıcılar": 6915,
      "tıgımı": 6916,
      "usuna": 6917,
      "▁kasap": 6918,
      "▁dogdu": 6919,
      "▁eyalette": 6920,
      "▁mektebe": 6921,
      "▁adımlar": 6922,
      "▁sıcr": 6923,
      "▁pırlanta": 6924,
      "▁galip": 6925,
      "▁idrak": 6926,
      "▁yıllık": 6927,
      "▁buro": 6928,
      "▁fazilet": 6929,
      "▁hasar": 6930,
      "▁duygusal": 6931,
      "▁saha": 6932,
      "▁neredeyse": 6933,
      "▁aklına": 6934,
      "▁nih": 6935,
      "▁kazanclarını": 6936,
      "▁buldu": 6937,
      "▁soguktu": 6938,
      "cılık": 6939,
      "▁pazartesi": 6940,
      "▁hacı": 6941,
      "adan": 6942,
      "▁nereler": 6943,
      "▁salonunda": 6944,
      "▁insa": 6945,
      "▁odenek": 6946,
      "▁canına": 6947,
      "▁devralma": 6948,
      "▁141": 6949,
      "▁turkler": 6950,
      "▁hukumetinin": 6951,
      "▁pazarda": 6952,
      "enlere": 6953,
      "▁uygulamaya": 6954,
      "▁bilgisayar-pr": 6955,
      "▁imalat": 6956,
      "▁ingilter": 6957,
      "▁hisseyle": 6958,
      "▁seher": 6959,
      "▁sarhos": 6960,
      "▁kabile": 6961,
      "▁internet": 6962,
      "▁ucuslarınız": 6963,
      "▁hazırlanısı": 6964,
      "tanı": 6965,
      "▁cerey": 6966,
      "▁reddetti": 6967,
      "▁prensesi": 6968,
      "lanabi": 6969,
      "la": 6970,
      "▁iliskisini": 6971,
      "▁veda": 6972,
      "dır": 6973,
      "yonel": 6974,
      "▁diyor": 6975,
      "▁persembe": 6976,
      "▁muzak": 6977,
      "▁pu": 6978,
      "umandan": 6979,
      "▁olumlu": 6980,
      "▁kimligini": 6981,
      "▁kirec": 6982,
      "likte": 6983,
      "▁yazılı": 6984,
      "lıgında": 6985,
      "▁abla": 6986,
      "▁bakıs": 6987,
      "▁agaclardan": 6988,
      "▁etmiyorum": 6989,
      "▁evlenme": 6990,
      "▁bunda": 6991,
      "▁ansiklop": 6992,
      "▁romanı": 6993,
      "▁rekabet": 6994,
      "▁okulda": 6995,
      "▁thom": 6996,
      "▁kabil": 6997,
      "uz": 6998,
      "▁aklından": 6999,
      "▁aracılıgıyla": 7000,
      "▁dusen": 7001,
      "▁kendisiyle": 7002,
      "uzel": 7003,
      "▁hastalık": 7004,
      "▁devri": 7005,
      "▁uyandır": 7006,
      "▁basladıgında": 7007,
      "▁pazarlık": 7008,
      "ellikle": 7009,
      "▁?..": 7010,
      "▁aquaparki": 7011,
      "▁halıları": 7012,
      "biri": 7013,
      "▁asagida": 7014,
      "0000": 7015,
      "▁alabilmek": 7016,
      "▁farz": 7017,
      "iyon": 7018,
      "▁simdiye": 7019,
      "▁musteri": 7020,
      "▁tumunu": 7021,
      "▁miktarda": 7022,
      "usu": 7023,
      "ilisi": 7024,
      "lamıslar": 7025,
      "▁tabanca": 7026,
      "cilikle": 7027,
      "▁50": 7028,
      "ımda": 7029,
      "▁continental": 7030,
      "▁kararsiz": 7031,
      "j": 7032,
      "▁prosed": 7033,
      "▁so": 7034,
      "▁olacagına": 7035,
      "▁kentte": 7036,
      "▁kapandıktan": 7037,
      "▁cumleleri": 7038,
      "▁cesitlilik": 7039,
      "▁post": 7040,
      "▁cat": 7041,
      "▁olayları": 7042,
      "▁bakıyordu": 7043,
      "▁bis": 7044,
      "▁ehemm": 7045,
      "lıyor": 7046,
      "▁agz": 7047,
      "▁tug": 7048,
      "▁otelde": 7049,
      "▁kıp": 7050,
      "▁kaderi": 7051,
      "▁uzunt": 7052,
      "▁gozlerimden": 7053,
      "ic": 7054,
      "ciger": 7055,
      "▁cesitliydi": 7056,
      "angoz": 7057,
      "▁andır": 7058,
      "▁donmek": 7059,
      "▁kasımda": 7060,
      "allı": 7061,
      "▁yuzu": 7062,
      "▁yukseliste": 7063,
      "▁pasta": 7064,
      "▁yeryuzunun": 7065,
      "▁ons": 7066,
      "▁arıyor": 7067,
      "▁mali": 7068,
      "uluk": 7069,
      "▁niyeti": 7070,
      "▁deneyler": 7071,
      "▁hukumleri": 7072,
      "▁yapti": 7073,
      "▁faturamin": 7074,
      "▁birbirlerini": 7075,
      "▁tartısmalar": 7076,
      "cagıza": 7077,
      "▁etmedi": 7078,
      "▁gosteren": 7079,
      "▁kaybedenleri": 7080,
      "▁duzeyinde": 7081,
      "▁tokat": 7082,
      "▁shearson": 7083,
      "▁tatilimden": 7084,
      "▁yanlısı": 7085,
      "▁kestane": 7086,
      "▁teli": 7087,
      "▁neyse": 7088,
      "▁$": 7089,
      ".000": 7090,
      "▁tam": 7091,
      "tmeye": 7092,
      "▁sın": 7093,
      "▁bib": 7094,
      "▁ozgurluk": 7095,
      "aba": 7096,
      "▁cambaz": 7097,
      "▁memleket": 7098,
      "▁boyuna": 7099,
      "▁charl": 7100,
      "▁geminin": 7101,
      "▁niz": 7102,
      "▁bırakma": 7103,
      "▁psikiyatri": 7104,
      "▁petr": 7105,
      "msal": 7106,
      "▁yetersizdi": 7107,
      "▁verdigi": 7108,
      "seksen": 7109,
      "▁getirisi": 7110,
      "▁siyasete": 7111,
      "▁kokain": 7112,
      "enlik": 7113,
      "edikten": 7114,
      "▁yazma": 7115,
      "▁tari": 7116,
      "▁kazancı": 7117,
      "▁damat": 7118,
      "▁kazayla": 7119,
      "▁gevs": 7120,
      "▁iskar": 7121,
      "▁dos": 7122,
      "▁ali": 7123,
      "▁muhtesem": 7124,
      "▁musav": 7125,
      "▁mevzu": 7126,
      "▁defa": 7127,
      "▁yasadıgı": 7128,
      "▁aldigim": 7129,
      "▁one": 7130,
      "▁aktiviteler": 7131,
      "▁oldugunu": 7132,
      "▁gidi": 7133,
      "▁yapmıstı": 7134,
      "▁getirilerin": 7135,
      "ini": 7136,
      "▁2.": 7137,
      "▁aksamları": 7138,
      "▁sınıf": 7139,
      "▁sidd": 7140,
      "▁savcı": 7141,
      "▁ordek": 7142,
      "▁bulmaya": 7143,
      "▁hizmetlerini": 7144,
      "▁sıklıkla": 7145,
      "4'de": 7146,
      "ıklıgı": 7147,
      "▁gozyasları": 7148,
      "▁yemis": 7149,
      "▁esliginde": 7150,
      "▁geldi": 7151,
      "▁karaltı": 7152,
      "▁bugun": 7153,
      "▁nisan": 7154,
      "▁arıyorum": 7155,
      "▁genc": 7156,
      "▁baslarda": 7157,
      "▁rotar": 7158,
      "▁10'": 7159,
      "lamaz": 7160,
      "ekkur": 7161,
      "▁dergisi": 7162,
      "▁iddi": 7163,
      "▁mahkemesinde": 7164,
      "▁yapraklarını": 7165,
      "▁cevir": 7166,
      "▁bonolar": 7167,
      "▁york'a": 7168,
      "untu": 7169,
      "▁odayi": 7170,
      "▁tenek": 7171,
      "▁ruyasında": 7172,
      "▁guresci": 7173,
      "0'da": 7174,
      "▁sallantı": 7175,
      "▁rej": 7176,
      "▁ark": 7177,
      "▁kendilerinin": 7178,
      "larımın": 7179,
      "▁yarı": 7180,
      "ekk": 7181,
      "mini": 7182,
      "▁yapacagını": 7183,
      "▁tum": 7184,
      "▁hizmeti": 7185,
      "▁maddes": 7186,
      "▁duvarları": 7187,
      "▁mektub": 7188,
      "▁onume": 7189,
      "▁l": 7190,
      "▁istediklerini": 7191,
      "iyeri": 7192,
      "▁bıcakla": 7193,
      "▁oldugundan": 7194,
      "letti": 7195,
      "masına": 7196,
      "▁gormeye": 7197,
      "ılır": 7198,
      "▁hicbirine": 7199,
      "▁yıg": 7200,
      "▁sahtek": 7201,
      "▁itim": 7202,
      "▁kokuları": 7203,
      "▁gunah": 7204,
      "▁fırladı": 7205,
      "▁maharetle": 7206,
      "▁kahvehan": 7207,
      "▁aklını": 7208,
      "ilerdi": 7209,
      "▁gelistiri": 7210,
      "▁sozlesme": 7211,
      "▁krem": 7212,
      "▁kadro": 7213,
      "mar": 7214,
      "▁cekin": 7215,
      "▁hardal": 7216,
      "▁ulasımını": 7217,
      "▁yenil": 7218,
      "▁bankaya": 7219,
      "▁nez": 7220,
      "▁yeterliydi": 7221,
      "▁tablolar": 7222,
      "isim": 7223,
      "arlık": 7224,
      "▁ted": 7225,
      "▁programda": 7226,
      "▁kısıtlamaları": 7227,
      "▁kan": 7228,
      "▁kıymetleri": 7229,
      "▁sahiplerinden": 7230,
      "▁mevc": 7231,
      "▁baskan": 7232,
      "▁tahviller": 7233,
      "lay": 7234,
      "▁oturak": 7235,
      "▁midir": 7236,
      "▁gazeteye": 7237,
      "▁americ": 7238,
      "▁kuralları": 7239,
      "▁aktarmasız": 7240,
      "▁teskilat": 7241,
      "▁rezervasyon": 7242,
      "▁yetkilileri": 7243,
      "▁baskos": 7244,
      "cli": 7245,
      "▁icecekler": 7246,
      "▁kog": 7247,
      "▁anlamda": 7248,
      "▁parkı": 7249,
      "lek": 7250,
      "▁etmesi": 7251,
      "iran": 7252,
      "ciler": 7253,
      "lamıs": 7254,
      "dugumu": 7255,
      "▁vurguladı": 7256,
      "▁hangi": 7257,
      "▁sam": 7258,
      "omatik": 7259,
      "▁istatist": 7260,
      "allah": 7261,
      "unc": 7262,
      "▁bekledigim": 7263,
      "indi": 7264,
      "▁genislet": 7265,
      "ug": 7266,
      "emedik": 7267,
      "▁japonların": 7268,
      "▁birimiz": 7269,
      "▁gostergeleri": 7270,
      "▁yuzlerini": 7271,
      "▁colum": 7272,
      "▁kosullara": 7273,
      "▁toplantılarda": 7274,
      "▁cozul": 7275,
      "▁kaybına": 7276,
      "▁spekulasyonlar": 7277,
      "▁ogrenci": 7278,
      "▁slog": 7279,
      "▁glob": 7280,
      "▁camı": 7281,
      "▁gozlerine": 7282,
      "eyaz": 7283,
      "▁uzmanlar": 7284,
      "▁vat": 7285,
      "▁yasan": 7286,
      "▁duyguları": 7287,
      "▁merdiv": 7288,
      "▁lak": 7289,
      "▁sunum": 7290,
      "ustan": 7291,
      "▁zorunda": 7292,
      "▁tanık": 7293,
      "mas": 7294,
      "acaklarını": 7295,
      "▁uzan": 7296,
      "▁borsanın": 7297,
      "▁muhaliflerin": 7298,
      "▁agzımı": 7299,
      "rin": 7300,
      "▁yurttas": 7301,
      "▁gonul": 7302,
      "▁kaset": 7303,
      "▁olamaz": 7304,
      "▁dahi": 7305,
      "▁finc": 7306,
      "▁arkas": 7307,
      "..": 7308,
      "larin": 7309,
      "11": 7310,
      "okul": 7311,
      "▁st.": 7312,
      "▁gereksin": 7313,
      "layıcı": 7314,
      "▁hissesi": 7315,
      "▁bende": 7316,
      "▁sırtına": 7317,
      "▁ceker": 7318,
      "▁sebz": 7319,
      "▁analistleri": 7320,
      "▁ilke": 7321,
      "▁kapıcı": 7322,
      "▁pek": 7323,
      "landıgı": 7324,
      "irmen": 7325,
      "ger": 7326,
      "▁insanlar": 7327,
      "▁nac": 7328,
      "▁!": 7329,
      "▁margar": 7330,
      "▁baskanın": 7331,
      "▁cıgırt": 7332,
      "ersey": 7333,
      "▁camasır": 7334,
      "amaları": 7335,
      "gen": 7336,
      "▁grubun": 7337,
      "erate": 7338,
      "▁etmekle": 7339,
      "▁orası": 7340,
      "▁oglu": 7341,
      "▁sist": 7342,
      "ttı": 7343,
      "ginde": 7344,
      "▁lavan": 7345,
      "so": 7346,
      "▁yatırım": 7347,
      "▁cocukları": 7348,
      "pan": 7349,
      "▁hesap": 7350,
      "▁york'ta": 7351,
      "▁animator": 7352,
      "ılıgı": 7353,
      "▁sebepler": 7354,
      "▁verdik": 7355,
      "▁kılav": 7356,
      "▁verme": 7357,
      "arif": 7358,
      "▁yogunluk": 7359,
      "▁yuvar": 7360,
      "▁12'den": 7361,
      "▁bagımlı": 7362,
      "▁masasında": 7363,
      "ko": 7364,
      "▁fırt": 7365,
      "▁bahan": 7366,
      "▁imkanlarindan": 7367,
      "▁calıstıgını": 7368,
      "▁fah": 7369,
      "▁karda": 7370,
      "liyor": 7371,
      "isk": 7372,
      "▁konusmanın": 7373,
      "▁duyuyorum": 7374,
      "▁komisyonlar": 7375,
      "aca": 7376,
      "▁gecesi": 7377,
      "▁bakmak": 7378,
      "uldugunu": 7379,
      "▁depo": 7380,
      "layacagını": 7381,
      "▁diril": 7382,
      "▁gulums": 7383,
      "▁yaslarda": 7384,
      "▁giz": 7385,
      "-pr": 7386,
      "▁melek": 7387,
      "0.1": 7388,
      "▁bırakarak": 7389,
      "▁sozlesmesi": 7390,
      "▁ign": 7391,
      "▁girdi": 7392,
      "▁sonunda": 7393,
      "▁kumarbaz": 7394,
      "tıras": 7395,
      "▁atıldı": 7396,
      "▁yuzyılın": 7397,
      "▁yo": 7398,
      "▁varsay": 7399,
      "▁cıkmak": 7400,
      "▁suları": 7401,
      "▁kargas": 7402,
      "▁soylenti": 7403,
      "▁ulk": 7404,
      "▁ipe": 7405,
      "dana": 7406,
      "▁sip": 7407,
      "▁gorusmek": 7408,
      "▁lokasyonu": 7409,
      "▁misafirler": 7410,
      "▁kırlarda": 7411,
      "ım": 7412,
      "▁taleb": 7413,
      "▁imparator": 7414,
      "▁taklit": 7415,
      "▁tutku": 7416,
      "▁study": 7417,
      "une": 7418,
      "▁sec": 7419,
      "▁defter": 7420,
      "▁istihbar": 7421,
      "▁klas": 7422,
      "▁insanla": 7423,
      "▁itibaren": 7424,
      "eciye": 7425,
      "ihat": 7426,
      "▁satma": 7427,
      "▁yaptır": 7428,
      "▁yetkilisi": 7429,
      "▁kentinde": 7430,
      "▁noktası": 7431,
      "▁etkinlik": 7432,
      "olojisi": 7433,
      "lemeyi": 7434,
      "innati": 7435,
      "▁phoenix'e": 7436,
      "'na": 7437,
      "▁propag": 7438,
      "▁kole": 7439,
      "▁tren": 7440,
      "lig": 7441,
      "▁dolara": 7442,
      "▁hata": 7443,
      "▁tatile": 7444,
      "▁beyefendi": 7445,
      "▁islere": 7446,
      "▁lir": 7447,
      "▁bayiler": 7448,
      "▁toplantıda": 7449,
      "▁dr.": 7450,
      "▁ibar": 7451,
      "tım": 7452,
      "▁protesto": 7453,
      "▁ilgili": 7454,
      "isinde": 7455,
      "toru": 7456,
      "▁sık": 7457,
      "▁muttef": 7458,
      "▁dukkan": 7459,
      "▁devrinin": 7460,
      "▁vazo": 7461,
      "▁birbirler": 7462,
      "▁pozisyon": 7463,
      "▁otek": 7464,
      "▁babası": 7465,
      "▁ekmekle": 7466,
      "1'den": 7467,
      "▁sirketlerinin": 7468,
      "▁beri": 7469,
      "▁hisselerini": 7470,
      "▁hissedarlar": 7471,
      "▁ucuslara": 7472,
      "▁general": 7473,
      "▁muzisy": 7474,
      "▁hukmu": 7475,
      "▁aclıktan": 7476,
      "▁tramvay": 7477,
      "▁unif": 7478,
      "▁saclarını": 7479,
      "chester": 7480,
      "▁mont": 7481,
      "▁sorumlulugu": 7482,
      "▁150": 7483,
      "▁oynat": 7484,
      "▁ayakta": 7485,
      "▁kaldim": 7486,
      "▁federal": 7487,
      "▁annesini": 7488,
      "▁rakib": 7489,
      "asindan": 7490,
      "▁industri": 7491,
      "▁hafız": 7492,
      "esindeki": 7493,
      "yar": 7494,
      "▁cenaze": 7495,
      "▁yemeginden": 7496,
      "▁tedavulde": 7497,
      "▁yonel": 7498,
      "▁dedikleri": 7499,
      "▁taham": 7500,
      "▁yapt": 7501,
      "▁guzeli": 7502,
      "etli": 7503,
      "▁daima": 7504,
      "▁sarayın": 7505,
      "dın": 7506,
      "▁istedim": 7507,
      "gene": 7508,
      "▁kadif": 7509,
      "▁sektorun": 7510,
      "▁gob": 7511,
      "▁ucuslarda": 7512,
      "▁sezlong": 7513,
      "▁albay": 7514,
      "onto": 7515,
      "esel": 7516,
      "meyle": 7517,
      "5'ten": 7518,
      "▁cıktı": 7519,
      "▁kileri": 7520,
      "organ": 7521,
      "▁gib": 7522,
      "▁re": 7523,
      "▁vaziyeti": 7524,
      "isel": 7525,
      "▁ona": 7526,
      "▁ocagında": 7527,
      "▁agrıları": 7528,
      "▁eldiv": 7529,
      "▁dalları": 7530,
      "▁gozlerinde": 7531,
      "liginde": 7532,
      "bak": 7533,
      "▁mim": 7534,
      "▁tarlaları": 7535,
      "▁numaraları": 7536,
      "▁yumr": 7537,
      "iren": 7538,
      "▁domuz": 7539,
      "▁cog": 7540,
      "▁padisah": 7541,
      "▁arar": 7542,
      "▁ulkelerin": 7543,
      "▁fiyatların": 7544,
      "▁telaf": 7545,
      "▁kapasitesi": 7546,
      "▁reorgan": 7547,
      "▁bar": 7548,
      "▁kilis": 7549,
      "▁hamlenin": 7550,
      "▁eser": 7551,
      "ville": 7552,
      "▁merc": 7553,
      "▁bulunuyordu": 7554,
      "▁potansiy": 7555,
      "▁ortalaması": 7556,
      "▁trene": 7557,
      "▁yıld": 7558,
      "melidir": 7559,
      "▁tutuyor": 7560,
      "▁yontem": 7561,
      "▁ayaz": 7562,
      "▁sesin": 7563,
      "▁cıkmaz": 7564,
      "▁otele": 7565,
      "vr": 7566,
      "▁holding": 7567,
      "▁yatırımı": 7568,
      "▁mevduat": 7569,
      "▁puanlık": 7570,
      "▁partisinin": 7571,
      "▁gelirleri": 7572,
      "▁kurumu": 7573,
      "▁buyur": 7574,
      "▁cevresi": 7575,
      "▁masayı": 7576,
      "▁organı": 7577,
      "▁biles": 7578,
      "▁tatilde": 7579,
      "▁sizinle": 7580,
      "▁duv": 7581,
      "▁kaliteye": 7582,
      "▁ayrı": 7583,
      "▁topu": 7584,
      "mli": 7585,
      "▁trav": 7586,
      "▁minar": 7587,
      "nıp": 7588,
      "▁menfaat": 7589,
      "▁yapım": 7590,
      "40": 7591,
      "▁vazife": 7592,
      "▁sarkıları": 7593,
      "▁ton": 7594,
      "▁ıslah": 7595,
      "iv": 7596,
      "dıg": 7597,
      "▁kahkahalar": 7598,
      "le": 7599,
      "▁par": 7600,
      "▁manz": 7601,
      "aldı": 7602,
      "▁tempo": 7603,
      "▁cemaat": 7604,
      "▁bilmem": 7605,
      "dev": 7606,
      "▁fırtın": 7607,
      "'ndaki": 7608,
      "▁dunya": 7609,
      "sap": 7610,
      "ırp": 7611,
      "▁niyetinde": 7612,
      "8'den": 7613,
      "▁!..": 7614,
      "lugunun": 7615,
      "▁mon": 7616,
      "ladım": 7617,
      "▁sakin": 7618,
      "▁etkilen": 7619,
      "▁klor": 7620,
      "▁get": 7621,
      "▁izini": 7622,
      "▁gelmisti": 7623,
      "9'a": 7624,
      "gun": 7625,
      "▁sektore": 7626,
      "desine": 7627,
      "▁yazının": 7628,
      "masının": 7629,
      "▁baskanının": 7630,
      "▁yayıncılar": 7631,
      "▁suru": 7632,
      "▁fuz": 7633,
      "▁yamac": 7634,
      "▁havasını": 7635,
      "▁denizin": 7636,
      "dular": 7637,
      "▁annem": 7638,
      "▁tuketici": 7639,
      "▁tutmak": 7640,
      "▁bolumlerinde": 7641,
      "▁ustunde": 7642,
      "▁mahkemeye": 7643,
      "▁cıktık": 7644,
      "▁guller": 7645,
      "▁gezin": 7646,
      "▁iskan": 7647,
      "▁endiseler": 7648,
      "▁sahipligi": 7649,
      "▁ecekti": 7650,
      "▁ilgil": 7651,
      "▁ikide": 7652,
      "▁geldiniz": 7653,
      "▁kesimi": 7654,
      "▁genelkurmay": 7655,
      "lag": 7656,
      "ack": 7657,
      "▁inanc": 7658,
      "adaki": 7659,
      "▁faydalan": 7660,
      "▁mukemm": 7661,
      "▁toplantıya": 7662,
      "▁hocası": 7663,
      "osunu": 7664,
      "▁gecer": 7665,
      "▁iftih": 7666,
      "▁maden": 7667,
      "▁sinirli": 7668,
      "▁ozlem": 7669,
      "▁gazete": 7670,
      "▁saatine": 7671,
      "▁endustriyel": 7672,
      "▁dukkanı": 7673,
      "mayı": 7674,
      "▁kızları": 7675,
      "anda": 7676,
      "guluyor": 7677,
      "▁oruc": 7678,
      "▁kovboy": 7679,
      "▁olmad": 7680,
      "▁tit": 7681,
      "▁ureticisinin": 7682,
      "▁kurulu'nun": 7683,
      "▁aklının": 7684,
      "▁cef": 7685,
      "ee": 7686,
      "▁balıkcı": 7687,
      "lıkta": 7688,
      "▁mektu": 7689,
      "▁rengi": 7690,
      "▁ny": 7691,
      "▁cekiyordu": 7692,
      "div": 7693,
      "▁vucuduna": 7694,
      "▁sozunu": 7695,
      "▁kırm": 7696,
      "▁gomlek": 7697,
      "▁sebebiyle": 7698,
      "▁dumen": 7699,
      "▁gelirlerinin": 7700,
      "▁bezi": 7701,
      "▁bilegi": 7702,
      "▁laz": 7703,
      "▁saatte": 7704,
      "▁meseleyi": 7705,
      "▁konumu": 7706,
      "▁karsilik": 7707,
      "▁inc.": 7708,
      "laması": 7709,
      "▁bilgisayarlar": 7710,
      "atist": 7711,
      "▁helv": 7712,
      "▁memlek": 7713,
      "▁yazıları": 7714,
      "▁yaratmaya": 7715,
      "▁tuken": 7716,
      "/2": 7717,
      "▁seklinde": 7718,
      "▁paraları": 7719,
      "▁agrı": 7720,
      "▁oranlar": 7721,
      "nd": 7722,
      "▁kanep": 7723,
      "▁120": 7724,
      "▁kon": 7725,
      "▁saunayi": 7726,
      "▁madal": 7727,
      "▁caddeyi": 7728,
      "lerden": 7729,
      "▁havay": 7730,
      "lerdeki": 7731,
      "▁0.1": 7732,
      "mıstım": 7733,
      "amlı": 7734,
      "▁ortamda": 7735,
      "▁muhakkak": 7736,
      "▁mutluluk": 7737,
      "bire": 7738,
      "▁lodos": 7739,
      "▁yanıyor": 7740,
      "▁faydalar": 7741,
      "▁bak": 7742,
      "▁kesintisi": 7743,
      "▁nese": 7744,
      "▁dieg": 7745,
      "▁nok": 7746,
      "ip": 7747,
      "▁calmaya": 7748,
      "nlıs": 7749,
      "▁murekkep": 7750,
      "▁bozdu": 7751,
      "▁edinmek": 7752,
      "▁kısmen": 7753,
      "▁haz": 7754,
      "▁nadir": 7755,
      "aen": 7756,
      "▁subvansiyon": 7757,
      "▁istek": 7758,
      "meme": 7759,
      "▁matba": 7760,
      "▁yanık": 7761,
      "▁rep": 7762,
      "▁icimden": 7763,
      "▁kullan": 7764,
      "▁tahrik": 7765,
      "alarının": 7766,
      "▁birisine": 7767,
      "▁hissini": 7768,
      "▁calısması": 7769,
      "▁ucundan": 7770,
      "hanenin": 7771,
      "▁gurultuye": 7772,
      "▁kayak": 7773,
      "▁hızla": 7774,
      "▁giderek": 7775,
      "▁7'de": 7776,
      "▁bulut": 7777,
      "▁esrar": 7778,
      "▁yasları": 7779,
      "▁gay": 7780,
      "▁mahkumu": 7781,
      "▁alın": 7782,
      "can": 7783,
      "▁embriy": 7784,
      "▁yerinin": 7785,
      "▁/": 7786,
      "lardı": 7787,
      "▁71": 7788,
      "▁geldikleri": 7789,
      "▁dikkatimi": 7790,
      "▁basından": 7791,
      "ıgında": 7792,
      "▁onlem": 7793,
      "▁okum": 7794,
      "▁senar": 7795,
      "yn": 7796,
      "▁evrenin": 7797,
      "45": 7798,
      "▁bırakıyor": 7799,
      "▁surecin": 7800,
      "▁ogul": 7801,
      "▁patlıc": 7802,
      "▁yuksekten": 7803,
      "▁filozof": 7804,
      "▁ruz": 7805,
      "▁iceri": 7806,
      "▁but": 7807,
      "▁dedesinin": 7808,
      "▁orneklerini": 7809,
      "▁performans": 7810,
      "▁belirtti": 7811,
      "▁kaput": 7812,
      "▁agustos'ta": 7813,
      "▁uygulamayı": 7814,
      "ig": 7815,
      "▁atıs": 7816,
      "▁uyku": 7817,
      "▁kazanarak": 7818,
      "▁oldugun": 7819,
      "gunlukla": 7820,
      "tluk": 7821,
      "▁oncesinde": 7822,
      "▁tarife": 7823,
      "▁kokuyordu": 7824,
      "▁alt": 7825,
      "▁istiyorum": 7826,
      "▁anla": 7827,
      "▁uyarı": 7828,
      "▁fizik": 7829,
      "▁kata": 7830,
      "▁okuldan": 7831,
      "▁malzemeler": 7832,
      "▁verdigini": 7833,
      "▁kararını": 7834,
      "▁oyla": 7835,
      "▁yatırımcılara": 7836,
      "▁cenneti": 7837,
      "▁fes": 7838,
      "▁dogu": 7839,
      "osunda": 7840,
      "▁gordu": 7841,
      "▁dilden": 7842,
      "▁cinayet": 7843,
      "▁olursa": 7844,
      "ladık": 7845,
      "amaya": 7846,
      "seniz": 7847,
      "▁bastır": 7848,
      "yabil": 7849,
      "abına": 7850,
      "▁kaldırmak": 7851,
      "▁vide": 7852,
      "▁yasasında": 7853,
      "▁elestirmenler": 7854,
      "▁gec": 7855,
      "elik": 7856,
      "▁poh": 7857,
      "▁magazalar": 7858,
      "▁donmus": 7859,
      "▁haksızlıgı": 7860,
      "▁hoca": 7861,
      "▁arkasından": 7862,
      "▁organizasyon": 7863,
      "▁az": 7864,
      "▁cırp": 7865,
      "▁sigortası": 7866,
      "▁gerekir": 7867,
      "▁butc": 7868,
      "▁hesaba": 7869,
      "▁eksikler": 7870,
      "▁birilerini": 7871,
      "▁senetlerine": 7872,
      "▁davranıs": 7873,
      "▁ucusunuz": 7874,
      "▁aynada": 7875,
      "▁laik": 7876,
      "▁acıklık": 7877,
      "▁dukkanları": 7878,
      "lardan": 7879,
      "▁kongre": 7880,
      "▁yok": 7881,
      "▁temizlik": 7882,
      "▁atmaya": 7883,
      "▁cosk": 7884,
      "▁degistirdi": 7885,
      "▁atıp": 7886,
      "mer": 7887,
      "ilerle": 7888,
      "▁niyetine": 7889,
      "cb": 7890,
      "▁peyn": 7891,
      "▁anlasmaz": 7892,
      "▁yonetime": 7893,
      "▁98": 7894,
      "ruk": 7895,
      "alog": 7896,
      "▁kahkaha": 7897,
      "ici": 7898,
      "▁brit": 7899,
      "▁guleryuz": 7900,
      "man": 7901,
      "▁stratej": 7902,
      "▁tv": 7903,
      "lasan": 7904,
      "▁fark": 7905,
      "▁lambaları": 7906,
      "▁vef": 7907,
      "akk": 7908,
      "▁sorunlarını": 7909,
      "▁huy": 7910,
      "▁dokul": 7911,
      "▁yasından": 7912,
      "▁sebebi": 7913,
      "dasını": 7914,
      "▁dususu": 7915,
      "▁kaygı": 7916,
      "ele": 7917,
      "▁turb": 7918,
      "▁gıc": 7919,
      "▁yatagına": 7920,
      "yete": 7921,
      "bes": 7922,
      "▁tasv": 7923,
      "▁yonet": 7924,
      "alma": 7925,
      "000": 7926,
      "▁pahali": 7927,
      "▁muhtemelen": 7928,
      "alay": 7929,
      "yabilir": 7930,
      "▁ogesi": 7931,
      "yıl": 7932,
      "▁artırmayı": 7933,
      "▁paranın": 7934,
      "gul": 7935,
      "▁kravat": 7936,
      "▁big": 7937,
      "▁oturmus": 7938,
      "alif": 7939,
      "zer": 7940,
      "▁yonelik": 7941,
      "asıl": 7942,
      "▁kasıgı": 7943,
      "▁gidil": 7944,
      "▁tadil": 7945,
      "▁mimarlık": 7946,
      "▁bekledi": 7947,
      "▁ogleden": 7948,
      "▁normaldi": 7949,
      "ilerini": 7950,
      "▁misaf": 7951,
      "estr": 7952,
      "tus": 7953,
      "elerce": 7954,
      "bia": 7955,
      "▁bacagını": 7956,
      "▁otede": 7957,
      "▁kansas": 7958,
      "▁unlu": 7959,
      "▁babasıyla": 7960,
      "▁haziranda": 7961,
      "▁sakinleri": 7962,
      "▁yardimci": 7963,
      "▁iz": 7964,
      "▁yazık": 7965,
      "▁sıvı": 7966,
      "▁yolunda": 7967,
      "▁dayanır": 7968,
      "usten": 7969,
      "▁yerde": 7970,
      "▁kıskanclık": 7971,
      "▁alır": 7972,
      "▁degerlendiririm": 7973,
      "▁baslangıcı": 7974,
      "▁perakendeciler": 7975,
      "▁sıp": 7976,
      "unden": 7977,
      "▁anımsa": 7978,
      "▁fakir": 7979,
      "▁deh": 7980,
      "▁kamp": 7981,
      "lup": 7982,
      "eldir": 7983,
      "▁depremi": 7984,
      "▁sundu": 7985,
      "▁ti": 7986,
      "men": 7987,
      "dukları": 7988,
      "▁ekl": 7989,
      "▁dusunmeye": 7990,
      "▁illa": 7991,
      "▁emn": 7992,
      "gil": 7993,
      "▁raporları": 7994,
      "▁oya": 7995,
      "▁gerekti": 7996,
      "▁yerlerine": 7997,
      "▁sarlat": 7998,
      "▁sonbah": 7999,
      "▁2000": 8000,
      "cunun": 8001,
      "haneyi": 8002,
      "▁merkez": 8003,
      "kilerin": 8004,
      "▁yiyeceklerin": 8005,
      "▁kapat": 8006,
      "gimi": 8007,
      "▁ortaokul": 8008,
      "oker": 8009,
      "▁kuralların": 8010,
      "▁paralar": 8011,
      "egor": 8012,
      "▁olmadıgını": 8013,
      "▁kuvvet": 8014,
      "▁topcu": 8015,
      "▁do": 8016,
      "ıh": 8017,
      "▁deligi": 8018,
      "▁disleri": 8019,
      "ılıklar": 8020,
      "izi": 8021,
      "▁revizyon": 8022,
      "▁baglıdır": 8023,
      "▁mı": 8024,
      "▁lis": 8025,
      "metli": 8026,
      "▁bagımsızlık": 8027,
      "▁ettiler": 8028,
      "▁hususta": 8029,
      "▁bono": 8030,
      "▁donemde": 8031,
      "▁lou": 8032,
      "▁umuyor": 8033,
      "▁basınc": 8034,
      "artma": 8035,
      "▁iki": 8036,
      "estir": 8037,
      "▁degil": 8038,
      "▁dolayı": 8039,
      "▁bakanı": 8040,
      "▁spons": 8041,
      "▁ucagının": 8042,
      "▁bilgisayar": 8043,
      "gre": 8044,
      "▁kımıl": 8045,
      "▁agız": 8046,
      "▁grupların": 8047,
      "▁merkezleri": 8048,
      "▁pansiyon": 8049,
      "▁dist": 8050,
      "▁govde": 8051,
      "▁zinciri": 8052,
      "▁tarafından": 8053,
      "▁devre": 8054,
      "mine": 8055,
      "▁vadede": 8056,
      "▁kaldım": 8057,
      "▁birbirlerinin": 8058,
      "▁baskasın": 8059,
      "enili": 8060,
      "▁'": 8061,
      "▁nuk": 8062,
      "▁suvar": 8063,
      "▁minimum": 8064,
      "▁civi": 8065,
      "▁ulkesinde": 8066,
      "▁arız": 8067,
      "ırarak": 8068,
      "▁kısm": 8069,
      "cıya": 8070,
      "▁destekl": 8071,
      "▁pazarı": 8072,
      "▁sonucunda": 8073,
      "▁pest": 8074,
      "▁tabii": 8075,
      "izdir": 8076,
      "▁renkleri": 8077,
      "▁dakika": 8078,
      "medim": 8079,
      "▁tahminler": 8080,
      "abıyla": 8081,
      "▁yapı": 8082,
      "▁enflasyon": 8083,
      "▁peygam": 8084,
      "▁zen": 8085,
      "mesine": 8086,
      "▁cihaz": 8087,
      "▁hele": 8088,
      "suzlugun": 8089,
      "▁degisikliklerini": 8090,
      "▁vap": 8091,
      "▁askına": 8092,
      "▁girisimde": 8093,
      "▁kasları": 8094,
      "▁aln": 8095,
      "▁aktivit": 8096,
      "▁cesitliligi": 8097,
      "▁yıcı": 8098,
      "▁kokt": 8099,
      "▁sahili": 8100,
      "azla": 8101,
      "▁reviz": 8102,
      "▁birtakım": 8103,
      "▁sivr": 8104,
      "▁imkanlari": 8105,
      "▁4'ten": 8106,
      "▁isgucu": 8107,
      "▁asamasında": 8108,
      "▁kendimi": 8109,
      "▁b": 8110,
      "▁gosterg": 8111,
      "▁gecerli": 8112,
      "▁yak": 8113,
      "▁kesf": 8114,
      "▁hurriyet": 8115,
      "▁odalarin": 8116,
      "▁hong": 8117,
      "▁parayı": 8118,
      "▁gogsunde": 8119,
      "▁tarak": 8120,
      "▁biridir": 8121,
      "▁hijy": 8122,
      "▁kesmek": 8123,
      "▁bulun": 8124,
      "▁inziv": 8125,
      "egimiz": 8126,
      "inlerini": 8127,
      "▁yukseltti": 8128,
      "okol": 8129,
      "▁sayısının": 8130,
      "▁aldat": 8131,
      "▁washington": 8132,
      "▁kasırga": 8133,
      "▁no": 8134,
      "▁ed": 8135,
      "▁bayan": 8136,
      "▁cumartesi": 8137,
      "▁hepimizi": 8138,
      "▁hırsız": 8139,
      "▁eksikligi": 8140,
      "niz": 8141,
      "▁yah": 8142,
      "▁uretici": 8143,
      "▁numara": 8144,
      "▁calısmaya": 8145,
      "▁patatesleri": 8146,
      "▁bakısı": 8147,
      "lıgımı": 8148,
      "▁gucluk": 8149,
      "▁edilir": 8150,
      "▁yuks": 8151,
      "▁yeni": 8152,
      "▁pencereyi": 8153,
      "▁bilirim": 8154,
      "▁otellerde": 8155,
      "▁hayatım": 8156,
      "▁reklamları": 8157,
      "ige": 8158,
      "▁sonuclar": 8159,
      "▁olanı": 8160,
      "▁anlıslanabi": 8161,
      "lerdi": 8162,
      "▁annec": 8163,
      "▁neyin": 8164,
      "▁degis": 8165,
      "▁fiyatlara": 8166,
      "▁kaz": 8167,
      "▁davası": 8168,
      "ıktan": 8169,
      "▁tuketicilerin": 8170,
      "esiz": 8171,
      "▁it": 8172,
      "dayım": 8173,
      "▁gucle": 8174,
      "▁sid": 8175,
      "▁kayıgın": 8176,
      "dıgın": 8177,
      "▁kulturel": 8178,
      "▁operator": 8179,
      "▁toplantısında": 8180,
      "▁fabrika": 8181,
      "▁hamuru": 8182,
      "▁rom": 8183,
      "▁memurları": 8184,
      "▁tar": 8185,
      "qu": 8186,
      "▁docent": 8187,
      "▁azından": 8188,
      "▁kuny": 8189,
      "▁aldıgı": 8190,
      "▁bekledigimden": 8191,
      "▁icimde": 8192,
      "oks": 8193,
      "▁basbakan": 8194,
      "gr": 8195,
      "ediyor": 8196,
      "▁cagır": 8197,
      "▁kurulu'nda": 8198,
      "▁gosteriyor": 8199,
      "alar": 8200,
      "▁bolun": 8201,
      "▁haklarının": 8202,
      "▁tutarında": 8203,
      "▁philadel": 8204,
      "meleri": 8205,
      "▁tasıma": 8206,
      "▁col": 8207,
      "▁nere": 8208,
      "▁gazetesi": 8209,
      "▁ezik": 8210,
      "▁havayol": 8211,
      "larınız": 8212,
      "▁ertelen": 8213,
      "▁silk": 8214,
      "▁kas": 8215,
      "▁finan": 8216,
      "▁acıklanmadı": 8217,
      "▁calıyor": 8218,
      "▁dusunc": 8219,
      "▁tarihini": 8220,
      "▁calıs": 8221,
      "▁yuksel": 8222,
      "▁fiyatlarında": 8223,
      "dıgım": 8224,
      "▁satısları": 8225,
      "▁hakkını": 8226,
      "cev": 8227,
      "leriniz": 8228,
      "▁kesil": 8229,
      "▁cıkmıstı": 8230,
      "▁sanal": 8231,
      "▁roportajda": 8232,
      "yken": 8233,
      "▁kurmak": 8234,
      "▁47": 8235,
      "▁asl": 8236,
      "▁okullarda": 8237,
      "▁teklifini": 8238,
      "undaki": 8239,
      "▁listel": 8240,
      "ston": 8241,
      "imizde": 8242,
      "▁adımlarla": 8243,
      "▁odanın": 8244,
      "▁sigar": 8245,
      "▁yad": 8246,
      "▁derde": 8247,
      "▁tuvalet": 8248,
      "sun": 8249,
      "▁ciz": 8250,
      "isine": 8251,
      "bal": 8252,
      "▁ını": 8253,
      "liy": 8254,
      "▁sevinc": 8255,
      "▁poz": 8256,
      "▁49": 8257,
      "▁kapılarında": 8258,
      "▁sogu": 8259,
      "▁gelisimi": 8260,
      "▁le": 8261,
      "▁kons": 8262,
      "▁albumu": 8263,
      "▁kaslarını": 8264,
      "▁toplantılar": 8265,
      "▁kl": 8266,
      "▁sebep": 8267,
      "▁hicbiri": 8268,
      "▁olmustu": 8269,
      "▁romanc": 8270,
      "▁hile": 8271,
      "▁saray": 8272,
      "▁duygularının": 8273,
      "▁dısarıda": 8274,
      "▁pen": 8275,
      "▁eylem": 8276,
      "▁diyorum": 8277,
      "▁cogu": 8278,
      "lenen": 8279,
      "tıran": 8280,
      "▁mad": 8281,
      "▁kendiliginden": 8282,
      "▁sahipleri": 8283,
      "▁turn": 8284,
      "▁aleyhinde": 8285,
      "yp": 8286,
      "▁zehir": 8287,
      "▁radyoyu": 8288,
      "yak": 8289,
      "▁loh": 8290,
      "▁otorite": 8291,
      "▁muteahh": 8292,
      "▁asagıl": 8293,
      "▁sivrisin": 8294,
      "▁kaldıgını": 8295,
      "▁yaptirdi": 8296,
      "▁muam": 8297,
      "▁kesiti": 8298,
      "▁meg": 8299,
      "▁irak": 8300,
      "▁cıg": 8301,
      "▁ucmak": 8302,
      "▁lezzetini": 8303,
      "▁begen": 8304,
      "usunu": 8305,
      "▁altinda": 8306,
      "▁buny": 8307,
      "▁bankaları": 8308,
      "▁musunuz": 8309,
      "▁gar": 8310,
      "ırt": 8311,
      "▁yolda": 8312,
      "▁pil": 8313,
      "liginin": 8314,
      "▁birisini": 8315,
      "▁busbutun": 8316,
      "▁harikaydi": 8317,
      "▁ahen": 8318,
      "▁franc": 8319,
      "▁yanıl": 8320,
      "▁seviye": 8321,
      "▁orij": 8322,
      "azaran": 8323,
      "3": 8324,
      "tikten": 8325,
      "▁telefonda": 8326,
      "▁uzmanı": 8327,
      "▁fiyatlari": 8328,
      "▁kapsamında": 8329,
      "▁agzına": 8330,
      "▁klima": 8331,
      "uldu": 8332,
      "▁karısının": 8333,
      "su": 8334,
      "▁buldum": 8335,
      "▁cev": 8336,
      "masi": 8337,
      "▁amaca": 8338,
      "ların": 8339,
      "▁seyleri": 8340,
      "diyen": 8341,
      "▁bizlere": 8342,
      "elendi": 8343,
      "▁konferans": 8344,
      "▁jap": 8345,
      "▁kufur": 8346,
      "▁duzenlemeleri": 8347,
      "▁dugum": 8348,
      "▁cız": 8349,
      "▁sektorunde": 8350,
      "▁varacak": 8351,
      "▁bayagi": 8352,
      "▁kamuya": 8353,
      "▁istin": 8354,
      "▁vatandaslar": 8355,
      "▁kahvaltida": 8356,
      "▁gormek": 8357,
      "eci": 8358,
      "▁gezinti": 8359,
      "acının": 8360,
      "▁peri": 8361,
      "▁cehen": 8362,
      "▁yım": 8363,
      "▁1.5": 8364,
      "▁kesiminin": 8365,
      "▁leble": 8366,
      "urdum": 8367,
      "▁istegi": 8368,
      "▁dik": 8369,
      "▁alacagını": 8370,
      "▁musiki": 8371,
      "▁7.9": 8372,
      "▁degismeden": 8373,
      "▁erk": 8374,
      "▁memnuniyeti": 8375,
      "▁firmanın": 8376,
      "▁sesi": 8377,
      "▁temizliginden": 8378,
      "▁men": 8379,
      "▁vermisti": 8380,
      "▁zayıf": 8381,
      "▁odemesini": 8382,
      "ıstı": 8383,
      "▁yalancı": 8384,
      "▁yasamında": 8385,
      "▁onur": 8386,
      "▁verilmesi": 8387,
      "▁yuzunden": 8388,
      "itesi": 8389,
      "▁pazarın": 8390,
      "▁patlaması": 8391,
      "▁kaf": 8392,
      "akları": 8393,
      "▁hayret": 8394,
      "▁muht": 8395,
      "▁beyef": 8396,
      "▁bekledigini": 8397,
      "apon": 8398,
      "▁oynar": 8399,
      "▁riskleri": 8400,
      "▁istihdam": 8401,
      "sana": 8402,
      "layabilir": 8403,
      "gıyla": 8404,
      "▁george": 8405,
      "'n": 8406,
      "▁koylerinde": 8407,
      "ie": 8408,
      "▁birligini": 8409,
      "▁dersiniz": 8410,
      "▁havalimanı'na": 8411,
      "▁da": 8412,
      "▁bayr": 8413,
      "izik": 8414,
      "▁tahvilin": 8415,
      "▁komuru": 8416,
      "▁boc": 8417,
      "lak": 8418,
      "▁baskenti": 8419,
      "▁calıstır": 8420,
      "medigini": 8421,
      "▁yoneticilerin": 8422,
      "e": 8423,
      "mediklerini": 8424,
      "▁zirveye": 8425,
      "▁yolculuk": 8426,
      "▁uyelerin": 8427,
      "▁vers": 8428,
      "▁vaj": 8429,
      "▁donemine": 8430,
      "lıgın": 8431,
      "▁kıvr": 8432,
      "elerden": 8433,
      "ortusu": 8434,
      "eh": 8435,
      "▁gurultusu": 8436,
      "umdan": 8437,
      "▁dor": 8438,
      "abilecegine": 8439,
      "▁oldugu": 8440,
      "▁yarısı": 8441,
      "emden": 8442,
      "▁bunyesinde": 8443,
      "▁cleveland'dan": 8444,
      "undan": 8445,
      "iyorlardi": 8446,
      "▁kullandı": 8447,
      "▁duzeyde": 8448,
      "48": 8449,
      "▁gidiyordu": 8450,
      "▁konuya": 8451,
      "▁dususun": 8452,
      "▁parmagı": 8453,
      "▁red": 8454,
      "▁kurumları": 8455,
      "▁pın": 8456,
      "ebilecegini": 8457,
      "▁baskalarına": 8458,
      "msiz": 8459,
      "atsız": 8460,
      "▁topragı": 8461,
      "sarı": 8462,
      "▁gok": 8463,
      "▁tahvillerin": 8464,
      "▁parcacıklar": 8465,
      "▁gazeteciler": 8466,
      "illerin": 8467,
      "▁ceo": 8468,
      "avuldeki": 8469,
      "▁getiri": 8470,
      "if": 8471,
      "▁tesekkur": 8472,
      "▁girdik": 8473,
      "▁varlıklarını": 8474,
      "van": 8475,
      "▁temsil": 8476,
      "▁beklenen": 8477,
      "ugu": 8478,
      "uzu": 8479,
      "▁salonda": 8480,
      "▁konserv": 8481,
      "▁ro": 8482,
      "▁endustri": 8483,
      "▁ayagında": 8484,
      "▁kaldık": 8485,
      "▁istif": 8486,
      "▁satranc": 8487,
      "▁kıt": 8488,
      "teler": 8489,
      "▁akıs": 8490,
      "▁sozlerini": 8491,
      "▁evrak": 8492,
      "▁bagdas": 8493,
      "▁yasası": 8494,
      "▁kutuphane": 8495,
      "ileri": 8496,
      "▁vasıta": 8497,
      "sir": 8498,
      "▁beklen": 8499,
      "▁kalkarak": 8500,
      "oroz": 8501,
      "▁n": 8502,
      "▁key": 8503,
      "▁ilham": 8504,
      "▁iyiligini": 8505,
      "▁incelem": 8506,
      "▁hala": 8507,
      "▁kendimde": 8508,
      "▁memuru": 8509,
      "▁kendisinde": 8510,
      "▁tartısmaya": 8511,
      "▁tak": 8512,
      "▁olcut": 8513,
      "▁gubre": 8514,
      "▁konsol": 8515,
      "▁biz": 8516,
      "▁ustunden": 8517,
      "▁vuk": 8518,
      "▁kinden": 8519,
      "▁gorgu": 8520,
      "▁liralık": 8521,
      "▁havaalanı'nda": 8522,
      "▁inek": 8523,
      "▁rehber": 8524,
      "▁verime": 8525,
      "▁5'te": 8526,
      "igi": 8527,
      "asında": 8528,
      "ıklık": 8529,
      "▁esk": 8530,
      "▁houston'dan": 8531,
      "▁toplan": 8532,
      "▁cesidi": 8533,
      "▁adada": 8534,
      "▁cesitleri": 8535,
      "▁hasır": 8536,
      "▁hatırı": 8537,
      "▁fist": 8538,
      "▁rakipler": 8539,
      "▁tedav": 8540,
      "▁basarili": 8541,
      "▁itaat": 8542,
      "eceksin": 8543,
      "▁kamıs": 8544,
      "▁cey": 8545,
      "▁yenilik": 8546,
      "▁yapımını": 8547,
      "acagı": 8548,
      "▁oglen": 8549,
      "cıs": 8550,
      "▁geceleri": 8551,
      "mesinin": 8552,
      "edigim": 8553,
      "▁donup": 8554,
      "▁parası": 8555,
      "▁ortalamanın": 8556,
      "▁eliyle": 8557,
      "▁avukatlar": 8558,
      "▁kitaplarda": 8559,
      "▁gostergesi": 8560,
      "▁dusmanları": 8561,
      "uruz": 8562,
      "▁dısar": 8563,
      "▁yosun": 8564,
      "▁maglub": 8565,
      "▁day": 8566,
      "'si": 8567,
      "lılara": 8568,
      "▁kopr": 8569,
      "▁partisi": 8570,
      "▁sorunlardan": 8571,
      "▁aska": 8572,
      "▁liseyi": 8573,
      "▁magara": 8574,
      "macı": 8575,
      "▁evinden": 8576,
      "▁etken": 8577,
      "▁basarılı": 8578,
      "▁personellerden": 8579,
      "esinde": 8580,
      "▁sıkınt": 8581,
      "iydi": 8582,
      "▁iliskilerin": 8583,
      "▁gozunden": 8584,
      "▁kırık": 8585,
      "▁hatırım": 8586,
      "▁tered": 8587,
      "▁parcası": 8588,
      "▁kapasit": 8589,
      "▁binlerce": 8590,
      "tator": 8591,
      "atti": 8592,
      "▁patronu": 8593,
      "▁kalıp": 8594,
      "▁damlac": 8595,
      "▁cikiyordu": 8596,
      "▁gunumuzde": 8597,
      "p": 8598,
      "▁garip": 8599,
      "▁ilkeleri": 8600,
      "▁ramp": 8601,
      "▁delikanlı": 8602,
      "▁niteliginde": 8603,
      "lıyorum": 8604,
      "▁carsı": 8605,
      "ecegimi": 8606,
      "▁sebeplerden": 8607,
      "enek": 8608,
      "▁sabır": 8609,
      "▁temizligini": 8610,
      "-f": 8611,
      "▁kazanclara": 8612,
      "▁etkilerini": 8613,
      "▁agı": 8614,
      "▁surgun": 8615,
      "▁buranın": 8616,
      "▁kenti": 8617,
      "▁kısım": 8618,
      "▁kurul": 8619,
      "igine": 8620,
      "▁elindeki": 8621,
      "▁ley": 8622,
      "kım": 8623,
      "larında": 8624,
      "▁masraflar": 8625,
      "▁ar": 8626,
      "lamaları": 8627,
      "▁karaya": 8628,
      "▁dog": 8629,
      "4'te": 8630,
      "▁yep": 8631,
      "▁takiben": 8632,
      "▁bolumunun": 8633,
      "kuz": 8634,
      "▁kongr": 8635,
      "▁samar": 8636,
      "▁calısanı": 8637,
      "▁esnaf": 8638,
      "▁muharr": 8639,
      "▁ısı": 8640,
      "▁eli": 8641,
      "▁gorunen": 8642,
      "seydi": 8643,
      "▁buc": 8644,
      "▁tencereyi": 8645,
      "▁akl": 8646,
      "▁beklem": 8647,
      "▁medeniyeti": 8648,
      "iklerin": 8649,
      "eden": 8650,
      "▁verdig": 8651,
      "▁milwaukee'den": 8652,
      "▁dusun": 8653,
      "▁hayatını": 8654,
      "▁gazeteyi": 8655,
      "▁jaguar": 8656,
      "▁buradaki": 8657,
      "▁durumun": 8658,
      "▁arabul": 8659,
      "▁seh": 8660,
      "▁lynch": 8661,
      "▁evren": 8662,
      "▁hun": 8663,
      "▁degisikligi": 8664,
      "▁kalkıs": 8665,
      "▁yandı": 8666,
      "▁yuku": 8667,
      "▁partiler": 8668,
      "▁elbiseler": 8669,
      "▁nashville'den": 8670,
      "ıcılar": 8671,
      "▁dosy": 8672,
      "ınızda": 8673,
      "▁basladıgını": 8674,
      "▁olacagı": 8675,
      "▁toronto": 8676,
      "ustugunu": 8677,
      "▁tıp": 8678,
      "▁ayır": 8679,
      "▁cizm": 8680,
      "▁finansman": 8681,
      "▁kibar": 8682,
      "80'": 8683,
      "▁olcumu": 8684,
      "▁bilet": 8685,
      "▁hoslan": 8686,
      "mekten": 8687,
      "▁temizleme": 8688,
      "▁ytl": 8689,
      "▁i": 8690,
      "▁toplamak": 8691,
      "burgh": 8692,
      "▁yatırımcıların": 8693,
      "▁ge": 8694,
      "eviz": 8695,
      "▁katı": 8696,
      "▁esyayı": 8697,
      "ya": 8698,
      "▁egitmen": 8699,
      "▁askerlik": 8700,
      "▁turdan": 8701,
      "▁kurtulmak": 8702,
      "▁cekis": 8703,
      "por": 8704,
      "▁kaydı": 8705,
[...]
