{
  "version": "1.0",
  "truncation": null,
  "padding": null,
  "added_tokens": [
    {
      "id": 1360,
      "content": "[MASK]",
      "single_word": false,
      "lstrip": false,
      "rstrip": false,
      "normalized": false,
      "special": true
    },
    {
      "id": 2862,
      "content": "[CLS]",
      "single_word": false,
      "lstrip": false,
      "rstrip": false,
      "normalized": false,
      "special": true
    },
    {
      "id": 2927,
      "content": "[PAD]",
      "single_word": false,
      "lstrip": false,
      "rstrip": false,
      "normalized": false,
      "special": true
    },
    {
      "id": 3535,
      "content": "[SEP]",
      "single_word": false,
      "lstrip": false,
      "rstrip": false,
      "normalized": false,
      "special": true
    },
    {
      "id": 3790,
      "content": "[UNK]",
      "single_word": false,
      "lstrip": false,
      "rstrip": false,
      "normalized": false,
      "special": true
    }
  ],
  "normalizer": {
    "type": "Sequence",
    "normalizers": [
      {
        "type": "NFD"
      },
      {
        "type": "Lowercase"
      },
      {
        "type": "StripAccents"
      }
    ]
  },
  "pre_tokenizer": {
    "type": "Sequence",
    "pretokenizers": [
      {
        "type": "Metaspace",
        "replacement": "▁",
        "prepend_scheme": "always",
        "split": true
      }
    ]
  },
  "post_processor": {
    "type": "TemplateProcessing",
    "single": [
      {
        "SpecialToken": {
          "id": "[CLS]",
          "type_id": 0
        }
      },
      {
        "Sequence": {
          "id": "A",
          "type_id": 0
        }
      },
      {
        "SpecialToken": {
          "id": "[SEP]",
          "type_id": 0
        }
      }
    ],
    "pair": [
      {
        "SpecialToken": {
          "id": "[CLS]",
          "type_id": 0
        }
      },
      {
        "Sequence": {
          "id": "A",
          "type_id": 0
        }
      },
      {
        "SpecialToken": {
          "id": "[SEP]",
          "type_id": 0
        }
      },
      {
        "Sequence": {
          "id": "B",
          "type_id": 1
        }
      },
      {
        "SpecialToken": {
          "id": "[SEP]",
          "type_id": 1
        }
      }
    ],
    "special_tokens": {
      "[CLS]": {
        "id": "[CLS]",
        "ids": [
          2862
        ],
        "tokens": [
          "[CLS]"
        ]
      },
      "[SEP]": {
        "id": "[SEP]",
        "ids": [
          3535
        ],
        "tokens": [
          "[SEP]"
        ]
      }
    }
  },
  "decoder": {
    "type": "Metaspace",
    "replacement": "▁",
    "prepend_scheme": "always",
    "split": true
  },
  "model": {
    "type": "Unigram",
    "unk_id": 3790,
    "vocab": [
      [
        "▁ucret",
        -6.700285313037716
      ],
      [
        "▁konum",
        -7.8079916830080265
      ],
      [
        "▁sar",
        -8.333490045175774
      ],
      [
        "▁hanim",
        -7.108703337113755
      ],
      [
        "▁mevcut",
        -8.668443909164484
      ],
      [
        "▁mesele",
        -8.511043627760682
      ],
      [
        "▁ici",
        -7.0951664394874765
      ],
      [
        "ması",
        -7.544787054276138
      ],
      [
        "tif",
        -7.057084189862653
      ],
      [
        "▁tam",
        -6.196690295557846
      ],
      [
        "▁2",
        -8.539880603223224
      ],
      [
        "▁ihtiyar",
        -9.13380734588878
      ],
      [
        "▁hasar",
        -8.856531384659299
      ],
      [
        "▁bulunuyor",
        -7.8053680244053245
      ],
      [
        "u",
        -2.3223596860280313
      ],
      [
        "▁ihtiyac",
        -8.107926473267032
      ],
      [
        "▁anda",
        -7.445487225501691
      ],
      [
        "▁is",
        -6.739784994148765
      ],
      [
        "▁siparis",
        -8.68406909603177
      ],
      [
        "▁toplum",
        -8.346583990260957
      ],
      [
        "▁oglum",
        -8.96255225512436
      ],
      [
        "▁dus",
        -6.979276280361036
      ],
      [
        "▁zamanda",
        -8.033931852459514
      ],
      [
        "▁kalabalık",
        -9.265554251957175
      ],
      [
        "▁herkes",
        -4.990935261703556
      ],
      [
        "▁internet",
        -9.158791771365907
      ],
      [
        "▁olayı",
        -9.034557882047887
      ],
      [
        "▁tane",
        -8.173864913498644
      ],
      [
        "yor",
        -8.85083639178367
      ],
      [
        "▁ilk",
        -5.410354367585089
      ],
      [
        "▁bende",
        -5.929104782419464
      ],
      [
        "▁basarı",
        -7.325769248214998
      ],
      [
        "▁havayolları",
        -7.47912357976236
      ],
      [
        "▁buyuk",
        -4.66891181327941
      ],
      [
        "▁temsilci",
        -8.792122335669898
      ],
      [
        "▁temiz",
        -6.874429970102587
      ],
      [
        "▁ihracı",
        -9.266988184310371
      ],
      [
        "kalan",
        -7.808471192159596
      ],
      [
        "▁borc",
        -7.838528102095567
      ],
      [
        "▁%",
        -8.548383901389244
      ],
      [
        "▁enerji",
        -8.637907774520585
      ],
      [
        "▁v",
        -6.0393683046606
      ],
      [
        "tir",
        -7.154660881162574
      ],
      [
        "ce",
        -6.77264541615444
      ],
      [
        "ledi",
        -7.8971608415441334
      ],
      [
        "▁dıs",
        -7.331994759868498
      ],
      [
        "▁es",
        -7.572712008418511
      ],
      [
        "▁tavuk",
        -9.265557747159972
      ],
      [
        "▁gunde",
        -8.585567963527751
      ],
      [
        "let",
        -8.504943740707766
      ],
      [
        "▁kart",
        -8.575384441187312
      ],
      [
        "▁az",
        -8.315137765825952
      ],
      [
        "▁japon",
        -8.749131083164222
      ],
      [
        "▁gider",
        -7.519228868430322
      ],
      [
        "ut",
        -8.310444702932404
      ],
      [
        "▁yaptıgı",
        -7.892483926859915
      ],
      [
        "▁ne",
        -5.851574282211553
      ],
      [
        "4",
        -4.477827337596428
      ],
      [
        "e",
        -3.869636175119987
      ],
      [
        "t",
        -4.63770091598948
      ],
      [
        "▁hasta",
        -7.390891898070393
      ],
      [
        "▁siyaset",
        -9.158792241528719
      ],
      [
        "▁gerektigin",
        -8.812341622485341
      ],
      [
        "▁yatagı",
        -9.185600590493024
      ],
      [
        "▁futbol",
        -8.973189336932444
      ],
      [
        "▁ısık",
        -8.455611935966083
      ],
      [
        "▁milyon",
        -3.278490722863072
      ],
      [
        "▁irak",
        -7.164062279679685
      ],
      [
        "likt",
        -6.5852774385037165
      ],
      [
        "▁motor",
        -8.837217332025979
      ],
      [
        "▁el",
        -7.037137643870452
      ],
      [
        "▁insanların",
        -8.248402358363808
      ],
      [
        "▁yatırımcı",
        -8.659854685785973
      ],
      [
        "▁da",
        -6.4410868306485405
      ],
      [
        "▁ol",
        -7.219257272428693
      ],
      [
        "di",
        -7.844100953751681
      ],
      [
        "me",
        -5.2378659416475815
      ],
      [
        "▁hakları",
        -9.053160017244126
      ],
      [
        "▁city'",
        -6.654569013407105
      ],
      [
        ",",
        -11.259274920662083
      ],
      [
        "▁temsil",
        -9.006376220962853
      ],
      [
        "▁urun",
        -8.664135397417574
      ],
      [
        "ndan",
        -6.552049776741963
      ],
      [
        "digini",
        -7.772685084993411
      ],
      [
        "▁al",
        -6.55541507051747
      ],
      [
        "2",
        -4.354190389322459
      ],
      [
        "▁aklın",
        -9.106878299570855
      ],
      [
        "▁etki",
        -8.26608743862121
      ],
      [
        "egi",
        -8.28948402091234
      ],
      [
        "et",
        -7.090292049428994
      ],
      [
        "al",
        -6.09878474258122
      ],
      [
        "b",
        -4.519809914103928
      ],
      [
        "▁az",
        -6.047843659493168
      ],
      [
        "▁ter",
        -7.516182088200093
      ],
      [
        "▁pe",
        -8.332465678184999
      ],
      [
        "▁resim",
        -8.579645970805329
      ],
      [
        "lenme",
        -8.021150890968352
      ],
      [
        "▁eser",
        -8.639708969978892
      ],
      [
        "▁savunma",
        -8.732502421362335
      ],
      [
        "▁milwaukee'",
        -7.0194406602758725
      ],
      [
        "▁le",
        -7.315492742156232
      ],
      [
        "1",
        -11.802702672349785
      ],
      [
        "▁ver",
        -6.636893771376158
      ],
      [
        "▁calısıyor",
        -7.337653964628107
      ],
      [
        "▁etrafında",
        -9.043773002367267
      ],
      [
        "▁hatır",
        -9.109652374073745
      ],
      [
        "▁baskı",
        -8.13315041536341
      ],
      [
        "▁yarısı",
        -9.084894061056279
      ],
      [
        "ki",
        -5.536838665843374
      ],
      [
        "▁sikinti",
        -8.472014094604882
      ],
      [
        "▁siir",
        -8.266705564413718
      ],
      [
        "▁finansman",
        -9.159340656623717
      ],
      [
        "'y",
        -6.385410508951507
      ],
      [
        "▁yılı",
        -8.627485732605695
      ],
      [
        "▁uzerinde",
        -7.331496302726933
      ],
      [
        "5'",
        -8.940602965195946
      ],
      [
        "larında",
        -6.674143457836384
      ],
      [
        "!",
        -5.67393291373121
      ],
      [
        "▁oranında",
        -9.195739326276371
      ],
      [
        "digi",
        -7.079380178567159
      ],
      [
        "▁dir",
        -4.563511654215546
      ],
      [
        "▁ihtiyacım",
        -7.589894257033215
      ],
      [
        "lerini",
        -6.036579000986241
      ],
      [
        "▁komisyonu",
        -8.87767011445018
      ],
      [
        "arası",
        -7.808924049151564
      ],
      [
        "▁muhendis",
        -9.085592075050975
      ],
      [
        "▁yakında",
        -7.032897940633355
      ],
      [
        "ort",
        -8.967359289826806
      ],
      [
        "▁bilme",
        -8.629309475141248
      ],
      [
        "▁uc",
        -3.768878928525731
      ],
      [
        "▁na",
        -7.717602681352165
      ],
      [
        "▁yetkilileri",
        -8.28543967364623
      ],
      [
        "▁istiyoru",
        -5.162981875868706
      ],
      [
        "▁bu",
        -3.2839112180953753
      ],
      [
        "▁bahce",
        -7.8280295936852164
      ],
      [
        "lemek",
        -8.461011517180818
      ],
      [
        "turlu",
        -6.717949319626796
      ],
      [
        "rken",
        -5.256495546297504
      ],
      [
        "▁isler",
        -8.59175210763675
      ],
      [
        "luydu",
        -8.114134763824067
      ],
      [
        "▁tesekkur",
        -7.758877076392358
      ],
      [
        "▁dus",
        -7.82404762062771
      ],
      [
        "▁listesini",
        -9.065662281251212
      ],
      [
        "▁bardagı",
        -9.085682496538046
      ],
      [
        "▁acı",
        -7.012028637456393
      ],
      [
        "▁otobus",
        -9.184439035211971
      ],
      [
        "ma",
        -5.906308248825251
      ],
      [
        "▁savas",
        -8.11100076351308
      ],
      [
        "▁nokta",
        -8.08612300786979
      ],
      [
        "sı",
        -7.915339366721517
      ],
      [
        "ın",
        -6.7312853396327315
      ],
      [
        "▁beyin",
        -9.097686004471385
      ],
      [
        "inin",
        -7.071514452756662
      ],
      [
        "▁sirketler",
        -8.507983034193309
      ],
      [
        "i",
        -5.477913994704317
      ],
      [
        "yan",
        -7.593532470531715
      ],
      [
        "▁uz",
        -8.533549843238639
      ],
      [
        "▁pahali",
        -7.506694771480903
      ],
      [
        "▁hayatta",
        -9.157709245751938
      ],
      [
        "▁class",
        -8.234958184505507
      ],
      [
        "▁vardı",
        -5.652273649936847
      ],
      [
        "▁bolumu",
        -8.969645665038495
      ],
      [
        "▁yaslı",
        -7.252695010591861
      ],
      [
        "▁baslangıc",
        -8.836904435817466
      ],
      [
        "▁strateji",
        -8.7324643839157
      ],
      [
        "▁satım",
        -8.208283820323699
      ],
      [
        "▁s",
        -7.798955791444568
      ],
      [
        "▁gidi",
        -7.3582983947074405
      ],
      [
        "▁bu",
        -7.798562956557149
      ],
      [
        "▁birimi",
        -9.16504840086516
      ],
      [
        "1'de",
        -9.238969779361716
      ],
      [
        "ında",
        -4.740979246502958
      ],
      [
        "▁olacagını",
        -8.623643767059166
      ],
      [
        "▁faaliyet",
        -7.8828173986838665
      ],
      [
        "▁allah",
        -7.021398113513979
      ],
      [
        "▁kulak",
        -8.580754324052668
      ],
      [
        "▁dur",
        -7.089734177499263
      ],
      [
        "▁b",
        -7.700730180222656
      ],
      [
        "▁saf",
        -9.113248964914352
      ],
      [
        "▁new",
        -5.186400734166305
      ],
      [
        "▁satısları",
        -8.480632835780895
      ],
      [
        "▁te",
        -7.341670935417429
      ],
      [
        "unlu",
        -7.590970635454276
      ],
      [
        "dır",
        -7.491403339716459
      ],
      [
        "▁ise",
        -7.560214555404128
      ],
      [
        "mada",
        -6.606015577227643
      ],
      [
        "▁muh",
        -8.5506726184997
      ],
      [
        "▁cocuklu",
        -6.314130727350257
      ],
      [
        "sının",
        -7.421904056470311
      ],
      [
        "▁ayakkabı",
        -8.699945525478503
      ],
      [
        "niz",
        -7.145322203916743
      ],
      [
        "mı",
        -7.613128302352344
      ],
      [
        "▁kararı",
        -8.427773930696665
      ],
      [
        "▁sokag",
        -8.897442110994358
      ],
      [
        "▁saglık",
        -8.41304073944503
      ],
      [
        "▁yol",
        -6.7559456763970065
      ],
      [
        "▁telefonla",
        -8.632706371567007
      ],
      [
        "▁araba",
        -7.397014550119054
      ],
      [
        "▁city'de",
        -6.741889597489916
      ],
      [
        "ne",
        -8.868581305044112
      ],
      [
        "ne",
        -7.295935539686148
      ],
      [
        "▁oakland",
        -6.814299663000338
      ],
      [
        "t",
        -5.498942757749235
      ],
      [
        "li",
        -7.25093721435945
      ],
      [
        "▁abla",
        -8.97949900799331
      ],
      [
        "v",
        -6.891160599133084
      ],
      [
        "▁sonra",
        -9.079282947960452
      ],
      [
        "▁mekan",
        -9.160400396420668
      ],
      [
        "luk",
        -6.898963728357534
      ],
      [
        "lara",
        -6.088226839202348
      ],
      [
        "si",
        -5.109432440690228
      ],
      [
        "▁saka",
        -8.804596605610993
      ],
      [
        "ya",
        -7.250905186197104
      ],
      [
        "caba",
        -7.273779888668228
      ],
      [
        "▁etmek",
        -7.783772629237743
      ],
      [
        "tro",
        -8.950281523617125
      ],
      [
        "▁ilgi",
        -7.462134112909516
      ],
      [
        "▁ge",
        -6.8116027363371705
      ],
      [
        "ıyor",
        -5.643997863581515
      ],
      [
        "larla",
        -7.059081848741103
      ],
      [
        "▁bası",
        -8.222583663136248
      ],
      [
        "mizi",
        -8.244898374858636
      ],
      [
        "lerinden",
        -7.1941704024461055
      ],
      [
        "▁500",
        -6.435639842843321
      ],
      [
        "▁yag",
        -8.8214295094331
      ],
      [
        "cısı",
        -9.184441425369188
      ],
      [
        "▁iste",
        -6.53043461090222
      ],
      [
        "▁mes",
        -7.820418235783703
      ],
      [
        "▁erkekler",
        -9.173384697825504
      ],
      [
        "▁aksam",
        -6.7858193303442835
      ],
      [
        "▁elli",
        -6.208347808831624
      ],
      [
        "▁git",
        -7.190858593130086
      ],
      [
        "un",
        -7.422220092128157
      ],
      [
        "▁hikaye",
        -8.446855753042504
      ],
      [
        "000",
        -5.453798378371451
      ],
      [
        "sı",
        -5.529005867144185
      ],
      [
        "▁tam",
        -6.148869347248457
      ],
      [
        "mıstı",
        -6.02665893932749
      ],
      [
        "▁arkadasları",
        -8.772332826518928
      ],
      [
        "▁d",
        -9.995414436185875
      ],
      [
        "▁degili",
        -4.9352643412096375
      ],
      [
        "▁bar",
        -8.1792259419285
      ],
      [
        "▁pittsburgh",
        -6.185234751182306
      ],
      [
        "▁yolun",
        -9.197579212966087
      ],
      [
        "bir",
        -3.7092891508635653
      ],
      [
        "iyle",
        -7.379445657613216
      ],
      [
        "▁soyle",
        -8.550943117782213
      ],
      [
        "n",
        -3.1048016047906435
      ],
      [
        "▁belediye",
        -8.818722760988077
      ],
      [
        "▁burada",
        -5.999819427533163
      ],
      [
        "ce",
        -6.800953309987891
      ],
      [
        "▁birim",
        -8.247772827388154
      ],
      [
        "▁icin",
        -5.611889001906072
      ],
      [
        "▁yuregi",
        -8.818723710077887
      ],
      [
        "ka",
        -7.172019659695891
      ],
      [
        "▁c",
        -7.032797226781592
      ],
      [
        "▁calıstı",
        -7.749913342793946
      ],
      [
        "ı",
        -6.060610007727377
      ],
      [
        "▁hırsız",
        -9.18418650956751
      ],
      [
        "▁tepe",
        -8.497979153807185
      ],
      [
        "▁yılın",
        -8.243109969214476
      ],
      [
        "▁cat",
        -9.041581488247791
      ],
      [
        "00",
        -5.835146209538178
      ],
      [
        "▁kaldır",
        -7.955063746663338
      ],
      [
        "▁sesi",
        -8.268319896631855
      ],
      [
        "ver",
        -8.51291873961286
      ],
      [
        "▁edildi",
        -7.138390582234377
      ],
      [
        "▁yaprak",
        -8.99593070320676
      ],
      [
        "fede",
        -7.174599714292582
      ],
      [
        "siz",
        -9.096035924364287
      ],
      [
        "o",
        -2.8956488792173367
      ],
      [
        "▁las",
        -6.378821391878455
      ],
      [
        "▁yapmaya",
        -9.105822414043931
      ],
      [
        "▁hafta",
        -7.127924110267621
      ],
      [
        "inizi",
        -9.281791294497124
      ],
      [
        "iy",
        -7.061574036687148
      ],
      [
        "▁york",
        -5.743778545021385
      ],
      [
        "▁hepsini",
        -5.598394737968925
      ],
      [
        "▁sokak",
        -8.408729054455513
      ],
      [
        "acagın",
        -9.132429627978343
      ],
      [
        "▁konusunda",
        -7.408570875291092
      ],
      [
        "tik",
        -7.299517765000672
      ],
      [
        "▁ok",
        -8.921083937890778
      ],
      [
        "▁burada",
        -6.054666224502334
      ],
      [
        "▁g",
        -8.577436937545238
      ],
      [
        "▁k",
        -7.3828837187317715
      ],
      [
        "▁arasında",
        -5.810899486861807
      ],
      [
        "▁ayında",
        -7.798937898634799
      ],
      [
        "▁kul",
        -7.982523881793636
      ],
      [
        "▁pat",
        -8.827477309398573
      ],
      [
        "▁dc'",
        -7.009056212200828
      ],
      [
        "▁mum",
        -7.055709991310947
      ],
      [
        "mıs",
        -5.50871196069714
      ],
      [
        "▁olmak",
        -7.689329724089977
      ],
      [
        "▁kok",
        -9.107472215666995
      ],
      [
        "▁do",
        -4.997386800813171
      ],
      [
        "likle",
        -4.864519917768543
      ],
      [
        "▁ac",
        -7.2482742931414235
      ],
      [
        "l",
        -5.464349539545049
      ],
      [
        "▁seyi",
        -8.096808847356328
      ],
      [
        "▁agrı",
        -9.133908953145543
      ],
      [
        "▁y",
        -8.402677086191826
      ],
      [
        "▁edebilir",
        -7.9759416652216935
      ],
      [
        "▁he",
        -8.274399093095273
      ],
      [
        "▁3",
        -8.728364210287182
      ],
      [
        "▁ofis",
        -8.340895257628542
      ],
      [
        "▁geriledi",
        -8.020532240761378
      ],
      [
        "▁dere",
        -9.26612688139749
      ],
      [
        "▁etmem",
        -7.137361802486287
      ],
      [
        "lerinde",
        -7.67791478959839
      ],
      [
        "▁degis",
        -7.7590724994867255
      ],
      [
        "leri",
        -4.9355083543253935
      ],
      [
        "▁mu",
        -3.89386215236744
      ],
      [
        "kları",
        -7.756776993848302
      ],
      [
        "sinin",
        -7.254941450384607
      ],
      [
        "▁aynı",
        -5.639034292821123
      ],
      [
        "▁satıslar",
        -7.933660028012585
      ],
      [
        "embe",
        -7.02583815393338
      ],
      [
        "▁posta",
        -8.889597557991685
      ],
      [
        "▁getir",
        -7.0758537302384745
      ],
      [
        "kadar",
        -6.308773486617229
      ],
      [
        "▁gunduz",
        -9.085638105435436
      ],
      [
        "▁kaldı",
        -6.863616846908395
      ],
      [
        "▁guc",
        -8.015644307898985
      ],
      [
        "▁elektr",
        -7.754751256092048
      ],
      [
        "masını",
        -8.818464774385241
      ],
      [
        "▁herkesin",
        -9.028016792228069
      ],
      [
        "▁danısma",
        -8.951384659470337
      ],
      [
        "▁dis",
        -8.141637654345313
      ],
      [
        "ol",
        -8.347550928255544
      ],
      [
        "▁orta",
        -6.966624453192289
      ],
      [
        "▁icin",
        -2.121748868097354
      ],
      [
        "larımız",
        -8.417945692957286
      ],
      [
        "▁felaket",
        -9.109402358759219
      ],
      [
        "ve",
        -6.34156215292432
      ],
      [
        "li",
        -3.8975063851607263
      ],
      [
        "▁olan",
        -5.550474496869134
      ],
      [
        "va",
        -7.352631288082245
      ],
      [
        "▁personeller",
        -7.096374009950666
      ],
      [
        "▁urunleri",
        -8.422207921197213
      ],
      [
        "▁toren",
        -9.03980624377634
      ],
      [
        "▁ederi",
        -5.945113390437031
      ],
      [
        "▁16",
        -6.1378288923756
      ],
      [
        "▁oyuncu",
        -8.54778988902503
      ],
      [
        "▁git",
        -7.996927158050616
      ],
      [
        "▁goze",
        -9.0616499684741
      ],
      [
        "▁havayollarını",
        -8.760225216901649
      ],
      [
        "▁cicek",
        -8.484888681888703
      ],
      [
        "▁potansiyel",
        -9.210748574717956
      ],
      [
        "▁kullanma",
        -9.256323471708193
      ],
      [
        "▁kesin",
        -6.101322210378779
      ],
      [
        "▁boy",
        -8.683461792900893
      ],
      [
        "on",
        -4.581243662563073
      ],
      [
        "▁gir",
        -7.723323105834944
      ],
      [
        "▁emeklilik",
        -9.21177305999101
      ],
      [
        ".",
        -5.527872474634257
      ],
      [
        "ger",
        -10.108427299989048
      ],
      [
        "▁.",
        -7.7838188156415065
      ],
      [
        "▁yaptirmadi",
        -7.762128105941826
      ],
      [
        "▁alem",
        -9.051357663466767
      ],
      [
        "▁hari",
        -7.328087744680283
      ],
      [
        "▁icecek",
        -9.23169809915171
      ],
      [
        "le",
        -5.4601027747989495
      ],
      [
        "nca",
        -6.940399481638486
      ],
      [
        "▁taze",
        -7.740657844534185
      ],
      [
        "▁bir",
        -4.897295998995685
      ],
      [
        "le",
        -5.4507944445883245
      ],
      [
        "▁uretimi",
        -8.959423920618764
      ],
      [
        "▁bayan",
        -8.120614801603455
      ],
      [
        "9",
        -4.905248477984599
      ],
      [
        "'",
        -6.823662010822051
      ],
      [
        "u",
        -6.042964596613031
      ],
      [
        "y",
        -5.290836037947181
      ],
      [
        "▁amerikalı",
        -9.104064839724339
      ],
      [
        "▁meclis",
        -9.247867467018368
      ],
      [
        "▁kedi",
        -8.913213079029703
      ],
      [
        "▁h",
        -7.308813907456981
      ],
      [
        "amadı",
        -7.507309214303723
      ],
      [
        "▁yıl",
        -6.255535948261343
      ],
      [
        "▁telefon",
        -7.870323223050649
      ],
      [
        "▁mudur",
        -8.61808940304061
      ],
      [
        "▁adamları",
        -8.87638357931822
      ],
      [
        "▁itibari",
        -9.211665233429269
      ],
      [
        "▁geciyor",
        -7.7239117338181345
      ],
      [
        "▁sosyal",
        -7.1118867177857235
      ],
      [
        "an",
        -5.06177540095515
      ],
      [
        "▁1\\/",
        -5.804230612565162
      ],
      [
        "▁lynch",
        -7.514546062729352
      ],
      [
        "▁yatırım",
        -7.530127100880072
      ],
      [
        "ılması",
        -8.625834071590543
      ],
      [
        "▁",
        -3.32808512111051
      ],
      [
        "▁seni",
        -5.079941773321164
      ],
      [
        "9",
        -12.802702672349787
      ],
      [
        "▁taraf",
        -8.000227355650443
      ],
      [
        "▁ver",
        -8.36919186281029
      ],
      [
        "▁olursa",
        -7.214387056847249
      ],
      [
        "▁isi",
        -7.794899425141291
      ],
      [
        "dur",
        -7.228951821457967
      ],
      [
        "sizligi",
        -8.940442613533685
      ],
      [
        "▁gel",
        -7.453208717310507
      ],
      [
        "▁kurt",
        -9.24027110472299
      ],
      [
        "▁soguk",
        -7.134653251528633
      ],
      [
        "▁tren",
        -8.716307073007833
      ],
      [
        "▁r",
        -7.150400225492847
      ],
      [
        "▁usta",
        -8.880082466586032
      ],
      [
        "▁kutu",
        -8.527365836920655
      ],
      [
        "mizde",
        -8.622695843962843
      ],
      [
        "e",
        -1.5758668895254075
      ],
      [
        "▁h",
        -8.007446907811186
      ],
      [
        "▁em",
        -8.859925087137402
      ],
      [
        "▁ima",
        -9.248911817072775
      ],
      [
        "▁sona",
        -8.349367676310766
      ],
      [
        "acagım",
        -7.856523502904178
      ],
      [
        "▁bir",
        -3.027951570239419
      ],
      [
        "▁askı",
        -9.063361379718458
      ],
      [
        "▁beraber",
        -6.830449956414693
      ],
      [
        "▁arac",
        -8.799851043344582
      ],
      [
        "ktan",
        -7.988419795118594
      ],
      [
        "▁olum",
        -7.395749054696527
      ],
      [
        "iyet",
        -8.030409272904247
      ],
      [
        "▁uzakt",
        -8.094471119373498
      ],
      [
        "▁giy",
        -8.090322855143498
      ],
      [
        "▁dile",
        -7.993158332510329
      ],
      [
        "▁hi",
        -4.718511553182138
      ],
      [
        "▁ruya",
        -8.754009565700368
      ],
      [
        "▁kili",
        -9.187647031602262
      ],
      [
        "▁efendi",
        -8.699941909725489
      ],
      [
        "n",
        -5.646770103360008
      ],
      [
        "aki",
        -9.842291196683833
      ],
      [
        "▁kafa",
        -7.696498675686494
      ],
      [
        "eger",
        -6.978820968666628
      ],
      [
        "▁a",
        -7.758707966971644
      ],
      [
        "▁sonuc",
        -8.265980780666341
      ],
      [
        "▁ku",
        -7.931067311392219
      ],
      [
        "▁almanya",
        -7.514640186405623
      ],
      [
        "▁kısmı",
        -8.706536368173126
      ],
      [
        "▁1990",
        -6.375653588350021
      ],
      [
        "▁sayi",
        -9.228043084677
      ],
      [
        "▁gitti",
        -6.593172881954199
      ],
      [
        "ması",
        -6.3668761661085815
      ],
      [
        "▁mev",
        -6.718102217582475
      ],
      [
        "▁kız",
        -7.483363582770445
      ],
      [
        "▁sis",
        -9.262693680190074
      ],
      [
        "▁",
        -2.896334987865555
      ],
      [
        "▁gosterge",
        -9.238060240613528
      ],
      [
        "▁yumusa",
        -7.933969756894953
      ],
      [
        "▁donemde",
        -8.723918542809393
      ],
      [
        "▁alanda",
        -9.243808387749793
      ],
      [
        "▁secim",
        -7.883933559949147
      ],
      [
        "abilecek",
        -7.923519396217422
      ],
      [
        "▁ki",
        -8.70913119721381
      ],
      [
        "▁mi",
        -3.4668702953631687
      ],
      [
        "▁artar",
        -6.100708116629359
      ],
      [
        "▁hal",
        -5.532686542076543
      ],
      [
        "▁elde",
        -7.701076702273233
      ],
      [
        "▁ozel",
        -6.385303417155286
      ],
      [
        "▁et",
        -7.999898564192765
      ],
      [
        "▁su",
        -6.019620521653813
      ],
      [
        "▁delta",
        -6.501953201151294
      ],
      [
        "▁fer",
        -9.190351058698052
      ],
      [
        "inda",
        -7.030220148536347
      ],
      [
        "▁genel",
        -8.625343237638045
      ],
      [
        "amıyor",
        -7.748780262825657
      ],
      [
        "▁ve",
        -8.709763398517566
      ],
      [
        "▁tedbir",
        -9.21074917215959
      ],
      [
        "▁hafif",
        -6.809063717921929
      ],
      [
        "▁isin",
        -8.211382441958726
      ],
      [
        "ı",
        -6.29015103576089
      ],
      [
        "▁oldugu",
        -7.969981728919599
      ],
      [
        "▁ziyaret",
        -8.459355520734828
      ],
      [
        "▁iddia",
        -7.889909561561604
      ],
      [
        "▁oyun",
        -7.9433345735129866
      ],
      [
        "▁akıl",
        -8.87442206750665
      ],
      [
        "▁goz",
        -7.0150202329835025
      ],
      [
        "5",
        -8.380825255681305
      ],
      [
        "ar",
        -7.193649927249101
      ],
      [
        "▁kitap",
        -8.051495251607811
      ],
      [
        "▁fazla",
        -5.48186363795423
      ],
      [
        "▁gene",
        -6.8420526161527
      ],
      [
        "lar",
        -6.7808297554731105
      ],
      [
        "▁ulasılama",
        -8.029357520758538
      ],
      [
        "▁eyalet",
        -8.766081029022734
      ],
      [
        "▁kol",
        -7.542504396822477
      ],
      [
        "▁alıcı",
        -8.684474939399191
      ],
      [
        "nc",
        -6.268229403463584
      ],
      [
        "▁zincir",
        -8.913129824191852
      ],
      [
        "▁uzakta",
        -9.039793629141162
      ],
      [
        "▁uc",
        -8.719926880762216
      ],
      [
        "ten",
        -6.553232975528684
      ],
      [
        "▁saldırı",
        -9.133832217773474
      ],
      [
        "▁doga",
        -8.512802293658149
      ],
      [
        "nuz",
        -7.61580098631229
      ],
      [
        "▁kisiler",
        -8.929455178860358
      ],
      [
        "▁2",
        -4.210742886992677
      ],
      [
        "▁o",
        -7.754671360884916
      ],
      [
        "ması",
        -7.70062480546779
      ],
      [
        "▁ayak",
        -8.258062536200597
      ],
      [
        "lesme",
        -9.08983980381352
      ],
      [
        "▁milli",
        -6.881432315056266
      ],
      [
        "▁coktan",
        -7.3459526941433975
      ],
      [
        "lıg",
        -8.120739869450476
      ],
      [
        "▁guzel",
        -9.058952223705235
      ],
      [
        "kten",
        -7.8655769066434535
      ],
      [
        "▁vali",
        -9.136002535229842
      ],
      [
        "yle",
        -6.293244902715194
      ],
      [
        "▁ikinci",
        -5.434783497462611
      ],
      [
        "▁o",
        -7.153300629920322
      ],
      [
        "gim",
        -7.898860368697099
      ],
      [
        "▁avrupa",
        -6.605347737836264
      ],
      [
        "▁s",
        -8.10290196795445
      ],
      [
        "lıyor",
        -7.906583154847161
      ],
      [
        "▁av",
        -8.441449128822853
      ],
      [
        "▁yeni",
        -5.517189378335924
      ],
      [
        "i",
        -11.302702672349787
      ],
      [
        "▁onunde",
        -7.8837479742194985
      ],
      [
        "▁veriyor",
        -6.931819827512155
      ],
      [
        "/",
        -11.25927492062213
      ],
      [
        "▁bina",
        -8.340845901065887
      ],
      [
        "▁ayna",
        -8.772012932471348
      ],
      [
        "▁esim",
        -8.991529220220112
      ],
      [
        "▁ucuslarını",
        -7.160794388512329
      ],
      [
        "▁f",
        -9.397581593746157
      ],
      [
        "▁avuc",
        -8.783412174295961
      ],
      [
        "in",
        -6.278286602072059
      ],
      [
        "▁jones",
        -6.852757218122895
      ],
      [
        "bil",
        -7.318263304722521
      ],
      [
        "▁aile",
        -7.166158961289619
      ],
      [
        "▁yaptirdi",
        -7.4448016464697195
      ],
      [
        "▁!",
        -9.53960140659185
      ],
      [
        "▁ideal",
        -7.7004281276149165
      ],
      [
        "en",
        -3.7741492745105623
      ],
      [
        "sını",
        -6.612111766417453
      ],
      [
        "d",
        -5.726493155243758
      ],
      [
        "▁h",
        -9.964554393764933
      ],
      [
        "de",
        -6.49762006697207
      ],
      [
        "▁ulas",
        -7.795040267685424
      ],
      [
        ".",
        -6.508779962973538
      ],
      [
        "▁sevgi",
        -8.346934925838607
      ],
      [
        "c",
        -6.519041070915973
      ],
      [
        "ma",
        -7.392277917431473
      ],
      [
        "▁ifade",
        -7.6066869482229675
      ],
      [
        "▁uyeleri",
        -9.235986741625979
      ],
      [
        "mdan",
        -8.669704766428659
      ],
      [
        "▁mas",
        -9.075369940654099
      ],
      [
        "to",
        -8.00604332669735
      ],
      [
        "▁hali",
        -7.3462464573427555
      ],
      [
        "▁firma",
        -8.284668514761584
      ],
      [
        "▁boyut",
        -9.032890394942108
      ],
      [
        "kca",
        -8.103862073496302
      ],
      [
        "▁ters",
        -7.913455746945873
      ],
      [
        "▁merkezin",
        -8.600576007573391
      ],
      [
        "ot",
        -8.550819344062992
      ],
      [
        "▁kızın",
        -9.217996409486238
      ],
      [
        "▁cocugu",
        -8.560560134201289
      ],
      [
        "▁icme",
        -8.828505971542032
      ],
      [
        "▁bilim",
        -7.656489634009978
      ],
      [
        "▁sonra",
        -7.334234802096419
      ],
      [
        "c",
        -12.802702672349787
      ],
      [
        "▁iceri",
        -8.033217702198717
      ],
      [
        "▁milwaukee'de",
        -6.829858701426127
      ],
      [
        "▁ulus",
        -9.237796522204938
      ],
      [
        "▁acı",
        -7.922015145697913
      ],
      [
        "▁international",
        -7.146804557243788
      ],
      [
        "▁ek",
        -7.43571103182742
      ],
      [
        "▁sa",
        -10.185553443214632
      ],
      [
        "yıp",
        -6.838689337787059
      ],
      [
        "▁atlanta",
        -6.37556200506916
      ],
      [
        "lestirme",
        -8.974444778279391
      ],
      [
        "sine",
        -7.109072515836234
      ],
      [
        "▁gar",
        -7.642438974413053
      ],
      [
        "▁gelme",
        -8.814004116180826
      ],
      [
        "▁rakamlar",
        -9.230466862278705
      ],
      [
        "▁saki",
        -6.9048363226009215
      ],
      [
        "▁kısa",
        -6.218398683040186
      ],
      [
        "▁eli",
        -8.440624593069597
      ],
      [
        "▁isini",
        -9.015428788060348
      ],
      [
        "▁23",
        -6.3598901647095225
      ],
      [
        "ler",
        -7.897378461101891
      ],
      [
        "o",
        -3.5207675806184575
      ],
      [
        "▁yasama",
        -9.02669774568979
      ],
      [
        "▁persembe",
        -8.121091191049143
      ],
      [
        "una",
        -7.9724090093514395
      ],
      [
        "▁eglence",
        -8.537826126345745
      ],
      [
        "ti",
        -6.150825801268467
      ],
      [
        "▁sermaye",
        -8.176417982173167
      ],
      [
        "ey",
        -7.838455394397839
      ],
      [
        "▁meger",
        -8.017094335820264
      ],
      [
        "▁otelde",
        -8.478378086365318
      ],
      [
        "ttı",
        -7.736200414926599
      ],
      [
        "▁b",
        -7.1790279934012275
      ],
      [
        "ir",
        -7.590219563061299
      ],
      [
        "etli",
        -7.941603451585964
      ],
      [
        "▁millet",
        -8.563894768740518
      ],
      [
        "▁yiyecekler",
        -8.602773030143483
      ],
      [
        "t",
        -4.499821088122294
      ],
      [
        "▁ruh",
        -8.791549868999539
      ],
      [
        "▁z",
        -7.66657424129658
      ],
      [
        "▁kim",
        -4.773235186824169
      ],
      [
        "▁sayı",
        -7.898215512671116
      ],
      [
        "&",
        -7.467592664439693
      ],
      [
        "▁sık",
        -7.878130396083801
      ],
      [
        "▁eskid",
        -7.508059908398208
      ],
      [
        "▁iyi",
        -8.20724418318709
      ],
      [
        "n",
        -3.4238264918027923
      ],
      [
        "go",
        -8.668538823653332
      ],
      [
        "abilir",
        -6.5038225141245505
      ],
      [
        "▁hukuk",
        -8.524318613305887
      ],
      [
        "▁bazıları",
        -5.5918974405545265
      ],
      [
        "nik",
        -7.6851131128068655
      ],
      [
        "▁bel",
        -5.7176907548495475
      ],
      [
        "▁satın",
        -7.396054974063144
      ],
      [
        "▁cık",
        -7.133831259452897
      ],
      [
        "alı",
        -7.639942686466609
      ],
      [
        "▁met",
        -8.899037701603312
      ],
      [
        "▁lezzet",
        -7.069936590301006
      ],
      [
        "▁hastane",
        -8.819567404694325
      ],
      [
        "-",
        -6.464735180719356
      ],
      [
        "kın",
        -7.852901375229401
      ],
      [
        "▁ydı",
        -4.64779151718307
      ],
      [
        "▁bacak",
        -9.135354618318635
      ],
      [
        "▁universite",
        -8.265571649333655
      ],
      [
        "▁makale",
        -9.261680381952793
      ],
      [
        "▁kotuy",
        -6.60561887171558
      ],
      [
        "▁genc",
        -6.307971916890873
      ],
      [
        "▁pay",
        -7.5652383678100135
      ],
      [
        "▁t",
        -7.3373380922148375
      ],
      [
        "▁p",
        -7.117840679169713
      ],
      [
        "▁gen",
        -8.857819113147354
      ],
      [
        "lı",
        -6.632415496086012
      ],
      [
        "▁vucudu",
        -8.943730504657225
      ],
      [
        "▁araya",
        -9.230000712502807
      ],
      [
        "or",
        -7.12212335956243
      ],
      [
        "ayet",
        -5.79797472285833
      ],
      [
        "▁anayasa",
        -9.039623996894203
      ],
      [
        "ell",
        -7.506926504393078
      ],
      [
        "▁corp.",
        -6.479253463719356
      ],
      [
        "▁mu",
        -7.494459165304267
      ],
      [
        "daki",
        -5.750857753661019
      ],
      [
        "▁yana",
        -7.77216474041248
      ],
      [
        "▁rahat",
        -8.6530601689483
      ],
      [
        "▁7",
        -4.986624988114711
      ],
      [
        "▁mehmet",
        -6.7328359076615385
      ],
      [
        "▁yuksekti",
        -7.493226538893931
      ],
      [
        "▁zafer",
        -9.26555364668236
      ],
      [
        "▁fikir",
        -8.446856982747711
      ],
      [
        "▁yapa",
        -6.727293164757386
      ],
      [
        "▁gibiydi",
        -8.085841885192059
      ],
      [
        "▁kur",
        -7.8407291604853375
      ],
      [
        "▁he",
        -6.338240779722565
      ],
      [
        "▁ver",
        -7.429340936125383
      ],
      [
        "▁zorunda",
        -8.446868069743477
      ],
      [
        "▁di",
        -7.813253928516719
      ],
      [
        "▁dolar",
        -6.984154267666
      ],
      [
        "▁ise",
        -5.47635401040524
      ],
      [
        "bu",
        -5.9800526379311565
      ],
      [
        "▁dogru",
        -7.603731796977202
      ],
      [
        "dik",
        -7.789608405115657
      ],
      [
        "▁h",
        -7.309976688735785
      ],
      [
        "zat",
        -7.044131657787526
      ],
      [
        "▁bulun",
        -6.850638446731321
      ],
      [
        "▁zaman",
        -6.186820020101037
      ],
      [
        "▁hali",
        -8.592895421817964
      ],
      [
        "▁odayd",
        -7.567298808617517
      ],
      [
        "▁cocukların",
        -9.015880692107189
      ],
      [
        "▁yar",
        -8.913074169224824
      ],
      [
        "ti",
        -6.971017253499957
      ],
      [
        "dikleri",
        -8.85798360119302
      ],
      [
        "▁dusuk",
        -6.218404771614379
      ],
      [
        "▁a",
        -7.785834184111778
      ],
      [
        "▁grubu",
        -8.485632841951134
      ],
      [
        "▁bakım",
        -7.325904814344627
      ],
      [
        "veya",
        -7.07356391847621
      ],
      [
        "▁dır",
        -4.287573368195668
      ],
      [
        "▁pantolon",
        -9.184432783644159
      ],
      [
        "da",
        -4.996774832265107
      ],
      [
        "muyor",
        -7.998022514967612
      ],
      [
        "2",
        -8.544205719619663
      ],
      [
        "▁gibi",
        -2.7839934559607933
      ],
      [
        "bu",
        -8.194196647069857
      ],
      [
        "▁girer",
        -8.08580220197018
      ],
      [
        "leme",
        -8.155318923096317
      ],
      [
        "imizi",
        -8.788285433918693
      ],
      [
        "lastı",
        -7.70190813304734
      ],
      [
        "▁var",
        -4.31276931439489
      ],
      [
        "▁fort",
        -6.84110215969744
      ],
      [
        "▁guven",
        -7.71859590223306
      ],
      [
        "▁benim",
        -4.0962344854904496
      ],
      [
        "▁kadını",
        -9.129245795420946
      ],
      [
        "▁arasında",
        -6.496088042795415
      ],
      [
        "da",
        -7.051083083933658
      ],
      [
        "▁bak",
        -8.489035130311635
      ],
      [
        "t",
        -6.226145392739567
      ],
      [
        "▁ak",
        -7.629095523578279
      ],
      [
        "▁parti",
        -8.052703654897645
      ],
      [
        "▁cuma",
        -6.5860505842514705
      ],
      [
        "▁hasan",
        -7.420746060243845
      ],
      [
        "▁basın",
        -7.191810982786792
      ],
      [
        "▁edebiyat",
        -8.637907765507716
      ],
      [
        "▁animasyonlar",
        -8.955462443971129
      ],
      [
        "▁chicago'da",
        -7.039318880199267
      ],
      [
        "▁etkisi",
        -8.785245417895831
      ],
      [
        "▁bil",
        -7.473804743863046
      ],
      [
        "▁ed",
        -8.127001380216779
      ],
      [
        "▁siyasi",
        -7.443068292921874
      ],
      [
        "▁arkadaslar",
        -8.696521361325377
      ],
      [
        "▁kaldi",
        -5.312955628962696
      ],
      [
        "▁kas",
        -8.154356497786436
      ],
      [
        "▁koca",
        -6.796188033102825
      ],
      [
        "▁kanun",
        -8.435196922470897
      ],
      [
        "▁rakı",
        -9.01767299568164
      ],
      [
        "olası",
        -7.700383934840717
      ],
      [
        "cisi",
        -8.887302131218464
      ],
      [
        "▁dusunmuyor",
        -7.991815649131459
      ],
      [
        "▁sab",
        -7.521771325852229
      ],
      [
        "cılar",
        -7.815495264906796
      ],
      [
        "▁bira",
        -9.157952877464899
      ],
      [
        "▁tedavi",
        -9.184433331884414
      ],
      [
        "em",
        -7.405984961836628
      ],
      [
        "da",
        -6.760170719648695
      ],
      [
        "tır",
        -7.811413125997816
      ],
      [
        "▁-",
        -9.780423386250764
      ],
      [
        "dir",
        -6.65097430980568
      ],
      [
        "▁caba",
        -8.245535876940103
      ],
      [
        "▁yeme",
        -8.498486487362069
      ],
      [
        "▁y",
        -7.76655382528825
      ],
      [
        "▁kız",
        -7.460576718113989
      ],
      [
        "▁gider",
        -8.974676257960219
      ],
      [
        "'e",
        -5.751907559199849
      ],
      [
        "k",
        -3.7536644229821867
      ],
      [
        "▁hakkında",
        -8.527259240576434
      ],
      [
        "▁ureticisi",
        -8.994568093931443
      ],
      [
        "▁yas",
        -7.570529837301062
      ],
      [
        "▁kumar",
        -9.186470509006586
      ],
      [
        "▁veriyoru",
        -6.508495517619243
      ],
      [
        "ca",
        -6.366620566290579
      ],
      [
        "ınca",
        -6.707064326619587
      ],
      [
        "▁oglan",
        -9.265557684024104
      ],
      [
        "▁nefes",
        -8.668450840739105
      ],
      [
        "▁30",
        -5.020739400265071
      ],
      [
        "▁eylul",
        -7.394419531915343
      ],
      [
        "▁hukumet",
        -7.879232898213697
      ],
      [
        "▁31",
        -5.9613495351198695
      ],
      [
        "z",
        -6.4439298817061665
      ],
      [
        "▁cap",
        -8.73314423732746
      ],
      [
        "dugunu",
        -8.493669056327576
      ],
      [
        "ci",
        -6.386089862914961
      ],
      [
        "▁bayram",
        -8.638452126817239
      ],
      [
        "▁yatak",
        -8.78523764552094
      ],
      [
        "\"",
        -3.8868225721526475
      ],
      [
        "▁muke",
        -6.726077281485866
      ],
      [
        "▁kal",
        -7.293624176935178
      ],
      [
        "mak",
        -6.577628642714442
      ],
      [
        "▁der",
        -7.283134991011326
      ],
      [
        "▁gelecek",
        -8.084386772029248
      ],
      [
        "▁sart",
        -8.918153384795348
      ],
      [
        "tmek",
        -9.068028978378308
      ],
      [
        "▁yuksel",
        -6.724838392089302
      ],
      [
        "ve",
        -7.945983395405356
      ],
      [
        "me",
        -6.392256311081204
      ],
      [
        "▁pek",
        -4.940017877222247
      ],
      [
        "ici",
        -9.115702665645355
      ],
      [
        "▁kal",
        -7.840914947774618
      ],
      [
        "▁ustu",
        -8.269791036819706
      ],
      [
        "▁daire",
        -8.593814207237493
      ],
      [
        "▁hacim",
        -8.76682422025193
      ],
      [
        "▁odalar",
        -8.045463875664097
      ],
      [
        "▁",
        -5.678204919388432
      ],
      [
        "▁havaalanında",
        -9.276282094751783
      ],
      [
        "▁bu",
        -3.2396197333277525
      ],
      [
        "butu",
        -9.366974893163306
      ],
      [
        "▁neler",
        -6.766985399399278
      ],
      [
        "▁bilgi",
        -6.763311157146803
      ],
      [
        "▁hepimiz",
        -6.275153793410539
      ],
      [
        "▁oyku",
        -8.532692255263798
      ],
      [
        "▁arta",
        -7.700972469536119
      ],
      [
        "▁esya",
        -8.3287867542646
      ],
      [
        "sınız",
        -7.186867072256493
      ],
      [
        "▁soyle",
        -6.131883733396973
      ],
      [
        "▁hisse",
        -6.278953957760908
      ],
      [
        "▁say",
        -9.239905791714065
      ],
      [
        "▁piyasada",
        -9.075641606379179
      ],
      [
        "▁alıyor",
        -7.369269360280152
      ],
      [
        "cilik",
        -8.734773727919228
      ],
      [
        "tur",
        -8.75190539394919
      ],
      [
        "▁senin",
        -5.127217236835529
      ],
      [
        "▁savası",
        -9.090028794669538
      ],
      [
        "de",
        -7.316563460623829
      ],
      [
        "la",
        -6.800277714581961
      ],
      [
        "▁d",
        -7.0730603790691
      ],
      [
        "▁deri",
        -8.942425034852205
      ],
      [
        "ta",
        -7.075810781638113
      ],
      [
        "▁babası",
        -8.585737984083444
      ],
      [
        "▁gel",
        -6.95165631870981
      ],
      [
        "▁ucusları",
        -5.711518916201767
      ],
      [
        "▁koca",
        -8.998415110348388
      ],
      [
        "▁acık",
        -6.383565921314693
      ],
      [
        "▁da",
        -6.5733829391589484
      ],
      [
        "▁doga",
        -7.419553920854101
      ],
      [
        "▁acık",
        -7.077738448004128
      ],
      [
        "▁ucuz",
        -5.893741211174547
      ],
      [
        "▁f",
        -7.125022763756138
      ],
      [
        "▁asl",
        -6.096723680153653
      ],
      [
        "▁borcu",
        -9.221761599778555
      ],
      [
        "▁arkadas",
        -8.155976271253493
      ],
      [
        "▁amacı",
        -9.059178680588767
      ],
      [
        "▁do",
        -7.8487337757674585
      ],
      [
        "ar",
        -6.810744505096577
      ],
      [
        "▁t",
        -7.581305128531039
      ],
      [
        "▁etmek",
        -7.645963501459748
      ],
      [
        "gibi",
        -6.566016267340741
      ],
      [
        "▁fe",
        -8.085017590892972
      ],
      [
        "▁getirdi",
        -7.616702195727266
      ],
      [
        "mde",
        -8.479789624774064
      ],
      [
        "g",
        -7.6374187773213595
      ],
      [
        "▁kes",
        -7.9754174227520505
      ],
      [
        "niz",
        -8.511974675088045
      ],
      [
        "▁kavga",
        -8.914346802786797
      ],
      [
        "▁ad",
        -7.814621286622341
      ],
      [
        "▁yaki",
        -7.380181896103234
      ],
      [
        "▁27",
        -5.792169366662349
      ],
      [
        "▁etti",
        -5.244491546802552
      ],
      [
        "ladı",
        -7.227434632502908
      ],
      [
        "▁farkında",
        -9.187949158211545
      ],
      [
        "▁net",
        -8.314738329550316
      ],
      [
        "▁uzere",
        -5.048386226996949
      ],
      [
        "▁temizligi",
        -7.382347171589046
      ],
      [
        "▁agac",
        -8.296327982988116
      ],
      [
        "▁umut",
        -8.783554003428335
      ],
      [
        "g",
        -6.440338115441626
      ],
      [
        "em",
        -11.241644675113925
      ],
      [
        "▁altın",
        -7.788058523667841
      ],
      [
        "▁cek",
        -7.436743750063714
      ],
      [
        "2'de",
        -9.207310170182124
      ],
      [
        "miz",
        -7.917580133211495
      ],
      [
        "▁kan",
        -7.829786021411613
      ],
      [
        "ının",
        -6.9108990445384775
      ],
      [
        "layan",
        -7.365818020276719
      ],
      [
        "▁ocak",
        -8.749251923508027
      ],
      [
        "▁york'ta",
        -6.531463418408721
      ],
      [
        "▁oz",
        -8.316439431330068
      ],
      [
        "eden",
        -7.747627165628128
      ],
      [
        "▁ser",
        -8.229373400952682
      ],
      [
        "ıyorlar",
        -8.105857323710635
      ],
      [
        "▁edile",
        -6.715375668639947
      ],
      [
        "tu",
        -7.344764118056694
      ],
      [
        "▁baskan",
        -7.535966489800675
      ],
      [
        "ks",
        -7.172960641244545
      ],
      [
        "▁o",
        -7.2866595043557005
      ],
      [
        "▁bırak",
        -7.387286025899164
      ],
      [
        "▁sac",
        -8.805421454736628
      ],
      [
        "▁cıkma",
        -8.902886974975571
      ],
      [
        "cılıgı",
        -9.00662331476514
      ],
      [
        "▁maliyetleri",
        -9.06130042201653
      ],
      [
        "▁oyle",
        -5.64675409423086
      ],
      [
        "r",
        -5.636852872095091
      ],
      [
        "▁vere",
        -7.681478507949163
      ],
      [
        "▁adam",
        -6.7973032049191575
      ],
      [
        "▁biz",
        -3.7492545438091245
      ],
      [
        "▁tanık",
        -9.071953855956071
      ],
      [
        "▁yakın",
        -6.51291594387881
      ],
      [
        "▁oyle",
        -7.302740800488347
      ],
      [
        "▁rolu",
        -9.246117151596103
      ],
      [
        "▁olagan",
        -7.907651024138545
      ],
      [
        "ustu",
        -9.19108277506911
      ],
      [
        "▁koruma",
        -8.988260463018294
      ],
      [
        "st",
        -7.453845982365773
      ],
      [
        "▁lezzet",
        -6.73402907811451
      ],
      [
        "▁dusun",
        -7.850245095663756
      ],
      [
        "▁yogu",
        -7.678901440425427
      ],
      [
        "suna",
        -9.163032227675831
      ],
      [
        "▁sert",
        -7.1477745182243595
      ],
      [
        "▁iz",
        -8.378753166033448
      ],
      [
        "dıgını",
        -8.01507250801408
      ],
      [
        "er",
        -6.002466897129617
      ],
      [
        "▁merak",
        -8.364172958438992
      ],
      [
        "▁gosterme",
        -9.178849973017444
      ],
      [
        "▁arazi",
        -9.1343926466768
      ],
      [
        "▁tamam",
        -7.598141378379166
      ],
      [
        "▁var",
        -6.823044519766965
      ],
      [
        "on",
        -7.7850315464718
      ],
      [
        "▁kır",
        -8.221503937377351
      ],
      [
        "lu",
        -7.066717717642606
      ],
      [
        "▁vermek",
        -8.004792800352853
      ],
      [
        "▁kendimiz",
        -6.381187203357939
      ],
      [
        "▁gol",
        -8.426356280235495
      ],
      [
        "▁ust",
        -7.1185545875493945
      ],
      [
        "gimiz",
        -7.94985572875908
      ],
      [
        "▁canım",
        -9.287071415770304
      ],
      [
        "▁kalktı",
        -7.886009822571879
      ],
      [
        "▁yuz",
        -7.136694801828872
      ],
      [
        "▁daya",
        -7.891355334680133
      ],
      [
        "uk",
        -7.897456278568061
      ],
      [
        "▁suc",
        -8.417426485506745
      ],
      [
        "▁francisco'da",
        -6.071724489525052
      ],
      [
        "▁dilim",
        -9.159717604418727
      ],
      [
        "▁denver",
        -5.7868022311210385
      ],
      [
        "▁ayır",
        -7.778536024236658
      ],
      [
        "▁co.",
        -6.722681917663853
      ],
      [
        "▁mes",
        -9.00696301625283
      ],
      [
        "▁lu",
        -6.665428194656309
      ],
      [
        "▁analist",
        -9.277475614697773
      ],
      [
        "▁kotu",
        -6.126470262783284
      ],
      [
        "▁yuz",
        -7.670978609104915
      ],
      [
        "nun",
        -7.261526598545302
      ],
      [
        "▁icin",
        -8.2977333032575
      ],
      [
        "misti",
        -6.5142912228694145
      ],
      [
        "hazır",
        -7.439275110079495
      ],
      [
        "▁olması",
        -8.526793766343044
      ],
      [
        "▁elektrik",
        -8.668443894159804
      ],
      [
        "i",
        -3.0732711944739446
      ],
      [
        "▁inanc",
        -9.234973488437857
      ],
      [
        "▁si",
        -7.789679622917591
      ],
      [
        "▁yapılan",
        -6.930759230668282
      ],
      [
        "▁ticar",
        -7.098188015801196
      ],
      [
        "▁yasadı",
        -8.008898561057688
      ],
      [
        "▁kere",
        -8.162841277947777
      ],
      [
        "▁gecir",
        -8.071277663634248
      ],
      [
        "▁siyah",
        -6.836355013505865
      ],
      [
        "▁gosteriyor",
        -7.443828602836216
      ],
      [
        "▁az",
        -6.228579455277073
      ],
      [
        "▁1",
        -7.9935184399359045
      ],
      [
        "▁aylık",
        -8.39762086251526
      ],
      [
        "▁cıkıyor",
        -7.668218371157288
      ],
      [
        "▁etmekte",
        -8.105778819205497
      ],
      [
        "il",
        -7.4285698011536105
      ],
      [
        "ki",
        -7.374134809775946
      ],
      [
        "%",
        -4.15274950330704
      ],
      [
        "lugunu",
        -8.51392372174918
      ],
      [
        "▁oze",
        -5.742770299722372
      ],
      [
        "▁aradi",
        -7.001861803754912
      ],
      [
        "kul",
        -7.445528430967017
      ],
      [
        "▁gorur",
        -7.9204836149073845
      ],
      [
        "▁adamın",
        -8.757063545815678
      ],
      [
        "▁isti",
        -8.27823488638959
      ],
      [
        "mustu",
        -6.781809022152461
      ],
      [
        "c",
        -7.5862404107172114
      ],
      [
        "▁firması",
        -9.049522595719365
      ],
      [
        "tigini",
        -9.216531961604142
      ],
      [
        "▁agır",
        -6.486111117241364
      ],
      [
        "▁tadi",
        -8.860675835723349
      ],
      [
        "▁agız",
        -8.733967393887792
      ],
      [
        "▁denver'de",
        -5.235049417651073
      ],
      [
        "am",
        -8.203053439865858
      ],
      [
        "▁hattı",
        -9.269458712702638
      ],
      [
        "▁m",
        -6.381337525489952
      ],
      [
        "▁gecer",
        -7.708042171527353
      ],
      [
        "ir",
        -7.963442746892628
      ],
      [
        "▁fena",
        -6.968289593173502
      ],
      [
        "▁ayse",
        -7.481719248849631
      ],
      [
        "▁ediliyor",
        -7.891656034002362
      ],
      [
        "▁gok",
        -8.933303167239396
      ],
      [
        "▁yanıt",
        -9.220194832855992
      ],
      [
        "25",
        -6.232172715619793
      ],
      [
        "ecegini",
        -8.103579295941818
      ],
      [
        "▁yon",
        -7.340045931705189
      ],
      [
        "▁kay",
        -8.239592915265249
      ],
      [
        "dır",
        -6.258060699112947
      ],
      [
        "mek",
        -6.7970414603660325
      ],
      [
        "up",
        -6.664406222104445
      ],
      [
        "▁mana",
        -9.025032638438368
      ],
      [
        "▁halin",
        -8.154148747865134
      ],
      [
        "'ni",
        -5.574022015552036
      ],
      [
        "an",
        -7.668036448599423
      ],
      [
        "▁taksi",
        -8.910186564666272
      ],
      [
        "ın",
        -5.887516146500829
      ],
      [
        "nı",
        -6.710902618572602
      ],
      [
        "mistir",
        -7.126474716936368
      ],
      [
        "▁19",
        -5.584042382710445
      ],
      [
        "▁francisco",
        -5.975874976284412
      ],
      [
        "▁s",
        -6.730562792173902
      ],
      [
        "▁um",
        -9.090623721839641
      ],
      [
        "ip",
        -7.360818963021514
      ],
      [
        "▁tesis",
        -6.616020582163001
      ],
      [
        "▁50",
        -5.71151570423236
      ],
      [
        "▁etme",
        -7.77969284402397
      ],
      [
        "cılık",
        -8.704831302828836
      ],
      [
        "▁belir",
        -7.01863760235201
      ],
      [
        "▁tartısma",
        -8.637907839573327
      ],
      [
        "▁ne",
        -3.7234659756415116
      ],
      [
        "▁olmadı",
        -7.96913798943342
      ],
      [
        "▁$'",
        -8.386597056400266
      ],
      [
        "▁bag",
        -7.999964485174749
      ],
      [
        "▁gorustu",
        -7.9020892297624155
      ],
      [
        "▁kup",
        -9.076191902652129
      ],
      [
        "▁ayı",
        -8.239141008943818
      ],
      [
        "▁belirtti",
        -7.656579501550219
      ],
      [
        "▁kale",
        -8.82620580773412
      ],
      [
        "al",
        -7.273703626204868
      ],
      [
        "▁y",
        -5.777906907927924
      ],
      [
        "▁sorusturma",
        -9.184432852639185
      ],
      [
        "▁kardesim",
        -9.092843218399368
      ],
      [
        "lıklar",
        -8.714344771031648
      ],
      [
        "▁sık",
        -6.294492815396525
      ],
      [
        "▁bunun",
        -4.410861678317182
      ],
      [
        "▁ekibi",
        -8.7324811902774
      ],
      [
        "▁dosya",
        -8.874358242984005
      ],
      [
        "▁itiraz",
        -9.085595176457382
      ],
      [
        "▁gece",
        -5.84717434541588
      ],
      [
        "▁simdi",
        -4.839658505846722
      ],
      [
        "cisin",
        -8.720310916178633
      ],
      [
        "▁gun",
        -6.126458840101926
      ],
      [
        "▁oturdu",
        -7.951363958361007
      ],
      [
        "▁agzı",
        -9.224906671889105
      ],
      [
        "▁derece",
        -7.831622361792163
      ],
      [
        "dar",
        -7.6194731209705875
      ],
      [
        "▁american",
        -6.195236345137257
      ],
      [
        "larımızı",
        -8.55026986935729
      ],
      [
        "▁1/",
        -5.763313856350588
      ],
      [
        "▁lider",
        -8.862049597846612
      ],
      [
        "▁cıkıs",
        -9.160340497208216
      ],
      [
        "lu",
        -5.1210618574198765
      ],
      [
        "▁ah",
        -8.750882367660655
      ],
      [
        "▁gid",
        -7.611832682912436
      ],
      [
        "▁konusma",
        -8.069276125370173
      ],
      [
        "▁ları",
        -7.663888550713381
      ],
      [
        "d",
        -5.721200899562443
      ],
      [
        "lerden",
        -6.965940865704701
      ],
      [
        "▁kav",
        -8.674692255794678
      ],
      [
        "▁to",
        -8.41944362619186
      ],
      [
        "z",
        -4.5682277971428595
      ],
      [
        "▁begendi",
        -6.880585119097507
      ],
      [
        "▁karar",
        -8.04310582923914
      ],
      [
        "▁gu",
        -8.515050676381094
      ],
      [
        "▁kalın",
        -7.857673845133262
      ],
      [
        "▁",
        -0.7087938101118976
      ],
      [
        "▁sır",
        -8.584438899317977
      ],
      [
        "landırma",
        -8.855843285745568
      ],
      [
        "▁tercih",
        -7.36917190534865
      ],
      [
        "▁ekim",
        -8.916117434687447
      ],
      [
        "▁tehlike",
        -8.74913123487551
      ],
      [
        "▁bunda",
        -5.599372556045785
      ],
      [
        "▁odeme",
        -8.121320862103763
      ],
      [
        "▁golge",
        -8.62390698678089
      ],
      [
        "▁diger",
        -5.558160624346541
      ],
      [
        "▁yasında",
        -7.252155777757522
      ],
      [
        "▁deger",
        -7.7698001211189425
      ],
      [
        "▁arası",
        -7.805190244867434
      ],
      [
        "▁tarla",
        -8.582925126425142
      ],
      [
        "▁rapor",
        -8.01496068513338
      ],
      [
        "▁nerede",
        -6.062949956164146
      ],
      [
        "▁sirket",
        -6.6657560514341645
      ],
      [
        "▁hazine",
        -8.276559903779194
      ],
      [
        "▁sigara",
        -8.434512082471137
      ],
      [
        "▁ne",
        -5.821288615264743
      ],
      [
        "▁fiyatlar",
        -8.383214391304799
      ],
      [
        "▁plani",
        -9.099471471329435
      ],
      [
        "▁olacaktı",
        -7.686503783249895
      ],
      [
        "arı",
        -7.610035301300221
      ],
      [
        "fi",
        -11.266950760798968
      ],
      [
        "ir",
        -7.350414316749047
      ],
      [
        "▁oldugu",
        -6.555164051062155
      ],
      [
        "ecegim",
        -7.839826375890536
      ],
      [
        "r",
        -2.8894423049085054
      ],
      [
        "▁mini",
        -7.586700161277121
      ],
      [
        "▁gec",
        -7.33005100813819
      ],
      [
        "▁sec",
        -9.182176610237825
      ],
      [
        "dıgı",
        -6.991658992121112
      ],
      [
        "▁zayıf",
        -7.356978041362085
      ],
      [
        "▁baltimore",
        -7.055212171793511
      ],
      [
        "ımızda",
        -9.182448287531633
      ],
      [
        "▁getiri",
        -8.112961287462271
      ],
      [
        "▁yesil",
        -7.087950345497538
      ],
      [
        "li",
        -6.000409179436919
      ],
      [
        "▁sok",
        -8.961720428179198
      ],
      [
        "do",
        -8.702041847669687
      ],
      [
        "▁tesvik",
        -8.874290861386388
      ],
      [
        "▁bakan",
        -8.970274011211199
      ],
      [
        "▁yukselis",
        -8.975559006702222
      ],
      [
        "▁arama",
        -9.221876468262682
      ],
      [
        "likte",
        -8.990350068696134
      ],
      [
        "ksiyon",
        -9.088675854786501
      ],
      [
        "▁yemegi",
        -8.220065552689796
      ],
      [
        "▁oldugun",
        -8.646577600885145
      ],
      [
        "..",
        -11.199619583058196
      ],
      [
        "sine",
        -6.626909697637752
      ],
      [
        "▁yıllar",
        -7.3342302490251665
      ],
      [
        "sın",
        -6.317591010097858
      ],
      [
        "▁deneme",
        -8.836958739599474
      ],
      [
        "▁bakıyor",
        -7.6522711076711545
      ],
      [
        "ı",
        -6.406712641891062
      ],
      [
        "▁geliyor",
        -6.385021080408034
      ],
      [
        "▁destekl",
        -7.789312649940847
      ],
      [
        "▁verdigi",
        -7.9448733685188415
      ],
      [
        "▁pazarı",
        -9.27523890155691
      ],
      [
        "c",
        -4.279370353650242
      ],
      [
        "▁sınıfı",
        -8.333678580354036
      ],
      [
        "▁mustafa",
        -6.791076982860259
      ],
      [
        "te",
        -7.467968447315105
      ],
      [
        "imiz",
        -7.654294781691021
      ],
      [
        "▁parasını",
        -9.097808276294653
      ],
      [
        "teki",
        -7.159472131224541
      ],
      [
        "taki",
        -7.874113274632397
      ],
      [
        "▁si",
        -7.881488492099301
      ],
      [
        "▁az",
        -6.513859532864736
      ],
      [
        "▁oluyordu",
        -8.038549691026162
      ],
      [
        "▁yıla",
        -9.119364016889838
      ],
      [
        "um",
        -7.856672001906384
      ],
      [
        "▁zarar",
        -8.130412808164333
      ],
      [
        "▁us",
        -7.919635127858362
      ],
      [
        "▁evi",
        -8.235996461980235
      ],
      [
        "▁tahviller",
        -8.452885463521051
      ],
      [
        "▁yok",
        -7.2599109513501
      ],
      [
        "larımı",
        -9.136012180560131
      ],
      [
        "▁sehrin",
        -8.618774669483278
      ],
      [
        "▁benim",
        -8.792945027508583
      ],
      [
        "▁17",
        -6.060985725555577
      ],
      [
        "▁belge",
        -8.894691988751632
      ],
      [
        "▁demis",
        -8.002527127695814
      ],
      [
        "de",
        -5.956809009026433
      ],
      [
        "▁yonetim",
        -7.740122413204883
      ],
      [
        "▁bebek",
        -9.18448139804936
      ],
      [
        "ama",
        -3.6363263764093876
      ],
      [
        "▁burada",
        -8.661928982701042
      ],
      [
        "▁cumartesi",
        -7.848091800957634
      ],
      [
        "met",
        -8.003927957192406
      ],
      [
        "▁gitme",
        -9.219801632759763
      ],
      [
        "▁sak",
        -8.931598880006453
      ],
      [
        "▁8",
        -5.673436706926548
      ],
      [
        "a",
        -3.0926384863008716
      ],
      [
        "▁ic",
        -6.5122645661677705
      ],
      [
        "ligini",
        -8.108001076095718
      ],
      [
        "ki",
        -5.5698717135917235
      ],
      [
        "▁detay",
        -9.237804491029998
      ],
      [
        "▁sah",
        -8.72781811966113
      ],
      [
        "▁memphis'",
        -6.943093293916075
      ],
      [
        "ıp",
        -6.25876414179405
      ],
      [
        "mesi",
        -6.687189361268551
      ],
      [
        "sında",
        -6.670458369798463
      ],
      [
        "▁oteli",
        -8.47805518617881
      ],
      [
        "▁defter",
        -8.766081686830475
      ],
      [
        "▁aileler",
        -7.369626967330246
      ],
      [
        "▁bes",
        -4.200467720609225
      ],
      [
        "▁emin",
        -7.908159108045561
      ],
      [
        "erhal",
        -6.774381132419854
      ],
      [
        "▁darbe",
        -8.874817040324377
      ],
      [
        "▁duzenleme",
        -8.97687974030394
      ],
      [
        "▁cevre",
        -8.110900204163372
      ],
      [
        "▁alısveris",
        -8.783321678300645
      ],
      [
        "ıs",
        -7.610157220135955
      ],
      [
        "▁yıllar",
        -8.359085233484333
      ],
      [
        "▁cocuklar",
        -7.46577111373702
      ],
      [
        "▁olmak",
        -7.522140956449084
      ],
      [
        "▁hayır",
        -8.87430823098856
      ],
      [
        "▁tasarruf",
        -8.893521615512956
      ],
      [
        "▁borsa",
        -8.147457900007362
      ],
      [
        "▁fayda",
        -8.89352324865228
      ],
      [
        "▁phoenix'de",
        -7.159244228942083
      ],
      [
        "e",
        -14.014858445102625
      ],
      [
        "▁dun",
        -7.235957280212261
      ],
      [
        "za",
        -7.74459105300923
      ],
      [
        "▁tel",
        -8.280970386811369
      ],
      [
        "'yi",
        -6.905114978370966
      ],
      [
        "▁s",
        -6.137580433212939
      ],
      [
        "▁karı",
        -8.566794796700648
      ],
      [
        "▁tu",
        -3.938386220041247
      ],
      [
        "ındaki",
        -6.302860002047394
      ],
      [
        "▁sohbet",
        -9.062336192956653
      ],
      [
        "e",
        -6.0226497054236
      ],
      [
        "▁karsı",
        -6.153679112273401
      ],
      [
        "▁korku",
        -8.494357416941966
      ],
      [
        "▁hizmeti",
        -7.680368071402715
      ],
      [
        "um",
        -7.115616408515032
      ],
      [
        "▁civarı",
        -9.063760726658103
      ],
      [
        "▁kendi",
        -3.6923164518459464
      ],
      [
        "▁ankara",
        -7.380548858337815
      ],
      [
        "▁ahmet",
        -7.443061242354157
      ],
      [
        "▁dallas'ta",
        -5.831611737310719
      ],
      [
        "la",
        -6.087479352776021
      ],
      [
        "▁istanbul",
        -6.9167515459812785
      ],
      [
        "▁bedel",
        -9.239291552950863
      ],
      [
        "▁yalnız",
        -5.438889735507824
      ],
      [
        "▁igne",
        -9.210750665628831
      ],
      [
        "ah",
        -10.102976726532598
      ],
      [
        "▁temmuz'da",
        -7.1520440770625395
      ],
      [
        "▁ov",
        -9.046789757699507
      ],
      [
        "tıp",
        -7.593361442092817
      ],
      [
        "v",
        -7.387732354266288
      ],
      [
        "en",
        -5.3052406247657595
      ],
      [
        "▁yalnız",
        -7.33281012201264
      ],
      [
        "▁hedef",
        -8.18593860443748
      ],
      [
        "▁gezi",
        -9.01778224351924
      ],
      [
        "▁uzun",
        -5.543953467048654
      ],
      [
        "▁onumuzde",
        -6.6642336137495635
      ],
      [
        "▁yapıl",
        -7.961584390834188
      ],
      [
        "▁sure",
        -7.28891588231846
      ],
      [
        "el",
        -7.908226801642846
      ],
      [
        "▁dura",
        -7.947902083681182
      ],
      [
        "▁sabah",
        -6.836555084669988
      ],
      [
        "▁park",
        -8.220388583604716
      ],
      [
        "▁aktivite",
        -8.510979166396105
      ],
      [
        "arak",
        -6.338457073017426
      ],
      [
        "▁ser",
        -8.02993368817483
      ],
      [
        "▁evvel",
        -7.64205734534819
      ],
      [
        "ırtı",
        -9.006532098705529
      ],
      [
        "▁adamı",
        -8.794112316599366
      ],
      [
        "▁sirketleri",
        -8.944784139788265
      ],
      [
        "▁ulasım",
        -8.232089408051962
      ],
      [
        "▁yardımcı",
        -8.54570144388573
      ],
      [
        "▁cop",
        -9.187476861219697
      ],
      [
        "ci",
        -6.558745201072433
      ],
      [
        "▁l",
        -8.210971820502298
      ],
      [
        "▁yedi",
        -7.992579213624683
      ],
      [
        "8",
        -8.812455732926335
      ],
      [
        "▁gordu",
        -6.562571279504344
      ],
      [
        "▁koylu",
        -9.090580075427102
      ],
      [
        "▁oldu",
        -6.11244623246
      ],
      [
        "▁film",
        -8.14115901478138
      ],
      [
        "▁dus",
        -6.205217174489007
      ],
      [
        "▁al",
        -7.418703508785995
      ],
      [
        "▁yok",
        -5.673449594892746
      ],
      [
        "▁yapmak",
        -7.782968235270767
      ],
      [
        "▁cag",
        -8.908057307966487
      ],
      [
        "▁biz",
        -8.453634900272268
      ],
      [
        "▁beni",
        -4.178270586993837
      ],
      [
        "iyor",
        -6.144043743031416
      ],
      [
        "sızlıg",
        -8.958453016416442
      ],
      [
        "▁belir",
        -9.00553335491078
      ],
      [
        "lemeye",
        -9.174259126096127
      ],
      [
        ".",
        -11.199601737652316
      ],
      [
        "o",
        -7.574551781463574
      ],
      [
        "i",
        -4.221177834337591
      ],
      [
        "▁lık",
        -7.543427626244069
      ],
      [
        "▁restoran",
        -8.893521646008914
      ],
      [
        "▁cam",
        -8.278763033800436
      ],
      [
        "az",
        -8.127170169749071
      ],
      [
        "▁d",
        -7.195383266702848
      ],
      [
        "▁sekilde",
        -6.9343255899499665
      ],
      [
        "m",
        -2.9325309695287753
      ],
      [
        "▁guzel",
        -4.6868662279318345
      ],
      [
        "kte",
        -7.35037593173012
      ],
      [
        "▁vapur",
        -8.818724275131956
      ],
      [
        "um",
        -7.390982499019929
      ],
      [
        "▁tutun",
        -8.956981770393622
      ],
      [
        "kun",
        -6.934578789773962
      ],
      [
        "▁yukarı",
        -7.710122915547684
      ],
      [
        "he",
        -9.640744780901306
      ],
      [
        "larda",
        -6.625079208474298
      ],
      [
        "▁altı",
        -4.934015652473771
      ],
      [
        "gi",
        -10.055124877575476
      ],
      [
        "▁anlat",
        -7.3079045913956735
      ],
      [
        "▁paylas",
        -8.090472398469242
      ],
      [
        "▁aklı",
        -8.767898760571974
      ],
      [
        "▁veriri",
        -7.049008130012812
      ],
      [
        "▁gecme",
        -8.933251380471315
      ],
      [
        "▁de",
        -7.4014055902578075
      ],
      [
        "lerinde",
        -7.0125540810192755
      ],
      [
        "▁hepsi",
        -4.889312156628242
      ],
      [
        "k",
        -3.6843136976939306
      ],
      [
        "▁yıllarda",
        -8.77114918050395
      ],
      [
        "▁satır",
        -9.242066504802045
      ],
      [
        "▁kasım",
        -7.275691703053962
      ],
      [
        "▁petrol",
        -8.275989561185678
      ],
      [
        "▁bas",
        -7.000258970503873
      ],
      [
        "▁yolu",
        -8.170510039055223
      ],
      [
        "▁ana",
        -8.000417531046022
      ],
      [
        "mu",
        -8.007723877257241
      ],
      [
        "▁karsısında",
        -8.188729380027178
      ],
      [
        "▁uzak",
        -7.406265993146311
      ],
      [
        "▁baz",
        -4.579867385347588
      ],
      [
        "▁yonetimi",
        -8.813402453615899
      ],
      [
        "▁ataturk",
        -7.278120223726106
      ],
      [
        "▁istedi",
        -7.261650360695219
      ],
      [
        "umuz",
        -8.472502678846805
      ],
      [
        "▁der",
        -9.056053649695603
      ],
      [
        "▁otele",
        -9.23541388016689
      ],
      [
        "ınca",
        -7.947628324505812
      ],
      [
        "ku",
        -6.584838249141784
      ],
      [
        "▁birinci",
        -7.1335006358246815
      ],
      [
        "meye",
        -7.783807652790882
      ],
      [
        "▁cesaret",
        -9.210748642555433
      ],
      [
        "▁beyaz",
        -6.4459865411685575
      ],
      [
        "du",
        -7.241565201592455
      ],
      [
        "t",
        -5.970918673445825
      ],
      [
        "▁gayrimenkul",
        -9.109401514027187
      ],
      [
        "▁kabul",
        -7.16351654772781
      ],
      [
        "ilmesi",
        -8.90626305055217
      ],
      [
        "miz",
        -7.61763875271955
      ],
      [
        "▁esi",
        -8.99266015017786
      ],
      [
        "▁bizde",
        -5.95228552226769
      ],
      [
        "▁seyin",
        -9.117802402083788
      ],
      [
        "tan",
        -6.533111240677067
      ],
      [
        "sız",
        -5.176838559836356
      ],
      [
        "u",
        -4.295690201514403
      ],
      [
        "▁sıkıntı",
        -8.5654911841611
      ],
      [
        "▁dol",
        -8.84690985508967
      ],
      [
        "▁neden",
        -7.877552953613556
      ],
      [
        "er",
        -11.017488162037896
      ],
      [
        "▁yasında",
        -8.582914753879415
      ],
      [
        "▁co",
        -9.039477571792052
      ],
      [
        "c",
        -4.254761954954862
      ],
      [
        "▁ay",
        -6.8422290870286915
      ],
      [
        "yacak",
        -7.885185747428375
      ],
      [
        "▁gerekir",
        -7.705429791453389
      ],
      [
        "r",
        -5.8170413630356
      ],
      [
        "▁temel",
        -7.146028545686271
      ],
      [
        "▁yaz",
        -7.906160392763469
      ],
      [
        "▁endeksi",
        -8.015787291087785
      ],
      [
        "▁aklım",
        -9.136951738122464
      ],
      [
        "▁ustun",
        -7.801889603744685
      ],
      [
        "▁agustos",
        -8.472013747169907
      ],
      [
        "lerle",
        -7.095149800028127
      ],
      [
        "an",
        -5.667896662926791
      ],
      [
        "g",
        -7.286923133280997
      ],
      [
        "▁ana",
        -6.844882439670697
      ],
      [
        "▁a",
        -7.219965941963332
      ],
      [
        "▁degil",
        -2.538634238983531
      ],
      [
        "▁karsı",
        -7.837352174554885
      ],
      [
        "▁fabrika",
        -8.329764194045104
      ],
      [
        "▁ceyrek",
        -8.282990045152872
      ],
      [
        "▁yapar",
        -7.516474856185284
      ],
      [
        "la",
        -5.343461336518209
      ],
      [
        "ız",
        -7.869825429200022
      ],
      [
        "▁cabuk",
        -7.40249017050742
      ],
      [
        "▁4",
        -8.582810380796616
      ],
      [
        "▁gurultu",
        -8.953537624706769
      ],
      [
        "t",
        -5.827538301864367
      ],
      [
        "oni",
        -7.648805856565081
      ],
      [
        "▁yardimci",
        -8.195543634166544
      ],
      [
        "▁adını",
        -8.798439827280081
      ],
      [
        "▁uzman",
        -8.951201762821405
      ],
      [
        "y",
        -9.699613634584775
      ],
      [
        "▁kumas",
        -8.540755874889005
      ],
      [
        "▁istasyon",
        -9.109660385726677
      ],
      [
        "▁rakip",
        -9.265553761921598
      ],
      [
        "▁devam",
        -7.062153173456201
      ],
      [
        "▁zevk",
        -8.622983645978294
      ],
      [
        "▁gelmedi",
        -7.951684112083364
      ],
      [
        "cagı",
        -8.396600205422509
      ],
      [
        "tıg",
        -9.090232837193014
      ],
      [
        "▁ust",
        -6.979559511536277
      ],
      [
        "▁takip",
        -8.511018959224621
      ],
      [
        "▁bush",
        -7.373109476624779
      ],
      [
        "ıntı",
        -9.120986829331363
      ],
      [
        "▁ic",
        -7.936480249582097
      ],
      [
        "▁5",
        -9.017424572311805
      ],
      [
        "▁manzara",
        -8.565413595026552
      ],
      [
        "▁tatil",
        -7.439259249330476
      ],
      [
        "liginde",
        -9.127602257288933
      ],
      [
        "▁lezzetleri",
        -8.992709993633838
      ],
      [
        "▁bunlar",
        -4.7085310956851325
      ],
      [
        "mus",
        -8.945075204409722
      ],
      [
        "▁gogsu",
        -9.1382836540469
      ],
      [
        "▁bos",
        -6.940296137114259
      ],
      [
        "▁ufak",
        -7.162718604082719
      ],
      [
        "▁fonları",
        -8.990942869066824
      ],
      [
        "▁koru",
        -8.830454329298705
      ],
      [
        "▁alacak",
        -8.085246640754074
      ],
      [
        "lugu",
        -7.674978099217801
      ],
      [
        "▁polis",
        -8.386734132704479
      ],
      [
        "ydi",
        -6.387179693571637
      ],
      [
        "▁ayrı",
        -6.956422087289287
      ],
      [
        "▁oranı",
        -8.443049682938604
      ],
      [
        "▁tesisin",
        -7.8586944245824375
      ],
      [
        "▁olan",
        -4.2921883242688
      ],
      [
        "▁basbakan",
        -8.913131679803719
      ],
      [
        "▁goster",
        -4.823268618043617
      ],
      [
        "icin",
        -5.8969885216171365
      ],
      [
        "▁dusunuyoru",
        -8.069510144076716
      ],
      [
        "▁hacmi",
        -8.487353283681596
      ],
      [
        "▁olacak",
        -6.50020044976146
      ],
      [
        "[MASK]",
        0.0
      ],
      [
        "inde",
        -6.84941900035476
      ],
      [
        "▁tarafında",
        -7.4076717897886155
      ],
      [
        "▁elestiri",
        -9.039609102592463
      ],
      [
        "▁cok",
        -5.403467047528563
      ],
      [
        "▁senedi",
        -7.709291922409263
      ],
      [
        "mis",
        -5.541358226762738
      ],
      [
        "son",
        -7.225840255471123
      ],
      [
        "▁sayı",
        -8.279922880890773
      ],
      [
        "▁yemekleri",
        -7.096723136266368
      ],
      [
        "▁dusus",
        -7.918933733047734
      ],
      [
        "▁cift",
        -8.526810223381293
      ],
      [
        "e",
        -3.073718075016717
      ],
      [
        "iyordu",
        -6.860034495942726
      ],
      [
        "▁iceriyor",
        -7.979253797285124
      ],
      [
        "▁aday",
        -8.773495321008625
      ],
      [
        "▁arka",
        -8.667278815243632
      ],
      [
        "▁guleryuzluydu",
        -7.543874085415274
      ],
      [
        "bi",
        -7.635688365991328
      ],
      [
        "▁sarı",
        -7.01661507676498
      ],
      [
        "▁ar",
        -7.851411589191917
      ],
      [
        "▁sigorta",
        -8.276225633161324
      ],
      [
        "▁fil",
        -8.976824843978608
      ],
      [
        "ys",
        -8.722692971893338
      ],
      [
        "madı",
        -7.036652714254283
      ],
      [
        "▁kalmadi",
        -6.6624006496479655
      ],
      [
        "▁bardak",
        -8.95391112203233
      ],
      [
        "▁dusme",
        -9.1011428027729
      ],
      [
        "▁kendilerini",
        -5.975809907058947
      ],
      [
        "▁kullanım",
        -9.163295464650268
      ],
      [
        "sıyla",
        -8.047100072457559
      ],
      [
        "n",
        -5.575916566983607
      ],
      [
        "le",
        -7.2319893104787205
      ],
      [
        "lı",
        -7.171771498975273
      ],
      [
        "▁kir",
        -8.86297855403824
      ],
      [
        "▁geliri",
        -9.11459552846001
      ],
      [
        "▁tavsiye",
        -6.698472403062372
      ],
      [
        "▁niyet",
        -8.857873102557397
      ],
      [
        "▁duygu",
        -8.433161883742422
      ],
      [
        "▁tanı",
        -9.26708362717759
      ],
      [
        "▁kahvalti",
        -8.77533739796889
      ],
      [
        "tıgını",
        -9.09063400979564
      ],
      [
        "▁yagmur",
        -8.74916933788432
      ],
      [
        "▁degistir",
        -8.001472205836322
      ],
      [
        "▁ko",
        -7.437802104915977
      ],
      [
        "▁hukumetin",
        -9.138853450741616
      ],
      [
        "lerinin",
        -6.831796431740629
      ],
      [
        "▁kisi",
        -7.256928909161823
      ],
      [
        "g",
        -12.802702672349787
      ],
      [
        "▁yaptı",
        -6.50857064318469
      ],
      [
        "▁lo",
        -7.002746196832698
      ],
      [
        ".",
        -1.1587881497080552
      ],
      [
        "yin",
        -7.7743295831337464
      ],
      [
        "▁oldugunu",
        -6.704109688205046
      ],
      [
        "▁cene",
        -9.271421123292132
      ],
      [
        "▁ogrenci",
        -8.629378093715886
      ],
      [
        "▁degisiklikler",
        -9.013508517624524
      ],
      [
        "du",
        -4.6557277026396555
      ],
      [
        "maya",
        -6.310438678772883
      ],
      [
        "1",
        -8.619252375660643
      ],
      [
        "▁olaylar",
        -9.075747575081042
      ],
      [
        "▁vade",
        -8.745680466121406
      ],
      [
        "▁ets",
        -7.27405506231093
      ],
      [
        "▁uzerinde",
        -7.319186190553946
      ],
      [
        "ra",
        -4.169188514330975
      ],
      [
        "▁ardında",
        -8.889814072370259
      ],
      [
        "▁calısan",
        -9.251257787614463
      ],
      [
        "dır",
        -6.552896859402912
      ],
      [
        "▁oysa",
        -7.627516959748585
      ],
      [
        "m",
        -5.097901570734246
      ],
      [
        "maya",
        -7.542471100388416
      ],
      [
        "▁mola",
        -9.003402995144327
      ],
      [
        "▁analistler",
        -8.17242682380744
      ],
      [
        "▁kar",
        -6.970041367467808
      ],
      [
        "▁nedenle",
        -9.001235761055657
      ],
      [
        "tma",
        -8.222326810981976
      ],
      [
        "▁oldugu",
        -6.395401728899352
      ],
      [
        "▁isci",
        -8.600063799706039
      ],
      [
        "▁ornek",
        -8.565425644575175
      ],
      [
        "▁yapil",
        -8.089569695231289
      ],
      [
        "▁oldugum",
        -7.8136053884118395
      ],
      [
        "6",
        -4.861426244991477
      ],
      [
        "▁francisco'",
        -5.077218351597256
      ],
      [
        "▁durumu",
        -8.310555595103924
      ],
      [
        "▁b",
        -8.027158500472844
      ],
      [
        "ne",
        -6.372458135960013
      ],
      [
        "▁kansas",
        -6.575074386233421
      ],
      [
        "▁6'da",
        -9.040684180755418
      ],
      [
        "deta",
        -6.817374011480661
      ],
      [
        "s",
        -4.747466569578413
      ],
      [
        "▁surec",
        -8.873901851171283
      ],
      [
        "b",
        -7.787526154383432
      ],
      [
        "al",
        -6.233800419023781
      ],
      [
        "7",
        -8.19067020562656
      ],
      [
        "acak",
        -6.679942277935106
      ],
      [
        "▁biri",
        -8.023017065902973
      ],
      [
        "▁sur",
        -7.981345808981285
      ],
      [
        "%",
        -12.802702672349787
      ],
      [
        "oz",
        -8.361401755385337
      ],
      [
        "siniz",
        -6.766674330877776
      ],
      [
        "▁dokuz",
        -5.927416539257818
      ],
      [
        "▁eylul",
        -8.653059280096887
      ],
      [
        "▁don",
        -8.181765696691535
      ],
      [
        "▁goruyor",
        -7.664053340645318
      ],
      [
        "▁pittsburgh'ta",
        -5.679230602104745
      ],
      [
        "▁sesleri",
        -9.137137495180692
      ],
      [
        "▁isletme",
        -7.971452508922108
      ],
      [
        "urekli",
        -6.170784925687602
      ],
      [
        "er",
        -5.655137482651881
      ],
      [
        "▁birden",
        -5.965201419918159
      ],
      [
        "▁oku",
        -7.939666441270406
      ],
      [
        "▁hep",
        -5.352880005653416
      ],
      [
        "o",
        -4.578117168882934
      ],
      [
        "o",
        -5.5937071509101
      ],
      [
        "▁tar",
        -8.953175885591385
      ],
      [
        "▁tekrar",
        -5.767848238720847
      ],
      [
        "▁yazar",
        -7.9801174766684895
      ],
      [
        "il",
        -7.3927092007068795
      ],
      [
        "▁ot",
        -8.913591539383406
      ],
      [
        "k",
        -4.475898029337179
      ],
      [
        "k",
        -4.145806418856702
      ],
      [
        "o",
        -6.671749088059212
      ],
      [
        "ici",
        -6.495987299734033
      ],
      [
        "▁erken",
        -6.118897358076235
      ],
      [
        "▁da",
        -8.294537207289686
      ],
      [
        "=",
        -11.302702672349787
      ],
      [
        "▁otuz",
        -5.90962280616334
      ],
      [
        "tan",
        -6.801378734189973
      ],
      [
        "▁kimi",
        -5.800937397148718
      ],
      [
        "lerimi",
        -8.923182469167552
      ],
      [
        "inden",
        -7.222574550029564
      ],
      [
        "'in",
        -4.7531104621768705
      ],
      [
        "▁guvenlik",
        -8.823162211600193
      ],
      [
        "ar",
        -7.457601627112156
      ],
      [
        "leri",
        -6.24116818408501
      ],
      [
        "▁ca",
        -8.064137103002135
      ],
      [
        "▁kahvaltı",
        -9.1844327851353
      ],
      [
        "▁komsu",
        -8.90364356457802
      ],
      [
        "▁konuda",
        -8.568080726202886
      ],
      [
        "▁laf",
        -8.570245014276505
      ],
      [
        "▁demek",
        -9.020925765712667
      ],
      [
        "ka",
        -7.788155254108851
      ],
      [
        "ınız",
        -9.087629797045327
      ],
      [
        "msal",
        -6.949099742190111
      ],
      [
        "▁ayakta",
        -9.00063664773717
      ],
      [
        "▁zar",
        -9.137433428574239
      ],
      [
        "▁as",
        -7.9774576896839235
      ],
      [
        "▁serbest",
        -7.7855544090868145
      ],
      [
        "u",
        -12.802702672349787
      ],
      [
        "ik",
        -7.533238197415391
      ],
      [
        "▁bilmiyoru",
        -7.529578978086748
      ],
      [
        "▁kı",
        -8.062426366589069
      ],
      [
        "▁doları",
        -7.859032420018468
      ],
      [
        "▁3/",
        -6.233627537946334
      ],
      [
        "unuz",
        -9.205735051768928
      ],
      [
        "▁kurban",
        -9.184685457130168
      ],
      [
        "▁ismi",
        -9.249987128533784
      ],
      [
        "▁dısı",
        -8.62111842629671
      ],
      [
        "▁turkiye'",
        -7.012378740847429
      ],
      [
        "gını",
        -9.242083524455726
      ],
      [
        "▁katkı",
        -8.35236918256017
      ],
      [
        "le",
        -6.583884578116384
      ],
      [
        "9",
        -9.126871495337763
      ],
      [
        "is",
        -7.767266252364115
      ],
      [
        "▁mavi",
        -7.234659711366064
      ],
      [
        "▁guven",
        -8.222528911226235
      ],
      [
        "gi",
        -8.001043011311552
      ],
      [
        "▁198",
        -8.995493654897938
      ],
      [
        "▁pazartesi",
        -6.0312539412866935
      ],
      [
        "▁yasa",
        -7.856462072441599
      ],
      [
        "ı",
        -4.678390393587344
      ],
      [
        "▁cins",
        -9.003321145262774
      ],
      [
        "n",
        -2.5272601907098036
      ],
      [
        "▁ac",
        -8.270182853301137
      ],
      [
        "mal",
        -9.136524979822207
      ],
      [
        "▁koy",
        -7.809666880569189
      ],
      [
        "▁yasamadi",
        -7.979538720728433
      ],
      [
        "▁model",
        -9.017664508284946
      ],
      [
        "▁kursun",
        -9.242619530196095
      ],
      [
        "▁yorum",
        -7.490398971489916
      ],
      [
        "▁sozleri",
        -9.166235292570601
      ],
      [
        "uyordu",
        -7.550734935848448
      ],
      [
        "6",
        -8.55930586997955
      ],
      [
        "a",
        -3.7940049793668447
      ],
      [
        "ıslı",
        -7.8403697437904505
      ],
      [
        "▁g",
        -6.207197408240738
      ],
      [
        "uz",
        -7.57519734604935
      ],
      [
        "un",
        -7.1428045703567795
      ],
      [
        "▁olmadi",
        -7.105787802996739
      ],
      [
        "▁personel",
        -6.61137223997812
      ],
      [
        "▁sag",
        -8.159775245814801
      ],
      [
        "▁bahseder",
        -7.864863832614267
      ],
      [
        "▁yetki",
        -9.158429331733831
      ],
      [
        "▁verdi",
        -6.233296187174913
      ],
      [
        "dıgı",
        -8.483843502462488
      ],
      [
        "▁ta",
        -7.172649407115649
      ],
      [
        "▁kardes",
        -8.572188542629128
      ],
      [
        "▁kurtaj",
        -9.237998611587182
      ],
      [
        "▁numara",
        -8.446855595452353
      ],
      [
        "▁sa",
        -7.0078162830623025
      ],
      [
        "if",
        -7.625474469729989
      ],
      [
        "▁car",
        -8.178771182452952
      ],
      [
        "▁toplam",
        -7.90903655082087
      ],
      [
        "▁vegas'",
        -7.070371768471581
      ],
      [
        "▁kap",
        -8.025308046372942
      ],
      [
        "▁bey",
        -6.191657274360547
      ],
      [
        "▁ingiliz",
        -7.441867043161407
      ],
      [
        "malı",
        -7.207067129353745
      ],
      [
        "▁sene",
        -7.6499458426001645
      ],
      [
        "ak",
        -5.6150221036885055
      ],
      [
        "▁mac",
        -8.287300148765574
      ],
      [
        "▁dallas",
        -5.916838167734813
      ],
      [
        "alım",
        -6.795090965916827
      ],
      [
        "▁doneminde",
        -9.12263161323021
      ],
      [
        "be",
        -7.177595662382103
      ],
      [
        "▁gecesi",
        -9.281635341152997
      ],
      [
        "p",
        -4.215807387704473
      ],
      [
        "▁takdir",
        -9.212115447084518
      ],
      [
        "tı",
        -7.286754014926739
      ],
      [
        "inde",
        -6.338122227695626
      ],
      [
        "e",
        -5.432312471123907
      ],
      [
        "▁degillerdi",
        -5.210354841089645
      ],
      [
        "on",
        -7.300685884163319
      ],
      [
        "▁temel",
        -9.017611840157226
      ],
      [
        "▁mus",
        -5.417352690502484
      ],
      [
        "▁dili",
        -9.082093152994489
      ],
      [
        "maz",
        -7.561133468680387
      ],
      [
        "▁hukum",
        -8.973146115885012
      ],
      [
        "de",
        -5.3119117464301135
      ],
      [
        "▁v",
        -7.559194923527463
      ],
      [
        "▁para",
        -6.391828780208307
      ],
      [
        "▁diego'",
        -7.16339760840913
      ],
      [
        "▁merdiven",
        -8.818722663057233
      ],
      [
        "–",
        -12.802702672349787
      ],
      [
        "▁boston'da",
        -4.97617369373813
      ],
      [
        "▁cuma",
        -7.987160711225792
      ],
      [
        "▁nedeni",
        -8.353137697183765
      ],
      [
        "w",
        -7.108910088912168
      ],
      [
        "▁boyle",
        -5.086562249009878
      ],
      [
        "ını",
        -6.305788123081618
      ],
      [
        "▁sabahı",
        -7.624812523957997
      ],
      [
        "l",
        -5.218757669442791
      ],
      [
        "▁konut",
        -8.79833904973201
      ],
      [
        "▁sonrası",
        -9.154638352462396
      ],
      [
        "y",
        -6.357935357697259
      ],
      [
        "lendi",
        -8.07182083660439
      ],
      [
        "▁birbirin",
        -5.481821565997513
      ],
      [
        "▁gelen",
        -6.419705948821233
      ],
      [
        "▁mi",
        -8.345773107887435
      ],
      [
        "v",
        -6.827833565912286
      ],
      [
        "▁o",
        -7.333281361165728
      ],
      [
        "▁rezervasyonu",
        -8.315691778718783
      ],
      [
        "▁13",
        -6.181566688398235
      ],
      [
        "▁makine",
        -8.186034436311516
      ],
      [
        "ca",
        -6.822960096147538
      ],
      [
        "▁ayn",
        -7.3538778886871885
      ],
      [
        "▁yapacak",
        -7.563194361098923
      ],
      [
        "▁rahat",
        -6.598936599412326
      ],
      [
        "ce",
        -7.135173186590574
      ],
      [
        "▁buyume",
        -8.553070569766422
      ],
      [
        "▁dizi",
        -8.601982353946553
      ],
      [
        "▁s",
        -6.746148526883689
      ],
      [
        "▁kamyon",
        -8.874296221014012
      ],
      [
        "▁tarz",
        -9.065450012933399
      ],
      [
        "s",
        -3.5806418659215646
      ],
      [
        "▁hamle",
        -8.754227629658033
      ],
      [
        "d",
        -6.04252831463764
      ],
      [
        "dıgını",
        -7.531363838102516
      ],
      [
        "▁ba",
        -7.720623336708646
      ],
      [
        "▁birini",
        -6.202515730872842
      ],
      [
        "▁kole",
        -9.254304697662715
      ],
      [
        "yuzlu",
        -6.5380373275271255
      ],
      [
        "▁yıl",
        -7.786142649619766
      ],
      [
        "▁adı",
        -8.046364198007076
      ],
      [
        "▁mo",
        -8.552495794731469
      ],
      [
        "▁kral",
        -8.894237239812032
      ],
      [
        "▁aktarma",
        -6.126800701893156
      ],
      [
        "▁bazı",
        -7.170405847808098
      ],
      [
        "▁merkez",
        -7.8163861036709
      ],
      [
        "▁boyle",
        -6.396415066709907
      ],
      [
        "▁icinde",
        -6.726608357952595
      ],
      [
        "▁ileri",
        -7.7160430465018335
      ],
      [
        "mayı",
        -8.400247177097274
      ],
      [
        "▁kes",
        -8.444417085344742
      ],
      [
        "dan",
        -6.950235826568244
      ],
      [
        "▁bas",
        -6.750297626953759
      ],
      [
        "nde",
        -7.227258361320836
      ],
      [
        "▁seviyesin",
        -8.510794453093183
      ],
      [
        "▁personelleri",
        -7.208005258337625
      ],
      [
        "le",
        -9.080439678678806
      ],
      [
        "sem",
        -7.501318970127886
      ],
      [
        "mda",
        -8.233121502431889
      ],
      [
        "gr",
        -7.792940288498962
      ],
      [
        "z",
        -12.24335423160404
      ],
      [
        "▁duzen",
        -8.510805999341338
      ],
      [
        "▁parca",
        -7.962512392360006
      ],
      [
        "▁anlama",
        -8.536668339387866
      ],
      [
        "▁yeni",
        -8.717076329160431
      ],
      [
        "▁genel",
        -6.384596635128069
      ],
      [
        "▁mus",
        -8.582383172236968
      ],
      [
        "de",
        -5.846327743756247
      ],
      [
        "▁dusman",
        -8.538874282637629
      ],
      [
        "asla",
        -7.040142036828939
      ],
      [
        "siniz",
        -5.458119837635438
      ],
      [
        "▁b",
        -7.7506535127329315
      ],
      [
        "▁anket",
        -7.9042904445470645
      ],
      [
        "▁yetkililer",
        -8.998035243273128
      ],
      [
        "ra",
        -6.794045770437571
      ],
      [
        "▁on",
        -6.089300112861576
      ],
      [
        "▁cık",
        -7.8984065736039835
      ],
      [
        "▁yaklasimi",
        -9.08559199033639
      ],
      [
        "▁bugun",
        -7.690856160753175
      ],
      [
        "tir",
        -7.867418083364435
      ],
      [
        "▁kaybetti",
        -8.020423852280736
      ],
      [
        "baz",
        -7.624916523494468
      ],
      [
        "▁ithalat",
        -8.976449511073792
      ],
      [
        "in",
        -5.669618850718858
      ],
      [
        "h",
        -6.830657209177515
      ],
      [
        "▁bunlarda",
        -6.246440461648687
      ],
      [
        "▁menkul",
        -7.841289384308088
      ],
      [
        "ıldı",
        -7.7467373873639325
      ],
      [
        "unu",
        -6.939939349485027
      ],
      [
        "▁havada",
        -9.144015767280875
      ],
      [
        "▁devlet",
        -7.47680539229308
      ],
      [
        "▁bulunan",
        -8.080547986951627
      ],
      [
        "▁otel",
        -6.622368130732603
      ],
      [
        "▁han",
        -9.027694436290492
      ],
      [
        "il",
        -5.634874555172875
      ],
      [
        "l",
        -8.749613634584774
      ],
      [
        "▁zamanlar",
        -8.488756391374462
      ],
      [
        "▁ulke",
        -7.739514780959663
      ],
      [
        "▁yaz",
        -7.5325869044958385
      ],
      [
        "yu",
        -7.242836502318114
      ],
      [
        "▁kazanc",
        -7.968953080490237
      ],
      [
        "▁25",
        -5.692044772168898
      ],
      [
        "▁bana",
        -9.271128453504495
      ],
      [
        "▁gemi",
        -8.061384611622753
      ],
      [
        "▁c",
        -6.5768931664647265
      ],
      [
        "▁yarı",
        -8.597992623125606
      ],
      [
        "▁demir",
        -8.551567581886852
      ],
      [
        "▁so",
        -8.875551046507393
      ],
      [
        "▁adet",
        -7.972189129014149
      ],
      [
        "▁cıkarma",
        -8.813071291405155
      ],
      [
        "▁kazandı",
        -7.2538733009845595
      ],
      [
        "▁evde",
        -8.0770392836953
      ],
      [
        "-",
        -7.7884716771068625
      ],
      [
        "▁200",
        -6.130752197523192
      ],
      [
        "▁",
        -1.722964280954951
      ],
      [
        "lıgı",
        -6.995295901641856
      ],
      [
        "▁100",
        -5.485529480805205
      ],
      [
        "▁john",
        -7.514258373914097
      ],
      [
        "b",
        -4.9619664055615145
      ],
      [
        "▁gunu",
        -6.386325631530474
      ],
      [
        "▁as",
        -7.982114698353285
      ],
      [
        "bilecegini",
        -8.831706823949759
      ],
      [
        "▁li",
        -5.934253238643644
      ],
      [
        "ine",
        -6.049563716949281
      ],
      [
        "▁dev",
        -7.792222248897463
      ],
      [
        "▁muduru",
        -8.738733809442454
      ],
      [
        "▁",
        -2.794952726960486
      ],
      [
        "▁newark'",
        -7.495982024670114
      ],
      [
        "▁burnu",
        -8.95272391169828
      ],
      [
        "▁karsı",
        -7.0468744650714665
      ],
      [
        "▁bakıs",
        -8.580348910108683
      ],
      [
        "+",
        -12.802702672349787
      ],
      [
        "▁insa",
        -8.808720175347844
      ],
      [
        "▁tarihinde",
        -8.932022691006619
      ],
      [
        "▁gaz",
        -8.314632484788806
      ],
      [
        "mez",
        -7.157224312138854
      ],
      [
        "▁butu",
        -6.262157153689966
      ],
      [
        "▁anladı",
        -7.9845525830347155
      ],
      [
        "▁boston'",
        -6.104671276309123
      ],
      [
        "un",
        -6.350571138778809
      ],
      [
        "makta",
        -7.345754464848871
      ],
      [
        "▁karsiladi",
        -8.020423771836255
      ],
      [
        "▁yolda",
        -8.54615821546534
      ],
      [
        "asagı",
        -7.350576247561033
      ],
      [
        "▁banka",
        -7.730284673832975
      ],
      [
        "ili",
        -6.820299547520811
      ],
      [
        "meger",
        -11.466125186009307
      ],
      [
        "ki",
        -6.1632758550250095
      ],
      [
        "gın",
        -7.655061505047966
      ],
      [
        "'da",
        -5.362147093715914
      ],
      [
        "▁odul",
        -9.159017616483176
      ],
      [
        ",",
        -9.265553377849143
      ],
      [
        "ser",
        -7.906497206498267
      ],
      [
        "c",
        -6.639970635471811
      ],
      [
        "▁veya",
        -4.768733796629289
      ],
      [
        "landı",
        -7.888311092890624
      ],
      [
        "lık",
        -6.4765119369027495
      ],
      [
        "▁gosteri",
        -8.721254632880846
      ],
      [
        "▁verir",
        -7.688987814120938
      ],
      [
        "▁devralma",
        -9.210749609254675
      ],
      [
        "▁yanı",
        -8.188237653188079
      ],
      [
        "r",
        -11.302702672349785
      ],
      [
        "▁9",
        -5.778083511879295
      ],
      [
        "ye",
        -4.548685384227771
      ],
      [
        "▁hu",
        -8.545835297934385
      ],
      [
        "▁tuz",
        -8.459507100340915
      ],
      [
        "▁iliski",
        -8.203711046579798
      ],
      [
        "▁ulus",
        -7.084374921034155
      ],
      [
        "▁calıs",
        -7.654246976520353
      ],
      [
        "▁bekliyor",
        -7.350871425835006
      ],
      [
        "sa",
        -7.17472110376118
      ],
      [
        "gına",
        -9.034383569710904
      ],
      [
        "▁hızla",
        -6.8654287322603
      ],
      [
        "▁ele",
        -8.096106548706768
      ],
      [
        "▁tamam",
        -8.837054819759194
      ],
      [
        "▁sar",
        -7.8536912895821684
      ],
      [
        "▁sıcak",
        -7.076087639789179
      ],
      [
        "▁ustunde",
        -7.939129862079926
      ],
      [
        "▁baskaları",
        -8.996029422820882
      ],
      [
        "yle",
        -6.049537958767083
      ],
      [
        "▁ge",
        -8.062797351818142
      ],
      [
        "▁iletisim",
        -9.039608923531553
      ],
      [
        "▁art",
        -8.585595204104656
      ],
      [
        "▁20",
        -5.2040630633608735
      ],
      [
        "▁de",
        -4.7753992930642415
      ],
      [
        "▁olan",
        -6.090718399667774
      ],
      [
        "▁yuzunde",
        -8.949419357125475
      ],
      [
        "▁etki",
        -7.7950353566217885
      ],
      [
        "gunu",
        -7.634301236361402
      ],
      [
        "p",
        -8.916280301211483
      ],
      [
        "▁cogu",
        -7.4896437518538574
      ],
      [
        "▁sozu",
        -8.407804031540875
      ],
      [
        "▁hizmette",
        -9.251893916818261
      ],
      [
        "ze",
        -7.710205211172292
      ],
      [
        "f",
        -11.199613634584775
      ],
      [
        "▁fotograf",
        -8.484834293608444
      ],
      [
        "▁donus",
        -8.003070654400167
      ],
      [
        "onu",
        -9.0630222156713
      ],
      [
        "▁calisanlari",
        -9.016020169656265
      ],
      [
        "▁ayagı",
        -9.111350820429129
      ],
      [
        "▁cocuk",
        -6.9736045559350615
      ],
      [
        "▁servisi",
        -8.27805000675811
      ],
      [
        "ton",
        -7.029534064245779
      ],
      [
        "▁domates",
        -9.294125748215125
      ],
      [
        "▁abd",
        -5.830124321443024
      ],
      [
        "▁198",
        -5.050423814575034
      ],
      [
        "▁avukat",
        -8.539734276885845
      ],
      [
        "▁attı",
        -7.323690295219331
      ],
      [
        "yan",
        -7.229692074593494
      ],
      [
        "▁ekonomi",
        -7.6392337002473765
      ],
      [
        "ligi",
        -7.2752044193087695
      ],
      [
        "▁muzik",
        -8.9131422226511
      ],
      [
        "▁",
        -1.3922668288882338
      ],
      [
        "yen",
        -7.694928855735129
      ],
      [
        "▁kopru",
        -8.836909175585768
      ],
      [
        "ask",
        -5.901277785160477
      ],
      [
        "▁kara",
        -8.255001555595198
      ],
      [
        "▁gelir",
        -7.327376604923489
      ],
      [
        "ler",
        -4.863815379969876
      ],
      [
        "sini",
        -6.422049472456263
      ],
      [
        "su",
        -7.539574608610181
      ],
      [
        "▁kırı",
        -9.090335324780302
      ],
      [
        "mızda",
        -9.236476505337487
      ],
      [
        "nizi",
        -9.04258842201665
      ],
      [
        "us",
        -7.950444729201696
      ],
      [
        "▁test",
        -8.376955025523408
      ],
      [
        "▁tas",
        -7.710801207594815
      ],
      [
        "▁5'te",
        -8.804055987846343
      ],
      [
        "▁tesisti",
        -5.963622784872383
      ],
      [
        "▁verme",
        -8.415059544382387
      ],
      [
        "▁yeri",
        -8.780285937916616
      ],
      [
        "▁gelecek",
        -8.855433588300386
      ],
      [
        "ikti",
        -7.669503639374806
      ],
      [
        "▁ders",
        -8.18408359555225
      ],
      [
        "kleri",
        -8.020281460525826
      ],
      [
        "len",
        -7.481382416262916
      ],
      [
        "▁anca",
        -5.244266919710401
      ],
      [
        "▁bile",
        -4.691592204789792
      ],
      [
        "▁satıs",
        -7.570200307478787
      ],
      [
        "▁petersburg'",
        -7.304040164310214
      ],
      [
        "▁at",
        -7.2943490731859235
      ],
      [
        "p",
        -5.971301426427602
      ],
      [
        "hen",
        -7.322566510349346
      ],
      [
        "ic",
        -7.409719644704607
      ],
      [
        "z",
        -6.428989089571596
      ],
      [
        "▁haziran'da",
        -7.464973295232909
      ],
      [
        "▁care",
        -9.03991760179906
      ],
      [
        "▁a",
        -11.666990925470232
      ],
      [
        "na",
        -4.888725468870101
      ],
      [
        "digi",
        -8.073231716186264
      ],
      [
        "ten",
        -7.17416489712672
      ],
      [
        "▁risk",
        -8.484846300123547
      ],
      [
        "dan",
        -5.896843003039089
      ],
      [
        "▁verildi",
        -8.037608345094874
      ],
      [
        "▁alın",
        -7.543378375352004
      ],
      [
        "mi",
        -7.30149276445611
      ],
      [
        "at",
        -7.17949638795853
      ],
      [
        "▁tahvil",
        -7.795623928567573
      ],
      [
        "▁gonul",
        -8.749132885440622
      ],
      [
        "▁gercek",
        -6.57263610703078
      ],
      [
        "▁icra",
        -9.090053854868613
      ],
      [
        "abilme",
        -9.12405870209222
      ],
      [
        "nc",
        -7.837226348389217
      ],
      [
        "gini",
        -9.186838456984475
      ],
      [
        "lma",
        -8.741242430471948
      ],
      [
        "▁'",
        -10.790149558202552
      ],
      [
        "▁uygundu",
        -7.74601068098326
      ],
      [
        "▁sahne",
        -8.330202546375924
      ],
      [
        "▁baba",
        -7.799168934593108
      ],
      [
        "amaz",
        -7.154730621646129
      ],
      [
        "▁edecek",
        -7.381241055847779
      ],
      [
        "ter",
        -9.051704528810191
      ],
      [
        "▁onemli",
        -6.106789014357763
      ],
      [
        "▁her",
        -6.3741494462876895
      ],
      [
        "sına",
        -6.611219682934075
      ],
      [
        "imi",
        -7.929220387740227
      ],
      [
        "▁planı",
        -8.757401711072198
      ],
      [
        "tır",
        -6.376500413518691
      ],
      [
        "▁gelmisti",
        -8.102380099240872
      ],
      [
        "dıklarını",
        -9.073656286791635
      ],
      [
        "▁hır",
        -9.184907560675674
      ],
      [
        "▁amac",
        -8.686474632285169
      ],
      [
        "▁il",
        -6.111403265351347
      ],
      [
        "▁fikri",
        -8.74914002288116
      ],
      [
        "en",
        -3.944717042641246
      ],
      [
        "▁hizmet",
        -6.071682423280232
      ],
      [
        "▁gercek",
        -8.472016431798693
      ],
      [
        "▁once",
        -8.6329381293949
      ],
      [
        "▁29",
        -6.422469476374212
      ],
      [
        "▁gunler",
        -9.047118838961438
      ],
      [
        "▁bit",
        -8.607984316353946
      ],
      [
        "▁sa",
        -8.49148507856639
      ],
      [
        "▁kampanyalar",
        -9.022739385613677
      ],
      [
        "▁deniz",
        -6.797331955428738
      ],
      [
        "▁hoca",
        -8.363479068783025
      ],
      [
        "cek",
        -7.480578017205566
      ],
      [
        "▁insan",
        -6.862263832955891
      ],
      [
        "▁salata",
        -9.23800295863112
      ],
      [
        "▁gozunu",
        -9.202732486948054
      ],
      [
        "▁gelin",
        -9.039343277420382
      ],
      [
        "▁ekmek",
        -8.276728176742061
      ],
      [
        "▁cok",
        -2.7145552025289366
      ],
      [
        "▁dukkan",
        -8.806607244915625
      ],
      [
        "▁cincinnati'de",
        -7.52464228509177
      ],
      [
        "▁sauna",
        -9.15960382936882
      ],
      [
        "▁saglam",
        -7.5027649068518185
      ],
      [
        "”",
        -9.78282532741986
      ],
      [
        "▁philadelphia",
        -6.857279133527717
      ],
      [
        "▁bolum",
        -8.637596344155577
      ],
      [
        "birli",
        -7.476480969195897
      ],
      [
        "▁olanlar",
        -8.979131030449631
      ],
      [
        "▁iyiydi",
        -4.822868892125619
      ],
      [
        "▁es",
        -7.7496457909165235
      ],
      [
        "▁kalp",
        -8.905332110715081
      ],
      [
        "▁gerek",
        -8.018635155101109
      ],
      [
        "▁bogaz",
        -9.062349682467552
      ],
      [
        "▁asker",
        -8.139723555661249
      ],
      [
        "▁a",
        -6.420591604824666
      ],
      [
        "mayacak",
        -7.8906388322215175
      ],
      [
        "▁yuk",
        -8.342007429441512
      ],
      [
        "▁ata",
        -8.85437362422949
      ],
      [
        "lıkla",
        -8.990837559406026
      ],
      [
        "▁dunya",
        -6.91586115397758
      ],
      [
        "izm",
        -8.431971863508013
      ],
      [
        "▁mar",
        -8.574495621443813
      ],
      [
        "▁icecekler",
        -8.867833813999916
      ],
      [
        "lıkta",
        -8.357058629980248
      ],
      [
        "▁yapma",
        -7.8838645082059085
      ],
      [
        "lamaya",
        -9.072268912314314
      ],
      [
        "▁se",
        -4.925808727806685
      ],
      [
        "▁tamam",
        -6.411602014418075
      ],
      [
        "▁karar",
        -7.329213357436965
      ],
      [
        "▁etme",
        -7.854001394033202
      ],
      [
        "▁islem",
        -7.285386282186226
      ],
      [
        "▁birbirlerin",
        -6.499373602294938
      ],
      [
        "▁pi",
        -8.143542494986246
      ],
      [
        "▁oda",
        -6.317397871292799
      ],
      [
        "▁onde",
        -9.09086926493473
      ],
      [
        "▁taraf",
        -5.733464205858842
      ],
      [
        "▁bekle",
        -8.096730535778454
      ],
      [
        "▁kara",
        -6.749813976540861
      ],
      [
        "▁dayan",
        -7.800904239688628
      ],
      [
        "▁gay",
        -6.82515084075238
      ],
      [
        "▁dava",
        -7.332121610820996
      ],
      [
        "▁uygulama",
        -8.446858771174533
      ],
      [
        "▁dustu",
        -6.310464317595503
      ],
      [
        "▁simdi",
        -8.874314003853316
      ],
      [
        "▁islerini",
        -9.149295327098976
      ],
      [
        "mın",
        -8.82082102592987
      ],
      [
        "▁hanim",
        -7.33258511945737
      ],
      [
        "▁",
        -1.6692032132785002
      ],
      [
        "▁bagım",
        -7.79337533643874
      ],
      [
        "den",
        -6.734655379813286
      ],
      [
        "tif",
        -8.463309440413283
      ],
      [
        "yabilir",
        -8.09825652971741
      ],
      [
        "▁ip",
        -8.706632675432822
      ],
      [
        "d",
        -10.41573712684167
      ],
      [
        "▁yargı",
        -9.13970832201186
      ],
      [
        "enler",
        -8.3800947992044
      ],
      [
        "▁ed",
        -8.426117456985327
      ],
      [
        "▁oranları",
        -8.746810424894324
      ],
      [
        ".",
        -7.3766766886513615
      ],
      [
        "▁kıyı",
        -8.68984357944091
      ],
      [
        "▁14",
        -6.171359778606929
      ],
      [
        "▁turk",
        -7.790444697342189
      ],
      [
        "▁plaj",
        -8.800878258970215
      ],
      [
        "hic",
        -7.843634605618451
      ],
      [
        "a",
        -6.240650828353713
      ],
      [
        "▁son",
        -5.064742278123499
      ],
      [
        "▁c",
        -7.381905891970467
      ],
      [
        "▁insanları",
        -8.810371316056898
      ],
      [
        "▁kose",
        -8.493563151265906
      ],
      [
        "▁j",
        -8.547251105878008
      ],
      [
        "gin",
        -7.625208107598876
      ],
      [
        "▁ekonomi",
        -6.928583034001799
      ],
      [
        "se",
        -6.764883317301188
      ],
      [
        "unla",
        -5.8430735334845965
      ],
      [
        "▁ticaret",
        -7.990683195482985
      ],
      [
        "yil",
        -7.5783932716631615
      ],
      [
        "imle",
        -6.45089307209828
      ],
      [
        "▁cekti",
        -7.199331200880926
      ],
      [
        "▁tahmin",
        -7.58694290602434
      ],
      [
        "lilik",
        -8.857019452816896
      ],
      [
        "▁il",
        -8.271673643391695
      ],
      [
        "yin",
        -5.784995693197711
      ],
      [
        "na",
        -7.216566140508448
      ],
      [
        "▁boyu",
        -8.873816552440477
      ],
      [
        "gu",
        -7.113623870682109
      ],
      [
        "▁st",
        -5.766618818790404
      ],
      [
        "▁tesisi",
        -8.892809005174652
      ],
      [
        "▁bildirdi",
        -7.647032170492996
      ],
      [
        "▁listele",
        -6.391265677579597
      ],
      [
        "m",
        -3.7415001008522433
      ],
      [
        "ta",
        -6.083388384710772
      ],
      [
        "▁kendisi",
        -5.0164946613251225
      ],
      [
        "▁elbet",
        -6.771714475515565
      ],
      [
        "▁degildi",
        -2.1591214805820806
      ],
      [
        "dan",
        -7.33257720045109
      ],
      [
        "▁ait",
        -5.924503288156106
      ],
      [
        "▁dıs",
        -9.271508054704855
      ],
      [
        "▁kagıt",
        -8.234968827262016
      ],
      [
        "'nun",
        -6.13987211651921
      ],
      [
        "▁kodu",
        -8.804257076415656
      ],
      [
        "▁is",
        -6.318078973884656
      ],
      [
        "sal",
        -7.188944956305011
      ],
      [
        "▁beri",
        -7.337470521257895
      ],
      [
        "▁yapan",
        -8.084981832738222
      ],
      [
        "▁idare",
        -8.363493500731108
      ],
      [
        "▁gelmis",
        -7.341935989440993
      ],
      [
        "▁evin",
        -8.013427352907907
      ],
      [
        "▁payı",
        -9.18770085620884
      ],
      [
        "▁mali",
        -6.772915828245193
      ],
      [
        "neral",
        -7.315006539033988
      ],
      [
        "▁ucuyor",
        -7.312963302415817
      ],
      [
        "la",
        -6.888501391301384
      ],
      [
        "▁mart",
        -9.084919573599995
      ],
      [
        "lar",
        -4.398521406909345
      ],
      [
        "c",
        -7.218314120542299
      ],
      [
        "▁bıraktı",
        -7.373737174799423
      ],
      [
        "le",
        -7.45879026731766
      ],
      [
        "ki",
        -12.24335423160404
      ],
      [
        "▁kamu",
        -8.541542003090594
      ],
      [
        "▁gunlu",
        -6.629403783320777
      ],
      [
        "▁kucuktu",
        -6.894144608050934
      ],
      [
        "▁kalka",
        -5.871008752191808
      ],
      [
        "tar",
        -8.63561850304078
      ],
      [
        "▁ucusunu",
        -9.154085831606945
      ],
      [
        "iz",
        -6.512478652804723
      ],
      [
        "▁eve",
        -7.624905181929931
      ],
      [
        "▁oldu",
        -5.100401895661068
      ],
      [
        "sı",
        -7.5643989241909555
      ],
      [
        "il",
        -7.745721552968388
      ],
      [
        "▁yapıl",
        -8.025125184558425
      ],
      [
        "▁engel",
        -8.484848421861015
      ],
      [
        "▁ak",
        -6.821741344153913
      ],
      [
        "▁operasyon",
        -8.551524648652535
      ],
      [
        "▁it",
        -6.245885699482855
      ],
      [
        "▁yeter",
        -6.237835439460578
      ],
      [
        "▁calı",
        -8.806749097901314
      ],
      [
        "lar",
        -4.74025477615891
      ],
      [
        "▁alan",
        -8.11311449286366
      ],
      [
        "▁kusur",
        -8.842689897335596
      ],
      [
        "▁havuzlar",
        -8.931045614448788
      ],
      [
        "▁musteriler",
        -9.02979892345004
      ],
      [
        "▁muh",
        -7.142172831036666
      ],
      [
        "▁mezar",
        -9.09304905153065
      ],
      [
        "erek",
        -6.4781876500695335
      ],
      [
        "lerimiz",
        -8.610530193671096
      ],
      [
        "▁saat",
        -6.480816392806072
      ],
      [
        "lerde",
        -6.863545878713247
      ],
      [
        "▁bal",
        -8.362644227774968
      ],
      [
        "▁dallas'",
        -6.042981517141733
      ],
      [
        "▁durdu",
        -7.466819713427254
      ],
      [
        "cilerin",
        -9.239217403298406
      ],
      [
        "▁milyar",
        -8.422338155477377
      ],
      [
        "▁ceza",
        -8.167622138186484
      ],
      [
        "▁yayın",
        -8.2352331869764
      ],
      [
        "▁on",
        -4.304254523933001
      ],
      [
        "▁sebebi",
        -9.017389117301413
      ],
      [
        "agı",
        -8.284440782906383
      ],
      [
        "▁yazı",
        -7.489090416661418
      ],
      [
        "▁ga",
        -8.019525071834462
      ],
      [
        "s",
        -6.602215826617403
      ],
      [
        "▁sen",
        -4.319077519014068
      ],
      [
        "▁tı",
        -3.8255906107362634
      ],
      [
        "▁finans",
        -7.785608098361208
      ],
      [
        "▁dogu",
        -7.25157591248745
      ],
      [
        "▁degeri",
        -8.943663248258368
      ],
      [
        "▁olsa",
        -6.7505448835721005
      ],
      [
        "tim",
        -9.216208916835878
      ],
      [
        "▁ogrenciler",
        -9.28769993217673
      ],
      [
        "▁haber",
        -7.719135992083562
      ],
      [
        "▁demir",
        -7.6567206709357265
      ],
      [
        "▁civarın",
        -8.973154027914003
      ],
      [
        "▁dur",
        -9.111472022848497
      ],
      [
        "▁kadın",
        -7.224328759221749
      ],
      [
        "sun",
        -6.166589246026901
      ],
      [
        "▁konumu",
        -6.633105556090941
      ],
      [
        "▁kopek",
        -8.637909878931506
      ],
      [
        "▁otur",
        -7.588990628859042
      ],
      [
        "mekte",
        -7.881639351950346
      ],
      [
        "▁goturdu",
        -8.070715740152039
      ],
      [
        "▁olun",
        -8.104581203632797
      ],
      [
        "olumlu",
        -7.8683350609962766
      ],
      [
        "su",
        -6.247401928226876
      ],
      [
        "▁yerinde",
        -8.234066027005106
      ],
      [
        "▁insaat",
        -8.499906909229288
      ],
      [
        "p",
        -7.046976921809187
      ],
      [
        "resmi",
        -7.4072790309889625
      ],
      [
        "▁buz",
        -9.004955691202362
      ],
      [
        "ni",
        -6.180299696242456
      ],
      [
        "▁sinir",
        -8.855946013306786
      ],
      [
        "▁vergi",
        -7.634025617637706
      ],
      [
        "▁yanlıs",
        -9.23818051582698
      ],
      [
        "▁dolu",
        -6.890848667969417
      ],
      [
        "▁bekleniyor",
        -7.564287660181253
      ],
      [
        "▁orta",
        -7.882389330582674
      ],
      [
        "▁donus",
        -7.078200277547077
      ],
      [
        "▁dikkat",
        -7.782061587226196
      ],
      [
        "—",
        -12.802702672349787
      ],
      [
        "▁sat",
        -8.401317802739229
      ],
      [
        "ce",
        -5.493483117133953
      ],
      [
        "▁piyasası",
        -8.722191855975046
      ],
      [
        "▁boru",
        -9.238359462749512
      ],
      [
        "▁kırmızı",
        -6.990133074696115
      ],
      [
        "s",
        -6.083064316595122
      ],
      [
        "▁4",
        -4.732260125815868
      ],
      [
        "▁uca",
        -7.794701260637389
      ],
      [
        "▁olay",
        -8.463499318463091
      ],
      [
        "▁benzer",
        -7.000372126861872
      ],
      [
        "▁zengin",
        -7.064123754243155
      ],
      [
        "ya",
        -6.624486546172473
      ],
      [
        "▁olacak",
        -7.742659423655229
      ],
      [
        "lamak",
        -8.361522919722969
      ],
      [
        "▁yapıyor",
        -7.016683794331016
      ],
      [
        "maz",
        -7.054987964716516
      ],
      [
        "meli",
        -7.425467949112281
      ],
      [
        "▁don",
        -7.469114158362451
      ],
      [
        "mamıs",
        -7.914135919214581
      ],
      [
        "▁derecede",
        -9.196860673201932
      ],
      [
        "d",
        -6.8006287795999025
      ],
      [
        "▁gecti",
        -6.806410008391679
      ],
      [
        "▁sirketin",
        -7.754069549801167
      ],
      [
        "▁sanayi",
        -8.623052893184393
      ],
      [
        "▁kimse",
        -5.611770680556417
      ],
      [
        "▁far",
        -9.237470457815345
      ],
      [
        "▁gerceklestir",
        -8.107262171759585
      ],
      [
        "▁arka",
        -7.664821247900204
      ],
      [
        "dik",
        -9.037590371616012
      ],
      [
        "▁...",
        -14.014958445102625
      ],
      [
        "z",
        -5.915182500026182
      ],
      [
        "▁halkın",
        -9.183263264632577
      ],
      [
        "▁bey",
        -6.831802248268734
      ],
      [
        "▁duruyor",
        -7.461726621973796
      ],
      [
        "▁memnun",
        -4.596567443186686
      ],
      [
        "'n",
        -8.269611997524315
      ],
      [
        "▁1989",
        -5.896581170332743
      ],
      [
        "▁kendimi",
        -5.7344618553965745
      ],
      [
        "▁turkiye",
        -6.205906336432703
      ],
      [
        "it",
        -6.001738549891658
      ],
      [
        "▁merkez",
        -7.5478547937971845
      ],
      [
        "▁san",
        -6.097867166250172
      ],
      [
        "▁dusunuyor",
        -7.3435904066391675
      ],
      [
        "▁ev",
        -6.268454093143926
      ],
      [
        "diginde",
        -9.194615365993846
      ],
      [
        "▁kurul",
        -9.161338155349183
      ],
      [
        "▁diyor",
        -6.068776859287384
      ],
      [
        "▁birini",
        -9.248142955627236
      ],
      [
        "ciler",
        -8.080741300946546
      ],
      [
        "bi",
        -7.811665918709554
      ],
      [
        "mız",
        -7.82228748749526
      ],
      [
        "▁silah",
        -8.42233755282779
      ],
      [
        "uz",
        -5.845518768715537
      ],
      [
        "▁gucu",
        -8.751508144810568
      ],
      [
        "dır",
        -5.60851668359774
      ],
      [
        "▁soyledi",
        -5.125086709333979
      ],
      [
        "▁birinci",
        -6.187553792563393
      ],
      [
        "▁yuzluydu",
        -8.020553123755267
      ],
      [
        "uz",
        -5.382296718853555
      ],
      [
        "▁toronto'",
        -7.503686101187043
      ],
      [
        "▁alım",
        -7.567475952384333
      ],
      [
        "z",
        -7.384597776793819
      ],
      [
        "mesi",
        -8.294413202413121
      ],
      [
        "▁milyar",
        -3.833066983694204
      ],
      [
        "▁etrafı",
        -9.163358738725824
      ],
      [
        "▁isleri",
        -9.074726898856774
      ],
      [
        "yle",
        -6.687487082009293
      ],
      [
        "▁alaka",
        -8.632025905811432
      ],
      [
        "▁olmadıgını",
        -8.513050283750847
      ],
      [
        "▁mahkemesi",
        -9.147681174172533
      ],
      [
        "▁ede",
        -6.512867076807439
      ],
      [
        "yen",
        -6.952143961502724
      ],
      [
        "▁adi",
        -7.605460096006958
      ],
      [
        "lig",
        -8.1691686715237
      ],
      [
        "ha",
        -9.255242096426834
      ],
      [
        "▁24",
        -6.263247141229067
      ],
      [
        "▁onun",
        -3.672885360996781
      ],
      [
        "▁teklif",
        -7.457344510435918
      ],
      [
        "▁depo",
        -9.210818372296327
      ],
      [
        "rak",
        -8.714039705000882
      ],
      [
        "▁b",
        -6.181687063550272
      ],
      [
        "▁yıgın",
        -9.238118675363424
      ],
      [
        "ım",
        -7.449483007409628
      ],
      [
        "▁annesi",
        -8.849404168180289
      ],
      [
        "▁baska",
        -5.710209961965257
      ],
      [
        "▁pasa",
        -9.13698261716613
      ],
      [
        "▁dudakları",
        -9.184508762100858
      ],
      [
        "▁bir",
        -8.54817813440691
      ],
      [
        "▁yuzde",
        -8.576988223510455
      ],
      [
        "min",
        -7.845175447019516
      ],
      [
        "mızı",
        -8.10700279754544
      ],
      [
        "▁yıllık",
        -6.374732067768213
      ],
      [
        "▁gorev",
        -7.534980193836744
      ],
      [
        "▁nakit",
        -8.749154776807558
      ],
      [
        "▁alı",
        -7.238867173783138
      ],
      [
        "▁cıkan",
        -8.029926104916933
      ],
      [
        "75",
        -6.51104329968174
      ],
      [
        "▁odam",
        -8.805706600733
      ],
      [
        "▁harikayd",
        -7.845569420023782
      ],
      [
        "ya",
        -3.9445221214366635
      ],
      [
        "▁sut",
        -8.57709855689544
      ],
      [
        "obur",
        -7.910016614482133
      ],
      [
        "emez",
        -7.693083838934779
      ],
      [
        "▁hat",
        -6.71359374354625
      ],
      [
        "dı",
        -4.67498132125022
      ],
      [
        "▁uye",
        -8.607398341888997
      ],
      [
        "ko",
        -8.463319096629075
      ],
      [
        "▁mutl",
        -7.186288115784883
      ],
      [
        "▁se",
        -8.004752904382748
      ],
      [
        "▁japon",
        -7.597509065116794
      ],
      [
        "▁b",
        -6.642359555692695
      ],
      [
        "ıyla",
        -7.6473105573084315
      ],
      [
        "▁cozum",
        -8.749161141563677
      ],
      [
        "lan",
        -7.701489567941591
      ],
      [
        "altı",
        -9.102506942421773
      ],
      [
        "▁hakim",
        -8.987520347213144
      ],
      [
        "lar",
        -7.82957019640935
      ],
      [
        "▁ba",
        -10.862362165488445
      ],
      [
        "▁halinde",
        -8.348599016715998
      ],
      [
        "▁ba",
        -3.487307104758375
      ],
      [
        "▁magaza",
        -8.497822617858045
      ],
      [
        "'un",
        -5.583121518991313
      ],
      [
        "▁carsamba",
        -5.641789510401653
      ],
      [
        "▁kuvvet",
        -8.768978482491827
      ],
      [
        "▁gidis",
        -7.360809698899004
      ],
      [
        "lerdi",
        -7.43356269603673
      ],
      [
        "▁ic",
        -7.079924071232347
      ],
      [
        "▁du",
        -3.325300845033725
      ],
      [
        "ul",
        -7.27796594008921
      ],
      [
        "▁bankası",
        -8.963209145391541
      ],
      [
        "suzluk",
        -8.913311963267702
      ],
      [
        "▁ortak",
        -7.387445134374164
      ],
      [
        "▁pittsburgh'",
        -6.070359094696599
      ],
      [
        "lık",
        -6.299756592094877
      ],
      [
        "▁kokusu",
        -8.999723836130443
      ],
      [
        "▁ara",
        -7.571122780289877
      ],
      [
        "abı",
        -8.509677880361348
      ],
      [
        "▁sanat",
        -7.859077525108997
      ],
      [
        "▁balık",
        -8.792124661479129
      ],
      [
        "▁gosterdi",
        -7.453777587268822
      ],
      [
        "▁sık",
        -8.93259984114122
      ],
      [
        "▁giy",
        -8.669004449972785
      ],
      [
        "us",
        -7.129492147559895
      ],
      [
        "▁alt",
        -7.545407850000282
      ],
      [
        "ten",
        -6.001337085484257
      ],
      [
        "nız",
        -7.630489356036614
      ],
      [
        "▁performans",
        -7.782061420782874
      ],
      [
        "▁neredey",
        -6.709668161950811
      ],
      [
        "▁yabancı",
        -6.768015599588232
      ],
      [
        "▁ne",
        -5.10281808315421
      ],
      [
        "$",
        -7.511459065044036
      ],
      [
        "meyi",
        -7.824923699009212
      ],
      [
        "▁kullanmadi",
        -7.197998212044448
      ],
      [
        "▁yapım",
        -9.238698991299685
      ],
      [
        "▁yok",
        -6.061486985436495
      ],
      [
        "▁kendini",
        -4.901080439319303
      ],
      [
        "iba",
        -7.213093955656788
      ],
      [
        "▁once",
        -4.36331637109668
      ],
      [
        "los",
        -6.97143086662715
      ],
      [
        "▁ileri",
        -8.961572978147919
      ],
      [
        "▁ber",
        -5.3562904798937145
      ],
      [
        "▁b",
        -3.7367717215100518
      ],
      [
        "▁once",
        -6.462100414457955
      ],
      [
        "nın",
        -5.461750361995479
      ],
      [
        "nin",
        -6.246139660201711
      ],
      [
        "4",
        -12.802702672349787
      ],
      [
        "5",
        -12.802702672349787
      ],
      [
        "▁sat",
        -8.009129313709888
      ],
      [
        "a",
        -3.8394838638049187
      ],
      [
        "diklerini",
        -9.094904089610862
      ],
      [
        "▁kolay",
        -6.783379381522581
      ],
      [
        "▁in",
        -8.066435493824775
      ],
      [
        "sızlık",
        -8.414054230940573
      ],
      [
        "▁yukseldi",
        -6.236371526360394
      ],
      [
        "meye",
        -6.748318156491168
      ],
      [
        "y",
        -4.612750675023657
      ],
      [
        "▁15",
        -5.317744224803343
      ],
      [
        "▁sezon",
        -9.062383351642804
      ],
      [
        "▁hangi",
        -5.347616636025412
      ],
      [
        "▁fonlar",
        -9.137914237806251
      ],
      [
        "▁on",
        -7.765378417422554
      ],
      [
        "▁islemlerinde",
        -9.183038263071598
      ],
      [
        "▁firs",
        -8.37524525068959
      ],
      [
        "▁ic",
        -7.744892378702671
      ],
      [
        "▁yo",
        -5.081569992204334
      ],
      [
        "▁elinde",
        -7.596396381410533
      ],
      [
        "▁sikayet",
        -8.749131116760296
      ],
      [
        "▁10",
        -4.109372079715847
      ],
      [
        "ev",
        -11.802702672349788
      ],
      [
        "co",
        -7.273924532429266
      ],
      [
        "at",
        -6.814759355266659
      ],
      [
        "▁ogle",
        -6.920594758086205
      ],
      [
        "▁yaklası",
        -6.011748996053887
      ],
      [
        "▁radyo",
        -8.855919137372886
      ],
      [
        "kten",
        -8.562354603792354
      ],
      [
        "n",
        -4.758362794379163
      ],
      [
        "▁yemekler",
        -6.93359594785308
      ],
      [
        "▁aralık",
        -8.762239315818604
      ],
      [
        "▁yan",
        -8.025256445727319
      ],
      [
        "▁odalari",
        -8.74331948037658
      ],
      [
        "ini",
        -6.190612021855556
      ],
      [
        "ist",
        -8.502225390448276
      ],
      [
        "▁donem",
        -8.23218817974308
      ],
      [
        "▁yen",
        -8.369360404086656
      ],
      [
        "▁sonrasın",
        -9.122403319718018
      ],
      [
        "▁kitabı",
        -8.374970610995577
      ],
      [
        "▁atlanta'",
        -5.708273604410998
      ],
      [
        "c",
        -4.705204350413798
      ],
      [
        "▁ilgilendi",
        -5.974221286990928
      ],
      [
        "▁ara",
        -7.916258681979784
      ],
      [
        "az",
        -7.193482929552111
      ],
      [
        "▁istek",
        -9.216298002661855
      ],
      [
        "▁yatırımcıların",
        -9.28646667217327
      ],
      [
        "up",
        -6.6607683440219585
      ],
      [
        "▁un",
        -8.582780595311068
      ],
      [
        "dıgı",
        -6.964264673334472
      ],
      [
        "▁bahar",
        -9.159373340377176
      ],
      [
        "lama",
        -7.3833637299530706
      ],
      [
        "▁kor",
        -7.963516784933761
      ],
      [
        "av",
        -8.448107418211123
      ],
      [
        "▁raporu",
        -9.1211419486369
      ],
      [
        "j",
        -7.860234300391138
      ],
      [
        "nda",
        -6.937044282333948
      ],
      [
        "▁not",
        -8.564389378324947
      ],
      [
        "d",
        -4.831539974861214
      ],
      [
        "liligi",
        -9.2120156747392
      ],
      [
        "▁karısı",
        -7.840275909925568
      ],
      [
        "lerin",
        -5.707843220726736
      ],
      [
        "▁isim",
        -8.461692815124682
      ],
      [
        "▁mah",
        -8.83167741761401
      ],
      [
        "▁seattle'",
        -7.002052026715994
      ],
      [
        "▁ada",
        -9.099864902384759
      ],
      [
        "▁imza",
        -9.085630305411248
      ],
      [
        "gu",
        -7.100277774764232
      ],
      [
        "▁tas",
        -7.694382476535432
      ],
      [
        "▁misafirimiz",
        -8.43509539450272
      ],
      [
        "k",
        -5.799929012345389
      ],
      [
        "▁asıl",
        -7.27937555355245
      ],
      [
        "ilen",
        -7.616782409815674
      ],
      [
        "▁gece",
        -6.863264170889395
      ],
      [
        "▁yay",
        -8.541311291651535
      ],
      [
        "▁guzeldi",
        -4.630986174993107
      ],
      [
        "▁icki",
        -8.879908843297532
      ],
      [
        "▁asagıda",
        -9.079936920397598
      ],
      [
        "▁hic",
        -9.242439273421196
      ],
      [
        "cu",
        -6.814902540670463
      ],
      [
        "▁fiyatı",
        -8.239115862109752
      ],
      [
        "▁ates",
        -8.066229052883777
      ],
      [
        "▁ciddi",
        -7.1215799823785355
      ],
      [
        "▁erkek",
        -8.467848247537201
      ],
      [
        "▁din",
        -7.8470006875294285
      ],
      [
        "ba",
        -7.53349997620627
      ],
      [
        "▁emir",
        -9.0180581764486
      ],
      [
        "▁en",
        -3.960848580067063
      ],
      [
        "▁gel",
        -8.757612393217727
      ],
      [
        "▁su",
        -6.385416699652203
      ],
      [
        "c",
        -6.122502378245914
      ],
      [
        "l",
        -11.802702672349783
      ],
      [
        "▁actı",
        -6.946085594628516
      ],
      [
        "▁yapılacak",
        -8.07005447656604
      ],
      [
        "▁coban",
        -9.265715674233066
      ],
      [
        "nden",
        -7.285725337564089
      ],
      [
        "s",
        -6.500190502047274
      ],
      [
        "s",
        -7.940678475384541
      ],
      [
        "▁onunde",
        -7.903428584640306
      ],
      [
        "errill",
        -7.514621870958839
      ],
      [
        "▁diy",
        -7.710908365679891
      ],
      [
        "▁devletin",
        -9.082807184417193
      ],
      [
        "▁personellerin",
        -8.789055907984848
      ],
      [
        "▁",
        -2.181625321710664
      ],
      [
        "in",
        -5.215628805993766
      ],
      [
        "▁gelir",
        -7.089933717529591
      ],
      [
        "▁yanın",
        -9.146594453930312
      ],
      [
        "▁ek",
        -8.142906777961526
      ],
      [
        "ya",
        -5.19524558231185
      ],
      [
        "▁dal",
        -7.977925928548869
      ],
      [
        "▁o",
        -7.8588572580885625
      ],
      [
        "▁miami'",
        -7.0184284548094675
      ],
      [
        "▁sa",
        -4.233276091639059
      ],
      [
        "f",
        -7.405868900941825
      ],
      [
        "un",
        -6.072576881132511
      ],
      [
        "▁piyasa",
        -7.1762711796026935
      ],
      [
        "▁iki",
        -2.932821784785342
      ],
      [
        "▁kalem",
        -8.524333435687117
      ],
      [
        "▁kayıt",
        -9.017543126666533
      ],
      [
        "▁bizim",
        -4.375437664788901
      ],
      [
        "▁ne",
        -8.069372765439216
      ],
      [
        "▁hijyen",
        -7.882009977537452
      ],
      [
        "▁i",
        -10.719126777139204
      ],
      [
        "▁endeks",
        -8.584934316768742
      ],
      [
        "▁washington'da",
        -6.7207730902238065
      ],
      [
        "'le",
        -7.292157769793574
      ],
      [
        "▁turku",
        -8.87925561994082
      ],
      [
        "▁alan",
        -7.8129806096875125
      ],
      [
        "▁doları'n",
        -8.48172675883439
      ],
      [
        "▁alet",
        -9.243211619057046
      ],
      [
        "▁cesit",
        -6.548089751462578
      ],
      [
        "▁normaldi",
        -7.730121706499893
      ],
      [
        "el",
        -6.289521863593651
      ],
      [
        "▁kapı",
        -7.045212487440587
      ],
      [
        "meyecek",
        -7.879904132316533
      ],
      [
        "ur",
        -7.187211276608802
      ],
      [
        "▁dag",
        -8.278480691196823
      ],
      [
        "▁tahta",
        -8.673677015011915
      ],
      [
        "l",
        -6.528768719985566
      ],
      [
        "▁gelen",
        -7.18416800202182
      ],
      [
        "▁gidiyor",
        -6.9630755822586865
      ],
      [
        "▁duydu",
        -7.8035315563477194
      ],
      [
        "▁tası",
        -8.93250373004894
      ],
      [
        "*",
        -8.013350264920795
      ],
      [
        "▁olur",
        -6.262222181576985
      ],
      [
        "▁batı",
        -7.598971603535954
      ],
      [
        "▁koy",
        -7.522363718466498
      ],
      [
        "▁gozlem",
        -9.131333965518106
      ],
      [
        "▁guzelligi",
        -9.289974550853318
      ],
      [
        "0'",
        -8.23653447804701
      ],
      [
        "▁asker",
        -7.437648623430061
      ],
      [
        "▁can",
        -7.6556232845147845
      ],
      [
        "re",
        -7.115838760587909
      ],
      [
        "▁derin",
        -6.915514199379652
      ],
      [
        "▁kus",
        -7.925498294022481
      ],
      [
        "▁or",
        -8.061175959116673
      ],
      [
        "medi",
        -7.563995473531286
      ],
      [
        "▁nası",
        -7.632978901032291
      ],
      [
        "▁yeter",
        -7.746002165592302
      ],
      [
        "or",
        -7.628499005959598
      ],
      [
        "siz",
        -5.236444565992568
      ],
      [
        "▁deney",
        -9.150857831772772
      ],
      [
        "▁suyun",
        -9.261729461689125
      ],
      [
        "da",
        -6.702665342960288
      ],
      [
        "u",
        -7.007500087809162
      ],
      [
        "▁biraz",
        -4.687763168436832
      ],
      [
        "t",
        -5.496963253063057
      ],
      [
        "▁milyon",
        -8.035241405750813
      ],
      [
        "▁boyun",
        -8.973227801891834
      ],
      [
        "▁guler",
        -6.443584868127253
      ],
      [
        "▁bunda",
        -7.388617737186985
      ],
      [
        "dan",
        -5.2178061436840375
      ],
      [
        "meyi",
        -8.718690274907857
      ],
      [
        "▁yara",
        -8.341875383679113
      ],
      [
        "▁kahve",
        -7.6905355966778535
      ],
      [
        "▁sarkı",
        -8.499825444145902
      ],
      [
        "ize",
        -8.695382764880215
      ],
      [
        "▁oakland'da",
        -6.9603477511028204
      ],
      [
        "▁ipotek",
        -9.210748694491809
      ],
      [
        "▁yuzd",
        -6.009199951643306
      ],
      [
        "▁etmisti",
        -7.888160327619882
      ],
      [
        "▁kez",
        -7.60141011823315
      ],
      [
        "▁sorun",
        -7.365482151352181
      ],
      [
        "▁konustu",
        -7.3231066383999215
      ],
      [
        "▁parla",
        -7.874437419049214
      ],
      [
        "▁hizmetleri",
        -8.65845828748498
      ],
      [
        "▁genis",
        -6.390623316225844
      ],
      [
        "▁3\\/",
        -6.515098788460735
      ],
      [
        "▁alabilir",
        -7.849201938218147
      ],
      [
        "▁olurdu",
        -7.933540436429121
      ],
      [
        "▁yel",
        -9.135974466177723
      ],
      [
        "▁ise",
        -7.834820324004646
      ],
      [
        "▁yavru",
        -9.0855921804185
      ],
      [
        "sal",
        -9.255149021009696
      ],
      [
        "r",
        -3.585362620231244
      ],
      [
        "▁cay",
        -8.422484427262816
      ],
      [
        "▁bak",
        -6.543143194421092
      ],
      [
        "▁baslamıstı",
        -8.061027006083194
      ],
      [
        "▁yolunu",
        -9.081206370930854
      ],
      [
        "▁politika",
        -7.941015329796584
      ],
      [
        "▁boz",
        -8.959434886543468
      ],
      [
        "ler",
        -6.688903304487621
      ],
      [
        "▁ayakları",
        -9.047130128147183
      ],
      [
        "▁hat",
        -8.687669841003489
      ],
      [
        "v",
        -2.1317723992754427
      ],
      [
        "▁yemek",
        -7.144561514732587
      ],
      [
        "▁",
        -3.1693413067501917
      ],
      [
        "▁bakanı",
        -9.077331144673844
      ],
      [
        "n",
        -5.745614067840431
      ],
      [
        "▁isaret",
        -8.374978568237086
      ],
      [
        "lerimizi",
        -8.510313146234449
      ],
      [
        "▁hatıra",
        -9.088888907347892
      ],
      [
        "▁dil",
        -7.628112871040733
      ],
      [
        "▁san",
        -7.909273683451964
      ],
      [
        "masını",
        -7.563837571085156
      ],
      [
        "▁hos",
        -7.456506739129357
      ],
      [
        "im",
        -7.477502352604834
      ],
      [
        "▁basında",
        -7.645553648888793
      ],
      [
        "▁te",
        -7.8038693608871466
      ],
      [
        "▁veri",
        -8.496369476912108
      ],
      [
        "▁san",
        -4.296216419152607
      ],
      [
        "▁haberi",
        -8.99398259228536
      ],
      [
        "▁mal",
        -7.737986657103645
      ],
      [
        "▁artıs",
        -8.142356739838274
      ],
      [
        "ki",
        -7.752685619992764
      ],
      [
        "▁batı",
        -9.063861306609182
      ],
      [
        "▁banyo",
        -9.087737050010773
      ],
      [
        "▁okuma",
        -8.953988810237421
      ],
      [
        "ayan",
        -7.56860936791003
      ],
      [
        "▁uzerin",
        -7.80555689592298
      ],
      [
        "▁dost",
        -8.46748239616879
      ],
      [
        "▁yuzlu",
        -6.844632981068912
      ],
      [
        "lari",
        -8.749640307518618
      ],
      [
        "kan",
        -8.43418468809838
      ],
      [
        "▁ogretmen",
        -8.747973056040387
      ],
      [
        "▁anlam",
        -7.836099849475841
      ],
      [
        "▁mektup",
        -8.78332165715451
      ],
      [
        "mesini",
        -8.93105118169019
      ],
      [
        "9'",
        -8.869565420437969
      ],
      [
        "▁cogu",
        -6.224369063045475
      ],
      [
        "▁vatan",
        -9.085421037887544
      ],
      [
        "ecegi",
        -7.881106460152882
      ],
      [
        "▁?",
        -9.528807987385584
      ],
      [
        "▁geri",
        -5.740966921982887
      ],
      [
        "▁an",
        -7.159761114053556
      ],
      [
        "▁kaynak",
        -8.224967396196647
      ],
      [
        "▁amerika",
        -7.597198809842749
      ],
      [
        "▁tarihi",
        -8.61883344061435
      ],
      [
        "▁21",
        -6.150409216274106
      ],
      [
        "sizdi",
        -7.374241481760511
      ],
      [
        "▁sev",
        -7.866848434354087
      ],
      [
        "▁basım",
        -8.687477042032691
      ],
      [
        "▁w",
        -7.361478601160245
      ],
      [
        "▁nihayet",
        -7.402796899532941
      ],
      [
        "▁tatlı",
        -7.188067111371173
      ],
      [
        "lara",
        -6.492230528566789
      ],
      [
        "m",
        -5.873443252499982
      ],
      [
        "▁ki",
        -1.7493755316426949
      ],
      [
        "cı",
        -6.208280676811853
      ],
      [
        "cu",
        -6.278882516343646
      ],
      [
        "▁tek",
        -5.245257206535452
      ],
      [
        "larındaki",
        -7.912385637745995
      ],
      [
        "▁kadar",
        -8.75002736138481
      ],
      [
        "ur",
        -7.281490566527601
      ],
      [
        "▁arttı",
        -7.380759279484635
      ],
      [
        "▁ucretlerini",
        -9.124577973395168
      ],
      [
        "▁geri",
        -7.1435128391119385
      ],
      [
        "ık",
        -7.649392049490637
      ],
      [
        "uyor",
        -6.753526068037861
      ],
      [
        "ana",
        -8.509231256135465
      ],
      [
        "▁du",
        -8.268975596198025
      ],
      [
        "▁cocugun",
        -8.89036097370874
      ],
      [
        "tmak",
        -9.092736603661873
      ],
      [
        "sız",
        -9.210903841713929
      ],
      [
        "muz",
        -8.378158394651074
      ],
      [
        "▁adım",
        -7.861245742399232
      ],
      [
        "mus",
        -6.071573892666369
      ],
      [
        "▁oldugunu",
        -6.686900478286046
      ],
      [
        "▁gitmek",
        -8.453567556185694
      ],
      [
        "▁dalga",
        -8.499007246155402
      ],
      [
        "▁cocukları",
        -8.738952316531147
      ],
      [
        "▁hayatı",
        -8.850389889537873
      ],
      [
        "sa",
        -7.160680658657613
      ],
      [
        "▁orta",
        -6.335666513927517
      ],
      [
        "▁sogu",
        -9.040630335923746
      ],
      [
        "▁sozcu",
        -7.692032276247823
      ],
      [
        "is",
        -9.889831758065933
      ],
      [
        "▁guler",
        -7.8388808121699025
      ],
      [
        "▁ucmak",
        -7.885486952875112
      ],
      [
        "▁vade",
        -6.44966854364282
      ],
      [
        "en",
        -5.647916873321357
      ],
      [
        "ı",
        -9.759274920622126
      ],
      [
        "▁tası",
        -8.060932185527967
      ],
      [
        "b",
        -6.913023110279971
      ],
      [
        "▁onlar",
        -4.15628502075879
      ],
      [
        "▁varan",
        -6.419116016399142
      ],
      [
        "▁baz",
        -6.262548399340187
      ],
      [
        "hane",
        -8.004994073016917
      ],
      [
        "▁gorme",
        -8.740948940399631
      ],
      [
        "f",
        -6.105801925130544
      ],
      [
        "▁musteri",
        -8.229587342747209
      ],
      [
        "▁18",
        -6.1993401006974596
      ],
      [
        "▁baslıyor",
        -7.795348747780091
      ],
      [
        "anlar",
        -8.33356514688371
      ],
      [
        "▁yardımcısı",
        -8.693668710495817
      ],
      [
        "▁icinde",
        -7.1227718035844765
      ],
      [
        "▁acısın",
        -8.682677598869876
      ],
      [
        "ca",
        -6.899445365206607
      ],
      [
        "▁eksik",
        -7.941174261744681
      ],
      [
        "▁karsı",
        -4.835443352689402
      ],
      [
        "▁kat",
        -8.046637744196342
      ],
      [
        "lik",
        -4.866178197012406
      ],
      [
        "cıları",
        -8.593255480501105
      ],
      [
        "▁anlamın",
        -8.863556453283985
      ],
      [
        "▁ikisi",
        -8.90801684654011
      ],
      [
        "d",
        -2.461972935010672
      ],
      [
        "▁duvar",
        -7.931600776885059
      ],
      [
        "▁yaptıgı",
        -7.795755109608496
      ],
      [
        "▁grup",
        -8.449334406127335
      ],
      [
        "▁tarife",
        -8.90331078122363
      ],
      [
        "▁donemi",
        -8.980651194991985
      ],
      [
        "▁aracı",
        -8.615625299311198
      ],
      [
        "▁sergi",
        -9.239132232997182
      ],
      [
        "▁k",
        -6.793351251023835
      ],
      [
        "▁odedigim",
        -6.710237212953605
      ],
      [
        "h",
        -5.467853488663264
      ],
      [
        "▁tesekkurler",
        -8.49352664196633
      ],
      [
        "▁zamanlarda",
        -8.832286087749498
      ],
      [
        "'ta",
        -6.857005206098159
      ],
      [
        "▁houston'da",
        -7.452939634644913
      ],
      [
        "▁amca",
        -9.110473069480587
      ],
      [
        "▁a",
        -7.747210991090319
      ],
      [
        "▁buray",
        -9.053483205473087
      ],
      [
        "▁pers",
        -7.007837764036368
      ],
      [
        "▁fiyatin",
        -8.780618017897794
      ],
      [
        "ecek",
        -6.5325837334617605
      ],
      [
        "ara",
        -6.535783394481455
      ],
      [
        "3",
        -8.232643069481728
      ],
      [
        "ır",
        -6.17815472815648
      ],
      [
        "▁baz",
        -9.097686845543862
      ],
      [
        "▁mesaj",
        -8.893718906242759
      ],
      [
        "▁endustri",
        -8.363474897029286
      ],
      [
        "▁ortam",
        -8.761000730433299
      ],
      [
        "▁iktidar",
        -9.13379177770237
      ],
      [
        "▁gorusuldu",
        -5.6858929814905395
      ],
      [
        "▁dusunce",
        -8.265346741560183
      ],
      [
        "fa",
        -8.236962644876998
      ],
      [
        "▁yoktu",
        -5.52949816062023
      ],
      [
        "▁basta",
        -9.092386941057107
      ],
      [
        "▁istifa",
        -8.472138977400014
      ],
      [
        "▁alay",
        -9.147819001552866
      ],
      [
        "ır",
        -7.484614449917036
      ],
      [
        "e",
        -3.96344570609239
      ],
      [
        "si",
        -6.416833395840142
      ],
      [
        "dir",
        -5.261977899536268
      ],
      [
        "▁teknoloji",
        -8.41026937332661
      ],
      [
        "▁etmiyor",
        -7.937139060596527
      ],
      [
        "▁kalıyor",
        -8.113316475280968
      ],
      [
        "▁bu",
        -7.374577612377099
      ],
      [
        "▁baltimore'de",
        -5.972450229599645
      ],
      [
        "▁yana",
        -8.105534684202944
      ],
      [
        "▁yapı",
        -7.73280662891459
      ],
      [
        "▁ediyordu",
        -7.4330149530419485
      ],
      [
        "▁cal",
        -8.070071060742738
      ],
      [
        "▁yat",
        -8.87419503609017
      ],
      [
        "li",
        -7.324711775814479
      ],
      [
        "▁insanı",
        -8.952969754496422
      ],
      [
        "▁ofke",
        -9.21075176479673
      ],
      [
        "▁ha",
        -7.961710782505898
      ],
      [
        "▁ettigini",
        -8.805410393412142
      ],
      [
        "▁azın",
        -8.837291010667059
      ],
      [
        "▁hazır",
        -7.172212386869996
      ],
      [
        "u",
        -6.328937242903749
      ],
      [
        "ra",
        -6.797631536129477
      ],
      [
        "lug",
        -8.923326078959061
      ],
      [
        "▁bugday",
        -9.294125743189296
      ],
      [
        "▁s",
        -7.344930797795903
      ],
      [
        "▁ısıgı",
        -8.908168469344686
      ],
      [
        "l",
        -5.477768339298198
      ],
      [
        "▁demokrat",
        -7.9632840079401115
      ],
      [
        "▁ro",
        -9.087549903530823
      ],
      [
        "▁toplantı",
        -8.326142672340858
      ],
      [
        "▁g",
        -5.746819020120408
      ],
      [
        "lendirme",
        -8.65264321479412
      ],
      [
        ")",
        -6.115128725042444
      ],
      [
        "yi",
        -6.010339211861245
      ],
      [
        "▁buldu",
        -6.981970595712374
      ],
      [
        "▁erke",
        -6.2825486582366485
      ],
      [
        "▁inc",
        -9.039842413567403
      ],
      [
        "▁halde",
        -7.9212780825107245
      ],
      [
        "▁coktu",
        -8.086417080984273
      ],
      [
        "▁insanın",
        -8.188735052740972
      ],
      [
        "▁cadde",
        -8.933130685948793
      ],
      [
        "▁bag",
        -6.938669487535157
      ],
      [
        "▁air",
        -6.441528599237535
      ],
      [
        "▁girme",
        -9.23274771015684
      ],
      [
        "▁sor",
        -7.836084355901741
      ],
      [
        "▁tut",
        -8.524278978569665
      ],
      [
        "▁ordu",
        -8.46060733999651
      ],
      [
        "bire",
        -6.803876773460233
      ],
      [
        "▁faiz",
        -7.650555241183481
      ],
      [
        "▁par",
        -8.83932827654096
      ],
      [
        "▁me",
        -7.563512412477667
      ],
      [
        "▁ailesi",
        -8.915922646153582
      ],
      [
        "▁kazan",
        -8.50815677255867
      ],
      [
        "▁seyahat",
        -8.265578217177891
      ],
      [
        "▁kitaplar",
        -9.173931524117677
      ],
      [
        "acagını",
        -8.176889607571834
      ],
      [
        "luk",
        -7.22677111986672
      ],
      [
        "▁soyle",
        -7.525610483728363
      ],
      [
        "▁karayolu",
        -7.854941079164662
      ],
      [
        "▁parcası",
        -8.825598065570013
      ],
      [
        "ca",
        -4.628700976346801
      ],
      [
        "▁ticarette",
        -9.027941098747165
      ],
      [
        "gal",
        -7.36865630030424
      ],
      [
        "▁zor",
        -6.463347752302094
      ],
      [
        "▁dakika",
        -8.06049161488329
      ],
      [
        "▁havayolu",
        -8.48483442699644
      ],
      [
        "▁cak",
        -8.789478667596335
      ],
      [
        "▁reform",
        -9.158791853722423
      ],
      [
        "▁pazar",
        -6.932343962904431
      ],
      [
        "▁satısı",
        -8.899363847567406
      ],
      [
        "4'",
        -8.969202812498203
      ],
      [
        "▁sahi",
        -9.041626564248634
      ],
      [
        "▁ilave",
        -8.953570676907452
      ],
      [
        "▁newark'ta",
        -7.347640522526289
      ],
      [
        "▁erkek",
        -7.594686771321886
      ],
      [
        "▁10'da",
        -9.039832816355691
      ],
      [
        "▁gecirdi",
        -7.6939253071302485
      ],
      [
        "▁saatler",
        -7.5770854084490615
      ],
      [
        "▁acıklama",
        -8.701599473841725
      ],
      [
        "▁charlotte'de",
        -7.348968685556176
      ],
      [
        "▁sordu",
        -7.266541797794853
      ],
      [
        "▁aldi",
        -8.098343313502959
      ],
      [
        "▁ozgu",
        -7.910446090844006
      ],
      [
        "▁ad",
        -8.402222160411586
      ],
      [
        "▁kisi",
        -6.944181543002639
      ],
      [
        "▁dedi",
        -5.147536252652197
      ],
      [
        "ayım",
        -7.717619501136943
      ],
      [
        "mıslar",
        -7.930022845837249
      ],
      [
        "▁baktı",
        -7.235238501895004
      ],
      [
        "▁beyle",
        -8.421985248177215
      ],
      [
        "▁defa",
        -7.987098674025844
      ],
      [
        "dı",
        -7.733586053078921
      ],
      [
        "az",
        -6.531221546471877
      ],
      [
        "g",
        -7.643914206678526
      ],
      [
        "▁madde",
        -8.11217360715342
      ],
      [
        "gun",
        -8.239400959295148
      ],
      [
        "▁hangisi",
        -5.9097176655688965
      ],
      [
        "syon",
        -8.50772810440829
      ],
      [
        "sunu",
        -7.736077907063988
      ],
      [
        "▁bir",
        -4.513339230743958
      ],
      [
        "atı",
        -8.84321093239329
      ],
      [
        "▁orlando'",
        -6.981348912655069
      ],
      [
        "han",
        -7.122411458933094
      ],
      [
        "▁dugun",
        -9.140165328868779
      ],
      [
        "▁vakti",
        -8.749137172828377
      ],
      [
        "r",
        -2.7496375480404023
      ],
      [
        "▁8'de",
        -9.113773307334963
      ],
      [
        "▁kıymetler",
        -7.986099482827888
      ],
      [
        "▁idi",
        -7.607056053409531
      ],
      [
        "f",
        -7.4132971476116705
      ],
      [
        "▁ar",
        -7.45403532020468
      ],
      [
        "▁bura",
        -9.05998731247864
      ],
      [
        "ir",
        -6.550091369772204
      ],
      [
        "▁hisseleri",
        -7.931710495568722
      ],
      [
        "▁dusunme",
        -9.062843001250087
      ],
      [
        "ar",
        -7.686561470588262
      ],
      [
        "▁yen'",
        -7.446286463261055
      ],
      [
        "▁olu",
        -7.273312295580439
      ],
      [
        "di",
        -7.125723558148611
      ],
      [
        "▁ask",
        -8.480240596687842
      ],
      [
        "▁dostu",
        -8.845356561914421
      ],
      [
        "▁duz",
        -9.07021493067467
      ],
      [
        "▁reklam",
        -7.889916414067815
      ],
      [
        "▁halk",
        -8.091570517722253
      ],
      [
        "▁olanaklari",
        -8.34100200420973
      ],
      [
        "▁dow",
        -6.840496730669338
      ],
      [
        "di",
        -6.497453989946427
      ],
      [
        "▁si",
        -7.274225509181576
      ],
      [
        "v",
        -14.014958445102625
      ],
      [
        "▁piyasaları",
        -9.252746059594749
      ],
      [
        "▁olabilir",
        -5.960379009982213
      ],
      [
        "▁gozlerini",
        -8.289770890806162
      ],
      [
        "▁ici",
        -8.124470618740895
      ],
      [
        "▁saygı",
        -8.801427615591557
      ],
      [
        "▁pazartesi",
        -8.97442453118505
      ],
      [
        "ip",
        -6.160296091166794
      ],
      [
        "▁kultur",
        -8.911520757976831
      ],
      [
        "▁zaman",
        -7.1405633171011775
      ],
      [
        "gi",
        -6.922184583827161
      ],
      [
        "▁olmustu",
        -7.1578929644790845
      ],
      [
        "▁gozu",
        -8.12981789370777
      ],
      [
        "▁yontem",
        -9.085879745698636
      ],
      [
        "▁corba",
        -8.699972484994362
      ],
      [
        "her",
        -6.241321517692774
      ],
      [
        "▁sure",
        -7.720068407476733
      ],
      [
        "ı",
        -5.39340979290086
      ],
      [
        "▁iyi",
        -6.254102976079183
      ],
      [
        "▁lake",
        -6.5667646715333206
      ],
      [
        "temel",
        -7.572565365807591
      ],
      [
        "▁almıs",
        -7.89597101180678
      ],
      [
        "m",
        -5.082265988425475
      ],
      [
        "▁yer",
        -6.667568298399141
      ],
      [
        "▁sevk",
        -9.126819610075465
      ],
      [
        "▁ka",
        -7.193509995414806
      ],
      [
        "▁yapmadı",
        -8.09102929740633
      ],
      [
        "▁per",
        -9.109518577263938
      ],
      [
        "▁fiyati",
        -8.410242649700916
      ],
      [
        "▁numara",
        -7.740614440063101
      ],
      [
        "▁her",
        -3.2176437841680947
      ],
      [
        "ila",
        -9.207290760679781
      ],
      [
        "▁soyler",
        -7.623592392997051
      ],
      [
        "▁gid",
        -7.391979576078856
      ],
      [
        "nce",
        -6.808974596992564
      ],
      [
        "▁ham",
        -8.594745056678725
      ],
      [
        "▁3",
        -4.285712194127713
      ],
      [
        "▁5",
        -4.229060776087967
      ],
      [
        "▁olanakları",
        -9.263079746913636
      ],
      [
        "▁havuz",
        -7.6780200073461575
      ],
      [
        "`",
        -5.172154642791867
      ],
      [
        "▁konusu",
        -8.558032382416304
      ],
      [
        "▁indirim",
        -9.039623084291172
      ],
      [
        "▁giris",
        -9.031881478239544
      ],
      [
        "▁denver'",
        -5.70721602345817
      ],
      [
        "▁verim",
        -8.607822057907137
      ],
      [
        "▁ote",
        -8.702898349399746
      ],
      [
        "▁yapılan",
        -7.5606945253166895
      ],
      [
        "▁ilgiliydi",
        -6.09892415350491
      ],
      [
        "▁elma",
        -8.947615157218255
      ],
      [
        "▁ust",
        -8.93041255686945
      ],
      [
        "▁kurulus",
        -8.878754796596278
      ],
      [
        "ur",
        -7.785578488847238
      ],
      [
        "▁mucadele",
        -8.459355579372614
      ],
      [
        "▁lezzet",
        -7.625560767531123
      ],
      [
        "▁otelin",
        -7.640042376732834
      ],
      [
        "'daki",
        -6.583525614428688
      ],
      [
        "▁",
        -4.452086336907838
      ],
      [
        "▁masal",
        -9.208191325533729
      ],
      [
        "elim",
        -7.397197964383144
      ],
      [
        "▁doviz",
        -9.210751911163774
      ],
      [
        "▁giriste",
        -8.95705013391546
      ],
      [
        "▁dususle",
        -8.830459642248533
      ],
      [
        "▁basını",
        -8.258267193019861
      ],
      [
        "▁dergi",
        -8.341114624344643
      ],
      [
        "▁eskiy",
        -7.310315848648845
      ],
      [
        "▁`",
        -10.557597422589598
      ],
      [
        "▁kasaba",
        -8.624268152781902
      ],
      [
        "▁hangi",
        -5.189675037624199
      ],
      [
        "iz",
        -6.313497623855729
      ],
      [
        "▁ucreti",
        -7.6937481226066655
      ],
      [
        "▁urunler",
        -9.053855222411888
      ],
      [
        "li",
        -7.09599677549015
      ],
      [
        "▁h",
        -5.985551101189426
      ],
      [
        "▁nerede",
        -7.3722393738330165
      ],
      [
        "acagı",
        -7.5790746947013234
      ],
      [
        "▁tuketici",
        -8.637907763237546
      ],
      [
        "▁ce",
        -7.99436355648325
      ],
      [
        "▁yanlıs",
        -7.167249857989958
      ],
      [
        "is",
        -7.463825349204963
      ],
      [
        "▁ala",
        -8.750052283880837
      ],
      [
        "nız",
        -8.70034607177369
      ],
      [
        "▁indi",
        -7.774694128208652
      ],
      [
        "▁d",
        -8.848063258133958
      ],
      [
        "e",
        -2.7482464078385993
      ],
      [
        "▁arz",
        -8.829906053414554
      ],
      [
        "▁sonuclar",
        -9.019147457246484
      ],
      [
        "ser",
        -8.926342985778371
      ],
      [
        "▁kızı",
        -8.454136270198845
      ],
      [
        "▁3.",
        -5.926069570258965
      ],
      [
        "7",
        -4.751300342131522
      ],
      [
        "▁yıldız",
        -8.836922310040888
      ],
      [
        "la",
        -6.132318751279013
      ],
      [
        "▁memur",
        -8.434679523331665
      ],
      [
        "▁meyve",
        -8.874292581455368
      ],
      [
        "▁sıkı",
        -7.181068180507191
      ],
      [
        "▁hale",
        -8.01677737410305
      ],
      [
        "▁tuttu",
        -7.772318232298745
      ],
      [
        "▁odamiz",
        -8.578578676601948
      ],
      [
        "▁en",
        -8.199192244498683
      ],
      [
        "▁dunyada",
        -8.803791541985877
      ],
      [
        "▁bilet",
        -8.235814383997521
      ],
      [
        "▁mukemmeldi",
        -7.583878826501949
      ],
      [
        "▁sonu",
        -5.939231458545545
      ],
      [
        "mis",
        -5.723620343942099
      ],
      [
        "▁dar",
        -7.407631563580619
      ],
      [
        "▁ucretleri",
        -8.860902634295035
      ],
      [
        "▁dısarıda",
        -9.25568136066655
      ],
      [
        "▁uygun",
        -5.704720861469475
      ],
      [
        "k",
        -4.044470171830261
      ],
      [
        "i",
        -5.1862327253366844
      ],
      [
        "'te",
        -7.098752597832924
      ],
      [
        "▁gec",
        -6.5059567370756195
      ],
      [
        "▁yapmıs",
        -8.092179687870397
      ],
      [
        "▁bay",
        -5.855742044162384
      ],
      [
        "ktan",
        -7.714189021885968
      ],
      [
        "▁keskin",
        -7.6564117203846145
      ],
      [
        "▁herif",
        -9.017391010669245
      ],
      [
        "▁ab",
        -9.077533453578743
      ],
      [
        "▁siddet",
        -9.18443337766713
      ],
      [
        "▁kesin",
        -7.804262474853327
      ],
      [
        "▁ardın",
        -7.0154321903276164
      ],
      [
        ",",
        -11.199613634584775
      ],
      [
        "[CLS]",
        0.0
      ],
      [
        "▁egitim",
        -8.185930873672504
      ],
      [
        "0",
        -4.429548908795914
      ],
      [
        "▁teslim",
        -8.716071481015334
      ],
      [
        "▁gerekiyor",
        -7.23860932086348
      ],
      [
        "▁var",
        -7.1543955785312185
      ],
      [
        "▁am",
        -5.947568370575268
      ],
      [
        "▁havuzu",
        -7.566038865777999
      ],
      [
        "▁kosulları",
        -8.884008805767216
      ],
      [
        "▁yurt",
        -8.766030307606563
      ],
      [
        "▁iste",
        -8.256703313041829
      ],
      [
        "▁haric",
        -9.040704401237276
      ],
      [
        "▁vatandas",
        -9.08607246741277
      ],
      [
        "▁sehir",
        -7.4483327143665985
      ],
      [
        "▁ka",
        -6.481825642100742
      ],
      [
        "▁kriz",
        -9.075898134331435
      ],
      [
        "▁kenar",
        -8.53889699064589
      ],
      [
        "cık",
        -8.447918136619485
      ],
      [
        "▁ir",
        -9.209648438836341
      ],
      [
        "▁calisanlar",
        -8.542772132300328
      ],
      [
        "ah",
        -7.906874148587283
      ],
      [
        "▁rakam",
        -9.209329415229782
      ],
      [
        "▁fon",
        -8.581956163889341
      ],
      [
        "▁bizim",
        -9.019844164095739
      ],
      [
        "▁iki",
        -8.372528240217115
      ],
      [
        "▁sonucu",
        -8.765607258519019
      ],
      [
        "▁yirmi",
        -5.481367957249344
      ],
      [
        "▁sefer",
        -8.186258640111436
      ],
      [
        "▁evlerin",
        -9.199453813382572
      ],
      [
        "▁arastırma",
        -8.482698920007923
      ],
      [
        "▁varlıklar",
        -9.079354418257184
      ],
      [
        "g",
        -7.059723691178884
      ],
      [
        "▁davranıs",
        -8.819199283946354
      ],
      [
        "▁ısı",
        -8.913740096246078
      ],
      [
        "▁yeni",
        -4.876323234096239
      ],
      [
        "▁anlattı",
        -7.673383799591574
      ],
      [
        "▁oy",
        -7.989776665821446
      ],
      [
        "▁alın",
        -9.109537906635243
      ],
      [
        "i",
        -5.429547822392264
      ],
      [
        "▁turk",
        -6.290660515108477
      ],
      [
        "▁yerin",
        -7.944938570128121
      ],
      [
        "▁sa",
        -7.533453171507167
      ],
      [
        "▁japonya",
        -7.214234858415907
      ],
      [
        "re",
        -4.844554200876263
      ],
      [
        "▁gerek",
        -7.142499163139928
      ],
      [
        "▁oran",
        -7.933939014813128
      ],
      [
        "▁verile",
        -7.651983172581052
      ],
      [
        "▁ikram",
        -9.294127688293191
      ],
      [
        "▁fazla",
        -5.6164715170281285
      ],
      [
        "▁baslamıs",
        -8.029725087251276
      ],
      [
        "di",
        -7.14262696494567
      ],
      [
        "▁ekim",
        -7.416606871173696
      ],
      [
        "▁men",
        -7.465012207054135
      ],
      [
        "dir",
        -7.546151632261554
      ],
      [
        "m",
        -4.809409968019235
      ],
      [
        "▁bo",
        -7.62776982190512
      ],
      [
        "▁cumle",
        -8.766097323063068
      ],
      [
        "▁gozleri",
        -7.673245106194443
      ],
      [
        "me",
        -6.409316492332664
      ],
      [
        "re",
        -7.287148064366534
      ],
      [
        "▁gormek",
        -8.637371919417074
      ],
      [
        "▁once",
        -4.914128521965577
      ],
      [
        "oglu",
        -7.0545701178516715
      ],
      [
        "▁sorunları",
        -8.647062666023192
      ],
      [
        "▁hamam",
        -8.638402986855425
      ],
      [
        "[PAD]",
        0.0
      ],
      [
        "▁kuru",
        -6.828130241180895
      ],
      [
        "▁26",
        -6.241788422066687
      ],
      [
        "▁tutma",
        -9.184306323095008
      ],
      [
        "▁yere",
        -7.686404501796405
      ],
      [
        "▁p",
        -7.133818923010828
      ],
      [
        "▁dun",
        -7.8304750967130925
      ],
      [
        "klarını",
        -7.831173798424999
      ],
      [
        "sunda",
        -9.051796505880809
      ],
      [
        "c",
        -4.853219729400437
      ],
      [
        "ası",
        -8.185098745747755
      ],
      [
        "ildi",
        -7.359700515877719
      ],
      [
        "▁pozisyon",
        -9.062336195022812
      ],
      [
        "ur",
        -7.048764238093534
      ],
      [
        "▁san",
        -8.491653599456079
      ],
      [
        "▁lezzeti",
        -8.776975677167293
      ],
      [
        "▁basladı",
        -5.979293379661058
      ],
      [
        "un",
        -5.755775350433605
      ],
      [
        "ma",
        -6.108077271086794
      ],
      [
        "▁onu",
        -3.8180555155698697
      ],
      [
        "▁washington'",
        -7.460039270716376
      ],
      [
        "▁eden",
        -7.458773784158193
      ],
      [
        "▁ajans",
        -9.133793207194465
      ],
      [
        "▁donuyor",
        -7.824949977258597
      ],
      [
        "▁duman",
        -8.783671386647182
      ],
      [
        "n",
        -3.2265408825251303
      ],
      [
        "▁kapandı",
        -6.6820325098326245
      ],
      [
        "▁nisan",
        -8.995651994963048
      ],
      [
        "▁kalite",
        -6.853378659999226
      ],
      [
        "▁gecmis",
        -7.749976290057055
      ],
      [
        "acaktı",
        -7.871454571865197
      ],
      [
        "▁baltimore'",
        -5.751682625962842
      ],
      [
        "▁yanında",
        -8.65270997824419
      ],
      [
        "▁ihrac",
        -8.778295245671867
      ],
      [
        "▁gercekte",
        -5.957249809190558
      ],
      [
        "h",
        -6.286180941560249
      ],
      [
        "▁bul",
        -6.836640547539096
      ],
      [
        "▁anne",
        -8.114635424835758
      ],
      [
        "▁heyecan",
        -8.637908473776024
      ],
      [
        "▁olus",
        -7.870410008112698
      ],
      [
        "▁kor",
        -8.617701121329588
      ],
      [
        "▁tahvilleri",
        -8.686796253456492
      ],
      [
        "▁genel",
        -5.426067388594888
      ],
      [
        "▁sozler",
        -8.894101395358899
      ],
      [
        "▁ihale",
        -8.995655666493128
      ],
      [
        "▁his",
        -9.16259210813107
      ],
      [
        "▁bulma",
        -8.412327871977615
      ],
      [
        "sa",
        -8.865208249174382
      ],
      [
        "▁hayat",
        -7.808658024613839
      ],
      [
        "le",
        -7.537562669215321
      ],
      [
        "▁kavram",
        -9.017966594200281
      ],
      [
        "▁bagı",
        -8.588811122004694
      ],
      [
        "te",
        -6.233763711407226
      ],
      [
        "rak",
        -3.383613678221411
      ],
      [
        "▁ola",
        -3.6807569053633458
      ],
      [
        "▁koltuk",
        -8.699981815427783
      ],
      [
        "▁ardı",
        -8.862584214285423
      ],
      [
        "▁bicim",
        -8.645191348819985
      ],
      [
        "▁temiz",
        -9.159794662936282
      ],
      [
        "lasma",
        -8.499340675195468
      ],
      [
        "aklı",
        -7.776455973658887
      ],
      [
        "▁kaza",
        -8.317303856917505
      ],
      [
        "▁ulasımı",
        -8.245641228232966
      ],
      [
        "se",
        -6.282812172293341
      ],
      [
        "▁yapılaca",
        -7.377845495875994
      ],
      [
        "ndaki",
        -7.280230974519307
      ],
      [
        "▁sirketi",
        -8.102809066172542
      ],
      [
        "bası",
        -8.799278101600494
      ],
      [
        "▁sonra",
        -4.483960125414106
      ],
      [
        "▁yuzun",
        -8.918435108562544
      ],
      [
        "digi",
        -7.149218745751681
      ],
      [
        "▁farklı",
        -6.672202960391765
      ],
      [
        "▁ton",
        -8.910996998225183
      ],
      [
        "▁ucusun",
        -9.112454499905972
      ],
      [
        "b",
        -2.3576107270349222
      ],
      [
        "▁havaalanı",
        -8.886154392665922
      ],
      [
        "▁mimar",
        -9.238008254436632
      ],
      [
        "lere",
        -6.511187168128944
      ],
      [
        "▁ydi",
        -4.345530577115908
      ],
      [
        "▁ceyrekte",
        -8.824752563014453
      ],
      [
        "▁seviye",
        -8.73932064363613
      ],
      [
        "'i",
        -6.721080804396391
      ],
      [
        "r",
        -6.326167901266359
      ],
      [
        "ro",
        -8.47556585567007
      ],
      [
        "▁bicimde",
        -9.09785315767755
      ],
      [
        "▁temiz",
        -5.273886589404727
      ],
      [
        "ir",
        -6.8087927854478645
      ],
      [
        "ma",
        -7.597842975260149
      ],
      [
        "▁yanda",
        -8.817890646262013
      ],
      [
        "▁bin",
        -9.282355484712383
      ],
      [
        "▁tele",
        -7.467022141174876
      ],
      [
        "p",
        -6.6111150350837455
      ],
      [
        "/",
        -9.08559172398254
      ],
      [
        "▁kurum",
        -9.177153494269744
      ],
      [
        "▁bilgisayar",
        -7.678940204098423
      ],
      [
        "▁zamanı",
        -8.820859025978951
      ],
      [
        "▁ekledi",
        -7.509081774730556
      ],
      [
        "▁gecmis",
        -8.966971508353096
      ],
      [
        "▁yasıyor",
        -7.764116766987493
      ],
      [
        "▁pencere",
        -8.05193571114983
      ],
      [
        "im",
        -6.740811679588673
      ],
      [
        "▁personeli",
        -8.32807808882326
      ],
      [
        "lu",
        -7.234825701707615
      ],
      [
        "▁etmedi",
        -7.691717767590749
      ],
      [
        "▁roman",
        -8.255412989351697
      ],
      [
        "sel",
        -5.723214982446909
      ],
      [
        "▁ha",
        -6.19103839345896
      ],
      [
        "▁kontrol",
        -8.185933144044473
      ],
      [
        "▁edip",
        -7.343455231838878
      ],
      [
        "▁dusundu",
        -7.637187744243473
      ],
      [
        "▁konfor",
        -7.636349363592389
      ],
      [
        "▁milleti",
        -9.213845293279821
      ],
      [
        "icin",
        -7.37606402349094
      ],
      [
        "▁butce",
        -8.699954479215332
      ],
      [
        "ul",
        -7.724151458039568
      ],
      [
        "▁ucak",
        -7.490501482181309
      ],
      [
        "▁digerleri",
        -8.855424816702525
      ],
      [
        "▁olsun",
        -6.552446083414008
      ],
      [
        "et",
        -7.333926693390413
      ],
      [
        "▁sef",
        -8.91831401496718
      ],
      [
        "▁kesinti",
        -8.953543902099575
      ],
      [
        "▁ihtiyacı",
        -9.031479520575639
      ],
      [
        "az",
        -9.366784984524482
      ],
      [
        "▁gul",
        -8.342044191196123
      ],
      [
        "▁perde",
        -8.582512824827326
      ],
      [
        "▁sag",
        -6.620873429776334
      ],
      [
        "▁onları",
        -4.32931003779788
      ],
      [
        "▁la",
        -7.875123900253622
      ],
      [
        "▁bakım",
        -8.61379327552558
      ],
      [
        "pa",
        -8.061339486445434
      ],
      [
        "di",
        -3.980170575732436
      ],
      [
        "▁duy",
        -7.947449747263441
      ],
      [
        "▁ellerinde",
        -8.939095309159832
      ],
      [
        "e",
        -3.9469061176939926
      ],
      [
        "▁kac",
        -6.691152110947753
      ],
      [
        "▁il",
        -3.41811777620672
      ],
      [
        "▁misafir",
        -8.340342401888913
      ],
      [
        "iydi",
        -7.457789464584331
      ],
      [
        "▁calısan",
        -7.885002160875033
      ],
      [
        "▁olmaya",
        -9.101696348222628
      ],
      [
        "▁oncesi",
        -9.162022410540594
      ],
      [
        "▁temmuz",
        -9.265563349881607
      ],
      [
        "▁cıkardı",
        -7.331309746760413
      ],
      [
        "▁saha",
        -8.666121821897075
      ],
      [
        "▁6",
        -4.8583629380426645
      ],
      [
        "▁temizlik",
        -7.700960763927924
      ],
      [
        "▁yedi",
        -5.3484134847842775
      ],
      [
        "iyl",
        -7.505604821556475
      ],
      [
        "▁kat",
        -7.576448565158112
      ],
      [
        "ti",
        -7.495080239910468
      ],
      [
        "▁gormedi",
        -7.322160367317579
      ],
      [
        "▁fazlayd",
        -7.995316240946609
      ],
      [
        "ka",
        -4.814930333216153
      ],
      [
        "▁istiyor",
        -7.1765149799908
      ],
      [
        "▁bol",
        -7.354352224522627
      ],
      [
        "▁rezervasyon",
        -8.278978072325732
      ],
      [
        "▁mis",
        -9.22401282547305
      ],
      [
        "▁co",
        -6.664471490842452
      ],
      [
        "▁karsılık",
        -9.072485158383774
      ],
      [
        "▁dolay",
        -4.747145240580062
      ],
      [
        "▁bi",
        -4.970497081628544
      ],
      [
        "1",
        -4.618758539404045
      ],
      [
        "▁r",
        -8.677199341049654
      ],
      [
        "▁kalkıyor",
        -7.630511019979586
      ],
      [
        "▁ilgili",
        -5.426669002869345
      ],
      [
        "▁d",
        -6.355214304135228
      ],
      [
        "n",
        -3.6280928810905237
      ],
      [
        "ha",
        -7.7880496633528065
      ],
      [
        "▁sahip",
        -7.24706871924641
      ],
      [
        "ak",
        -5.826425994507127
      ],
      [
        "r",
        -6.567973232437638
      ],
      [
        "▁onem",
        -8.324657559217236
      ],
      [
        "▁demek",
        -7.719360729703399
      ],
      [
        "▁ay",
        -7.579718843763761
      ],
      [
        "▁bakın",
        -8.100605837091344
      ],
      [
        "▁devri",
        -8.961495323919815
      ],
      [
        "▁karısı",
        -8.624253047491216
      ],
      [
        "udur",
        -7.374474651075438
      ],
      [
        "▁olması",
        -7.576339787469357
      ],
      [
        "▁tabak",
        -9.133873003259662
      ],
      [
        "▁kullan",
        -7.577518783158073
      ],
      [
        "yla",
        -6.345405882191227
      ],
      [
        "▁geri",
        -8.197555425993341
      ],
      [
        "▁sınır",
        -8.3298947076584
      ],
      [
        "gin",
        -8.399156128310608
      ],
      [
        "▁rehber",
        -8.40974490307236
      ],
      [
        "▁bel",
        -8.468287714222843
      ],
      [
        "▁bun",
        -4.95641735510991
      ],
      [
        "▁calısma",
        -7.814598973691669
      ],
      [
        "▁boston",
        -5.570586973517922
      ],
      [
        "▁united",
        -6.306874200536926
      ],
      [
        "es",
        -7.343381508774406
      ],
      [
        "▁konusuyor",
        -7.89689264280271
      ],
      [
        "▁alt",
        -8.86716720641108
      ],
      [
        "w",
        -9.085591990217663
      ],
      [
        "▁gunleri",
        -8.675447701639182
      ],
      [
        "▁ru",
        -8.910031687408365
      ],
      [
        "▁yıl",
        -7.582847028736415
      ],
      [
        "l",
        -6.098948794144246
      ],
      [
        "▁ara",
        -7.473880150615125
      ],
      [
        "▁soru",
        -8.149343270652665
      ],
      [
        "▁yer",
        -7.128962358310176
      ],
      [
        "▁gorun",
        -7.339522011104732
      ],
      [
        "at",
        -6.347732643039963
      ],
      [
        "▁paha",
        -7.543886575885301
      ],
      [
        "▁altın",
        -7.281097422942544
      ],
      [
        "▁ruzgar",
        -8.484834268536066
      ],
      [
        "▁boy",
        -5.301293242611928
      ],
      [
        "▁bilir",
        -7.671187875550568
      ],
      [
        "ber",
        -6.673340093541525
      ],
      [
        "▁olum",
        -8.299929850489196
      ],
      [
        "▁girdi",
        -7.08717183924109
      ],
      [
        "gerek",
        -11.723165890820209
      ],
      [
        "▁s",
        -4.608337497691907
      ],
      [
        "▁odun",
        -9.134039528022974
      ],
      [
        "s",
        -11.802702672349788
      ],
      [
        "▁yak",
        -8.12052216939461
      ],
      [
        "gun",
        -7.101013711484714
      ],
      [
        "abilecegi",
        -9.282507851666004
      ],
      [
        "▁ra",
        -6.318499422728738
      ],
      [
        "▁yasa",
        -7.89783488601957
      ],
      [
        "▁aksamı",
        -8.6466799098704
      ],
      [
        "▁konusma",
        -7.984870628949924
      ],
      [
        "▁gelistirme",
        -9.085598370075532
      ],
      [
        "▁kısıtlama",
        -9.184433011539133
      ],
      [
        "▁boynun",
        -9.26971563553651
      ],
      [
        "▁memnunu",
        -7.398164074736801
      ],
      [
        "▁buluna",
        -7.6183772988797305
      ],
      [
        "▁olmaya",
        -6.933581909972633
      ],
      [
        "h",
        -6.957033578087399
      ],
      [
        "de",
        -5.330256973534882
      ],
      [
        "▁ilan",
        -8.540042696625482
      ],
      [
        "▁mıs",
        -5.556776113669009
      ],
      [
        "▁iri",
        -7.5797182125449885
      ],
      [
        "▁inc",
        -6.89648595030143
      ],
      [
        "▁biliyor",
        -7.911963855297829
      ],
      [
        "nin",
        -5.555015513951928
      ],
      [
        "▁kendisini",
        -5.346153125872469
      ],
      [
        "▁lira",
        -8.051853214514368
      ],
      [
        "▁yuz",
        -5.128319349560085
      ],
      [
        "e",
        -5.7488116152677025
      ],
      [
        "▁suphe",
        -9.210749878452324
      ],
      [
        "▁boya",
        -8.854947501114847
      ],
      [
        "(",
        -6.121810261614014
      ],
      [
        "▁suru",
        -8.277375128331542
      ],
      [
        "▁renk",
        -8.298197903871912
      ],
      [
        "it",
        -7.6795142957907006
      ],
      [
        "▁yargıc",
        -9.153803387389587
      ],
      [
        "▁ediyor",
        -5.628755451911132
      ],
      [
        "▁cin",
        -7.22885038716025
      ],
      [
        "▁basarı",
        -8.225202892042724
      ],
      [
        "▁barıs",
        -9.111732999283493
      ],
      [
        "▁orada",
        -8.67104502065992
      ],
      [
        "▁ev",
        -6.741694517750826
      ],
      [
        "▁gokyuzu",
        -9.294126168229958
      ],
      [
        "▁dahil",
        -8.176631249437749
      ],
      [
        "sik",
        -7.354613352668875
      ],
      [
        "▁sap",
        -8.658979174399223
      ],
      [
        "▁canlı",
        -9.246052834912973
      ],
      [
        "▁omru",
        -9.210798960761712
      ],
      [
        "▁takım",
        -8.211745448092689
      ],
      [
        "\"",
        -8.995647550879896
      ],
      [
        "▁gun",
        -7.037441793609204
      ],
      [
        "▁sol",
        -8.333792728192737
      ],
      [
        "▁animasyon",
        -7.616965170293028
      ],
      [
        "▁ucretin",
        -8.691135842608755
      ],
      [
        "▁onun",
        -8.154551951874273
      ],
      [
        "ana",
        -3.4668823189684232
      ],
      [
        "▁olmus",
        -7.034365256963971
      ],
      [
        "▁sise",
        -9.12958060839081
      ],
      [
        "▁tablo",
        -9.210748604836454
      ],
      [
        "▁konu",
        -7.154934334090527
      ],
      [
        "▁ma",
        -7.477458687759427
      ],
      [
        "▁kal",
        -7.207473066616685
      ],
      [
        "▁gerceklesti",
        -8.115347287884378
      ],
      [
        "▁hayatın",
        -8.78639839876205
      ],
      [
        "▁cift",
        -7.316286050378702
      ],
      [
        "▁durum",
        -7.742149563856661
      ],
      [
        "▁son",
        -8.59673470278142
      ],
      [
        "▁olmaz",
        -7.167558397221924
      ],
      [
        "▁dur",
        -7.622895412905418
      ],
      [
        "▁elini",
        -8.516581796678722
      ],
      [
        "▁deli",
        -7.735746243304163
      ],
      [
        "▁varlıgı",
        -9.043816604215179
      ],
      [
        "▁yonetici",
        -9.199350525844205
      ],
      [
        "▁sistem",
        -8.483220858325652
      ],
      [
        "▁biri",
        -4.3695795693712105
      ],
      [
        "▁yerini",
        -8.713919929322206
      ],
      [
        "▁ucagın",
        -9.052105247994158
      ],
      [
        "iz",
        -8.018400537826322
      ],
      [
        "ı",
        -6.495236803388376
      ],
      [
        "▁dolar",
        -6.143829847917046
      ],
      [
        "ıcı",
        -6.9044637210078434
      ],
      [
        "kin",
        -5.764318754693728
      ],
      [
        "▁dur",
        -4.965681247810773
      ],
      [
        "▁elbise",
        -8.622984016105395
      ],
      [
        "▁iflas",
        -9.133792850067158
      ],
      [
        "▁hak",
        -7.433022112221927
      ],
      [
        "den",
        -4.636461324944689
      ],
      [
        "▁sozlesme",
        -8.454506615895117
      ],
      [
        "▁%",
        -3.886665045624932
      ],
      [
        "sa",
        -6.040957425482141
      ],
      [
        "sizlik",
        -8.037337177046904
      ],
      [
        "▁verdigi",
        -7.600508126963151
[...]
