{
  "version": "1.0",
  "truncation": null,
  "padding": null,
  "added_tokens": [
    {
      "id": 0,
      "content": "[UNK]",
      "single_word": false,
      "lstrip": false,
      "rstrip": false,
      "normalized": false,
      "special": true
    },
    {
      "id": 1,
      "content": "[PAD]",
      "single_word": false,
      "lstrip": false,
      "rstrip": false,
      "normalized": false,
      "special": true
    },
    {
      "id": 2,
      "content": "[CLS]",
      "single_word": false,
      "lstrip": false,
      "rstrip": false,
      "normalized": false,
      "special": true
    },
    {
      "id": 3,
      "content": "[SEP]",
      "single_word": false,
      "lstrip": false,
      "rstrip": false,
      "normalized": false,
      "special": true
    },
    {
      "id": 4,
      "content": "[MASK]",
      "single_word": false,
      "lstrip": false,
      "rstrip": false,
      "normalized": false,
      "special": true
    }
  ],
  "normalizer": {
    "type": "Sequence",
    "normalizers": [
      {
        "type": "NFD"
      },
      {
        "type": "Lowercase"
      },
      {
        "type": "StripAccents"
      }
    ]
  },
  "pre_tokenizer": {
    "type": "Sequence",
    "pretokenizers": [
      {
        "type": "Metaspace",
        "replacement": "▁",
        "prepend_scheme": "always",
        "split": true
      }
    ]
  },
  "post_processor": {
    "type": "TemplateProcessing",
    "single": [
      {
        "SpecialToken": {
          "id": "[CLS]",
          "type_id": 0
        }
      },
      {
        "Sequence": {
          "id": "A",
          "type_id": 0
        }
      },
      {
        "SpecialToken": {
          "id": "[SEP]",
          "type_id": 0
        }
      }
    ],
    "pair": [
      {
        "SpecialToken": {
          "id": "[CLS]",
          "type_id": 0
        }
      },
      {
        "Sequence": {
          "id": "A",
          "type_id": 0
        }
      },
      {
        "SpecialToken": {
          "id": "[SEP]",
          "type_id": 0
        }
      },
      {
        "Sequence": {
          "id": "B",
          "type_id": 1
        }
      },
      {
        "SpecialToken": {
          "id": "[SEP]",
          "type_id": 1
        }
      }
    ],
    "special_tokens": {
      "[CLS]": {
        "id": "[CLS]",
        "ids": [
          2
        ],
        "tokens": [
          "[CLS]"
        ]
      },
      "[SEP]": {
        "id": "[SEP]",
        "ids": [
          3
        ],
        "tokens": [
          "[SEP]"
        ]
      }
    }
  },
  "decoder": {
    "type": "Metaspace",
    "replacement": "▁",
    "prepend_scheme": "always",
    "split": true
  },
  "model": {
    "type": "WordPiece",
    "unk_token": "[UNK]",
    "continuing_subword_prefix": "##",
    "max_input_chars_per_word": 100,
    "vocab": {
      "[UNK]": 0,
      "[PAD]": 1,
      "[CLS]": 2,
      "[SEP]": 3,
      "[MASK]": 4,
      "!": 5,
      "\"": 6,
      "#": 7,
      "$": 8,
      "%": 9,
      "&": 10,
      "'": 11,
      "(": 12,
      ")": 13,
      "*": 14,
      "+": 15,
      ",": 16,
      "-": 17,
      ".": 18,
      "/": 19,
      "0": 20,
      "1": 21,
      "2": 22,
      "3": 23,
      "4": 24,
      "5": 25,
      "6": 26,
      "7": 27,
      "8": 28,
      "9": 29,
      ":": 30,
      ";": 31,
      "<": 32,
      "=": 33,
      ">": 34,
      "?": 35,
      "@": 36,
      "[": 37,
      "\\": 38,
      "]": 39,
      "^": 40,
      "_": 41,
      "`": 42,
      "a": 43,
      "b": 44,
      "c": 45,
      "d": 46,
      "e": 47,
      "f": 48,
      "g": 49,
      "h": 50,
      "i": 51,
      "j": 52,
      "k": 53,
      "l": 54,
      "m": 55,
      "n": 56,
      "o": 57,
      "p": 58,
      "q": 59,
      "r": 60,
      "s": 61,
      "t": 62,
      "u": 63,
      "v": 64,
      "w": 65,
      "x": 66,
      "y": 67,
      "z": 68,
      "{": 69,
      "|": 70,
      "}": 71,
      "~": 72,
      "¢": 73,
      "£": 74,
      "§": 75,
      "­": 76,
      "°": 77,
      "±": 78,
      "²": 79,
      "³": 80,
      "·": 81,
      "º": 82,
      "½": 83,
      "×": 84,
      "ß": 85,
      "æ": 86,
      "ø": 87,
      "ł": 88,
      "œ": 89,
      "ɑ": 90,
      "ɔ": 91,
      "ə": 92,
      "ɛ": 93,
      "ʁ": 94,
      "ʃ": 95,
      "ʊ": 96,
      "ʒ": 97,
      "ʻ": 98,
      "ˈ": 99,
      "α": 100,
      "β": 101,
      "ε": 102,
      "η": 103,
      "θ": 104,
      "ι": 105,
      "μ": 106,
      "ν": 107,
      "ο": 108,
      "ρ": 109,
      "ς": 110,
      "σ": 111,
      "υ": 112,
      "φ": 113,
      "ω": 114,
      "ا": 115,
      "ح": 116,
      "د": 117,
      "ز": 118,
      "ص": 119,
      "ف": 120,
      "ن": 121,
      "ه": 122,
      "ي": 123,
      "–": 124,
      "—": 125,
      "‘": 126,
      "’": 127,
      "“": 128,
      "”": 129,
      "•": 130,
      "…": 131,
      "€": 132,
      "▁": 133,
      "☎": 134,
      "☏": 135,
      "♥": 136,
      "✉": 137,
      "一": 138,
      "况": 139,
      "口": 140,
      "古": 141,
      "司": 142,
      "和": 143,
      "图": 144,
      "夏": 145,
      "奈": 146,
      "子": 147,
      "山": 148,
      "樋": 149,
      "津": 150,
      "清": 151,
      "澹": 152,
      "琴": 153,
      "空": 154,
      "葉": 155,
      "谿": 156,
      "远": 157,
      "静": 158,
      "##s": 159,
      "##c": 160,
      "##a": 161,
      "##n": 162,
      "##d": 163,
      "##l": 164,
      "##o": 165,
      "##u": 166,
      "##f": 167,
      "##r": 168,
      "##e": 169,
      "##h": 170,
      "##v": 171,
      "##i": 172,
      "##g": 173,
      "##m": 174,
      "##p": 175,
      "##t": 176,
      "##ز": 177,
      "##ه": 178,
      "##ا": 179,
      "##8": 180,
      "##5": 181,
      "##0": 182,
      "##z": 183,
      "##y": 184,
      "##w": 185,
      "##b": 186,
      "##1": 187,
      "##6": 188,
      "##'": 189,
      "##k": 190,
      "##q": 191,
      "##x": 192,
      "##j": 193,
      "##-": 194,
      "##.": 195,
      "##7": 196,
      "##:": 197,
      "##/": 198,
      "##4": 199,
      "##2": 200,
      "##3": 201,
      "##9": 202,
      "##>": 203,
      "##@": 204,
      "##³": 205,
      "##澹": 206,
      "##_": 207,
      "##,": 208,
      "##}": 209,
      "##ʻ": 210,
      "##&": 211,
      "##?": 212,
      "##<": 213,
      "###": 214,
      "##=": 215,
      "##!": 216,
      "##+": 217,
      "##[": 218,
      "##]": 219,
      "##•": 220,
      "##–": 221,
      "##‘": 222,
      "##’": 223,
      "##%": 224,
      "##º": 225,
      "##(": 226,
      "##|": 227,
      "##)": 228,
      "##夏": 229,
      "##子": 230,
      "##*": 231,
      "##$": 232,
      "##æ": 233,
      "##`": 234,
      "##²": 235,
      "##ß": 236,
      "##静": 237,
      "##ł": 238,
      "##;": 239,
      "##ʒ": 240,
      "##×": 241,
      "##古": 242,
      "##“": 243,
      "##”": 244,
      "##ι": 245,
      "##ε": 246,
      "##ρ": 247,
      "##ω": 248,
      "##ν": 249,
      "##υ": 250,
      "##μ": 251,
      "##ο": 252,
      "##ς": 253,
      "##{": 254,
      "##ə": 255,
      "##ˈ": 256,
      "##ʊ": 257,
      "##一": 258,
      "##葉": 259,
      "##σ": 260,
      "##β": 261,
      "##…": 262,
      "##图": 263,
      "##½": 264,
      "##~": 265,
      "##和": 266,
      "##—": 267,
      "##\"": 268,
      "##司": 269,
      "##空": 270,
      "##谿": 271,
      "##山": 272,
      "##^": 273,
      "##­": 274,
      "##ʃ": 275,
      "##ɑ": 276,
      "##ʁ": 277,
      "##°": 278,
      "##奈": 279,
      "##津": 280,
      "##ɛ": 281,
      "##±": 282,
      "##€": 283,
      "##琴": 284,
      "##况": 285,
      "##ɔ": 286,
      "##ø": 287,
      "##·": 288,
      "##♥": 289,
      "##\\": 290,
      "##¢": 291,
      "##§": 292,
      "##樋": 293,
      "##口": 294,
      "##远": 295,
      "##œ": 296,
      "##φ": 297,
      "##☏": 298,
      "##£": 299,
      "##α": 300,
      "##θ": 301,
      "##η": 302,
      "##清": 303,
      "##ح": 304,
      "##د": 305,
      "##ي": 306,
      "##✉": 307,
      "##☎": 308,
      "##ص": 309,
      "##ف": 310,
      "##ن": 311,
      "▁t": 312,
      "▁a": 313,
      "##he": 314,
      "▁i": 315,
      "▁.": 316,
      "▁w": 317,
      "▁the": 318,
      "▁s": 319,
      "##re": 320,
      "▁o": 321,
      "##in": 322,
      "▁f": 323,
      "##at": 324,
      "▁b": 325,
      "▁c": 326,
      "##ou": 327,
      "##er": 328,
      "▁m": 329,
      "##nd": 330,
      "▁,": 331,
      "▁d": 332,
      "▁p": 333,
      "##on": 334,
      "▁to": 335,
      "##an": 336,
      "▁h": 337,
      "▁n": 338,
      "##ing": 339,
      "##en": 340,
      "▁th": 341,
      "##or": 342,
      "##es": 343,
      "▁l": 344,
      "##ed": 345,
      "▁and": 346,
      "▁y": 347,
      "##is": 348,
      "▁in": 349,
      "##ll": 350,
      "##om": 351,
      "##it": 352,
      "##ar": 353,
      "▁g": 354,
      "▁of": 355,
      "##as": 356,
      "▁_": 357,
      "▁you": 358,
      "▁'": 359,
      "##ic": 360,
      "##al": 361,
      "▁e": 362,
      "##ve": 363,
      "▁it": 364,
      "##ow": 365,
      "##le": 366,
      "▁on": 367,
      "##gh": 368,
      "##st": 369,
      "##et": 370,
      "▁that": 371,
      "▁?": 372,
      "##ay": 373,
      "▁wh": 374,
      "##ion": 375,
      "▁he": 376,
      "##ot": 377,
      "▁re": 378,
      "▁is": 379,
      "##ut": 380,
      "▁u": 381,
      "▁be": 382,
      "##ent": 383,
      "▁ha": 384,
      "▁fr": 385,
      "##ght": 386,
      "▁do": 387,
      "▁'s": 388,
      "▁we": 389,
      "##id": 390,
      "##se": 391,
      "##ke": 392,
      "##ro": 393,
      "##ight": 394,
      "##ac": 395,
      "##ver": 396,
      "▁for": 397,
      "▁st": 398,
      "##ld": 399,
      "##ur": 400,
      "##ir": 401,
      "##ly": 402,
      "▁from": 403,
      "##ad": 404,
      "##im": 405,
      "##am": 406,
      "##oo": 407,
      "▁was": 408,
      "▁me": 409,
      "▁what": 410,
      "▁r": 411,
      "▁an": 412,
      "##all": 413,
      "##il": 414,
      "▁this": 415,
      "##ith": 416,
      "##ct": 417,
      "▁with": 418,
      "▁at": 419,
      "▁se": 420,
      "▁li": 421,
      "▁fl": 422,
      "▁j": 423,
      "▁are": 424,
      "##ant": 425,
      "▁k": 426,
      "▁as": 427,
      "##ation": 428,
      "▁sh": 429,
      "##ce": 430,
      "##ter": 431,
      "▁have": 432,
      "▁ne": 433,
      "##'t": 434,
      "▁n't": 435,
      "##ch": 436,
      "▁not": 437,
      "##ill": 438,
      "▁de": 439,
      "##her": 440,
      "##ould": 441,
      "▁flight": 442,
      "▁go": 443,
      "##ore": 444,
      "▁-": 445,
      "▁my": 446,
      "##ome": 447,
      "▁so": 448,
      "▁or": 449,
      "▁tr": 450,
      "##op": 451,
      "##ie": 452,
      "▁they": 453,
      "##est": 454,
      "▁like": 455,
      "▁\"": 456,
      "▁su": 457,
      "▁ch": 458,
      "##ge": 459,
      "▁con": 460,
      "▁whe": 461,
      "▁all": 462,
      "▁but": 463,
      "▁there": 464,
      "##ab": 465,
      "##ul": 466,
      "##ist": 467,
      "▁can": 468,
      "##ain": 469,
      "##ust": 470,
      "##pe": 471,
      "▁al": 472,
      "▁pro": 473,
      "##th": 474,
      "▁ex": 475,
      "##ol": 476,
      "##qu": 477,
      "##and": 478,
      "▁one": 479,
      "▁1": 480,
      "##us": 481,
      "▁no": 482,
      "▁le": 483,
      "##ive": 484,
      "##ers": 485,
      "##ig": 486,
      "▁your": 487,
      "▁com": 488,
      "##pp": 489,
      "##ess": 490,
      "▁flights": 491,
      "##ost": 492,
      "▁v": 493,
      "##um": 494,
      "##ate": 495,
      "▁ab": 496,
      "##ort": 497,
      "##res": 498,
      "▁pl": 499,
      "##el": 500,
      "##ake": 501,
      "▁by": 502,
      "##ity": 503,
      "▁wor": 504,
      "##ap": 505,
      "##un": 506,
      "##ak": 507,
      "##ook": 508,
      "▁ar": 509,
      "▁his": 510,
      "##art": 511,
      "▁kn": 512,
      "##ment": 513,
      "##ies": 514,
      "##nt": 515,
      "##os": 516,
      "##out": 517,
      "##if": 518,
      "▁2": 519,
      "▁will": 520,
      "▁out": 521,
      "##ally": 522,
      "▁ye": 523,
      "▁up": 524,
      "▁)": 525,
      "▁if": 526,
      "▁(": 527,
      "▁get": 528,
      "##iv": 529,
      "##very": 530,
      "▁had": 531,
      "▁am": 532,
      "##ound": 533,
      "▁would": 534,
      "▁know": 535,
      "##00": 536,
      "##ard": 537,
      "▁she": 538,
      "##au": 539,
      "##ood": 540,
      "▁want": 541,
      "##ack": 542,
      "▁see": 543,
      "▁some": 544,
      "##itt": 545,
      "▁did": 546,
      "##ast": 547,
      "##ind": 548,
      "▁!": 549,
      "##one": 550,
      "▁us": 551,
      "##ice": 552,
      "##red": 553,
      "▁how": 554,
      "▁te": 555,
      "##fe": 556,
      "##ck": 557,
      "##ich": 558,
      "##ink": 559,
      "##ra": 560,
      "##te": 561,
      "▁un": 562,
      "##ia": 563,
      "##day": 564,
      "▁af": 565,
      "▁just": 566,
      "▁who": 567,
      "▁sa": 568,
      "▁en": 569,
      "##ine": 570,
      "▁tw": 571,
      "##ame": 572,
      "▁gr": 573,
      "▁when": 574,
      "▁has": 575,
      "▁any": 576,
      "▁about": 577,
      "##co": 578,
      "##ans": 579,
      "▁cl": 580,
      "##ong": 581,
      "##ther": 582,
      "▁show": 583,
      "▁na": 584,
      "##hing": 585,
      "##our": 586,
      "▁ad": 587,
      "▁tim": 588,
      "##ber": 589,
      "▁co": 590,
      "##are": 591,
      "▁here": 592,
      "▁qu": 593,
      "▁man": 594,
      "▁were": 595,
      "▁which": 596,
      "##mp": 597,
      "##--": 598,
      "##ag": 599,
      "▁fe": 600,
      "▁more": 601,
      "▁pr": 602,
      "▁:": 603,
      "▁them": 604,
      "▁now": 605,
      "##ip": 606,
      "▁look": 607,
      "▁new": 608,
      "##ase": 609,
      "▁pe": 610,
      "##ide": 611,
      "▁ag": 612,
      "▁her": 613,
      "▁ro": 614,
      "##ud": 615,
      "##ure": 616,
      "##ry": 617,
      "▁mo": 618,
      "##ib": 619,
      "##anc": 620,
      "##ite": 621,
      "##ah": 622,
      "▁'m": 623,
      "▁bec": 624,
      "##ace": 625,
      "▁where": 626,
      "##ough": 627,
      "▁than": 628,
      "▁him": 629,
      "▁'re": 630,
      "##ous": 631,
      "▁other": 632,
      "▁air": 633,
      "▁ph": 634,
      "▁time": 635,
      "▁ev": 636,
      "▁sp": 637,
      "▁off": 638,
      "##able": 639,
      "##own": 640,
      "▁after": 641,
      "##ions": 642,
      "▁their": 643,
      "▁think": 644,
      "##ause": 645,
      "##ick": 646,
      "##ial": 647,
      "##age": 648,
      "##to": 649,
      "▁lo": 650,
      "▁need": 651,
      "▁put": 652,
      "▁work": 653,
      "▁dis": 654,
      "##ays": 655,
      "▁over": 656,
      "▁been": 657,
      "▁ac": 658,
      "##reat": 659,
      "▁fir": 660,
      "▁mom": 661,
      "##act": 662,
      "▁right": 663,
      "▁two": 664,
      "▁bet": 665,
      "##so": 666,
      "▁oh": 667,
      "▁san": 668,
      "▁too": 669,
      "##ass": 670,
      "▁very": 671,
      "▁good": 672,
      "▁then": 673,
      "##ail": 674,
      "##ning": 675,
      "##av": 676,
      "##ose": 677,
      "▁br": 678,
      "▁comp": 679,
      "▁first": 680,
      "▁exp": 681,
      "▁our": 682,
      "▁sc": 683,
      "▁going": 684,
      "▁bo": 685,
      "##ars": 686,
      "▁den": 687,
      "##oston": 688,
      "▁because": 689,
      "##ree": 690,
      "▁boston": 691,
      "##my": 692,
      "##we": 693,
      "▁cont": 694,
      "##ect": 695,
      "▁could": 696,
      "▁make": 697,
      "▁per": 698,
      "▁well": 699,
      "▁let": 700,
      "▁peop": 701,
      "▁back": 702,
      "▁may": 703,
      "▁got": 704,
      "▁does": 705,
      "▁part": 706,
      "▁said": 707,
      "##nder": 708,
      "##iz": 709,
      "▁people": 710,
      "##ue": 711,
      "▁car": 712,
      "##ount": 713,
      "▁bl": 714,
      "##ated": 715,
      "##em": 716,
      "▁ser": 717,
      "▁also": 718,
      "▁denver": 719,
      "##pt": 720,
      "##..": 721,
      "▁res": 722,
      "##ep": 723,
      "##other": 724,
      "##port": 725,
      "▁yeah": 726,
      "▁ple": 727,
      "##ary": 728,
      "##cl": 729,
      "▁into": 730,
      "▁ok": 731,
      "##orm": 732,
      "##ark": 733,
      "##ww": 734,
      "##land": 735,
      "▁take": 736,
      "▁these": 737,
      "##ire": 738,
      "▁list": 739,
      "▁franc": 740,
      "##ff": 741,
      "##isco": 742,
      "##ian": 743,
      "##ile": 744,
      "▁francisco": 745,
      "▁way": 746,
      "##dy": 747,
      "##hed": 748,
      "▁down": 749,
      "##ings": 750,
      "##ph": 751,
      "##ave": 752,
      "##ence": 753,
      "▁che": 754,
      "▁pre": 755,
      "##ang": 756,
      "##ty": 757,
      "##fore": 758,
      "▁even": 759,
      "▁ind": 760,
      "##ress": 761,
      "▁spe": 762,
      "▁only": 763,
      "▁should": 764,
      "##omet": 765,
      "##alk": 766,
      "▁every": 767,
      "##ance": 768,
      "##ach": 769,
      "▁please": 770,
      "▁say": 771,
      "##ish": 772,
      "▁ta": 773,
      "▁play": 774,
      "▁comm": 775,
      "##ater": 776,
      "▁'ll": 777,
      "▁call": 778,
      "▁somet": 779,
      "##og": 780,
      "##ult": 781,
      "##bur": 782,
      "▁gu": 783,
      "▁dr": 784,
      "▁po": 785,
      "▁bal": 786,
      "▁bu": 787,
      "▁mu": 788,
      "##ical": 789,
      "▁act": 790,
      "##anta": 791,
      "##ren": 792,
      "▁okay": 793,
      "▁app": 794,
      "▁cr": 795,
      "▁again": 796,
      "▁before": 797,
      "▁imp": 798,
      "##ines": 799,
      "▁jo": 800,
      "##ens": 801,
      "##cess": 802,
      "▁under": 803,
      "▁atl": 804,
      "▁betwe": 805,
      "▁between": 806,
      "##ix": 807,
      "▁rec": 808,
      "▁wr": 809,
      "##sel": 810,
      "▁;": 811,
      "▁inter": 812,
      "##les": 813,
      "▁la": 814,
      "▁mor": 815,
      "▁atlanta": 816,
      "▁sm": 817,
      "▁long": 818,
      "##ations": 819,
      "▁mommy": 820,
      "▁ca": 821,
      "##li": 822,
      "##ub": 823,
      "▁’": 824,
      "▁3": 825,
      "##ade": 826,
      "▁bus": 827,
      "▁litt": 828,
      "##urn": 829,
      "##----": 830,
      "▁little": 831,
      "##wn": 832,
      "##ord": 833,
      "▁find": 834,
      "##ors": 835,
      "▁come": 836,
      "▁ear": 837,
      "▁thr": 838,
      "##form": 839,
      "▁op": 840,
      "▁dat": 841,
      "##ited": 842,
      "▁many": 843,
      "▁–": 844,
      "##ild": 845,
      "▁wan": 846,
      "▁gon": 847,
      "##ton": 848,
      "▁rem": 849,
      "▁str": 850,
      "▁trans": 851,
      "##lic": 852,
      "##tim": 853,
      "▁serv": 854,
      "▁much": 855,
      "##ign": 856,
      "▁big": 857,
      "▁those": 858,
      "##uct": 859,
      "##ft": 860,
      "▁mil": 861,
      "▁its": 862,
      "▁mon": 863,
      "##ied": 864,
      "##eric": 865,
      "▁pitt": 866,
      "##sbur": 867,
      "▁day": 868,
      "▁dall": 869,
      "▁give": 870,
      "▁great": 871,
      "▁dallas": 872,
      "▁really": 873,
      "▁pittsbur": 874,
      "▁pittsburgh": 875,
      "▁why": 876,
      "▁eat": 877,
      "▁use": 878,
      "▁dad": 879,
      "##gg": 880,
      "▁ke": 881,
      "▁hel": 882,
      "##ting": 883,
      "##amp": 884,
      "##iss": 885,
      "▁hou": 886,
      "##ks": 887,
      "##ving": 888,
      "▁arr": 889,
      "▁help": 890,
      "▁phil": 891,
      "▁des": 892,
      "##ory": 893,
      "▁americ": 894,
      "▁something": 895,
      "▁um": 896,
      "##ool": 897,
      "▁around": 898,
      "▁tell": 899,
      "##air": 900,
      "▁reg": 901,
      "▁200": 902,
      "##oc": 903,
      "▁pres": 904,
      "##ious": 905,
      "▁...": 906,
      "▁hi": 907,
      "##ition": 908,
      "▁aw": 909,
      "▁dif": 910,
      "##vel": 911,
      "▁uh": 912,
      "##ved": 913,
      "##inn": 914,
      "##de": 915,
      "##nds": 916,
      "##xt": 917,
      "##ons": 918,
      "##ull": 919,
      "##ise": 920,
      "▁yes": 921,
      "▁still": 922,
      "▁airl": 923,
      "##ys": 924,
      "##ily": 925,
      "▁morning": 926,
      "▁read": 927,
      "##aking": 928,
      "##ms": 929,
      "##int": 930,
      "▁happ": 931,
      "▁att": 932,
      "##ath": 933,
      "▁city": 934,
      "##ict": 935,
      "##adel": 936,
      "##ates": 937,
      "##__": 938,
      "##oup": 939,
      "▁prob": 940,
      "▁'d": 941,
      "▁try": 942,
      "##akes": 943,
      "##self": 944,
      "▁most": 945,
      "▁baltim": 946,
      "▁baltimore": 947,
      "▁5": 948,
      "##esday": 949,
      "##phia": 950,
      "▁philadel": 951,
      "▁philadelphia": 952,
      "▁19": 953,
      "▁cle": 954,
      "▁count": 955,
      "##od": 956,
      "▁fin": 957,
      "##ron": 958,
      "▁pol": 959,
      "▁4": 960,
      "▁last": 961,
      "▁pm": 962,
      "▁inte": 963,
      "##rent": 964,
      "▁book": 965,
      "##ought": 966,
      "▁rep": 967,
      "▁bel": 968,
      "▁20": 969,
      "▁another": 970,
      "▁gl": 971,
      "##ible": 972,
      "##be": 973,
      "##==": 974,
      "▁through": 975,
      "##com": 976,
      "▁ap": 977,
      "▁sch": 978,
      "▁pos": 979,
      "##ments": 980,
      "▁made": 981,
      "▁place": 982,
      "▁add": 983,
      "▁home": 984,
      "▁num": 985,
      "##ci": 986,
      "▁bot": 987,
      "##vers": 988,
      "▁[": 989,
      "▁el": 990,
      "##iew": 991,
      "▁world": 992,
      "▁mar": 993,
      "▁fo": 994,
      "##ert": 995,
      "▁]": 996,
      "▁doing": 997,
      "##als": 998,
      "##ents": 999,
      "▁years": 1000,
      "##ually": 1001,
      "▁leav": 1002,
      "▁—": 1003,
      "▁wee": 1004,
      "▁own": 1005,
      "##llow": 1006,
      "▁talk": 1007,
      "##enc": 1008,
      "▁kind": 1009,
      "##ful": 1010,
      "▁em": 1011,
      "▁cons": 1012,
      "##ange": 1013,
      "▁year": 1014,
      "▁frie": 1015,
      "▁daddy": 1016,
      "##me": 1017,
      "▁char": 1018,
      "##pect": 1019,
      "##thing": 1020,
      "##per": 1021,
      "▁today": 1022,
      "##ject": 1023,
      "▁rel": 1024,
      "▁washing": 1025,
      "▁food": 1026,
      "▁pers": 1027,
      "▁'ve": 1028,
      "▁7": 1029,
      "▁’s": 1030,
      "▁stud": 1031,
      "▁airlines": 1032,
      "▁house": 1033,
      "▁av": 1034,
      "▁ho": 1035,
      "##ational": 1036,
      "##get": 1037,
      "##ather": 1038,
      "##read": 1039,
      "##uck": 1040,
      "▁start": 1041,
      "##ities": 1042,
      "▁same": 1043,
      "▁things": 1044,
      "▁bas": 1045,
      "##ident": 1046,
      "▁went": 1047,
      "▁stop": 1048,
      "▁school": 1049,
      "##gr": 1050,
      "▁ter": 1051,
      "▁name": 1052,
      "▁washington": 1053,
      "##oy": 1054,
      "##ock": 1055,
      "##www": 1056,
      "▁wo": 1057,
      "▁supp": 1058,
      "▁diffe": 1059,
      "##mber": 1060,
      "##atch": 1061,
      "##uc": 1062,
      "▁min": 1063,
      "▁inst": 1064,
      "##orn": 1065,
      "▁lot": 1066,
      "▁gen": 1067,
      "▁such": 1068,
      "▁inform": 1069,
      "▁mean": 1070,
      "##ves": 1071,
      "##man": 1072,
      "▁best": 1073,
      "##nday": 1074,
      "▁next": 1075,
      "▁war": 1076,
      "▁ob": 1077,
      "▁fly": 1078,
      "##iving": 1079,
      "▁bab": 1080,
      "▁ele": 1081,
      "▁old": 1082,
      "##**": 1083,
      "▁sur": 1084,
      "▁real": 1085,
      "▁set": 1086,
      "▁ask": 1087,
      "##ific": 1088,
      "▁acc": 1089,
      "▁sy": 1090,
      "▁open": 1091,
      "▁/": 1092,
      "##ever": 1093,
      "▁dec": 1094,
      "##ork": 1095,
      "▁three": 1096,
      "▁6": 1097,
      "▁inc": 1098,
      "▁col": 1099,
      "##oman": 1100,
      "▁while": 1101,
      "▁turn": 1102,
      "##ank": 1103,
      "▁quest": 1104,
      "##rest": 1105,
      "▁im": 1106,
      "▁hu": 1107,
      "▁prov": 1108,
      "▁wa": 1109,
      "▁night": 1110,
      "##cept": 1111,
      "##der": 1112,
      "##!!": 1113,
      "▁inv": 1114,
      "▁hand": 1115,
      "▁form": 1116,
      "▁being": 1117,
      "##up": 1118,
      "▁class": 1119,
      "##bo": 1120,
      "##ular": 1121,
      "##ince": 1122,
      "▁spec": 1123,
      "##hes": 1124,
      "▁feel": 1125,
      "▁leaving": 1126,
      "##led": 1127,
      "▁end": 1128,
      "▁never": 1129,
      "##fect": 1130,
      "##no": 1131,
      "▁wed": 1132,
      "▁fun": 1133,
      "▁--": 1134,
      "▁united": 1135,
      "##urs": 1136,
      "▁leave": 1137,
      "▁head": 1138,
      "▁american": 1139,
      "▁dra": 1140,
      "▁high": 1141,
      "##side": 1142,
      "##ating": 1143,
      "##ways": 1144,
      "##olog": 1145,
      "▁service": 1146,
      "▁number": 1147,
      "▁room": 1148,
      "▁information": 1149,
      "▁thing": 1150,
      "▁sub": 1151,
      "##ward": 1152,
      "##con": 1153,
      "▁sal": 1154,
      "##ative": 1155,
      "▁life": 1156,
      "##ne": 1157,
      "▁sl": 1158,
      "▁har": 1159,
      "▁person": 1160,
      "▁ass": 1161,
      "▁leg": 1162,
      "▁sit": 1163,
      "▁prod": 1164,
      "▁ve": 1165,
      "▁water": 1166,
      "▁used": 1167,
      "▁$": 1168,
      "▁0": 1169,
      "##ual": 1170,
      "##ope": 1171,
      "##000": 1172,
      "▁far": 1173,
      "▁ent": 1174,
      "##ient": 1175,
      "▁ret": 1176,
      "##clud": 1177,
      "##ss": 1178,
      "▁called": 1179,
      "▁fam": 1180,
      "▁keep": 1181,
      "▁away": 1182,
      "▁sat": 1183,
      "▁baby": 1184,
      "▁sk": 1185,
      "▁det": 1186,
      "▁eu": 1187,
      "▁rest": 1188,
      "##ience": 1189,
      "##ution": 1190,
      "▁“": 1191,
      "▁ed": 1192,
      "▁met": 1193,
      "▁lar": 1194,
      "▁red": 1195,
      "##vern": 1196,
      "▁small": 1197,
      "▁else": 1198,
      "##ures": 1199,
      "▁par": 1200,
      "▁rev": 1201,
      "##ute": 1202,
      "▁coll": 1203,
      "▁contin": 1204,
      "##rib": 1205,
      "▁sure": 1206,
      "▁group": 1207,
      "▁found": 1208,
      "▁bre": 1209,
      "▁child": 1210,
      "▁10": 1211,
      "▁love": 1212,
      "▁pub": 1213,
      "##ces": 1214,
      "▁must": 1215,
      "▁always": 1216,
      "▁vis": 1217,
      "##oun": 1218,
      "##ug": 1219,
      "▁cour": 1220,
      "▁thought": 1221,
      "▁round": 1222,
      "▁”": 1223,
      "▁interest": 1224,
      "▁both": 1225,
      "##--------": 1226,
      "▁gener": 1227,
      "##nesday": 1228,
      "▁transport": 1229,
      "▁wednesday": 1230,
      "▁ma": 1231,
      "##oney": 1232,
      "##ices": 1233,
      "##irl": 1234,
      "▁art": 1235,
      "▁light": 1236,
      "▁stand": 1237,
      "▁dep": 1238,
      "▁better": 1239,
      "▁different": 1240,
      "▁haf": 1241,
      "▁mr": 1242,
      "▁trip": 1243,
      "##irect": 1244,
      "##med": 1245,
      "▁hot": 1246,
      "▁ground": 1247,
      "▁mark": 1248,
      "▁intern": 1249,
      "▁since": 1250,
      "▁cent": 1251,
      "▁pa": 1252,
      "▁avail": 1253,
      "▁eng": 1254,
      "##/2": 1255,
      "▁bro": 1256,
      "▁cur": 1257,
      "##tle": 1258,
      "▁few": 1259,
      "▁partic": 1260,
      "▁month": 1261,
      "##ger": 1262,
      "▁fa": 1263,
      "▁bir": 1264,
      "▁requ": 1265,
      "▁def": 1266,
      "▁four": 1267,
      "##ics": 1268,
      "##ably": 1269,
      "▁direct": 1270,
      "▁includ": 1271,
      "▁each": 1272,
      "##aper": 1273,
      "▁poss": 1274,
      "▁might": 1275,
      "▁loc": 1276,
      "▁nice": 1277,
      "▁gre": 1278,
      "##ash": 1279,
      "▁point": 1280,
      "▁8": 1281,
      "▁walk": 1282,
      "##outh": 1283,
      "##uring": 1284,
      "##uss": 1285,
      "▁follow": 1286,
      "▁done": 1287,
      "▁remem": 1288,
      "##ters": 1289,
      "▁available": 1290,
      "▁came": 1291,
      "▁ref": 1292,
      "▁report": 1293,
      "##ared": 1294,
      "▁fact": 1295,
      "▁girl": 1296,
      "▁thank": 1297,
      "##ts": 1298,
      "▁though": 1299,
      "▁took": 1300,
      "##ale": 1301,
      "##ower": 1302,
      "▁exper": 1303,
      "▁euro": 1304,
      "##iness": 1305,
      "▁pet": 1306,
      "▁govern": 1307,
      "▁plan": 1308,
      "▁happen": 1309,
      "▁proble": 1310,
      "▁eas": 1311,
      "##velop": 1312,
      "▁sw": 1313,
      "▁care": 1314,
      "##ural": 1315,
      "##iting": 1316,
      "##ason": 1317,
      "##ants": 1318,
      "▁week": 1319,
      "▁cap": 1320,
      "▁state": 1321,
      "▁ty": 1322,
      "▁hard": 1323,
      "▁ey": 1324,
      "▁201": 1325,
      "▁z": 1326,
      "▁sim": 1327,
      "▁mat": 1328,
      "▁non": 1329,
      "##ense": 1330,
      "▁york": 1331,
      "##ility": 1332,
      "▁cheap": 1333,
      "▁told": 1334,
      "▁seco": 1335,
      "▁belie": 1336,
      "##ention": 1337,
      "▁conf": 1338,
      "▁dem": 1339,
      "▁ball": 1340,
      "▁hear": 1341,
      "▁alread": 1342,
      "▁already": 1343,
      "##gan": 1344,
      "▁dog": 1345,
      "▁maybe": 1346,
      "▁states": 1347,
      "▁ext": 1348,
      "##orr": 1349,
      "▁stay": 1350,
      "▁lead": 1351,
      "▁ju": 1352,
      "##ny": 1353,
      "##pr": 1354,
      "##ality": 1355,
      "▁stre": 1356,
      "▁roman": 1357,
      "▁however": 1358,
      "▁hum": 1359,
      "##ives": 1360,
      "▁thanks": 1361,
      "##ling": 1362,
      "##ina": 1363,
      "▁bad": 1364,
      "▁dist": 1365,
      "▁days": 1366,
      "▁sec": 1367,
      "▁looking": 1368,
      "##conom": 1369,
      "▁pass": 1370,
      "▁econom": 1371,
      "##stand": 1372,
      "##ross": 1373,
      "▁run": 1374,
      "▁develop": 1375,
      "▁disc": 1376,
      "##pl": 1377,
      "##here": 1378,
      "##ished": 1379,
      "▁je": 1380,
      "▁six": 1381,
      "▁hey": 1382,
      "▁meet": 1383,
      "▁sign": 1384,
      "▁adam": 1385,
      "##io": 1386,
      "▁train": 1387,
      "▁bush": 1388,
      "▁remember": 1389,
      "▁fare": 1390,
      "##ield": 1391,
      "▁data": 1392,
      "▁president": 1393,
      "▁nor": 1394,
      "▁uni": 1395,
      "##ted": 1396,
      "##ets": 1397,
      "##osed": 1398,
      "▁second": 1399,
      "##ness": 1400,
      "##.com": 1401,
      "##enty": 1402,
      "▁word": 1403,
      "##____": 1404,
      "##ik": 1405,
      "▁fil": 1406,
      "▁later": 1407,
      "▁laur": 1408,
      "▁9": 1409,
      "##ric": 1410,
      "▁fall": 1411,
      "▁afterno": 1412,
      "▁job": 1413,
      "##ues": 1414,
      "▁pie": 1415,
      "##ised": 1416,
      "▁afternoon": 1417,
      "▁bit": 1418,
      "▁tom": 1419,
      "▁ge": 1420,
      "▁watch": 1421,
      "▁import": 1422,
      "##ission": 1423,
      "▁friend": 1424,
      "##ired": 1425,
      "▁nothing": 1426,
      "▁del": 1427,
      "▁actually": 1428,
      "▁aut": 1429,
      "▁oak": 1430,
      "##ote": 1431,
      "##tern": 1432,
      "▁resp": 1433,
      "▁hold": 1434,
      "▁expl": 1435,
      "▁early": 1436,
      "##ven": 1437,
      "▁cor": 1438,
      "##ards": 1439,
      "▁saw": 1440,
      "▁anything": 1441,
      "▁compan": 1442,
      "▁appro": 1443,
      "▁free": 1444,
      "▁val": 1445,
      "▁ide": 1446,
      "▁main": 1447,
      "▁unt": 1448,
      "▁left": 1449,
      "▁transportation": 1450,
      "▁laura": 1451,
      "▁cat": 1452,
      "▁cost": 1453,
      "▁med": 1454,
      "▁making": 1455,
      "▁ever": 1456,
      "▁business": 1457,
      "##====": 1458,
      "▁st.": 1459,
      "##ists": 1460,
      "▁says": 1461,
      "▁hour": 1462,
      "##ism": 1463,
      "▁once": 1464,
      "##stem": 1465,
      "▁airport": 1466,
      "▁milk": 1467,
      "▁face": 1468,
      "##erg": 1469,
      "▁getting": 1470,
      "▁oakland": 1471,
      "▁mi": 1472,
      "▁ins": 1473,
      "▁doll": 1474,
      "##less": 1475,
      "##min": 1476,
      "▁line": 1477,
      "##idd": 1478,
      "##ction": 1479,
      "▁without": 1480,
      "▁lear": 1481,
      "##ump": 1482,
      "▁earli": 1483,
      "##body": 1484,
      "##iet": 1485,
      "▁tu": 1486,
      "▁live": 1487,
      "##ior": 1488,
      "##tt": 1489,
      "▁sn": 1490,
      "▁fu": 1491,
      "▁bar": 1492,
      "▁mother": 1493,
      "▁country": 1494,
      "▁family": 1495,
      "▁public": 1496,
      "▁europe": 1497,
      "##ble": 1498,
      "▁full": 1499,
      "▁hope": 1500,
      "▁iss": 1501,
      "▁understand": 1502,
      "##ertain": 1503,
      "▁x": 1504,
      "▁thurs": 1505,
      "▁emp": 1506,
      "▁hair": 1507,
      "▁monday": 1508,
      "▁law": 1509,
      "▁cheapest": 1510,
      "▁five": 1511,
      "▁mus": 1512,
      "▁game": 1513,
      "▁thursday": 1514,
      "##mm": 1515,
      "▁cre": 1516,
      "##ider": 1517,
      "##ample": 1518,
      "▁product": 1519,
      "▁pop": 1520,
      "▁sun": 1521,
      "▁pret": 1522,
      "▁system": 1523,
      "▁nat": 1524,
      "▁thir": 1525,
      "▁less": 1526,
      "▁adv": 1527,
      "▁buy": 1528,
      "▁probably": 1529,
      "▁trying": 1530,
      "##cc": 1531,
      "▁money": 1532,
      "▁during": 1533,
      "▁using": 1534,
      "##ize": 1535,
      "▁break": 1536,
      "##az": 1537,
      "##hip": 1538,
      "▁against": 1539,
      "##aff": 1540,
      "▁sle": 1541,
      "▁pict": 1542,
      "▁paper": 1543,
      "▁sep": 1544,
      "▁process": 1545,
      "▁cut": 1546,
      "▁beh": 1547,
      "▁18": 1548,
      "##ned": 1549,
      "##ten": 1550,
      "##by": 1551,
      "##ental": 1552,
      "▁mem": 1553,
      "##gether": 1554,
      "##aw": 1555,
      "##ier": 1556,
      "##go": 1557,
      "▁ira": 1558,
      "▁pay": 1559,
      "▁15": 1560,
      "##angu": 1561,
      "▁arriving": 1562,
      "▁draw": 1563,
      "▁pretty": 1564,
      "▁iraq": 1565,
      "##uff": 1566,
      "##arch": 1567,
      "##alth": 1568,
      "▁prop": 1569,
      "▁11": 1570,
      "▁12": 1571,
      "▁commun": 1572,
      "▁question": 1573,
      "▁coun": 1574,
      "▁yet": 1575,
      "##alf": 1576,
      "▁change": 1577,
      "▁grow": 1578,
      "▁friends": 1579,
      "▁wait": 1580,
      "##,000": 1581,
      "▁land": 1582,
      "▁inf": 1583,
      "##ages": 1584,
      "▁comple": 1585,
      "▁depart": 1586,
      "##ries": 1587,
      "▁bed": 1588,
      "▁top": 1589,
      "##ided": 1590,
      "##unch": 1591,
      "▁move": 1592,
      "▁access": 1593,
      "##ins": 1594,
      "▁father": 1595,
      "▁post": 1596,
      "▁least": 1597,
      "▁view": 1598,
      "##br": 1599,
      "▁wanted": 1600,
      "▁enough": 1601,
      "▁everything": 1602,
      "▁large": 1603,
      "▁squ": 1604,
      "▁conc": 1605,
      "▁write": 1606,
      "▁terr": 1607,
      "##ator": 1608,
      "▁langu": 1609,
      "##ically": 1610,
      "##ately": 1611,
      "▁twenty": 1612,
      "▁clean": 1613,
      "##gram": 1614,
      "##bers": 1615,
      "▁cal": 1616,
      "##iday": 1617,
      "▁tech": 1618,
      "▁until": 1619,
      "▁field": 1620,
      "▁ce": 1621,
      "##its": 1622,
      "▁white": 1623,
      "##enth": 1624,
      "▁having": 1625,
      "▁appe": 1626,
      "▁government": 1627,
      "▁tuesday": 1628,
      "▁someone": 1629,
      "▁black": 1630,
      "##nect": 1631,
      "##inc": 1632,
      "##ital": 1633,
      "▁sho": 1634,
      "▁goes": 1635,
      "##ived": 1636,
      "▁times": 1637,
      "##right": 1638,
      "▁men": 1639,
      "▁together": 1640,
      "▁hor": 1641,
      "▁ste": 1642,
      "▁means": 1643,
      "▁anim": 1644,
      "▁trave": 1645,
      "▁prof": 1646,
      "##ipp": 1647,
      "▁whole": 1648,
      "▁office": 1649,
      "▁rece": 1650,
      "▁area": 1651,
      "▁dere": 1652,
      "##gn": 1653,
      "▁wind": 1654,
      "▁int": 1655,
      "▁store": 1656,
      "▁order": 1657,
      "▁example": 1658,
      "▁pur": 1659,
      "▁indian": 1660,
      "##rence": 1661,
      "▁techn": 1662,
      "##aur": 1663,
      "▁ir": 1664,
      "▁outside": 1665,
      "##ized": 1666,
      "▁return": 1667,
      "▁est": 1668,
      "##hu": 1669,
      "##nded": 1670,
      "##ither": 1671,
      "▁program": 1672,
      "▁es": 1673,
      "##ently": 1674,
      "##ames": 1675,
      "▁short": 1676,
      "▁possible": 1677,
      "▁important": 1678,
      "##aut": 1679,
      "##ract": 1680,
      "##bs": 1681,
      "##ety": 1682,
      "▁youn": 1683,
      "▁result": 1684,
      "▁harry": 1685,
      "##hen": 1686,
      "▁case": 1687,
      "▁ans": 1688,
      "▁prot": 1689,
      "▁creat": 1690,
      "##ont": 1691,
      "##kee": 1692,
      "##ained": 1693,
      "▁enj": 1694,
      "▁children": 1695,
      "▁paul": 1696,
      "##ee": 1697,
      "##most": 1698,
      "▁south": 1699,
      "▁pain": 1700,
      "##ional": 1701,
      "▁friday": 1702,
      "▁ben": 1703,
      "▁pick": 1704,
      "▁hit": 1705,
      "▁national": 1706,
      "##ows": 1707,
      "▁chang": 1708,
      "▁const": 1709,
      "▁able": 1710,
      "##aught": 1711,
      "▁himself": 1712,
      "▁check": 1713,
      "▁drink": 1714,
      "▁support": 1715,
      "▁univers": 1716,
      "▁hur": 1717,
      "##urday": 1718,
      "▁proper": 1719,
      "▁bring": 1720,
      "▁miss": 1721,
      "▁dc": 1722,
      "▁equ": 1723,
      "##imes": 1724,
      "▁build": 1725,
      "▁study": 1726,
      "▁saturday": 1727,
      "##lish": 1728,
      "##rap": 1729,
      "▁pot": 1730,
      "▁sunday": 1731,
      "##ustom": 1732,
      "▁coming": 1733,
      "##iven": 1734,
      "##orrow": 1735,
      "▁hist": 1736,
      "▁jun": 1737,
      "▁elect": 1738,
      "▁north": 1739,
      "##ma": 1740,
      "▁test": 1741,
      "▁seat": 1742,
      "▁deal": 1743,
      "▁polit": 1744,
      "▁&": 1745,
      "##wau": 1746,
      "##ese": 1747,
      "##ston": 1748,
      "##olis": 1749,
      "##ife": 1750,
      "▁price": 1751,
      "▁milwau": 1752,
      "##ency": 1753,
      "▁milwaukee": 1754,
      "##cial": 1755,
      "▁htt": 1756,
      "▁near": 1757,
      "▁almost": 1758,
      "##inner": 1759,
      "##****": 1760,
      "▁http": 1761,
      "##:/": 1762,
      "▁sing": 1763,
      "##nding": 1764,
      "▁pen": 1765,
      "##omme": 1766,
      "▁course": 1767,
      "▁particular": 1768,
      "##://": 1769,
      "##cle": 1770,
      "▁reason": 1771,
      "▁ur": 1772,
      "▁connect": 1773,
      "▁recomme": 1774,
      "▁based": 1775,
      "▁problem": 1776,
      "##ffect": 1777,
      "▁taking": 1778,
      "▁cult": 1779,
      "▁custom": 1780,
      "##ummy": 1781,
      "▁joh": 1782,
      "▁international": 1783,
      "▁http://": 1784,
      "##where": 1785,
      "▁agree": 1786,
      "▁box": 1787,
      "▁record": 1788,
      "▁experience": 1789,
      "▁sleep": 1790,
      "▁certain": 1791,
      "##ery": 1792,
      "##rop": 1793,
      "##irt": 1794,
      "▁atte": 1795,
      "▁sever": 1796,
      "▁chr": 1797,
      "▁worth": 1798,
      "##aps": 1799,
      "##apolis": 1800,
      "▁close": 1801,
      "▁contro": 1802,
      "▁horse": 1803,
      "##ove": 1804,
      "▁power": 1805,
      "##ama": 1806,
      "##ology": 1807,
      "▁maj": 1808,
      "▁months": 1809,
      "▁july": 1810,
      "▁side": 1811,
      "▁cop": 1812,
      "▁prom": 1813,
      "▁boy": 1814,
      "▁present": 1815,
      "##ined": 1816,
      "▁beg": 1817,
      "##ached": 1818,
      "▁fort": 1819,
      "▁flo": 1820,
      "▁16": 1821,
      "▁pho": 1822,
      "▁human": 1823,
      "▁several": 1824,
      "▁step": 1825,
      "##arent": 1826,
      "▁company": 1827,
      "##ased": 1828,
      "▁cond": 1829,
      "▁evening": 1830,
      "▁incre": 1831,
      "##ced": 1832,
      "##aim": 1833,
      "##ruct": 1834,
      "▁pat": 1835,
      "▁tomorrow": 1836,
      "##ta": 1837,
      "##30": 1838,
      "▁aug": 1839,
      "▁mind": 1840,
      "▁past": 1841,
      "▁eff": 1842,
      "▁project": 1843,
      "▁ago": 1844,
      "▁everyone": 1845,
      "▁playing": 1846,
      "▁fares": 1847,
      "▁eyes": 1848,
      "##iver": 1849,
      "▁die": 1850,
      "##aces": 1851,
      "▁oper": 1852,
      "▁charl": 1853,
      "▁special": 1854,
      "▁salt": 1855,
      "##ml": 1856,
      "▁fore": 1857,
      "##ision": 1858,
      "▁looks": 1859,
      "▁commission": 1860,
      "▁arrive": 1861,
      "▁asked": 1862,
      "▁general": 1863,
      "▁major": 1864,
      "##s.": 1865,
      "##cent": 1866,
      "##way": 1867,
      "▁los": 1868,
      "▁effect": 1869,
      "▁door": 1870,
      "▁kid": 1871,
      "▁mod": 1872,
      "▁happened": 1873,
      "▁language": 1874,
      "##na": 1875,
      "▁opp": 1876,
      "▁bur": 1877,
      "▁beaut": 1878,
      "▁expect": 1879,
      "##aken": 1880,
      "▁discuss": 1881,
      "▁john": 1882,
      "##’t": 1883,
      "▁dinner": 1884,
      "▁n’t": 1885,
      "▁lou": 1886,
      "▁lim": 1887,
      "▁front": 1888,
      "▁soon": 1889,
      "▁sometimes": 1890,
      "▁treat": 1891,
      "▁sent": 1892,
      "▁fre": 1893,
      "##aring": 1894,
      "▁chair": 1895,
      "▁news": 1896,
      "▁young": 1897,
      "##utes": 1898,
      "▁shakes": 1899,
      "##ago": 1900,
      "▁working": 1901,
      "▁review": 1902,
      "▁green": 1903,
      "▁along": 1904,
      "▁believe": 1905,
      "▁cup": 1906,
      "##iter": 1907,
      "▁often": 1908,
      "##room": 1909,
      "##peare": 1910,
      "▁quite": 1911,
      "▁houston": 1912,
      "▁happy": 1913,
      "▁clear": 1914,
      "▁shakespeare": 1915,
      "▁coup": 1916,
      "▁mess": 1917,
      "▁half": 1918,
      "▁egg": 1919,
      "▁either": 1920,
      "▁health": 1921,
      "##ush": 1922,
      "▁color": 1923,
      "##huh": 1924,
      "▁ten": 1925,
      "▁file": 1926,
      "▁bill": 1927,
      "▁makes": 1928,
      "▁town": 1929,
      "▁gave": 1930,
      "▁rese": 1931,
      "▁sea": 1932,
      "▁grand": 1933,
      "▁uhhuh": 1934,
      "##ged": 1935,
      "##atic": 1936,
      "##ana": 1937,
      "▁island": 1938,
      "##ides": 1939,
      "▁amount": 1940,
      "▁phone": 1941,
      "▁space": 1942,
      "##ensive": 1943,
      "##ond": 1944,
      "▁sound": 1945,
      "▁ban": 1946,
      "▁camp": 1947,
      "##ern": 1948,
      "▁mic": 1949,
      "##stop": 1950,
      "▁chic": 1951,
      "##ains": 1952,
      "▁anyone": 1953,
      "▁blue": 1954,
      "▁questions": 1955,
      "▁birth": 1956,
      "##ched": 1957,
      "##ob": 1958,
      "▁da": 1959,
      "##enix": 1960,
      "##omen": 1961,
      "▁eight": 1962,
      "##ctor": 1963,
      "▁within": 1964,
      "▁strong": 1965,
      "▁phoenix": 1966,
      "##ians": 1967,
      "##ret": 1968,
      "##ime": 1969,
      "▁others": 1970,
      "▁party": 1971,
      "▁enjoy": 1972,
      "▁august": 1973,
      "▁chicago": 1974,
      "##loy": 1975,
      "##oice": 1976,
      "▁table": 1977,
      "▁swe": 1978,
      "▁stuff": 1979,
      "▁whether": 1980,
      "##istan": 1981,
      "▁huh": 1982,
      "▁control": 1983,
      "▁q": 1984,
      "##line": 1985,
      "▁tick": 1986,
      "▁fut": 1987,
      "▁las": 1988,
      "##ami": 1989,
      "▁sol": 1990,
      "▁exce": 1991,
      "▁17": 1992,
      "##used": 1993,
      "▁199": 1994,
      "##sh": 1995,
      "##lf": 1996,
      "▁cook": 1997,
      "▁page": 1998,
      "▁offic": 1999,
      "▁nonstop": 2000,
      "##cum": 2001,
      "▁rob": 2002,
      "▁milit": 2003,
      "▁started": 2004,
      "▁wonder": 2005,
      "▁simp": 2006,
      "##ead": 2007,
      "▁fix": 2008,
      "▁cir": 2009,
      "▁level": 2010,
      "▁occ": 2011,
      "▁fire": 2012,
      "▁mag": 2013,
      "▁shop": 2014,
      "▁suc": 2015,
      "##ulation": 2016,
      "##tember": 2017,
      "▁instead": 2018,
      "▁current": 2019,
      "▁piece": 2020,
      "##ster": 2021,
      "▁comes": 2022,
      "##ung": 2023,
      "▁consider": 2024,
      "▁auth": 2025,
      "▁hours": 2026,
      "▁september": 2027,
      "##ering": 2028,
      "▁across": 2029,
      "##ocr": 2030,
      "▁talking": 2031,
      "▁type": 2032,
      "▁earliest": 2033,
      "▁er": 2034,
      "##rew": 2035,
      "▁o'": 2036,
      "▁mill": 2037,
      "▁death": 2038,
      "▁soci": 2039,
      "▁social": 2040,
      "▁env": 2041,
      "▁enron": 2042,
      "▁quick": 2043,
      "▁idea": 2044,
      "##gress": 2045,
      "▁seen": 2046,
      "▁sugg": 2047,
      "▁among": 2048,
      "▁including": 2049,
      "▁street": 2050,
      "▁suggest": 2051,
      "##iod": 2052,
      "▁fel": 2053,
      "▁fish": 2054,
      "▁lic": 2055,
      "##lect": 2056,
      "▁orig": 2057,
      "▁summ": 2058,
      "▁abe": 2059,
      "▁upon": 2060,
      "##avor": 2061,
      "▁inde": 2062,
      "▁countries": 2063,
      "▁protect": 2064,
      "▁age": 2065,
      "▁park": 2066,
      "##ister": 2067,
      "##els": 2068,
      "▁recommend": 2069,
      "▁floor": 2070,
      "##ming": 2071,
      "▁opt": 2072,
      "##ination": 2073,
      "▁fine": 2074,
      "▁cause": 2075,
      "##ones": 2076,
      "▁ya": 2077,
      "##itting": 2078,
      "▁peace": 2079,
      "▁guys": 2080,
      "▁diff": 2081,
      "▁bird": 2082,
      "▁future": 2083,
      "▁dark": 2084,
      "▁pull": 2085,
      "▁chick": 2086,
      "▁percent": 2087,
      "▁local": 2088,
      "▁miami": 2089,
      "▁political": 2090,
      "##crib": 2091,
      "##gas": 2092,
      "▁id": 2093,
      "▁given": 2094,
      "##aster": 2095,
      "▁hands": 2096,
      "##acy": 2097,
      "▁organ": 2098,
      "▁alth": 2099,
      "▁become": 2100,
      "##uary": 2101,
      "▁taken": 2102,
      "▁west": 2103,
      "▁sar": 2104,
      "▁mot": 2105,
      "▁toron": 2106,
      "▁ones": 2107,
      "##ury": 2108,
      "▁china": 2109,
      "▁period": 2110,
      "##clock": 2111,
      "▁guess": 2112,
      "##----------------": 2113,
      "▁june": 2114,
      "▁although": 2115,
      "▁toronto": 2116,
      "##ration": 2117,
      "▁fight": 2118,
      "▁heard": 2119,
      "▁allow": 2120,
      "▁alright": 2121,
      "▁quality": 2122,
      "▁rock": 2123,
      "▁picture": 2124,
      "▁profess": 2125,
      "▁university": 2126,
      "▁mine": 2127,
      "##ising": 2128,
      "▁gone": 2129,
      "##ley": 2130,
      "##umb": 2131,
      "▁clot": 2132,
      "▁mov": 2133,
      "##ograp": 2134,
      "▁minutes": 2135,
      "▁vegas": 2136,
      "▁market": 2137,
      "▁travel": 2138,
      "##ral": 2139,
      "##ril": 2140,
      "##ouch": 2141,
      "##itc": 2142,
      "##urity": 2143,
      "##amed": 2144,
      "▁ra": 2145,
      "##ortun": 2146,
      "▁needs": 2147,
      "▁collect": 2148,
      "▁dollars": 2149,
      "▁http://www": 2150,
      "▁o'clock": 2151,
      "▁felt": 2152,
      "##ok": 2153,
      "▁sor": 2154,
      "▁bag": 2155,
      "▁bear": 2156,
      "▁staff": 2157,
      "▁deb": 2158,
      "▁dead": 2159,
      "▁trad": 2160,
      "▁except": 2161,
      "##que": 2162,
      "▁known": 2163,
      "▁ready": 2164,
      "▁repres": 2165,
      "▁geor": 2166,
      "▁women": 2167,
      "▁fur": 2168,
      "##icy": 2169,
      "▁orland": 2170,
      "▁noon": 2171,
      "▁works": 2172,
      "##iously": 2173,
      "▁visit": 2174,
      "▁defin": 2175,
      "▁following": 2176,
      "▁http://www.": 2177,
      "▁orlando": 2178,
      "▁lake": 2179,
      "▁anal": 2180,
      "▁kill": 2181,
      "##ief": 2182,
      "▁cold": 2183,
      "##ell": 2184,
      "##ament": 2185,
      "##pend": 2186,
      "▁quinn": 2187,
      "▁prev": 2188,
      "▁design": 2189,
      "▁restaur": 2190,
      "▁iran": 2191,
      "▁origin": 2192,
      "▁win": 2193,
      "▁fif": 2194,
      "▁bi": 2195,
      "##ases": 2196,
      "##ott": 2197,
      "▁road": 2198,
      "##ec": 2199,
      "▁ah": 2200,
      "▁sour": 2201,
      "▁press": 2202,
      "▁forward": 2203,
      "▁story": 2204,
      "##iron": 2205,
      "▁shall": 2206,
      "##pped": 2207,
      "▁arg": 2208,
      "▁team": 2209,
      "▁looked": 2210,
      "▁mont": 2211,
      "##ully": 2212,
      "▁surpr": 2213,
      "##ergy": 2214,
      "▁answ": 2215,
      "▁sorry": 2216,
      "▁mummy": 2217,
      "▁dress": 2218,
      "▁init": 2219,
      "##otte": 2220,
      "▁sev": 2221,
      "▁var": 2222,
      "▁kne": 2223,
      "##ances": 2224,
      "▁accept": 2225,
      "▁email": 2226,
      "▁security": 2227,
      "▁behind": 2228,
      "▁animals": 2229,
      "▁environ": 2230,
      "##ef": 2231,
      "##za": 2232,
      "▁tour": 2233,
      "##ories": 2234,
      "▁lat": 2235,
      "▁et": 2236,
      "##rod": 2237,
      "▁!!!": 2238,
      "##ference": 2239,
      "##raft": 2240,
      "▁guy": 2241,
      "##/200": 2242,
      "▁delta": 2243,
      "▁charlotte": 2244,
      "▁author": 2245,
      "##uation": 2246,
      "##ered": 2247,
      "▁wife": 2248,
      "##ats": 2249,
      "▁don": 2250,
      "##ane": 2251,
      "▁late": 2252,
      "▁living": 2253,
      "▁truck": 2254,
      "##osp": 2255,
      "▁scient": 2256,
      "▁april": 2257,
      "##ney": 2258,
      "▁educ": 2259,
      "▁english": 2260,
      "##iddle": 2261,
      "##ffe": 2262,
      "##ria": 2263,
      "##got": 2264,
      "▁sil": 2265,
      "▁sand": 2266,
      "▁fac": 2267,
      "▁due": 2268,
      "▁energy": 2269,
      "▁claim": 2270,
      "▁obs": 2271,
      "▁specific": 2272,
      "▁european": 2273,
      "▁christ": 2274,
      "▁success": 2275,
      "▁diffic": 2276,
      "##ner": 2277,
      "##reme": 2278,
      "##erv": 2279,
      "▁middle": 2280,
      "▁parent": 2281,
      "▁ham": 2282,
      "▁ant": 2283,
      "▁wants": 2284,
      "▁usually": 2285,
      "##ansas": 2286,
      "▁account": 2287,
      "▁third": 2288,
      "▁research": 2289,
      "▁lost": 2290,
      "▁inside": 2291,
      "▁dogg": 2292,
      "##iding": 2293,
      "##rael": 2294,
      "▁activ": 2295,
      "▁attached": 2296,
      "▁address": 2297,
      "▁respons": 2298,
      "▁>": 2299,
      "##fully": 2300,
      "▁dan": 2301,
      "▁lab": 2302,
      "▁israel": 2303,
      "▁ann": 2304,
      "▁abs": 2305,
      "##iful": 2306,
      "▁teac": 2307,
      "▁newark": 2308,
      "##selves": 2309,
      "▁interv": 2310,
      "▁invol": 2311,
      "▁matter": 2312,
      "▁diego": 2313,
      "▁represent": 2314,
      "##ured": 2315,
      "##ium": 2316,
      "##ges": 2317,
      "▁woman": 2318,
      "▁fair": 2319,
      "##ature": 2320,
      "▁hors": 2321,
      "▁kitt": 2322,
      "##ify": 2323,
      "##ified": 2324,
      "▁object": 2325,
      "▁meeting": 2326,
      "##zac": 2327,
      "##real": 2328,
      "▁cam": 2329,
      "▁dow": 2330,
      "##itive": 2331,
      "▁rele": 2332,
      "▁member": 2333,
      "▁ride": 2334,
      "▁ange": 2335,
      "▁super": 2336,
      "▁temp": 2337,
      "▁clim": 2338,
      "▁express": 2339,
      "▁balzac": 2340,
      "▁regard": 2341,
      "▁attack": 2342,
      "▁accord": 2343,
      "▁further": 2344,
      "##ued": 2345,
      "##ule": 2346,
      "▁tur": 2347,
      "▁aust": 2348,
      "▁fig": 2349,
      "▁lau": 2350,
      "▁lik": 2351,
      "▁aff": 2352,
      "▁perform": 2353,
      "▁military": 2354,
      "▁<": 2355,
      "##dd": 2356,
      "▁sen": 2357,
      "##ators": 2358,
      "##ential": 2359,
      "▁docum": 2360,
      "▁speak": 2361,
      "▁wrong": 2362,
      "▁addition": 2363,
      "▁provide": 2364,
      "▁democr": 2365,
      "▁words": 2366,
      "▁indianapolis": 2367,
      "▁espe": 2368,
      "▁seattle": 2369,
      "▁begin": 2370,
      "▁beautiful": 2371,
      "▁george": 2372,
      "##13": 2373,
      "▁port": 2374,
      "##ony": 2375,
      "##veland": 2376,
      "##oose": 2377,
      "▁phot": 2378,
      "▁prep": 2379,
      "▁impro": 2380,
      "▁services": 2381,
      "▁cleveland": 2382,
      "##cially": 2383,
      "▁copy": 2384,
      "▁environment": 2385,
      "▁%": 2386,
      "##ried": 2387,
      "▁sort": 2388,
      "▁din": 2389,
      "▁jan": 2390,
      "▁kansas": 2391,
      "▁decl": 2392,
      "▁common": 2393,
      "▁earth": 2394,
      "▁members": 2395,
      "▁history": 2396,
      "▁couple": 2397,
      "##ha": 2398,
      "▁bow": 2399,
      "▁born": 2400,
      "##ots": 2401,
      "▁pract": 2402,
      "▁rights": 2403,
      "▁indust": 2404,
      "▁throw": 2405,
      "▁request": 2406,
      "##========": 2407,
      "▁property": 2408,
      "▁excell": 2409,
      "▁downt": 2410,
      "▁bath": 2411,
      "▁lunch": 2412,
      "##lly": 2413,
      "▁yourself": 2414,
      "##ival": 2415,
      "▁india": 2416,
      "▁easy": 2417,
      "▁complete": 2418,
      "▁knew": 2419,
      "▁#": 2420,
      "##ls": 2421,
      "▁pal": 2422,
      "▁hell": 2423,
      "▁jud": 2424,
      "▁dev": 2425,
      "▁feet": 2426,
      "▁poor": 2427,
      "▁detail": 2428,
      "##________": 2429,
      "▁hurt": 2430,
      "▁kids": 2431,
      "▁birthday": 2432,
      "▁especially": 2433,
      "▁downtown": 2434,
      "##craft": 2435,
      "##oke": 2436,
      "##uce": 2437,
      "##fast": 2438,
      "##igh": 2439,
      "##gle": 2440,
      "▁fing": 2441,
      "▁item": 2442,
      "▁god": 2443,
      "##ability": 2444,
      "▁moving": 2445,
      "▁thinking": 2446,
      "▁respect": 2447,
      "▁longer": 2448,
      "▁turned": 2449,
      "▁subject": 2450,
      "▁micro": 2451,
      "▁society": 2452,
      "##lished": 2453,
      "▁oil": 2454,
      "▁di": 2455,
      "▁pan": 2456,
      "▁pack": 2457,
      "##lling": 2458,
      "▁meas": 2459,
      "##olution": 2460,
      "▁above": 2461,
      "▁applic": 2462,
      "▁financ": 2463,
      "▁books": 2464,
      "▁require": 2465,
      "▁issue": 2466,
      "▁breakfast": 2467,
      "▁counter": 2468,
      "##haps": 2469,
      "##book": 2470,
      "▁sad": 2471,
      "▁low": 2472,
      "▁lay": 2473,
      "▁lad": 2474,
      "▁star": 2475,
      "▁stra": 2476,
      "▁send": 2477,
      "▁jwww": 2478,
      "▁button": 2479,
      "▁tax": 2480,
      "▁key": 2481,
      "▁america": 2482,
      "##airs": 2483,
      "▁glass": 2484,
      "▁highly": 2485,
      "▁hotel": 2486,
      "▁problems": 2487,
      "▁economic": 2488,
      "▁received": 2489,
      "▁agreement": 2490,
      "##ograph": 2491,
      "▁excellent": 2492,
      "##bit": 2493,
      "▁fill": 2494,
      "▁bat": 2495,
      "▁gas": 2496,
      "▁rather": 2497,
      "▁seven": 2498,
      "▁places": 2499,
      "▁yellow": 2500,
      "▁tex": 2501,
      "▁priv": 2502,
      "▁perhaps": 2503,
      "▁letter": 2504,
      "▁saying": 2505,
      "▁attention": 2506,
      "▁invest": 2507,
      "##wards": 2508,
      "▁employ": 2509,
      "▁purp": 2510,
      "▁effort": 2511,
      "▁daily": 2512,
      "##cr": 2513,
      "▁favor": 2514,
      "##ouble": 2515,
      "▁mid": 2516,
      "▁east": 2517,
      "▁doctor": 2518,
      "##ilities": 2519,
      "##ula": 2520,
      "▁canad": 2521,
      "##ping": 2522,
      "##xic": 2523,
      "##??": 2524,
      "▁tast": 2525,
      "▁civ": 2526,
      "##itions": 2527,
      "▁reco": 2528,
      "▁rich": 2529,
      "▁russ": 2530,
      "##aining": 2531,
      "▁alone": 2532,
      "▁seemed": 2533,
      "▁typ": 2534,
      "▁summer": 2535,
      "##iny": 2536,
      "▁tot": 2537,
      "▁net": 2538,
      "▁rul": 2539,
      "▁tried": 2540,
      "▁seems": 2541,
      "▁admin": 2542,
      "▁comput": 2543,
      "▁expensive": 2544,
      "▁body": 2545,
      "▁30": 2546,
      "▁struct": 2547,
      "▁colle": 2548,
      "▁continental": 2549,
      "▁eye": 2550,
      "▁estab": 2551,
      "▁difficult": 2552,
      "##hod": 2553,
      "##/1": 2554,
      "▁hat": 2555,
      "▁myself": 2556,
      "▁sus": 2557,
      "##anger": 2558,
      "▁eating": 2559,
      "▁minute": 2560,
      "▁fund": 2561,
      "▁chicken": 2562,
      "▁parents": 2563,
      "##work": 2564,
      "▁takes": 2565,
      "▁mass": 2566,
      "##ndred": 2567,
      "▁dom": 2568,
      "▁hol": 2569,
      "▁link": 2570,
      "▁beach": 2571,
      "##urch": 2572,
      "##terday": 2573,
      "▁exist": 2574,
      "▁ens": 2575,
      "##mph": 2576,
      "▁listen": 2577,
      "▁describ": 2578,
      "▁yesterday": 2579,
      "▁finally": 2580,
      "▁below": 2581,
      "▁glob": 2582,
      "▁economy": 2583,
      "▁value": 2584,
      "▁doggie": 2585,
      "##fer": 2586,
      "##50": 2587,
      "##ken": 2588,
      "▁touch": 2589,
      "##head": 2590,
      "▁..": 2591,
      "##rect": 2592,
      "▁cit": 2593,
      "▁hig": 2594,
      "▁ger": 2595,
      "▁exc": 2596,
      "▁nose": 2597,
      "▁fell": 2598,
      "▁weeks": 2599,
      "▁funny": 2600,
      "▁particip": 2601,
      "▁development": 2602,
      "▁natural": 2603,
      "▁ident": 2604,
      "▁restaurant": 2605,
      "▁texas": 2606,
      "▁ach": 2607,
      "▁son": 2608,
      "▁dest": 2609,
      "▁hop": 2610,
      "▁wear": 2611,
      "▁sty": 2612,
      "▁necess": 2613,
      "##ille": 2614,
      "##ization": 2615,
      "▁committ": 2616,
      "▁crit": 2617,
      "▁americans": 2618,
      "▁airline": 2619,
      "▁hundred": 2620,
      "▁deter": 2621,
      "▁court": 2622,
      "▁community": 2623,
      "▁louis": 2624,
      "##ht": 2625,
      "##ped": 2626,
      "▁mouth": 2627,
      "▁date": 2628,
      "##ison": 2629,
      "##asing": 2630,
      "##utions": 2631,
      "▁web": 2632,
      "##key": 2633,
      "▁spr": 2634,
      "▁bott": 2635,
      "▁entire": 2636,
      "▁official": 2637,
      "▁global": 2638,
      "##oon": 2639,
      "##iate": 2640,
      "##ging": 2641,
      "##ka": 2642,
      "▁foc": 2643,
      "##icle": 2644,
      "▁heart": 2645,
      "##idence": 2646,
      "▁self": 2647,
      "▁jap": 2648,
      "▁conv": 2649,
      "▁vide": 2650,
      "▁code": 2651,
      "▁aircraft": 2652,
      "▁event": 2653,
      "▁sched": 2654,
      "▁calif": 2655,
      "##cil": 2656,
      "▁wall": 2657,
      "▁cred": 2658,
      "▁heav": 2659,
      "▁began": 2660,
      "▁jump": 2661,
      "▁ship": 2662,
      "##ands": 2663,
      "▁afric": 2664,
      "▁moment": 2665,
      "##rench": 2666,
      "▁benef": 2667,
      "▁according": 2668,
      "▁japan": 2669,
      "▁californ": 2670,
      "##ru": 2671,
      "##ipe": 2672,
      "▁site": 2673,
      "##ream": 2674,
      "▁mad": 2675,
      "##ndon": 2676,
      "▁nt": 2677,
      "▁lives": 2678,
      "▁exec": 2679,
      "▁london": 2680,
      "▁boat": 2681,
      "▁action": 2682,
      "##iction": 2683,
      "▁slow": 2684,
      "▁create": 2685,
      "▁infl": 2686,
      "##son": 2687,
      "##ler": 2688,
      "##ey": 2689,
      "##gy": 2690,
      "▁tre": 2691,
      "▁sitting": 2692,
      "▁fail": 2693,
      "▁mos": 2694,
      "▁itself": 2695,
      "##eth": 2696,
      "##ima": 2697,
      "▁displ": 2698,
      "▁contact": 2699,
      "▁drive": 2700,
      "▁pock": 2701,
      "▁imag": 2702,
      "▁method": 2703,
      "▁internet": 2704,
      "▁seventh": 2705,
      "▁angeles": 2706,
      "▁administ": 2707,
      "▁achie": 2708,
      "##ape": 2709,
      "##iation": 2710,
      "▁oct": 2711,
      "▁div": 2712,
      "▁tow": 2713,
      "▁norm": 2714,
      "##itch": 2715,
      "##arr": 2716,
      "▁ep": 2717,
      "##aced": 2718,
      "▁ris": 2719,
      "▁true": 2720,
      "##istic": 2721,
      "▁seem": 2722,
      "##astic": 2723,
      "▁manag": 2724,
      "##ude": 2725,
      "▁kept": 2726,
      "▁position": 2727,
      "▁foot": 2728,
      "▁girls": 2729,
      "▁attemp": 2730,
      "▁california": 2731,
      "##over": 2732,
      "▁ways": 2733,
      "▁french": 2734,
      "▁cross": 2735,
      "▁pu": 2736,
      "▁push": 2737,
      "▁hon": 2738,
      "▁station": 2739,
      "▁sex": 2740,
      "▁note": 2741,
      "##resh": 2742,
      "▁somebody": 2743,
      "▁tele": 2744,
      "▁cover": 2745,
      "▁themselves": 2746,
      "▁needed": 2747,
      "▁compet": 2748,
      "▁policy": 2749,
      "##ledge": 2750,
      "▁interested": 2751,
      "▁aud": 2752,
      "▁bud": 2753,
      "▁dry": 2754,
      "▁died": 2755,
      "▁honey": 2756,
      "##lement": 2757,
      "▁u.": 2758,
      "▁webs": 2759,
      "▁whatever": 2760,
      "▁areas": 2761,
      "▁deli": 2762,
      "▁church": 2763,
      "▁moder": 2764,
      "▁carry": 2765,
      "▁charac": 2766,
      "▁mr.": 2767,
      "▁learn": 2768,
      "▁terror": 2769,
      "▁connection": 2770,
      "▁answer": 2771,
      "▁etc": 2772,
      "##sy": 2773,
      "##hem": 2774,
      "▁wik": 2775,
      "▁mer": 2776,
      "▁mention": 2777,
      "##ida": 2778,
      "▁stick": 2779,
      "▁suff": 2780,
      "▁exact": 2781,
      "▁nove": 2782,
      "▁vi": 2783,
      "▁voice": 2784,
      "▁!!": 2785,
      "▁feed": 2786,
      "▁2000": 2787,
      "▁march": 2788,
      "▁continue": 2789,
      "▁square": 2790,
      "▁constit": 2791,
      "▁document": 2792,
      "##ially": 2793,
      "##ws": 2794,
      "▁ill": 2795,
      "▁base": 2796,
      "▁dig": 2797,
      "▁nine": 2798,
      "▁memph": 2799,
      "##hers": 2800,
      "##ored": 2801,
      "##ibility": 2802,
      "▁became": 2803,
      "▁offer": 2804,
      "▁brought": 2805,
      "▁perfect": 2806,
      "▁writing": 2807,
      "▁police": 2808,
      "▁leaves": 2809,
      "▁relig": 2810,
      "▁peters": 2811,
      "▁friendly": 2812,
      "▁building": 2813,
      "▁clothes": 2814,
      "▁movie": 2815,
      "▁financial": 2816,
      "▁memphis": 2817,
      "##oint": 2818,
      "##ville": 2819,
      "##i-": 2820,
      "▁sense": 2821,
      "▁cy": 2822,
      "▁mm": 2823,
      "▁goo": 2824,
      "▁uk": 2825,
      "▁king": 2826,
      "▁arm": 2827,
      "##ivid": 2828,
      "▁prices": 2829,
      "▁driving": 2830,
      "##liament": 2831,
      "▁parliament": 2832,
      "▁extreme": 2833,
      "▁secret": 2834,
      "▁message": 2835,
      "▁civil": 2836,
      "##use": 2837,
      "##ze": 2838,
      "##isions": 2839,
      "▁rate": 2840,
      "▁deep": 2841,
      "▁therefore": 2842,
      "▁25": 2843,
      "▁unf": 2844,
      "▁enc": 2845,
      "▁coffe": 2846,
      "▁putting": 2847,
      "▁cheese": 2848,
      "##burg": 2849,
      "▁2005": 2850,
      "▁apart": 2851,
      "▁decided": 2852,
      "▁signific": 2853,
      "▁correct": 2854,
      "▁earlier": 2855,
      "▁shoes": 2856,
      "▁culture": 2857,
      "▁independ": 2858,
      "##gest": 2859,
      "▁fit": 2860,
      "##eral": 2861,
      "▁dro": 2862,
      "##vered": 2863,
      "▁stat": 2864,
      "##akistan": 2865,
      "##ipt": 2866,
      "▁board": 2867,
      "▁finished": 2868,
      "▁intell": 2869,
      "▁supposed": 2870,
      "▁assist": 2871,
      "▁issues": 2872,
      "▁music": 2873,
      "▁urs": 2874,
      "▁license": 2875,
      "▁interview": 2876,
      "▁coffee": 2877,
      "##oz": 2878,
      "##old": 2879,
      "▁cow": 2880,
      "▁catch": 2881,
      "▁mail": 2882,
      "▁mama": 2883,
      "##str": 2884,
      "▁force": 2885,
      "▁vac": 2886,
      "▁arab": 2887,
      "▁21": 2888,
      "▁gets": 2889,
      "▁whose": 2890,
      "▁moved": 2891,
      "▁brother": 2892,
      "▁busy": 2893,
      "##ences": 2894,
      "▁instit": 2895,
      "▁running": 2896,
      "▁corp": 2897,
      "▁xml": 2898,
      "▁products": 2899,
      "▁propos": 2900,
      "▁ticket": 2901,
      "▁november": 2902,
      "▁mur": 2903,
      "▁mater": 2904,
      "▁dam": 2905,
      "▁pakistan": 2906,
      "##icles": 2907,
      "##ades": 2908,
      "##amb": 2909,
      "##ilar": 2910,
      "▁jose": 2911,
      "##iff": 2912,
      "▁text": 2913,
      "##itely": 2914,
      "▁cru": 2915,
      "##uced": 2916,
      "▁situation": 2917,
      "▁interesting": 2918,
      "▁leaders": 2919,
      "▁mike": 2920,
      "▁pictures": 2921,
      "▁eggs": 2922,
      "##/2001": 2923,
      "▁ursula": 2924,
      "##king": 2925,
      "##-m": 2926,
      "##:00": 2927,
      "##ati": 2928,
      "##ouse": 2929,
      "▁toast": 2930,
      "▁thous": 2931,
      "▁likely": 2932,
      "▁conte": 2933,
      "▁amaz": 2934,
      "▁recently": 2935,
      "▁relations": 2936,
      "▁broken": 2937,
      "▁window": 2938,
      "▁changes": 2939,
      "▁particularly": 2940,
      "▁latest": 2941,
      "▁education": 2942,
      "▁figure": 2943,
      "▁citiz": 2944,
      "##een": 2945,
      "##hol": 2946,
      "▁cra": 2947,
      "▁corn": 2948,
      "▁mount": 2949,
      "##ann": 2950,
      "▁mexic": 2951,
      "▁flow": 2952,
      "▁momma": 2953,
      "▁studies": 2954,
      "▁capital": 2955,
      "▁introd": 2956,
      "▁opportun": 2957,
      "▁simply": 2958,
      "▁source": 2959,
      "▁computer": 2960,
      "▁website": 2961,
      "##come": 2962,
      "##oid": 2963,
      "▁wild": 2964,
      "▁fed": 2965,
      "▁mich": 2966,
      "▁nation": 2967,
      "▁lack": 2968,
      "▁liter": 2969,
      "##ald": 2970,
      "▁isl": 2971,
      "##ume": 2972,
      "▁disco": 2973,
      "▁contract": 2974,
      "▁tape": 2975,
      "▁implement": 2976,
      "▁century": 2977,
      "##/2000": 2978,
      "▁points": 2979,
      "##********": 2980,
      "▁dinos": 2981,
      "▁january": 2982,
      "▁ver": 2983,
      "▁tar": 2984,
      "##oura": 2985,
      "▁rent": 2986,
      "▁meal": 2987,
      "##ilt": 2988,
      "▁asso": 2989,
      "▁neigh": 2990,
      "▁worked": 2991,
      "▁individ": 2992,
      "##rences": 2993,
      "▁warm": 2994,
      "▁filter": 2995,
      "▁quickly": 2996,
      "▁neighb": 2997,
      "##ri": 2998,
      "##20": 2999,
      "▁theory": 3000,
      "▁card": 3001,
      "##oub": 3002,
      "▁mix": 3003,
      "▁gar": 3004,
      "##icient": 3005,
      "▁dece": 3006,
      "▁13": 3007,
      "▁arch": 3008,
      "▁wrote": 3009,
      "▁....": 3010,
      "▁terms": 3011,
      "##!!!!": 3012,
      "▁former": 3013,
      "▁personal": 3014,
      "▁broad": 3015,
      "▁include": 3016,
      "##.com/": 3017,
      "##aughter": 3018,
      "▁million": 3019,
      "▁sarah": 3020,
      "##riage": 3021,
      "▁video": 3022,
      "▁credit": 3023,
      "▁associ": 3024,
      "▁song": 3025,
      "##oud": 3026,
      "▁dav": 3027,
      "▁held": 3028,
      "##oted": 3029,
      "▁gold": 3030,
      "▁ame": 3031,
      "▁knowledge": 3032,
      "##itten": 3033,
      "▁save": 3034,
      "▁manage": 3035,
      "▁role": 3036,
      "▁science": 3037,
      "▁recent": 3038,
      "▁huge": 3039,
      "▁sky": 3040,
      "▁center": 3041,
      "▁customer": 3042,
      "▁kitty": 3043,
      "▁rules": 3044,
      "##che": 3045,
      "##af": 3046,
      "##ding": 3047,
      "##fort": 3048,
      "##how": 3049,
      "##west": 3050,
      "▁fresh": 3051,
      "▁cinc": 3052,
      "▁penc": 3053,
      "▁toys": 3054,
      "▁rad": 3055,
      "▁river": 3056,
      "▁served": 3057,
      "▁desp": 3058,
      "##innati": 3059,
      "▁imm": 3060,
      "##ological": 3061,
      "▁subst": 3062,
      "▁paris": 3063,
      "▁similar": 3064,
      "▁watching": 3065,
      "▁certainly": 3066,
      "▁petersburg": 3067,
      "▁islam": 3068,
      "▁cincinnati": 3069,
      "▁pencil": 3070,
      "▁ess": 3071,
      "▁vers": 3072,
      "##ax": 3073,
      "##ex": 3074,
      "##zy": 3075,
      "▁tv": 3076,
      "##ino": 3077,
      "▁bite": 3078,
      "▁minn": 3079,
      "▁hy": 3080,
      "▁threat": 3081,
      "▁jer": 3082,
      "▁shirt": 3083,
      "▁convers": 3084,
      "##aint": 3085,
      "▁novel": 3086,
      "▁afgh": 3087,
      "▁naima": 3088,
      "▁scen": 3089,
      "▁contrib": 3090,
      "▁played": 3091,
      "##ampa": 3092,
      "▁provided": 3093,
      "▁legal": 3094,
      "▁broke": 3095,
      "▁learning": 3096,
      "▁council": 3097,
      "▁growth": 3098,
      "▁montreal": 3099,
      "▁hello": 3100,
      "▁favorite": 3101,
      "▁committee": 3102,
      "▁significant": 3103,
      "##mon": 3104,
      "##.ht": 3105,
      "▁cry": 3106,
      "▁danger": 3107,
      "▁pred": 3108,
      "##ishing": 3109,
      "##oma": 3110,
      "##uted": 3111,
      "▁beat": 3112,
      "▁wash": 3113,
      "##ppy": 3114,
      "▁prior": 3115,
      "▁serve": 3116,
      "▁50": 3117,
      "▁713": 3118,
      "▁groups": 3119,
      "▁juice": 3120,
      "▁finger": 3121,
      "▁recogn": 3122,
      "▁focus": 3123,
      "▁modern": 3124,
      "▁afghan": 3125,
      "##'s": 3126,
      "▁tampa": 3127,
      "▁wat": 3128,
      "▁wide": 3129,
      "▁duck": 3130,
      "▁nas": 3131,
      "##isl": 3132,
      "##ises": 3133,
      "##oth": 3134,
      "▁wel": 3135,
      "▁weap": 3136,
      "##allen": 3137,
      "▁orange": 3138,
      "▁trust": 3139,
      "▁challen": 3140,
      "▁14": 3141,
      "▁anyway": 3142,
      "▁fem": 3143,
      "▁carol": 3144,
      "▁blow": 3145,
      "▁bull": 3146,
      "▁written": 3147,
      "▁lots": 3148,
      "▁sweet": 3149,
      "▁definitely": 3150,
      "▁involved": 3151,
      "▁items": 3152,
      "▁influ": 3153,
      "##for": 3154,
      "##tain": 3155,
      "▁tac": 3156,
      "▁tie": 3157,
      "▁wish": 3158,
      "▁bread": 3159,
      "▁hus": 3160,
      "▁hung": 3161,
      "##uth": 3162,
      "▁notice": 3163,
      "▁trouble": 3164,
      "▁comb": 3165,
      "▁saf": 3166,
      "▁roll": 3167,
      "▁spent": 3168,
      "▁moral": 3169,
      "▁reading": 3170,
      "▁emerg": 3171,
      "▁draft": 3172,
      "▁location": 3173,
      "▁training": 3174,
      "▁separ": 3175,
      "▁freed": 3176,
      "▁qa": 3177,
      "▁winter": 3178,
      "▁display": 3179,
      "##lo": 3180,
      "##val": 3181,
      "##more": 3182,
      "##the": 3183,
      "##.d": 3184,
      "▁tal": 3185,
      "▁fle": 3186,
      "▁cool": 3187,
      "▁cities": 3188,
      "▁mir": 3189,
      "▁hang": 3190,
      "▁nort": 3191,
      "##ened": 3192,
      "▁gard": 3193,
      "▁soft": 3194,
      "▁safe": 3195,
      "##phone": 3196,
      "▁apply": 3197,
      "▁2004": 3198,
      "▁stillman": 3199,
      "▁final": 3200,
      "▁numbers": 3201,
      "▁walking": 3202,
      "▁concern": 3203,
      "##ipped": 3204,
      "▁single": 3205,
      "▁professional": 3206,
      "▁original": 3207,
      "▁horsie": 3208,
      "▁improve": 3209,
      "▁u.s.": 3210,
      "▁material": 3211,
      "▁december": 3212,
      "##cy": 3213,
      "##of": 3214,
      "##face": 3215,
      "##ike": 3216,
      "▁ton": 3217,
      "▁tit": 3218,
      "▁tig": 3219,
      "▁bank": 3220,
      "▁drop": 3221,
      "▁piz": 3222,
      "##onse": 3223,
      "▁toy": 3224,
      "▁nash": 3225,
      "▁ran": 3226,
      "▁rain": 3227,
      "▁24": 3228,
      "▁somewhere": 3229,
      "▁tea": 3230,
      "##teen": 3231,
      "▁blood": 3232,
      "▁appre": 3233,
      "▁smell": 3234,
      "▁region": 3235,
      "▁weeke": 3236,
      "▁charge": 3237,
      "▁image": 3238,
      "▁immed": 3239,
      "▁legisl": 3240,
      "▁communic": 3241,
      "▁department": 3242,
      "▁fields": 3243,
      "▁cultural": 3244,
      "▁banana": 3245,
      "▁freedom": 3246,
      "##ees": 3247,
      "##mb": 3248,
      "▁ice": 3249,
      "##enron": 3250,
      "▁ital": 3251,
      "##idge": 3252,
      "▁track": 3253,
      "▁butter": 3254,
      "##unt": 3255,
      "##ift": 3256,
      "▁union": 3257,
      "▁blank": 3258,
      "▁everybody": 3259,
      "▁dr.": 3260,
      "▁farm": 3261,
      "▁non-": 3262,
      "▁response": 3263,
      "▁purch": 3264,
      "▁foreign": 3265,
      "▁total": 3266,
      "▁pocket": 3267,
      "▁amazing": 3268,
      "▁citizens": 3269,
      "▁nashville": 3270,
      "##:30": 3271,
      "▁tiny": 3272,
      "▁ahead": 3273,
      "▁fast": 3274,
      "▁ba": 3275,
      "▁mis": 3276,
      "▁mach": 3277,
      "▁nin": 3278,
      "##eng": 3279,
      "▁forgot": 3280,
      "▁100": 3281,
      "▁affect": 3282,
      "##action": 3283,
      "▁pleas": 3284,
      "##clus": 3285,
      "▁helpful": 3286,
      "▁regular": 3287,
      "▁2002": 3288,
      "▁197": 3289,
      "##comp": 3290,
      "▁related": 3291,
      "▁decision": 3292,
      "▁columb": 3293,
      "▁waiting": 3294,
      "##nov": 3295,
      "▁population": 3296,
      "▁results": 3297,
      "▁islands": 3298,
      "▁analys": 3299,
      "▁necessary": 3300,
      "▁bottom": 3301,
      "▁extremely": 3302,
      "##ires": 3303,
      "##80": 3304,
      "▁tired": 3305,
      "▁ow": 3306,
      "▁cand": 3307,
      "▁dir": 3308,
      "▁pil": 3309,
      "▁hosp": 3310,
      "##eda": 3311,
      "##iced": 3312,
      "▁jack": 3313,
      "▁concept": 3314,
      "▁congress": 3315,
      "▁exam": 3316,
      "##pper": 3317,
      "▁vol": 3318,
      "##ateg": 3319,
      "##oss": 3320,
      "▁parts": 3321,
      "##izing": 3322,
      "▁desk": 3323,
      "▁feeling": 3324,
      "▁article": 3325,
      "▁walked": 3326,
      "▁jeff": 3327,
      "▁concer": 3328,
      "▁appear": 3329,
      "##hens": 3330,
      "▁percentage": 3331,
      "▁qaeda": 3332,
      "##ober": 3333,
      "##ugg": 3334,
      "##rict": 3335,
      "##ham": 3336,
      "##gon": 3337,
      "##mar": 3338,
      "▁swww": 3339,
      "▁band": 3340,
      "▁mist": 3341,
      "▁luck": 3342,
      "##ario": 3343,
      "▁games": 3344,
      "##roit": 3345,
      "▁rap": 3346,
      "##ceed": 3347,
      "##illy": 3348,
      "##idered": 3349,
      "▁brit": 3350,
      "▁compl": 3351,
      "▁block": 3352,
      "▁joke": 3353,
      "▁2003": 3354,
      "▁repl": 3355,
      "▁student": 3356,
      "▁students": 3357,
      "▁detroit": 3358,
      "▁england": 3359,
      "▁reflect": 3360,
      "▁reports": 3361,
      "▁histor": 3362,
      "▁campa": 3363,
      "▁industry": 3364,
      "▁private": 3365,
      "▁ensure": 3366,
      "▁safety": 3367,
      "▁pizza": 3368,
      "##uk": 3369,
      "##89": 3370,
      "##bed": 3371,
      "##band": 3372,
      "▁fat": 3373,
      "▁bought": 3374,
      "▁cab": 3375,
      "##erved": 3376,
      "##sequ": 3377,
      "▁forget": 3378,
      "▁rub": 3379,
      "▁kitc": 3380,
      "▁neck": 3381,
      "▁sold": 3382,
      "##itted": 3383,
      "▁adm": 3384,
      "▁bigger": 3385,
      "▁owner": 3386,
      "▁starting": 3387,
      "▁term": 3388,
      "▁famil": 3389,
      "▁mathem": 3390,
      "▁popular": 3391,
      "▁estim": 3392,
      "▁nearly": 3393,
      "▁grandm": 3394,
      "▁beginning": 3395,
      "▁bowl": 3396,
      "▁application": 3397,
      "▁canada": 3398,
      "▁october": 3399,
      "▁viol": 3400,
      "▁nasa": 3401,
      "▁appreci": 3402,
      "▁dirty": 3403,
      "▁ut": 3404,
      "##cise": 3405,
      "##ael": 3406,
      "##ius": 3407,
      "##ps": 3408,
      "##ban": 3409,
      "##ball": 3410,
      "##45": 3411,
      "##39": 3412,
      "▁wood": 3413,
      "▁wine": 3414,
      "▁sick": 3415,
      "##ato": 3416,
      "##atory": 3417,
      "##atives": 3418,
      "▁piv": 3419,
      "##ites": 3420,
      "▁gra": 3421,
      "##asons": 3422,
      "##imin": 3423,
      "▁ate": 3424,
      "##ills": 3425,
      "##ops": 3426,
      "▁choose": 3427,
      "##ables": 3428,
      "▁plays": 3429,
      "##ibly": 3430,
      "▁events": 3431,
      "▁expert": 3432,
      "▁transl": 3433,
      "▁finish": 3434,
      "▁marriage": 3435,
      "▁accident": 3436,
      "▁published": 3437,
      "▁max": 3438,
      "▁pieces": 3439,
      "▁appropr": 3440,
      "▁german": 3441,
      "▁schedule": 3442,
      "▁risk": 3443,
      "▁exactly": 3444,
      "▁kitchen": 3445,
      "##hood": 3446,
      "##gar": 3447,
      "##@enron": 3448,
      "▁tank": 3449,
      "▁host": 3450,
      "##ingu": 3451,
      "##estern": 3452,
      "▁led": 3453,
      "▁ec": 3454,
      "▁heat": 3455,
      "▁jour": 3456,
      "##olute": 3457,
      "##igence": 3458,
      "▁vote": 3459,
      "▁spot": 3460,
      "▁resour": 3461,
      "##lied": 3462,
      "▁consum": 3463,
      "▁considered": 3464,
      "▁slight": 3465,
      "▁central": 3466,
      "▁fax": 3467,
      "▁confir": 3468,
      "▁explain": 3469,
      "▁nature": 3470,
      "▁departing": 3471,
      "▁animal": 3472,
      "▁paint": 3473,
      "▁wonderful": 3474,
      "▁currently": 3475,
      "▁allowed": 3476,
      "▁college": 3477,
      "▁campaign": 3478,
      "▁+": 3479,
      "##rain": 3480,
      "##ek": 3481,
      "##eapolis": 3482,
      "##hib": 3483,
      "##01": 3484,
      "▁tree": 3485,
      "▁bun": 3486,
      "▁caught": 3487,
      "▁named": 3488,
      "##omer": 3489,
      "▁hen": 3490,
      "▁meat": 3491,
      "▁meant": 3492,
      "▁rab": 3493,
      "▁soph": 3494,
      "▁comments": 3495,
      "▁arms": 3496,
      "▁seeing": 3497,
      "▁phys": 3498,
      "▁overall": 3499,
      "▁scr": 3500,
      "▁contain": 3501,
      "▁indic": 3502,
      "##ocol": 3503,
      "▁meaning": 3504,
      "▁opened": 3505,
      "▁limited": 3506,
      "▁absolute": 3507,
      "▁regarding": 3508,
      "##dden": 3509,
      "▁style": 3510,
      "▁imagine": 3511,
      "▁dinosaur": 3512,
      "▁despite": 3513,
      "▁minneapolis": 3514,
      "##light": 3515,
      "##log": 3516,
      "##hell": 3517,
      "▁bom": 3518,
      "▁mult": 3519,
      "▁daughter": 3520,
      "▁gives": 3521,
      "▁stren": 3522,
      "▁rout": 3523,
      "▁select": 3524,
      "▁liber": 3525,
      "▁aspect": 3526,
      "▁share": 3527,
      "▁sudden": 3528,
      "▁chance": 3529,
      "##ively": 3530,
      "▁yours": 3531,
      "▁22": 3532,
      "▁knows": 3533,
      "▁adop": 3534,
      "##aged": 3535,
      "##anced": 3536,
      "▁spir": 3537,
      "▁letters": 3538,
      "▁bug": 3539,
      "▁greater": 3540,
      "▁regional": 3541,
      "▁added": 3542,
      "▁difference": 3543,
      "▁instruct": 3544,
      "▁flying": 3545,
      "▁opening": 3546,
      "▁standards": 3547,
      "▁paid": 3548,
      "▁engine": 3549,
      "▁eastern": 3550,
      "▁behav": 3551,
      "▁simple": 3552,
      "▁magic": 3553,
      "▁various": 3554,
      "▁straight": 3555,
      "▁types": 3556,
      "▁administration": 3557,
      "▁achieve": 3558,
      "▁michael": 3559,
      "▁amend": 3560,
      "##nam": 3561,
      "##60": 3562,
      "##-1": 3563,
      "##99": 3564,
      "▁tail": 3565,
      "▁wol": 3566,
      "▁sens": 3567,
      "▁size": 3568,
      "▁sister": 3569,
      "▁ol": 3570,
      "▁horr": 3571,
      "▁giving": 3572,
      "▁forces": 3573,
      "##ulf": 3574,
      "▁1.": 3575,
      "▁comfort": 3576,
      "▁23": 3577,
      "##tered": 3578,
      "▁grad": 3579,
      "▁clos": 3580,
      "▁brown": 3581,
      "▁impact": 3582,
      "##like": 3583,
      "▁2001": 3584,
      "▁belong": 3585,
      "▁bottle": 3586,
      "▁hole": 3587,
      "▁stopover": 3588,
      "▁legs": 3589,
      "▁directive": 3590,
      "▁plane": 3591,
      "▁dogs": 3592,
      "▁media": 3593,
      "▁growing": 3594,
      "▁programme": 3595,
      "▁esc": 3596,
      "▁created": 3597,
      "▁customers": 3598,
      "▁fixed": 3599,
      "▁protection": 3600,
      "▁activities": 3601,
      "▁laugh": 3602,
      "▁david": 3603,
      "##oh": 3604,
      "##uel": 3605,
      "##zz": 3606,
      "##yond": 3607,
      "▁wil": 3608,
      "▁nations": 3609,
      "##oring": 3610,
      "▁innov": 3611,
      "##ici": 3612,
      "▁beyond": 3613,
      "##ented": 3614,
      "▁ron": 3615,
      "##ils": 3616,
      "▁libr": 3617,
      "▁shut": 3618,
      "##hern": 3619,
      "▁ord": 3620,
      "▁altern": 3621,
      "▁plants": 3622,
      "▁adult": 3623,
      "##ancing": 3624,
      "▁lock": 3625,
      "##soft": 3626,
      "▁serious": 3627,
      "▁opin": 3628,
      "▁regards": 3629,
      "▁surv": 3630,
      "▁provides": 3631,
      "▁values": 3632,
      "▁cats": 3633,
      "▁changed": 3634,
      "▁potty": 3635,
      "▁attend": 3636,
      "##cript": 3637,
      "▁federal": 3638,
      "▁dangerous": 3639,
      "▁tacoma": 3640,
      "▁grandmother": 3641,
      "▁streng": 3642,
      "##ses": 3643,
      "##rie": 3644,
      "##wor": 3645,
      "##wise": 3646,
      "##.m": 3647,
      "▁breat": 3648,
      "##erve": 3649,
      "▁hous": 3650,
      "▁names": 3651,
      "▁gun": 3652,
      "▁online": 3653,
      "▁repe": 3654,
      "▁reasons": 3655,
      "▁kore": 3656,
      "▁dear": 3657,
      "▁trade": 3658,
      "▁conference": 3659,
      "▁progress": 3660,
      "▁anywhere": 3661,
      "▁shows": 3662,
      "▁coast": 3663,
      "▁coach": 3664,
      "▁agre": 3665,
      "▁series": 3666,
      "▁poet": 3667,
      "▁built": 3668,
      "##ublic": 3669,
      "##time": 3670,
      "▁asking": 3671,
      "▁standard": 3672,
      "▁refer": 3673,
      "▁planning": 3674,
      "▁capac": 3675,
      "▁holding": 3676,
      "▁proposed": 3677,
      "▁returned": 3678,
      "▁frequ": 3679,
      "▁err": 3680,
      "▁liked": 3681,
      "▁photograph": 3682,
      "##ying": 3683,
      "▁ign": 3684,
      "▁coo": 3685,
      "▁pill": 3686,
      "▁thus": 3687,
      "##orate": 3688,
      "▁lower": 3689,
      "##aries": 3690,
      "##arily": 3691,
      "▁ears": 3692,
      "▁stood": 3693,
      "▁ru": 3694,
      "▁anth": 3695,
      "▁search": 3696,
      "▁lived": 3697,
      "##antic": 3698,
      "▁kar": 3699,
      "▁deg": 3700,
      "▁plant": 3701,
      "##apers": 3702,
      "▁unless": 3703,
      "▁princ": 3704,
      "▁evidence": 3705,
      "▁bright": 3706,
      "▁spend": 3707,
      "▁remain": 3708,
      "▁republic": 3709,
      "##ground": 3710,
      "▁function": 3711,
      "▁largest": 3712,
      "▁experi": 3713,
      "▁ze": 3714,
      "▁ideas": 3715,
      "▁snow": 3716,
      "▁iraqi": 3717,
      "▁model": 3718,
      "▁>>": 3719,
      "▁climate": 3720,
      "▁<<": 3721,
      "▁democracy": 3722,
      "▁bathroom": 3723,
      "▁completely": 3724,
      "▁microsoft": 3725,
      "▁heavy": 3726,
      "▁opportunity": 3727,
      "▁analysis": 3728,
      "##men": 3729,
      "##ql": 3730,
      "##-c": 3731,
      "##het": 3732,
      "▁bra": 3733,
      "▁cage": 3734,
      "▁hm": 3735,
      "##enn": 3736,
      "▁gall": 3737,
      "▁stories": 3738,
      "##iring": 3739,
      "▁atm": 3740,
      "▁section": 3741,
      "##antly": 3742,
      "▁choice": 3743,
      "##ulate": 3744,
      "▁noise": 3745,
      "▁comment": 3746,
      "##bert": 3747,
      "##ips": 3748,
      "▁glad": 3749,
      "##enced": 3750,
      "▁basis": 3751,
      "▁obv": 3752,
      "▁settle": 3753,
      "##board": 3754,
      "▁leader": 3755,
      "▁distrib": 3756,
      "##idden": 3757,
      "▁thirty": 3758,
      "▁technology": 3759,
      "▁equal": 3760,
      "▁increase": 3761,
      "▁occur": 3762,
      "▁option": 3763,
      "▁analy": 3764,
      "▁camel": 3765,
      "▁richard": 3766,
      "▁relationship": 3767,
      "▁target": 3768,
      "▁garden": 3769,
      "▁weekend": 3770,
      "▁cake": 3771,
      "##eries": 3772,
      "▁mut": 3773,
      "▁reach": 3774,
      "##uts": 3775,
      "▁hall": 3776,
      "##iri": 3777,
      "▁rom": 3778,
      "▁rac": 3779,
      "▁chocol": 3780,
      "##ument": 3781,
      "▁bye": 3782,
      "▁army": 3783,
      "▁closed": 3784,
      "▁moon": 3785,
      "▁brief": 3786,
      "▁guard": 3787,
      "▁actions": 3788,
      "▁happens": 3789,
      "▁county": 3790,
      "▁older": 3791,
      "##ification": 3792,
      "▁continued": 3793,
      "▁standing": 3794,
      "▁followed": 3795,
      "▁reported": 3796,
      "▁career": 3797,
      "▁companies": 3798,
      "▁steps": 3799,
      "▁burb": 3800,
      "▁options": 3801,
      "▁bike": 3802,
      "▁surprise": 3803,
      "▁teacher": 3804,
      "▁additional": 3805,
      "▁mentioned": 3806,
      "▁google": 3807,
      "▁ukrain": 3808,
      "▁proposal": 3809,
      "▁*": 3810,
      "##net": 3811,
      "##round": 3812,
      "##hm": 3813,
      "##pa": 3814,
      "▁tas": 3815,
      "▁wet": 3816,
      "▁ble": 3817,
      "▁cash": 3818,
      "▁cases": 3819,
      "##ero": 3820,
      "▁mc": 3821,
      "▁hide": 3822,
      "##isf": 3823,
      "▁ul": 3824,
      "##verage": 3825,
      "▁sell": 3826,
      "▁season": 3827,
      "▁depe": 3828,
      "▁defe": 3829,
      "##uses": 3830,
      "▁via": 3831,
      "▁upd": 3832,
      "▁une": 3833,
      "▁quiet": 3834,
      "▁print": 3835,
      "##ously": 3836,
      "▁span": 3837,
      "▁scre": 3838,
      "▁prete": 3839,
      "▁cromer": 3840,
      "▁impress": 3841,
      "▁aware": 3842,
      "▁throughout": 3843,
      "▁stopped": 3844,
      "▁surround": 3845,
      "▁sett": 3846,
      "▁larger": 3847,
      "▁experim": 3848,
      "▁passed": 3849,
      "▁barn": 3850,
      "##ottable": 3851,
      "▁sandw": 3852,
      "▁temper": 3853,
      "▁practice": 3854,
      "▁details": 3855,
      "▁purpose": 3856,
      "▁taste": 3857,
      "▁higher": 3858,
      "▁africa": 3859,
      "▁japanese": 3860,
      "▁religious": 3861,
      "▁pivottable": 3862,
      "▁atmosp": 3863,
      "##sa": 3864,
      "##app": 3865,
      "##ners": 3866,
      "##iately": 3867,
      "##mas": 3868,
      "##ky": 3869,
      "▁wow": 3870,
      "▁bes": 3871,
      "▁cards": 3872,
      "▁match": 3873,
      "▁dream": 3874,
      "▁doub": 3875,
      "▁pin": 3876,
      "▁pus": 3877,
      "▁pig": 3878,
      "##arant": 3879,
      "##vere": 3880,
      "##vert": 3881,
      "##ams": 3882,
      "##chan": 3883,
      "▁exch": 3884,
      "▁willing": 3885,
      "##aud": 3886,
      "▁seek": 3887,
      "▁:)": 3888,
      "▁root": 3889,
      "▁accom": 3890,
      "▁brain": 3891,
      "##cles": 3892,
      "▁guarant": 3893,
      "▁crow": 3894,
      "▁remark": 3895,
      "▁warhol": 3896,
      "▁edit": 3897,
      "▁facebook": 3898,
      "▁fully": 3899,
      "▁understanding": 3900,
      "▁potential": 3901,
      "▁reasonable": 3902,
      "▁licens": 3903,
      "##--------------------------------": 3904,
      "▁requirements": 3905,
      "▁determin": 3906,
      "▁officials": 3907,
      "##rupt": 3908,
      "▁encoura": 3909,
      "##.doc": 3910,
      "▁tonight": 3911,
      "▁capacity": 3912,
      "▁princip": 3913,
      "##und": 3914,
      "##just": 3915,
      "▁western": 3916,
      "▁sql": 3917,
      "▁fant": 3918,
      "▁der": 3919,
      "▁poo": 3920,
      "▁path": 3921,
      "▁tool": 3922,
      "▁narr": 3923,
      "##org": 3924,
      "##omes": 3925,
      "▁gal": 3926,
      "▁offe": 3927,
      "▁whom": 3928,
      "▁stock": 3929,
      "▁rat": 3930,
      "▁worst": 3931,
      "▁twa": 3932,
      "▁acqu": 3933,
      "##...": 3934,
      "▁chem": 3935,
      "▁surface": 3936,
      "▁format": 3937,
      "▁revolution": 3938,
      "▁learned": 3939,
      "▁laws": 3940,
      "▁terrible": 3941,
      "▁creative": 3942,
      "▁scientology": 3943,
      "▁russia": 3944,
      "▁manager": 3945,
      "▁character": 3946,
      "▁intelligence": 3947,
      "▁corner": 3948,
      "▁mexico": 3949,
      "▁management": 3950,
      "##.html": 3951,
      "▁welcome": 3952,
      "▁weapons": 3953,
      "▁mathemat": 3954,
      "▁burbank": 3955,
      "##da": 3956,
      "##hy": 3957,
      "##bby": 3958,
      "##-f": 3959,
      "##46": 3960,
      "##inary": 3961,
      "▁bord": 3962,
      "▁master": 3963,
      "▁dance": 3964,
      "▁pink": 3965,
      "▁toward": 3966,
      "▁hun": 3967,
      "##itation": 3968,
      "##icing": 3969,
      "##ctions": 3970,
      "▁lie": 3971,
      "▁traff": 3972,
      "##iel": 3973,
      "##ques": 3974,
      "▁teeth": 3975,
      "▁fellow": 3976,
      "▁sport": 3977,
      "▁spell": 3978,
      "▁balance": 3979,
      "▁remind": 3980,
      "##uction": 3981,
      "▁attract": 3982,
      "▁required": 3983,
      "▁located": 3984,
      "▁swim": 3985,
      "▁confident": 3986,
      "▁demand": 3987,
      "▁unique": 3988,
      "▁film": 3989,
      "▁increased": 3990,
      "▁loud": 3991,
      "▁sounds": 3992,
      "▁organization": 3993,
      "▁initi": 3994,
      "▁activity": 3995,
      "▁likes": 3996,
      "▁constitution": 3997,
      "▁bulld": 3998,
      "▁husband": 3999,
      "▁hospital": 4000,
      "▁resources": 4001,
      "▁agreed": 4002,
      "##ai": 4003,
      "##ault": 4004,
      "##ox": 4005,
      "##rs": 4006,
      "##tte": 4007,
      "##10": 4008,
      "##-8": 4009,
      "##37": 4010,
      "▁bang": 4011,
      "▁mal": 4012,
      "▁dust": 4013,
      "▁psy": 4014,
      "▁lines": 4015,
      "▁e-m": 4016,
      "##rog": 4017,
      "##aches": 4018,
      "##amental": 4019,
      "▁mel": 4020,
      "▁flor": 4021,
      "▁dey": 4022,
      "▁chines": 4023,
      "▁pros": 4024,
      "##ivity": 4025,
      "▁uncle": 4026,
      "▁pean": 4027,
      "▁agric": 4028,
      "▁spoke": 4029,
      "▁workers": 4030,
      "▁boys": 4031,
      "▁content": 4032,
      "▁buck": 4033,
      "▁crack": 4034,
      "▁smart": 4035,
      "▁caused": 4036,
      "▁’re": 4037,
      "▁40": 4038,
      "▁avoid": 4039,
      "▁differences": 4040,
      "▁elev": 4041,
      "▁ended": 4042,
      "▁produc": 4043,
      "▁01": 4044,
      "▁03": 4045,
      "▁smaller": 4046,
      "▁mrs": 4047,
      "▁extra": 4048,
      "▁insur": 4049,
      "##bruary": 4050,
      "▁cell": 4051,
      "▁appeared": 4052,
      "▁drinking": 4053,
      "▁elections": 4054,
      "▁circle": 4055,
      "▁occas": 4056,
      "▁auster": 4057,
      "##================": 4058,
      "▁palest": 4059,
      "##________________": 4060,
      "▁normal": 4061,
      "▁sexual": 4062,
      "▁unfortun": 4063,
      "▁independent": 4064,
      "##ozer": 4065,
      "▁vacation": 4066,
      "▁thousands": 4067,
      "▁afghanistan": 4068,
      "▁sophie": 4069,
      "▁spirit": 4070,
      "▁cooper": 4071,
      "▁bulldozer": 4072,
      "▁chinese": 4073,
      "▁agricult": 4074,
      "##uit": 4075,
      "##iar": 4076,
      "##wh": 4077,
      "##15": 4078,
      "##rel": 4079,
      "▁fol": 4080,
      "▁cart": 4081,
      "##era": 4082,
      "▁du": 4083,
      "▁towards": 4084,
      "▁thom": 4085,
      "##oration": 4086,
      "▁gree": 4087,
      "##stairs": 4088,
      "▁stuck": 4089,
      "▁row": 4090,
      "▁flat": 4091,
      "▁truth": 4092,
      "▁exte": 4093,
      "▁lee": 4094,
      "▁vo": 4095
    }
  }
}