{
  "version": "1.0",
  "truncation": null,
  "padding": null,
  "added_tokens": [
    {
      "id": 0,
      "content": "[UNK]",
      "single_word": false,
      "lstrip": false,
      "rstrip": false,
      "normalized": false,
      "special": true
    },
    {
      "id": 1,
      "content": "[PAD]",
      "single_word": false,
      "lstrip": false,
      "rstrip": false,
      "normalized": false,
      "special": true
    },
    {
      "id": 2,
      "content": "[CLS]",
      "single_word": false,
      "lstrip": false,
      "rstrip": false,
      "normalized": false,
      "special": true
    },
    {
      "id": 3,
      "content": "[SEP]",
      "single_word": false,
      "lstrip": false,
      "rstrip": false,
      "normalized": false,
      "special": true
    },
    {
      "id": 4,
      "content": "[MASK]",
      "single_word": false,
      "lstrip": false,
      "rstrip": false,
      "normalized": false,
      "special": true
    }
  ],
  "normalizer": {
    "type": "Sequence",
    "normalizers": [
      {
        "type": "NFD"
      },
      {
        "type": "Lowercase"
      },
      {
        "type": "StripAccents"
      }
    ]
  },
  "pre_tokenizer": {
    "type": "Sequence",
    "pretokenizers": [
      {
        "type": "Metaspace",
        "replacement": "▁",
        "prepend_scheme": "always",
        "split": true
      }
    ]
  },
  "post_processor": {
    "type": "TemplateProcessing",
    "single": [
      {
        "SpecialToken": {
          "id": "[CLS]",
          "type_id": 0
        }
      },
      {
        "Sequence": {
          "id": "A",
          "type_id": 0
        }
      },
      {
        "SpecialToken": {
          "id": "[SEP]",
          "type_id": 0
        }
      }
    ],
    "pair": [
      {
        "SpecialToken": {
          "id": "[CLS]",
          "type_id": 0
        }
      },
      {
        "Sequence": {
          "id": "A",
          "type_id": 0
        }
      },
      {
        "SpecialToken": {
          "id": "[SEP]",
          "type_id": 0
        }
      },
      {
        "Sequence": {
          "id": "B",
          "type_id": 1
        }
      },
      {
        "SpecialToken": {
          "id": "[SEP]",
          "type_id": 1
        }
      }
    ],
    "special_tokens": {
      "[CLS]": {
        "id": "[CLS]",
        "ids": [
          2
        ],
        "tokens": [
          "[CLS]"
        ]
      },
      "[SEP]": {
        "id": "[SEP]",
        "ids": [
          3
        ],
        "tokens": [
          "[SEP]"
        ]
      }
    }
  },
  "decoder": {
    "type": "Metaspace",
    "replacement": "▁",
    "prepend_scheme": "always",
    "split": true
  },
  "model": {
    "type": "Unigram",
    "unk_id": 0,
    "vocab": [
      [
        "[UNK]",
        0.0
      ],
      [
        "[PAD]",
        0.0
      ],
      [
        "[CLS]",
        0.0
      ],
      [
        "[SEP]",
        0.0
      ],
      [
        "[MASK]",
        0.0
      ],
      [
        "▁",
        -2.0466397831729566
      ],
      [
        ".",
        -3.1764547846689393
      ],
      [
        "s",
        -3.393800317546834
      ],
      [
        "▁the",
        -3.5046991171242006
      ],
      [
        ",",
        -3.7636551365621784
      ],
      [
        "▁to",
        -4.000949922980741
      ],
      [
        "▁and",
        -4.195075613356845
      ],
      [
        "▁a",
        -4.322746048335965
      ],
      [
        "_",
        -4.364378893076225
      ],
      [
        "▁of",
        -4.417016934025112
      ],
      [
        "▁i",
        -4.436121206357225
      ],
      [
        "ing",
        -4.541582479678889
      ],
      [
        "▁in",
        -4.575396389564059
      ],
      [
        "d",
        -4.585510865741149
      ],
      [
        "▁you",
        -4.603834800890114
      ],
      [
        "y",
        -4.780165449110365
      ],
      [
        "▁it",
        -4.790387463324418
      ],
      [
        "?",
        -4.793029703447145
      ],
      [
        "▁that",
        -4.798317973067215
      ],
      [
        "ed",
        -4.84920044677486
      ],
      [
        "▁is",
        -5.036757641731867
      ],
      [
        "▁'s",
        -5.074255149827065
      ],
      [
        "a",
        -5.172632206996587
      ],
      [
        "e",
        -5.280408709848617
      ],
      [
        "▁from",
        -5.287600493595626
      ],
      [
        "▁on",
        -5.303075572960955
      ],
      [
        "▁for",
        -5.309116410365197
      ],
      [
        "▁do",
        -5.336417587670697
      ],
      [
        "ly",
        -5.3760669441415185
      ],
      [
        "t",
        -5.413612041919258
      ],
      [
        "▁what",
        -5.422714375419279
      ],
      [
        "▁be",
        -5.456325690073362
      ],
      [
        "▁this",
        -5.515212389031062
      ],
      [
        "▁was",
        -5.519964960039864
      ],
      [
        "▁with",
        -5.5527354279716565
      ],
      [
        "▁he",
        -5.578902355350586
      ],
      [
        "▁are",
        -5.6705858234113595
      ],
      [
        "▁have",
        -5.675675957271217
      ],
      [
        "▁we",
        -5.678587470636732
      ],
      [
        "n't",
        -5.6874943457519045
      ],
      [
        "'",
        -5.697912372187059
      ],
      [
        "▁flight",
        -5.771230885872226
      ],
      [
        "▁me",
        -5.805475790355789
      ],
      [
        "i",
        -5.822626604763087
      ],
      [
        "▁not",
        -5.82904191647658
      ],
      [
        "h",
        -5.837096947183403
      ],
      [
        "▁my",
        -5.851205457211494
      ],
      [
        "n",
        -5.880248800027786
      ],
      [
        "▁like",
        -5.901971189245533
      ],
      [
        "\"",
        -5.934748378758227
      ],
      [
        "▁go",
        -5.964849592083606
      ],
      [
        "▁there",
        -5.993772279200258
      ],
      [
        "▁they",
        -6.013626547248744
      ],
      [
        "▁at",
        -6.026738939546832
      ],
      [
        "▁but",
        -6.044928882866895
      ],
      [
        "▁as",
        -6.045190908591262
      ],
      [
        "▁can",
        -6.057812807186719
      ],
      [
        "▁all",
        -6.083531731148366
      ],
      [
        "▁-",
        -6.088418376470523
      ],
      [
        "o",
        -6.099435172105689
      ],
      [
        "▁one",
        -6.10836009451252
      ],
      [
        "m",
        -6.141736085800368
      ],
      [
        "▁your",
        -6.154752372465254
      ],
      [
        "▁so",
        -6.190443623465539
      ],
      [
        "▁no",
        -6.20249800470745
      ],
      [
        "▁or",
        -6.207743027543746
      ],
      [
        "▁by",
        -6.2920542918388795
      ],
      [
        "▁his",
        -6.299969808460437
      ],
      [
        ")",
        -6.344521074308625
      ],
      [
        "▁get",
        -6.413956927486892
      ],
      [
        "▁will",
        -6.423128530889782
      ],
      [
        "▁had",
        -6.430262981440578
      ],
      [
        "▁woul",
        -6.441062479121444
      ],
      [
        "▁if",
        -6.4593144939377725
      ],
      [
        "▁want",
        -6.466565961680171
      ],
      [
        "▁did",
        -6.479952288207028
      ],
      [
        "▁(",
        -6.489062899109636
      ],
      [
        "on",
        -6.490276733689722
      ],
      [
        "▁up",
        -6.5046323283741705
      ],
      [
        "▁some",
        -6.505007785415162
      ],
      [
        "▁an",
        -6.51708758245587
      ],
      [
        "▁she",
        -6.522350420621746
      ],
      [
        "▁know",
        -6.530136735429031
      ],
      [
        "▁how",
        -6.531298795116665
      ],
      [
        "▁see",
        -6.565974373121192
      ],
      [
        "▁out",
        -6.602424756383197
      ],
      [
        "▁when",
        -6.634914779375888
      ],
      [
        "▁!",
        -6.6406255002269745
      ],
      [
        "▁just",
        -6.647044629713283
      ],
      [
        "▁about",
        -6.651854976910555
      ],
      [
        "▁has",
        -6.659617431850627
      ],
      [
        "▁show",
        -6.70374900768335
      ],
      [
        "▁any",
        -6.72007808947104
      ],
      [
        "▁here",
        -6.720339420845866
      ],
      [
        "▁which",
        -6.7345373321885145
      ],
      [
        "▁were",
        -6.735370223980282
      ],
      [
        "▁who",
        -6.744742133105832
      ],
      [
        "▁look",
        -6.767181933757327
      ],
      [
        "▁na",
        -6.768452163045745
      ],
      [
        "r",
        -6.770780120233995
      ],
      [
        "▁now",
        -6.777978103685122
      ],
      [
        "▁c",
        -6.813132137666706
      ],
      [
        "▁her",
        -6.815038845914752
      ],
      [
        "▁them",
        -6.825890605967613
      ],
      [
        "▁:",
        -6.8356263352663404
      ],
      [
        "▁more",
        -6.841887101628783
      ],
      [
        "▁time",
        -6.858419524296417
      ],
      [
        "'re",
        -6.867019542382627
      ],
      [
        "▁him",
        -6.870536514777911
      ],
      [
        "▁other",
        -6.875504288244098
      ],
      [
        "▁new",
        -6.876450590112695
      ],
      [
        "▁where",
        -6.877968780924811
      ],
      [
        "es",
        -6.880013315540631
      ],
      [
        "cause",
        -6.88954998076094
      ],
      [
        "▁their",
        -6.905705495532723
      ],
      [
        "▁think",
        -6.913753618501012
      ],
      [
        "▁us",
        -6.943034006369044
      ],
      [
        "▁make",
        -6.95219141568748
      ],
      [
        "▁need",
        -6.957842413121
      ],
      [
        "▁de",
        -6.958771529302884
      ],
      [
        "▁been",
        -6.969885573392915
      ],
      [
        "▁bo",
        -6.974534521671927
      ],
      [
        "▁two",
        -6.992783966756979
      ],
      [
        "▁put",
        -7.0009733941077394
      ],
      [
        "al",
        -7.001284639615566
      ],
      [
        "er",
        -7.006817303694722
      ],
      [
        "▁san",
        -7.0119912714187596
      ],
      [
        "▁oh",
        -7.017309436252782
      ],
      [
        "ies",
        -7.02125907053078
      ],
      [
        "▁very",
        -7.022414044157135
      ],
      [
        "▁good",
        -7.031018540322675
      ],
      [
        "▁right",
        -7.035367275030528
      ],
      [
        "▁first",
        -7.0399638154236
      ],
      [
        "ston",
        -7.048951926644599
      ],
      [
        "ould",
        -7.07347157161207
      ],
      [
        "-",
        -7.075052996303213
      ],
      [
        "▁over",
        -7.107334540522351
      ],
      [
        "▁take",
        -7.110246659040465
      ],
      [
        "▁people",
        -7.112734944700832
      ],
      [
        "▁our",
        -7.118677120917587
      ],
      [
        "▁well",
        -7.121282078994354
      ],
      [
        "▁may",
        -7.139420696748727
      ],
      [
        "▁after",
        -7.15672589791988
      ],
      [
        "ll",
        -7.159422764198054
      ],
      [
        "▁got",
        -7.162247882375621
      ],
      [
        "▁back",
        -7.169488373264436
      ],
      [
        "▁down",
        -7.175082281540296
      ],
      [
        "▁say",
        -7.175472533684431
      ],
      [
        "▁way",
        -7.188289240852231
      ],
      [
        "▁yea",
        -7.192910988698572
      ],
      [
        "ve",
        -7.2059253075594185
      ],
      [
        "▁sai",
        -7.210264450252219
      ],
      [
        "▁into",
        -7.2186689190271505
      ],
      [
        "▁real",
        -7.2342979206353
      ],
      [
        "▁these",
        -7.240161047499182
      ],
      [
        "▁day",
        -7.246192434290967
      ],
      [
        "▁francisco",
        -7.254081082397694
      ],
      [
        "▁come",
        -7.280076821667235
      ],
      [
        "▁work",
        -7.283838330371072
      ],
      [
        "▁please",
        -7.290524663606276
      ],
      [
        "▁let",
        -7.308691543148911
      ],
      [
        "l",
        -7.309967517645031
      ],
      [
        "it",
        -7.314189152521193
      ],
      [
        "▁every",
        -7.322112498097938
      ],
      [
        "als",
        -7.32816177220298
      ],
      [
        "▁only",
        -7.336586398162422
      ],
      [
        "▁al",
        -7.340889200569236
      ],
      [
        "thing",
        -7.349098982555431
      ],
      [
        "▁should",
        -7.354143558196921
      ],
      [
        "one",
        -7.364763409183513
      ],
      [
        "f",
        -7.373759716514292
      ],
      [
        "▁too",
        -7.375516782005614
      ],
      [
        "nver",
        -7.380066788344019
      ],
      [
        "▁doe",
        -7.389174511825633
      ],
      [
        "▁list",
        -7.394317875393269
      ],
      [
        "and",
        -7.400230271411285
      ],
      [
        "▁again",
        -7.404808176333733
      ],
      [
        "▁bet",
        -7.404858284688683
      ],
      [
        "▁oka",
        -7.409256148430961
      ],
      [
        "▁am",
        -7.409590285432419
      ],
      [
        "▁before",
        -7.41292260534787
      ],
      [
        "ween",
        -7.419923720135454
      ],
      [
        "▁play",
        -7.421064630067379
      ],
      [
        "more",
        -7.427051184039416
      ],
      [
        "round",
        -7.4411649865460605
      ],
      [
        "▁atlant",
        -7.441671626675924
      ],
      [
        "▁than",
        -7.447351955417244
      ],
      [
        "▁give",
        -7.460558368962877
      ],
      [
        "sburg",
        -7.461200928839681
      ],
      [
        "▁mommy",
        -7.462231471807072
      ],
      [
        "able",
        -7.476878579743792
      ],
      [
        "▁off",
        -7.485147573080128
      ],
      [
        "▁little",
        -7.486872568307649
      ],
      [
        "▁thing",
        -7.489812394626024
      ],
      [
        "▁wan",
        -7.494930554781592
      ],
      [
        "▁long",
        -7.50686958004778
      ],
      [
        "▁many",
        -7.516263228698276
      ],
      [
        "▁;",
        -7.516743289199641
      ],
      [
        "is",
        -7.522656941139762
      ],
      [
        "▁use",
        -7.536092816640505
      ],
      [
        "▁call",
        -7.537440396094195
      ],
      [
        "▁even",
        -7.541131686698702
      ],
      [
        "▁gon",
        -7.552231344945793
      ],
      [
        "▁pitt",
        -7.5632264355728305
      ],
      [
        "▁place",
        -7.5753363153167745
      ],
      [
        "▁great",
        -7.576623932608072
      ],
      [
        "allas",
        -7.576817096170867
      ],
      [
        "▁’",
        -7.577419151600313
      ],
      [
        "▁why",
        -7.582596842558594
      ],
      [
        "▁find",
        -7.583191004924745
      ],
      [
        "▁car",
        -7.604665774412332
      ],
      [
        "▁muc",
        -7.606065658631377
      ],
      [
        "▁something",
        -7.634409423821542
      ],
      [
        "▁ta",
        -7.635453280510745
      ],
      [
        "c",
        -7.637085993994378
      ],
      [
        "▁–",
        -7.637399494934149
      ],
      [
        "▁tell",
        -7.642380203100914
      ],
      [
        "self",
        -7.648061498250024
      ],
      [
        "▁year",
        -7.655958593312317
      ],
      [
        "▁mean",
        -7.657406705918512
      ],
      [
        "ce",
        -7.658746806745681
      ],
      [
        "▁help",
        -7.662314590511187
      ],
      [
        "in",
        -7.665175598395717
      ],
      [
        "▁ca",
        -7.684889780376123
      ],
      [
        "ation",
        -7.695501808524256
      ],
      [
        "▁big",
        -7.69953101669208
      ],
      [
        "▁airline",
        -7.708613341265261
      ],
      [
        "▁morning",
        -7.710308969515753
      ],
      [
        "▁phil",
        -7.714026434052486
      ],
      [
        "▁name",
        -7.714036054728605
      ],
      [
        "▁state",
        -7.7219255608693675
      ],
      [
        "▁city",
        -7.730701060238666
      ],
      [
        "▁balti",
        -7.740594794199454
      ],
      [
        "▁try",
        -7.745267030278206
      ],
      [
        "adelphi",
        -7.746613037969317
      ],
      [
        "▁eat",
        -7.76550038621045
      ],
      [
        "ever",
        -7.770739872947738
      ],
      [
        "▁um",
        -7.774386724132928
      ],
      [
        "▁last",
        -7.774896342981729
      ],
      [
        "▁most",
        -7.782450473873417
      ],
      [
        "▁another",
        -7.785634290706519
      ],
      [
        "▁home",
        -7.786517985846989
      ],
      [
        "▁pm",
        -7.788746847868326
      ],
      [
        "▁through",
        -7.79601562117741
      ],
      [
        "▁made",
        -7.804359698095517
      ],
      [
        "/",
        -7.817646442902489
      ],
      [
        "]",
        -7.828419606671336
      ],
      [
        "▁world",
        -7.831044244954307
      ],
      [
        "th",
        -7.83258355564354
      ],
      [
        "k",
        -7.839669828861388
      ],
      [
        "▁still",
        -7.847370908715749
      ],
      [
        "us",
        -7.848845191098926
      ],
      [
        "▁american",
        -7.852248400228804
      ],
      [
        "—",
        -7.852757081140936
      ],
      [
        "▁talk",
        -7.860741734483217
      ],
      [
        "le",
        -7.86319776172592
      ],
      [
        "w",
        -7.874808607509195
      ],
      [
        "▁leave",
        -7.876126318554675
      ],
      [
        "▁kind",
        -7.877372658549121
      ],
      [
        "▁part",
        -7.884275828175169
      ],
      [
        "▁...",
        -7.885190258598476
      ],
      [
        "▁dadd",
        -7.88520616811654
      ],
      [
        "▁number",
        -7.902843978013092
      ],
      [
        "ity",
        -7.905430828394263
      ],
      [
        "▁[",
        -7.9187194350366745
      ],
      [
        "▁yes",
        -7.920857671087446
      ],
      [
        "▁under",
        -7.922806115107232
      ],
      [
        "today",
        -7.926354604454419
      ],
      [
        "▁b",
        -7.936311222889923
      ],
      [
        "▁house",
        -7.936778711711943
      ],
      [
        "▁start",
        -7.937367920262901
      ],
      [
        "▁read",
        -7.94176946906576
      ],
      [
        "▁school",
        -7.946609857603958
      ],
      [
        "washington",
        -7.946644058875148
      ],
      [
        "▁fare",
        -7.972119733737106
      ],
      [
        "▁un",
        -7.979492651409206
      ],
      [
        "▁food",
        -7.9827011325276604
      ],
      [
        "▁best",
        -7.9859418716555695
      ],
      [
        "▁went",
        -7.993318527729759
      ],
      [
        "u",
        -7.99381445520173
      ],
      [
        "▁fly",
        -7.994130866549617
      ],
      [
        "uch",
        -7.999559015909617
      ],
      [
        "out",
        -8.001612386135864
      ],
      [
        "▁ask",
        -8.005398957598853
      ],
      [
        "▁whil",
        -8.007895572600855
      ],
      [
        "be",
        -8.012887513664989
      ],
      [
        "▁book",
        -8.014157366853585
      ],
      [
        "▁man",
        -8.021647686887992
      ],
      [
        "hose",
        -8.024438912522088
      ],
      [
        "▁three",
        -8.026422028415023
      ],
      [
        "▁high",
        -8.03234478219452
      ],
      [
        "▁sam",
        -8.034352164052535
      ],
      [
        "▁leav",
        -8.04238548013112
      ],
      [
        "▁love",
        -8.043182462612727
      ],
      [
        "▁service",
        -8.05806239787039
      ],
      [
        "▁never",
        -8.061843209366526
      ],
      [
        "▁lot",
        -8.062715162741409
      ],
      [
        "▁its",
        -8.065015120753621
      ],
      [
        "▁2",
        -8.07166667261911
      ],
      [
        "▁--",
        -8.07953867198555
      ],
      [
        "▁united",
        -8.080332997788322
      ],
      [
        "▁air",
        -8.082212405827573
      ],
      [
        "information",
        -8.084205547865706
      ],
      [
        "▁uh",
        -8.089007643192755
      ],
      [
        "▁water",
        -8.091524614473089
      ],
      [
        "▁1",
        -8.093767725008494
      ],
      [
        "▁own",
        -8.10314498556271
      ],
      [
        "▁hear",
        -8.10641891444244
      ],
      [
        "▁night",
        -8.11255834052459
      ],
      [
        "years",
        -8.117459734376066
      ],
      [
        "▁open",
        -8.127520159773159
      ],
      [
        "▁class",
        -8.129576888703845
      ],
      [
        "▁life",
        -8.132498721273315
      ],
      [
        "▁room",
        -8.145374527907244
      ],
      [
        "▁week",
        -8.156588578244538
      ],
      [
        "▁being",
        -8.156987943434626
      ],
      [
        "or",
        -8.163610171752197
      ],
      [
        "▁baby",
        -8.181563067768518
      ],
      [
        "▁dat",
        -8.18465667499768
      ],
      [
        "▁away",
        -8.18737765901944
      ],
      [
        "▁$",
        -8.193099744129933
      ],
      [
        "▁old",
        -8.195534158777713
      ],
      [
        "▁keep",
        -8.195897290255502
      ],
      [
        "ld",
        -8.201056462360278
      ],
      [
        "▁per",
        -8.206959114869576
      ],
      [
        "▁else",
        -8.210631704494222
      ],
      [
        "▁sure",
        -8.213236303367236
      ],
      [
        "▁group",
        -8.219025472879087
      ],
      [
        "▁turn",
        -8.219882727384313
      ],
      [
        "▁end",
        -8.22002322975813
      ],
      [
        "▁alway",
        -8.222895568663088
      ],
      [
        "ment",
        -8.226364395169433
      ],
      [
        "”",
        -8.232246465402955
      ],
      [
        "▁thought",
        -8.238214188928957
      ],
      [
        "▁must",
        -8.238369682910895
      ],
      [
        "▁both",
        -8.239806267022656
      ],
      [
        "▁transport",
        -8.242116492920355
      ],
      [
        "▁change",
        -8.242330555913615
      ],
      [
        "est",
        -8.242938864677008
      ],
      [
        "▁small",
        -8.243356881553613
      ],
      [
        "▁large",
        -8.243788836865747
      ],
      [
        "▁“",
        -8.248116125864646
      ],
      [
        "▁wednesday",
        -8.248748475186417
      ],
      [
        "▁point",
        -8.251451781553067
      ],
      [
        "▁hand",
        -8.252813967333477
      ],
      [
        "▁better",
        -8.258951130957856
      ],
      [
        "▁haf",
        -8.266122469285026
      ],
      [
        "▁nice",
        -8.27060472117098
      ],
      [
        "▁different",
        -8.27188818414152
      ],
      [
        "ok",
        -8.273883544507534
      ],
      [
        "▁feel",
        -8.276095291900994
      ],
      [
        "▁trip",
        -8.279829783719446
      ],
      [
        "▁ground",
        -8.281089757816387
      ],
      [
        "www",
        -8.285550444319481
      ],
      [
        "ember",
        -8.28634751048731
      ],
      [
        "p",
        -8.28658566940404
      ],
      [
        "nex",
        -8.289667964599568
      ],
      [
        "▁month",
        -8.2941539744115
      ],
      [
        "▁few",
        -8.294236178919896
      ],
      [
        "each",
        -8.29965388603188
      ],
      [
        "▁might",
        -8.306990603669519
      ],
      [
        "▁seem",
        -8.310016150462765
      ],
      [
        "▁since",
        -8.313303715016161
      ],
      [
        "▁head",
        -8.318675440361757
      ],
      [
        "▁remember",
        -8.32119539054722
      ],
      [
        "▁thank",
        -8.322637857397641
      ],
      [
        "▁game",
        -8.327966893841488
      ],
      [
        "▁light",
        -8.338527335372902
      ],
      [
        "▁live",
        -8.340205700537314
      ],
      [
        "land",
        -8.344187021726846
      ],
      [
        "▁problem",
        -8.346557588181767
      ],
      [
        "▁york",
        -8.35762902253658
      ],
      [
        "▁walk",
        -8.36065579415341
      ],
      [
        "used",
        -8.364579008339643
      ],
      [
        "done",
        -8.365250698238423
      ],
      [
        "▁stop",
        -8.370455784657706
      ],
      [
        "body",
        -8.370874884285373
      ],
      [
        "ady",
        -8.376024336116913
      ],
      [
        "▁stay",
        -8.377546069250746
      ],
      [
        "▁came",
        -8.378775754236388
      ],
      [
        "▁hard",
        -8.37923482536226
      ],
      [
        "▁price",
        -8.379492076740382
      ],
      [
        "g",
        -8.379847914714134
      ],
      [
        "▁5",
        -8.380032960145973
      ],
      [
        "ally",
        -8.385776460684792
      ],
      [
        "at",
        -8.387523457917933
      ],
      [
        "▁3",
        -8.38774483617021
      ],
      [
        "▁watch",
        -8.388602316815621
      ],
      [
        "▁wait",
        -8.390970717804166
      ],
      [
        "▁dis",
        -8.39352193437189
      ],
      [
        "▁alre",
        -8.396519865146505
      ],
      [
        "▁second",
        -8.398168140017631
      ],
      [
        "▁found",
        -8.399462602351178
      ],
      [
        "▁roman",
        -8.406669619695608
      ],
      [
        "▁girl",
        -8.408491558830702
      ],
      [
        "ness",
        -8.410586128466512
      ],
      [
        "▁actual",
        -8.41178322060627
      ],
      [
        "▁far",
        -8.4131001639881
      ],
      [
        "▁line",
        -8.415280038197533
      ],
      [
        "▁close",
        -8.41562930248504
      ],
      [
        "ary",
        -8.419434602193343
      ],
      [
        "▁order",
        -8.42113371894569
      ],
      [
        "▁though",
        -8.421968206810803
      ],
      [
        "1",
        -8.42516225935358
      ],
      [
        "’",
        -8.428861333361029
      ],
      [
        "▁eye",
        -8.429825990764737
      ],
      [
        "▁wo",
        -8.43272116575956
      ],
      [
        "▁guy",
        -8.433897300003446
      ],
      [
        "▁base",
        -8.435236238141773
      ],
      [
        "▁happen",
        -8.436373737133021
      ],
      [
        "▁famil",
        -8.437684708668623
      ],
      [
        "thos",
        -8.440934942507432
      ],
      [
        "▁10",
        -8.442494768574914
      ],
      [
        "▁president",
        -8.446258220688499
      ],
      [
        "an",
        -8.450823409861378
      ],
      [
        "▁bush",
        -8.451943993177998
      ],
      [
        "▁adam",
        -8.453143294421725
      ],
      [
        "▁availab",
        -8.4598172384536
      ],
      [
        "▁bad",
        -8.462166623755579
      ],
      [
        "less",
        -8.465912099574219
      ],
      [
        "▁data",
        -8.468323185395452
      ],
      [
        "▁thanks",
        -8.47228455600941
      ],
      [
        "▁dog",
        -8.482944032532826
      ],
      [
        "▁mr",
        -8.486533838376058
      ],
      [
        "ting",
        -8.487492999035098
      ],
      [
        "▁set",
        -8.487957221301786
      ],
      [
        "later",
        -8.48885494033238
      ],
      [
        "▁area",
        -8.489335319099505
      ],
      [
        "▁afternoon",
        -8.489767289474507
      ],
      [
        "3",
        -8.495209623083523
      ],
      [
        "4",
        -8.497184973440627
      ],
      [
        "▁train",
        -8.498774347145103
      ],
      [
        "ver",
        -8.500109882435762
      ],
      [
        "x",
        -8.502571046098783
      ],
      [
        "▁provide",
        -8.507229351316056
      ],
      [
        "▁person",
        -8.514508726103333
      ],
      [
        "▁paper",
        -8.51612503119236
      ],
      [
        "▁mak",
        -8.518715104049061
      ],
      [
        "▁case",
        -8.52401398556128
      ],
      [
        "▁four",
        -8.526808266544046
      ],
      [
        "▁move",
        -8.528027737960205
      ],
      [
        "▁interest",
        -8.529972823902378
      ],
      [
        "▁laura",
        -8.531459633094036
      ],
      [
        "st.",
        -8.535817058810505
      ],
      [
        "▁milk",
        -8.536268241660707
      ],
      [
        "▁early",
        -8.536431212628862
      ],
      [
        "▁left",
        -8.53782678256226
      ],
      [
        "▁saw",
        -8.53886646042428
      ],
      [
        "▁business",
        -8.540329946057792
      ],
      [
        "▁government",
        -8.540341689474552
      ],
      [
        "▁minute",
        -8.541795566412251
      ],
      [
        "v",
        -8.544279474598653
      ],
      [
        "▁arriv",
        -8.544589292582774
      ],
      [
        "▁airport",
        -8.5493338047631
      ],
      [
        "▁oakl",
        -8.549734695862028
      ],
      [
        "▁war",
        -8.54991738832188
      ],
      [
        "▁office",
        -8.554712071928808
      ],
      [
        "▁4",
        -8.555502779056884
      ],
      [
        "▁los",
        -8.55644671076043
      ],
      [
        "▁possibl",
        -8.558786535128942
      ],
      [
        "▁face",
        -8.559788333256583
      ],
      [
        "▁earlie",
        -8.564262518148443
      ],
      [
        "▁monday",
        -8.567418112506344
      ],
      [
        "▁write",
        -8.569027857274385
      ],
      [
        "ether",
        -8.570255537620827
      ],
      [
        "▁dur",
        -8.573033858755394
      ],
      [
        "▁experience",
        -8.573532826957468
      ],
      [
        "▁mother",
        -8.574516733789753
      ],
      [
        "▁w",
        -8.579767854307246
      ],
      [
        "▁mom",
        -8.581820179939214
      ],
      [
        "▁five",
        -8.584954809794231
      ],
      [
        "▁probabl",
        -8.585500746306764
      ],
      [
        "▁thursday",
        -8.585886254959616
      ],
      [
        "▁believe",
        -8.586651888030632
      ],
      [
        "ive",
        -8.587377422015706
      ],
      [
        "▁form",
        -8.58745569655271
      ],
      [
        "uh",
        -8.587833302135742
      ],
      [
        "man",
        -8.58945255737626
      ],
      [
        "▁arrive",
        -8.59143805858041
      ],
      [
        "▁full",
        -8.599278203230307
      ],
      [
        "▁leas",
        -8.599583277155762
      ],
      [
        "▁example",
        -8.599971024597544
      ],
      [
        "once",
        -8.602055690481643
      ],
      [
        "▁money",
        -8.604737382301447
      ],
      [
        "▁bit",
        -8.604972012505016
      ],
      [
        "▁hey",
        -8.60818878988339
      ],
      [
        "▁country",
        -8.610260889929094
      ],
      [
        "▁friend",
        -8.613273850831478
      ],
      [
        "▁prett",
        -8.617354959277023
      ],
      [
        "▁red",
        -8.618956611025503
      ],
      [
        "▁fall",
        -8.61904009723887
      ],
      [
        "▁cost",
        -8.619126061360648
      ],
      [
        "▁buy",
        -8.624455387262568
      ],
      [
        "ough",
        -8.62594018178286
      ],
      [
        "▁hope",
        -8.632097127575523
      ],
      [
        "b",
        -8.633075776839153
      ],
      [
        "▁learn",
        -8.636679837188174
      ],
      [
        "2",
        -8.637073103313854
      ],
      [
        "▁grow",
        -8.637553323713533
      ],
      [
        "5",
        -8.637560549336385
      ],
      [
        "▁20",
        -8.641060278474495
      ],
      [
        "▁return",
        -8.64245552935911
      ],
      [
        "where",
        -8.651422300678917
      ],
      [
        "▁den",
        -8.653456277216968
      ],
      [
        "▁father",
        -8.65367054697591
      ],
      [
        "▁until",
        -8.6544573871554
      ],
      [
        "▁white",
        -8.655854056889712
      ],
      [
        "▁job",
        -8.65887969060723
      ],
      [
        "▁question",
        -8.660027573547753
      ],
      [
        "0",
        -8.660986401086836
      ],
      [
        "▁sit",
        -8.66291472721624
      ],
      [
        "▁piece",
        -8.663579984396883
      ],
      [
        "▁re",
        -8.663730201741041
      ],
      [
        "▁en",
        -8.664326747368987
      ],
      [
        "ion",
        -8.66599501983152
      ],
      [
        "▁bring",
        -8.66606711856404
      ],
      [
        "▁system",
        -8.667844623743193
      ],
      [
        "▁fact",
        -8.669556365636456
      ],
      [
        "having",
        -8.67066064193705
      ],
      [
        "▁access",
        -8.67168405114855
      ],
      [
        "▁public",
        -8.678164399013724
      ],
      [
        "▁tuesday",
        -8.678636044919156
      ],
      [
        "▁hair",
        -8.680510761091345
      ],
      [
        "ful",
        -8.680817049585501
      ],
      [
        "▁whole",
        -8.681179784962284
      ],
      [
        "yet",
        -8.681292260803389
      ],
      [
        "▁language",
        -8.681542822786597
      ],
      [
        "▁6",
        -8.68189645856843
      ],
      [
        "▁free",
        -8.683744772921118
      ],
      [
        "um",
        -8.684622483109518
      ],
      [
        "▁report",
        -8.68891282624185
      ],
      [
        "▁round",
        -8.689368354037061
      ],
      [
        "▁type",
        -8.689934073523464
      ],
      [
        "▁field",
        -8.697391985735653
      ],
      [
        "▁course",
        -8.701903435836378
      ],
      [
        "▁color",
        -8.705867320842735
      ],
      [
        "▁near",
        -8.709147105959454
      ],
      [
        "ance",
        -8.710010699044187
      ],
      [
        "▁mil",
        -8.711735323815097
      ],
      [
        "▁file",
        -8.714899736379484
      ],
      [
        "▁twenty",
        -8.716731673377407
      ],
      [
        "▁boy",
        -8.716865264351515
      ],
      [
        "most",
        -8.71881047546703
      ],
      [
        "▁outside",
        -8.719190612883306
      ],
      [
        "▁clean",
        -8.720121419402588
      ],
      [
        "▁add",
        -8.729363032545733
      ],
      [
        "▁black",
        -8.729402442751258
      ],
      [
        "▁friday",
        -8.731145713897448
      ],
      [
        "▁dere",
        -8.734528977191971
      ],
      [
        "▁important",
        -8.73531364864905
      ],
      [
        "▁view",
        -8.736482965198183
      ],
      [
        "▁south",
        -8.737619282877567
      ],
      [
        "▁general",
        -8.738866049622326
      ],
      [
        "▁sunday",
        -8.742088136282153
      ],
      [
        "▁page",
        -8.742355022110585
      ],
      [
        "▁result",
        -8.743351030743096
      ],
      [
        "re",
        -8.744193455893392
      ],
      [
        "▁harr",
        -8.745589858581937
      ],
      [
        "▁hit",
        -8.746275410418352
      ],
      [
        "cy",
        -8.747352882879774
      ],
      [
        "▁201",
        -8.74939802549935
      ],
      [
        "▁store",
        -8.749893809069123
      ],
      [
        "▁cheape",
        -8.75666016647537
      ],
      [
        "▁children",
        -8.758916913273438
      ],
      [
        "▁friends",
        -8.760012275899472
      ],
      [
        "▁j",
        -8.760204573722223
      ],
      [
        "▁support",
        -8.760808324634118
      ],
      [
        "▁paul",
        -8.761224298181535
      ],
      [
        "cross",
        -8.761246878656522
      ],
      [
        "ither",
        -8.762388203022791
      ],
      [
        "en",
        -8.763840214735044
      ],
      [
        "▁drink",
        -8.764022727131927
      ],
      [
        "kee",
        -8.764596337051964
      ],
      [
        "▁draw",
        -8.769155139296723
      ],
      [
        "▁serve",
        -8.76987770945172
      ],
      [
        "▁six",
        -8.770613827705333
      ],
      [
        "ago",
        -8.773087518297544
      ],
      [
        "▁hi",
        -8.77511982702849
      ],
      [
        "▁process",
        -8.775151694118204
      ],
      [
        "▁saturday",
        -8.775224760012286
      ],
      [
        "▁study",
        -8.775231081577253
      ],
      [
        "▁reason",
        -8.776099823216263
      ],
      [
        "▁cut",
        -8.779717726398138
      ],
      [
        "right",
        -8.781291271674517
      ],
      [
        "▁dc",
        -8.784319361746295
      ],
      [
        "▁sometime",
        -8.787569494772795
      ],
      [
        "▁space",
        -8.788020673367777
      ],
      [
        "▁idea",
        -8.792270161240445
      ],
      [
        "▁national",
        -8.79269704457695
      ],
      [
        "taking",
        -8.794905113440386
      ],
      [
        "▁international",
        -8.798018103520665
      ],
      [
        "wau",
        -8.798152752776865
      ],
      [
        "(",
        -8.798183676181095
      ],
      [
        "▁human",
        -8.798307842755639
      ],
      [
        "▁horse",
        -8.798397314849126
      ],
      [
        "▁present",
        -8.802070817764111
      ],
      [
        "▁particular",
        -8.803803019840872
      ],
      [
        "aid",
        -8.805133460663253
      ],
      [
        "age",
        -8.810678494577873
      ],
      [
        "▁coming",
        -8.813569344598184
      ],
      [
        "▁power",
        -8.814038244452034
      ],
      [
        "▁sea",
        -8.815696473635187
      ],
      [
        "ous",
        -8.817880309100921
      ],
      [
        "polis",
        -8.820783644893076
      ],
      [
        "▁salt",
        -8.821780303433366
      ],
      [
        "ther",
        -8.828315238388136
      ],
      [
        "▁g",
        -8.828359947966323
      ],
      [
        "▁ball",
        -8.828401039595636
      ],
      [
        "▁top",
        -8.829845449994192
      ],
      [
        "▁street",
        -8.833212442932139
      ],
      [
        "▁clear",
        -8.835890299976057
      ],
      [
        "▁sever",
        -8.837878254231303
      ],
      [
        "▁certain",
        -8.840237375002914
      ],
      [
        "▁evening",
        -8.842178921082283
      ],
      [
        "▁pay",
        -8.842718064720657
      ],
      [
        "▁understand",
        -8.843766974382367
      ],
      [
        "▁north",
        -8.843827985467172
      ],
      [
        "▁worth",
        -8.847351126100882
      ],
      [
        "▁bear",
        -8.848059105156814
      ],
      [
        "▁die",
        -8.851318314798675
      ],
      [
        "▁jul",
        -8.854780479160112
      ],
      [
        "▁tog",
        -8.855157422119891
      ],
      [
        "▁pick",
        -8.856814511198657
      ],
      [
        "▁door",
        -8.858999764165741
      ],
      [
        "▁consider",
        -8.861102027634516
      ],
      [
        "▁sleep",
        -8.861658111967186
      ],
      [
        "▁company",
        -8.862065315616611
      ],
      [
        "orrow",
        -8.862837895083135
      ],
      [
        "▁7",
        -8.86708511359046
      ],
      [
        "▁final",
        -8.870124424097266
      ],
      [
        "▁char",
        -8.870136958689297
      ],
      [
        "▁regard",
        -8.870600981666243
      ],
      [
        "▁sept",
        -8.871750667187102
      ],
      [
        "▁hu",
        -8.872704161606144
      ],
      [
        "▁test",
        -8.873593898453109
      ],
      [
        "▁hold",
        -8.878948897985538
      ],
      [
        "▁mi",
        -8.879121292033604
      ],
      [
        "▁young",
        -8.882876333928253
      ],
      [
        "▁happ",
        -8.883362985278568
      ],
      [
        "▁quit",
        -8.885674117389744
      ],
      [
        "▁care",
        -8.888020312969177
      ],
      [
        "▁short",
        -8.889936526048647
      ],
      [
        "▁dinner",
        -8.889992677428456
      ],
      [
        "▁side",
        -8.890271813037437
      ],
      [
        "▁hot",
        -8.891186758438735
      ],
      [
        "▁project",
        -8.894589426925236
      ],
      [
        "nix",
        -8.896226477977311
      ],
      [
        "▁market",
        -8.89780955088722
      ],
      [
        "▁phone",
        -8.89832116127531
      ],
      [
        "▁letter",
        -8.898757791566709
      ],
      [
        "ers",
        -8.899373038518654
      ],
      [
        "▁&",
        -8.900298342082824
      ],
      [
        "▁become",
        -8.90114285402276
      ],
      [
        "to",
        -8.90261695047377
      ],
      [
        "▁follow",
        -8.903733520611635
      ],
      [
        "▁visit",
        -8.904772848170495
      ],
      [
        "▁includ",
        -8.90621517150699
      ],
      [
        "▁green",
        -8.906945775011046
      ],
      [
        "▁run",
        -8.906949927145883
      ],
      [
        "clock",
        -8.907847623122585
      ],
      [
        "▁200",
        -8.911065978621608
      ],
      [
        "▁check",
        -8.913957685027585
      ],
      [
        "▁phoe",
        -8.914328758664404
      ],
      [
        "though",
        -8.917501382068497
      ],
      [
        "▁ga",
        -8.917571888296164
      ],
      [
        "▁ye",
        -8.91969111397587
      ],
      [
        "▁deal",
        -8.919723442314009
      ],
      [
        "▁kid",
        -8.921136170756643
      ],
      [
        "▁times",
        -8.92333163537631
      ],
      [
        "▁force",
        -8.923868094694889
      ],
      [
        "houston",
        -8.927148645184301
      ],
      [
        "▁along",
        -8.928473690992021
      ],
      [
        "▁uhh",
        -8.928850093194903
      ],
      [
        "▁continue",
        -8.929146538958113
      ],
      [
        "▁issue",
        -8.930238542448148
      ],
      [
        "▁fish",
        -8.932630231856647
      ],
      [
        "▁shakespeare",
        -8.9336092501802
      ],
      [
        "▁enjoy",
        -8.935303224534803
      ],
      [
        "▁often",
        -8.935988839764619
      ],
      [
        "▁broke",
        -8.938695050813713
      ],
      [
        "'s",
        -8.93945006389924
      ],
      [
        "▁recent",
        -8.940250784017554
      ],
      [
        "▁12",
        -8.941692384339833
      ],
      [
        "ry",
        -8.942295689524308
      ],
      [
        "▁law",
        -8.942450578492029
      ],
      [
        "▁offer",
        -8.94595103328505
      ],
      [
        "▁ever",
        -8.947546329882371
      ],
      [
        "▁dollar",
        -8.950235043776491
      ],
      [
        "▁amount",
        -8.955147003457249
      ],
      [
        "▁travel",
        -8.955687285863162
      ],
      [
        "▁chic",
        -8.958684594417523
      ],
      [
        "▁recommend",
        -8.959921953046646
      ],
      [
        "▁sound",
        -8.960879504257813
      ],
      [
        "▁event",
        -8.962371530838029
      ],
      [
        "▁p",
        -8.962764834567487
      ],
      [
        "▁strong",
        -8.963228556351417
      ],
      [
        "▁mind",
        -8.96392797705588
      ],
      [
        "▁island",
        -8.96560558113962
      ],
      [
        "▁review",
        -8.966001639679103
      ],
      [
        "▁late",
        -8.967501920948074
      ],
      [
        "▁create",
        -8.9706973729857
      ],
      [
        "town",
        -8.971112901788441
      ],
      [
        "▁control",
        -8.971908472507405
      ],
      [
        "▁working",
        -8.973975469961255
      ],
      [
        "▁vega",
        -8.976883517881848
      ],
      [
        "▁universit",
        -8.977250269876455
      ],
      [
        "▁sun",
        -8.977605133366708
      ],
      [
        "▁tom",
        -8.979000645600873
      ],
      [
        "ic",
        -8.98114551514816
      ],
      [
        "▁stuff",
        -8.98251072716372
      ],
      [
        "▁la",
        -8.98498027678699
      ],
      [
        "▁enron",
        -8.98790913256146
      ],
      [
        "▁front",
        -8.99051844220201
      ],
      [
        "▁august",
        -8.990739153613863
      ],
      [
        "▁fun",
        -8.991337687836776
      ],
      [
        "▁nonstop",
        -8.994853923633169
      ],
      [
        "▁past",
        -8.996121565621813
      ],
      [
        "▁main",
        -8.99648842098308
      ],
      [
        "▁receive",
        -8.99683218440548
      ],
      [
        "▁party",
        -8.99905662511075
      ],
      [
        "▁iraq",
        -9.000339259379896
      ],
      [
        "▁fine",
        -9.001872497739281
      ],
      [
        "▁local",
        -9.003498261520937
      ],
      [
        "▁cat",
        -9.00484821195905
      ],
      [
        "▁half",
        -9.00541549368557
      ],
      [
        "▁questions",
        -9.006046735162501
      ],
      [
        "▁plan",
        -9.011975234033471
      ],
      [
        "▁blue",
        -9.012074481313622
      ],
      [
        "▁level",
        -9.013074760877535
      ],
      [
        "ami",
        -9.015082671922684
      ],
      [
        "▁send",
        -9.017090816698175
      ],
      [
        "lves",
        -9.0171147706473
      ],
      [
        "▁answer",
        -9.017710950230713
      ],
      [
        "▁record",
        -9.022195840150045
      ],
      [
        "▁las",
        -9.023246189774307
      ],
      [
        "▁usual",
        -9.023516315247514
      ],
      [
        "▁current",
        -9.02384900779023
      ],
      [
        "▁action",
        -9.024982020767975
      ],
      [
        "▁political",
        -9.026169018859239
      ],
      [
        "the",
        -9.028012568354352
      ],
      [
        "▁future",
        -9.030604322288802
      ],
      [
        "▁mine",
        -9.031261992817226
      ],
      [
        "▁8",
        -9.031646618617621
      ],
      [
        "▁miss",
        -9.032426070315282
      ],
      [
        "▁box",
        -9.037238046291957
      ],
      [
        "▁term",
        -9.037356768469735
      ],
      [
        "▁fee",
        -9.038436944467025
      ],
      [
        "▁di",
        -9.03868335327211
      ],
      [
        "go",
        -9.042721148308413
      ],
      [
        "▁post",
        -9.043002827834338
      ],
      [
        "▁complete",
        -9.04520586514371
      ],
      [
        "▁floor",
        -9.04529531280645
      ],
      [
        "▁among",
        -9.04530268815564
      ],
      [
        "▁matter",
        -9.045310242831839
      ],
      [
        "countries",
        -9.045372863734787
      ],
      [
        "▁count",
        -9.046049657276795
      ],
      [
        "▁john",
        -9.046895065377555
      ],
      [
        "▁dad",
        -9.04796225640381
      ],
      [
        "▁word",
        -9.048307231654853
      ],
      [
        "▁chair",
        -9.04963989870555
      ],
      [
        "▁safe",
        -9.050647914943452
      ],
      [
        "▁death",
        -9.052973960009336
      ],
      [
        "▁jun",
        -9.053049083895976
      ],
      [
        "▁picture",
        -9.05408187023863
      ],
      [
        "▁del",
        -9.05550021357423
      ],
      [
        "▁qualit",
        -9.057201236618315
      ],
      [
        "▁quick",
        -9.05914846950423
      ],
      [
        "▁wear",
        -9.059528337634529
      ],
      [
        "▁china",
        -9.060364984314356
      ],
      [
        "▁park",
        -9.060550606683119
      ],
      [
        "▁ago",
        -9.062201848151037
      ],
      [
        "▁ya",
        -9.062424280764835
      ],
      [
        "▁social",
        -9.067432755699809
      ],
      [
        "▁commission",
        -9.075363433236637
      ],
      [
        "▁soon",
        -9.07972527801126
      ],
      [
        "▁sign",
        -9.080113181946373
      ],
      [
        "6",
        -9.080723173675677
      ],
      [
        "▁hurt",
        -9.083228687798742
      ],
      [
        "▁guess",
        -9.090534243207422
      ],
      [
        "▁abe",
        -9.091046488740513
      ],
      [
        "hind",
        -9.092982053218321
      ],
      [
        "▁less",
        -9.093853427514373
      ],
      [
        "ext",
        -9.096658564969582
      ],
      [
        ":",
        -9.09703503785197
      ],
      [
        "▁fel",
        -9.09834302087475
      ],
      [
        "▁customer",
        -9.09883385933615
      ],
      [
        "▁include",
        -9.09991964844345
      ],
      [
        "▁break",
        -9.099995188337182
      ],
      [
        "▁meeting",
        -9.100542866913424
      ],
      [
        "▁concern",
        -9.101290415819946
      ],
      [
        "8",
        -9.10256207622054
      ],
      [
        "▁cover",
        -9.105559497401561
      ],
      [
        "▁lake",
        -9.10561064656643
      ],
      [
        "▁table",
        -9.106274835100503
      ],
      [
        "▁ten",
        -9.107394869185732
      ],
      [
        "▁child",
        -9.108263661439974
      ],
      [
        "▁o'",
        -9.110361035899746
      ],
      [
        "▁shoe",
        -9.111782243969424
      ],
      [
        "▁push",
        -9.112282737415969
      ],
      [
        "if",
        -9.115037317911781
      ],
      [
        "▁bird",
        -9.115079966051294
      ],
      [
        "▁major",
        -9.115197983504913
      ],
      [
        "lotte",
        -9.11620521180432
      ],
      [
        "▁dark",
        -9.11974539360639
      ],
      [
        "▁propert",
        -9.120075763014375
      ],
      [
        "▁west",
        -9.121510084672803
      ],
      [
        "▁remain",
        -9.121899486936746
      ],
      [
        "▁member",
        -9.122318193937879
      ],
      [
        "▁movie",
        -9.123511446815554
      ],
      [
        "▁quin",
        -9.124455792523817
      ],
      [
        "▁pull",
        -9.1245248919576
      ],
      [
        "▁mov",
        -9.126029216587426
      ],
      [
        "▁period",
        -9.129367449498243
      ],
      [
        "▁mumm",
        -9.129585297402002
      ],
      [
        "▁women",
        -9.129990152211278
      ],
      [
        "▁staff",
        -9.130193764242021
      ],
      [
        "▁ride",
        -9.131672558654374
      ],
      [
        "▁men",
        -9.131873089112162
      ],
      [
        "▁following",
        -9.13467524852095
      ],
      [
        "▁nation",
        -9.13524716431339
      ],
      [
        "▁cup",
        -9.136463422232378
      ],
      [
        "▁direct",
        -9.136940132410288
      ],
      [
        "▁student",
        -9.137952849233287
      ],
      [
        "▁gone",
        -9.138618268463
      ],
      [
        "▁indiana",
        -9.144749110021131
      ],
      [
        "▁wif",
        -9.1462072418001
      ],
      [
        "security",
        -9.14925273026114
      ],
      [
        "▁11",
        -9.14942429534446
      ],
      [
        "▁window",
        -9.149467742782054
      ],
      [
        "▁cold",
        -9.1512370989112
      ],
      [
        "orland",
        -9.151295001744806
      ],
      [
        "▁rate",
        -9.153703207325114
      ],
      [
        "9",
        -9.154721588244819
      ],
      [
        "▁restaurant",
        -9.156204711576759
      ],
      [
        "▁act",
        -9.156523270921316
      ],
      [
        "gan",
        -9.15909655957207
      ],
      [
        "low",
        -9.159534031837982
      ],
      [
        "▁arm",
        -9.159733240566174
      ],
      [
        "ront",
        -9.15989568881377
      ],
      [
        "ark",
        -9.159951385395676
      ],
      [
        "▁chicken",
        -9.162563622938901
      ],
      [
        "▁team",
        -9.16389558397146
      ],
      [
        "▁sara",
        -9.165173978911152
      ],
      [
        "▁societ",
        -9.170877982289124
      ],
      [
        "▁forward",
        -9.171177362470642
      ],
      [
        "▁noon",
        -9.17192223817327
      ],
      [
        "▁email",
        -9.173027379513597
      ],
      [
        "▁couple",
        -9.17372364351063
      ],
      [
        "hours",
        -9.174991990880164
      ],
      [
        "▁fire",
        -9.17551027138728
      ],
      [
        "▁special",
        -9.175565163293063
      ],
      [
        "▁story",
        -9.17591702946763
      ],
      [
        "▁european",
        -9.176613739076537
      ],
      [
        "▁accept",
        -9.178616097089751
      ],
      [
        "▁appear",
        -9.179223088673313
      ],
      [
        "▁value",
        -9.179787240351526
      ],
      [
        "▁econom",
        -9.180634374551943
      ],
      [
        "▁15",
        -9.181856850863749
      ],
      [
        "▁rule",
        -9.18188672327876
      ],
      [
        ".com",
        -9.186185389186036
      ],
      [
        "▁bag",
        -9.186556223315517
      ],
      [
        "▁english",
        -9.187795021097095
      ],
      [
        "▁apri",
        -9.187978477745144
      ],
      [
        "▁living",
        -9.188218825081428
      ],
      [
        "▁pass",
        -9.190056843721875
      ],
      [
        "▁hotel",
        -9.190405676552324
      ],
      [
        "▁throw",
        -9.1921732428303
      ],
      [
        "▁rest",
        -9.1922202170527
      ],
      [
        "craft",
        -9.194279208569657
      ],
      [
        "▁due",
        -9.194500767870451
      ],
      [
        "▁meet",
        -9.195424387752263
      ],
      [
        "▁inside",
        -9.195591518386275
      ],
      [
        "▁difficult",
        -9.196302347501751
      ],
      [
        "given",
        -9.196815057210028
      ],
      [
        "▁energy",
        -9.19810707999505
      ],
      [
        "▁claim",
        -9.200020759737438
      ],
      [
        "▁land",
        -9.200934679324746
      ],
      [
        "▁third",
        -9.205023389387913
      ],
      [
        "▁shall",
        -9.205034018961014
      ],
      [
        "▁continent",
        -9.205095102604806
      ],
      [
        "▁research",
        -9.205829867397522
      ],
      [
        "▁star",
        -9.206990509994274
      ],
      [
        "▁fair",
        -9.207486161207996
      ],
      [
        "z",
        -9.207507306903011
      ],
      [
        "▁develop",
        -9.207872410288644
      ],
      [
        "▁calle",
        -9.209513618961319
      ],
      [
        "%",
        -9.209611450556382
      ],
      [
        "▁militar",
        -9.209656573414437
      ],
      [
        "▁eight",
        -9.211244341910561
      ],
      [
        "way",
        -9.212412456938806
      ],
      [
        "▁agreement",
        -9.213862455725984
      ],
      [
        "▁truck",
        -9.217872855151782
      ],
      [
        "▁economic",
        -9.21823842334415
      ],
      [
        "▁art",
        -9.218420994503557
      ],
      [
        "7",
        -9.219193155218903
      ],
      [
        "▁hands",
        -9.220249278650062
      ],
      [
        "▁peter",
        -9.22104725558912
      ],
      [
        "▁account",
        -9.22234077407063
      ],
      [
        "▁increase",
        -9.222390649308263
      ],
      [
        "▁19",
        -9.22415551192448
      ],
      [
        "▁sent",
        -9.22480233908196
      ],
      [
        "▁site",
        -9.228408397044316
      ],
      [
        "▁parent",
        -9.228786768772364
      ],
      [
        "▁middle",
        -9.23103109917998
      ],
      [
        "▁beautiful",
        -9.231241235197714
      ],
      [
        "▁communit",
        -9.231653280845338
      ],
      [
        "▁common",
        -9.233169728689385
      ],
      [
        "▁town",
        -9.233434642132535
      ],
      [
        "▁whe",
        -9.23362761291652
      ],
      [
        "▁seven",
        -9.235744216962026
      ],
      [
        "taken",
        -9.236396663034967
      ],
      [
        "▁balzac",
        -9.240168749947994
      ],
      [
        "▁george",
        -9.240168754595068
      ],
      [
        "▁explain",
        -9.240169181450497
      ],
      [
        "▁further",
        -9.240188537727004
      ],
      [
        "▁woman",
        -9.24035816371453
      ],
      [
        "▁dead",
        -9.24087652122569
      ],
      [
        "▁doctor",
        -9.243069462658031
      ],
      [
        "▁mont",
        -9.243310851984624
      ],
      [
        "▁attack",
        -9.243548812022908
      ],
      [
        "▁eas",
        -9.247367000767424
      ],
      [
        "▁building",
        -9.24842155432546
      ],
      [
        "▁18",
        -9.253758103589082
      ],
      [
        "▁road",
        -9.257139578090516
      ],
      [
        "▁document",
        -9.258268953271298
      ],
      [
        "hap",
        -9.259738350006801
      ],
      [
        "history",
        -9.259785823578946
      ],
      [
        "▁health",
        -9.26358874809715
      ],
      [
        "▁date",
        -9.265008207120516
      ],
      [
        "▁attache",
        -9.265172772891239
      ],
      [
        "▁finish",
        -9.265363360976163
      ],
      [
        "▁cleve",
        -9.265931779493751
      ],
      [
        "▁drive",
        -9.266086918628963
      ],
      [
        "▁seattle",
        -9.267348184715349
      ],
      [
        "ish",
        -9.267427812603259
      ],
      [
        "▁voice",
        -9.267565104884241
      ],
      [
        "head",
        -9.26853472110654
      ],
      [
        "▁speak",
        -9.268824878452664
      ],
      [
        "▁oil",
        -9.269213824695687
      ],
      [
        "▁beach",
        -9.27024482948022
      ],
      [
        "▁charge",
        -9.272058964790947
      ],
      [
        "▁america",
        -9.273550925205729
      ],
      [
        "▁depart",
        -9.276499059162255
      ],
      [
        "▁agree",
        -9.276648839137433
      ],
      [
        "▁sort",
        -9.277081981233927
      ],
      [
        "▁development",
        -9.277169772811828
      ],
      [
        "▁stand",
        -9.279035963517956
      ],
      [
        "▁kansa",
        -9.279765004703204
      ],
      [
        "upon",
        -9.281693576274648
      ],
      [
        "▁step",
        -9.283361472645709
      ],
      [
        "▁position",
        -9.284542015147695
      ],
      [
        "▁specific",
        -9.285586911744534
      ],
      [
        "▁exist",
        -9.285920168037972
      ],
      [
        "▁request",
        -9.286057742791986
      ],
      [
        "▁moment",
        -9.2862595292058
      ],
      [
        "▁require",
        -9.286894529962023
      ],
      [
        "▁plant",
        -9.287269036515326
      ],
      [
        "▁figure",
        -9.28747614534854
      ],
      [
        "▁rock",
        -9.289919580657845
      ],
      [
        "▁sorr",
        -9.294281937405568
      ],
      [
        "▁especial",
        -9.295497657119348
      ],
      [
        "▁boat",
        -9.295836216472662
      ],
      [
        "▁poor",
        -9.295953227798597
      ],
      [
        "▁angel",
        -9.297581806594064
      ],
      [
        "▁india",
        -9.29784325128066
      ],
      [
        "animals",
        -9.298585533994387
      ],
      [
        "la",
        -9.298730843549878
      ],
      [
        "▁million",
        -9.299520788758322
      ],
      [
        "▁license",
        -9.301416958920289
      ],
      [
        "▁fund",
        -9.301503693679566
      ],
      [
        "▁court",
        -9.302611142188976
      ],
      [
        "▁birthday",
        -9.305048233367643
      ],
      [
        "▁hour",
        -9.305506845785416
      ],
      [
        "▁warm",
        -9.306161411165835
      ],
      [
        "▁words",
        -9.30667165768362
      ],
      [
        "▁detail",
        -9.306856355723466
      ],
      [
        "▁ticket",
        -9.306995839024841
      ],
      [
        "▁born",
        -9.312415431704586
      ],
      [
        "▁wrong",
        -9.314481079797098
      ],
      [
        "▁lunch",
        -9.3146151247627
      ],
      [
        "▁subject",
        -9.314667789514507
      ],
      [
        "▁doggie",
        -9.314754226350207
      ],
      [
        "▁http://www.",
        -9.31794616994779
      ],
      [
        "king",
        -9.318335445844575
      ],
      [
        "▁item",
        -9.319653554352572
      ],
      [
        "▁breakfast",
        -9.324331027863863
      ],
      [
        "▁above",
        -9.324343382659071
      ],
      [
        "▁excellent",
        -9.324462197161195
      ],
      [
        "▁comment",
        -9.324683016735724
      ],
      [
        "▁official",
        -9.3249850045594
      ],
      [
        "▁activit",
        -9.326782914805118
      ],
      [
        "▁kne",
        -9.327319411806734
      ],
      [
        "▁leg",
        -9.327922776637525
      ],
      [
        "▁difference",
        -9.328147801229939
      ],
      [
        "▁card",
        -9.329760085363553
      ],
      [
        "▁key",
        -9.330482673327374
      ],
      [
        "▁notice",
        -9.330527076090197
      ],
      [
        "▁discuss",
        -9.332367933499324
      ],
      [
        "▁address",
        -9.332671241498877
      ],
      [
        "▁suggest",
        -9.333971958794749
      ],
      [
        "▁wonder",
        -9.333993043112102
      ],
      [
        "▁attention",
        -9.33415760571774
      ],
      [
        "▁design",
        -9.334586854527574
      ],
      [
        "▁iran",
        -9.336257386853926
      ],
      [
        "▁button",
        -9.337876911691616
      ],
      [
        "ory",
        -9.338625554836769
      ],
      [
        "▁turned",
        -9.338682273674358
      ],
      [
        "▁finger",
        -9.339571864835658
      ],
      [
        "▁17",
        -9.34074692142583
      ],
      [
        "▁effort",
        -9.344034840193544
      ],
      [
        "▁decision",
        -9.344049196628337
      ],
      [
        "▁hell",
        -9.344262807915282
      ],
      [
        "▁glass",
        -9.345862940302085
      ],
      [
        "▁summer",
        -9.34786326780565
      ],
      [
        "▁daily",
        -9.348233762378822
      ],
      [
        "▁personal",
        -9.348862308925657
      ],
      [
        "▁16",
        -9.349939476058154
      ],
      [
        "sterda",
        -9.352626161815472
      ],
      [
        "▁nose",
        -9.3532417827095
      ],
      [
        "▁studie",
        -9.354073587331682
      ],
      [
        "▁cheap",
        -9.357327975970964
      ],
      [
        "▁east",
        -9.357401844721283
      ],
      [
        "ne",
        -9.35868658939367
      ],
      [
        "▁program",
        -9.36133973631183
      ],
      [
        "▁yellow",
        -9.36187898110942
      ],
      [
        "itting",
        -9.364337020033258
      ],
      [
        "▁hug",
        -9.36704439298833
      ],
      [
        "▁gas",
        -9.368047509674254
      ],
      [
        "▁touch",
        -9.369816561906532
      ],
      [
        "ought",
        -9.373597410466672
      ],
      [
        "▁#",
        -9.373915423864577
      ],
      [
        "▁europe",
        -9.3743781897335
      ],
      [
        "▁filter",
        -9.376581210472537
      ],
      [
        "▁code",
        -9.377684457369075
      ],
      [
        "came",
        -9.378179255883936
      ],
      [
        "▁earth",
        -9.37832510204236
      ],
      [
        "▁mark",
        -9.379122392600081
      ],
      [
        "▁expens",
        -9.382488908890998
      ],
      [
        "▁funn",
        -9.382568054784812
      ],
      [
        "time",
        -9.382597590958701
      ],
      [
        "▁surprise",
        -9.384649219711292
      ],
      [
        "▁vote",
        -9.384795209982354
      ],
      [
        "▁message",
        -9.385194503696658
      ],
      [
        "▁square",
        -9.386556143221082
      ],
      [
        "▁199",
        -9.386585258647294
      ],
      [
        "▁services",
        -9.38809209774677
      ],
      [
        "▁tree",
        -9.390207217218503
      ],
      [
        "▁texa",
        -9.391112879286577
      ],
      [
        "▁natural",
        -9.392052478483773
      ],
      [
        "▁education",
        -9.395144910526131
      ],
      [
        "▁listen",
        -9.395390361705854
      ],
      [
        "▁moral",
        -9.395591956633364
      ],
      [
        "▁treat",
        -9.396934725861694
      ],
      [
        "real",
        -9.397779677693435
      ],
      [
        "▁link",
        -9.400352147115363
      ],
      [
        "▁save",
        -9.404794075621826
      ],
      [
        "▁mouth",
        -9.405040937949646
      ],
      [
        "▁peace",
        -9.405242116955979
      ],
      [
        "▁serious",
        -9.405600834901175
      ],
      [
        "▁global",
        -9.40560495029289
      ],
      [
        "▁source",
        -9.40638662161997
      ],
      [
        "▁shop",
        -9.407274209125239
      ],
      [
        "▁fell",
        -9.407755108144729
      ],
      [
        "▁<",
        -9.408511038818324
      ],
      [
        "▁ok",
        -9.408849913713613
      ],
      [
        "▁fit",
        -9.411532975822889
      ],
      [
        "▁lay",
        -9.412774684324145
      ],
      [
        "▁slow",
        -9.412993978043966
      ],
      [
        "▁original",
        -9.413437869745554
      ],
      [
        "▁works",
        -9.413701933611689
      ],
      [
        "▁saying",
        -9.413737681104958
      ],
      [
        "▁rain",
        -9.41562240230735
      ],
      [
        "▁bus",
        -9.417653251385728
      ],
      [
        "▁dirt",
        -9.418195415005789
      ],
      [
        "▁dress",
        -9.418352317693953
      ],
      [
        "▁bill",
        -9.420046365336002
      ],
      [
        "▁culture",
        -9.420819879711864
      ],
      [
        "▁members",
        -9.421246327922644
      ],
      [
        "▁equal",
        -9.424748190215135
      ],
      [
        "▁entire",
        -9.426990250688531
      ],
      [
        "▁bed",
        -9.428826337703507
      ],
      [
        "▁hundred",
        -9.437382350331184
      ],
      [
        "▁except",
        -9.437685843659882
      ],
      [
        "▁joke",
        -9.437881020176032
      ],
      [
        "▁situation",
        -9.437887397041955
      ],
      [
        "kept",
        -9.438575462929393
      ],
      [
        "▁toward",
        -9.440193372590315
      ],
      [
        "aught",
        -9.441914303578642
      ],
      [
        "do",
        -9.442952025892511
      ],
      [
        "▁cook",
        -9.443874508692971
      ],
      [
        "▁lead",
        -9.445351239498656
      ],
      [
        "▁nov",
        -9.447576957360923
      ],
      [
        "▁station",
        -9.447917667822383
      ],
      [
        "▁em",
        -9.448211266780337
      ],
      [
        "fore",
        -9.449360714369739
      ],
      [
        "▁according",
        -9.451200376421907
      ],
      [
        "▁jump",
        -9.4543661760186
      ],
      [
        "▁30",
        -9.456618392911118
      ],
      [
        "▁financial",
        -9.459962247172108
      ],
      [
        "internet",
        -9.45999608950192
      ],
      [
        "▁tire",
        -9.460351810477324
      ],
      [
        "are",
        -9.460381599712932
      ],
      [
        "ville",
        -9.460494695809437
      ],
      [
        "▁video",
        -9.461632615419697
      ],
      [
        "rench",
        -9.46185352091139
      ],
      [
        "▁meal",
        -9.463434462833476
      ],
      [
        "▁computer",
        -9.464209774131287
      ],
      [
        "▁london",
        -9.469219115251438
      ],
      [
        "night",
        -9.469742345476817
      ],
      [
        "▁pocket",
        -9.471189001859734
      ],
      [
        "he",
        -9.472417666819831
      ],
      [
        "▁connection",
        -9.472574387255639
      ],
      [
        "▁march",
        -9.473355685543709
      ],
      [
        "▁sense",
        -9.474035351877713
      ],
      [
        "▁foot",
        -9.475138797618346
      ],
      [
        "▁books",
        -9.475392135882426
      ],
      [
        "▁mention",
        -9.475564597812426
      ],
      [
        "▁manage",
        -9.475887003427665
      ],
      [
        "▁california",
        -9.478081855834816
      ],
      [
        "▁true",
        -9.47837332073135
      ],
      [
        "▁9",
        -9.482272786124133
      ],
      [
        "▁attempt",
        -9.482552842034961
      ],
      [
        "▁condition",
        -9.482561930075462
      ],
      [
        "▁fill",
        -9.486613953308964
      ],
      [
        "led",
        -9.487400568122787
      ],
      [
        "▁writing",
        -9.490754280114324
      ],
      [
        "▁hat",
        -9.491535597559526
      ],
      [
        "▁role",
        -9.49303854894492
      ],
      [
        "▁contact",
        -9.493314147653932
      ],
      [
        "▁etc",
        -9.494200801849793
      ],
      [
        "▁louis",
        -9.49425420813263
      ],
      [
        "day",
        -9.49567562994756
      ],
      [
        "▁heart",
        -9.49636645246856
      ],
      [
        "▁image",
        -9.499863099918349
      ],
      [
        "▁schedule",
        -9.500301750051808
      ],
      [
        "table",
        -9.501193583654171
      ],
      [
        "up",
        -9.501916618661093
      ],
      [
        "▁tie",
        -9.502124818066605
      ],
      [
        "▁necessar",
        -9.505674622173668
      ],
      [
        "▁application",
        -9.5056813438951
      ],
      [
        "▁honey",
        -9.50575158448168
      ],
      [
        "ship",
        -9.508013474638021
      ],
      [
        "▁anyway",
        -9.50819494859455
      ],
      [
        "▁pen",
        -9.508545151398138
      ],
      [
        "known",
        -9.508680456634202
      ],
      [
        "▁carry",
        -9.509039695135822
      ],
      [
        "▁church",
        -9.511263545271632
      ],
      [
        "▁seat",
        -9.511579822988626
      ],
      [
        "tic",
        -9.511931797743785
      ],
      [
        "nstead",
        -9.512531916489202
      ],
      [
        "▁!!",
        -9.512694475998678
      ],
      [
        "▁dry",
        -9.515229865302967
      ],
      [
        "▁driv",
        -9.515887590405402
      ],
      [
        "▁web",
        -9.516564620751003
      ],
      [
        "▁exact",
        -9.517441694909
      ],
      [
        "▁extreme",
        -9.517484828364328
      ],
      [
        "▁catch",
        -9.518177241508992
      ],
      [
        "rought",
        -9.518478039290368
      ],
      [
        "mphi",
        -9.520038791464367
      ],
      [
        ",000",
        -9.520152199766391
      ],
      [
        "▁police",
        -9.530491567108431
      ],
      [
        "2005",
        -9.530804520665043
      ],
      [
        "▁nine",
        -9.531321777715053
      ],
      [
        "▁website",
        -9.531633054551154
      ],
      [
        "eating",
        -9.532629017320987
      ],
      [
        "▁total",
        -9.53320131268434
      ],
      [
        "▁mm",
        -9.533560492084103
      ],
      [
        "▁roll",
        -9.534877684257847
      ],
      [
        "ar",
        -9.536583213488765
      ],
      [
        "▁measure",
        -9.536645918444663
      ],
      [
        "▁product",
        -9.53719035146862
      ],
      [
        "▁wide",
        -9.537714109206068
      ],
      [
        "▁israel",
        -9.54007094499836
      ],
      [
        "▁dec",
        -9.540711590707392
      ],
      [
        "ame",
        -9.5413601656356
      ],
      [
        "▁parliament",
        -9.541392275506512
      ],
      [
        "▁location",
        -9.541411277171115
      ],
      [
        "▁bottle",
        -9.54184284762746
      ],
      [
        "▁describe",
        -9.54500055301637
      ],
      [
        "▁laugh",
        -9.545316035558166
      ],
      [
        "▁expect",
        -9.545973669853563
      ],
      [
        "▁wish",
        -9.547357958745632
      ],
      [
        "▁trie",
        -9.547515018521576
      ],
      [
        "▁reach",
        -9.548522965574119
      ],
      [
        "▁sevent",
        -9.548685028444716
      ],
      [
        "▁produce",
        -9.54970204604891
      ],
      [
        "▁feed",
        -9.550200387318593
      ],
      [
        "▁mam",
        -9.552558565489086
      ],
      [
        "ical",
        -9.552891810941157
      ],
      [
        "▁response",
        -9.553587398603515
      ],
      [
        "▁cheese",
        -9.553637384946029
      ],
      [
        "▁wall",
        -9.554830015347928
      ],
      [
        "▁qa",
        -9.55833657087265
      ],
      [
        "▁age",
        -9.560008105850116
      ],
      [
        "by",
        -9.560355011868854
      ],
      [
        "▁center",
        -9.561497511824374
      ],
      [
        "▁decided",
        -9.564650410587184
      ],
      [
        "▁banana",
        -9.565947718212339
      ],
      [
        "▁coffee",
        -9.565973806376299
      ],
      [
        "▁fight",
        -9.566170328644922
      ],
      [
        "▁lives",
        -9.567090760970423
      ],
      [
        "▁allow",
        -9.567614422853218
      ],
      [
        "▁respect",
        -9.567676559857397
      ],
      [
        "▁supposed",
        -9.56991758691193
      ],
      [
        "▁runn",
        -9.570902932887014
      ],
      [
        "▁momm",
        -9.575665848024716
      ],
      [
        "ate",
        -9.576050430473508
      ],
      [
        "▁correct",
        -9.57825930987136
      ],
      [
        "▁brother",
        -9.578516446195938
      ],
      [
        "▁music",
        -9.578846846216894
      ],
      [
        "▁clothes",
        -9.579048629876679
      ],
      [
        "▁professional",
        -9.579284630092625
      ],
      [
        "▁2000",
        -9.580868574088203
      ],
      [
        "▁tin",
        -9.581210473167573
      ],
      [
        "▁river",
        -9.584525049255468
      ],
      [
        "▁toast",
        -9.587833110429424
      ],
      [
        "▁busy",
        -9.588147767949962
      ],
      [
        "century",
        -9.591091715889867
      ],
      [
        "▁benefit",
        -9.591135307187479
      ],
      [
        "▁jose",
        -9.591286561728786
      ],
      [
        "▁copy",
        -9.591763891713676
      ],
      [
        "▁policy",
        -9.592224439927342
      ],
      [
        "▁limit",
        -9.592579845879904
      ],
      [
        "▁bite",
        -9.59264179980647
      ],
      [
        "mike",
        -9.593272725427958
      ],
      [
        "▁blow",
        -9.593661167194597
      ],
      [
        "▁basic",
        -9.594149456496204
      ],
      [
        "▁trouble",
        -9.597022313926368
      ],
      [
        "▁stopp",
        -9.600872516935798
      ],
      [
        "▁ship",
        -9.601302938075778
      ],
      [
        "▁focus",
        -9.60272676180708
      ],
      [
        "▁perfect",
        -9.603729459332882
      ],
      [
        "▁legal",
        -9.603771284525392
      ],
      [
        "janu",
        -9.604743220891775
      ],
      [
        "▁thousand",
        -9.606275042156202
      ],
      [
        "ursu",
        -9.607949127331388
      ],
      [
        "▁region",
        -9.608060703252836
      ],
      [
        "▁stor",
        -9.60828660249312
      ],
      [
        "▁fix",
        -9.609267132883446
      ],
      [
        "▁press",
        -9.60950108154154
      ],
      [
        "rote",
        -9.612930341285704
      ],
      [
        "▁model",
        -9.61347347528526
      ],
      [
        "▁risk",
        -9.615201001992414
      ],
      [
        "▁implement",
        -9.616898830272834
      ],
      [
        "▁method",
        -9.619728331916358
      ],
      [
        "▁tape",
        -9.619783601719003
      ],
      [
        "–",
        -9.620780437277858
      ],
      [
        "▁eggs",
        -9.622847815839368
      ],
      [
        "▁interesting",
        -9.623643598759418
      ],
      [
        "▁scar",
        -9.6285803773659
      ],
      [
        "▁band",
        -9.629688036541564
      ],
      [
        "▁kitt",
        -9.62969833427325
      ],
      [
        "▁protect",
        -9.629897311484216
      ],
      [
        "▁dinosaur",
        -9.630056803464432
      ],
      [
        "▁lack",
        -9.630212609642019
      ],
      [
        "▁opportunit",
        -9.630278401029738
      ],
      [
        "▁taste",
        -9.633529775860534
      ],
      [
        "▁indian",
        -9.640027486233569
      ],
      [
        "▁spend",
        -9.640218904919813
      ],
      [
        "▁xml",
        -9.641041810575107
      ],
      [
        "▁plann",
        -9.641042581267316
      ],
      [
        "▁25",
        -9.64284187293758
      ],
      [
        "▁individual",
        -9.643390058717756
      ],
      [
        "▁favorite",
        -9.643394903654654
      ],
      [
        "▁display",
        -9.643433236691255
      ],
      [
        "▁chance",
        -9.643497567338859
      ],
      [
        "▁teacher",
        -9.646295603161203
      ],
      [
        "▁interview",
        -9.64645781709103
      ],
      [
        "▁share",
        -9.648888538297301
      ],
      [
        "▁bowl",
        -9.651301114988653
      ],
      [
        "▁egg",
        -9.652558675454044
      ],
      [
        "▁pictures",
        -9.654253895901691
      ],
      [
        "▁express",
        -9.654390093074756
      ],
      [
        "me",
        -9.656460169577167
      ],
      [
        "▁effect",
        -9.656493047684872
      ],
      [
        "▁department",
        -9.65728424005885
      ],
      [
        "▁shirt",
        -9.657551238587548
      ],
      [
        "▁credit",
        -9.658840704873139
      ],
      [
        "▁juic",
        -9.658999634066387
      ],
      [
        "▁bigge",
        -9.659209998739763
      ],
      [
        "▁former",
        -9.65924102193884
      ],
      [
        "▁board",
        -9.659523647136034
      ],
      [
        "▁simpl",
        -9.659555781884894
      ],
      [
        "ch",
        -9.662201945092777
      ],
      [
        "na",
        -9.66356483934437
      ],
      [
        "board",
        -9.665059888158146
      ],
      [
        "▁tea",
        -9.66575256420736
      ],
      [
        "▁article",
        -9.666028558416555
      ],
      [
        "▁animal",
        -9.666603140359008
      ],
      [
        "of",
        -9.67032877381876
      ],
      [
        "▁deep",
        -9.670423152661272
      ],
      [
        "▁election",
        -9.670622837933273
      ],
      [
        "▁population",
        -9.67062406490992
      ],
      [
        "ber",
        -9.670637802937346
      ],
      [
        "▁involve",
        -9.671947388649176
      ],
      [
        "▁sweet",
        -9.672666322753322
      ],
      [
        "▁science",
        -9.67291224735633
      ],
      [
        "▁song",
        -9.673519959277325
      ],
      [
        "▁proper",
        -9.673821798989689
      ],
      [
        "▁knowledge",
        -9.673894110937708
      ],
      [
        "▁committee",
        -9.677302583529867
      ],
      [
        "▁environment",
        -9.679447458427093
      ],
      [
        "!",
        -9.679809789827779
      ],
      [
        "▁spoke",
        -9.679876178597517
      ],
      [
        "ball",
        -9.680214740215492
      ],
      [
        "▁ensure",
        -9.68243357646969
      ],
      [
        "nati",
        -9.68328979038332
      ],
      [
        "▁pencil",
        -9.684491107211542
      ],
      [
        "▁definite",
        -9.684495217246415
      ],
      [
        "ritten",
        -9.684511215039532
      ],
      [
        "▁single",
        -9.684983260621404
      ],
      [
        "▁ho",
        -9.685844351687258
      ],
      [
        "▁ha",
        -9.686046534242035
      ],
      [
        "▁god",
        -9.686639962199433
      ],
      [
        "▁similar",
        -9.686841733463758
      ],
      [
        "incin",
        -9.689812772974047
      ],
      [
        "▁feeling",
        -9.690283117856527
      ],
      [
        "▁wine",
        -9.693452196674436
      ],
      [
        "▁enter",
        -9.696079839338482
      ],
      [
        "2001",
        -9.696737045107303
      ],
      [
        "▁council",
        -9.698575174513893
      ],
      [
        "▁afghan",
        -9.698575598474836
      ],
      [
        "▁orange",
        -9.698593804266618
      ],
      [
        "▁minne",
        -9.69860379479369
      ],
      [
        "▁winter",
        -9.698609033246058
      ],
      [
        "aima",
        -9.698951803993399
      ],
      [
        "▁film",
        -9.698984842484364
      ],
      [
        "▁significant",
        -9.69938708874854
      ],
      [
        "▁size",
        -9.699818943666614
      ],
      [
        "our",
        -9.700553025545968
      ],
      [
        "▁fresh",
        -9.700966533143276
      ],
      [
        "ave",
        -9.701140358316934
      ],
      [
        "▁section",
        -9.701824938208933
      ],
      [
        "▁structure",
        -9.703228400443148
      ],
      [
        "wise",
        -9.704703895607002
      ],
      [
        "▁user",
        -9.705335575724016
      ],
      [
        "ampa",
        -9.707449776546103
      ],
      [
        "<",
        -9.70890616754943
      ],
      [
        "▁cultural",
        -9.710758477254451
      ],
      [
        "▁capital",
        -9.710828037761079
      ],
      [
        "▁contain",
        -9.711589517622366
      ],
      [
        "▁sat",
        -9.712943923090396
      ],
      [
        "▁sister",
        -9.713806703559353
      ],
      [
        "▁sky",
        -9.713813899257168
      ],
      [
        "▁spen",
        -9.719475795163317
      ],
      [
        "ton",
        -9.719856669890081
      ],
      [
        "▁horsie",
        -9.721191418137057
      ],
      [
        "▁fe",
        -9.722007563014632
      ],
      [
        "▁element",
        -9.727357154235797
      ],
      [
        "▁begin",
        -9.727519518130912
      ],
      [
        "▁co",
        -9.727830636214073
      ],
      [
        "▁stillman",
        -9.728535282761609
      ],
      [
        "▁low",
        -9.728654470275806
      ],
      [
        "▁writer",
        -9.732316517182518
      ],
      [
        "▁owner",
        -9.733690142992376
      ],
      [
        "@",
        -9.734169703505227
      ],
      [
        "doc",
        -9.735127621959915
      ],
      [
        "▁fast",
        -9.73532346366212
      ],
      [
        "▁flower",
        -9.737702343263875
      ],
      [
        "▁christ",
        -9.738198806714774
      ],
      [
        "▁factor",
        -9.738985639801985
      ],
      [
        "▁programme",
        -9.740112372057101
      ],
      [
        "▁contract",
        -9.74178847592538
      ],
      [
        "▁draft",
        -9.742101742288074
      ],
      [
        "▁cool",
        -9.742188137010862
      ],
      [
        "▁plane",
        -9.742811410152434
      ],
      [
        "▁met",
        -9.743643270006803
      ],
      [
        "▁union",
        -9.744256807257454
      ],
      [
        "▁avoid",
        -9.744351807770396
      ],
      [
        "▁propose",
        -9.748072010732809
      ],
      [
        "▁bread",
        -9.753321874943676
      ],
      [
        "▁camp",
        -9.755142176698934
      ],
      [
        "▁release",
        -9.75570777607808
      ],
      [
        "ism",
        -9.755749369771035
      ],
      [
        "▁college",
        -9.756985328271352
      ],
      [
        "▁purpose",
        -9.756985356693193
      ],
      [
        "▁apply",
        -9.75719193521454
      ],
      [
        "▁hang",
        -9.757636067222663
      ],
      [
        "▁u.s.",
        -9.759677512062083
      ],
      [
        "▁modern",
        -9.76023209993322
      ],
      [
        "▁imagine",
        -9.763662582303287
      ],
      [
        "▁nash",
        -9.766059062287404
      ],
      [
        "▁toys",
        -9.767077305098045
      ],
      [
        "▁bank",
        -9.770769691681696
      ],
      [
        "▁reading",
        -9.771764908135086
      ],
      [
        "▁content",
        -9.771963338366533
      ],
      [
        "▁immediate",
        -9.77213695136364
      ],
      [
        "▁choice",
        -9.77214848797835
      ],
      [
        "▁freedom",
        -9.772170972752887
      ],
      [
        "▁daughter",
        -9.772343536873397
      ],
      [
        "▁weekend",
        -9.772400055559615
      ],
      [
        "▁smell",
        -9.773964367759866
      ],
      [
        "side",
        -9.774183663936437
      ],
      [
        "▁drop",
        -9.77675631600557
      ],
      [
        "▁weapon",
        -9.777557075819647
      ],
      [
        "ian",
        -9.778184999340189
      ],
      [
        "▁proposal",
        -9.778248038818102
      ],
      [
        "▁stick",
        -9.779169000058566
      ],
      [
        "▁conference",
        -9.779626251061405
      ],
      [
        "▁fan",
        -9.779988476430585
      ],
      [
        "▁balance",
        -9.780363490992514
      ],
      [
        "▁!!!",
        -9.783705334973263
      ],
      [
        "▁normal",
        -9.784824235069802
      ],
      [
        "▁regular",
        -9.787521463860102
      ],
      [
        "▁conversation",
        -9.787526719237142
      ],
      [
        "▁amazing",
        -9.787612950627569
      ],
      [
        "▁pizza",
        -9.787613007377658
      ],
      [
        "▁percentage",
        -9.787648742322862
      ],
      [
        "▁paris",
        -9.787665455967602
      ],
      [
        "▁private",
        -9.787836386561068
      ],
      [
        "▁garden",
        -9.78995527898234
      ],
      [
        "▁material",
        -9.78996831524218
      ],
      [
        "▁vari",
        -9.790423355861034
      ],
      [
        "2002",
        -9.790934254603522
      ],
      [
        "▁depend",
        -9.79228723292525
      ],
      [
        "▁super",
        -9.793972972371645
      ],
      [
        "▁attend",
        -9.795621034226142
      ],
      [
        "▁wash",
        -9.796111390499814
      ],
      [
        "▁join",
        -9.798883119372734
      ],
      [
        "▁track",
        -9.799146415012668
      ],
      [
        "▁style",
        -9.801241804135376
      ],
      [
        "▁bottom",
        -9.803153312925513
      ],
      [
        "▁stopover",
        -9.803313997548372
      ],
      [
        "▁marriage",
        -9.803337062868405
      ],
      [
        "▁desk",
        -9.803369164839708
      ],
      [
        "▁hole",
        -9.804138416600921
      ],
      [
        "▁forgot",
        -9.804145540886708
      ],
      [
        "▁pre",
        -9.807067664668466
      ],
      [
        "▁practice",
        -9.807520350511972
      ],
      [
        "▁wh",
        -9.808599019391814
      ],
      [
        "stead",
        -9.809932146539069
      ],
      [
        "▁bar",
        -9.810081611854834
      ],
      [
        "▁spot",
        -9.813098490663359
      ],
      [
        "▁character",
        -9.813951529226431
      ],
      [
        "▁object",
        -9.818607389936954
      ],
      [
        "▁congress",
        -9.81902137224832
      ],
      [
        "industry",
        -9.819022414198212
      ],
      [
        "▁jeff",
        -9.819027472881196
      ],
      [
        "▁initial",
        -9.819115533592445
      ],
      [
        "products",
        -9.81916771001038
      ],
      [
        "▁directive",
        -9.819385633941943
      ],
      [
        "▁octo",
        -9.819765940490736
      ],
      [
        "▁trade",
        -9.819960345674735
      ],
      [
        "▁circle",
        -9.821832309840946
      ],
      [
        "▁text",
        -9.823652439165567
      ],
      [
        "▁citizens",
        -9.824623865168336
      ],
      [
        "▁engl",
        -9.826308465307969
      ],
      [
        "ble",
        -9.827451596293546
      ],
      [
        "▁additional",
        -9.827526505804498
      ],
      [
        "▁trust",
        -9.829946789641408
      ],
      [
        "▁related",
        -9.831377248459333
      ],
      [
        "▁determine",
        -9.832553133703673
      ],
      [
        "▁maintain",
        -9.835148594517552
      ],
      [
        "▁campaign",
        -9.835152883721914
      ],
      [
        "▁block",
        -9.835391470580515
      ],
      [
        "▁wonderful",
        -9.835420112192313
      ],
      [
        "▁soft",
        -9.835815085982759
      ],
      [
        "▁choose",
        -9.835993383895635
      ],
      [
        "▁organization",
        -9.837872924605636
      ],
      [
        "▁detr",
        -9.83795869430762
      ],
      [
        "▁iraqi",
        -9.83862692171563
      ],
      [
        "▁note",
        -9.839127952741348
      ],
      [
        "canada",
        -9.840694320986744
      ],
      [
        "nasa",
        -9.84157668086102
      ],
      [
        "▁pai",
        -9.842939545550365
      ],
      [
        "▁manager",
        -9.843299954399544
      ],
      [
        "▁successful",
        -9.844135024440792
      ],
      [
        "hol",
        -9.844234194186765
      ],
      [
        "▁cow",
        -9.845004435763656
      ],
      [
        "istan",
        -9.845753316024016
      ],
      [
        "nature",
        -9.846736565676661
      ],
      [
        "▁neck",
        -9.846776621869804
      ],
      [
        "▁tax",
        -9.84686105489963
      ],
      [
        "▁reflect",
        -9.851378172400024
      ],
      [
        "▁kitchen",
        -9.851541987455947
      ],
      [
        "▁beginning",
        -9.85158495538277
      ],
      [
        "▁mountain",
        -9.85159823378679
      ],
      [
        "▁noise",
        -9.854403020141422
      ],
      [
        "▁cage",
        -9.854471383432777
      ],
      [
        "▁news",
        -9.854686638124287
      ],
      [
        "▁forget",
        -9.857012980200299
      ],
      [
        "▁option",
        -9.857117339834813
      ],
      [
        "▁non-",
        -9.859150153554781
      ],
      [
        "▁pack",
        -9.861488099538391
      ],
      [
        "▁....",
        -9.865139101258409
      ],
      [
        "▁simple",
        -9.867166967365625
      ],
      [
        "▁heat",
        -9.867241394136137
      ],
      [
        "▁citi",
        -9.867938681826347
      ],
      [
        "▁pivot",
        -9.868208614803766
      ],
      [
        "▁expert",
        -9.868303819284023
      ],
      [
        "▁administration",
        -9.868557164749827
      ],
      [
        "ern",
        -9.869119405022195
      ],
      [
        "▁hall",
        -9.87079436038724
      ],
      [
        "▁dream",
        -9.870992420735865
      ],
      [
        "▁build",
        -9.871141368430084
      ],
      [
        "ant",
        -9.871516654096979
      ],
      [
        "▁memor",
        -9.87312157456491
      ],
      [
        "▁cry",
        -9.873218207793297
      ],
      [
        "▁accident",
        -9.873348466204021
      ],
      [
        "▁reference",
        -9.873666660000215
      ],
      [
        "▁sick",
        -9.87402443591974
      ],
      [
        "▁estimate",
        -9.875674726462325
      ],
      [
        "▁establish",
        -9.875843207719175
      ],
      [
        "▁14",
        -9.87754775044751
      ],
      [
        "▁13",
        -9.878031735260766
      ],
      [
        "ley",
        -9.878437314845165
      ],
      [
        "▁easi",
        -9.88040305414934
      ],
      [
        "eries",
        -9.882709922904333
      ],
      [
        "▁promise",
        -9.883118716998412
      ],
      [
        "▁luck",
        -9.884332527631038
      ],
      [
        "▁represent",
        -9.884695628562117
      ],
      [
        "▁central",
        -9.885140704414002
      ],
      [
        "▁decade",
        -9.885200440067651
      ],
      [
        "▁hospital",
        -9.885340688261937
      ],
      [
        "▁protection",
        -9.885365435085136
      ],
      [
        "▁seek",
        -9.886176553248214
      ],
      [
        "▁pott",
        -9.886190358164416
      ],
      [
        "▁fax",
        -9.887723619989448
      ],
      [
        "▁slight",
        -9.88908272811375
      ],
      [
        "▁print",
        -9.890235884589629
      ],
      [
        "▁meat",
        -9.891015103860841
      ],
      [
        "▁nor",
        -9.89164902710108
      ],
      [
        "▁>",
        -9.89313216809149
      ],
      [
        "ng",
        -9.893492774674161
      ],
      [
        "el",
        -9.893496957825084
      ],
      [
        "▁root",
        -9.89383508544524
      ],
      [
        "▁allowed",
        -9.89499266965926
      ],
      [
        "▁electric",
        -9.895810609290358
      ],
      [
        "▁mo",
        -9.896889913041775
      ],
      [
        "▁unit",
        -9.898385112200938
      ],
      [
        "▁tank",
        -9.899230960311762
      ],
      [
        "▁cake",
        -9.899641073150647
      ],
      [
        "▁24",
        -9.901498866315888
      ],
      [
        "giving",
        -9.902025076811533
      ],
      [
        "▁novel",
        -9.902270468134532
      ],
      [
        "▁absolute",
        -9.90239914093095
      ],
      [
        "▁michael",
        -9.90239914141482
      ],
      [
        "▁adult",
        -9.902399636029834
      ],
      [
        "▁potential",
        -9.90240586228533
      ],
      [
        "▁mrs",
        -9.90264785903788
      ],
      [
        "▁requirement",
        -9.902888366716681
      ],
      [
        "▁demand",
        -9.90342551257983
      ],
      [
        "how",
        -9.90362374372884
      ],
      [
        "▁pet",
        -9.903702327642833
      ],
      [
        "▁overall",
        -9.90428170829501
      ],
      [
        "▁popular",
        -9.904304226821022
      ],
      [
        "▁regional",
        -9.905011136554844
      ],
      [
        "▁machine",
        -9.905078269530996
      ],
      [
        "▁repair",
        -9.905171770341397
      ],
      [
        "j",
        -9.905622024254463
      ],
      [
        "▁media",
        -9.90616155372879
      ],
      [
        "▁butter",
        -9.907222428870234
      ],
      [
        "▁author",
        -9.910102181276532
      ],
      [
        "▁raise",
        -9.910280837743725
      ],
      [
        "▁effective",
        -9.912436889828335
      ],
      [
        "▁authorit",
        -9.913452921612718
      ],
      [
        "▁welcome",
        -9.916409768343538
      ],
      [
        "▁concept",
        -9.919643926250727
      ],
      [
        "▁duck",
        -9.919731442611953
      ],
      [
        "▁sudden",
        -9.919966496428993
      ],
      [
        "▁aspect",
        -9.920143200851001
      ],
      [
        "▁sell",
        -9.920357953146759
      ],
      [
        "▁intend",
        -9.920587722348937
      ],
      [
        "▁ma",
        -9.920918315001579
      ],
      [
        "▁search",
        -9.922198708028775
      ],
      [
        "▁bug",
        -9.923689676683471
      ],
      [
        "▁mail",
        -9.92519203467642
      ],
      [
        "▁google",
        -9.927683094126795
      ],
      [
        "▁wind",
        -9.929238727502886
      ],
      [
        "lates",
        -9.929961526455475
      ],
      [
        "▁holding",
        -9.931288372571883
      ],
      [
        "▁separate",
        -9.931432170760491
      ],
      [
        "▁magic",
        -9.932307653124319
      ],
      [
        "▁impact",
        -9.937802295290942
      ],
      [
        "▁federal",
        -9.937849818837378
      ],
      [
        "▁fail",
        -9.93795103330585
      ],
      [
        "▁robin",
        -9.938155350333954
      ],
      [
        "▁david",
        -9.93824295201857
      ],
      [
        "▁careful",
        -9.938286398777958
      ],
      [
        "▁eastern",
        -9.939335314107554
      ],
      [
        "▁affect",
        -9.943530886179996
      ],
      [
        "yond",
        -9.943646870610795
      ],
      [
        "▁brown",
        -9.943859279008663
      ],
      [
        "▁opening",
        -9.945679498278238
      ],
      [
        "▁tail",
        -9.947410629311516
      ],
      [
        "▁approach",
        -9.94793252376573
      ],
      [
        ":00",
        -9.94793885409551
      ],
      [
        "▁gun",
        -9.948813870789138
      ],
      [
        "▁standards",
        -9.949869174175245
      ],
      [
        "▁wil",
        -9.951413724719906
      ],
      [
        "▁pakistan",
        -9.95154619660648
      ],
      [
        "▁leaders",
        -9.951907682422233
      ],
      [
        "▁challenge",
        -9.9521951441339
      ],
      [
        "▁perform",
        -9.954138216437858
      ],
      [
        "▁body",
        -9.954221748288816
      ],
      [
        "▁arab",
        -9.954230710456176
      ],
      [
        "▁fixed",
        -9.954289810278848
      ],
      [
        "issues",
        -9.955504962066815
      ],
      [
        "▁associate",
        -9.955982073903495
      ],
      [
        "▁grandmother",
        -9.95598416541296
      ],
      [
        "microsoft",
        -9.955984339317643
      ],
      [
        "▁spell",
        -9.956060977342329
      ],
      [
        "▁wiki",
        -9.956211510288187
      ],
      [
        "▁dangerous",
        -9.956376165246418
      ],
      [
        "ell",
        -9.956509774130685
      ],
      [
        "▁wild",
        -9.956567087768201
      ],
      [
        "dding",
        -9.956739306371043
      ],
      [
        "▁lower",
        -9.958603496146413
      ],
      [
        "▁dear",
        -9.960720222050968
      ],
      [
        "thus",
        -9.961742460964565
      ],
      [
        "tacom",
        -9.963673486042874
      ],
      [
        "▁blood",
        -9.968452829817943
      ],
      [
        "▁arms",
        -9.971949662125335
      ],
      [
        "▁version",
        -9.972258655357475
      ],
      [
        "@enron",
        -9.972470480796085
      ],
      [
        "▁advance",
        -9.973676891462453
      ],
      [
        "▁evidence",
        -9.974500480343439
      ],
      [
        "▁built",
        -9.974500509246019
      ],
      [
        "technology",
        -9.97450159777933
      ],
      [
        "▁richard",
        -9.974529696566064
      ],
      [
        "▁climate",
        -9.97453084100097
      ],
      [
        "▁capacit",
        -9.974531328043984
      ],
      [
        "▁coast",
        -9.97473415707222
      ],
      [
        "▁stoo",
        -9.975091220356942
      ],
      [
        "▁deliver",
        -9.975644539083108
      ],
      [
        "zer",
        -9.977035845581094
      ],
      [
        "▁career",
        -9.977138743425586
      ],
      [
        "▁discover",
        -9.977341019591455
      ],
      [
        "▁tiger",
        -9.97740874806265
      ],
      [
        "▁bike",
        -9.977975964515634
      ],
      [
        "▁wheel",
        -9.978051805122595
      ],
      [
        "▁agenc",
        -9.978753251009813
      ],
      [
        "▁match",
        -9.982499387161194
      ],
      [
        "▁leader",
        -9.982571507138942
      ],
      [
        ":30",
        -9.98387724341551
      ],
      [
        "▁sad",
        -9.985491620914427
      ],
      [
        "men",
        -9.98655134742262
      ],
      [
        "▁democra",
        -9.987632172007753
      ],
      [
        "mas",
        -9.988217943930845
      ],
      [
        "ial",
        -9.990512826392031
      ],
      [
        "▁finding",
        -9.99158942780227
      ],
      [
        "▁50",
        -9.9918494896018
      ],
      [
        "▁paint",
        -9.993217790898079
      ],
      [
        "▁percent",
        -9.993263500434379
      ],
      [
        "▁cruise",
        -9.993365560462651
      ],
      [
        "▁heavy",
        -9.993369768046534
      ],
      [
        "▁companie",
        -9.993370137799893
      ],
      [
        "▁>>",
        -9.993376624891624
      ],
      [
        "▁bathroom",
        -9.993427265834741
      ],
      [
        "older",
        -9.993550198734509
      ],
      [
        "▁firm",
        -9.99370383551925
      ],
      [
        "▁bright",
        -9.99490114140757
      ],
      [
        "▁reserve",
        -9.995445747711887
      ],
      [
        "▁opinion",
        -9.996388900958523
      ],
      [
        "▁billion",
        -9.996556406058371
      ],
      [
        "▁korea",
        -9.996652273334895
      ],
      [
        "▁treatment",
        -9.996857578922127
      ],
      [
        "▁camel",
        -9.998244349587035
      ],
      [
        "▁fear",
        -9.998725571514457
      ],
      [
        "bru",
        -9.99884104736071
      ],
      [
        "▁tourist",
        -9.999027843351584
      ],
      [
        "▁confirm",
        -9.999244156292832
      ],
      [
        "▁ones",
        -10.000295969147531
      ],
      [
        "▁publishe",
        -10.001346998691314
      ],
      [
        "▁belong",
        -10.002584765363295
      ],
      [
        "stair",
        -10.002789962425616
      ],
      [
        "▁statement",
        -10.004906993161416
      ],
      [
        "▁analysis",
        -10.008015316976373
      ],
      [
        "▁improve",
        -10.008164727910518
      ],
      [
        "▁sexual",
        -10.008474949886596
      ],
      [
        "▁shape",
        -10.00870446721559
      ],
      [
        "▁dance",
        -10.008744723728704
      ],
      [
        "▁straight",
        -10.011143527489809
      ],
      [
        "wa",
        -10.011717949899978
      ],
      [
        "▁21",
        -10.011907505091214
      ],
      [
        "▁obvious",
        -10.012599269112568
      ],
      [
        "▁target",
        -10.01260378866528
      ],
      [
        "▁glad",
        -10.012605706218425
      ],
      [
        "▁spider",
        -10.01261944397129
      ],
      [
        "▁relationship",
        -10.012624418674685
      ],
      [
        "▁climb",
        -10.012830609903023
      ],
      [
        "▁terribl",
        -10.013118138244117
      ],
      [
        "▁grant",
        -10.014037034450098
      ],
      [
        "▁goal",
        -10.014148284476402
      ],
      [
        "dr.",
        -10.014890284994738
      ],
      [
        "▁remove",
        -10.01521375556516
      ],
      [
        "▁performance",
        -10.015876780535084
      ],
      [
        "▁chang",
        -10.016659065636802
      ],
      [
        "▁lego",
        -10.018626579257628
      ],
      [
        "▁via",
        -10.019938609861633
      ],
      [
        "▁metal",
        -10.020078825159391
      ],
      [
        "▁con",
        -10.02100902194586
      ],
      [
        "▁boot",
        -10.02133808547726
      ],
      [
        "▁pop",
        -10.022073966209343
      ],
      [
        "▁snow",
        -10.02271050076353
      ],
      [
        "▁purchase",
        -10.022759104555252
      ],
      [
        "▁100",
        -10.024573459884547
      ],
      [
        "oach",
        -10.024923429009931
      ],
      [
        "▁moon",
        -10.026781542496956
      ],
      [
        "▁hop",
        -10.027352905375936
      ],
      [
        "▁religious",
        -10.032207027492017
      ],
      [
        "▁female",
        -10.032207073181844
      ],
      [
        "▁previous",
        -10.032207623882059
      ],
      [
        "▁teeth",
        -10.032210250114025
      ],
      [
        "▁sector",
        -10.032289939461943
      ],
      [
        "▁desp",
        -10.032426565277248
      ],
      [
        "▁brit",
        -10.03258126413045
      ],
      [
        "▁online",
        -10.03350995692262
      ],
      [
        "▁director",
        -10.033838850461457
      ],
      [
        "▁poet",
        -10.034458248229422
      ],
      [
        "▁husband",
        -10.035309675679649
      ],
      [
        "▁basi",
        -10.035569951957982
      ],
      [
        "▁movement",
        -10.036536657440855
      ],
      [
        "den",
        -10.037360342322195
      ],
      [
        "▁legislati",
        -10.039603017584517
      ],
      [
        "▁season",
        -10.039948235215771
      ],
      [
        "▁standard",
        -10.041222880772752
      ],
      [
        "▁ears",
        -10.041426662766442
      ],
      [
        "▁cats",
        -10.04373207001384
      ],
      [
        "▁pant",
        -10.044142466981432
      ],
      [
        "ego",
        -10.044285533422883
      ],
      [
        "▁ran",
        -10.045955975866395
      ],
      [
        "▁meaning",
        -10.046224103604805
      ],
      [
        "▁rat",
        -10.04761845644451
      ],
      [
        "----------------",
        -10.048746141831925
      ],
      [
        "▁africa",
        -10.049073522058162
      ],
      [
        "▁player",
        -10.049423167993078
      ],
      [
        "▁twi",
        -10.050934599175292
      ],
      [
        "ring",
        -10.0515510429166
      ],
      [
        "tuck",
        -10.051761086129519
      ],
      [
        "▁responsibilit",
        -10.052207017030286
      ],
      [
        "▁atmospher",
        -10.05220719674776
      ],
      [
        "▁chocolate",
        -10.052207548068836
      ],
      [
        "▁sandwich",
        -10.052208566242921
      ],
      [
        "▁quiet",
        -10.052227686046741
      ],
      [
        "▁bridge",
        -10.05235543154727
      ],
      [
        "▁relative",
        -10.05258836970241
      ],
      [
        "facebook",
        -10.052923372285457
      ],
      [
        "▁creative",
        -10.053267823671908
      ],
      [
        "▁russian",
        -10.055205932225297
      ],
      [
        "▁q",
        -10.058537430395523
      ],
      [
        "▁institution",
        -10.059688234677788
      ],
      [
        "▁bath",
        -10.059729655148502
      ],
      [
        "▁corner",
        -10.0599474672404
      ],
      [
        "▁independent",
        -10.06009284831804
      ],
      [
        "▁twa",
        -10.060582632526108
      ],
      [
        "▁influence",
        -10.060668834000086
      ],
      [
        "▁japane",
        -10.06101628856472
      ],
      [
        "▁creat",
        -10.061859195017215
      ],
      [
        "▁hm",
        -10.06199727425496
      ],
      [
        "▁addition",
        -10.064805898499122
      ],
      [
        "ather",
        -10.064893331291113
      ],
      [
        "▁reported",
        -10.065166247443837
      ],
      [
        "ney",
        -10.067396478040747
      ],
      [
        "room",
        -10.069448991984004
      ],
      [
        "▁solution",
        -10.070068552691074
      ],
      [
        "▁ben",
        -10.070467283543966
      ],
      [
        "▁spring",
        -10.070542548728767
      ],
      [
        "▁aware",
        -10.070912975926465
      ],
      [
        "▁mass",
        -10.071444660237415
      ],
      [
        "▁applie",
        -10.072628173130669
      ],
      [
        "▁amendment",
        -10.072734576273497
      ],
      [
        "▁task",
        -10.07301123417372
      ],
      [
        "▁technical",
        -10.073287028773862
      ],
      [
        "▁wow",
        -10.075079850561519
      ],
      [
        "▁surface",
        -10.075778567670099
      ],
      [
        "▁format",
        -10.076963184602915
      ],
      [
        "▁debate",
        -10.07741809096905
      ],
      [
        "▁marri",
        -10.080118157675546
      ],
      [
        "▁intelligence",
        -10.080150871265147
      ],
      [
        "like",
        -10.080425000117348
      ],
      [
        "▁quote",
        -10.082488637376642
      ],
      [
        "▁generation",
        -10.082781342003537
      ],
      [
        "▁22",
        -10.08318389367813
      ],
      [
        "▁avail",
        -10.083265945658098
      ],
      [
        "▁painting",
        -10.083928722298221
      ],
      [
        "▁adopt",
        -10.084574597257477
      ],
      [
        "▁employ",
        -10.088649429823139
      ],
      [
        "▁locate",
        -10.09003414721404
      ],
      [
        "▁foreign",
        -10.090034904375827
      ],
      [
        "am",
        -10.091689150316952
      ],
      [
        "▁argument",
        -10.091694517929351
      ],
      [
        "▁rose",
        -10.09219394692316
      ],
      [
        "▁threat",
        -10.092699496491623
      ],
      [
        "▁russia",
        -10.093386001150765
      ],
      [
        "▁vacation",
        -10.09345424680504
      ],
      [
        "▁balloon",
        -10.093477167611578
      ],
      [
        "▁worst",
        -10.093554524413722
      ],
      [
        "▁apartment",
        -10.093632376091454
      ],
      [
        "▁auster",
        -10.093740821582713
      ],
      [
        "▁discussion",
        -10.093775380211559
      ],
      [
        "▁path",
        -10.094064292817464
      ],
      [
        "▁agent",
        -10.094066601480487
      ],
      [
        "▁mode",
        -10.094298548222424
      ],
      [
        "▁wake",
        -10.094317292257315
      ],
      [
        "▁thirty",
        -10.094358840723617
      ],
      [
        "▁exchange",
        -10.0945052627697
      ],
      [
        "▁title",
        -10.095861995813125
      ],
      [
        "▁carol",
        -10.096490346965599
      ],
      [
        "▁representative",
        -10.0966294295933
      ],
      [
        "▁ice",
        -10.096741292210616
      ],
      [
        "▁visa",
        -10.096878809545425
      ],
      [
        "burban",
        -10.097176128911986
      ],
      [
        "▁male",
        -10.097250374085753
      ],
      [
        "sible",
        -10.097428284832128
      ],
      [
        "▁cha",
        -10.097674967400998
      ],
      [
        "▁pan",
        -10.098178326170919
      ],
      [
        "▁mexic",
        -10.099734497630761
      ],
      [
        "▁digital",
        -10.10062315121188
      ],
      [
        "▁scientology",
        -10.100689309787544
      ],
      [
        "▁communication",
        -10.1007960642801
      ],
      [
        "▁brain",
        -10.100869803622542
      ],
      [
        "▁rid",
        -10.101278711833725
      ],
      [
        "workers",
        -10.101694597666441
      ],
      [
        "99",
        -10.102062258249354
      ],
      [
        "▁decide",
        -10.104276664509735
      ],
      [
        "▁environmental",
        -10.104283485444515
      ],
      [
        "▁23",
        -10.10553597822018
      ],
      [
        "some",
        -10.107927398645815
      ],
      [
        "▁realize",
        -10.109858359280215
      ],
      [
        "▁understanding",
        -10.110680125072186
      ],
      [
        "▁handle",
        -10.110926627275713
      ],
      [
        "▁uncle",
        -10.112157463558006
      ],
      [
        "▁steps",
        -10.112586192971259
      ],
      [
        "▁fundamental",
        -10.114596577091941
      ],
      [
        "▁brief",
        -10.114715148759563
      ],
      [
        "▁behavior",
        -10.114725109376947
      ],
      [
        "▁unique",
        -10.11473230310923
      ],
      [
        "▁network",
        -10.114768340532052
      ],
      [
        "▁bulldo",
        -10.114807278789257
      ],
      [
        "▁sophie",
        -10.114997727745912
      ],
      [
        "▁dan",
        -10.115063643769087
      ],
      [
        "▁snake",
        -10.115081793388157
      ],
      [
        "▁pretend",
        -10.116056511497074
      ],
      [
        "▁lock",
        -10.117110759361948
      ],
      [
        "▁award",
        -10.117444460930496
      ],
      [
        "▁border",
        -10.117666415154245
      ],
      [
        "▁kill",
        -10.117685468847565
      ],
      [
        "▁reasonabl",
        -10.117776793103243
      ],
      [
        "▁*",
        -10.117877523514402
      ],
      [
        "▁direction",
        -10.118351869166657
      ],
      [
        "▁loud",
        -10.119860586951017
      ],
      [
        "▁tool",
        -10.12088240104139
      ],
      [
        "▁screen",
        -10.121830222635221
      ],
      [
        "▁meant",
        -10.122090746248514
      ],
      [
        "▁rabbit",
        -10.122306294018943
      ],
      [
        "tion",
        -10.125233970973998
      ],
      [
        "▁cash",
        -10.125763601117857
      ],
      [
        "▁pour",
        -10.12621983720067
      ],
      [
        "▁standing",
        -10.126534326889345
      ],
      [
        "▁rath",
        -10.127023797123021
      ],
      [
        "▁franc",
        -10.128015410435147
      ],
      [
        "▁prevent",
        -10.128600324641631
      ],
      [
        "ard",
        -10.130150911781353
      ],
      [
        "chines",
        -10.134560858429385
      ],
      [
        "▁appreciate",
        -10.136464239810229
      ],
      [
        "▁provision",
        -10.1364722406962
      ],
      [
        "▁scene",
        -10.13648084242148
      ],
      [
        "▁euro",
        -10.136737996518406
      ],
      [
        "▁fantas",
        -10.136814735372736
      ],
      [
        "▁barn",
        -10.137480386692218
      ],
      [
        "▁swing",
        -10.13820522692908
      ],
      [
        "▁progress",
        -10.13937113469779
      ],
      [
        "▁whom",
        -10.140647694554062
      ],
      [
        "▁quer",
        -10.141258963097028
      ],
      [
        "▁suit",
        -10.14228387446061
      ],
      [
        "ka",
        -10.142516734386247
      ],
      [
        "▁sport",
        -10.142983667662511
      ],
      [
        ";",
        -10.143379149407256
      ],
      [
        "▁damage",
        -10.145270413763164
      ],
      [
        "▁hungr",
        -10.145483459164764
      ],
      [
        "▁prove",
        -10.145761027219178
      ],
      [
        "line",
        -10.147401681829841
      ],
      [
        "▁row",
        -10.151209095303194
      ],
      [
        "▁sub",
        -10.151880677792608
      ],
      [
        "▁apple",
        -10.154929361729115
      ],
      [
        "▁smart",
        -10.155062425217782
      ],
      [
        "▁fat",
        -10.156080027789905
      ],
      [
        "▁rich",
        -10.15651047844195
      ],
      [
        "▁columb",
        -10.158205151362491
      ],
      [
        "▁cell",
        -10.158437761521379
      ],
      [
        "▁unfortunate",
        -10.158686930279941
      ],
      [
        "▁e-mail",
        -10.158687044537775
      ],
      [
        "▁jack",
        -10.15886605485621
      ],
      [
        "▁appropriate",
        -10.160278765502458
      ],
      [
        "resources",
        -10.16114194593101
      ],
      [
        "▁gain",
        -10.162357844641829
      ],
      [
        "▁update",
        -10.162421762096052
      ],
      [
        "▁truth",
        -10.162827387192559
      ],
      [
        "▁skin",
        -10.163515919232244
      ],
      [
        "▁range",
        -10.163521462061833
      ],
      [
        "▁197",
        -10.16353101700666
      ],
      [
        "▁launch",
        -10.164931345598614
      ],
      [
        "▁loan",
        -10.166303131652041
      ],
      [
        "▁plate",
        -10.166528179277579
      ],
      [
        "▁extend",
        -10.166676855869172
      ],
      [
        "▁cookie",
        -10.168072851127977
      ],
      [
        "▁lee",
        -10.168241855069446
      ],
      [
        "▁master",
        -10.170696299057951
      ],
      [
        "▁sheet",
        -10.17121234344201
      ],
      [
        "▁respond",
        -10.171653183381736
      ],
      [
        "▁function",
        -10.173964540264658
      ],
      [
        "▁murder",
        -10.178754991535419
      ],
      [
        "▁penn",
        -10.179196062591817
      ],
      [
        "icles",
        -10.179510365423598
      ],
      [
        "▁success",
        -10.181021340606058
      ],
      [
        "▁professor",
        -10.181413735341554
      ],
      [
        "▁increasing",
        -10.181413744083253
      ],
      [
        "▁frequent",
        -10.181413771217484
      ],
      [
        "▁peanut",
        -10.181416090510334
      ],
      [
        "▁afford",
        -10.181417473044453
      ],
      [
        "▁sugar",
        -10.181424182411474
      ],
      [
        "▁alternative",
        -10.181426860325995
      ],
      [
        "▁fifth",
        -10.181447026310526
      ],
      [
        "beauty",
        -10.181470678620494
      ],
      [
        "▁error",
        -10.181557415232795
      ],
      [
        "▁syria",
        -10.181688655803242
      ],
      [
        "▁bray",
        -10.182746539923922
      ],
      [
        "▁bunn",
        -10.182780482236405
      ],
      [
        "abilit",
        -10.183707392016611
      ],
      [
        "▁flat",
        -10.184359487024068
      ],
      [
        "▁shot",
        -10.184503817090516
      ],
      [
        "▁egypt",
        -10.1847985098435
      ],
      [
        "▁setting",
        -10.185609615425511
      ],
      [
        "▁dropp",
        -10.18656189390868
      ],
      [
        "▁mid",
        -10.187685278017838
      ],
      [
        "▁connect",
        -10.188632329013068
      ],
      [
        "▁collect",
        -10.18980878326458
      ],
      [
        "▁achieve",
        -10.189840157029934
      ],
      [
        "▁judge",
        -10.190003327037997
      ],
      [
        "▁employee",
        -10.190394066382755
      ],
      [
        "ban",
        -10.190481052506714
      ],
      [
        "killed",
        -10.19147365928092
      ],
      [
        "▁expected",
        -10.194861510635993
      ],
      [
        "▁western",
        -10.196199084863997
      ],
      [
        "▁dish",
        -10.196837303317874
      ],
      [
        "▁sales",
        -10.197326598748297
      ],
      [
        "▁ant",
        -10.19748407959075
      ],
      [
        "▁defens",
        -10.197524706344003
      ],
      [
        "▁waste",
        -10.198113288706843
      ],
      [
        "▁nail",
        -10.19822154596201
      ],
      [
        "▁hearing",
        -10.198820770242044
      ],
      [
        "▁cloth",
        -10.199962556089575
      ],
      [
        "▁none",
        -10.2003362962494
      ],
      [
        "hiri",
        -10.203903256193778
      ],
      [
        "▁conflict",
        -10.204669550538098
      ],
      [
        "▁rapid",
        -10.204673111691456
      ],
      [
        "▁belief",
        -10.204679078988857
      ],
      [
        "▁degree",
        -10.204707577621196
      ],
      [
        "▁distance",
        -10.204901669853612
      ],
      [
        "▁procedure",
        -10.204903208602035
      ],
      [
        "▁breath",
        -10.205118450303015
      ],
      [
        "▁madam",
        -10.205564989621466
      ],
      [
        "▁assistan",
        -10.20586656106855
      ],
      [
        "▁lie",
        -10.206084974038182
      ],
      [
        "▁critic",
        -10.206440540238258
      ],
      [
        "▁broad",
        -10.207058253664163
      ],
      [
        "▁responsibl",
        -10.208179610085807
      ],
      [
        "▁assume",
        -10.209304170582872
      ],
      [
        "▁happens",
        -10.210783331487026
      ],
      [
        "▁speci",
        -10.210795885890462
      ],
      [
        "▁za",
        -10.211221408555271
      ],
      [
        "▁approve",
        -10.213022667942136
      ],
      [
        "▁secret",
        -10.213394161057552
      ],
      [
        "▁flow",
        -10.214666581006172
      ],
      [
        "[",
        -10.21645951158514
      ],
      [
        ".html",
        -10.21764928223411
      ],
      [
        "kay",
        -10.217842370948746
      ],
      [
        "▁crowd",
        -10.217889660997221
      ],
      [
        "▁japan",
        -10.218088520245933
      ],
      [
        "▁finishe",
        -10.218746921519685
      ],
      [
        "▁northwest",
        -10.219140511098516
      ],
      [
        "▁essential",
        -10.221805897015251
      ],
      [
        "▁abilit",
        -10.22213223132514
      ],
      [
        "▁finance",
        -10.222540480018358
      ],
      [
        "▁port",
        -10.223668822880047
      ],
      [
        "▁shar",
        -10.225618186459837
      ],
      [
        "▁stretch",
        -10.22603901410388
      ],
      [
        "▁strateg",
        -10.228116693360885
      ],
      [
        "▁fifteen",
        -10.228479119340658
      ],
      [
        "▁context",
        -10.228485721305242
      ],
      [
        "▁knock",
        -10.228486268321412
      ],
      [
        "▁newspaper",
        -10.228500768366864
      ],
      [
        "▁australia",
        -10.228539533937516
      ],
      [
        "▁disaster",
        -10.228608850271666
      ],
      [
        "▁settlement",
        -10.228678101085473
      ],
      [
        "▁operator",
        -10.22869306067459
      ],
      [
        "▁budget",
        -10.228693123601182
      ],
      [
        "plus",
        -10.229402211254843
      ],
      [
        "▁payment",
        -10.229523303342066
      ],
      [
        "▁basil",
        -10.229529514707162
      ],
      [
        "▁lady",
        -10.229576078309982
      ],
      [
        "▁doubt",
        -10.22992829491539
      ],
      [
        "▁introduce",
        -10.230096505348758
      ],
      [
        "▁fourth",
        -10.230459118146282
      ],
      [
        "▁score",
        -10.230553121874253
      ],
      [
        "▁comfortabl",
        -10.230903163603637
      ],
      [
        "▁database",
        -10.232097336624914
      ],
      [
        "▁camera",
        -10.232108100537998
      ],
      [
        "▁hide",
        -10.232902952082627
      ],
      [
        "▁cream",
        -10.23341418063066
      ],
      [
        "▁mix",
        -10.233488961241536
      ],
      [
        "ter",
        -10.233640353480736
      ],
      [
        "▁farm",
        -10.233665276799247
      ],
      [
        "▁chris",
        -10.233856856639255
      ],
      [
        "▁twel",
        -10.234584757850662
      ],
      [
        "▁birth",
        -10.235472313336206
      ],
      [
        "▁beside",
        -10.235719030795961
      ],
      [
        "▁map",
        -10.238412379251011
      ],
      [
        "▁honest",
        -10.238579229569426
      ],
      [
        "▁trans",
        -10.24175503886113
      ],
      [
        "▁weather",
        -10.242146137532197
      ],
      [
        "▁string",
        -10.243031320705578
      ],
      [
        "▁grand",
        -10.245741682299439
      ],
      [
        "▁rough",
        -10.24911998212881
      ],
      [
        "&",
        -10.249190546725288
      ],
      [
        "▁export",
        -10.249680079480104
      ],
      [
        "▁storm",
        -10.25015836468303
      ],
      [
        "▁rent",
        -10.25246003005661
      ],
      [
        "▁pillow",
        -10.252861813645964
      ],
      [
        "ukraine",
        -10.252869386330055
      ],
      [
        "ontario",
        -10.252869506394088
      ],
      [
        "▁constant",
        -10.252870556363803
      ],
      [
        "▁blanket",
        -10.252889123360184
      ],
      [
        "▁minister",
        -10.252889875187488
      ],
      [
        "senate",
        -10.253017596204298
      ],
      [
        "▁santa",
        -10.254333178288116
      ],
      [
        "▁terrorist",
        -10.255136320630161
      ],
      [
        "▁miles",
        -10.256091393876662
      ],
      [
        "▁averag",
        -10.256091981264758
      ],
      [
        "▁pair",
        -10.256387666045104
      ],
      [
        "▁sample",
        -10.25647183985771
      ],
      [
        "▁max",
        -10.256620964213688
      ],
      [
        "▁african",
        -10.256723498498086
      ],
      [
        "▁civil",
        -10.25714523746512
      ],
      [
        "▁stage",
        -10.258035822674424
      ],
      [
        "▁host",
        -10.258260192872175
      ],
      [
        "▁lose",
        -10.258495922323526
      ],
      [
        "▁jer",
        -10.261565076248
      ],
      [
        "▁wave",
        -10.26247914628219
      ],
      [
        "co",
        -10.262922599603913
      ],
      [
        "thoma",
        -10.263810885580044
      ],
      [
        "▁pain",
        -10.26580760376326
      ],
      [
        "▁pink",
        -10.268543617258132
      ],
      [
        "ax",
        -10.270340405657544
      ],
      [
        "▁carrie",
        -10.273591034442296
      ],
      [
        "▁tent",
        -10.273889171115055
      ],
      [
        "▁inform",
        -10.274334601535465
      ],
      [
        "ific",
        -10.274492807725405
      ],
      [
        "▁mistake",
        -10.274528455669786
      ],
      [
        "▁facilit",
        -10.275880372207986
      ],
      [
        "▁silver",
        -10.275970220632082
      ],
      [
        "▁audience",
        -10.27786933649122
      ],
      [
        "▁eleven",
        -10.277873672719533
      ],
      [
        "grew",
        -10.277962225737832
      ],
      [
        "▁christian",
        -10.277968207426907
      ],
      [
        "▁guarantee",
        -10.278031586291146
      ],
      [
        "▁florid",
        -10.278329551651536
      ],
      [
        "▁menu",
        -10.280265667939627
      ],
      [
        "▁rude",
        -10.28054103735921
      ],
      [
        "values",
        -10.280848054459003
      ],
      [
        "▁fruit",
        -10.281249208592598
      ],
      [
        "▁exhibit",
        -10.281374845629498
      ],
      [
        "▁objective",
        -10.283160442442085
      ],
      [
        "▁rice",
        -10.283959690009752
      ],
      [
        "▁cap",
        -10.285265275989884
      ],
      [
        "options",
        -10.285570674830053
      ],
      [
        "▁famous",
        -10.286258231953614
      ],
      [
        "▁refer",
        -10.287595319121037
      ],
      [
        "tte",
        -10.289031675603795
      ],
      [
        "phone",
        -10.2896521070147
      ],
      [
        "▁wealth",
        -10.290666521860498
      ],
      [
        "▁+",
        -10.291591318917883
      ],
      [
        "▁democratic",
        -10.29229710531951
      ],
      [
        "▁announce",
        -10.293202294423114
      ],
      [
        "▁traffic",
        -10.293287235109082
      ],
      [
        "▁observe",
        -10.294596196781741
      ],
      [
        "▁fellow",
        -10.295360417901076
      ],
      [
        "▁stock",
        -10.296079506022659
      ],
      [
        "▁vet",
        -10.297382607211777
      ],
      [
        "▁reduce",
        -10.29837615562321
      ],
      [
        "wood",
        -10.2986949906636
      ],
      [
        "▁territor",
        -10.298787664304426
      ],
      [
        "▁pie",
        -10.299233412537593
      ],
      [
        "▁worse",
        -10.299595395224918
      ],
      [
        "house",
        -10.300142089259193
      ],
      [
        "▁jame",
        -10.301174425341186
      ],
      [
        "▁german",
        -10.302400648118518
      ],
      [
        "▁shopp",
        -10.302402854406697
      ],
      [
        "nuclear",
        -10.303510437690901
      ],
      [
        "▁component",
        -10.303510439155783
      ],
      [
        "▁soldier",
        -10.303523560275064
      ],
      [
        "▁attract",
        -10.303529370721275
      ],
      [
        "▁transaction",
        -10.303540610792313
      ],
      [
        "▁whale",
        -10.30357682550913
      ],
      [
        "▁horribl",
        -10.303636837865561
      ],
      [
        "▁dust",
        -10.303869755320235
      ],
      [
        "▁shut",
        -10.303902949014553
      ],
      [
        "▁telephone",
        -10.303930198868539
      ],
      [
        "▁gold",
        -10.303971644228682
      ],
      [
        "▁innovation",
        -10.304386730325223
      ],
      [
        "elected",
        -10.30473109780582
      ],
      [
        "▁salad",
        -10.304965784863878
      ],
      [
        "▁anthr",
        -10.304980826298676
      ],
      [
        "▁smoke",
        -10.305274279390108
      ],
      [
        "▁escape",
        -10.30671953014941
      ],
      [
        "▁mad",
        -10.306761536347539
      ],
      [
        "▁mess",
        -10.30694066153123
      ],
      [
        "▁canadian",
        -10.307296410729702
      ],
      [
        "▁executive",
        -10.307323227234225
      ],
      [
        "▁daniel",
        -10.309179178378967
      ],
      [
        "healthy",
        -10.312080979635459
      ],
      [
        "▁danc",
        -10.312205790553548
      ],
      [
        "▁secretary",
        -10.312703047963812
      ],
      [
        "▁prepared",
        -10.314398258445587
      ],
      [
        "▁sixt",
        -10.314820239828894
      ],
      [
        "▁lesson",
        -10.317212412977472
      ],
      [
        "▁eu",
        -10.317409109532633
      ],
      [
        "▁replace",
        -10.320382616307313
      ],
      [
        "▁production",
        -10.32040708685349
      ],
      [
        "▁plays",
        -10.320436896550877
      ],
      [
        "let",
        -10.321804191511013
      ],
      [
        "der",
        -10.321877113615637
      ],
      [
        "red",
        -10.32416132655295
      ],
      [
        "ware",
        -10.324617170235129
      ],
      [
        "▁tall",
        -10.326019748049678
      ],
      [
        "dden",
        -10.327630011614936
      ],
      [
        "▁da",
        -10.328281485596344
      ],
      [
        "▁assist",
        -10.329274202506792
      ],
      [
        "▁encourage",
        -10.329826139607892
      ],
      [
        "▁weasley",
        -10.32982798063696
      ],
      [
        "▁temperature",
        -10.329829038882743
      ],
      [
        "▁counterpart",
        -10.329833953168036
      ],
      [
        "▁positive",
        -10.329847708282912
      ],
      [
        "▁pilot",
        -10.32985901862464
      ],
      [
        "▁danny",
        -10.329860087522384
      ],
      [
        "▁airplane",
        -10.329874714158766
      ],
      [
        "leading",
        -10.330475952840988
      ],
      [
        "▁plent",
        -10.33081725419936
      ],
      [
        "▁assess",
        -10.331376900923404
      ],
      [
        "▁sink",
        -10.33166382872924
      ],
      [
        "ted",
        -10.332584076702048
      ],
      [
        "▁reli",
        -10.333137106044003
      ],
      [
        "▁container",
        -10.333310155606114
      ],
      [
        "▁scient",
        -10.333370518088712
      ],
      [
        "▁afr",
        -10.333589273730265
      ],
      [
        "▁copie",
        -10.333983114331348
      ],
      [
        "▁weight",
        -10.3344370843312
      ],
      [
        "▁van",
        -10.336357251169312
      ],
      [
        "▁yog",
        -10.337902533332155
      ],
      [
        "▁doll",
        -10.338256770839742
      ],
      [
        "▁speed",
        -10.33861508391913
      ],
      [
        "▁driver",
        -10.33885493141646
      ],
      [
        "▁compare",
        -10.339152859330735
      ],
      [
        "▁load",
        -10.340114103914079
      ],
      [
        "▁jobs",
        -10.341314715664248
      ],
      [
        "▁active",
        -10.34200681494675
      ],
      [
        "▁regulation",
        -10.34312359797177
      ],
      [
        "▁mary",
        -10.344086570439966
      ],
      [
        "▁micro",
        -10.344555955287333
      ],
      [
        "▁suffer",
        -10.346442631697125
      ],
      [
        "▁remind",
        -10.346554511988558
      ],
      [
        "▁smile",
        -10.346874487977049
      ],
      [
        "▁complex",
        -10.347927514409479
      ],
      [
        "▁tour",
        -10.348839428124855
      ],
      [
        "▁pig",
        -10.349607834643734
      ],
      [
        "▁flag",
        -10.350756055014156
      ],
      [
        "▁fred",
        -10.352717553385348
      ],
      [
        "▁du",
        -10.353885830466703
      ],
      [
        "▁rise",
        -10.354196727113592
      ],
      [
        "▁hate",
        -10.355992606233913
      ],
      [
        "▁screw",
        -10.356853173571636
      ],
      [
        "▁vietnam",
        -10.35685326604389
      ],
      [
        "▁physical",
        -10.356853274678253
      ],
      [
        "▁muscle",
        -10.356855883872246
      ],
      [
        "▁museum",
        -10.356858008568029
      ],
      [
        "▁television",
        -10.356864432992076
      ],
      [
        "▁senator",
        -10.356880769308509
      ],
      [
        "▁kick",
        -10.356902147169885
      ],
      [
        "▁guest",
        -10.356958816450842
      ],
      [
        "▁dragon",
        -10.357756051705678
      ],
      [
        "▁pressure",
        -10.358009090791573
      ],
      [
        "▁boom",
        -10.358912447775403
      ],
      [
        "▁babi",
        -10.358924026153222
      ],
      [
        "▁cia",
        -10.359132556905417
      ],
      [
        "▁define",
        -10.36036684418025
      ],
      [
        "▁convention",
        -10.360637373840621
      ],
      [
        "▁typical",
        -10.360761722671526
      ],
      [
        "▁expand",
        -10.361047270170744
      ],
      [
        "▁manner",
        -10.361365195303064
      ],
      [
        "▁…",
        -10.362146607383744
      ],
      [
        "over",
        -10.3623703449823
      ],
      [
        "▁litera",
        -10.364441535663433
      ],
      [
        "▁centre",
        -10.366324659233822
      ],
      [
        "▁ne",
        -10.366660486380518
      ],
      [
        "▁40",
        -10.367895768096856
      ],
      [
        "▁exercise",
        -10.3685136956441
      ],
      [
        "▁decline",
        -10.369894782496665
      ],
      [
        "light",
        -10.369982079391132
      ],
      [
        "▁60",
        -10.371028459680954
      ],
      [
        "▁lion",
        -10.374678721809214
      ],
      [
        "back",
        -10.376143730887392
      ],
      [
        "▁skills",
        -10.37699795684029
      ],
      [
        "▁net",
        -10.377979438347554
      ],
      [
        "▁bomb",
        -10.382107577715926
      ],
      [
        "▁extra",
        -10.383461824685384
      ],
      [
        "▁wood",
        -10.384067626380762
      ],
      [
        "▁chief",
        -10.384632411053044
      ],
      [
        "▁competition",
        -10.384635257676967
      ],
      [
        "▁monkey",
        -10.384652390887487
      ],
      [
        "▁italian",
        -10.384712504855715
      ],
      [
        "▁laws",
        -10.384723003713237
      ],
      [
        "▁mouse",
        -10.384774190059343
      ],
      [
        "▁shoot",
        -10.384963111907103
      ],
      [
        "▁zero",
        -10.385321980010975
      ],
      [
        "fighting",
        -10.385658528810044
      ],
      [
        "▁islami",
        -10.386562350147456
      ],
      [
        "▁visitor",
        -10.386575335040488
      ],
      [
        "▁collection",
        -10.386645507457198
      ],
      [
        "▁channel",
        -10.388427101857962
      ],
      [
        "▁arrest",
        -10.38846370097712
      ],
      [
        "▁principle",
        -10.388656740252483
      ],
      [
        "▁speaker",
        -10.389245842676363
      ],
      [
        "▁relevan",
        -10.38945273533094
      ],
      [
        "▁refuse",
        -10.391924454473298
      ],
      [
        "▁argue",
        -10.392042044506413
      ],
      [
        "▁indicate",
        -10.393354502906549
      ],
      [
        "▁recognize",
        -10.393824376913377
      ],
      [
        "▁officer",
        -10.393886148440577
      ],
      [
        "▁hol",
        -10.394571364646449
      ],
      [
        "10",
        -10.39516842483354
      ],
      [
        "▁patient",
        -10.396914008804334
      ],
      [
        "▁statu",
        -10.3985864421217
      ],
      [
        "▁win",
        -10.399475608305343
      ],
      [
        "▁counter",
        -10.4006286197429
      ],
      [
        "▁aw",
        -10.402648998505986
      ],
      [
        "▁route",
        -10.404320496477425
      ],
      [
        "▁tight",
        -10.404669364375863
      ],
      [
        "▁chemical",
        -10.40534298439392
      ],
      [
        "delivery",
        -10.411582235775047
      ],
      [
        "▁desire",
        -10.412412358199692
      ],
      [
        "▁participant",
        -10.413202364932957
      ],
      [
        "▁district",
        -10.413202366123436
      ],
      [
        "▁affair",
        -10.413202799980736
      ],
      [
        "▁pleasant",
        -10.413206294081919
      ],
      [
        "▁flavor",
        -10.413242126392788
      ],
      [
        "▁conduct",
        -10.413388339940763
      ],
      [
        "▁governor",
        -10.41345145659759
      ],
      [
        "▁mitch",
        -10.413483401776446
      ],
      [
        "▁bedroom",
        -10.413496842571778
      ],
      [
        "▁kitten",
        -10.413621415905885
      ],
      [
        "▁flood",
        -10.41368083891262
      ],
      [
        "▁ham",
        -10.413819858348106
      ],
      [
        "▁creation",
        -10.413870934357275
      ],
      [
        "▁resident",
        -10.414229815788886
      ],
      [
        "▁hopeful",
        -10.414239758342678
      ],
      [
        "nana",
        -10.414934598052154
      ],
      [
        "▁‘",
        -10.415628019341831
      ],
      [
        "ling",
        -10.416450476692228
      ],
      [
        "▁photograph",
        -10.416839666081145
      ],
      [
        "▁double",
        -10.416841541418657
      ],
      [
        "▁rare",
        -10.416927011266548
      ],
      [
        "▁beat",
        -10.417546041339616
      ],
      [
        "ow",
        -10.417906897432262
      ],
      [
        "▁gulf",
        -10.42235873499922
      ],
      [
        "▁divers",
        -10.423396948910648
      ],
      [
        "▁jean",
        -10.42357288364143
      ],
      [
        "lie",
        -10.423725476075907
      ],
      [
        "ent",
        -10.423726225347563
      ],
      [
        "▁ron",
        -10.423860082259235
      ],
      [
        "▁injur",
        -10.424420150815077
      ],
      [
        "▁historical",
        -10.424459356439355
      ],
      [
        "work",
        -10.426411226426824
      ],
      [
        "▁bother",
        -10.426667360308784
      ],
      [
        "▁stone",
        -10.426824885861128
      ],
      [
        "▁invite",
        -10.42929344343966
      ],
      [
        "▁loss",
        -10.430305285302293
      ],
      [
        "▁formal",
        -10.431851431001792
      ],
      [
        "▁mathematic",
        -10.432862730774481
      ],
      [
        "▁shoulder",
        -10.432867826717171
      ],
      [
        "▁select",
        -10.433137018204421
      ],
      [
        "▁constitution",
        -10.433450811977687
      ],
      [
        "ge",
        -10.43647482701461
      ],
      [
        "▁william",
        -10.437341329004573
      ],
      [
        "▁impos",
        -10.43746241136066
      ],
      [
        "▁labor",
        -10.43887390406072
      ],
      [
        "▁insur",
        -10.439475679477876
      ],
      [
        "▁priorit",
        -10.439674910860106
      ],
      [
        "old",
        -10.441889969999956
      ],
      [
        "▁robot",
        -10.442380975689163
      ],
      [
        "▁elephant",
        -10.442614129706278
      ],
      [
        "▁purple",
        -10.442614212228492
      ],
      [
        "▁exposure",
        -10.442615138456684
      ],
      [
        "▁garage",
        -10.442688655353582
      ],
      [
        "▁peaceful",
        -10.443086880787508
      ],
      [
        "▁suggestion",
        -10.443104822696068
      ],
      [
        "▁ko",
        -10.443486396011789
      ],
      [
        "▁unlike",
        -10.4435120846433
      ],
      [
        "▁cutting",
        -10.443692002345442
      ],
      [
        "▁sex",
        -10.443941733724728
      ],
      [
        "▁tali",
        -10.444302800860159
      ],
      [
        "▁26",
        -10.444339909649962
      ],
      [
        "▁cycle",
        -10.444696400183258
      ],
      [
        "lity",
        -10.444900019306813
      ],
      [
        "▁prior",
        -10.444960460163216
      ],
      [
        "▁apart",
        -10.44541581433381
      ],
      [
        "▁justice",
        -10.447394036159906
      ],
      [
        "ition",
        -10.447536803775897
      ],
      [
        "▁teaching",
        -10.448204703209782
      ],
      [
        "80",
        -10.448643577323836
      ],
      [
        "▁instance",
        -10.45047370609117
      ],
      [
        "▁edge",
        -10.45078572764857
      ],
      [
        "▁ski",
        -10.451633573720821
      ],
      [
        "▁onto",
        -10.451846975834846
      ],
      [
        "▁jim",
        -10.452034046016795
      ],
      [
        "▁dem",
        -10.452233595301296
      ],
      [
        "her",
        -10.452666445915362
      ],
      [
        "corn",
        -10.453963532615916
      ],
      [
        "▁trial",
        -10.454129826038162
      ],
      [
        "▁spani",
        -10.456749780547757
      ],
      [
        "▁http://",
        -10.457608545318877
      ],
      [
        "89",
        -10.461212673773534
      ],
      [
        "▁frank",
        -10.462540985600233
      ],
      [
        "▁aunt",
        -10.463251006742345
      ],
      [
        "tra",
        -10.46358814092874
      ],
      [
        "▁advi",
        -10.463729185567328
      ],
      [
        "▁won",
        -10.467512751478653
      ],
      [
        "bur",
        -10.468101943083731
      ],
      [
        "▁majorit",
        -10.468122803179414
      ],
      [
        "▁efficient",
        -10.46855496557836
      ],
      [
        "▁robert",
        -10.469093725669433
      ],
      [
        "▁iodi",
        -10.469194088315112
      ],
      [
        "▁continu",
        -10.470243652540493
      ],
      [
        "▁command",
        -10.470938595261684
      ],
      [
        "▁engine",
        -10.471244224793356
      ],
      [
        "▁bye",
        -10.47156269501421
      ],
      [
        "▁spirit",
        -10.472912105798288
      ],
      [
        "furniture",
        -10.472917173786806
      ],
      [
        "▁nervous",
        -10.472917336433326
      ],
      [
        "▁advantage",
        -10.472919085236944
      ],
      [
        "▁appointment",
        -10.472923888566122
      ],
      [
        "▁cowboy",
        -10.472924822196255
      ],
      [
        "▁monster",
        -10.472927760171148
      ],
      [
        "▁impress",
        -10.472934489338103
      ],
      [
        "▁failure",
        -10.472943059638888
      ],
      [
        "▁bump",
        -10.472953200533587
      ],
      [
        "▁suicid",
        -10.472980244102724
      ],
      [
        "▁vince",
        -10.473059950839252
      ],
      [
        "▁trading",
        -10.473081653406306
      ],
      [
        "▁vast",
        -10.47321119404901
      ],
      [
        "▁pupp",
        -10.473326506840666
      ],
      [
        "▁proud",
        -10.473915630152273
      ],
      [
        "▁click",
        -10.474054695013015
      ],
      [
        "▁awe",
        -10.474864477728183
      ],
      [
        "hood",
        -10.475775118885322
      ],
      [
        "ize",
        -10.476033180176671
      ],
      [
        "▁pin",
        -10.476595020091057
      ],
      [
        "▁enem",
        -10.476676807616599
      ],
      [
        "▁presen",
        -10.47687025817718
      ],
      [
        "▁rental",
        -10.47690369082305
      ],
      [
        "▁sustain",
        -10.477050151713618
      ],
      [
        "reports",
        -10.477418458223749
      ],
      [
        "▁empt",
        -10.477568642436097
      ],
      [
        "▁club",
        -10.477670707926784
      ],
      [
        "▁forth",
        -10.478700701608519
      ],
      [
        "▁vi",
        -10.478770409311378
      ],
      [
        "▁tear",
        -10.479126661839066
      ],
      [
        "▁excited",
        -10.479351731927084
      ],
      [
        "▁medica",
        -10.48065791188001
      ],
      [
        "till",
        -10.484544539946935
      ],
      [
        "bi",
        -10.486231197538538
      ],
      [
        "coming",
        -10.48653224006992
      ],
      [
        "▁religion",
        -10.489414601170973
      ],
      [
        "▁operation",
        -10.493079524020644
      ],
      [
        "▁fro",
        -10.493760421412105
      ],
      [
        "▁receiv",
        -10.495265656300532
      ],
      [
        "mwe",
        -10.497107975143631
      ],
      [
        "▁exten",
        -10.497643390766624
      ],
      [
        "▁custom",
        -10.500182414110535
      ],
      [
        "▁settle",
        -10.50261049984917
      ],
      [
        "▁shower",
        -10.503032625634294
      ],
      [
        "▁technologi",
        -10.504132136307046
      ],
      [
        "▁obtain",
        -10.504167173820163
      ],
      [
        "santorum",
        -10.504167571274799
      ],
      [
        "▁apparent",
        -10.504171734720856
      ],
      [
        "▁cartoon",
        -10.504192472950303
      ],
      [
        "▁income",
        -10.504222520207195
      ],
      [
        "▁motion",
        -10.504259388855306
      ],
      [
        "▁greek",
        -10.50431187415847
      ],
      [
        "▁worry",
        -10.50450110688011
      ],
      [
        "▁artist",
        -10.504587681137744
      ],
      [
        "▁shark",
        -10.504852008540059
      ],
      [
        "▁precise",
        -10.504969174709467
      ],
      [
        "▁bay",
        -10.505555616117128
      ],
      [
        "▁fork",
        -10.505823291786214
      ],
      [
        "▁engineer",
        -10.505896975663017
      ],
      [
        "▁odd",
        -10.506030244112356
      ],
      [
        "▁roar",
        -10.506625951549589
      ],
      [
        "▁useful",
        -10.507239513668992
      ],
      [
        "▁foundation",
        -10.508379622391503
      ],
      [
        "oh",
        -10.509699310950024
      ],
      [
        "▁session",
        -10.509818970154791
      ],
      [
        "▁substantial",
        -10.51006962745997
      ],
      [
        "▁joe",
        -10.510337953479667
      ],
      [
        "▁trick",
        -10.510957444645808
      ],
      [
        "▁cere",
        -10.512504353721184
      ],
      [
        "2011",
        -10.513281908731795
      ],
      [
        "▁graduate",
        -10.514858142076495
      ],
      [
        "news",
        -10.517058740132462
      ],
      [
        "▁inde",
        -10.518009269793799
      ],
      [
        "▁willing",
        -10.519087867094145
      ],
      [
        "▁bell",
        -10.519656893685394
      ],
      [
        "▁shock",
        -10.521176859395094
      ],
      [
        "what",
        -10.521494880864488
      ],
      [
        "▁conscious",
        -10.521756914776729
      ],
      [
        "▁happening",
        -10.521908511964892
      ],
      [
        "toge",
        -10.52262538340507
      ],
      [
        "ol",
        -10.523713962396956
      ],
      [
        "▁cooperati",
        -10.523942323096113
      ],
      [
        "▁independen",
        -10.525854841878868
      ],
      [
        "▁remark",
        -10.52753262462485
      ],
      [
        "▁nin",
        -10.529258610491505
      ],
      [
        "▁tend",
        -10.52972030572692
      ],
      [
        "arra",
        -10.530752122870759
      ],
      [
        "chest",
        -10.532619304953986
      ],
      [
        "▁relax",
        -10.534862151363733
      ],
      [
        "▁jew",
        -10.536346592345636
      ],
      [
        "▁speech",
        -10.536425237929627
      ],
      [
        "▁possibilit",
        -10.536425352407079
      ],
      [
        "▁candidate",
        -10.536425751478024
      ],
      [
        "▁analyst",
        -10.536425764536531
      ],
      [
        "▁zealand",
        -10.536426633021373
      ],
      [
        "▁identifie",
        -10.536427862097856
      ],
      [
        "▁replication",
        -10.536429000066267
      ],
      [
        "▁vegetable",
        -10.536429360708055
      ],
      [
        "▁column",
        -10.536430375507468
      ],
      [
        "▁fifty",
        -10.536431165375966
      ],
      [
        "▁chapter",
        -10.536443627154368
      ],
      [
        "▁marble",
        -10.536458562749576
      ],
      [
        "▁elevator",
        -10.53646171611281
      ],
      [
        "▁eighteen",
        -10.536476245810599
      ],
      [
        "▁restriction",
        -10.536480959416043
      ],
      [
        "▁feather",
        -10.536592543313644
      ],
      [
        "▁aim",
        -10.536595638322998
      ],
      [
        "▁ec",
        -10.536697834100389
      ],
      [
        "▁medicine",
        -10.536774198437044
      ],
      [
        "▁tummy",
        -10.536921691409768
      ],
      [
        "▁valle",
        -10.537032277024982
      ],
      [
        "▁loose",
        -10.537136353597585
      ],
      [
        "▁gift",
        -10.537633424064568
      ],
      [
        "▁flie",
        -10.537699670110955
      ],
      [
        "ious",
        -10.537983422668509
      ],
      [
        "2006",
        -10.53895794778169
      ],
      [
        "nia",
        -10.53913309890791
      ],
      [
        "▁provid",
        -10.539859911276585
      ],
      [
        "▁batter",
        -10.540080272962829
      ],
      [
        "▁suspect",
        -10.540692223233345
      ],
      [
        "▁client",
        -10.54078298922663
      ],
      [
        "▁disease",
        -10.540926152141989
      ],
      [
        "▁investment",
        -10.541128806721517
      ],
      [
        "▁grass",
        -10.541492355102552
      ],
      [
        "▁dut",
        -10.542351124249635
      ],
      [
        "▁slide",
        -10.544381600080152
      ],
      [
        "▁israeli",
        -10.544434973242112
      ],
      [
        "half",
        -10.544775586432673
      ],
      [
        "ql",
        -10.544860166877783
      ],
      [
        "▁server",
        -10.54521655313631
      ],
      [
        "▁scott",
        -10.545241061112513
      ],
      [
        "▁import",
        -10.547586346763325
      ],
      [
        "▁kim",
        -10.549244505681262
      ],
      [
        "▁tradition",
        -10.550212464169928
      ],
      [
        "▁mis",
        -10.55097741249772
      ],
      [
        "▁bu",
        -10.551148480178703
      ],
      [
        "▁guard",
        -10.551727612347875
      ],
      [
        "▁debr",
        -10.554811024039333
      ],
      [
        "▁cris",
        -10.555005957316933
      ],
      [
        "▁crime",
        -10.556533108275108
      ],
      [
        "▁dr",
        -10.558673769559071
      ],
      [
        "ada",
        -10.561188439980567
      ],
      [
        "▁enable",
        -10.561564299580038
      ],
      [
        "ence",
        -10.562547135608991
      ],
      [
        "▁shin",
        -10.564476420477366
      ],
      [
        "q",
        -10.566830415518206
      ],
      [
        "▁trail",
        -10.567609135169963
      ],
      [
        "drew",
        -10.568343659457149
      ],
      [
        "rising",
        -10.568775096838163
      ],
      [
        "▁calm",
        -10.56889901254789
      ],
      [
        "▁strength",
        -10.569261156325226
      ],
      [
        "▁magazine",
        -10.56975855780917
      ],
      [
        "▁enjamb",
        -10.569758557821807
      ],
      [
        "▁ghost",
        -10.569758639179263
      ],
      [
        "▁stupid",
        -10.569758827380934
      ],
      [
        "▁holiday",
        -10.569760046280617
      ],
      [
        "▁delicious",
        -10.569760871435491
      ],
      [
        "▁vehicle",
        -10.569764816448785
      ],
      [
        "▁sixteen",
        -10.56978022321979
      ],
      [
        "▁gender",
        -10.569780978226378
      ],
      [
        "▁mosque",
        -10.569784884756078
      ],
      [
        "▁skittle",
        -10.569809292615684
      ],
      [
        "▁grammar",
        -10.569822301879475
      ],
      [
        "▁initiative",
        -10.569828848625212
      ],
      [
        "vernon",
        -10.569871409401227
      ],
      [
        "▁cheek",
        -10.569979271489036
      ],
      [
        "▁appeal",
        -10.570008053787445
      ],
      [
        "▁rome",
        -10.570206276914284
      ],
      [
        "▁emergenc",
        -10.57028069189044
      ],
      [
        "▁festival",
        -10.570337403814145
      ],
      [
        "▁appearance",
        -10.570419633643013
      ],
      [
        "▁drug",
        -10.570460522985943
      ],
      [
        "▁circum",
        -10.57092127520876
      ],
      [
        "▁universal",
        -10.571463568796366
      ],
      [
        "▁topic",
        -10.571829570573602
      ],
      [
        "▁inspire",
        -10.572010101184725
      ],
      [
        "▁pool",
        -10.573276194765612
      ],
      [
        "▁mush",
        -10.57387464828438
      ],
      [
        "▁lift",
        -10.57412710865633
      ],
      [
        "▁strike",
        -10.574233405255349
      ],
      [
        "▁copyright",
        -10.574694878923562
      ],
      [
        "00",
        -10.576135887397932
      ],
      [
        "all",
        -10.576145810657406
      ],
      [
        "ten",
        -10.577593706337671
      ],
      [
        "▁ear",
        -10.579729674305092
      ],
      [
        "▁bow",
        -10.580366091613596
      ],
      [
        "▁bone",
        -10.580791666475257
      ],
      [
        "▁dose",
        -10.58090056589111
      ],
      [
        "▁lope",
        -10.5809982972667
      ],
      [
        "use",
        -10.582363752450153
      ],
      [
        "changes",
        -10.584584087635987
      ],
      [
        "▁terror",
        -10.58480463433177
      ],
      [
        "my",
        -10.585700637769984
      ],
      [
        "▁oliv",
        -10.585911137041782
      ],
      [
        "iness",
        -10.587556168090297
      ],
      [
        "▁eb",
        -10.58772729741348
      ],
      [
        "▁herself",
        -10.589315820314653
      ],
      [
        "▁tag",
        -10.590510042374117
      ],
      [
        "que",
        -10.59134572040238
      ],
      [
        "ron",
        -10.59138993275868
      ],
      [
        "▁suppose",
        -10.593716511969726
      ],
      [
        "▁knee",
        -10.593792967074034
      ],
      [
        "▁profit",
        -10.594103853961206
      ],
      [
        "▁scale",
        -10.594141365703944
      ],
      [
        "▁beer",
        -10.597771238035959
      ],
      [
        "▁worm",
        -10.598162343159734
      ],
      [
        "▁smith",
        -10.59956767351962
      ],
      [
        "ill",
        -10.599915062916605
      ],
      [
        "▁emerg",
        -10.60006385845312
      ],
      [
        "▁rug",
        -10.600102654731987
      ],
      [
        "▁occasion",
        -10.600526161269409
      ],
      [
        "▁distribute",
        -10.60078158530347
      ],
      [
        "▁palestinian",
        -10.601508230862255
      ],
      [
        "▁80",
        -10.601948255468008
      ],
      [
        "▁contribution",
        -10.602309827524419
      ],
      [
        "▁install",
        -10.60382380152548
      ],
      [
        "▁doughnut",
        -10.604243155926484
      ],
      [
        "▁diaper",
        -10.604246380963163
      ],
      [
        "▁rescue",
        -10.604247925990355
      ],
      [
        "▁hamster",
        -10.604266208029008
      ],
      [
        "▁instruction",
        -10.604284360395939
      ],
      [
        "▁declaration",
        -10.604351940738113
      ],
      [
        "▁sill",
        -10.604623249813557
      ],
      [
        "▁feature",
        -10.604698887245183
      ],
      [
        "▁improvement",
        -10.604734348199793
      ],
      [
        "plastic",
        -10.604769139992777
      ],
      [
        "▁guideline",
        -10.60483090372629
      ],
      [
        "▁mexican",
        -10.604871796172624
      ],
      [
        "▁float",
        -10.605103597222572
      ],
      [
        "▁sentence",
        -10.605155782976201
      ],
      [
        "▁198",
        -10.605377570281188
      ],
      [
        "▁boxe",
        -10.6056005336108
      ],
      [
        "▁saving",
        -10.605765941925263
      ],
      [
        "▁athen",
        -10.60642670098908
      ],
      [
        "▁ocean",
        -10.606480491238518
      ],
      [
        "▁librar",
        -10.606512350521413
      ],
      [
        "▁theodor",
        -10.60765447308563
      ],
      [
        "zen",
        -10.607796994139242
      ],
      [
        "▁soil",
        -10.608592336968655
      ],
      [
        "▁shadow",
        -10.608779991300915
      ],
      [
        "▁journal",
        -10.608833725006702
      ],
      [
        "▁expression",
        -10.608965354980965
      ],
      [
        "▁ultimate",
        -10.609016223706877
      ],
      [
        "▁division",
        -10.609020440895051
      ],
      [
        "▁wolf",
        -10.609068166534604
      ],
      [
        "▁golden",
        -10.609166667828134
      ],
      [
        "▁domain",
        -10.60951772150424
      ],
      [
        "▁vice",
        -10.609533186171385
      ],
      [
        "▁sa",
        -10.609976527546952
      ],
      [
        "▁execute",
        -10.609988059695104
      ],
      [
        "▁commissioner",
        -10.61097352001714
      ],
      [
        "▁chao",
        -10.611461681449917
      ],
      [
        "place",
        -10.612358627958317
      ],
      [
        "▁quarter",
        -10.613341900967448
      ],
      [
        "▁length",
        -10.61526784823872
      ],
      [
        "▁accurate",
        -10.615629651648124
      ],
      [
        "▁turk",
        -10.616307859993798
      ],
      [
        "▁cast",
        -10.618473501584916
      ],
      [
        "▁90",
        -10.618855870499424
      ],
      [
        "▁non",
        -10.619112135647978
      ],
      [
        "▁bare",
        -10.61923989507996
      ],
      [
        "▁28",
        -10.620473060980338
      ],
      [
        "▁hel",
        -10.621211562836466
      ],
      [
        "▁folk",
        -10.62162322754525
      ],
      [
        "rove",
        -10.621850912214429
      ],
      [
        "▁easie",
        -10.622652499575887
      ],
      [
        "▁tip",
        -10.623338263815537
      ],
      [
        "▁twist",
        -10.62437976730957
      ],
      [
        "▁advise",
        -10.62470189765805
      ],
      [
        "▁burn",
        -10.624882692086185
      ],
      [
        "2000",
        -10.626658273486363
      ],
      [
        "▁@",
        -10.626769861778712
      ],
      [
        "▁reveal",
        -10.627872016056749
      ],
      [
        "ooh",
        -10.630190602987192
      ],
      [
        "▁severe",
        -10.63105526349409
      ],
      [
        "quino",
        -10.631491143617302
      ],
      [
        "▁declare",
        -10.631922347647688
      ],
      [
        "▁mission",
        -10.63380083854888
      ],
      [
        "▁arrival",
        -10.634786551059022
      ],
      [
        "▁uk",
        -10.63524909614604
      ],
      [
        "▁dese",
        -10.637219772809047
      ],
      [
        "▁agricultur",
        -10.637400190588655
      ],
      [
        "▁arrange",
        -10.637976986828734
      ],
      [
        "▁friendl",
        -10.638192124520026
      ],
      [
        "▁entit",
        -10.638784880252423
      ],
      [
        "▁faith",
        -10.639781395486088
      ],
      [
        "▁consequence",
        -10.639955602195823
      ],
      [
        "▁colleague",
        -10.639955603998088
      ],
      [
        "▁currenc",
        -10.639958279145697
      ],
      [
        "▁pump",
        -10.639960449070571
      ],
      [
        "▁cupcake",
        -10.639975562835637
      ],
      [
        "▁fuel",
        -10.640023038441498
      ],
      [
        "▁bubble",
        -10.640050590955788
      ],
      [
        "▁excuse",
        -10.640070235660506
      ],
      [
        "▁academic",
        -10.640076128124878
      ],
      [
        "▁prime",
        -10.640081878561798
      ],
      [
        "▁airfare",
        -10.6401442285315
      ],
      [
        "▁hurry",
        -10.640178101074916
      ],
      [
        "▁collective",
        -10.640225754741166
      ],
      [
        "▁glove",
        -10.640246779566588
      ],
      [
        "▁description",
        -10.64035094148231
      ],
      [
        "▁serving",
        -10.640394827659367
      ],
      [
        "▁background",
        -10.640589758957656
      ],
      [
        "effects",
        -10.640598227788823
      ],
      [
        "▁romantic",
        -10.640611834156465
      ],
      [
        "▁royal",
        -10.640674051424293
      ],
      [
        "▁galo",
        -10.640898282491063
      ],
      [
        "▁expectation",
        -10.641299912534254
      ],
      [
        "▁carolin",
        -10.641470230247613
      ],
      [
        "▁fl",
        -10.641712822536775
      ],
      [
        "sumption",
        -10.641726261652632
      ],
      [
        "▁crop",
        -10.641962360498232
      ],
      [
        "▁passe",
        -10.642734746711353
      ],
      [
        "▁devil",
        -10.644316134551525
      ],
      [
        "▁farmer",
        -10.64458249802076
      ],
      [
        "▁narrow",
        -10.644620828370659
      ],
      [
        "▁definition",
        -10.644838887239224
      ],
      [
        "▁muslim",
        -10.644924713644892
      ],
      [
        "▁annual",
        -10.645190472647984
      ],
      [
        "▁relie",
        -10.645416318530284
      ],
      [
        "▁31",
        -10.645576919170747
      ],
      [
        "▁inc",
        -10.645589759363592
      ],
      [
        "▁repeated",
        -10.646083178890322
      ],
      [
        "▁th",
        -10.646241155446338
      ],
      [
        "mission",
        -10.646434504548894
      ],
      [
        "▁spoon",
        -10.64677314953813
      ],
      [
        "▁tickle",
        -10.647505060173131
      ],
      [
        "ice",
        -10.648357171994478
      ],
      [
        "▁critical",
        -10.64860679536496
      ],
      [
        "down",
        -10.648905925759633
      ],
      [
        "itch",
        -10.649551155761372
      ],
      [
        "▁promote",
        -10.650463891495733
      ],
      [
        "▁tru",
        -10.651000160490286
      ],
      [
        "marie",
        -10.651678532516945
      ],
      [
        "▁foods",
        -10.651813369563875
      ],
      [
        "▁coat",
        -10.651883689527045
      ],
      [
        "▁pro",
        -10.653316512592346
      ],
      [
        "▁arrow",
        -10.653644422022468
      ],
      [
        "tractor",
        -10.655518399427162
      ],
      [
        "▁inter",
        -10.656507884378778
      ],
      [
        "▁commercial",
        -10.657234942714716
      ],
      [
        ".net",
        -10.657325731428076
      ],
      [
        "▁wor",
        -10.65777072177167
      ],
      [
        "cca",
        -10.660616229142693
      ],
      [
        "rick",
        -10.661697807383849
      ],
      [
        "igator",
        -10.662131938134957
      ],
      [
        "▁demonstrate",
        -10.662777626039873
      ],
      [
        "▁hung",
        -10.663447922740541
      ],
      [
        "wide",
        -10.664000976784886
      ],
      [
        "▁kiss",
        -10.665685405655491
      ],
      [
        "▁penny",
        -10.665900646165543
      ],
      [
        "vod",
        -10.666833552153697
      ],
      [
        "▁hire",
        -10.667170202158854
      ],
      [
        "unch",
        -10.667498699175884
      ],
      [
        "▁transfer",
        -10.667513488406902
      ],
      [
        "stance",
        -10.667934698345753
      ],
      [
        "ryan",
        -10.668634723726981
      ],
      [
        "▁experiment",
        -10.67017086345272
      ],
      [
        "▁prepare",
        -10.67087981934662
      ],
      [
        "cient",
        -10.671248104220082
      ],
      [
        "▁lo",
        -10.67237424210687
      ],
      [
        "kyo",
        -10.67310541608439
      ],
      [
        "▁familiar",
        -10.673276047013728
      ],
      [
        "▁steve",
        -10.67370282224217
      ],
      [
        "▁horses",
        -10.673998541054292
      ],
      [
        "▁troop",
        -10.674209493716662
      ],
      [
        "▁republic",
        -10.675306851214122
      ],
      [
        "▁stream",
        -10.67557936993742
      ],
      [
        "▁pad",
        -10.675626994599977
      ],
      [
        "▁adjust",
        -10.676826771706398
      ],
      [
        "▁register",
        -10.676993011971433
      ],
      [
        "▁village",
        -10.676996262961083
      ],
      [
        "▁pepper",
        -10.67699678934263
      ],
      [
        "▁basket",
        -10.676997047820235
      ],
      [
        "▁revenue",
        -10.677023126926395
      ],
      [
        "▁confidential",
        -10.677026652333215
      ],
      [
        "▁translation",
        -10.677067797602714
      ],
      [
        "▁towel",
        -10.677069166935588
      ],
      [
        "▁jewish",
        -10.677078815809654
      ],
      [
        "▁oppose",
        -10.677105479637488
      ],
      [
        "▁minimum",
        -10.677111034794788
      ],
      [
        "▁trash",
        -10.677153474785612
      ],
      [
        "▁arrangement",
        -10.677271937501107
      ],
      [
        "▁pleasure",
        -10.677338846643032
      ],
      [
        "▁medium",
        -10.6773679953967
      ],
      [
        "▁bang",
        -10.677503351053513
      ],
      [
        "▁unknown",
        -10.677895244418934
      ],
      [
        "rubber",
        -10.678193282626617
      ],
      [
        "▁industrial",
        -10.678744206249318
      ],
      [
        "▁wa",
        -10.67974897514062
      ],
      [
        "▁variet",
        -10.680572921301959
      ],
      [
        "▁kent",
        -10.68160713682905
      ],
      [
        "▁package",
        -10.682674889168897
      ],
      [
        "▁defin",
        -10.682715203621019
      ],
      [
        "▁soup",
        -10.685890028549064
      ],
      [
        "▁nick",
        -10.686767819990818
      ],
      [
        "▁revolution",
        -10.687569331349394
      ],
      [
        "▁75",
        -10.687586836255006
      ],
      [
        "▁shell",
        -10.687927680020685
      ],
      [
        "▁kar",
        -10.688105251252136
      ],
      [
        "▁nest",
        -10.688485101399051
      ],
      [
        "▁subscribe",
        -10.689037628423327
      ],
      [
        "▁witch",
        -10.68927562014291
      ],
      [
        "▁chose",
        -10.690338896573113
      ],
      [
        "▁1000",
        -10.692025195943993
      ],
      [
        "mir",
        -10.693520445208645
      ],
      [
        "▁info",
        -10.693600492438408
      ],
      [
        "▁asia",
        -10.69365594577299
      ],
      [
        "▁brush",
        -10.694405506724873
      ],
      [
        "45",
        -10.695121658300904
      ],
      [
        "▁victor",
        -10.695368261964411
      ],
      [
        "▁tha",
        -10.695881256422513
      ],
      [
        "▁origin",
        -10.695886071064193
      ],
      [
        "standing",
        -10.701215369151571
      ],
      [
        "▁engage",
        -10.701475441397719
      ],
      [
        "nforcement",
        -10.701739592626666
      ],
      [
        "lly",
        -10.701939642150954
      ],
      [
        "▁vlog",
        -10.702396571107347
      ],
      [
        "ture",
        -10.703924777918541
      ],
      [
        "▁nav",
        -10.70406634341857
      ],
      [
        "▁proceed",
        -10.70481185160599
      ],
      [
        "crome",
        -10.704825253156628
      ],
      [
        "▁surround",
        -10.70506783553335
      ],
      [
        "ked",
        -10.708212610677649
      ],
      [
        "sleep",
        -10.709004469803235
      ],
      [
        "ham",
        -10.710218829139869
      ],
      [
        "▁hill",
        -10.710775411531582
      ],
      [
        "▁sir",
        -10.710992267509205
      ],
      [
        "▁jihad",
        -10.713675284512213
      ],
      [
        "ford",
        -10.713852257125101
      ],
      [
        "nife",
        -10.713902450843412
      ],
      [
        "▁ruin",
        -10.714634879546084
      ],
      [
        "▁blank",
        -10.715426241650391
      ],
      [
        "▁derivative",
        -10.715454177635543
      ],
      [
        "▁disappear",
        -10.715454177720659
      ],
      [
        "▁mosquito",
        -10.715454185717318
      ],
      [
        "▁catholic",
        -10.715454213545632
      ],
      [
        "▁donkey",
        -10.7154544497112
      ],
      [
        "▁cigarette",
        -10.71545541574062
      ],
      [
        "▁sufficient",
        -10.715456302901691
      ],
      [
        "▁dursley",
        -10.715469054605634
      ],
      [
        "▁twentieth",
        -10.715490053023574
      ],
      [
        "▁michel",
        -10.715541144542215
      ],
      [
        "▁recall",
        -10.715716829092539
      ],
      [
        "▁achievement",
        -10.715915689652947
      ],
      [
        "▁wiggle",
        -10.716157940984596
      ],
      [
        "▁generat",
        -10.716656944478881
      ],
      [
        "▁angr",
        -10.716680917784924
      ],
      [
        "▁puzzle",
        -10.716800629216085
      ],
      [
        "▁height",
        -10.716852215783707
      ],
      [
        "▁strain",
        -10.71690662207388
      ],
      [
        "▁approximate",
        -10.717007482267778
      ],
      [
        "▁republican",
        -10.717209196858736
      ],
      [
        "▁swimm",
        -10.717526403400015
      ],
      [
        "▁neat",
        -10.717709697953785
      ],
      [
        "▁27",
        -10.717757059618052
      ],
      [
        "▁po",
        -10.717980052841446
      ],
      [
        "▁zoo",
        -10.718266639829714
      ],
      [
        "▁youtube",
        -10.718792225988425
      ],
      [
        "▁goat",
        -10.719067853852422
      ],
      [
        "▁identit",
        -10.719964115813216
      ],
      [
        "▁conclude",
        -10.72079653079071
      ],
      [
        "spos",
        -10.72139642382496
      ],
      [
        "▁battle",
        -10.722101043031982
      ],
      [
        "▁lick",
        -10.722211907594621
      ],
      [
        "▁theatre",
        -10.722282456850923
      ],
      [
        "lies",
        -10.72362243824164
      ],
      [
        "▁improv",
        -10.723914816316178
      ],
      [
        "▁psycholog",
        -10.724146710358767
      ],
      [
        "▁stands",
        -10.725430585844222
      ],
      [
        "▁libert",
        -10.726864079759153
      ],
      [
        "▁linguistic",
        -10.728067943508595
      ],
      [
        "▁shake",
        -10.728591376583516
      ],
      [
        "▁poo",
        -10.729374720832487
      ],
      [
        "▁196",
        -10.729713376362561
      ],
      [
        "▁joy",
        -10.729884695458313
      ],
      [
        "▁spread",
        -10.730233829926034
      ],
      [
        "▁occur",
        -10.730397016772908
      ],
      [
        "▁suffering",
        -10.730636132879813
      ],
      [
        "can",
        -10.732242192561788
      ],
      [
        "▁ap",
        -10.732930995793309
      ],
      [
        "▁killing",
        -10.734069097199201
      ],
      [
        "pm",
        -10.735687046232892
      ],
      [
        "▁bas",
        -10.736464902390713
      ],
      [
        "ul",
        -10.738415105807803
      ],
      [
        "ez",
        -10.738648797854506
      ],
      [
        "▁crie",
        -10.738946903934165
      ],
      [
        "cal",
        -10.740037336909698
      ],
      [
        "ification",
        -10.742381585234728
      ],
      [
        "▁ba",
        -10.744965850866388
      ],
      [
        "corporate",
        -10.745319541179255
      ],
      [
        "we",
        -10.745598495166888
      ],
      [
        "▁relations",
        -10.746863058816647
      ],
      [
        "▁hous",
        -10.74726451659713
      ],
      [
        "▁drawing",
        -10.748986134450448
      ],
      [
        "▁edit",
        -10.749216186899822
      ],
      [
        "▁happi",
        -10.749409218723079
      ],
      [
        "▁involv",
        -10.750650212576407
      ],
      [
        "ourse",
        -10.751247636399624
      ],
      [
        "▁hid",
        -10.752240348525863
      ],
      [
        "ensive",
        -10.752279674280123
      ],
      [
        "▁survive",
        -10.75331574560536
      ],
      [
        "▁ignore",
        -10.753339110914059
      ],
      [
        "▁strange",
        -10.753960512018475
      ],
      [
        "▁pric",
        -10.75517999844231
      ],
      [
        "▁infrastructure",
        -10.755454177611877
      ],
      [
        "▁mirror",
        -10.75545428311007
      ],
      [
        "▁tulsa",
        -10.755454710214893
      ],
      [
        "▁uniform",
        -10.755455773945307
      ],
      [
        "▁identify",
        -10.755456772823848
      ],
      [
        "▁regime",
        -10.755473464553027
      ],
      [
        "▁household",
        -10.755555197007379
      ],
      [
        "▁criminal",
        -10.755584979610692
      ],
      [
        "▁giant",
        -10.755588603572349
      ],
      [
        "▁selection",
        -10.755673885965013
      ],
      [
        "▁destination",
        -10.75571898643808
      ],
      [
        "▁incredibl",
        -10.755961767141375
      ],
      [
        "▁wire",
        -10.756004518654507
      ],
      [
        "▁strengthen",
        -10.756053393772982
      ],
      [
        "▁internal",
        -10.756183290202033
      ],
      [
        "delhi",
        -10.756225056046473
      ],
      [
        "▁pattern",
        -10.756553831156992
      ],
      [
        "▁andaman",
        -10.756767133131621
      ],
      [
        "▁numero",
        -10.757072838276526
      ],
      [
        "▁clay",
        -10.757300301800296
      ],
      [
        "▁frame",
        -10.757347982487726
      ],
      [
        "▁worrie",
        -10.758322163993117
      ],
      [
        "▁pure",
        -10.75903378308994
      ],
      [
        "▁prefer",
        -10.760074069480353
      ],
      [
        "▁łodz",
        -10.760465172426471
      ],
      [
        "▁cloud",
        -10.760488461353601
      ],
      [
        "▁contribute",
        -10.761208617285966
      ],
      [
        "▁e.g",
        -10.761304947935162
      ],
      [
        "▁oct",
        -10.761652083591468
      ],
      [
        "▁portion",
        -10.762109113342017
      ],
      [
        "upper",
        -10.763772436341622
      ],
      [
        "▁bulb",
        -10.764794775722478
      ],
      [
        "▁practical",
        -10.765295564266864
      ],
      [
        "own",
        -10.765764952257303
      ],
      [
        "▁conclusion",
        -10.765961595050321
      ],
      [
        "book",
        -10.766533442402004
      ],
      [
        "▁suck",
        -10.768823569326502
      ],
      [
        "▁destroy",
        -10.770344695398226
      ],
      [
        "ect",
        -10.770513991071478
      ],
      [
        "rdon",
        -10.77126903851591
      ],
      [
        "▁ex",
        -10.771467611179455
      ],
      [
        "pped",
        -10.771896706446723
      ],
      [
        "▁scare",
        -10.7750998436947
      ],
      [
        "▁talent",
        -10.775266238376561
      ],
      [
        "▁mid-",
        -10.775474875726736
      ],
      [
        "fence",
        -10.776174955194534
      ],
      [
        "▁cliff",
        -10.776409228229877
      ],
      [
        "▁yard",
        -10.777816973766722
      ],
      [
        "▁thin",
        -10.778605046806527
      ],
      [
        "▁curve",
        -10.779441914170528
      ],
      [
        "▁participati",
        -10.780991062958122
      ],
      [
        "▁negati",
        -10.781819820969174
      ],
      [
        "saw",
        -10.782349682960897
      ],
      [
        "▁thre",
        -10.78303001496809
      ],
      [
        "▁tw",
        -10.786399783303146
      ],
      [
        "▁licens",
        -10.787339981279583
      ],
      [
        "▁pa",
        -10.787415499536124
      ],
      [
        "▁mum",
        -10.788771912165839
      ],
      [
        "▁repeat",
        -10.791045497460471
      ],
      [
        "seni",
        -10.791435597854921
      ],
      [
        "▁excel",
        -10.791726598371655
      ],
      [
        "▁owl",
        -10.792299335931007
      ],
      [
        "▁jan",
        -10.793664819331092
      ],
      [
        "▁bin",
        -10.796057050931655
      ],
      [
        "▁visual",
        -10.796353072654652
      ],
      [
        "▁neighbour",
        -10.797090824046473
      ],
      [
        "▁protest",
        -10.79711448731368
      ],
      [
        "▁explanation",
        -10.797120848308987
      ],
      [
        "▁wizard",
        -10.797120852867758
      ],
      [
        "▁ingredient",
        -10.797120855822584
      ],
      [
        "▁counterfeit",
        -10.797120858351331
      ],
      [
        "▁attorney",
        -10.797120879374049
      ],
      [
        "▁entertain",
        -10.797121035580478
      ],
      [
        "▁taiwan",
        -10.79712271966697
      ],
      [
        "▁strawberr",
        -10.797122736579041
      ],
      [
        "▁recipient",
        -10.79712646549913
      ],
      [
        "▁urban",
        -10.797127185236754
      ],
      [
        "▁snitch",
        -10.797138992763134
      ],
      [
        "▁biological",
        -10.797151340052455
      ],
      [
        "▁equipment",
        -10.797155415842202
      ],
      [
        "▁saudi",
        -10.797157862377425
      ],
      [
        "▁recruit",
        -10.797173426913805
      ],
      [
        "▁seventeen",
        -10.797174497914558
      ],
      [
        "▁jason",
        -10.797187017671948
      ],
      [
        "▁recover",
        -10.797188614437319
      ],
      [
        "▁grape",
        -10.797205086492665
      ],
      [
        "▁commitment",
        -10.797288415911577
      ],
      [
        "▁desert",
        -10.797337105845422
      ],
      [
        "▁addiction",
        -10.797342299430147
      ],
      [
        "▁aesthetic",
        -10.797349474351511
      ],
      [
        "▁wipe",
        -10.797393444605483
      ],
      [
        "surgery",
        -10.797458545957532
      ],
      [
        "▁constituenc",
        -10.79748892302602
      ],
      [
        "▁horn",
        -10.797626160484464
      ],
      [
        "▁native",
        -10.797736578975385
      ],
      [
        "▁attitude",
        -10.797759189959187
      ],
      [
        "▁stress",
        -10.79782980349801
      ],
      [
        "▁predict",
        -10.797957384253372
      ],
      [
        "nger",
        -10.79802672572859
      ],
      [
        "stein",
        -10.798052991783152
      ],
      [
        "▁l2",
        -10.798502229734712
      ],
      [
        "▁laid",
        -10.79868817203306
      ],
      [
        "germany",
        -10.799149654879173
      ],
      [
        "▁actor",
        -10.799338567059928
      ],
      [
        "▁tower",
        -10.799684078141523
      ],
      [
        "▁opposite",
        -10.800134372784186
      ],
      [
        "▁crack",
        -10.800730288219125
      ],
      [
        "▁pipe",
        -10.801154760460774
      ],
      [
        "▁sue",
        -10.801789762288394
      ],
      [
        "▁glow",
        -10.801809710310973
      ],
      [
        "▁couch",
        -10.80190391501198
      ],
      [
        "▁surprising",
        -10.802518695929846
      ],
      [
        "▁quartile",
        -10.802723707665784
      ],
      [
        "2009",
        -10.802814237771736
      ],
      [
        "▁salon",
        -10.803383578051964
      ],
      [
        "▁producer",
        -10.803593056607808
      ],
      [
        "nato",
        -10.80376890733815
      ],
      [
        "▁pledge",
        -10.804405770054665
      ],
      [
        "pover",
        -10.805388344257732
      ],
      [
        "▁sunni",
        -10.805912196402733
      ],
      [
        "well",
        -10.806014861010462
      ],
      [
        "▁favour",
        -10.80615780095377
      ],
      [
        "ma",
        -10.806343190358675
      ],
      [
        "=",
        -10.806543207919
      ],
      [
        "▁ku",
        -10.807313029917651
      ],
      [
        "ome",
        -10.808135256049793
      ],
      [
        "▁lab",
        -10.808430738788942
      ],
      [
        "▁surrounding",
        -10.808633078171724
      ],
      [
        "▁mental",
        -10.809851367845566
      ],
      [
        "▁!!!!",
        -10.810111483557115
      ],
      [
        "▁marked",
        -10.810359321801212
      ],
      [
        "▁helping",
        -10.81351877140591
      ],
      [
        "▁mayor",
        -10.814686423583247
      ],
      [
        "▁charles",
        -10.814972446365134
      ],
      [
        "92",
        -10.81521084031125
      ],
      [
        "▁jam",
        -10.816970550640555
      ],
      [
        "▁planet",
        -10.817116053762527
      ],
      [
        "▁researcher",
        -10.817824088152161
      ],
      [
        "▁ra",
        -10.818572821108948
      ],
      [
        "▁bond",
        -10.818788934732629
      ],
      [
        "presentation",
        -10.819051747750914
      ],
      [
        "val",
        -10.820544943913037
      ],
      [
        "▁taxi",
        -10.821331083294819
      ],
      [
        "▁pakistani",
        -10.822733469007607
      ],
      [
        "▁transform",
        -10.824709859831762
      ],
      [
        "▁re-",
        -10.824971962894889
      ],
      [
        "kin",
        -10.825819595791748
      ],
      [
        "▁functional",
        -10.825926272545273
      ],
      [
        "▁|",
        -10.826263975243558
      ],
      [
        "▁jo",
        -10.826476221747551
      ],
      [
        "▁shi",
        -10.827393053166709
      ],
      [
        "bye",
        -10.828792684039547
      ],
      [
        "▁scholars",
        -10.831053945614412
      ],
      [
        "▁suprem",
        -10.831132497642175
      ],
      [
        "▁reache",
        -10.832038534089087
      ],
      [
        "tie",
        -10.836463124803867
      ],
      [
        "▁smooth",
        -10.836535451611164
      ],
      [
        "▁commons",
        -10.836911207919144
      ],
      [
        "▁race",
        -10.837445443999968
      ],
      [
        "▁fold",
        -10.838203577853204
      ],
      [
        "▁harm",
        -10.838306538026362
      ],
      [
        "400",
        -10.838366317931213
      ],
      [
        "▁rail",
        -10.840497215547341
      ],
      [
        "▁explore",
        -10.84051643708105
      ],
      [
        "▁neighbor",
        -10.840570910538215
      ],
      [
        "▁argentin",
        -10.840599123224763
      ],
      [
        "▁contemporar",
        -10.84059932994876
      ],
      [
        "▁captain",
        -10.840599494622435
      ],
      [
        "▁multiple",
        -10.840599972397346
      ],
      [
        "▁prosper",
        -10.840603450003046
      ],
      [
        "▁strict",
        -10.84060618168446
      ],
      [
        "▁guilt",
        -10.84061198395893
      ],
      [
        "▁mechanic",
        -10.840623165032287
      ],
      [
        "▁password",
        -10.840639605883675
      ],
      [
        "▁spear",
        -10.840661800389787
      ],
      [
        "▁slice",
        -10.840667148466913
      ],
      [
        "▁lawyer",
        -10.84073906910713
      ],
      [
        "▁approval",
        -10.840773230908473
      ],
      [
        "▁crayon",
        -10.84082011528229
      ],
      [
        "▁missile",
        -10.840825314893308
      ],
      [
        "genda",
        -10.840946703623267
      ],
      [
        "▁massive",
        -10.840983198838819
      ],
      [
        "▁afterward",
        -10.841013760043822
      ],
      [
        "▁islamist",
        -10.841026698989538
      ],
      [
        "▁disney",
        -10.841068201953405
      ],
      [
        "▁gap",
        -10.84136457772962
      ],
      [
        "▁ansi-",
        -10.841757393364805
      ],
      [
        "▁spray",
        -10.841976863875443
      ],
      [
        "▁lanka",
        -10.84235598005506
      ],
      [
        "▁surviv",
        -10.842491587765874
      ],
      [
        "▁highlight",
        -10.842990659069063
      ],
      [
        "▁lil",
        -10.84330317106199
      ],
      [
        "▁recommendation",
        -10.843550567987958
      ],
      [
        "▁outer",
        -10.84381577627547
      ],
      [
        "▁insight",
        -10.843819931464976
      ],
      [
        "▁dial",
        -10.844135867003509
      ],
      [
        "▁mohamm",
        -10.84452930878808
      ],
      [
        "▁dollie",
        -10.844579664917156
      ],
      [
        "▁shift",
        -10.846140641439948
      ],
      [
        "▁discount",
        -10.846252111931209
      ],
      [
        "▁saddam",
        -10.846298555903164
      ],
      [
        "▁comparison",
        -10.846439168207887
      ],
      [
        "2017",
        -10.846440366143561
      ],
      [
        "▁judgment",
        -10.84645547752364
      ],
      [
        "▁70",
        -10.846791015204404
      ],
      [
        "bo",
        -10.846793110542926
      ],
      [
        "▁bench",
        -10.847682130696015
      ],
      [
        "▁belt",
        -10.847886185958565
      ],
      [
        "$",
        -10.84819527684444
      ],
      [
        "▁threaten",
        -10.848554868986575
      ],
      [
        "▁experimental",
        -10.848705718130368
      ],
      [
        "pain",
        -10.849076979261264
      ],
      [
        "▁38",
        -10.84922362660558
      ],
      [
        "▁entitle",
        -10.849301607788703
      ],
      [
        "▁asset",
        -10.84961108420728
      ],
      [
        "▁amend",
        -10.850966616687343
      ],
      [
        "▁ena",
        -10.850971656768348
      ],
      [
        "ca",
        -10.851231010539914
      ],
      [
        "▁su",
        -10.852141857281739
      ],
      [
        "▁cuba",
        -10.853090174801022
      ],
      [
        "▁dud",
        -10.853262688936017
      ],
      [
        "▁breast",
        -10.85446750136078
      ],
      [
        "▁shel",
        -10.85457450491312
      ],
      [
        "▁radio",
        -10.85570724554703
      ],
      [
        "▁rub",
        -10.855713316965
      ],
      [
        "▁hunt",
        -10.85584850951735
      ],
      [
        "▁cognitive",
        -10.855994568083839
      ],
      [
        "▁core",
        -10.856216854587156
      ],
      [
        "ota",
        -10.856712229192546
      ],
      [
        "no",
        -10.857389413854145
      ],
      [
        "▁asian",
        -10.857596216973585
      ],
      [
        "▁iron",
        -10.858377371854113
      ],
      [
        "▁balle",
        -10.858666941160703
      ],
      [
        "▁rush",
        -10.85884207525876
      ],
      [
        "▁struggle",
        -10.860073061319667
      ],
      [
        "▁ka",
        -10.860084601782884
      ],
      [
        "▁pile",
        -10.860185965322442
      ],
      [
        "▁socks",
        -10.86048369196384
      ],
      [
        "▁coal",
        -10.861492636494678
      ],
      [
        "▁gate",
        -10.86434472820391
      ],
      [
        "rank",
        -10.866321391310317
      ],
      [
        "▁traditional",
        -10.866817768812272
      ],
      [
        "▁photo",
        -10.866965174020926
      ],
      [
        "▁ken",
        -10.869026364560412
      ],
      [
        "za",
        -10.870152006232557
      ],
      [
        "▁ph",
        -10.871040919833991
      ],
      [
        "▁combine",
        -10.871527907898379
      ],
      [
        "▁structural",
        -10.871566089344835
      ],
      [
        "▁ladder",
        -10.871847761826558
      ],
      [
        "▁guide",
        -10.87193776206901
      ],
      [
        "ideas",
        -10.872347555794573
      ],
      [
        "▁heads",
        -10.87321090139194
      ],
      [
        "03",
        -10.873424276067695
      ],
      [
        "▁grab",
        -10.87345126980901
      ],
      [
        "han",
        -10.873467247290737
      ],
      [
        "▁primar",
        -10.875570689309116
      ],
      [
        "▁crash",
        -10.876289153636115
      ],
      [
        "▁tri",
        -10.877720211678024
      ],
      [
        "▁bob",
        -10.878827554190343
      ],
      [
        "▁lean",
        -10.878958129518022
      ],
      [
        "▁domestic",
        -10.882327802105122
      ],
      [
        "▁gather",
        -10.882809720004934
      ],
      [
        "▁participate",
        -10.883091622070824
      ],
      [
        "▁preserve",
        -10.88359585023424
      ],
      [
        "▁punch",
        -10.883670850645078
      ],
      [
        "▁honor",
        -10.885384822340036
      ],
      [
        "nope",
        -10.885917189650096
      ],
      [
        "▁comprehensi",
        -10.8860536615109
      ],
      [
        "▁subsequent",
        -10.886053683899501
      ],
      [
        "▁prompt",
        -10.886054085900692
      ],
      [
        "▁flirt",
        -10.886055198424115
      ],
      [
        "▁outcome",
        -10.886066278521735
      ],
      [
        "▁unemploy",
        -10.886069585459099
      ],
      [
        "▁succeed",
        -10.886071660536249
      ],
      [
        "▁pirate",
        -10.886076237537889
      ],
      [
        "▁neighborhood",
        -10.886083156966158
      ],
      [
        "▁shiite",
        -10.886110813832383
      ],
      [
        "▁traged",
        -10.886120005528293
      ],
      [
        "▁throat",
        -10.886121049079522
      ],
      [
        "▁bucket",
        -10.886144276962206
      ],
      [
        "▁crew",
        -10.886149071227395
      ],
      [
        "▁tomato",
        -10.886157052122016
      ],
      [
        "▁gym",
        -10.88618485733226
      ],
      [
        "▁blink",
        -10.88626204360453
      ],
      [
        "▁cafe",
        -10.886264060648115
      ],
      [
        "▁leadership",
        -10.886269420217115
      ],
      [
        "▁blind",
        -10.886339565743006
      ],
      [
        "▁artwork",
        -10.88635654772157
      ],
      [
        "▁sweater",
        -10.886473413670432
      ],
      [
        "▁johnson",
        -10.886650165728277
      ],
      [
        "▁delay",
        -10.886769732351294
      ],
      [
        "▁thick",
        -10.886804034466858
      ],
      [
        "▁beatle",
        -10.88726973404917
      ],
      [
        "▁alleged",
        -10.8872795989728
      ],
      [
        "▁queries",
        -10.887847898163708
      ],
      [
        "shared",
        -10.888046484145422
      ],
      [
        "crazy",
        -10.888202205315919
      ],
      [
        "▁certificate",
        -10.888864706580959
      ],
      [
        "20",
        -10.889058227937054
      ],
      [
        "▁polish",
        -10.890112367784129
      ],
      [
        "▁trader",
        -10.890488766873785
      ],
      [
        "▁potato",
        -10.891925591778051
      ],
      [
        "▁expire",
        -10.89252262632653
      ],
      [
        "roni",
        -10.89264535377474
      ],
      [
        "▁anti",
        -10.893955311297399
      ],
      [
        "0,000",
        -10.894231091897936
      ],
      [
        "▁cracker",
        -10.894509967036502
      ],
      [
        "evolutionar",
        -10.89471183942187
      ],
      [
        "▁li",
        -10.894764587162271
      ],
      [
        "▁squeeze",
        -10.89547499838973
      ],
      [
        "▁swede",
        -10.89628641802181
      ],
      [
        "bones",
        -10.896688800102574
      ],
      [
        "▁gray",
        -10.896750577839166
      ],
      [
        "▁referr",
        -10.897168809944944
      ],
      [
        "▁exception",
        -10.89719939516881
      ],
      [
        "whil",
        -10.897611804413138
      ],
      [
        "▁incorporate",
        -10.897753991020902
      ],
      [
        "▁sq",
        -10.8977810685387
      ],
      [
        "▁stars",
        -10.89854117299477
      ],
      [
        "▁fashion",
        -10.90109600773713
      ],
[...]
