{
  "version": "1.0",
  "truncation": null,
  "padding": null,
  "added_tokens": [
    {
      "id": 0,
      "content": "[UNK]",
      "single_word": false,
      "lstrip": false,
      "rstrip": false,
      "normalized": false,
      "special": true
    },
    {
      "id": 1,
      "content": "[PAD]",
      "single_word": false,
      "lstrip": false,
      "rstrip": false,
      "normalized": false,
      "special": true
    },
    {
      "id": 2,
      "content": "[CLS]",
      "single_word": false,
      "lstrip": false,
      "rstrip": false,
      "normalized": false,
      "special": true
    },
    {
      "id": 3,
      "content": "[SEP]",
      "single_word": false,
      "lstrip": false,
      "rstrip": false,
      "normalized": false,
      "special": true
    },
    {
      "id": 4,
      "content": "[MASK]",
      "single_word": false,
      "lstrip": false,
      "rstrip": false,
      "normalized": false,
      "special": true
    }
  ],
  "normalizer": {
    "type": "Sequence",
    "normalizers": [
      {
        "type": "NFD"
      },
      {
        "type": "Lowercase"
      },
      {
        "type": "StripAccents"
      }
    ]
  },
  "pre_tokenizer": {
    "type": "Sequence",
    "pretokenizers": [
      {
        "type": "Metaspace",
        "replacement": "▁",
        "prepend_scheme": "always",
        "split": true
      }
    ]
  },
  "post_processor": {
    "type": "TemplateProcessing",
    "single": [
      {
        "SpecialToken": {
          "id": "[CLS]",
          "type_id": 0
        }
      },
      {
        "Sequence": {
          "id": "A",
          "type_id": 0
        }
      },
      {
        "SpecialToken": {
          "id": "[SEP]",
          "type_id": 0
        }
      }
    ],
    "pair": [
      {
        "SpecialToken": {
          "id": "[CLS]",
          "type_id": 0
        }
      },
      {
        "Sequence": {
          "id": "A",
          "type_id": 0
        }
      },
      {
        "SpecialToken": {
          "id": "[SEP]",
          "type_id": 0
        }
      },
      {
        "Sequence": {
          "id": "B",
          "type_id": 1
        }
      },
      {
        "SpecialToken": {
          "id": "[SEP]",
          "type_id": 1
        }
      }
    ],
    "special_tokens": {
      "[CLS]": {
        "id": "[CLS]",
        "ids": [
          2
        ],
        "tokens": [
          "[CLS]"
        ]
      },
      "[SEP]": {
        "id": "[SEP]",
        "ids": [
          3
        ],
        "tokens": [
          "[SEP]"
        ]
      }
    }
  },
  "decoder": {
    "type": "Metaspace",
    "replacement": "▁",
    "prepend_scheme": "always",
    "split": true
  },
  "model": {
    "type": "BPE",
    "dropout": null,
    "unk_token": "[UNK]",
    "continuing_subword_prefix": null,
    "end_of_word_suffix": null,
    "fuse_unk": false,
    "byte_fallback": false,
    "ignore_merges": false,
    "vocab": {
      "[UNK]": 0,
      "[PAD]": 1,
      "[CLS]": 2,
      "[SEP]": 3,
      "[MASK]": 4,
      "!": 5,
      "\"": 6,
      "#": 7,
      "$": 8,
      "%": 9,
      "&": 10,
      "'": 11,
      "(": 12,
      ")": 13,
      "*": 14,
      "+": 15,
      ",": 16,
      "-": 17,
      ".": 18,
      "/": 19,
      "0": 20,
      "1": 21,
      "2": 22,
      "3": 23,
      "4": 24,
      "5": 25,
      "6": 26,
      "7": 27,
      "8": 28,
      "9": 29,
      ":": 30,
      ";": 31,
      "<": 32,
      "=": 33,
      ">": 34,
      "?": 35,
      "@": 36,
      "[": 37,
      "\\": 38,
      "]": 39,
      "^": 40,
      "_": 41,
      "`": 42,
      "a": 43,
      "b": 44,
      "c": 45,
      "d": 46,
      "e": 47,
      "f": 48,
      "g": 49,
      "h": 50,
      "i": 51,
      "j": 52,
      "k": 53,
      "l": 54,
      "m": 55,
      "n": 56,
      "o": 57,
      "p": 58,
      "q": 59,
      "r": 60,
      "s": 61,
      "t": 62,
      "u": 63,
      "v": 64,
      "w": 65,
      "x": 66,
      "y": 67,
      "z": 68,
      "{": 69,
      "|": 70,
      "}": 71,
      "~": 72,
      "¢": 73,
      "£": 74,
      "§": 75,
      "­": 76,
      "°": 77,
      "±": 78,
      "²": 79,
      "³": 80,
      "·": 81,
      "º": 82,
      "½": 83,
      "×": 84,
      "ß": 85,
      "æ": 86,
      "ø": 87,
      "ł": 88,
      "œ": 89,
      "ɑ": 90,
      "ɔ": 91,
      "ə": 92,
      "ɛ": 93,
      "ʁ": 94,
      "ʃ": 95,
      "ʊ": 96,
      "ʒ": 97,
      "ʻ": 98,
      "ˈ": 99,
      "α": 100,
      "β": 101,
      "ε": 102,
      "η": 103,
      "θ": 104,
      "ι": 105,
      "μ": 106,
      "ν": 107,
      "ο": 108,
      "ρ": 109,
      "ς": 110,
      "σ": 111,
      "υ": 112,
      "φ": 113,
      "ω": 114,
      "ا": 115,
      "ح": 116,
      "د": 117,
      "ز": 118,
      "ص": 119,
      "ف": 120,
      "ن": 121,
      "ه": 122,
      "ي": 123,
      "–": 124,
      "—": 125,
      "‘": 126,
      "’": 127,
      "“": 128,
      "”": 129,
      "•": 130,
      "…": 131,
      "€": 132,
      "▁": 133,
      "☎": 134,
      "☏": 135,
      "♥": 136,
      "✉": 137,
      "一": 138,
      "况": 139,
      "口": 140,
      "古": 141,
      "司": 142,
      "和": 143,
      "图": 144,
      "夏": 145,
      "奈": 146,
      "子": 147,
      "山": 148,
      "樋": 149,
      "津": 150,
      "清": 151,
      "澹": 152,
      "琴": 153,
      "空": 154,
      "葉": 155,
      "谿": 156,
      "远": 157,
      "静": 158,
      "▁t": 159,
      "▁a": 160,
      "he": 161,
      "▁i": 162,
      "▁.": 163,
      "▁w": 164,
      "▁the": 165,
      "▁s": 166,
      "re": 167,
      "▁o": 168,
      "in": 169,
      "▁f": 170,
      "at": 171,
      "▁b": 172,
      "▁c": 173,
      "ou": 174,
      "er": 175,
      "▁m": 176,
      "nd": 177,
      "▁,": 178,
      "▁d": 179,
      "▁p": 180,
      "on": 181,
      "▁to": 182,
      "an": 183,
      "▁h": 184,
      "▁n": 185,
      "ing": 186,
      "en": 187,
      "▁th": 188,
      "or": 189,
      "es": 190,
      "▁l": 191,
      "ed": 192,
      "▁and": 193,
      "▁y": 194,
      "is": 195,
      "▁in": 196,
      "ll": 197,
      "om": 198,
      "it": 199,
      "ar": 200,
      "▁g": 201,
      "▁of": 202,
      "as": 203,
      "▁_": 204,
      "▁you": 205,
      "▁'": 206,
      "ic": 207,
      "al": 208,
      "▁e": 209,
      "ve": 210,
      "▁it": 211,
      "ow": 212,
      "le": 213,
      "▁on": 214,
      "gh": 215,
      "st": 216,
      "et": 217,
      "▁that": 218,
      "▁?": 219,
      "ay": 220,
      "▁wh": 221,
      "ion": 222,
      "▁he": 223,
      "ot": 224,
      "▁re": 225,
      "▁is": 226,
      "ut": 227,
      "▁u": 228,
      "▁be": 229,
      "ent": 230,
      "▁ha": 231,
      "▁fr": 232,
      "ght": 233,
      "▁do": 234,
      "▁'s": 235,
      "▁we": 236,
      "id": 237,
      "se": 238,
      "ke": 239,
      "ro": 240,
      "ight": 241,
      "ac": 242,
      "ver": 243,
      "▁for": 244,
      "▁st": 245,
      "ld": 246,
      "ur": 247,
      "ir": 248,
      "ly": 249,
      "▁from": 250,
      "ad": 251,
      "im": 252,
      "am": 253,
      "oo": 254,
      "▁was": 255,
      "▁me": 256,
      "▁what": 257,
      "▁r": 258,
      "▁an": 259,
      "all": 260,
      "il": 261,
      "▁this": 262,
      "ith": 263,
      "ct": 264,
      "▁with": 265,
      "▁at": 266,
      "▁se": 267,
      "▁li": 268,
      "▁fl": 269,
      "▁j": 270,
      "▁are": 271,
      "ant": 272,
      "▁k": 273,
      "▁as": 274,
      "ation": 275,
      "▁sh": 276,
      "ce": 277,
      "ter": 278,
      "▁have": 279,
      "▁ne": 280,
      "'t": 281,
      "▁n't": 282,
      "ch": 283,
      "▁not": 284,
      "ill": 285,
      "▁de": 286,
      "her": 287,
      "ould": 288,
      "▁flight": 289,
      "▁go": 290,
      "ore": 291,
      "▁-": 292,
      "▁my": 293,
      "ome": 294,
      "▁so": 295,
      "▁or": 296,
      "▁tr": 297,
      "op": 298,
      "ie": 299,
      "▁they": 300,
      "est": 301,
      "▁like": 302,
      "▁\"": 303,
      "▁su": 304,
      "▁ch": 305,
      "ge": 306,
      "▁con": 307,
      "▁whe": 308,
      "▁all": 309,
      "▁but": 310,
      "▁there": 311,
      "ab": 312,
      "ul": 313,
      "ist": 314,
      "▁can": 315,
      "ain": 316,
      "ust": 317,
      "pe": 318,
      "▁al": 319,
      "▁pro": 320,
      "th": 321,
      "▁ex": 322,
      "ol": 323,
      "qu": 324,
      "and": 325,
      "▁one": 326,
      "▁1": 327,
      "us": 328,
      "▁no": 329,
      "▁le": 330,
      "ive": 331,
      "ers": 332,
      "ig": 333,
      "▁your": 334,
      "▁com": 335,
      "pp": 336,
      "ess": 337,
      "▁flights": 338,
      "ost": 339,
      "▁v": 340,
      "um": 341,
      "ate": 342,
      "▁ab": 343,
      "ort": 344,
      "res": 345,
      "▁pl": 346,
      "el": 347,
      "ake": 348,
      "▁by": 349,
      "ity": 350,
      "▁wor": 351,
      "ap": 352,
      "un": 353,
      "ak": 354,
      "ook": 355,
      "▁ar": 356,
      "▁his": 357,
      "art": 358,
      "▁kn": 359,
      "ment": 360,
      "ies": 361,
      "nt": 362,
      "os": 363,
      "out": 364,
      "if": 365,
      "▁2": 366,
      "▁will": 367,
      "▁out": 368,
      "ally": 369,
      "▁ye": 370,
      "▁up": 371,
      "▁)": 372,
      "▁if": 373,
      "▁(": 374,
      "▁get": 375,
      "iv": 376,
      "very": 377,
      "▁had": 378,
      "▁am": 379,
      "ound": 380,
      "▁would": 381,
      "▁know": 382,
      "00": 383,
      "ard": 384,
      "▁she": 385,
      "au": 386,
      "ood": 387,
      "▁want": 388,
      "ack": 389,
      "▁see": 390,
      "▁some": 391,
      "itt": 392,
      "▁did": 393,
      "ast": 394,
      "ind": 395,
      "▁!": 396,
      "one": 397,
      "▁us": 398,
      "ice": 399,
      "red": 400,
      "▁how": 401,
      "▁te": 402,
      "fe": 403,
      "ck": 404,
      "ich": 405,
      "ink": 406,
      "ra": 407,
      "te": 408,
      "▁un": 409,
      "ia": 410,
      "day": 411,
      "▁af": 412,
      "▁just": 413,
      "▁who": 414,
      "▁sa": 415,
      "▁en": 416,
      "ine": 417,
      "▁tw": 418,
      "ame": 419,
      "▁gr": 420,
      "▁when": 421,
      "▁has": 422,
      "▁any": 423,
      "▁about": 424,
      "co": 425,
      "ans": 426,
      "▁cl": 427,
      "ong": 428,
      "ther": 429,
      "▁show": 430,
      "▁na": 431,
      "hing": 432,
      "our": 433,
      "▁ad": 434,
      "▁tim": 435,
      "ber": 436,
      "▁co": 437,
      "are": 438,
      "▁here": 439,
      "▁qu": 440,
      "▁man": 441,
      "▁were": 442,
      "▁which": 443,
      "mp": 444,
      "--": 445,
      "ag": 446,
      "▁fe": 447,
      "▁more": 448,
      "▁pr": 449,
      "▁:": 450,
      "▁them": 451,
      "▁now": 452,
      "ip": 453,
      "▁look": 454,
      "▁new": 455,
      "ase": 456,
      "▁pe": 457,
      "ide": 458,
      "▁ag": 459,
      "▁her": 460,
      "▁ro": 461,
      "ry": 462,
      "ud": 463,
      "ure": 464,
      "▁mo": 465,
      "ib": 466,
      "anc": 467,
      "ite": 468,
      "ah": 469,
      "▁'m": 470,
      "▁bec": 471,
      "ace": 472,
      "▁where": 473,
      "ough": 474,
      "▁than": 475,
      "▁him": 476,
      "▁'re": 477,
      "ous": 478,
      "▁other": 479,
      "▁air": 480,
      "▁ph": 481,
      "▁time": 482,
      "▁ev": 483,
      "▁sp": 484,
      "▁off": 485,
      "able": 486,
      "own": 487,
      "▁after": 488,
      "ions": 489,
      "▁their": 490,
      "▁think": 491,
      "ause": 492,
      "ick": 493,
      "ial": 494,
      "age": 495,
      "to": 496,
      "▁lo": 497,
      "▁need": 498,
      "▁put": 499,
      "▁work": 500,
      "▁dis": 501,
      "ays": 502,
      "▁over": 503,
      "▁been": 504,
      "▁ac": 505,
      "reat": 506,
      "▁fir": 507,
      "▁mom": 508,
      "act": 509,
      "▁right": 510,
      "▁two": 511,
      "▁bet": 512,
      "so": 513,
      "▁oh": 514,
      "▁san": 515,
      "▁too": 516,
      "ass": 517,
      "▁very": 518,
      "▁good": 519,
      "▁then": 520,
      "ail": 521,
      "ning": 522,
      "av": 523,
      "ose": 524,
      "▁br": 525,
      "▁comp": 526,
      "▁first": 527,
      "▁exp": 528,
      "▁our": 529,
      "▁sc": 530,
      "▁going": 531,
      "▁bo": 532,
      "ars": 533,
      "▁den": 534,
      "oston": 535,
      "▁because": 536,
      "ree": 537,
      "▁boston": 538,
      "my": 539,
      "we": 540,
      "▁cont": 541,
      "ect": 542,
      "▁could": 543,
      "▁make": 544,
      "▁per": 545,
      "▁well": 546,
      "▁let": 547,
      "▁peop": 548,
      "▁back": 549,
      "▁may": 550,
      "▁got": 551,
      "▁does": 552,
      "▁part": 553,
      "▁said": 554,
      "nder": 555,
      "iz": 556,
      "▁people": 557,
      "ue": 558,
      "▁car": 559,
      "ount": 560,
      "▁bl": 561,
      "ated": 562,
      "em": 563,
      "▁ser": 564,
      "▁also": 565,
      "▁denver": 566,
      "pt": 567,
      "..": 568,
      "▁res": 569,
      "ep": 570,
      "other": 571,
      "port": 572,
      "▁yeah": 573,
      "▁ple": 574,
      "ary": 575,
      "cl": 576,
      "▁into": 577,
      "▁ok": 578,
      "orm": 579,
      "ark": 580,
      "ww": 581,
      "land": 582,
      "▁take": 583,
      "▁these": 584,
      "ire": 585,
      "▁list": 586,
      "▁franc": 587,
      "ff": 588,
      "isco": 589,
      "ian": 590,
      "ile": 591,
      "▁francisco": 592,
      "▁way": 593,
      "dy": 594,
      "hed": 595,
      "▁down": 596,
      "ings": 597,
      "ph": 598,
      "ave": 599,
      "ence": 600,
      "▁che": 601,
      "▁pre": 602,
      "ang": 603,
      "ty": 604,
      "fore": 605,
      "▁even": 606,
      "▁ind": 607,
      "ress": 608,
      "▁spe": 609,
      "▁only": 610,
      "▁should": 611,
      "omet": 612,
      "alk": 613,
      "▁every": 614,
      "ance": 615,
      "ach": 616,
      "▁please": 617,
      "▁say": 618,
      "ish": 619,
      "▁ta": 620,
      "▁play": 621,
      "▁comm": 622,
      "ater": 623,
      "▁'ll": 624,
      "▁call": 625,
      "▁somet": 626,
      "og": 627,
      "ult": 628,
      "bur": 629,
      "▁gu": 630,
      "▁dr": 631,
      "▁po": 632,
      "▁bal": 633,
      "▁bu": 634,
      "▁mu": 635,
      "ical": 636,
      "▁act": 637,
      "anta": 638,
      "ren": 639,
      "▁okay": 640,
      "▁app": 641,
      "▁cr": 642,
      "▁again": 643,
      "▁before": 644,
      "▁imp": 645,
      "ines": 646,
      "▁jo": 647,
      "ens": 648,
      "cess": 649,
      "▁under": 650,
      "▁atl": 651,
      "▁betwe": 652,
      "▁between": 653,
      "ix": 654,
      "▁rec": 655,
      "▁wr": 656,
      "sel": 657,
      "▁;": 658,
      "▁inter": 659,
      "les": 660,
      "▁la": 661,
      "▁mor": 662,
      "▁atlanta": 663,
      "▁sm": 664,
      "▁long": 665,
      "ations": 666,
      "▁mommy": 667,
      "▁ca": 668,
      "li": 669,
      "ub": 670,
      "▁’": 671,
      "▁3": 672,
      "ade": 673,
      "▁bus": 674,
      "▁litt": 675,
      "urn": 676,
      "----": 677,
      "▁little": 678,
      "wn": 679,
      "ord": 680,
      "▁find": 681,
      "ors": 682,
      "▁come": 683,
      "▁ear": 684,
      "▁thr": 685,
      "form": 686,
      "▁op": 687,
      "▁dat": 688,
      "ited": 689,
      "▁many": 690,
      "▁–": 691,
      "ild": 692,
      "▁wan": 693,
      "▁gon": 694,
      "ton": 695,
      "▁rem": 696,
      "▁str": 697,
      "▁trans": 698,
      "lic": 699,
      "tim": 700,
      "▁serv": 701,
      "▁much": 702,
      "ign": 703,
      "▁big": 704,
      "▁those": 705,
      "ft": 706,
      "uct": 707,
      "▁mil": 708,
      "▁its": 709,
      "▁mon": 710,
      "ied": 711,
      "eric": 712,
      "▁pitt": 713,
      "sbur": 714,
      "▁day": 715,
      "▁dall": 716,
      "▁give": 717,
      "▁great": 718,
      "▁dallas": 719,
      "▁really": 720,
      "▁pittsbur": 721,
      "▁pittsburgh": 722,
      "▁why": 723,
      "▁eat": 724,
      "▁use": 725,
      "▁dad": 726,
      "gg": 727,
      "▁ke": 728,
      "▁hel": 729,
      "ting": 730,
      "amp": 731,
      "iss": 732,
      "▁hou": 733,
      "ks": 734,
      "ving": 735,
      "▁arr": 736,
      "▁help": 737,
      "▁phil": 738,
      "▁des": 739,
      "ory": 740,
      "▁americ": 741,
      "▁something": 742,
      "▁um": 743,
      "ool": 744,
      "▁around": 745,
      "▁tell": 746,
      "air": 747,
      "▁reg": 748,
      "▁200": 749,
      "oc": 750,
      "▁pres": 751,
      "ious": 752,
      "▁...": 753,
      "▁hi": 754,
      "ition": 755,
      "▁aw": 756,
      "▁dif": 757,
      "vel": 758,
      "▁uh": 759,
      "ved": 760,
      "inn": 761,
      "de": 762,
      "nds": 763,
      "xt": 764,
      "ons": 765,
      "ull": 766,
      "ise": 767,
      "▁yes": 768,
      "▁still": 769,
      "▁airl": 770,
      "ys": 771,
      "ily": 772,
      "▁morning": 773,
      "▁read": 774,
      "aking": 775,
      "ms": 776,
      "int": 777,
      "▁happ": 778,
      "▁att": 779,
      "ath": 780,
      "▁city": 781,
      "ict": 782,
      "adel": 783,
      "ates": 784,
      "__": 785,
      "oup": 786,
      "▁prob": 787,
      "▁'d": 788,
      "▁try": 789,
      "akes": 790,
      "self": 791,
      "▁most": 792,
      "▁baltim": 793,
      "▁baltimore": 794,
      "▁5": 795,
      "esday": 796,
      "phia": 797,
      "▁philadel": 798,
      "▁philadelphia": 799,
      "▁19": 800,
      "▁cle": 801,
      "▁count": 802,
      "od": 803,
      "▁fin": 804,
      "ron": 805,
      "▁pol": 806,
      "▁4": 807,
      "▁last": 808,
      "▁pm": 809,
      "▁inte": 810,
      "rent": 811,
      "▁book": 812,
      "ought": 813,
      "▁rep": 814,
      "▁bel": 815,
      "▁20": 816,
      "▁another": 817,
      "▁gl": 818,
      "ible": 819,
      "==": 820,
      "be": 821,
      "▁through": 822,
      "com": 823,
      "▁ap": 824,
      "▁sch": 825,
      "▁pos": 826,
      "ments": 827,
      "▁made": 828,
      "▁place": 829,
      "▁add": 830,
      "▁home": 831,
      "▁num": 832,
      "ci": 833,
      "▁bot": 834,
      "vers": 835,
      "▁[": 836,
      "▁el": 837,
      "iew": 838,
      "▁world": 839,
      "▁mar": 840,
      "▁fo": 841,
      "ert": 842,
      "▁]": 843,
      "▁doing": 844,
      "als": 845,
      "ents": 846,
      "▁years": 847,
      "ually": 848,
      "▁leav": 849,
      "▁—": 850,
      "▁wee": 851,
      "▁own": 852,
      "llow": 853,
      "▁talk": 854,
      "enc": 855,
      "▁kind": 856,
      "ful": 857,
      "▁em": 858,
      "▁cons": 859,
      "ange": 860,
      "▁year": 861,
      "▁frie": 862,
      "▁daddy": 863,
      "me": 864,
      "▁char": 865,
      "pect": 866,
      "thing": 867,
      "per": 868,
      "▁today": 869,
      "ject": 870,
      "▁rel": 871,
      "▁washing": 872,
      "▁food": 873,
      "▁pers": 874,
      "▁'ve": 875,
      "▁7": 876,
      "▁’s": 877,
      "▁stud": 878,
      "▁airlines": 879,
      "▁house": 880,
      "▁av": 881,
      "▁ho": 882,
      "ational": 883,
      "get": 884,
      "ather": 885,
      "read": 886,
      "uck": 887,
      "▁start": 888,
      "ities": 889,
      "▁same": 890,
      "▁things": 891,
      "▁bas": 892,
      "ident": 893,
      "▁went": 894,
      "▁stop": 895,
      "▁school": 896,
      "gr": 897,
      "▁ter": 898,
      "▁name": 899,
      "▁washington": 900,
      "oy": 901,
      "ock": 902,
      "www": 903,
      "▁wo": 904,
      "▁supp": 905,
      "▁diffe": 906,
      "mber": 907,
      "atch": 908,
      "uc": 909,
      "▁min": 910,
      "▁inst": 911,
      "orn": 912,
      "▁lot": 913,
      "▁gen": 914,
      "▁such": 915,
      "▁inform": 916,
      "▁mean": 917,
      "man": 918,
      "ves": 919,
      "▁best": 920,
      "nday": 921,
      "▁next": 922,
      "▁war": 923,
      "▁ob": 924,
      "▁fly": 925,
      "iving": 926,
      "▁bab": 927,
      "▁ele": 928,
      "▁old": 929,
      "**": 930,
      "▁sur": 931,
      "▁real": 932,
      "▁set": 933,
      "▁ask": 934,
      "ific": 935,
      "▁acc": 936,
      "▁sy": 937,
      "▁open": 938,
      "▁/": 939,
      "ever": 940,
      "▁dec": 941,
      "ork": 942,
      "▁three": 943,
      "▁6": 944,
      "▁inc": 945,
      "▁col": 946,
      "oman": 947,
      "▁while": 948,
      "▁turn": 949,
      "ank": 950,
      "▁quest": 951,
      "rest": 952,
      "▁im": 953,
      "▁hu": 954,
      "▁prov": 955,
      "▁wa": 956,
      "▁night": 957,
      "cept": 958,
      "!!": 959,
      "der": 960,
      "▁inv": 961,
      "▁hand": 962,
      "▁form": 963,
      "▁being": 964,
      "up": 965,
      "▁class": 966,
      "bo": 967,
      "ular": 968,
      "ince": 969,
      "▁spec": 970,
      "hes": 971,
      "▁feel": 972,
      "▁leaving": 973,
      "led": 974,
      "▁end": 975,
      "▁never": 976,
      "fect": 977,
      "no": 978,
      "▁wed": 979,
      "▁fun": 980,
      "▁--": 981,
      "▁united": 982,
      "urs": 983,
      "▁leave": 984,
      "▁head": 985,
      "▁american": 986,
      "▁dra": 987,
      "▁high": 988,
      "side": 989,
      "ating": 990,
      "ways": 991,
      "olog": 992,
      "▁service": 993,
      "▁number": 994,
      "▁room": 995,
      "▁information": 996,
      "▁thing": 997,
      "▁sub": 998,
      "ward": 999,
      "con": 1000,
      "▁sal": 1001,
      "ative": 1002,
      "▁life": 1003,
      "ne": 1004,
      "▁sl": 1005,
      "▁har": 1006,
      "▁person": 1007,
      "▁ass": 1008,
      "▁leg": 1009,
      "▁sit": 1010,
      "▁prod": 1011,
      "▁ve": 1012,
      "▁water": 1013,
      "▁used": 1014,
      "▁$": 1015,
      "ual": 1016,
      "▁0": 1017,
      "ope": 1018,
      "000": 1019,
      "▁far": 1020,
      "▁ent": 1021,
      "ient": 1022,
      "▁ret": 1023,
      "clud": 1024,
      "ss": 1025,
      "▁called": 1026,
      "▁fam": 1027,
      "▁keep": 1028,
      "▁away": 1029,
      "▁sat": 1030,
      "▁baby": 1031,
      "▁sk": 1032,
      "▁det": 1033,
      "▁eu": 1034,
      "▁rest": 1035,
      "ience": 1036,
      "ution": 1037,
      "▁“": 1038,
      "▁ed": 1039,
      "▁met": 1040,
      "▁lar": 1041,
      "▁red": 1042,
      "vern": 1043,
      "▁small": 1044,
      "▁else": 1045,
      "ures": 1046,
      "▁par": 1047,
      "▁rev": 1048,
      "ute": 1049,
      "▁coll": 1050,
      "▁contin": 1051,
      "rib": 1052,
      "▁sure": 1053,
      "▁group": 1054,
      "▁found": 1055,
      "▁bre": 1056,
      "▁child": 1057,
      "▁10": 1058,
      "▁love": 1059,
      "▁pub": 1060,
      "ces": 1061,
      "▁must": 1062,
      "▁always": 1063,
      "▁vis": 1064,
      "oun": 1065,
      "ug": 1066,
      "▁cour": 1067,
      "▁thought": 1068,
      "▁round": 1069,
      "▁”": 1070,
      "▁interest": 1071,
      "▁both": 1072,
      "--------": 1073,
      "▁gener": 1074,
      "nesday": 1075,
      "▁transport": 1076,
      "▁wednesday": 1077,
      "▁ma": 1078,
      "oney": 1079,
      "ices": 1080,
      "irl": 1081,
      "▁art": 1082,
      "▁light": 1083,
      "▁stand": 1084,
      "▁dep": 1085,
      "▁better": 1086,
      "▁different": 1087,
      "▁haf": 1088,
      "▁mr": 1089,
      "▁trip": 1090,
      "irect": 1091,
      "med": 1092,
      "▁hot": 1093,
      "▁ground": 1094,
      "▁mark": 1095,
      "▁intern": 1096,
      "▁since": 1097,
      "▁cent": 1098,
      "▁pa": 1099,
      "▁avail": 1100,
      "▁eng": 1101,
      "/2": 1102,
      "▁bro": 1103,
      "▁cur": 1104,
      "tle": 1105,
      "▁few": 1106,
      "▁partic": 1107,
      "▁month": 1108,
      "ger": 1109,
      "▁fa": 1110,
      "▁bir": 1111,
      "▁requ": 1112,
      "▁def": 1113,
      "▁four": 1114,
      "ics": 1115,
      "ably": 1116,
      "▁direct": 1117,
      "▁includ": 1118,
      "▁each": 1119,
      "aper": 1120,
      "▁poss": 1121,
      "▁might": 1122,
      "▁loc": 1123,
      "▁nice": 1124,
      "▁gre": 1125,
      "ash": 1126,
      "▁point": 1127,
      "▁8": 1128,
      "▁walk": 1129,
      "outh": 1130,
      "uring": 1131,
      "uss": 1132,
      "▁follow": 1133,
      "▁done": 1134,
      "▁remem": 1135,
      "ters": 1136,
      "▁available": 1137,
      "▁came": 1138,
      "▁ref": 1139,
      "▁report": 1140,
      "ared": 1141,
      "▁fact": 1142,
      "▁girl": 1143,
      "▁thank": 1144,
      "ts": 1145,
      "▁though": 1146,
      "▁took": 1147,
      "ale": 1148,
      "ower": 1149,
      "▁exper": 1150,
      "▁euro": 1151,
      "iness": 1152,
      "▁pet": 1153,
      "▁govern": 1154,
      "▁plan": 1155,
      "▁happen": 1156,
      "▁proble": 1157,
      "▁eas": 1158,
      "velop": 1159,
      "▁sw": 1160,
      "▁care": 1161,
      "ural": 1162,
      "iting": 1163,
      "ason": 1164,
      "ants": 1165,
      "▁week": 1166,
      "▁cap": 1167,
      "▁state": 1168,
      "▁ty": 1169,
      "▁hard": 1170,
      "▁ey": 1171,
      "▁201": 1172,
      "▁z": 1173,
      "▁sim": 1174,
      "▁mat": 1175,
      "▁non": 1176,
      "ense": 1177,
      "▁york": 1178,
      "ility": 1179,
      "▁cheap": 1180,
      "▁told": 1181,
      "▁seco": 1182,
      "▁belie": 1183,
      "ention": 1184,
      "▁conf": 1185,
      "▁dem": 1186,
      "▁ball": 1187,
      "▁hear": 1188,
      "▁alread": 1189,
      "▁already": 1190,
      "gan": 1191,
      "▁dog": 1192,
      "▁maybe": 1193,
      "▁states": 1194,
      "▁ext": 1195,
      "orr": 1196,
      "▁stay": 1197,
      "▁lead": 1198,
      "▁ju": 1199,
      "ny": 1200,
      "pr": 1201,
      "ality": 1202,
      "▁stre": 1203,
      "▁roman": 1204,
      "▁however": 1205,
      "▁hum": 1206,
      "ives": 1207,
      "▁thanks": 1208,
      "ling": 1209,
      "ina": 1210,
      "▁bad": 1211,
      "▁dist": 1212,
      "▁days": 1213,
      "▁sec": 1214,
      "▁looking": 1215,
      "conom": 1216,
      "▁pass": 1217,
      "▁econom": 1218,
      "stand": 1219,
      "ross": 1220,
      "▁run": 1221,
      "▁develop": 1222,
      "▁disc": 1223,
      "pl": 1224,
      "here": 1225,
      "ished": 1226,
      "▁je": 1227,
      "▁six": 1228,
      "▁hey": 1229,
      "▁meet": 1230,
      "▁sign": 1231,
      "▁adam": 1232,
      "io": 1233,
      "▁train": 1234,
      "▁bush": 1235,
      "▁remember": 1236,
      "▁fare": 1237,
      "ield": 1238,
      "▁data": 1239,
      "▁president": 1240,
      "▁nor": 1241,
      "▁uni": 1242,
      "ted": 1243,
      "ets": 1244,
      "osed": 1245,
      "▁second": 1246,
      ".com": 1247,
      "ness": 1248,
      "enty": 1249,
      "▁word": 1250,
      "____": 1251,
      "ik": 1252,
      "▁fil": 1253,
      "▁later": 1254,
      "▁laur": 1255,
      "ric": 1256,
      "▁9": 1257,
      "▁fall": 1258,
      "▁afterno": 1259,
      "▁job": 1260,
      "ues": 1261,
      "▁pie": 1262,
      "ised": 1263,
      "▁afternoon": 1264,
      "▁bit": 1265,
      "▁tom": 1266,
      "▁ge": 1267,
      "▁watch": 1268,
      "▁import": 1269,
      "ission": 1270,
      "▁friend": 1271,
      "ired": 1272,
      "▁nothing": 1273,
      "▁del": 1274,
      "▁actually": 1275,
      "▁aut": 1276,
      "▁oak": 1277,
      "ote": 1278,
      "tern": 1279,
      "▁resp": 1280,
      "▁hold": 1281,
      "▁expl": 1282,
      "▁early": 1283,
      "ven": 1284,
      "▁cor": 1285,
      "ards": 1286,
      "▁saw": 1287,
      "▁anything": 1288,
      "▁compan": 1289,
      "▁appro": 1290,
      "▁free": 1291,
      "▁val": 1292,
      "▁ide": 1293,
      "▁main": 1294,
      "▁unt": 1295,
      "▁left": 1296,
      "▁transportation": 1297,
      "▁laura": 1298,
      "▁cat": 1299,
      "▁cost": 1300,
      "▁med": 1301,
      "▁making": 1302,
      "▁ever": 1303,
      "▁business": 1304,
      "====": 1305,
      "▁st.": 1306,
      "ists": 1307,
      "▁says": 1308,
      "▁hour": 1309,
      "ism": 1310,
      "▁once": 1311,
      "stem": 1312,
      "▁airport": 1313,
      "▁milk": 1314,
      "▁face": 1315,
      "erg": 1316,
      "▁getting": 1317,
      "▁oakland": 1318,
      "▁mi": 1319,
      "▁ins": 1320,
      "▁doll": 1321,
      "less": 1322,
      "min": 1323,
      "▁line": 1324,
      "idd": 1325,
      "ction": 1326,
      "▁without": 1327,
      "▁lear": 1328,
      "ump": 1329,
      "▁earli": 1330,
      "body": 1331,
      "iet": 1332,
      "▁tu": 1333,
      "▁live": 1334,
      "ior": 1335,
      "tt": 1336,
      "▁sn": 1337,
      "▁fu": 1338,
      "▁bar": 1339,
      "▁mother": 1340,
      "▁country": 1341,
      "▁family": 1342,
      "▁public": 1343,
      "▁europe": 1344,
      "ble": 1345,
      "▁full": 1346,
      "▁hope": 1347,
      "▁iss": 1348,
      "▁understand": 1349,
      "ertain": 1350,
      "▁x": 1351,
      "▁thurs": 1352,
      "▁emp": 1353,
      "▁hair": 1354,
      "▁monday": 1355,
      "▁law": 1356,
      "▁cheapest": 1357,
      "▁five": 1358,
      "▁mus": 1359,
      "▁game": 1360,
      "▁thursday": 1361,
      "mm": 1362,
      "▁cre": 1363,
      "ider": 1364,
      "ample": 1365,
      "▁product": 1366,
      "▁pop": 1367,
      "▁sun": 1368,
      "▁pret": 1369,
      "▁system": 1370,
      "▁nat": 1371,
      "▁thir": 1372,
      "▁less": 1373,
      "▁adv": 1374,
      "▁buy": 1375,
      "▁probably": 1376,
      "▁trying": 1377,
      "cc": 1378,
      "▁money": 1379,
      "▁during": 1380,
      "▁using": 1381,
      "ize": 1382,
      "▁break": 1383,
      "az": 1384,
      "hip": 1385,
      "▁against": 1386,
      "aff": 1387,
      "▁sle": 1388,
      "▁pict": 1389,
      "▁paper": 1390,
      "▁sep": 1391,
      "▁process": 1392,
      "▁cut": 1393,
      "▁beh": 1394,
      "▁18": 1395,
      "by": 1396,
      "ned": 1397,
      "ten": 1398,
      "ental": 1399,
      "▁mem": 1400,
      "gether": 1401,
      "aw": 1402,
      "go": 1403,
      "ier": 1404,
      "▁ira": 1405,
      "▁pay": 1406,
      "▁15": 1407,
      "angu": 1408,
      "▁arriving": 1409,
      "▁draw": 1410,
      "▁pretty": 1411,
      "▁iraq": 1412,
      "uff": 1413,
      "arch": 1414,
      "alth": 1415,
      "▁prop": 1416,
      "▁11": 1417,
      "▁12": 1418,
      "▁commun": 1419,
      "▁question": 1420,
      "▁coun": 1421,
      "▁yet": 1422,
      "alf": 1423,
      "▁change": 1424,
      "▁grow": 1425,
      "▁friends": 1426,
      "▁wait": 1427,
      ",000": 1428,
      "▁land": 1429,
      "▁inf": 1430,
      "ages": 1431,
      "▁comple": 1432,
      "▁depart": 1433,
      "ries": 1434,
      "▁bed": 1435,
      "▁top": 1436,
      "ided": 1437,
      "unch": 1438,
      "▁move": 1439,
      "▁access": 1440,
      "ins": 1441,
      "▁father": 1442,
      "▁post": 1443,
      "▁least": 1444,
      "▁view": 1445,
      "br": 1446,
      "▁wanted": 1447,
      "▁enough": 1448,
      "▁everything": 1449,
      "▁large": 1450,
      "▁squ": 1451,
      "▁conc": 1452,
      "▁write": 1453,
      "▁terr": 1454,
      "ator": 1455,
      "▁langu": 1456,
      "ically": 1457,
      "ately": 1458,
      "▁twenty": 1459,
      "▁clean": 1460,
      "gram": 1461,
      "bers": 1462,
      "▁cal": 1463,
      "iday": 1464,
      "▁tech": 1465,
      "▁until": 1466,
      "▁field": 1467,
      "▁ce": 1468,
      "its": 1469,
      "▁white": 1470,
      "enth": 1471,
      "▁having": 1472,
      "▁appe": 1473,
      "▁government": 1474,
      "▁tuesday": 1475,
      "▁someone": 1476,
      "▁black": 1477,
      "nect": 1478,
      "inc": 1479,
      "ital": 1480,
      "▁sho": 1481,
      "▁goes": 1482,
      "ived": 1483,
      "▁times": 1484,
      "right": 1485,
      "▁men": 1486,
      "▁together": 1487,
      "▁hor": 1488,
      "▁ste": 1489,
      "▁means": 1490,
      "▁anim": 1491,
      "▁trave": 1492,
      "▁prof": 1493,
      "ipp": 1494,
      "▁whole": 1495,
      "▁office": 1496,
      "▁rece": 1497,
      "▁area": 1498,
      "▁dere": 1499,
      "gn": 1500,
      "▁wind": 1501,
      "▁int": 1502,
      "▁store": 1503,
      "▁order": 1504,
      "▁example": 1505,
      "▁pur": 1506,
      "▁indian": 1507,
      "rence": 1508,
      "▁techn": 1509,
      "aur": 1510,
      "▁ir": 1511,
      "▁outside": 1512,
      "ized": 1513,
      "▁return": 1514,
      "hu": 1515,
      "▁est": 1516,
      "nded": 1517,
      "ither": 1518,
      "▁program": 1519,
      "▁es": 1520,
      "ently": 1521,
      "ames": 1522,
      "▁short": 1523,
      "▁possible": 1524,
      "▁important": 1525,
      "aut": 1526,
      "bs": 1527,
      "ract": 1528,
      "ety": 1529,
      "▁youn": 1530,
      "▁result": 1531,
      "▁harry": 1532,
      "hen": 1533,
      "▁case": 1534,
      "▁ans": 1535,
      "▁prot": 1536,
      "▁creat": 1537,
      "ont": 1538,
      "kee": 1539,
      "ained": 1540,
      "▁enj": 1541,
      "▁children": 1542,
      "▁paul": 1543,
      "ee": 1544,
      "most": 1545,
      "▁south": 1546,
      "▁pain": 1547,
      "ional": 1548,
      "▁friday": 1549,
      "▁ben": 1550,
      "▁pick": 1551,
      "▁hit": 1552,
      "▁national": 1553,
      "ows": 1554,
      "▁chang": 1555,
      "▁const": 1556,
      "▁able": 1557,
      "aught": 1558,
      "▁himself": 1559,
      "▁check": 1560,
      "▁drink": 1561,
      "▁support": 1562,
      "▁univers": 1563,
      "▁hur": 1564,
      "urday": 1565,
      "▁proper": 1566,
      "▁bring": 1567,
      "▁miss": 1568,
      "▁dc": 1569,
      "▁equ": 1570,
      "imes": 1571,
      "▁build": 1572,
      "▁study": 1573,
      "▁saturday": 1574,
      "lish": 1575,
      "rap": 1576,
      "▁pot": 1577,
      "▁sunday": 1578,
      "ustom": 1579,
      "▁coming": 1580,
      "iven": 1581,
      "orrow": 1582,
      "▁hist": 1583,
      "▁jun": 1584,
      "▁elect": 1585,
      "▁north": 1586,
      "ma": 1587,
      "▁test": 1588,
      "▁seat": 1589,
      "▁deal": 1590,
      "▁polit": 1591,
      "wau": 1592,
      "▁&": 1593,
      "ese": 1594,
      "ston": 1595,
      "olis": 1596,
      "ife": 1597,
      "▁price": 1598,
      "▁milwau": 1599,
      "ency": 1600,
      "▁milwaukee": 1601,
      "cial": 1602,
      "▁htt": 1603,
      "▁near": 1604,
      "▁almost": 1605,
      "inner": 1606,
      "****": 1607,
      "▁http": 1608,
      "//": 1609,
      "://": 1610,
      "▁sing": 1611,
      "nding": 1612,
      "▁pen": 1613,
      "omme": 1614,
      "▁course": 1615,
      "▁particular": 1616,
      "cle": 1617,
      "▁reason": 1618,
      "▁ur": 1619,
      "▁connect": 1620,
      "▁recomme": 1621,
      "▁based": 1622,
      "▁problem": 1623,
      "ffect": 1624,
      "▁taking": 1625,
      "▁cult": 1626,
      "▁custom": 1627,
      "ummy": 1628,
      "▁joh": 1629,
      "▁international": 1630,
      "▁http://": 1631,
      "where": 1632,
      "▁agree": 1633,
      "▁box": 1634,
      "▁record": 1635,
      "▁experience": 1636,
      "▁sleep": 1637,
      "▁certain": 1638,
      "ery": 1639,
      "rop": 1640,
      "irt": 1641,
      "▁atte": 1642,
      "▁sever": 1643,
      "▁chr": 1644,
      "▁worth": 1645,
      "aps": 1646,
      "apolis": 1647,
      "▁close": 1648,
      "▁contro": 1649,
      "▁horse": 1650,
      "ove": 1651,
      "▁power": 1652,
      "ama": 1653,
      "ology": 1654,
      "▁maj": 1655,
      "▁months": 1656,
      "▁july": 1657,
      "▁side": 1658,
      "▁cop": 1659,
      "▁prom": 1660,
      "▁boy": 1661,
      "▁present": 1662,
      "ined": 1663,
      "▁beg": 1664,
      "ached": 1665,
      "▁fort": 1666,
      "▁flo": 1667,
      "▁16": 1668,
      "▁pho": 1669,
      "▁human": 1670,
      "▁several": 1671,
      "▁step": 1672,
      "arent": 1673,
      "▁company": 1674,
      "ased": 1675,
      "▁cond": 1676,
      "▁evening": 1677,
      "▁incre": 1678,
      "aim": 1679,
      "ced": 1680,
      "ruct": 1681,
      "▁pat": 1682,
      "▁tomorrow": 1683,
      "30": 1684,
      "ta": 1685,
      "▁aug": 1686,
      "▁mind": 1687,
      "▁past": 1688,
      "▁eff": 1689,
      "▁project": 1690,
      "▁ago": 1691,
      "▁everyone": 1692,
      "▁playing": 1693,
      "▁fares": 1694,
      "▁eyes": 1695,
      "iver": 1696,
      "▁die": 1697,
      "aces": 1698,
      "▁oper": 1699,
      "▁charl": 1700,
      "▁special": 1701,
      "▁salt": 1702,
      "ml": 1703,
      "▁fore": 1704,
      "ision": 1705,
      "▁looks": 1706,
      "▁commission": 1707,
      "▁arrive": 1708,
      "▁asked": 1709,
      "▁general": 1710,
      "▁major": 1711,
      "cent": 1712,
      "s.": 1713,
      "way": 1714,
      "▁los": 1715,
      "▁effect": 1716,
      "▁door": 1717,
      "▁kid": 1718,
      "▁mod": 1719,
      "▁happened": 1720,
      "▁language": 1721,
      "na": 1722,
      "▁opp": 1723,
      "▁bur": 1724,
      "▁beaut": 1725,
      "▁expect": 1726,
      "aken": 1727,
      "▁discuss": 1728,
      "▁john": 1729,
      "’t": 1730,
      "▁dinner": 1731,
      "▁n’t": 1732,
      "▁lou": 1733,
      "▁lim": 1734,
      "▁front": 1735,
      "▁soon": 1736,
      "▁sometimes": 1737,
      "▁treat": 1738,
      "▁sent": 1739,
      "▁fre": 1740,
      "aring": 1741,
      "▁chair": 1742,
      "▁news": 1743,
      "▁young": 1744,
      "utes": 1745,
      "▁shakes": 1746,
      "ago": 1747,
      "▁working": 1748,
      "▁review": 1749,
      "▁green": 1750,
      "▁along": 1751,
      "▁believe": 1752,
      "▁cup": 1753,
      "iter": 1754,
      "▁often": 1755,
      "room": 1756,
      "peare": 1757,
      "▁quite": 1758,
      "▁houston": 1759,
      "▁happy": 1760,
      "▁clear": 1761,
      "▁shakespeare": 1762,
      "▁coup": 1763,
      "▁mess": 1764,
      "▁half": 1765,
      "▁egg": 1766,
      "▁either": 1767,
      "▁health": 1768,
      "ush": 1769,
      "▁color": 1770,
      "huh": 1771,
      "▁ten": 1772,
      "▁file": 1773,
      "▁bill": 1774,
      "▁makes": 1775,
      "▁town": 1776,
      "▁gave": 1777,
      "▁rese": 1778,
      "▁sea": 1779,
      "▁grand": 1780,
      "▁uhhuh": 1781,
      "ged": 1782,
      "atic": 1783,
      "ana": 1784,
      "▁island": 1785,
      "ides": 1786,
      "▁amount": 1787,
      "▁phone": 1788,
      "▁space": 1789,
      "ensive": 1790,
      "ond": 1791,
      "▁sound": 1792,
      "▁ban": 1793,
      "▁camp": 1794,
      "ern": 1795,
      "▁mic": 1796,
      "stop": 1797,
      "▁chic": 1798,
      "ains": 1799,
      "▁anyone": 1800,
      "▁blue": 1801,
      "▁questions": 1802,
      "▁birth": 1803,
      "ched": 1804,
      "ob": 1805,
      "▁da": 1806,
      "enix": 1807,
      "omen": 1808,
      "▁eight": 1809,
      "ctor": 1810,
      "▁within": 1811,
      "▁strong": 1812,
      "▁phoenix": 1813,
      "ians": 1814,
      "ret": 1815,
      "ime": 1816,
      "▁others": 1817,
      "▁party": 1818,
      "▁enjoy": 1819,
      "▁august": 1820,
      "▁chicago": 1821,
      "loy": 1822,
      "oice": 1823,
      "▁table": 1824,
      "▁swe": 1825,
      "▁stuff": 1826,
      "▁whether": 1827,
      "istan": 1828,
      "▁huh": 1829,
      "▁control": 1830,
      "line": 1831,
      "▁q": 1832,
      "▁tick": 1833,
      "▁fut": 1834,
      "▁las": 1835,
      "ami": 1836,
      "▁sol": 1837,
      "▁exce": 1838,
      "▁17": 1839,
      "used": 1840,
      "▁199": 1841,
      "lf": 1842,
      "sh": 1843,
      "▁cook": 1844,
      "▁page": 1845,
      "▁offic": 1846,
      "▁nonstop": 1847,
      "cum": 1848,
      "▁rob": 1849,
      "▁milit": 1850,
      "▁started": 1851,
      "▁wonder": 1852,
      "▁simp": 1853,
      "ead": 1854,
      "▁fix": 1855,
      "▁cir": 1856,
      "▁level": 1857,
      "▁occ": 1858,
      "▁fire": 1859,
      "▁mag": 1860,
      "▁shop": 1861,
      "▁suc": 1862,
      "ulation": 1863,
      "tember": 1864,
      "▁instead": 1865,
      "▁current": 1866,
      "▁piece": 1867,
      "ster": 1868,
      "▁comes": 1869,
      "ung": 1870,
      "▁consider": 1871,
      "▁auth": 1872,
      "▁hours": 1873,
      "▁september": 1874,
      "ering": 1875,
      "▁across": 1876,
      "ocr": 1877,
      "▁talking": 1878,
      "▁type": 1879,
      "▁earliest": 1880,
      "▁er": 1881,
      "rew": 1882,
      "▁o'": 1883,
      "▁mill": 1884,
      "▁death": 1885,
      "▁soci": 1886,
      "▁social": 1887,
      "▁env": 1888,
      "▁enron": 1889,
      "▁quick": 1890,
      "▁idea": 1891,
      "gress": 1892,
      "▁seen": 1893,
      "▁sugg": 1894,
      "▁among": 1895,
      "▁including": 1896,
      "▁street": 1897,
      "▁suggest": 1898,
      "iod": 1899,
      "▁fel": 1900,
      "▁fish": 1901,
      "▁lic": 1902,
      "lect": 1903,
      "▁orig": 1904,
      "▁summ": 1905,
      "▁abe": 1906,
      "▁upon": 1907,
      "avor": 1908,
      "▁inde": 1909,
      "▁countries": 1910,
      "▁protect": 1911,
      "▁age": 1912,
      "▁park": 1913,
      "ister": 1914,
      "els": 1915,
      "▁recommend": 1916,
      "▁floor": 1917,
      "ming": 1918,
      "▁opt": 1919,
      "ination": 1920,
      "▁fine": 1921,
      "▁cause": 1922,
      "ones": 1923,
      "▁ya": 1924,
      "itting": 1925,
      "▁peace": 1926,
      "▁guys": 1927,
      "▁diff": 1928,
      "▁bird": 1929,
      "▁future": 1930,
      "▁dark": 1931,
      "▁pull": 1932,
      "▁chick": 1933,
      "▁percent": 1934,
      "▁local": 1935,
      "▁miami": 1936,
      "▁political": 1937,
      "crib": 1938,
      "gas": 1939,
      "▁id": 1940,
      "▁given": 1941,
      "aster": 1942,
      "▁hands": 1943,
      "acy": 1944,
      "▁organ": 1945,
      "▁alth": 1946,
      "▁become": 1947,
      "uary": 1948,
      "▁taken": 1949,
      "▁west": 1950,
      "▁sar": 1951,
      "▁mot": 1952,
      "▁toron": 1953,
      "▁ones": 1954,
      "ury": 1955,
      "▁china": 1956,
      "▁period": 1957,
      "clock": 1958,
      "▁guess": 1959,
      "----------------": 1960,
      "▁june": 1961,
      "▁although": 1962,
      "▁toronto": 1963,
      "ration": 1964,
      "▁fight": 1965,
      "▁heard": 1966,
      "▁allow": 1967,
      "▁alright": 1968,
      "▁quality": 1969,
      "▁rock": 1970,
      "▁picture": 1971,
      "▁profess": 1972,
      "▁university": 1973,
      "▁mine": 1974,
      "ising": 1975,
      "▁gone": 1976,
      "ley": 1977,
      "umb": 1978,
      "▁clot": 1979,
      "▁mov": 1980,
      "ograp": 1981,
      "▁minutes": 1982,
      "▁vegas": 1983,
      "▁market": 1984,
      "▁travel": 1985,
      "ral": 1986,
      "ril": 1987,
      "ouch": 1988,
      "itc": 1989,
      "urity": 1990,
      "amed": 1991,
      "▁ra": 1992,
      "ortun": 1993,
      "▁needs": 1994,
      "▁collect": 1995,
      "▁dollars": 1996,
      "▁http://www": 1997,
      "▁o'clock": 1998,
      "▁felt": 1999,
      "ok": 2000,
      "▁sor": 2001,
      "▁bag": 2002,
      "▁bear": 2003,
      "▁staff": 2004,
      "▁deb": 2005,
      "▁dead": 2006,
      "▁trad": 2007,
      "▁except": 2008,
      "que": 2009,
      "▁known": 2010,
      "▁ready": 2011,
      "▁repres": 2012,
      "▁geor": 2013,
      "▁women": 2014,
      "▁fur": 2015,
      "icy": 2016,
      "▁orland": 2017,
      "▁noon": 2018,
      "▁works": 2019,
      "iously": 2020,
      "▁visit": 2021,
      "▁defin": 2022,
      "▁following": 2023,
      "▁http://www.": 2024,
      "▁orlando": 2025,
      "▁lake": 2026,
      "▁anal": 2027,
      "▁kill": 2028,
      "ief": 2029,
      "▁cold": 2030,
      "ell": 2031,
      "ament": 2032,
      "pend": 2033,
      "▁quinn": 2034,
      "▁prev": 2035,
      "▁design": 2036,
      "▁restaur": 2037,
      "▁iran": 2038,
      "▁origin": 2039,
      "▁win": 2040,
      "▁fif": 2041,
      "▁bi": 2042,
      "ases": 2043,
      "ott": 2044,
      "▁road": 2045,
      "ec": 2046,
      "▁ah": 2047,
      "▁sour": 2048,
      "▁press": 2049,
      "▁forward": 2050,
      "▁story": 2051,
      "iron": 2052,
      "▁shall": 2053,
      "pped": 2054,
      "▁arg": 2055,
      "▁team": 2056,
      "▁looked": 2057,
      "▁mont": 2058,
      "ully": 2059,
      "▁surpr": 2060,
      "ergy": 2061,
      "▁answ": 2062,
      "▁sorry": 2063,
      "▁mummy": 2064,
      "▁dress": 2065,
      "▁init": 2066,
      "otte": 2067,
      "▁sev": 2068,
      "▁var": 2069,
      "▁kne": 2070,
      "ances": 2071,
      "▁accept": 2072,
      "▁email": 2073,
      "▁security": 2074,
      "▁behind": 2075,
      "▁animals": 2076,
      "▁environ": 2077,
      "ef": 2078,
      "za": 2079,
      "▁tour": 2080,
      "ories": 2081,
      "▁lat": 2082,
      "▁et": 2083,
      "rod": 2084,
      "▁!!!": 2085,
      "ference": 2086,
      "raft": 2087,
      "▁guy": 2088,
      "/200": 2089,
      "▁delta": 2090,
      "▁charlotte": 2091,
      "▁author": 2092,
      "ered": 2093,
      "uation": 2094,
      "▁wife": 2095,
      "ats": 2096,
      "▁don": 2097,
      "ane": 2098,
      "▁late": 2099,
      "▁living": 2100,
      "▁truck": 2101,
      "osp": 2102,
      "▁scient": 2103,
      "▁april": 2104,
      "ney": 2105,
      "▁educ": 2106,
      "▁english": 2107,
      "iddle": 2108,
      "ffe": 2109,
      "got": 2110,
      "ria": 2111,
      "▁sil": 2112,
      "▁sand": 2113,
      "▁fac": 2114,
      "▁due": 2115,
      "▁energy": 2116,
      "▁claim": 2117,
      "▁obs": 2118,
      "▁specific": 2119,
      "▁european": 2120,
      "▁christ": 2121,
      "▁success": 2122,
      "▁diffic": 2123,
      "ner": 2124,
      "reme": 2125,
      "erv": 2126,
      "▁middle": 2127,
      "▁parent": 2128,
      "▁ham": 2129,
      "▁ant": 2130,
      "▁wants": 2131,
      "▁usually": 2132,
      "ansas": 2133,
      "▁account": 2134,
      "▁third": 2135,
      "▁research": 2136,
      "▁lost": 2137,
      "▁inside": 2138,
      "▁dogg": 2139,
      "iding": 2140,
      "rael": 2141,
      "▁activ": 2142,
      "▁attached": 2143,
      "▁address": 2144,
      "▁respons": 2145,
      "fully": 2146,
      "▁>": 2147,
      "▁dan": 2148,
      "▁lab": 2149,
      "▁israel": 2150,
      "▁ann": 2151,
      "▁abs": 2152,
      "iful": 2153,
      "▁teac": 2154,
      "▁newark": 2155,
      "selves": 2156,
      "▁interv": 2157,
      "▁invol": 2158,
      "▁matter": 2159,
      "▁diego": 2160,
      "▁represent": 2161,
      "ges": 2162,
      "ium": 2163,
      "ured": 2164,
      "▁woman": 2165,
      "▁fair": 2166,
      "ature": 2167,
      "▁hors": 2168,
      "▁kitt": 2169,
      "ify": 2170,
      "ified": 2171,
      "▁object": 2172,
      "▁meeting": 2173,
      "zac": 2174,
      "real": 2175,
      "▁cam": 2176,
      "▁dow": 2177,
      "itive": 2178,
      "▁rele": 2179,
      "▁member": 2180,
      "▁ride": 2181,
      "▁ange": 2182,
      "▁super": 2183,
      "▁temp": 2184,
      "▁clim": 2185,
      "▁express": 2186,
      "▁balzac": 2187,
      "▁regard": 2188,
      "▁attack": 2189,
      "▁accord": 2190,
      "▁further": 2191,
      "ued": 2192,
      "ule": 2193,
      "▁tur": 2194,
      "▁aust": 2195,
      "▁fig": 2196,
      "▁lau": 2197,
      "▁lik": 2198,
      "▁aff": 2199,
      "▁perform": 2200,
      "▁military": 2201,
      "dd": 2202,
      "▁<": 2203,
      "▁sen": 2204,
      "ators": 2205,
      "ential": 2206,
      "▁docum": 2207,
      "▁speak": 2208,
      "▁wrong": 2209,
      "▁addition": 2210,
      "▁provide": 2211,
      "▁democr": 2212,
      "▁words": 2213,
      "▁indianapolis": 2214,
      "▁espe": 2215,
      "▁seattle": 2216,
      "▁begin": 2217,
      "▁beautiful": 2218,
      "▁george": 2219,
      "13": 2220,
      "▁port": 2221,
      "ony": 2222,
      "veland": 2223,
      "oose": 2224,
      "▁phot": 2225,
      "▁prep": 2226,
      "▁impro": 2227,
      "▁services": 2228,
      "▁cleveland": 2229,
      "cially": 2230,
      "▁copy": 2231,
      "▁environment": 2232,
      "ried": 2233,
      "▁%": 2234,
      "▁sort": 2235,
      "▁din": 2236,
      "▁jan": 2237,
      "▁kansas": 2238,
      "▁decl": 2239,
      "▁common": 2240,
      "▁earth": 2241,
      "▁members": 2242,
      "▁history": 2243,
      "▁couple": 2244,
      "ha": 2245,
      "▁bow": 2246,
      "▁born": 2247,
      "ots": 2248,
      "▁pract": 2249,
      "▁rights": 2250,
      "▁indust": 2251,
      "▁throw": 2252,
      "▁request": 2253,
      "========": 2254,
      "▁property": 2255,
      "▁excell": 2256,
      "▁downt": 2257,
      "▁bath": 2258,
      "▁lunch": 2259,
      "lly": 2260,
      "▁yourself": 2261,
      "ival": 2262,
      "▁india": 2263,
      "▁easy": 2264,
      "▁complete": 2265,
      "▁knew": 2266,
      "ls": 2267,
      "▁#": 2268,
      "▁pal": 2269,
      "▁hell": 2270,
      "▁jud": 2271,
      "▁dev": 2272,
      "▁feet": 2273,
      "▁poor": 2274,
      "▁detail": 2275,
      "________": 2276,
      "▁hurt": 2277,
      "▁kids": 2278,
      "▁birthday": 2279,
      "▁especially": 2280,
      "▁downtown": 2281,
      "craft": 2282,
      "fast": 2283,
      "gle": 2284,
      "igh": 2285,
      "oke": 2286,
      "uce": 2287,
      "▁fing": 2288,
      "▁item": 2289,
      "▁god": 2290,
      "ability": 2291,
      "▁moving": 2292,
      "▁thinking": 2293,
      "▁respect": 2294,
      "▁longer": 2295,
      "▁turned": 2296,
      "▁subject": 2297,
      "▁micro": 2298,
      "▁society": 2299,
      "lished": 2300,
      "▁oil": 2301,
      "▁di": 2302,
      "▁pan": 2303,
      "▁pack": 2304,
      "lling": 2305,
      "▁meas": 2306,
      "olution": 2307,
      "▁above": 2308,
      "▁applic": 2309,
      "▁financ": 2310,
      "▁books": 2311,
      "▁require": 2312,
      "▁issue": 2313,
      "▁breakfast": 2314,
      "▁counter": 2315,
      "book": 2316,
      "haps": 2317,
      "▁sad": 2318,
      "▁low": 2319,
      "▁lay": 2320,
      "▁lad": 2321,
      "▁star": 2322,
      "▁stra": 2323,
      "▁send": 2324,
      "▁jwww": 2325,
      "▁button": 2326,
      "▁tax": 2327,
      "▁key": 2328,
      "▁america": 2329,
      "airs": 2330,
      "▁glass": 2331,
      "▁highly": 2332,
      "▁hotel": 2333,
      "▁problems": 2334,
      "▁economic": 2335,
      "▁received": 2336,
      "▁agreement": 2337,
      "ograph": 2338,
      "▁excellent": 2339,
      "bit": 2340,
      "▁fill": 2341,
      "▁bat": 2342,
      "▁gas": 2343,
      "▁rather": 2344,
      "▁seven": 2345,
      "▁places": 2346,
      "▁yellow": 2347,
      "▁tex": 2348,
      "▁priv": 2349,
      "▁perhaps": 2350,
      "▁letter": 2351,
      "▁saying": 2352,
      "▁attention": 2353,
      "▁invest": 2354,
      "wards": 2355,
      "▁employ": 2356,
      "▁purp": 2357,
      "▁effort": 2358,
      "▁daily": 2359,
      "cr": 2360,
      "▁favor": 2361,
      "ouble": 2362,
      "▁mid": 2363,
      "▁east": 2364,
      "▁doctor": 2365,
      "ilities": 2366,
      "ula": 2367,
      "▁canad": 2368,
      "??": 2369,
      "ping": 2370,
      "xic": 2371,
      "▁tast": 2372,
      "▁civ": 2373,
      "itions": 2374,
      "▁reco": 2375,
      "▁rich": 2376,
      "▁russ": 2377,
      "aining": 2378,
      "▁alone": 2379,
      "▁seemed": 2380,
      "▁typ": 2381,
      "▁summer": 2382,
      "iny": 2383,
      "▁tot": 2384,
      "▁net": 2385,
      "▁rul": 2386,
      "▁tried": 2387,
      "▁seems": 2388,
      "▁admin": 2389,
      "▁comput": 2390,
      "▁expensive": 2391,
      "▁body": 2392,
      "▁30": 2393,
      "▁struct": 2394,
      "▁colle": 2395,
      "▁continental": 2396,
      "▁eye": 2397,
      "▁estab": 2398,
      "▁difficult": 2399,
      "/1": 2400,
      "hod": 2401,
      "▁hat": 2402,
      "▁myself": 2403,
      "▁sus": 2404,
      "anger": 2405,
      "▁eating": 2406,
      "▁minute": 2407,
      "▁fund": 2408,
      "▁chicken": 2409,
      "▁parents": 2410,
      "work": 2411,
      "▁takes": 2412,
      "▁mass": 2413,
      "ndred": 2414,
      "▁dom": 2415,
      "▁hol": 2416,
      "▁link": 2417,
      "▁beach": 2418,
      "urch": 2419,
      "terday": 2420,
      "▁exist": 2421,
      "▁ens": 2422,
      "mph": 2423,
      "▁listen": 2424,
      "▁describ": 2425,
      "▁yesterday": 2426,
      "▁finally": 2427,
      "▁below": 2428,
      "▁glob": 2429,
      "▁economy": 2430,
      "▁value": 2431,
      "▁doggie": 2432,
      "50": 2433,
      "fer": 2434,
      "ken": 2435,
      "▁touch": 2436,
      "head": 2437,
      "▁..": 2438,
      "rect": 2439,
      "▁cit": 2440,
      "▁hig": 2441,
      "▁ger": 2442,
      "▁exc": 2443,
      "▁nose": 2444,
      "▁fell": 2445,
      "▁weeks": 2446,
      "▁funny": 2447,
      "▁particip": 2448,
      "▁development": 2449,
      "▁natural": 2450,
      "▁ident": 2451,
      "▁restaurant": 2452,
      "▁texas": 2453,
      "▁ach": 2454,
      "▁son": 2455,
      "▁dest": 2456,
      "▁hop": 2457,
      "▁wear": 2458,
      "▁sty": 2459,
      "▁necess": 2460,
      "ille": 2461,
      "ization": 2462,
      "▁committ": 2463,
      "▁crit": 2464,
      "▁americans": 2465,
      "▁airline": 2466,
      "▁hundred": 2467,
      "▁deter": 2468,
      "▁court": 2469,
      "▁community": 2470,
      "▁louis": 2471,
      "ht": 2472,
      "ped": 2473,
      "▁mouth": 2474,
      "▁date": 2475,
      "ison": 2476,
      "asing": 2477,
      "utions": 2478,
      "▁web": 2479,
      "key": 2480,
      "▁spr": 2481,
      "▁bott": 2482,
      "▁entire": 2483,
      "▁official": 2484,
      "▁global": 2485,
      "ging": 2486,
      "iate": 2487,
      "ka": 2488,
      "oon": 2489,
      "▁foc": 2490,
      "icle": 2491,
      "▁heart": 2492,
      "idence": 2493,
      "▁self": 2494,
      "▁jap": 2495,
      "▁conv": 2496,
      "▁vide": 2497,
      "▁code": 2498,
      "▁aircraft": 2499,
      "▁event": 2500,
      "▁sched": 2501,
      "▁calif": 2502,
      "cil": 2503,
      "▁wall": 2504,
      "▁cred": 2505,
      "▁heav": 2506,
      "▁began": 2507,
      "▁jump": 2508,
      "▁ship": 2509,
      "ands": 2510,
      "▁afric": 2511,
      "▁moment": 2512,
      "rench": 2513,
      "▁benef": 2514,
      "▁according": 2515,
      "▁japan": 2516,
      "▁californ": 2517,
      "ipe": 2518,
      "ru": 2519,
      "▁site": 2520,
      "ream": 2521,
      "▁mad": 2522,
      "ndon": 2523,
      "▁nt": 2524,
      "▁lives": 2525,
      "▁exec": 2526,
      "▁london": 2527,
      "▁boat": 2528,
      "▁action": 2529,
      "iction": 2530,
      "▁slow": 2531,
      "▁create": 2532,
      "▁infl": 2533,
      "ey": 2534,
      "gy": 2535,
      "ler": 2536,
      "son": 2537,
      "▁tre": 2538,
      "▁sitting": 2539,
      "▁fail": 2540,
      "▁mos": 2541,
      "▁itself": 2542,
      "eth": 2543,
      "ima": 2544,
      "▁displ": 2545,
      "▁contact": 2546,
      "▁drive": 2547,
      "▁pock": 2548,
      "▁imag": 2549,
      "▁method": 2550,
      "▁internet": 2551,
      "▁seventh": 2552,
      "▁angeles": 2553,
      "▁administ": 2554,
      "▁achie": 2555,
      "ape": 2556,
      "iation": 2557,
      "▁oct": 2558,
      "▁div": 2559,
      "▁tow": 2560,
      "▁norm": 2561,
      "itch": 2562,
      "arr": 2563,
      "▁ep": 2564,
      "aced": 2565,
      "▁ris": 2566,
      "▁true": 2567,
      "istic": 2568,
      "▁seem": 2569,
      "astic": 2570,
      "▁manag": 2571,
      "ude": 2572,
      "▁kept": 2573,
      "▁position": 2574,
      "▁foot": 2575,
      "▁girls": 2576,
      "▁attemp": 2577,
      "▁california": 2578,
      "over": 2579,
      "▁ways": 2580,
      "▁french": 2581,
      "▁cross": 2582,
      "▁pu": 2583,
      "▁push": 2584,
      "▁hon": 2585,
      "▁station": 2586,
      "▁sex": 2587,
      "▁note": 2588,
      "resh": 2589,
      "▁somebody": 2590,
      "▁tele": 2591,
      "▁cover": 2592,
      "▁themselves": 2593,
      "▁needed": 2594,
      "▁compet": 2595,
      "▁policy": 2596,
      "ledge": 2597,
      "▁interested": 2598,
      "▁aud": 2599,
      "▁bud": 2600,
      "▁dry": 2601,
      "▁died": 2602,
      "▁honey": 2603,
      "lement": 2604,
      "▁u.": 2605,
      "▁webs": 2606,
      "▁whatever": 2607,
      "▁areas": 2608,
      "▁deli": 2609,
      "▁church": 2610,
      "▁moder": 2611,
      "▁carry": 2612,
      "▁charac": 2613,
      "▁mr.": 2614,
      "▁learn": 2615,
      "▁terror": 2616,
      "▁connection": 2617,
      "▁answer": 2618,
      "▁etc": 2619,
      "sy": 2620,
      "hem": 2621,
      "▁wik": 2622,
      "▁mer": 2623,
      "▁mention": 2624,
      "ida": 2625,
      "▁stick": 2626,
      "▁suff": 2627,
      "▁exact": 2628,
      "▁nove": 2629,
      "▁vi": 2630,
      "▁voice": 2631,
      "▁!!": 2632,
      "▁feed": 2633,
      "▁2000": 2634,
      "▁march": 2635,
      "▁continue": 2636,
      "▁square": 2637,
      "▁constit": 2638,
      "▁document": 2639,
      "ially": 2640,
      "ws": 2641,
      "▁ill": 2642,
      "▁base": 2643,
      "▁dig": 2644,
      "▁nine": 2645,
      "▁memph": 2646,
      "hers": 2647,
      "ored": 2648,
      "ibility": 2649,
      "▁became": 2650,
      "▁offer": 2651,
      "▁brought": 2652,
      "▁perfect": 2653,
      "▁writing": 2654,
      "▁police": 2655,
      "▁leaves": 2656,
      "▁relig": 2657,
      "▁peters": 2658,
      "▁friendly": 2659,
      "▁building": 2660,
      "▁clothes": 2661,
      "▁movie": 2662,
      "▁financial": 2663,
      "▁memphis": 2664,
      "i-": 2665,
      "oint": 2666,
      "ville": 2667,
      "▁sense": 2668,
      "▁cy": 2669,
      "▁mm": 2670,
      "▁goo": 2671,
      "▁uk": 2672,
      "▁king": 2673,
      "▁arm": 2674,
      "ivid": 2675,
      "▁prices": 2676,
      "▁driving": 2677,
      "liament": 2678,
      "▁parliament": 2679,
      "▁extreme": 2680,
      "▁secret": 2681,
      "▁message": 2682,
      "▁civil": 2683,
      "use": 2684,
      "ze": 2685,
      "isions": 2686,
      "▁rate": 2687,
      "▁deep": 2688,
      "▁therefore": 2689,
      "▁25": 2690,
      "▁unf": 2691,
      "▁enc": 2692,
      "▁coffe": 2693,
      "▁putting": 2694,
      "▁cheese": 2695,
      "burg": 2696,
      "▁2005": 2697,
      "▁apart": 2698,
      "▁decided": 2699,
      "▁signific": 2700,
      "▁correct": 2701,
      "▁earlier": 2702,
      "▁shoes": 2703,
      "▁culture": 2704,
      "▁independ": 2705,
      "gest": 2706,
      "▁fit": 2707,
      "eral": 2708,
      "▁dro": 2709,
      "vered": 2710,
      "▁stat": 2711,
      "akistan": 2712,
      "ipt": 2713,
      "▁board": 2714,
      "▁finished": 2715,
      "▁intell": 2716,
      "▁supposed": 2717,
      "▁assist": 2718,
      "▁issues": 2719,
      "▁music": 2720,
      "▁urs": 2721,
      "▁license": 2722,
      "▁interview": 2723,
      "▁coffee": 2724,
      "oz": 2725,
      "old": 2726,
      "▁cow": 2727,
      "▁catch": 2728,
      "▁mail": 2729,
      "▁mama": 2730,
      "str": 2731,
      "▁force": 2732,
      "▁vac": 2733,
      "▁arab": 2734,
      "▁21": 2735,
      "▁gets": 2736,
      "▁whose": 2737,
      "▁moved": 2738,
      "▁brother": 2739,
      "▁busy": 2740,
      "ences": 2741,
      "▁instit": 2742,
      "▁running": 2743,
      "▁corp": 2744,
      "▁xml": 2745,
      "▁products": 2746,
      "▁propos": 2747,
      "▁ticket": 2748,
      "▁november": 2749,
      "▁mur": 2750,
      "▁mater": 2751,
      "▁dam": 2752,
      "▁pakistan": 2753,
      "icles": 2754,
      "ades": 2755,
      "amb": 2756,
      "ilar": 2757,
      "▁jose": 2758,
      "iff": 2759,
      "▁text": 2760,
      "itely": 2761,
      "▁cru": 2762,
      "uced": 2763,
      "▁situation": 2764,
      "▁interesting": 2765,
      "▁leaders": 2766,
      "▁mike": 2767,
      "▁pictures": 2768,
      "▁eggs": 2769,
      "/2001": 2770,
      "▁ursula": 2771,
      "-m": 2772,
      ":00": 2773,
      "king": 2774,
      "ati": 2775,
      "ouse": 2776,
      "▁toast": 2777,
      "▁thous": 2778,
      "▁likely": 2779,
      "▁conte": 2780,
      "▁amaz": 2781,
      "▁recently": 2782,
      "▁relations": 2783,
      "▁broken": 2784,
      "▁window": 2785,
      "▁changes": 2786,
      "▁particularly": 2787,
      "▁latest": 2788,
      "▁education": 2789,
      "▁figure": 2790,
      "▁citiz": 2791,
      "een": 2792,
      "hol": 2793,
      "▁cra": 2794,
      "▁corn": 2795,
      "▁mount": 2796,
      "ann": 2797,
      "▁mexic": 2798,
      "▁flow": 2799,
      "▁momma": 2800,
      "▁studies": 2801,
      "▁capital": 2802,
      "▁introd": 2803,
      "▁opportun": 2804,
      "▁simply": 2805,
      "▁source": 2806,
      "▁computer": 2807,
      "▁website": 2808,
      "come": 2809,
      "oid": 2810,
      "▁wild": 2811,
      "▁fed": 2812,
      "▁mich": 2813,
      "▁nation": 2814,
      "▁lack": 2815,
      "▁liter": 2816,
      "ald": 2817,
      "▁isl": 2818,
      "ume": 2819,
      "▁disco": 2820,
      "▁contract": 2821,
      "▁tape": 2822,
      "▁implement": 2823,
      "▁century": 2824,
      "/2000": 2825,
      "▁points": 2826,
      "********": 2827,
      "▁dinos": 2828,
      "▁january": 2829,
      "▁ver": 2830,
      "▁tar": 2831,
      "oura": 2832,
      "▁rent": 2833,
      "▁meal": 2834,
      "ilt": 2835,
      "▁asso": 2836,
      "▁neigh": 2837,
      "▁worked": 2838,
      "▁individ": 2839,
      "rences": 2840,
      "▁warm": 2841,
      "▁filter": 2842,
      "▁quickly": 2843,
      "▁neighb": 2844,
      "20": 2845,
      "ri": 2846,
      "▁theory": 2847,
      "▁card": 2848,
      "oub": 2849,
      "▁mix": 2850,
      "▁gar": 2851,
      "icient": 2852,
      "▁dece": 2853,
      "▁13": 2854,
      "▁arch": 2855,
      "▁wrote": 2856,
      "▁....": 2857,
      "▁terms": 2858,
      "!!!!": 2859,
      "▁former": 2860,
      "▁personal": 2861,
      "▁broad": 2862,
      "▁include": 2863,
      ".com/": 2864,
      "aughter": 2865,
      "▁million": 2866,
      "▁sarah": 2867,
      "riage": 2868,
      "▁video": 2869,
      "▁credit": 2870,
      "▁associ": 2871,
      "▁song": 2872,
      "oud": 2873,
      "▁dav": 2874,
      "▁held": 2875,
      "oted": 2876,
      "▁gold": 2877,
      "▁ame": 2878,
      "▁knowledge": 2879,
      "itten": 2880,
      "▁save": 2881,
      "▁manage": 2882,
      "▁role": 2883,
      "▁science": 2884,
      "▁recent": 2885,
      "▁huge": 2886,
      "▁sky": 2887,
      "▁center": 2888,
      "▁customer": 2889,
      "▁kitty": 2890,
      "▁rules": 2891,
      "af": 2892,
      "che": 2893,
      "ding": 2894,
      "fort": 2895,
      "how": 2896,
      "west": 2897,
      "▁fresh": 2898,
      "▁cinc": 2899,
      "▁penc": 2900,
      "▁toys": 2901,
      "▁rad": 2902,
      "▁river": 2903,
      "▁served": 2904,
      "▁desp": 2905,
      "innati": 2906,
      "▁imm": 2907,
      "ological": 2908,
      "▁subst": 2909,
      "▁paris": 2910,
      "▁similar": 2911,
      "▁watching": 2912,
      "▁certainly": 2913,
      "▁petersburg": 2914,
      "▁islam": 2915,
      "▁cincinnati": 2916,
      "▁pencil": 2917,
      "ax": 2918,
      "ex": 2919,
      "zy": 2920,
      "▁ess": 2921,
      "▁vers": 2922,
      "▁tv": 2923,
      "ino": 2924,
      "▁bite": 2925,
      "▁minn": 2926,
      "▁hy": 2927,
      "▁threat": 2928,
      "▁jer": 2929,
      "▁shirt": 2930,
      "▁convers": 2931,
      "aint": 2932,
      "▁novel": 2933,
      "▁afgh": 2934,
      "▁naima": 2935,
      "▁scen": 2936,
      "▁contrib": 2937,
      "▁played": 2938,
      "ampa": 2939,
      "▁provided": 2940,
      "▁legal": 2941,
      "▁broke": 2942,
      "▁learning": 2943,
      "▁council": 2944,
      "▁growth": 2945,
      "▁montreal": 2946,
      "▁hello": 2947,
      "▁favorite": 2948,
      "▁committee": 2949,
      "▁significant": 2950,
      ".ht": 2951,
      "mon": 2952,
      "▁cry": 2953,
      "▁danger": 2954,
      "▁pred": 2955,
      "ishing": 2956,
      "oma": 2957,
      "uted": 2958,
      "▁beat": 2959,
      "▁wash": 2960,
      "ppy": 2961,
      "▁prior": 2962,
      "▁serve": 2963,
      "▁50": 2964,
      "▁713": 2965,
      "▁groups": 2966,
      "▁juice": 2967,
      "▁finger": 2968,
      "▁recogn": 2969,
      "▁focus": 2970,
      "▁modern": 2971,
      "▁afghan": 2972,
      "'s": 2973,
      "▁tampa": 2974,
      "▁wat": 2975,
      "▁wide": 2976,
      "▁duck": 2977,
      "▁nas": 2978,
      "isl": 2979,
      "ises": 2980,
      "oth": 2981,
      "▁wel": 2982,
      "▁weap": 2983,
      "allen": 2984,
      "▁orange": 2985,
      "▁trust": 2986,
      "▁challen": 2987,
      "▁14": 2988,
      "▁anyway": 2989,
      "▁fem": 2990,
      "▁carol": 2991,
      "▁blow": 2992,
      "▁bull": 2993,
      "▁written": 2994,
      "▁lots": 2995,
      "▁sweet": 2996,
      "▁definitely": 2997,
      "▁involved": 2998,
      "▁items": 2999,
      "▁influ": 3000,
      "for": 3001,
      "tain": 3002,
      "▁tac": 3003,
      "▁tie": 3004,
      "▁wish": 3005,
      "▁bread": 3006,
      "▁hus": 3007,
      "▁hung": 3008,
      "uth": 3009,
      "▁notice": 3010,
      "▁trouble": 3011,
      "▁comb": 3012,
      "▁saf": 3013,
      "▁roll": 3014,
      "▁spent": 3015,
      "▁moral": 3016,
      "▁reading": 3017,
      "▁emerg": 3018,
      "▁draft": 3019,
      "▁location": 3020,
      "▁training": 3021,
      "▁separ": 3022,
      "▁freed": 3023,
      "▁qa": 3024,
      "▁winter": 3025,
      "▁display": 3026,
      ".d": 3027,
      "lo": 3028,
      "more": 3029,
      "the": 3030,
      "val": 3031,
      "▁tal": 3032,
      "▁fle": 3033,
      "▁cool": 3034,
      "▁cities": 3035,
      "▁mir": 3036,
      "▁hang": 3037,
      "▁nort": 3038,
      "ened": 3039,
      "▁gard": 3040,
      "▁soft": 3041,
      "▁safe": 3042,
      "phone": 3043,
      "▁apply": 3044,
      "▁2004": 3045,
      "▁stillman": 3046,
      "▁final": 3047,
      "▁numbers": 3048,
      "▁walking": 3049,
      "▁concern": 3050,
      "ipped": 3051,
      "▁single": 3052,
      "▁professional": 3053,
      "▁original": 3054,
      "▁horsie": 3055,
      "▁improve": 3056,
      "▁u.s.": 3057,
      "▁material": 3058,
      "▁december": 3059,
      "cy": 3060,
      "face": 3061,
      "ike": 3062,
      "of": 3063,
      "▁ton": 3064,
      "▁tit": 3065,
      "▁tig": 3066,
      "▁bank": 3067,
      "▁drop": 3068,
      "▁piz": 3069,
      "onse": 3070,
      "▁toy": 3071,
      "▁nash": 3072,
      "▁ran": 3073,
      "▁rain": 3074,
      "▁24": 3075,
      "▁somewhere": 3076,
      "▁tea": 3077,
      "teen": 3078,
      "▁blood": 3079,
      "▁appre": 3080,
      "▁smell": 3081,
      "▁region": 3082,
      "▁weeke": 3083,
      "▁charge": 3084,
      "▁image": 3085,
      "▁immed": 3086,
      "▁legisl": 3087,
      "▁communic": 3088,
      "▁department": 3089,
      "▁fields": 3090,
      "▁cultural": 3091,
      "▁banana": 3092,
      "▁freedom": 3093,
      "ees": 3094,
      "mb": 3095,
      "▁ice": 3096,
      "enron": 3097,
      "▁ital": 3098,
      "idge": 3099,
      "▁track": 3100,
      "▁butter": 3101,
      "unt": 3102,
      "ift": 3103,
      "▁union": 3104,
      "▁blank": 3105,
      "▁everybody": 3106,
      "▁dr.": 3107,
      "▁farm": 3108,
      "▁non-": 3109,
      "▁response": 3110,
      "▁purch": 3111,
      "▁foreign": 3112,
      "▁total": 3113,
      "▁pocket": 3114,
      "▁amazing": 3115,
      "▁citizens": 3116,
      "▁nashville": 3117,
      ":30": 3118,
      "▁tiny": 3119,
      "▁ahead": 3120,
      "▁fast": 3121,
      "▁ba": 3122,
      "▁mis": 3123,
      "▁mach": 3124,
      "▁nin": 3125,
      "eng": 3126,
      "▁forgot": 3127,
      "▁100": 3128,
      "▁affect": 3129,
      "action": 3130,
      "▁pleas": 3131,
      "clus": 3132,
      "▁helpful": 3133,
      "▁regular": 3134,
      "▁2002": 3135,
      "▁197": 3136,
      "comp": 3137,
      "▁related": 3138,
      "▁decision": 3139,
      "▁columb": 3140,
      "▁waiting": 3141,
      "nov": 3142,
      "▁population": 3143,
      "▁results": 3144,
      "▁islands": 3145,
      "▁analys": 3146,
      "▁necessary": 3147,
      "▁bottom": 3148,
      "▁extremely": 3149,
      "80": 3150,
      "ires": 3151,
      "▁tired": 3152,
      "▁ow": 3153,
      "▁cand": 3154,
      "▁dir": 3155,
      "▁pil": 3156,
      "▁hosp": 3157,
      "eda": 3158,
      "iced": 3159,
      "▁jack": 3160,
      "▁concept": 3161,
      "▁congress": 3162,
      "▁exam": 3163,
      "pper": 3164,
      "▁vol": 3165,
      "ateg": 3166,
      "oss": 3167,
      "▁parts": 3168,
      "izing": 3169,
      "▁desk": 3170,
      "▁feeling": 3171,
      "▁article": 3172,
      "▁walked": 3173,
      "▁jeff": 3174,
      "▁concer": 3175,
      "▁appear": 3176,
      "hens": 3177,
      "▁percentage": 3178,
      "▁qaeda": 3179,
      "gon": 3180,
      "ham": 3181,
      "mar": 3182,
      "ober": 3183,
      "rict": 3184,
      "ugg": 3185,
      "▁swww": 3186,
      "▁band": 3187,
      "▁mist": 3188,
      "▁luck": 3189,
      "ario": 3190,
      "▁games": 3191,
      "roit": 3192,
      "▁rap": 3193,
      "ceed": 3194,
      "illy": 3195,
      "idered": 3196,
      "▁brit": 3197,
      "▁compl": 3198,
      "▁block": 3199,
      "▁joke": 3200,
      "▁2003": 3201,
      "▁repl": 3202,
      "▁student": 3203,
      "▁students": 3204,
      "▁detroit": 3205,
      "▁england": 3206,
      "▁reflect": 3207,
      "▁reports": 3208,
      "▁histor": 3209,
      "▁campa": 3210,
      "▁industry": 3211,
      "▁private": 3212,
      "▁ensure": 3213,
      "▁safety": 3214,
      "▁pizza": 3215,
      "89": 3216,
      "bed": 3217,
      "band": 3218,
      "uk": 3219,
      "▁fat": 3220,
      "▁bought": 3221,
      "▁cab": 3222,
      "erved": 3223,
      "sequ": 3224,
      "▁forget": 3225,
      "▁rub": 3226,
      "▁kitc": 3227,
      "▁neck": 3228,
      "▁sold": 3229,
      "itted": 3230,
      "▁adm": 3231,
      "▁bigger": 3232,
      "▁owner": 3233,
      "▁starting": 3234,
      "▁term": 3235,
      "▁famil": 3236,
      "▁mathem": 3237,
      "▁popular": 3238,
      "▁estim": 3239,
      "▁nearly": 3240,
      "▁grandm": 3241,
      "▁beginning": 3242,
      "▁bowl": 3243,
      "▁application": 3244,
      "▁canada": 3245,
      "▁october": 3246,
      "▁viol": 3247,
      "▁nasa": 3248,
      "▁appreci": 3249,
      "▁dirty": 3250,
      "39": 3251,
      "45": 3252,
      "ael": 3253,
      "ban": 3254,
      "ball": 3255,
      "cise": 3256,
      "ius": 3257,
      "ps": 3258,
      "▁ut": 3259,
      "▁wood": 3260,
      "▁wine": 3261,
      "▁sick": 3262,
      "ato": 3263,
      "atory": 3264,
      "atives": 3265,
      "▁piv": 3266,
      "ites": 3267,
      "▁gra": 3268,
      "asons": 3269,
      "imin": 3270,
      "▁ate": 3271,
      "ills": 3272,
      "ops": 3273,
      "▁choose": 3274,
      "ables": 3275,
      "▁plays": 3276,
      "ibly": 3277,
      "▁events": 3278,
      "▁expert": 3279,
      "▁transl": 3280,
      "▁finish": 3281,
      "▁marriage": 3282,
      "▁accident": 3283,
      "▁published": 3284,
      "▁max": 3285,
      "▁pieces": 3286,
      "▁appropr": 3287,
      "▁german": 3288,
      "▁schedule": 3289,
      "▁risk": 3290,
      "▁exactly": 3291,
      "▁kitchen": 3292,
      "@enron": 3293,
      "gar": 3294,
      "hood": 3295,
      "▁tank": 3296,
      "▁host": 3297,
      "ingu": 3298,
      "estern": 3299,
      "▁led": 3300,
      "▁ec": 3301,
      "▁heat": 3302,
      "▁jour": 3303,
      "olute": 3304,
      "igence": 3305,
      "▁vote": 3306,
      "▁spot": 3307,
      "▁resour": 3308,
      "lied": 3309,
      "▁consum": 3310,
      "▁considered": 3311,
      "▁slight": 3312,
      "▁central": 3313,
      "▁fax": 3314,
      "▁confir": 3315,
      "▁explain": 3316,
      "▁nature": 3317,
      "▁departing": 3318,
      "▁animal": 3319,
      "▁paint": 3320,
      "▁wonderful": 3321,
      "▁currently": 3322,
      "▁allowed": 3323,
      "▁college": 3324,
      "▁campaign": 3325,
      "01": 3326,
      "ek": 3327,
      "eapolis": 3328,
      "hib": 3329,
      "rain": 3330,
      "▁+": 3331,
      "▁tree": 3332,
      "▁bun": 3333,
      "▁caught": 3334,
      "▁named": 3335,
      "omer": 3336,
      "▁hen": 3337,
      "▁meat": 3338,
      "▁meant": 3339,
      "▁rab": 3340,
      "▁soph": 3341,
      "▁comments": 3342,
      "▁arms": 3343,
      "▁seeing": 3344,
      "▁phys": 3345,
      "▁overall": 3346,
      "▁scr": 3347,
      "▁contain": 3348,
      "▁indic": 3349,
      "ocol": 3350,
      "▁meaning": 3351,
      "▁opened": 3352,
      "▁limited": 3353,
      "▁absolute": 3354,
      "▁regarding": 3355,
      "dden": 3356,
      "▁style": 3357,
      "▁imagine": 3358,
      "▁dinosaur": 3359,
      "▁despite": 3360,
      "▁minneapolis": 3361,
      "light": 3362,
      "log": 3363,
      "hell": 3364,
      "▁bom": 3365,
      "▁mult": 3366,
      "▁daughter": 3367,
      "▁gives": 3368,
      "▁stren": 3369,
      "▁rout": 3370,
      "▁select": 3371,
      "▁liber": 3372,
      "▁aspect": 3373,
      "▁share": 3374,
      "▁sudden": 3375,
      "▁chance": 3376,
      "ively": 3377,
      "▁yours": 3378,
      "▁22": 3379,
      "▁knows": 3380,
      "▁adop": 3381,
      "aged": 3382,
      "anced": 3383,
      "▁spir": 3384,
      "▁letters": 3385,
      "▁bug": 3386,
      "▁greater": 3387,
      "▁regional": 3388,
      "▁added": 3389,
      "▁difference": 3390,
      "▁instruct": 3391,
      "▁flying": 3392,
      "▁opening": 3393,
      "▁standards": 3394,
      "▁paid": 3395,
      "▁engine": 3396,
      "▁eastern": 3397,
      "▁behav": 3398,
      "▁simple": 3399,
      "▁magic": 3400,
      "▁various": 3401,
      "▁straight": 3402,
      "▁types": 3403,
      "▁administration": 3404,
      "▁achieve": 3405,
      "▁michael": 3406,
      "▁amend": 3407,
      "-1": 3408,
      "60": 3409,
      "99": 3410,
      "nam": 3411,
      "▁tail": 3412,
      "▁wol": 3413,
      "▁sens": 3414,
      "▁size": 3415,
      "▁sister": 3416,
      "▁ol": 3417,
      "▁horr": 3418,
      "▁giving": 3419,
      "▁forces": 3420,
      "ulf": 3421,
      "▁1.": 3422,
      "▁comfort": 3423,
      "▁23": 3424,
      "tered": 3425,
      "▁grad": 3426,
      "▁clos": 3427,
      "▁brown": 3428,
      "▁impact": 3429,
      "like": 3430,
      "▁2001": 3431,
      "▁belong": 3432,
      "▁bottle": 3433,
      "▁hole": 3434,
      "▁stopover": 3435,
      "▁legs": 3436,
      "▁directive": 3437,
      "▁plane": 3438,
      "▁dogs": 3439,
      "▁media": 3440,
      "▁growing": 3441,
      "▁programme": 3442,
      "▁esc": 3443,
      "▁created": 3444,
      "▁customers": 3445,
      "▁fixed": 3446,
      "▁protection": 3447,
      "▁activities": 3448,
      "▁laugh": 3449,
      "▁david": 3450,
      "oh": 3451,
      "uel": 3452,
      "yond": 3453,
      "zz": 3454,
      "▁wil": 3455,
      "▁nations": 3456,
      "oring": 3457,
      "▁innov": 3458,
      "ici": 3459,
      "▁beyond": 3460,
      "ented": 3461,
      "▁ron": 3462,
      "ils": 3463,
      "▁libr": 3464,
      "▁shut": 3465,
      "hern": 3466,
      "▁ord": 3467,
      "▁altern": 3468,
      "▁plants": 3469,
      "▁adult": 3470,
      "ancing": 3471,
      "▁lock": 3472,
      "soft": 3473,
      "▁serious": 3474,
      "▁opin": 3475,
      "▁regards": 3476,
      "▁surv": 3477,
      "▁provides": 3478,
      "▁values": 3479,
      "▁cats": 3480,
      "▁changed": 3481,
      "▁potty": 3482,
      "▁attend": 3483,
      "cript": 3484,
      "▁federal": 3485,
      "▁dangerous": 3486,
      "▁tacoma": 3487,
      "▁grandmother": 3488,
      "▁streng": 3489,
      ".m": 3490,
      "rie": 3491,
      "ses": 3492,
      "wor": 3493,
      "wise": 3494,
      "▁breat": 3495,
      "erve": 3496,
      "▁hous": 3497,
      "▁names": 3498,
      "▁gun": 3499,
      "▁online": 3500,
      "▁repe": 3501,
      "▁reasons": 3502,
      "▁kore": 3503,
      "▁dear": 3504,
      "▁trade": 3505,
      "▁conference": 3506,
      "▁progress": 3507,
      "▁anywhere": 3508,
      "▁shows": 3509,
      "▁coast": 3510,
      "▁coach": 3511,
      "▁agre": 3512,
      "▁series": 3513,
      "▁poet": 3514,
      "▁built": 3515,
      "ublic": 3516,
      "time": 3517,
      "▁asking": 3518,
      "▁standard": 3519,
      "▁refer": 3520,
      "▁planning": 3521,
      "▁capac": 3522,
      "▁holding": 3523,
      "▁proposed": 3524,
      "▁returned": 3525,
      "▁frequ": 3526,
      "▁err": 3527,
      "▁liked": 3528,
      "▁photograph": 3529,
      "ying": 3530,
      "▁ign": 3531,
      "▁coo": 3532,
      "▁pill": 3533,
      "▁thus": 3534,
      "orate": 3535,
      "▁lower": 3536,
      "aries": 3537,
      "arily": 3538,
      "▁ears": 3539,
      "▁stood": 3540,
      "▁ru": 3541,
      "▁anth": 3542,
      "▁search": 3543,
      "▁lived": 3544,
      "antic": 3545,
      "▁kar": 3546,
      "▁deg": 3547,
      "▁plant": 3548,
      "apers": 3549,
      "▁unless": 3550,
      "▁princ": 3551,
      "▁evidence": 3552,
      "▁bright": 3553,
      "▁spend": 3554,
      "▁remain": 3555,
      "▁republic": 3556,
      "ground": 3557,
      "▁function": 3558,
      "▁largest": 3559,
      "▁experi": 3560,
      "▁ze": 3561,
      "▁ideas": 3562,
      "▁snow": 3563,
      "▁iraqi": 3564,
      "▁model": 3565,
      "▁>>": 3566,
      "▁climate": 3567,
      "▁<<": 3568,
      "▁democracy": 3569,
      "▁bathroom": 3570,
      "▁completely": 3571,
      "▁microsoft": 3572,
      "▁heavy": 3573,
      "▁opportunity": 3574,
      "▁analysis": 3575,
      "-c": 3576,
      "men": 3577,
      "ql": 3578,
      "het": 3579,
      "▁bra": 3580,
      "▁cage": 3581,
      "▁hm": 3582,
      "enn": 3583,
      "▁gall": 3584,
      "▁stories": 3585,
      "iring": 3586,
      "▁atm": 3587,
      "▁section": 3588,
      "antly": 3589,
      "▁choice": 3590,
      "ulate": 3591,
      "▁noise": 3592,
      "▁comment": 3593,
      "bert": 3594,
      "ips": 3595,
      "▁glad": 3596,
      "enced": 3597,
      "▁basis": 3598,
      "▁obv": 3599,
      "▁settle": 3600,
      "board": 3601,
      "▁leader": 3602,
      "▁distrib": 3603,
      "idden": 3604,
      "▁thirty": 3605,
      "▁technology": 3606,
      "▁equal": 3607,
      "▁increase": 3608,
      "▁occur": 3609,
      "▁option": 3610,
      "▁analy": 3611,
      "▁camel": 3612,
      "▁richard": 3613,
      "▁relationship": 3614,
      "▁target": 3615,
      "▁garden": 3616,
      "▁weekend": 3617,
      "▁cake": 3618,
      "eries": 3619,
      "▁mut": 3620,
      "▁reach": 3621,
      "uts": 3622,
      "▁hall": 3623,
      "iri": 3624,
      "▁rom": 3625,
      "▁rac": 3626,
      "▁chocol": 3627,
      "ument": 3628,
      "▁bye": 3629,
      "▁army": 3630,
      "▁closed": 3631,
      "▁moon": 3632,
      "▁brief": 3633,
      "▁guard": 3634,
      "▁actions": 3635,
      "▁happens": 3636,
      "▁county": 3637,
      "▁older": 3638,
      "ification": 3639,
      "▁continued": 3640,
      "▁standing": 3641,
      "▁followed": 3642,
      "▁reported": 3643,
      "▁career": 3644,
      "▁companies": 3645,
      "▁steps": 3646,
      "▁burb": 3647,
      "▁options": 3648,
      "▁bike": 3649,
      "▁surprise": 3650,
      "▁teacher": 3651,
      "▁additional": 3652,
      "▁mentioned": 3653,
      "▁google": 3654,
      "▁ukrain": 3655,
      "▁proposal": 3656,
      "hm": 3657,
      "net": 3658,
      "pa": 3659,
      "round": 3660,
      "▁*": 3661,
      "▁tas": 3662,
      "▁wet": 3663,
      "▁ble": 3664,
      "▁cash": 3665,
      "▁cases": 3666,
      "ero": 3667,
      "▁mc": 3668,
      "▁hide": 3669,
      "isf": 3670,
      "▁ul": 3671,
      "verage": 3672,
      "▁sell": 3673,
      "▁season": 3674,
      "▁depe": 3675,
      "▁defe": 3676,
      "uses": 3677,
      "▁via": 3678,
      "▁upd": 3679,
      "▁une": 3680,
      "▁quiet": 3681,
      "▁print": 3682,
      "ously": 3683,
      "▁span": 3684,
      "▁scre": 3685,
      "▁prete": 3686,
      "▁cromer": 3687,
      "▁impress": 3688,
      "▁aware": 3689,
      "▁throughout": 3690,
      "▁stopped": 3691,
      "▁surround": 3692,
      "▁sett": 3693,
      "▁larger": 3694,
      "▁experim": 3695,
      "▁passed": 3696,
      "▁barn": 3697,
      "ottable": 3698,
      "▁sandw": 3699,
      "▁temper": 3700,
      "▁practice": 3701,
      "▁details": 3702,
      "▁purpose": 3703,
      "▁taste": 3704,
      "▁higher": 3705,
      "▁africa": 3706,
      "▁japanese": 3707,
      "▁religious": 3708,
      "▁pivottable": 3709,
      "▁atmosp": 3710,
      "app": 3711,
      "iately": 3712,
      "ky": 3713,
      "mas": 3714,
      "ners": 3715,
      "sa": 3716,
      "▁wow": 3717,
      "▁bes": 3718,
      "▁cards": 3719,
      "▁match": 3720,
      "▁dream": 3721,
      "▁doub": 3722,
      "▁pin": 3723,
      "▁pus": 3724,
      "▁pig": 3725,
      "arant": 3726,
      "vere": 3727,
      "vert": 3728,
      "ams": 3729,
      "chan": 3730,
      "▁exch": 3731,
      "▁willing": 3732,
      "aud": 3733,
      "▁seek": 3734,
      "▁:)": 3735,
      "▁root": 3736,
      "▁accom": 3737,
      "▁brain": 3738,
      "cles": 3739,
      "▁guarant": 3740,
      "▁crow": 3741,
      "▁remark": 3742,
      "▁warhol": 3743,
      "▁edit": 3744,
      "▁facebook": 3745,
      "▁fully": 3746,
      "▁understanding": 3747,
      "▁potential": 3748,
      "▁reasonable": 3749,
      "▁licens": 3750,
      "--------------------------------": 3751,
      "▁requirements": 3752,
      "▁determin": 3753,
      "▁officials": 3754,
      "rupt": 3755,
      "▁encoura": 3756,
      ".doc": 3757,
      "▁tonight": 3758,
      "▁capacity": 3759,
      "▁princip": 3760,
      "just": 3761,
      "und": 3762,
      "▁western": 3763,
      "▁sql": 3764,
      "▁fant": 3765,
      "▁der": 3766,
      "▁poo": 3767,
      "▁path": 3768,
      "▁tool": 3769,
      "▁narr": 3770,
      "org": 3771,
      "omes": 3772,
      "▁gal": 3773,
      "▁offe": 3774,
      "▁whom": 3775,
      "▁stock": 3776,
      "▁rat": 3777,
      "▁worst": 3778,
      "▁twa": 3779,
      "▁acqu": 3780,
      "...": 3781,
      "▁chem": 3782,
      "▁surface": 3783,
      "▁format": 3784,
      "▁revolution": 3785,
      "▁learned": 3786,
      "▁laws": 3787,
      "▁terrible": 3788,
      "▁creative": 3789,
      "▁scientology": 3790,
      "▁russia": 3791,
      "▁manager": 3792,
      "▁character": 3793,
      "▁intelligence": 3794,
      "▁corner": 3795,
      "▁mexico": 3796,
      "▁management": 3797,
      ".html": 3798,
      "▁welcome": 3799,
      "▁weapons": 3800,
      "▁mathemat": 3801,
      "▁burbank": 3802,
      "-f": 3803,
      "46": 3804,
      "bby": 3805,
      "da": 3806,
      "hy": 3807,
      "inary": 3808,
      "▁bord": 3809,
      "▁master": 3810,
      "▁dance": 3811,
      "▁pink": 3812,
      "▁toward": 3813,
      "▁hun": 3814,
      "itation": 3815,
      "icing": 3816,
      "ctions": 3817,
      "▁lie": 3818,
      "▁traff": 3819,
      "iel": 3820,
      "ques": 3821,
      "▁teeth": 3822,
      "▁fellow": 3823,
      "▁sport": 3824,
      "▁spell": 3825,
      "▁balance": 3826,
      "▁remind": 3827,
      "uction": 3828,
      "▁attract": 3829,
      "▁required": 3830,
      "▁located": 3831,
      "▁swim": 3832,
      "▁confident": 3833,
      "▁demand": 3834,
      "▁unique": 3835,
      "▁film": 3836,
      "▁increased": 3837,
      "▁loud": 3838,
      "▁sounds": 3839,
      "▁organization": 3840,
      "▁initi": 3841,
      "▁activity": 3842,
      "▁likes": 3843,
      "▁constitution": 3844,
      "▁bulld": 3845,
      "▁husband": 3846,
      "▁hospital": 3847,
      "▁resources": 3848,
      "▁agreed": 3849,
      "-8": 3850,
      "10": 3851,
      "37": 3852,
      "ai": 3853,
      "ault": 3854,
      "ox": 3855,
      "rs": 3856,
      "tte": 3857,
      "▁bang": 3858,
      "▁mal": 3859,
      "▁dust": 3860,
      "▁psy": 3861,
      "▁lines": 3862,
      "▁e-m": 3863,
      "rog": 3864,
      "aches": 3865,
      "amental": 3866,
      "▁mel": 3867,
      "▁flor": 3868,
      "▁dey": 3869,
      "▁chines": 3870,
      "▁pros": 3871,
      "ivity": 3872,
      "▁uncle": 3873,
      "▁pean": 3874,
      "▁agric": 3875,
      "▁spoke": 3876,
      "▁workers": 3877,
      "▁boys": 3878,
      "▁content": 3879,
      "▁buck": 3880,
      "▁crack": 3881,
      "▁smart": 3882,
      "▁caused": 3883,
      "▁’re": 3884,
      "▁40": 3885,
      "▁avoid": 3886,
      "▁differences": 3887,
      "▁elev": 3888,
      "▁ended": 3889,
      "▁produc": 3890,
      "▁01": 3891,
      "▁03": 3892,
      "▁smaller": 3893,
      "▁mrs": 3894,
      "▁extra": 3895,
      "▁insur": 3896,
      "bruary": 3897,
      "▁cell": 3898,
      "▁appeared": 3899,
      "▁drinking": 3900,
      "▁elections": 3901,
      "▁circle": 3902,
      "▁occas": 3903,
      "▁auster": 3904,
      "================": 3905,
      "▁palest": 3906,
      "________________": 3907,
      "▁normal": 3908,
      "▁sexual": 3909,
      "▁unfortun": 3910,
      "▁independent": 3911,
      "ozer": 3912,
      "▁vacation": 3913,
      "▁thousands": 3914,
      "▁afghanistan": 3915,
      "▁sophie": 3916,
      "▁spirit": 3917,
      "▁cooper": 3918,
      "▁bulldozer": 3919,
      "▁chinese": 3920,
      "▁agricult": 3921,
      "15": 3922,
      "iar": 3923,
      "uit": 3924,
      "wh": 3925,
      "rel": 3926,
      "▁fol": 3927,
      "▁cart": 3928,
      "era": 3929,
      "▁du": 3930,
      "▁towards": 3931,
      "▁thom": 3932,
      "oration": 3933,
      "▁gree": 3934,
      "stairs": 3935,
      "▁stuck": 3936,
      "▁row": 3937,
      "▁flat": 3938,
      "▁truth": 3939,
      "▁exte": 3940,
      "▁lee": 3941,
      "▁vo": 3942,
      "▁28": 3943,
      "▁twel": 3944,
      "▁twice": 3945,
      "▁query": 3946,
      "▁february": 3947,
      "bered": 3948,
      "▁married": 3949,
      "▁decide": 3950,
      "▁metal": 3951,
      "▁directly": 3952,
      "▁jobs": 3953,
      "▁approach": 3954,
      "▁shoe": 3955,
      "▁windows": 3956,
      "▁condition": 3957,
      "▁billion": 3958,
      "▁initial": 3959,
      "▁environmental": 3960,
      "▁efforts": 3961,
      "▁structure": 3962,
      "▁fundamental": 3963,
      "gypt": 3964,
      "▁attempt": 3965,
      "▁cruise": 3966,
      "▁hungry": 3967,
      "▁chocolate": 3968,
      "▁atmosphere": 3969,
      "▁e-mail": 3970,
      ".c": 3971,
      "cious": 3972,
      "gu": 3973,
      "iers": 3974,
      "ients": 3975,
      "sc": 3976,
      "hel": 3977,
      "▁bay": 3978,
      "▁dut": 3979,
      "▁tor": 3980,
      "ica": 3981,
      "▁egypt": 3982,
      "aman": 3983,
      "▁proced": 3984,
      "▁van": 3985,
      "umn": 3986,
      "▁feat": 3987,
      "▁spread": 3988,
      "▁disp": 3989,
      "▁join": 3990,
      "ube": 3991,
      "▁transform": 3992,
      "▁emb": 3993,
      "▁babies": 3994,
      "▁species": 3995,
      "▁sales": 3996,
      "▁produce": 3997,
      "ounced": 3998,
      "▁included": 3999,
      "▁stayed": 4000,
      "▁stret": 4001,
      "▁developed": 4002,
      "▁costs": 4003,
      "▁insp": 4004,
      "▁mush": 4005,
      "▁changing": 4006,
      "▁construct": 4007,
      "▁electric": 4008,
      "▁increasing": 4009,
      "▁effective": 4010,
      "▁expected": 4011,
      "▁robin": 4012,
      "▁fifth": 4013,
      "▁afford": 4014,
      "▁glasses": 4015,
      "▁institutions": 4016,
      "▁flowers": 4017,
      "▁substant": 4018,
      "▁immediately": 4019,
      "▁machine": 4020,
      "bles": 4021,
      "lim": 4022,
      "oons": 4023,
      "t.": 4024,
      "▁@": 4025,
      "▁tall": 4026,
      "▁aim": 4027,
      "▁iod": 4028,
      "▁sam": 4029,
      "▁fan": 4030,
      "▁mac": 4031,
      "▁nap": 4032,
      "▁eth": 4033,
      "roll": 4034,
      "▁forms": 4035,
      "iled": 4036,
      "▁ken": 4037,
      "▁neg": 4038,
      "illa": 4039,
      "▁cha": 4040,
      "▁plans": 4041,
      "arty": 4042,
      "▁willi": 4043,
      "▁showed": 4044,
      "ague": 4045,
      "▁prim": 4046,
      "▁bray": 4047,
      "iance": 4048,
      "▁remo": 4049,
      "▁helped": 4050,
      "▁telling": 4051,
      "dered": 4052,
      "▁repair": 4053,
      "▁wedding": 4054,
      "▁skin": 4055,
      "▁belief": 4056,
      "▁conflic": 4057,
      "▁demon": 4058,
      "ieth": 4059,
      "awah": 4060,
      "▁penn": 4061,
      "▁conditions": 4062,
      "▁beauty": 4063,
      "▁movies": 4064,
      "▁tradition": 4065,
      "▁austral": 4066,
      "▁performance": 4067,
      "▁benefit": 4068,
      "▁execut": 4069,
      "▁digital": 4070,
      "▁individual": 4071,
      "▁conversation": 4072,
      "force": 4073,
      "▁columbus": 4074,
      "▁rapid": 4075,
      "▁british": 4076,
      "▁opinion": 4077,
      "▁korea": 4078,
      "▁crowd": 4079,
      "▁psych": 4080,
      "bi": 4081,
      "cast": 4082,
      "ches": 4083,
      "hi": 4084,
      "lies": 4085,
      "uf": 4086,
      "uate": 4087,
      "vant": 4088,
      "rem": 4089,
      "▁furn": 4090,
      "isation": 4091,
      "lebr": 4092,
      "▁france": 4093,
      "ights": 4094,
      "imum": 4095
    },
    "merges": [
      [
        "▁",
        "t"
      ],
      [
        "▁",
        "a"
      ],
      [
        "h",
        "e"
      ],
      [
        "▁",
        "i"
      ],
      [
        "▁",
        "."
      ],
      [
        "▁",
        "w"
      ],
      [
        "▁t",
        "he"
      ],
      [
        "▁",
        "s"
      ],
      [
        "r",
        "e"
      ],
      [
        "▁",
        "o"
      ],
      [
        "i",
        "n"
      ],
      [
        "▁",
        "f"
      ],
      [
        "a",
        "t"
      ],
      [
        "▁",
        "b"
      ],
      [
        "▁",
        "c"
      ],
      [
        "o",
        "u"
      ],
      [
        "e",
        "r"
      ],
      [
        "▁",
        "m"
      ],
      [
        "n",
        "d"
      ],
      [
        "▁",
        ","
      ],
      [
        "▁",
        "d"
      ],
      [
        "▁",
        "p"
      ],
      [
        "o",
        "n"
      ],
      [
        "▁t",
        "o"
      ],
      [
        "a",
        "n"
      ],
      [
        "▁",
        "h"
      ],
      [
        "▁",
        "n"
      ],
      [
        "in",
        "g"
      ],
      [
        "e",
        "n"
      ],
      [
        "▁t",
        "h"
      ],
      [
        "o",
        "r"
      ],
      [
        "e",
        "s"
      ],
      [
        "▁",
        "l"
      ],
      [
        "e",
        "d"
      ],
      [
        "▁a",
        "nd"
      ],
      [
        "▁",
        "y"
      ],
      [
        "i",
        "s"
      ],
      [
        "▁i",
        "n"
      ],
      [
        "l",
        "l"
      ],
      [
        "o",
        "m"
      ],
      [
        "i",
        "t"
      ],
      [
        "a",
        "r"
      ],
      [
        "▁",
        "g"
      ],
      [
        "▁o",
        "f"
      ],
      [
        "a",
        "s"
      ],
      [
        "▁",
        "_"
      ],
      [
        "▁y",
        "ou"
      ],
      [
        "▁",
        "'"
      ],
      [
        "i",
        "c"
      ],
      [
        "a",
        "l"
      ],
      [
        "▁",
        "e"
      ],
      [
        "v",
        "e"
      ],
      [
        "▁i",
        "t"
      ],
      [
        "o",
        "w"
      ],
      [
        "l",
        "e"
      ],
      [
        "▁o",
        "n"
      ],
      [
        "g",
        "h"
      ],
      [
        "s",
        "t"
      ],
      [
        "e",
        "t"
      ],
      [
        "▁th",
        "at"
      ],
      [
        "▁",
        "?"
      ],
      [
        "a",
        "y"
      ],
      [
        "▁w",
        "h"
      ],
      [
        "i",
        "on"
      ],
      [
        "▁",
        "he"
      ],
      [
        "o",
        "t"
      ],
      [
        "▁",
        "re"
      ],
      [
        "▁i",
        "s"
      ],
      [
        "u",
        "t"
      ],
      [
        "▁",
        "u"
      ],
      [
        "▁b",
        "e"
      ],
      [
        "en",
        "t"
      ],
      [
        "▁h",
        "a"
      ],
      [
        "▁f",
        "r"
      ],
      [
        "gh",
        "t"
      ],
      [
        "▁d",
        "o"
      ],
      [
        "▁'",
        "s"
      ],
      [
        "▁w",
        "e"
      ],
      [
        "i",
        "d"
      ],
      [
        "s",
        "e"
      ],
      [
        "k",
        "e"
      ],
      [
        "r",
        "o"
      ],
      [
        "i",
        "ght"
      ],
      [
        "a",
        "c"
      ],
      [
        "v",
        "er"
      ],
      [
        "▁f",
        "or"
      ],
      [
        "▁s",
        "t"
      ],
      [
        "l",
        "d"
      ],
      [
        "u",
        "r"
      ],
      [
        "i",
        "r"
      ],
      [
        "l",
        "y"
      ],
      [
        "▁fr",
        "om"
      ],
      [
        "a",
        "d"
      ],
      [
        "i",
        "m"
      ],
      [
        "a",
        "m"
      ],
      [
        "o",
        "o"
      ],
      [
        "▁w",
        "as"
      ],
      [
        "▁m",
        "e"
      ],
      [
        "▁wh",
        "at"
      ],
      [
        "▁",
        "r"
      ],
      [
        "▁a",
        "n"
      ],
      [
        "a",
        "ll"
      ],
      [
        "i",
        "l"
      ],
      [
        "▁th",
        "is"
      ],
      [
        "it",
        "h"
      ],
      [
        "c",
        "t"
      ],
      [
        "▁w",
        "ith"
      ],
      [
        "▁a",
        "t"
      ],
      [
        "▁s",
        "e"
      ],
      [
        "▁l",
        "i"
      ],
      [
        "▁f",
        "l"
      ],
      [
        "▁",
        "j"
      ],
      [
        "▁a",
        "re"
      ],
      [
        "an",
        "t"
      ],
      [
        "▁",
        "k"
      ],
      [
        "▁a",
        "s"
      ],
      [
        "at",
        "ion"
      ],
      [
        "▁s",
        "h"
      ],
      [
        "c",
        "e"
      ],
      [
        "t",
        "er"
      ],
      [
        "▁ha",
        "ve"
      ],
      [
        "▁n",
        "e"
      ],
      [
        "'",
        "t"
      ],
      [
        "▁n",
        "'t"
      ],
      [
        "c",
        "h"
      ],
      [
        "▁n",
        "ot"
      ],
      [
        "i",
        "ll"
      ],
      [
        "▁d",
        "e"
      ],
      [
        "he",
        "r"
      ],
      [
        "ou",
        "ld"
      ],
      [
        "▁fl",
        "ight"
      ],
      [
        "▁g",
        "o"
      ],
      [
        "o",
        "re"
      ],
      [
        "▁",
        "-"
      ],
      [
        "▁m",
        "y"
      ],
      [
        "om",
        "e"
      ],
      [
        "▁s",
        "o"
      ],
      [
        "▁o",
        "r"
      ],
      [
        "▁t",
        "r"
      ],
      [
        "o",
        "p"
      ],
      [
        "i",
        "e"
      ],
      [
        "▁the",
        "y"
      ],
      [
        "es",
        "t"
      ],
      [
        "▁li",
        "ke"
      ],
      [
        "▁",
        "\""
      ],
      [
        "▁s",
        "u"
      ],
      [
        "▁c",
        "h"
      ],
      [
        "g",
        "e"
      ],
      [
        "▁c",
        "on"
      ],
      [
        "▁w",
        "he"
      ],
      [
        "▁a",
        "ll"
      ],
      [
        "▁b",
        "ut"
      ],
      [
        "▁the",
        "re"
      ],
      [
        "a",
        "b"
      ],
      [
        "u",
        "l"
      ],
      [
        "is",
        "t"
      ],
      [
        "▁c",
        "an"
      ],
      [
        "a",
        "in"
      ],
      [
        "u",
        "st"
      ],
      [
        "p",
        "e"
      ],
      [
        "▁a",
        "l"
      ],
      [
        "▁p",
        "ro"
      ],
      [
        "t",
        "h"
      ],
      [
        "▁e",
        "x"
      ],
      [
        "o",
        "l"
      ],
      [
        "q",
        "u"
      ],
      [
        "a",
        "nd"
      ],
      [
        "▁on",
        "e"
      ],
      [
        "▁",
        "1"
      ],
      [
        "u",
        "s"
      ],
      [
        "▁n",
        "o"
      ],
      [
        "▁l",
        "e"
      ],
      [
        "i",
        "ve"
      ],
      [
        "er",
        "s"
      ],
      [
        "i",
        "g"
      ],
      [
        "▁you",
        "r"
      ],
      [
        "▁c",
        "om"
      ],
      [
        "p",
        "p"
      ],
      [
        "es",
        "s"
      ],
      [
        "▁flight",
        "s"
      ],
      [
        "o",
        "st"
      ],
      [
        "▁",
        "v"
      ],
      [
        "u",
        "m"
      ],
      [
        "at",
        "e"
      ],
      [
        "▁a",
        "b"
      ],
      [
        "or",
        "t"
      ],
      [
        "re",
        "s"
      ],
      [
        "▁p",
        "l"
      ],
      [
        "e",
        "l"
      ],
      [
        "a",
        "ke"
      ],
      [
        "▁b",
        "y"
      ],
      [
        "it",
        "y"
      ],
      [
        "▁w",
        "or"
      ],
      [
        "a",
        "p"
      ],
      [
        "u",
        "n"
      ],
      [
        "a",
        "k"
      ],
      [
        "oo",
        "k"
      ],
      [
        "▁a",
        "r"
      ],
      [
        "▁h",
        "is"
      ],
      [
        "ar",
        "t"
      ],
      [
        "▁k",
        "n"
      ],
      [
        "m",
        "ent"
      ],
      [
        "i",
        "es"
      ],
      [
        "n",
        "t"
      ],
      [
        "o",
        "s"
      ],
      [
        "ou",
        "t"
      ],
      [
        "i",
        "f"
      ],
      [
        "▁",
        "2"
      ],
      [
        "▁w",
        "ill"
      ],
      [
        "▁o",
        "ut"
      ],
      [
        "all",
        "y"
      ],
      [
        "▁y",
        "e"
      ],
      [
        "▁u",
        "p"
      ],
      [
        "▁",
        ")"
      ],
      [
        "▁i",
        "f"
      ],
      [
        "▁",
        "("
      ],
      [
        "▁g",
        "et"
      ],
      [
        "i",
        "v"
      ],
      [
        "ver",
        "y"
      ],
      [
        "▁ha",
        "d"
      ],
      [
        "▁a",
        "m"
      ],
      [
        "ou",
        "nd"
      ],
      [
        "▁w",
        "ould"
      ],
      [
        "▁kn",
        "ow"
      ],
      [
        "0",
        "0"
      ],
      [
        "ar",
        "d"
      ],
      [
        "▁s",
        "he"
      ],
      [
        "a",
        "u"
      ],
      [
        "oo",
        "d"
      ],
      [
        "▁w",
        "ant"
      ],
      [
        "ac",
        "k"
      ],
      [
        "▁se",
        "e"
      ],
      [
        "▁s",
        "ome"
      ],
      [
        "it",
        "t"
      ],
      [
        "▁d",
        "id"
      ],
      [
        "as",
        "t"
      ],
      [
        "in",
        "d"
      ],
      [
        "▁",
        "!"
      ],
      [
        "on",
        "e"
      ],
      [
        "▁u",
        "s"
      ],
      [
        "ic",
        "e"
      ],
      [
        "re",
        "d"
      ],
      [
        "▁h",
        "ow"
      ],
      [
        "▁t",
        "e"
      ],
      [
        "f",
        "e"
      ],
      [
        "c",
        "k"
      ],
      [
        "ic",
        "h"
      ],
      [
        "in",
        "k"
      ],
      [
        "r",
        "a"
      ],
      [
        "t",
        "e"
      ],
      [
        "▁u",
        "n"
      ],
      [
        "i",
        "a"
      ],
      [
        "d",
        "ay"
      ],
      [
        "▁a",
        "f"
      ],
      [
        "▁j",
        "ust"
      ],
      [
        "▁wh",
        "o"
      ],
      [
        "▁s",
        "a"
      ],
      [
        "▁",
        "en"
      ],
      [
        "in",
        "e"
      ],
      [
        "▁t",
        "w"
      ],
      [
        "am",
        "e"
      ],
      [
        "▁g",
        "r"
      ],
      [
        "▁whe",
        "n"
      ],
      [
        "▁h",
        "as"
      ],
      [
        "▁an",
        "y"
      ],
      [
        "▁ab",
        "out"
      ],
      [
        "c",
        "o"
      ],
      [
        "an",
        "s"
      ],
      [
        "▁c",
        "l"
      ],
      [
        "on",
        "g"
      ],
      [
        "t",
        "her"
      ],
      [
        "▁sh",
        "ow"
      ],
      [
        "▁n",
        "a"
      ],
      [
        "h",
        "ing"
      ],
      [
        "ou",
        "r"
      ],
      [
        "▁a",
        "d"
      ],
      [
        "▁t",
        "im"
      ],
      [
        "b",
        "er"
      ],
      [
        "▁c",
        "o"
      ],
      [
        "a",
        "re"
      ],
      [
        "▁he",
        "re"
      ],
      [
        "▁",
        "qu"
      ],
      [
        "▁m",
        "an"
      ],
      [
        "▁we",
        "re"
      ],
      [
        "▁wh",
        "ich"
      ],
      [
        "m",
        "p"
      ],
      [
        "-",
        "-"
      ],
      [
        "a",
        "g"
      ],
      [
        "▁f",
        "e"
      ],
      [
        "▁m",
        "ore"
      ],
      [
        "▁p",
        "r"
      ],
      [
        "▁",
        ":"
      ],
      [
        "▁the",
        "m"
      ],
      [
        "▁n",
        "ow"
      ],
      [
        "i",
        "p"
      ],
      [
        "▁l",
        "ook"
      ],
      [
        "▁ne",
        "w"
      ],
      [
        "as",
        "e"
      ],
      [
        "▁p",
        "e"
      ],
      [
        "id",
        "e"
      ],
      [
        "▁a",
        "g"
      ],
      [
        "▁he",
        "r"
      ],
      [
        "▁",
        "ro"
      ],
      [
        "r",
        "y"
      ],
      [
        "u",
        "d"
      ],
      [
        "u",
        "re"
      ],
      [
        "▁m",
        "o"
      ],
      [
        "i",
        "b"
      ],
      [
        "an",
        "c"
      ],
      [
        "it",
        "e"
      ],
      [
        "a",
        "h"
      ],
      [
        "▁'",
        "m"
      ],
      [
        "▁be",
        "c"
      ],
      [
        "ac",
        "e"
      ],
      [
        "▁whe",
        "re"
      ],
      [
        "ou",
        "gh"
      ],
      [
        "▁th",
        "an"
      ],
      [
        "▁h",
        "im"
      ],
      [
        "▁'",
        "re"
      ],
      [
        "ou",
        "s"
      ],
      [
        "▁o",
        "ther"
      ],
      [
        "▁a",
        "ir"
      ],
      [
        "▁p",
        "h"
      ],
      [
        "▁tim",
        "e"
      ],
      [
        "▁e",
        "v"
      ],
      [
        "▁s",
        "p"
      ],
      [
        "▁of",
        "f"
      ],
      [
        "ab",
        "le"
      ],
      [
        "ow",
        "n"
      ],
      [
        "▁af",
        "ter"
      ],
      [
        "ion",
        "s"
      ],
      [
        "▁the",
        "ir"
      ],
      [
        "▁th",
        "ink"
      ],
      [
        "au",
        "se"
      ],
      [
        "ic",
        "k"
      ],
      [
        "i",
        "al"
      ],
      [
        "a",
        "ge"
      ],
      [
        "t",
        "o"
      ],
      [
        "▁l",
        "o"
      ],
      [
        "▁ne",
        "ed"
      ],
      [
        "▁p",
        "ut"
      ],
      [
        "▁wor",
        "k"
      ],
      [
        "▁d",
        "is"
      ],
      [
        "ay",
        "s"
      ],
      [
        "▁o",
        "ver"
      ],
      [
        "▁be",
        "en"
      ],
      [
        "▁a",
        "c"
      ],
      [
        "re",
        "at"
      ],
      [
        "▁f",
        "ir"
      ],
      [
        "▁m",
        "om"
      ],
      [
        "ac",
        "t"
      ],
      [
        "▁r",
        "ight"
      ],
      [
        "▁tw",
        "o"
      ],
      [
        "▁b",
        "et"
      ],
      [
        "s",
        "o"
      ],
      [
        "▁o",
        "h"
      ],
      [
        "▁s",
        "an"
      ],
      [
        "▁to",
        "o"
      ],
      [
        "as",
        "s"
      ],
      [
        "▁",
        "very"
      ],
      [
        "▁g",
        "ood"
      ],
      [
        "▁the",
        "n"
      ],
      [
        "a",
        "il"
      ],
      [
        "n",
        "ing"
      ],
      [
        "a",
        "v"
      ],
      [
        "o",
        "se"
      ],
      [
        "▁b",
        "r"
      ],
      [
        "▁com",
        "p"
      ],
      [
        "▁fir",
        "st"
      ],
      [
        "▁ex",
        "p"
      ],
      [
        "▁o",
        "ur"
      ],
      [
        "▁s",
        "c"
      ],
      [
        "▁go",
        "ing"
      ],
      [
        "▁b",
        "o"
      ],
      [
        "ar",
        "s"
      ],
      [
        "▁d",
        "en"
      ],
      [
        "ost",
        "on"
      ],
      [
        "▁bec",
        "ause"
      ],
      [
        "re",
        "e"
      ],
      [
        "▁b",
        "oston"
      ],
      [
        "m",
        "y"
      ],
      [
        "w",
        "e"
      ],
      [
        "▁con",
        "t"
      ],
      [
        "e",
        "ct"
      ],
      [
        "▁c",
        "ould"
      ],
      [
        "▁m",
        "ake"
      ],
      [
        "▁p",
        "er"
      ],
      [
        "▁we",
        "ll"
      ],
      [
        "▁l",
        "et"
      ],
      [
        "▁pe",
        "op"
      ],
      [
        "▁b",
        "ack"
      ],
      [
        "▁m",
        "ay"
      ],
      [
        "▁g",
        "ot"
      ],
      [
        "▁do",
        "es"
      ],
      [
        "▁p",
        "art"
      ],
      [
        "▁sa",
        "id"
      ],
      [
        "nd",
        "er"
      ],
      [
        "i",
        "z"
      ],
      [
        "▁peop",
        "le"
      ],
      [
        "u",
        "e"
      ],
      [
        "▁c",
        "ar"
      ],
      [
        "ou",
        "nt"
      ],
      [
        "▁b",
        "l"
      ],
      [
        "at",
        "ed"
      ],
      [
        "e",
        "m"
      ],
      [
        "▁s",
        "er"
      ],
      [
        "▁al",
        "so"
      ],
      [
        "▁den",
        "ver"
      ],
      [
        "p",
        "t"
      ],
      [
        ".",
        "."
      ],
      [
        "▁re",
        "s"
      ],
      [
        "e",
        "p"
      ],
      [
        "ot",
        "her"
      ],
      [
        "p",
        "ort"
      ],
      [
        "▁ye",
        "ah"
      ],
      [
        "▁p",
        "le"
      ],
      [
        "ar",
        "y"
      ],
      [
        "c",
        "l"
      ],
      [
        "▁in",
        "to"
      ],
      [
        "▁o",
        "k"
      ],
      [
        "or",
        "m"
      ],
      [
        "ar",
        "k"
      ],
      [
        "w",
        "w"
      ],
      [
        "l",
        "and"
      ],
      [
        "▁t",
        "ake"
      ],
      [
        "▁the",
        "se"
      ],
      [
        "i",
        "re"
      ],
      [
        "▁l",
        "ist"
      ],
      [
        "▁fr",
        "anc"
      ],
      [
        "f",
        "f"
      ],
      [
        "is",
        "co"
      ],
      [
        "i",
        "an"
      ],
      [
        "i",
        "le"
      ],
      [
        "▁franc",
        "isco"
      ],
      [
        "▁w",
        "ay"
      ],
      [
        "d",
        "y"
      ],
      [
        "he",
        "d"
      ],
      [
        "▁d",
        "own"
      ],
      [
        "ing",
        "s"
      ],
      [
        "p",
        "h"
      ],
      [
        "a",
        "ve"
      ],
      [
        "en",
        "ce"
      ],
      [
        "▁c",
        "he"
      ],
      [
        "▁p",
        "re"
      ],
      [
        "an",
        "g"
      ],
      [
        "t",
        "y"
      ],
      [
        "f",
        "ore"
      ],
      [
        "▁ev",
        "en"
      ],
      [
        "▁i",
        "nd"
      ],
      [
        "res",
        "s"
      ],
      [
        "▁s",
        "pe"
      ],
      [
        "▁on",
        "ly"
      ],
      [
        "▁sh",
        "ould"
      ],
      [
        "om",
        "et"
      ],
      [
        "al",
        "k"
      ],
      [
        "▁e",
        "very"
      ],
      [
        "an",
        "ce"
      ],
      [
        "ac",
        "h"
      ],
      [
        "▁ple",
        "ase"
      ],
      [
        "▁s",
        "ay"
      ],
      [
        "is",
        "h"
      ],
      [
        "▁t",
        "a"
      ],
      [
        "▁pl",
        "ay"
      ],
      [
        "▁com",
        "m"
      ],
      [
        "at",
        "er"
      ],
      [
        "▁'",
        "ll"
      ],
      [
        "▁c",
        "all"
      ],
      [
        "▁s",
        "omet"
      ],
      [
        "o",
        "g"
      ],
      [
        "ul",
        "t"
      ],
      [
        "b",
        "ur"
      ],
      [
        "▁g",
        "u"
      ],
      [
        "▁d",
        "r"
      ],
      [
        "▁p",
        "o"
      ],
      [
        "▁b",
        "al"
      ],
      [
        "▁b",
        "u"
      ],
      [
        "▁m",
        "u"
      ],
      [
        "ic",
        "al"
      ],
      [
        "▁a",
        "ct"
      ],
      [
        "ant",
        "a"
      ],
      [
        "re",
        "n"
      ],
      [
        "▁ok",
        "ay"
      ],
      [
        "▁a",
        "pp"
      ],
      [
        "▁c",
        "r"
      ],
      [
        "▁ag",
        "ain"
      ],
      [
        "▁be",
        "fore"
      ],
      [
        "▁i",
        "mp"
      ],
      [
        "in",
        "es"
      ],
      [
        "▁j",
        "o"
      ],
      [
        "en",
        "s"
      ],
      [
        "c",
        "ess"
      ],
      [
        "▁u",
        "nder"
      ],
      [
        "▁at",
        "l"
      ],
      [
        "▁bet",
        "we"
      ],
      [
        "▁betwe",
        "en"
      ],
      [
        "i",
        "x"
      ],
      [
        "▁re",
        "c"
      ],
      [
        "▁w",
        "r"
      ],
      [
        "se",
        "l"
      ],
      [
        "▁",
        ";"
      ],
      [
        "▁in",
        "ter"
      ],
      [
        "l",
        "es"
      ],
      [
        "▁l",
        "a"
      ],
      [
        "▁m",
        "or"
      ],
      [
        "▁atl",
        "anta"
      ],
      [
        "▁s",
        "m"
      ],
      [
        "▁l",
        "ong"
      ],
      [
        "ation",
        "s"
      ],
      [
        "▁mom",
        "my"
      ],
      [
        "▁c",
        "a"
      ],
      [
        "l",
        "i"
      ],
      [
        "u",
        "b"
      ],
      [
        "▁",
        "’"
      ],
      [
        "▁",
        "3"
      ],
      [
        "ad",
        "e"
      ],
      [
        "▁b",
        "us"
      ],
      [
        "▁l",
        "itt"
      ],
      [
        "ur",
        "n"
      ],
      [
        "--",
        "--"
      ],
      [
        "▁litt",
        "le"
      ],
      [
        "w",
        "n"
      ],
      [
        "or",
        "d"
      ],
      [
        "▁f",
        "ind"
      ],
      [
        "or",
        "s"
      ],
      [
        "▁c",
        "ome"
      ],
      [
        "▁e",
        "ar"
      ],
      [
        "▁th",
        "r"
      ],
      [
        "f",
        "orm"
      ],
      [
        "▁o",
        "p"
      ],
      [
        "▁d",
        "at"
      ],
      [
        "it",
        "ed"
      ],
      [
        "▁man",
        "y"
      ],
      [
        "▁",
        "–"
      ],
      [
        "i",
        "ld"
      ],
      [
        "▁w",
        "an"
      ],
      [
        "▁g",
        "on"
      ],
      [
        "t",
        "on"
      ],
      [
        "▁re",
        "m"
      ],
      [
        "▁st",
        "r"
      ],
      [
        "▁tr",
        "ans"
      ],
      [
        "l",
        "ic"
      ],
      [
        "t",
        "im"
      ],
      [
        "▁ser",
        "v"
      ],
      [
        "▁mu",
        "ch"
      ],
      [
        "ig",
        "n"
      ],
      [
        "▁b",
        "ig"
      ],
      [
        "▁th",
        "ose"
      ],
      [
        "f",
        "t"
      ],
      [
        "u",
        "ct"
      ],
      [
        "▁m",
        "il"
      ],
      [
        "▁it",
        "s"
      ],
      [
        "▁m",
        "on"
      ],
      [
        "i",
        "ed"
      ],
      [
        "er",
        "ic"
      ],
      [
        "▁p",
        "itt"
      ],
      [
        "s",
        "bur"
      ],
      [
        "▁d",
        "ay"
      ],
      [
        "▁d",
        "all"
      ],
      [
        "▁g",
        "ive"
      ],
      [
        "▁g",
        "reat"
      ],
      [
        "▁dall",
        "as"
      ],
      [
        "▁re",
        "ally"
      ],
      [
        "▁pitt",
        "sbur"
      ],
      [
        "▁pittsbur",
        "gh"
      ],
      [
        "▁wh",
        "y"
      ],
      [
        "▁e",
        "at"
      ],
      [
        "▁u",
        "se"
      ],
      [
        "▁d",
        "ad"
      ],
      [
        "g",
        "g"
      ],
      [
        "▁",
        "ke"
      ],
      [
        "▁he",
        "l"
      ],
      [
        "t",
        "ing"
      ],
      [
        "am",
        "p"
      ],
      [
        "is",
        "s"
      ],
      [
        "▁h",
        "ou"
      ],
      [
        "k",
        "s"
      ],
      [
        "v",
        "ing"
      ],
      [
        "▁ar",
        "r"
      ],
      [
        "▁hel",
        "p"
      ],
      [
        "▁ph",
        "il"
      ],
      [
        "▁d",
        "es"
      ],
      [
        "or",
        "y"
      ],
      [
        "▁am",
        "eric"
      ],
      [
        "▁somet",
        "hing"
      ],
      [
        "▁u",
        "m"
      ],
      [
        "oo",
        "l"
      ],
      [
        "▁ar",
        "ound"
      ],
      [
        "▁te",
        "ll"
      ],
      [
        "a",
        "ir"
      ],
      [
        "▁re",
        "g"
      ],
      [
        "▁2",
        "00"
      ],
      [
        "o",
        "c"
      ],
      [
        "▁p",
        "res"
      ],
      [
        "i",
        "ous"
      ],
      [
        "▁.",
        ".."
      ],
      [
        "▁h",
        "i"
      ],
      [
        "it",
        "ion"
      ],
      [
        "▁a",
        "w"
      ],
      [
        "▁d",
        "if"
      ],
      [
        "ve",
        "l"
      ],
      [
        "▁u",
        "h"
      ],
      [
        "v",
        "ed"
      ],
      [
        "in",
        "n"
      ],
      [
        "d",
        "e"
      ],
      [
        "nd",
        "s"
      ],
      [
        "x",
        "t"
      ],
      [
        "on",
        "s"
      ],
      [
        "u",
        "ll"
      ],
      [
        "is",
        "e"
      ],
      [
        "▁y",
        "es"
      ],
      [
        "▁st",
        "ill"
      ],
      [
        "▁air",
        "l"
      ],
      [
        "y",
        "s"
      ],
      [
        "i",
        "ly"
      ],
      [
        "▁mor",
        "ning"
      ],
      [
        "▁re",
        "ad"
      ],
      [
        "ak",
        "ing"
      ],
      [
        "m",
        "s"
      ],
      [
        "in",
        "t"
      ],
      [
        "▁ha",
        "pp"
      ],
      [
        "▁at",
        "t"
      ],
      [
        "at",
        "h"
      ],
      [
        "▁c",
        "ity"
      ],
      [
        "ic",
        "t"
      ],
      [
        "ad",
        "el"
      ],
      [
        "at",
        "es"
      ],
      [
        "_",
        "_"
      ],
      [
        "ou",
        "p"
      ],
      [
        "▁pro",
        "b"
      ],
      [
        "▁'",
        "d"
      ],
      [
        "▁tr",
        "y"
      ],
      [
        "ak",
        "es"
      ],
      [
        "sel",
        "f"
      ],
      [
        "▁m",
        "ost"
      ],
      [
        "▁bal",
        "tim"
      ],
      [
        "▁baltim",
        "ore"
      ],
      [
        "▁",
        "5"
      ],
      [
        "es",
        "day"
      ],
      [
        "ph",
        "ia"
      ],
      [
        "▁phil",
        "adel"
      ],
      [
        "▁philadel",
        "phia"
      ],
      [
        "▁1",
        "9"
      ],
      [
        "▁c",
        "le"
      ],
      [
        "▁c",
        "ount"
      ],
      [
        "o",
        "d"
      ],
      [
        "▁f",
        "in"
      ],
      [
        "r",
        "on"
      ],
      [
        "▁p",
        "ol"
      ],
      [
        "▁",
        "4"
      ],
      [
        "▁l",
        "ast"
      ],
      [
        "▁p",
        "m"
      ],
      [
        "▁in",
        "te"
      ],
      [
        "re",
        "nt"
      ],
      [
        "▁b",
        "ook"
      ],
      [
        "ou",
        "ght"
      ],
      [
        "▁re",
        "p"
      ],
      [
        "▁be",
        "l"
      ],
      [
        "▁2",
        "0"
      ],
      [
        "▁an",
        "other"
      ],
      [
        "▁g",
        "l"
      ],
      [
        "ib",
        "le"
      ],
      [
        "=",
        "="
      ],
      [
        "b",
        "e"
      ],
      [
        "▁thr",
        "ough"
      ],
      [
        "c",
        "om"
      ],
      [
        "▁a",
        "p"
      ],
      [
        "▁s",
        "ch"
      ],
      [
        "▁p",
        "os"
      ],
      [
        "ment",
        "s"
      ],
      [
        "▁m",
        "ade"
      ],
      [
        "▁pl",
        "ace"
      ],
      [
        "▁ad",
        "d"
      ],
      [
        "▁h",
        "ome"
      ],
      [
        "▁n",
        "um"
      ],
      [
        "c",
        "i"
      ],
      [
        "▁b",
        "ot"
      ],
      [
        "ver",
        "s"
      ],
      [
        "▁",
        "["
      ],
      [
        "▁e",
        "l"
      ],
      [
        "ie",
        "w"
      ],
      [
        "▁wor",
        "ld"
      ],
      [
        "▁m",
        "ar"
      ],
      [
        "▁f",
        "o"
      ],
      [
        "er",
        "t"
      ],
      [
        "▁",
        "]"
      ],
      [
        "▁do",
        "ing"
      ],
      [
        "al",
        "s"
      ],
      [
        "ent",
        "s"
      ],
      [
        "▁ye",
        "ars"
      ],
      [
        "u",
        "ally"
      ],
      [
        "▁le",
        "av"
      ],
      [
        "▁",
        "—"
      ],
      [
        "▁we",
        "e"
      ],
      [
        "▁o",
        "wn"
      ],
      [
        "ll",
        "ow"
      ],
      [
        "▁t",
        "alk"
      ],
      [
        "en",
        "c"
      ],
      [
        "▁k",
        "ind"
      ],
      [
        "f",
        "ul"
      ],
      [
        "▁e",
        "m"
      ],
      [
        "▁con",
        "s"
      ],
      [
        "an",
        "ge"
      ],
      [
        "▁ye",
        "ar"
      ],
      [
        "▁fr",
        "ie"
      ],
      [
        "▁dad",
        "dy"
      ],
      [
        "m",
        "e"
      ],
      [
        "▁ch",
        "ar"
      ],
      [
        "pe",
        "ct"
      ],
      [
        "th",
        "ing"
      ],
      [
        "p",
        "er"
      ],
      [
        "▁to",
        "day"
      ],
      [
        "j",
        "ect"
      ],
      [
        "▁re",
        "l"
      ],
      [
        "▁was",
        "hing"
      ],
      [
        "▁f",
        "ood"
      ],
      [
        "▁p",
        "ers"
      ],
      [
        "▁'",
        "ve"
      ],
      [
        "▁",
        "7"
      ],
      [
        "▁’",
        "s"
      ],
      [
        "▁st",
        "ud"
      ],
      [
        "▁airl",
        "ines"
      ],
      [
        "▁hou",
        "se"
      ],
      [
        "▁a",
        "v"
      ],
      [
        "▁h",
        "o"
      ],
      [
        "ation",
        "al"
      ],
      [
        "g",
        "et"
      ],
      [
        "at",
        "her"
      ],
      [
        "re",
        "ad"
      ],
      [
        "u",
        "ck"
      ],
      [
        "▁st",
        "art"
      ],
      [
        "it",
        "ies"
      ],
      [
        "▁s",
        "ame"
      ],
      [
        "▁th",
        "ings"
      ],
      [
        "▁b",
        "as"
      ],
      [
        "id",
        "ent"
      ],
      [
        "▁w",
        "ent"
      ],
      [
        "▁st",
        "op"
      ],
      [
        "▁sch",
        "ool"
      ],
      [
        "g",
        "r"
      ],
      [
        "▁t",
        "er"
      ],
      [
        "▁n",
        "ame"
      ],
      [
        "▁washing",
        "ton"
      ],
      [
        "o",
        "y"
      ],
      [
        "o",
        "ck"
      ],
      [
        "ww",
        "w"
      ],
      [
        "▁w",
        "o"
      ],
      [
        "▁su",
        "pp"
      ],
      [
        "▁dif",
        "fe"
      ],
      [
        "m",
        "ber"
      ],
      [
        "at",
        "ch"
      ],
      [
        "u",
        "c"
      ],
      [
        "▁m",
        "in"
      ],
      [
        "▁in",
        "st"
      ],
      [
        "or",
        "n"
      ],
      [
        "▁l",
        "ot"
      ],
      [
        "▁g",
        "en"
      ],
      [
        "▁su",
        "ch"
      ],
      [
        "▁in",
        "form"
      ],
      [
        "▁me",
        "an"
      ],
      [
        "m",
        "an"
      ],
      [
        "v",
        "es"
      ],
      [
        "▁b",
        "est"
      ],
      [
        "nd",
        "ay"
      ],
      [
        "▁ne",
        "xt"
      ],
      [
        "▁w",
        "ar"
      ],
      [
        "▁o",
        "b"
      ],
      [
        "▁f",
        "ly"
      ],
      [
        "iv",
        "ing"
      ],
      [
        "▁b",
        "ab"
      ],
      [
        "▁e",
        "le"
      ],
      [
        "▁o",
        "ld"
      ],
      [
        "*",
        "*"
      ],
      [
        "▁s",
        "ur"
      ],
      [
        "▁re",
        "al"
      ],
      [
        "▁s",
        "et"
      ],
      [
        "▁as",
        "k"
      ],
      [
        "if",
        "ic"
      ],
      [
        "▁ac",
        "c"
      ],
      [
        "▁s",
        "y"
      ],
      [
        "▁op",
        "en"
      ],
      [
        "▁",
        "/"
      ],
      [
        "e",
        "ver"
      ],
      [
        "▁de",
        "c"
      ],
      [
        "or",
        "k"
      ],
      [
        "▁th",
        "ree"
      ],
      [
        "▁",
        "6"
      ],
      [
        "▁in",
        "c"
      ],
      [
        "▁c",
        "ol"
      ],
      [
        "om",
        "an"
      ],
      [
        "▁wh",
        "ile"
      ],
      [
        "▁t",
        "urn"
      ],
      [
        "an",
        "k"
      ],
      [
        "▁qu",
        "est"
      ],
      [
        "re",
        "st"
      ],
      [
        "▁i",
        "m"
      ],
      [
        "▁h",
        "u"
      ],
      [
        "▁pro",
        "v"
      ],
      [
        "▁w",
        "a"
      ],
      [
        "▁n",
        "ight"
      ],
      [
        "ce",
        "pt"
      ],
      [
        "!",
        "!"
      ],
      [
        "d",
        "er"
      ],
      [
        "▁in",
        "v"
      ],
      [
        "▁ha",
        "nd"
      ],
      [
        "▁for",
        "m"
      ],
      [
        "▁be",
        "ing"
      ],
      [
        "u",
        "p"
      ],
      [
        "▁cl",
        "ass"
      ],
      [
        "b",
        "o"
      ],
      [
        "ul",
        "ar"
      ],
      [
        "in",
        "ce"
      ],
      [
        "▁spe",
        "c"
      ],
      [
        "he",
        "s"
      ],
      [
        "▁fe",
        "el"
      ],
      [
        "▁leav",
        "ing"
      ],
      [
        "l",
        "ed"
      ],
      [
        "▁e",
        "nd"
      ],
      [
        "▁ne",
        "ver"
      ],
      [
        "fe",
        "ct"
      ],
      [
        "n",
        "o"
      ],
      [
        "▁w",
        "ed"
      ],
      [
        "▁f",
        "un"
      ],
      [
        "▁-",
        "-"
      ],
      [
        "▁un",
        "ited"
      ],
      [
        "ur",
        "s"
      ],
      [
        "▁le",
        "ave"
      ],
      [
        "▁he",
        "ad"
      ],
      [
        "▁americ",
        "an"
      ],
      [
        "▁d",
        "ra"
      ],
      [
        "▁hi",
        "gh"
      ],
      [
        "s",
        "ide"
      ],
      [
        "at",
        "ing"
      ],
      [
        "w",
        "ays"
      ],
      [
        "ol",
        "og"
      ],
      [
        "▁serv",
        "ice"
      ],
      [
        "▁num",
        "ber"
      ],
      [
        "▁ro",
        "om"
      ],
      [
        "▁inform",
        "ation"
      ],
      [
        "▁th",
        "ing"
      ],
      [
        "▁su",
        "b"
      ],
      [
        "w",
        "ard"
      ],
      [
        "c",
        "on"
      ],
      [
        "▁s",
        "al"
      ],
      [
        "at",
        "ive"
      ],
      [
        "▁li",
        "fe"
      ],
      [
        "n",
        "e"
      ],
      [
        "▁s",
        "l"
      ],
      [
        "▁h",
        "ar"
      ],
      [
        "▁pers",
        "on"
      ],
      [
        "▁as",
        "s"
      ],
      [
        "▁le",
        "g"
      ],
      [
        "▁s",
        "it"
      ],
      [
        "▁pro",
        "d"
      ],
      [
        "▁",
        "ve"
      ],
      [
        "▁w",
        "ater"
      ],
      [
        "▁us",
        "ed"
      ],
      [
        "▁",
        "$"
      ],
      [
        "u",
        "al"
      ],
      [
        "▁",
        "0"
      ],
      [
        "op",
        "e"
      ],
      [
        "00",
        "0"
      ],
      [
        "▁f",
        "ar"
      ],
      [
        "▁",
        "ent"
      ],
      [
        "i",
        "ent"
      ],
      [
        "▁re",
        "t"
      ],
      [
        "cl",
        "ud"
      ],
      [
        "s",
        "s"
      ],
      [
        "▁call",
        "ed"
      ],
      [
        "▁f",
        "am"
      ],
      [
        "▁ke",
        "ep"
      ],
      [
        "▁aw",
        "ay"
      ],
      [
        "▁s",
        "at"
      ],
      [
        "▁bab",
        "y"
      ],
      [
        "▁s",
        "k"
      ],
      [
        "▁d",
        "et"
      ],
      [
        "▁e",
        "u"
      ],
      [
        "▁re",
        "st"
      ],
      [
        "i",
        "ence"
      ],
      [
        "ut",
        "ion"
      ],
      [
        "▁",
        "“"
      ],
      [
        "▁",
        "ed"
      ],
      [
        "▁m",
        "et"
      ],
      [
        "▁l",
        "ar"
      ],
      [
        "▁re",
        "d"
      ],
      [
        "ver",
        "n"
      ],
      [
        "▁sm",
        "all"
      ],
      [
        "▁el",
        "se"
      ],
      [
        "u",
        "res"
      ],
      [
        "▁p",
        "ar"
      ],
      [
        "▁re",
        "v"
      ],
      [
        "ut",
        "e"
      ],
      [
        "▁co",
        "ll"
      ],
      [
        "▁cont",
        "in"
      ],
      [
        "r",
        "ib"
      ],
      [
        "▁su",
        "re"
      ],
      [
        "▁gr",
        "oup"
      ],
      [
        "▁f",
        "ound"
      ],
      [
        "▁b",
        "re"
      ],
      [
        "▁ch",
        "ild"
      ],
      [
        "▁1",
        "0"
      ],
      [
        "▁lo",
        "ve"
      ],
      [
        "▁p",
        "ub"
      ],
      [
        "c",
        "es"
      ],
      [
        "▁m",
        "ust"
      ],
      [
        "▁al",
        "ways"
      ],
      [
        "▁v",
        "is"
      ],
      [
        "ou",
        "n"
      ],
      [
        "u",
        "g"
      ],
      [
        "▁c",
        "our"
      ],
      [
        "▁th",
        "ought"
      ],
      [
        "▁r",
        "ound"
      ],
      [
        "▁",
        "”"
      ],
      [
        "▁inte",
        "rest"
      ],
      [
        "▁bot",
        "h"
      ],
      [
        "----",
        "----"
      ],
      [
        "▁gen",
        "er"
      ],
      [
        "n",
        "esday"
      ],
      [
        "▁trans",
        "port"
      ],
      [
        "▁wed",
        "nesday"
      ],
      [
        "▁m",
        "a"
      ],
      [
        "one",
        "y"
      ],
      [
        "ic",
        "es"
      ],
      [
        "ir",
        "l"
      ],
      [
        "▁ar",
        "t"
      ],
      [
        "▁l",
        "ight"
      ],
      [
        "▁st",
        "and"
      ],
      [
        "▁de",
        "p"
      ],
      [
        "▁bet",
        "ter"
      ],
      [
        "▁diffe",
        "rent"
      ],
      [
        "▁ha",
        "f"
      ],
      [
        "▁m",
        "r"
      ],
      [
        "▁tr",
        "ip"
      ],
      [
        "ire",
        "ct"
      ],
      [
        "m",
        "ed"
      ],
      [
        "▁h",
        "ot"
      ],
      [
        "▁gr",
        "ound"
      ],
      [
        "▁m",
        "ark"
      ],
      [
        "▁inter",
        "n"
      ],
      [
        "▁s",
        "ince"
      ],
      [
        "▁c",
        "ent"
      ],
      [
        "▁p",
        "a"
      ],
      [
        "▁av",
        "ail"
      ],
      [
        "▁en",
        "g"
      ],
      [
        "/",
        "2"
      ],
      [
        "▁b",
        "ro"
      ],
      [
        "▁c",
        "ur"
      ],
      [
        "t",
        "le"
      ],
      [
        "▁fe",
        "w"
      ],
      [
        "▁part",
        "ic"
      ],
      [
        "▁mon",
        "th"
      ],
      [
        "g",
        "er"
      ],
      [
        "▁f",
        "a"
      ],
      [
        "▁b",
        "ir"
      ],
      [
        "▁re",
        "qu"
      ],
      [
        "▁de",
        "f"
      ],
      [
        "▁f",
        "our"
      ],
      [
        "ic",
        "s"
      ],
      [
        "ab",
        "ly"
      ],
      [
        "▁d",
        "irect"
      ],
      [
        "▁in",
        "clud"
      ],
      [
        "▁e",
        "ach"
      ],
      [
        "ap",
        "er"
      ],
      [
        "▁pos",
        "s"
      ],
      [
        "▁m",
        "ight"
      ],
      [
        "▁lo",
        "c"
      ],
      [
        "▁n",
        "ice"
      ],
      [
        "▁g",
        "re"
      ],
      [
        "as",
        "h"
      ],
      [
        "▁po",
        "int"
      ],
      [
        "▁",
        "8"
      ],
      [
        "▁w",
        "alk"
      ],
      [
        "ou",
        "th"
      ],
      [
        "ur",
        "ing"
      ],
      [
        "us",
        "s"
      ],
      [
        "▁fo",
        "llow"
      ],
      [
        "▁d",
        "one"
      ],
      [
        "▁rem",
        "em"
      ],
      [
        "ter",
        "s"
      ],
      [
        "▁avail",
        "able"
      ],
      [
        "▁c",
        "ame"
      ],
      [
        "▁re",
        "f"
      ],
      [
        "▁re",
        "port"
      ],
      [
        "a",
        "red"
      ],
      [
        "▁f",
        "act"
      ],
      [
        "▁g",
        "irl"
      ],
      [
        "▁than",
        "k"
      ],
      [
        "t",
        "s"
      ],
      [
        "▁th",
        "ough"
      ],
      [
        "▁too",
        "k"
      ],
      [
        "al",
        "e"
      ],
      [
        "ow",
        "er"
      ],
      [
        "▁exp",
        "er"
      ],
      [
        "▁eu",
        "ro"
      ],
      [
        "in",
        "ess"
      ],
      [
        "▁p",
        "et"
      ],
      [
        "▁go",
        "vern"
      ],
      [
        "▁pl",
        "an"
      ],
      [
        "▁happ",
        "en"
      ],
      [
        "▁prob",
        "le"
      ],
      [
        "▁e",
        "as"
      ],
      [
        "vel",
        "op"
      ],
      [
        "▁s",
        "w"
      ],
      [
        "▁c",
        "are"
      ],
      [
        "ur",
        "al"
      ],
      [
        "it",
        "ing"
      ],
      [
        "as",
        "on"
      ],
      [
        "ant",
        "s"
      ],
      [
        "▁wee",
        "k"
      ],
      [
        "▁c",
        "ap"
      ],
      [
        "▁st",
        "ate"
      ],
      [
        "▁t",
        "y"
      ],
      [
        "▁h",
        "ard"
      ],
      [
        "▁e",
        "y"
      ],
      [
        "▁20",
        "1"
      ],
      [
        "▁",
        "z"
      ],
      [
        "▁s",
        "im"
      ],
      [
        "▁m",
        "at"
      ],
      [
        "▁n",
        "on"
      ],
      [
        "en",
        "se"
      ],
      [
        "▁y",
        "ork"
      ],
      [
        "il",
        "ity"
      ],
      [
        "▁che",
        "ap"
      ],
      [
        "▁to",
        "ld"
      ],
      [
        "▁se",
        "co"
      ],
      [
        "▁bel",
        "ie"
      ],
      [
        "ent",
        "ion"
      ],
      [
        "▁con",
        "f"
      ],
      [
        "▁de",
        "m"
      ],
      [
        "▁b",
        "all"
      ],
      [
        "▁he",
        "ar"
      ],
      [
        "▁al",
        "read"
      ],
      [
        "▁alread",
        "y"
      ],
      [
        "g",
        "an"
      ],
      [
        "▁do",
        "g"
      ],
      [
        "▁may",
        "be"
      ],
      [
        "▁st",
        "ates"
      ],
      [
        "▁ex",
        "t"
      ],
      [
        "or",
        "r"
      ],
      [
        "▁st",
        "ay"
      ],
      [
        "▁le",
        "ad"
      ],
      [
        "▁j",
        "u"
      ],
      [
        "n",
        "y"
      ],
      [
        "p",
        "r"
      ],
      [
        "al",
        "ity"
      ],
      [
        "▁st",
        "re"
      ],
      [
        "▁r",
        "oman"
      ],
      [
        "▁how",
        "ever"
      ],
      [
        "▁h",
        "um"
      ],
      [
        "iv",
        "es"
      ],
      [
        "▁than",
        "ks"
      ],
      [
        "l",
        "ing"
      ],
      [
        "in",
        "a"
      ],
      [
        "▁b",
        "ad"
      ],
      [
        "▁d",
        "ist"
      ],
      [
        "▁d",
        "ays"
      ],
      [
        "▁se",
        "c"
      ],
      [
        "▁look",
        "ing"
      ],
      [
        "con",
        "om"
      ],
      [
        "▁p",
        "ass"
      ],
      [
        "▁e",
        "conom"
      ],
      [
        "st",
        "and"
      ],
      [
        "ro",
        "ss"
      ],
      [
        "▁r",
        "un"
      ],
      [
        "▁de",
        "velop"
      ],
      [
        "▁dis",
        "c"
      ],
      [
        "p",
        "l"
      ],
      [
        "he",
        "re"
      ],
      [
        "is",
        "hed"
      ],
      [
        "▁j",
        "e"
      ],
      [
        "▁s",
        "ix"
      ],
      [
        "▁he",
        "y"
      ],
      [
        "▁me",
        "et"
      ],
      [
        "▁s",
        "ign"
      ],
      [
        "▁ad",
        "am"
      ],
      [
        "i",
        "o"
      ],
      [
        "▁tr",
        "ain"
      ],
      [
        "▁bus",
        "h"
      ],
      [
        "▁remem",
        "ber"
      ],
      [
        "▁f",
        "are"
      ],
      [
        "ie",
        "ld"
      ],
      [
        "▁dat",
        "a"
      ],
      [
        "▁pres",
        "ident"
      ],
      [
        "▁n",
        "or"
      ],
      [
        "▁un",
        "i"
      ],
      [
        "t",
        "ed"
      ],
      [
        "et",
        "s"
      ],
      [
        "os",
        "ed"
      ],
      [
        "▁seco",
        "nd"
      ],
      [
        ".",
        "com"
      ],
      [
        "n",
        "ess"
      ],
      [
        "ent",
        "y"
      ],
      [
        "▁wor",
        "d"
      ],
      [
        "__",
        "__"
      ],
      [
        "i",
        "k"
      ],
      [
        "▁f",
        "il"
      ],
      [
        "▁l",
        "ater"
      ],
      [
        "▁la",
        "ur"
      ],
      [
        "r",
        "ic"
      ],
      [
        "▁",
        "9"
      ],
      [
        "▁f",
        "all"
      ],
      [
        "▁after",
        "no"
      ],
      [
        "▁jo",
        "b"
      ],
      [
        "u",
        "es"
      ],
      [
        "▁p",
        "ie"
      ],
      [
        "is",
        "ed"
      ],
      [
        "▁afterno",
        "on"
      ],
      [
        "▁b",
        "it"
      ],
      [
        "▁to",
        "m"
      ],
      [
        "▁g",
        "e"
      ],
      [
        "▁w",
        "atch"
      ],
      [
        "▁imp",
        "ort"
      ],
      [
        "iss",
        "ion"
      ],
      [
        "▁frie",
        "nd"
      ],
      [
        "i",
        "red"
      ],
      [
        "▁not",
        "hing"
      ],
      [
        "▁de",
        "l"
      ],
      [
        "▁act",
        "ually"
      ],
      [
        "▁a",
        "ut"
      ],
      [
        "▁o",
        "ak"
      ],
      [
        "ot",
        "e"
      ],
      [
        "ter",
        "n"
      ],
      [
        "▁res",
        "p"
      ],
      [
        "▁ho",
        "ld"
      ],
      [
        "▁exp",
        "l"
      ],
      [
        "▁ear",
        "ly"
      ],
      [
        "v",
        "en"
      ],
      [
        "▁c",
        "or"
      ],
      [
        "ard",
        "s"
      ],
      [
        "▁sa",
        "w"
      ],
      [
        "▁any",
        "thing"
      ],
      [
        "▁comp",
        "an"
      ],
      [
        "▁app",
        "ro"
      ],
      [
        "▁f",
        "ree"
      ],
      [
        "▁v",
        "al"
      ],
      [
        "▁i",
        "de"
      ],
      [
        "▁m",
        "ain"
      ],
      [
        "▁u",
        "nt"
      ],
      [
        "▁le",
        "ft"
      ],
      [
        "▁transport",
        "ation"
      ],
      [
        "▁laur",
        "a"
      ],
      [
        "▁c",
        "at"
      ],
      [
        "▁c",
        "ost"
      ],
      [
        "▁m",
        "ed"
      ],
      [
        "▁m",
        "aking"
      ],
      [
        "▁e",
        "ver"
      ],
      [
        "▁bus",
        "iness"
      ],
      [
        "==",
        "=="
      ],
      [
        "▁st",
        "."
      ],
      [
        "ist",
        "s"
      ],
      [
        "▁s",
        "ays"
      ],
      [
        "▁h",
        "our"
      ],
      [
        "is",
        "m"
      ],
      [
        "▁on",
        "ce"
      ],
      [
        "st",
        "em"
      ],
      [
        "▁air",
        "port"
      ],
      [
        "▁mil",
        "k"
      ],
      [
        "▁f",
        "ace"
      ],
      [
        "er",
        "g"
      ],
      [
        "▁get",
        "ting"
      ],
      [
        "▁oak",
        "land"
      ],
      [
        "▁m",
        "i"
      ],
      [
        "▁in",
        "s"
      ],
      [
        "▁do",
        "ll"
      ],
      [
        "l",
        "ess"
      ],
      [
        "m",
        "in"
      ],
      [
        "▁l",
        "ine"
      ],
      [
        "id",
        "d"
      ],
      [
        "ct",
        "ion"
      ],
      [
        "▁with",
        "out"
      ],
      [
        "▁le",
        "ar"
      ],
      [
        "um",
        "p"
      ],
      [
        "▁ear",
        "li"
      ],
      [
        "bo",
        "dy"
      ],
      [
        "i",
        "et"
      ],
      [
        "▁t",
        "u"
      ],
      [
        "▁li",
        "ve"
      ],
      [
        "i",
        "or"
      ],
      [
        "t",
        "t"
      ],
      [
        "▁s",
        "n"
      ],
      [
        "▁f",
        "u"
      ],
      [
        "▁b",
        "ar"
      ],
      [
        "▁m",
        "other"
      ],
      [
        "▁count",
        "ry"
      ],
      [
        "▁fam",
        "ily"
      ],
      [
        "▁pub",
        "lic"
      ],
      [
        "▁euro",
        "pe"
      ],
      [
        "b",
        "le"
      ],
      [
        "▁f",
        "ull"
      ],
      [
        "▁h",
        "ope"
      ],
      [
        "▁is",
        "s"
      ],
      [
        "▁under",
        "stand"
      ],
      [
        "ert",
        "ain"
      ],
      [
        "▁",
        "x"
      ],
      [
        "▁th",
        "urs"
      ],
      [
        "▁e",
        "mp"
      ],
      [
        "▁ha",
        "ir"
      ],
      [
        "▁mo",
        "nday"
      ],
      [
        "▁la",
        "w"
      ],
      [
        "▁cheap",
        "est"
      ],
      [
        "▁f",
        "ive"
      ],
      [
        "▁m",
        "us"
      ],
      [
        "▁g",
        "ame"
      ],
      [
        "▁thurs",
        "day"
      ],
      [
        "m",
        "m"
      ],
      [
        "▁c",
        "re"
      ],
      [
        "id",
        "er"
      ],
      [
        "amp",
        "le"
      ],
      [
        "▁prod",
        "uct"
      ],
      [
        "▁p",
        "op"
      ],
      [
        "▁su",
        "n"
      ],
      [
        "▁pre",
        "t"
      ],
      [
        "▁sy",
        "stem"
      ],
      [
        "▁n",
        "at"
      ],
      [
        "▁th",
        "ir"
      ],
      [
        "▁l",
        "ess"
      ],
      [
        "▁ad",
        "v"
      ],
      [
        "▁bu",
        "y"
      ],
      [
        "▁prob",
        "ably"
      ],
      [
        "▁try",
        "ing"
      ],
      [
        "c",
        "c"
      ],
      [
        "▁m",
        "oney"
      ],
      [
        "▁d",
        "uring"
      ],
      [
        "▁us",
        "ing"
      ],
      [
        "iz",
        "e"
      ],
      [
        "▁bre",
        "ak"
      ],
      [
        "a",
        "z"
      ],
      [
        "h",
        "ip"
      ],
      [
        "▁again",
        "st"
      ],
      [
        "a",
        "ff"
      ],
      [
        "▁s",
        "le"
      ],
      [
        "▁p",
        "ict"
      ],
      [
        "▁p",
        "aper"
      ],
      [
        "▁se",
        "p"
      ],
      [
        "▁pro",
        "cess"
      ],
      [
        "▁c",
        "ut"
      ],
      [
        "▁be",
        "h"
      ],
      [
        "▁1",
        "8"
      ],
      [
        "b",
        "y"
      ],
      [
        "n",
        "ed"
      ],
      [
        "t",
        "en"
      ],
      [
        "ent",
        "al"
      ],
      [
        "▁me",
        "m"
      ],
      [
        "get",
        "her"
      ],
      [
        "a",
        "w"
      ],
      [
        "g",
        "o"
      ],
      [
        "i",
        "er"
      ],
      [
        "▁i",
        "ra"
      ],
      [
        "▁p",
        "ay"
      ],
      [
        "▁1",
        "5"
      ],
      [
        "ang",
        "u"
      ],
      [
        "▁arr",
        "iving"
      ],
      [
        "▁dra",
        "w"
      ],
      [
        "▁pret",
        "ty"
      ],
      [
        "▁ira",
        "q"
      ],
      [
        "u",
        "ff"
      ],
      [
        "ar",
        "ch"
      ],
      [
        "al",
        "th"
      ],
      [
        "▁pro",
        "p"
      ],
      [
        "▁1",
        "1"
      ],
      [
        "▁1",
        "2"
      ],
      [
        "▁comm",
        "un"
      ],
      [
        "▁quest",
        "ion"
      ],
      [
        "▁c",
        "oun"
      ],
      [
        "▁y",
        "et"
      ],
      [
        "al",
        "f"
      ],
      [
        "▁ch",
        "ange"
      ],
      [
        "▁gr",
        "ow"
      ],
      [
        "▁frie",
        "nds"
      ],
      [
        "▁wa",
        "it"
      ],
      [
        ",",
        "000"
      ],
      [
        "▁l",
        "and"
      ],
      [
        "▁in",
        "f"
      ],
      [
        "ag",
        "es"
      ],
      [
        "▁comp",
        "le"
      ],
      [
        "▁dep",
        "art"
      ],
      [
        "r",
        "ies"
      ],
      [
        "▁b",
        "ed"
      ],
      [
        "▁to",
        "p"
      ],
      [
        "id",
        "ed"
      ],
      [
        "un",
        "ch"
      ],
      [
        "▁mo",
        "ve"
      ],
      [
        "▁ac",
        "cess"
      ],
      [
        "in",
        "s"
      ],
      [
        "▁f",
        "ather"
      ],
      [
        "▁p",
        "ost"
      ],
      [
        "▁le",
        "ast"
      ],
      [
        "▁v",
        "iew"
      ],
      [
        "b",
        "r"
      ],
      [
        "▁want",
        "ed"
      ],
      [
        "▁en",
        "ough"
      ],
      [
        "▁every",
        "thing"
      ],
      [
        "▁lar",
        "ge"
      ],
      [
        "▁s",
        "qu"
      ],
      [
        "▁con",
        "c"
      ],
      [
        "▁wr",
        "ite"
      ],
      [
        "▁ter",
        "r"
      ],
      [
        "at",
        "or"
      ],
      [
        "▁l",
        "angu"
      ],
      [
        "ic",
        "ally"
      ],
      [
        "ate",
        "ly"
      ],
      [
        "▁tw",
        "enty"
      ],
      [
        "▁cle",
        "an"
      ],
      [
        "gr",
        "am"
      ],
      [
        "b",
        "ers"
      ],
      [
        "▁c",
        "al"
      ],
      [
        "id",
        "ay"
      ],
      [
        "▁te",
        "ch"
      ],
      [
        "▁unt",
        "il"
      ],
      [
        "▁f",
        "ield"
      ],
      [
        "▁c",
        "e"
      ],
      [
        "it",
        "s"
      ],
      [
        "▁wh",
        "ite"
      ],
      [
        "ent",
        "h"
      ],
      [
        "▁ha",
        "ving"
      ],
      [
        "▁ap",
        "pe"
      ],
      [
        "▁govern",
        "ment"
      ],
      [
        "▁tu",
        "esday"
      ],
      [
        "▁some",
        "one"
      ],
      [
        "▁bl",
        "ack"
      ],
      [
        "n",
        "ect"
      ],
      [
        "in",
        "c"
      ],
      [
        "it",
        "al"
      ],
      [
        "▁sh",
        "o"
      ],
      [
        "▁go",
        "es"
      ],
      [
        "iv",
        "ed"
      ],
      [
        "▁tim",
        "es"
      ],
      [
        "r",
        "ight"
      ],
      [
        "▁m",
        "en"
      ],
      [
        "▁to",
        "gether"
      ],
      [
        "▁h",
        "or"
      ],
      [
        "▁st",
        "e"
      ],
      [
        "▁me",
        "ans"
      ],
      [
        "▁an",
        "im"
      ],
      [
        "▁tr",
        "ave"
      ],
      [
        "▁pro",
        "f"
      ],
      [
        "i",
        "pp"
      ],
      [
        "▁who",
        "le"
      ],
      [
        "▁off",
        "ice"
      ],
      [
        "▁re",
        "ce"
      ],
      [
        "▁are",
        "a"
      ],
      [
        "▁de",
        "re"
      ],
      [
        "g",
        "n"
      ],
      [
        "▁w",
        "ind"
      ],
      [
        "▁in",
        "t"
      ],
      [
        "▁st",
        "ore"
      ],
      [
        "▁or",
        "der"
      ],
      [
        "▁ex",
        "ample"
      ],
      [
        "▁p",
        "ur"
      ],
      [
        "▁ind",
        "ian"
      ],
      [
        "ren",
        "ce"
      ],
      [
        "▁tech",
        "n"
      ],
      [
        "a",
        "ur"
      ],
      [
        "▁i",
        "r"
      ],
      [
        "▁out",
        "side"
      ],
      [
        "iz",
        "ed"
      ],
      [
        "▁ret",
        "urn"
      ],
      [
        "h",
        "u"
      ],
      [
        "▁",
        "est"
      ],
      [
        "nd",
        "ed"
      ],
      [
        "it",
        "her"
      ],
      [
        "▁pro",
        "gram"
      ],
      [
        "▁",
        "es"
      ],
      [
        "ent",
        "ly"
      ],
      [
        "am",
        "es"
      ],
      [
        "▁sh",
        "ort"
      ],
      [
        "▁poss",
        "ible"
      ],
      [
        "▁import",
        "ant"
      ],
      [
        "a",
        "ut"
      ],
      [
        "b",
        "s"
      ],
      [
        "r",
        "act"
      ],
      [
        "et",
        "y"
      ],
      [
        "▁you",
        "n"
      ],
      [
        "▁res",
        "ult"
      ],
      [
        "▁har",
        "ry"
      ],
      [
        "he",
        "n"
      ],
      [
        "▁c",
        "ase"
      ],
      [
        "▁an",
        "s"
      ],
      [
        "▁pr",
        "ot"
      ],
      [
        "▁c",
        "reat"
      ],
      [
        "on",
        "t"
      ],
      [
        "ke",
        "e"
      ],
      [
        "ain",
        "ed"
      ],
      [
        "▁en",
        "j"
      ],
      [
        "▁child",
        "ren"
      ],
      [
        "▁pa",
        "ul"
      ],
      [
        "e",
        "e"
      ],
      [
        "m",
        "ost"
      ],
      [
        "▁s",
        "outh"
      ],
      [
        "▁p",
        "ain"
      ],
      [
        "ion",
        "al"
      ],
      [
        "▁fr",
        "iday"
      ],
      [
        "▁b",
        "en"
      ],
      [
        "▁p",
        "ick"
      ],
      [
        "▁h",
        "it"
      ],
      [
        "▁n",
        "ational"
      ],
      [
        "ow",
        "s"
      ],
      [
        "▁ch",
        "ang"
      ],
      [
        "▁con",
        "st"
      ],
      [
        "▁ab",
        "le"
      ],
      [
        "au",
        "ght"
      ],
      [
        "▁him",
        "self"
      ],
      [
        "▁che",
        "ck"
      ],
      [
        "▁dr",
        "ink"
      ],
      [
        "▁supp",
        "ort"
      ],
      [
        "▁uni",
        "vers"
      ],
      [
        "▁h",
        "ur"
      ],
      [
        "ur",
        "day"
      ],
      [
        "▁pro",
        "per"
      ],
      [
        "▁br",
        "ing"
      ],
      [
        "▁m",
        "iss"
      ],
      [
        "▁d",
        "c"
      ],
      [
        "▁e",
        "qu"
      ],
      [
        "im",
        "es"
      ],
      [
        "▁bu",
        "ild"
      ],
      [
        "▁stud",
        "y"
      ],
      [
        "▁sat",
        "urday"
      ],
      [
        "l",
        "ish"
      ],
      [
        "r",
        "ap"
      ],
      [
        "▁p",
        "ot"
      ],
      [
        "▁su",
        "nday"
      ],
      [
        "ust",
        "om"
      ],
      [
        "▁com",
        "ing"
      ],
      [
        "iv",
        "en"
      ],
      [
        "orr",
        "ow"
      ],
      [
        "▁h",
        "ist"
      ],
      [
        "▁j",
        "un"
      ],
      [
        "▁ele",
        "ct"
      ],
      [
        "▁nor",
        "th"
      ],
      [
        "m",
        "a"
      ],
      [
        "▁t",
        "est"
      ],
      [
        "▁se",
        "at"
      ],
      [
        "▁de",
        "al"
      ],
      [
        "▁pol",
        "it"
      ],
      [
        "w",
        "au"
      ],
      [
        "▁",
        "&"
      ],
      [
        "es",
        "e"
      ],
      [
        "st",
        "on"
      ],
      [
        "ol",
        "is"
      ],
      [
        "if",
        "e"
      ],
      [
        "▁pr",
        "ice"
      ],
      [
        "▁mil",
        "wau"
      ],
      [
        "enc",
        "y"
      ],
      [
        "▁milwau",
        "kee"
      ],
      [
        "c",
        "ial"
      ],
      [
        "▁h",
        "tt"
      ],
      [
        "▁ne",
        "ar"
      ],
      [
        "▁al",
        "most"
      ],
      [
        "inn",
        "er"
      ],
      [
        "**",
        "**"
      ],
      [
        "▁htt",
        "p"
      ],
      [
        "/",
        "/"
      ],
      [
        ":",
        "//"
      ],
      [
        "▁s",
        "ing"
      ],
      [
        "nd",
        "ing"
      ],
      [
        "▁p",
        "en"
      ],
      [
        "om",
        "me"
      ],
      [
        "▁cour",
        "se"
      ],
      [
        "▁partic",
        "ular"
      ],
      [
        "c",
        "le"
      ],
      [
        "▁re",
        "ason"
      ],
      [
        "▁u",
        "r"
      ],
      [
        "▁con",
        "nect"
      ],
      [
        "▁rec",
        "omme"
      ],
      [
        "▁bas",
        "ed"
      ],
      [
        "▁proble",
        "m"
      ],
      [
        "f",
        "fect"
      ],
      [
        "▁t",
        "aking"
      ],
      [
        "▁c",
        "ult"
      ],
      [
        "▁c",
        "ustom"
      ],
      [
        "um",
        "my"
      ],
      [
        "▁jo",
        "h"
      ],
      [
        "▁intern",
        "ational"
      ],
      [
        "▁http",
        "://"
      ],
      [
        "w",
        "here"
      ],
      [
        "▁ag",
        "ree"
      ],
      [
        "▁bo",
        "x"
      ],
      [
        "▁rec",
        "ord"
      ],
      [
        "▁exper",
        "ience"
      ],
      [
        "▁sle",
        "ep"
      ],
      [
        "▁c",
        "ertain"
      ],
      [
        "er",
        "y"
      ],
      [
        "ro",
        "p"
      ],
      [
        "ir",
        "t"
      ],
      [
        "▁at",
        "te"
      ],
      [
        "▁se",
        "ver"
      ],
      [
        "▁ch",
        "r"
      ],
      [
        "▁wor",
        "th"
      ],
      [
        "ap",
        "s"
      ],
      [
        "ap",
        "olis"
      ],
      [
        "▁cl",
        "ose"
      ],
      [
        "▁cont",
        "ro"
      ],
      [
        "▁hor",
        "se"
      ],
      [
        "o",
        "ve"
      ],
      [
        "▁p",
        "ower"
      ],
      [
        "am",
        "a"
      ],
      [
        "olog",
        "y"
      ],
      [
        "▁ma",
        "j"
      ],
      [
        "▁month",
        "s"
      ],
      [
        "▁ju",
        "ly"
      ],
      [
        "▁s",
        "ide"
      ],
      [
        "▁c",
        "op"
      ],
      [
        "▁pr",
        "om"
      ],
      [
        "▁bo",
        "y"
      ],
      [
        "▁pres",
        "ent"
      ],
      [
        "in",
        "ed"
      ],
      [
        "▁be",
        "g"
      ],
      [
        "ac",
        "hed"
      ],
      [
        "▁for",
        "t"
      ],
      [
        "▁fl",
        "o"
      ],
      [
        "▁1",
        "6"
      ],
      [
        "▁ph",
        "o"
      ],
      [
        "▁hum",
        "an"
      ],
      [
        "▁sever",
        "al"
      ],
      [
        "▁st",
        "ep"
      ],
      [
        "are",
        "nt"
      ],
      [
        "▁compan",
        "y"
      ],
      [
        "as",
        "ed"
      ],
      [
        "▁co",
        "nd"
      ],
      [
        "▁even",
        "ing"
      ],
      [
        "▁inc",
        "re"
      ],
      [
        "a",
        "im"
      ],
      [
        "c",
        "ed"
      ],
      [
        "r",
        "uct"
      ],
      [
        "▁p",
        "at"
      ],
      [
        "▁tom",
        "orrow"
      ],
      [
        "3",
        "0"
      ],
      [
        "t",
        "a"
      ],
      [
        "▁a",
        "ug"
      ],
      [
        "▁m",
        "ind"
      ],
      [
        "▁p",
        "ast"
      ],
      [
        "▁e",
        "ff"
      ],
      [
        "▁pro",
        "ject"
      ],
      [
        "▁ag",
        "o"
      ],
      [
        "▁every",
        "one"
      ],
      [
        "▁play",
        "ing"
      ],
      [
        "▁fa",
        "res"
      ],
      [
        "▁ey",
        "es"
      ],
      [
        "i",
        "ver"
      ],
      [
        "▁d",
        "ie"
      ],
      [
        "ac",
        "es"
      ],
      [
        "▁op",
        "er"
      ],
      [
        "▁char",
        "l"
      ],
      [
        "▁spec",
        "ial"
      ],
      [
        "▁sal",
        "t"
      ],
      [
        "m",
        "l"
      ],
      [
        "▁f",
        "ore"
      ],
      [
        "is",
        "ion"
      ],
      [
        "▁look",
        "s"
      ],
      [
        "▁comm",
        "ission"
      ],
      [
        "▁arr",
        "ive"
      ],
      [
        "▁ask",
        "ed"
      ],
      [
        "▁gener",
        "al"
      ],
      [
        "▁maj",
        "or"
      ],
      [
        "c",
        "ent"
      ],
      [
        "s",
        "."
      ],
      [
        "w",
        "ay"
      ],
      [
        "▁l",
        "os"
      ],
      [
        "▁e",
        "ffect"
      ],
      [
        "▁do",
        "or"
      ],
      [
        "▁k",
        "id"
      ],
      [
        "▁mo",
        "d"
      ],
      [
        "▁happen",
        "ed"
      ],
      [
        "▁langu",
        "age"
      ],
      [
        "n",
        "a"
      ],
      [
        "▁o",
        "pp"
      ],
      [
        "▁b",
        "ur"
      ],
      [
        "▁be",
        "aut"
      ],
      [
        "▁ex",
        "pect"
      ],
      [
        "ak",
        "en"
      ],
      [
        "▁disc",
        "uss"
      ],
      [
        "▁joh",
        "n"
      ],
      [
        "’",
        "t"
      ],
      [
        "▁d",
        "inner"
      ],
      [
        "▁n",
        "’t"
      ],
      [
        "▁l",
        "ou"
      ],
      [
        "▁l",
        "im"
      ],
      [
        "▁fr",
        "ont"
      ],
      [
        "▁so",
        "on"
      ],
      [
        "▁somet",
        "imes"
      ],
      [
        "▁t",
        "reat"
      ],
      [
        "▁s",
        "ent"
      ],
      [
        "▁f",
        "re"
      ],
      [
        "ar",
        "ing"
      ],
      [
        "▁ch",
        "air"
      ],
      [
        "▁new",
        "s"
      ],
      [
        "▁youn",
        "g"
      ],
      [
        "ut",
        "es"
      ],
      [
        "▁sh",
        "akes"
      ],
      [
        "ag",
        "o"
      ],
      [
        "▁work",
        "ing"
      ],
      [
        "▁rev",
        "iew"
      ],
      [
        "▁gre",
        "en"
      ],
      [
        "▁al",
        "ong"
      ],
      [
        "▁belie",
        "ve"
      ],
      [
        "▁c",
        "up"
      ],
      [
        "it",
        "er"
      ],
      [
        "▁of",
        "ten"
      ],
      [
        "ro",
        "om"
      ],
      [
        "pe",
        "are"
      ],
      [
        "▁qu",
        "ite"
      ],
      [
        "▁hou",
        "ston"
      ],
      [
        "▁happ",
        "y"
      ],
      [
        "▁cle",
        "ar"
      ],
      [
        "▁shakes",
        "peare"
      ],
      [
        "▁c",
        "oup"
      ],
      [
        "▁m",
        "ess"
      ],
      [
        "▁h",
        "alf"
      ],
      [
        "▁e",
        "gg"
      ],
      [
        "▁e",
        "ither"
      ],
      [
        "▁he",
        "alth"
      ],
      [
        "us",
        "h"
      ],
      [
        "▁col",
        "or"
      ],
      [
        "hu",
        "h"
      ],
      [
        "▁t",
        "en"
      ],
      [
        "▁f",
        "ile"
      ],
      [
        "▁b",
        "ill"
      ],
      [
        "▁m",
        "akes"
      ],
      [
        "▁to",
        "wn"
      ],
      [
        "▁g",
        "ave"
      ],
      [
        "▁re",
        "se"
      ],
      [
        "▁se",
        "a"
      ],
      [
        "▁gr",
        "and"
      ],
      [
        "▁uh",
        "huh"
      ],
      [
        "g",
        "ed"
      ],
      [
        "at",
        "ic"
      ],
      [
        "an",
        "a"
      ],
      [
        "▁is",
        "land"
      ],
      [
        "id",
        "es"
      ],
      [
        "▁am",
        "ount"
      ],
      [
        "▁ph",
        "one"
      ],
      [
        "▁sp",
        "ace"
      ],
      [
        "ens",
        "ive"
      ],
      [
        "o",
        "nd"
      ],
      [
        "▁s",
        "ound"
      ],
      [
        "▁b",
        "an"
      ],
      [
        "▁c",
        "amp"
      ],
      [
        "er",
        "n"
      ],
      [
        "▁m",
        "ic"
      ],
      [
        "st",
        "op"
      ],
      [
        "▁ch",
        "ic"
      ],
      [
        "ain",
        "s"
      ],
      [
        "▁any",
        "one"
      ],
      [
        "▁bl",
        "ue"
      ],
      [
        "▁quest",
        "ions"
      ],
      [
        "▁bir",
        "th"
      ],
      [
        "c",
        "hed"
      ],
      [
        "o",
        "b"
      ],
      [
        "▁d",
        "a"
      ],
      [
        "en",
        "ix"
      ],
      [
        "om",
        "en"
      ],
      [
        "▁e",
        "ight"
      ],
      [
        "ct",
        "or"
      ],
      [
        "▁with",
        "in"
      ],
      [
        "▁str",
        "ong"
      ],
      [
        "▁pho",
        "enix"
      ],
      [
        "i",
        "ans"
      ],
      [
        "re",
        "t"
      ],
      [
        "im",
        "e"
      ],
      [
        "▁other",
        "s"
      ],
      [
        "▁part",
        "y"
      ],
      [
        "▁enj",
        "oy"
      ],
      [
        "▁aug",
        "ust"
      ],
      [
        "▁chic",
        "ago"
      ],
      [
        "l",
        "oy"
      ],
      [
        "o",
        "ice"
      ],
      [
        "▁t",
        "able"
      ],
      [
        "▁s",
        "we"
      ],
      [
        "▁st",
        "uff"
      ],
      [
        "▁whe",
        "ther"
      ],
      [
        "ist",
        "an"
      ],
      [
        "▁hu",
        "h"
      ],
      [
        "▁contro",
        "l"
      ],
      [
        "l",
        "ine"
      ],
      [
        "▁",
        "q"
      ],
      [
        "▁t",
        "ick"
      ],
      [
        "▁f",
        "ut"
      ],
      [
        "▁l",
        "as"
      ],
      [
        "am",
        "i"
      ],
      [
        "▁so",
        "l"
      ],
      [
        "▁ex",
        "ce"
      ],
      [
        "▁1",
        "7"
      ],
      [
        "us",
        "ed"
      ],
      [
        "▁19",
        "9"
      ],
      [
        "l",
        "f"
      ],
      [
        "s",
        "h"
      ],
      [
        "▁c",
        "ook"
      ],
      [
        "▁p",
        "age"
      ],
      [
        "▁off",
        "ic"
      ],
      [
        "▁non",
        "stop"
      ],
      [
        "c",
        "um"
      ],
      [
        "▁ro",
        "b"
      ],
      [
        "▁mil",
        "it"
      ],
      [
        "▁start",
        "ed"
      ],
      [
        "▁wo",
        "nder"
      ],
      [
        "▁sim",
        "p"
      ],
      [
        "e",
        "ad"
      ],
      [
        "▁f",
        "ix"
      ],
      [
        "▁c",
        "ir"
      ],
      [
        "▁le",
        "vel"
      ],
      [
        "▁o",
        "cc"
      ],
      [
        "▁f",
        "ire"
      ],
      [
        "▁m",
        "ag"
      ],
      [
        "▁sh",
        "op"
      ],
      [
        "▁su",
        "c"
      ],
      [
        "ul",
        "ation"
      ],
      [
        "te",
        "mber"
      ],
      [
        "▁inst",
        "ead"
      ],
      [
        "▁cur",
        "rent"
      ],
      [
        "▁pie",
        "ce"
      ],
      [
        "st",
        "er"
      ],
      [
        "▁com",
        "es"
      ],
      [
        "un",
        "g"
      ],
      [
        "▁cons",
        "ider"
      ],
      [
        "▁aut",
        "h"
      ],
      [
        "▁hour",
        "s"
      ],
      [
        "▁sep",
        "tember"
      ],
      [
        "er",
        "ing"
      ],
      [
        "▁ac",
        "ross"
      ],
      [
        "oc",
        "r"
      ],
      [
        "▁talk",
        "ing"
      ],
      [
        "▁ty",
        "pe"
      ],
      [
        "▁earli",
        "est"
      ],
      [
        "▁",
        "er"
      ],
      [
        "re",
        "w"
      ],
      [
        "▁o",
        "'"
      ],
      [
        "▁m",
        "ill"
      ],
      [
        "▁de",
        "ath"
      ],
      [
        "▁so",
        "ci"
      ],
      [
        "▁so",
        "cial"
      ],
      [
        "▁en",
        "v"
      ],
      [
        "▁en",
        "ron"
      ],
      [
        "▁qu",
        "ick"
      ],
      [
        "▁ide",
        "a"
      ],
      [
        "g",
        "ress"
      ],
      [
        "▁se",
        "en"
      ],
      [
        "▁su",
        "gg"
      ],
      [
        "▁am",
        "ong"
      ],
      [
        "▁includ",
        "ing"
      ],
      [
        "▁stre",
        "et"
      ],
      [
        "▁sugg",
        "est"
      ],
      [
        "i",
        "od"
      ],
      [
        "▁f",
        "el"
      ],
      [
        "▁f",
        "ish"
      ],
      [
        "▁l",
        "ic"
      ],
      [
        "le",
        "ct"
      ],
      [
        "▁or",
        "ig"
      ],
      [
        "▁su",
        "mm"
      ],
      [
        "▁ab",
        "e"
      ],
      [
        "▁up",
        "on"
      ],
      [
        "av",
        "or"
      ],
      [
        "▁ind",
        "e"
      ],
      [
        "▁count",
        "ries"
      ],
      [
        "▁prot",
        "ect"
      ],
      [
        "▁a",
        "ge"
      ],
      [
        "▁p",
        "ark"
      ],
      [
        "is",
        "ter"
      ],
      [
        "el",
        "s"
      ],
      [
        "▁recomme",
        "nd"
      ],
      [
        "▁flo",
        "or"
      ],
      [
        "m",
        "ing"
      ],
      [
        "▁o",
        "pt"
      ],
      [
        "in",
        "ation"
      ],
      [
        "▁f",
        "ine"
      ],
      [
        "▁c",
        "ause"
      ],
      [
        "on",
        "es"
      ],
      [
        "▁y",
        "a"
      ],
      [
        "itt",
        "ing"
      ],
      [
        "▁pe",
        "ace"
      ],
      [
        "▁gu",
        "ys"
      ],
      [
        "▁dif",
        "f"
      ],
      [
        "▁bir",
        "d"
      ],
      [
        "▁fut",
        "ure"
      ],
      [
        "▁d",
        "ark"
      ],
      [
        "▁p",
        "ull"
      ],
      [
        "▁ch",
        "ick"
      ],
      [
        "▁per",
        "cent"
      ],
      [
        "▁loc",
        "al"
      ],
      [
        "▁mi",
        "ami"
      ],
      [
        "▁polit",
        "ical"
      ],
      [
        "c",
        "rib"
      ],
      [
        "g",
        "as"
      ],
      [
        "▁i",
        "d"
      ],
      [
        "▁g",
        "iven"
      ],
      [
        "as",
        "ter"
      ],
      [
        "▁ha",
        "nds"
      ],
      [
        "ac",
        "y"
      ],
      [
        "▁or",
        "gan"
      ],
      [
        "▁al",
        "th"
      ],
      [
        "▁bec",
        "ome"
      ],
      [
        "u",
        "ary"
      ],
      [
        "▁t",
        "aken"
      ],
      [
        "▁w",
        "est"
      ],
      [
        "▁s",
        "ar"
      ],
      [
        "▁m",
        "ot"
      ],
      [
        "▁to",
        "ron"
      ],
      [
        "▁on",
        "es"
      ],
      [
        "ur",
        "y"
      ],
      [
        "▁ch",
        "ina"
      ],
      [
        "▁per",
        "iod"
      ],
      [
        "cl",
        "ock"
      ],
      [
        "▁gu",
        "ess"
      ],
      [
        "--------",
        "--------"
      ],
      [
        "▁jun",
        "e"
      ],
      [
        "▁alth",
        "ough"
      ],
      [
        "▁toron",
        "to"
      ],
      [
        "r",
        "ation"
      ],
      [
        "▁f",
        "ight"
      ],
      [
        "▁he",
        "ard"
      ],
      [
        "▁all",
        "ow"
      ],
      [
        "▁al",
        "right"
      ],
      [
        "▁qu",
        "ality"
      ],
      [
        "▁ro",
        "ck"
      ],
      [
        "▁pict",
        "ure"
      ],
      [
        "▁prof",
        "ess"
      ],
      [
        "▁univers",
        "ity"
      ],
      [
        "▁m",
        "ine"
      ],
      [
        "is",
        "ing"
      ],
      [
        "▁g",
        "one"
      ],
      [
        "le",
        "y"
      ],
      [
        "um",
        "b"
      ],
      [
        "▁cl",
        "ot"
      ],
      [
        "▁mo",
        "v"
      ],
      [
        "og",
        "rap"
      ],
      [
        "▁min",
        "utes"
      ],
      [
        "▁ve",
        "gas"
      ],
      [
        "▁mark",
        "et"
      ],
      [
        "▁trave",
        "l"
      ],
      [
        "r",
        "al"
      ],
      [
        "r",
        "il"
      ],
      [
        "ou",
        "ch"
      ],
      [
        "it",
        "c"
      ],
      [
        "ur",
        "ity"
      ],
      [
        "am",
        "ed"
      ],
      [
        "▁r",
        "a"
      ],
      [
        "ort",
        "un"
      ],
      [
        "▁need",
        "s"
      ],
      [
        "▁coll",
        "ect"
      ],
      [
        "▁doll",
        "ars"
      ],
      [
        "▁http://",
        "www"
      ],
      [
        "▁o'",
        "clock"
      ],
      [
        "▁fel",
        "t"
      ],
      [
        "o",
        "k"
      ],
      [
        "▁s",
        "or"
      ],
      [
        "▁b",
        "ag"
      ],
      [
        "▁be",
        "ar"
      ],
      [
        "▁st",
        "aff"
      ],
      [
        "▁de",
        "b"
      ],
      [
        "▁de",
        "ad"
      ],
      [
        "▁tr",
        "ad"
      ],
      [
        "▁ex",
        "cept"
      ],
      [
        "qu",
        "e"
      ],
      [
        "▁know",
        "n"
      ],
      [
        "▁read",
        "y"
      ],
      [
        "▁rep",
        "res"
      ],
      [
        "▁ge",
        "or"
      ],
      [
        "▁w",
        "omen"
      ],
      [
        "▁f",
        "ur"
      ],
      [
        "ic",
        "y"
      ],
      [
        "▁or",
        "land"
      ],
      [
        "▁no",
        "on"
      ],
      [
        "▁work",
        "s"
      ],
      [
        "ious",
        "ly"
      ],
      [
        "▁vis",
        "it"
      ],
      [
        "▁def",
        "in"
      ],
      [
        "▁follow",
        "ing"
      ],
      [
        "▁http://www",
        "."
      ],
      [
        "▁orland",
        "o"
      ],
      [
        "▁l",
        "ake"
      ],
      [
        "▁an",
        "al"
      ],
      [
        "▁k",
        "ill"
      ],
      [
        "ie",
        "f"
      ],
      [
        "▁co",
        "ld"
      ],
      [
        "e",
        "ll"
      ],
      [
        "am",
        "ent"
      ],
      [
        "pe",
        "nd"
      ],
      [
        "▁qu",
        "inn"
      ],
      [
        "▁pre",
        "v"
      ],
      [
        "▁des",
        "ign"
      ],
      [
        "▁rest",
        "aur"
      ],
      [
        "▁ir",
        "an"
      ],
      [
        "▁orig",
        "in"
      ],
      [
        "▁w",
        "in"
      ],
      [
        "▁f",
        "if"
      ],
      [
        "▁b",
        "i"
      ],
      [
        "as",
        "es"
      ],
      [
        "ot",
        "t"
      ],
      [
        "▁ro",
        "ad"
      ],
      [
        "e",
        "c"
      ],
      [
        "▁a",
        "h"
      ],
      [
        "▁s",
        "our"
      ],
      [
        "▁p",
        "ress"
      ],
      [
        "▁for",
        "ward"
      ],
      [
        "▁st",
        "ory"
      ],
      [
        "ir",
        "on"
      ],
      [
        "▁sh",
        "all"
      ],
      [
        "pp",
        "ed"
      ],
      [
        "▁ar",
        "g"
      ],
      [
        "▁te",
        "am"
      ],
      [
        "▁look",
        "ed"
      ],
      [
        "▁mon",
        "t"
      ],
      [
        "ull",
        "y"
      ],
      [
        "▁sur",
        "pr"
      ],
      [
        "erg",
        "y"
      ],
      [
        "▁ans",
        "w"
      ],
      [
        "▁sor",
        "ry"
      ],
      [
        "▁m",
        "ummy"
      ],
      [
        "▁d",
        "ress"
      ],
      [
        "▁in",
        "it"
      ],
      [
        "ot",
        "te"
      ],
      [
        "▁se",
        "v"
      ],
      [
        "▁v",
        "ar"
      ],
      [
        "▁kn",
        "e"
      ],
      [
        "anc",
        "es"
      ],
      [
        "▁ac",
        "cept"
      ],
      [
        "▁em",
        "ail"
      ],
      [
        "▁sec",
        "urity"
      ],
      [
        "▁beh",
        "ind"
      ],
      [
        "▁anim",
        "als"
      ],
      [
        "▁env",
        "iron"
      ],
      [
        "e",
        "f"
      ],
      [
        "z",
        "a"
      ],
      [
        "▁t",
        "our"
      ],
      [
        "or",
        "ies"
      ],
      [
        "▁l",
        "at"
      ],
      [
        "▁e",
        "t"
      ],
      [
        "ro",
        "d"
      ],
      [
        "▁!",
        "!!"
      ],
      [
        "fe",
        "rence"
      ],
      [
        "ra",
        "ft"
      ],
      [
        "▁gu",
        "y"
      ],
      [
        "/2",
        "00"
      ],
      [
        "▁del",
        "ta"
      ],
      [
        "▁charl",
        "otte"
      ],
      [
        "▁auth",
        "or"
      ],
      [
        "e",
        "red"
      ],
      [
        "u",
        "ation"
      ],
      [
        "▁w",
        "ife"
      ],
      [
        "at",
        "s"
      ],
      [
        "▁d",
        "on"
      ],
      [
        "an",
        "e"
      ],
      [
        "▁l",
        "ate"
      ],
      [
        "▁li",
        "ving"
      ],
      [
        "▁tr",
        "uck"
      ],
      [
        "os",
        "p"
      ],
      [
        "▁sc",
        "ient"
      ],
      [
        "▁ap",
        "ril"
      ],
      [
        "ne",
        "y"
      ],
      [
        "▁ed",
        "uc"
      ],
      [
        "▁eng",
        "lish"
      ],
      [
        "idd",
        "le"
      ],
      [
        "f",
        "fe"
      ],
      [
        "g",
        "ot"
      ],
      [
        "r",
        "ia"
      ],
      [
        "▁s",
        "il"
      ],
      [
        "▁s",
        "and"
      ],
      [
        "▁f",
        "ac"
      ],
      [
        "▁d",
        "ue"
      ],
      [
        "▁en",
        "ergy"
      ],
      [
        "▁cl",
        "aim"
      ],
      [
        "▁ob",
        "s"
      ],
      [
        "▁spec",
        "ific"
      ],
      [
        "▁europe",
        "an"
      ],
      [
        "▁chr",
        "ist"
      ],
      [
        "▁suc",
        "cess"
      ],
      [
        "▁diff",
        "ic"
      ],
      [
        "n",
        "er"
      ],
      [
        "re",
        "me"
      ],
      [
        "er",
        "v"
      ],
      [
        "▁m",
        "iddle"
      ],
      [
        "▁p",
        "arent"
      ],
      [
        "▁ha",
        "m"
      ],
      [
        "▁an",
        "t"
      ],
      [
        "▁want",
        "s"
      ],
      [
        "▁us",
        "ually"
      ],
      [
        "ans",
        "as"
      ],
      [
        "▁acc",
        "ount"
      ],
      [
        "▁thir",
        "d"
      ],
      [
        "▁rese",
        "arch"
      ],
      [
        "▁l",
        "ost"
      ],
      [
        "▁in",
        "side"
      ],
      [
        "▁do",
        "gg"
      ],
      [
        "id",
        "ing"
      ],
      [
        "ra",
        "el"
      ],
      [
        "▁act",
        "iv"
      ],
      [
        "▁att",
        "ached"
      ],
      [
        "▁add",
        "ress"
      ],
      [
        "▁resp",
        "ons"
      ],
      [
        "f",
        "ully"
      ],
      [
        "▁",
        ">"
      ],
      [
        "▁d",
        "an"
      ],
      [
        "▁l",
        "ab"
      ],
      [
        "▁is",
        "rael"
      ],
      [
        "▁an",
        "n"
      ],
      [
        "▁ab",
        "s"
      ],
      [
        "if",
        "ul"
      ],
      [
        "▁te",
        "ac"
      ],
      [
        "▁new",
        "ark"
      ],
      [
        "sel",
        "ves"
      ],
      [
        "▁inter",
        "v"
      ],
      [
        "▁inv",
        "ol"
      ],
      [
        "▁mat",
        "ter"
      ],
      [
        "▁die",
        "go"
      ],
      [
        "▁repres",
        "ent"
      ],
      [
        "g",
        "es"
      ],
      [
        "i",
        "um"
      ],
      [
        "u",
        "red"
      ],
      [
        "▁w",
        "oman"
      ],
      [
        "▁f",
        "air"
      ],
      [
        "at",
        "ure"
      ],
      [
        "▁h",
        "ors"
      ],
      [
        "▁k",
        "itt"
      ],
      [
        "if",
        "y"
      ],
      [
        "if",
        "ied"
      ],
      [
        "▁ob",
        "ject"
      ],
      [
        "▁meet",
        "ing"
      ],
      [
        "z",
        "ac"
      ],
      [
        "re",
        "al"
      ],
      [
        "▁c",
        "am"
      ],
      [
        "▁d",
        "ow"
      ],
      [
        "it",
        "ive"
      ],
      [
        "▁re",
        "le"
      ],
      [
        "▁me",
        "mber"
      ],
      [
        "▁r",
        "ide"
      ],
      [
        "▁an",
        "ge"
      ],
      [
        "▁su",
        "per"
      ],
      [
        "▁te",
        "mp"
      ],
      [
        "▁cl",
        "im"
      ],
      [
        "▁exp",
        "ress"
      ],
      [
        "▁bal",
        "zac"
      ],
      [
        "▁reg",
        "ard"
      ],
      [
        "▁att",
        "ack"
      ],
      [
        "▁acc",
        "ord"
      ],
      [
        "▁fur",
        "ther"
      ],
      [
        "u",
        "ed"
      ],
      [
        "u",
        "le"
      ],
      [
        "▁t",
        "ur"
      ],
      [
        "▁a",
        "ust"
      ],
      [
        "▁f",
        "ig"
      ],
      [
        "▁l",
        "au"
      ],
      [
        "▁li",
        "k"
      ],
      [
        "▁af",
        "f"
      ],
      [
        "▁per",
        "form"
      ],
      [
        "▁milit",
        "ary"
      ],
      [
        "d",
        "d"
      ],
      [
        "▁",
        "<"
      ],
      [
        "▁s",
        "en"
      ],
      [
        "at",
        "ors"
      ],
      [
        "ent",
        "ial"
      ],
      [
        "▁do",
        "cum"
      ],
      [
        "▁spe",
        "ak"
      ],
      [
        "▁wr",
        "ong"
      ],
      [
        "▁add",
        "ition"
      ],
      [
        "▁prov",
        "ide"
      ],
      [
        "▁dem",
        "ocr"
      ],
      [
        "▁word",
        "s"
      ],
      [
        "▁indian",
        "apolis"
      ],
      [
        "▁es",
        "pe"
      ],
      [
        "▁seat",
        "tle"
      ],
      [
        "▁beg",
        "in"
      ],
      [
        "▁beaut",
        "iful"
      ],
      [
        "▁geor",
        "ge"
      ],
      [
        "1",
        "3"
      ],
      [
        "▁p",
        "ort"
      ],
      [
        "on",
        "y"
      ],
      [
        "ve",
        "land"
      ],
      [
        "oo",
        "se"
      ],
      [
        "▁ph",
        "ot"
      ],
      [
        "▁pre",
        "p"
      ],
      [
        "▁imp",
        "ro"
      ],
      [
        "▁serv",
        "ices"
      ],
      [
        "▁cle",
        "veland"
      ],
      [
        "ci",
        "ally"
      ],
      [
        "▁cop",
        "y"
      ],
      [
        "▁environ",
        "ment"
      ],
      [
        "r",
        "ied"
      ],
      [
        "▁",
        "%"
      ],
      [
        "▁s",
        "ort"
      ],
      [
        "▁d",
        "in"
      ],
      [
        "▁j",
        "an"
      ],
      [
        "▁k",
        "ansas"
      ],
      [
        "▁de",
        "cl"
      ],
      [
        "▁comm",
        "on"
      ],
      [
        "▁ear",
        "th"
      ],
      [
        "▁mem",
        "bers"
      ],
      [
        "▁hist",
        "ory"
      ],
      [
        "▁coup",
        "le"
      ],
      [
        "h",
        "a"
      ],
      [
        "▁b",
        "ow"
      ],
      [
        "▁b",
        "orn"
      ],
      [
        "ot",
        "s"
      ],
      [
        "▁pr",
        "act"
      ],
      [
        "▁right",
        "s"
      ],
      [
        "▁ind",
        "ust"
      ],
      [
        "▁thr",
        "ow"
      ],
      [
        "▁requ",
        "est"
      ],
      [
        "====",
        "===="
      ],
      [
        "▁proper",
        "ty"
      ],
      [
        "▁exce",
        "ll"
      ],
      [
        "▁dow",
        "nt"
      ],
      [
        "▁b",
        "ath"
      ],
      [
        "▁l",
        "unch"
      ],
      [
        "ll",
        "y"
      ],
      [
        "▁your",
        "self"
      ],
      [
        "iv",
        "al"
      ],
      [
        "▁ind",
        "ia"
      ],
      [
        "▁eas",
        "y"
      ],
      [
        "▁comple",
        "te"
      ],
      [
        "▁kne",
        "w"
      ],
      [
        "l",
        "s"
      ],
      [
        "▁",
        "#"
      ],
      [
        "▁p",
        "al"
      ],
      [
        "▁he",
        "ll"
      ],
      [
        "▁j",
        "ud"
      ],
      [
        "▁de",
        "v"
      ],
      [
        "▁fe",
        "et"
      ],
      [
        "▁po",
        "or"
      ],
      [
        "▁det",
        "ail"
      ],
      [
        "____",
        "____"
      ],
      [
        "▁hur",
        "t"
      ],
      [
        "▁kid",
        "s"
      ],
      [
        "▁birth",
        "day"
      ],
      [
        "▁espe",
        "cially"
      ],
      [
        "▁downt",
        "own"
      ],
      [
        "c",
        "raft"
      ],
      [
        "f",
        "ast"
      ],
      [
        "g",
        "le"
      ],
      [
        "i",
        "gh"
      ],
      [
        "o",
        "ke"
      ],
      [
        "u",
        "ce"
      ],
      [
        "▁f",
        "ing"
      ],
      [
        "▁it",
        "em"
      ],
      [
        "▁go",
        "d"
      ],
      [
        "ab",
        "ility"
      ],
      [
        "▁mo",
        "ving"
      ],
      [
        "▁think",
        "ing"
      ],
      [
        "▁res",
        "pect"
      ],
      [
        "▁long",
        "er"
      ],
      [
        "▁turn",
        "ed"
      ],
      [
        "▁sub",
        "ject"
      ],
      [
        "▁mic",
        "ro"
      ],
      [
        "▁soci",
        "ety"
      ],
      [
        "l",
        "ished"
      ],
      [
        "▁o",
        "il"
      ],
      [
        "▁d",
        "i"
      ],
      [
        "▁p",
        "an"
      ],
      [
        "▁p",
        "ack"
      ],
      [
        "ll",
        "ing"
      ],
      [
        "▁me",
        "as"
      ],
      [
        "ol",
        "ution"
      ],
      [
        "▁ab",
        "ove"
      ],
      [
        "▁app",
        "lic"
      ],
      [
        "▁fin",
        "anc"
      ],
      [
        "▁book",
        "s"
      ],
      [
        "▁requ",
        "ire"
      ],
      [
        "▁iss",
        "ue"
      ],
      [
        "▁break",
        "fast"
      ],
      [
        "▁coun",
        "ter"
      ],
      [
        "b",
        "ook"
      ],
      [
        "h",
        "aps"
      ],
      [
        "▁s",
        "ad"
      ],
      [
        "▁l",
        "ow"
      ],
      [
        "▁l",
        "ay"
      ],
      [
        "▁l",
        "ad"
      ],
      [
        "▁st",
        "ar"
      ],
      [
        "▁st",
        "ra"
      ],
      [
        "▁se",
        "nd"
      ],
      [
        "▁j",
        "www"
      ],
      [
        "▁but",
        "ton"
      ],
      [
        "▁ta",
        "x"
      ],
      [
        "▁ke",
        "y"
      ],
      [
        "▁americ",
        "a"
      ],
      [
        "air",
        "s"
      ],
      [
        "▁gl",
        "ass"
      ],
      [
        "▁high",
        "ly"
      ],
      [
        "▁hot",
        "el"
      ],
      [
        "▁proble",
        "ms"
      ],
      [
        "▁econom",
        "ic"
      ],
      [
        "▁rece",
        "ived"
      ],
      [
        "▁agree",
        "ment"
      ],
      [
        "ograp",
        "h"
      ],
      [
        "▁excell",
        "ent"
      ],
      [
        "b",
        "it"
      ],
      [
        "▁f",
        "ill"
      ],
      [
        "▁b",
        "at"
      ],
      [
        "▁g",
        "as"
      ],
      [
        "▁r",
        "ather"
      ],
      [
        "▁se",
        "ven"
      ],
      [
        "▁pl",
        "aces"
      ],
      [
        "▁ye",
        "llow"
      ],
      [
        "▁te",
        "x"
      ],
      [
        "▁pr",
        "iv"
      ],
      [
        "▁per",
        "haps"
      ],
      [
        "▁let",
        "ter"
      ],
      [
        "▁say",
        "ing"
      ],
      [
        "▁att",
        "ention"
      ],
      [
        "▁inv",
        "est"
      ],
      [
        "ward",
        "s"
      ],
      [
        "▁emp",
        "loy"
      ],
      [
        "▁pur",
        "p"
      ],
      [
        "▁eff",
        "ort"
      ],
      [
        "▁da",
        "ily"
      ],
      [
        "c",
        "r"
      ],
      [
        "▁f",
        "avor"
      ],
      [
        "ou",
        "ble"
      ],
      [
        "▁m",
        "id"
      ],
      [
        "▁e",
        "ast"
      ],
      [
        "▁do",
        "ctor"
      ],
      [
        "il",
        "ities"
      ],
      [
        "ul",
        "a"
      ],
      [
        "▁can",
        "ad"
      ],
      [
        "?",
        "?"
      ],
      [
        "p",
        "ing"
      ],
      [
        "x",
        "ic"
      ],
      [
        "▁t",
        "ast"
      ],
      [
        "▁c",
        "iv"
      ],
      [
        "it",
        "ions"
      ],
      [
        "▁re",
        "co"
      ],
      [
        "▁r",
        "ich"
      ],
      [
        "▁r",
        "uss"
      ],
      [
        "ain",
        "ing"
      ],
      [
        "▁al",
        "one"
      ],
      [
        "▁see",
        "med"
      ],
      [
        "▁ty",
        "p"
      ],
      [
        "▁summ",
        "er"
      ],
      [
        "in",
        "y"
      ],
      [
        "▁to",
        "t"
      ],
      [
        "▁n",
        "et"
      ],
      [
        "▁r",
        "ul"
      ],
      [
        "▁tr",
        "ied"
      ],
      [
        "▁see",
        "ms"
      ],
      [
        "▁ad",
        "min"
      ],
      [
        "▁comp",
        "ut"
      ],
      [
        "▁exp",
        "ensive"
      ],
      [
        "▁bo",
        "dy"
      ],
      [
        "▁3",
        "0"
      ],
      [
        "▁str",
        "uct"
      ],
      [
        "▁coll",
        "e"
      ],
      [
        "▁contin",
        "ental"
      ],
      [
        "▁ey",
        "e"
      ],
      [
        "▁est",
        "ab"
      ],
      [
        "▁diffic",
        "ult"
      ],
      [
        "/",
        "1"
      ],
      [
        "h",
        "od"
      ],
      [
        "▁h",
        "at"
      ],
      [
        "▁my",
        "self"
      ],
      [
        "▁su",
        "s"
      ],
      [
        "ang",
        "er"
      ],
      [
        "▁eat",
        "ing"
      ],
      [
        "▁min",
        "ute"
      ],
      [
        "▁fu",
        "nd"
      ],
      [
        "▁chick",
        "en"
      ],
      [
        "▁parent",
        "s"
      ],
      [
        "w",
        "ork"
      ],
      [
        "▁t",
        "akes"
      ],
      [
        "▁m",
        "ass"
      ],
      [
        "nd",
        "red"
      ],
      [
        "▁d",
        "om"
      ],
      [
        "▁h",
        "ol"
      ],
      [
        "▁l",
        "ink"
      ],
      [
        "▁be",
        "ach"
      ],
      [
        "ur",
        "ch"
      ],
      [
        "ter",
        "day"
      ],
      [
        "▁ex",
        "ist"
      ],
      [
        "▁en",
        "s"
      ],
      [
        "mp",
        "h"
      ],
      [
        "▁list",
        "en"
      ],
      [
        "▁des",
        "crib"
      ],
      [
        "▁yes",
        "terday"
      ],
      [
        "▁fin",
        "ally"
      ],
      [
        "▁bel",
        "ow"
      ],
      [
        "▁gl",
        "ob"
      ],
      [
        "▁econom",
        "y"
      ],
      [
        "▁val",
        "ue"
      ],
      [
        "▁dogg",
        "ie"
      ],
      [
        "5",
        "0"
      ],
      [
        "f",
        "er"
      ],
      [
        "k",
        "en"
      ],
      [
        "▁t",
        "ouch"
      ],
      [
        "he",
        "ad"
      ],
      [
        "▁.",
        "."
      ],
      [
        "re",
        "ct"
      ],
      [
        "▁c",
        "it"
      ],
      [
        "▁h",
        "ig"
      ],
      [
        "▁g",
        "er"
      ],
      [
        "▁ex",
        "c"
      ],
      [
        "▁no",
        "se"
      ],
      [
        "▁fe",
        "ll"
      ],
      [
        "▁wee",
        "ks"
      ],
      [
        "▁fun",
        "ny"
      ],
      [
        "▁partic",
        "ip"
      ],
      [
        "▁develop",
        "ment"
      ],
      [
        "▁nat",
        "ural"
      ],
      [
        "▁id",
        "ent"
      ],
      [
        "▁restaur",
        "ant"
      ],
      [
        "▁tex",
        "as"
      ],
      [
        "▁a",
        "ch"
      ],
      [
        "▁s",
        "on"
      ],
      [
        "▁d",
        "est"
      ],
      [
        "▁h",
        "op"
      ],
      [
        "▁we",
        "ar"
      ],
      [
        "▁st",
        "y"
      ],
      [
        "▁ne",
        "cess"
      ],
      [
        "ill",
        "e"
      ],
      [
        "iz",
        "ation"
      ],
      [
        "▁comm",
        "itt"
      ],
      [
        "▁cr",
        "it"
      ],
      [
        "▁americ",
        "ans"
      ],
      [
        "▁airl",
        "ine"
      ],
      [
        "▁hu",
        "ndred"
      ],
      [
        "▁det",
        "er"
      ],
      [
        "▁cour",
        "t"
      ],
      [
        "▁commun",
        "ity"
      ],
      [
        "▁lou",
        "is"
      ],
      [
        "h",
        "t"
      ],
      [
        "p",
        "ed"
      ],
      [
        "▁m",
        "outh"
      ],
      [
        "▁d",
        "ate"
      ],
      [
        "is",
        "on"
      ],
      [
        "as",
        "ing"
      ],
      [
        "ut",
        "ions"
      ],
      [
        "▁we",
        "b"
      ],
      [
        "ke",
        "y"
      ],
      [
        "▁sp",
        "r"
      ],
      [
        "▁bot",
        "t"
      ],
      [
        "▁ent",
        "ire"
      ],
      [
        "▁offic",
        "ial"
      ],
      [
        "▁glob",
        "al"
      ],
      [
        "g",
        "ing"
      ],
      [
        "i",
        "ate"
      ],
      [
        "k",
        "a"
      ],
      [
        "o",
        "on"
      ],
      [
        "▁f",
        "oc"
      ],
      [
        "ic",
        "le"
      ],
      [
        "▁he",
        "art"
      ],
      [
        "id",
        "ence"
      ],
      [
        "▁se",
        "lf"
      ],
      [
        "▁j",
        "ap"
      ],
      [
        "▁con",
        "v"
      ],
      [
        "▁v",
        "ide"
      ],
      [
        "▁co",
        "de"
      ],
      [
        "▁air",
        "craft"
      ],
      [
        "▁ev",
        "ent"
      ],
      [
        "▁sc",
        "hed"
      ],
      [
        "▁cal",
        "if"
      ],
      [
        "c",
        "il"
      ],
      [
        "▁w",
        "all"
      ],
      [
        "▁c",
        "red"
      ],
      [
        "▁he",
        "av"
      ],
      [
        "▁be",
        "gan"
      ],
      [
        "▁j",
        "ump"
      ],
      [
        "▁sh",
        "ip"
      ],
      [
        "and",
        "s"
      ],
      [
        "▁af",
        "ric"
      ],
      [
        "▁mom",
        "ent"
      ],
      [
        "ren",
        "ch"
      ],
      [
        "▁ben",
        "ef"
      ],
      [
        "▁accord",
        "ing"
      ],
      [
        "▁jap",
        "an"
      ],
      [
        "▁calif",
        "orn"
      ],
      [
        "i",
        "pe"
      ],
      [
        "r",
        "u"
      ],
      [
        "▁s",
        "ite"
      ],
      [
        "re",
        "am"
      ],
      [
        "▁m",
        "ad"
      ],
      [
        "nd",
        "on"
      ],
      [
        "▁n",
        "t"
      ],
      [
        "▁li",
        "ves"
      ],
      [
        "▁ex",
        "ec"
      ],
      [
        "▁lo",
        "ndon"
      ],
      [
        "▁bo",
        "at"
      ],
      [
        "▁act",
        "ion"
      ],
      [
        "ict",
        "ion"
      ],
      [
        "▁sl",
        "ow"
      ],
      [
        "▁cre",
        "ate"
      ],
      [
        "▁inf",
        "l"
      ],
      [
        "e",
        "y"
      ],
      [
        "g",
        "y"
      ],
      [
        "l",
        "er"
      ],
      [
        "s",
        "on"
      ],
      [
        "▁t",
        "re"
      ],
      [
        "▁s",
        "itting"
      ],
      [
        "▁f",
        "ail"
      ],
      [
        "▁m",
        "os"
      ],
      [
        "▁it",
        "self"
      ],
      [
        "et",
        "h"
      ],
      [
        "im",
        "a"
      ],
      [
        "▁dis",
        "pl"
      ],
      [
        "▁cont",
        "act"
      ],
      [
        "▁dr",
        "ive"
      ],
      [
        "▁po",
        "ck"
      ],
      [
        "▁im",
        "ag"
      ],
      [
        "▁met",
        "hod"
      ],
      [
        "▁intern",
        "et"
      ],
      [
        "▁sev",
        "enth"
      ],
      [
        "▁ange",
        "les"
      ],
      [
        "▁admin",
        "ist"
      ],
      [
        "▁ach",
        "ie"
      ],
      [
        "a",
        "pe"
      ],
      [
        "i",
        "ation"
      ],
      [
        "▁o",
        "ct"
      ],
      [
        "▁d",
        "iv"
      ],
      [
        "▁to",
        "w"
      ],
      [
        "▁n",
        "orm"
      ],
      [
        "it",
        "ch"
      ],
      [
        "ar",
        "r"
      ],
      [
        "▁e",
        "p"
      ],
      [
        "ac",
        "ed"
      ],
      [
        "▁r",
        "is"
      ],
      [
        "▁tr",
        "ue"
      ],
      [
        "ist",
        "ic"
      ],
      [
        "▁see",
        "m"
      ],
      [
        "ast",
        "ic"
      ],
      [
        "▁man",
        "ag"
      ],
      [
        "ud",
        "e"
      ],
      [
        "▁ke",
        "pt"
      ],
      [
        "▁pos",
        "ition"
      ],
      [
        "▁fo",
        "ot"
      ],
      [
        "▁girl",
        "s"
      ],
      [
        "▁atte",
        "mp"
      ],
      [
        "▁californ",
        "ia"
      ],
      [
        "o",
        "ver"
      ],
      [
        "▁w",
        "ays"
      ],
      [
        "▁f",
        "rench"
      ],
      [
        "▁c",
        "ross"
      ],
      [
        "▁p",
        "u"
      ],
      [
        "▁p",
        "ush"
      ],
      [
        "▁h",
        "on"
      ],
      [
        "▁st",
        "ation"
      ],
      [
        "▁se",
        "x"
      ],
      [
        "▁not",
        "e"
      ],
      [
        "res",
        "h"
      ],
      [
        "▁some",
        "body"
      ],
      [
        "▁te",
        "le"
      ],
      [
        "▁co",
        "ver"
      ],
      [
        "▁them",
        "selves"
      ],
      [
        "▁need",
        "ed"
      ],
      [
        "▁comp",
        "et"
      ],
      [
        "▁pol",
        "icy"
      ],
      [
        "led",
        "ge"
      ],
      [
        "▁interest",
        "ed"
      ],
      [
        "▁a",
        "ud"
      ],
      [
        "▁b",
        "ud"
      ],
      [
        "▁d",
        "ry"
      ],
      [
        "▁d",
        "ied"
      ],
      [
        "▁h",
        "oney"
      ],
      [
        "le",
        "ment"
      ],
      [
        "▁u",
        "."
      ],
      [
        "▁we",
        "bs"
      ],
      [
        "▁what",
        "ever"
      ],
      [
        "▁are",
        "as"
      ],
      [
        "▁de",
        "li"
      ],
      [
        "▁ch",
        "urch"
      ],
      [
        "▁mo",
        "der"
      ],
      [
        "▁car",
        "ry"
      ],
      [
        "▁char",
        "ac"
      ],
      [
        "▁mr",
        "."
      ],
      [
        "▁lear",
        "n"
      ],
      [
        "▁terr",
        "or"
      ],
      [
        "▁connect",
        "ion"
      ],
      [
        "▁answ",
        "er"
      ],
      [
        "▁et",
        "c"
      ],
      [
        "s",
        "y"
      ],
      [
        "he",
        "m"
      ],
      [
        "▁w",
        "ik"
      ],
      [
        "▁m",
        "er"
      ],
      [
        "▁m",
        "ention"
      ],
      [
        "id",
        "a"
      ],
      [
        "▁st",
        "ick"
      ],
      [
        "▁su",
        "ff"
      ],
      [
        "▁ex",
        "act"
      ],
      [
        "▁no",
        "ve"
      ],
      [
        "▁v",
        "i"
      ],
      [
        "▁v",
        "oice"
      ],
      [
        "▁!",
        "!"
      ],
      [
        "▁fe",
        "ed"
      ],
      [
        "▁200",
        "0"
      ],
      [
        "▁mar",
        "ch"
      ],
      [
        "▁contin",
        "ue"
      ],
      [
        "▁squ",
        "are"
      ],
      [
        "▁const",
        "it"
      ],
      [
        "▁docum",
        "ent"
      ],
      [
        "i",
        "ally"
      ],
      [
        "w",
        "s"
      ],
      [
        "▁i",
        "ll"
      ],
      [
        "▁b",
        "ase"
      ],
      [
        "▁d",
        "ig"
      ],
      [
        "▁n",
        "ine"
      ],
      [
        "▁me",
        "mph"
      ],
      [
        "her",
        "s"
      ],
      [
        "ore",
        "d"
      ],
      [
        "ib",
        "ility"
      ],
      [
        "▁bec",
        "ame"
      ],
      [
        "▁off",
        "er"
      ],
      [
        "▁br",
        "ought"
      ],
      [
        "▁per",
        "fect"
      ],
      [
        "▁wr",
        "iting"
      ],
      [
        "▁pol",
        "ice"
      ],
      [
        "▁leav",
        "es"
      ],
      [
        "▁rel",
        "ig"
      ],
      [
        "▁pet",
        "ers"
      ],
      [
[...]
