{
  "version": "1.0",
  "truncation": null,
  "padding": null,
  "added_tokens": [
    {
      "id": 0,
      "content": "[UNK]",
      "single_word": false,
      "lstrip": false,
      "rstrip": false,
      "normalized": false,
      "special": true
    },
    {
      "id": 1,
      "content": "[PAD]",
      "single_word": false,
      "lstrip": false,
      "rstrip": false,
      "normalized": false,
      "special": true
    },
    {
      "id": 2,
      "content": "[CLS]",
      "single_word": false,
      "lstrip": false,
      "rstrip": false,
      "normalized": false,
      "special": true
    },
    {
      "id": 3,
      "content": "[SEP]",
      "single_word": false,
      "lstrip": false,
      "rstrip": false,
      "normalized": false,
      "special": true
    },
    {
      "id": 4,
      "content": "[MASK]",
      "single_word": false,
      "lstrip": false,
      "rstrip": false,
      "normalized": false,
      "special": true
    }
  ],
  "normalizer": {
    "type": "Sequence",
    "normalizers": [
      {
        "type": "NFD"
      },
      {
        "type": "Lowercase"
      },
      {
        "type": "StripAccents"
      }
    ]
  },
  "pre_tokenizer": {
    "type": "Sequence",
    "pretokenizers": [
      {
        "type": "Metaspace",
        "replacement": "▁",
        "prepend_scheme": "always",
        "split": true
      }
    ]
  },
  "post_processor": {
    "type": "TemplateProcessing",
    "single": [
      {
        "SpecialToken": {
          "id": "[CLS]",
          "type_id": 0
        }
      },
      {
        "Sequence": {
          "id": "A",
          "type_id": 0
        }
      },
      {
        "SpecialToken": {
          "id": "[SEP]",
          "type_id": 0
        }
      }
    ],
    "pair": [
      {
        "SpecialToken": {
          "id": "[CLS]",
          "type_id": 0
        }
      },
      {
        "Sequence": {
          "id": "A",
          "type_id": 0
        }
      },
      {
        "SpecialToken": {
          "id": "[SEP]",
          "type_id": 0
        }
      },
      {
        "Sequence": {
          "id": "B",
          "type_id": 1
        }
      },
      {
        "SpecialToken": {
          "id": "[SEP]",
          "type_id": 1
        }
      }
    ],
    "special_tokens": {
      "[CLS]": {
        "id": "[CLS]",
        "ids": [
          2
        ],
        "tokens": [
          "[CLS]"
        ]
      },
      "[SEP]": {
        "id": "[SEP]",
        "ids": [
          3
        ],
        "tokens": [
          "[SEP]"
        ]
      }
    }
  },
  "decoder": {
    "type": "Metaspace",
    "replacement": "▁",
    "prepend_scheme": "always",
    "split": true
  },
  "model": {
    "type": "Unigram",
    "unk_id": 0,
    "vocab": [
      [
        "[UNK]",
        0.0
      ],
      [
        "[PAD]",
        0.0
      ],
      [
        "[CLS]",
        0.0
      ],
      [
        "[SEP]",
        0.0
      ],
      [
        "[MASK]",
        0.0
      ],
      [
        "▁",
        -2.108771654654346
      ],
      [
        ".",
        -3.2337250515149023
      ],
      [
        "s",
        -3.276295587289731
      ],
      [
        "▁the",
        -3.5623039447205294
      ],
      [
        ",",
        -3.833873617450749
      ],
      [
        "▁to",
        -4.056734465657737
      ],
      [
        "▁a",
        -4.205380035542657
      ],
      [
        "▁and",
        -4.2515858035915475
      ],
      [
        "▁i",
        -4.3740797230991895
      ],
      [
        "_",
        -4.431292713074097
      ],
      [
        "▁of",
        -4.484500969663536
      ],
      [
        "d",
        -4.5776473308516845
      ],
      [
        "ing",
        -4.59040943827087
      ],
      [
        "▁in",
        -4.613148779385201
      ],
      [
        "▁you",
        -4.671491723104351
      ],
      [
        "ed",
        -4.754984328759932
      ],
      [
        "y",
        -4.766020819416733
      ],
      [
        "▁it",
        -4.797398238547151
      ],
      [
        "t",
        -4.817701832412926
      ],
      [
        "?",
        -4.854027626657995
      ],
      [
        "▁that",
        -4.868277996314719
      ],
      [
        "e",
        -4.893647942649057
      ],
      [
        "▁is",
        -5.108627346670145
      ],
      [
        "▁'s",
        -5.1317875391689896
      ],
      [
        "a",
        -5.1877550526400675
      ],
      [
        "▁on",
        -5.271853219716972
      ],
      [
        "▁do",
        -5.336330702179547
      ],
      [
        "▁for",
        -5.346114022197529
      ],
      [
        "▁from",
        -5.3576130192616755
      ],
      [
        "ly",
        -5.397445503751536
      ],
      [
        "n",
        -5.43647832682459
      ],
      [
        "i",
        -5.464223127158464
      ],
      [
        "▁be",
        -5.484681103456978
      ],
      [
        "▁what",
        -5.492623119623605
      ],
      [
        "m",
        -5.5612965580751474
      ],
      [
        "o",
        -5.572716652707376
      ],
      [
        "▁this",
        -5.583475429442075
      ],
      [
        "▁was",
        -5.590047550967297
      ],
      [
        "▁he",
        -5.598994144087952
      ],
      [
        "▁with",
        -5.621720106511361
      ],
      [
        "h",
        -5.627591955863592
      ],
      [
        "▁are",
        -5.733040197997685
      ],
      [
        "▁we",
        -5.733201637107692
      ],
      [
        "▁have",
        -5.744373825376906
      ],
      [
        "'",
        -5.749768191098092
      ],
      [
        "n't",
        -5.758387789882374
      ],
      [
        "r",
        -5.760940137321976
      ],
      [
        "▁me",
        -5.8159598723037185
      ],
      [
        "▁flight",
        -5.842187050538557
      ],
      [
        "▁not",
        -5.8725747766439245
      ],
      [
        "▁my",
        -5.914543567160575
      ],
      [
        "▁like",
        -5.97075211535682
      ],
      [
        "▁go",
        -5.974439239116382
      ],
      [
        "\"",
        -6.005710974160694
      ],
      [
        "er",
        -6.021684932961898
      ],
      [
        "▁-",
        -6.068958259112651
      ],
      [
        "▁there",
        -6.0708481058462525
      ],
      [
        "▁at",
        -6.078993699942144
      ],
      [
        "▁they",
        -6.089396055632645
      ],
      [
        "▁can",
        -6.109392163857208
      ],
      [
        "▁but",
        -6.113595233600465
      ],
      [
        "▁all",
        -6.142888969579009
      ],
      [
        "▁so",
        -6.145021460774846
      ],
      [
        "▁one",
        -6.151838753174864
      ],
      [
        "▁as",
        -6.172452007484534
      ],
      [
        "l",
        -6.194379955753218
      ],
      [
        "▁no",
        -6.208976756807403
      ],
      [
        "▁your",
        -6.2324816311158795
      ],
      [
        "p",
        -6.28121855792234
      ],
      [
        "▁or",
        -6.281915235521667
      ],
      [
        "es",
        -6.309003398921888
      ],
      [
        "c",
        -6.326851095281766
      ],
      [
        "▁by",
        -6.3423411173682345
      ],
      [
        "al",
        -6.356878339208424
      ],
      [
        "▁his",
        -6.369205694190367
      ],
      [
        ")",
        -6.414058991134661
      ],
      [
        "f",
        -6.45715060604467
      ],
      [
        "▁will",
        -6.473039338846885
      ],
      [
        "▁(",
        -6.473329980800952
      ],
      [
        "▁get",
        -6.478112564993412
      ],
      [
        "▁if",
        -6.494948367712239
      ],
      [
        "▁had",
        -6.498745727025504
      ],
      [
        "▁she",
        -6.509083772568882
      ],
      [
        "▁an",
        -6.519577490780778
      ],
      [
        "▁woul",
        -6.523664206010972
      ],
      [
        "▁want",
        -6.537618813704669
      ],
      [
        "▁some",
        -6.541850582419907
      ],
      [
        "▁c",
        -6.5456402594758165
      ],
      [
        "▁did",
        -6.546946582620555
      ],
      [
        "▁up",
        -6.554181564185366
      ],
      [
        "▁de",
        -6.580142034501465
      ],
      [
        "▁know",
        -6.5826663652172455
      ],
      [
        "▁how",
        -6.597945079010639
      ],
      [
        "g",
        -6.599504272729888
      ],
      [
        "▁out",
        -6.602069516780535
      ],
      [
        "▁see",
        -6.63128364204411
      ],
      [
        "in",
        -6.660753370936356
      ],
      [
        "-",
        -6.660879993888774
      ],
      [
        "le",
        -6.664598936507641
      ],
      [
        "▁!",
        -6.671791249159245
      ],
      [
        "▁just",
        -6.685933866334847
      ],
      [
        "▁when",
        -6.705757256966827
      ],
      [
        "▁has",
        -6.715280973316197
      ],
      [
        "▁about",
        -6.720984998574765
      ],
      [
        "on",
        -6.72113769180942
      ],
      [
        "▁show",
        -6.751209105533271
      ],
      [
        "▁na",
        -6.763564041371944
      ],
      [
        "k",
        -6.771068434237632
      ],
      [
        "▁who",
        -6.786798402115953
      ],
      [
        "▁any",
        -6.7903846048713685
      ],
      [
        "▁here",
        -6.795293643382784
      ],
      [
        "▁were",
        -6.804065273507708
      ],
      [
        "▁which",
        -6.804420443459853
      ],
      [
        "▁her",
        -6.832754962720373
      ],
      [
        "▁look",
        -6.836969671552576
      ],
      [
        "▁now",
        -6.8437435735075445
      ],
      [
        "b",
        -6.845370680022893
      ],
      [
        "u",
        -6.846529731032258
      ],
      [
        "▁:",
        -6.850228259359675
      ],
      [
        "ll",
        -6.850331453732375
      ],
      [
        "▁bo",
        -6.851768856519754
      ],
      [
        "ve",
        -6.880046535049009
      ],
      [
        "▁more",
        -6.888980501787748
      ],
      [
        "or",
        -6.91157207687329
      ],
      [
        "▁time",
        -6.919026478166919
      ],
      [
        "w",
        -6.921936529320138
      ],
      [
        "▁new",
        -6.923966821067229
      ],
      [
        "▁him",
        -6.934753329593437
      ],
      [
        "▁them",
        -6.936508463802555
      ],
      [
        "▁us",
        -6.938456157673008
      ],
      [
        "'re",
        -6.94034354030862
      ],
      [
        "▁where",
        -6.943892749387745
      ],
      [
        "▁other",
        -6.9463982244189655
      ],
      [
        "th",
        -6.956254905995197
      ],
      [
        "cause",
        -6.959043146117687
      ],
      [
        "ies",
        -6.976579830536047
      ],
      [
        "▁their",
        -6.97673593468203
      ],
      [
        "▁think",
        -6.983391524249688
      ],
      [
        "▁make",
        -7.019106191558292
      ],
      [
        "▁need",
        -7.020426149297974
      ],
      [
        "▁put",
        -7.020932562714133
      ],
      [
        "▁san",
        -7.026322234560608
      ],
      [
        "▁been",
        -7.0434300880121645
      ],
      [
        "ation",
        -7.04381301076341
      ],
      [
        "re",
        -7.054883393347329
      ],
      [
        "it",
        -7.060147532937712
      ],
      [
        "▁two",
        -7.061627210114731
      ],
      [
        "is",
        -7.075547858701951
      ],
      [
        "▁oh",
        -7.077748715635844
      ],
      [
        "▁right",
        -7.083398839091205
      ],
      [
        "▁very",
        -7.086648241344952
      ],
      [
        "▁good",
        -7.090413597938906
      ],
      [
        "ston",
        -7.0970362648028775
      ],
      [
        "v",
        -7.101947943150735
      ],
      [
        "▁first",
        -7.1109250929352905
      ],
      [
        "ould",
        -7.115168063548172
      ],
      [
        "▁over",
        -7.116255037872066
      ],
      [
        "▁al",
        -7.118978594929112
      ],
      [
        "▁take",
        -7.1628829014570305
      ],
      [
        "▁our",
        -7.163846061137551
      ],
      [
        "▁people",
        -7.180876382946145
      ],
      [
        "▁may",
        -7.18223717807806
      ],
      [
        "▁well",
        -7.182706328099235
      ],
      [
        "▁after",
        -7.20025645825253
      ],
      [
        "▁down",
        -7.211315634193583
      ],
      [
        "ion",
        -7.213566332556345
      ],
      [
        "▁back",
        -7.215244417298116
      ],
      [
        "▁got",
        -7.218149314342378
      ],
      [
        "nver",
        -7.23410377028919
      ],
      [
        "▁real",
        -7.236745646114399
      ],
      [
        "▁say",
        -7.243777335516995
      ],
      [
        "▁way",
        -7.246466799767172
      ],
      [
        "▁sai",
        -7.247206382556586
      ],
      [
        "one",
        -7.248385174474825
      ],
      [
        "ce",
        -7.2562551385360585
      ],
      [
        "▁yea",
        -7.259899325626358
      ],
      [
        "/",
        -7.259943781206568
      ],
      [
        "en",
        -7.277733323713234
      ],
      [
        "▁into",
        -7.278014303918125
      ],
      [
        "▁day",
        -7.305780731689264
      ],
      [
        "▁these",
        -7.315093569561827
      ],
      [
        "▁francisco",
        -7.325043335679021
      ],
      [
        "▁come",
        -7.333981766940936
      ],
      [
        "▁work",
        -7.337668674550209
      ],
      [
        "▁please",
        -7.361388171995043
      ],
      [
        "▁let",
        -7.378765101579353
      ],
      [
        "▁should",
        -7.379439745691971
      ],
      [
        "▁every",
        -7.3924391049573765
      ],
      [
        "ur",
        -7.395342466564247
      ],
      [
        "▁too",
        -7.415037840731072
      ],
      [
        "▁only",
        -7.418727043007732
      ],
      [
        "▁play",
        -7.421191177307997
      ],
      [
        "▁call",
        -7.42731444694094
      ],
      [
        "thing",
        -7.430742464954108
      ],
      [
        "▁list",
        -7.437273985308111
      ],
      [
        "▁ta",
        -7.437921904622244
      ],
      [
        "est",
        -7.463403993701622
      ],
      [
        "able",
        -7.466747568343547
      ],
      [
        "▁bet",
        -7.469436891887671
      ],
      [
        "▁oka",
        -7.471382730640512
      ],
      [
        "▁again",
        -7.474793669735394
      ],
      [
        "▁before",
        -7.4839796071524995
      ],
      [
        "▁am",
        -7.484252086081209
      ],
      [
        "ween",
        -7.490802619378118
      ],
      [
        "ic",
        -7.511177048527456
      ],
      [
        "▁atlant",
        -7.51119487185672
      ],
      [
        "▁than",
        -7.51457790168044
      ],
      [
        "▁wan",
        -7.517688962752227
      ],
      [
        "hose",
        -7.519887707332254
      ],
      [
        "▁give",
        -7.520579538978118
      ],
      [
        "▁;",
        -7.521259202418354
      ],
      [
        "▁car",
        -7.523003095752402
      ],
      [
        "▁thing",
        -7.523709238688544
      ],
      [
        "▁ca",
        -7.526053604900088
      ],
      [
        "▁long",
        -7.52985718246043
      ],
      [
        "sburg",
        -7.532172914309128
      ],
      [
        "▁mommy",
        -7.5331381264789625
      ],
      [
        "▁off",
        -7.53587335368192
      ],
      [
        "round",
        -7.537965167988199
      ],
      [
        "more",
        -7.541005752784026
      ],
      [
        "ers",
        -7.553579699986237
      ],
      [
        "▁b",
        -7.555883114092243
      ],
      [
        "▁little",
        -7.556684393369976
      ],
      [
        "us",
        -7.5623636029597385
      ],
      [
        "ar",
        -7.5710097575669755
      ],
      [
        "▁year",
        -7.579365642115649
      ],
      [
        "▁’",
        -7.582798719150634
      ],
      [
        "▁–",
        -7.584407909621336
      ],
      [
        "als",
        -7.584660780908663
      ],
      [
        "▁use",
        -7.586224613979527
      ],
      [
        "▁many",
        -7.588667111945767
      ],
      [
        "▁even",
        -7.605653286178617
      ],
      [
        "▁doe",
        -7.616983940439602
      ],
      [
        "▁gon",
        -7.617991185729527
      ],
      [
        "ive",
        -7.633226051670014
      ],
      [
        "▁pitt",
        -7.634121647756809
      ],
      [
        "self",
        -7.6358081098353
      ],
      [
        "▁place",
        -7.639835755018107
      ],
      [
        "allas",
        -7.64465763506874
      ],
      [
        "▁great",
        -7.647583388257198
      ],
      [
        "ity",
        -7.650455056078606
      ],
      [
        "▁find",
        -7.652677748679129
      ],
      [
        "▁why",
        -7.656271221010463
      ],
      [
        "z",
        -7.657121605051279
      ],
      [
        "6",
        -7.657215377863249
      ],
      [
        "▁un",
        -7.663153224906037
      ],
      [
        "ch",
        -7.667799809919779
      ],
      [
        "an",
        -7.676376449756928
      ],
      [
        "be",
        -7.679220295498484
      ],
      [
        "▁help",
        -7.689266123917009
      ],
      [
        "ting",
        -7.691791383160641
      ],
      [
        "▁something",
        -7.705434872172348
      ],
      [
        "▁tell",
        -7.7074126680705675
      ],
      [
        "la",
        -7.708119514570732
      ],
      [
        "▁re",
        -7.710553550334037
      ],
      [
        "▁muc",
        -7.725942267174298
      ],
      [
        "▁mean",
        -7.726753020636587
      ],
      [
        "uch",
        -7.733836877083418
      ],
      [
        "▁big",
        -7.738922430829005
      ],
      [
        "▁phil",
        -7.741996778661823
      ],
      [
        "ment",
        -7.742185885867206
      ],
      [
        "▁eat",
        -7.760168755720532
      ],
      [
        "um",
        -7.760557560541645
      ],
      [
        "ter",
        -7.7722541228561886
      ],
      [
        "▁name",
        -7.776009003660942
      ],
      [
        "▁airline",
        -7.778176543670981
      ],
      [
        "▁morning",
        -7.7800268239718315
      ],
      [
        "▁state",
        -7.789484105606814
      ],
      [
        "▁city",
        -7.791722137543994
      ],
      [
        "ever",
        -7.805444499486354
      ],
      [
        "▁try",
        -7.806109736453369
      ],
      [
        "ne",
        -7.808418541825032
      ],
      [
        "▁balti",
        -7.811552764883326
      ],
      [
        "adelphi",
        -7.817575633729442
      ],
      [
        "▁um",
        -7.826356126418111
      ],
      [
        "el",
        -7.829337104255293
      ],
      [
        "▁2",
        -7.845466241732941
      ],
      [
        "▁last",
        -7.846852890554398
      ],
      [
        "▁pm",
        -7.851068899632629
      ],
      [
        "▁home",
        -7.854671777022369
      ],
      [
        "▁another",
        -7.8565950178936
      ],
      [
        "▁most",
        -7.858743101243943
      ],
      [
        "▁per",
        -7.861589291741729
      ],
      [
        "▁through",
        -7.865007386232375
      ],
      [
        "x",
        -7.868159908660617
      ],
      [
        "▁made",
        -7.8721642203285285
      ],
      [
        "and",
        -7.879183105779032
      ],
      [
        "▁under",
        -7.883784474852948
      ],
      [
        "▁[",
        -7.897657757481952
      ],
      [
        "]",
        -7.899382202073802
      ],
      [
        "▁man",
        -7.900009560819569
      ],
      [
        "▁world",
        -7.9009734620178715
      ],
      [
        "ate",
        -7.912572704313867
      ],
      [
        "▁1",
        -7.91264436830745
      ],
      [
        "▁still",
        -7.9150278262175116
      ],
      [
        "▁american",
        -7.920300036229318
      ],
      [
        "ut",
        -7.923204982564672
      ],
      [
        "—",
        -7.923719676543403
      ],
      [
        "▁part",
        -7.925580691183404
      ],
      [
        "▁read",
        -7.929138492849714
      ],
      [
        "▁talk",
        -7.930518421570412
      ],
      [
        "▁kind",
        -7.932965714721394
      ],
      [
        "▁dis",
        -7.93697877505787
      ],
      [
        "▁...",
        -7.939877952011758
      ],
      [
        "▁leave",
        -7.950986402313198
      ],
      [
        "▁dadd",
        -7.952106298552394
      ],
      [
        "3",
        -7.9560857875621815
      ],
      [
        "ld",
        -7.9621848556458925
      ],
      [
        "co",
        -7.971655686194272
      ],
      [
        "▁number",
        -7.971894234065329
      ],
      [
        "▁yes",
        -7.974036261338441
      ],
      [
        "▁food",
        -7.976635720275908
      ],
      [
        "out",
        -7.981285208739036
      ],
      [
        "▁house",
        -7.9910727459156545
      ],
      [
        "bi",
        -7.994858422056727
      ],
      [
        "▁start",
        -7.994924128374998
      ],
      [
        "today",
        -7.995468800502839
      ],
      [
        "▁high",
        -8.010188332751692
      ],
      [
        "▁went",
        -8.010913064721468
      ],
      [
        "▁school",
        -8.012667130216345
      ],
      [
        "washington",
        -8.017577888165139
      ],
      [
        "ol",
        -8.03148191856831
      ],
      [
        "4",
        -8.03160818949204
      ],
      [
        "at",
        -8.032911356404366
      ],
      [
        "▁con",
        -8.042945217953996
      ],
      [
        "▁fare",
        -8.04935193558689
      ],
      [
        "▁best",
        -8.05788488887526
      ],
      [
        "▁fly",
        -8.061511121306111
      ],
      [
        "▁lot",
        -8.067591385368857
      ],
      [
        "▁love",
        -8.069919109874231
      ],
      [
        "▁book",
        -8.071593970961754
      ],
      [
        "ok",
        -8.072764021314693
      ],
      [
        "un",
        -8.074463686644492
      ],
      [
        "▁ask",
        -8.074713639226667
      ],
      [
        "▁whil",
        -8.074737844196402
      ],
      [
        "nex",
        -8.075279225772391
      ],
      [
        "▁co",
        -8.082254677557838
      ],
      [
        "na",
        -8.089677340594896
      ],
      [
        "ian",
        -8.090463354643582
      ],
      [
        "▁three",
        -8.095307980830004
      ],
      [
        "▁j",
        -8.097542182942885
      ],
      [
        "▁5",
        -8.099402437004652
      ],
      [
        "▁hear",
        -8.102672302013959
      ],
      [
        "▁leav",
        -8.107588165175395
      ],
      [
        "▁--",
        -8.10927134871869
      ],
      [
        "▁water",
        -8.113045053508618
      ],
      [
        "ether",
        -8.116417800994004
      ],
      [
        "▁3",
        -8.119354985768497
      ],
      [
        "▁service",
        -8.124315291914417
      ],
      [
        "▁air",
        -8.125067950715465
      ],
      [
        "▁po",
        -8.125541027528852
      ],
      [
        "▁life",
        -8.129390512028758
      ],
      [
        "▁never",
        -8.132967088499043
      ],
      [
        "1",
        -8.134817523327758
      ],
      [
        "▁night",
        -8.138517829642968
      ],
      [
        "▁sam",
        -8.14217422064127
      ],
      [
        "▁w",
        -8.145703215230036
      ],
      [
        "▁class",
        -8.14745374705139
      ],
      [
        "▁united",
        -8.150305938377974
      ],
      [
        "information",
        -8.155403670039998
      ],
      [
        "▁uh",
        -8.155778186945676
      ],
      [
        "▁end",
        -8.158046140995463
      ],
      [
        "land",
        -8.16002431849277
      ],
      [
        "▁wo",
        -8.163025508936034
      ],
      [
        "▁week",
        -8.166792044136143
      ],
      [
        "man",
        -8.172103681184755
      ],
      [
        "▁own",
        -8.176288683550725
      ],
      [
        "ul",
        -8.183866705583242
      ],
      [
        "7",
        -8.186817249925848
      ],
      [
        "▁4",
        -8.18784365213867
      ],
      [
        "▁old",
        -8.189130675722566
      ],
      [
        "each",
        -8.190269632403602
      ],
      [
        "age",
        -8.195114964332578
      ],
      [
        "▁head",
        -8.195245163198809
      ],
      [
        "▁open",
        -8.196246428412612
      ],
      [
        "ge",
        -8.202311859601252
      ],
      [
        "2",
        -8.207682802495087
      ],
      [
        "▁room",
        -8.211228213148972
      ],
      [
        "8",
        -8.213272401652713
      ],
      [
        "▁hand",
        -8.218309998902374
      ],
      [
        "tic",
        -8.226010995249819
      ],
      [
        "▁change",
        -8.226481048776005
      ],
      [
        "ally",
        -8.228165973191636
      ],
      [
        "ent",
        -8.228410910244495
      ],
      [
        "▁ga",
        -8.228430616875926
      ],
      [
        "▁$",
        -8.230954918938854
      ],
      [
        "▁being",
        -8.233305345418685
      ],
      [
        "to",
        -8.234521361763989
      ],
      [
        "▁dat",
        -8.2356331372004
      ],
      [
        "▁happen",
        -8.246297610473013
      ],
      [
        "ma",
        -8.248619592974434
      ],
      [
        "ary",
        -8.250835574166338
      ],
      [
        "▁baby",
        -8.252224260576345
      ],
      [
        "▁keep",
        -8.255480579756469
      ],
      [
        "▁away",
        -8.256504417499366
      ],
      [
        "pe",
        -8.264201286086855
      ],
      [
        "▁mo",
        -8.274020723086732
      ],
      [
        "▁“",
        -8.277359511708553
      ],
      [
        "0",
        -8.280364710740127
      ],
      [
        "▁small",
        -8.280560757407576
      ],
      [
        "▁else",
        -8.280621578871399
      ],
      [
        "▁p",
        -8.281851736940911
      ],
      [
        "▁turn",
        -8.284674908300792
      ],
      [
        "▁sure",
        -8.286316236889189
      ],
      [
        "▁group",
        -8.286975255156928
      ],
      [
        "ous",
        -8.290276688802674
      ],
      [
        "▁alway",
        -8.29396266523208
      ],
      [
        "▁must",
        -8.296872841384685
      ],
      [
        "”",
        -8.303209060805422
      ],
      [
        "www",
        -8.306493983628759
      ],
      [
        "▁trip",
        -8.309793416700352
      ],
      [
        "▁thought",
        -8.310616143915729
      ],
      [
        "▁both",
        -8.311185377443076
      ],
      [
        "▁point",
        -8.31174112767117
      ],
      [
        "▁large",
        -8.3131062533604
      ],
      [
        "▁transport",
        -8.313114555208845
      ],
      [
        "▁10",
        -8.319172253580994
      ],
      [
        "▁wednesday",
        -8.319711070748031
      ],
      [
        "less",
        -8.32200497395475
      ],
      [
        "▁different",
        -8.329756201828937
      ],
      [
        "▁better",
        -8.33085066915768
      ],
      [
        "▁haf",
        -8.334165830951186
      ],
      [
        "ness",
        -8.334277497967538
      ],
      [
        "▁nice",
        -8.336796491320605
      ],
      [
        "▁ground",
        -8.34068386083633
      ],
      [
        "ember",
        -8.343052813190283
      ],
      [
        "▁since",
        -8.343299284631374
      ],
      [
        "▁war",
        -8.344690668691776
      ],
      [
        "▁live",
        -8.345638259229805
      ],
      [
        "▁feel",
        -8.347917890733713
      ],
      [
        "▁en",
        -8.353955504402354
      ],
      [
        "▁pa",
        -8.35431884030668
      ],
      [
        "ant",
        -8.354858483549421
      ],
      [
        "▁light",
        -8.35878852815681
      ],
      [
        "ful",
        -8.36392499365611
      ],
      [
        "▁few",
        -8.364442677658882
      ],
      [
        "▁month",
        -8.365438090238559
      ],
      [
        "▁hi",
        -8.367483879189257
      ],
      [
        "▁thank",
        -8.367554787527203
      ],
      [
        "mp",
        -8.369118445560773
      ],
      [
        "▁seem",
        -8.372096108646673
      ],
      [
        "go",
        -8.373676501797341
      ],
      [
        "▁20",
        -8.373799793542723
      ],
      [
        "j",
        -8.37512499482982
      ],
      [
        "ance",
        -8.375299734139972
      ],
      [
        "▁might",
        -8.378053960140111
      ],
      [
        "▁walk",
        -8.385921459673337
      ],
      [
        "▁cheap",
        -8.38860106049341
      ],
      [
        "▁remember",
        -8.392158696863948
      ],
      [
        "▁game",
        -8.392879784892298
      ],
      [
        "ady",
        -8.398365784157235
      ],
      [
        "▁found",
        -8.398644009225116
      ],
      [
        "▁wait",
        -8.40120861816516
      ],
      [
        ":",
        -8.409096958522772
      ],
      [
        "ish",
        -8.41492706659344
      ],
      [
        "▁problem",
        -8.4175206149279
      ],
      [
        "cy",
        -8.421284348387687
      ],
      [
        "ling",
        -8.424749699020369
      ],
      [
        "▁19",
        -8.425538007111925
      ],
      [
        "▁york",
        -8.42859573937701
      ],
      [
        "▁stop",
        -8.430349162182548
      ],
      [
        "▁watch",
        -8.43230854143105
      ],
      [
        "▁roman",
        -8.432429501475848
      ],
      [
        "▁line",
        -8.435121834671051
      ],
      [
        "tra",
        -8.440953660095289
      ],
      [
        "▁came",
        -8.441528999680417
      ],
      [
        "▁price",
        -8.444516507052747
      ],
      [
        "▁hard",
        -8.445246643621644
      ],
      [
        "▁eye",
        -8.445267244617986
      ],
      [
        "▁stay",
        -8.447325589304224
      ],
      [
        "▁second",
        -8.451105323826958
      ],
      [
        "ca",
        -8.452240380371126
      ],
      [
        "▁far",
        -8.457379841014774
      ],
      [
        "▁los",
        -8.458508038453289
      ],
      [
        "▁base",
        -8.460090475522197
      ],
      [
        "▁alre",
        -8.463111212675052
      ],
      [
        "▁though",
        -8.465631360439305
      ],
      [
        "▁pre",
        -8.469926057294069
      ],
      [
        "▁arriv",
        -8.474511945885116
      ],
      [
        "years",
        -8.475580597504255
      ],
      [
        "am",
        -8.476993225441412
      ],
      [
        "▁girl",
        -8.478072863194908
      ],
      [
        "▁mi",
        -8.479625696643373
      ],
      [
        "▁la",
        -8.481369840635931
      ],
      [
        "▁actual",
        -8.481983469620715
      ],
      [
        "▁pro",
        -8.482475481604936
      ],
      [
        "▁dog",
        -8.482492613367945
      ],
      [
        "▁friend",
        -8.484913897168797
      ],
      [
        "▁data",
        -8.48524406466993
      ],
      [
        "body",
        -8.485544911022757
      ],
      [
        "▁close",
        -8.485881222326128
      ],
      [
        "▁area",
        -8.486819128494215
      ],
      [
        "ough",
        -8.487378092882018
      ],
      [
        "▁order",
        -8.4876802126335
      ],
      [
        "done",
        -8.490688363824564
      ],
      [
        "▁guy",
        -8.500515076650844
      ],
      [
        "▁famil",
        -8.501755229180016
      ],
      [
        "▁bad",
        -8.502569809937683
      ],
      [
        "ph",
        -8.510550208857222
      ],
      [
        "▁president",
        -8.513748028027816
      ],
      [
        "later",
        -8.518230579400866
      ],
      [
        "ry",
        -8.518878068237543
      ],
      [
        "▁bush",
        -8.519463747514632
      ],
      [
        "▁6",
        -8.520588263816922
      ],
      [
        "00",
        -8.520887587615555
      ],
      [
        "▁adam",
        -8.52216890902994
      ],
      [
        "▁hu",
        -8.523509487141386
      ],
      [
        "▁set",
        -8.526255800780527
      ],
      [
        "che",
        -8.527451994450304
      ],
      [
        "▁wh",
        -8.527512861952385
      ],
      [
        "▁mil",
        -8.528462963078232
      ],
      [
        "king",
        -8.529508856385544
      ],
      [
        "▁train",
        -8.530215486220236
      ],
      [
        "▁thanks",
        -8.533585826404584
      ],
      [
        "▁report",
        -8.533907502930687
      ],
      [
        "▁red",
        -8.535620183676034
      ],
      [
        "▁7",
        -8.535956094866957
      ],
      [
        "▁sit",
        -8.548254913193027
      ],
      [
        "▁bit",
        -8.54838638247874
      ],
      [
        "▁mr",
        -8.55361045997519
      ],
      [
        "▁job",
        -8.555879558804193
      ],
      [
        "▁afternoon",
        -8.559210967570941
      ],
      [
        "▁char",
        -8.562966207871312
      ],
      [
        "▁di",
        -8.568966162019716
      ],
      [
        "▁provide",
        -8.56970088205411
      ],
      [
        "▁die",
        -8.56974586984553
      ],
      [
        "▁ten",
        -8.576214354972821
      ],
      [
        "▁case",
        -8.578332468140319
      ],
      [
        "ber",
        -8.579551133845026
      ],
      [
        "ated",
        -8.579697295868408
      ],
      [
        "▁paper",
        -8.580590605434649
      ],
      [
        "▁availab",
        -8.581596701109131
      ],
      [
        "▁mak",
        -8.584724009771932
      ],
      [
        "▁person",
        -8.586409038280202
      ],
      [
        "▁early",
        -8.590353147504734
      ],
      [
        "▁saw",
        -8.594246722231969
      ],
      [
        "▁four",
        -8.597357863143646
      ],
      [
        "▁ho",
        -8.599272720129804
      ],
      [
        "▁dur",
        -8.599461064418765
      ],
      [
        "▁interest",
        -8.601305161727847
      ],
      [
        "▁laura",
        -8.602418533859336
      ],
      [
        "▁left",
        -8.60242406615273
      ],
      [
        "▁ma",
        -8.602576859354597
      ],
      [
        "used",
        -8.602816886209615
      ],
      [
        "▁round",
        -8.605888835368146
      ],
      [
        "cross",
        -8.607327604132553
      ],
      [
        "▁milk",
        -8.608178009032759
      ],
      [
        "ver",
        -8.610157275194215
      ],
      [
        "▁business",
        -8.611283310282221
      ],
      [
        "▁minute",
        -8.611288242142898
      ],
      [
        "▁government",
        -8.611320637755131
      ],
      [
        "▁cost",
        -8.611857055099476
      ],
      [
        "▁grow",
        -8.612434939030745
      ],
      [
        "9",
        -8.612520148124451
      ],
      [
        "if",
        -8.612827729695717
      ],
      [
        "▁oakl",
        -8.615759177638882
      ],
      [
        "▁mom",
        -8.615878171066255
      ],
      [
        "led",
        -8.616549399643322
      ],
      [
        "st.",
        -8.618959790664146
      ],
      [
        "▁airport",
        -8.62039945780489
      ],
      [
        "▁office",
        -8.621922957209616
      ],
      [
        "▁face",
        -8.624937934676225
      ],
      [
        "▁draw",
        -8.629264627180984
      ],
      [
        "▁possibl",
        -8.629591812673159
      ],
      [
        "▁earlie",
        -8.633849715722814
      ],
      [
        "▁write",
        -8.635218686144526
      ],
      [
        "ial",
        -8.635922681459249
      ],
      [
        "▁em",
        -8.637900092937413
      ],
      [
        "▁monday",
        -8.638373710744178
      ],
      [
        "▁move",
        -8.639104844852373
      ],
      [
        "▁sea",
        -8.64125010170951
      ],
      [
        "▁experience",
        -8.642959554593151
      ],
      [
        "▁public",
        -8.642959554732608
      ],
      [
        "▁mother",
        -8.64296396907682
      ],
      [
        "▁six",
        -8.643001049418121
      ],
      [
        "▁country",
        -8.643104367319907
      ],
      [
        "▁believe",
        -8.64757343163284
      ],
      [
        "▁form",
        -8.648539656726884
      ],
      [
        "▁free",
        -8.64987623843626
      ],
      [
        "pa",
        -8.651251438037313
      ],
      [
        "▁idea",
        -8.651277540320473
      ],
      [
        "▁probabl",
        -8.652199476371944
      ],
      [
        "▁buy",
        -8.652787595730993
      ],
      [
        "▁fall",
        -8.652907473565639
      ],
      [
        "▁five",
        -8.653177033434819
      ],
      [
        "me",
        -8.656047089928277
      ],
      [
        "▁thursday",
        -8.65684864315616
      ],
      [
        "where",
        -8.65687701929928
      ],
      [
        "▁leas",
        -8.661918288705257
      ],
      [
        "▁bar",
        -8.662915436412732
      ],
      [
        "▁hope",
        -8.664211253119529
      ],
      [
        "▁full",
        -8.666372523853308
      ],
      [
        "kee",
        -8.667594094923228
      ],
      [
        "▁cat",
        -8.67022270462574
      ],
      [
        "▁example",
        -8.670933357236546
      ],
      [
        "’",
        -8.672765550596166
      ],
      [
        "▁return",
        -8.675672768739698
      ],
      [
        "▁prett",
        -8.675754861748409
      ],
      [
        "▁money",
        -8.675789888321354
      ],
      [
        "▁learn",
        -8.680436933090855
      ],
      [
        "▁serve",
        -8.681091134886444
      ],
      [
        "▁fact",
        -8.68133819761092
      ],
      [
        "▁process",
        -8.685220700236636
      ],
      [
        "uh",
        -8.68756237218566
      ],
      [
        "do",
        -8.688923139093454
      ],
      [
        "▁arrive",
        -8.689565581278242
      ],
      [
        "▁hey",
        -8.690284862460658
      ],
      [
        "▁act",
        -8.692579226955036
      ],
      [
        "▁g",
        -8.69319101846752
      ],
      [
        "ard",
        -8.69556166195622
      ],
      [
        "▁harr",
        -8.698273466588695
      ],
      [
        "aid",
        -8.699769829167339
      ],
      [
        "▁issue",
        -8.699897864001933
      ],
      [
        "most",
        -8.700083433178385
      ],
      [
        "▁late",
        -8.700951491912864
      ],
      [
        "▁horse",
        -8.704594147934998
      ],
      [
        "▁add",
        -8.705355805647523
      ],
      [
        "▁question",
        -8.705901105053643
      ],
      [
        "▁li",
        -8.709368412651063
      ],
      [
        "▁consider",
        -8.714420342267038
      ],
      [
        "▁ball",
        -8.71841569304776
      ],
      [
        "▁access",
        -8.719370386976813
      ],
      [
        "▁father",
        -8.719412438105767
      ],
      [
        "▁hair",
        -8.7194929313214
      ],
      [
        "▁clean",
        -8.724352688014175
      ],
      [
        "▁white",
        -8.724355564989974
      ],
      [
        "▁until",
        -8.725534858954719
      ],
      [
        "▁ha",
        -8.726420204265041
      ],
      [
        "once",
        -8.726513971954372
      ],
      [
        "▁mar",
        -8.727902420733109
      ],
      [
        "▁whole",
        -8.728121931189389
      ],
      [
        "wa",
        -8.729054158833867
      ],
      [
        "▁piece",
        -8.729348726764343
      ],
      [
        "▁18",
        -8.730802656636294
      ],
      [
        "▁system",
        -8.73436719073139
      ],
      [
        "▁view",
        -8.736508099251825
      ],
      [
        "▁post",
        -8.73803283288088
      ],
      [
        "ke",
        -8.738503483373806
      ],
      [
        "▁twenty",
        -8.739420067381964
      ],
      [
        "▁support",
        -8.739420197940913
      ],
      [
        "having",
        -8.739492651790208
      ],
      [
        "▁bring",
        -8.740332238251863
      ],
      [
        "▁law",
        -8.740961542782134
      ],
      [
        "ect",
        -8.742394799695303
      ],
      [
        "▁cha",
        -8.745150812189522
      ],
      [
        "tion",
        -8.749567322396487
      ],
      [
        "▁language",
        -8.749597816396124
      ],
      [
        "▁tuesday",
        -8.749597817357897
      ],
      [
        "▁sever",
        -8.751238141636408
      ],
      [
        "gan",
        -8.75344071658266
      ],
      [
        "▁black",
        -8.754727660950866
      ],
      [
        "▁type",
        -8.754741877216308
      ],
      [
        "ism",
        -8.754940232079225
      ],
      [
        "▁8",
        -8.756261633593226
      ],
      [
        "yet",
        -8.756679836230488
      ],
      [
        "▁general",
        -8.759891832453352
      ],
      [
        "▁human",
        -8.76038299697445
      ],
      [
        "▁field",
        -8.762064344034284
      ],
      [
        "▁travel",
        -8.765065031579788
      ],
      [
        "▁course",
        -8.765352357703101
      ],
      [
        "▁outside",
        -8.76598728751619
      ],
      [
        "polis",
        -8.770469762673248
      ],
      [
        "▁color",
        -8.775568496862837
      ],
      [
        "▁near",
        -8.776044772535137
      ],
      [
        "▁12",
        -8.776115991290801
      ],
      [
        "▁deal",
        -8.776683825235724
      ],
      [
        "▁file",
        -8.776947971756744
      ],
      [
        "▁ya",
        -8.778767776902676
      ],
      [
        "der",
        -8.779911297844084
      ],
      [
        "▁short",
        -8.78077069228431
      ],
      [
        "▁step",
        -8.780788119373243
      ],
      [
        "ago",
        -8.782771610339243
      ],
      [
        "cu",
        -8.783269735497363
      ],
      [
        "▁dere",
        -8.784492587325504
      ],
      [
        "▁ba",
        -8.785522378118927
      ],
      [
        "up",
        -8.787339827618972
      ],
      [
        "▁hit",
        -8.787572420721993
      ],
      [
        "▁boy",
        -8.787704794106665
      ],
      [
        "ither",
        -8.796817639440233
      ],
      [
        "▁south",
        -8.796825510279747
      ],
      [
        "▁page",
        -8.799609075260467
      ],
      [
        "▁friday",
        -8.802124341269176
      ],
      [
        "▁important",
        -8.802936665112995
      ],
      [
        "▁national",
        -8.804190079295992
      ],
      [
        "our",
        -8.806029844248544
      ],
      [
        "ami",
        -8.807141755848395
      ],
      [
        "▁lo",
        -8.810917127681343
      ],
      [
        "▁store",
        -8.812255055644288
      ],
      [
        "▁result",
        -8.812943872699972
      ],
      [
        "▁sunday",
        -8.813020708515541
      ],
      [
        "▁11",
        -8.815998831002876
      ],
      [
        "com",
        -8.81973167831736
      ],
      [
        "▁children",
        -8.823906566165416
      ],
      [
        "▁paul",
        -8.824568684736452
      ],
      [
        "▁friends",
        -8.825229417130059
      ],
      [
        "▁pass",
        -8.825537948339427
      ],
      [
        "▁side",
        -8.825817603568343
      ],
      [
        "▁bear",
        -8.830994543939493
      ],
      [
        "▁cut",
        -8.831648126982909
      ],
      [
        "▁15",
        -8.832111688025485
      ],
      [
        "▁check",
        -8.835007652869745
      ],
      [
        "▁drink",
        -8.835034260355904
      ],
      [
        "▁pick",
        -8.835255489510338
      ],
      [
        "▁reason",
        -8.840790674693682
      ],
      [
        "orrow",
        -8.841891269598358
      ],
      [
        "▁jul",
        -8.842236071307473
      ],
      [
        "▁door",
        -8.845852284561758
      ],
      [
        "▁star",
        -8.845911353044155
      ],
      [
        "▁saturday",
        -8.846187378083018
      ],
      [
        "▁study",
        -8.84618737836698
      ],
      [
        "bo",
        -8.846248103021914
      ],
      [
        "▁space",
        -8.846415074799928
      ],
      [
        "ap",
        -8.848159159484286
      ],
      [
        "ow",
        -8.84939556597956
      ],
      [
        "taking",
        -8.852953146338669
      ],
      [
        "▁coming",
        -8.853205023868414
      ],
      [
        "▁sun",
        -8.853727042651744
      ],
      [
        "ba",
        -8.856415709457947
      ],
      [
        "▁power",
        -8.856778073268632
      ],
      [
        "ark",
        -8.857485226572567
      ],
      [
        "▁ye",
        -8.857600468870203
      ],
      [
        "▁sometime",
        -8.858523576534289
      ],
      [
        "5",
        -8.858530469341819
      ],
      [
        "▁west",
        -8.863989232915907
      ],
      [
        "▁dc",
        -8.864477044753531
      ],
      [
        "wau",
        -8.865118827813237
      ],
      [
        "▁jun",
        -8.8662116922772
      ],
      [
        "▁hold",
        -8.868833272504126
      ],
      [
        "▁international",
        -8.868980310816621
      ],
      [
        "▁present",
        -8.87047239468356
      ],
      [
        "ng",
        -8.874563285541095
      ],
      [
        "▁particular",
        -8.874760702672251
      ],
      [
        "right",
        -8.877475007721525
      ],
      [
        "▁fish",
        -8.880959053265872
      ],
      [
        "▁recommend",
        -8.886422556394455
      ],
      [
        "ical",
        -8.888903672099282
      ],
      [
        "▁salt",
        -8.892889973930014
      ],
      [
        "que",
        -8.894155806225289
      ],
      [
        "▁hot",
        -8.896613040207244
      ],
      [
        "▁record",
        -8.89823152518548
      ],
      [
        "▁ra",
        -8.899254628915124
      ],
      [
        "▁vi",
        -8.899594892501103
      ],
      [
        "▁understand",
        -8.89983489911382
      ],
      [
        "▁ever",
        -8.901074112118554
      ],
      [
        "ell",
        -8.901372182337383
      ],
      [
        "▁box",
        -8.901568483201089
      ],
      [
        "▁test",
        -8.902583307048094
      ],
      [
        "▁kid",
        -8.902595610156764
      ],
      [
        "▁street",
        -8.904174839925162
      ],
      [
        "▁worth",
        -8.904183869775396
      ],
      [
        "▁clear",
        -8.904185884046452
      ],
      [
        "▁final",
        -8.904324091688197
      ],
      [
        "▁pi",
        -8.904414321786746
      ],
      [
        "▁pay",
        -8.907314950905672
      ],
      [
        "▁dr",
        -8.907836495024704
      ],
      [
        "▁regard",
        -8.910166564277727
      ],
      [
        "▁tog",
        -8.910511396433481
      ],
      [
        "▁evening",
        -8.911718181754619
      ],
      [
        "▁young",
        -8.912089442641701
      ],
      [
        "▁comp",
        -8.91301746057822
      ],
      [
        "▁fl",
        -8.914342113157424
      ],
      [
        "▁sleep",
        -8.916042368579127
      ],
      [
        "▁&",
        -8.922228611856397
      ],
      [
        "▁certain",
        -8.923786772966855
      ],
      [
        "▁gra",
        -8.924514148757474
      ],
      [
        "▁company",
        -8.928348878198467
      ],
      [
        "▁sign",
        -8.930023447343295
      ],
      [
        "▁table",
        -8.930437420379832
      ],
      [
        "▁main",
        -8.930470858335653
      ],
      [
        "▁green",
        -8.93448574353081
      ],
      [
        "▁care",
        -8.93458943488892
      ],
      [
        "za",
        -8.937771041909452
      ],
      [
        "▁includ",
        -8.940697359741376
      ],
      [
        "▁north",
        -8.941273445953875
      ],
      [
        "▁fun",
        -8.941444927109512
      ],
      [
        "▁sept",
        -8.942100306281086
      ],
      [
        "▁offer",
        -8.94366418540417
      ],
      [
        "▁run",
        -8.944583896407925
      ],
      [
        "▁project",
        -8.946863784610164
      ],
      [
        "▁commission",
        -8.94687491058709
      ],
      [
        "▁market",
        -8.946949456368717
      ],
      [
        "▁past",
        -8.948838028880923
      ],
      [
        "▁da",
        -8.952318209497655
      ],
      [
        "▁mind",
        -8.953229928088668
      ],
      [
        "▁quit",
        -8.955007164178308
      ],
      [
        "▁dinner",
        -8.959404753526044
      ],
      [
        "▁broke",
        -8.959446509432576
      ],
      [
        "▁phone",
        -8.959762509790082
      ],
      [
        "▁chic",
        -8.962670048931454
      ],
      [
        "▁du",
        -8.964007263323012
      ],
      [
        "nix",
        -8.966179335022598
      ],
      [
        "▁ro",
        -8.966921005991466
      ],
      [
        "▁letter",
        -8.968138516196223
      ],
      [
        "▁visit",
        -8.971125339817096
      ],
      [
        "▁control",
        -8.972104163382983
      ],
      [
        "▁become",
        -8.972183228063965
      ],
      [
        "▁front",
        -8.972311067711239
      ],
      [
        "▁16",
        -8.973542094839853
      ],
      [
        "▁follow",
        -8.974701297118138
      ],
      [
        "lie",
        -8.978194570629498
      ],
      [
        "▁force",
        -8.97844255689454
      ],
      [
        "clock",
        -8.978633278573081
      ],
      [
        "▁phoe",
        -8.984969388965624
      ],
      [
        "▁chair",
        -8.985000932669035
      ],
      [
        "▁term",
        -8.987382422792347
      ],
      [
        "ill",
        -8.988434967696541
      ],
      [
        "▁value",
        -8.990645156268537
      ],
      [
        "▁review",
        -8.991529257306123
      ],
      [
        "▁along",
        -8.998011473947333
      ],
      [
        "houston",
        -8.998183027296626
      ],
      [
        "ack",
        -8.998290387839734
      ],
      [
        "▁201",
        -8.998568509946036
      ],
      [
        "q",
        -8.999767372687327
      ],
      [
        "▁uhh",
        -9.000454209692208
      ],
      [
        "ame",
        -9.000477613270059
      ],
      [
        "▁soon",
        -9.001523350700484
      ],
      [
        "way",
        -9.001699494179201
      ],
      [
        "ble",
        -9.00190759323009
      ],
      [
        "▁happ",
        -9.002023977692236
      ],
      [
        "abilit",
        -9.002034346969335
      ],
      [
        "low",
        -9.002423199425806
      ],
      [
        "ja",
        -9.002731643453261
      ],
      [
        "ger",
        -9.00446068407097
      ],
      [
        "▁shakespeare",
        -9.004571845576166
      ],
      [
        "▁enjoy",
        -9.004571865571764
      ],
      [
        "▁blue",
        -9.004571946169143
      ],
      [
        "▁finish",
        -9.004572896801129
      ],
      [
        "line",
        -9.005682223015626
      ],
      [
        "ront",
        -9.006486130330238
      ],
      [
        "▁del",
        -9.008750728226541
      ],
      [
        "▁jo",
        -9.01168423590574
      ],
      [
        "▁recent",
        -9.011758424675769
      ],
      [
        "▁often",
        -9.01529411294646
      ],
      [
        "▁dec",
        -9.01570107503191
      ],
      [
        "▁dollar",
        -9.017883892445358
      ],
      [
        "▁miss",
        -9.020290896373636
      ],
      [
        "ring",
        -9.021511063136941
      ],
      [
        "@",
        -9.024510170745138
      ],
      [
        "though",
        -9.026524117032874
      ],
      [
        "▁arm",
        -9.02654188588959
      ],
      [
        "▁amount",
        -9.026770142218487
      ],
      [
        "iz",
        -9.027792649760102
      ],
      [
        "ton",
        -9.02935855529243
      ],
      [
        "ize",
        -9.031030145344541
      ],
      [
        "▁strong",
        -9.031343663670768
      ],
      [
        "▁art",
        -9.031756472033525
      ],
      [
        "▁continue",
        -9.034152127222807
      ],
      [
        "▁9",
        -9.034290517402106
      ],
      [
        "▁half",
        -9.034944776664037
      ],
      [
        "▁fe",
        -9.034959458874784
      ],
      [
        "▁land",
        -9.035234974761373
      ],
      [
        "▁sound",
        -9.0352502372061
      ],
      [
        "▁times",
        -9.035633146047696
      ],
      [
        "lves",
        -9.036492780531734
      ],
      [
        "▁event",
        -9.037872770286246
      ],
      [
        "▁hat",
        -9.038978826148885
      ],
      [
        "▁island",
        -9.040579528033497
      ],
      [
        "▁august",
        -9.044981300747697
      ],
      [
        "iv",
        -9.045349226296512
      ],
      [
        "▁plan",
        -9.045562064323818
      ],
      [
        "▁working",
        -9.04658963656978
      ],
      [
        "hol",
        -9.046863546434514
      ],
      [
        "hind",
        -9.0483134420389
      ],
      [
        "▁vega",
        -9.049415722044095
      ],
      [
        "chi",
        -9.05001055395075
      ],
      [
        "▁universit",
        -9.05101299283057
      ],
      [
        "▁stuff",
        -9.051900598512287
      ],
      [
        "▁fine",
        -9.053432149349021
      ],
      [
        "den",
        -9.055770039098068
      ],
      [
        "▁social",
        -9.05882890153675
      ],
      [
        "▁enron",
        -9.058839048904757
      ],
      [
        "▁dad",
        -9.059630727266299
      ],
      [
        "no",
        -9.06039893179589
      ],
      [
        "▁mine",
        -9.061275098352318
      ],
      [
        "ward",
        -9.063558346871476
      ],
      [
        "▁nonstop",
        -9.06581523591069
      ],
      [
        "▁str",
        -9.066061409073512
      ],
      [
        "▁send",
        -9.066190687107632
      ],
      [
        "▁stand",
        -9.066686183927704
      ],
      [
        "town",
        -9.068036111452525
      ],
      [
        "▁200",
        -9.068678728611784
      ],
      [
        "▁party",
        -9.071501796037778
      ],
      [
        "▁local",
        -9.073010606143871
      ],
      [
        ".com",
        -9.07375201905118
      ],
      [
        "bur",
        -9.075593916512904
      ],
      [
        "ory",
        -9.077693832285096
      ],
      [
        "ug",
        -9.078040101612576
      ],
      [
        "▁iraq",
        -9.078646690224733
      ],
      [
        "▁develop",
        -9.079511254616934
      ],
      [
        "▁level",
        -9.079953034740218
      ],
      [
        "nstead",
        -9.0799654648959
      ],
      [
        "▁action",
        -9.081090913635943
      ],
      [
        "▁fa",
        -9.08329986550602
      ],
      [
        "▁questions",
        -9.085175413050777
      ],
      [
        "▁current",
        -9.08709255211885
      ],
      [
        "▁research",
        -9.08709258507124
      ],
      [
        "▁answer",
        -9.087095295823449
      ],
      [
        "▁safe",
        -9.087220006508932
      ],
      [
        "▁fire",
        -9.088198486205695
      ],
      [
        "ern",
        -9.088199571911257
      ],
      [
        "▁fee",
        -9.091435581268065
      ],
      [
        "▁top",
        -9.092432550035582
      ],
      [
        "▁rest",
        -9.092981346254255
      ],
      [
        "▁usual",
        -9.09478273673016
      ],
      [
        "▁political",
        -9.095381268660123
      ],
      [
        "gg",
        -9.095795290672136
      ],
      [
        "▁count",
        -9.09704753984892
      ],
      [
        "▁future",
        -9.101543556823438
      ],
      [
        "▁complete",
        -9.101557274153896
      ],
      [
        "▁kne",
        -9.102065523350296
      ],
      [
        "mas",
        -9.105612239290776
      ],
      [
        "ice",
        -9.105615306562733
      ],
      [
        "▁17",
        -9.105882973980151
      ],
      [
        "▁sub",
        -9.106917158634747
      ],
      [
        "▁ago",
        -9.10711803295912
      ],
      [
        "▁su",
        -9.107991339137463
      ],
      [
        "▁quick",
        -9.108875588877428
      ],
      [
        "▁death",
        -9.1089156078054
      ],
      [
        "ure",
        -9.11056788446686
      ],
      [
        "▁less",
        -9.111116970829936
      ],
      [
        "he",
        -9.112115157339886
      ],
      [
        ",000",
        -9.113591550331854
      ],
      [
        "▁common",
        -9.116186202192758
      ],
      [
        "▁matter",
        -9.11619364389147
      ],
      [
        "▁push",
        -9.116194720592926
      ],
      [
        "▁among",
        -9.116198289845098
      ],
      [
        "countries",
        -9.116229539606524
      ],
      [
        "▁floor",
        -9.116497624234203
      ],
      [
        "▁create",
        -9.117972208661374
      ],
      [
        "50",
        -9.118758794012717
      ],
      [
        "▁john",
        -9.120278874643697
      ],
      [
        "▁picture",
        -9.122758697769742
      ],
      [
        "▁qualit",
        -9.12364516214167
      ],
      [
        "▁mov",
        -9.125986498560712
      ],
      [
        "▁word",
        -9.126574531675207
      ],
      [
        "▁o'",
        -9.126987599946723
      ],
      [
        "▁wear",
        -9.129039008944765
      ],
      [
        "▁fel",
        -9.129380172789332
      ],
      [
        "▁bird",
        -9.131068488542496
      ],
      [
        "▁break",
        -9.131098411288825
      ],
      [
        "▁china",
        -9.131101978804757
      ],
      [
        "▁las",
        -9.131688134265797
      ],
      [
        "▁park",
        -9.131752621539029
      ],
      [
        "▁mark",
        -9.134792406591128
      ],
      [
        "▁lu",
        -9.137357437904202
      ],
      [
        "▁hurt",
        -9.138661477704161
      ],
      [
        "▁ride",
        -9.139773631038455
      ],
      [
        "▁seven",
        -9.141589402528423
      ],
      [
        "▁town",
        -9.142343473191453
      ],
      [
        "▁tom",
        -9.143319442435946
      ],
      [
        "▁econom",
        -9.143603762795525
      ],
      [
        "▁pull",
        -9.146181578622736
      ],
      [
        "▁dark",
        -9.148186692715946
      ],
      [
        "▁gr",
        -9.151726206854516
      ],
      [
        "lotte",
        -9.15233165513614
      ],
      [
        "▁ex",
        -9.152425773906764
      ],
      [
        "ten",
        -9.155446012959533
      ],
      [
        "▁cl",
        -9.156079788254313
      ],
      [
        "▁quin",
        -9.15717042048254
      ],
      [
        "lin",
        -9.160622635628572
      ],
      [
        "▁period",
        -9.161476606435766
      ],
      [
        "▁guess",
        -9.161526622482537
      ],
      [
        "uck",
        -9.16233060474594
      ],
      [
        "upon",
        -9.162982753553683
      ],
      [
        "▁meeting",
        -9.163053735743159
      ],
      [
        "▁ru",
        -9.164070928659282
      ],
      [
        "▁receive",
        -9.164323921301829
      ],
      [
        "▁leg",
        -9.164729198421359
      ],
      [
        "▁major",
        -9.168797599784213
      ],
      [
        "▁concern",
        -9.169284489639693
      ],
      [
        "▁lake",
        -9.169653709493339
      ],
      [
        "▁cover",
        -9.170637921963298
      ],
      [
        "rid",
        -9.170722481081476
      ],
      [
        "▁customer",
        -9.171937773827446
      ],
      [
        "▁rule",
        -9.174282797528358
      ],
      [
        "▁shoe",
        -9.177067389961575
      ],
      [
        "▁child",
        -9.177086356508038
      ],
      [
        "▁abe",
        -9.179471188521816
      ],
      [
        "ev",
        -9.183181568925464
      ],
      [
        "▁bag",
        -9.183701022142252
      ],
      [
        "side",
        -9.185014327803536
      ],
      [
        "ence",
        -9.18869519778083
      ],
      [
        "port",
        -9.188915413906301
      ],
      [
        "▁propert",
        -9.189738371134602
      ],
      [
        "ound",
        -9.19104349498576
      ],
      [
        "▁wif",
        -9.191339147177462
      ],
      [
        "▁staff",
        -9.192850886833165
      ],
      [
        "▁remain",
        -9.192852843556029
      ],
      [
        "▁http://www.",
        -9.192854270632193
      ],
      [
        "▁dead",
        -9.19363950635898
      ],
      [
        "▁movie",
        -9.193839256225939
      ],
      [
        "▁mumm",
        -9.194006183836256
      ],
      [
        "ock",
        -9.200286860007079
      ],
      [
        "▁due",
        -9.200926078542802
      ],
      [
        "▁women",
        -9.201106145482939
      ],
      [
        "▁men",
        -9.201243181777258
      ],
      [
        "▁member",
        -9.2041818211842
      ],
      [
        "▁nation",
        -9.204372772644486
      ],
      [
        "▁cup",
        -9.204604235364961
      ],
      [
        "▁sent",
        -9.205302260260801
      ],
      [
        "▁following",
        -9.205631000275794
      ],
      [
        "▁direct",
        -9.206350513838952
      ],
      [
        "▁noon",
        -9.206357762030567
      ],
      [
        "ture",
        -9.20863178096557
      ],
      [
        "▁student",
        -9.20891539945716
      ],
      [
        "▁hotel",
        -9.209485028302009
      ],
      [
        "▁eas",
        -9.212132147193458
      ],
      [
        "▁indiana",
        -9.212558349732925
      ],
      [
        "red",
        -9.21582599599655
      ],
      [
        "▁cold",
        -9.216979104070413
      ],
      [
        "▁include",
        -9.216986405140428
      ],
      [
        "▁window",
        -9.217127328666912
      ],
      [
        "security",
        -9.217458031192962
      ],
      [
        "▁design",
        -9.218271002179119
      ],
      [
        "▁peter",
        -9.220999749905559
      ],
      [
        "▁ne",
        -9.2212906665638
      ],
      [
        "qui",
        -9.22201610858918
      ],
      [
        "▁personal",
        -9.222584384474242
      ],
      [
        "▁sara",
        -9.223811884041279
      ],
      [
        "▁pet",
        -9.223841977159683
      ],
      [
        "▁gone",
        -9.225096978200465
      ],
      [
        "▁restaurant",
        -9.225242201536666
      ],
      [
        "▁road",
        -9.225317016652646
      ],
      [
        "▁special",
        -9.225606916726829
      ],
      [
        "▁iran",
        -9.226054583333934
      ],
      [
        "time",
        -9.227224180903104
      ],
      [
        "%",
        -9.23350666340769
      ],
      [
        "▁chicken",
        -9.233508671816054
      ],
      [
        "craft",
        -9.23354479527287
      ],
      [
        "▁shall",
        -9.234440742010424
      ],
      [
        "▁team",
        -9.236091286020544
      ],
      [
        "▁hour",
        -9.238412595460936
      ],
      [
        "let",
        -9.238988418459076
      ],
      [
        "▁story",
        -9.239142618098594
      ],
      [
        "▁forward",
        -9.23915769348136
      ],
      [
        "orland",
        -9.240781248828963
      ],
      [
        "▁societ",
        -9.241840006953808
      ],
      [
        "▁accept",
        -9.241840469507753
      ],
      [
        "▁dress",
        -9.24196125066169
      ],
      [
        "▁email",
        -9.242078780248692
      ],
      [
        "▁european",
        -9.242233167922235
      ],
      [
        "▁couple",
        -9.242259742427795
      ],
      [
        "▁mont",
        -9.2459381124836
      ],
      [
        "▁199",
        -9.247096534686271
      ],
      [
        "▁appear",
        -9.250008832288671
      ],
      [
        "▁throw",
        -9.250364789753448
      ],
      [
        "given",
        -9.251590708506413
      ],
      [
        "▁sa",
        -9.25168156215381
      ],
      [
        "hap",
        -9.251922011059163
      ],
      [
        "▁economic",
        -9.253076576975413
      ],
      [
        "▁health",
        -9.254676015587538
      ],
      [
        "▁living",
        -9.25873552033459
      ],
      [
        "▁militar",
        -9.258773167427211
      ],
      [
        "▁english",
        -9.258837573886892
      ],
      [
        "▁pen",
        -9.259227869108411
      ],
      [
        "▁expens",
        -9.261319354252098
      ],
      [
        "▁apri",
        -9.262012406293508
      ],
      [
        "▁difficult",
        -9.267264942904841
      ],
      [
        "▁continent",
        -9.267264952834228
      ],
      [
        "▁energy",
        -9.26726504897702
      ],
      [
        "▁attache",
        -9.267273161148935
      ],
      [
        "▁specific",
        -9.26747312979045
      ],
      [
        "▁meet",
        -9.267546836652247
      ],
      [
        "▁claim",
        -9.267600453944365
      ],
      [
        "▁inside",
        -9.269739743855773
      ],
      [
        "ler",
        -9.269921844621964
      ],
      [
        "fu",
        -9.272499522267413
      ],
      [
        "ham",
        -9.274506261411545
      ],
      [
        "▁account",
        -9.275885633220264
      ],
      [
        "▁third",
        -9.275885803260454
      ],
      [
        "▁doctor",
        -9.275887755886329
      ],
      [
        "▁address",
        -9.275888271956351
      ],
      [
        "▁parent",
        -9.275888887468955
      ],
      [
        "▁middle",
        -9.275891826693218
      ],
      [
        "▁fair",
        -9.275997180328377
      ],
      [
        "▁eight",
        -9.276393560434144
      ],
      [
        "▁truck",
        -9.278090431715956
      ],
      [
        "han",
        -9.279119067880826
      ],
      [
        "▁agreement",
        -9.284992991335642
      ],
      [
        "▁card",
        -9.286393332544456
      ],
      [
        "▁key",
        -9.286414020660253
      ],
      [
        "row",
        -9.28743285914748
      ],
      [
        "▁drive",
        -9.288298546382762
      ],
      [
        "▁inter",
        -9.290228610832354
      ],
      [
        "▁hands",
        -9.290947889288876
      ],
      [
        "▁increase",
        -9.29335322750498
      ],
      [
        "▁source",
        -9.29337023193533
      ],
      [
        "▁rate",
        -9.295440933320467
      ],
      [
        "14",
        -9.29580896980461
      ],
      [
        "bu",
        -9.29664944449554
      ],
      [
        "gen",
        -9.296744908480807
      ],
      [
        "▁site",
        -9.297173126741232
      ],
      [
        "bra",
        -9.301592141395185
      ],
      [
        "▁beautiful",
        -9.302202772178838
      ],
      [
        "▁communit",
        -9.302202784135714
      ],
      [
        "history",
        -9.302361649519714
      ],
      [
        "▁woman",
        -9.303096778950469
      ],
      [
        "▁wi",
        -9.304967280899522
      ],
      [
        "▁cleve",
        -9.30704045519197
      ],
      [
        "▁bus",
        -9.308664087079933
      ],
      [
        "▁trans",
        -9.309874796673983
      ],
      [
        "uc",
        -9.309995816486394
      ],
      [
        "table",
        -9.310118192905367
      ],
      [
        "▁balzac",
        -9.311131347345286
      ],
      [
        "▁further",
        -9.31113134791945
      ],
      [
        "▁explain",
        -9.311131392030301
      ],
      [
        "▁george",
        -9.311131456984716
      ],
      [
        "▁attack",
        -9.311158717484815
      ],
      [
        "▁east",
        -9.312852725088685
      ],
      [
        "▁pl",
        -9.31443161938364
      ],
      [
        "▁building",
        -9.317211943989122
      ],
      [
        "▁court",
        -9.320185042424889
      ],
      [
        "▁lunch",
        -9.32025300036228
      ],
      [
        "▁exist",
        -9.320421628505418
      ],
      [
        "▁rock",
        -9.320516796178586
      ],
      [
        "cent",
        -9.320950600227563
      ],
      [
        "▁ka",
        -9.32571036973564
      ],
      [
        "ought",
        -9.325720792341862
      ],
      [
        "▁require",
        -9.32879481002766
      ],
      [
        "▁wrong",
        -9.329231293745103
      ],
      [
        "▁document",
        -9.32923499492532
      ],
      [
        "▁seattle",
        -9.329239484913415
      ],
      [
        "▁comment",
        -9.32932611943888
      ],
      [
        "▁angel",
        -9.330109510671079
      ],
      [
        "▁development",
        -9.332702637002967
      ],
      [
        "▁speak",
        -9.332867618605253
      ],
      [
        "▁beach",
        -9.33532327439799
      ],
      [
        "▁funn",
        -9.336775624907114
      ],
      [
        "▁reli",
        -9.336938167584538
      ],
      [
        "▁discuss",
        -9.337658310974463
      ],
      [
        "▁program",
        -9.337837845204307
      ],
      [
        "▁kansa",
        -9.338406736763929
      ],
      [
        "▁voice",
        -9.338445302790936
      ],
      [
        "▁charge",
        -9.340396771957371
      ],
      [
        "▁america",
        -9.343297599029684
      ],
      [
        "▁fr",
        -9.344558220770855
      ],
      [
        "ship",
        -9.346438871994774
      ],
      [
        "▁depart",
        -9.347099259894641
      ],
      [
        "head",
        -9.347194002892696
      ],
      [
        "▁agree",
        -9.347305268501371
      ],
      [
        "+",
        -9.347656697559698
      ],
      [
        "▁produce",
        -9.347667249710621
      ],
      [
        "ition",
        -9.348164303186504
      ],
      [
        "▁trie",
        -9.348547256435221
      ],
      [
        "▁sort",
        -9.348767341701262
      ],
      [
        "ursu",
        -9.349541479853922
      ],
      [
        "▁date",
        -9.350342848866276
      ],
      [
        "men",
        -9.35044326254458
      ],
      [
        "▁boat",
        -9.352159427959876
      ],
      [
        "▁oil",
        -9.354418561092755
      ],
      [
        "▁position",
        -9.354884576773767
      ],
      [
        "▁figure",
        -9.35701084255295
      ],
      [
        "▁request",
        -9.357010983713616
      ],
      [
        "▁natural",
        -9.357011251661064
      ],
      [
        "▁reach",
        -9.358815355808435
      ],
      [
        "▁moment",
        -9.358889755696634
      ],
      [
        "▁plant",
        -9.361089154916172
      ],
      [
        "▁india",
        -9.36178480406479
      ],
      [
        "▁fund",
        -9.363338126820889
      ],
      [
        "by",
        -9.365739104474228
      ],
      [
        "aught",
        -9.366270747516529
      ],
      [
        "▁especial",
        -9.366444752689219
      ],
      [
        "▁million",
        -9.366450510667981
      ],
      [
        "▁rath",
        -9.366686601898426
      ],
      [
        "▁scar",
        -9.367749562935693
      ],
      [
        "▁poor",
        -9.369928802012932
      ],
      [
        "▁works",
        -9.371932734429636
      ],
      [
        "taken",
        -9.373701710906214
      ],
      [
        "▁hug",
        -9.374672371894832
      ],
      [
        "▁birthday",
        -9.375968399099431
      ],
      [
        "▁detail",
        -9.375968419108558
      ],
      [
        "▁ticket",
        -9.375968971054949
      ],
      [
        "▁warm",
        -9.377244472985009
      ],
      [
        "▁words",
        -9.377693408629911
      ],
      [
        "▁rain",
        -9.378074241230843
      ],
      [
        "▁license",
        -9.3785212796192
      ],
      [
        "▁born",
        -9.37907280657446
      ],
      [
        "hours",
        -9.382006497076528
      ],
      [
        "cal",
        -9.382766194251253
      ],
      [
        "▁subject",
        -9.385583832203444
      ],
      [
        "▁official",
        -9.385584669962423
      ],
      [
        "▁respect",
        -9.385587578050593
      ],
      [
        "▁doggie",
        -9.385709497679812
      ],
      [
        "▁fit",
        -9.385768567876688
      ],
      [
        "▁finger",
        -9.38577120846192
      ],
      [
        "rry",
        -9.385780613730311
      ],
      [
        "▁notice",
        -9.386608061074263
      ],
      [
        "▁item",
        -9.388493947056835
      ],
      [
        "▁#",
        -9.39270343273289
      ],
      [
        "▁br",
        -9.393041558961528
      ],
      [
        "▁breakfast",
        -9.39529252492725
      ],
      [
        "▁excellent",
        -9.39529268416726
      ],
      [
        "▁activit",
        -9.395299147788407
      ],
      [
        "▁difference",
        -9.395305364297053
      ],
      [
        "▁above",
        -9.395321218713196
      ],
      [
        "▁connection",
        -9.395782924246477
      ],
      [
        "▁<",
        -9.400775424204479
      ],
      [
        "▁suggest",
        -9.404345004306883
      ],
      [
        "▁wonder",
        -9.40486423385915
      ],
      [
        "▁bed",
        -9.405087772352104
      ],
      [
        "▁attention",
        -9.405097072023494
      ],
      [
        "▁glass",
        -9.405099168602918
      ],
      [
        "▁gi",
        -9.406400345802087
      ],
      [
        "▁tax",
        -9.408651430743745
      ],
      [
        "▁button",
        -9.408674144027842
      ],
      [
        "▁treat",
        -9.408840037155517
      ],
      [
        "rate",
        -9.41065978462196
      ],
      [
        "▁turned",
        -9.412198450460405
      ],
      [
        "▁lay",
        -9.413048018320225
      ],
      [
        "▁effort",
        -9.414997433343025
      ],
      [
        "▁summer",
        -9.414997752278477
      ],
      [
        "▁decision",
        -9.414998563478992
      ],
      [
        "▁yellow",
        -9.414999079148451
      ],
      [
        "▁daily",
        -9.415029370726597
      ],
      [
        "▁peace",
        -9.415077097503573
      ],
      [
        "=",
        -9.41508148105827
      ],
      [
        "▁!!",
        -9.415505250167815
      ],
      [
        "▁fill",
        -9.416300677693062
      ],
      [
        "▁shop",
        -9.417216568627595
      ],
      [
        "▁pan",
        -9.42071453467435
      ],
      [
        "▁cla",
        -9.421728061537898
      ],
      [
        "▁cap",
        -9.421957939581038
      ],
      [
        "▁effect",
        -9.424502948496738
      ],
      [
        "▁hell",
        -9.42476075222202
      ],
      [
        "▁studie",
        -9.424997533671743
      ],
      [
        "▁texa",
        -9.424997772356413
      ],
      [
        "▁sha",
        -9.42690806053199
      ],
      [
        "day",
        -9.427666303312563
      ],
      [
        "▁nose",
        -9.428699775340409
      ],
      [
        "▁gas",
        -9.42881944829548
      ],
      [
        "▁vote",
        -9.429024849936335
      ],
      [
        "ley",
        -9.432075600582742
      ],
      [
        "▁slow",
        -9.432077955587916
      ],
      [
        "▁code",
        -9.436346678023394
      ],
      [
        "▁touch",
        -9.438342141095596
      ],
      [
        "▁rep",
        -9.439131937095857
      ],
      [
        "▁cook",
        -9.439655941999735
      ],
      [
        "▁europe",
        -9.444977367719726
      ],
      [
        "room",
        -9.445031925389374
      ],
      [
        "▁filter",
        -9.44530340441393
      ],
      [
        "▁earth",
        -9.445858262879053
      ],
      [
        "ban",
        -9.446190163068628
      ],
      [
        "▁nine",
        -9.449017528081548
      ],
      [
        "log",
        -9.449956183419658
      ],
      [
        "▁sorr",
        -9.450106464193402
      ],
      [
        "▁listen",
        -9.450750405388476
      ],
      [
        "▁product",
        -9.451206847780206
      ],
      [
        "▁surprise",
        -9.455611803285539
      ],
      [
        "▁square",
        -9.455611803485475
      ],
      [
        "▁message",
        -9.45576598474878
      ],
      [
        "▁bill",
        -9.456516457143127
      ],
      [
        "▁fight",
        -9.458515906167577
      ],
      [
        "▁limit",
        -9.461825438108127
      ],
      [
        "came",
        -9.46226952348886
      ],
      [
        "▁education",
        -9.46602958550775
      ],
      [
        "▁louis",
        -9.466030670405928
      ],
      [
        "▁mouth",
        -9.466048901895016
      ],
      [
        "▁dirt",
        -9.466093900605141
      ],
      [
        "▁link",
        -9.466585249972521
      ],
      [
        "▁wish",
        -9.467418051997686
      ],
      [
        "▁moral",
        -9.467454306476036
      ],
      [
        "▁save",
        -9.467846696939809
      ],
      [
        "▁join",
        -9.468066966816874
      ],
      [
        "rench",
        -9.468174440397123
      ],
      [
        "▁har",
        -9.4692527741058
      ],
      [
        "wood",
        -9.470083572691824
      ],
      [
        "▁tree",
        -9.47049096206024
      ],
      [
        "ner",
        -9.47181419527005
      ],
      [
        "▁30",
        -9.47348951214806
      ],
      [
        "▁members",
        -9.473655810557641
      ],
      [
        "2001",
        -9.474572881063693
      ],
      [
        "▁services",
        -9.47492200355877
      ],
      [
        "▁global",
        -9.476554785794542
      ],
      [
        "▁serious",
        -9.476564207450133
      ],
      [
        "▁equal",
        -9.47677433866308
      ],
      [
        "animals",
        -9.476785963703687
      ],
      [
        "ka",
        -9.477491131890371
      ],
      [
        "▁min",
        -9.48070738745735
      ],
      [
        "▁fi",
        -9.482111567471563
      ],
      [
        "▁fell",
        -9.482433193979201
      ],
      [
        "sterda",
        -9.482666717217324
      ],
      [
        "▁original",
        -9.483818405659374
      ],
      [
        "ick",
        -9.485101586436603
      ],
      [
        "fore",
        -9.485600332769835
      ],
      [
        "▁hundred",
        -9.487193101896844
      ],
      [
        "▁culture",
        -9.487193761896865
      ],
      [
        "▁saying",
        -9.487518225387976
      ],
      [
        "▁nor",
        -9.490496633617418
      ],
      [
        "mission",
        -9.490703653651536
      ],
      [
        "own",
        -9.490772858160945
      ],
      [
        "▁simpl",
        -9.49354367589202
      ],
      [
        "▁lead",
        -9.49661372231175
      ],
      [
        "lan",
        -9.497778215419103
      ],
      [
        "▁entire",
        -9.497947509527384
      ],
      [
        "▁jump",
        -9.497955138671578
      ],
      [
        "▁sense",
        -9.497977374940646
      ],
      [
        "▁....",
        -9.498144754033433
      ],
      [
        "▁total",
        -9.49958152027689
      ],
      [
        "80",
        -9.504575066001383
      ],
      [
        "01",
        -9.504662232014649
      ],
      [
        "▁trade",
        -9.50474380805672
      ],
      [
        "▁except",
        -9.50806390014384
      ],
      [
        "▁plane",
        -9.508098848153235
      ],
      [
        "▁video",
        -9.508816606416346
      ],
      [
        "▁situation",
        -9.508817829945372
      ],
      [
        "▁joke",
        -9.50917416355626
      ],
      [
        "▁station",
        -9.509252570428723
      ],
      [
        "kept",
        -9.50948771233404
      ],
      [
        "▁blow",
        -9.50995798009977
      ],
      [
        "▁tie",
        -9.510318747906219
      ],
      [
        "ang",
        -9.513068322112755
      ],
      [
        "ator",
        -9.515700900873352
      ],
      [
        "uk",
        -9.516562559853508
      ],
      [
        "▁nov",
        -9.51689611203448
      ],
      [
        "ade",
        -9.516956513556813
      ],
      [
        "lip",
        -9.517408057975508
      ],
      [
        "▁tin",
        -9.51843424033289
      ],
      [
        "23",
        -9.519781815013626
      ],
      [
        "▁california",
        -9.519804347915377
      ],
      [
        "▁measure",
        -9.519806205808813
      ],
      [
        "▁music",
        -9.52039536817859
      ],
      [
        "real",
        -9.520531567397239
      ],
      [
        "tar",
        -9.52084267696501
      ],
      [
        "▁according",
        -9.522147188152879
      ],
      [
        "▁pr",
        -9.52549560664875
      ],
      [
        "gar",
        -9.528491804469809
      ],
      [
        "▁manage",
        -9.52931966644765
      ],
      [
        "▁books",
        -9.52932531251637
      ],
      [
        "20",
        -9.529592533521361
      ],
      [
        "▁london",
        -9.530915636233033
      ],
      [
        "▁financial",
        -9.53091812194798
      ],
      [
        "▁computer",
        -9.530919350813296
      ],
      [
        "▁focus",
        -9.530927033925519
      ],
      [
        "ville",
        -9.53094066240756
      ],
      [
        "internet",
        -9.530952650734246
      ],
      [
        "▁super",
        -9.530973006122682
      ],
      [
        "▁tire",
        -9.531444603591014
      ],
      [
        "▁toward",
        -9.536130597353118
      ],
      [
        "uff",
        -9.536453996356707
      ],
      [
        "ov",
        -9.538973799854817
      ],
      [
        "pain",
        -9.539252011595254
      ],
      [
        "▁allow",
        -9.539714401126004
      ],
      [
        "04",
        -9.541107394458376
      ],
      [
        "▁contact",
        -9.542151417982996
      ],
      [
        "▁schedule",
        -9.542151450319928
      ],
      [
        "▁pocket",
        -9.542151465621881
      ],
      [
        "▁method",
        -9.542153244635667
      ],
      [
        "▁foot",
        -9.54220360505033
      ],
      [
        "▁image",
        -9.54236306591606
      ],
      [
        "▁driv",
        -9.542565706797234
      ],
      [
        "▁mention",
        -9.542990665128418
      ],
      [
        "▁march",
        -9.543596175991109
      ],
      [
        "▁runn",
        -9.543958594159353
      ],
      [
        "▁meal",
        -9.544177414913225
      ],
      [
        "▁heart",
        -9.546891649086037
      ],
      [
        "▁true",
        -9.546986308833546
      ],
      [
        "▁easi",
        -9.549326360948275
      ],
      [
        "▁mis",
        -9.551938262425635
      ],
      [
        "▁mm",
        -9.553466783293471
      ],
      [
        "▁attempt",
        -9.553515097402386
      ],
      [
        "▁writing",
        -9.553515252521905
      ],
      [
        "▁condition",
        -9.553519268981873
      ],
      [
        "▁vari",
        -9.554128143769919
      ],
      [
        "▁owner",
        -9.554996525518089
      ],
      [
        "▁role",
        -9.555864386150954
      ],
      [
        "val",
        -9.55664439030409
      ],
      [
        "itting",
        -9.556792078957667
      ],
      [
        "▁web",
        -9.556918138928847
      ],
      [
        "▁region",
        -9.562335675448221
      ],
      [
        "rote",
        -9.564570347816312
      ],
      [
        "▁church",
        -9.565010156988565
      ],
      [
        "▁etc",
        -9.565529032490211
      ],
      [
        "▁met",
        -9.565811606854307
      ],
      [
        "▁wall",
        -9.566106119904877
      ],
      [
        "▁seat",
        -9.568040864340418
      ],
      [
        "▁policy",
        -9.56868752001995
      ],
      [
        "▁creat",
        -9.573032429637923
      ],
      [
        "▁kill",
        -9.574259588688424
      ],
      [
        "▁wash",
        -9.57446001052006
      ],
      [
        "▁wide",
        -9.574519940442398
      ],
      [
        "nia",
        -9.576128062525033
      ],
      [
        "▁character",
        -9.576637223697492
      ],
      [
        "▁correct",
        -9.576637231438042
      ],
      [
        "▁necessar",
        -9.576637271187767
      ],
      [
        "▁application",
        -9.576669081933142
      ],
      [
        "▁honey",
        -9.576850630361744
      ],
      [
        "▁laugh",
        -9.576877244461784
      ],
      [
        "mphi",
        -9.577260280795803
      ],
      [
        "▁roll",
        -9.578325404806447
      ],
      [
        "▁camp",
        -9.57868060760043
      ],
      [
        "▁expect",
        -9.578689058993344
      ],
      [
        "▁anyway",
        -9.578691104998509
      ],
      [
        "▁ap",
        -9.579096040685194
      ],
      [
        "▁carry",
        -9.579108714054067
      ],
      [
        "▁fix",
        -9.58001213127782
      ],
      [
        "2005",
        -9.580163400273916
      ],
      [
        "▁tape",
        -9.580628800851311
      ],
      [
        "ou",
        -9.582904390088707
      ],
      [
        "ped",
        -9.583252138768636
      ],
      [
        "▁describe",
        -9.58339979326394
      ],
      [
        "▁win",
        -9.586403723469028
      ],
      [
        "▁rec",
        -9.587245500858772
      ],
      [
        "▁animal",
        -9.588145716864556
      ],
      [
        "▁extreme",
        -9.58840193498753
      ],
      [
        "▁exact",
        -9.588402046564761
      ],
      [
        "night",
        -9.588421266286204
      ],
      [
        "▁stick",
        -9.588494416040303
      ],
      [
        "▁catch",
        -9.58995758854302
      ],
      [
        "▁dry",
        -9.596209426219172
      ],
      [
        "▁website",
        -9.600307100709761
      ],
      [
        "▁perfect",
        -9.600308116794317
      ],
      [
        "▁river",
        -9.60032180661403
      ],
      [
        "▁shirt",
        -9.60032319269273
      ],
      [
        "▁spoke",
        -9.600475060389957
      ],
      [
        "▁civil",
        -9.60067599541312
      ],
      [
        "▁clothes",
        -9.601410219990605
      ],
      [
        "▁option",
        -9.601726761307905
      ],
      [
        "▁qa",
        -9.602219847819399
      ],
      [
        "▁beat",
        -9.602658538392369
      ],
      [
        "▁police",
        -9.603652934033008
      ],
      [
        "▁press",
        -9.604672416104453
      ],
      [
        "▁pop",
        -9.606134420113724
      ],
      [
        "22",
        -9.609841388170427
      ],
      [
        "▁sat",
        -9.611563084172815
      ],
      [
        "▁parliament",
        -9.612354871132984
      ],
      [
        "▁bottle",
        -9.612356480788542
      ],
      [
        "▁location",
        -9.612358319182782
      ],
      [
        "▁interview",
        -9.61237843665684
      ],
      [
        "▁cra",
        -9.612527708410486
      ],
      [
        "▁toast",
        -9.613411288326436
      ],
      [
        "▁gu",
        -9.614055082356739
      ],
      [
        "▁author",
        -9.615774500493973
      ],
      [
        "▁israel",
        -9.618249647907344
      ],
      [
        "col",
        -9.6228434017515
      ],
      [
        "▁feed",
        -9.623586553047772
      ],
      [
        "▁trouble",
        -9.624549993244717
      ],
      [
        "▁response",
        -9.624549993299492
      ],
      [
        "▁citi",
        -9.624554996917228
      ],
      [
        "▁cheese",
        -9.624555721284212
      ],
      [
        "stair",
        -9.624743992586481
      ],
      [
        "▁deep",
        -9.624886260074781
      ],
      [
        "▁center",
        -9.625184837886032
      ],
      [
        "ung",
        -9.626816817771726
      ],
      [
        "▁decided",
        -9.630541675714994
      ],
      [
        "08",
        -9.632005845970319
      ],
      [
        "▁plann",
        -9.632867521869164
      ],
      [
        "ox",
        -9.634161531469246
      ],
      [
        "▁express",
        -9.636143208980581
      ],
      [
        "▁refer",
        -9.636850553768289
      ],
      [
        "▁coffee",
        -9.636895731735047
      ],
      [
        "▁banana",
        -9.636965831115402
      ],
      [
        "▁article",
        -9.6373219170432
      ],
      [
        "▁tea",
        -9.637433331288747
      ],
      [
        "kin",
        -9.638417741897822
      ],
      [
        "eries",
        -9.639069913703032
      ],
      [
        "▁supposed",
        -9.640609571024008
      ],
      [
        "▁ken",
        -9.640971603508529
      ],
      [
        "▁jer",
        -9.641243100531025
      ],
      [
        "▁establish",
        -9.646519466936269
      ],
      [
        "bru",
        -9.648851553691932
      ],
      [
        "▁professional",
        -9.649395671817906
      ],
      [
        "▁brother",
        -9.649396035777666
      ],
      [
        "▁xml",
        -9.649401292372499
      ],
      [
        "▁attend",
        -9.649442230185013
      ],
      [
        "▁text",
        -9.650233603640459
      ],
      [
        "▁lives",
        -9.650981821587719
      ],
      [
        "dding",
        -9.650982883419976
      ],
      [
        "▁involve",
        -9.651643703355948
      ],
      [
        "15",
        -9.652015771747841
      ],
      [
        "▁low",
        -9.655256781868276
      ],
      [
        "▁stor",
        -9.661195389966391
      ],
      [
        "ran",
        -9.661624551310256
      ],
      [
        "▁busy",
        -9.661627596975947
      ],
      [
        "▁copy",
        -9.661997715287466
      ],
      [
        "▁publish",
        -9.662053899667601
      ],
      [
        "▁benefit",
        -9.662053946384013
      ],
      [
        "▁pakistan",
        -9.662054181426818
      ],
      [
        "century",
        -9.662061902035171
      ],
      [
        "▁risk",
        -9.662066480140194
      ],
      [
        "▁twi",
        -9.662221125797906
      ],
      [
        "▁jose",
        -9.662595920275297
      ],
      [
        "▁age",
        -9.662788141609209
      ],
      [
        "ney",
        -9.663155064147654
      ],
      [
        "▁basic",
        -9.663938770925617
      ],
      [
        "ax",
        -9.664718155257862
      ],
      [
        "▁fast",
        -9.665550480214582
      ],
      [
        "▁board",
        -9.666173811772696
      ],
      [
        "mike",
        -9.666509676665394
      ],
      [
        "cc",
        -9.667279746511817
      ],
      [
        "▁ok",
        -9.668968924690827
      ],
      [
        "▁model",
        -9.670161097039706
      ],
      [
        "▁mode",
        -9.670528337621084
      ],
      [
        "▁legal",
        -9.670559867135516
      ],
      [
        "▁ship",
        -9.670778428534737
      ],
      [
        "▁25",
        -9.670855553342786
      ],
      [
        "▁fan",
        -9.67174272627751
      ],
      [
        "the",
        -9.672808691430589
      ],
      [
        "▁kitt",
        -9.674343003031334
      ],
      [
        "▁thousand",
        -9.674874598837974
      ],
      [
        "▁credit",
        -9.67487756564729
      ],
      [
        "▁capital",
        -9.674877588026671
      ],
      [
        "ious",
        -9.675272620505032
      ],
      [
        "load",
        -9.675607159393481
      ],
      [
        "▁programme",
        -9.675670471015511
      ],
      [
        "set",
        -9.675960367212022
      ],
      [
        "▁dan",
        -9.67768376467079
      ],
      [
        "▁bite",
        -9.679907117372206
      ],
      [
        "istan",
        -9.680153243575546
      ],
      [
        "janu",
        -9.680327911081296
      ],
      [
        "▁band",
        -9.680768424025874
      ],
      [
        "▁implement",
        -9.687861453501387
      ],
      [
        "▁paris",
        -9.687944467972027
      ],
      [
        "▁taste",
        -9.688259954956632
      ],
      [
        "▁2000",
        -9.688642442216352
      ],
      [
        "▁heat",
        -9.688746929466745
      ],
      [
        "▁memor",
        -9.689435804484095
      ],
      [
        "▁kar",
        -9.691210996661367
      ],
      [
        "▁interesting",
        -9.692082293738395
      ],
      [
        "incin",
        -9.692102905341617
      ],
      [
        "30",
        -9.692391098339927
      ],
      [
        "▁sad",
        -9.694020908523147
      ],
      [
        "▁stopp",
        -9.694713171655124
      ],
      [
        "▁bre",
        -9.695282195277834
      ],
      [
        ":00",
        -9.698411835026253
      ],
      [
        "▁eggs",
        -9.698680321274535
      ],
      [
        "▁mail",
        -9.698777208708176
      ],
      [
        "▁protect",
        -9.700276802298603
      ],
      [
        "▁opportunit",
        -9.701019320225761
      ],
      [
        "▁dinosaur",
        -9.701019320274753
      ],
      [
        "▁council",
        -9.70101933324182
      ],
      [
        "▁horsie",
        -9.701021161450758
      ],
      [
        "▁begin",
        -9.70109378022585
      ],
      [
        "▁lack",
        -9.701544029377136
      ],
      [
        "▁sky",
        -9.701752186998498
      ],
      [
        "▁pack",
        -9.70176754441685
      ],
      [
        "▁qu",
        -9.702506447276054
      ],
      [
        "40",
        -9.70417529538068
      ],
      [
        "▁relat",
        -9.705141900266097
      ],
      [
        "ampa",
        -9.705249203780792
      ],
      [
        "ists",
        -9.706113587691346
      ],
      [
        "05",
        -9.707216932762112
      ],
      [
        "iff",
        -9.707939322766894
      ],
      [
        "▁god",
        -9.710316966103385
      ],
      [
        "▁hole",
        -9.712196961362267
      ],
      [
        "▁spend",
        -9.712769970650111
      ],
      [
        "▁contract",
        -9.712931062891666
      ],
      [
        "board",
        -9.713451859900358
      ],
      [
        "▁individual",
        -9.714352653541486
      ],
      [
        "▁display",
        -9.71435269819377
      ],
      [
        "▁favorite",
        -9.714355704947966
      ],
      [
        "▁teacher",
        -9.714388148225378
      ],
      [
        "&",
        -9.714393644656127
      ],
      [
        "▁bowl",
        -9.714439761661456
      ],
      [
        "▁chance",
        -9.714648351760841
      ],
      [
        "▁media",
        -9.714826770252515
      ],
      [
        "▁bank",
        -9.714874895442819
      ],
      [
        "▁indian",
        -9.71551478290562
      ],
      [
        "▁christ",
        -9.715617053764056
      ],
      [
        "tte",
        -9.715790386754591
      ],
      [
        "▁share",
        -9.717671457043595
      ],
      [
        "▁egg",
        -9.718475218911852
      ],
      [
        "▁momm",
        -9.720788483748438
      ],
      [
        "▁novel",
        -9.721716608430272
      ],
      [
        "▁represent",
        -9.721962648215353
      ],
      [
        "rie",
        -9.722375392417064
      ],
      [
        "▁spen",
        -9.722683729738815
      ],
      [
        "nati",
        -9.722709055106236
      ],
      [
        "09",
        -9.725925462096999
      ],
      [
        "▁grand",
        -9.727548171504555
      ],
      [
        "▁reflect",
        -9.727866173415258
      ],
      [
        "▁juic",
        -9.727951742436241
      ],
      [
        "▁department",
        -9.728509258327293
      ],
      [
        "▁mix",
        -9.7292114758921
      ],
      [
        "▁pictures",
        -9.729395138546119
      ],
      [
        "lic",
        -9.729494749412709
      ],
      [
        "doc",
        -9.732281622232158
      ],
      [
        "rought",
        -9.732619978211112
      ],
      [
        "▁litera",
        -9.732913194858014
      ],
      [
        "▁speci",
        -9.733575251889276
      ],
      [
        "▁science",
        -9.734916050257576
      ],
      [
        "▁para",
        -9.73578764809448
      ],
      [
        "▁former",
        -9.736183167500794
      ],
      [
        "bby",
        -9.74005705729489
      ],
      [
        "▁object",
        -9.741065417389638
      ],
      [
        "▁election",
        -9.74156490561704
      ],
      [
        "▁committee",
        -9.741565041573622
      ],
      [
        "▁population",
        -9.741565085070214
      ],
      [
        "▁knowledge",
        -9.741566228726011
      ],
      [
        "▁sweet",
        -9.741568489343507
      ],
      [
        "▁film",
        -9.741574867311963
      ],
      [
        "▁normal",
        -9.741683076263037
      ],
      [
        "exp",
        -9.742142198394475
      ],
      [
        "standing",
        -9.74333219921008
      ],
      [
        "▁enter",
        -9.74578576338212
      ],
      [
        "▁pott",
        -9.746459579159323
      ],
      [
        "▁song",
        -9.747125801469588
      ],
      [
        "▁proper",
        -9.747256731876623
      ],
      [
        "▁fat",
        -9.747319318898725
      ],
      [
        "eating",
        -9.748597352189922
      ],
      [
        "▁environment",
        -9.75029735114078
      ],
      [
        "▁size",
        -9.751748958188164
      ],
      [
        "▁!!!",
        -9.75540359678936
      ],
      [
        "▁similar",
        -9.755453686093983
      ],
      [
        "▁pencil",
        -9.755453711020973
      ],
      [
        "▁definite",
        -9.755457420817962
      ],
      [
        "ritten",
        -9.755459292975473
      ],
      [
        "▁fresh",
        -9.755465711078593
      ],
      [
        "▁style",
        -9.75547247553381
      ],
      [
        "▁feeling",
        -9.755830938540882
      ],
      [
        "▁single",
        -9.756902532563029
      ],
      [
        "▁ensure",
        -9.756982312124597
      ],
      [
        "▁13",
        -9.758358244374994
      ],
      [
        "▁propose",
        -9.760137155810996
      ],
      [
        "45",
        -9.76364826540097
      ],
      [
        "▁seek",
        -9.764411654312504
      ],
      [
        "▁penn",
        -9.765056321642655
      ],
      [
        "▁ob",
        -9.768849234043937
      ],
      [
        "▁cultural",
        -9.769538193382239
      ],
      [
        "▁structure",
        -9.769538211906331
      ],
      [
        "▁afghan",
        -9.769538247777447
      ],
      [
        "▁section",
        -9.769547875725337
      ],
      [
        "▁orange",
        -9.769566839563335
      ],
      [
        "▁winter",
        -9.770070610335313
      ],
      [
        "▁minne",
        -9.770163487224604
      ],
      [
        "▁fro",
        -9.77022295926729
      ],
      [
        "▁significant",
        -9.770758144324521
      ],
      [
        "wise",
        -9.774674972068594
      ],
      [
        "▁flower",
        -9.776321204544034
      ],
      [
        "▁contain",
        -9.776939432960782
      ],
      [
        "99",
        -9.779629652603138
      ],
      [
        "▁21",
        -9.77998996106059
      ],
      [
        "▁wine",
        -9.781074745869303
      ],
      [
        "ez",
        -9.781141194503444
      ],
      [
        "▁rat",
        -9.78205805967568
      ],
      [
        "▁democra",
        -9.783547615235483
      ],
      [
        "▁release",
        -9.78382516359487
      ],
      [
        "▁modern",
        -9.783848061125411
      ],
      [
        "▁sister",
        -9.783861242290193
      ],
      [
        "ball",
        -9.78546011558624
      ],
      [
        "gra",
        -9.785973930088671
      ],
      [
        "light",
        -9.786965693223927
      ],
      [
        "▁ski",
        -9.790176543986215
      ],
      [
        "▁cry",
        -9.790642530101819
      ],
      [
        "▁writer",
        -9.79380464613319
      ],
      [
        "not",
        -9.796003036230445
      ],
      [
        "aima",
        -9.798090432916073
      ],
      [
        "▁weapon",
        -9.798327537537645
      ],
      [
        "▁element",
        -9.798328510057743
      ],
      [
        "▁magic",
        -9.79838443892147
      ],
      [
        "▁trust",
        -9.798459052337428
      ],
      [
        "▁non-",
        -9.79853567981233
      ],
      [
        "ative",
        -9.799663687367353
      ],
      [
        "▁brit",
        -9.799704019380833
      ],
      [
        "▁stillman",
        -9.800203075295997
      ],
      [
        "▁duck",
        -9.800693841325376
      ],
      [
        "▁mam",
        -9.801994466219117
      ],
      [
        "ama",
        -9.803980250867225
      ],
      [
        "▁ec",
        -9.804963449506326
      ],
      [
        "tie",
        -9.808814936866279
      ],
      [
        "▁factor",
        -9.810287502623188
      ],
      [
        "▁connect",
        -9.812282714983581
      ],
      [
        "▁avoid",
        -9.813022581713561
      ],
      [
        "▁draft",
        -9.813022818692824
      ],
      [
        "▁function",
        -9.813023244679698
      ],
      [
        "▁discover",
        -9.81302359381341
      ],
      [
        "▁content",
        -9.813041180627906
      ],
      [
        "▁bread",
        -9.813088902037812
      ],
      [
        "▁fo",
        -9.814660050166378
      ],
      [
        "▁cool",
        -9.815213180350462
      ],
      [
        "eck",
        -9.819015063768997
      ],
      [
        "known",
        -9.819938342160139
      ],
      [
        "▁union",
        -9.819985122152685
      ],
      [
        "pped",
        -9.821492428951334
      ],
      [
        "▁radi",
        -9.821723713553897
      ],
      [
        "ight",
        -9.822205622627564
      ],
      [
        "ome",
        -9.825055331899883
      ],
      [
        "gui",
        -9.825101143861312
      ],
      [
        "▁purpose",
        -9.827947916909512
      ],
      [
        "▁imagine",
        -9.827947930740068
      ],
      [
        "▁college",
        -9.827947997463056
      ],
      [
        "▁material",
        -9.827948280581909
      ],
      [
        "▁apply",
        -9.828020190556623
      ],
      [
        "▁u.s.",
        -9.82808882692184
      ],
      [
        "▁soft",
        -9.829104955784924
      ],
      [
        "dust",
        -9.829279723807362
      ],
      [
        "10",
        -9.829648874082725
      ],
      [
        "▁hang",
        -9.830215886805886
      ],
      [
        "▁build",
        -9.832833261355866
      ],
      [
        "▁drop",
        -9.833176855625634
      ],
      [
        "03",
        -9.834981984221795
      ],
      [
        "0,000",
        -9.835953801603587
      ],
      [
        "pite",
        -9.836341363090945
      ],
      [
        "ada",
        -9.837620040931817
      ],
      [
        "▁detr",
        -9.838132053616595
      ],
      [
        "▁spot",
        -9.840333305948041
      ],
      [
        "▁wind",
        -9.8419931599617
      ],
      [
        "▁immediate",
        -9.84309943305967
      ],
      [
        "▁proposal",
        -9.84309950843349
      ],
      [
        "▁choice",
        -9.843099970381962
      ],
      [
        "▁blood",
        -9.843100522058691
      ],
      [
        "▁freedom",
        -9.843102047059967
      ],
      [
        "▁balance",
        -9.843106136191214
      ],
      [
        "▁daughter",
        -9.843108258049437
      ],
      [
        "▁weekend",
        -9.84313918209127
      ],
      [
        "▁smell",
        -9.843165158164233
      ],
      [
        "▁tank",
        -9.84316598379025
      ],
      [
        "!!!!",
        -9.843201026314956
      ],
      [
        "▁conference",
        -9.843236272987241
      ],
      [
        "▁nash",
        -9.843250236737877
      ],
      [
        "▁quer",
        -9.84674434655172
      ],
      [
        "rick",
        -9.848270093912921
      ],
      [
        "▁ko",
        -9.850095287243267
      ],
      [
        "▁reading",
        -9.851656689975467
      ],
      [
        "▁sell",
        -9.856229275610385
      ],
      [
        "▁toys",
        -9.856727609053586
      ],
      [
        "▁depend",
        -9.857050537742362
      ],
      [
        "▁accident",
        -9.858484047632999
      ],
      [
        "▁approach",
        -9.858484047703246
      ],
      [
        "▁conversation",
        -9.858484245125455
      ],
      [
        "▁regular",
        -9.858484575510904
      ],
      [
        "▁amazing",
        -9.858485413057338
      ],
      [
        "▁pizza",
        -9.858485576680406
      ],
      [
        "▁citizens",
        -9.858492417417295
      ],
      [
        "▁private",
        -9.858499726236062
      ],
      [
        "▁garden",
        -9.858508066200363
      ],
      [
        "▁foreign",
        -9.858526336694379
      ],
      [
        "▁percentage",
        -9.858710437290025
      ],
      [
        ":30",
        -9.858768474526777
      ],
      [
        "89",
        -9.859129362313702
      ],
      [
        ".com/",
        -9.860100223615085
      ],
      [
        "▁track",
        -9.860208087167642
      ],
      [
        "▁compar",
        -9.860256409369777
      ],
      [
        "▁iraqi",
        -9.86132874563451
      ],
      [
        "2002",
        -9.865179526007005
      ],
      [
        "▁span",
        -9.867891318779202
      ],
      [
        "ext",
        -9.872669091011801
      ],
      [
        "▁practice",
        -9.874109047186396
      ],
      [
        "▁affect",
        -9.874109167189118
      ],
      [
        "▁bottom",
        -9.874109233245132
      ],
      [
        "▁statu",
        -9.874129193199943
      ],
      [
        "▁forgot",
        -9.874295824323983
      ],
      [
        "▁stopover",
        -9.874319682129588
      ],
      [
        "▁marriage",
        -9.874420710149845
      ],
      [
        "▁hm",
        -9.875314565268484
      ],
      [
        "▁desk",
        -9.87534160252524
      ],
      [
        "▁octo",
        -9.875535506896108
      ],
      [
        "▁franc",
        -9.876014667203552
      ],
      [
        "▁stoo",
        -9.876843053848912
      ],
      [
        "▁24",
        -9.88194166103159
      ],
      [
        "▁related",
        -9.884563715830058
      ],
      [
        "▁cage",
        -9.886690570252497
      ],
      [
        "▁congress",
        -9.889982076992066
      ],
      [
        "▁jeff",
        -9.889982185074054
      ],
      [
        "▁suffer",
        -9.89000005159806
      ],
      [
        "industry",
        -9.89000219192339
      ],
      [
        "▁concept",
        -9.890020914772485
      ],
      [
        "▁match",
        -9.890021314285278
      ],
      [
        "▁initial",
        -9.890028003675939
      ],
      [
        "▁directive",
        -9.890962348186346
      ],
      [
        "▁arab",
        -9.892920660408308
      ],
      [
        "▁bug",
        -9.893397176125053
      ],
      [
        "▁circle",
        -9.893955057316377
      ],
      [
        "▁spo",
        -9.8941653614316
      ],
      [
        "▁news",
        -9.894290039320836
      ],
      [
        "<",
        -9.897039330617192
      ],
      [
        "▁additional",
        -9.89769196409478
      ],
      [
        "▁engl",
        -9.89803949218555
      ],
      [
        "▁sevent",
        -9.899648443974069
      ],
      [
        "▁critic",
        -9.90056620359342
      ],
      [
        "28",
        -9.900814570662336
      ],
      [
        "29",
        -9.901541092787934
      ],
      [
        "zer",
        -9.904303657467842
      ],
      [
        "▁wild",
        -9.904789335525159
      ],
      [
        "▁raise",
        -9.905256893638798
      ],
      [
        "▁maintain",
        -9.906111250227443
      ],
      [
        "▁organization",
        -9.9061115340766
      ],
      [
        "▁campaign",
        -9.90611157713224
      ],
      [
        "▁central",
        -9.906113010654572
      ],
      [
        "▁block",
        -9.906113825622661
      ],
      [
        "▁promise",
        -9.90611739954257
      ],
      [
        "▁search",
        -9.906140466644533
      ],
      [
        "▁choose",
        -9.906242461373523
      ],
      [
        "▁successful",
        -9.906320312501972
      ],
      [
        "▁wonderful",
        -9.906500681059516
      ],
      [
        "▁luck",
        -9.906635600432992
      ],
      [
        "▁corner",
        -9.906655544083822
      ],
      [
        "▁neck",
        -9.906705654601794
      ],
      [
        "nature",
        -9.910188934930098
      ],
      [
        "▁manager",
        -9.91073129821212
      ],
      [
        "▁pai",
        -9.91114116301624
      ],
      [
        "nasa",
        -9.911298248786105
      ],
      [
        "▁prepar",
        -9.913795347546298
      ],
      [
        "▁avail",
        -9.918618597103976
      ],
      [
        "ink",
        -9.92023987605284
      ],
      [
        "70",
        -9.92168312323981
      ],
      [
        "▁mathematic",
        -9.922504537852902
      ],
      [
        "▁hospital",
        -9.922504538669997
      ],
      [
        "▁kitchen",
        -9.92250461470659
      ],
      [
        "▁popular",
        -9.922556555535103
      ],
      [
        "▁beginning",
        -9.922560231408445
      ],
      [
        "▁mountain",
        -9.922578427994493
      ],
      [
        "giving",
        -9.922680186867058
      ],
      [
        "▁forget",
        -9.922729421222382
      ],
      [
        "▁noise",
        -9.923073981165562
      ],
      [
        "▁fear",
        -9.923861984904395
      ],
      [
        "canada",
        -9.926074869038974
      ],
      [
        "▁bigge",
        -9.930647642477815
      ],
      [
        "▁van",
        -9.930688884542151
      ],
      [
        "▁cow",
        -9.931455078057631
      ],
      [
        "ign",
        -9.931705437329086
      ],
      [
        "over",
        -9.933992165638568
      ],
      [
        "▁pin",
        -9.936290993179647
      ],
      [
        "▁unit",
        -9.937411521418637
      ],
      [
        "2000",
        -9.937809348779997
      ],
      [
        "▁user",
        -9.938079550071356
      ],
      [
        "oach",
        -9.93904955703701
      ],
      [
        "▁institution",
        -9.939171204501129
      ],
      [
        "▁participat",
        -9.939171221507907
      ],
      [
        "▁solution",
        -9.93917125855258
      ],
      [
        "▁pivot",
        -9.939171319979065
      ],
      [
        "▁estimate",
        -9.93917145651298
      ],
      [
        "▁explor",
        -9.939171566460328
      ],
      [
        "▁advance",
        -9.939171838373472
      ],
      [
        "▁expert",
        -9.939174260309386
      ],
      [
        "▁dream",
        -9.939181822345411
      ],
      [
        "▁temp",
        -9.939184647457184
      ],
      [
        "▁administration",
        -9.939466344936314
      ],
      [
        "▁reference",
        -9.939569619412847
      ],
      [
        "▁hall",
        -9.942800900975719
      ],
      [
        "▁shar",
        -9.943415705336049
      ],
      [
        "▁meat",
        -9.945019205865574
      ],
      [
        "02",
        -9.946196905529824
      ],
      [
        "▁sick",
        -9.94667114985889
      ],
      [
        "istic",
        -9.946784547785668
      ],
      [
        "▁paint",
        -9.94976123836511
      ],
      [
        "▁host",
        -9.953666483751324
      ],
      [
        "zen",
        -9.954839599297465
      ],
      [
        "▁employ",
        -9.955740978790596
      ],
      [
        "▁confirm",
        -9.956120357570683
      ],
      [
        "@enron",
        -9.956120364046694
      ],
      [
        "▁electric",
        -9.956120368172197
      ],
      [
        "▁perform",
        -9.956145972723604
      ],
      [
        "▁decade",
        -9.9563271445796
      ],
      [
        "▁root",
        -9.956641333974012
      ],
      [
        "▁protection",
        -9.957085126262559
      ],
      [
        "▁fax",
        -9.957303359098715
      ],
      [
        "▁cake",
        -9.958418336828457
      ],
      [
        "▁wil",
        -9.9586525452228
      ],
      [
        "▁hop",
        -9.961482947697206
      ],
      [
        "▁slight",
        -9.961670182850849
      ],
      [
        "▁boot",
        -9.961777416405845
      ],
      [
        "▁simple",
        -9.963164197982138
      ],
      [
        "▁conc",
        -9.963537259943745
      ],
      [
        "tress",
        -9.967403435344067
      ],
      [
        "▁allowed",
        -9.969592816652359
      ],
      [
        "▁mass",
        -9.97234620174856
      ],
      [
        "▁absolute",
        -9.973361736341932
      ],
      [
        "▁facilit",
        -9.973361736822048
      ],
      [
        "▁michael",
        -9.973361741260275
      ],
      [
        "▁potential",
        -9.973361747377883
      ],
      [
        "▁welcome",
        -9.973364752996911
      ],
      [
        "▁adult",
        -9.97337249079715
      ],
      [
        "▁repair",
        -9.973435159238711
      ],
      [
        "▁snow",
        -9.97343732650775
      ],
      [
        "▁overall",
        -9.973528354735484
      ],
      [
        "▁brain",
        -9.973685856100966
      ],
      [
        "▁demand",
        -9.973821796390265
      ],
      [
        "▁operation",
        -9.973994845713815
      ],
      [
        "▁machine",
        -9.97416903030642
      ],
      [
        "▁requirement",
        -9.974200574937207
      ],
      [
        "▁effective",
        -9.974217981074165
      ],
      [
        "▁determine",
        -9.975494269409324
      ],
      [
        "▁photograph",
        -9.975662629745944
      ],
      [
        "▁suit",
        -9.975807344905892
      ],
      [
        "▁regional",
        -9.977409122164556
      ],
      [
        "tag",
        -9.979861705242158
      ],
      [
        "31",
        -9.981707660537761
      ],
      [
        "75",
        -9.985999345380481
      ],
      [
        "▁wai",
        -9.98627769044515
      ],
      [
        "guard",
        -9.989547757221755
      ],
      [
        "▁google",
        -9.9909061581828
      ],
      [
        "▁straight",
        -9.99090749637497
      ],
      [
        "▁adopt",
        -9.990912386274106
      ],
      [
        "▁sudden",
        -9.991015390745606
      ],
      [
        "▁aspect",
        -9.991022558311009
      ],
      [
        "▁eastern",
        -9.991160191570696
      ],
      [
        "▁intend",
        -9.991171908513582
      ],
      [
        "▁bomb",
        -9.991417560399931
      ],
      [
        "27",
        -9.99233655506896
      ],
      [
        "▁poet",
        -9.993403892167215
      ],
      [
        "▁butter",
        -9.993842376522023
      ],
      [
        "like",
        -9.99402502868914
      ],
      [
        "ification",
        -9.994494318015267
      ],
      [
        "▁lower",
        -9.995648950702943
      ],
      [
        "sible",
        -10.000072714376625
      ],
      [
        "chest",
        -10.001315400616875
      ],
      [
        "▁mor",
        -10.002613829043216
      ],
      [
        "▁authorit",
        -10.0037019071403
      ],
      [
        "▁bla",
        -10.003856081234314
      ],
      [
        "▁bath",
        -10.004496824744189
      ],
      [
        "▁holding",
        -10.004873877863963
      ],
      [
        "▁advi",
        -10.005544494982452
      ],
      [
        "▁basi",
        -10.005825647095376
      ],
      [
        "▁standard",
        -10.007098060882807
      ],
      [
        "older",
        -10.00811337779247
      ],
      [
        "tacom",
        -10.008442664667083
      ],
      [
        "▁euro",
        -10.008546792133593
      ],
      [
        "▁impact",
        -10.00876274730765
      ],
      [
        "▁david",
        -10.008762846199874
      ],
      [
        "▁climb",
        -10.008762996935072
      ],
      [
        "▁belong",
        -10.00876317411127
      ],
      [
        "▁murder",
        -10.008764065192906
      ],
      [
        "▁federal",
        -10.008764274357313
      ],
      [
        "▁fail",
        -10.008834800040564
      ],
      [
        "▁tail",
        -10.008875653745534
      ],
      [
        "▁brown",
        -10.008909307837651
      ],
      [
        "▁apple",
        -10.008916411798296
      ],
      [
        "▁launch",
        -10.008986510212791
      ],
      [
        "▁careful",
        -10.009480147756381
      ],
      [
        "▁robin",
        -10.00984379409231
      ],
      [
        "yond",
        -10.011414869155885
      ],
      [
        "ible",
        -10.012474122935856
      ],
      [
        "▁observ",
        -10.014382449760316
      ],
      [
        "▁format",
        -10.017116530806883
      ],
      [
        "how",
        -10.017134734835107
      ],
      [
        "bul",
        -10.017188322332974
      ],
      [
        "▁opening",
        -10.017636508349199
      ],
      [
        "▁separate",
        -10.017778650457211
      ],
      [
        "▁meaning",
        -10.019656932453302
      ],
      [
        "thus",
        -10.021093268942163
      ],
      [
        "▁fixed",
        -10.022327750896675
      ],
      [
        "▁100",
        -10.022812614874283
      ],
      [
        "prop",
        -10.02319250866654
      ],
      [
        "▁gun",
        -10.024019084500265
      ],
      [
        "▁hum",
        -10.025164137936908
      ],
      [
        "▁ear",
        -10.025696103588896
      ],
      [
        "ida",
        -10.025929429866151
      ],
      [
        "▁success",
        -10.026708551832481
      ],
      [
        "▁grandmother",
        -10.026944557078167
      ],
      [
        "▁efficien",
        -10.0269445575967
      ],
      [
        "▁associate",
        -10.026944557652167
      ],
      [
        "microsoft",
        -10.02694457035941
      ],
      [
        "▁fundamental",
        -10.026944619732294
      ],
      [
        "▁dangerous",
        -10.026944635604078
      ],
      [
        "▁version",
        -10.026959734362702
      ],
      [
        "▁spell",
        -10.027002501212277
      ],
      [
        "▁shut",
        -10.027083893515925
      ],
      [
        "▁lock",
        -10.02753194445248
      ],
      [
        "▁leaders",
        -10.028521126043398
      ],
      [
        "▁standards",
        -10.029111574328622
      ],
      [
        "▁ron",
        -10.029883393224447
      ],
      [
        "▁challenge",
        -10.030050302383541
      ],
      [
        "▁dance",
        -10.031486686496295
      ],
      [
        "killed",
        -10.032656986855546
      ],
      [
        "▁shi",
        -10.032659653268214
      ],
      [
        "▁deliver",
        -10.03348661243426
      ],
      [
        "▁va",
        -10.034686782608466
      ],
      [
        "▁thre",
        -10.04009845267568
      ],
      [
        "▁dear",
        -10.04410874745676
      ],
      [
        "▁mc",
        -10.044465333437682
      ],
      [
        "35",
        -10.04532794241285
      ],
      [
        "technology",
        -10.045463075620063
      ],
      [
        "▁evidence",
        -10.045463077007804
      ],
      [
        "▁cruise",
        -10.045463077406382
      ],
      [
        "▁progress",
        -10.04546308495023
      ],
      [
        "▁climate",
        -10.045463090369111
      ],
      [
        "▁built",
        -10.045463094714986
      ],
      [
        "▁capacit",
        -10.045464262419998
      ],
      [
        "▁surviv",
        -10.045464341892659
      ],
      [
        "▁promot",
        -10.04546840307257
      ],
      [
        "▁tiger",
        -10.04547548419503
      ],
      [
        "▁coast",
        -10.045476557286694
      ],
      [
        "▁wheel",
        -10.045478814194109
      ],
      [
        "▁breath",
        -10.045585373761416
      ],
      [
        "▁richard",
        -10.045625551716501
      ],
      [
        "graph",
        -10.045633624113364
      ],
      [
        "▁season",
        -10.045658199764606
      ],
      [
        "▁bike",
        -10.045666422710411
      ],
      [
        "▁agenc",
        -10.04653998663882
      ],
      [
        "nny",
        -10.047449067331286
      ],
      [
        "▁leader",
        -10.0489541881017
      ],
      [
        "▁tip",
        -10.050667498040287
      ],
      [
        "▁spa",
        -10.052703553411803
      ],
      [
        "▁chang",
        -10.053191532925426
      ],
      [
        "▁eu",
        -10.053711425391482
      ],
      [
        "place",
        -10.055670305144545
      ],
      [
        "▁career",
        -10.05568739781623
      ],
      [
        "▁online",
        -10.060661262690711
      ],
      [
        "▁shin",
        -10.061389598491331
      ],
      [
        "arra",
        -10.062100124672165
      ],
      [
        "air",
        -10.063447839312396
      ],
      [
        "▁opinion",
        -10.06433101952408
      ],
      [
        "▁analysis",
        -10.064331075449426
      ],
      [
        "spread",
        -10.064331083964904
      ],
      [
        "▁tradition",
        -10.064331573972535
      ],
      [
        "▁reserve",
        -10.064332521706131
      ],
      [
        "▁heavy",
        -10.064334406326527
      ],
      [
        "▁sexual",
        -10.064337435390707
      ],
      [
        "▁>>",
        -10.064337995234842
      ],
      [
        "▁firm",
        -10.064357239888448
      ],
      [
        "▁korea",
        -10.064359725816733
      ],
      [
        "▁companie",
        -10.064367620786017
      ],
      [
        "▁bathroom",
        -10.064414915759654
      ],
      [
        "▁percent",
        -10.064868152317326
      ],
      [
        "▁tourist",
        -10.064929122385845
      ],
      [
        "▁treatment",
        -10.06518023162922
      ],
      [
        "▁billion",
        -10.065706924495817
      ],
      [
        "▁bright",
        -10.066613450803256
      ],
      [
        "rap",
        -10.068099446667695
      ],
      [
        "tuck",
        -10.068333959996425
      ],
      [
        "▁statement",
        -10.06862487307034
      ],
      [
        "▁rose",
        -10.069222296628105
      ],
      [
        "▁shape",
        -10.06926783537559
      ],
      [
        "ood",
        -10.069291101331647
      ],
      [
        "products",
        -10.069742323800709
      ],
      [
        "▁tre",
        -10.069792468252418
      ],
      [
        "ql",
        -10.072005880590455
      ],
      [
        "▁camel",
        -10.075237234270876
      ],
      [
        "▁mid",
        -10.075528872266927
      ],
      [
        "gie",
        -10.078326883924344
      ],
      [
        "▁moon",
        -10.078994254574246
      ],
      [
        "▁collect",
        -10.079230442114403
      ],
      [
        "▁pig",
        -10.080968392618614
      ],
      [
        "ware",
        -10.08205649811983
      ],
      [
        "▁distribut",
        -10.083561769300955
      ],
      [
        "▁thirty",
        -10.083561771860488
      ],
      [
        "▁obvious",
        -10.083561842120096
      ],
      [
        "▁relationship",
        -10.08356186884291
      ],
      [
        "▁spider",
        -10.083561942803012
      ],
      [
        "▁target",
        -10.083562731156785
      ],
      [
        "▁prevent",
        -10.083564111643225
      ],
      [
        "▁glad",
        -10.083626116862792
      ],
      [
        "▁performance",
        -10.083826574895994
      ],
      [
        "▁replace",
        -10.084139042708049
      ],
      [
        "▁grant",
        -10.08433521228302
      ],
      [
        "upper",
        -10.084352589656733
      ],
      [
        "▁repeat",
        -10.084858721081947
      ],
      [
        "ium",
        -10.087246150868985
      ],
      [
        "dden",
        -10.08737180144584
      ],
      [
        "▁terribl",
        -10.08892402350527
      ],
      [
        "▁metal",
        -10.09054254809909
      ],
      [
        "▁pant",
        -10.093455477367948
      ],
      [
        "▁barn",
        -10.094019003859746
      ],
      [
        "▁lego",
        -10.094099421956365
      ],
      [
        "19",
        -10.09439098803239
      ],
      [
        "uv",
        -10.09575093502215
      ],
      [
        "off",
        -10.102060631386312
      ],
      [
        "*",
        -10.102247009487954
      ],
      [
        "▁spirit",
        -10.10316961487386
      ],
      [
        "▁respond",
        -10.103169625515882
      ],
      [
        "▁religious",
        -10.1031697959589
      ],
      [
        "▁husband",
        -10.103169848828038
      ],
      [
        "▁previous",
        -10.103169892797911
      ],
      [
        "▁female",
        -10.103171025914266
      ],
      [
        "▁brief",
        -10.103171276256285
      ],
      [
        "▁legislati",
        -10.103172003617715
      ],
      [
        "▁teeth",
        -10.103177099584673
      ],
      [
        "▁sector",
        -10.103187591146082
      ],
      [
        "▁rich",
        -10.10321974938566
      ],
      [
        "▁master",
        -10.103403147636417
      ],
      [
        "lia",
        -10.104172902969742
      ],
      [
        "bar",
        -10.104294852707898
      ],
      [
        "▁carrie",
        -10.104329305909566
      ],
      [
        "▁hide",
        -10.104543370451347
      ],
      [
        "▁movement",
        -10.105088904322985
      ],
      [
        "▁cash",
        -10.105268368487124
      ],
      [
        "▁improve",
        -10.105569971730333
      ],
      [
        "▁goal",
        -10.105843937443142
      ],
      [
        "▁director",
        -10.10641091176426
      ],
      [
        "workers",
        -10.11289889920446
      ],
      [
        "▁micro",
        -10.113472539484603
      ],
      [
        "25",
        -10.115007693306724
      ],
      [
        "book",
        -10.115375882774144
      ],
      [
        "32",
        -10.116660411935744
      ],
      [
        "▁gene",
        -10.118229055747477
      ],
      [
        "▁via",
        -10.118404064743427
      ],
      [
        "▁africa",
        -10.11875674375603
      ],
      [
        "▁purchase",
        -10.119986998303318
      ],
      [
        "▁constitution",
        -10.123169612432632
      ],
      [
        "▁responsibilit",
        -10.123169612432848
      ],
      [
        "▁atmospher",
        -10.123169612455271
      ],
      [
        "▁influence",
        -10.123169612521105
      ],
      [
        "▁chocolate",
        -10.123169612588516
      ],
      [
        "▁experiment",
        -10.12316961326416
      ],
      [
        "▁sandwich",
        -10.123169614491813
      ],
      [
        "▁bridge",
        -10.123170125930919
      ],
      [
        "▁strateg",
        -10.123171706271687
      ],
      [
        "▁quote",
        -10.123184331372737
      ],
      [
        "▁spring",
        -10.12320231101912
      ],
      [
        "▁quiet",
        -10.12320380482359
      ],
      [
        "▁surround",
        -10.123212069379974
      ],
      [
        "▁loud",
        -10.123229189516017
      ],
      [
        "burban",
        -10.123456355914113
      ],
      [
        "▁relative",
        -10.12392675411826
      ],
      [
        "▁creative",
        -10.12402781833879
      ],
      [
        "ept",
        -10.124487859970642
      ],
      [
        "facebook",
        -10.124597063722133
      ],
      [
        "▁realize",
        -10.126180613261738
      ],
      [
        "▁russian",
        -10.127417489311863
      ],
      [
        "▁twa",
        -10.12796129482175
      ],
      [
        "ization",
        -10.128284508335593
      ],
      [
        "▁impress",
        -10.128650933053308
      ],
      [
        "pot",
        -10.129830685601773
      ],
      [
        "▁independent",
        -10.130253410190232
      ],
      [
        "rank",
        -10.131090633751768
      ],
      [
        "▁insur",
        -10.131703223629085
      ],
      [
        "plus",
        -10.131791423708265
      ],
      [
        "▁gain",
        -10.131881731181052
      ],
      [
        "crome",
        -10.132413626547097
      ],
      [
        "▁range",
        -10.132417555237794
      ],
      [
        "▁addition",
        -10.134108726354253
      ],
      [
        "hip",
        -10.134161286353525
      ],
      [
        "▁flat",
        -10.134326364319833
      ],
      [
        "▁remove",
        -10.135112018676798
      ],
      [
        "▁jan",
        -10.137637603016495
      ],
      [
        "till",
        -10.139117098265682
      ],
      [
        "▁aware",
        -10.139848678884222
      ],
      [
        "▁skin",
        -10.141976701021823
      ],
      [
        "▁197",
        -10.142533962511921
      ],
      [
        "----------------",
        -10.142745531064953
      ],
      [
        "▁intelligence",
        -10.143577775697237
      ],
      [
        "▁technical",
        -10.14357777575417
      ],
      [
        "▁surface",
        -10.143577776230693
      ],
      [
        "▁argument",
        -10.143577777905037
      ],
      [
        "▁applie",
        -10.143643138535769
      ],
      [
        "▁locate",
        -10.143702372574344
      ],
      [
        "▁debate",
        -10.143742047904906
      ],
      [
        "▁amendment",
        -10.143791522066522
      ],
      [
        "▁generation",
        -10.144328565209497
      ],
      [
        "nger",
        -10.144404200335362
      ],
      [
        "▁task",
        -10.144464138827605
      ],
      [
        "▁marri",
        -10.145702332292387
      ],
      [
        "▁generat",
        -10.145795839381325
      ],
      [
        "corn",
        -10.146059794063788
      ],
      [
        "▁reported",
        -10.146277017028945
      ],
      [
        "▁impos",
        -10.14681987274781
      ],
      [
        "▁fri",
        -10.15087430311307
      ],
      [
        "▁path",
        -10.150885816427506
      ],
      [
        "▁japane",
        -10.151011605605158
      ],
      [
        "▁dish",
        -10.151452299283509
      ],
      [
        "▁wow",
        -10.152306439151427
      ],
      [
        "▁select",
        -10.153482142760815
      ],
      [
        "elected",
        -10.153663155371484
      ],
      [
        "▁terr",
        -10.154348528887969
      ],
      [
        "▁painting",
        -10.156263125066005
      ],
      [
        "▁handle",
        -10.158183952490905
      ],
      [
        "▁understanding",
        -10.159249781225524
      ],
      [
        "▁russia",
        -10.160004861835297
      ],
      [
        "icles",
        -10.160389163477761
      ],
      [
        "▁mexic",
        -10.16394095542407
      ],
      [
        "▁threat",
        -10.164089199526263
      ],
      [
        "47",
        -10.164151883162578
      ],
      [
        "▁judge",
        -10.164411148283346
      ],
      [
        "▁exchange",
        -10.164411151291603
      ],
      [
        "▁vacation",
        -10.164412963521661
      ],
      [
        "▁digital",
        -10.164415588814526
      ],
      [
        "▁worst",
        -10.164421546811543
      ],
      [
        "▁balloon",
        -10.164431915592786
      ],
      [
        "▁scientology",
        -10.164434296580989
      ],
      [
        "▁uncle",
        -10.16444113495434
      ],
      [
        "▁representative",
        -10.16449883380127
      ],
      [
        "▁stock",
        -10.16450974166052
      ],
      [
        "▁auster",
        -10.164511739589251
      ],
      [
        "▁title",
        -10.164512657203206
      ],
      [
        "▁wake",
        -10.164522755744073
      ],
      [
        "▁communication",
        -10.164687008296134
      ],
      [
        "▁apartment",
        -10.164722275715091
      ],
      [
        "▁agent",
        -10.164966121144777
      ],
      [
        "▁visa",
        -10.16517164112126
      ],
      [
        "▁inform",
        -10.165693770936532
      ],
      [
        "▁gentl",
        -10.165739339600087
      ],
      [
        "▁discussion",
        -10.16612249324998
      ],
      [
        "▁smart",
        -10.167046106642237
      ],
      [
        "hood",
        -10.168779556631115
      ],
      [
        "▁carol",
        -10.171728910975819
      ],
      [
        "▁male",
        -10.172126451567076
      ],
      [
        "▁environmental",
        -10.172223067354942
      ],
      [
        "▁mac",
        -10.174139195473572
      ],
      [
        "ific",
        -10.174430607134294
      ],
      [
        "33",
        -10.174956098725753
      ],
      [
        "▁decide",
        -10.175776981835721
      ],
      [
        "▁continu",
        -10.176786012186314
      ],
      [
        "▁farm",
        -10.17728326670185
      ],
      [
        "▁dropp",
        -10.178351410476957
      ],
      [
        "chines",
        -10.1830392991914
      ],
      [
        "▁secret",
        -10.185417428306375
      ],
      [
        "▁behavior",
        -10.185687704782694
      ],
      [
        "▁traffic",
        -10.185687711505516
      ],
      [
        "▁rabbit",
        -10.185687718894208
      ],
      [
        "▁screen",
        -10.185687842347544
      ],
      [
        "▁bulldo",
        -10.185688034487775
      ],
      [
        "▁network",
        -10.185688711612785
      ],
      [
        "▁attract",
        -10.185688988622031
      ],
      [
        "▁remind",
        -10.185689572062346
      ],
      [
        "corporate",
        -10.185689927551454
      ],
      [
        "▁fantas",
        -10.185690847754199
      ],
      [
        "▁pretend",
        -10.185694387234019
      ],
      [
        "▁sophie",
        -10.185694463195269
      ],
      [
        "▁snake",
        -10.185694699855494
      ],
      [
        "▁unique",
        -10.185695574946138
      ],
      [
        "▁border",
        -10.185711698639452
      ],
      [
        "smith",
        -10.185759321780125
      ],
      [
        "grew",
        -10.185886087838236
      ],
      [
        "▁settle",
        -10.18626217425794
      ],
      [
        "▁fellow",
        -10.18635504588435
      ],
      [
        "worm",
        -10.186473420206745
      ],
      [
        "▁direction",
        -10.187681611086814
      ],
      [
        "▁pink",
        -10.187891006663367
      ],
      [
        "▁danc",
        -10.192258062852892
      ],
      [
        "▁pour",
        -10.192724957607751
      ],
      [
        "▁vol",
        -10.192898245467594
      ],
      [
        "mitted",
        -10.194201873043403
      ],
      [
        "▁babi",
        -10.19473518215593
      ],
      [
        "house",
        -10.195180057557632
      ],
      [
        "▁player",
        -10.197029757161086
      ],
      [
        "unch",
        -10.197262957119502
      ],
      [
        "▁sport",
        -10.198009406003887
      ],
      [
        "▁counter",
        -10.19828888649739
      ],
      [
        "driver",
        -10.199473486800331
      ],
      [
        "▁rob",
        -10.20410471407597
      ],
      [
        "▁reasonabl",
        -10.206563118340052
      ],
      [
        "▁appreciate",
        -10.207426835210079
      ],
      [
        "▁agricultur",
        -10.207426835212074
      ],
      [
        "▁provision",
        -10.207426838719387
      ],
      [
        "▁occasion",
        -10.207426846137809
      ],
      [
        "▁peanut",
        -10.207428565991862
      ],
      [
        "▁librar",
        -10.207433194059565
      ],
      [
        "▁damage",
        -10.207434044423831
      ],
      [
        "▁shot",
        -10.207440685308253
      ],
      [
        "▁crack",
        -10.2074512661593
      ],
      [
        "▁scene",
        -10.207522484097137
      ],
      [
        "ular",
        -10.207820233152983
      ],
      [
        "▁terror",
        -10.207862485707837
      ],
      [
        "▁labor",
        -10.208328427332896
      ],
      [
        "▁swing",
        -10.208668472570174
      ],
      [
        "▁burn",
        -10.209767717636199
      ],
      [
        "▁mistake",
        -10.212844091113979
      ],
      [
        "▁cell",
        -10.216685565461448
      ],
      [
        "▁vet",
        -10.2171638996829
      ],
      [
        "▁receiv",
        -10.221422823177907
      ],
      [
        "▁ku",
        -10.22232876080293
      ],
      [
        "▁anti",
        -10.222654306059098
      ],
      [
        "▁hungr",
        -10.225014972268141
      ],
      [
        "▁inde",
        -10.225883916641457
      ],
      [
        "spec",
        -10.226178836961987
      ],
      [
        "▁prove",
        -10.227871504691288
      ],
      [
        "▁lee",
        -10.229049589366973
      ],
      [
        "▁columb",
        -10.229463414629528
      ],
      [
        "▁unfortunate",
        -10.229649057432006
      ],
      [
        "▁appropriate",
        -10.229649057433498
      ],
      [
        "▁e-mail",
        -10.229649881053692
      ],
      [
        "commerc",
        -10.229650218248747
      ],
      [
        "▁robert",
        -10.229680106068662
      ],
      [
        "▁examin",
        -10.229741892343801
      ],
      [
        "▁assume",
        -10.229930326755234
      ],
      [
        "▁twel",
        -10.229987980681273
      ],
      [
        "▁mush",
        -10.230112233926546
      ],
      [
        "▁truth",
        -10.230300796201135
      ],
      [
        "▁extra",
        -10.230468595161604
      ],
      [
        "▁jack",
        -10.23074803011542
      ],
      [
        "▁operat",
        -10.230991549590298
      ],
      [
        "▁update",
        -10.231341340911252
      ],
      [
        "▁loan",
        -10.231596041998065
      ],
      [
        "▁plate",
        -10.231854217229682
      ],
      [
        "ford",
        -10.232331596622434
      ],
      [
        "well",
        -10.233611913329257
      ],
      [
        "▁assistan",
        -10.234273388315653
      ],
      [
        "▁extend",
        -10.239865358894008
      ],
      [
        "gel",
        -10.242151079428371
      ],
      [
        "▁artist",
        -10.24265470345669
      ],
      [
        "▁cookie",
        -10.245421943243906
      ],
      [
        "▁exten",
        -10.24683481409766
      ],
      [
        "▁jam",
        -10.247931815970453
      ],
      [
        "cient",
        -10.248185174996248
      ],
      [
        "▁cloth",
        -10.250720038044964
      ],
      [
        "▁pea",
        -10.251514621725606
      ],
      [
        "drew",
        -10.252354427810143
      ],
      [
        "▁http://",
        -10.25236655378961
      ],
      [
        "▁frequent",
        -10.252376330274435
      ],
      [
        "▁professor",
        -10.252376330897466
      ],
      [
        "▁increasing",
        -10.25237633112334
      ],
      [
        "▁egypt",
        -10.252376334599605
      ],
      [
        "▁alternative",
        -10.252376335774269
      ],
      [
        "▁stretch",
        -10.252376453564903
      ],
      [
        "▁approve",
        -10.25237652991224
      ],
      [
        "graduate",
        -10.252377665696878
      ],
      [
        "▁command",
        -10.252380342927347
      ],
      [
        "▁fifth",
        -10.252380598861969
      ],
      [
        "beauty",
        -10.252393610115464
      ],
      [
        "▁afford",
        -10.252401535626102
      ],
      [
        "▁error",
        -10.252403051788418
      ],
      [
        "▁transform",
        -10.252457981112439
      ],
      [
        "▁syria",
        -10.25246052795923
      ],
      [
        "▁sugar",
        -10.25267343874483
      ],
      [
        "▁defens",
        -10.252723931596778
      ],
      [
        "▁employee",
        -10.25288674646923
      ],
      [
        "▁nail",
        -10.252957964137112
      ],
      [
        "48",
        -10.253455791257931
      ],
      [
        "▁bunn",
        -10.254444943746691
      ],
      [
        "▁rough",
        -10.254620032699677
      ],
      [
        "▁bray",
        -10.255209408397864
      ],
      [
        "▁setting",
        -10.255603256420727
      ],
      [
        "▁sales",
        -10.256602542681653
      ],
      [
        "12",
        -10.258371779218914
      ],
      [
        "92",
        -10.259489159495475
      ],
      [
        "▁map",
        -10.261856045842718
      ],
      [
        "mus",
        -10.266565098400477
      ],
      [
        "▁japan",
        -10.267217407177274
      ],
      [
        "▁waste",
        -10.268773580387716
      ],
      [
        "▁expected",
        -10.269772905166226
      ],
      [
        "▁flow",
        -10.272309191862494
      ],
      [
        "hiri",
        -10.272686229266332
      ],
      [
        "▁chris",
        -10.272927157645901
      ],
      [
        "▁responsibl",
        -10.275632152787022
      ],
      [
        "▁conflict",
        -10.275632154133191
      ],
      [
        "▁procedure",
        -10.275632161661559
      ],
      [
        "▁essential",
        -10.275632165295594
      ],
      [
        "▁silver",
        -10.27563235452533
      ],
      [
        "▁degree",
        -10.275633578197276
      ],
      [
        "▁pillow",
        -10.275634043790584
      ],
      [
        "▁northwest",
        -10.275634365193572
      ],
      [
        "quarter",
        -10.275634763329162
      ],
      [
        "▁rapid",
        -10.275639188256433
      ],
      [
        "▁belief",
        -10.275657050255534
      ],
      [
        "▁william",
        -10.275674889587114
      ],
      [
        "▁crowd",
        -10.275685684579123
      ],
      [
        "▁distance",
        -10.275775236323149
      ],
      [
        "▁reduce",
        -10.275846022215323
      ],
      [
        "▁score",
        -10.275892291959291
      ],
      [
        "▁export",
        -10.275945125106418
      ],
      [
        "▁iodi",
        -10.27603447414975
      ],
      [
        "▁strange",
        -10.27612895448307
      ],
      [
        "▁madam",
        -10.277054487989593
      ],
      [
        "resources",
        -10.277523257886363
      ],
      [
        "▁finance",
        -10.278622224211535
      ],
      [
        "▁gold",
        -10.279512955634555
      ],
      [
        "▁comfortabl",
        -10.279963453531895
      ],
      [
        "ache",
        -10.28272909973333
      ],
      [
        "▁none",
        -10.283246489792157
      ],
      [
        "aka",
        -10.283376823637521
      ],
      [
        "▁archi",
        -10.285191322876424
      ],
      [
        "07",
        -10.288519300198983
      ],
      [
        "▁achieve",
        -10.293241235954868
      ],
      [
        "▁wal",
        -10.296593912616856
      ],
      [
        "▁dut",
        -10.29735553129669
      ],
      [
        "▁tall",
        -10.297938585459265
      ],
      [
        "▁fifteen",
        -10.29944166821228
      ],
      [
        "▁australia",
        -10.299441673112995
      ],
      [
        "▁budget",
        -10.299441676571126
      ],
      [
        "▁newspaper",
        -10.299441680896551
      ],
      [
        "▁database",
        -10.299442173721575
      ],
      [
        "▁disaster",
        -10.299442727723399
      ],
      [
        "▁knock",
        -10.29944351647304
      ],
      [
        "▁context",
        -10.299445996611183
      ],
      [
        "▁cream",
        -10.29945159426688
      ],
      [
        "▁territor",
        -10.299453584957044
      ],
      [
        "▁honest",
        -10.299468503775692
      ],
      [
        "▁worse",
        -10.299468937239968
      ],
      [
        "▁emerg",
        -10.299494892925292
      ],
      [
        "▁silen",
        -10.299548041046659
      ],
      [
        "▁camera",
        -10.299560603285771
      ],
      [
        "34",
        -10.299746568469512
      ],
      [
        "thoma",
        -10.299842785322625
      ],
      [
        "▁drug",
        -10.299898073641295
      ],
      [
        "▁settlement",
        -10.299936377814358
      ],
      [
        "▁rent",
        -10.300357723465396
      ],
      [
        "▁operator",
        -10.300531857249892
      ],
      [
        "▁wave",
        -10.300583150983105
      ],
      [
        "▁payment",
        -10.301255423712863
      ],
      [
        "▁lady",
        -10.301806501768183
      ],
      [
        "▁miles",
        -10.30204120655865
      ],
      [
        "▁basil",
        -10.302198610643993
      ],
      [
        "▁weather",
        -10.302634009955991
      ],
      [
        "phone",
        -10.302788707662009
      ],
      [
        "65",
        -10.304244381131811
      ],
      [
        "▁fourth",
        -10.304875504168379
      ],
      [
        "▁storm",
        -10.306806291666916
      ],
      [
        "bro",
        -10.306872718163223
      ],
      [
        "▁hill",
        -10.310422382629229
      ],
      [
        "▁beside",
        -10.312500686454923
      ],
      [
        "44",
        -10.313306911815554
      ],
      [
        "▁custom",
        -10.315282524129437
      ],
      [
        "▁sill",
        -10.317579920424421
      ],
      [
        "▁ki",
        -10.320441109908582
      ],
      [
        "▁prefer",
        -10.321599800485272
      ],
      [
        "ukraine",
        -10.323831912279042
      ],
      [
        "▁announce",
        -10.323831915530572
      ],
      [
        "▁constant",
        -10.323832636328671
      ],
      [
        "▁minister",
        -10.323832967216061
      ],
      [
        "▁evaluat",
        -10.323833462054154
      ],
      [
        "▁complex",
        -10.323833903479049
      ],
      [
        "ontario",
        -10.32383486392577
      ],
      [
        "▁flag",
        -10.323866078326509
      ],
      [
        "▁blanket",
        -10.323870348416412
      ],
      [
        "▁sample",
        -10.323883253086771
      ],
      [
        "▁cris",
        -10.323991816115031
      ],
      [
        "▁wealth",
        -10.324000808142266
      ],
      [
        "senate",
        -10.324138342819523
      ],
      [
        "▁refuse",
        -10.324212728184605
      ],
      [
        "▁terrorist",
        -10.324555360747588
      ],
      [
        "▁stage",
        -10.324910896855831
      ],
      [
        "ather",
        -10.325142972368862
      ],
      [
        "▁santa",
        -10.32524588097172
      ],
      [
        "▁tight",
        -10.325429329899869
      ],
      [
        "▁afr",
        -10.32674998002099
      ],
      [
        "▁averag",
        -10.32696937516468
      ],
      [
        "▁max",
        -10.327293730493343
      ],
      [
        "▁nin",
        -10.329035655487756
      ],
      [
        "▁african",
        -10.329256180684238
      ],
      [
        "▁rude",
        -10.3292834613213
      ],
      [
        "▁pair",
        -10.331723285364102
      ],
      [
        "itch",
        -10.331864622405563
      ],
      [
        "▁lab",
        -10.333209664398163
      ],
      [
        "▁cast",
        -10.334490137325162
      ],
      [
        "ooh",
        -10.336823538380624
      ],
      [
        "▁fold",
        -10.342463540245536
      ],
      [
        "▁gal",
        -10.343960829566454
      ],
      [
        "aging",
        -10.345515686587245
      ],
      [
        "▁smoke",
        -10.34592525201972
      ],
      [
        "▁palestinian",
        -10.34883191183588
      ],
      [
        "▁guarantee",
        -10.34883191217266
      ],
      [
        "▁exhibit",
        -10.348831912500778
      ],
      [
        "▁audience",
        -10.348831954562915
      ],
      [
        "▁eleven",
        -10.34883232696863
      ],
      [
        "▁complain",
        -10.34883443333588
      ],
      [
        "▁famous",
        -10.348835741111667
      ],
      [
        "▁escape",
        -10.348836406041409
      ],
      [
        "▁fruit",
        -10.348855218273394
      ],
      [
        "▁proceed",
        -10.348873034147946
      ],
      [
        "illa",
        -10.3489383104382
      ],
      [
        "▁florid",
        -10.348999728407135
      ],
      [
        "▁frank",
        -10.34907461620189
      ],
      [
        "▁speed",
        -10.349175848305597
      ],
      [
        "▁spin",
        -10.349195616704332
      ],
      [
        "▁democratic",
        -10.34932568242711
      ],
      [
        "▁christian",
        -10.34942150175754
      ],
      [
        "terior",
        -10.34962245318537
      ],
      [
        "▁objective",
        -10.349749177039001
      ],
      [
        "▁rice",
        -10.350183889168331
      ],
      [
        "▁60",
        -10.351142264989125
      ],
      [
        "▁menu",
        -10.354377781240117
      ],
      [
        "▁german",
        -10.35677363948308
      ],
      [
        "▁origin",
        -10.35686585985452
      ],
      [
        "▁formal",
        -10.361739341698618
      ],
      [
        "▁provid",
        -10.36239003756322
      ],
      [
        "cious",
        -10.363165559020981
      ],
      [
        "▁eb",
        -10.363311524094849
      ],
      [
        "form",
        -10.366265106988463
      ],
      [
        "▁shopp",
        -10.368707684203386
      ],
      [
        "iction",
        -10.372076482524987
      ],
      [
        "▁awe",
        -10.372442383094898
      ],
      [
        "▁photo",
        -10.374430073147364
      ],
      [
        "▁executive",
        -10.374472937489262
      ],
      [
        "▁transaction",
        -10.374472942207085
      ],
      [
        "nuclear",
        -10.3744729463254
      ],
      [
        "▁telephone",
        -10.374472950681099
      ],
      [
        "▁scholar",
        -10.374472967094766
      ],
      [
        "▁innovation",
        -10.374473058810558
      ],
      [
        "▁horribl",
        -10.374473472609365
      ],
      [
        "▁canadian",
        -10.374474225306313
      ],
      [
        "▁soldier",
        -10.374474400066592
      ],
      [
        "▁component",
        -10.37447451443224
      ],
      [
        "▁daniel",
        -10.374476546770946
      ],
      [
        "▁trail",
        -10.374503582325499
      ],
      [
        "▁salad",
        -10.374505807429752
      ],
      [
        "▁divers",
        -10.374524131586114
      ],
      [
        "▁anthr",
        -10.37459923134297
      ],
      [
        "▁violen",
        -10.37460513405389
      ],
      [
        "▁whale",
        -10.374642675826587
      ],
      [
        "▁robot",
        -10.374781930153002
      ],
      [
        "▁secretary",
        -10.374799511182992
      ],
      [
        "list",
        -10.37577612822194
      ],
      [
        "▁nick",
        -10.375824210502344
      ],
      [
        "rove",
        -10.375937065066594
      ],
      [
        "▁production",
        -10.376374329279503
      ],
      [
        "▁introduce",
        -10.377552402905744
      ],
      [
        "bun",
        -10.379573724862858
      ],
      [
        "▁weight",
        -10.380051051187262
      ],
      [
        "▁lesson",
        -10.38007548522574
      ],
      [
        "▁dar",
        -10.382056175898265
      ],
      [
        "71",
        -10.38245482428107
      ],
      [
        "mir",
        -10.383522969849786
      ],
      [
        "▁oliv",
        -10.385904819558442
      ],
      [
        "59",
        -10.387518074835961
      ],
      [
        "▁prepared",
        -10.38839196011595
      ],
      [
        "back",
        -10.388525910346594
      ],
      [
        "▁loo",
        -10.388605874041703
      ],
      [
        "tab",
        -10.389082999945606
      ],
      [
        "▁medica",
        -10.390420951449705
      ],
      [
        "▁198",
        -10.393396767975933
      ],
      [
        "leading",
        -10.397002539110698
      ],
      [
        "▁invest",
        -10.400666197410382
      ],
      [
        "▁islami",
        -10.400691484739644
      ],
      [
        "▁encourage",
        -10.400788728399634
      ],
      [
        "▁temperature",
        -10.400788729305733
      ],
      [
        "▁regulation",
        -10.400788733008838
      ],
      [
        "▁adjust",
        -10.400788739629801
      ],
      [
        "▁counterpart",
        -10.400788742887208
      ],
      [
        "▁airplane",
        -10.400788751051415
      ],
      [
        "▁positive",
        -10.400788888135835
      ],
      [
        "▁pilot",
        -10.400789050013914
      ],
      [
        "▁journal",
        -10.400789541479694
      ],
      [
        "▁argue",
        -10.400790316765255
      ],
      [
        "▁weasley",
        -10.40079081629791
      ],
      [
        "▁steve",
        -10.400805274404943
      ],
      [
        "▁rail",
        -10.400827398543184
      ],
      [
        "▁injur",
        -10.400901113917879
      ],
      [
        "▁invite",
        -10.400904008682907
      ],
      [
        "▁yog",
        -10.400962801175332
      ],
      [
        "▁assess",
        -10.401055813548272
      ],
      [
        "▁danny",
        -10.401062031448891
      ],
      [
        "▁rise",
        -10.401100987963815
      ],
      [
        "▁copie",
        -10.401176440297958
      ],
      [
        "▁plent",
        -10.401617316861788
      ],
      [
        "55",
        -10.401659938264203
      ],
      [
        "▁pipe",
        -10.402074135772995
      ],
      [
        "▁auto",
        -10.402999567497869
      ],
      [
        "▁priorit",
        -10.404123856489193
      ],
      [
        "▁scient",
        -10.405679427208408
      ],
      [
        "11",
        -10.405777823034288
      ],
      [
        "▁sink",
        -10.40972621095439
      ],
      [
        "bond",
        -10.411616634514528
      ],
      [
        "▁polic",
        -10.41220707827063
      ],
      [
        "▁jame",
        -10.412828592888745
      ],
      [
        "cca",
        -10.412986207851691
      ],
      [
        "▁container",
        -10.413674723684496
      ],
      [
        "work",
        -10.414358120412984
      ],
      [
        "▁defin",
        -10.41697768666138
      ],
      [
        "57",
        -10.422994409851643
      ],
      [
        "▁circu",
        -10.423917572509003
      ],
      [
        "mwe",
        -10.425219185397316
      ],
      [
        "▁jew",
        -10.427669234220156
      ],
      [
        "▁television",
        -10.427815753967725
      ],
      [
        "▁vietnam",
        -10.4278157551825
      ],
      [
        "▁exercise",
        -10.427815755588583
      ],
      [
        "▁convention",
        -10.427815765074694
      ],
      [
        "▁physical",
        -10.42781579561835
      ],
      [
        "▁typical",
        -10.427815837510886
      ],
      [
        "sumption",
        -10.427815974020167
      ],
      [
        "▁screw",
        -10.427815991164291
      ],
      [
        "▁muscle",
        -10.427816119825602
      ],
      [
        "▁museum",
        -10.427816649822054
      ],
      [
        "▁install",
        -10.427819375235332
      ],
      [
        "▁senator",
        -10.427824208494588
      ],
      [
        "▁expand",
        -10.427912427335887
      ],
      [
        "▁skills",
        -10.427949269310085
      ],
      [
        "▁recognize",
        -10.42799357294634
      ],
      [
        "▁pressure",
        -10.428124280193538
      ],
      [
        "▁centre",
        -10.428161786532183
      ],
      [
        "tub",
        -10.428163618613599
      ],
      [
        "▁kick",
        -10.428206243464599
      ],
      [
        "▁boom",
        -10.428352551380254
      ],
      [
        "▁decline",
        -10.428439002330256
      ],
      [
        "▁contribution",
        -10.428504626685594
      ],
      [
        "▁smile",
        -10.428550486138041
      ],
      [
        "▁dragon",
        -10.428754416410907
      ],
      [
        "▁cia",
        -10.429144755168945
      ],
      [
        "▁guest",
        -10.429172856174624
      ],
      [
        "▁manner",
        -10.429214776011321
      ],
      [
        "clair",
        -10.430261674641047
      ],
      [
        "▁advise",
        -10.433261759632604
      ],
      [
        "▁vince",
        -10.434268746650659
      ],
      [
        "▁feature",
        -10.43644918748039
      ],
      [
        "▁harm",
        -10.43802239114762
      ],
      [
        "▁grab",
        -10.439530535595484
      ],
      [
        "healthy",
        -10.441154859516363
      ],
      [
        "▁lion",
        -10.441511619241494
      ],
      [
        "delivery",
        -10.44566213346705
      ],
      [
        "ology",
        -10.446541904004926
      ],
      [
        "▁assist",
        -10.450362014623186
      ],
      [
        "voca",
        -10.45256692057836
      ],
      [
        "81",
        -10.452617829737692
      ],
      [
        "meter",
        -10.453162682535574
      ],
      [
        "▁stone",
        -10.45420285257222
      ],
      [
        "▁principle",
        -10.455593531744285
      ],
      [
        "▁competition",
        -10.45559355714011
      ],
      [
        "▁shoot",
        -10.45559370438916
      ],
      [
        "▁chemical",
        -10.45559400202671
      ],
      [
        "▁channel",
        -10.45559413478983
      ],
      [
        "▁primar",
        -10.455594906695412
      ],
      [
        "▁relevan",
        -10.455595254180057
      ],
      [
        "▁chief",
        -10.455599466522093
      ],
      [
        "▁arrest",
        -10.455602020773131
      ],
      [
        "▁sweat",
        -10.455620718089259
      ],
      [
        "▁monkey",
        -10.45562179304705
      ],
      [
        "▁faith",
        -10.455622065642956
      ],
      [
        "▁desire",
        -10.455625712083297
      ],
      [
        "▁italian",
        -10.455753002885304
      ],
      [
        "▁route",
        -10.455901900082848
      ],
      [
        "▁colon",
        -10.456174835805864
      ],
      [
        "▁mouse",
        -10.456199544193346
      ],
      [
        "▁zero",
        -10.456430621599695
      ],
      [
        "▁weak",
        -10.456507295595749
      ],
      [
        "▁collection",
        -10.456688451706524
      ],
      [
        "▁patient",
        -10.458965648736061
      ],
      [
        "▁visitor",
        -10.460073485381074
      ],
      [
        "arch",
        -10.466553581780882
      ],
      [
        "roni",
        -10.467178978474585
      ],
      [
        "▁speaker",
        -10.47271280093597
      ],
      [
        "▁aim",
        -10.483028028142028
      ],
      [
        "chernobyl",
        -10.484164960318854
      ],
      [
        "▁participant",
        -10.48416496032935
      ],
      [
        "▁district",
        -10.484164961816958
      ],
      [
        "▁pleasant",
        -10.4841649626221
      ],
      [
        "▁destroy",
        -10.484164964576612
      ],
      [
        "▁flavor",
        -10.48416498505171
      ],
      [
        "▁affair",
        -10.48416501859877
      ],
      [
        "▁resident",
        -10.484165044969952
      ],
      [
        "▁interpret",
        -10.484165096940286
      ],
      [
        "▁conduct",
        -10.48416515402014
      ],
      [
        "▁relax",
        -10.484171476339627
      ],
      [
        "▁gulf",
        -10.484178064036662
      ],
      [
        "▁transfer",
        -10.484185797398107
      ],
      [
        "▁double",
        -10.48418885560005
      ],
      [
        "▁jean",
        -10.484208348315
      ],
      [
        "▁historical",
        -10.484272517198065
      ],
      [
        "▁opposit",
        -10.484292661547267
      ],
      [
        "▁empt",
        -10.484343430092085
      ],
      [
        "▁corp",
        -10.4843454387707
      ],
      [
        "▁flood",
        -10.484423282892406
      ],
      [
        "▁bedroom",
        -10.484536666774439
      ],
      [
        "▁governor",
        -10.48476276822153
      ],
      [
        "▁mitch",
        -10.484859663145961
      ],
      [
        "▁wrap",
        -10.484870045761635
      ],
      [
        "uction",
        -10.48489997832397
      ],
      [
        "▁hopeful",
        -10.485636160409513
      ],
      [
        "▁kitten",
        -10.485801538200848
      ],
      [
        "▁creation",
        -10.48607588622701
      ],
      [
        "▁rare",
        -10.48859342927717
      ],
      [
        "--------------",
        -10.488719840498918
      ],
      [
        "▁iron",
        -10.496371491741044
      ],
      [
        "2006",
        -10.498355191486308
      ],
      [
        "iro",
        -10.502926180018736
      ],
      [
        "▁crop",
        -10.503612169013344
      ],
      [
        "fighting",
        -10.50563048219772
      ],
      [
        "▁rub",
        -10.506853233739488
      ],
      [
        "▁cere",
        -10.507616278002317
      ],
      [
        "▁involv",
        -10.50826272127472
      ],
      [
        "!",
        -10.508478065801224
      ],
      [
        "▁prior",
        -10.509881112730593
      ],
      [
        "▁contribut",
        -10.512826710743862
      ],
      [
        "▁apart",
        -10.513157291842639
      ],
      [
        "▁manufactur",
        -10.513576725021945
      ],
      [
        "▁elephant",
        -10.513576727858121
      ],
      [
        "▁exposure",
        -10.513576729592987
      ],
      [
        "▁purple",
        -10.513577072811474
      ],
      [
        "▁interact",
        -10.513580110686917
      ],
      [
        "▁cycle",
        -10.513581708901413
      ],
      [
        "▁trial",
        -10.513599723882065
      ],
      [
        "▁garage",
        -10.513680097212683
      ],
      [
        "▁teaching",
        -10.513691617164714
      ],
      [
        "▁jim",
        -10.5137762666446
      ],
      [
        "▁sex",
        -10.514055775234652
      ],
      [
        "▁tali",
        -10.514119555315135
      ],
      [
        "▁peaceful",
        -10.514289833352052
      ],
      [
        "▁unlike",
        -10.514446766652558
      ],
      [
        "▁partner",
        -10.515113980313558
      ],
      [
        "▁exception",
        -10.515632233756214
      ],
      [
        "▁suggestion",
        -10.515857091177882
      ],
      [
        "▁cutting",
        -10.516541814586985
      ],
      [
        "rising",
        -10.516641366694838
      ],
      [
        "news",
        -10.51669117250299
      ],
      [
        "roll",
        -10.518105729511806
      ],
      [
        "▁epi",
        -10.518840387513524
      ],
      [
        "chan",
        -10.51965725486667
      ],
      [
        "sale",
        -10.521417977375004
      ],
      [
        "hua",
        -10.523741019177425
      ],
      [
        "2011",
        -10.526056408750033
      ],
      [
        "▁edge",
        -10.526607791047955
      ],
      [
        "ourse",
        -10.529096967758605
      ],
      [
        "▁engine",
        -10.538700431654313
      ],
      [
        "▁politic",
        -10.53922936285483
      ],
      [
        "▁multi",
        -10.540556270176436
      ],
      [
        "▁recogni",
        -10.54368012595214
      ],
      [
        "▁pupp",
        -10.543866454419847
      ],
      [
        "script",
        -10.54387889529587
      ],
      [
        "furniture",
        -10.543879755433695
      ],
      [
        "▁advantage",
        -10.543879755660324
      ],
      [
        "▁sustain",
        -10.543879770334371
      ],
      [
        "▁appointment",
        -10.543879776367143
      ],
      [
        "▁nervous",
        -10.543879845725439
      ],
      [
        "▁crime",
        -10.543879967669042
      ],
      [
        "▁monster",
        -10.543880979191657
      ],
      [
        "▁cowboy",
        -10.54388212155859
      ],
      [
        "▁club",
        -10.543884362914952
      ],
      [
        "▁suicid",
        -10.543912475210728
      ],
      [
        "▁proud",
        -10.54396895509255
      ],
      [
        "▁trading",
        -10.543986523049172
      ],
      [
        "familiar",
        -10.544001988470786
      ],
      [
        "▁histori",
        -10.544009302675686
      ],
      [
        "▁failure",
        -10.544089289728669
      ],
      [
        "▁bump",
        -10.544148933996986
      ],
      [
        "▁click",
        -10.544210013085499
      ],
      [
        "▁enem",
        -10.544293680355796
      ],
      [
        "▁vast",
        -10.544403571305978
      ],
      [
        "▁vice",
        -10.548090894140655
      ],
      [
        "▁rental",
        -10.548264505277908
      ],
      [
        "▁impe",
        -10.548464565169443
      ],
      [
        "▁kim",
        -10.548842401456906
      ],
      [
        "▁grass",
        -10.551661612613465
      ],
      [
        "quat",
        -10.552427056737542
      ],
      [
        "bald",
        -10.554393382617581
      ],
      [
        "rist",
        -10.558124930957522
      ],
      [
        "ological",
        -10.56681071923061
      ],
      [
        "nana",
        -10.571160744836085
      ],
      [
        "▁commit",
        -10.573377355982071
      ],
      [
        "▁technologi",
        -10.575028764488275
      ],
      [
        "▁conclusion",
        -10.575129756896873
      ],
      [
        "▁apparent",
        -10.57512975736479
      ],
      [
        "▁celebrat",
        -10.575129827456703
      ],
      [
        "▁precise",
        -10.575129868691057
      ],
      [
        "▁obtain",
        -10.575129888241108
      ],
      [
        "▁greek",
        -10.575130122936548
      ],
      [
        "santorum",
        -10.575130963176267
      ],
      [
        "▁inspire",
        -10.575131026820033
      ],
      [
        "▁cartoon",
        -10.575137312948684
      ],
      [
        "▁session",
        -10.575140439068544
      ],
      [
        "▁conscious",
        -10.575145278811814
      ],
      [
        "▁zoo",
        -10.575166891110735
      ],
      [
        "▁shock",
        -10.575196527025827
      ],
      [
        "▁slippe",
        -10.575235055508193
      ],
      [
        "▁punch",
        -10.575856522544417
      ],
      [
        "▁worry",
        -10.576055809159673
      ],
      [
        "▁income",
        -10.576091828325772
      ],
      [
        "kyo",
        -10.576618019294253
      ],
      [
        "ibilit",
        -10.576625325495025
      ],
      [
        "▁motion",
        -10.576799252144161
      ],
      [
        "58",
        -10.577038645918252
      ],
      [
        "▁odd",
        -10.577071236257215
      ],
      [
        "▁trick",
        -10.577169461617926
      ],
      [
        "▁mid-",
        -10.577393586253699
      ],
      [
        "▁shark",
        -10.577424537679189
      ],
      [
        "▁90",
        -10.577774931399116
      ],
      [
        "▁roar",
        -10.577998740417296
      ],
      [
        "▁presen",
        -10.578001505949619
      ],
      [
        "▁calm",
        -10.578022316288088
      ],
      [
        "▁mum",
        -10.578324916216165
      ],
      [
        "mail",
        -10.579951839844043
      ],
      [
        "▁useful",
        -10.580030268252402
      ],
      [
        "▁engineer",
        -10.580502331157916
      ],
      [
        "▁substantial",
        -10.583287272564814
      ],
      [
        "▁occurr",
        -10.586489910070764
      ],
      [
        "▁define",
        -10.587835334041394
      ],
      [
        "ota",
        -10.589060952332797
      ],
      [
        "rdon",
        -10.589523430601151
      ],
      [
        "rah",
        -10.591154001023932
      ],
      [
        "▁independen",
        -10.591674990310242
      ],
      [
        "79",
        -10.593571645735299
      ],
      [
        "nato",
        -10.59880400585019
      ],
      [
        "▁remark",
        -10.598987133896776
      ],
      [
        "ryan",
        -10.599743140570876
      ],
      [
        "▁indicate",
        -10.602631571158764
      ],
      [
        "ologist",
        -10.60598259208854
      ],
      [
        "▁philosoph",
        -10.607387821860701
      ],
      [
        "▁identifie",
        -10.607387823498467
      ],
      [
        "▁medicine",
        -10.60738783044212
      ],
      [
        "▁elevator",
        -10.607387839146089
      ],
      [
        "▁candidate",
        -10.607387844076902
      ],
      [
        "▁zealand",
        -10.607387859516251
      ],
      [
        "▁vegetable",
        -10.607387959717201
      ],
      [
        "▁replication",
        -10.607387993227906
      ],
      [
        "▁fifty",
        -10.60738825003987
      ],
      [
        "▁possibilit",
        -10.607388259349909
      ],
      [
        "▁speech",
        -10.60738826090612
      ],
      [
        "▁disease",
        -10.60738836197421
      ],
      [
        "▁tummy",
        -10.60738837314225
      ],
      [
        "▁column",
        -10.607388546049478
      ],
      [
        "▁victor",
        -10.607388562802075
      ],
      [
        "▁length",
        -10.607388748979195
      ],
      [
        "▁analyst",
        -10.6073888823121
      ],
      [
        "▁suspect",
        -10.607389271710236
      ],
      [
        "▁visual",
        -10.607389494193185
      ],
      [
        "▁client",
        -10.607393193853202
      ],
      [
        "▁liquid",
        -10.607394717709813
      ],
      [
        "▁chapter",
        -10.607396574809588
      ],
      [
        "▁declare",
        -10.60741026302074
      ],
      [
        "▁eighteen",
        -10.607414919842157
      ],
      [
        "▁restriction",
        -10.607425667041863
      ],
      [
        "vernon",
        -10.607437315581171
      ],
      [
        "▁gift",
        -10.60745159040946
      ],
      [
        "▁reveal",
        -10.607482451121285
      ],
      [
        "▁feather",
        -10.607550834904007
      ],
      [
        "▁invent",
        -10.607569988915579
      ],
      [
        "shore",
        -10.607670423885526
      ],
      [
        "...@",
        -10.607691006701398
      ],
      [
        "▁turk",
        -10.607798206072456
      ],
      [
        "▁gather",
        -10.607888354865807
      ],
      [
        "▁investment",
        -10.607933438743327
      ],
      [
        "▁marble",
        -10.608218258384506
      ],
      [
        "▁batter",
        -10.608334556353151
      ],
      [
        "▁athen",
        -10.608707063181086
      ],
      [
        "▁industrial",
        -10.609119085912726
      ],
      [
        "▁majorit",
        -10.609204471260812
      ],
      [
        "▁expression",
        -10.609417913036092
      ],
      [
        "▁twist",
        -10.609453533267791
      ],
      [
        "▁kiss",
        -10.609534344488774
      ],
      [
        "▁sir",
        -10.609846489323413
      ],
      [
        "▁info",
        -10.609854058524107
      ],
      [
        "▁loose",
        -10.610463965763083
      ],
      [
        "▁valle",
        -10.611156948979819
      ],
      [
        "▁dig",
        -10.61342111033084
      ],
      [
        "under",
        -10.614165811871331
      ],
      [
        "▁rug",
        -10.615617897164574
      ],
      [
        "▁wag",
        -10.621500948862986
      ],
      [
        "aud",
        -10.625302269078313
      ],
      [
        "oper",
        -10.627950389594247
      ],
      [
        "▁dial",
        -10.637365703376025
      ],
      [
        "rom",
        -10.638973578930262
      ],
      [
        "▁strength",
        -10.639989390393776
      ],
      [
        "igator",
        -10.640588837627503
      ],
      [
        "▁neighbour",
        -10.640721153174061
      ],
      [
        "______________",
        -10.640721153174134
      ],
      [
        "▁magazine",
        -10.640721153296852
      ],
      [
        "▁festival",
        -10.640721159610408
      ],
      [
        "▁enjamb",
        -10.640721161011191
      ],
      [
        "▁stupid",
        -10.640721163404407
      ],
      [
        "▁jihad",
        -10.640721165407486
      ],
      [
        "▁ghost",
        -10.640721213411599
      ],
      [
        "▁grammar",
        -10.640721222315342
      ],
      [
        "▁initiative",
        -10.640721241585435
      ],
      [
        "▁skittle",
        -10.64072156553752
      ],
      [
        "▁holiday",
        -10.640721606374209
      ],
      [
        "▁sixteen",
        -10.640721672388462
      ],
      [
        "▁execute",
        -10.640721851919253
      ],
      [
        "▁delicious",
        -10.640722272695095
      ],
      [
        "▁appeal",
        -10.640724836390605
      ],
      [
        "▁strike",
        -10.640725340987672
      ],
      [
        "▁vehicle",
        -10.640729735440098
      ],
      [
        "▁cheek",
        -10.64072986375214
      ],
      [
        "▁battle",
        -10.640744748371977
      ],
      [
        "▁emergenc",
        -10.640746945135133
      ],
      [
        "▁protest",
        -10.640764548291223
      ],
      [
        "▁mosque",
        -10.640777760653233
      ],
      [
        "▁honor",
        -10.64081028657059
      ],
      [
        "▁gender",
        -10.6408111354426
      ],
      [
        "▁lift",
        -10.64097958778105
      ],
      [
        "▁copyright",
        -10.641099795004676
      ],
      [
        "▁scale",
        -10.641382186217234
      ],
      [
        "▁appearance",
        -10.641664464187798
      ],
      [
        "▁motor",
        -10.64216488048866
      ],
      [
        "▁glow",
        -10.642510560934438
      ],
      [
        "▁thin",
        -10.64296543481501
      ],
      [
        "▁universal",
        -10.64315797993541
      ],
      [
        "▁compete",
        -10.643499682478627
      ],
      [
        "▁lope",
        -10.643573176651039
      ],
      [
        "▁topic",
        -10.644223675723488
      ],
      [
        "▁hung",
        -10.6446206619555
      ],
      [
        "▁tru",
        -10.644845195037139
      ],
      [
        "▁comb",
        -10.645228821478666
      ],
      [
        "▁rome",
        -10.645448515561814
      ],
      [
        "▁crie",
        -10.647239735507554
      ],
      [
        "rio",
        -10.650439903599505
      ],
      [
        "85",
        -10.654357392580692
      ],
      [
        "half",
        -10.657144701179268
      ],
      [
        "▁asia",
        -10.657700025707417
      ],
      [
        "▁import",
        -10.661414065853968
      ],
      [
        "▁deni",
        -10.661507198876311
      ],
      [
        "▁suppose",
        -10.66478928557153
      ],
      [
        "▁stan",
        -10.665747066003918
      ],
      [
        "tractor",
        -10.66610941305606
      ],
      [
        "▁chu",
        -10.666682461659768
      ],
      [
        "izz",
        -10.667052444055022
      ],
      [
        "▁arrange",
        -10.674774031730047
      ],
      [
        "|",
        -10.67520391179472
      ],
      [
        "▁ultimate",
        -10.675203911866763
      ],
      [
        "wikihow",
        -10.675203916497388
      ],
      [
        "▁division",
        -10.675203921655639
      ],
      [
        "▁declaration",
        -10.67520392382557
      ],
      [
        "▁doughnut",
        -10.675203930145024
      ],
      [
        "▁accurate",
        -10.67520394182328
      ],
      [
        "plastic",
        -10.675206519350008
      ],
      [
        "▁acquir",
        -10.675209130213648
      ],
      [
        "▁shadow",
        -10.67520982781746
      ],
      [
        "▁ocean",
        -10.67521093393922
      ],
      [
        "▁folk",
        -10.675212643005517
      ],
      [
        "▁hamster",
        -10.675213213357186
      ],
      [
        "▁evolv",
        -10.675214087784743
      ],
      [
        "▁diaper",
        -10.675214390152819
      ],
      [
        "▁saving",
        -10.675247252304374
      ],
      [
        "▁wolf",
        -10.675253237773582
      ],
      [
        "▁rescue",
        -10.675261099894524
      ],
      [
        "▁brush",
        -10.67526111488564
      ],
      [
        "▁theodor",
        -10.675266677478692
      ],
      [
        "▁domain",
        -10.675280046760152
      ],
      [
        "▁detect",
        -10.675283119587505
      ],
      [
        "▁guideline",
        -10.675315688451771
      ],
      [
        "▁pray",
        -10.675358977560245
      ],
      [
        "▁bulb",
        -10.675467911698105
      ],
      [
        "▁vlog",
        -10.675549476313542
      ],
      [
        "▁sentence",
        -10.675668598936104
      ],
      [
        "▁instruction",
        -10.675930872689165
      ],
      [
        "▁improvement",
        -10.67599223475894
      ],
      [
        "▁mexican",
        -10.676034979345994
      ],
      [
        "▁predict",
        -10.676118436549288
      ],
      [
        "▁golden",
        -10.676344170937794
      ],
      [
        "▁bang",
        -10.679081229963561
      ],
      [
        "▁float",
        -10.679345487069828
      ],
      [
        "▁youtube",
        -10.67980914284207
      ],
      [
        "ference",
        -10.680651061350769
      ],
      [
        "▁revolution",
        -10.681546057973883
      ],
      [
        "▁coat",
        -10.689533257205555
      ],
      [
        "chro",
        -10.699515308782928
      ],
      [
        "igger",
        -10.709686526954606
      ],
      [
        "▁instruct",
        -10.710165377301937
      ],
      [
        "▁colleague",
        -10.710918197509237
      ],
      [
        "▁consequence",
        -10.710918197511042
      ],
      [
        "▁demonstrate",
        -10.71091819763313
      ],
      [
        "▁łodz",
        -10.710918197882647
      ],
      [
        "▁muslim",
        -10.710918204285022
      ],
      [
        "▁currenc",
        -10.710918205440176
      ],
      [
        "▁disappoint",
        -10.710918224325281
      ],
      [
        "▁bubble",
        -10.71091827037949
      ],
      [
        "▁cupcake",
        -10.710918394950758
      ],
      [
        "▁devil",
        -10.710918687801037
      ],
      [
        "▁defend",
        -10.710919435632603
      ],
      [
        "▁description",
        -10.710919442333237
      ],
      [
        "▁troop",
        -10.710919970902754
      ],
      [
        "▁prime",
        -10.710920905556224
      ],
      [
        "▁serving",
        -10.710922463608409
      ],
      [
        "▁annual",
        -10.710924570509672
      ],
      [
        "▁excuse",
        -10.71092547755178
      ],
      [
        "▁tickle",
        -10.710928410562051
      ],
      [
        "▁narrow",
        -10.710935506685296
      ],
      [
        "▁glove",
        -10.710936011204524
      ],
      [
        "▁background",
        -10.710942193864023
      ],
      [
        "▁adapt",
        -10.710952361518366
      ],
      [
        "▁pump",
        -10.710955690899922
      ],
      [
        "▁editor",
        -10.710960716447083
      ],
      [
        "▁definition",
        -10.711039039980843
      ],
      [
        "▁drag",
        -10.711086470593363
      ],
      [
        "▁airfare",
        -10.711166768026597
      ],
      [
        "▁excel",
        -10.711215914189877
      ],
      [
        "▁academic",
        -10.711239303148371
      ],
      [
        "▁fuel",
        -10.711256928984705
      ],
      [
        "▁royal",
        -10.711265021104161
      ],
      [
        "▁arrow",
        -10.711398159815936
      ],
      [
        "▁witch",
        -10.71159720499564
      ],
      [
        "▁hurry",
        -10.71166362331445
      ],
      [
        "▁collective",
        -10.711857579501292
      ],
      [
        "▁blog",
        -10.713294356661741
      ],
      [
        "▁hunt",
        -10.713319064021988
      ],
      [
        "▁romantic",
        -10.713628770891482
      ],
      [
        "▁spoon",
        -10.713700260541147
      ],
      [
        "▁lick",
        -10.713762811154506
      ],
      [
        "▁carolin",
        -10.713802041663918
      ],
      [
        "▁flie",
        -10.716451961438327
      ],
      [
        "marie",
        -10.717821789586027
      ],
      [
        "▁entr",
        -10.718833148981954
      ],
      [
        "nforcement",
        -10.72251376302579
      ],
      [
        "----",
        -10.72859713427259
      ],
      [
        "presentation",
        -10.729068763518072
      ],
      [
        "▁psycholog",
        -10.730471052162043
      ],
      [
        "nife",
        -10.731142259278284
      ],
      [
        "certain",
        -10.738451892075956
      ],
      [
        "stance",
        -10.740281970537815
      ],
      [
        "media",
        -10.741363338371006
      ],
      [
        "▁improv",
        -10.742558637216455
      ],
      [
        "options",
        -10.743500933160373
      ],
      [
        "▁entit",
        -10.74582249561464
      ],
      [
        "▁republic",
        -10.747466222221984
      ],
      [
        "▁pleasure",
        -10.747955236014043
      ],
      [
        "▁revenue",
        -10.747955237400395
      ],
      [
        "▁register",
        -10.747955249791996
      ],
      [
        "distinguish",
        -10.747955251020707
      ],
      [
        "▁conclude",
        -10.74795525801104
      ],
      [
        "▁minimum",
        -10.747955259340408
      ],
      [
        "▁pepper",
        -10.74795561160567
      ],
      [
        "▁basket",
        -10.747955642073379
      ],
      [
        "▁village",
        -10.747957334787397
      ],
      [
        "▁satisf",
        -10.74795911071888
      ],
      [
        "▁retire",
        -10.747962753641653
      ],
      [
        "▁translation",
        -10.747963149276718
      ],
      [
        "▁oppose",
        -10.747997099206387
      ],
      [
        "▁medium",
        -10.748027290322113
      ],
      [
        "▁ignore",
        -10.748059753440911
      ],
      [
        "▁confidential",
        -10.748094887907875
      ],
      [
        "▁trash",
        -10.748126461646375
      ],
      [
        "▁variet",
        -10.748167271494442
      ],
      [
        "▁jewish",
        -10.74827171881223
      ],
      [
        "▁towel",
        -10.748285733471747
      ],
      [
        "▁arrangement",
        -10.748433640138266
      ],
      [
        "▁package",
        -10.748758703097996
      ],
      [
        "▁713-",
        -10.749208951778865
      ],
      [
        "rubber",
        -10.74995896939765
      ],
      [
        "▁pure",
        -10.751945809276405
      ],
      [
        "▁indicat",
        -10.754330735273198
      ],
      [
        "bones",
        -10.763940140984953
      ],
      [
        "wart",
        -10.765108291147587
      ],
      [
        "rais",
        -10.76809111824103
      ],
      [
        "quino",
        -10.768858381474491
      ],
      [
        "▁excit",
        -10.77756108368796
      ],
      [
        "atan",
        -10.779701595083688
      ],
      [
        "wide",
        -10.78211667345202
      ],
      [
        "$",
        -10.782139210170463
      ],
      [
        "what",
        -10.782395629896708
      ],
      [
        "mart",
        -10.783883258526608
      ],
      [
        "▁713",
        -10.785550514930428
      ],
      [
        "▁productiv",
        -10.786258317289223
      ],
      [
        "▁blank",
        -10.786369827693452
      ],
      [
        "▁favor",
        -10.786412436440157
      ],
      [
        "▁approximate",
        -10.786416773007579
      ],
      [
        "▁cigarette",
        -10.786416773019646
      ],
      [
        "▁puzzle",
        -10.786416773023223
      ],
      [
        "▁twentieth",
        -10.78641677307625
      ],
      [
        "▁disappear",
        -10.786416773431606
      ],
      [
        "▁sufficient",
        -10.786416775429926
      ],
      [
        "▁derivative",
        -10.78641678146603
      ],
      [
        "▁mosquito",
        -10.786416786450298
      ],
      [
        "▁smooth",
        -10.786416813260553
      ],
      [
        "▁linguistic",
        -10.786416846979154
      ],
      [
        "▁catholic",
        -10.786417366859524
      ],
      [
        "▁wiggle",
        -10.78641739467918
      ],
      [
        "▁donkey",
        -10.78641832407492
      ],
      [
        "▁prince",
        -10.78642030690101
      ],
      [
        "▁libert",
        -10.786440025426652
      ],
      [
        "▁dursley",
        -10.786448690211047
      ],
      [
        "▁michel",
        -10.786479615634311
      ],
      [
        "▁recall",
        -10.786495038932344
      ],
      [
        "▁strain",
        -10.786521553963498
      ],
      [
        "▁identit",
        -10.78653899050483
      ],
      [
        "▁theatre",
        -10.786866413304823
      ],
      [
        "▁crash",
        -10.78689442711105
      ],
      [
        "▁republican",
        -10.786925211209045
      ],
      [
        "▁negati",
        -10.786960318749799
      ],
      [
        "▁achievement",
        -10.787148197559503
      ],
      [
        "▁shake",
        -10.787260031397889
      ],
      [
        "llah",
        -10.78782407865319
      ],
      [
        "▁organize",
        -10.788004593981928
      ],
      [
        "▁organi",
        -10.79120632892338
      ],
      [
        "bbie",
        -10.797772857474929
      ],
      [
        "azi",
        -10.802288050699014
      ],
      [
        "▁angr",
        -10.803863478588184
      ],
      [
        "pend",
        -10.809568462560351
      ],
      [
        "dr.",
        -10.81035088824712
      ],
      [
        "▁occur",
        -10.811999734621851
      ],
      [
        "▁licens",
        -10.815613474005472
      ],
      [
        "▁cro",
        -10.817052400998666
      ],
      [
        "ppy",
        -10.822989383230585
      ],
      [
        "cute",
        -10.824059029977645
      ],
      [
        "vod",
        -10.825316738489644
      ],
      [
        "ensive",
        -10.826398498431761
      ],
      [
        "▁infrastructure",
        -10.82641677300758
      ],
      [
        "▁structural",
        -10.826416773020862
      ],
      [
        "▁accommodat",
        -10.826416773027628
      ],
      [
        "▁criminal",
        -10.8264167730354
      ],
      [
        "▁practical",
        -10.826416773211061
      ],
      [
        "▁identify",
        -10.82641677700294
      ],
      [
        "▁regime",
        -10.826416937317981
      ],
      [
        "▁pattern",
        -10.82641709612799
      ],
      [
        "▁incredibl",
        -10.82641710285673
      ],
      [
        "▁mirror",
        -10.82641749130314
      ],
      [
        "▁uniform",
        -10.826420231173156
      ],
      [
        "▁cloud",
        -10.826420995244964
      ],
      [
        "▁tulsa",
        -10.826421966371198
      ],
      [
        "▁worrie",
        -10.826422360522777
      ],
      [
        "▁flash",
        -10.826422844801659
      ],
      [
        "▁numero",
        -10.82642859733688
      ],
      [
        "▁household",
        -10.826438604827782
      ],
      [
        "▁talent",
        -10.826458992935882
      ],
      [
        "▁curve",
        -10.826484786620988
      ],
      [
        "▁internal",
        -10.826509645874191
      ],
      [
        "▁drama",
        -10.826531131802794
      ],
      [
        "stein",
        -10.826568795272557
      ],
      [
        "▁assign",
        -10.82667025724137
      ],
      [
        "▁martin",
        -10.82667786483132
      ],
      [
        "▁convert",
        -10.826736881267305
      ],
      [
        "▁destination",
        -10.826945493163722
      ],
      [
        "▁advertis",
        -10.82701626846001
      ],
      [
        "▁grill",
        -10.82711507197585
      ],
      [
        "▁frame",
        -10.827126541340112
      ],
      [
        "delhi",
        -10.827157373196227
      ],
      [
        "introduction",
        -10.8272058415268
      ],
      [
        "▁strengthen",
        -10.82729855981246
      ],
      [
        "▁giant",
        -10.827482540300442
      ],
      [
        "sleep",
        -10.827534931230623
      ],
      [
        "▁guide",
        -10.82778881110196
      ],
      [
        "▁andaman",
        -10.827827512187628
      ],
      [
        "▁owl",
        -10.82830176284244
      ],
      [
        "▁e.g",
        -10.828864026536051
      ],
      [
        "▁absen",
        -10.829137448882644
      ],
      [
        "▁earne",
        -10.836680990931162
      ],
      [
        "secure",
        -10.844390846865123
      ],
      [
        "▁observe",
        -10.854938357345123
      ],
      [
        "▁oct",
        -10.864752048966771
      ],
      [
        "▁administrat",
        -10.86733665337124
      ],
      [
        "▁choo",
        -10.867788537860065
      ],
      [
        "▁constituenc",
        -10.86808343967433
      ],
      [
        "▁correspond",
        -10.868083439674388
      ],
      [
        "▁recipient",
        -10.868083439707755
      ],
      [
        "▁quartile",
        -10.868083439749668
      ],
      [
        "▁strawberr",
        -10.868083440310077
      ],
      [
        "▁surprising",
        -10.868083448267281
      ],
      [
        "▁ingredient",
        -10.86808344994935
      ],
      [
        "▁recruit",
        -10.868083451569575
      ],
      [
        "▁counterfeit",
        -10.868083463799085
      ],
      [
        "▁explanation",
        -10.868083467174415
      ],
      [
        "▁oblig",
        -10.868083476748243
      ],
      [
        "▁aesthetic",
        -10.86808349181926
      ],
      [
        "▁attorney",
        -10.868083517977583
      ],
      [
        "▁taiwan",
        -10.86808360397423
      ],
      [
        "▁entertain",
        -10.868083622606427
      ],
      [
        "▁nineteen",
        -10.868083760571515
      ],
      [
        "▁wizard",
        -10.868084296909394
      ],
      [
        "▁equipment",
        -10.868084360192324
      ],
      [
        "▁suprem",
        -10.868084534719113
      ],
      [
        "▁domestic",
        -10.8680848505963
      ],
      [
        "surgery",
        -10.868085012065167
      ],
      [
        "▁switch",
        -10.868091511024064
      ],
      [
        "▁attitude",
        -10.868097600112721
      ],
      [
        "▁expire",
        -10.86809980489664
      ],
      [
        "▁seventeen",
        -10.868110910757338
      ],
      [
        "▁pledge",
        -10.86811676413772
      ],
      [
        "▁snitch",
        -10.868119300592875
      ],
      [
        "▁trib",
        -10.86812092705955
      ],
      [
        "▁blind",
        -10.868123153663342
      ],
      [
        "▁jason",
        -10.86812504076351
      ],
      [
        "▁saudi",
        -10.868125386986277
      ],
      [
        "▁biological",
        -10.868143584064617
      ],
      [
        "▁desert",
        -10.868173636066649
      ],
      [
        "crazy",
        -10.868191746779239
      ],
      [
        "▁complicat",
        -10.868195956127959
      ],
      [
        "▁orient",
        -10.8682076893048
      ],
      [
        "▁recover",
        -10.868269423038694
      ],
      [
        "▁sunni",
        -10.868348805347626
      ],
      [
        "▁addiction",
        -10.868366741772792
      ],
      [
        "▁urban",
        -10.86840650576384
      ],
      [
        "▁horn",
        -10.868430241128777
      ],
      [
        "▁accus",
        -10.868603334985588
      ],
      [
        "▁salon",
        -10.868615795647349
      ],
      [
        "▁gym",
        -10.868677226605097
      ],
      [
        "▁amend",
        -10.86868261249111
      ],
      [
        "▁combine",
        -10.868913409636273
      ],
      [
        "2009",
        -10.86897026559872
      ],
      [
        "▁saint",
        -10.869488673680483
      ],
      [
        "▁laid",
        -10.870899769916683
      ],
      [
        "ketch",
        -10.871689844478142
      ],
      [
        "▁charles",
        -10.87494845318944
      ],
      [
        "take",
        -10.875568010364209
      ],
      [
        "▁cuba",
        -10.878163803987897
      ],
      [
        "▁wipe",
        -10.880188432009263
      ],
      [
        "▁cancel",
        -10.883047497630294
      ],
      [
        "ril",
        -10.883771423286948
      ],
      [
        "▁coup",
        -10.885030784609802
      ],
      [
        "germany",
        -10.89801685125879
      ],
      [
        "▁cooperat",
        -10.899989078850117
      ],
      [
        "▁plot",
        -10.908772550034627
      ],
      [
        "roo",
        -10.908914934385956
      ],
      [
        "mination",
        -10.908966502857655
      ],
      [
        ".htm",
        -10.909758433773835
      ],
      [
        "▁neighbor",
        -10.911522284142679
      ],
      [
        "▁contemporar",
        -10.911561700551674
      ],
      [
        "▁approval",
        -10.911561700561016
      ],
      [
        "▁diploma",
        -10.911561700594625
      ],
      [
        "▁judgment",
        -10.911561700662691
      ],
      [
        "▁argentin",
        -10.911561711087149
      ],
      [
        "▁discount",
        -10.911561718847423
      ],
      [
        "▁symbol",
        -10.911561722619311
      ],
      [
        "▁captain",
        -10.911561965688353
      ],
      [
        "distinct",
        -10.911562158543534
      ],
      [
        "▁prosper",
        -10.911564066340851
      ],
      [
        "fluent",
        -10.91156489862886
      ],
      [
        "▁multiple",
        -10.911565184114778
      ],
      [
        "▁comparison",
        -10.911565258621103
      ],
      [
        "▁glori",
        -10.911565270229257
      ],
      [
        "▁guilt",
        -10.911567917409917
      ],
      [
        "▁equivalen",
        -10.91156913763886
      ],
      [
        "▁saddam",
        -10.911572033978924
      ],
      [
        "▁split",
        -10.91157357226293
      ],
      [
        "▁ansi-",
        -10.911579786525284
      ],
      [
        "▁spray",
        -10.911580168966475
      ],
      [
        "▁flex",
        -10.91158828369987
      ],
      [
        "▁spear",
        -10.911599150832261
      ],
      [
        "▁missile",
        -10.911599659598954
      ],
      [
        "▁crayon",
[...]
