{
  "version": "1.0",
  "truncation": null,
  "padding": null,
  "added_tokens": [
    {
      "id": 0,
      "content": "[UNK]",
      "single_word": false,
      "lstrip": false,
      "rstrip": false,
      "normalized": false,
      "special": true
    },
    {
      "id": 1,
      "content": "[PAD]",
      "single_word": false,
      "lstrip": false,
      "rstrip": false,
      "normalized": false,
      "special": true
    },
    {
      "id": 2,
      "content": "[CLS]",
      "single_word": false,
      "lstrip": false,
      "rstrip": false,
      "normalized": false,
      "special": true
    },
    {
      "id": 3,
      "content": "[SEP]",
      "single_word": false,
      "lstrip": false,
      "rstrip": false,
      "normalized": false,
      "special": true
    },
    {
      "id": 4,
      "content": "[MASK]",
      "single_word": false,
      "lstrip": false,
      "rstrip": false,
      "normalized": false,
      "special": true
    }
  ],
  "normalizer": {
    "type": "Sequence",
    "normalizers": [
      {
        "type": "NFD"
      },
      {
        "type": "Lowercase"
      },
      {
        "type": "StripAccents"
      }
    ]
  },
  "pre_tokenizer": {
    "type": "Sequence",
    "pretokenizers": [
      {
        "type": "Metaspace",
        "replacement": "▁",
        "prepend_scheme": "always",
        "split": true
      }
    ]
  },
  "post_processor": {
    "type": "TemplateProcessing",
    "single": [
      {
        "SpecialToken": {
          "id": "[CLS]",
          "type_id": 0
        }
      },
      {
        "Sequence": {
          "id": "A",
          "type_id": 0
        }
      },
      {
        "SpecialToken": {
          "id": "[SEP]",
          "type_id": 0
        }
      }
    ],
    "pair": [
      {
        "SpecialToken": {
          "id": "[CLS]",
          "type_id": 0
        }
      },
      {
        "Sequence": {
          "id": "A",
          "type_id": 0
        }
      },
      {
        "SpecialToken": {
          "id": "[SEP]",
          "type_id": 0
        }
      },
      {
        "Sequence": {
          "id": "B",
          "type_id": 1
        }
      },
      {
        "SpecialToken": {
          "id": "[SEP]",
          "type_id": 1
        }
      }
    ],
    "special_tokens": {
      "[CLS]": {
        "id": "[CLS]",
        "ids": [
          2
        ],
        "tokens": [
          "[CLS]"
        ]
      },
      "[SEP]": {
        "id": "[SEP]",
        "ids": [
          3
        ],
        "tokens": [
          "[SEP]"
        ]
      }
    }
  },
  "decoder": {
    "type": "Metaspace",
    "replacement": "▁",
    "prepend_scheme": "always",
    "split": true
  },
  "model": {
    "type": "WordPiece",
    "unk_token": "[UNK]",
    "continuing_subword_prefix": "##",
    "max_input_chars_per_word": 100,
    "vocab": {
      "[UNK]": 0,
      "[PAD]": 1,
      "[CLS]": 2,
      "[SEP]": 3,
      "[MASK]": 4,
      "!": 5,
      "\"": 6,
      "#": 7,
      "$": 8,
      "%": 9,
      "&": 10,
      "'": 11,
      "(": 12,
      ")": 13,
      "*": 14,
      "+": 15,
      ",": 16,
      "-": 17,
      ".": 18,
      "/": 19,
      "0": 20,
      "1": 21,
      "2": 22,
      "3": 23,
      "4": 24,
      "5": 25,
      "6": 26,
      "7": 27,
      "8": 28,
      "9": 29,
      ":": 30,
      ";": 31,
      "<": 32,
      "=": 33,
      ">": 34,
      "?": 35,
      "@": 36,
      "[": 37,
      "\\": 38,
      "]": 39,
      "^": 40,
      "_": 41,
      "`": 42,
      "a": 43,
      "b": 44,
      "c": 45,
      "d": 46,
      "e": 47,
      "f": 48,
      "g": 49,
      "h": 50,
      "i": 51,
      "j": 52,
      "k": 53,
      "l": 54,
      "m": 55,
      "n": 56,
      "o": 57,
      "p": 58,
      "q": 59,
      "r": 60,
      "s": 61,
      "t": 62,
      "u": 63,
      "v": 64,
      "w": 65,
      "x": 66,
      "y": 67,
      "z": 68,
      "{": 69,
      "|": 70,
      "}": 71,
      "~": 72,
      "¢": 73,
      "£": 74,
      "§": 75,
      "­": 76,
      "°": 77,
      "±": 78,
      "²": 79,
      "³": 80,
      "·": 81,
      "º": 82,
      "½": 83,
      "×": 84,
      "ß": 85,
      "æ": 86,
      "ø": 87,
      "ł": 88,
      "œ": 89,
      "ɑ": 90,
      "ɔ": 91,
      "ə": 92,
      "ɛ": 93,
      "ʁ": 94,
      "ʃ": 95,
      "ʊ": 96,
      "ʒ": 97,
      "ʻ": 98,
      "ˈ": 99,
      "α": 100,
      "β": 101,
      "ε": 102,
      "η": 103,
      "θ": 104,
      "ι": 105,
      "μ": 106,
      "ν": 107,
      "ο": 108,
      "ρ": 109,
      "ς": 110,
      "σ": 111,
      "υ": 112,
      "φ": 113,
      "ω": 114,
      "ا": 115,
      "ح": 116,
      "د": 117,
      "ز": 118,
      "ص": 119,
      "ف": 120,
      "ن": 121,
      "ه": 122,
      "ي": 123,
      "–": 124,
      "—": 125,
      "‘": 126,
      "’": 127,
      "“": 128,
      "”": 129,
      "•": 130,
      "…": 131,
      "€": 132,
      "▁": 133,
      "☎": 134,
      "☏": 135,
      "♥": 136,
      "✉": 137,
      "一": 138,
      "况": 139,
      "口": 140,
      "古": 141,
      "司": 142,
      "和": 143,
      "图": 144,
      "夏": 145,
      "奈": 146,
      "子": 147,
      "山": 148,
      "樋": 149,
      "津": 150,
      "清": 151,
      "澹": 152,
      "琴": 153,
      "空": 154,
      "葉": 155,
      "谿": 156,
      "远": 157,
      "静": 158,
      "##h": 159,
      "##a": 160,
      "##l": 161,
      "##o": 162,
      "##w": 163,
      "##e": 164,
      "##n": 165,
      "##t": 166,
      "##s": 167,
      "##c": 168,
      "##i": 169,
      "##r": 170,
      "##q": 171,
      "##u": 172,
      "##d": 173,
      "##b": 174,
      "##$": 175,
      "##m": 176,
      "##y": 177,
      "##2": 178,
      "##-": 179,
      "###": 180,
      "##6": 181,
      "##9": 182,
      "##3": 183,
      "##4": 184,
      "##5": 185,
      "##1": 186,
      "##.": 187,
      "##k": 188,
      "##p": 189,
      "##:": 190,
      "##/": 191,
      "##v": 192,
      "##g": 193,
      "##_": 194,
      "##0": 195,
      "##f": 196,
      "##z": 197,
      "##7": 198,
      "##j": 199,
      "##(": 200,
      "##)": 201,
      "##,": 202,
      "##8": 203,
      "##'": 204,
      "##@": 205,
      "##x": 206,
      "##*": 207,
      "##`": 208,
      "##ز": 209,
      "##ه": 210,
      "##ا": 211,
      "##|": 212,
      "##%": 213,
      "##ł": 214,
      "##£": 215,
      "##>": 216,
      "##!": 217,
      "##ø": 218,
      "##?": 219,
      "##=": 220,
      "##&": 221,
      "##+": 222,
      "##’": 223,
      "##–": 224,
      "##æ": 225,
      "##一": 226,
      "##葉": 227,
      "##琴": 228,
      "##况": 229,
      "##;": 230,
      "##远": 231,
      "##ʻ": 232,
      "##☏": 233,
      "##\"": 234,
      "##~": 235,
      "##“": 236,
      "##×": 237,
      "##‘": 238,
      "##澹": 239,
      "##[": 240,
      "##清": 241,
      "##•": 242,
      "##}": 243,
      "##{": 244,
      "##<": 245,
      "##ʃ": 246,
      "##ɑ": 247,
      "##ʁ": 248,
      "##夏": 249,
      "##子": 250,
      "##²": 251,
      "##”": 252,
      "##α": 253,
      "##θ": 254,
      "##η": 255,
      "##ν": 256,
      "##☎": 257,
      "##¢": 258,
      "##º": 259,
      "##­": 260,
      "##司": 261,
      "##空": 262,
      "##…": 263,
      "##—": 264,
      "##σ": 265,
      "##ω": 266,
      "##φ": 267,
      "##ρ": 268,
      "##ο": 269,
      "##ι": 270,
      "##ς": 271,
      "##谿": 272,
      "##山": 273,
      "##ح": 274,
      "##د": 275,
      "##ي": 276,
      "##樋": 277,
      "##口": 278,
      "##ʒ": 279,
      "##ə": 280,
      "##ˈ": 281,
      "##ʊ": 282,
      "##œ": 283,
      "##ص": 284,
      "##ف": 285,
      "##ن": 286,
      "##ß": 287,
      "##ε": 288,
      "##υ": 289,
      "##β": 290,
      "##ɔ": 291,
      "##]": 292,
      "##§": 293,
      "##½": 294,
      "##静": 295,
      "##³": 296,
      "##·": 297,
      "##\\": 298,
      "##^": 299,
      "##图": 300,
      "##ɛ": 301,
      "##✉": 302,
      "##€": 303,
      "##°": 304,
      "##古": 305,
      "##±": 306,
      "##μ": 307,
      "##和": 308,
      "##♥": 309,
      "##奈": 310,
      "##津": 311,
      "▁t": 312,
      "▁a": 313,
      "##he": 314,
      "▁i": 315,
      "▁.": 316,
      "▁w": 317,
      "▁the": 318,
      "▁s": 319,
      "##re": 320,
      "▁o": 321,
      "##in": 322,
      "▁f": 323,
      "##at": 324,
      "▁b": 325,
      "▁c": 326,
      "##ou": 327,
      "##er": 328,
      "▁m": 329,
      "##nd": 330,
      "▁,": 331,
      "▁d": 332,
      "▁p": 333,
      "##on": 334,
      "▁to": 335,
      "##an": 336,
      "▁h": 337,
      "▁n": 338,
      "##ing": 339,
      "##en": 340,
      "▁th": 341,
      "##or": 342,
      "##es": 343,
      "▁l": 344,
      "##ed": 345,
      "▁and": 346,
      "▁y": 347,
      "##is": 348,
      "▁in": 349,
      "##ll": 350,
      "##om": 351,
      "##it": 352,
      "##ar": 353,
      "▁g": 354,
      "▁of": 355,
      "##as": 356,
      "▁_": 357,
      "▁you": 358,
      "▁'": 359,
      "##ic": 360,
      "##al": 361,
      "▁e": 362,
      "##ve": 363,
      "▁it": 364,
      "##ow": 365,
      "##le": 366,
      "▁on": 367,
      "##gh": 368,
      "##st": 369,
      "##et": 370,
      "▁that": 371,
      "▁?": 372,
      "##ay": 373,
      "▁wh": 374,
      "##ion": 375,
      "▁he": 376,
      "##ot": 377,
      "▁re": 378,
      "▁is": 379,
      "##ut": 380,
      "▁u": 381,
      "▁be": 382,
      "##ent": 383,
      "▁ha": 384,
      "▁fr": 385,
      "##ght": 386,
      "▁do": 387,
      "▁'s": 388,
      "▁we": 389,
      "##id": 390,
      "##se": 391,
      "##ke": 392,
      "##ro": 393,
      "##ight": 394,
      "##ac": 395,
      "##ver": 396,
      "▁for": 397,
      "▁st": 398,
      "##ld": 399,
      "##ur": 400,
      "##ir": 401,
      "##ly": 402,
      "▁from": 403,
      "##ad": 404,
      "##im": 405,
      "##am": 406,
      "##oo": 407,
      "▁was": 408,
      "▁me": 409,
      "▁what": 410,
      "▁r": 411,
      "▁an": 412,
      "##all": 413,
      "##il": 414,
      "▁this": 415,
      "##ith": 416,
      "##ct": 417,
      "▁with": 418,
      "▁at": 419,
      "▁se": 420,
      "▁li": 421,
      "▁fl": 422,
      "▁j": 423,
      "▁are": 424,
      "##ant": 425,
      "▁k": 426,
      "▁as": 427,
      "##ation": 428,
      "▁sh": 429,
      "##ce": 430,
      "##ter": 431,
      "▁have": 432,
      "▁ne": 433,
      "##'t": 434,
      "▁n't": 435,
      "##ch": 436,
      "▁not": 437,
      "##ill": 438,
      "▁de": 439,
      "##her": 440,
      "##ould": 441,
      "▁flight": 442,
      "▁go": 443,
      "##ore": 444,
      "▁-": 445,
      "▁my": 446,
      "##ome": 447,
      "▁so": 448,
      "▁or": 449,
      "▁tr": 450,
      "##op": 451,
      "##ie": 452,
      "▁they": 453,
      "##est": 454,
      "▁like": 455,
      "▁\"": 456,
      "▁su": 457,
      "▁ch": 458,
      "##ge": 459,
      "▁con": 460,
      "▁whe": 461,
      "▁all": 462,
      "▁but": 463,
      "▁there": 464,
      "##ab": 465,
      "##ul": 466,
      "##ist": 467,
      "▁can": 468,
      "##ain": 469,
      "##ust": 470,
      "##pe": 471,
      "▁al": 472,
      "▁pro": 473,
      "##th": 474,
      "▁ex": 475,
      "##ol": 476,
      "##qu": 477,
      "##and": 478,
      "▁one": 479,
      "▁1": 480,
      "##us": 481,
      "▁no": 482,
      "▁le": 483,
      "##ive": 484,
      "##ers": 485,
      "##ig": 486,
      "▁your": 487,
      "▁com": 488,
      "##pp": 489,
      "##ess": 490,
      "▁flights": 491,
      "##ost": 492,
      "▁v": 493,
      "##um": 494,
      "##ate": 495,
      "▁ab": 496,
      "##ort": 497,
      "##res": 498,
      "▁pl": 499,
      "##el": 500,
      "##ake": 501,
      "▁by": 502,
      "##ity": 503,
      "▁wor": 504,
      "##ap": 505,
      "##un": 506,
      "##ak": 507,
      "##ook": 508,
      "▁ar": 509,
      "▁his": 510,
      "##art": 511,
      "▁kn": 512,
      "##ment": 513,
      "##ies": 514,
      "##nt": 515,
      "##os": 516,
      "##out": 517,
      "##if": 518,
      "▁2": 519,
      "▁will": 520,
      "▁out": 521,
      "##ally": 522,
      "▁ye": 523,
      "▁up": 524,
      "▁)": 525,
      "▁if": 526,
      "▁(": 527,
      "▁get": 528,
      "##iv": 529,
      "##very": 530,
      "▁had": 531,
      "▁am": 532,
      "##ound": 533,
      "▁would": 534,
      "▁know": 535,
      "##00": 536,
      "##ard": 537,
      "▁she": 538,
      "##au": 539,
      "##ood": 540,
      "▁want": 541,
      "##ack": 542,
      "▁see": 543,
      "▁some": 544,
      "##itt": 545,
      "▁did": 546,
      "##ast": 547,
      "##ind": 548,
      "▁!": 549,
      "##one": 550,
      "▁us": 551,
      "##ice": 552,
      "##red": 553,
      "▁how": 554,
      "▁te": 555,
      "##fe": 556,
      "##ck": 557,
      "##ich": 558,
      "##ink": 559,
      "##ra": 560,
      "##te": 561,
      "▁un": 562,
      "##ia": 563,
      "##day": 564,
      "▁af": 565,
      "▁just": 566,
      "▁who": 567,
      "▁sa": 568,
      "▁en": 569,
      "##ine": 570,
      "▁tw": 571,
      "##ame": 572,
      "▁gr": 573,
      "▁when": 574,
      "▁has": 575,
      "▁any": 576,
      "▁about": 577,
      "##co": 578,
      "##ans": 579,
      "▁cl": 580,
      "##ong": 581,
      "##ther": 582,
      "▁show": 583,
      "▁na": 584,
      "##hing": 585,
      "##our": 586,
      "▁ad": 587,
      "▁tim": 588,
      "##ber": 589,
      "▁co": 590,
      "##are": 591,
      "▁here": 592,
      "▁qu": 593,
      "▁man": 594,
      "▁were": 595,
      "▁which": 596,
      "##mp": 597,
      "##--": 598,
      "##ag": 599,
      "▁fe": 600,
      "▁more": 601,
      "▁pr": 602,
      "▁:": 603,
      "▁them": 604,
      "▁now": 605,
      "##ip": 606,
      "▁look": 607,
      "▁new": 608,
      "##ase": 609,
      "▁pe": 610,
      "##ide": 611,
      "▁ag": 612,
      "▁her": 613,
      "▁ro": 614,
      "##ry": 615,
      "##ud": 616,
      "##ure": 617,
      "▁mo": 618,
      "##ib": 619,
      "##anc": 620,
      "##ite": 621,
      "##ah": 622,
      "▁'m": 623,
      "▁bec": 624,
      "##ace": 625,
      "▁where": 626,
      "##ough": 627,
      "▁than": 628,
      "▁him": 629,
      "▁'re": 630,
      "##ous": 631,
      "▁other": 632,
      "▁air": 633,
      "▁ph": 634,
      "▁time": 635,
      "▁ev": 636,
      "▁sp": 637,
      "▁off": 638,
      "##able": 639,
      "##own": 640,
      "▁after": 641,
      "##ions": 642,
      "▁their": 643,
      "▁think": 644,
      "##ause": 645,
      "##ick": 646,
      "##ial": 647,
      "##age": 648,
      "##to": 649,
      "▁lo": 650,
      "▁need": 651,
      "▁put": 652,
      "▁work": 653,
      "▁dis": 654,
      "##ays": 655,
      "▁over": 656,
      "▁been": 657,
      "▁ac": 658,
      "##reat": 659,
      "▁fir": 660,
      "▁mom": 661,
      "##act": 662,
      "▁right": 663,
      "▁two": 664,
      "▁bet": 665,
      "##so": 666,
      "▁oh": 667,
      "▁san": 668,
      "▁too": 669,
      "##ass": 670,
      "▁very": 671,
      "▁good": 672,
      "▁then": 673,
      "##ail": 674,
      "##ning": 675,
      "##av": 676,
      "##ose": 677,
      "▁br": 678,
      "▁comp": 679,
      "▁first": 680,
      "▁exp": 681,
      "▁our": 682,
      "▁sc": 683,
      "▁going": 684,
      "▁bo": 685,
      "##ars": 686,
      "▁den": 687,
      "##oston": 688,
      "▁because": 689,
      "##ree": 690,
      "▁boston": 691,
      "##my": 692,
      "##we": 693,
      "▁cont": 694,
      "##ect": 695,
      "▁could": 696,
      "▁make": 697,
      "▁per": 698,
      "▁well": 699,
      "▁let": 700,
      "▁peop": 701,
      "▁back": 702,
      "▁may": 703,
      "▁got": 704,
      "▁does": 705,
      "▁part": 706,
      "▁said": 707,
      "##nder": 708,
      "##iz": 709,
      "▁people": 710,
      "##ue": 711,
      "▁car": 712,
      "##ount": 713,
      "▁bl": 714,
      "##ated": 715,
      "##em": 716,
      "▁ser": 717,
      "▁also": 718,
      "▁denver": 719,
      "##pt": 720,
      "##..": 721,
      "▁res": 722,
      "##ep": 723,
      "##other": 724,
      "##port": 725,
      "▁yeah": 726,
      "▁ple": 727,
      "##ary": 728,
      "##cl": 729,
      "▁into": 730,
      "▁ok": 731,
      "##orm": 732,
      "##ark": 733,
      "##ww": 734,
      "##land": 735,
      "▁take": 736,
      "▁these": 737,
      "##ire": 738,
      "▁list": 739,
      "▁franc": 740,
      "##ff": 741,
      "##isco": 742,
      "##ian": 743,
      "##ile": 744,
      "▁francisco": 745,
      "▁way": 746,
      "##dy": 747,
      "##hed": 748,
      "▁down": 749,
      "##ings": 750,
      "##ph": 751,
      "##ave": 752,
      "##ence": 753,
      "▁che": 754,
      "▁pre": 755,
      "##ang": 756,
      "##ty": 757,
      "##fore": 758,
      "▁even": 759,
      "▁ind": 760,
      "##ress": 761,
      "▁spe": 762,
      "▁only": 763,
      "▁should": 764,
      "##omet": 765,
      "##alk": 766,
      "▁every": 767,
      "##ance": 768,
      "##ach": 769,
      "▁please": 770,
      "▁say": 771,
      "##ish": 772,
      "▁ta": 773,
      "▁play": 774,
      "▁comm": 775,
      "##ater": 776,
      "▁'ll": 777,
      "▁call": 778,
      "▁somet": 779,
      "##og": 780,
      "##ult": 781,
      "##bur": 782,
      "▁gu": 783,
      "▁dr": 784,
      "▁po": 785,
      "▁bal": 786,
      "▁bu": 787,
      "▁mu": 788,
      "##ical": 789,
      "▁act": 790,
      "##anta": 791,
      "##ren": 792,
      "▁okay": 793,
      "▁app": 794,
      "▁cr": 795,
      "▁again": 796,
      "▁before": 797,
      "▁imp": 798,
      "##ines": 799,
      "▁jo": 800,
      "##ens": 801,
      "##cess": 802,
      "▁under": 803,
      "▁atl": 804,
      "▁betwe": 805,
      "▁between": 806,
      "##ix": 807,
      "▁rec": 808,
      "▁wr": 809,
      "##sel": 810,
      "▁;": 811,
      "▁inter": 812,
      "##les": 813,
      "▁la": 814,
      "▁mor": 815,
      "▁atlanta": 816,
      "▁sm": 817,
      "▁long": 818,
      "##ations": 819,
      "▁mommy": 820,
      "▁ca": 821,
      "##li": 822,
      "##ub": 823,
      "▁’": 824,
      "▁3": 825,
      "##ade": 826,
      "▁bus": 827,
      "▁litt": 828,
      "##urn": 829,
      "##----": 830,
      "▁little": 831,
      "##wn": 832,
      "##ord": 833,
      "▁find": 834,
      "##ors": 835,
      "▁come": 836,
      "▁ear": 837,
      "▁thr": 838,
      "##form": 839,
      "▁op": 840,
      "▁dat": 841,
      "##ited": 842,
      "▁many": 843,
      "▁–": 844,
      "##ild": 845,
      "▁wan": 846,
      "▁gon": 847,
      "##ton": 848,
      "▁rem": 849,
      "▁str": 850,
      "▁trans": 851,
      "##lic": 852,
      "##tim": 853,
      "▁serv": 854,
      "▁much": 855,
      "##ign": 856,
      "▁big": 857,
      "▁those": 858,
      "##uct": 859,
      "##ft": 860,
      "▁mil": 861,
      "▁its": 862,
      "▁mon": 863,
      "##ied": 864,
      "##eric": 865,
      "▁pitt": 866,
      "##sbur": 867,
      "▁day": 868,
      "▁dall": 869,
      "▁give": 870,
      "▁great": 871,
      "▁dallas": 872,
      "▁really": 873,
      "▁pittsbur": 874,
      "▁pittsburgh": 875,
      "▁why": 876,
      "▁eat": 877,
      "▁use": 878,
      "▁dad": 879,
      "##gg": 880,
      "▁ke": 881,
      "▁hel": 882,
      "##ting": 883,
      "##amp": 884,
      "##iss": 885,
      "▁hou": 886,
      "##ks": 887,
      "##ving": 888,
      "▁arr": 889,
      "▁help": 890,
      "▁phil": 891,
      "▁des": 892,
      "##ory": 893,
      "▁americ": 894,
      "▁something": 895,
      "▁um": 896,
      "##ool": 897,
      "▁around": 898,
      "▁tell": 899,
      "##air": 900,
      "▁reg": 901,
      "▁200": 902,
      "##oc": 903,
      "▁pres": 904,
      "##ious": 905,
      "▁...": 906,
      "▁hi": 907,
      "##ition": 908,
      "▁aw": 909,
      "▁dif": 910,
      "##vel": 911,
      "▁uh": 912,
      "##ved": 913,
      "##inn": 914,
      "##de": 915,
      "##nds": 916,
      "##xt": 917,
      "##ons": 918,
      "##ull": 919,
      "##ise": 920,
      "▁yes": 921,
      "▁still": 922,
      "▁airl": 923,
      "##ys": 924,
      "##ily": 925,
      "▁morning": 926,
      "▁read": 927,
      "##aking": 928,
      "##ms": 929,
      "##int": 930,
      "▁happ": 931,
      "▁att": 932,
      "##ath": 933,
      "▁city": 934,
      "##ict": 935,
      "##adel": 936,
      "##ates": 937,
      "##__": 938,
      "##oup": 939,
      "▁prob": 940,
      "▁'d": 941,
      "▁try": 942,
      "##akes": 943,
      "##self": 944,
      "▁most": 945,
      "▁baltim": 946,
      "▁baltimore": 947,
      "▁5": 948,
      "##esday": 949,
      "##phia": 950,
      "▁philadel": 951,
      "▁philadelphia": 952,
      "▁19": 953,
      "▁cle": 954,
      "▁count": 955,
      "##od": 956,
      "▁fin": 957,
      "##ron": 958,
      "▁pol": 959,
      "▁4": 960,
      "▁last": 961,
      "▁pm": 962,
      "▁inte": 963,
      "##rent": 964,
      "▁book": 965,
      "##ought": 966,
      "▁rep": 967,
      "▁bel": 968,
      "▁20": 969,
      "▁another": 970,
      "▁gl": 971,
      "##ible": 972,
      "##be": 973,
      "##==": 974,
      "▁through": 975,
      "##com": 976,
      "▁ap": 977,
      "▁sch": 978,
      "▁pos": 979,
      "##ments": 980,
      "▁made": 981,
      "▁place": 982,
      "▁add": 983,
      "▁home": 984,
      "▁num": 985,
      "##ci": 986,
      "▁bot": 987,
      "##vers": 988,
      "▁[": 989,
      "▁el": 990,
      "##iew": 991,
      "▁world": 992,
      "▁mar": 993,
      "▁fo": 994,
      "##ert": 995,
      "▁]": 996,
      "▁doing": 997,
      "##als": 998,
      "##ents": 999,
      "▁years": 1000,
      "##ually": 1001,
      "▁leav": 1002,
      "▁—": 1003,
      "▁wee": 1004,
      "▁own": 1005,
      "##llow": 1006,
      "▁talk": 1007,
      "##enc": 1008,
      "▁kind": 1009,
      "##ful": 1010,
      "▁em": 1011,
      "▁cons": 1012,
      "##ange": 1013,
      "▁year": 1014,
      "▁frie": 1015,
      "▁daddy": 1016,
      "##me": 1017,
      "▁char": 1018,
      "##pect": 1019,
      "##thing": 1020,
      "##per": 1021,
      "▁today": 1022,
      "##ject": 1023,
      "▁rel": 1024,
      "▁washing": 1025,
      "▁food": 1026,
      "▁pers": 1027,
      "▁'ve": 1028,
      "▁7": 1029,
      "▁’s": 1030,
      "▁stud": 1031,
      "▁airlines": 1032,
      "▁house": 1033,
      "▁av": 1034,
      "▁ho": 1035,
      "##ational": 1036,
      "##get": 1037,
      "##ather": 1038,
      "##read": 1039,
      "##uck": 1040,
      "▁start": 1041,
      "##ities": 1042,
      "▁same": 1043,
      "▁things": 1044,
      "▁bas": 1045,
      "##ident": 1046,
      "▁went": 1047,
      "▁stop": 1048,
      "▁school": 1049,
      "##gr": 1050,
      "▁ter": 1051,
      "▁name": 1052,
      "▁washington": 1053,
      "##oy": 1054,
      "##ock": 1055,
      "##www": 1056,
      "▁wo": 1057,
      "▁supp": 1058,
      "▁diffe": 1059,
      "##mber": 1060,
      "##atch": 1061,
      "##uc": 1062,
      "▁min": 1063,
      "▁inst": 1064,
      "##orn": 1065,
      "▁lot": 1066,
      "▁gen": 1067,
      "▁such": 1068,
      "▁inform": 1069,
      "▁mean": 1070,
      "##man": 1071,
      "##ves": 1072,
      "▁best": 1073,
      "##nday": 1074,
      "▁next": 1075,
      "▁war": 1076,
      "▁ob": 1077,
      "▁fly": 1078,
      "##iving": 1079,
      "▁bab": 1080,
      "▁ele": 1081,
      "▁old": 1082,
      "##**": 1083,
      "▁sur": 1084,
      "▁real": 1085,
      "▁set": 1086,
      "▁ask": 1087,
      "##ific": 1088,
      "▁acc": 1089,
      "▁sy": 1090,
      "▁open": 1091,
      "▁/": 1092,
      "##ever": 1093,
      "▁dec": 1094,
      "##ork": 1095,
      "▁three": 1096,
      "▁6": 1097,
      "▁inc": 1098,
      "▁col": 1099,
      "##oman": 1100,
      "▁while": 1101,
      "▁turn": 1102,
      "##ank": 1103,
      "▁quest": 1104,
      "##rest": 1105,
      "▁im": 1106,
      "▁hu": 1107,
      "▁prov": 1108,
      "▁wa": 1109,
      "▁night": 1110,
      "##cept": 1111,
      "##der": 1112,
      "##!!": 1113,
      "▁inv": 1114,
      "▁hand": 1115,
      "▁form": 1116,
      "▁being": 1117,
      "##up": 1118,
      "▁class": 1119,
      "##bo": 1120,
      "##ular": 1121,
      "##ince": 1122,
      "▁spec": 1123,
      "##hes": 1124,
      "▁feel": 1125,
      "▁leaving": 1126,
      "##led": 1127,
      "▁end": 1128,
      "▁never": 1129,
      "##fect": 1130,
      "##no": 1131,
      "▁wed": 1132,
      "▁fun": 1133,
      "▁--": 1134,
      "▁united": 1135,
      "##urs": 1136,
      "▁leave": 1137,
      "▁head": 1138,
      "▁american": 1139,
      "▁dra": 1140,
      "▁high": 1141,
      "##side": 1142,
      "##ating": 1143,
      "##ways": 1144,
      "##olog": 1145,
      "▁service": 1146,
      "▁number": 1147,
      "▁room": 1148,
      "▁information": 1149,
      "▁thing": 1150,
      "▁sub": 1151,
      "##ward": 1152,
      "##con": 1153,
      "▁sal": 1154,
      "##ative": 1155,
      "▁life": 1156,
      "##ne": 1157,
      "▁sl": 1158,
      "▁har": 1159,
      "▁person": 1160,
      "▁ass": 1161,
      "▁leg": 1162,
      "▁sit": 1163,
      "▁prod": 1164,
      "▁ve": 1165,
      "▁water": 1166,
      "▁used": 1167,
      "▁$": 1168,
      "▁0": 1169,
      "##ual": 1170,
      "##ope": 1171,
      "##000": 1172,
      "▁far": 1173,
      "▁ent": 1174,
      "##ient": 1175,
      "▁ret": 1176,
      "##clud": 1177,
      "##ss": 1178,
      "▁called": 1179,
      "▁fam": 1180,
      "▁keep": 1181,
      "▁away": 1182,
      "▁sat": 1183,
      "▁baby": 1184,
      "▁sk": 1185,
      "▁det": 1186,
      "▁eu": 1187,
      "▁rest": 1188,
      "##ience": 1189,
      "##ution": 1190,
      "▁“": 1191,
      "▁ed": 1192,
      "▁met": 1193,
      "▁lar": 1194,
      "▁red": 1195,
      "##vern": 1196,
      "▁small": 1197,
      "▁else": 1198,
      "##ures": 1199,
      "▁par": 1200,
      "▁rev": 1201,
      "##ute": 1202,
      "▁coll": 1203,
      "▁contin": 1204,
      "##rib": 1205,
      "▁sure": 1206,
      "▁group": 1207,
      "▁found": 1208,
      "▁bre": 1209,
      "▁child": 1210,
      "▁10": 1211,
      "▁love": 1212,
      "▁pub": 1213,
      "##ces": 1214,
      "▁must": 1215,
      "▁always": 1216,
      "▁vis": 1217,
      "##oun": 1218,
      "##ug": 1219,
      "▁cour": 1220,
      "▁thought": 1221,
      "▁round": 1222,
      "▁”": 1223,
      "▁interest": 1224,
      "▁both": 1225,
      "##--------": 1226,
      "▁gener": 1227,
      "##nesday": 1228,
      "▁transport": 1229,
      "▁wednesday": 1230,
      "▁ma": 1231,
      "##oney": 1232,
      "##ices": 1233,
      "##irl": 1234,
      "▁art": 1235,
      "▁light": 1236,
      "▁stand": 1237,
      "▁dep": 1238,
      "▁better": 1239,
      "▁different": 1240,
      "▁haf": 1241,
      "▁mr": 1242,
      "▁trip": 1243,
      "##irect": 1244,
      "##med": 1245,
      "▁hot": 1246,
      "▁ground": 1247,
      "▁mark": 1248,
      "▁intern": 1249,
      "▁since": 1250,
      "▁cent": 1251,
      "▁pa": 1252,
      "▁avail": 1253,
      "▁eng": 1254,
      "##/2": 1255,
      "▁bro": 1256,
      "▁cur": 1257,
      "##tle": 1258,
      "▁few": 1259,
      "▁partic": 1260,
      "▁month": 1261,
      "##ger": 1262,
      "▁fa": 1263,
      "▁bir": 1264,
      "▁requ": 1265,
      "▁def": 1266,
      "▁four": 1267,
      "##ics": 1268,
      "##ably": 1269,
      "▁direct": 1270,
      "▁includ": 1271,
      "▁each": 1272,
      "##aper": 1273,
      "▁poss": 1274,
      "▁might": 1275,
      "▁loc": 1276,
      "▁nice": 1277,
      "▁gre": 1278,
      "##ash": 1279,
      "▁point": 1280,
      "▁8": 1281,
      "▁walk": 1282,
      "##outh": 1283,
      "##uring": 1284,
      "##uss": 1285,
      "▁follow": 1286,
      "▁done": 1287,
      "▁remem": 1288,
      "##ters": 1289,
      "▁available": 1290,
      "▁came": 1291,
      "▁ref": 1292,
      "▁report": 1293,
      "##ared": 1294,
      "▁fact": 1295,
      "▁girl": 1296,
      "▁thank": 1297,
      "##ts": 1298,
      "▁though": 1299,
      "▁took": 1300,
      "##ale": 1301,
      "##ower": 1302,
      "▁exper": 1303,
      "▁euro": 1304,
      "##iness": 1305,
      "▁pet": 1306,
      "▁govern": 1307,
      "▁plan": 1308,
      "▁happen": 1309,
      "▁proble": 1310,
      "▁eas": 1311,
      "##velop": 1312,
      "▁sw": 1313,
      "▁care": 1314,
      "##ural": 1315,
      "##iting": 1316,
      "##ason": 1317,
      "##ants": 1318,
      "▁week": 1319,
      "▁cap": 1320,
      "▁state": 1321,
      "▁ty": 1322,
      "▁hard": 1323,
      "▁ey": 1324,
      "▁201": 1325,
      "▁z": 1326,
      "▁sim": 1327,
      "▁mat": 1328,
      "▁non": 1329,
      "##ense": 1330,
      "▁york": 1331,
      "##ility": 1332,
      "▁cheap": 1333,
      "▁told": 1334,
      "▁seco": 1335,
      "▁belie": 1336,
      "##ention": 1337,
      "▁conf": 1338,
      "▁dem": 1339,
      "▁ball": 1340,
      "▁hear": 1341,
      "▁alread": 1342,
      "▁already": 1343,
      "##gan": 1344,
      "▁dog": 1345,
      "▁maybe": 1346,
      "▁states": 1347,
      "▁ext": 1348,
      "##orr": 1349,
      "▁stay": 1350,
      "▁lead": 1351,
      "▁ju": 1352,
      "##ny": 1353,
      "##pr": 1354,
      "##ality": 1355,
      "▁stre": 1356,
      "▁roman": 1357,
      "▁however": 1358,
      "▁hum": 1359,
      "##ives": 1360,
      "▁thanks": 1361,
      "##ling": 1362,
      "##ina": 1363,
      "▁bad": 1364,
      "▁dist": 1365,
      "▁days": 1366,
      "▁sec": 1367,
      "▁looking": 1368,
      "##conom": 1369,
      "▁pass": 1370,
      "▁econom": 1371,
      "##stand": 1372,
      "##ross": 1373,
      "▁run": 1374,
      "▁develop": 1375,
      "▁disc": 1376,
      "##pl": 1377,
      "##here": 1378,
      "##ished": 1379,
      "▁je": 1380,
      "▁six": 1381,
      "▁hey": 1382,
      "▁meet": 1383,
      "▁sign": 1384,
      "▁adam": 1385,
      "##io": 1386,
      "▁train": 1387,
      "▁bush": 1388,
      "▁remember": 1389,
      "▁fare": 1390,
      "##ield": 1391,
      "▁data": 1392,
      "▁president": 1393,
      "▁nor": 1394,
      "▁uni": 1395,
      "##ted": 1396,
      "##ets": 1397,
      "##osed": 1398,
      "▁second": 1399,
      "##ness": 1400,
      "##.com": 1401,
      "##enty": 1402,
      "▁word": 1403,
      "##____": 1404,
      "##ik": 1405,
      "▁fil": 1406,
      "▁later": 1407,
      "▁laur": 1408,
      "▁9": 1409,
      "##ric": 1410,
      "▁fall": 1411,
      "▁afterno": 1412,
      "▁job": 1413,
      "##ues": 1414,
      "▁pie": 1415,
      "##ised": 1416,
      "▁afternoon": 1417,
      "▁bit": 1418,
      "▁tom": 1419,
      "▁ge": 1420,
      "▁watch": 1421,
      "▁import": 1422,
      "##ission": 1423,
      "▁friend": 1424,
      "##ired": 1425,
      "▁nothing": 1426,
      "▁del": 1427,
      "▁actually": 1428,
      "▁aut": 1429,
      "▁oak": 1430,
      "##ote": 1431,
      "##tern": 1432,
      "▁resp": 1433,
      "▁hold": 1434,
      "▁expl": 1435,
      "▁early": 1436,
      "##ven": 1437,
      "▁cor": 1438,
      "##ards": 1439,
      "▁saw": 1440,
      "▁anything": 1441,
      "▁compan": 1442,
      "▁appro": 1443,
      "▁free": 1444,
      "▁val": 1445,
      "▁ide": 1446,
      "▁main": 1447,
      "▁unt": 1448,
      "▁left": 1449,
      "▁transportation": 1450,
      "▁laura": 1451,
      "▁cat": 1452,
      "▁cost": 1453,
      "▁med": 1454,
      "▁making": 1455,
      "▁ever": 1456,
      "▁business": 1457,
      "##====": 1458,
      "▁st.": 1459,
      "##ists": 1460,
      "▁says": 1461,
      "▁hour": 1462,
      "##ism": 1463,
      "▁once": 1464,
      "##stem": 1465,
      "▁airport": 1466,
      "▁milk": 1467,
      "▁face": 1468,
      "##erg": 1469,
      "▁getting": 1470,
      "▁oakland": 1471,
      "▁mi": 1472,
      "▁ins": 1473,
      "▁doll": 1474,
      "##less": 1475,
      "##min": 1476,
      "▁line": 1477,
      "##idd": 1478,
      "##ction": 1479,
      "▁without": 1480,
      "▁lear": 1481,
      "##ump": 1482,
      "▁earli": 1483,
      "##body": 1484,
      "##iet": 1485,
      "▁tu": 1486,
      "▁live": 1487,
      "##tt": 1488,
      "##ior": 1489,
      "▁sn": 1490,
      "▁fu": 1491,
      "▁bar": 1492,
      "▁mother": 1493,
      "▁country": 1494,
      "▁family": 1495,
      "▁public": 1496,
      "▁europe": 1497,
      "##ble": 1498,
      "▁full": 1499,
      "▁hope": 1500,
      "▁iss": 1501,
      "▁understand": 1502,
      "##ertain": 1503,
      "▁x": 1504,
      "▁thurs": 1505,
      "▁emp": 1506,
      "▁hair": 1507,
      "▁monday": 1508,
      "▁law": 1509,
      "▁cheapest": 1510,
      "▁five": 1511,
      "▁mus": 1512,
      "▁game": 1513,
      "▁thursday": 1514,
      "##mm": 1515,
      "▁cre": 1516,
      "##ider": 1517,
      "##ample": 1518,
      "▁product": 1519,
      "▁pop": 1520,
      "▁sun": 1521,
      "▁pret": 1522,
      "▁system": 1523,
      "▁nat": 1524,
      "▁thir": 1525,
      "▁less": 1526,
      "▁adv": 1527,
      "▁buy": 1528,
      "▁probably": 1529,
      "▁trying": 1530,
      "##cc": 1531,
      "▁money": 1532,
      "▁during": 1533,
      "▁using": 1534,
      "##ize": 1535,
      "▁break": 1536,
      "##hip": 1537,
      "##az": 1538,
      "▁against": 1539,
      "##aff": 1540,
      "▁sle": 1541,
      "▁pict": 1542,
      "▁paper": 1543,
      "▁sep": 1544,
      "▁process": 1545,
      "▁cut": 1546,
      "▁beh": 1547,
      "▁18": 1548,
      "##ned": 1549,
      "##ten": 1550,
      "##by": 1551,
      "##ental": 1552,
      "▁mem": 1553,
      "##gether": 1554,
      "##aw": 1555,
      "##ier": 1556,
      "##go": 1557,
      "▁ira": 1558,
      "▁pay": 1559,
      "▁15": 1560,
      "##angu": 1561,
      "▁arriving": 1562,
      "▁draw": 1563,
      "▁pretty": 1564,
      "▁iraq": 1565,
      "##uff": 1566,
      "##arch": 1567,
      "##alth": 1568,
      "▁prop": 1569,
      "▁12": 1570,
      "▁11": 1571,
      "▁commun": 1572,
      "▁question": 1573,
      "▁coun": 1574,
      "▁yet": 1575,
      "##alf": 1576,
      "▁change": 1577,
      "▁grow": 1578,
      "▁friends": 1579,
      "▁wait": 1580,
      "##,000": 1581,
      "▁land": 1582,
      "▁inf": 1583,
      "##ages": 1584,
      "▁comple": 1585,
      "▁depart": 1586,
      "##ries": 1587,
      "▁bed": 1588,
      "▁top": 1589,
      "##ided": 1590,
      "##unch": 1591,
      "▁move": 1592,
      "▁access": 1593,
      "##ins": 1594,
      "▁father": 1595,
      "▁post": 1596,
      "▁least": 1597,
      "▁view": 1598,
      "##br": 1599,
      "▁wanted": 1600,
      "▁enough": 1601,
      "▁everything": 1602,
      "▁large": 1603,
      "▁squ": 1604,
      "▁conc": 1605,
      "▁write": 1606,
      "▁terr": 1607,
      "##ator": 1608,
      "▁langu": 1609,
      "##ically": 1610,
      "##ately": 1611,
      "▁twenty": 1612,
      "▁clean": 1613,
      "##gram": 1614,
      "##bers": 1615,
      "▁cal": 1616,
      "##iday": 1617,
      "▁tech": 1618,
      "▁until": 1619,
      "▁field": 1620,
      "▁ce": 1621,
      "##its": 1622,
      "▁white": 1623,
      "##enth": 1624,
      "▁having": 1625,
      "▁appe": 1626,
      "▁government": 1627,
      "▁tuesday": 1628,
      "▁someone": 1629,
      "▁black": 1630,
      "##nect": 1631,
      "##inc": 1632,
      "##ital": 1633,
      "▁sho": 1634,
      "▁goes": 1635,
      "##ived": 1636,
      "▁times": 1637,
      "##right": 1638,
      "▁men": 1639,
      "▁together": 1640,
      "▁hor": 1641,
      "▁ste": 1642,
      "▁means": 1643,
      "▁anim": 1644,
      "▁trave": 1645,
      "▁prof": 1646,
      "##ipp": 1647,
      "▁whole": 1648,
      "▁office": 1649,
      "▁rece": 1650,
      "▁area": 1651,
      "▁dere": 1652,
      "##gn": 1653,
      "▁wind": 1654,
      "▁int": 1655,
      "▁store": 1656,
      "▁order": 1657,
      "▁example": 1658,
      "▁pur": 1659,
      "▁indian": 1660,
      "##rence": 1661,
      "▁techn": 1662,
      "##aur": 1663,
      "▁ir": 1664,
      "▁outside": 1665,
      "##ized": 1666,
      "▁return": 1667,
      "▁est": 1668,
      "##hu": 1669,
      "##nded": 1670,
      "##ither": 1671,
      "▁program": 1672,
      "▁es": 1673,
      "##ently": 1674,
      "##ames": 1675,
      "▁short": 1676,
      "▁possible": 1677,
      "▁important": 1678,
      "##aut": 1679,
      "##ract": 1680,
      "##bs": 1681,
      "##ety": 1682,
      "▁youn": 1683,
      "▁result": 1684,
      "▁harry": 1685,
      "##hen": 1686,
      "▁case": 1687,
      "▁ans": 1688,
      "▁prot": 1689,
      "▁creat": 1690,
      "##ont": 1691,
      "##kee": 1692,
      "##ained": 1693,
      "▁enj": 1694,
      "▁children": 1695,
      "▁paul": 1696,
      "##ee": 1697,
      "##most": 1698,
      "▁south": 1699,
      "▁pain": 1700,
      "##ional": 1701,
      "▁friday": 1702,
      "▁ben": 1703,
      "▁pick": 1704,
      "▁hit": 1705,
      "▁national": 1706,
      "##ows": 1707,
      "▁chang": 1708,
      "▁const": 1709,
      "▁able": 1710,
      "##aught": 1711,
      "▁himself": 1712,
      "▁check": 1713,
      "▁drink": 1714,
      "▁support": 1715,
      "▁univers": 1716,
      "▁hur": 1717,
      "##urday": 1718,
      "▁proper": 1719,
      "▁bring": 1720,
      "▁miss": 1721,
      "▁dc": 1722,
      "▁equ": 1723,
      "##imes": 1724,
      "▁build": 1725,
      "▁study": 1726,
      "▁saturday": 1727,
      "##lish": 1728,
      "##rap": 1729,
      "▁pot": 1730,
      "▁sunday": 1731,
      "##ustom": 1732,
      "▁coming": 1733,
      "##iven": 1734,
      "##orrow": 1735,
      "▁hist": 1736,
      "▁jun": 1737,
      "▁elect": 1738,
      "▁north": 1739,
      "##ma": 1740,
      "▁test": 1741,
      "▁seat": 1742,
      "▁deal": 1743,
      "▁polit": 1744,
      "▁&": 1745,
      "##wau": 1746,
      "##ese": 1747,
      "##ston": 1748,
      "##olis": 1749,
      "##ife": 1750,
      "▁price": 1751,
      "▁milwau": 1752,
      "##ency": 1753,
      "▁milwaukee": 1754,
      "##cial": 1755,
      "▁htt": 1756,
      "▁near": 1757,
      "▁almost": 1758,
      "##inner": 1759,
      "##****": 1760,
      "▁http": 1761,
      "##:/": 1762,
      "▁sing": 1763,
      "##nding": 1764,
      "▁pen": 1765,
      "##omme": 1766,
      "▁course": 1767,
      "▁particular": 1768,
      "##://": 1769,
      "##cle": 1770,
      "▁reason": 1771,
      "▁ur": 1772,
      "▁connect": 1773,
      "▁recomme": 1774,
      "▁based": 1775,
      "▁problem": 1776,
      "##ffect": 1777,
      "▁taking": 1778,
      "▁cult": 1779,
      "▁custom": 1780,
      "##ummy": 1781,
      "▁joh": 1782,
      "▁international": 1783,
      "▁http://": 1784,
      "##where": 1785,
      "▁agree": 1786,
      "▁box": 1787,
      "▁record": 1788,
      "▁experience": 1789,
      "▁sleep": 1790,
      "▁certain": 1791,
      "##ery": 1792,
      "##rop": 1793,
      "##irt": 1794,
      "▁atte": 1795,
      "▁sever": 1796,
      "▁chr": 1797,
      "▁worth": 1798,
      "##aps": 1799,
      "##apolis": 1800,
      "▁close": 1801,
      "▁contro": 1802,
      "▁horse": 1803,
      "##ove": 1804,
      "▁power": 1805,
      "##ama": 1806,
      "##ology": 1807,
      "▁maj": 1808,
      "▁months": 1809,
      "▁july": 1810,
      "▁side": 1811,
      "▁cop": 1812,
      "▁prom": 1813,
      "▁boy": 1814,
      "▁present": 1815,
      "##ined": 1816,
      "▁beg": 1817,
      "##ached": 1818,
      "▁fort": 1819,
      "▁flo": 1820,
      "▁16": 1821,
      "▁pho": 1822,
      "▁human": 1823,
      "▁several": 1824,
      "▁step": 1825,
      "##arent": 1826,
      "▁company": 1827,
      "##ased": 1828,
      "▁cond": 1829,
      "▁evening": 1830,
      "▁incre": 1831,
      "##aim": 1832,
      "##ced": 1833,
      "##ruct": 1834,
      "▁pat": 1835,
      "▁tomorrow": 1836,
      "##ta": 1837,
      "##30": 1838,
      "▁aug": 1839,
      "▁mind": 1840,
      "▁past": 1841,
      "▁eff": 1842,
      "▁project": 1843,
      "▁ago": 1844,
      "▁everyone": 1845,
      "▁playing": 1846,
      "▁fares": 1847,
      "▁eyes": 1848,
      "##iver": 1849,
      "▁die": 1850,
      "##aces": 1851,
      "▁oper": 1852,
      "▁charl": 1853,
      "▁special": 1854,
      "▁salt": 1855,
      "##ml": 1856,
      "▁fore": 1857,
      "##ision": 1858,
      "▁looks": 1859,
      "▁commission": 1860,
      "▁arrive": 1861,
      "▁asked": 1862,
      "▁general": 1863,
      "▁major": 1864,
      "##way": 1865,
      "##s.": 1866,
      "##cent": 1867,
      "▁los": 1868,
      "▁effect": 1869,
      "▁door": 1870,
      "▁kid": 1871,
      "▁mod": 1872,
      "▁happened": 1873,
      "▁language": 1874,
      "##na": 1875,
      "▁opp": 1876,
      "▁bur": 1877,
      "▁beaut": 1878,
      "▁expect": 1879,
      "##aken": 1880,
      "▁discuss": 1881,
      "▁john": 1882,
      "##’t": 1883,
      "▁dinner": 1884,
      "▁n’t": 1885,
      "▁lou": 1886,
      "▁lim": 1887,
      "▁front": 1888,
      "▁soon": 1889,
      "▁sometimes": 1890,
      "▁treat": 1891,
      "▁sent": 1892,
      "▁fre": 1893,
      "##aring": 1894,
      "▁chair": 1895,
      "▁news": 1896,
      "▁young": 1897,
      "##utes": 1898,
      "▁shakes": 1899,
      "##ago": 1900,
      "▁working": 1901,
      "▁review": 1902,
      "▁green": 1903,
      "▁along": 1904,
      "▁believe": 1905,
      "▁cup": 1906,
      "##iter": 1907,
      "▁often": 1908,
      "##room": 1909,
      "##peare": 1910,
      "▁quite": 1911,
      "▁houston": 1912,
      "▁happy": 1913,
      "▁clear": 1914,
      "▁shakespeare": 1915,
      "▁coup": 1916,
      "▁mess": 1917,
      "▁half": 1918,
      "▁egg": 1919,
      "▁either": 1920,
      "▁health": 1921,
      "##ush": 1922,
      "▁color": 1923,
      "##huh": 1924,
      "▁ten": 1925,
      "▁file": 1926,
      "▁bill": 1927,
      "▁makes": 1928,
      "▁town": 1929,
      "▁gave": 1930,
      "▁rese": 1931,
      "▁sea": 1932,
      "▁grand": 1933,
      "▁uhhuh": 1934,
      "##ged": 1935,
      "##atic": 1936,
      "##ana": 1937,
      "▁island": 1938,
      "##ides": 1939,
      "▁amount": 1940,
      "▁phone": 1941,
      "▁space": 1942,
      "##ensive": 1943,
      "##ond": 1944,
      "▁sound": 1945,
      "▁ban": 1946,
      "▁camp": 1947,
      "##ern": 1948,
      "▁mic": 1949,
      "##stop": 1950,
      "▁chic": 1951,
      "##ains": 1952,
      "▁anyone": 1953,
      "▁blue": 1954,
      "▁questions": 1955,
      "▁birth": 1956,
      "##ob": 1957,
      "##ched": 1958,
      "▁da": 1959,
      "##enix": 1960,
      "##omen": 1961,
      "▁eight": 1962,
      "##ctor": 1963,
      "▁within": 1964,
      "▁strong": 1965,
      "▁phoenix": 1966,
      "##ians": 1967,
      "##ret": 1968,
      "##ime": 1969,
      "▁others": 1970,
      "▁party": 1971,
      "▁enjoy": 1972,
      "▁august": 1973,
      "▁chicago": 1974,
      "##loy": 1975,
      "##oice": 1976,
      "▁table": 1977,
      "▁swe": 1978,
      "▁stuff": 1979,
      "▁whether": 1980,
      "##istan": 1981,
      "▁huh": 1982,
      "▁control": 1983,
      "▁q": 1984,
      "##line": 1985,
      "▁tick": 1986,
      "▁fut": 1987,
      "▁las": 1988,
      "##ami": 1989,
      "▁sol": 1990,
      "▁exce": 1991,
      "▁17": 1992,
      "##used": 1993,
      "▁199": 1994,
      "##lf": 1995,
      "##sh": 1996,
      "▁cook": 1997,
      "▁page": 1998,
      "▁offic": 1999,
      "▁nonstop": 2000,
      "##cum": 2001,
      "▁rob": 2002,
      "▁milit": 2003,
      "▁started": 2004,
      "▁wonder": 2005,
      "▁simp": 2006,
      "##ead": 2007,
      "▁fix": 2008,
      "▁cir": 2009,
      "▁level": 2010,
      "▁occ": 2011,
      "▁fire": 2012,
      "▁mag": 2013,
      "▁shop": 2014,
      "▁suc": 2015,
      "##ulation": 2016,
      "##tember": 2017,
      "▁instead": 2018,
      "▁current": 2019,
      "▁piece": 2020,
      "##ster": 2021,
      "▁comes": 2022,
      "##ung": 2023,
      "▁consider": 2024,
      "▁auth": 2025,
      "▁hours": 2026,
      "▁september": 2027,
      "##ering": 2028,
      "▁across": 2029,
      "##ocr": 2030,
      "▁talking": 2031,
      "▁type": 2032,
      "▁earliest": 2033,
      "▁er": 2034,
      "##rew": 2035,
      "▁o'": 2036,
      "▁mill": 2037,
      "▁death": 2038,
      "▁soci": 2039,
      "▁social": 2040,
      "▁env": 2041,
      "▁enron": 2042,
      "▁quick": 2043,
      "▁idea": 2044,
      "##gress": 2045,
      "▁seen": 2046,
      "▁sugg": 2047,
      "▁among": 2048,
      "▁including": 2049,
      "▁street": 2050,
      "▁suggest": 2051,
      "##iod": 2052,
      "▁fel": 2053,
      "▁fish": 2054,
      "▁lic": 2055,
      "##lect": 2056,
      "▁orig": 2057,
      "▁summ": 2058,
      "▁abe": 2059,
      "▁upon": 2060,
      "##avor": 2061,
      "▁inde": 2062,
      "▁countries": 2063,
      "▁protect": 2064,
      "▁age": 2065,
      "▁park": 2066,
      "##ister": 2067,
      "##els": 2068,
      "▁recommend": 2069,
      "▁floor": 2070,
      "##ming": 2071,
      "▁opt": 2072,
      "##ination": 2073,
      "▁fine": 2074,
      "▁cause": 2075,
      "##ones": 2076,
      "▁ya": 2077,
      "##itting": 2078,
      "▁peace": 2079,
      "▁guys": 2080,
      "▁diff": 2081,
      "▁bird": 2082,
      "▁future": 2083,
      "▁dark": 2084,
      "▁pull": 2085,
      "▁chick": 2086,
      "▁percent": 2087,
      "▁local": 2088,
      "▁miami": 2089,
      "▁political": 2090,
      "##crib": 2091,
      "##gas": 2092,
      "▁id": 2093,
      "▁given": 2094,
      "##aster": 2095,
      "▁hands": 2096,
      "##acy": 2097,
      "▁organ": 2098,
      "▁alth": 2099,
      "▁become": 2100,
      "##uary": 2101,
      "▁taken": 2102,
      "▁west": 2103,
      "▁sar": 2104,
      "▁mot": 2105,
      "▁toron": 2106,
      "▁ones": 2107,
      "##ury": 2108,
      "▁china": 2109,
      "▁period": 2110,
      "##clock": 2111,
      "▁guess": 2112,
      "##----------------": 2113,
      "▁june": 2114,
      "▁although": 2115,
      "▁toronto": 2116,
      "##ration": 2117,
      "▁fight": 2118,
      "▁heard": 2119,
      "▁allow": 2120,
      "▁alright": 2121,
      "▁quality": 2122,
      "▁rock": 2123,
      "▁picture": 2124,
      "▁profess": 2125,
      "▁university": 2126,
      "▁mine": 2127,
      "##ising": 2128,
      "▁gone": 2129,
      "##ley": 2130,
      "##umb": 2131,
      "▁clot": 2132,
      "▁mov": 2133,
      "##ograp": 2134,
      "▁minutes": 2135,
      "▁vegas": 2136,
      "▁market": 2137,
      "▁travel": 2138,
      "##ral": 2139,
      "##ril": 2140,
      "##ouch": 2141,
      "##itc": 2142,
      "##urity": 2143,
      "##amed": 2144,
      "▁ra": 2145,
      "##ortun": 2146,
      "▁needs": 2147,
      "▁collect": 2148,
      "▁dollars": 2149,
      "▁http://www": 2150,
      "▁o'clock": 2151,
      "▁felt": 2152,
      "##ok": 2153,
      "▁sor": 2154,
      "▁bag": 2155,
      "▁bear": 2156,
      "▁staff": 2157,
      "▁deb": 2158,
      "▁dead": 2159,
      "▁trad": 2160,
      "▁except": 2161,
      "##que": 2162,
      "▁known": 2163,
      "▁ready": 2164,
      "▁repres": 2165,
      "▁geor": 2166,
      "▁women": 2167,
      "▁fur": 2168,
      "##icy": 2169,
      "▁orland": 2170,
      "▁noon": 2171,
      "▁works": 2172,
      "##iously": 2173,
      "▁visit": 2174,
      "▁defin": 2175,
      "▁following": 2176,
      "▁http://www.": 2177,
      "▁orlando": 2178,
      "▁lake": 2179,
      "▁anal": 2180,
      "▁kill": 2181,
      "##ief": 2182,
      "▁cold": 2183,
      "##ell": 2184,
      "##ament": 2185,
      "##pend": 2186,
      "▁quinn": 2187,
      "▁prev": 2188,
      "▁design": 2189,
      "▁restaur": 2190,
      "▁iran": 2191,
      "▁origin": 2192,
      "▁win": 2193,
      "▁fif": 2194,
      "▁bi": 2195,
      "##ases": 2196,
      "##ott": 2197,
      "▁road": 2198,
      "##ec": 2199,
      "▁ah": 2200,
      "▁sour": 2201,
      "▁press": 2202,
      "▁forward": 2203,
      "▁story": 2204,
      "##iron": 2205,
      "▁shall": 2206,
      "##pped": 2207,
      "▁arg": 2208,
      "▁team": 2209,
      "▁looked": 2210,
      "▁mont": 2211,
      "##ully": 2212,
      "▁surpr": 2213,
      "##ergy": 2214,
      "▁answ": 2215,
      "▁sorry": 2216,
      "▁mummy": 2217,
      "▁dress": 2218,
      "▁init": 2219,
      "##otte": 2220,
      "▁sev": 2221,
      "▁var": 2222,
      "▁kne": 2223,
      "##ances": 2224,
      "▁accept": 2225,
      "▁email": 2226,
      "▁security": 2227,
      "▁behind": 2228,
      "▁animals": 2229,
      "▁environ": 2230,
      "##ef": 2231,
      "##za": 2232,
      "▁tour": 2233,
      "##ories": 2234,
      "▁lat": 2235,
      "▁et": 2236,
      "##rod": 2237,
      "▁!!!": 2238,
      "##ference": 2239,
      "##raft": 2240,
      "▁guy": 2241,
      "##/200": 2242,
      "▁delta": 2243,
      "▁charlotte": 2244,
      "▁author": 2245,
      "##ered": 2246,
      "##uation": 2247,
      "▁wife": 2248,
      "##ats": 2249,
      "▁don": 2250,
      "##ane": 2251,
      "▁late": 2252,
      "▁living": 2253,
      "▁truck": 2254,
      "##osp": 2255,
      "▁scient": 2256,
      "▁april": 2257,
      "##ney": 2258,
      "▁educ": 2259,
      "▁english": 2260,
      "##iddle": 2261,
      "##ria": 2262,
      "##got": 2263,
      "##ffe": 2264,
      "▁sil": 2265,
      "▁sand": 2266,
      "▁fac": 2267,
      "▁due": 2268,
      "▁energy": 2269,
      "▁claim": 2270,
      "▁obs": 2271,
      "▁specific": 2272,
      "▁european": 2273,
      "▁christ": 2274,
      "▁success": 2275,
      "▁diffic": 2276,
      "##ner": 2277,
      "##reme": 2278,
      "##erv": 2279,
      "▁middle": 2280,
      "▁parent": 2281,
      "▁ham": 2282,
      "▁ant": 2283,
      "▁wants": 2284,
      "▁usually": 2285,
      "##ansas": 2286,
      "▁account": 2287,
      "▁third": 2288,
      "▁research": 2289,
      "▁lost": 2290,
      "▁inside": 2291,
      "▁dogg": 2292,
      "##iding": 2293,
      "##rael": 2294,
      "▁activ": 2295,
      "▁attached": 2296,
      "▁address": 2297,
      "▁respons": 2298,
      "▁>": 2299,
      "##fully": 2300,
      "▁dan": 2301,
      "▁lab": 2302,
      "▁israel": 2303,
      "▁ann": 2304,
      "▁abs": 2305,
      "##iful": 2306,
      "▁teac": 2307,
      "▁newark": 2308,
      "##selves": 2309,
      "▁interv": 2310,
      "▁invol": 2311,
      "▁matter": 2312,
      "▁diego": 2313,
      "▁represent": 2314,
      "##ium": 2315,
      "##ured": 2316,
      "##ges": 2317,
      "▁woman": 2318,
      "▁fair": 2319,
      "##ature": 2320,
      "▁hors": 2321,
      "▁kitt": 2322,
      "##ify": 2323,
      "##ified": 2324,
      "▁object": 2325,
      "▁meeting": 2326,
      "##zac": 2327,
      "##real": 2328,
      "▁cam": 2329,
      "▁dow": 2330,
      "##itive": 2331,
      "▁rele": 2332,
      "▁member": 2333,
      "▁ride": 2334,
      "▁ange": 2335,
      "▁super": 2336,
      "▁temp": 2337,
      "▁clim": 2338,
      "▁express": 2339,
      "▁balzac": 2340,
      "▁regard": 2341,
      "▁attack": 2342,
      "▁accord": 2343,
      "▁further": 2344,
      "##ued": 2345,
      "##ule": 2346,
      "▁tur": 2347,
      "▁aust": 2348,
      "▁fig": 2349,
      "▁lau": 2350,
      "▁lik": 2351,
      "▁aff": 2352,
      "▁perform": 2353,
      "▁military": 2354,
      "▁<": 2355,
      "##dd": 2356,
      "▁sen": 2357,
      "##ators": 2358,
      "##ential": 2359,
      "▁docum": 2360,
      "▁speak": 2361,
      "▁wrong": 2362,
      "▁addition": 2363,
      "▁provide": 2364,
      "▁democr": 2365,
      "▁words": 2366,
      "▁indianapolis": 2367,
      "▁espe": 2368,
      "▁seattle": 2369,
      "▁begin": 2370,
      "▁beautiful": 2371,
      "▁george": 2372,
      "##13": 2373,
      "▁port": 2374,
      "##ony": 2375,
      "##veland": 2376,
      "##oose": 2377,
      "▁phot": 2378,
      "▁prep": 2379,
      "▁impro": 2380,
      "▁services": 2381,
      "▁cleveland": 2382,
      "##cially": 2383,
      "▁copy": 2384,
      "▁environment": 2385,
      "▁%": 2386,
      "##ried": 2387,
      "▁sort": 2388,
      "▁din": 2389,
      "▁jan": 2390,
      "▁kansas": 2391,
      "▁decl": 2392,
      "▁common": 2393,
      "▁earth": 2394,
      "▁members": 2395,
      "▁history": 2396,
      "▁couple": 2397,
      "##ha": 2398,
      "▁bow": 2399,
      "▁born": 2400,
      "##ots": 2401,
      "▁pract": 2402,
      "▁rights": 2403,
      "▁indust": 2404,
      "▁throw": 2405,
      "▁request": 2406,
      "##========": 2407,
      "▁property": 2408,
      "▁excell": 2409,
      "▁downt": 2410,
      "▁bath": 2411,
      "▁lunch": 2412,
      "##lly": 2413,
      "▁yourself": 2414,
      "##ival": 2415,
      "▁india": 2416,
      "▁easy": 2417,
      "▁complete": 2418,
      "▁knew": 2419,
      "▁#": 2420,
      "##ls": 2421,
      "▁pal": 2422,
      "▁hell": 2423,
      "▁jud": 2424,
      "▁dev": 2425,
      "▁feet": 2426,
      "▁poor": 2427,
      "▁detail": 2428,
      "##________": 2429,
      "▁hurt": 2430,
      "▁kids": 2431,
      "▁birthday": 2432,
      "▁especially": 2433,
      "▁downtown": 2434,
      "##oke": 2435,
      "##craft": 2436,
      "##igh": 2437,
      "##uce": 2438,
      "##gle": 2439,
      "##fast": 2440,
      "▁fing": 2441,
      "▁item": 2442,
      "▁god": 2443,
      "##ability": 2444,
      "▁moving": 2445,
      "▁thinking": 2446,
      "▁respect": 2447,
      "▁longer": 2448,
      "▁turned": 2449,
      "▁subject": 2450,
      "▁micro": 2451,
      "▁society": 2452,
      "##lished": 2453,
      "▁oil": 2454,
      "▁di": 2455,
      "▁pan": 2456,
      "▁pack": 2457,
      "##lling": 2458,
      "▁meas": 2459,
      "##olution": 2460,
      "▁above": 2461,
      "▁applic": 2462,
      "▁financ": 2463,
      "▁books": 2464,
      "▁require": 2465,
      "▁issue": 2466,
      "▁breakfast": 2467,
      "▁counter": 2468,
      "##haps": 2469,
      "##book": 2470,
      "▁sad": 2471,
      "▁low": 2472,
      "▁lay": 2473,
      "▁lad": 2474,
      "▁star": 2475,
      "▁stra": 2476,
      "▁send": 2477,
      "▁jwww": 2478,
      "▁button": 2479,
      "▁tax": 2480,
      "▁key": 2481,
      "▁america": 2482,
      "##airs": 2483,
      "▁glass": 2484,
      "▁highly": 2485,
      "▁hotel": 2486,
      "▁problems": 2487,
      "▁economic": 2488,
      "▁received": 2489,
      "▁agreement": 2490,
      "##ograph": 2491,
      "▁excellent": 2492,
      "##bit": 2493,
      "▁fill": 2494,
      "▁bat": 2495,
      "▁gas": 2496,
      "▁rather": 2497,
      "▁seven": 2498,
      "▁places": 2499,
      "▁yellow": 2500,
      "▁tex": 2501,
      "▁priv": 2502,
      "▁perhaps": 2503,
      "▁letter": 2504,
      "▁saying": 2505,
      "▁attention": 2506,
      "▁invest": 2507,
      "##wards": 2508,
      "▁employ": 2509,
      "▁purp": 2510,
      "▁effort": 2511,
      "▁daily": 2512,
      "##cr": 2513,
      "▁favor": 2514,
      "##ouble": 2515,
      "▁mid": 2516,
      "▁east": 2517,
      "▁doctor": 2518,
      "##ilities": 2519,
      "##ula": 2520,
      "▁canad": 2521,
      "##ping": 2522,
      "##xic": 2523,
      "##??": 2524,
      "▁tast": 2525,
      "▁civ": 2526,
      "##itions": 2527,
      "▁reco": 2528,
      "▁rich": 2529,
      "▁russ": 2530,
      "##aining": 2531,
      "▁alone": 2532,
      "▁seemed": 2533,
      "▁typ": 2534,
      "▁summer": 2535,
      "##iny": 2536,
      "▁tot": 2537,
      "▁net": 2538,
      "▁rul": 2539,
      "▁tried": 2540,
      "▁seems": 2541,
      "▁admin": 2542,
      "▁comput": 2543,
      "▁expensive": 2544,
      "▁body": 2545,
      "▁30": 2546,
      "▁struct": 2547,
      "▁colle": 2548,
      "▁continental": 2549,
      "▁eye": 2550,
      "▁estab": 2551,
      "▁difficult": 2552,
      "##hod": 2553,
      "##/1": 2554,
      "▁hat": 2555,
      "▁myself": 2556,
      "▁sus": 2557,
      "##anger": 2558,
      "▁eating": 2559,
      "▁minute": 2560,
      "▁fund": 2561,
      "▁chicken": 2562,
      "▁parents": 2563,
      "##work": 2564,
      "▁takes": 2565,
      "▁mass": 2566,
      "##ndred": 2567,
      "▁dom": 2568,
      "▁hol": 2569,
      "▁link": 2570,
      "▁beach": 2571,
      "##urch": 2572,
      "##terday": 2573,
      "▁exist": 2574,
      "▁ens": 2575,
      "##mph": 2576,
      "▁listen": 2577,
      "▁describ": 2578,
      "▁yesterday": 2579,
      "▁finally": 2580,
      "▁below": 2581,
      "▁glob": 2582,
      "▁economy": 2583,
      "▁value": 2584,
      "▁doggie": 2585,
      "##50": 2586,
      "##ken": 2587,
      "##fer": 2588,
      "▁touch": 2589,
      "##head": 2590,
      "▁..": 2591,
      "##rect": 2592,
      "▁cit": 2593,
      "▁hig": 2594,
      "▁ger": 2595,
      "▁exc": 2596,
      "▁nose": 2597,
      "▁fell": 2598,
      "▁weeks": 2599,
      "▁funny": 2600,
      "▁particip": 2601,
      "▁development": 2602,
      "▁natural": 2603,
      "▁ident": 2604,
      "▁restaurant": 2605,
      "▁texas": 2606,
      "▁ach": 2607,
      "▁son": 2608,
      "▁dest": 2609,
      "▁hop": 2610,
      "▁wear": 2611,
      "▁sty": 2612,
      "▁necess": 2613,
      "##ille": 2614,
      "##ization": 2615,
      "▁committ": 2616,
      "▁crit": 2617,
      "▁americans": 2618,
      "▁airline": 2619,
      "▁hundred": 2620,
      "▁deter": 2621,
      "▁court": 2622,
      "▁community": 2623,
      "▁louis": 2624,
      "##ht": 2625,
      "##ped": 2626,
      "▁mouth": 2627,
      "▁date": 2628,
      "##ison": 2629,
      "##asing": 2630,
      "##utions": 2631,
      "▁web": 2632,
      "##key": 2633,
      "▁spr": 2634,
      "▁bott": 2635,
      "▁entire": 2636,
      "▁official": 2637,
      "▁global": 2638,
      "##oon": 2639,
      "##iate": 2640,
      "##ka": 2641,
      "##ging": 2642,
      "▁foc": 2643,
      "##icle": 2644,
      "▁heart": 2645,
      "##idence": 2646,
      "▁self": 2647,
      "▁jap": 2648,
      "▁conv": 2649,
      "▁vide": 2650,
      "▁code": 2651,
      "▁aircraft": 2652,
      "▁event": 2653,
      "▁sched": 2654,
      "▁calif": 2655,
      "##cil": 2656,
      "▁wall": 2657,
      "▁cred": 2658,
      "▁heav": 2659,
      "▁began": 2660,
      "▁jump": 2661,
      "▁ship": 2662,
      "##ands": 2663,
      "▁afric": 2664,
      "▁moment": 2665,
      "##rench": 2666,
      "▁benef": 2667,
      "▁according": 2668,
      "▁japan": 2669,
      "▁californ": 2670,
      "##ipe": 2671,
      "##ru": 2672,
      "▁site": 2673,
      "##ream": 2674,
      "▁mad": 2675,
      "##ndon": 2676,
      "▁nt": 2677,
      "▁lives": 2678,
      "▁exec": 2679,
      "▁london": 2680,
      "▁boat": 2681,
      "▁action": 2682,
      "##iction": 2683,
      "▁slow": 2684,
      "▁create": 2685,
      "▁infl": 2686,
      "##ler": 2687,
      "##ey": 2688,
      "##son": 2689,
      "##gy": 2690,
      "▁tre": 2691,
      "▁sitting": 2692,
      "▁fail": 2693,
      "▁mos": 2694,
      "▁itself": 2695,
      "##eth": 2696,
      "##ima": 2697,
      "▁displ": 2698,
      "▁contact": 2699,
      "▁drive": 2700,
      "▁pock": 2701,
      "▁imag": 2702,
      "▁method": 2703,
      "▁internet": 2704,
      "▁seventh": 2705,
      "▁angeles": 2706,
      "▁administ": 2707,
      "▁achie": 2708,
      "##ape": 2709,
      "##iation": 2710,
      "▁oct": 2711,
      "▁div": 2712,
      "▁tow": 2713,
      "▁norm": 2714,
      "##itch": 2715,
      "##arr": 2716,
      "▁ep": 2717,
      "##aced": 2718,
      "▁ris": 2719,
      "▁true": 2720,
      "##istic": 2721,
      "▁seem": 2722,
      "##astic": 2723,
      "▁manag": 2724,
      "##ude": 2725,
      "▁kept": 2726,
      "▁position": 2727,
      "▁foot": 2728,
      "▁girls": 2729,
      "▁attemp": 2730,
      "▁california": 2731,
      "##over": 2732,
      "▁ways": 2733,
      "▁french": 2734,
      "▁cross": 2735,
      "▁pu": 2736,
      "▁push": 2737,
      "▁hon": 2738,
      "▁station": 2739,
      "▁sex": 2740,
      "▁note": 2741,
      "##resh": 2742,
      "▁somebody": 2743,
      "▁tele": 2744,
      "▁cover": 2745,
      "▁themselves": 2746,
      "▁needed": 2747,
      "▁compet": 2748,
      "▁policy": 2749,
      "##ledge": 2750,
      "▁interested": 2751,
      "▁aud": 2752,
      "▁bud": 2753,
      "▁dry": 2754,
      "▁died": 2755,
      "▁honey": 2756,
      "##lement": 2757,
      "▁u.": 2758,
      "▁webs": 2759,
      "▁whatever": 2760,
      "▁areas": 2761,
      "▁deli": 2762,
      "▁church": 2763,
      "▁moder": 2764,
      "▁carry": 2765,
      "▁charac": 2766,
      "▁mr.": 2767,
      "▁learn": 2768,
      "▁terror": 2769,
      "▁connection": 2770,
      "▁answer": 2771,
      "▁etc": 2772,
      "##sy": 2773,
      "##hem": 2774,
      "▁wik": 2775,
      "▁mer": 2776,
      "▁mention": 2777,
      "##ida": 2778,
      "▁stick": 2779,
      "▁suff": 2780,
      "▁exact": 2781,
      "▁nove": 2782,
      "▁vi": 2783,
      "▁voice": 2784,
      "▁!!": 2785,
      "▁feed": 2786,
      "▁2000": 2787,
      "▁march": 2788,
      "▁continue": 2789,
      "▁square": 2790,
      "▁constit": 2791,
      "▁document": 2792,
      "##ws": 2793,
      "##ially": 2794,
      "▁ill": 2795,
      "▁base": 2796,
      "▁dig": 2797,
      "▁nine": 2798,
      "▁memph": 2799,
      "##hers": 2800,
      "##ored": 2801,
      "##ibility": 2802,
      "▁became": 2803,
      "▁offer": 2804,
      "▁brought": 2805,
      "▁perfect": 2806,
      "▁writing": 2807,
      "▁police": 2808,
      "▁leaves": 2809,
      "▁relig": 2810,
      "▁peters": 2811,
      "▁friendly": 2812,
      "▁building": 2813,
      "▁clothes": 2814,
      "▁movie": 2815,
      "▁financial": 2816,
      "▁memphis": 2817,
      "##oint": 2818,
      "##i-": 2819,
      "##ville": 2820,
      "▁sense": 2821,
      "▁cy": 2822,
      "▁mm": 2823,
      "▁goo": 2824,
      "▁uk": 2825,
      "▁king": 2826,
      "▁arm": 2827,
      "##ivid": 2828,
      "▁prices": 2829,
      "▁driving": 2830,
      "##liament": 2831,
      "▁parliament": 2832,
      "▁extreme": 2833,
      "▁secret": 2834,
      "▁message": 2835,
      "▁civil": 2836,
      "##use": 2837,
      "##ze": 2838,
      "##isions": 2839,
      "▁rate": 2840,
      "▁deep": 2841,
      "▁therefore": 2842,
      "▁25": 2843,
      "▁unf": 2844,
      "▁enc": 2845,
      "▁coffe": 2846,
      "▁putting": 2847,
      "▁cheese": 2848,
      "##burg": 2849,
      "▁2005": 2850,
      "▁apart": 2851,
      "▁decided": 2852,
      "▁signific": 2853,
      "▁correct": 2854,
      "▁earlier": 2855,
      "▁shoes": 2856,
      "▁culture": 2857,
      "▁independ": 2858,
      "##gest": 2859,
      "▁fit": 2860,
      "##eral": 2861,
      "▁dro": 2862,
      "##vered": 2863,
      "▁stat": 2864,
      "##akistan": 2865,
      "##ipt": 2866,
      "▁board": 2867,
      "▁finished": 2868,
      "▁intell": 2869,
      "▁supposed": 2870,
      "▁assist": 2871,
      "▁issues": 2872,
      "▁music": 2873,
      "▁urs": 2874,
      "▁license": 2875,
      "▁interview": 2876,
      "▁coffee": 2877,
      "##oz": 2878,
      "##old": 2879,
      "▁cow": 2880,
      "▁catch": 2881,
      "▁mail": 2882,
      "▁mama": 2883,
      "##str": 2884,
      "▁force": 2885,
      "▁vac": 2886,
      "▁arab": 2887,
      "▁21": 2888,
      "▁gets": 2889,
      "▁whose": 2890,
      "▁moved": 2891,
      "▁brother": 2892,
      "▁busy": 2893,
      "##ences": 2894,
      "▁instit": 2895,
      "▁running": 2896,
      "▁corp": 2897,
      "▁xml": 2898,
      "▁products": 2899,
      "▁propos": 2900,
      "▁ticket": 2901,
      "▁november": 2902,
      "▁mur": 2903,
      "▁mater": 2904,
      "▁dam": 2905,
      "▁pakistan": 2906,
      "##icles": 2907,
      "##ades": 2908,
      "##amb": 2909,
      "##ilar": 2910,
      "▁jose": 2911,
      "##iff": 2912,
      "▁text": 2913,
      "##itely": 2914,
      "▁cru": 2915,
      "##uced": 2916,
      "▁situation": 2917,
      "▁interesting": 2918,
      "▁leaders": 2919,
      "▁mike": 2920,
      "▁pictures": 2921,
      "▁eggs": 2922,
      "##/2001": 2923,
      "▁ursula": 2924,
      "##-m": 2925,
      "##king": 2926,
      "##:00": 2927,
      "##ati": 2928,
      "##ouse": 2929,
      "▁toast": 2930,
      "▁thous": 2931,
      "▁likely": 2932,
      "▁conte": 2933,
      "▁amaz": 2934,
      "▁recently": 2935,
      "▁relations": 2936,
      "▁broken": 2937,
      "▁window": 2938,
      "▁changes": 2939,
      "▁particularly": 2940,
      "▁latest": 2941,
      "▁education": 2942,
      "▁figure": 2943,
      "▁citiz": 2944,
      "##hol": 2945,
      "##een": 2946,
      "▁cra": 2947,
      "▁corn": 2948,
      "▁mount": 2949,
      "##ann": 2950,
      "▁mexic": 2951,
      "▁flow": 2952,
      "▁momma": 2953,
      "▁studies": 2954,
      "▁capital": 2955,
      "▁introd": 2956,
      "▁opportun": 2957,
      "▁simply": 2958,
      "▁source": 2959,
      "▁computer": 2960,
      "▁website": 2961,
      "##oid": 2962,
      "##come": 2963,
      "▁wild": 2964,
      "▁fed": 2965,
      "▁mich": 2966,
      "▁nation": 2967,
      "▁lack": 2968,
      "▁liter": 2969,
      "##ald": 2970,
      "▁isl": 2971,
      "##ume": 2972,
      "▁disco": 2973,
      "▁contract": 2974,
      "▁tape": 2975,
      "▁implement": 2976,
      "▁century": 2977,
      "##/2000": 2978,
      "▁points": 2979,
      "##********": 2980,
      "▁dinos": 2981,
      "▁january": 2982,
      "▁ver": 2983,
      "▁tar": 2984,
      "##oura": 2985,
      "▁rent": 2986,
      "▁meal": 2987,
      "##ilt": 2988,
      "▁asso": 2989,
      "▁neigh": 2990,
      "▁worked": 2991,
      "▁individ": 2992,
      "##rences": 2993,
      "▁warm": 2994,
      "▁filter": 2995,
      "▁quickly": 2996,
      "▁neighb": 2997,
      "##ri": 2998,
      "##20": 2999,
      "▁theory": 3000,
      "▁card": 3001,
      "##oub": 3002,
      "▁mix": 3003,
      "▁gar": 3004,
      "##icient": 3005,
      "▁dece": 3006,
      "▁13": 3007,
      "▁arch": 3008,
      "▁wrote": 3009,
      "▁....": 3010,
      "▁terms": 3011,
      "##!!!!": 3012,
      "▁former": 3013,
      "▁personal": 3014,
      "▁broad": 3015,
      "▁include": 3016,
      "##.com/": 3017,
      "##aughter": 3018,
      "▁million": 3019,
      "▁sarah": 3020,
      "##riage": 3021,
      "▁video": 3022,
      "▁credit": 3023,
      "▁associ": 3024,
      "▁song": 3025,
      "##oud": 3026,
      "▁dav": 3027,
      "▁held": 3028,
      "##oted": 3029,
      "▁gold": 3030,
      "▁ame": 3031,
      "▁knowledge": 3032,
      "##itten": 3033,
      "▁save": 3034,
      "▁manage": 3035,
      "▁role": 3036,
      "▁science": 3037,
      "▁recent": 3038,
      "▁huge": 3039,
      "▁sky": 3040,
      "▁center": 3041,
      "▁customer": 3042,
      "▁kitty": 3043,
      "▁rules": 3044,
      "##how": 3045,
      "##af": 3046,
      "##west": 3047,
      "##che": 3048,
      "##ding": 3049,
      "##fort": 3050,
      "▁fresh": 3051,
      "▁cinc": 3052,
      "▁penc": 3053,
      "▁toys": 3054,
      "▁rad": 3055,
      "▁river": 3056,
      "▁served": 3057,
      "▁desp": 3058,
      "##innati": 3059,
      "▁imm": 3060,
      "##ological": 3061,
      "▁subst": 3062,
      "▁paris": 3063,
      "▁similar": 3064,
      "▁watching": 3065,
      "▁certainly": 3066,
      "▁petersburg": 3067,
      "▁islam": 3068,
      "▁cincinnati": 3069,
      "▁pencil": 3070,
      "▁ess": 3071,
      "▁vers": 3072,
      "##ax": 3073,
      "##ex": 3074,
      "##zy": 3075,
      "▁tv": 3076,
      "##ino": 3077,
      "▁bite": 3078,
      "▁minn": 3079,
      "▁hy": 3080,
      "▁threat": 3081,
      "▁jer": 3082,
      "▁shirt": 3083,
      "▁convers": 3084,
      "##aint": 3085,
      "▁novel": 3086,
      "▁afgh": 3087,
      "▁naima": 3088,
      "▁scen": 3089,
      "▁contrib": 3090,
      "▁played": 3091,
      "##ampa": 3092,
      "▁provided": 3093,
      "▁legal": 3094,
      "▁broke": 3095,
      "▁learning": 3096,
      "▁council": 3097,
      "▁growth": 3098,
      "▁montreal": 3099,
      "▁hello": 3100,
      "▁favorite": 3101,
      "▁committee": 3102,
      "▁significant": 3103,
      "##mon": 3104,
      "##.ht": 3105,
      "▁cry": 3106,
      "▁danger": 3107,
      "▁pred": 3108,
      "##ishing": 3109,
      "##oma": 3110,
      "##uted": 3111,
      "▁beat": 3112,
      "▁wash": 3113,
      "##ppy": 3114,
      "▁prior": 3115,
      "▁serve": 3116,
      "▁50": 3117,
      "▁713": 3118,
      "▁groups": 3119,
      "▁juice": 3120,
      "▁finger": 3121,
      "▁recogn": 3122,
      "▁focus": 3123,
      "▁modern": 3124,
      "▁afghan": 3125,
      "##'s": 3126,
      "▁tampa": 3127,
      "▁wat": 3128,
      "▁wide": 3129,
      "▁duck": 3130,
      "▁nas": 3131,
      "##isl": 3132,
      "##ises": 3133,
      "##oth": 3134,
      "▁wel": 3135,
      "▁weap": 3136,
      "##allen": 3137,
      "▁orange": 3138,
      "▁trust": 3139,
      "▁challen": 3140,
      "▁14": 3141,
      "▁anyway": 3142,
      "▁fem": 3143,
      "▁carol": 3144,
      "▁blow": 3145,
      "▁bull": 3146,
      "▁written": 3147,
      "▁lots": 3148,
      "▁sweet": 3149,
      "▁definitely": 3150,
      "▁involved": 3151,
      "▁items": 3152,
      "▁influ": 3153,
      "##tain": 3154,
      "##for": 3155,
      "▁tac": 3156,
      "▁tie": 3157,
      "▁wish": 3158,
      "▁bread": 3159,
      "▁hus": 3160,
      "▁hung": 3161,
      "##uth": 3162,
      "▁notice": 3163,
      "▁trouble": 3164,
      "▁comb": 3165,
      "▁saf": 3166,
      "▁roll": 3167,
      "▁spent": 3168,
      "▁moral": 3169,
      "▁reading": 3170,
      "▁emerg": 3171,
      "▁draft": 3172,
      "▁location": 3173,
      "▁training": 3174,
      "▁separ": 3175,
      "▁freed": 3176,
      "▁qa": 3177,
      "▁winter": 3178,
      "▁display": 3179,
      "##lo": 3180,
      "##the": 3181,
      "##more": 3182,
      "##.d": 3183,
      "##val": 3184,
      "▁tal": 3185,
      "▁fle": 3186,
      "▁cool": 3187,
      "▁cities": 3188,
      "▁mir": 3189,
      "▁hang": 3190,
      "▁nort": 3191,
      "##ened": 3192,
      "▁gard": 3193,
      "▁soft": 3194,
      "▁safe": 3195,
      "##phone": 3196,
      "▁apply": 3197,
      "▁2004": 3198,
      "▁stillman": 3199,
      "▁final": 3200,
      "▁numbers": 3201,
      "▁walking": 3202,
      "▁concern": 3203,
      "##ipped": 3204,
      "▁single": 3205,
      "▁professional": 3206,
      "▁original": 3207,
      "▁horsie": 3208,
      "▁improve": 3209,
      "▁u.s.": 3210,
      "▁material": 3211,
      "▁december": 3212,
      "##of": 3213,
      "##cy": 3214,
      "##ike": 3215,
      "##face": 3216,
      "▁ton": 3217,
      "▁tit": 3218,
      "▁tig": 3219,
      "▁bank": 3220,
      "▁drop": 3221,
      "▁piz": 3222,
      "##onse": 3223,
      "▁toy": 3224,
      "▁nash": 3225,
      "▁ran": 3226,
      "▁rain": 3227,
      "▁24": 3228,
      "▁somewhere": 3229,
      "▁tea": 3230,
      "##teen": 3231,
      "▁blood": 3232,
      "▁appre": 3233,
      "▁smell": 3234,
      "▁region": 3235,
      "▁weeke": 3236,
      "▁charge": 3237,
      "▁image": 3238,
      "▁immed": 3239,
      "▁legisl": 3240,
      "▁communic": 3241,
      "▁department": 3242,
      "▁fields": 3243,
      "▁cultural": 3244,
      "▁banana": 3245,
      "▁freedom": 3246,
      "##ees": 3247,
      "##mb": 3248,
      "▁ice": 3249,
      "##enron": 3250,
      "▁ital": 3251,
      "##idge": 3252,
      "▁track": 3253,
      "▁butter": 3254,
      "##unt": 3255,
      "##ift": 3256,
      "▁union": 3257,
      "▁blank": 3258,
      "▁everybody": 3259,
      "▁dr.": 3260,
      "▁farm": 3261,
      "▁non-": 3262,
      "▁response": 3263,
      "▁purch": 3264,
      "▁foreign": 3265,
      "▁total": 3266,
      "▁pocket": 3267,
      "▁amazing": 3268,
      "▁citizens": 3269,
      "▁nashville": 3270,
      "##:30": 3271,
      "▁tiny": 3272,
      "▁ahead": 3273,
      "▁fast": 3274,
      "▁ba": 3275,
      "▁mis": 3276,
      "▁mach": 3277,
      "▁nin": 3278,
      "##eng": 3279,
      "▁forgot": 3280,
      "▁100": 3281,
      "▁affect": 3282,
      "##action": 3283,
      "▁pleas": 3284,
      "##clus": 3285,
      "▁helpful": 3286,
      "▁regular": 3287,
      "▁2002": 3288,
      "▁197": 3289,
      "##comp": 3290,
      "▁related": 3291,
      "▁decision": 3292,
      "▁columb": 3293,
      "▁waiting": 3294,
      "##nov": 3295,
      "▁population": 3296,
      "▁results": 3297,
      "▁islands": 3298,
      "▁analys": 3299,
      "▁necessary": 3300,
      "▁bottom": 3301,
      "▁extremely": 3302,
      "##ires": 3303,
      "##80": 3304,
      "▁tired": 3305,
      "▁ow": 3306,
      "▁cand": 3307,
      "▁dir": 3308,
      "▁pil": 3309,
      "▁hosp": 3310,
      "##eda": 3311,
      "##iced": 3312,
      "▁jack": 3313,
      "▁concept": 3314,
      "▁congress": 3315,
      "▁exam": 3316,
      "##pper": 3317,
      "▁vol": 3318,
      "##ateg": 3319,
      "##oss": 3320,
      "▁parts": 3321,
      "##izing": 3322,
      "▁desk": 3323,
      "▁feeling": 3324,
      "▁article": 3325,
      "▁walked": 3326,
      "▁jeff": 3327,
      "▁concer": 3328,
      "▁appear": 3329,
      "##hens": 3330,
      "▁percentage": 3331,
      "▁qaeda": 3332,
      "##ham": 3333,
      "##ober": 3334,
      "##rict": 3335,
      "##ugg": 3336,
      "##mar": 3337,
      "##gon": 3338,
      "▁swww": 3339,
      "▁band": 3340,
      "▁mist": 3341,
      "▁luck": 3342,
      "##ario": 3343,
      "▁games": 3344,
      "##roit": 3345,
      "▁rap": 3346,
      "##ceed": 3347,
      "##illy": 3348,
      "##idered": 3349,
      "▁brit": 3350,
      "▁compl": 3351,
      "▁block": 3352,
      "▁joke": 3353,
      "▁2003": 3354,
      "▁repl": 3355,
      "▁student": 3356,
      "▁students": 3357,
      "▁detroit": 3358,
      "▁england": 3359,
      "▁reflect": 3360,
      "▁reports": 3361,
      "▁histor": 3362,
      "▁campa": 3363,
      "▁industry": 3364,
      "▁private": 3365,
      "▁ensure": 3366,
      "▁safety": 3367,
      "▁pizza": 3368,
      "##uk": 3369,
      "##bed": 3370,
      "##band": 3371,
      "##89": 3372,
      "▁fat": 3373,
      "▁bought": 3374,
      "▁cab": 3375,
      "##erved": 3376,
      "##sequ": 3377,
      "▁forget": 3378,
      "▁rub": 3379,
      "▁kitc": 3380,
      "▁neck": 3381,
      "▁sold": 3382,
      "##itted": 3383,
      "▁adm": 3384,
      "▁bigger": 3385,
      "▁owner": 3386,
      "▁starting": 3387,
      "▁term": 3388,
      "▁famil": 3389,
      "▁mathem": 3390,
      "▁popular": 3391,
      "▁estim": 3392,
      "▁nearly": 3393,
      "▁grandm": 3394,
      "▁beginning": 3395,
      "▁bowl": 3396,
      "▁application": 3397,
      "▁canada": 3398,
      "▁october": 3399,
      "▁viol": 3400,
      "▁nasa": 3401,
      "▁appreci": 3402,
      "▁dirty": 3403,
      "▁ut": 3404,
      "##ael": 3405,
      "##cise": 3406,
      "##ius": 3407,
      "##ban": 3408,
      "##ball": 3409,
      "##39": 3410,
      "##45": 3411,
      "##ps": 3412,
      "▁wood": 3413,
      "▁wine": 3414,
      "▁sick": 3415,
      "##ato": 3416,
      "##atory": 3417,
      "##atives": 3418,
      "▁piv": 3419,
      "##ites": 3420,
      "▁gra": 3421,
      "##asons": 3422,
      "##imin": 3423,
      "▁ate": 3424,
      "##ills": 3425,
      "##ops": 3426,
      "▁choose": 3427,
      "##ables": 3428,
      "▁plays": 3429,
      "##ibly": 3430,
      "▁events": 3431,
      "▁expert": 3432,
      "▁transl": 3433,
      "▁finish": 3434,
      "▁marriage": 3435,
      "▁accident": 3436,
      "▁published": 3437,
      "▁max": 3438,
      "▁pieces": 3439,
      "▁appropr": 3440,
      "▁german": 3441,
      "▁schedule": 3442,
      "▁risk": 3443,
      "▁exactly": 3444,
      "▁kitchen": 3445,
      "##hood": 3446,
      "##gar": 3447,
      "##@enron": 3448,
      "▁tank": 3449,
      "▁host": 3450,
      "##ingu": 3451,
      "##estern": 3452,
      "▁led": 3453,
      "▁ec": 3454,
      "▁heat": 3455,
      "▁jour": 3456,
      "##olute": 3457,
      "##igence": 3458,
      "▁vote": 3459,
      "▁spot": 3460,
      "▁resour": 3461,
      "##lied": 3462,
      "▁consum": 3463,
      "▁considered": 3464,
      "▁slight": 3465,
      "▁central": 3466,
      "▁fax": 3467,
      "▁confir": 3468,
      "▁explain": 3469,
      "▁nature": 3470,
      "▁departing": 3471,
      "▁animal": 3472,
      "▁paint": 3473,
      "▁wonderful": 3474,
      "▁currently": 3475,
      "▁allowed": 3476,
      "▁college": 3477,
      "▁campaign": 3478,
      "▁+": 3479,
      "##hib": 3480,
      "##ek": 3481,
      "##eapolis": 3482,
      "##rain": 3483,
      "##01": 3484,
      "▁tree": 3485,
      "▁bun": 3486,
      "▁caught": 3487,
      "▁named": 3488,
      "##omer": 3489,
      "▁hen": 3490,
      "▁meat": 3491,
      "▁meant": 3492,
      "▁rab": 3493,
      "▁soph": 3494,
      "▁comments": 3495,
      "▁arms": 3496,
      "▁seeing": 3497,
      "▁phys": 3498,
      "▁overall": 3499,
      "▁scr": 3500,
      "▁contain": 3501,
      "▁indic": 3502,
      "##ocol": 3503,
      "▁meaning": 3504,
      "▁opened": 3505,
      "▁limited": 3506,
      "▁absolute": 3507,
      "▁regarding": 3508,
      "##dden": 3509,
      "▁style": 3510,
      "▁imagine": 3511,
      "▁dinosaur": 3512,
      "▁despite": 3513,
      "▁minneapolis": 3514,
      "##light": 3515,
      "##log": 3516,
      "##hell": 3517,
      "▁bom": 3518,
      "▁mult": 3519,
      "▁daughter": 3520,
      "▁gives": 3521,
      "▁stren": 3522,
      "▁rout": 3523,
      "▁select": 3524,
      "▁liber": 3525,
      "▁aspect": 3526,
      "▁share": 3527,
      "▁sudden": 3528,
      "▁chance": 3529,
      "##ively": 3530,
      "▁yours": 3531,
      "▁22": 3532,
      "▁knows": 3533,
      "▁adop": 3534,
      "##aged": 3535,
      "##anced": 3536,
      "▁spir": 3537,
      "▁letters": 3538,
      "▁bug": 3539,
      "▁greater": 3540,
      "▁regional": 3541,
      "▁added": 3542,
      "▁difference": 3543,
      "▁instruct": 3544,
      "▁flying": 3545,
      "▁opening": 3546,
      "▁standards": 3547,
      "▁paid": 3548,
      "▁engine": 3549,
      "▁eastern": 3550,
      "▁behav": 3551,
      "▁simple": 3552,
      "▁magic": 3553,
      "▁various": 3554,
      "▁straight": 3555,
      "▁types": 3556,
      "▁administration": 3557,
      "▁achieve": 3558,
      "▁michael": 3559,
      "▁amend": 3560,
      "##nam": 3561,
      "##-1": 3562,
      "##60": 3563,
      "##99": 3564,
      "▁tail": 3565,
      "▁wol": 3566,
      "▁sens": 3567,
      "▁size": 3568,
      "▁sister": 3569,
      "▁ol": 3570,
      "▁horr": 3571,
      "▁giving": 3572,
      "▁forces": 3573,
      "##ulf": 3574,
      "▁1.": 3575,
      "▁comfort": 3576,
      "▁23": 3577,
      "##tered": 3578,
      "▁grad": 3579,
      "▁clos": 3580,
      "▁brown": 3581,
      "▁impact": 3582,
      "##like": 3583,
      "▁2001": 3584,
      "▁belong": 3585,
      "▁bottle": 3586,
      "▁hole": 3587,
      "▁stopover": 3588,
      "▁legs": 3589,
      "▁directive": 3590,
      "▁plane": 3591,
      "▁dogs": 3592,
      "▁media": 3593,
      "▁growing": 3594,
      "▁programme": 3595,
      "▁esc": 3596,
      "▁created": 3597,
      "▁customers": 3598,
      "▁fixed": 3599,
      "▁protection": 3600,
      "▁activities": 3601,
      "▁laugh": 3602,
      "▁david": 3603,
      "##oh": 3604,
      "##uel": 3605,
      "##yond": 3606,
      "##zz": 3607,
      "▁wil": 3608,
      "▁nations": 3609,
      "##oring": 3610,
      "▁innov": 3611,
      "##ici": 3612,
      "▁beyond": 3613,
      "##ented": 3614,
      "▁ron": 3615,
      "##ils": 3616,
      "▁libr": 3617,
      "▁shut": 3618,
      "##hern": 3619,
      "▁ord": 3620,
      "▁altern": 3621,
      "▁plants": 3622,
      "▁adult": 3623,
      "##ancing": 3624,
      "▁lock": 3625,
      "##soft": 3626,
      "▁serious": 3627,
      "▁opin": 3628,
      "▁regards": 3629,
      "▁surv": 3630,
      "▁provides": 3631,
      "▁values": 3632,
      "▁cats": 3633,
      "▁changed": 3634,
      "▁potty": 3635,
      "▁attend": 3636,
      "##cript": 3637,
      "▁federal": 3638,
      "▁dangerous": 3639,
      "▁tacoma": 3640,
      "▁grandmother": 3641,
      "▁streng": 3642,
      "##wor": 3643,
      "##wise": 3644,
      "##ses": 3645,
      "##rie": 3646,
      "##.m": 3647,
      "▁breat": 3648,
      "##erve": 3649,
      "▁hous": 3650,
      "▁names": 3651,
      "▁gun": 3652,
      "▁online": 3653,
      "▁repe": 3654,
      "▁reasons": 3655,
      "▁kore": 3656,
      "▁dear": 3657,
      "▁trade": 3658,
      "▁conference": 3659,
      "▁progress": 3660,
      "▁anywhere": 3661,
      "▁shows": 3662,
      "▁coast": 3663,
      "▁coach": 3664,
      "▁agre": 3665,
      "▁series": 3666,
      "▁poet": 3667,
      "▁built": 3668,
      "##ublic": 3669,
      "##time": 3670,
      "▁asking": 3671,
      "▁standard": 3672,
      "▁refer": 3673,
      "▁planning": 3674,
      "▁capac": 3675,
      "▁holding": 3676,
      "▁proposed": 3677,
      "▁returned": 3678,
      "▁frequ": 3679,
      "▁err": 3680,
      "▁liked": 3681,
      "▁photograph": 3682,
      "##ying": 3683,
      "▁ign": 3684,
      "▁coo": 3685,
      "▁pill": 3686,
      "▁thus": 3687,
      "##orate": 3688,
      "▁lower": 3689,
      "##aries": 3690,
      "##arily": 3691,
      "▁ears": 3692,
      "▁stood": 3693,
      "▁ru": 3694,
      "▁anth": 3695,
      "▁search": 3696,
      "▁lived": 3697,
      "##antic": 3698,
      "▁kar": 3699,
      "▁deg": 3700,
      "▁plant": 3701,
      "##apers": 3702,
      "▁unless": 3703,
      "▁princ": 3704,
      "▁evidence": 3705,
      "▁bright": 3706,
      "▁spend": 3707,
      "▁remain": 3708,
      "▁republic": 3709,
      "##ground": 3710,
      "▁function": 3711,
      "▁largest": 3712,
      "▁experi": 3713,
      "▁ze": 3714,
      "▁ideas": 3715,
      "▁snow": 3716,
      "▁iraqi": 3717,
      "▁model": 3718,
      "▁>>": 3719,
      "▁climate": 3720,
      "▁<<": 3721,
      "▁democracy": 3722,
      "▁bathroom": 3723,
      "▁completely": 3724,
      "▁microsoft": 3725,
      "▁heavy": 3726,
      "▁opportunity": 3727,
      "▁analysis": 3728,
      "##ql": 3729,
      "##men": 3730,
      "##-c": 3731,
      "##het": 3732,
      "▁bra": 3733,
      "▁cage": 3734,
      "▁hm": 3735,
      "##enn": 3736,
      "▁gall": 3737,
      "▁stories": 3738,
      "##iring": 3739,
      "▁atm": 3740,
      "▁section": 3741,
      "##antly": 3742,
      "▁choice": 3743,
      "##ulate": 3744,
      "▁noise": 3745,
      "▁comment": 3746,
      "##bert": 3747,
      "##ips": 3748,
      "▁glad": 3749,
      "##enced": 3750,
      "▁basis": 3751,
      "▁obv": 3752,
      "▁settle": 3753,
      "##board": 3754,
      "▁leader": 3755,
      "▁distrib": 3756,
      "##idden": 3757,
      "▁thirty": 3758,
      "▁technology": 3759,
      "▁equal": 3760,
      "▁increase": 3761,
      "▁occur": 3762,
      "▁option": 3763,
      "▁analy": 3764,
      "▁camel": 3765,
      "▁richard": 3766,
      "▁relationship": 3767,
      "▁target": 3768,
      "▁garden": 3769,
      "▁weekend": 3770,
      "▁cake": 3771,
      "##eries": 3772,
      "▁mut": 3773,
      "▁reach": 3774,
      "##uts": 3775,
      "▁hall": 3776,
      "##iri": 3777,
      "▁rom": 3778,
      "▁rac": 3779,
      "▁chocol": 3780,
      "##ument": 3781,
      "▁bye": 3782,
      "▁army": 3783,
      "▁closed": 3784,
      "▁moon": 3785,
      "▁brief": 3786,
      "▁guard": 3787,
      "▁actions": 3788,
      "▁happens": 3789,
      "▁county": 3790,
      "▁older": 3791,
      "##ification": 3792,
      "▁continued": 3793,
      "▁standing": 3794,
      "▁followed": 3795,
      "▁reported": 3796,
      "▁career": 3797,
      "▁companies": 3798,
      "▁steps": 3799,
      "▁burb": 3800,
      "▁options": 3801,
      "▁bike": 3802,
      "▁surprise": 3803,
      "▁teacher": 3804,
      "▁additional": 3805,
      "▁mentioned": 3806,
      "▁google": 3807,
      "▁ukrain": 3808,
      "▁proposal": 3809,
      "▁*": 3810,
      "##hm": 3811,
      "##net": 3812,
      "##round": 3813,
      "##pa": 3814,
      "▁tas": 3815,
      "▁wet": 3816,
      "▁ble": 3817,
      "▁cash": 3818,
      "▁cases": 3819,
      "##ero": 3820,
      "▁mc": 3821,
      "▁hide": 3822,
      "##isf": 3823,
      "▁ul": 3824,
      "##verage": 3825,
      "▁sell": 3826,
      "▁season": 3827,
      "▁depe": 3828,
      "▁defe": 3829,
      "##uses": 3830,
      "▁via": 3831,
      "▁upd": 3832,
      "▁une": 3833,
      "▁quiet": 3834,
      "▁print": 3835,
      "##ously": 3836,
      "▁span": 3837,
      "▁scre": 3838,
      "▁prete": 3839,
      "▁cromer": 3840,
      "▁impress": 3841,
      "▁aware": 3842,
      "▁throughout": 3843,
      "▁stopped": 3844,
      "▁surround": 3845,
      "▁sett": 3846,
      "▁larger": 3847,
      "▁experim": 3848,
      "▁passed": 3849,
      "▁barn": 3850,
      "##ottable": 3851,
      "▁sandw": 3852,
      "▁temper": 3853,
      "▁practice": 3854,
      "▁details": 3855,
      "▁purpose": 3856,
      "▁taste": 3857,
      "▁higher": 3858,
      "▁africa": 3859,
      "▁japanese": 3860,
      "▁religious": 3861,
      "▁pivottable": 3862,
      "▁atmosp": 3863,
      "##app": 3864,
      "##ners": 3865,
      "##sa": 3866,
      "##iately": 3867,
      "##mas": 3868,
      "##ky": 3869,
      "▁wow": 3870,
      "▁bes": 3871,
      "▁cards": 3872,
      "▁match": 3873,
      "▁dream": 3874,
      "▁doub": 3875,
      "▁pin": 3876,
      "▁pus": 3877,
      "▁pig": 3878,
      "##arant": 3879,
      "##vere": 3880,
      "##vert": 3881,
      "##ams": 3882,
      "##chan": 3883,
      "▁exch": 3884,
      "▁willing": 3885,
      "##aud": 3886,
      "▁seek": 3887,
      "▁:)": 3888,
      "▁root": 3889,
      "▁accom": 3890,
      "▁brain": 3891,
      "##cles": 3892,
      "▁guarant": 3893,
      "▁crow": 3894,
      "▁remark": 3895,
      "▁warhol": 3896,
      "▁edit": 3897,
      "▁facebook": 3898,
      "▁fully": 3899,
      "▁understanding": 3900,
      "▁potential": 3901,
      "▁reasonable": 3902,
      "▁licens": 3903,
      "##--------------------------------": 3904,
      "▁requirements": 3905,
      "▁determin": 3906,
      "▁officials": 3907,
      "##rupt": 3908,
      "▁encoura": 3909,
      "##.doc": 3910,
      "▁tonight": 3911,
      "▁capacity": 3912,
      "▁princip": 3913,
      "##und": 3914,
      "##just": 3915,
      "▁western": 3916,
      "▁sql": 3917,
      "▁fant": 3918,
      "▁der": 3919,
      "▁poo": 3920,
      "▁path": 3921,
      "▁tool": 3922,
      "▁narr": 3923,
      "##org": 3924,
      "##omes": 3925,
      "▁gal": 3926,
      "▁offe": 3927,
      "▁whom": 3928,
      "▁stock": 3929,
      "▁rat": 3930,
      "▁worst": 3931,
      "▁twa": 3932,
      "▁acqu": 3933,
      "##...": 3934,
      "▁chem": 3935,
      "▁surface": 3936,
      "▁format": 3937,
      "▁revolution": 3938,
      "▁learned": 3939,
      "▁laws": 3940,
      "▁terrible": 3941,
      "▁creative": 3942,
      "▁scientology": 3943,
      "▁russia": 3944,
      "▁manager": 3945,
      "▁character": 3946,
      "▁intelligence": 3947,
      "▁corner": 3948,
      "▁mexico": 3949,
      "▁management": 3950,
      "##.html": 3951,
      "▁welcome": 3952,
      "▁weapons": 3953,
      "▁mathemat": 3954,
      "▁burbank": 3955,
      "##hy": 3956,
      "##da": 3957,
      "##bby": 3958,
      "##-f": 3959,
      "##46": 3960,
      "##inary": 3961,
      "▁bord": 3962,
      "▁master": 3963,
      "▁dance": 3964,
      "▁pink": 3965,
      "▁toward": 3966,
      "▁hun": 3967,
      "##itation": 3968,
      "##icing": 3969,
      "##ctions": 3970,
      "▁lie": 3971,
      "▁traff": 3972,
      "##iel": 3973,
      "##ques": 3974,
      "▁teeth": 3975,
      "▁fellow": 3976,
      "▁sport": 3977,
      "▁spell": 3978,
      "▁balance": 3979,
      "▁remind": 3980,
      "##uction": 3981,
      "▁attract": 3982,
      "▁required": 3983,
      "▁located": 3984,
      "▁swim": 3985,
      "▁confident": 3986,
      "▁demand": 3987,
      "▁unique": 3988,
      "▁film": 3989,
      "▁increased": 3990,
      "▁loud": 3991,
      "▁sounds": 3992,
      "▁organization": 3993,
      "▁initi": 3994,
      "▁activity": 3995,
      "▁likes": 3996,
      "▁constitution": 3997,
      "▁bulld": 3998,
      "▁husband": 3999,
      "▁hospital": 4000,
      "▁resources": 4001,
      "▁agreed": 4002,
      "##ai": 4003,
      "##ault": 4004,
      "##ox": 4005,
      "##tte": 4006,
      "##rs": 4007,
      "##-8": 4008,
      "##37": 4009,
      "##10": 4010,
      "▁bang": 4011,
      "▁mal": 4012,
      "▁dust": 4013,
      "▁psy": 4014,
      "▁lines": 4015,
      "▁e-m": 4016,
      "##rog": 4017,
      "##aches": 4018,
      "##amental": 4019,
      "▁mel": 4020,
      "▁flor": 4021,
      "▁dey": 4022,
      "▁chines": 4023,
      "▁pros": 4024,
      "##ivity": 4025,
      "▁uncle": 4026,
      "▁pean": 4027,
      "▁agric": 4028,
      "▁spoke": 4029,
      "▁workers": 4030,
      "▁boys": 4031,
      "▁content": 4032,
      "▁buck": 4033,
      "▁crack": 4034,
      "▁smart": 4035,
      "▁caused": 4036,
      "▁’re": 4037,
      "▁40": 4038,
      "▁avoid": 4039,
      "▁differences": 4040,
      "▁elev": 4041,
      "▁ended": 4042,
      "▁produc": 4043,
      "▁03": 4044,
      "▁01": 4045,
      "▁smaller": 4046,
      "▁mrs": 4047,
      "▁extra": 4048,
      "▁insur": 4049,
      "##bruary": 4050,
      "▁cell": 4051,
      "▁appeared": 4052,
      "▁drinking": 4053,
      "▁elections": 4054,
      "▁circle": 4055,
      "▁occas": 4056,
      "▁auster": 4057,
      "##================": 4058,
      "▁palest": 4059,
      "##________________": 4060,
      "▁normal": 4061,
      "▁sexual": 4062,
      "▁unfortun": 4063,
      "▁independent": 4064,
      "##ozer": 4065,
      "▁vacation": 4066,
      "▁thousands": 4067,
      "▁afghanistan": 4068,
      "▁sophie": 4069,
      "▁spirit": 4070,
      "▁cooper": 4071,
      "▁bulldozer": 4072,
      "▁chinese": 4073,
      "▁agricult": 4074,
      "##wh": 4075,
      "##iar": 4076,
      "##uit": 4077,
      "##15": 4078,
      "##rel": 4079,
      "▁fol": 4080,
      "▁cart": 4081,
      "##era": 4082,
      "▁du": 4083,
      "▁towards": 4084,
      "▁thom": 4085,
      "##oration": 4086,
      "▁gree": 4087,
      "##stairs": 4088,
      "▁stuck": 4089,
      "▁row": 4090,
      "▁flat": 4091,
      "▁truth": 4092,
      "▁exte": 4093,
      "▁lee": 4094,
      "▁vo": 4095,
      "▁28": 4096,
      "▁twel": 4097,
      "▁twice": 4098,
      "▁query": 4099,
      "▁february": 4100,
      "##bered": 4101,
      "▁married": 4102,
      "▁decide": 4103,
      "▁metal": 4104,
      "▁directly": 4105,
      "▁jobs": 4106,
      "▁approach": 4107,
      "▁shoe": 4108,
      "▁windows": 4109,
      "▁condition": 4110,
      "▁billion": 4111,
      "▁initial": 4112,
      "▁environmental": 4113,
      "▁efforts": 4114,
      "▁structure": 4115,
      "▁fundamental": 4116,
      "##gypt": 4117,
      "▁attempt": 4118,
      "▁cruise": 4119,
      "▁hungry": 4120,
      "▁chocolate": 4121,
      "▁atmosphere": 4122,
      "▁e-mail": 4123,
      "##t.": 4124,
      "##sc": 4125,
      "##cious": 4126,
      "##iers": 4127,
      "##ients": 4128,
      "##gu": 4129,
      "##hel": 4130,
      "▁bay": 4131,
      "▁dut": 4132,
      "▁tor": 4133,
      "##ica": 4134,
      "▁egypt": 4135,
      "##aman": 4136,
      "▁proced": 4137,
      "▁van": 4138,
      "##umn": 4139,
      "▁feat": 4140,
      "▁spread": 4141,
      "▁disp": 4142,
      "▁join": 4143,
      "##ube": 4144,
      "▁transform": 4145,
      "▁emb": 4146,
      "▁babies": 4147,
      "▁species": 4148,
      "▁sales": 4149,
      "▁produce": 4150,
      "##ounced": 4151,
      "▁included": 4152,
      "▁stayed": 4153,
      "▁stret": 4154,
      "▁developed": 4155,
      "▁costs": 4156,
      "▁insp": 4157,
      "▁mush": 4158,
      "▁changing": 4159,
      "▁construct": 4160,
      "▁electric": 4161,
      "▁increasing": 4162,
      "▁effective": 4163,
      "▁expected": 4164,
      "▁robin": 4165,
      "▁fifth": 4166,
      "▁afford": 4167,
      "▁glasses": 4168,
      "▁institutions": 4169,
      "▁flowers": 4170,
      "▁substant": 4171,
      "▁immediately": 4172,
      "▁machine": 4173,
      "▁@": 4174,
      "##lim": 4175,
      "##oons": 4176,
      "##bles": 4177,
      "##.c": 4178,
      "▁tall": 4179,
      "▁aim": 4180,
      "▁iod": 4181,
      "▁sam": 4182,
      "▁fan": 4183,
      "▁mac": 4184,
      "▁nap": 4185,
      "▁eth": 4186,
      "##roll": 4187,
      "▁forms": 4188,
      "##iled": 4189,
      "▁ken": 4190,
      "▁neg": 4191,
      "##illa": 4192,
      "▁cha": 4193,
      "▁plans": 4194,
      "##arty": 4195,
      "▁willi": 4196,
      "▁showed": 4197,
      "##ague": 4198,
      "▁prim": 4199,
      "▁bray": 4200,
      "##iance": 4201,
      "▁remo": 4202,
      "▁helped": 4203,
      "▁telling": 4204,
      "##dered": 4205,
      "▁repair": 4206,
      "▁wedding": 4207,
      "▁skin": 4208,
      "▁belief": 4209,
      "▁conflic": 4210,
      "▁demon": 4211,
      "##ieth": 4212,
      "##awah": 4213,
      "▁penn": 4214,
      "▁conditions": 4215,
      "▁beauty": 4216,
      "▁movies": 4217,
      "▁tradition": 4218,
      "▁austral": 4219,
      "▁performance": 4220,
      "▁benefit": 4221,
      "▁execut": 4222,
      "▁digital": 4223,
      "▁individual": 4224,
      "▁conversation": 4225,
      "##force": 4226,
      "▁columbus": 4227,
      "▁rapid": 4228,
      "▁british": 4229,
      "▁opinion": 4230,
      "▁korea": 4231,
      "▁crowd": 4232,
      "▁psych": 4233,
      "##hi": 4234,
      "##lies": 4235,
      "##cast": 4236,
      "##ches": 4237,
      "##uf": 4238,
      "##uate": 4239,
      "##bi": 4240,
      "##vant": 4241,
      "##rem": 4242,
      "▁furn": 4243,
      "##isation": 4244,
      "##lebr": 4245,
      "▁france": 4246,
      "##ights": 4247,
      "##imum": 4248,
      "##iles": 4249,
      "▁negot": 4250,
      "##illed": 4251,
      "▁exer": 4252,
      "##igr": 4253,
      "##ession": 4254,
      "##unk": 4255,
      "▁knock": 4256,
      "▁unc": 4257,
      "▁grant": 4258,
      "▁mode": 4259,
      "▁eval": 4260,
      "▁pericles": 4261,
      "##emic": 4262,
      "##ption": 4263,
      "▁prefer": 4264,
      "▁guid": 4265,
      "▁apple": 4266,
      "▁appoint": 4267,
      "▁datab": 4268,
      "▁arrange": 4269,
      "▁relative": 4270,
      "▁foods": 4271,
      "▁basic": 4272,
      "▁60": 4273,
      "▁subs": 4274,
      "▁satisf": 4275,
      "▁thoughts": 4276,
      "▁fourth": 4277,
      "▁easily": 4278,
      "▁believed": 4279,
      "▁jew": 4280,
      "▁systems": 4281,
      "▁memory": 4282,
      "▁territ": 4283,
      "▁celebr": 4284,
      "▁northwest": 4285,
      "▁newsp": 4286,
      "▁killed": 4287,
      "▁silver": 4288,
      "▁christmas": 4289,
      "▁lady": 4290,
      "▁established": 4291,
      "▁honest": 4292,
      "▁budget": 4293,
      "▁dropped": 4294,
      "▁context": 4295,
      "▁absolutely": 4296,
      "▁pillow": 4297,
      "##sm": 4298,
      "##ring": 4299,
      "##bon": 4300,
      "##32": 4301,
      "##09": 4302,
      "##ford": 4303,
      "▁wake": 4304,
      "▁fer": 4305,
      "▁cast": 4306,
      "▁hidden": 4307,
      "▁weas": 4308,
      "▁wealth": 4309,
      "▁mechan": 4310,
      "▁rough": 4311,
      "▁rates": 4312,
      "▁rule": 4313,
      "▁ang": 4314,
      "▁flag": 4315,
      "▁comed": 4316,
      "▁ability": 4317,
      "▁plus": 4318,
      "▁yep": 4319,
      "▁sheet": 4320,
      "##rax": 4321,
      "▁otherwise": 4322,
      "▁spider": 4323,
      "▁bridge": 4324,
      "▁export": 4325,
      "▁perm": 4326,
      "▁drug": 4327,
      "▁finding": 4328,
      "▁miles": 4329,
      "▁fold": 4330,
      "▁basil": 4331,
      "▁veget": 4332,
      "▁enter": 4333,
      "▁zawah": 4334,
      "▁explore": 4335,
      "▁complex": 4336,
      "▁technical": 4337,
      "▁clearly": 4338,
      "▁solution": 4339,
      "▁sara": 4340,
      "▁successful": 4341,
      "▁responsible": 4342,
      "▁investig": 4343,
      "▁apartment": 4344,
      "▁version": 4345,
      "▁concerned": 4346,
      "▁suddenly": 4347,
      "##iciency": 4348,
      "▁thomas": 4349,
      "▁zawahiri": 4350,
      "##bing": 4351,
      "##-p": 4352,
      "##47": 4353,
      "▁tro": 4354,
      "▁ii": 4355,
      "▁santa": 4356,
      "▁fest": 4357,
      "▁pad": 4358,
      "▁pour": 4359,
      "▁nut": 4360,
      "##esome": 4361,
      "▁gh": 4362,
      "▁gent": 4363,
      "▁und": 4364,
      "▁frank": 4365,
      "▁weather": 4366,
      "▁storm": 4367,
      "▁rice": 4368,
      "▁range": 4369,
      "##iling": 4370,
      "▁sector": 4371,
      "▁shar": 4372,
      "▁delic": 4373,
      "▁goal": 4374,
      "##ests": 4375,
      "##ulated": 4376,
      "▁proceed": 4377,
      "▁exhib": 4378,
      "▁vir": 4379,
      "▁unp": 4380,
      "##berry": 4381,
      "▁fear": 4382,
      "▁spl": 4383,
      "▁parties": 4384,
      "▁seriously": 4385,
      "##....": 4386,
      "▁speed": 4387,
      "▁poll": 4388,
      "▁muse": 4389,
      "▁applied": 4390,
      "▁interp": 4391,
      "▁’m": 4392,
      "▁integr": 4393,
      "▁schol": 4394,
      "▁elements": 4395,
      "▁visa": 4396,
      "▁director": 4397,
      "▁leading": 4398,
      "▁advice": 4399,
      "▁creating": 4400,
      "▁effects": 4401,
      "▁healthy": 4402,
      "▁enjoyed": 4403,
      "▁fighting": 4404,
      "▁argument": 4405,
      "▁senate": 4406,
      "▁measures": 4407,
      "▁critic": 4408,
      "▁madam": 4409,
      "▁telev": 4410,
      "▁female": 4411,
      "▁tiger": 4412,
      "▁ukraine": 4413,
      "▁spanish": 4414,
      "▁screen": 4415,
      "▁palestin": 4416,
      "▁unfortunately": 4417,
      "##hold": 4418,
      "##wet": 4419,
      "##ev": 4420,
      "##tario": 4421,
      "##set": 4422,
      "##cher": 4423,
      "##ij": 4424,
      "##rast": 4425,
      "##uing": 4426,
      "##-d": 4427,
      "##69": 4428,
      "##19": 4429,
      "##14": 4430,
      "##kes": 4431,
      "▁average": 4432,
      "▁bul": 4433,
      "▁cars": 4434,
      "▁mary": 4435,
      "▁mhm": 4436,
      "▁pages": 4437,
      "##inging": 4438,
      "##itable": 4439,
      "##lear": 4440,
      "▁ontario": 4441,
      "▁reference": 4442,
      "▁wearing": 4443,
      "▁ants": 4444,
      "▁james": 4445,
      "▁trail": 4446,
      "▁sugar": 4447,
      "▁consequ": 4448,
      "##ulty": 4449,
      "##ulations": 4450,
      "▁plate": 4451,
      "▁worse": 4452,
      "##raid": 4453,
      "▁afraid": 4454,
      "▁grab": 4455,
      "▁showing": 4456,
      "▁load": 4457,
      "▁compon": 4458,
      "▁command": 4459,
      "▁calling": 4460,
      "##uclear": 4461,
      "##ologies": 4462,
      "▁salad": 4463,
      "▁grew": 4464,
      "▁peter": 4465,
      "▁medic": 4466,
      "▁cream": 4467,
      "▁menu": 4468,
      "▁sleeping": 4469,
      "▁projects": 4470,
      "▁reviews": 4471,
      "▁circ": 4472,
      "▁accepted": 4473,
      "▁labor": 4474,
      "▁released": 4475,
      "▁democratic": 4476,
      "▁prepared": 4477,
      "▁counterp": 4478,
      "▁lowest": 4479,
      "▁filled": 4480,
      "▁employees": 4481,
      "▁establish": 4482,
      "▁described": 4483,
      "▁spring": 4484,
      "▁slowly": 4485,
      "▁trees": 4486,
      "▁secretary": 4487,
      "▁mountain": 4488,
      "▁separate": 4489,
      "▁appropriate": 4490,
      "▁slightly": 4491,
      "▁bunny": 4492,
      "▁comfortable": 4493,
      "▁anthrax": 4494,
      "▁traffic": 4495,
      "##ares": 4496,
      "##ov": 4497,
      "##iot": 4498,
      "##ya": 4499,
      "##-s": 4500,
      "▁tight": 4501,
      "▁aunt": 4502,
      "▁wal": 4503,
      "▁sink": 4504,
      "▁fred": 4505,
      "##att": 4506,
      "▁boo": 4507,
      "▁male": 4508,
      "##nda": 4509,
      "▁pants": 4510,
      "▁nuclear": 4511,
      "▁inj": 4512,
      "##oming": 4513,
      "##ito": 4514,
      "##let": 4515,
      "##oting": 4516,
      "▁weight": 4517,
      "▁stated": 4518,
      "▁rail": 4519,
      "▁kay": 4520,
      "▁wheel": 4521,
      "▁ven": 4522,
      "▁viet": 4523,
      "▁users": 4524,
      "##cks": 4525,
      "##teenth": 4526,
      "▁adjust": 4527,
      "▁rose": 4528,
      "▁airpl": 4529,
      "▁spok": 4530,
      "▁writ": 4531,
      "▁arrived": 4532,
      "▁mostly": 4533,
      "▁positive": 4534,
      "▁consist": 4535,
      "▁decades": 4536,
      "▁assess": 4537,
      "▁assum": 4538,
      "▁04": 4539,
      "▁famous": 4540,
      "▁defense": 4541,
      "▁easier": 4542,
      "▁distance": 4543,
      "▁explained": 4544,
      "▁production": 4545,
      "▁movement": 4546,
      "▁posted": 4547,
      "▁languages": 4548,
      "▁receive": 4549,
      "▁elected": 4550,
      "▁chris": 4551,
      "▁charlie": 4552,
      "▁birds": 4553,
      "▁motor": 4554,
      "▁surprised": 4555,
      "▁danny": 4556,
      "▁canadian": 4557,
      "##????": 4558,
      "▁russian": 4559,
      "▁delivery": 4560,
      "▁characters": 4561,
      "▁wiki": 4562,
      "▁journ": 4563,
      "▁sandwich": 4564,
      "▁determined": 4565,
      "▁florida": 4566,
      "▁…": 4567,
      "##house": 4568,
      "##equ": 4569,
      "##iest": 4570,
      "##bre": 4571,
      "##mes": 4572,
      "##kin": 4573,
      "▁silly": 4574,
      "##reg": 4575,
      "▁categ": 4576,
      "▁mwet": 4577,
      "▁dancing": 4578,
      "▁pun": 4579,
      "##lla": 4580,
      "##itter": 4581,
      "##ara": 4582,
      "##aration": 4583,
      "##icip": 4584,
      "▁onto": 4585,
      "▁reve": 4586,
      "▁refe": 4587,
      "▁waste": 4588,
      "▁riding": 4589,
      "▁kick": 4590,
      "▁shot": 4591,
      "▁shad": 4592,
      "▁chap": 4593,
      "▁plenty": 4594,
      "##osure": 4595,
      "▁26": 4596,
      "▁2.": 4597,
      "▁coord": 4598,
      "▁agency": 4599,
      "##ancy": 4600,
      "▁evolution": 4601,
      "▁loved": 4602,
      "▁screw": 4603,
      "▁writer": 4604,
      "▁serves": 4605,
      "##amples": 4606,
      "##inny": 4607,
      "▁glo": 4608,
      "##encies": 4609,
      "▁minister": 4610,
      "▁install": 4611,
      "▁accur": 4612,
      "▁decisions": 4613,
      "▁rooms": 4614,
      "▁legos": 4615,
      "▁08": 4616,
      "▁skills": 4617,
      "▁visited": 4618,
      "▁2010": 4619,
      "▁sixth": 4620,
      "▁signed": 4621,
      "##byl": 4622,
      "▁properly": 4623,
      "▁majority": 4624,
      "▁discussion": 4625,
      "▁occup": 4626,
      "▁camera": 4627,
      "▁domin": 4628,
      "▁carrying": 4629,
      "▁multip": 4630,
      "▁alternative": 4631,
      "▁museum": 4632,
      "▁mweta": 4633,
      "##ole": 4634,
      "##off": 4635,
      "##wood": 4636,
      "##rig": 4637,
      "##3-": 4638,
      "##40": 4639,
      "##xim": 4640,
      "▁tag": 4641,
      "▁sli": 4642,
      "▁fis": 4643,
      "▁mouse": 4644,
      "▁pow": 4645,
      "▁nana": 4646,
      "##orary": 4647,
      "##iture": 4648,
      "▁whale": 4649,
      "▁ji": 4650,
      "▁jam": 4651,
      "▁shape": 4652,
      "▁ordered": 4653,
      "▁chief": 4654,
      "▁arrest": 4655,
      "▁27": 4656,
      "▁amb": 4657,
      "▁uses": 4658,
      "▁gram": 4659,
      "▁shown": 4660,
      "▁cock": 4661,
      "▁firm": 4662,
      "▁expand": 4663,
      "▁cris": 4664,
      "▁transm": 4665,
      "▁award": 4666,
      "▁awesome": 4667,
      "▁basically": 4668,
      "▁handle": 4669,
      "▁vet": 4670,
      "▁faith": 4671,
      "▁facts": 4672,
      "▁2014": 4673,
      "▁hearing": 4674,
      "▁maint": 4675,
      "▁calc": 4676,
      "##ipping": 4677,
      "▁shopping": 4678,
      "▁professor": 4679,
      "▁debate": 4680,
      "▁prevent": 4681,
      "▁scientific": 4682,
      "▁horses": 4683,
      "▁attacks": 4684,
      "▁turning": 4685,
      "▁judge": 4686,
      "▁measure": 4687,
      "▁african": 4688,
      "##load": 4689,
      "▁italian": 4690,
      "▁aspects": 4691,
      "▁behavior": 4692,
      "▁obviously": 4693,
      "▁exchange": 4694,
      "▁offered": 4695,
      "▁executive": 4696,
      "▁database": 4697,
      "▁television": 4698,
      "▁‘": 4699,
      "##ware": 4700,
      "##ture": 4701,
      "##uch": 4702,
      "##mer": 4703,
      "##25": 4704,
      "##hest": 4705,
      "▁sant": 4706,
      "##ining": 4707,
      "▁dough": 4708,
      "▁dirt": 4709,
      "▁nick": 4710,
      "▁lu": 4711,
      "▁yog": 4712,
      "▁gulf": 4713,
      "##asc": 4714,
      "▁eb": 4715,
      "##stick": 4716,
      "##sec": 4717,
      "##roy": 4718,
      "▁forth": 4719,
      "##ada": 4720,
      "▁rare": 4721,
      "▁rude": 4722,
      "▁flood": 4723,
      "▁chann": 4724,
      "##istics": 4725,
      "##using": 4726,
      "▁nobody": 4727,
      "##pping": 4728,
      "##aph": 4729,
      "▁lose": 4730,
      "▁goods": 4731,
      "▁compar": 4732,
      "▁scary": 4733,
      "▁carried": 4734,
      "▁speaking": 4735,
      "▁commit": 4736,
      "▁bub": 4737,
      "##ension": 4738,
      "▁smoke": 4739,
      "▁intended": 4740,
      "##cient": 4741,
      "▁relax": 4742,
      "##nobyl": 4743,
      "▁subm": 4744,
      "▁interests": 4745,
      "▁possibly": 4746,
      "▁80": 4747,
      "▁2012": 4748,
      "▁zero": 4749,
      "▁district": 4750,
      "▁medical": 4751,
      "▁funds": 4752,
      "▁bedroom": 4753,
      "▁cereal": 4754,
      "▁appears": 4755,
      "▁conduct": 4756,
      "▁oppos": 4757,
      "▁treated": 4758,
      "▁pulled": 4759,
      "▁sources": 4760,
      "▁authority": 4761,
      "▁observed": 4762,
      "▁daniel": 4763,
      "▁failed": 4764,
      "▁competition": 4765,
      "▁etc.": 4766,
      "##chester": 4767,
      "▁sweetie": 4768,
      "▁rabbit": 4769,
      "▁fantastic": 4770,
      "▁demonstr": 4771,
      "##aa": 4772,
      "##eenth": 4773,
      "##nown": 4774,
      "##iw": 4775,
      "##ien": 4776,
      "##rial": 4777,
      "##dam": 4778,
      "##back": 4779,
      "##-6": 4780,
      "##35": 4781,
      "##.net": 4782,
      "##fare": 4783,
      "▁ale": 4784,
      "▁iron": 4785,
      "▁fuck": 4786,
      "▁mitc": 4787,
      "##anim": 4788,
      "##enue": 4789,
      "##icide": 4790,
      "##leys": 4791,
      "##lection": 4792,
      "##otes": 4793,
      "▁reli": 4794,
      "##iders": 4795,
      "##ros": 4796,
      "▁liqu": 4797,
      "▁jim": 4798,
      "▁kh": 4799,
      "▁noticed": 4800,
      "##ores": 4801,
      "▁trial": 4802,
      "▁sust": 4803,
      "▁alle": 4804,
      "##uled": 4805,
      "##usion": 4806,
      "##ivia": 4807,
      "▁user": 4808,
      "▁unlike": 4809,
      "▁justice": 4810,
      "▁manuf": 4811,
      "▁disaster": 4812,
      "▁scared": 4813,
      "▁partners": 4814,
      "##claim": 4815,
      "▁commer": 4816,
      "▁calls": 4817,
      "▁driver": 4818,
      "▁’ve": 4819,
      "▁arrives": 4820,
      "▁198": 4821,
      "▁finance": 4822,
      "▁stops": 4823,
      "▁eleph": 4824,
      "▁formal": 4825,
      "▁factor": 4826,
      "▁governor": 4827,
      "▁snake": 4828,
      "▁efficient": 4829,
      "▁loss": 4830,
      "▁treatment": 4831,
      "▁levels": 4832,
      "▁claims": 4833,
      "▁teaching": 4834,
      "▁purple": 4835,
      "▁existing": 4836,
      "▁describe": 4837,
      "▁destroy": 4838,
      "▁bugs": 4839,
      "▁horrible": 4840,
      "▁settlement": 4841,
      "▁task": 4842,
      "▁chemical": 4843,
      "▁william": 4844,
      "▁counterparty": 4845,
      "▁mitchell": 4846,
      "▁manufact": 4847,
      "##tr": 4848,
      "##row": 4849,
      "##ye": 4850,
      "##yal": 4851,
      "##22": 4852,
      "##36": 4853,
      "##gin": 4854,
      "##frie": 4855,
      "▁tun": 4856,
      "▁theat": 4857,
      "▁sac": 4858,
      "▁sout": 4859,
      "##rely": 4860,
      "▁bump": 4861,
      "▁cher": 4862,
      "▁cia": 4863,
      "##erves": 4864,
      "▁dial": 4865,
      "▁pipe": 4866,
      "##ona": 4867,
      "▁none": 4868,
      "▁nerv": 4869,
      "##orum": 4870,
      "▁gi": 4871,
      "##etime": 4872,
      "▁reb": 4873,
      "▁rene": 4874,
      "▁reached": 4875,
      "▁fork": 4876,
      "##urt": 4877,
      "▁rib": 4878,
      "▁lif": 4879,
      "▁jen": 4880,
      "▁kim": 4881,
      "▁sup": 4882,
      "▁vast": 4883,
      "▁vice": 4884,
      "▁vince": 4885,
      "##resp": 4886,
      "▁upstairs": 4887,
      "▁tend": 4888,
      "▁grass": 4889,
      "▁click": 4890,
      "▁club": 4891,
      "▁advert": 4892,
      "▁cogn": 4893,
      "##aren": 4894,
      "▁quar": 4895,
      "▁proud": 4896,
      "##iban": 4897,
      "##ibilities": 4898,
      "▁exposure": 4899,
      "▁boom": 4900,
      "▁carr": 4901,
      "▁31": 4902,
      "▁remains": 4903,
      "▁string": 4904,
      "▁presence": 4905,
      "▁replic": 4906,
      "▁kinda": 4907,
      "▁instance": 4908,
      "▁dragon": 4909,
      "▁personally": 4910,
      "▁keeping": 4911,
      "▁markets": 4912,
      "▁happening": 4913,
      "▁airports": 4914,
      "▁advant": 4915,
      "▁techni": 4916,
      "▁missing": 4917,
      "▁boxes": 4918,
      "▁closely": 4919,
      "▁discussed": 4920,
      "▁robot": 4921,
      "▁raised": 4922,
      "▁trading": 4923,
      "▁previous": 4924,
      "▁excited": 4925,
      "▁eventually": 4926,
      "▁telephone": 4927,
      "▁assistance": 4928,
      "▁contemp": 4929,
      "▁discovered": 4930,
      "##****************": 4931,
      "▁garage": 4932,
      "▁islamic": 4933,
      "▁taliban": 4934,
      "▁blanket": 4935,
      "▁physical": 4936,
      "##.m.": 4937,
      "▁zeal": 4938,
      "▁mathematics": 4939,
      "▁sports": 4940,
      "▁stretch": 4941,
      "▁gentle": 4942,
      "▁airplane": 4943,
      "▁writers": 4944,
      "##had": 4945,
      "##nis": 4946,
      "##nut": 4947,
      "##ivers": 4948,
      "##mine": 4949,
      "##mark": 4950,
      "##59": 4951,
      "##18": 4952,
      "##.g": 4953,
      "##gal": 4954,
      "##02": 4955,
      "▁.?": 4956,
      "▁won": 4957,
      "▁wand": 4958,
      "▁wig": 4959,
      "▁wav": 4960,
      "▁bunch": 4961,
      "▁crop": 4962,
      "▁mum": 4963,
      "▁mart": 4964,
      "▁dand": 4965,
      "▁double": 4966,
      "▁pool": 4967,
      "##ening": 4968,
      "▁gro": 4969,
      "##asp": 4970,
      "##aling": 4971,
      "##aled": 4972,
      "▁re-": 4973,
      "▁frame": 4974,
      "▁ring": 4975,
      "▁shark": 4976,
      "▁shock": 4977,
      "##tering": 4978,
      "▁trick": 4979,
      "▁suicide": 4980,
      "▁conclus": 4981,
      "▁vict": 4982,
      "▁worry": 4983,
      "##apt": 4984,
      "##aked": 4985,
      "##osop": 4986,
      "▁sav": 4987,
      "▁shower": 4988,
      "▁covered": 4989,
      "▁quart": 4990,
      "##aging": 4991,
      "##ipl": 4992,
      "##itect": 4993,
      "▁offers": 4994,
      "▁resc": 4995,
      "▁precise": 4996,
      "▁apparent": 4997,
      "▁smith": 4998,
      "▁strugg": 4999,
      "▁useful": 5000,
      "▁descript": 5001,
      "##athy": 5002,
      "▁polar": 5003,
      "▁75": 5004,
      "▁schools": 5005,
      "▁colon": 5006,
      "▁classes": 5007,
      "▁09": 5008,
      "▁lights": 5009,
      "▁centre": 5010,
      "▁remembered": 5011,
      "▁careful": 5012,
      "▁statement": 5013,
      "▁streets": 5014,
      "▁jelly": 5015,
      "▁respond": 5016,
      "▁approxim": 5017,
      "▁cutting": 5018,
      "▁payment": 5019,
      "▁views": 5020,
      "▁technologies": 5021,
      "▁missed": 5022,
      "▁cookies": 5023,
      "▁millions": 5024,
      "▁indeed": 5025,
      "▁pressure": 5026,
      "▁christian": 5027,
      "▁responsibility": 5028,
      "##ifying": 5029,
      "▁convention": 5030,
      "▁audience": 5031,
      "▁independence": 5032,
      "▁damage": 5033,
      "▁thousand": 5034,
      "▁architect": 5035,
      "▁watched": 5036,
      "▁challenges": 5037,
      "▁title": 5038,
      "▁communication": 5039,
      "▁candid": 5040,
      "▁estimated": 5041,
      "▁adults": 5042,
      "▁doubt": 5043,
      "▁cooperation": 5044,
      "▁iodine": 5045,
      "▁territory": 5046,
      "▁vern": 5047,
      "##wa": 5048,
      "##word": 5049,
      "##ias": 5050,
      "##rated": 5051,
      "##uals": 5052,
      "##yl": 5053,
      "##:5": 5054,
      "▁tummy": 5055,
      "▁ip": 5056,
      "▁odd": 5057,
      "▁ber": 5058,
      "▁cig": 5059,
      "▁cub": 5060,
      "▁mas": 5061,
      "▁hate": 5062,
      "▁nurs": 5063,
      "##orp": 5064,
      "▁lion": 5065,
      "▁leng": 5066,
      "▁lingu": 5067,
      "##eding": 5068,
      "##itude": 5069,
      "##arc": 5070,
      "##ache": 5071,
      "##ado": 5072,
      "##imp": 5073,
      "##aming": 5074,
      "▁meals": 5075,
      "▁rise": 5076,
      "▁flies": 5077,
      "▁kiss": 5078,
      "▁neither": 5079,
      "▁vall": 5080,
      "▁vill": 5081,
      "##elines": 5082,
      "▁anybody": 5083,
      "▁robert": 5084,
      "▁dise": 5085,
      "▁acad": 5086,
      "##anged": 5087,
      "▁player": 5088,
      "▁active": 5089,
      "▁recon": 5090,
      "▁launch": 5091,
      "▁transfer": 5092,
      "▁philosop": 5093,
      "▁2006": 5094,
      "▁obl": 5095,
      "▁setting": 5096,
      "▁symp": 5097,
      "▁column": 5098,
      "▁heads": 5099,
      "▁skitt": 5100,
      "▁generally": 5101,
      "▁includes": 5102,
      "▁greet": 5103,
      "▁2011": 5104,
      "▁developing": 5105,
      "▁autom": 5106,
      "▁approved": 5107,
      "##iety": 5108,
      "▁creation": 5109,
      "▁studying": 5110,
      "▁eighth": 5111,
      "▁parking": 5112,
      "▁westchester": 5113,
      "▁motion": 5114,
      "▁fifty": 5115,
      "##ervation": 5116,
      "▁relevant": 5117,
      "▁industrial": 5118,
      "▁straw": 5119,
      "▁suspect": 5120,
      "▁puppy": 5121,
      "▁neighbor": 5122,
      "▁families": 5123,
      "▁confirm": 5124,
      "##works": 5125,
      "▁analyst": 5126,
      "▁pushed": 5127,
      "##...@": 5128,
      "▁conflict": 5129,
      "▁furniture": 5130,
      "▁scholars": 5131,
      "▁santorum": 5132,
      "▁channel": 5133,
      "▁liquid": 5134,
      "▁zealand": 5135,
      "##ois": 5136,
      "##bie": 5137,
      "##boy": 5138,
      "##ym": 5139,
      "##yan": 5140,
      "##28": 5141,
      "##92": 5142,
      "##34": 5143,
      "##.7": 5144,
      "##05": 5145,
      "##++": 5146,
      "##hered": 5147,
      "▁os": 5148,
      "▁fab": 5149,
      "▁burn": 5150,
      "▁mun": 5151,
      "▁dh": 5152,
      "▁pair": 5153,
      "▁purs": 5154,
      "▁hill": 5155,
      "▁nic": 5156,
      "▁threw": 5157,
      "▁ly": 5158,
      "▁lope": 5159,
      "▁inn": 5160,
      "##arra": 5161,
      "##aly": 5162,
      "##ette": 5163,
      "▁dose": 5164,
      "##sey": 5165,
      "▁stir": 5166,
      "▁stage": 5167,
      "▁stup": 5168,
      "▁rome": 5169,
      "▁rug": 5170,
      "▁sees": 5171,
      "▁lift": 5172,
      "▁shi": 5173,
      "▁dele": 5174,
      "▁conclud": 5175,
      "▁virt": 5176,
      "▁placed": 5177,
      "▁somehow": 5178,
      "▁ene": 5179,
      "▁anymore": 5180,
      "▁quino": 5181,
      "##ager": 5182,
      "▁moreau": 5183,
      "▁herself": 5184,
      "▁offices": 5185,
      "▁scott": 5186,
      "▁joined": 5187,
      "▁monkey": 5188,
      "▁helps": 5189,
      "▁glow": 5190,
      "▁conscious": 5191,
      "▁feels": 5192,
      "▁veh": 5193,
      "▁2015": 5194,
      "▁90": 5195,
      "▁info": 5196,
      "▁completed": 5197,
      "▁enjamb": 5198,
      "▁painting": 5199,
      "▁recommended": 5200,
      "▁sleepy": 5201,
      "▁1999": 5202,
      "▁circum": 5203,
      "▁magaz": 5204,
      "▁tourist": 5205,
      "▁representative": 5206,
      "▁copyright": 5207,
      "▁fingers": 5208,
      "▁hundreds": 5209,
      "▁ships": 5210,
      "▁cycle": 5211,
      "▁neighbour": 5212,
      "▁mixed": 5213,
      "▁waters": 5214,
      "▁influence": 5215,
      "▁legislation": 5216,
      "▁pleasant": 5217,
      "▁pilot": 5218,
      "▁replace": 5219,
      "▁soldiers": 5220,
      "▁adopted": 5221,
      "▁escape": 5222,
      "▁innovation": 5223,
      "▁strength": 5224,
      "▁pretend": 5225,
      "▁insurance": 5226,
      "▁twelve": 5227,
      "▁negoti": 5228,
      "▁appointment": 5229,
      "▁weasley": 5230,
      "▁ghost": 5231,
      "▁medicine": 5232,
      "▁jihad": 5233,
      "##friend": 5234,
      "▁vernon": 5235,
      "▁stupid": 5236,
      "▁quinoa": 5237,
      "##rical": 5238,
      "##des": 5239,
      "##dge": 5240,
      "##-b": 5241,
      "##ket": 5242,
      "##łod": 5243,
      "▁till": 5244,
      "▁wit": 5245,
      "▁theod": 5246,
      "▁oce": 5247,
      "▁fav": 5248,
      "▁faces": 5249,
      "▁bin": 5250,
      "▁bother": 5251,
      "##oul": 5252,
      "▁mission": 5253,
      "▁py": 5254,
      "##orus": 5255,
      "##lled": 5256,
      "▁ga": 5257,
      "▁yout": 5258,
      "##ionally": 5259,
      "##ids": 5260,
      "▁stan": 5261,
      "▁sem": 5262,
      "▁severe": 5263,
      "▁shr": 5264,
      "▁goals": 5265,
      "▁suit": 5266,
      "##olic": 5267,
      "▁vlog": 5268,
      "##appe": 5269,
      "##aker": 5270,
      "▁unit": 5271,
      "▁twent": 5272,
      "▁nav": 5273,
      "▁manner": 5274,
      "▁pray": 5275,
      "▁evol": 5276,
      "▁loan": 5277,
      "▁compared": 5278,
      "▁scale": 5279,
      "##izes": 5280,
      "▁jokes": 5281,
      "▁recip": 5282,
      "▁smile": 5283,
      "▁greatest": 5284,
      "##gged": 5285,
      "▁dese": 5286,
      "▁owners": 5287,
      "▁stopping": 5288,
      "▁element": 5289,
      "▁reality": 5290,
      "▁realize": 5291,
      "▁syria": 5292,
      "▁colors": 5293,
      "##ception": 5294,
      "▁assume": 5295,
      "▁detect": 5296,
      "▁foundation": 5297,
      "▁generation": 5298,
      "▁stands": 5299,
      "▁follows": 5300,
      "▁refused": 5301,
      "▁governments": 5302,
      "▁balloon": 5303,
      "##standing": 5304,
      "▁empty": 5305,
      "▁concent": 5306,
      "▁bringing": 5307,
      "▁presented": 5308,
      "▁limit": 5309,
      "▁rocks": 5310,
      "▁clothing": 5311,
      "▁visitors": 5312,
      "▁designed": 5313,
      "▁employment": 5314,
      "▁totally": 5315,
      "▁network": 5316,
      "▁benefits": 5317,
      "▁cowboy": 5318,
      "▁rental": 5319,
      "▁golden": 5320,
      "▁northern": 5321,
      "▁concerns": 5322,
      "▁mistake": 5323,
      "▁lucky": 5324,
      "▁wolf": 5325,
      "▁orders": 5326,
      "▁ultim": 5327,
      "▁temperature": 5328,
      "▁greek": 5329,
      "▁egyptian": 5330,
      "▁electricity": 5331,
      "▁australia": 5332,
      "▁delicious": 5333,
      "▁vietnam": 5334,
      "▁grammar": 5335,
      "▁nervous": 5336,
      "▁replication": 5337,
      "▁length": 5338,
      "▁valley": 5339,
      "▁enjambment": 5340,
      "##łodz": 5341,
      "▁łodz": 5342,
      "##nic": 5343,
      "##ship": 5344,
      "##cing": 5345,
      "##dom": 5346,
      "##44": 5347,
      "##11": 5348,
      "##known": 5349,
      "##fl": 5350,
      "▁taught": 5351,
      "##rehens": 5352,
      "▁ooh": 5353,
      "▁bound": 5354,
      "▁bare": 5355,
      "▁bern": 5356,
      "▁cert": 5357,
      "▁map": 5358,
      "▁mars": 5359,
      "▁pump": 5360,
      "▁ll": 5361,
      "▁lick": 5362,
      "▁loose": 5363,
      "▁ing": 5364,
      "##arian": 5365,
      "##ashed": 5366,
      "##vey": 5367,
      "##sters": 5368,
      "▁beer": 5369,
      "▁bell": 5370,
      "##entions": 5371,
      "▁forced": 5372,
      "##ird": 5373,
      "▁sending": 5374,
      "▁lip": 5375,
      "▁conven": 5376,
      "##ulating": 5377,
      "##igator": 5378,
      "##igration": 5379,
      "▁plastic": 5380,
      "##aped": 5381,
      "▁unable": 5382,
      "▁twist": 5383,
      "▁moh": 5384,
      "▁dish": 5385,
      "▁disapp": 5386,
      "▁sche": 5387,
      "▁peoples": 5388,
      "▁background": 5389,
      "▁blog": 5390,
      "▁pleased": 5391,
      "▁commons": 5392,
      "▁imposs": 5393,
      "▁remained": 5394,
      "▁helping": 5395,
      "▁marie": 5396,
      "▁70": 5397,
      "▁suppose": 5398,
      "▁warming": 5399,
      "▁eleven": 5400,
      "▁sites": 5401,
      "▁collab": 5402,
      "▁visual": 5403,
      "▁curren": 5404,
      "▁direction": 5405,
      "▁2013": 5406,
      "▁gender": 5407,
      "▁importance": 5408,
      "▁muslim": 5409,
      "▁nato": 5410,
      "▁buying": 5411,
      "▁calm": 5412,
      "▁younger": 5413,
      "▁universal": 5414,
      "▁hurry": 5415,
      "▁buildings": 5416,
      "▁promised": 5417,
      "▁operators": 5418,
      "▁cupc": 5419,
      "▁controls": 5420,
      "▁collection": 5421,
      "▁fifteen": 5422,
      "▁answers": 5423,
      "▁announced": 5424,
      "▁expression": 5425,
      "▁speaker": 5426,
      "▁buttons": 5427,
      "▁batter": 5428,
      "▁highest": 5429,
      "▁participants": 5430,
      "▁deliver": 5431,
      "▁literature": 5432,
      "▁implementation": 5433,
      "▁associated": 5434,
      "▁essential": 5435,
      "▁purchase": 5436,
      "▁appearance": 5437,
      "▁familiar": 5438,
      "▁bomb": 5439,
      "▁breath": 5440,
      "▁repeated": 5441,
      "▁frequently": 5442,
      "▁elevator": 5443,
      "▁agriculture": 5444,
      "▁musharra": 5445,
      "▁exercise": 5446,
      "▁guidelines": 5447,
      "▁components": 5448,
      "▁dando": 5449,
      "▁ocean": 5450,
      "▁disappoint": 5451,
      "▁impossible": 5452,
      "▁musharraf": 5453,
      "##och": 5454,
      "##ez": 5455,
      "##ios": 5456,
      "##rad": 5457,
      "##rition": 5458,
      "##uated": 5459,
      "##29": 5460,
      "##31": 5461,
      "##.8": 5462,
      "▁tent": 5463,
      "▁tab": 5464,
      "▁tul": 5465,
      "▁ai": 5466,
      "▁ack": 5467,
      "##heet": 5468,
      "▁wis": 5469,
      "▁wars": 5470,
      "▁soup": 5471,
      "##rep": 5472,
      "##inting": 5473,
      "▁fal": 5474,
      "##atically": 5475,
      "▁bon": 5476,
      "▁core": 5477,
      "▁mand": 5478,
      "▁ded": 5479,
      "▁drew": 5480,
      "▁pure": 5481,
      "▁loo": 5482,
      "##icies": 5483,
      "##ste": 5484,
      "##enture": 5485,
      "##entially": 5486,
      "▁froz": 5487,
      "##idents": 5488,
      "▁stars": 5489,
      "▁rot": 5490,
      "▁rack": 5491,
      "##ctors": 5492,
      "▁athens": 5493,
      "▁seed": 5494,
      "▁lies": 5495,
      "▁jul": 5496,
      "▁kent": 5497,
      "▁asse": 5498,
      "▁asia": 5499,
      "▁depend": 5500,
      "▁tract": 5501,
      "##estic": 5502,
      "▁alligator": 5503,
      "##ulous": 5504,
      "▁1000": 5505,
      "▁vod": 5506,
      "##ums": 5507,
      "▁shell": 5508,
      "▁unknown": 5509,
      "▁enforce": 5510,
      "##inews": 5511,
      "▁cliff": 5512,
      "▁que": 5513,
      "▁qual": 5514,
      "▁prime": 5515,
      "▁spos": 5516,
      "▁thinks": 5517,
      "##actions": 5518,
      "▁complic": 5519,
      "▁bod": 5520,
      "▁server": 5521,
      "▁prem": 5522,
      "▁joe": 5523,
      "▁remove": 5524,
      "▁policies": 5525,
      "▁charged": 5526,
      "▁minor": 5527,
      "▁minimum": 5528,
      "▁election": 5529,
      "▁syr": 5530,
      "▁income": 5531,
      "▁provisions": 5532,
      "▁harv": 5533,
      "▁harmon": 5534,
      "▁swed": 5535,
      "▁extent": 5536,
      "▁humans": 5537,
      "▁explan": 5538,
      "▁medium": 5539,
      "▁hopefully": 5540,
      "▁advance": 5541,
      "▁steve": 5542,
      "▁traveling": 5543,
      "▁picked": 5544,
      "▁penny": 5545,
      "▁records": 5546,
      "▁promise": 5547,
      "▁chairs": 5548,
      "▁1991": 5549,
      "▁cooking": 5550,
      "▁considering": 5551,
      "▁peaceful": 5552,
      "▁restaurants": 5553,
      "▁facilities": 5554,
      "▁objects": 5555,
      "▁requested": 5556,
      "▁divers": 5557,
      "▁listening": 5558,
      "▁entirely": 5559,
      "▁failure": 5560,
      "▁administr": 5561,
      "▁puzz": 5562,
      "▁wikinews": 5563,
      "▁status": 5564,
      "▁mexican": 5565,
      "▁emergency": 5566,
      "▁pleasure": 5567,
      "▁instructions": 5568,
      "▁olivia": 5569,
      "▁experienced": 5570,
      "▁depends": 5571,
      "▁galois": 5572,
      "▁border": 5573,
      "▁confidential": 5574,
      "▁peanut": 5575,
      "▁relatively": 5576,
      "▁subscrib": 5577,
      "▁jewish": 5578,
      "▁newspaper": 5579,
      "▁commercial": 5580,
      "▁academic": 5581,
      "▁skittles": 5582,
      "▁currency": 5583,
      "▁frozen": 5584,
      "▁vodka": 5585,
      "##lin": 5586,
      "##ech": 5587,
      "##now": 5588,
      "##night": 5589,
      "##nel": 5590,
      "##sl": 5591,
      "##ris": 5592,
      "##df": 5593,
      "##38": 5594,
      "##48": 5595,
      "##.org": 5596,
      "##vin": 5597,
      "##gam": 5598,
      "##zer": 5599,
      "▁tam": 5600,
      "▁tip": 5601,
      "▁tables": 5602,
      "▁sir": 5603,
      "▁sally": 5604,
      "##rees": 5605,
      "▁bone": 5606,
      "▁cc": 5607,
      "▁cos": 5608,
      "▁cath": 5609,
      "##erous": 5610,
      "▁migr": 5611,
      "▁dy": 5612,
      "▁dwww": 5613,
      "▁durs": 5614,
      "##ano": 5615,
      "▁nest": 5616,
      "##orial": 5617,
      "▁inh": 5618,
      "##arf": 5619,
      "##ales": 5620,
      "##etch": 5621,
      "##ayed": 5622,
      "▁upper": 5623,
      "▁beard": 5624,
      "##sect": 5625,
      "##acle": 5626,
      "##iration": 5627,
      "▁rang": 5628,
      "▁ancient": 5629,
      "▁seating": 5630,
      "▁flu": 5631,
      "▁neat": 5632,
      "▁soil": 5633,
      "▁trash": 5634,
      "▁chat": 5635,
      "▁choo": 5636,
      "▁alt.": 5637,
      "##quito": 5638,
      "##ategy": 5639,
      "##arts": 5640,
      "▁knife": 5641,
      "▁seeking": 5642,
      "##inking": 5643,
      "▁uns": 5644,
      "▁clock": 5645,
      "▁quant": 5646,
      "##iped": 5647,
      "▁royal": 5648,
      "▁becomes": 5649,
      "▁airfare": 5650,
      "▁spin": 5651,
      "▁loves": 5652,
      "▁diss": 5653,
      "▁disappe": 5654,
      "▁boots": 5655,
      "▁perce": 5656,
      "▁everywhere": 5657,
      "▁crimin": 5658,
      "▁recall": 5659,
      "▁morality": 5660,
      "▁smo": 5661,
      "▁smok": 5662,
      "▁strategy": 5663,
      "▁owned": 5664,
      "▁basket": 5665,
      "▁informed": 5666,
      "▁incred": 5667,
      "▁slide": 5668,
      "▁produced": 5669,
      "▁05": 5670,
      "▁ski": 5671,
      "▁edge": 5672,
      "▁breaking": 5673,
      "▁planned": 5674,
      "▁weekly": 5675,
      "▁zoo": 5676,
      "▁stream": 5677,
      "▁passion": 5678,
      "##place": 5679,
      "▁jean": 5680,
      "##iki": 5681,
      "▁falls": 5682,
      "▁mainly": 5683,
      "▁maintain": 5684,
      "▁advanced": 5685,
      "▁drawing": 5686,
      "▁squir": 5687,
      "▁shorts": 5688,
      "▁connecting": 5689,
      "▁copies": 5690,
      "▁patient": 5691,
      "▁operation": 5692,
      "▁wondering": 5693,
      "▁magn": 5694,
      "▁raise": 5695,
      "▁originally": 5696,
      "▁anti-": 5697,
      "▁prepare": 5698,
      "▁devil": 5699,
      "▁microphone": 5700,
      "▁investment": 5701,
      "▁critical": 5702,
      "▁mosquito": 5703,
      "▁divide": 5704,
      "▁sufficient": 5705,
      "▁drove": 5706,
      "▁introduced": 5707,
      "▁hanging": 5708,
      "▁concepts": 5709,
      "▁historical": 5710,
      "▁rubber": 5711,
      "▁appreciate": 5712,
      "##@enron.com": 5713,
      "▁container": 5714,
      "▁deriv": 5715,
      "▁narrow": 5716,
      "▁procedure": 5717,
      "▁inspired": 5718,
      "▁removed": 5719,
      "▁granted": 5720,
      "▁troops": 5721,
      "▁crisis": 5722,
      "##iwan": 5723,
      "▁advantage": 5724,
      "▁cigare": 5725,
      "▁theodorus": 5726,
      "▁youtube": 5727,
      "▁twentieth": 5728,
      "▁enforcement": 5729,
      "##lers": 5730,
      "##eur": 5731,
      "##rick": 5732,
      "##uly": 5733,
      "##mail": 5734,
      "##mod": 5735,
      "##-l": 5736,
      "##-w": 5737,
      "##-e": 5738,
      "##-n": 5739,
      "##16": 5740,
      "##.2": 5741,
      "##/0": 5742,
      "##fa": 5743,
      "▁i.": 5744,
      "▁ire": 5745,
      "▁sides": 5746,
      "▁oz": 5747,
      "▁bac": 5748,
      "▁cas": 5749,
      "▁cute": 5750,
      "▁pir": 5751,
      "▁punch": 5752,
      "▁toky": 5753,
      "▁hal": 5754,
      "▁hoo": 5755,
      "##inger": 5756,
      "▁thro": 5757,
      "▁lank": 5758,
      "##itate": 5759,
      "##arm": 5760,
      "##asy": 5761,
      "▁e.g": 5762,
      "##otion": 5763,
      "▁bears": 5764,
      "▁stom": 5765,
      "▁stairs": 5766,
      "##uries": 5767,
      "##urning": 5768,
      "##lyn": 5769,
      "##lying": 5770,
      "▁rural": 5771,
      "▁anne": 5772,
      "▁flavor": 5773,
      "▁karen": 5774,
      "▁shared": 5775,
      "##esthet": 5776,
      "▁congr": 5777,
      "##usal": 5778,
      "##igning": 5779,
      "##umble": 5780,
      "▁pled": 5781,
      "▁arrog": 5782,
      "##osition": 5783,
      "##iform": 5784,
      "▁knowing": 5785,
      "▁uniform": 5786,
      "▁ena": 5787,
      "▁clay": 5788,
      "▁client": 5789,
      "▁quote": 5790,
      "▁fee": 5791,
      "▁agents": 5792,
      "▁spoon": 5793,
      "▁log": 5794,
      "▁puts": 5795,
      "▁ourselves": 5796,
      "▁bob": 5797,
      "▁boot": 5798,
      "▁cheek": 5799,
      "▁spect": 5800,
      "▁speech": 5801,
      "▁dram": 5802,
      "▁cray": 5803,
      "▁joy": 5804,
      "▁laun": 5805,
      "▁38": 5806,
      "▁strange": 5807,
      "▁serving": 5808,
      "▁desire": 5809,
      "▁regulation": 5810,
      "▁attrib": 5811,
      "##ronic": 5812,
      "▁booked": 5813,
      "▁relief": 5814,
      "▁household": 5815,
      "▁symb": 5816,
      "▁providing": 5817,
      "▁restrict": 5818,
      "▁marked": 5819,
      "▁passing": 5820,
      "▁signs": 5821,
      "▁files": 5822,
      "▁publicly": 5823,
      "▁processes": 5824,
      "▁behalf": 5825,
      "▁11:": 5826,
      "▁infrast": 5827,
      "▁squee": 5828,
      "▁equip": 5829,
      "##iveness": 5830,
      "▁fortun": 5831,
      "##ructure": 5832,
      "▁pattern": 5833,
      "▁operations": 5834,
      "▁tickets": 5835,
      "▁shops": 5836,
      "▁claimed": 5837,
      "▁specifically": 5838,
      "▁involve": 5839,
      "▁expressed": 5840,
      "▁senior": 5841,
      "▁documents": 5842,
      "▁declaration": 5843,
      "▁packed": 5844,
      "▁applications": 5845,
      "▁holt": 5846,
      "▁participation": 5847,
      "▁determine": 5848,
      "▁methods": 5849,
      "▁terrorist": 5850,
      "▁suffering": 5851,
      "▁constitu": 5852,
      "▁religion": 5853,
      "▁corporate": 5854,
      "▁individuals": 5855,
      "▁italy": 5856,
      "▁expertise": 5857,
      "▁germany": 5858,
      "▁amendments": 5859,
      "▁houses": 5860,
      "▁error": 5861,
      "▁accommod": 5862,
      "▁swimming": 5863,
      "▁folks": 5864,
      "▁negative": 5865,
      "▁angry": 5866,
      "▁chapter": 5867,
      "▁reliable": 5868,
      "▁wiggle": 5869,
      "▁lopez": 5870,
      "▁enemy": 5871,
      "▁|": 5872,
      "##lph": 5873,
      "##ode": 5874,
      "##e.": 5875,
      "##tion": 5876,
      "##ties": 5877,
      "##cal": 5878,
      "##rant": 5879,
      "##do": 5880,
      "##53-": 5881,
      "##.6": 5882,
      "##gl": 5883,
      "##gill": 5884,
      "##07": 5885,
      "▁aid": 5886,
      "▁aesthet": 5887,
      "▁woo": 5888,
      "▁wiz": 5889,
      "▁witch": 5890,
      "▁sne": 5891,
      "▁sample": 5892,
      "▁saud": 5893,
      "▁session": 5894,
      "##inated": 5895,
      "▁baking": 5896,
      "▁bones": 5897,
      "##oured": 5898,
      "##ndered": 5899,
      "▁dud": 5900,
      "▁dipl": 5901,
      "▁pra": 5902,
      "▁hind": 5903,
      "▁horn": 5904,
      "▁thin": 5905,
      "▁l2": 5906,
      "▁inqu": 5907,
      "▁infect": 5908,
      "▁gym": 5909,
      "##icial": 5910,
      "##stances": 5911,
      "##ota": 5912,
      "##verse": 5913,
      "##verty": 5914,
      "▁stress": 5915,
      "##irts": 5916,
      "▁raining": 5917,
      "▁ryan": 5918,
      "▁jason": 5919,
      "▁ker": 5920,
      "▁orient": 5921,
      "▁trib": 5922,
      "▁cance": 5923,
      "▁prove": 5924,
      "##ivered": 5925,
      "▁outer": 5926,
      "▁coat": 5927,
      "##mploy": 5928,
      "##agues": 5929,
      "▁feather": 5930,
      "▁mob": 5931,
      "▁whereas": 5932,
      "##web": 5933,
      "▁blind": 5934,
      "▁taiwan": 5935,
      "▁poverty": 5936,
      "▁actual": 5937,
      "▁recru": 5938,
      "▁laid": 5939,
      "▁strateg": 5940,
      "##igned": 5941,
      "▁arrival": 5942,
      "▁desert": 5943,
      "▁2009": 5944,
      "▁attach": 5945,
      "▁attorn": 5946,
      "▁talked": 5947,
      "▁surger": 5948,
      "▁turns": 5949,
      "##ologist": 5950,
      "▁harm": 5951,
      "▁entertain": 5952,
      "▁lovely": 5953,
      "▁lighting": 5954,
      "▁defined": 5955,
      "##ashion": 5956,
      "▁refu": 5957,
      "▁carefully": 5958,
      "▁2016": 5959,
      "▁leads": 5960,
      "▁distingu": 5961,
      "▁economies": 5962,
      "▁trained": 5963,
      "▁corresp": 5964,
      "▁emph": 5965,
      "▁shoot": 5966,
      "▁stores": 5967,
      "▁protest": 5968,
      "▁constantly": 5969,
      "▁equival": 5970,
      "▁urban": 5971,
      "▁presentation": 5972,
      "▁models": 5973,
      "▁eighteen": 5974,
      "▁chickens": 5975,
      "▁collected": 5976,
      "▁surprising": 5977,
      "▁sevent": 5978,
      "▁!!!!": 5979,
      "▁silk": 5980,
      "▁hamas": 5981,
      "▁hamster": 5982,
      "▁teachers": 5983,
      "▁dining": 5984,
      "▁decline": 5985,
      "▁counterfe": 5986,
      "▁structural": 5987,
      "▁bottles": 5988,
      "▁scheduled": 5989,
      "▁walls": 5990,
      "▁pockets": 5991,
      "▁normally": 5992,
      "▁epis": 5993,
      "▁suffer": 5994,
      "▁murder": 5995,
      "▁scene": 5996,
      "▁contribution": 5997,
      "▁carolina": 5998,
      "▁mirr": 5999,
      "▁improvement": 6000,
      "▁ninet": 6001,
      "▁ninth": 6002,
      "▁translation": 6003,
      "▁consumption": 6004,
      "▁amendment": 6005,
      "▁housing": 6006,
      "▁romantic": 6007,
      "▁beside": 6008,
      "▁tools": 6009,
      "▁features": 6010,
      "▁exhibit": 6011,
      "▁palestinian": 6012,
      "▁spoken": 6013,
      "▁evolutionary": 6014,
      "▁theatre": 6015,
      "▁village": 6016,
      "▁oblig": 6017,
      "▁circumstances": 6018,
      "▁favour": 6019,
      "▁ingred": 6020,
      "▁tulsa": 6021,
      "▁acknow": 6022,
      "▁tractor": 6023,
      "▁catholic": 6024,
      "▁ireland": 6025,
      "▁tokyo": 6026,
      "▁e.g.": 6027,
      "▁congrat": 6028,
      "▁=": 6029,
      "##eing": 6030,
      "##nat": 6031,
      "##sp": 6032,
      "##d2": 6033,
      "##dp": 6034,
      "##den": 6035,
      "##bow": 6036,
      "##bage": 6037,
      "##21": 6038,
      "▁ast": 6039,
      "▁wag": 6040,
      "▁sin": 6041,
      "▁sri": 6042,
      "▁bid": 6043,
      "▁couch": 6044,
      "▁ped": 6045,
      "▁pic": 6046,
      "▁papers": 6047,
      "##oni": 6048,
      "##oned": 6049,
      "##anie": 6050,
      "▁ny": 6051,
      "▁l'": 6052,
      "▁yard": 6053,
      "##oms": 6054,
      "▁gaz": 6055,
      "##ione": 6056,
      "▁uv": 6057,
      "▁weak": 6058,
      "▁stone": 6059,
      "▁ram": 6060,
      "▁sept": 6061,
      "▁flower": 6062,
      "▁notes": 6063,
      "▁goat": 6064,
      "▁sole": 6065,
      "▁socks": 6066,
      "▁tra": 6067,
      "▁truly": 6068,
      "▁alloc": 6069,
      "##erson": 6070,
      "▁vic": 6071,
      "▁abb": 6072,
      "▁plat": 6073,
      "##akers": 6074,
      "▁29": 6075,
      "##ounds": 6076,
      "▁shelf": 6077,
      "▁usual": 6078,
      "▁clin": 6079,
      "▁cloud": 6080,
      "▁coal": 6081,
      "▁pepper": 6082,
      "▁agent": 6083,
      "▁moham": 6084,
      "▁spain": 6085,
      "▁dishes": 6086,
      "▁disney": 6087,
      "▁score": 6088,
      "##izations": 6089,
      "▁causes": 6090,
      "▁earned": 6091,
      "▁strict": 6092,
      "▁transaction": 6093,
      "▁desper": 6094,
      "##ocent": 6095,
      "▁196": 6096,
      "▁belg": 6097,
      "▁adding": 6098,
      "▁numerous": 6099,
      "▁marbles": 6100,
      "▁kinds": 6101,
      "▁studied": 6102,
      "▁termin": 6103,
      "##ucing": 6104,
      "▁synt": 6105,
      "▁decent": 6106,
      "▁hug": 6107,
      "▁formed": 6108,
      "▁highlight": 6109,
      "▁entit": 6110,
      "▁returning": 6111,
      "▁elsewhere": 6112,
      "▁continues": 6113,
      "▁breast": 6114,
      "▁internal": 6115,
      "▁seconds": 6116,
      "▁ballet": 6117,
      "▁password": 6118,
      "▁discount": 6119,
      "##ikh": 6120,
      "▁falling": 6121,
      "▁geograph": 6122,
      "▁delhi": 6123,
      "▁coron": 6124,
      "▁dollar": 6125,
      "▁snitch": 6126,
      "▁fuel": 6127,
      "▁lawy": 6128,
      "▁paying": 6129,
      "▁159": 6130,
      "▁ansi-": 6131,
      "▁testing": 6132,
      "▁singing": 6133,
      "▁penal": 6134,
      "▁recorder": 6135,
      "▁powerful": 6136,
      "▁forever": 6137,
      "▁commissioner": 6138,
      "▁excel": 6139,
      "▁suggested": 6140,
      "▁protected": 6141,
      "▁agenda": 6142,
      "▁definition": 6143,
      "▁argent": 6144,
      "▁dressed": 6145,
      "▁donkey": 6146,
      "▁release": 6147,
      "▁turkey": 6148,
      "▁judg": 6149,
      "▁saddam": 6150,
      "▁battle": 6151,
      "▁domain": 6152,
      "▁domestic": 6153,
      "▁excuse": 6154,
      "▁identity": 6155,
      "▁perfectly": 6156,
      "▁cycl": 6157,
      "▁opportunities": 6158,
      "▁associate": 6159,
      "▁crying": 6160,
      "▁predict": 6161,
      "▁priority": 6162,
      "▁widely": 6163,
      "▁flex": 6164,
      "▁affected": 6165,
      "▁cabin": 6166,
      "▁experts": 6167,
      "▁henry": 6168,
      "▁poetry": 6169,
      "▁degree": 6170,
      "▁depending": 6171,
      "▁update": 6172,
      "▁prosper": 6173,
      "▁voices": 6174,
      "▁journal": 6175,
      "▁multiple": 6176,
      "▁opposite": 6177,
      "##animals": 6178,
      "▁elephant": 6179,
      "▁southern": 6180,
      "▁cognitive": 6181,
      "▁quarter": 6182,
      "▁apparently": 6183,
      "▁bodies": 6184,
      "▁alt.animals": 6185,
      "▁smooth": 6186,
      "▁infrastructure": 6187,
      "▁equipment": 6188,
      "▁dudley": 6189,
      "▁diplom": 6190,
      "▁surgery": 6191,
      "▁emphas": 6192,
      "##life": 6193,
      "##lishing": 6194,
      "##tail": 6195,
      "##rr": 6196,
      "##rison": 6197,
      "##under": 6198,
      "##500": 6199,
      "##.p": 6200,
      "##ked": 6201,
      "##kins": 6202,
      "##/c": 6203,
      "##ga": 6204,
      "##gen": 6205,
      "##gers": 6206,
      "##jo": 6207,
      "▁iv": 6208,
      "▁wave": 6209,
      "▁sight": 6210,
      "▁sau": 6211,
      "##iner": 6212,
      "▁fashion": 6213,
      "##ndad": 6214,
      "▁dent": 6215,
      "▁phen": 6216,
      "▁hire": 6217,
      "▁nope": 6218,
      "▁thick": 6219,
      "##orated": 6220,
      "▁lord": 6221,
      "▁ltte": 6222,
      "▁incomp": 6223,
      "▁gdp": 6224,
      "##leep": 6225,
      "▁reject": 6226,
      "▁merely": 6227,
      "▁rh": 6228,
      "▁rid": 6229,
      "##allow": 6230,
      "▁selection": 6231,
      "▁ky": 6232,
      "▁asleep": 6233,
      "▁nep": 6234,
      "▁noted": 6235,
      "▁trump": 6236,
      "▁traged": 6237,
      "▁conver": 6238,
      "▁alas": 6239,
      "▁examples": 6240,
      "▁lean": 6241,
      "##apes": 6242,
      "##ifies": 6243,
      "▁somewh": 6244,
      "▁tear": 6245,
      "▁gray": 6246,
      "▁whenever": 6247,
      "▁nail": 6248,
      "▁coinc": 6249,
      "▁queries": 6250,
      "▁pron": 6251,
      "▁rolling": 6252,
      "▁spac": 6253,
      "▁dism": 6254,
      "▁comprehens": 6255,
      "▁cara": 6256,
      "▁reserve": 6257,
      "▁listed": 6258,
      "▁spending": 6259,
      "▁crime": 6260,
      "▁joint": 6261,
      "▁300": 6262,
      "##ordon": 6263,
      "▁transp": 6264,
      "▁regist": 6265,
      "▁regions": 6266,
      "▁500": 6267,
      "▁46": 6268,
      "▁glor": 6269,
      "▁addiction": 6270,
      "▁talks": 6271,
      "▁charles": 6272,
      "▁avo": 6273,
      "▁incorp": 6274,
      "▁images": 6275,
      "▁waited": 6276,
      "▁subsequ": 6277,
      "##connect": 6278,
      "▁entered": 6279,
      "##ounce": 6280,
      "▁hotels": 6281,
      "▁balls": 6282,
      "▁staying": 6283,
      "▁distin": 6284,
      "▁runs": 6285,
      "▁jews": 6286,
      "▁delivered": 6287,
      "▁approval": 6288,
      "▁businesses": 6289,
      "▁issued": 6290,
      "▁muscles": 6291,
      "▁advis": 6292,
      "##cca": 6293,
      "▁cleaning": 6294,
      "##hua": 6295,
      "▁prompt": 6296,
      "▁expectations": 6297,
      "▁johnson": 6298,
      "▁researc": 6299,
      "▁cooked": 6300,
      "▁succeed": 6301,
      "▁collective": 6302,
      "▁killing": 6303,
      "▁biological": 6304,
      "▁teams": 6305,
      "▁variety": 6306,
      "##zai": 6307,
      "▁tourists": 6308,
      "▁authorities": 6309,
      "▁israeli": 6310,
      "▁climb": 6311,
      "▁ladder": 6312,
      "▁mid-": 6313,
      "▁massive": 6314,
      "▁necessarily": 6315,
      "▁critics": 6316,
      "▁baseball": 6317,
      "▁intellect": 6318,
      "▁interviews": 6319,
      "▁pakistani": 6320,
      "▁leadership": 6321,
      "▁craw": 6322,
      "▁crazy": 6323,
      "▁implementing": 6324,
      "##!!!!!!!!": 6325,
      "##.htm": 6326,
      "▁emerging": 6327,
      "▁norton": 6328,
      "▁immediate": 6329,
      "▁replaced": 6330,
      "▁liberty": 6331,
      "▁graduate": 6332,
      "▁closer": 6333,
      "▁library": 6334,
      "▁experiences": 6335,
      "▁occurred": 6336,
      "▁unemploy": 6337,
      "▁surrounded": 6338,
      "▁principle": 6339,
      "▁psychology": 6340,
      "▁accurate": 6341,
      "▁doughnut": 6342,
      "▁alex": 6343,
      "▁alleged": 6344,
      "▁supreme": 6345,
      "▁contemporary": 6346,
      "▁neighborhood": 6347,
      "▁municip": 6348,
      "▁magazine": 6349,
      "▁witness": 6350,
      "▁certific": 6351,
      "##stein": 6352,
      "▁puzzle": 6353,
      "▁dursleys": 6354,
      "▁ingredients": 6355,
      "▁mohammed": 6356,
      "▁somewhat": 6357,
      "▁researchers": 6358,
      "##wide": 6359,
      "##ni": 6360,
      "##cot": 6361,
      "##ran": 6362,
      "##ram": 6363,
      "##uj": 6364,
      "##ded": 6365,
      "##23": 6366,
      "##-3": 6367,
      "##12": 6368,
      "##75": 6369,
      "▁tong": 6370,
      "▁tenth": 6371,
      "▁saint": 6372,
      "▁ou": 6373,
      "▁oly": 6374,
      "▁fans": 6375,
      "▁bos": 6376,
      "▁cro": 6377,
      "▁mud": 6378,
      "▁ding": 6379,
      "▁dar": 6380,
      "▁dim": 6381,
      "▁diver": 6382,
      "▁nook": 6383,
      "▁andaman": 6384,
      "▁insect": 6385,
      "▁gather": 6386,
      "▁gordon": 6387,
      "##lets": 6388,
      "▁hero": 6389,
      "▁reform": 6390,
      "▁iso": 6391,
      "▁bee": 6392,
      "▁belly": 6393,
      "▁frag": 6394,
      "▁frog": 6395,
      "▁fruit": 6396,
      "▁doors": 6397,
      "▁dolph": 6398,
      "##road": 6399,
      "##ira": 6400,
      "▁rank": 6401,
      "▁jos": 6402,
      "▁jord": 6403,
      "▁ash": 6404,
      "▁asian": 6405,
      "▁shake": 6406,
      "▁deals": 6407,
      "##iere": 6408,
      "▁sue": 6409,
      "▁alive": 6410,
      "▁alto": 6411,
      "##quar": 6412,
      "##anda": 6413,
      "▁leon": 6414,
      "▁vs.": 6415,
      "##uments": 6416,
      "▁plot": 6417,
      "▁worms": 6418,
      "▁worried": 6419,
      "##unte": 6420,
      "▁shel": 6421,
      "##cki": 6422,
      "▁unex": 6423,
      "▁enh": 6424,
      "▁grown": 6425,
      "▁adequ": 6426,
      "▁pricing": 6427,
      "▁ros": 6428,
      "▁brows": 6429,
      "##well": 6430,
      "##wered": 6431,
      "▁mayor": 6432,
      "▁lists": 6433,
      "▁listing": 6434,
      "▁players": 6435,
      "▁cruc": 6436,
      "▁wrap": 6437,
      "▁interact": 6438,
      "▁strain": 6439,
      "▁strike": 6440,
      "▁arrow": 6441,
      "▁tells": 6442,
      "▁presents": 6443,
      "▁awful": 6444,
      "▁readers": 6445,
      "▁reply": 6446,
      "▁positions": 6447,
      "▁consult": 6448,
      "##grad": 6449,
      "▁supper": 6450,
      "▁realized": 6451,
      "▁decade": 6452,
      "▁invited": 6453,
      "▁classical": 6454,
      "▁salon": 6455,
      "▁legit": 6456,
      "▁metro": 6457,
      "▁grounds": 6458,
      "▁default": 6459,
      "##alecki": 6460,
      "▁planet": 6461,
      "▁swing": 6462,
      "▁captain": 6463,
      "▁statements": 6464,
      "▁2017": 6465,
      "▁distort": 6466,
      "▁falluj": 6467,
      "▁tomato": 6468,
      "##ternal": 6469,
      "▁valid": 6470,
      "▁inspect": 6471,
      "▁dollie": 6472,
      "##bye": 6473,
      "▁stead": 6474,
      "▁receiving": 6475,
      "▁paine": 6476,
      "▁bench": 6477,
      "▁potato": 6478,
      "▁connected": 6479,
      "▁attended": 6480,
      "▁begun": 6481,
      "▁efficiency": 6482,
      "▁michell": 6483,
      "▁sweater": 6484,
      "▁tickle": 6485,
      "▁considerable": 6486,
      "▁suggests": 6487,
      "▁debra": 6488,
      "##icycle": 6489,
      "▁silence": 6490,
      "▁successfully": 6491,
      "▁absor": 6492,
      "▁kitten": 6493,
      "▁affair": 6494,
      "▁senator": 6495,
      "▁laden": 6496,
      "▁taxi": 6497,
      "▁structures": 6498,
      "▁colleagues": 6499,
      "▁susan": 6500,
      "▁identified": 6501,
      "▁audit": 6502,
      "▁mountains": 6503,
      "▁beatles": 6504,
      "▁713-8": 6505,
      "▁weapon": 6506,
      "▁legislative": 6507,
      "▁concerning": 6508,
      "▁estimate": 6509,
      "▁route": 6510,
      "▁wolves": 6511,
      "##uela": 6512,
      "▁wilson": 6513,
      "▁braz": 6514,
      "▁settled": 6515,
      "▁experiment": 6516,
      "▁experimental": 6517,
      "▁guarantee": 6518,
      "▁duty": 6519,
      "▁construction": 6520,
      "▁substantial": 6521,
      "▁chaos": 6522,
      "▁primary": 6523,
      "▁beliefs": 6524,
      "▁rapidly": 6525,
      "▁festival": 6526,
      "▁padalecki": 6527,
      "▁bulb": 6528,
      "▁consequences": 6529,
      "▁cocktail": 6530,
      "▁sustain": 6531,
      "▁renew": 6532,
      "▁rescue": 6533,
      "▁approximately": 6534,
      "▁disease": 6535,
      "▁mohamed": 6536,
      "▁assemb": 6537,
      "▁diversity": 6538,
      "▁cigarette": 6539,
      "▁stomach": 6540,
      "▁saudi": 6541,
      "▁mirror": 6542,
      "▁entitled": 6543,
      "▁olymp": 6544,
      "▁jordan": 6545,
      "▁michelle": 6546,
      "##a.": 6547,
      "##lor": 6548,
      "##ca": 6549,
      "##corn": 6550,
      "##uous": 6551,
      "##d-": 6552,
      "##ba": 6553,
      "##bel": 6554,
      "##mat": 6555,
      "##-7": 6556,
      "###69": 6557,
      "##49": 6558,
      "##.x": 6559,
      "##.st": 6560,
      "##.uk": 6561,
      "##ki": 6562,
      "##greg": 6563,
      "##jam": 6564,
      "▁tan": 6565,
      "▁tel": 6566,
      "▁tied": 6567,
      "▁ict": 6568,
      "▁w.": 6569,
      "▁od": 6570,
      "▁fy": 6571,
      "▁fool": 6572,
      "▁fiction": 6573,
      "▁fbi": 6574,
      "▁cens": 6575,
      "▁m.": 6576,
      "▁mile": 6577,
      "▁pac": 6578,
      "▁pach": 6579,
      "▁toes": 6580,
      "▁hog": 6581,
      "▁hub": 6582,
      "##enf": 6583,
      "##orters": 6584,
      "▁lol": 6585,
      "▁lun": 6586,
      "▁luc": 6587,
      "▁ld2": 6588,
      "▁andy": 6589,
      "##isp": 6590,
      "##lli": 6591,
      "▁gross": 6592,
      "▁ends": 6593,
      "##etic": 6594,
      "▁hes": 6595,
      "▁height": 6596,
      "▁hamm": 6597,
      "▁fright": 6598,
      "##sex": 6599,
      "▁stor": 6600,
      "##lder": 6601,
      "▁race": 6602,
      "▁anton": 6603,
      "▁kat": 6604,
      "▁shin": 6605,
      "▁shit": 6606,
      "##illing": 6607,
      "▁suck": 6608,
      "▁alliance": 6609,
      "▁alike": 6610,
      "▁aband": 6611,
      "##oses": 6612,
      "▁upside": 6613,
      "##ounded": 6614,
      "▁teen": 6615,
      "▁saving": 6616,
      "▁saved": 6617,
      "▁cla": 6618,
      "##ibald": 6619,
      "▁phr": 6620,
      "▁brand": 6621,
      "▁brings": 6622,
      "▁scan": 6623,
      "▁sciss": 6624,
      "▁contents": 6625,
      "▁perman": 6626,
      "##izz": 6627,
      "▁resident": 6628,
      "##eping": 6629,
      "##iana": 6630,
      "▁shoulder": 6631,
      "▁everyday": 6632,
      "▁sometime": 6633,
      "▁acts": 6634,
      "▁underst": 6635,
      "▁’d": 6636,
      "▁’ll": 6637,
      "▁36": 6638,
      "▁uma": 6639,
      "▁regime": 6640,
      "▁2007": 6641,
      "▁2008": 6642,
      "▁hiking": 6643,
      "▁reprod": 6644,
      "▁glove": 6645,
      "▁elimin": 6646,
      "##erties": 6647,
      "##pective": 6648,
      "▁starts": 6649,
      "▁wentz": 6650,
      "▁supplies": 6651,
      "▁colour": 6652,
      "##cont": 6653,
      "▁sale": 6654,
      "▁satan": 6655,
      "▁parad": 6656,
      "▁revised": 6657,
      "▁revenue": 6658,
      "▁courses": 6659,
      "▁possess": 6660,
      "▁pointed": 6661,
      "▁refrig": 6662,
      "▁swit": 6663,
      "▁matters": 6664,
      "▁believes": 6665,
      "▁extract": 6666,
      "▁secure": 6667,
      "▁popcorn": 6668,
      "▁sunni": 6669,
      "▁lesson": 6670,
      "##going": 6671,
      "▁properties": 6672,
      "▁11/2": 6673,
      "▁programs": 6674,
      "▁answered": 6675,
      "▁drinks": 6676,
      "▁hurts": 6677,
      "▁seats": 6678,
      "▁recording": 6679,
      "▁begins": 6680,
      "▁floating": 6681,
      "▁forest": 6682,
      "▁burst": 6683,
      "▁tennis": 6684,
      "▁amounts": 6685,
      "▁banks": 6686,
      "▁strongly": 6687,
      "▁solid": 6688,
      "▁iranian": 6689,
      "▁fairly": 6690,
      "▁objectives": 6691,
      "▁portion": 6692,
      "▁detailed": 6693,
      "▁subjects": 6694,
      "▁susp": 6695,
      "▁spray": 6696,
      "▁focused": 6697,
      "▁jumped": 6698,
      "▁mosque": 6699,
      "▁tower": 6700,
      "##arrass": 6701,
      "▁literary": 6702,
      "▁discover": 6703,
      "▁contracts": 6704,
      "▁hyp": 6705,
      "▁challenge": 6706,
      "▁software": 6707,
      "▁materials": 6708,
      "▁purchased": 6709,
      "▁volunte": 6710,
      "▁historic": 6711,
      "▁violence": 6712,
      "▁ignor": 6713,
      "▁karzai": 6714,
      "▁degrees": 6715,
      "▁republican": 6716,
      "▁initiative": 6717,
      "▁extended": 6718,
      "▁nutrition": 6719,
      "▁split": 6720,
      "▁pollution": 6721,
      "▁injury": 6722,
      "▁wikihow": 6723,
      "▁category": 6724,
      "▁shadow": 6725,
      "▁yoga": 6726,
      "▁comparison": 6727,
      "▁conclusion": 6728,
      "▁candidate": 6729,
      "▁i.e.": 6730,
      "▁throat": 6731,
      "▁lanka": 6732,
      "▁symbol": 6733,
      "▁constituency": 6734,
      "▁refuge": 6735,
      "##d-#69": 6736,
      "▁pachom": 6737,
      "▁ld2d-#69": 6738,
      "##aurs": 6739,
      "##la": 6740,
      "##iqu": 6741,
      "##dra": 6742,
      "##bc": 6743,
      "##bar": 6744,
      "##bits": 6745,
      "##mn": 6746,
      "##42": 6747,
      "##17": 6748,
      "##.co": 6749,
      "##ker": 6750,
      "##/01": 6751,
      "##vo": 6752,
      "##ghed": 6753,
      "##0s": 6754,
      "##fo": 6755,
      "##76": 6756,
      "▁ted": 6757,
      "▁tough": 6758,
      "▁aer": 6759,
      "▁a.m.": 6760,
      "##heast": 6761,
      "##rey": 6762,
      "▁bars": 6763,
      "▁cale": 6764,
      "▁corr": 6765,
      "▁mental": 6766,
      "▁dw": 6767,
      "▁dun": 6768,
      "##any": 6769,
      "▁native": 6770,
      "##orter": 6771,
      "##esh": 6772,
      "▁lind": 6773,
      "▁lying": 6774,
      "##isters": 6775,
      "▁gn": 6776,
      "▁gif": 6777,
      "▁gift": 6778,
      "##ala": 6779,
      "##alvo": 6780,
      "▁eco": 6781,
      "##leans": 6782,
      "▁rein": 6783,
      "##uting": 6784,
      "▁fru": 6785,
      "##idays": 6786,
      "##urally": 6787,
      "##amar": 6788,
      "▁meow": 6789,
      "▁sections": 6790,
      "▁jones": 6791,
      "▁shout": 6792,
      "▁neu": 6793,
      "▁gosh": 6794,
      "▁myst": 6795,
      "▁sov": 6796,
      "▁orleans": 6797,
      "▁cho": 6798,
      "▁chal": 6799,
      "▁allows": 6800,
      "##uls": 6801,
      "##usted": 6802,
      "▁alco": 6803,
      "▁voted": 6804,
      "##aka": 6805,
      "##ackle": 6806,
      "▁units": 6807,
      "▁enorm": 6808,
      "##ansion": 6809,
      "▁clar": 6810,
      "▁feature": 6811,
      "▁pride": 6812,
      "▁nowhere": 6813,
      "▁roof": 6814,
      "##udes": 6815,
      "##ahan": 6816,
      "▁afterwards": 6817,
      "▁contained": 6818,
      "▁gotten": 6819,
      "▁carbon": 6820,
      "▁cargill": 6821,
      "▁resol": 6822,
      "▁reserves": 6823,
      "▁okina": 6824,
      "▁chew": 6825,
      "▁chest": 6826,
      "▁guer": 6827,
      "▁guests": 6828,
      "▁drama": 6829,
      "▁strik": 6830,
      "▁transition": 6831,
      "▁biggest": 6832,
      "▁monsters": 6833,
      "▁195": 6834,
      "##coming": 6835,
      "▁terry": 6836,
      "▁obst": 6837,
      "##ups": 6838,
      "▁fung": 6839,
      "##news": 6840,
      "▁personality": 6841,
      "▁assass": 6842,
      "▁veter": 6843,
      "▁02": 6844,
      "▁keeps": 6845,
      "▁visiting": 6846,
      "▁generations": 6847,
      "▁arts": 6848,
      "▁mrs.": 6849,
      "▁directions": 6850,
      "▁pets": 6851,
      "▁capable": 6852,
      "▁confidence": 6853,
      "▁balloons": 6854,
      "▁distract": 6855,
      "▁respo": 6856,
      "▁lessons": 6857,
      "▁slee": 6858,
      "▁communities": 6859,
      "▁counsel": 6860,
      "▁topic": 6861,
      "▁largely": 6862,
      "▁cleaned": 6863,
      "▁programmes": 6864,
      "▁checked": 6865,
      "▁supporting": 6866,
      "▁equally": 6867,
      "▁politics": 6868,
      "▁operating": 6869,
      "▁expecting": 6870,
      "▁treatments": 6871,
      "▁cupboard": 6872,
      "▁towns": 6873,
      "▁enjoying": 6874,
      "▁solutions": 6875,
      "▁officer": 6876,
      "▁authors": 6877,
      "▁suggestions": 6878,
      "▁darkness": 6879,
      "▁montalvo": 6880,
      "▁scientists": 6881,
      "▁difficulty": 6882,
      "▁annual": 6883,
      "▁performed": 6884,
      "▁photo": 6885,
      "▁photos": 6886,
      "▁improving": 6887,
      "▁declared": 6888,
      "▁practical": 6889,
      "▁taxes": 6890,
      "▁typical": 6891,
      "▁holes": 6892,
      "▁linked": 6893,
      "▁committed": 6894,
      "▁convinc": 6895,
      "▁towel": 6896,
      "▁epm": 6897,
      "▁attempts": 6898,
      "▁pupp": 6899,
      "▁assistant": 6900,
      "▁cruel": 6901,
      "▁introduction": 6902,
      "▁radio": 6903,
      "▁immigration": 6904,
      "▁jerusal": 6905,
      "▁713-6": 6906,
      "▁columbia": 6907,
      "▁owl": 6908,
      "▁appreciated": 6909,
      "▁journey": 6910,
      "▁paintings": 6911,
      "▁routine": 6912,
      "▁closing": 6913,
      "▁belongs": 6914,
      "▁ordinary": 6915,
      "▁repeat": 6916,
      "▁errors": 6917,
      "▁printed": 6918,
      "▁dreams": 6919,
      "▁accompl": 6920,
      "▁encourage": 6921,
      "▁revolutionary": 6922,
      "▁peanuts": 6923,
      "▁embarrass": 6924,
      "▁affordable": 6925,
      "▁uncertain": 6926,
      "▁sharon": 6927,
      "▁interpret": 6928,
      "##chernobyl": 6929,
      "▁occupation": 6930,
      "▁fucking": 6931,
      "▁destroyed": 6932,
      "▁manufacture": 6933,
      "▁sacr": 6934,
      "▁techniques": 6935,
      "▁martin": 6936,
      "▁polaroid": 6937,
      "▁conventional": 6938,
      "▁reconcil": 6939,
      "▁disappointed": 6940,
      "▁false": 6941,
      "▁dynam": 6942,
      "▁derivative": 6943,
      "▁launched": 6944,
      "▁attorney": 6945,
      "▁sept.": 6946,
      "▁alaska": 6947,
      "▁comprehensive": 6948,
      "▁crucial": 6949,
      "▁legitim": 6950,
      "▁scissors": 6951,
      "▁refriger": 6952,
      "▁okinawa": 6953,
      "▁jerusalem": 6954,
      "##hus": 6955,
      "##aq": 6956,
      "##aid": 6957,
      "##oe": 6958,
      "##wr": 6959,
      "##rd": 6960,
      "##rim": 6961,
      "##don": 6962,
      "##33": 6963,
      "##.5": 6964,
      "##py": 6965,
      "##v.": 6966,
      "##zo": 6967,
      "▁ts": 6968,
      "▁www": 6969,
      "▁sher": 6970,
      "##rete": 6971,
      "##rels": 6972,
      "▁ox": 6973,
      "##inent": 6974,
      "##inity": 6975,
      "▁moo": 6976,
      "▁malf": 6977,
      "▁dur": 6978,
      "▁dia": 6979,
      "▁dub": 6980,
      "▁panc": 6981,
      "▁toll": 6982,
      "▁toler": 6983,
      "##anas": 6984,
      "##ania": 6985,
      "▁hut": 6986,
      "▁hint": 6987,
      "▁homes": 6988,
      "▁th-": 6989,
      "▁inner": 6990,
      "▁gap": 6991,
      "##asse": 6992,
      "▁youth": 6993,
      "▁''": 6994,
      "▁eol": 6995,
      "▁forty": 6996,
      "▁stem": 6997,
      "▁rum": 6998,
      "▁rays": 6999,
      "▁rising": 7000,
      "##ctic": 7001,
      "▁flash": 7002,
      "▁sha": 7003,
      "▁neil": 7004,
      "▁---": 7005,
      "▁chart": 7006,
      "▁chances": 7007,
      "▁conqu": 7008,
      "▁alban": 7009,
      "▁external": 7010,
      "##ola": 7011,
      "▁noble": 7012,
      "##igan": 7013,
      "▁teach": 7014,
      "##ferences": 7015,
      "▁unha": 7016,
      "▁enable": 7017,
      "▁clair": 7018,
      "▁nails": 7019,
      "##berg": 7020,
      "▁quoted": 7021,
      "▁rod": 7022,
      "▁evac": 7023,
      "##aves": 7024,
      "▁brush": 7025,
      "▁expired": 7026,
      "▁scream": 7027,
      "▁bobo": 7028,
      "▁boats": 7029,
      "▁perling": 7030,
      "▁resist": 7031,
      "▁indones": 7032,
      "▁guest": 7033,
      "▁drank": 7034,
      "▁poem": 7035,
      "▁mugg": 7036,
      "▁cried": 7037,
      "▁imper": 7038,
      "▁implic": 7039,
      "▁undert": 7040,
      "▁35": 7041,
      "▁findings": 7042,
      "▁monit": 7043,
      "##gging": 7044,
      "##issions": 7045,
      "▁.....": 7046,
      "▁polish": 7047,
      "▁42": 7048,
      "▁reput": 7049,
      "▁belt": 7050,
      "##bell": 7051,
      "##cience": 7052,
      "▁fox": 7053,
      "▁persist": 7054,
      "▁wondered": 7055,
      "▁instant": 7056,
      "▁warning": 7057,
      "▁obt": 7058,
      "▁surge": 7059,
      "▁inc.": 7060,
      "▁handed": 7061,
      "▁heading": 7062,
      "▁situ": 7063,
      "▁07": 7064,
      "▁restr": 7065,
      "▁smallest": 7066,
      "▁paraly": 7067,
      "▁artist": 7068,
      "▁articles": 7069,
      "▁deploy": 7070,
      "▁centuries": 7071,
      "▁engage": 7072,
      "▁monthly": 7073,
      "▁requires": 7074,
      "▁factors": 7075,
      "▁girlfriend": 7076,
      "▁badly": 7077,
      "▁meetings": 7078,
      "▁delight": 7079,
      "▁emper": 7080,
      "▁productivity": 7081,
      "▁sque": 7082,
      "▁concrete": 7083,
      "▁steam": 7084,
      "▁irr": 7085,
      "▁resulted": 7086,
      "▁picking": 7087,
      "▁checking": 7088,
      "▁supported": 7089,
      "▁dealing": 7090,
      "▁promote": 7091,
      "##ruction": 7092,
      "▁sentence": 7093,
      "▁chairman": 7094,
      "▁motiv": 7095,
      "▁bags": 7096,
      "▁exception": 7097,
      "▁previously": 7098,
      "▁argue": 7099,
      "▁initially": 7100,
      "▁educational": 7101,
      "▁silent": 7102,
      "▁facil": 7103,
      "▁faculty": 7104,
      "▁responsibilities": 7105,
      "▁annoy": 7106,
      "▁laughed": 7107,
      "▁preparing": 7108,
      "▁privile": 7109,
      "▁typically": 7110,
      "▁networks": 7111,
      "▁difficulties": 7112,
      "##/11": 7113,
      "▁ensuring": 7114,
      "▁destination": 7115,
      "▁division": 7116,
      "▁crossing": 7117,
      "▁illust": 7118,
      "▁correctly": 7119,
      "▁literally": 7120,
      "▁dinosaurs": 7121,
      "▁archibald": 7122,
      "▁jersey": 7123,
      "▁recognition": 7124,
      "▁recognized": 7125,
      "▁displayed": 7126,
      "▁bagh": 7127,
      "▁liberal": 7128,
      "▁behavi": 7129,
      "▁laughing": 7130,
      "▁wilbur": 7131,
      "▁defend": 7132,
      "▁impressed": 7133,
      "▁besides": 7134,
      "▁licensed": 7135,
      "##================================": 7136,
      "▁agricultural": 7137,
      "▁increasingly": 7138,
      "▁samuel": 7139,
      "▁comedy": 7140,
      "▁vegetables": 7141,
      "▁04:": 7142,
      "▁slipped": 7143,
      "##claimed": 7144,
      "▁giant": 7145,
      "▁framework": 7146,
      "▁strawberry": 7147,
      "▁recipient": 7148,
      "▁ultimately": 7149,
      "▁lipstick": 7150,
      "▁convenient": 7151,
      "▁dedic": 7152,
      "▁complicated": 7153,
      "▁sweden": 7154,
      "##.org/": 7155,
      "▁criminal": 7156,
      "▁arrogant": 7157,
      "▁squeeze": 7158,
      "▁wizard": 7159,
      "▁entertainment": 7160,
      "▁counterfeiting": 7161,
      "▁episode": 7162,
      "▁belgium": 7163,
      "▁tongue": 7164,
      "▁fallujah": 7165,
      "▁713-853-": 7166,
      "▁brazil": 7167,
      "##.xls": 7168,
      "##jamas": 7169,
      "▁pachomius": 7170,
      "▁enormous": 7171,
      "▁perlingiere": 7172,
      "##lined": 7173,
      "##lades": 7174,
      "##warts": 7175,
      "##ns": 7176,
      "##not": 7177,
      "##tw": 7178,
      "##cp": 7179,
      "##cer": 7180,
      "##dr": 7181,
      "##bal": 7182,
      "##-5": 7183,
      "##par": 7184,
      "##fish": 7185,
      "##,500": 7186,
      "##8/2000": 7187,
      "▁tire": 7188,
      "▁tens": 7189,
      "▁trop": 7190,
      "▁som": 7191,
      "▁sore": 7192,
      "▁bart": 7193,
      "▁cind": 7194,
      "▁cree": 7195,
      "▁cows": 7196,
      "▁mou": 7197,
      "▁mant": 7198,
      "##ndry": 7199,
      "▁dl": 7200,
      "▁dign": 7201,
      "▁dump": 7202,
      "▁p.": 7203,
      "▁pile": 7204,
      "▁pix": 7205,
      "##ener": 7206,
      "##orough": 7207,
      "▁lap": 7208,
      "▁andrew": 7209,
      "▁yield": 7210,
      "▁inch": 7211,
      "##arge": 7212,
      "##aroni": 7213,
      "▁gis": 7214,
      "▁gain": 7215,
      "▁eve": 7216,
      "##store": 7217,
      "##eter": 7218,
      "▁??": 7219,
      "▁whoo": 7220,
      "▁helic": 7221,
      "##otional": 7222,
      "▁fran": 7223,
      "▁frust": 7224,
      "▁doo": 7225,
      "▁forg": 7226,
      "##image": 7227,
      "▁rig": 7228,
      "##allel": 7229,
      "▁aside": 7230,
      "▁shame": 7231,
      "▁shift": 7232,
      "▁neare": 7233,
      "##chant": 7234,
      "##illas": 7235,
      "▁---------------------------------": 7236,
      "▁troub": 7237,
      "##esty": 7238,
      "▁sum": 7239,
      "▁suitc": 7240,
      "##abilities": 7241,
      "▁prosec": 7242,
      "▁lemon": 7243,
      "▁league": 7244,
      "##pport": 7245,
      "▁vul": 7246,
      "▁plain": 7247,
      "▁knee": 7248,
      "##outs": 7249,
      "▁outstanding": 7250,
      "▁usi": 7251,
      "▁unus": 7252,
      "▁graph": 7253,
      "▁anyways": 7254,
      "▁clown": 7255,
      "▁co-": 7256,
      "▁quidd": 7257,
      "▁manip": 7258,
      "▁aggress": 7259,
      "▁rode": 7260,
      "##itement": 7261,
      "##ahar": 7262,
      "##ousine": 7263,
      "▁airb": 7264,
      "▁locom": 7265,
      "▁disrupt": 7266,
      "▁firms": 7267,
      "▁betty": 7268,
      "▁compens": 7269,
      "▁denied": 7270,
      "▁contest": 7271,
      "▁contains": 7272,
      "▁lets": 7273,
      "▁backed": 7274,
      "▁download": 7275,
      "▁chess": 7276,
      "▁pre-": 7277,
      "▁guide": 7278,
      "▁writes": 7279,
      "▁finds": 7280,
      "▁dating": 7281,
      "▁greatly": 7282,
      "▁55": 7283,
      "▁1960": 7284,
      "▁48": 7285,
      "##bean": 7286,
      "▁conserv": 7287,
      "▁terre": 7288,
      "▁supply": 7289,
      "▁accum": 7290,
      "▁provision": 7291,
      "▁neverthe": 7292,
      "▁slice": 7293,
      "▁vegan": 7294,
      "▁06": 7295,
      "▁entity": 7296,
      "▁entering": 7297,
      "▁enthus": 7298,
      "▁retired": 7299,
      "▁reduce": 7300,
      "▁reduced": 7301,
      "▁possibility": 7302,
      "▁confusion": 7303,
      "▁sixteen": 7304,
      "▁holds": 7305,
      "▁median": 7306,
      "▁dolly": 7307,
      "▁funding": 7308,
      "▁crew": 7309,
      "▁advise": 7310,
      "▁slept": 7311,
      "▁processing": 7312,
      "▁friendship": 7313,
      "▁appeal": 7314,
      "▁stepped": 7315,
      "▁ansi": 7316,
      "▁constant": 7317,
      "▁checks": 7318,
      "▁connections": 7319,
      "▁losing": 7320,
      "▁discussing": 7321,
      "▁officers": 7322,
      "▁militant": 7323,
      "▁era": 7324,
      "▁rapport": 7325,
      "▁winning": 7326,
      "▁ahmed": 7327,
      "▁tourism": 7328,
      "##/2005": 7329,
      "▁responses": 7330,
      "▁representatives": 7331,
      "▁objective": 7332,
      "##onym": 7333,
      "▁palace": 7334,
      "▁diaper": 7335,
      "▁fillmore": 7336,
      "▁purposes": 7337,
      "▁higuch": 7338,
      "▁exciting": 7339,
      "▁participate": 7340,
      "▁execute": 7341,
      "▁budd": 7342,
      "▁terrorism": 7343,
      "▁sticks": 7344,
      "▁kingdom": 7345,
      "▁brothers": 7346,
      "▁jerome": 7347,
      "▁recognize": 7348,
      "▁influenced": 7349,
      "▁combination": 7350,
      "##engers": 7351,
      "▁blocks": 7352,
      "▁admitted": 7353,
      "▁violent": 7354,
      "▁consumer": 7355,
      "▁confirmed": 7356,
      "▁survive": 7357,
      "▁guns": 7358,
      "▁surrounding": 7359,
      "▁licensor": 7360,
      "▁poop": 7361,
      "▁borders": 7362,
      "▁banglades": 7363,
      "▁bucket": 7364,
      "▁spiritual": 7365,
      "▁procedures": 7366,
      "▁macaroni": 7367,
      "▁traditional": 7368,
      "▁evalu": 7369,
      "▁arrangements": 7370,
      "▁explorer": 7371,
      "▁coordin": 7372,
      "▁globe": 7373,
      "▁partnership": 7374,
      "▁description": 7375,
      "▁vehicle": 7376,
      "▁barely": 7377,
      "▁cupcakes": 7378,
      "▁smoking": 7379,
      "▁skiing": 7380,
      "▁dividends": 7381,
      "▁pirates": 7382,
      "▁feathers": 7383,
      "▁coalition": 7384,
      "▁phenomen": 7385,
      "▁spacetime": 7386,
      "▁insects": 7387,
      "▁joshua": 7388,
      "▁hogwarts": 7389,
      "▁understood": 7390,
      "▁alcohol": 7391,
      "▁emperor": 7392,
      "▁helicop": 7393,
      "▁quidditch": 7394,
      "▁nevertheless": 7395,
      "▁higuchi": 7396,
      "##lines": 7397,
      "##whel": 7398,
      "##wiki": 7399,
      "##nes": 7400,
      "##nets": 7401,
      "##rist": 7402,
      "##rate": 7403,
      "##uh": 7404,
      "##uine": 7405,
      "##ds": 7406,
      "##dad": 7407,
      "##ders": 7408,
      "##down": 7409,
      "##doc": 7410,
      "##met": 7411,
      "##27": 7412,
      "##-be": 7413,
      "##.j": 7414,
      "##kka": 7415,
      "##pet": 7416,
      "##fin": 7417,
      "##fit": 7418,
      "▁tons": 7419,
      "▁wise": 7420,
      "▁wipe": 7421,
      "▁theater": 7422,
      "▁sate": 7423,
      "▁sake": 7424,
      "##ini": 7425,
      "##inter": 7426,
      "##inte": 7427,
      "▁fame": 7428,
      "▁fulf": 7429,
      "##atures": 7430,
      "▁bands": 7431,
      "▁cu": 7432,
      "▁c.": 7433,
      "▁cord": 7434,
      "▁dies": 7435,
      "▁ps": 7436,
      "▁pant": 7437,
      "▁pag": 7438,
      "▁pian": 7439,
      "▁pier": 7440,
      "▁hiding": 7441,
      "##oral": 7442,
      "▁lor": 7443,
      "▁les": 7444,
      "▁lit": 7445,
      "▁lil": 7446,
      "##omy": 7447,
      "##itated": 7448,
      "##arians": 7449,
      "▁gel": 7450,
      "##iches": 7451,
      "##iculous": 7452,
      "▁eh": 7453,
      "▁elder": 7454,
      "##leen": 7455,
      "▁ongoing": 7456,
      "##otic": 7457,
      "▁reaction": 7458,
      "▁isda": 7459,
      "▁ua": 7460,
      "##entive": 7461,
      "▁habit": 7462,
      "▁doctors": 7463,
      "▁weird": 7464,
      "##ido": 7465,
      "##aco": 7466,
      "##acing": 7467,
      "##aching": 7468,
      "▁stard": 7469,
      "▁stones": 7470,
      "##aded": 7471,
      "##iment": 7472,
      "▁rus": 7473,
      "▁rag": 7474,
      "▁rip": 7475,
      "▁rick": 7476,
      "▁ripe": 7477,
      "##alled": 7478,
      "▁withdra": 7479,
      "▁sequ": 7480,
      "▁selling": 7481,
      "▁flour": 7482,
      "▁jes": 7483,
      "▁jill": 7484,
      "▁shade": 7485,
      "▁notion": 7486,
      "▁myster": 7487,
      "▁soda": 7488,
      "▁chalk": 7489,
      "▁chath": 7490,
      "▁wheels": 7491,
      "▁butt": 7492,
      "##istry": 7493,
      "##pel": 7494,
      "▁proof": 7495,
      "▁1,": 7496,
      "▁vital": 7497,
      "▁votes": 7498,
      "▁abroad": 7499,
      "##acks": 7500,
      "▁unity": 7501,
      "▁whoa": 7502,
      "▁grill": 7503,
      "▁manual": 7504,
      "▁prison": 7505,
      "▁theme": 7506,
      "▁pere": 7507,
      "▁agencies": 7508,
      "▁moves": 7509,
      "##ahoo": 7510,
      "▁becoming": 7511,
      "▁evil": 7512,
      "▁loans": 7513,
      "▁overwhel": 7514,
      "▁moments": 7515,
      "▁brian": 7516,
      "▁expansion": 7517,
      "▁resort": 7518,
      "##lands": 7519,
      "▁chee": 7520,
      "▁cheaper": 7521,
      "▁cheney": 7522,
      "▁pregn": 7523,
      "▁shoulders": 7524,
      "▁driven": 7525,
      "▁acting": 7526,
      "▁crash": 7527,
      "▁interconnect": 7528,
      "▁longest": 7529,
      "▁32": 7530,
      "▁33": 7531,
      "▁dates": 7532,
      "▁philipp": 7533,
      "▁regret": 7534,
      "▁register": 7535,
      "▁uhoh": 7536,
      "▁1980": 7537,
      "▁45": 7538,
      "▁marx": 7539,
      "##pected": 7540,
      "▁studio": 7541,
      "▁woke": 7542,
      "▁genuine": 7543,
      "▁invent": 7544,
      "▁invitation": 7545,
      "##box": 7546,
      "▁drag": 7547,
      "▁harb": 7548,
      "▁assert": 7549,
      "▁assault": 7550,
      "▁edwards": 7551,
      "▁parallel": 7552,
      "▁10:": 7553,
      "▁generators": 7554,
      "▁wednesdays": 7555,
      "▁grey": 7556,
      "▁800": 7557,
      "▁walks": 7558,
      "▁capt": 7559,
      "▁matthe": 7560,
      "▁extensive": 7561,
      "▁passengers": 7562,
      "▁developments": 7563,
      "▁filed": 7564,
      "▁films": 7565,
      "▁memo": 7566,
      "▁steak": 7567,
      "▁resulting": 7568,
      "▁supports": 7569,
      "##raph": 7570,
      "▁dealer": 7571,
      "▁opposed": 7572,
      "▁limousine": 7573,
      "▁stronger": 7574,
      "▁circles": 7575,
      "▁societ": 7576,
      "▁optim": 7577,
      "▁marketing": 7578,
      "▁debt": 7579,
      "▁tours": 7580,
      "▁latin": 7581,
      "▁donna": 7582,
      "▁facing": 7583,
      "▁observ": 7584,
      "▁supermark": 7585,
      "▁figures": 7586,
      "▁laundry": 7587,
      "▁senators": 7588,
      "▁photograp": 7589,
      "▁improved": 7590,
      "▁requests": 7591,
      "▁panel": 7592,
      "▁package": 7593,
      "▁establishing": 7594,
      "▁holiday": 7595,
      "▁links": 7596,
      "▁identify": 7597,
      "▁hoping": 7598,
      "▁self-": 7599,
      "▁execution": 7600,
      "▁achieving": 7601,
      "▁achieved": 7602,
      "▁managed": 7603,
      "▁crossed": 7604,
      "▁honor": 7605,
      "▁deliber": 7606,
      "▁terrorists": 7607,
      "▁sticker": 7608,
      "▁deeply": 7609,
      "▁vacc": 7610,
      "▁institution": 7611,
      "▁introduce": 7612,
      "▁michigan": 7613,
      "▁broadcast": 7614,
      "▁association": 7615,
      "▁songs": 7616,
      "▁radiation": 7617,
      "▁novels": 7618,
      "▁miramar": 7619,
      "▁applying": 7620,
      "▁communications": 7621,
      "▁farmer": 7622,
      "##clusive": 7623,
      "▁pilgr": 7624,
      "▁complaint": 7625,
      "▁bombs": 7626,
      "▁selected": 7627,
      "▁instructor": 7628,
      "##-1.doc": 7629,
      "▁referred": 7630,
      "▁photography": 7631,
      "▁ignore": 7632,
      "▁functional": 7633,
      "▁obvious": 7634,
      "▁targets": 7635,
      "▁mutation": 7636,
      "▁editor": 7637,
      "▁encouraged": 7638,
      "▁narrative": 7639,
      "▁malays": 7640,
      "▁producers": 7641,
      "▁extraord": 7642,
      "##________________________________": 7643,
      "▁cartoon": 7644,
      "▁crowded": 7645,
      "▁evaluation": 7646,
      "▁roughly": 7647,
      "▁interpre": 7648,
      "▁palestinians": 7649,
      "▁coordination": 7650,
      "▁powder": 7651,
      "▁maintaining": 7652,
      "▁bubbles": 7653,
      "▁unlikely": 7654,
      "▁chernobyl": 7655,
      "▁advertising": 7656,
      "▁groc": 7657,
      "▁quartile": 7658,
      "▁navy": 7659,
      "▁bernou": 7660,
      "▁schema": 7661,
      "▁harvest": 7662,
      "▁ozone": 7663,
      "▁bacon": 7664,
      "▁spectac": 7665,
      "▁kerry": 7666,
      "▁strategies": 7667,
      "▁correspond": 7668,
      "▁l'enf": 7669,
      "▁platform": 7670,
      "▁argentina": 7671,
      "▁judgments": 7672,
      "▁intellectual": 7673,
      "▁certificate": 7674,
      "▁unexpected": 7675,
      "▁assembly": 7676,
      "▁storage": 7677,
      "▁antonio": 7678,
      "▁phrase": 7679,
      "▁permanent": 7680,
      "▁refrigerator": 7681,
      "▁restriction": 7682,
      "▁paralymp": 7683,
      "▁baghdad": 7684,
      "▁l'enfant": 7685,
      "##hist": 7686,
      "##ae": 7687,
      "##lan": 7688,
      "##wi": 7689,
      "##wick": 7690,
      "##worm": 7691,
      "##iro": 7692,
      "##rary": 7693,
      "##rance": 7694,
      "##uable": 7695,
      "##mir": 7696,
      "##mers": 7697,
      "##65": 7698,
      "##.00": 7699,
      "##/99": 7700,
      "##/chernobyl": 7701,
      "##gie": 7702,
      "##gia": 7703,
      "##03": 7704,
      "##08": 7705,
      "##fth": 7706,
      "##zing": 7707,
      "##87": 7708,
      "▁tou": 7709,
      "▁tips": 7710,
      "▁awww": 7711,
      "▁wire": 7712,
      "▁wrest": 7713,
      "▁samples": 7714,
      "▁oath": 7715,
      "▁faster": 7716,
      "▁fishing": 7717,
      "▁fasc": 7718,
      "##atra": 7719,
      "##attered": 7720,
      "▁bicycle": 7721,
      "▁cp": 7722,
      "▁cous": 7723,
      "▁craft": 7724,
      "##oupe": 7725,
      "▁ml": 7726,
      "▁mall": 7727,
      "▁mild": 7728,
      "▁df": 7729,
      "▁dave": 7730,
      "▁diet": 7731,
      "▁toile": 7732,
      "▁tooth": 7733,
      "▁hom": 7734,
      "▁nom": 7735,
      "▁nur": 7736,
      "▁thread": 7737,
      "▁thorough": 7738,
      "▁lone": 7739,
      "▁yo": 7740,
      "▁yay": 7741,
      "▁yummy": 7742,
      "▁inex": 7743,
      "▁inev": 7744,
      "##llo": 7745,
      "##lley": 7746,
      "##itals": 7747,
      "##ari": 7748,
      "▁gor": 7749,
      "▁gate": 7750,
      "▁gained": 7751,
      "▁whis": 7752,
      "▁whist": 7753,
      "▁frost": 7754,
      "▁doz": 7755,
      "##rosh": 7756,
      "▁forb": 7757,
      "▁stability": 7758,
      "##ading": 7759,
      "▁rush": 7760,
      "▁ruth": 7761,
      "▁ripped": 7762,
      "▁anx": 7763,
      "▁seas": 7764,
      "▁kos": 7765,
      "▁kash": 7766,
      "▁asyl": 7767,
      "▁shares": 7768,
      "##cend": 7769,
      "▁soap": 7770,
      "▁sovere": 7771,
      "▁sush": 7772,
      "▁chain": 7773,
      "▁champ": 7774,
      "##aine": 7775,
      "▁al.": 7776,
      "▁prol": 7777,
      "▁excess": 7778,
      "▁exists": 7779,
      "##olit": 7780,
      "##andra": 7781,
      "▁leash": 7782,
      "##umes": 7783,
      "▁abc": 7784,
      "▁abd": 7785,
      "▁abst": 7786,
      "##eless": 7787,
      "##unia": 7788,
      "##osen": 7789,
      "▁sheep": 7790,
      "▁sheikh": 7791,
      "▁wanting": 7792,
      "▁usa": 7793,
      "▁uncom": 7794,
      "▁sail": 7795,
      "▁enl": 7796,
      "▁adapt": 7797,
      "▁manuela": 7798,
      "▁feb": 7799,
      "▁fever": 7800,
      "▁prince": 7801,
      "▁prize": 7802,
      "▁aged": 7803,
      "▁roar": 7804,
      "▁roles": 7805,
      "▁moist": 7806,
      "##ailand": 7807,
      "▁scoo": 7808,
      "▁bozo": 7809,
      "▁partner": 7810,
      "▁carn": 7811,
      "▁bless": 7812,
      "▁resolution": 7813,
      "▁residents": 7814,
      "▁indo": 7815,
      "##ression": 7816,
      "▁crus": 7817,
      "▁criter": 7818,
      "▁impart": 7819,
      "▁interior": 7820,
      "▁cafe": 7821,
      "▁buses": 7822,
      "▁strat": 7823,
      "▁transit": 7824,
      "▁transactions": 7825,
      "▁eaten": 7826,
      "##issance": 7827,
      "##issipp": 7828,
      "##ocado": 7829,
      "▁.......": 7830,
      "▁awake": 7831,
      "##athan": 7832,
      "▁lasted": 7833,
      "▁posada": 7834,
      "▁worldwide": 7835,
      "▁charges": 7836,
      "▁persu": 7837,
      "▁avocado": 7838,
      "▁obtain": 7839,
      "##ificent": 7840,
      "▁province": 7841,
      "▁nights": 7842,
      "##!!!": 7843,
      "▁handling": 7844,
      "▁funeral": 7845,
      "▁functions": 7846,
      "▁drawn": 7847,
      "▁assets": 7848,
      "▁assigned": 7849,
      "▁lego": 7850,
      "▁legacy": 7851,
      "▁parake": 7852,
      "▁visible": 7853,
      "▁artists": 7854,
      "▁artistic": 7855,
      "▁broom": 7856,
      "▁define": 7857,
      "▁locations": 7858,
      "▁factory": 7859,
      "▁swinging": 7860,
      "▁weekday": 7861,
      "▁confused": 7862,
      "▁passport": 7863,
      "▁fallen": 7864,
      "▁valuable": 7865,
      "##idding": 7866,
      "▁muscle": 7867,
      "▁sunny": 7868,
      "▁landed": 7869,
      "▁departure": 7870,
      "▁cerem": 7871,
      "▁ceiling": 7872,
      "▁horiz": 7873,
      "▁receipt": 7874,
      "▁technological": 7875,
      "▁shortly": 7876,
      "▁southwest": 7877,
      "▁universities": 7878,
      "▁mississipp": 7879,
      "▁electrical": 7880,
      "▁urg": 7881,
      "▁increases": 7882,
      "▁patience": 7883,
      "▁modify": 7884,
      "▁sooner": 7885,
      "▁cups": 7886,
      "▁grandma": 7887,
      "▁sounded": 7888,
      "▁bananas": 7889,
      "▁1998": 7890,
      "▁firef": 7891,
      "▁consideration": 7892,
      "▁deaths": 7893,
      "▁suggestion": 7894,
      "▁organized": 7895,
      "▁periods": 7896,
      "▁collecting": 7897,
      "▁defining": 7898,
      "▁educated": 7899,
      "▁anticip": 7900,
      "▁accounts": 7901,
      "▁addressed": 7902,
      "▁involving": 7903,
      "▁climbing": 7904,
      "▁attacked": 7905,
      "▁turtle": 7906,
      "▁paniot": 7907,
      "▁measured": 7908,
      "▁layout": 7909,
      "▁ladies": 7910,
      "▁civic": 7911,
      "##/16": 7912,
      "##509": 7913,
      "▁sonnets": 7914,
      "▁hopes": 7915,
      "▁risks": 7916,
      "▁attempted": 7917,
      "▁cross-": 7918,
      "▁coverage": 7919,
      "▁audio": 7920,
      "▁ille": 7921,
      "▁civilized": 7922,
      "▁statue": 7923,
      "▁proposals": 7924,
      "▁implemented": 7925,
      "▁islamists": 7926,
      "▁essentially": 7927,
      "▁hyd": 7928,
      "▁conversations": 7929,
      "▁scenes": 7930,
      "▁scenario": 7931,
      "▁regularly": 7932,
      "▁jacket": 7933,
      "▁appropri": 7934,
      "▁hence": 7935,
      "▁horror": 7936,
      "▁1.5": 7937,
      "▁strengt": 7938,
      "▁ruin": 7939,
      "▁gallery": 7940,
      "▁distribute": 7941,
      "▁distributed": 7942,
      "▁relationships": 7943,
      "▁mcdon": 7944,
      "▁impression": 7945,
      "▁hunting": 7946,
      "▁insurg": 7947,
      "▁occasionally": 7948,
      "##while": 7949,
      "▁cartoons": 7950,
      "▁extend": 7951,
      "▁twelfth": 7952,
      "▁mushroom": 7953,
      "▁ethnic": 7954,
      "▁satisfied": 7955,
      "▁newspapers": 7956,
      "▁sharp": 7957,
      "▁virgin": 7958,
      "▁integrated": 7959,
      "##ijing": 7960,
      "##????????": 7961,
      "▁journals": 7962,
      "▁installed": 7963,
      "▁fisher": 7964,
      "▁expanding": 7965,
      "▁transmission": 7966,
      "▁awarded": 7967,
      "▁lux": 7968,
      "▁conducted": 7969,
      "▁rebu": 7970,
      "▁jenna": 7971,
      "▁struggle": 7972,
      "▁09:": 7973,
      "▁concluded": 7974,
      "▁syrian": 7975,
      "▁inhab": 7976,
      "▁quantity": 7977,
      "▁magnificent": 7978,
      "▁casual": 7979,
      "▁restrictions": 7980,
      "▁involvement": 7981,
      "▁mobile": 7982,
      "▁surprisingly": 7983,
      "▁biden": 7984,
      "▁victim": 7985,
      "▁gloria": 7986,
      "▁unemployment": 7987,
      "▁adequate": 7988,
      "▁fyi": 7989,
      "▁pacific": 7990,
      "▁suspic": 7991,
      "##.co.uk": 7992,
      "▁calend": 7993,
      "▁mystery": 7994,
      "▁soviet": 7995,
      "▁malfoy": 7996,
      "▁unhappy": 7997,
      "▁suitcase": 7998,
      "▁vulner": 7999,
      "▁unusual": 8000,
      "▁graphic": 8001,
      "▁satell": 8002,
      "▁piano": 8003,
      "▁stardust": 8004,
      "▁matthew": 8005,
      "▁bernoulli": 8006,
      "▁kashmir": 8007,
      "▁asylum": 8008,
      "▁sushi": 8009,
      "▁ceremony": 8010,
      "▁mississippi": 8011,
      "▁paniotis": 8012,
      "▁virginia": 8013,
      "▁`": 8014,
      "▁**": 8015,
      "##ais": 8016,
      "##lv": 8017,
      "##nal": 8018,
      "##tc": 8019,
      "##tical": 8020,
      "##sing": 8021,
      "##cut": 8022,
      "##case": 8023,
      "##ique": 8024,
      "##rin": 8025,
      "##rons": 8026,
      "##rier": 8027,
      "##upt": 8028,
      "##.b": 8029,
      "##.3": 8030,
      "##.cl": 8031,
      "##04": 8032,
      "##fall": 8033,
      "##72": 8034,
      "▁tid": 8035,
      "▁tap": 8036,
      "▁iq": 8037,
      "▁.doc": 8038,
      "▁wid": 8039,
      "▁wore": 8040,
      "▁wra": 8041,
      "▁therap": 8042,
      "▁theories": 8043,
      "▁s.": 8044,
      "▁sisters": 8045,
      "##rer": 8046,
      "▁oven": 8047,
      "▁bent": 8048,
      "▁mort": 8049,
      "▁d'": 8050,
      "▁dor": 8051,
      "▁dick": 8052,
      "▁dated": 8053,
      "▁dumb": 8054,
      "▁dying": 8055,
      "▁pace": 8056,
      "▁pale": 8057,
      "▁toxic": 8058,
      "▁hook": 8059,
      "▁nida": 8060,
      "##ena": 8061,
      "▁thailand": 8062,
      "▁l.": 8063,
      "▁lamb": 8064,
      "▁lenn": 8065,
      "##eds": 8066,
      "##eded": 8067,
      "##ishes": 8068,
      "##llah": 8069,
      "▁gently": 8070,
      "▁ginger": 8071,
      "▁gira": 8072,
      "▁ell": 8073,
      "▁eager": 8074,
      "##sty": 8075,
      "##stone": 8076,
      "▁hee": 8077,
      "▁revers": 8078,
      "▁renat": 8079,
      "▁beet": 8080,
      "▁beep": 8081,
      "▁beaches": 8082,
      "▁hack": 8083,
      "▁fries": 8084,
      "▁fried": 8085,
      "▁stamp": 8086,
      "▁staring": 8087,
      "▁stroll": 8088,
      "##irs": 8089,
      "▁rwww": 8090,
      "▁rhy": 8091,
      "##ilst": 8092,
      "##ilty": 8093,
      "▁lips": 8094,
      "▁jur": 8095,
      "▁shore": 8096,
      "##chi": 8097,
      "##illion": 8098,
      "▁myce": 8099,
      "▁socot": 8100,
      "##oph": 8101,
      "▁sufa": 8102,
      "▁chasing": 8103,
      "▁chips": 8104,
      "▁chosen": 8105,
      "##gel": 8106,
      "▁conform": 8107,
      "##abled": 8108,
      "▁alph": 8109,
      "▁alert": 8110,
      "▁lege": 8111,
      "▁leaf": 8112,
      "▁ves": 8113,
      "▁vent": 8114,
      "▁vig": 8115,
      "##ateful": 8116,
      "▁abund": 8117,
      "▁worn": 8118,
      "##aks": 8119,
      "▁ariz": 8120,
      "▁armed": 8121,
      "▁knight": 8122,
      "▁outcome": 8123,
      "##ivals": 8124,
      "##asts": 8125,
      "▁grit": 8126,
      "▁cohes": 8127,
      "▁mann": 8128,
      "##agger": 8129,
      "▁herm": 8130,
      "▁rope": 8131,
      "▁rober": 8132,
      "▁mold": 8133,
      "▁phase": 8134,
      "▁evident": 8135,
      "▁offensive": 8136,
      "▁loving": 8137,
      "▁overse": 8138,
      "▁goode": 8139,
      "▁bran": 8140,
      "▁composition": 8141,
      "▁scar": 8142,
      "▁containing": 8143,
      "▁carriage": 8144,
      "▁chef": 8145,
      "▁spears": 8146,
      "##ishment": 8147,
      "▁guilty": 8148,
      "▁drum": 8149,
      "▁pointing": 8150,
      "▁actor": 8151,
      "▁apples": 8152,
      "▁interrupt": 8153,
      "▁remote": 8154,
      "▁strip": 8155,
      "▁monster": 8156,
      "▁kevin": 8157,
      "▁arranged": 8158,
      "##air@enron.com": 8159,
      "▁regul": 8160,
      "▁hipp": 8161,
      "▁hirosh": 8162,
      "▁happiness": 8163,
      "▁attitude": 8164,
      "##ictions": 8165,
      "▁19th": 8166,
      "▁poland": 8167,
      "▁202": 8168,
      "▁20th": 8169,
      "▁glue": 8170,
      "##comes": 8171,
      "▁elite": 8172,
      "▁marvel": 8173,
      "▁emma": 8174,
      "##mec": 8175,
      "▁relation": 8176,
      "▁perspective": 8177,
      "▁avenue": 8178,
      "▁holy": 8179,
      "▁hokka": 8180,
      "##uces": 8181,
      "▁sets": 8182,
      "▁incident": 8183,
      "▁impe": 8184,
      "▁invite": 8185,
      "▁classroom": 8186,
      "▁ending": 8187,
      "▁headed": 8188,
      "▁entry": 8189,
      "▁retail": 8190,
      "▁continent": 8191,
      "▁founded": 8192,
      "▁vision": 8193,
      "##/26": 8194,
      "▁curious": 8195,
      "▁possibilities": 8196,
      "▁pete": 8197,
      "▁petunia": 8198,
      "▁easter": 8199,
      "▁hardly": 8200,
      "▁simpl": 8201,
      "▁extrem": 8202,
      "▁discip": 8203,
      "▁jeep": 8204,
      "▁trains": 8205,
      "▁geomet": 8206,
      "▁freeze": 8207,
      "▁valent": 8208,
      "▁snap": 8209,
      "▁funded": 8210,
      "▁publication": 8211,
      "▁breaks": 8212,
      "▁158": 8213,
      "▁drawer": 8214,
      "▁propose": 8215,
      "▁12:": 8216,
      "▁120": 8217,
      "▁grows": 8218,
      "▁poster": 8219,
      "▁travelling": 8220,
      "▁intense": 8221,
      "▁indiana": 8222,
      "▁shortest": 8223,
      "▁equality": 8224,
      "▁tested": 8225,
      "▁dealt": 8226,
      "▁politic": 8227,
      "▁customs": 8228,
      "▁recorded": 8229,
      "▁condem": 8230,
      "▁operator": 8231,
      "##naissance": 8232,
      "▁messages": 8233,
      "▁colorado": 8234,
      "▁grandpa": 8235,
      "▁cookie": 8236,
      "▁parks": 8237,
      "▁rocket": 8238,
      "▁cloth": 8239,
      "##oked": 8240,
      "▁debbie": 8241,
      "▁fifteenth": 8242,
      "▁acceptance": 8243,
      "▁obsf": 8244,
      "▁represented": 8245,
      "▁representation": 8246,
      "▁kittens": 8247,
      "▁climbed": 8248,
      "▁affairs": 8249,
      "▁portland": 8250,
      "▁industries": 8251,
      "▁devoted": 8252,
      "▁applicable": 8253,
      "##books": 8254,
      "▁employed": 8255,
      "▁midnight": 8256,
      "▁tastes": 8257,
      "▁holidays": 8258,
      "▁existed": 8259,
      "▁listened": 8260,
      "▁deterior": 8261,
      "▁courtney": 8262,
      "▁heaven": 8263,
      "▁imagination": 8264,
      "▁managers": 8265,
      "▁notebook": 8266,
      "▁compete": 8267,
      "▁merchant": 8268,
      "▁arabia": 8269,
      "▁institute": 8270,
      "▁corporation": 8271,
      "▁murders": 8272,
      "▁joseph": 8273,
      "▁corners": 8274,
      "##ourage": 8275,
      "▁mixture": 8276,
      "▁broader": 8277,
      "▁radical": 8278,
      "▁versions": 8279,
      "▁carol.st": 8280,
      "▁combined": 8281,
      "▁rolled": 8282,
      "▁talent": 8283,
      "▁tigers": 8284,
      "▁drops": 8285,
      "▁weekends": 8286,
      "▁pocketbook": 8287,
      "▁ninety": 8288,
      "▁admit": 8289,
      "▁utter": 8290,
      "##393": 8291,
      "##3989": 8292,
      "▁grape": 8293,
      "▁maximum": 8294,
      "▁scratch": 8295,
      "▁routes": 8296,
      "▁engineering": 8297,
      "▁locked": 8298,
      "▁survival": 8299,
      "▁searching": 8300,
      "▁distribution": 8301,
      "▁racial": 8302,
      "▁guardia": 8303,
      "▁reportedly": 8304,
      "▁tasks": 8305,
      "▁remarks": 8306,
      "▁principles": 8307,
      "▁pooh": 8308,
      "##46-3": 8309,
      "▁initiated": 8310,
      "▁constitutional": 8311,
      "▁prospect": 8312,
      "▁produces": 8313,
      "▁occasions": 8314,
      "▁exerc": 8315,
      "▁knocked": 8316,
      "▁mechanism": 8317,
      "▁spokes": 8318,
      "▁arrested": 8319,
      "▁maintained": 8320,
      "▁yogurt": 8321,
      "▁commitment": 8322,
      "▁submitted": 8323,
      "▁demonstrate": 8324,
      "▁ribbon": 8325,
      "▁technique": 8326,
      "▁victor": 8327,
      "▁victory": 8328,
      "▁colonial": 8329,
      "▁architecture": 8330,
      "▁shiite": 8331,
      "▁battery": 8332,
      "▁racket": 8333,
      "▁subscribe": 8334,
      "▁cosm": 8335,
      "##ipedia": 8336,
      "▁perceived": 8337,
      "▁incredibly": 8338,
      "▁dramatic": 8339,
      "▁crayons": 8340,
      "▁3889": 8341,
      "▁aesthetic": 8342,
      "▁inquir": 8343,
      "##webber": 8344,
      "▁seventeenth": 8345,
      "▁astron": 8346,
      "▁abbas": 8347,
      "▁sauce": 8348,
      "▁dentist": 8349,
      "▁nephe": 8350,
      "▁ought": 8351,
      "▁altogether": 8352,
      "▁browser": 8353,
      "▁painewebber": 8354,
      "▁census": 8355,
      "▁neuro": 8356,
      "▁choices": 8357,
      "▁convinced": 8358,
      "▁713-646-3": 8359,
      "▁reputation": 8360,
      "▁713-853-3989": 8361,
      "▁nearest": 8362,
      "▁bangladesh": 8363,
      "▁extraordinary": 8364,
      "▁spectacular": 8365,
      "▁toilet": 8366,
      "▁criteria": 8367,
      "▁strengthen": 8368,
      "▁mcdonald": 8369,
      "▁satellite": 8370,
      "##.clair@enron.com": 8371,
      "▁lennon": 8372,
      "▁giraffe": 8373,
      "▁renata": 8374,
      "▁socotra": 8375,
      "▁sufaat": 8376,
      "▁arizona": 8377,
      "▁hiroshima": 8378,
      "▁hokkaido": 8379,
      "▁carol.st.clair@enron.com": 8380,
      "▁713-646-3393": 8381,
      "##wright": 8382,
      "##emp": 8383,
      "##nb": 8384,
      "##tie": 8385,
      "##tieth": 8386,
      "##cas": 8387,
      "##ii": 8388,
      "##iant": 8389,
      "##rich": 8390,
      "##rina": 8391,
      "##dle": 8392,
      "##mus": 8393,
      "##-h": 8394,
      "##-2": 8395,
      "##91": 8396,
      "##400": 8397,
      "##5/2001": 8398,
      "##pir": 8399,
      "##/8": 8400,
      "##/30": 8401,
      "##view": 8402,
      "##field": 8403,
      "##79": 8404,
      "##ja": 8405,
      "##&e": 8406,
      "▁tact": 8407,
      "▁ay": 8408,
      "▁a.": 8409,
      "▁ie": 8410,
      "▁sought": 8411,
      "▁sss": 8412,
      "▁signing": 8413,
      "▁fake": 8414,
      "▁fits": 8415,
      "▁bure": 8416,
      "▁borrow": 8417,
      "▁bwi": 8418,
      "▁cau": 8419,
      "##eration": 8420,
      "▁mop": 8421,
      "▁mice": 8422,
      "▁mous": 8423,
      "▁math": 8424,
      "▁maps": 8425,
      "▁dre": 8426,
      "▁dil": 8427,
      "▁dess": 8428,
      "▁dio": 8429,
      "▁pione": 8430,
      "##online": 8431,
      "##anes": 8432,
      "▁ht": 8433,
      "▁hay": 8434,
      "▁hmm": 8435,
      "▁naked": 8436,
      "##esc": 8437,
      "##esota": 8438,
      "▁lav": 8439,
      "##isc": 8440,
      "##isy": 8441,
      "▁inequ": 8442,
      "▁gest": 8443,
      "▁gum": 8444,
      "▁gem": 8445,
      "▁goose": 8446,
      "▁gcp": 8447,
      "##ashes": 8448,
      "##ico": 8449,
      "▁it's": 8450,
      "##star": 8451,
      "##stream": 8452,
      "##eting": 8453,
      "▁heel": 8454,
      "▁heels": 8455,
      "▁hedge": 8456,
      "▁reward": 8457,
      "▁reception": 8458,
      "▁renaissance": 8459,
      "▁bean": 8460,
      "▁dobby": 8461,
      "##see": 8462,
      "▁forum": 8463,
      "##amon": 8464,
      "▁rand": 8465,
      "▁rud": 8466,
      "▁raw": 8467,
      "▁rides": 8468,
      "##ilton": 8469,
      "▁ko": 8470,
      "▁ketch": 8471,
      "▁shy": 8472,
      "▁sharing": 8473,
      "▁shipping": 8474,
      "▁shirts": 8475,
      "▁neo": 8476,
      "##cho": 8477,
      "▁dean": 8478,
      "##herlands": 8479,
      "▁sock": 8480,
      "▁orche": 8481,
      "▁tray": 8482,
      "▁suffe": 8483,
      "▁chose": 8484,
      "▁allerg": 8485,
      "##abil": 8486,
      "##abeth": 8487,
      "##ules": 8488,
      "▁exha": 8489,
      "##ander": 8490,
      "▁lev": 8491,
      "▁vom": 8492,
      "▁vary": 8493,
      "▁venture": 8494,
      "##umin": 8495,
      "##apse": 8496,
      "▁araf": 8497,
      "##osh": 8498,
      "##osing": 8499,
      "▁outs": 8500,
      "▁upset": 8501,
      "▁ambit": 8502,
      "▁shed": 8503,
      "##oodle": 8504,
      "##asty": 8505,
      "▁grace": 8506,
      "▁adap": 8507,
      "▁coco": 8508,
      "▁cozy": 8509,
      "##agraph": 8510,
      "▁moreover": 8511,
      "▁pee": 8512,
      "##ahu": 8513,
      "▁phill": 8514,
      "▁offering": 8515,
      "▁workforce": 8516,
      "▁acade": 8517,
      "▁accomp": 8518,
      "##asses": 8519,
      "▁bron": 8520,
      "▁brid": 8521,
      "▁brad": 8522,
      "▁brill": 8523,
      "▁brus": 8524,
      "▁firstly": 8525,
      "▁expense": 8526,
      "▁scot": 8527,
      "▁scrib": 8528,
      "▁boil": 8529,
      "▁bondad": 8530,
      "▁deny": 8531,
      "##wear": 8532,
      "▁contrast": 8533,
      "▁blink": 8534,
      "▁blame": 8535,
      "▁blown": 8536,
      "##class": 8537,
      "▁prest": 8538,
      "##ressed": 8539,
      "▁playwright": 8540,
      "▁pod": 8541,
      "▁buzz": 8542,
      "▁crap": 8543,
      "▁imprison": 8544,
      "▁intercept": 8545,
      "▁morior": 8546,
      "▁causing": 8547,
      "##lium": 8548,
      "▁opens": 8549,
      "▁straps": 8550,
      "▁stranger": 8551,
      "▁keen": 8552,
      "▁keys": 8553,
      "▁regulations": 8554,
      "▁57": 8555,
      "##ront": 8556,
      "▁intend": 8557,
      "▁20,000": 8558,
      "▁apolog": 8559,
      "▁homeop": 8560,
      "▁marl": 8561,
      "▁marry": 8562,
      "##meal": 8563,
      "▁persons": 8564,
      "▁72": 8565,
      "▁instr": 8566,
      "▁genius": 8567,
      "▁warrant": 8568,
      "▁surre": 8569,
      "▁surve": 8570,
      "▁decre": 8571,
      "▁questar": 8572,
      "▁imf": 8573,
      "▁wax": 8574,
      "▁specify": 8575,
      "▁assured": 8576,
      "▁vend": 8577,
      "▁mets": 8578,
      "▁reduction": 8579,
      "▁reducing": 8580,
      "▁trips": 8581,
      "▁particles": 8582,
      "▁fault": 8583,
      "▁deficiency": 8584,
      "▁switch": 8585,
      "▁swallow": 8586,
      "▁harder": 8587,
      "##play": 8588,
      "▁sixteenth": 8589,
      "▁presidential": 8590,
      "▁universe": 8591,
      "▁explos": 8592,
      "▁insight": 8593,
      "▁insult": 8594,
      "▁snakes": 8595,
      "▁barb": 8596,
      "▁haircut": 8597,
      "▁sunlight": 8598,
      "▁thirtieth": 8599,
      "▁memorial": 8600,
      "▁iraqis": 8601,
      "▁waitress": 8602,
      "▁landing": 8603,
      "▁landsc": 8604,
      "▁movements": 8605,
      "▁traveled": 8606,
      "▁profit": 8607,
      "##ippy": 8608,
      "▁winds": 8609,
      "▁potter": 8610,
      "▁agreements": 8611,
      "▁sweat": 8612,
      "▁laser": 8613,
      "▁1990": 8614,
      "▁1997": 8615,
      "▁enrononline": 8616,
      "▁organizations": 8617,
      "▁georgia": 8618,
      "▁argued": 8619,
      "▁knees": 8620,
      "▁acceptable": 8621,
      "▁scientist": 8622,
      "▁faced": 8623,
      "▁facility": 8624,
      "▁absent": 8625,
      "▁superior": 8626,
      "▁figured": 8627,
      "▁practices": 8628,
      "▁microsc": 8629,
      "▁privacy": 8630,
      "▁midwest": 8631,
      "▁recover": 8632,
      "▁netherlands": 8633,
      "▁computers": 8634,
      "▁describes": 8635,
      "▁destruction": 8636,
      "▁videos": 8637,
      "▁heavily": 8638,
      "▁executed": 8639,
      "▁mosle": 8640,
      "▁epist": 8641,
      "##sylv": 8642,
      "▁merry": 8643,
      "▁feeding": 8644,
      "▁encoun": 8645,
      "▁citizen": 8646,
      "▁wildlife": 8647,
      "▁discovery": 8648,
      "▁minnesota": 8649,
      "▁contribute": 8650,
      "▁contributions": 8651,
      "▁challenging": 8652,
      "▁influential": 8653,
      "▁rolls": 8654,
      "▁flew": 8655,
      "▁miracle": 8656,
      "▁tracking": 8657,
      "▁butterf": 8658,
      "▁candy": 8659,
      "▁reflects": 8660,
      "▁ruby": 8661,
      "▁mathematic": 8662,
      "▁translated": 8663,
      "▁indicated": 8664,
      "▁achievement": 8665,
      "▁achievements": 8666,
      "▁impacts": 8667,
      "▁librarians": 8668,
      "▁frequent": 8669,
      "▁updates": 8670,
      "▁settings": 8671,
      "▁settlers": 8672,
      "▁pushing": 8673,
      "▁acquired": 8674,
      "▁mathematical": 8675,
      "▁cracker": 8676,
      "▁03:": 8677,
      "▁occasion": 8678,
      "▁volley": 8679,
      "▁tort": 8680,
      "▁vanilla": 8681,
      "▁primarily": 8682,
      "▁pennsylv": 8683,
      "▁australian": 8684,
      "▁guidance": 8685,
      "##smith": 8686,
      "▁permission": 8687,
      "▁drugs": 8688,
      "▁vegetable": 8689,
      "▁boost": 8690,
      "▁assessment": 8691,
      "▁assuming": 8692,
      "▁motorcy": 8693,
      "▁revealed": 8694,
      "▁referen": 8695,
      "▁jamie": 8696,
      "▁rarely": 8697,
      "##.net/": 8698,
      "▁pipeline": 8699,
      "▁lifetime": 8700,
      "##********************************": 8701,
      "▁shocked": 8702,
      "▁precisely": 8703,
      "▁linguistic": 8704,
      "▁linguistics": 8705,
      "▁kissed": 8706,
      "▁philosophy": 8707,
      "▁innocent": 8708,
      "▁delete": 8709,
      "▁consciousness": 8710,
      "▁vehicles": 8711,
      "▁negotiations": 8712,
      "▁detective": 8713,
      "▁pumpkin": 8714,
      "▁wishes": 8715,
      "▁qualified": 8716,
      "▁explanation": 8717,
      "▁administrator": 8718,
      "▁tamil": 8719,
      "▁disappear": 8720,
      "▁pledge": 8721,
      "▁hindu": 8722,
      "▁cancel": 8723,
      "▁nineteenth": 8724,
      "▁desperate": 8725,
      "▁geographical": 8726,
      "▁ansi-92": 8727,
      "▁cabinet": 8728,
      "▁prosperous": 8729,
      "▁alt.animals.": 8730,
      "▁tragedies": 8731,
      "▁distinction": 8732,
      "▁eliminate": 8733,
      "▁linda": 8734,
      "▁fruits": 8735,
      "▁guerr": 8736,
      "##news/": 8737,
      "▁reconciliation": 8738,
      "▁www.": 8739,
      "▁pancakes": 8740,
      "▁albania": 8741,
      "▁obtained": 8742,
      "▁situations": 8743,
      "▁tropical": 8744,
      "▁cindy": 8745,
      "▁rapporteur": 8746,
      "▁pierre": 8747,
      "▁carnival": 8748,
      "▁stratford": 8749,
      "▁rebuild": 8750,
      "▁calendar": 8751,
      "▁legend": 8752,
      "▁vessel": 8753,
      "▁cohesion": 8754,
      "▁roberts": 8755,
      "▁bureau": 8756,
      "▁dessert": 8757,
      "▁ketchup": 8758,
      "▁suffered": 8759,
      "▁arafat": 8760,
      "▁academy": 8761,
      "▁moriori": 8762,
      "▁pennsylvania": 8763,
      "##hanie": 8764,
      "##oard": 8765,
      "##tra": 8766,
      "##can": 8767,
      "##cury": 8768,
      "##i.": 8769,
      "##iences": 8770,
      "##rous": 8771,
      "##mond": 8772,
      "##26": 8773,
      "##-9": 8774,
      "##43": 8775,
      "##.1": 8776,
      "##ko": 8777,
      "##put": 8778,
      "##zed": 8779,
      "▁tat": 8780,
      "▁ties": 8781,
      "▁tale": 8782,
      "▁az": 8783,
      "##herent": 8784,
      "▁igu": 8785,
      "▁wy": 8786,
      "▁w-": 8787,
      "▁wing": 8788,
      "##reced": 8789,
      "▁om": 8790,
      "▁oat": 8791,
      "##inal": 8792,
      "##inations": 8793,
      "##athered": 8794,
      "▁bc": 8795,
      "▁bust": 8796,
      "▁bol": 8797,
      "▁cave": 8798,
      "▁cinn": 8799,
      "▁mim": 8800,
      "▁mood": 8801,
      "▁mwww": 8802,
      "▁mcc": 8803,
      "##nders": 8804,
      "##ndous": 8805,
      "▁dal": 8806,
      "▁damp": 8807,
      "▁pc": 8808,
      "▁pom": 8809,
      "▁pope": 8810,
      "▁pony": 8811,
      "▁p.m.": 8812,
      "▁poodle": 8813,
      "▁hr": 8814,
      "▁hong": 8815,
      "▁hoc": 8816,
      "▁n-": 8817,
      "##eness": 8818,
      "##orous": 8819,
      "▁lis": 8820,
      "▁lant": 8821,
      "▁lined": 8822,
      "▁laughter": 8823,
      "▁andre": 8824,
      "##isd": 8825,
      "##itis": 8826,
      "##alities": 8827,
      "▁ewww": 8828,
      "##leum": 8829,
      "▁onion": 8830,
      "##ett": 8831,
      "##ethe": 8832,
      "##etary": 8833,
      "##oty": 8834,
      "▁react": 8835,
      "▁reaches": 8836,
      "▁isol": 8837,
      "##uther": 8838,
      "▁ug": 8839,
      "▁beings": 8840,
      "▁welf": 8841,
      "##id=": 8842,
      "##keley": 8843,
      "##acam": 8844,
      "##acious": 8845,
      "▁stol": 8846,
      "##americ": 8847,
      "▁mecca": 8848,
      "▁ray": 8849,
      "▁rivers": 8850,
      "##ili": 8851,
      "▁sear": 8852,
      "▁flir": 8853,
      "▁floy": 8854,
      "▁jar": 8855,
      "##ante": 8856,
      "##antics": 8857,
      "▁ka": 8858,
      "▁ku": 8859,
      "▁kil": 8860,
      "▁asy": 8861,
      "▁shackle": 8862,
      "▁notch": 8863,
      "▁sox": 8864,
      "▁trot": 8865,
      "▁trim": 8866,
      "▁trag": 8867,
      "##opher": 8868,
      "▁cham": 8869,
      "▁chill": 8870,
      "##abama": 8871,
      "##isted": 8872,
      "▁alabama": 8873,
      "▁prohib": 8874,
      "▁lex": 8875,
      "▁leban": 8876,
      "##ivet": 8877,
      "▁comic": 8878,
      "##ppers": 8879,
      "▁vint": 8880,
      "##uman": 8881,
      "▁abuse": 8882,
      "▁plaint": 8883,
      "##eling": 8884,
      "▁worship": 8885,
      "##apa": 8886,
      "##unction": 8887,
      "▁arctic": 8888,
      "▁outdo": 8889,
      "▁ups": 8890,
      "##ardon": 8891,
      "##rape": 8892,
      "##inea": 8893,
      "▁grid": 8894,
      "▁grim": 8895,
      "▁hasid": 8896,
      "▁clip": 8897,
      "##berries": 8898,
      "▁quix": 8899,
      "▁newly": 8900,
      "▁pew": 8901,
[...]
