{
  "version": "1.0",
  "truncation": null,
  "padding": null,
  "added_tokens": [
    {
      "id": 0,
      "content": "[UNK]",
      "single_word": false,
      "lstrip": false,
      "rstrip": false,
      "normalized": false,
      "special": true
    },
    {
      "id": 1,
      "content": "[PAD]",
      "single_word": false,
      "lstrip": false,
      "rstrip": false,
      "normalized": false,
      "special": true
    },
    {
      "id": 2,
      "content": "[CLS]",
      "single_word": false,
      "lstrip": false,
      "rstrip": false,
      "normalized": false,
      "special": true
    },
    {
      "id": 3,
      "content": "[SEP]",
      "single_word": false,
      "lstrip": false,
      "rstrip": false,
      "normalized": false,
      "special": true
    },
    {
      "id": 4,
      "content": "[MASK]",
      "single_word": false,
      "lstrip": false,
      "rstrip": false,
      "normalized": false,
      "special": true
    }
  ],
  "normalizer": {
    "type": "Sequence",
    "normalizers": [
      {
        "type": "NFD"
      },
      {
        "type": "Lowercase"
      },
      {
        "type": "StripAccents"
      }
    ]
  },
  "pre_tokenizer": {
    "type": "Sequence",
    "pretokenizers": [
      {
        "type": "Metaspace",
        "replacement": "▁",
        "prepend_scheme": "always",
        "split": true
      }
    ]
  },
  "post_processor": {
    "type": "TemplateProcessing",
    "single": [
      {
        "SpecialToken": {
          "id": "[CLS]",
          "type_id": 0
        }
      },
      {
        "Sequence": {
          "id": "A",
          "type_id": 0
        }
      },
      {
        "SpecialToken": {
          "id": "[SEP]",
          "type_id": 0
        }
      }
    ],
    "pair": [
      {
        "SpecialToken": {
          "id": "[CLS]",
          "type_id": 0
        }
      },
      {
        "Sequence": {
          "id": "A",
          "type_id": 0
        }
      },
      {
        "SpecialToken": {
          "id": "[SEP]",
          "type_id": 0
        }
      },
      {
        "Sequence": {
          "id": "B",
          "type_id": 1
        }
      },
      {
        "SpecialToken": {
          "id": "[SEP]",
          "type_id": 1
        }
      }
    ],
    "special_tokens": {
      "[CLS]": {
        "id": "[CLS]",
        "ids": [
          2
        ],
        "tokens": [
          "[CLS]"
        ]
      },
      "[SEP]": {
        "id": "[SEP]",
        "ids": [
          3
        ],
        "tokens": [
          "[SEP]"
        ]
      }
    }
  },
  "decoder": {
    "type": "Metaspace",
    "replacement": "▁",
    "prepend_scheme": "always",
    "split": true
  },
  "model": {
    "type": "Unigram",
    "unk_id": 0,
    "vocab": [
      [
        "[UNK]",
        0.0
      ],
      [
        "[PAD]",
        0.0
      ],
      [
        "[CLS]",
        0.0
      ],
      [
        "[SEP]",
        0.0
      ],
      [
        "[MASK]",
        0.0
      ],
      [
        "▁",
        -2.0466397831729584
      ],
      [
        ".",
        -3.176454784668941
      ],
      [
        "s",
        -3.3938003175468356
      ],
      [
        "▁the",
        -3.5046991171242023
      ],
      [
        ",",
        -3.76365513656218
      ],
      [
        "▁to",
        -4.000949922980743
      ],
      [
        "▁and",
        -4.195075613356847
      ],
      [
        "▁a",
        -4.322746048335967
      ],
      [
        "_",
        -4.364378893076227
      ],
      [
        "▁of",
        -4.4170169340251135
      ],
      [
        "▁i",
        -4.436121206357226
      ],
      [
        "ing",
        -4.541582479678892
      ],
      [
        "▁in",
        -4.575396389564061
      ],
      [
        "d",
        -4.585510865741151
      ],
      [
        "▁you",
        -4.603834800890116
      ],
      [
        "y",
        -4.780165449110367
      ],
      [
        "▁it",
        -4.79038746332442
      ],
      [
        "?",
        -4.793029703447148
      ],
      [
        "▁that",
        -4.798317973067217
      ],
      [
        "ed",
        -4.849200446774862
      ],
      [
        "▁is",
        -5.036757641731869
      ],
      [
        "▁'s",
        -5.074255149827067
      ],
      [
        "a",
        -5.172632206996591
      ],
      [
        "e",
        -5.2804087098486185
      ],
      [
        "▁from",
        -5.287600493595628
      ],
      [
        "▁on",
        -5.303075572960957
      ],
      [
        "▁for",
        -5.309116410365201
      ],
      [
        "▁do",
        -5.336417587670697
      ],
      [
        "ly",
        -5.37606694414152
      ],
      [
        "t",
        -5.4136120419192615
      ],
      [
        "▁what",
        -5.422714375419281
      ],
      [
        "▁be",
        -5.456325690073363
      ],
      [
        "▁this",
        -5.515212389031063
      ],
      [
        "▁was",
        -5.519964960039866
      ],
      [
        "▁with",
        -5.552735427971658
      ],
      [
        "▁he",
        -5.578902355350587
      ],
      [
        "▁are",
        -5.670585823411361
      ],
      [
        "▁have",
        -5.675675957271219
      ],
      [
        "▁we",
        -5.678587470636733
      ],
      [
        "n't",
        -5.687494345751906
      ],
      [
        "'",
        -5.69791237218706
      ],
      [
        "▁flight",
        -5.771230885872228
      ],
      [
        "▁me",
        -5.805475790355791
      ],
      [
        "i",
        -5.822626604763089
      ],
      [
        "▁not",
        -5.829041916476582
      ],
      [
        "h",
        -5.837096947183404
      ],
      [
        "▁my",
        -5.8512054572114955
      ],
      [
        "n",
        -5.880248800027786
      ],
      [
        "▁like",
        -5.901971189245534
      ],
      [
        "\"",
        -5.934748378758229
      ],
      [
        "▁go",
        -5.964849592083608
      ],
      [
        "▁there",
        -5.99377227920026
      ],
      [
        "▁they",
        -6.013626547248745
      ],
      [
        "▁at",
        -6.026738939546834
      ],
      [
        "▁but",
        -6.044928882866897
      ],
      [
        "▁as",
        -6.0451909085912625
      ],
      [
        "▁can",
        -6.057812807186721
      ],
      [
        "▁all",
        -6.083531731148368
      ],
      [
        "▁-",
        -6.088418376470525
      ],
      [
        "o",
        -6.099435172105691
      ],
      [
        "▁one",
        -6.108360094512522
      ],
      [
        "m",
        -6.14173608580037
      ],
      [
        "▁your",
        -6.154752372465256
      ],
      [
        "▁so",
        -6.190443623465541
      ],
      [
        "▁no",
        -6.202498004707452
      ],
      [
        "▁or",
        -6.2077430275437475
      ],
      [
        "▁by",
        -6.292054291838881
      ],
      [
        "▁his",
        -6.299969808460438
      ],
      [
        ")",
        -6.344521074308627
      ],
      [
        "▁get",
        -6.413956927486894
      ],
      [
        "▁will",
        -6.423128530889784
      ],
      [
        "▁had",
        -6.430262981440579
      ],
      [
        "▁woul",
        -6.441062479121446
      ],
      [
        "▁if",
        -6.459314493937774
      ],
      [
        "▁want",
        -6.466565961680173
      ],
      [
        "▁did",
        -6.47995228820703
      ],
      [
        "▁(",
        -6.489062899109638
      ],
      [
        "on",
        -6.490276733689724
      ],
      [
        "▁up",
        -6.504632328374172
      ],
      [
        "▁some",
        -6.505007785415164
      ],
      [
        "▁an",
        -6.517087582455872
      ],
      [
        "▁she",
        -6.5223504206217475
      ],
      [
        "▁know",
        -6.530136735429033
      ],
      [
        "▁how",
        -6.531298795116666
      ],
      [
        "▁see",
        -6.565974373121194
      ],
      [
        "▁out",
        -6.602424756383199
      ],
      [
        "▁when",
        -6.634914779375889
      ],
      [
        "▁!",
        -6.640625500226976
      ],
      [
        "▁just",
        -6.647044629713284
      ],
      [
        "▁about",
        -6.651854976910557
      ],
      [
        "▁has",
        -6.659617431850629
      ],
      [
        "▁show",
        -6.703749007683352
      ],
      [
        "▁any",
        -6.720078089471042
      ],
      [
        "▁here",
        -6.7203394208458676
      ],
      [
        "▁which",
        -6.734537332188516
      ],
      [
        "▁were",
        -6.735370223980284
      ],
      [
        "▁who",
        -6.7447421331058335
      ],
      [
        "▁look",
        -6.767181933757329
      ],
      [
        "▁na",
        -6.768452163045747
      ],
      [
        "r",
        -6.7707801202339954
      ],
      [
        "▁now",
        -6.777978103685124
      ],
      [
        "▁c",
        -6.813132137666708
      ],
      [
        "▁her",
        -6.815038845914754
      ],
      [
        "▁them",
        -6.825890605967615
      ],
      [
        "▁:",
        -6.835626335266342
      ],
      [
        "▁more",
        -6.841887101628786
      ],
      [
        "▁time",
        -6.858419524296419
      ],
      [
        "'re",
        -6.867019542382629
      ],
      [
        "▁him",
        -6.870536514777913
      ],
      [
        "▁other",
        -6.8755042882441
      ],
      [
        "▁new",
        -6.8764505901126975
      ],
      [
        "▁where",
        -6.877968780924814
      ],
      [
        "es",
        -6.880013315540632
      ],
      [
        "cause",
        -6.889549980760941
      ],
      [
        "▁their",
        -6.905705495532724
      ],
      [
        "▁think",
        -6.913753618501014
      ],
      [
        "▁us",
        -6.943034006369046
      ],
      [
        "▁make",
        -6.952191415687482
      ],
      [
        "▁need",
        -6.957842413121002
      ],
      [
        "▁de",
        -6.9587715293028864
      ],
      [
        "▁been",
        -6.969885573392917
      ],
      [
        "▁bo",
        -6.974534521671931
      ],
      [
        "▁two",
        -6.99278396675698
      ],
      [
        "▁put",
        -7.000973394107741
      ],
      [
        "al",
        -7.001284639615568
      ],
      [
        "er",
        -7.006817303694723
      ],
      [
        "▁san",
        -7.011991271418761
      ],
      [
        "▁oh",
        -7.017309436252784
      ],
      [
        "ies",
        -7.021259070530782
      ],
      [
        "▁very",
        -7.022414044157137
      ],
      [
        "▁good",
        -7.031018540322677
      ],
      [
        "▁right",
        -7.03536727503053
      ],
      [
        "▁first",
        -7.039963815423602
      ],
      [
        "ston",
        -7.048951926644601
      ],
      [
        "ould",
        -7.073471571612073
      ],
      [
        "-",
        -7.075052996303214
      ],
      [
        "▁over",
        -7.107334540522353
      ],
      [
        "▁take",
        -7.110246659040467
      ],
      [
        "▁people",
        -7.112734944700834
      ],
      [
        "▁our",
        -7.118677120917589
      ],
      [
        "▁well",
        -7.121282078994356
      ],
      [
        "▁may",
        -7.139420696748728
      ],
      [
        "▁after",
        -7.156725897919881
      ],
      [
        "ll",
        -7.159422764198055
      ],
      [
        "▁got",
        -7.162247882375623
      ],
      [
        "▁back",
        -7.169488373264437
      ],
      [
        "▁down",
        -7.1750822815402975
      ],
      [
        "▁say",
        -7.175472533684433
      ],
      [
        "▁way",
        -7.1882892408522325
      ],
      [
        "▁yea",
        -7.192910988698574
      ],
      [
        "ve",
        -7.20592530755942
      ],
      [
        "▁sai",
        -7.210264450252219
      ],
      [
        "▁into",
        -7.218668919027153
      ],
      [
        "▁real",
        -7.234297920635302
      ],
      [
        "▁these",
        -7.240161047499184
      ],
      [
        "▁day",
        -7.246192434290969
      ],
      [
        "▁francisco",
        -7.254081082397696
      ],
      [
        "▁come",
        -7.280076821667237
      ],
      [
        "▁work",
        -7.283838330371073
      ],
      [
        "▁please",
        -7.290524663606278
      ],
      [
        "▁let",
        -7.308691543148913
      ],
      [
        "l",
        -7.309967517645032
      ],
      [
        "it",
        -7.314189152521195
      ],
      [
        "▁every",
        -7.3221124980979395
      ],
      [
        "als",
        -7.328161772202982
      ],
      [
        "▁only",
        -7.336586398162423
      ],
      [
        "▁al",
        -7.340889200569237
      ],
      [
        "thing",
        -7.349098982555434
      ],
      [
        "▁should",
        -7.354143558196923
      ],
      [
        "one",
        -7.364763409183515
      ],
      [
        "f",
        -7.373759716514294
      ],
      [
        "▁too",
        -7.375516782005616
      ],
      [
        "nver",
        -7.380066788344021
      ],
      [
        "▁doe",
        -7.389174511825637
      ],
      [
        "▁list",
        -7.394317875393271
      ],
      [
        "and",
        -7.400230271411289
      ],
      [
        "▁again",
        -7.404808176333734
      ],
      [
        "▁bet",
        -7.404858284688686
      ],
      [
        "▁oka",
        -7.409256148430963
      ],
      [
        "▁am",
        -7.4095902854324205
      ],
      [
        "▁before",
        -7.412922605347871
      ],
      [
        "ween",
        -7.419923720135456
      ],
      [
        "▁play",
        -7.421064630067381
      ],
      [
        "more",
        -7.427051184039418
      ],
      [
        "round",
        -7.441164986546062
      ],
      [
        "▁atlant",
        -7.441671626675922
      ],
      [
        "▁than",
        -7.447351955417246
      ],
      [
        "▁give",
        -7.460558368962879
      ],
      [
        "sburg",
        -7.461200928839682
      ],
      [
        "▁mommy",
        -7.4622314718070735
      ],
      [
        "able",
        -7.4768785797437936
      ],
      [
        "▁off",
        -7.48514757308013
      ],
      [
        "▁little",
        -7.486872568307651
      ],
      [
        "▁thing",
        -7.489812394626026
      ],
      [
        "▁wan",
        -7.494930554781594
      ],
      [
        "▁long",
        -7.506869580047781
      ],
      [
        "▁many",
        -7.516263228698278
      ],
      [
        "▁;",
        -7.516743289199643
      ],
      [
        "is",
        -7.522656941139765
      ],
      [
        "▁use",
        -7.536092816640506
      ],
      [
        "▁call",
        -7.537440396094197
      ],
      [
        "▁even",
        -7.541131686698704
      ],
      [
        "▁gon",
        -7.5522313449457945
      ],
      [
        "▁pitt",
        -7.563226435572832
      ],
      [
        "▁place",
        -7.575336315316776
      ],
      [
        "▁great",
        -7.576623932608074
      ],
      [
        "allas",
        -7.576817096170869
      ],
      [
        "▁’",
        -7.5774191516003135
      ],
      [
        "▁why",
        -7.582596842558596
      ],
      [
        "▁find",
        -7.583191004924747
      ],
      [
        "▁car",
        -7.604665774412334
      ],
      [
        "▁muc",
        -7.606065658631375
      ],
      [
        "▁something",
        -7.634409423821544
      ],
      [
        "▁ta",
        -7.635453280510747
      ],
      [
        "c",
        -7.637085993994381
      ],
      [
        "▁–",
        -7.637399494934151
      ],
      [
        "▁tell",
        -7.642380203100915
      ],
      [
        "self",
        -7.648061498250026
      ],
      [
        "▁year",
        -7.655958593312318
      ],
      [
        "▁mean",
        -7.657406705918514
      ],
      [
        "ce",
        -7.6587468067456825
      ],
      [
        "▁help",
        -7.662314590511189
      ],
      [
        "in",
        -7.665175598395719
      ],
      [
        "▁ca",
        -7.684889780376125
      ],
      [
        "ation",
        -7.6955018085242575
      ],
      [
        "▁big",
        -7.699531016692082
      ],
      [
        "▁airline",
        -7.708613341265263
      ],
      [
        "▁morning",
        -7.710308969515755
      ],
      [
        "▁phil",
        -7.714026434052484
      ],
      [
        "▁name",
        -7.714036054728607
      ],
      [
        "▁state",
        -7.721925560869369
      ],
      [
        "▁city",
        -7.730701060238668
      ],
      [
        "▁balti",
        -7.740594794199456
      ],
      [
        "▁try",
        -7.745267030278208
      ],
      [
        "adelphi",
        -7.746613037969319
      ],
      [
        "▁eat",
        -7.7655003862104515
      ],
      [
        "ever",
        -7.77073987294774
      ],
      [
        "▁um",
        -7.774386724132929
      ],
      [
        "▁last",
        -7.774896342981731
      ],
      [
        "▁most",
        -7.782450473873419
      ],
      [
        "▁another",
        -7.785634290706521
      ],
      [
        "▁home",
        -7.78651798584699
      ],
      [
        "▁pm",
        -7.788746847868328
      ],
      [
        "▁through",
        -7.796015621177411
      ],
      [
        "▁made",
        -7.804359698095519
      ],
      [
        "/",
        -7.817646442902488
      ],
      [
        "]",
        -7.828419606671337
      ],
      [
        "▁world",
        -7.831044244954309
      ],
      [
        "th",
        -7.8325835556435415
      ],
      [
        "k",
        -7.839669828861391
      ],
      [
        "▁still",
        -7.84737090871575
      ],
      [
        "us",
        -7.848845191098928
      ],
      [
        "▁american",
        -7.852248400228806
      ],
      [
        "—",
        -7.852757081140938
      ],
      [
        "▁talk",
        -7.860741734483219
      ],
      [
        "le",
        -7.863197761725922
      ],
      [
        "w",
        -7.8748086075091965
      ],
      [
        "▁leave",
        -7.876126318554677
      ],
      [
        "▁kind",
        -7.877372658549123
      ],
      [
        "▁part",
        -7.884275828175171
      ],
      [
        "▁...",
        -7.885190258598477
      ],
      [
        "▁dadd",
        -7.885206168116542
      ],
      [
        "▁number",
        -7.9028439780130935
      ],
      [
        "ity",
        -7.905430828394265
      ],
      [
        "▁[",
        -7.918719435036676
      ],
      [
        "▁yes",
        -7.920857671087448
      ],
      [
        "▁under",
        -7.9228061151072335
      ],
      [
        "today",
        -7.926354604454421
      ],
      [
        "▁b",
        -7.936311222889925
      ],
      [
        "▁house",
        -7.936778711711945
      ],
      [
        "▁start",
        -7.937367920262902
      ],
      [
        "▁read",
        -7.941769469065762
      ],
      [
        "▁school",
        -7.94660985760396
      ],
      [
        "washington",
        -7.94664405887515
      ],
      [
        "▁fare",
        -7.972119733737108
      ],
      [
        "▁un",
        -7.979492651409208
      ],
      [
        "▁food",
        -7.982701132527662
      ],
      [
        "▁best",
        -7.985941871655571
      ],
      [
        "▁went",
        -7.993318527729761
      ],
      [
        "u",
        -7.993814455201732
      ],
      [
        "▁fly",
        -7.994130866549619
      ],
      [
        "uch",
        -7.999559015909621
      ],
      [
        "out",
        -8.001612386135866
      ],
      [
        "▁ask",
        -8.005398957598857
      ],
      [
        "▁whil",
        -8.007895572600859
      ],
      [
        "be",
        -8.012887513664992
      ],
      [
        "▁book",
        -8.014157366853587
      ],
      [
        "▁man",
        -8.021647686887992
      ],
      [
        "hose",
        -8.024438912522092
      ],
      [
        "▁three",
        -8.026422028415023
      ],
      [
        "▁high",
        -8.032344782194523
      ],
      [
        "▁sam",
        -8.034352164052539
      ],
      [
        "▁leav",
        -8.042385480131122
      ],
      [
        "▁love",
        -8.04318246261273
      ],
      [
        "▁service",
        -8.05806239787039
      ],
      [
        "▁never",
        -8.061843209366526
      ],
      [
        "▁lot",
        -8.062715162741412
      ],
      [
        "▁its",
        -8.065015120753623
      ],
      [
        "▁2",
        -8.07166667261911
      ],
      [
        "▁--",
        -8.079538671985553
      ],
      [
        "▁united",
        -8.080332997788325
      ],
      [
        "▁air",
        -8.082212405827573
      ],
      [
        "information",
        -8.084205547865707
      ],
      [
        "▁uh",
        -8.089007643192755
      ],
      [
        "▁water",
        -8.09152461447309
      ],
      [
        "▁1",
        -8.093767725008496
      ],
      [
        "▁own",
        -8.103144985562711
      ],
      [
        "▁hear",
        -8.106418914442441
      ],
      [
        "▁night",
        -8.11255834052459
      ],
      [
        "years",
        -8.11745973437607
      ],
      [
        "▁open",
        -8.127520159773159
      ],
      [
        "▁class",
        -8.129576888703848
      ],
      [
        "▁life",
        -8.132498721273317
      ],
      [
        "▁room",
        -8.145374527907247
      ],
      [
        "▁week",
        -8.156588578244541
      ],
      [
        "▁being",
        -8.156987943434629
      ],
      [
        "or",
        -8.163610171752197
      ],
      [
        "▁baby",
        -8.181563067768518
      ],
      [
        "▁dat",
        -8.184656674997683
      ],
      [
        "▁away",
        -8.187377659019443
      ],
      [
        "▁$",
        -8.193099744129935
      ],
      [
        "▁old",
        -8.195534158777715
      ],
      [
        "▁keep",
        -8.195897290255504
      ],
      [
        "ld",
        -8.20105646236028
      ],
      [
        "▁per",
        -8.206959114869576
      ],
      [
        "▁else",
        -8.210631704494226
      ],
      [
        "▁sure",
        -8.213236303367236
      ],
      [
        "▁group",
        -8.219025472879089
      ],
      [
        "▁turn",
        -8.219882727384313
      ],
      [
        "▁end",
        -8.22002322975813
      ],
      [
        "▁alway",
        -8.222895568663088
      ],
      [
        "ment",
        -8.226364395169437
      ],
      [
        "”",
        -8.232246465402955
      ],
      [
        "▁thought",
        -8.238214188928957
      ],
      [
        "▁must",
        -8.238369682910896
      ],
      [
        "▁both",
        -8.239806267022658
      ],
      [
        "▁transport",
        -8.242116492920356
      ],
      [
        "▁change",
        -8.242330555913618
      ],
      [
        "est",
        -8.242938864677008
      ],
      [
        "▁small",
        -8.243356881553614
      ],
      [
        "▁large",
        -8.243788836865747
      ],
      [
        "▁“",
        -8.248116125864648
      ],
      [
        "▁wednesday",
        -8.248748475186419
      ],
      [
        "▁point",
        -8.251451781553069
      ],
      [
        "▁hand",
        -8.25281396733348
      ],
      [
        "▁better",
        -8.258951130957858
      ],
      [
        "▁haf",
        -8.26612246928503
      ],
      [
        "▁nice",
        -8.270604721170983
      ],
      [
        "▁different",
        -8.271888184141522
      ],
      [
        "ok",
        -8.273883544507534
      ],
      [
        "▁feel",
        -8.276095291900997
      ],
      [
        "▁trip",
        -8.279829783719446
      ],
      [
        "▁ground",
        -8.281089757816389
      ],
      [
        "www",
        -8.285550444319483
      ],
      [
        "ember",
        -8.286347510487314
      ],
      [
        "p",
        -8.28658566940404
      ],
      [
        "nex",
        -8.28966796459957
      ],
      [
        "▁month",
        -8.294153974411502
      ],
      [
        "▁few",
        -8.294236178919897
      ],
      [
        "each",
        -8.299653886031884
      ],
      [
        "▁might",
        -8.30699060366952
      ],
      [
        "▁seem",
        -8.310016150462767
      ],
      [
        "▁since",
        -8.313303715016165
      ],
      [
        "▁head",
        -8.318675440361758
      ],
      [
        "▁remember",
        -8.32119539054722
      ],
      [
        "▁thank",
        -8.322637857397641
      ],
      [
        "▁game",
        -8.32796689384149
      ],
      [
        "▁light",
        -8.338527335372905
      ],
      [
        "▁live",
        -8.340205700537316
      ],
      [
        "land",
        -8.344187021726848
      ],
      [
        "▁problem",
        -8.346557588181769
      ],
      [
        "▁york",
        -8.357629022536582
      ],
      [
        "▁walk",
        -8.360655794153411
      ],
      [
        "used",
        -8.364579008339646
      ],
      [
        "done",
        -8.365250698238425
      ],
      [
        "▁stop",
        -8.370455784657707
      ],
      [
        "body",
        -8.370874884285374
      ],
      [
        "ady",
        -8.376024336116913
      ],
      [
        "▁stay",
        -8.377546069250748
      ],
      [
        "▁came",
        -8.37877575423639
      ],
      [
        "▁hard",
        -8.379234825362264
      ],
      [
        "▁price",
        -8.379492076740384
      ],
      [
        "g",
        -8.379847914714135
      ],
      [
        "▁5",
        -8.380032960145975
      ],
      [
        "ally",
        -8.385776460684793
      ],
      [
        "at",
        -8.387523457917935
      ],
      [
        "▁3",
        -8.38774483617021
      ],
      [
        "▁watch",
        -8.388602316815625
      ],
      [
        "▁wait",
        -8.390970717804166
      ],
      [
        "▁dis",
        -8.393521934371892
      ],
      [
        "▁alre",
        -8.396519865146505
      ],
      [
        "▁second",
        -8.398168140017631
      ],
      [
        "▁found",
        -8.399462602351178
      ],
      [
        "▁roman",
        -8.40666961969561
      ],
      [
        "▁girl",
        -8.408491558830704
      ],
      [
        "ness",
        -8.410586128466514
      ],
      [
        "▁actual",
        -8.411783220606274
      ],
      [
        "▁far",
        -8.413100163988101
      ],
      [
        "▁line",
        -8.415280038197537
      ],
      [
        "▁close",
        -8.415629302485044
      ],
      [
        "ary",
        -8.419434602193345
      ],
      [
        "▁order",
        -8.421133718945692
      ],
      [
        "▁though",
        -8.421968206810803
      ],
      [
        "1",
        -8.42516225935358
      ],
      [
        "’",
        -8.42886133336103
      ],
      [
        "▁eye",
        -8.429825990764737
      ],
      [
        "▁wo",
        -8.432721165759562
      ],
      [
        "▁guy",
        -8.433897300003448
      ],
      [
        "▁base",
        -8.435236238141776
      ],
      [
        "▁happen",
        -8.436373737133023
      ],
      [
        "▁famil",
        -8.437684708668625
      ],
      [
        "thos",
        -8.440934942507432
      ],
      [
        "▁10",
        -8.442494768574916
      ],
      [
        "▁president",
        -8.446258220688499
      ],
      [
        "an",
        -8.45082340986138
      ],
      [
        "▁bush",
        -8.451943993178002
      ],
      [
        "▁adam",
        -8.453143294421725
      ],
      [
        "▁availab",
        -8.459817238453601
      ],
      [
        "▁bad",
        -8.462166623755579
      ],
      [
        "less",
        -8.465912099574219
      ],
      [
        "▁data",
        -8.468323185395455
      ],
      [
        "▁thanks",
        -8.472284556009411
      ],
      [
        "▁dog",
        -8.482944032532828
      ],
      [
        "▁mr",
        -8.486533838376058
      ],
      [
        "ting",
        -8.4874929990351
      ],
      [
        "▁set",
        -8.487957221301787
      ],
      [
        "later",
        -8.488854940332384
      ],
      [
        "▁area",
        -8.489335319099506
      ],
      [
        "▁afternoon",
        -8.489767289474509
      ],
      [
        "3",
        -8.495209623083525
      ],
      [
        "4",
        -8.497184973440628
      ],
      [
        "▁train",
        -8.498774347145105
      ],
      [
        "ver",
        -8.50010988243576
      ],
      [
        "x",
        -8.502571046098787
      ],
      [
        "▁provide",
        -8.507229351316056
      ],
      [
        "▁person",
        -8.514508726103333
      ],
      [
        "▁paper",
        -8.516125031192361
      ],
      [
        "▁mak",
        -8.518715104049061
      ],
      [
        "▁case",
        -8.524013985561282
      ],
      [
        "▁four",
        -8.526808266544048
      ],
      [
        "▁move",
        -8.528027737960205
      ],
      [
        "▁interest",
        -8.52997282390238
      ],
      [
        "▁laura",
        -8.531459633094038
      ],
      [
        "st.",
        -8.535817058810505
      ],
      [
        "▁milk",
        -8.53626824166071
      ],
      [
        "▁early",
        -8.536431212628864
      ],
      [
        "▁left",
        -8.537826782562261
      ],
      [
        "▁saw",
        -8.53886646042428
      ],
      [
        "▁business",
        -8.540329946057794
      ],
      [
        "▁government",
        -8.540341689474555
      ],
      [
        "▁minute",
        -8.541795566412253
      ],
      [
        "v",
        -8.544279474598657
      ],
      [
        "▁arriv",
        -8.544589292582778
      ],
      [
        "▁airport",
        -8.549333804763101
      ],
      [
        "▁oakl",
        -8.549734695862028
      ],
      [
        "▁war",
        -8.54991738832188
      ],
      [
        "▁office",
        -8.554712071928812
      ],
      [
        "▁4",
        -8.555502779056887
      ],
      [
        "▁los",
        -8.55644671076043
      ],
      [
        "▁possibl",
        -8.558786535128942
      ],
      [
        "▁face",
        -8.559788333256584
      ],
      [
        "▁earlie",
        -8.564262518148444
      ],
      [
        "▁monday",
        -8.567418112506346
      ],
      [
        "▁write",
        -8.569027857274385
      ],
      [
        "ether",
        -8.57025553762083
      ],
      [
        "▁dur",
        -8.573033858755396
      ],
      [
        "▁experience",
        -8.57353282695747
      ],
      [
        "▁mother",
        -8.574516733789753
      ],
      [
        "▁w",
        -8.57976785430725
      ],
      [
        "▁mom",
        -8.581820179939214
      ],
      [
        "▁five",
        -8.584954809794233
      ],
      [
        "▁probabl",
        -8.585500746306765
      ],
      [
        "▁thursday",
        -8.585886254959618
      ],
      [
        "▁believe",
        -8.586651888030634
      ],
      [
        "ive",
        -8.58737742201571
      ],
      [
        "▁form",
        -8.587455696552711
      ],
      [
        "uh",
        -8.587833302135742
      ],
      [
        "man",
        -8.589452557376262
      ],
      [
        "▁arrive",
        -8.591438058580412
      ],
      [
        "▁full",
        -8.599278203230309
      ],
      [
        "▁leas",
        -8.599583277155766
      ],
      [
        "▁example",
        -8.599971024597544
      ],
      [
        "once",
        -8.602055690481645
      ],
      [
        "▁money",
        -8.604737382301447
      ],
      [
        "▁bit",
        -8.604972012505018
      ],
      [
        "▁hey",
        -8.608188789883393
      ],
      [
        "▁country",
        -8.610260889929094
      ],
      [
        "▁friend",
        -8.61327385083148
      ],
      [
        "▁prett",
        -8.617354959277025
      ],
      [
        "▁red",
        -8.618956611025503
      ],
      [
        "▁fall",
        -8.61904009723887
      ],
      [
        "▁cost",
        -8.61912606136065
      ],
      [
        "▁buy",
        -8.62445538726257
      ],
      [
        "ough",
        -8.625940181782862
      ],
      [
        "▁hope",
        -8.632097127575523
      ],
      [
        "b",
        -8.633075776839156
      ],
      [
        "▁learn",
        -8.636679837188176
      ],
      [
        "2",
        -8.637073103313856
      ],
      [
        "▁grow",
        -8.637553323713533
      ],
      [
        "5",
        -8.637560549336385
      ],
      [
        "▁20",
        -8.641060278474495
      ],
      [
        "▁return",
        -8.642455529359111
      ],
      [
        "where",
        -8.651422300678918
      ],
      [
        "▁den",
        -8.653456277216973
      ],
      [
        "▁father",
        -8.653670546975912
      ],
      [
        "▁until",
        -8.654457387155402
      ],
      [
        "▁white",
        -8.655854056889714
      ],
      [
        "▁job",
        -8.658879690607233
      ],
      [
        "▁question",
        -8.660027573547755
      ],
      [
        "0",
        -8.660986401086838
      ],
      [
        "▁sit",
        -8.66291472721624
      ],
      [
        "▁piece",
        -8.663579984396883
      ],
      [
        "▁re",
        -8.663730201741043
      ],
      [
        "▁en",
        -8.664326747368992
      ],
      [
        "ion",
        -8.66599501983152
      ],
      [
        "▁bring",
        -8.666067118564044
      ],
      [
        "▁system",
        -8.667844623743195
      ],
      [
        "▁fact",
        -8.66955636563646
      ],
      [
        "having",
        -8.67066064193705
      ],
      [
        "▁access",
        -8.671684051148553
      ],
      [
        "▁public",
        -8.678164399013726
      ],
      [
        "▁tuesday",
        -8.678636044919156
      ],
      [
        "▁hair",
        -8.680510761091346
      ],
      [
        "ful",
        -8.680817049585503
      ],
      [
        "▁whole",
        -8.681179784962286
      ],
      [
        "yet",
        -8.68129226080339
      ],
      [
        "▁language",
        -8.681542822786598
      ],
      [
        "▁6",
        -8.681896458568431
      ],
      [
        "▁free",
        -8.68374477292112
      ],
      [
        "um",
        -8.684622483109521
      ],
      [
        "▁report",
        -8.688912826241852
      ],
      [
        "▁round",
        -8.689368354037065
      ],
      [
        "▁type",
        -8.689934073523466
      ],
      [
        "▁field",
        -8.697391985735653
      ],
      [
        "▁course",
        -8.701903435836378
      ],
      [
        "▁color",
        -8.705867320842737
      ],
      [
        "▁near",
        -8.709147105959456
      ],
      [
        "ance",
        -8.710010699044187
      ],
      [
        "▁mil",
        -8.711735323815102
      ],
      [
        "▁file",
        -8.714899736379486
      ],
      [
        "▁twenty",
        -8.716731673377408
      ],
      [
        "▁boy",
        -8.716865264351519
      ],
      [
        "most",
        -8.718810475467032
      ],
      [
        "▁outside",
        -8.719190612883308
      ],
      [
        "▁clean",
        -8.720121419402588
      ],
      [
        "▁add",
        -8.729363032545733
      ],
      [
        "▁black",
        -8.729402442751262
      ],
      [
        "▁friday",
        -8.731145713897448
      ],
      [
        "▁dere",
        -8.734528977191973
      ],
      [
        "▁important",
        -8.735313648649052
      ],
      [
        "▁view",
        -8.736482965198185
      ],
      [
        "▁south",
        -8.73761928287757
      ],
      [
        "▁general",
        -8.738866049622327
      ],
      [
        "▁sunday",
        -8.742088136282154
      ],
      [
        "▁page",
        -8.742355022110587
      ],
      [
        "▁result",
        -8.743351030743097
      ],
      [
        "re",
        -8.744193455893395
      ],
      [
        "▁harr",
        -8.745589858581937
      ],
      [
        "▁hit",
        -8.746275410418352
      ],
      [
        "cy",
        -8.747352882879778
      ],
      [
        "▁201",
        -8.749398025499353
      ],
      [
        "▁store",
        -8.749893809069125
      ],
      [
        "▁cheape",
        -8.756660166475376
      ],
      [
        "▁children",
        -8.75891691327344
      ],
      [
        "▁friends",
        -8.760012275899474
      ],
      [
        "▁j",
        -8.760204573722222
      ],
      [
        "▁support",
        -8.76080832463412
      ],
      [
        "▁paul",
        -8.761224298181537
      ],
      [
        "cross",
        -8.761246878656525
      ],
      [
        "ither",
        -8.762388203022793
      ],
      [
        "en",
        -8.763840214735048
      ],
      [
        "▁drink",
        -8.764022727131929
      ],
      [
        "kee",
        -8.764596337051966
      ],
      [
        "▁draw",
        -8.769155139296725
      ],
      [
        "▁serve",
        -8.76987770945172
      ],
      [
        "▁six",
        -8.770613827705336
      ],
      [
        "ago",
        -8.773087518297546
      ],
      [
        "▁hi",
        -8.775119827028492
      ],
      [
        "▁process",
        -8.775151694118208
      ],
      [
        "▁saturday",
        -8.775224760012287
      ],
      [
        "▁study",
        -8.775231081577257
      ],
      [
        "▁reason",
        -8.776099823216265
      ],
      [
        "▁cut",
        -8.77971772639814
      ],
      [
        "right",
        -8.781291271674519
      ],
      [
        "▁dc",
        -8.784319361746297
      ],
      [
        "▁sometime",
        -8.787569494772796
      ],
      [
        "▁space",
        -8.788020673367779
      ],
      [
        "▁idea",
        -8.792270161240447
      ],
      [
        "▁national",
        -8.792697044576954
      ],
      [
        "taking",
        -8.79490511344039
      ],
      [
        "▁international",
        -8.798018103520668
      ],
      [
        "wau",
        -8.79815275277687
      ],
      [
        "(",
        -8.798183676181097
      ],
      [
        "▁human",
        -8.79830784275564
      ],
      [
        "▁horse",
        -8.798397314849128
      ],
      [
        "▁present",
        -8.802070817764115
      ],
      [
        "▁particular",
        -8.803803019840874
      ],
      [
        "aid",
        -8.805133460663253
      ],
      [
        "age",
        -8.810678494577875
      ],
      [
        "▁coming",
        -8.813569344598186
      ],
      [
        "▁power",
        -8.814038244452036
      ],
      [
        "▁sea",
        -8.815696473635189
      ],
      [
        "ous",
        -8.817880309100923
      ],
      [
        "polis",
        -8.820783644893076
      ],
      [
        "▁salt",
        -8.821780303433368
      ],
      [
        "ther",
        -8.828315238388136
      ],
      [
        "▁g",
        -8.828359947966325
      ],
      [
        "▁ball",
        -8.82840103959564
      ],
      [
        "▁top",
        -8.829845449994192
      ],
      [
        "▁street",
        -8.83321244293214
      ],
      [
        "▁clear",
        -8.835890299976061
      ],
      [
        "▁sever",
        -8.837878254231306
      ],
      [
        "▁certain",
        -8.840237375002918
      ],
      [
        "▁evening",
        -8.842178921082287
      ],
      [
        "▁pay",
        -8.842718064720659
      ],
      [
        "▁understand",
        -8.843766974382369
      ],
      [
        "▁north",
        -8.843827985467172
      ],
      [
        "▁worth",
        -8.847351126100882
      ],
      [
        "▁bear",
        -8.848059105156814
      ],
      [
        "▁die",
        -8.851318314798679
      ],
      [
        "▁jul",
        -8.854780479160112
      ],
      [
        "▁tog",
        -8.855157422119891
      ],
      [
        "▁pick",
        -8.85681451119866
      ],
      [
        "▁door",
        -8.858999764165745
      ],
      [
        "▁consider",
        -8.861102027634516
      ],
      [
        "▁sleep",
        -8.861658111967188
      ],
      [
        "▁company",
        -8.862065315616615
      ],
      [
        "orrow",
        -8.862837895083135
      ],
      [
        "▁7",
        -8.867085113590461
      ],
      [
        "▁final",
        -8.870124424097268
      ],
      [
        "▁char",
        -8.870136958689297
      ],
      [
        "▁regard",
        -8.870600981666247
      ],
      [
        "▁sept",
        -8.871750667187104
      ],
      [
        "▁hu",
        -8.872704161606146
      ],
      [
        "▁test",
        -8.87359389845311
      ],
      [
        "▁hold",
        -8.878948897985538
      ],
      [
        "▁mi",
        -8.879121292033606
      ],
      [
        "▁young",
        -8.882876333928255
      ],
      [
        "▁happ",
        -8.88336298527857
      ],
      [
        "▁quit",
        -8.885674117389746
      ],
      [
        "▁care",
        -8.888020312969179
      ],
      [
        "▁short",
        -8.889936526048649
      ],
      [
        "▁dinner",
        -8.889992677428456
      ],
      [
        "▁side",
        -8.890271813037437
      ],
      [
        "▁hot",
        -8.891186758438737
      ],
      [
        "▁project",
        -8.894589426925238
      ],
      [
        "nix",
        -8.896226477977315
      ],
      [
        "▁market",
        -8.89780955088722
      ],
      [
        "▁phone",
        -8.898321161275312
      ],
      [
        "▁letter",
        -8.89875779156671
      ],
      [
        "ers",
        -8.899373038518656
      ],
      [
        "▁&",
        -8.900298342082824
      ],
      [
        "▁become",
        -8.901142854022762
      ],
      [
        "to",
        -8.90261695047377
      ],
      [
        "▁follow",
        -8.903733520611638
      ],
      [
        "▁visit",
        -8.904772848170497
      ],
      [
        "▁includ",
        -8.90621517150699
      ],
      [
        "▁green",
        -8.906945775011048
      ],
      [
        "▁run",
        -8.906949927145885
      ],
      [
        "clock",
        -8.907847623122587
      ],
      [
        "▁200",
        -8.91106597862161
      ],
      [
        "▁check",
        -8.913957685027587
      ],
      [
        "▁phoe",
        -8.914328758664407
      ],
      [
        "though",
        -8.9175013820685
      ],
      [
        "▁ga",
        -8.917571888296166
      ],
      [
        "▁ye",
        -8.919691113975876
      ],
      [
        "▁deal",
        -8.919723442314009
      ],
      [
        "▁kid",
        -8.921136170756643
      ],
      [
        "▁times",
        -8.923331635376313
      ],
      [
        "▁force",
        -8.923868094694889
      ],
      [
        "houston",
        -8.927148645184303
      ],
      [
        "▁along",
        -8.928473690992021
      ],
      [
        "▁uhh",
        -8.928850093194907
      ],
      [
        "▁continue",
        -8.929146538958115
      ],
      [
        "▁issue",
        -8.93023854244815
      ],
      [
        "▁fish",
        -8.932630231856649
      ],
      [
        "▁shakespeare",
        -8.933609250180204
      ],
      [
        "▁enjoy",
        -8.935303224534804
      ],
      [
        "▁often",
        -8.935988839764622
      ],
      [
        "▁broke",
        -8.938695050813713
      ],
      [
        "'s",
        -8.939450063899244
      ],
      [
        "▁recent",
        -8.940250784017556
      ],
      [
        "▁12",
        -8.941692384339834
      ],
      [
        "ry",
        -8.942295689524308
      ],
      [
        "▁law",
        -8.942450578492032
      ],
      [
        "▁offer",
        -8.945951033285052
      ],
      [
        "▁ever",
        -8.947546329882373
      ],
      [
        "▁dollar",
        -8.950235043776493
      ],
      [
        "▁amount",
        -8.955147003457252
      ],
      [
        "▁travel",
        -8.955687285863164
      ],
      [
        "▁chic",
        -8.958684594417527
      ],
      [
        "▁recommend",
        -8.95992195304665
      ],
      [
        "▁sound",
        -8.960879504257814
      ],
      [
        "▁event",
        -8.96237153083803
      ],
      [
        "▁p",
        -8.962764834567487
      ],
      [
        "▁strong",
        -8.963228556351421
      ],
      [
        "▁mind",
        -8.963927977055882
      ],
      [
        "▁island",
        -8.96560558113962
      ],
      [
        "▁review",
        -8.966001639679105
      ],
      [
        "▁late",
        -8.967501920948074
      ],
      [
        "▁create",
        -8.9706973729857
      ],
      [
        "town",
        -8.971112901788443
      ],
      [
        "▁control",
        -8.971908472507407
      ],
      [
        "▁working",
        -8.973975469961257
      ],
      [
        "▁vega",
        -8.976883517881848
      ],
      [
        "▁universit",
        -8.977250269876457
      ],
      [
        "▁sun",
        -8.977605133366712
      ],
      [
        "▁tom",
        -8.979000645600873
      ],
      [
        "ic",
        -8.981145515148162
      ],
      [
        "▁stuff",
        -8.98251072716372
      ],
      [
        "▁la",
        -8.984980276786992
      ],
      [
        "▁enron",
        -8.987909132561462
      ],
      [
        "▁front",
        -8.990518442202013
      ],
      [
        "▁august",
        -8.990739153613866
      ],
      [
        "▁fun",
        -8.991337687836777
      ],
      [
        "▁nonstop",
        -8.994853923633173
      ],
      [
        "▁past",
        -8.996121565621813
      ],
      [
        "▁main",
        -8.996488420983082
      ],
      [
        "▁receive",
        -8.99683218440548
      ],
      [
        "▁party",
        -8.999056625110754
      ],
      [
        "▁iraq",
        -9.000339259379896
      ],
      [
        "▁fine",
        -9.001872497739281
      ],
      [
        "▁local",
        -9.003498261520939
      ],
      [
        "▁cat",
        -9.00484821195905
      ],
      [
        "▁half",
        -9.005415493685572
      ],
      [
        "▁questions",
        -9.006046735162503
      ],
      [
        "▁plan",
        -9.011975234033473
      ],
      [
        "▁blue",
        -9.012074481313626
      ],
      [
        "▁level",
        -9.013074760877537
      ],
      [
        "ami",
        -9.015082671922686
      ],
      [
        "▁send",
        -9.017090816698179
      ],
      [
        "lves",
        -9.017114770647302
      ],
      [
        "▁answer",
        -9.017710950230715
      ],
      [
        "▁record",
        -9.022195840150047
      ],
      [
        "▁las",
        -9.023246189774309
      ],
      [
        "▁usual",
        -9.023516315247516
      ],
      [
        "▁current",
        -9.02384900779023
      ],
      [
        "▁action",
        -9.024982020767979
      ],
      [
        "▁political",
        -9.02616901885924
      ],
      [
        "the",
        -9.028012568354358
      ],
      [
        "▁future",
        -9.030604322288804
      ],
      [
        "▁mine",
        -9.031261992817228
      ],
      [
        "▁8",
        -9.031646618617621
      ],
      [
        "▁miss",
        -9.032426070315282
      ],
      [
        "▁box",
        -9.03723804629196
      ],
      [
        "▁term",
        -9.037356768469735
      ],
      [
        "▁fee",
        -9.038436944467026
      ],
      [
        "▁di",
        -9.03868335327211
      ],
      [
        "go",
        -9.042721148308416
      ],
      [
        "▁post",
        -9.04300282783434
      ],
      [
        "▁complete",
        -9.045205865143714
      ],
      [
        "▁floor",
        -9.045295312806452
      ],
      [
        "▁among",
        -9.04530268815564
      ],
      [
        "▁matter",
        -9.045310242831842
      ],
      [
        "countries",
        -9.045372863734789
      ],
      [
        "▁count",
        -9.046049657276797
      ],
      [
        "▁john",
        -9.046895065377555
      ],
      [
        "▁dad",
        -9.047962256403814
      ],
      [
        "▁word",
        -9.048307231654853
      ],
      [
        "▁chair",
        -9.04963989870555
      ],
      [
        "▁safe",
        -9.050647914943454
      ],
      [
        "▁death",
        -9.05297396000934
      ],
      [
        "▁jun",
        -9.053049083895978
      ],
      [
        "▁picture",
        -9.054081870238633
      ],
      [
        "▁del",
        -9.055500213574234
      ],
      [
        "▁qualit",
        -9.057201236618315
      ],
      [
        "▁quick",
        -9.05914846950423
      ],
      [
        "▁wear",
        -9.05952833763453
      ],
      [
        "▁china",
        -9.060364984314358
      ],
      [
        "▁park",
        -9.060550606683123
      ],
      [
        "▁ago",
        -9.062201848151037
      ],
      [
        "▁ya",
        -9.062424280764837
      ],
      [
        "▁social",
        -9.067432755699812
      ],
      [
        "▁commission",
        -9.075363433236639
      ],
      [
        "▁soon",
        -9.07972527801126
      ],
      [
        "▁sign",
        -9.080113181946377
      ],
      [
        "6",
        -9.080723173675679
      ],
      [
        "▁hurt",
        -9.083228687798744
      ],
      [
        "▁guess",
        -9.090534243207424
      ],
      [
        "▁abe",
        -9.091046488740517
      ],
      [
        "hind",
        -9.092982053218323
      ],
      [
        "▁less",
        -9.093853427514375
      ],
      [
        "ext",
        -9.09665856496958
      ],
      [
        ":",
        -9.097035037851969
      ],
      [
        "▁fel",
        -9.098343020874754
      ],
      [
        "▁customer",
        -9.09883385933615
      ],
      [
        "▁include",
        -9.099919648443452
      ],
      [
        "▁break",
        -9.099995188337186
      ],
      [
        "▁meeting",
        -9.100542866913425
      ],
      [
        "▁concern",
        -9.101290415819948
      ],
      [
        "8",
        -9.102562076220543
      ],
      [
        "▁cover",
        -9.105559497401563
      ],
      [
        "▁lake",
        -9.10561064656643
      ],
      [
        "▁table",
        -9.106274835100503
      ],
      [
        "▁ten",
        -9.107394869185736
      ],
      [
        "▁child",
        -9.108263661439977
      ],
      [
        "▁o'",
        -9.110361035899746
      ],
      [
        "▁shoe",
        -9.111782243969426
      ],
      [
        "▁push",
        -9.11228273741597
      ],
      [
        "if",
        -9.115037317911789
      ],
      [
        "▁bird",
        -9.115079966051297
      ],
      [
        "▁major",
        -9.115197983504913
      ],
      [
        "lotte",
        -9.11620521180432
      ],
      [
        "▁dark",
        -9.11974539360639
      ],
      [
        "▁propert",
        -9.120075763014377
      ],
      [
        "▁west",
        -9.121510084672803
      ],
      [
        "▁remain",
        -9.121899486936748
      ],
      [
        "▁member",
        -9.12231819393788
      ],
      [
        "▁movie",
        -9.123511446815556
      ],
      [
        "▁quin",
        -9.124455792523818
      ],
      [
        "▁pull",
        -9.124524891957602
      ],
      [
        "▁mov",
        -9.126029216587426
      ],
      [
        "▁period",
        -9.129367449498243
      ],
      [
        "▁mumm",
        -9.129585297402006
      ],
      [
        "▁women",
        -9.12999015221128
      ],
      [
        "▁staff",
        -9.130193764242023
      ],
      [
        "▁ride",
        -9.131672558654376
      ],
      [
        "▁men",
        -9.131873089112164
      ],
      [
        "▁following",
        -9.134675248520953
      ],
      [
        "▁nation",
        -9.135247164313391
      ],
      [
        "▁cup",
        -9.13646342223238
      ],
      [
        "▁direct",
        -9.136940132410288
      ],
      [
        "▁student",
        -9.137952849233287
      ],
      [
        "▁gone",
        -9.138618268463002
      ],
      [
        "▁indiana",
        -9.144749110021131
      ],
      [
        "▁wif",
        -9.146207241800102
      ],
      [
        "security",
        -9.14925273026114
      ],
      [
        "▁11",
        -9.149424295344462
      ],
      [
        "▁window",
        -9.149467742782054
      ],
      [
        "▁cold",
        -9.151237098911201
      ],
      [
        "orland",
        -9.151295001744806
      ],
      [
        "▁rate",
        -9.153703207325115
      ],
      [
        "9",
        -9.15472158824482
      ],
      [
        "▁restaurant",
        -9.156204711576759
      ],
      [
        "▁act",
        -9.156523270921317
      ],
      [
        "gan",
        -9.159096559572072
      ],
      [
        "low",
        -9.159534031837984
      ],
      [
        "▁arm",
        -9.159733240566176
      ],
      [
        "ront",
        -9.159895688813773
      ],
      [
        "ark",
        -9.159951385395676
      ],
      [
        "▁chicken",
        -9.162563622938904
      ],
      [
        "▁team",
        -9.16389558397146
      ],
      [
        "▁sara",
        -9.165173978911154
      ],
      [
        "▁societ",
        -9.170877982289127
      ],
      [
        "▁forward",
        -9.171177362470644
      ],
      [
        "▁noon",
        -9.17192223817327
      ],
      [
        "▁email",
        -9.173027379513599
      ],
      [
        "▁couple",
        -9.173723643510634
      ],
      [
        "hours",
        -9.174991990880166
      ],
      [
        "▁fire",
        -9.175510271387282
      ],
      [
        "▁special",
        -9.175565163293065
      ],
      [
        "▁story",
        -9.175917029467634
      ],
      [
        "▁european",
        -9.176613739076537
      ],
      [
        "▁accept",
        -9.178616097089753
      ],
      [
        "▁appear",
        -9.179223088673314
      ],
      [
        "▁value",
        -9.179787240351526
      ],
      [
        "▁econom",
        -9.180634374551946
      ],
      [
        "▁15",
        -9.181856850863753
      ],
      [
        "▁rule",
        -9.181886723278762
      ],
      [
        ".com",
        -9.186185389186038
      ],
      [
        "▁bag",
        -9.186556223315517
      ],
      [
        "▁english",
        -9.187795021097097
      ],
      [
        "▁apri",
        -9.187978477745151
      ],
      [
        "▁living",
        -9.18821882508143
      ],
      [
        "▁pass",
        -9.190056843721877
      ],
      [
        "▁hotel",
        -9.190405676552325
      ],
      [
        "▁throw",
        -9.1921732428303
      ],
      [
        "▁rest",
        -9.1922202170527
      ],
      [
        "craft",
        -9.194279208569661
      ],
      [
        "▁due",
        -9.194500767870451
      ],
      [
        "▁meet",
        -9.195424387752265
      ],
      [
        "▁inside",
        -9.195591518386276
      ],
      [
        "▁difficult",
        -9.196302347501753
      ],
      [
        "given",
        -9.19681505721003
      ],
      [
        "▁energy",
        -9.19810707999505
      ],
      [
        "▁claim",
        -9.200020759737438
      ],
      [
        "▁land",
        -9.20093467932475
      ],
      [
        "▁third",
        -9.205023389387915
      ],
      [
        "▁shall",
        -9.205034018961015
      ],
      [
        "▁continent",
        -9.205095102604808
      ],
      [
        "▁research",
        -9.205829867397524
      ],
      [
        "▁star",
        -9.206990509994275
      ],
      [
        "▁fair",
        -9.207486161208
      ],
      [
        "z",
        -9.207507306903013
      ],
      [
        "▁develop",
        -9.207872410288648
      ],
      [
        "▁calle",
        -9.209513618961322
      ],
      [
        "%",
        -9.209611450556384
      ],
      [
        "▁militar",
        -9.209656573414438
      ],
      [
        "▁eight",
        -9.211244341910561
      ],
      [
        "way",
        -9.212412456938807
      ],
      [
        "▁agreement",
        -9.213862455725987
      ],
      [
        "▁truck",
        -9.217872855151782
      ],
      [
        "▁economic",
        -9.218238423344152
      ],
      [
        "▁art",
        -9.218420994503557
      ],
      [
        "7",
        -9.219193155218907
      ],
      [
        "▁hands",
        -9.220249278650066
      ],
      [
        "▁peter",
        -9.221047255589124
      ],
      [
        "▁account",
        -9.222340774070634
      ],
      [
        "▁increase",
        -9.222390649308265
      ],
      [
        "▁19",
        -9.224155511924483
      ],
      [
        "▁sent",
        -9.224802339081961
      ],
      [
        "▁site",
        -9.228408397044317
      ],
      [
        "▁parent",
        -9.228786768772366
      ],
      [
        "▁middle",
        -9.231031099179983
      ],
      [
        "▁beautiful",
        -9.231241235197718
      ],
      [
        "▁communit",
        -9.23165328084534
      ],
      [
        "▁common",
        -9.233169728689386
      ],
      [
        "▁town",
        -9.233434642132536
      ],
      [
        "▁whe",
        -9.233627612916521
      ],
      [
        "▁seven",
        -9.235744216962027
      ],
      [
        "taken",
        -9.236396663034967
      ],
      [
        "▁balzac",
        -9.240168749947996
      ],
      [
        "▁george",
        -9.240168754595068
      ],
      [
        "▁explain",
        -9.2401691814505
      ],
      [
        "▁further",
        -9.240188537727004
      ],
      [
        "▁woman",
        -9.240358163714532
      ],
      [
        "▁dead",
        -9.240876521225692
      ],
      [
        "▁doctor",
        -9.243069462658035
      ],
      [
        "▁mont",
        -9.243310851984628
      ],
      [
        "▁attack",
        -9.24354881202291
      ],
      [
        "▁eas",
        -9.247367000767426
      ],
      [
        "▁building",
        -9.248421554325464
      ],
      [
        "▁18",
        -9.253758103589085
      ],
      [
        "▁road",
        -9.25713957809052
      ],
      [
        "▁document",
        -9.2582689532713
      ],
      [
        "hap",
        -9.259738350006803
      ],
      [
        "history",
        -9.259785823578948
      ],
      [
        "▁health",
        -9.263588748097153
      ],
      [
        "▁date",
        -9.265008207120516
      ],
      [
        "▁attache",
        -9.26517277289124
      ],
      [
        "▁finish",
        -9.265363360976165
      ],
      [
        "▁cleve",
        -9.26593177949375
      ],
      [
        "▁drive",
        -9.266086918628964
      ],
      [
        "▁seattle",
        -9.26734818471535
      ],
      [
        "ish",
        -9.267427812603259
      ],
      [
        "▁voice",
        -9.267565104884245
      ],
      [
        "head",
        -9.26853472110654
      ],
      [
        "▁speak",
        -9.268824878452666
      ],
      [
        "▁oil",
        -9.26921382469569
      ],
      [
        "▁beach",
        -9.270244829480223
      ],
      [
        "▁charge",
        -9.272058964790947
      ],
      [
        "▁america",
        -9.273550925205733
      ],
      [
        "▁depart",
        -9.276499059162255
      ],
      [
        "▁agree",
        -9.276648839137437
      ],
      [
        "▁sort",
        -9.27708198123393
      ],
      [
        "▁development",
        -9.27716977281183
      ],
      [
        "▁stand",
        -9.279035963517956
      ],
      [
        "▁kansa",
        -9.279765004703206
      ],
      [
        "upon",
        -9.281693576274648
      ],
      [
        "▁step",
        -9.283361472645709
      ],
      [
        "▁position",
        -9.284542015147697
      ],
      [
        "▁specific",
        -9.285586911744538
      ],
      [
        "▁exist",
        -9.285920168037975
      ],
      [
        "▁request",
        -9.286057742791986
      ],
      [
        "▁moment",
        -9.2862595292058
      ],
      [
        "▁require",
        -9.286894529962023
      ],
      [
        "▁plant",
        -9.28726903651533
      ],
      [
        "▁figure",
        -9.287476145348542
      ],
      [
        "▁rock",
        -9.289919580657847
      ],
      [
        "▁sorr",
        -9.294281937405572
      ],
      [
        "▁especial",
        -9.29549765711935
      ],
      [
        "▁boat",
        -9.295836216472663
      ],
      [
        "▁poor",
        -9.295953227798599
      ],
      [
        "▁angel",
        -9.297581806594067
      ],
      [
        "▁india",
        -9.297843251280662
      ],
      [
        "animals",
        -9.298585533994391
      ],
      [
        "la",
        -9.29873084354988
      ],
      [
        "▁million",
        -9.299520788758326
      ],
      [
        "▁license",
        -9.301416958920292
      ],
      [
        "▁fund",
        -9.301503693679567
      ],
      [
        "▁court",
        -9.30261114218898
      ],
      [
        "▁birthday",
        -9.305048233367646
      ],
      [
        "▁hour",
        -9.305506845785416
      ],
      [
        "▁warm",
        -9.306161411165837
      ],
      [
        "▁words",
        -9.306671657683621
      ],
      [
        "▁detail",
        -9.306856355723468
      ],
      [
        "▁ticket",
        -9.306995839024841
      ],
      [
        "▁born",
        -9.31241543170459
      ],
      [
        "▁wrong",
        -9.314481079797101
      ],
      [
        "▁lunch",
        -9.314615124762703
      ],
      [
        "▁subject",
        -9.314667789514509
      ],
      [
        "▁doggie",
        -9.314754226350207
      ],
      [
        "▁http://www.",
        -9.317946169947787
      ],
      [
        "king",
        -9.318335445844575
      ],
      [
        "▁item",
        -9.319653554352573
      ],
      [
        "▁breakfast",
        -9.324331027863865
      ],
      [
        "▁above",
        -9.324343382659073
      ],
      [
        "▁excellent",
        -9.324462197161196
      ],
      [
        "▁comment",
        -9.324683016735726
      ],
      [
        "▁official",
        -9.324985004559402
      ],
      [
        "▁activit",
        -9.326782914805118
      ],
      [
        "▁kne",
        -9.327319411806736
      ],
      [
        "▁leg",
        -9.327922776637529
      ],
      [
        "▁difference",
        -9.328147801229939
      ],
      [
        "▁card",
        -9.329760085363556
      ],
      [
        "▁key",
        -9.330482673327374
      ],
      [
        "▁notice",
        -9.330527076090199
      ],
      [
        "▁discuss",
        -9.332367933499325
      ],
      [
        "▁address",
        -9.332671241498879
      ],
      [
        "▁suggest",
        -9.333971958794749
      ],
      [
        "▁wonder",
        -9.333993043112105
      ],
      [
        "▁attention",
        -9.334157605717742
      ],
      [
        "▁design",
        -9.334586854527576
      ],
      [
        "▁iran",
        -9.336257386853926
      ],
      [
        "▁button",
        -9.337876911691618
      ],
      [
        "ory",
        -9.33862555483677
      ],
      [
        "▁turned",
        -9.338682273674358
      ],
      [
        "▁finger",
        -9.339571864835662
      ],
      [
        "▁17",
        -9.340746921425833
      ],
      [
        "▁effort",
        -9.344034840193544
      ],
      [
        "▁decision",
        -9.34404919662834
      ],
      [
        "▁hell",
        -9.344262807915282
      ],
      [
        "▁glass",
        -9.345862940302087
      ],
      [
        "▁summer",
        -9.347863267805652
      ],
      [
        "▁daily",
        -9.348233762378825
      ],
      [
        "▁personal",
        -9.348862308925659
      ],
      [
        "▁16",
        -9.349939476058156
      ],
      [
        "sterda",
        -9.352626161815472
      ],
      [
        "▁nose",
        -9.3532417827095
      ],
      [
        "▁studie",
        -9.354073587331683
      ],
      [
        "▁cheap",
        -9.357327975970964
      ],
      [
        "▁east",
        -9.357401844721284
      ],
      [
        "ne",
        -9.358686589393674
      ],
      [
        "▁program",
        -9.36133973631183
      ],
      [
        "▁yellow",
        -9.361878981109422
      ],
      [
        "itting",
        -9.364337020033261
      ],
      [
        "▁hug",
        -9.367044392988333
      ],
      [
        "▁gas",
        -9.368047509674255
      ],
      [
        "▁touch",
        -9.369816561906536
      ],
      [
        "ought",
        -9.373597410466672
      ],
      [
        "▁#",
        -9.37391542386458
      ],
      [
        "▁europe",
        -9.374378189733502
      ],
      [
        "▁filter",
        -9.376581210472539
      ],
      [
        "▁code",
        -9.377684457369075
      ],
      [
        "came",
        -9.37817925588394
      ],
      [
        "▁earth",
        -9.378325102042362
      ],
      [
        "▁mark",
        -9.379122392600085
      ],
      [
        "▁expens",
        -9.382488908891002
      ],
      [
        "▁funn",
        -9.382568054784814
      ],
      [
        "time",
        -9.382597590958703
      ],
      [
        "▁surprise",
        -9.384649219711294
      ],
      [
        "▁vote",
        -9.384795209982356
      ],
      [
        "▁message",
        -9.38519450369666
      ],
      [
        "▁square",
        -9.386556143221085
      ],
      [
        "▁199",
        -9.386585258647294
      ],
      [
        "▁services",
        -9.388092097746771
      ],
      [
        "▁tree",
        -9.390207217218503
      ],
      [
        "▁texa",
        -9.39111287928658
      ],
      [
        "▁natural",
        -9.392052478483777
      ],
      [
        "▁education",
        -9.395144910526135
      ],
      [
        "▁listen",
        -9.395390361705855
      ],
      [
        "▁moral",
        -9.395591956633366
      ],
      [
        "▁treat",
        -9.396934725861698
      ],
      [
        "real",
        -9.397779677693439
      ],
      [
        "▁link",
        -9.400352147115367
      ],
      [
        "▁save",
        -9.404794075621828
      ],
      [
        "▁mouth",
        -9.405040937949646
      ],
      [
        "▁peace",
        -9.40524211695598
      ],
      [
        "▁serious",
        -9.405600834901177
      ],
      [
        "▁global",
        -9.405604950292894
      ],
      [
        "▁source",
        -9.406386621619973
      ],
      [
        "▁shop",
        -9.40727420912524
      ],
      [
        "▁fell",
        -9.40775510814473
      ],
      [
        "▁<",
        -9.408511038818327
      ],
      [
        "▁ok",
        -9.408849913713617
      ],
      [
        "▁fit",
        -9.41153297582289
      ],
      [
        "▁lay",
        -9.412774684324146
      ],
      [
        "▁slow",
        -9.412993978043968
      ],
      [
        "▁original",
        -9.413437869745557
      ],
      [
        "▁works",
        -9.41370193361169
      ],
      [
        "▁saying",
        -9.413737681104958
      ],
      [
        "▁rain",
        -9.41562240230735
      ],
      [
        "▁bus",
        -9.41765325138573
      ],
      [
        "▁dirt",
        -9.41819541500579
      ],
      [
        "▁dress",
        -9.418352317693955
      ],
      [
        "▁bill",
        -9.420046365336004
      ],
      [
        "▁culture",
        -9.420819879711868
      ],
      [
        "▁members",
        -9.421246327922645
      ],
      [
        "▁equal",
        -9.424748190215137
      ],
      [
        "▁entire",
        -9.426990250688533
      ],
      [
        "▁bed",
        -9.428826337703509
      ],
      [
        "▁hundred",
        -9.437382350331188
      ],
      [
        "▁except",
        -9.437685843659883
      ],
      [
        "▁joke",
        -9.437881020176034
      ],
      [
        "▁situation",
        -9.437887397041957
      ],
      [
        "kept",
        -9.438575462929393
      ],
      [
        "▁toward",
        -9.440193372590318
      ],
      [
        "aught",
        -9.441914303578642
      ],
      [
        "do",
        -9.442952025892513
      ],
      [
        "▁cook",
        -9.443874508692973
      ],
      [
        "▁lead",
        -9.44535123949866
      ],
      [
        "▁nov",
        -9.447576957360926
      ],
      [
        "▁station",
        -9.447917667822384
      ],
      [
        "▁em",
        -9.44821126678034
      ],
      [
        "fore",
        -9.449360714369742
      ],
      [
        "▁according",
        -9.451200376421909
      ],
      [
        "▁jump",
        -9.454366176018603
      ],
      [
        "▁30",
        -9.45661839291112
      ],
      [
        "▁financial",
        -9.459962247172108
      ],
      [
        "internet",
        -9.459996089501924
      ],
      [
        "▁tire",
        -9.460351810477324
      ],
      [
        "are",
        -9.460381599712935
      ],
      [
        "ville",
        -9.460494695809441
      ],
      [
        "▁video",
        -9.461632615419699
      ],
      [
        "rench",
        -9.461853520911394
      ],
      [
        "▁meal",
        -9.46343446283348
      ],
      [
        "▁computer",
        -9.46420977413129
      ],
      [
        "▁london",
        -9.469219115251438
      ],
      [
        "night",
        -9.46974234547682
      ],
      [
        "▁pocket",
        -9.471189001859734
      ],
      [
        "he",
        -9.472417666819833
      ],
      [
        "▁connection",
        -9.47257438725564
      ],
      [
        "▁march",
        -9.473355685543712
      ],
      [
        "▁sense",
        -9.474035351877717
      ],
      [
        "▁foot",
        -9.475138797618346
      ],
      [
        "▁books",
        -9.47539213588243
      ],
      [
        "▁mention",
        -9.475564597812426
      ],
      [
        "▁manage",
        -9.475887003427667
      ],
      [
        "▁california",
        -9.478081855834816
      ],
      [
        "▁true",
        -9.478373320731352
      ],
      [
        "▁9",
        -9.482272786124135
      ],
      [
        "▁attempt",
        -9.482552842034963
      ],
      [
        "▁condition",
        -9.482561930075464
      ],
      [
        "▁fill",
        -9.486613953308968
      ],
      [
        "led",
        -9.48740056812279
      ],
      [
        "▁writing",
        -9.490754280114325
      ],
      [
        "▁hat",
        -9.491535597559526
      ],
      [
        "▁role",
        -9.493038548944924
      ],
      [
        "▁contact",
        -9.493314147653933
      ],
      [
        "▁etc",
        -9.494200801849797
      ],
      [
        "▁louis",
        -9.494254208132634
      ],
      [
        "day",
        -9.495675629947561
      ],
      [
        "▁heart",
        -9.496366452468564
      ],
      [
        "▁image",
        -9.49986309991835
      ],
      [
        "▁schedule",
        -9.500301750051811
      ],
      [
        "table",
        -9.501193583654173
      ],
      [
        "up",
        -9.501916618661097
      ],
      [
        "▁tie",
        -9.502124818066607
      ],
      [
        "▁necessar",
        -9.50567462217367
      ],
      [
        "▁application",
        -9.505681343895102
      ],
      [
        "▁honey",
        -9.50575158448168
      ],
      [
        "ship",
        -9.508013474638023
      ],
      [
        "▁anyway",
        -9.508194948594552
      ],
      [
        "▁pen",
        -9.50854515139814
      ],
      [
        "known",
        -9.508680456634204
      ],
      [
        "▁carry",
        -9.509039695135824
      ],
      [
        "▁church",
        -9.511263545271634
      ],
      [
        "▁seat",
        -9.511579822988626
      ],
      [
        "tic",
        -9.511931797743788
      ],
      [
        "nstead",
        -9.512531916489205
      ],
      [
        "▁!!",
        -9.512694475998682
      ],
      [
        "▁dry",
        -9.515229865302967
      ],
      [
        "▁driv",
        -9.515887590405404
      ],
      [
        "▁web",
        -9.516564620751005
      ],
      [
        "▁exact",
        -9.517441694909001
      ],
      [
        "▁extreme",
        -9.517484828364328
      ],
      [
        "▁catch",
        -9.518177241508994
      ],
      [
        "rought",
        -9.51847803929037
      ],
      [
        "mphi",
        -9.52003879146437
      ],
      [
        ",000",
        -9.520152199766393
      ],
      [
        "▁police",
        -9.530491567108433
      ],
      [
        "2005",
        -9.530804520665047
      ],
      [
        "▁nine",
        -9.531321777715057
      ],
      [
        "▁website",
        -9.531633054551156
      ],
      [
        "eating",
        -9.53262901732099
      ],
      [
        "▁total",
        -9.533201312684344
      ],
      [
        "▁mm",
        -9.533560492084106
      ],
      [
        "▁roll",
        -9.534877684257848
      ],
      [
        "ar",
        -9.536583213488765
      ],
      [
        "▁measure",
        -9.536645918444664
      ],
      [
        "▁product",
        -9.537190351468624
      ],
      [
        "▁wide",
        -9.537714109206068
      ],
      [
        "▁israel",
        -9.540070944998362
      ],
      [
        "▁dec",
        -9.540711590707394
      ],
      [
        "ame",
        -9.541360165635602
      ],
      [
        "▁parliament",
        -9.541392275506514
      ],
      [
        "▁location",
        -9.541411277171118
      ],
      [
        "▁bottle",
        -9.54184284762746
      ],
      [
        "▁describe",
        -9.545000553016372
      ],
      [
        "▁laugh",
        -9.545316035558168
      ],
      [
        "▁expect",
        -9.545973669853563
      ],
      [
        "▁wish",
        -9.547357958745632
      ],
      [
        "▁trie",
        -9.547515018521578
      ],
      [
        "▁reach",
        -9.548522965574119
      ],
      [
        "▁sevent",
        -9.54868502844472
      ],
      [
        "▁produce",
        -9.54970204604891
      ],
      [
        "▁feed",
        -9.550200387318595
      ],
      [
        "▁mam",
        -9.552558565489088
      ],
      [
        "ical",
        -9.552891810941158
      ],
      [
        "▁response",
        -9.553587398603515
      ],
      [
        "▁cheese",
        -9.553637384946029
      ],
      [
        "▁wall",
        -9.554830015347932
      ],
      [
        "▁qa",
        -9.558336570872648
      ],
      [
        "▁age",
        -9.56000810585012
      ],
      [
        "by",
        -9.560355011868856
      ],
      [
        "▁center",
        -9.561497511824374
      ],
      [
        "▁decided",
        -9.564650410587184
      ],
      [
        "▁banana",
        -9.56594771821234
      ],
      [
        "▁coffee",
        -9.565973806376299
      ],
      [
        "▁fight",
        -9.566170328644924
      ],
      [
        "▁lives",
        -9.567090760970425
      ],
      [
        "▁allow",
        -9.567614422853218
      ],
      [
        "▁respect",
        -9.5676765598574
      ],
      [
        "▁supposed",
        -9.569917586911933
      ],
      [
        "▁runn",
        -9.570902932887016
      ],
      [
        "▁momm",
        -9.575665848024718
      ],
      [
        "ate",
        -9.576050430473508
      ],
      [
        "▁correct",
        -9.57825930987136
      ],
      [
        "▁brother",
        -9.578516446195938
      ],
      [
        "▁music",
        -9.578846846216896
      ],
      [
        "▁clothes",
        -9.57904862987668
      ],
      [
        "▁professional",
        -9.579284630092626
      ],
      [
        "▁2000",
        -9.580868574088207
      ],
      [
        "▁tin",
        -9.581210473167577
      ],
      [
        "▁river",
        -9.584525049255468
      ],
      [
        "▁toast",
        -9.587833110429425
      ],
      [
        "▁busy",
        -9.588147767949962
      ],
      [
        "century",
        -9.591091715889869
      ],
      [
        "▁benefit",
        -9.59113530718748
      ],
      [
        "▁jose",
        -9.591286561728786
      ],
      [
        "▁copy",
        -9.591763891713677
      ],
      [
        "▁policy",
        -9.592224439927342
      ],
      [
        "▁limit",
        -9.592579845879907
      ],
      [
        "▁bite",
        -9.592641799806472
      ],
      [
        "mike",
        -9.593272725427958
      ],
      [
        "▁blow",
        -9.5936611671946
      ],
      [
        "▁basic",
        -9.594149456496206
      ],
      [
        "▁trouble",
        -9.59702231392637
      ],
      [
        "▁stopp",
        -9.600872516935798
      ],
      [
        "▁ship",
        -9.60130293807578
      ],
      [
        "▁focus",
        -9.602726761807084
      ],
      [
        "▁perfect",
        -9.603729459332882
      ],
      [
        "▁legal",
        -9.603771284525394
      ],
      [
        "janu",
        -9.604743220891777
      ],
      [
        "▁thousand",
        -9.606275042156202
      ],
      [
        "ursu",
        -9.607949127331393
      ],
      [
        "▁region",
        -9.608060703252836
      ],
      [
        "▁stor",
        -9.60828660249312
      ],
      [
        "▁fix",
        -9.609267132883446
      ],
      [
        "▁press",
        -9.609501081541541
      ],
      [
        "rote",
        -9.612930341285706
      ],
      [
        "▁model",
        -9.61347347528526
      ],
      [
        "▁risk",
        -9.615201001992418
      ],
      [
        "▁implement",
        -9.616898830272834
      ],
      [
        "▁method",
        -9.61972833191636
      ],
      [
        "▁tape",
        -9.619783601719007
      ],
      [
        "–",
        -9.620780437277858
      ],
      [
        "▁eggs",
        -9.622847815839371
      ],
      [
        "▁interesting",
        -9.623643598759418
      ],
      [
        "▁scar",
        -9.628580377365902
      ],
      [
        "▁band",
        -9.629688036541566
      ],
      [
        "▁kitt",
        -9.62969833427325
      ],
      [
        "▁protect",
        -9.629897311484218
      ],
      [
        "▁dinosaur",
        -9.630056803464434
      ],
      [
        "▁lack",
        -9.63021260964202
      ],
      [
        "▁opportunit",
        -9.630278401029742
      ],
      [
        "▁taste",
        -9.633529775860538
      ],
      [
        "▁indian",
        -9.64002748623357
      ],
      [
        "▁spend",
        -9.640218904919815
      ],
      [
        "▁xml",
        -9.641041810575109
      ],
      [
        "▁plann",
        -9.641042581267318
      ],
      [
        "▁25",
        -9.642841872937584
      ],
      [
        "▁individual",
        -9.64339005871776
      ],
      [
        "▁favorite",
        -9.643394903654656
      ],
      [
        "▁display",
        -9.643433236691257
      ],
      [
        "▁chance",
        -9.643497567338859
      ],
      [
        "▁teacher",
        -9.646295603161203
      ],
      [
        "▁interview",
        -9.64645781709103
      ],
      [
        "▁share",
        -9.648888538297303
      ],
      [
        "▁bowl",
        -9.651301114988655
      ],
      [
        "▁egg",
        -9.652558675454046
      ],
      [
        "▁pictures",
        -9.654253895901693
      ],
      [
        "▁express",
        -9.654390093074758
      ],
      [
        "me",
        -9.656460169577171
      ],
      [
        "▁effect",
        -9.656493047684874
      ],
      [
        "▁department",
        -9.657284240058852
      ],
      [
        "▁shirt",
        -9.65755123858755
      ],
      [
        "▁credit",
        -9.658840704873143
      ],
      [
        "▁juic",
        -9.658999634066388
      ],
      [
        "▁bigge",
        -9.659209998739769
      ],
      [
        "▁former",
        -9.659241021938842
      ],
      [
        "▁board",
        -9.659523647136036
      ],
      [
        "▁simpl",
        -9.659555781884896
      ],
      [
        "ch",
        -9.662201945092779
      ],
      [
        "na",
        -9.663564839344371
      ],
      [
        "board",
        -9.665059888158147
      ],
      [
        "▁tea",
        -9.665752564207361
      ],
      [
        "▁article",
        -9.666028558416556
      ],
      [
        "▁animal",
        -9.66660314035901
      ],
      [
        "of",
        -9.67032877381876
      ],
      [
        "▁deep",
        -9.670423152661273
      ],
      [
        "▁election",
        -9.670622837933275
      ],
      [
        "▁population",
        -9.67062406490992
      ],
      [
        "ber",
        -9.670637802937348
      ],
      [
        "▁involve",
        -9.67194738864918
      ],
      [
        "▁sweet",
        -9.672666322753322
      ],
      [
        "▁science",
        -9.672912247356333
      ],
      [
        "▁song",
        -9.673519959277325
      ],
      [
        "▁proper",
        -9.673821798989689
      ],
      [
        "▁knowledge",
        -9.67389411093771
      ],
      [
        "▁committee",
        -9.677302583529869
      ],
      [
        "▁environment",
        -9.679447458427095
      ],
      [
        "!",
        -9.67980978982778
      ],
      [
        "▁spoke",
        -9.67987617859752
      ],
      [
        "ball",
        -9.680214740215494
      ],
      [
        "▁ensure",
        -9.682433576469691
      ],
      [
        "nati",
        -9.68328979038332
      ],
      [
        "▁pencil",
        -9.684491107211544
      ],
      [
        "▁definite",
        -9.684495217246416
      ],
      [
        "ritten",
        -9.684511215039533
      ],
      [
        "▁single",
        -9.684983260621406
      ],
      [
        "▁ho",
        -9.68584435168726
      ],
      [
        "▁ha",
        -9.686046534242037
      ],
      [
        "▁god",
        -9.686639962199434
      ],
      [
        "▁similar",
        -9.68684173346376
      ],
      [
        "incin",
        -9.689812772974054
      ],
      [
        "▁feeling",
        -9.690283117856527
      ],
      [
        "▁wine",
        -9.693452196674436
      ],
      [
        "▁enter",
        -9.696079839338484
      ],
      [
        "2001",
        -9.696737045107305
      ],
      [
        "▁council",
        -9.698575174513895
      ],
      [
        "▁afghan",
        -9.69857559847484
      ],
      [
        "▁orange",
        -9.698593804266618
      ],
      [
        "▁minne",
        -9.698603794793698
      ],
      [
        "▁winter",
        -9.69860903324606
      ],
      [
        "aima",
        -9.698951803993399
      ],
      [
        "▁film",
        -9.698984842484364
      ],
      [
        "▁significant",
        -9.69938708874854
      ],
      [
        "▁size",
        -9.699818943666614
      ],
      [
        "our",
        -9.70055302554597
      ],
      [
        "▁fresh",
        -9.700966533143276
      ],
      [
        "ave",
        -9.701140358316938
      ],
      [
        "▁section",
        -9.701824938208937
      ],
      [
        "▁structure",
        -9.703228400443148
      ],
      [
        "wise",
        -9.704703895607004
      ],
      [
        "▁user",
        -9.705335575724018
      ],
      [
        "ampa",
        -9.707449776546106
      ],
      [
        "<",
        -9.708906167549431
      ],
      [
        "▁cultural",
        -9.710758477254453
      ],
      [
        "▁capital",
        -9.710828037761082
      ],
      [
        "▁contain",
        -9.711589517622368
      ],
      [
        "▁sat",
        -9.712943923090396
      ],
      [
        "▁sister",
        -9.713806703559356
      ],
      [
        "▁sky",
        -9.713813899257168
      ],
      [
        "▁spen",
        -9.71947579516332
      ],
      [
        "ton",
        -9.719856669890081
      ],
      [
        "▁horsie",
        -9.721191418137057
      ],
      [
        "▁fe",
        -9.722007563014635
      ],
      [
        "▁element",
        -9.7273571542358
      ],
      [
        "▁begin",
        -9.727519518130912
      ],
      [
        "▁co",
        -9.727830636214073
      ],
      [
        "▁stillman",
        -9.72853528276161
      ],
      [
        "▁low",
        -9.72865447027581
      ],
      [
        "▁writer",
        -9.732316517182518
      ],
      [
        "▁owner",
        -9.733690142992376
      ],
      [
        "@",
        -9.73416970350523
      ],
      [
        "doc",
        -9.735127621959917
      ],
      [
        "▁fast",
        -9.735323463662123
      ],
      [
        "▁flower",
        -9.737702343263877
      ],
      [
        "▁christ",
        -9.738198806714774
      ],
      [
        "▁factor",
        -9.738985639801987
      ],
      [
        "▁programme",
        -9.740112372057105
      ],
      [
        "▁contract",
        -9.741788475925382
      ],
      [
        "▁draft",
        -9.742101742288074
      ],
      [
        "▁cool",
        -9.742188137010864
      ],
      [
        "▁plane",
        -9.742811410152436
      ],
      [
        "▁met",
        -9.743643270006805
      ],
      [
        "▁union",
        -9.744256807257456
      ],
      [
        "▁avoid",
        -9.744351807770398
      ],
      [
        "▁propose",
        -9.748072010732809
      ],
      [
        "▁bread",
        -9.753321874943676
      ],
      [
        "▁camp",
        -9.755142176698936
      ],
      [
        "▁release",
        -9.755707776078081
      ],
      [
        "ism",
        -9.755749369771038
      ],
      [
        "▁college",
        -9.756985328271352
      ],
      [
        "▁purpose",
        -9.756985356693194
      ],
      [
        "▁apply",
        -9.757191935214541
      ],
      [
        "▁hang",
        -9.757636067222665
      ],
      [
        "▁u.s.",
        -9.759677512062087
      ],
      [
        "▁modern",
        -9.760232099933223
      ],
      [
        "▁imagine",
        -9.76366258230329
      ],
      [
        "▁nash",
        -9.766059062287406
      ],
      [
        "▁toys",
        -9.767077305098049
      ],
      [
        "▁bank",
        -9.7707696916817
      ],
      [
        "▁reading",
        -9.771764908135086
      ],
      [
        "▁content",
        -9.771963338366536
      ],
      [
        "▁immediate",
        -9.772136951363642
      ],
      [
        "▁choice",
        -9.772148487978352
      ],
      [
        "▁freedom",
        -9.772170972752889
      ],
      [
        "▁daughter",
        -9.772343536873397
      ],
      [
        "▁weekend",
        -9.772400055559617
      ],
      [
        "▁smell",
        -9.77396436775987
      ],
      [
        "side",
        -9.77418366393644
      ],
      [
        "▁drop",
        -9.776756316005574
      ],
      [
        "▁weapon",
        -9.77755707581965
      ],
      [
        "ian",
        -9.77818499934019
      ],
      [
        "▁proposal",
        -9.778248038818102
      ],
      [
        "▁stick",
        -9.779169000058566
      ],
      [
        "▁conference",
        -9.779626251061407
      ],
      [
        "▁fan",
        -9.779988476430585
      ],
      [
        "▁balance",
        -9.780363490992517
      ],
      [
        "▁!!!",
        -9.783705334973263
      ],
      [
        "▁normal",
        -9.784824235069806
      ],
      [
        "▁regular",
        -9.787521463860104
      ],
      [
        "▁conversation",
        -9.787526719237146
      ],
      [
        "▁amazing",
        -9.787612950627572
      ],
      [
        "▁pizza",
        -9.78761300737766
      ],
      [
        "▁percentage",
        -9.787648742322864
      ],
      [
        "▁paris",
        -9.787665455967606
      ],
      [
        "▁private",
        -9.78783638656107
      ],
      [
        "▁garden",
        -9.789955278982342
      ],
      [
        "▁material",
        -9.789968315242183
      ],
      [
        "▁vari",
        -9.790423355861034
      ],
      [
        "2002",
        -9.790934254603524
      ],
      [
        "▁depend",
        -9.79228723292525
      ],
      [
        "▁super",
        -9.793972972371648
      ],
      [
        "▁attend",
        -9.795621034226144
      ],
      [
        "▁wash",
        -9.796111390499815
      ],
      [
        "▁join",
        -9.798883119372736
      ],
      [
        "▁track",
        -9.79914641501267
      ],
      [
        "▁style",
        -9.801241804135378
      ],
      [
        "▁bottom",
        -9.803153312925515
      ],
      [
        "▁stopover",
        -9.803313997548376
      ],
      [
        "▁marriage",
        -9.803337062868405
      ],
      [
        "▁desk",
        -9.803369164839712
      ],
      [
        "▁hole",
        -9.804138416600921
      ],
      [
        "▁forgot",
        -9.80414554088671
      ],
      [
        "▁pre",
        -9.807067664668468
      ],
      [
        "▁practice",
        -9.807520350511975
      ],
      [
        "▁wh",
        -9.808599019391814
      ],
      [
        "stead",
        -9.809932146539069
      ],
      [
        "▁bar",
        -9.810081611854836
      ],
      [
        "▁spot",
        -9.81309849066336
      ],
      [
        "▁character",
        -9.813951529226433
      ],
      [
        "▁object",
        -9.818607389936956
      ],
      [
        "▁congress",
        -9.819021372248322
      ],
      [
        "industry",
        -9.819022414198212
      ],
      [
        "▁jeff",
        -9.819027472881197
      ],
      [
        "▁initial",
        -9.819115533592447
      ],
      [
        "products",
        -9.819167710010383
      ],
      [
        "▁directive",
        -9.819385633941945
      ],
      [
        "▁octo",
        -9.819765940490736
      ],
      [
        "▁trade",
        -9.819960345674737
      ],
      [
        "▁circle",
        -9.821832309840946
      ],
      [
        "▁text",
        -9.82365243916557
      ],
      [
        "▁citizens",
        -9.824623865168338
      ],
      [
        "▁engl",
        -9.82630846530797
      ],
      [
        "ble",
        -9.827451596293546
      ],
      [
        "▁additional",
        -9.8275265058045
      ],
      [
        "▁trust",
        -9.829946789641411
      ],
      [
        "▁related",
        -9.831377248459335
      ],
      [
        "▁determine",
        -9.832553133703673
      ],
      [
        "▁maintain",
        -9.835148594517552
      ],
      [
        "▁campaign",
        -9.835152883721916
      ],
      [
        "▁block",
        -9.835391470580518
      ],
      [
        "▁wonderful",
        -9.835420112192315
      ],
      [
        "▁soft",
        -9.835815085982762
      ],
      [
        "▁choose",
        -9.835993383895637
      ],
      [
        "▁organization",
        -9.837872924605637
      ],
      [
        "▁detr",
        -9.83795869430762
      ],
      [
        "▁iraqi",
        -9.838626921715633
      ],
      [
        "▁note",
        -9.83912795274135
      ],
      [
        "canada",
        -9.840694320986746
      ],
      [
        "nasa",
        -9.841576680861024
      ],
      [
        "▁pai",
        -9.842939545550365
      ],
      [
        "▁manager",
        -9.843299954399548
      ],
      [
        "▁successful",
        -9.844135024440796
      ],
      [
        "hol",
        -9.844234194186766
      ],
      [
        "▁cow",
        -9.845004435763657
      ],
      [
        "istan",
        -9.845753316024016
      ],
      [
        "nature",
        -9.846736565676665
      ],
      [
        "▁neck",
        -9.846776621869806
      ],
      [
        "▁tax",
        -9.846861054899634
      ],
      [
        "▁reflect",
        -9.851378172400025
      ],
      [
        "▁kitchen",
        -9.85154198745595
      ],
      [
        "▁beginning",
        -9.851584955382771
      ],
      [
        "▁mountain",
        -9.851598233786792
      ],
      [
        "▁noise",
        -9.854403020141424
      ],
      [
        "▁cage",
        -9.854471383432779
      ],
      [
        "▁news",
        -9.854686638124289
      ],
      [
        "▁forget",
        -9.857012980200302
      ],
      [
        "▁option",
        -9.857117339834815
      ],
      [
        "▁non-",
        -9.859150153554783
      ],
      [
        "▁pack",
        -9.861488099538395
      ],
      [
        "▁....",
        -9.86513910125841
      ],
      [
        "▁simple",
        -9.867166967365627
      ],
      [
        "▁heat",
        -9.867241394136139
      ],
      [
        "▁citi",
        -9.867938681826349
      ],
      [
        "▁pivot",
        -9.868208614803766
      ],
      [
        "▁expert",
        -9.868303819284026
      ],
      [
        "▁administration",
        -9.868557164749829
      ],
      [
        "ern",
        -9.869119405022197
      ],
      [
        "▁hall",
        -9.870794360387244
      ],
      [
        "▁dream",
        -9.870992420735867
      ],
      [
        "▁build",
        -9.871141368430084
      ],
      [
        "ant",
        -9.871516654096979
      ],
      [
        "▁memor",
        -9.873121574564912
      ],
      [
        "▁cry",
        -9.873218207793297
      ],
      [
        "▁accident",
        -9.873348466204025
      ],
      [
        "▁reference",
        -9.873666660000215
      ],
      [
        "▁sick",
        -9.874024435919743
      ],
      [
        "▁estimate",
        -9.875674726462325
      ],
      [
        "▁establish",
        -9.875843207719177
      ],
      [
        "▁14",
        -9.877547750447512
      ],
      [
        "▁13",
        -9.87803173526077
      ],
      [
        "ley",
        -9.878437314845169
      ],
      [
        "▁easi",
        -9.880403054149344
      ],
      [
        "eries",
        -9.882709922904334
      ],
      [
        "▁promise",
        -9.883118716998414
      ],
      [
        "▁luck",
        -9.88433252763104
      ],
      [
        "▁represent",
        -9.88469562856212
      ],
      [
        "▁central",
        -9.885140704414004
      ],
      [
        "▁decade",
        -9.885200440067653
      ],
      [
        "▁hospital",
        -9.885340688261937
      ],
      [
        "▁protection",
        -9.885365435085138
      ],
      [
        "▁seek",
        -9.886176553248216
      ],
      [
        "▁pott",
        -9.886190358164418
      ],
      [
        "▁fax",
        -9.88772361998945
      ],
      [
        "▁slight",
        -9.889082728113753
      ],
      [
        "▁print",
        -9.89023588458963
      ],
      [
        "▁meat",
        -9.891015103860843
      ],
      [
        "▁nor",
        -9.891649027101082
      ],
      [
        "▁>",
        -9.893132168091494
      ],
      [
        "ng",
        -9.893492774674163
      ],
      [
        "el",
        -9.893496957825086
      ],
      [
        "▁root",
        -9.893835085445241
      ],
      [
        "▁allowed",
        -9.89499266965926
      ],
      [
        "▁electric",
        -9.895810609290361
      ],
      [
        "▁mo",
        -9.896889913041777
      ],
      [
        "▁unit",
        -9.898385112200941
      ],
      [
        "▁tank",
        -9.899230960311765
      ],
      [
        "▁cake",
        -9.899641073150647
      ],
      [
        "▁24",
        -9.90149886631589
      ],
      [
        "giving",
        -9.902025076811535
      ],
      [
        "▁novel",
        -9.902270468134535
      ],
      [
        "▁absolute",
        -9.902399140930951
      ],
      [
        "▁michael",
        -9.902399141414822
      ],
      [
        "▁adult",
        -9.902399636029834
      ],
      [
        "▁potential",
        -9.902405862285331
      ],
      [
        "▁mrs",
        -9.90264785903788
      ],
      [
        "▁requirement",
        -9.902888366716681
      ],
      [
        "▁demand",
        -9.903425512579833
      ],
      [
        "how",
        -9.903623743728842
      ],
      [
        "▁pet",
        -9.903702327642833
      ],
      [
        "▁overall",
        -9.904281708295011
      ],
      [
        "▁popular",
        -9.904304226821024
      ],
      [
        "▁regional",
        -9.905011136554847
      ],
      [
        "▁machine",
        -9.905078269530996
      ],
      [
        "▁repair",
        -9.9051717703414
      ],
      [
        "j",
        -9.905622024254466
      ],
      [
        "▁media",
        -9.906161553728792
      ],
      [
        "▁butter",
        -9.907222428870238
      ],
      [
        "▁author",
        -9.910102181276532
      ],
      [
        "▁raise",
        -9.910280837743727
      ],
      [
        "▁effective",
        -9.912436889828337
      ],
      [
        "▁authorit",
        -9.91345292161272
      ],
      [
        "▁welcome",
        -9.916409768343538
      ],
      [
        "▁concept",
        -9.919643926250728
      ],
      [
        "▁duck",
        -9.919731442611955
      ],
      [
        "▁sudden",
        -9.919966496428994
      ],
      [
        "▁aspect",
        -9.920143200851001
      ],
      [
        "▁sell",
        -9.920357953146762
      ],
      [
        "▁intend",
        -9.920587722348941
      ],
      [
        "▁ma",
        -9.920918315001582
      ],
      [
        "▁search",
        -9.922198708028777
      ],
      [
        "▁bug",
        -9.923689676683473
      ],
      [
        "▁mail",
        -9.925192034676423
      ],
      [
        "▁google",
        -9.927683094126797
      ],
      [
        "▁wind",
        -9.929238727502888
      ],
      [
        "lates",
        -9.92996152645548
      ],
      [
        "▁holding",
        -9.931288372571885
      ],
      [
        "▁separate",
        -9.931432170760493
      ],
      [
        "▁magic",
        -9.932307653124322
      ],
      [
        "▁impact",
        -9.937802295290943
      ],
      [
        "▁federal",
        -9.937849818837382
      ],
      [
        "▁fail",
        -9.937951033305854
      ],
      [
        "▁robin",
        -9.938155350333954
      ],
      [
        "▁david",
        -9.938242952018571
      ],
      [
        "▁careful",
        -9.938286398777961
      ],
      [
        "▁eastern",
        -9.939335314107556
      ],
      [
        "▁affect",
        -9.94353088618
      ],
      [
        "yond",
        -9.943646870610795
      ],
      [
        "▁brown",
        -9.943859279008667
      ],
      [
        "▁opening",
        -9.945679498278238
      ],
      [
        "▁tail",
        -9.94741062931152
      ],
      [
        "▁approach",
        -9.94793252376573
      ],
      [
        ":00",
        -9.947938854095511
      ],
      [
        "▁gun",
        -9.948813870789142
      ],
      [
        "▁standards",
        -9.949869174175245
      ],
      [
        "▁wil",
        -9.95141372471991
      ],
      [
        "▁pakistan",
        -9.951546196606483
      ],
      [
        "▁leaders",
        -9.951907682422235
      ],
      [
        "▁challenge",
        -9.9521951441339
      ],
      [
        "▁perform",
        -9.95413821643786
      ],
      [
        "▁body",
        -9.954221748288818
      ],
      [
        "▁arab",
        -9.954230710456178
      ],
      [
        "▁fixed",
        -9.95428981027885
      ],
      [
        "issues",
        -9.955504962066817
      ],
      [
        "▁associate",
        -9.955982073903499
      ],
      [
        "▁grandmother",
        -9.955984165412964
      ],
      [
        "microsoft",
        -9.955984339317645
      ],
      [
        "▁spell",
        -9.95606097734233
      ],
      [
        "▁wiki",
        -9.956211510288188
      ],
      [
        "▁dangerous",
        -9.956376165246422
      ],
      [
        "ell",
        -9.956509774130687
      ],
      [
        "▁wild",
        -9.956567087768203
      ],
      [
        "dding",
        -9.956739306371045
      ],
      [
        "▁lower",
        -9.958603496146415
      ],
      [
        "▁dear",
        -9.96072022205097
      ],
      [
        "thus",
        -9.961742460964567
      ],
      [
        "tacom",
        -9.963673486042875
      ],
      [
        "▁blood",
        -9.968452829817945
      ],
      [
        "▁arms",
        -9.971949662125336
      ],
      [
        "▁version",
        -9.972258655357477
      ],
      [
        "@enron",
        -9.97247048079609
      ],
      [
        "▁advance",
        -9.973676891462455
      ],
      [
        "▁evidence",
        -9.97450048034344
      ],
      [
        "▁built",
        -9.97450050924602
      ],
      [
        "technology",
        -9.97450159777933
      ],
      [
        "▁richard",
        -9.974529696566066
      ],
      [
        "▁climate",
        -9.974530841000973
      ],
      [
        "▁capacit",
        -9.974531328043986
      ],
      [
        "▁coast",
        -9.974734157072222
      ],
      [
        "▁stoo",
        -9.975091220356944
      ],
      [
        "▁deliver",
        -9.97564453908311
      ],
      [
        "zer",
        -9.977035845581096
      ],
      [
        "▁career",
        -9.977138743425588
      ],
      [
        "▁discover",
        -9.977341019591456
      ],
      [
        "▁tiger",
        -9.977408748062652
      ],
      [
        "▁bike",
        -9.977975964515636
      ],
      [
        "▁wheel",
        -9.978051805122597
      ],
      [
        "▁agenc",
        -9.978753251009815
      ],
      [
        "▁match",
        -9.982499387161198
      ],
      [
        "▁leader",
        -9.982571507138942
      ],
      [
        ":30",
        -9.983877243415511
      ],
      [
        "▁sad",
        -9.985491620914429
      ],
      [
        "men",
        -9.986551347422623
      ],
      [
        "▁democra",
        -9.987632172007755
      ],
      [
        "mas",
        -9.988217943930849
      ],
      [
        "ial",
        -9.990512826392035
      ],
      [
        "▁finding",
        -9.991589427802271
      ],
      [
        "▁50",
        -9.991849489601801
      ],
      [
        "▁paint",
        -9.99321779089808
      ],
      [
        "▁percent",
        -9.99326350043438
      ],
      [
        "▁cruise",
        -9.993365560462653
      ],
      [
        "▁heavy",
        -9.993369768046536
      ],
      [
        "▁companie",
        -9.993370137799895
      ],
      [
        "▁>>",
        -9.993376624891626
      ],
      [
        "▁bathroom",
        -9.993427265834743
      ],
      [
        "older",
        -9.99355019873451
      ],
      [
        "▁firm",
        -9.993703835519252
      ],
      [
        "▁bright",
        -9.99490114140757
      ],
      [
        "▁reserve",
        -9.995445747711887
      ],
      [
        "▁opinion",
        -9.996388900958525
      ],
      [
        "▁billion",
        -9.996556406058371
      ],
      [
        "▁korea",
        -9.996652273334895
      ],
      [
        "▁treatment",
        -9.996857578922128
      ],
      [
        "▁camel",
        -9.998244349587036
      ],
      [
        "▁fear",
        -9.99872557151446
      ],
      [
        "bru",
        -9.998841047360713
      ],
      [
        "▁tourist",
        -9.999027843351584
      ],
      [
        "▁confirm",
        -9.999244156292836
      ],
      [
        "▁ones",
        -10.000295969147533
      ],
      [
        "▁publishe",
        -10.001346998691316
      ],
      [
        "▁belong",
        -10.002584765363297
      ],
      [
        "stair",
        -10.002789962425618
      ],
      [
        "▁statement",
        -10.004906993161418
      ],
      [
        "▁analysis",
        -10.008015316976374
      ],
      [
        "▁improve",
        -10.008164727910522
      ],
      [
        "▁sexual",
        -10.008474949886597
      ],
      [
        "▁shape",
        -10.00870446721559
      ],
      [
        "▁dance",
        -10.008744723728704
      ],
      [
        "▁straight",
        -10.01114352748981
      ],
      [
        "wa",
        -10.01171794989998
      ],
      [
        "▁21",
        -10.011907505091216
      ],
      [
        "▁obvious",
        -10.01259926911257
      ],
      [
        "▁target",
        -10.012603788665281
      ],
      [
        "▁glad",
        -10.012605706218427
      ],
      [
        "▁spider",
        -10.012619443971293
      ],
      [
        "▁relationship",
        -10.012624418674687
      ],
      [
        "▁climb",
        -10.012830609903025
      ],
      [
        "▁terribl",
        -10.01311813824412
      ],
      [
        "▁grant",
        -10.014037034450102
      ],
      [
        "▁goal",
        -10.014148284476404
      ],
      [
        "dr.",
        -10.014890284994742
      ],
      [
        "▁remove",
        -10.015213755565162
      ],
      [
        "▁performance",
        -10.015876780535086
      ],
      [
        "▁chang",
        -10.016659065636802
      ],
      [
        "▁lego",
        -10.018626579257628
      ],
      [
        "▁via",
        -10.019938609861635
      ],
      [
        "▁metal",
        -10.020078825159393
      ],
      [
        "▁con",
        -10.02100902194586
      ],
      [
        "▁boot",
        -10.021338085477261
      ],
      [
        "▁pop",
        -10.022073966209344
      ],
      [
        "▁snow",
        -10.022710500763532
      ],
      [
        "▁purchase",
        -10.022759104555254
      ],
      [
        "▁100",
        -10.02457345988455
      ],
      [
        "oach",
        -10.024923429009933
      ],
      [
        "▁moon",
        -10.026781542496957
      ],
      [
        "▁hop",
        -10.027352905375938
      ],
      [
        "▁religious",
        -10.032207027492019
      ],
      [
        "▁female",
        -10.032207073181848
      ],
      [
        "▁previous",
        -10.032207623882062
      ],
      [
        "▁teeth",
        -10.032210250114026
      ],
      [
        "▁sector",
        -10.032289939461943
      ],
      [
        "▁desp",
        -10.032426565277246
      ],
      [
        "▁brit",
        -10.03258126413045
      ],
      [
        "▁online",
        -10.033509956922622
      ],
      [
        "▁director",
        -10.033838850461459
      ],
      [
        "▁poet",
        -10.034458248229424
      ],
      [
        "▁husband",
        -10.03530967567965
      ],
      [
        "▁basi",
        -10.035569951957983
      ],
      [
        "▁movement",
        -10.036536657440855
      ],
      [
        "den",
        -10.037360342322195
      ],
      [
        "▁legislati",
        -10.039603017584518
      ],
      [
        "▁season",
        -10.039948235215773
      ],
      [
        "▁standard",
        -10.041222880772754
      ],
      [
        "▁ears",
        -10.041426662766444
      ],
      [
        "▁cats",
        -10.043732070013842
      ],
      [
        "▁pant",
        -10.044142466981434
      ],
      [
        "ego",
        -10.044285533422887
      ],
      [
        "▁ran",
        -10.045955975866397
      ],
      [
        "▁meaning",
        -10.046224103604807
      ],
      [
        "▁rat",
        -10.04761845644451
      ],
      [
        "----------------",
        -10.048746141831927
      ],
      [
        "▁africa",
        -10.049073522058166
      ],
      [
        "▁player",
        -10.04942316799308
      ],
      [
        "▁twi",
        -10.0509345991753
      ],
      [
        "ring",
        -10.051551042916602
      ],
      [
        "tuck",
        -10.05176108612952
      ],
      [
        "▁responsibilit",
        -10.052207017030288
      ],
      [
        "▁atmospher",
        -10.052207196747762
      ],
      [
        "▁chocolate",
        -10.05220754806884
      ],
      [
        "▁sandwich",
        -10.052208566242923
      ],
      [
        "▁quiet",
        -10.052227686046743
      ],
      [
        "▁bridge",
        -10.052355431547271
      ],
      [
        "▁relative",
        -10.052588369702413
      ],
      [
        "facebook",
        -10.05292337228546
      ],
      [
        "▁creative",
        -10.05326782367191
      ],
      [
        "▁russian",
        -10.055205932225299
      ],
      [
        "▁q",
        -10.058537430395525
      ],
      [
        "▁institution",
        -10.05968823467779
      ],
      [
        "▁bath",
        -10.059729655148503
      ],
      [
        "▁corner",
        -10.059947467240402
      ],
      [
        "▁independent",
        -10.060092848318043
      ],
      [
        "▁twa",
        -10.06058263252611
      ],
      [
        "▁influence",
        -10.060668834000088
      ],
      [
        "▁japane",
        -10.061016288564721
      ],
      [
        "▁creat",
        -10.061859195017217
      ],
      [
        "▁hm",
        -10.061997274254962
      ],
      [
        "▁addition",
        -10.064805898499124
      ],
      [
        "ather",
        -10.064893331291113
      ],
      [
        "▁reported",
        -10.06516624744384
      ],
      [
        "ney",
        -10.067396478040749
      ],
      [
        "room",
        -10.069448991984006
      ],
      [
        "▁solution",
        -10.070068552691076
      ],
      [
        "▁ben",
        -10.070467283543966
      ],
      [
        "▁spring",
        -10.070542548728769
      ],
      [
        "▁aware",
        -10.070912975926465
      ],
      [
        "▁mass",
        -10.071444660237416
      ],
      [
        "▁applie",
        -10.07262817313067
      ],
      [
        "▁amendment",
        -10.072734576273499
      ],
      [
        "▁task",
        -10.073011234173723
      ],
      [
        "▁technical",
        -10.073287028773864
      ],
      [
        "▁wow",
        -10.07507985056152
      ],
      [
        "▁surface",
        -10.075778567670103
      ],
      [
        "▁format",
        -10.076963184602917
      ],
      [
        "▁debate",
        -10.077418090969052
      ],
      [
        "▁marri",
        -10.080118157675548
      ],
      [
        "▁intelligence",
        -10.08015087126515
      ],
      [
        "like",
        -10.08042500011735
      ],
      [
        "▁quote",
        -10.082488637376644
      ],
      [
        "▁generation",
        -10.082781342003539
      ],
      [
        "▁22",
        -10.083183893678132
      ],
      [
        "▁avail",
        -10.0832659456581
      ],
      [
        "▁painting",
        -10.083928722298223
      ],
      [
        "▁adopt",
        -10.084574597257479
      ],
      [
        "▁employ",
        -10.088649429823139
      ],
      [
        "▁locate",
        -10.090034147214041
      ],
      [
        "▁foreign",
        -10.090034904375829
      ],
      [
        "am",
        -10.091689150316952
      ],
      [
        "▁argument",
        -10.091694517929351
      ],
      [
        "▁rose",
        -10.092193946923162
      ],
      [
        "▁threat",
        -10.092699496491624
      ],
      [
        "▁russia",
        -10.093386001150767
      ],
      [
        "▁vacation",
        -10.093454246805042
      ],
      [
        "▁balloon",
        -10.09347716761158
      ],
      [
        "▁worst",
        -10.093554524413724
      ],
      [
        "▁apartment",
        -10.093632376091456
      ],
      [
        "▁auster",
        -10.093740821582713
      ],
      [
        "▁discussion",
        -10.09377538021156
      ],
      [
        "▁path",
        -10.094064292817464
      ],
      [
        "▁agent",
        -10.094066601480488
      ],
      [
        "▁mode",
        -10.094298548222426
      ],
      [
        "▁wake",
        -10.094317292257317
      ],
      [
        "▁thirty",
        -10.094358840723618
      ],
      [
        "▁exchange",
        -10.094505262769701
      ],
      [
        "▁title",
        -10.095861995813127
      ],
      [
        "▁carol",
        -10.096490346965602
      ],
      [
        "▁representative",
        -10.096629429593301
      ],
      [
        "▁ice",
        -10.09674129221062
      ],
      [
        "▁visa",
        -10.096878809545426
      ],
      [
        "burban",
        -10.09717612891199
      ],
      [
        "▁male",
        -10.097250374085757
      ],
      [
        "sible",
        -10.09742828483213
      ],
      [
        "▁cha",
        -10.097674967401
      ],
      [
        "▁pan",
        -10.09817832617092
      ],
      [
        "▁mexic",
        -10.099734497630763
      ],
      [
        "▁digital",
        -10.100623151211881
      ],
      [
        "▁scientology",
        -10.100689309787546
      ],
      [
        "▁communication",
        -10.100796064280102
      ],
      [
        "▁brain",
        -10.100869803622544
      ],
      [
        "▁rid",
        -10.101278711833727
      ],
      [
        "workers",
        -10.101694597666443
      ],
      [
        "99",
        -10.102062258249356
      ],
      [
        "▁decide",
        -10.104276664509737
      ],
      [
        "▁environmental",
        -10.104283485444519
      ],
      [
        "▁23",
        -10.105535978220182
      ],
      [
        "some",
        -10.107927398645817
      ],
      [
        "▁realize",
        -10.109858359280217
      ],
      [
        "▁understanding",
        -10.110680125072188
      ],
      [
        "▁handle",
        -10.110926627275715
      ],
      [
        "▁uncle",
        -10.11215746355801
      ],
      [
        "▁steps",
        -10.11258619297126
      ],
      [
        "▁fundamental",
        -10.114596577091943
      ],
      [
        "▁brief",
        -10.114715148759565
      ],
      [
        "▁behavior",
        -10.114725109376948
      ],
      [
        "▁unique",
        -10.114732303109232
      ],
      [
        "▁network",
        -10.114768340532054
      ],
      [
        "▁bulldo",
        -10.114807278789257
      ],
      [
        "▁sophie",
        -10.114997727745916
      ],
      [
        "▁dan",
        -10.115063643769089
      ],
      [
        "▁snake",
        -10.115081793388159
      ],
      [
        "▁pretend",
        -10.116056511497074
      ],
      [
        "▁lock",
        -10.11711075936195
      ],
      [
        "▁award",
        -10.117444460930498
      ],
      [
        "▁border",
        -10.117666415154247
      ],
      [
        "▁kill",
        -10.117685468847569
      ],
      [
        "▁reasonabl",
        -10.117776793103243
      ],
      [
        "▁*",
        -10.117877523514405
      ],
      [
        "▁direction",
        -10.11835186916666
      ],
      [
        "▁loud",
        -10.119860586951019
      ],
      [
        "▁tool",
        -10.120882401041392
      ],
      [
        "▁screen",
        -10.121830222635223
      ],
      [
        "▁meant",
        -10.122090746248514
      ],
      [
        "▁rabbit",
        -10.122306294018944
      ],
      [
        "tion",
        -10.125233970974
      ],
      [
        "▁cash",
        -10.125763601117859
      ],
      [
        "▁pour",
        -10.126219837200672
      ],
      [
        "▁standing",
        -10.126534326889347
      ],
      [
        "▁rath",
        -10.12702379712302
      ],
      [
        "▁franc",
        -10.12801541043515
      ],
      [
        "▁prevent",
        -10.128600324641633
      ],
      [
        "ard",
        -10.130150911781355
      ],
      [
        "chines",
        -10.13456085842939
      ],
      [
        "▁appreciate",
        -10.13646423981023
      ],
      [
        "▁provision",
        -10.136472240696204
      ],
      [
        "▁scene",
        -10.136480842421483
      ],
      [
        "▁euro",
        -10.136737996518407
      ],
      [
        "▁fantas",
        -10.136814735372738
      ],
      [
        "▁barn",
        -10.13748038669222
      ],
      [
        "▁swing",
        -10.138205226929081
      ],
      [
        "▁progress",
        -10.139371134697791
      ],
      [
        "▁whom",
        -10.140647694554064
      ],
      [
        "▁quer",
        -10.14125896309703
      ],
      [
        "▁suit",
        -10.142283874460611
      ],
      [
        "ka",
        -10.142516734386248
      ],
      [
        "▁sport",
        -10.142983667662513
      ],
      [
        ";",
        -10.143379149407266
      ],
      [
        "▁damage",
        -10.145270413763168
      ],
      [
        "▁hungr",
        -10.145483459164765
      ],
      [
        "▁prove",
        -10.14576102721918
      ],
      [
        "line",
        -10.147401681829841
      ],
      [
        "▁row",
        -10.151209095303198
      ],
      [
        "▁sub",
        -10.151880677792612
      ],
      [
        "▁apple",
        -10.154929361729117
      ],
      [
        "▁smart",
        -10.155062425217784
      ],
      [
        "▁fat",
        -10.156080027789907
      ],
      [
        "▁rich",
        -10.156510478441952
      ],
      [
        "▁columb",
        -10.158205151362495
      ],
      [
        "▁cell",
        -10.15843776152138
      ],
      [
        "▁unfortunate",
        -10.158686930279945
      ],
      [
        "▁e-mail",
        -10.158687044537775
      ],
      [
        "▁jack",
        -10.158866054856212
      ],
      [
        "▁appropriate",
        -10.160278765502461
      ],
      [
        "resources",
        -10.161141945931014
      ],
      [
        "▁gain",
        -10.16235784464183
      ],
      [
        "▁update",
        -10.162421762096054
      ],
      [
        "▁truth",
        -10.16282738719256
      ],
      [
        "▁skin",
        -10.163515919232246
      ],
      [
        "▁range",
        -10.163521462061833
      ],
      [
        "▁197",
        -10.163531017006662
      ],
      [
        "▁launch",
        -10.164931345598616
      ],
      [
        "▁loan",
        -10.166303131652043
      ],
      [
        "▁plate",
        -10.16652817927758
      ],
      [
        "▁extend",
        -10.166676855869174
      ],
      [
        "▁cookie",
        -10.16807285112798
      ],
      [
        "▁lee",
        -10.16824185506945
      ],
      [
        "▁master",
        -10.170696299057953
      ],
      [
        "▁sheet",
        -10.171212343442011
      ],
      [
        "▁respond",
        -10.171653183381737
      ],
      [
        "▁function",
        -10.17396454026466
      ],
      [
        "▁murder",
        -10.17875499153542
      ],
      [
        "▁penn",
        -10.17919606259182
      ],
      [
        "icles",
        -10.1795103654236
      ],
      [
        "▁success",
        -10.18102134060606
      ],
      [
        "▁professor",
        -10.181413735341556
      ],
      [
        "▁increasing",
        -10.181413744083255
      ],
      [
        "▁frequent",
        -10.181413771217485
      ],
      [
        "▁peanut",
        -10.181416090510336
      ],
      [
        "▁afford",
        -10.181417473044455
      ],
      [
        "▁sugar",
        -10.181424182411476
      ],
      [
        "▁alternative",
        -10.181426860325997
      ],
      [
        "▁fifth",
        -10.181447026310526
      ],
      [
        "beauty",
        -10.181470678620496
      ],
      [
        "▁error",
        -10.181557415232797
      ],
      [
        "▁syria",
        -10.181688655803244
      ],
      [
        "▁bray",
        -10.182746539923926
      ],
      [
        "▁bunn",
        -10.182780482236407
      ],
      [
        "abilit",
        -10.183707392016615
      ],
      [
        "▁flat",
        -10.18435948702407
      ],
      [
        "▁shot",
        -10.184503817090519
      ],
      [
        "▁egypt",
        -10.184798509843503
      ],
      [
        "▁setting",
        -10.185609615425513
      ],
      [
        "▁dropp",
        -10.186561893908681
      ],
      [
        "▁mid",
        -10.18768527801784
      ],
      [
        "▁connect",
        -10.18863232901307
      ],
      [
        "▁collect",
        -10.189808783264581
      ],
      [
        "▁achieve",
        -10.189840157029936
      ],
      [
        "▁judge",
        -10.190003327038
      ],
      [
        "▁employee",
        -10.190394066382757
      ],
      [
        "ban",
        -10.190481052506716
      ],
      [
        "killed",
        -10.191473659280922
      ],
      [
        "▁expected",
        -10.194861510635995
      ],
      [
        "▁western",
        -10.196199084863999
      ],
      [
        "▁dish",
        -10.196837303317878
      ],
      [
        "▁sales",
        -10.197326598748301
      ],
      [
        "▁ant",
        -10.197484079590751
      ],
      [
        "▁defens",
        -10.197524706344005
      ],
      [
        "▁waste",
        -10.198113288706844
      ],
      [
        "▁nail",
        -10.198221545962012
      ],
      [
        "▁hearing",
        -10.198820770242046
      ],
      [
        "▁cloth",
        -10.199962556089577
      ],
      [
        "▁none",
        -10.2003362962494
      ],
      [
        "hiri",
        -10.20390325619378
      ],
      [
        "▁conflict",
        -10.2046695505381
      ],
      [
        "▁rapid",
        -10.204673111691458
      ],
      [
        "▁belief",
        -10.20467907898886
      ],
      [
        "▁degree",
        -10.204707577621198
      ],
      [
        "▁distance",
        -10.204901669853612
      ],
      [
        "▁procedure",
        -10.204903208602037
      ],
      [
        "▁breath",
        -10.205118450303017
      ],
      [
        "▁madam",
        -10.205564989621468
      ],
      [
        "▁assistan",
        -10.205866561068552
      ],
      [
        "▁lie",
        -10.206084974038184
      ],
      [
        "▁critic",
        -10.206440540238258
      ],
      [
        "▁broad",
        -10.207058253664165
      ],
      [
        "▁responsibl",
        -10.208179610085809
      ],
      [
        "▁assume",
        -10.209304170582874
      ],
      [
        "▁happens",
        -10.210783331487026
      ],
      [
        "▁speci",
        -10.21079588589047
      ],
      [
        "▁za",
        -10.211221408555275
      ],
      [
        "▁approve",
        -10.213022667942138
      ],
      [
        "▁secret",
        -10.213394161057554
      ],
      [
        "▁flow",
        -10.214666581006174
      ],
      [
        "[",
        -10.216459511585143
      ],
      [
        ".html",
        -10.217649282234111
      ],
      [
        "kay",
        -10.217842370948748
      ],
      [
        "▁crowd",
        -10.217889660997223
      ],
      [
        "▁japan",
        -10.218088520245935
      ],
      [
        "▁finishe",
        -10.218746921519687
      ],
      [
        "▁northwest",
        -10.219140511098516
      ],
      [
        "▁essential",
        -10.221805897015251
      ],
      [
        "▁abilit",
        -10.22213223132514
      ],
      [
        "▁finance",
        -10.22254048001836
      ],
      [
        "▁port",
        -10.22366882288005
      ],
      [
        "▁shar",
        -10.22561818645984
      ],
      [
        "▁stretch",
        -10.226039014103883
      ],
      [
        "▁strateg",
        -10.228116693360889
      ],
      [
        "▁fifteen",
        -10.228479119340662
      ],
      [
        "▁context",
        -10.228485721305244
      ],
      [
        "▁knock",
        -10.228486268321413
      ],
      [
        "▁newspaper",
        -10.228500768366864
      ],
      [
        "▁australia",
        -10.228539533937518
      ],
      [
        "▁disaster",
        -10.22860885027167
      ],
      [
        "▁settlement",
        -10.228678101085475
      ],
      [
        "▁operator",
        -10.228693060674592
      ],
      [
        "▁budget",
        -10.228693123601184
      ],
      [
        "plus",
        -10.229402211254845
      ],
      [
        "▁payment",
        -10.229523303342066
      ],
      [
        "▁basil",
        -10.229529514707163
      ],
      [
        "▁lady",
        -10.229576078309984
      ],
      [
        "▁doubt",
        -10.229928294915393
      ],
      [
        "▁introduce",
        -10.230096505348762
      ],
      [
        "▁fourth",
        -10.230459118146284
      ],
      [
        "▁score",
        -10.230553121874255
      ],
      [
        "▁comfortabl",
        -10.230903163603639
      ],
      [
        "▁database",
        -10.232097336624918
      ],
      [
        "▁camera",
        -10.232108100538
      ],
      [
        "▁hide",
        -10.232902952082629
      ],
      [
        "▁cream",
        -10.233414180630662
      ],
      [
        "▁mix",
        -10.233488961241537
      ],
      [
        "ter",
        -10.233640353480737
      ],
      [
        "▁farm",
        -10.233665276799249
      ],
      [
        "▁chris",
        -10.233856856639257
      ],
      [
        "▁twel",
        -10.234584757850666
      ],
      [
        "▁birth",
        -10.23547231333621
      ],
      [
        "▁beside",
        -10.235719030795963
      ],
      [
        "▁map",
        -10.238412379251013
      ],
      [
        "▁honest",
        -10.238579229569428
      ],
      [
        "▁trans",
        -10.241755038861132
      ],
      [
        "▁weather",
        -10.242146137532199
      ],
      [
        "▁string",
        -10.24303132070558
      ],
      [
        "▁grand",
        -10.245741682299442
      ],
      [
        "▁rough",
        -10.24911998212881
      ],
      [
        "&",
        -10.249190546725277
      ],
      [
        "▁export",
        -10.249680079480104
      ],
      [
        "▁storm",
        -10.250158364683031
      ],
      [
        "▁rent",
        -10.252460030056612
      ],
      [
        "▁pillow",
        -10.252861813645966
      ],
      [
        "ukraine",
        -10.252869386330055
      ],
      [
        "ontario",
        -10.252869506394092
      ],
      [
        "▁constant",
        -10.252870556363806
      ],
      [
        "▁blanket",
        -10.252889123360186
      ],
      [
        "▁minister",
        -10.252889875187492
      ],
      [
        "senate",
        -10.253017596204298
      ],
      [
        "▁santa",
        -10.254333178288118
      ],
      [
        "▁terrorist",
        -10.255136320630161
      ],
      [
        "▁miles",
        -10.256091393876662
      ],
      [
        "▁averag",
        -10.25609198126476
      ],
      [
        "▁pair",
        -10.256387666045105
      ],
      [
        "▁sample",
        -10.256471839857712
      ],
      [
        "▁max",
        -10.25662096421369
      ],
      [
        "▁african",
        -10.256723498498086
      ],
      [
        "▁civil",
        -10.25714523746512
      ],
      [
        "▁stage",
        -10.258035822674426
      ],
      [
        "▁host",
        -10.258260192872179
      ],
      [
        "▁lose",
        -10.25849592232353
      ],
      [
        "▁jer",
        -10.261565076248004
      ],
      [
        "▁wave",
        -10.262479146282192
      ],
      [
        "co",
        -10.262922599603911
      ],
      [
        "thoma",
        -10.263810885580046
      ],
      [
        "▁pain",
        -10.265807603763262
      ],
      [
        "▁pink",
        -10.268543617258135
      ],
      [
        "ax",
        -10.270340405657542
      ],
      [
        "▁carrie",
        -10.273591034442298
      ],
      [
        "▁tent",
        -10.273889171115057
      ],
      [
        "▁inform",
        -10.274334601535465
      ],
      [
        "ific",
        -10.274492807725407
      ],
      [
        "▁mistake",
        -10.274528455669788
      ],
      [
        "▁facilit",
        -10.275880372207986
      ],
      [
        "▁silver",
        -10.275970220632084
      ],
      [
        "▁audience",
        -10.277869336491221
      ],
      [
        "▁eleven",
        -10.277873672719533
      ],
      [
        "grew",
        -10.277962225737834
      ],
      [
        "▁christian",
        -10.277968207426909
      ],
      [
        "▁guarantee",
        -10.278031586291148
      ],
      [
        "▁florid",
        -10.278329551651538
      ],
      [
        "▁menu",
        -10.280265667939629
      ],
      [
        "▁rude",
        -10.28054103735921
      ],
      [
        "values",
        -10.280848054459003
      ],
      [
        "▁fruit",
        -10.2812492085926
      ],
      [
        "▁exhibit",
        -10.2813748456295
      ],
      [
        "▁objective",
        -10.283160442442085
      ],
      [
        "▁rice",
        -10.283959690009754
      ],
      [
        "▁cap",
        -10.285265275989886
      ],
      [
        "options",
        -10.285570674830055
      ],
      [
        "▁famous",
        -10.286258231953616
      ],
      [
        "▁refer",
        -10.287595319121039
      ],
      [
        "tte",
        -10.289031675603797
      ],
      [
        "phone",
        -10.289652107014701
      ],
      [
        "▁wealth",
        -10.290666521860501
      ],
      [
        "▁+",
        -10.291591318917884
      ],
      [
        "▁democratic",
        -10.292297105319513
      ],
      [
        "▁announce",
        -10.293202294423114
      ],
      [
        "▁traffic",
        -10.293287235109084
      ],
      [
        "▁observe",
        -10.294596196781743
      ],
      [
        "▁fellow",
        -10.295360417901078
      ],
      [
        "▁stock",
        -10.29607950602266
      ],
      [
        "▁vet",
        -10.29738260721178
      ],
      [
        "▁reduce",
        -10.29837615562321
      ],
      [
        "wood",
        -10.298694990663602
      ],
      [
        "▁territor",
        -10.298787664304427
      ],
      [
        "▁pie",
        -10.299233412537593
      ],
      [
        "▁worse",
        -10.29959539522492
      ],
      [
        "house",
        -10.300142089259197
      ],
      [
        "▁jame",
        -10.301174425341188
      ],
      [
        "▁german",
        -10.30240064811852
      ],
      [
        "▁shopp",
        -10.302402854406699
      ],
      [
        "nuclear",
        -10.303510437690903
      ],
      [
        "▁component",
        -10.303510439155783
      ],
      [
        "▁soldier",
        -10.303523560275064
      ],
      [
        "▁attract",
        -10.303529370721275
      ],
      [
        "▁transaction",
        -10.303540610792314
      ],
      [
        "▁whale",
        -10.303576825509131
      ],
      [
        "▁horribl",
        -10.303636837865565
      ],
      [
        "▁dust",
        -10.303869755320237
      ],
      [
        "▁shut",
        -10.303902949014555
      ],
      [
        "▁telephone",
        -10.30393019886854
      ],
      [
        "▁gold",
        -10.303971644228684
      ],
      [
        "▁innovation",
        -10.304386730325225
      ],
      [
        "elected",
        -10.304731097805822
      ],
      [
        "▁salad",
        -10.30496578486388
      ],
      [
        "▁anthr",
        -10.304980826298674
      ],
      [
        "▁smoke",
        -10.30527427939011
      ],
      [
        "▁escape",
        -10.306719530149412
      ],
      [
        "▁mad",
        -10.30676153634754
      ],
      [
        "▁mess",
        -10.306940661531232
      ],
      [
        "▁canadian",
        -10.307296410729704
      ],
      [
        "▁executive",
        -10.307323227234226
      ],
      [
        "▁daniel",
        -10.309179178378969
      ],
      [
        "healthy",
        -10.312080979635459
      ],
      [
        "▁danc",
        -10.31220579055355
      ],
      [
        "▁secretary",
        -10.312703047963815
      ],
      [
        "▁prepared",
        -10.314398258445589
      ],
      [
        "▁sixt",
        -10.314820239828894
      ],
      [
        "▁lesson",
        -10.317212412977474
      ],
      [
        "▁eu",
        -10.317409109532635
      ],
      [
        "▁replace",
        -10.320382616307315
      ],
      [
        "▁production",
        -10.320407086853493
      ],
      [
        "▁plays",
        -10.320436896550879
      ],
      [
        "let",
        -10.321804191511015
      ],
      [
        "der",
        -10.321877113615638
      ],
      [
        "red",
        -10.324161326552952
      ],
      [
        "ware",
        -10.324617170235133
      ],
      [
        "▁tall",
        -10.32601974804968
      ],
      [
        "dden",
        -10.327630011614936
      ],
      [
        "▁da",
        -10.328281485596346
      ],
      [
        "▁assist",
        -10.329274202506793
      ],
      [
        "▁encourage",
        -10.329826139607894
      ],
      [
        "▁weasley",
        -10.329827980636962
      ],
      [
        "▁temperature",
        -10.329829038882744
      ],
      [
        "▁counterpart",
        -10.329833953168038
      ],
      [
        "▁positive",
        -10.329847708282914
      ],
      [
        "▁pilot",
        -10.329859018624642
      ],
      [
        "▁danny",
        -10.329860087522388
      ],
      [
        "▁airplane",
        -10.329874714158768
      ],
      [
        "leading",
        -10.33047595284099
      ],
      [
        "▁plent",
        -10.330817254199362
      ],
      [
        "▁assess",
        -10.331376900923406
      ],
      [
        "▁sink",
        -10.331663828729242
      ],
      [
        "ted",
        -10.332584076702052
      ],
      [
        "▁reli",
        -10.333137106044004
      ],
      [
        "▁container",
        -10.333310155606117
      ],
      [
        "▁scient",
        -10.333370518088714
      ],
      [
        "▁afr",
        -10.333589273730261
      ],
      [
        "▁copie",
        -10.33398311433135
      ],
      [
        "▁weight",
        -10.334437084331201
      ],
      [
        "▁van",
        -10.336357251169314
      ],
      [
        "▁yog",
        -10.337902533332159
      ],
      [
        "▁doll",
        -10.338256770839743
      ],
      [
        "▁speed",
        -10.33861508391913
      ],
      [
        "▁driver",
        -10.338854931416462
      ],
      [
        "▁compare",
        -10.339152859330737
      ],
      [
        "▁load",
        -10.34011410391408
      ],
      [
        "▁jobs",
        -10.34131471566425
      ],
      [
        "▁active",
        -10.342006814946751
      ],
      [
        "▁regulation",
        -10.343123597971772
      ],
      [
        "▁mary",
        -10.34408657043997
      ],
      [
        "▁micro",
        -10.344555955287333
      ],
      [
        "▁suffer",
        -10.346442631697126
      ],
      [
        "▁remind",
        -10.34655451198856
      ],
      [
        "▁smile",
        -10.34687448797705
      ],
      [
        "▁complex",
        -10.34792751440948
      ],
      [
        "▁tour",
        -10.348839428124856
      ],
      [
        "▁pig",
        -10.349607834643734
      ],
      [
        "▁flag",
        -10.350756055014157
      ],
      [
        "▁fred",
        -10.35271755338535
      ],
      [
        "▁du",
        -10.353885830466705
      ],
      [
        "▁rise",
        -10.354196727113596
      ],
      [
        "▁hate",
        -10.355992606233915
      ],
      [
        "▁screw",
        -10.356853173571638
      ],
      [
        "▁vietnam",
        -10.356853266043892
      ],
      [
        "▁physical",
        -10.356853274678254
      ],
      [
        "▁muscle",
        -10.356855883872246
      ],
      [
        "▁museum",
        -10.35685800856803
      ],
      [
        "▁television",
        -10.356864432992078
      ],
      [
        "▁senator",
        -10.35688076930851
      ],
      [
        "▁kick",
        -10.356902147169887
      ],
      [
        "▁guest",
        -10.356958816450845
      ],
      [
        "▁dragon",
        -10.35775605170568
      ],
      [
        "▁pressure",
        -10.358009090791574
      ],
      [
        "▁boom",
        -10.358912447775404
      ],
      [
        "▁babi",
        -10.358924026153224
      ],
      [
        "▁cia",
        -10.359132556905418
      ],
      [
        "▁define",
        -10.360366844180252
      ],
      [
        "▁convention",
        -10.360637373840621
      ],
      [
        "▁typical",
        -10.360761722671526
      ],
      [
        "▁expand",
        -10.361047270170745
      ],
      [
        "▁manner",
        -10.361365195303065
      ],
      [
        "▁…",
        -10.362146607383746
      ],
      [
        "over",
        -10.362370344982303
      ],
      [
        "▁litera",
        -10.364441535663435
      ],
      [
        "▁centre",
        -10.366324659233822
      ],
      [
        "▁ne",
        -10.36666048638052
      ],
      [
        "▁40",
        -10.367895768096858
      ],
      [
        "▁exercise",
        -10.368513695644102
      ],
      [
        "▁decline",
        -10.369894782496667
      ],
      [
        "light",
        -10.369982079391134
      ],
      [
        "▁60",
        -10.371028459680955
      ],
      [
        "▁lion",
        -10.374678721809216
      ],
      [
        "back",
        -10.376143730887394
      ],
      [
        "▁skills",
        -10.376997956840292
      ],
      [
        "▁net",
        -10.377979438347555
      ],
      [
        "▁bomb",
        -10.382107577715928
      ],
      [
        "▁extra",
        -10.383461824685385
      ],
      [
        "▁wood",
        -10.384067626380764
      ],
      [
        "▁chief",
        -10.384632411053046
      ],
      [
        "▁competition",
        -10.384635257676969
      ],
      [
        "▁monkey",
        -10.384652390887489
      ],
      [
        "▁italian",
        -10.384712504855717
      ],
      [
        "▁laws",
        -10.384723003713237
      ],
      [
        "▁mouse",
        -10.384774190059344
      ],
      [
        "▁shoot",
        -10.384963111907105
      ],
      [
        "▁zero",
        -10.385321980010977
      ],
      [
        "fighting",
        -10.385658528810046
      ],
      [
        "▁islami",
        -10.386562350147457
      ],
      [
        "▁visitor",
        -10.38657533504049
      ],
      [
        "▁collection",
        -10.3866455074572
      ],
      [
        "▁channel",
        -10.388427101857964
      ],
      [
        "▁arrest",
        -10.38846370097712
      ],
      [
        "▁principle",
        -10.388656740252484
      ],
      [
        "▁speaker",
        -10.389245842676365
      ],
      [
        "▁relevan",
        -10.389452735330941
      ],
      [
        "▁refuse",
        -10.391924454473301
      ],
      [
        "▁argue",
        -10.392042044506415
      ],
      [
        "▁indicate",
        -10.39335450290655
      ],
      [
        "▁recognize",
        -10.39382437691338
      ],
      [
        "▁officer",
        -10.39388614844058
      ],
      [
        "▁hol",
        -10.394571364646449
      ],
      [
        "10",
        -10.395168424833543
      ],
      [
        "▁patient",
        -10.396914008804334
      ],
      [
        "▁statu",
        -10.398586442121701
      ],
      [
        "▁win",
        -10.399475608305345
      ],
      [
        "▁counter",
        -10.400628619742903
      ],
      [
        "▁aw",
        -10.402648998505988
      ],
      [
        "▁route",
        -10.404320496477427
      ],
      [
        "▁tight",
        -10.404669364375865
      ],
      [
        "▁chemical",
        -10.405342984393922
      ],
      [
        "delivery",
        -10.411582235775048
      ],
      [
        "▁desire",
        -10.412412358199695
      ],
      [
        "▁participant",
        -10.413202364932957
      ],
      [
        "▁district",
        -10.413202366123436
      ],
      [
        "▁affair",
        -10.413202799980738
      ],
      [
        "▁pleasant",
        -10.41320629408192
      ],
      [
        "▁flavor",
        -10.41324212639279
      ],
      [
        "▁conduct",
        -10.413388339940765
      ],
      [
        "▁governor",
        -10.413451456597592
      ],
      [
        "▁mitch",
        -10.413483401776448
      ],
      [
        "▁bedroom",
        -10.41349684257178
      ],
      [
        "▁kitten",
        -10.413621415905887
      ],
      [
        "▁flood",
        -10.413680838912622
      ],
      [
        "▁ham",
        -10.413819858348107
      ],
      [
        "▁creation",
        -10.413870934357277
      ],
      [
        "▁resident",
        -10.414229815788886
      ],
      [
        "▁hopeful",
        -10.41423975834268
      ],
      [
        "nana",
        -10.414934598052156
      ],
      [
        "▁‘",
        -10.415628019341831
      ],
      [
        "ling",
        -10.41645047669223
      ],
      [
        "▁photograph",
        -10.416839666081147
      ],
      [
        "▁double",
        -10.416841541418659
      ],
      [
        "▁rare",
        -10.416927011266548
      ],
      [
        "▁beat",
        -10.417546041339616
      ],
      [
        "ow",
        -10.417906897432264
      ],
      [
        "▁gulf",
        -10.422358734999221
      ],
      [
        "▁divers",
        -10.42339694891065
      ],
      [
        "▁jean",
        -10.423572883641434
      ],
      [
        "lie",
        -10.423725476075912
      ],
      [
        "ent",
        -10.423726225347565
      ],
      [
        "▁ron",
        -10.423860082259239
      ],
      [
        "▁injur",
        -10.424420150815079
      ],
      [
        "▁historical",
        -10.424459356439357
      ],
      [
        "work",
        -10.426411226426826
      ],
      [
        "▁bother",
        -10.426667360308787
      ],
      [
        "▁stone",
        -10.42682488586113
      ],
      [
        "▁invite",
        -10.429293443439661
      ],
      [
        "▁loss",
        -10.430305285302294
      ],
      [
        "▁formal",
        -10.431851431001794
      ],
      [
        "▁mathematic",
        -10.432862730774483
      ],
      [
        "▁shoulder",
        -10.432867826717173
      ],
      [
        "▁select",
        -10.433137018204423
      ],
      [
        "▁constitution",
        -10.43345081197769
      ],
      [
        "ge",
        -10.43647482701461
      ],
      [
        "▁william",
        -10.437341329004575
      ],
      [
        "▁impos",
        -10.437462411360661
      ],
      [
        "▁labor",
        -10.43887390406072
      ],
      [
        "▁insur",
        -10.439475679477878
      ],
      [
        "▁priorit",
        -10.439674910860106
      ],
      [
        "old",
        -10.44188996999996
      ],
      [
        "▁robot",
        -10.442380975689165
      ],
      [
        "▁elephant",
        -10.44261412970628
      ],
      [
        "▁purple",
        -10.442614212228495
      ],
      [
        "▁exposure",
        -10.442615138456684
      ],
      [
        "▁garage",
        -10.442688655353582
      ],
      [
        "▁peaceful",
        -10.443086880787508
      ],
      [
        "▁suggestion",
        -10.443104822696071
      ],
      [
        "▁ko",
        -10.443486396011789
      ],
      [
        "▁unlike",
        -10.443512084643302
      ],
      [
        "▁cutting",
        -10.443692002345443
      ],
      [
        "▁sex",
        -10.44394173372473
      ],
      [
        "▁tali",
        -10.44430280086016
      ],
      [
        "▁26",
        -10.444339909649964
      ],
      [
        "▁cycle",
        -10.44469640018326
      ],
      [
        "lity",
        -10.444900019306813
      ],
      [
        "▁prior",
        -10.444960460163218
      ],
      [
        "▁apart",
        -10.445415814333812
      ],
      [
        "▁justice",
        -10.44739403615991
      ],
      [
        "ition",
        -10.447536803775899
      ],
      [
        "▁teaching",
        -10.448204703209786
      ],
      [
        "80",
        -10.448643577323836
      ],
      [
        "▁instance",
        -10.450473706091172
      ],
      [
        "▁edge",
        -10.450785727648572
      ],
      [
        "▁ski",
        -10.451633573720823
      ],
      [
        "▁onto",
        -10.451846975834847
      ],
      [
        "▁jim",
        -10.452034046016797
      ],
      [
        "▁dem",
        -10.452233595301298
      ],
      [
        "her",
        -10.452666445915362
      ],
      [
        "corn",
        -10.453963532615917
      ],
      [
        "▁trial",
        -10.454129826038162
      ],
      [
        "▁spani",
        -10.456749780547758
      ],
      [
        "▁http://",
        -10.457608545318879
      ],
      [
        "89",
        -10.461212673773536
      ],
      [
        "▁frank",
        -10.462540985600235
      ],
      [
        "▁aunt",
        -10.463251006742347
      ],
      [
        "tra",
        -10.463588140928742
      ],
      [
        "▁advi",
        -10.46372918556733
      ],
      [
        "▁won",
        -10.467512751478655
      ],
      [
        "bur",
        -10.468101943083733
      ],
      [
        "▁majorit",
        -10.468122803179416
      ],
      [
        "▁efficient",
        -10.468554965578361
      ],
      [
        "▁robert",
        -10.469093725669435
      ],
      [
        "▁iodi",
        -10.469194088315113
      ],
      [
        "▁continu",
        -10.470243652540496
      ],
      [
        "▁command",
        -10.470938595261686
      ],
      [
        "▁engine",
        -10.471244224793356
      ],
      [
        "▁bye",
        -10.471562695014212
      ],
      [
        "▁spirit",
        -10.47291210579829
      ],
      [
        "furniture",
        -10.472917173786808
      ],
      [
        "▁nervous",
        -10.472917336433326
      ],
      [
        "▁advantage",
        -10.472919085236946
      ],
      [
        "▁appointment",
        -10.472923888566125
      ],
      [
        "▁cowboy",
        -10.472924822196255
      ],
      [
        "▁monster",
        -10.47292776017115
      ],
      [
        "▁impress",
        -10.472934489338105
      ],
      [
        "▁failure",
        -10.47294305963889
      ],
      [
        "▁bump",
        -10.472953200533588
      ],
      [
        "▁suicid",
        -10.472980244102725
      ],
      [
        "▁vince",
        -10.473059950839254
      ],
      [
        "▁trading",
        -10.473081653406307
      ],
      [
        "▁vast",
        -10.47321119404901
      ],
      [
        "▁pupp",
        -10.473326506840667
      ],
      [
        "▁proud",
        -10.473915630152275
      ],
      [
        "▁click",
        -10.474054695013017
      ],
      [
        "▁awe",
        -10.47486447772818
      ],
      [
        "hood",
        -10.475775118885323
      ],
      [
        "ize",
        -10.476033180176673
      ],
      [
        "▁pin",
        -10.47659502009106
      ],
      [
        "▁enem",
        -10.476676807616599
      ],
      [
        "▁presen",
        -10.476870258177183
      ],
      [
        "▁rental",
        -10.476903690823054
      ],
      [
        "▁sustain",
        -10.47705015171362
      ],
      [
        "reports",
        -10.477418458223747
      ],
      [
        "▁empt",
        -10.477568642436099
      ],
      [
        "▁club",
        -10.477670707926785
      ],
      [
        "▁forth",
        -10.47870070160852
      ],
      [
        "▁vi",
        -10.47877040931138
      ],
      [
        "▁tear",
        -10.479126661839068
      ],
      [
        "▁excited",
        -10.479351731927085
      ],
      [
        "▁medica",
        -10.480657911880012
      ],
      [
        "till",
        -10.484544539946937
      ],
      [
        "bi",
        -10.48623119753854
      ],
      [
        "coming",
        -10.486532240069922
      ],
      [
        "▁religion",
        -10.489414601170974
      ],
      [
        "▁operation",
        -10.493079524020645
      ],
      [
        "▁fro",
        -10.493760421412109
      ],
      [
        "▁receiv",
        -10.495265656300534
      ],
      [
        "mwe",
        -10.497107975143635
      ],
      [
        "▁exten",
        -10.497643390766626
      ],
      [
        "▁custom",
        -10.500182414110537
      ],
      [
        "▁settle",
        -10.502610499849172
      ],
      [
        "▁shower",
        -10.503032625634296
      ],
      [
        "▁technologi",
        -10.504132136307046
      ],
      [
        "▁obtain",
        -10.504167173820164
      ],
      [
        "santorum",
        -10.504167571274799
      ],
      [
        "▁apparent",
        -10.504171734720856
      ],
      [
        "▁cartoon",
        -10.504192472950304
      ],
      [
        "▁income",
        -10.504222520207197
      ],
      [
        "▁motion",
        -10.504259388855306
      ],
      [
        "▁greek",
        -10.504311874158471
      ],
      [
        "▁worry",
        -10.504501106880111
      ],
      [
        "▁artist",
        -10.504587681137746
      ],
      [
        "▁shark",
        -10.50485200854006
      ],
      [
        "▁precise",
        -10.50496917470947
      ],
      [
        "▁bay",
        -10.50555561611713
      ],
      [
        "▁fork",
        -10.505823291786218
      ],
      [
        "▁engineer",
        -10.50589697566302
      ],
      [
        "▁odd",
        -10.506030244112358
      ],
      [
        "▁roar",
        -10.50662595154959
      ],
      [
        "▁useful",
        -10.507239513668994
      ],
      [
        "▁foundation",
        -10.508379622391505
      ],
      [
        "oh",
        -10.509699310950028
      ],
      [
        "▁session",
        -10.509818970154793
      ],
      [
        "▁substantial",
        -10.510069627459972
      ],
      [
        "▁joe",
        -10.510337953479668
      ],
      [
        "▁trick",
        -10.510957444645808
      ],
      [
        "▁cere",
        -10.512504353721184
      ],
      [
        "2011",
        -10.513281908731797
      ],
      [
        "▁graduate",
        -10.514858142076497
      ],
      [
        "news",
        -10.517058740132466
      ],
      [
        "▁inde",
        -10.518009269793799
      ],
      [
        "▁willing",
        -10.519087867094147
      ],
      [
        "▁bell",
        -10.519656893685394
      ],
      [
        "▁shock",
        -10.521176859395096
      ],
      [
        "what",
        -10.52149488086449
      ],
      [
        "▁conscious",
        -10.52175691477673
      ],
      [
        "▁happening",
        -10.521908511964893
      ],
      [
        "toge",
        -10.522625383405073
      ],
      [
        "ol",
        -10.523713962396958
      ],
      [
        "▁cooperati",
        -10.523942323096115
      ],
      [
        "▁independen",
        -10.525854841878868
      ],
      [
        "▁remark",
        -10.52753262462485
      ],
      [
        "▁nin",
        -10.529258610491505
      ],
      [
        "▁tend",
        -10.529720305726922
      ],
      [
        "arra",
        -10.530752122870759
      ],
      [
        "chest",
        -10.532619304953988
      ],
      [
        "▁relax",
        -10.534862151363734
      ],
      [
        "▁jew",
        -10.536346592345637
      ],
      [
        "▁speech",
        -10.536425237929627
      ],
      [
        "▁possibilit",
        -10.536425352407079
      ],
      [
        "▁candidate",
        -10.536425751478028
      ],
      [
        "▁analyst",
        -10.536425764536535
      ],
      [
        "▁zealand",
        -10.536426633021374
      ],
      [
        "▁identifie",
        -10.536427862097858
      ],
      [
        "▁replication",
        -10.536429000066269
      ],
      [
        "▁vegetable",
        -10.536429360708057
      ],
      [
        "▁column",
        -10.53643037550747
      ],
      [
        "▁fifty",
        -10.53643116537597
      ],
      [
        "▁chapter",
        -10.53644362715437
      ],
      [
        "▁marble",
        -10.536458562749578
      ],
      [
        "▁elevator",
        -10.536461716112811
      ],
      [
        "▁eighteen",
        -10.5364762458106
      ],
      [
        "▁restriction",
        -10.536480959416044
      ],
      [
        "▁feather",
        -10.536592543313645
      ],
      [
        "▁aim",
        -10.536595638323
      ],
      [
        "▁ec",
        -10.53669783410039
      ],
      [
        "▁medicine",
        -10.536774198437048
      ],
      [
        "▁tummy",
        -10.53692169140977
      ],
      [
        "▁valle",
        -10.537032277024984
      ],
      [
        "▁loose",
        -10.537136353597589
      ],
      [
        "▁gift",
        -10.53763342406457
      ],
      [
        "▁flie",
        -10.537699670110957
      ],
      [
        "ious",
        -10.53798342266851
      ],
      [
        "2006",
        -10.538957947781693
      ],
      [
        "nia",
        -10.539133098907913
      ],
      [
        "▁provid",
        -10.539859911276587
      ],
      [
        "▁batter",
        -10.54008027296283
      ],
      [
        "▁suspect",
        -10.540692223233346
      ],
      [
        "▁client",
        -10.540782989226631
      ],
      [
        "▁disease",
        -10.540926152141989
      ],
      [
        "▁investment",
        -10.541128806721519
      ],
      [
        "▁grass",
        -10.541492355102553
      ],
      [
        "▁dut",
        -10.542351124249636
      ],
      [
        "▁slide",
        -10.544381600080154
      ],
      [
        "▁israeli",
        -10.544434973242113
      ],
      [
        "half",
        -10.544775586432674
      ],
      [
        "ql",
        -10.544860166877784
      ],
      [
        "▁server",
        -10.545216553136314
      ],
      [
        "▁scott",
        -10.545241061112515
      ],
      [
        "▁import",
        -10.547586346763326
      ],
      [
        "▁kim",
        -10.549244505681264
      ],
      [
        "▁tradition",
        -10.55021246416993
      ],
      [
        "▁mis",
        -10.550977412497723
      ],
      [
        "▁bu",
        -10.551148480178703
      ],
      [
        "▁guard",
        -10.551727612347879
      ],
      [
        "▁debr",
        -10.554811024039333
      ],
      [
        "▁cris",
        -10.555005957316938
      ],
      [
        "▁crime",
        -10.55653310827511
      ],
      [
        "▁dr",
        -10.558673769559073
      ],
      [
        "ada",
        -10.561188439980569
      ],
      [
        "▁enable",
        -10.56156429958004
      ],
      [
        "ence",
        -10.562547135608991
      ],
      [
        "▁shin",
        -10.564476420477368
      ],
      [
        "q",
        -10.566830415518208
      ],
      [
        "▁trail",
        -10.567609135169965
      ],
      [
        "drew",
        -10.568343659457152
      ],
      [
        "rising",
        -10.568775096838165
      ],
      [
        "▁calm",
        -10.568899012547892
      ],
      [
        "▁strength",
        -10.569261156325226
      ],
      [
        "▁magazine",
        -10.569758557809172
      ],
      [
        "▁enjamb",
        -10.569758557821807
      ],
      [
        "▁ghost",
        -10.569758639179264
      ],
      [
        "▁stupid",
        -10.569758827380937
      ],
      [
        "▁holiday",
        -10.56976004628062
      ],
      [
        "▁delicious",
        -10.569760871435495
      ],
      [
        "▁vehicle",
        -10.569764816448787
      ],
      [
        "▁sixteen",
        -10.569780223219793
      ],
      [
        "▁gender",
        -10.56978097822638
      ],
      [
        "▁mosque",
        -10.569784884756078
      ],
      [
        "▁skittle",
        -10.569809292615687
      ],
      [
        "▁grammar",
        -10.569822301879476
      ],
      [
        "▁initiative",
        -10.569828848625214
      ],
      [
        "vernon",
        -10.56987140940123
      ],
      [
        "▁cheek",
        -10.569979271489037
      ],
      [
        "▁appeal",
        -10.570008053787447
      ],
      [
        "▁rome",
        -10.570206276914286
      ],
      [
        "▁emergenc",
        -10.570280691890442
      ],
      [
        "▁festival",
        -10.570337403814147
      ],
      [
        "▁appearance",
        -10.570419633643017
      ],
      [
        "▁drug",
        -10.570460522985945
      ],
      [
        "▁circum",
        -10.570921275208757
      ],
      [
        "▁universal",
        -10.571463568796368
      ],
      [
        "▁topic",
        -10.571829570573604
      ],
      [
        "▁inspire",
        -10.572010101184727
      ],
      [
        "▁pool",
        -10.573276194765613
      ],
      [
        "▁mush",
        -10.573874648284383
      ],
      [
        "▁lift",
        -10.574127108656333
      ],
      [
        "▁strike",
        -10.57423340525535
      ],
      [
        "▁copyright",
        -10.574694878923564
      ],
      [
        "00",
        -10.576135887397934
      ],
      [
        "all",
        -10.576145810657408
      ],
      [
        "ten",
        -10.577593706337673
      ],
      [
        "▁ear",
        -10.579729674305092
      ],
      [
        "▁bow",
        -10.580366091613598
      ],
      [
        "▁bone",
        -10.580791666475257
      ],
      [
        "▁dose",
        -10.580900565891111
      ],
      [
        "▁lope",
        -10.580998297266701
      ],
      [
        "use",
        -10.582363752450156
      ],
      [
        "changes",
        -10.584584087635989
      ],
      [
        "▁terror",
        -10.584804634331771
      ],
      [
        "my",
        -10.585700637769987
      ],
      [
        "▁oliv",
        -10.585911137041784
      ],
      [
        "iness",
        -10.587556168090298
      ],
      [
        "▁eb",
        -10.58772729741348
      ],
      [
        "▁herself",
        -10.589315820314653
      ],
      [
        "▁tag",
        -10.590510042374119
      ],
      [
        "que",
        -10.591345720402382
      ],
      [
        "ron",
        -10.59138993275868
      ],
      [
        "▁suppose",
        -10.593716511969728
      ],
      [
        "▁knee",
        -10.593792967074037
      ],
      [
        "▁profit",
        -10.594103853961208
      ],
      [
        "▁scale",
        -10.594141365703946
      ],
      [
        "▁beer",
        -10.59777123803596
      ],
      [
        "▁worm",
        -10.598162343159736
      ],
      [
        "▁smith",
        -10.599567673519621
      ],
      [
        "ill",
        -10.599915062916606
      ],
      [
        "▁emerg",
        -10.600063858453122
      ],
      [
        "▁rug",
        -10.60010265473199
      ],
      [
        "▁occasion",
        -10.60052616126941
      ],
      [
        "▁distribute",
        -10.600781585303471
      ],
      [
        "▁palestinian",
        -10.601508230862256
      ],
      [
        "▁80",
        -10.60194825546801
      ],
      [
        "▁contribution",
        -10.602309827524419
      ],
      [
        "▁install",
        -10.603823801525483
      ],
      [
        "▁doughnut",
        -10.604243155926486
      ],
      [
        "▁diaper",
        -10.604246380963165
      ],
      [
        "▁rescue",
        -10.604247925990357
      ],
      [
        "▁hamster",
        -10.60426620802901
      ],
      [
        "▁instruction",
        -10.60428436039594
      ],
      [
        "▁declaration",
        -10.604351940738114
      ],
      [
        "▁sill",
        -10.604623249813557
      ],
      [
        "▁feature",
        -10.604698887245185
      ],
      [
        "▁improvement",
        -10.604734348199795
      ],
      [
        "plastic",
        -10.604769139992777
      ],
      [
        "▁guideline",
        -10.604830903726292
      ],
      [
        "▁mexican",
        -10.604871796172628
      ],
      [
        "▁float",
        -10.605103597222573
      ],
      [
        "▁sentence",
        -10.605155782976205
      ],
      [
        "▁198",
        -10.60537757028119
      ],
      [
        "▁boxe",
        -10.605600533610804
      ],
      [
        "▁saving",
        -10.605765941925265
      ],
      [
        "▁athen",
        -10.606426700989081
      ],
      [
        "▁ocean",
        -10.606480491238521
      ],
      [
        "▁librar",
        -10.606512350521417
      ],
      [
        "▁theodor",
        -10.607654473085631
      ],
      [
        "zen",
        -10.607796994139244
      ],
      [
        "▁soil",
        -10.608592336968655
      ],
      [
        "▁shadow",
        -10.608779991300917
      ],
      [
        "▁journal",
        -10.608833725006704
      ],
      [
        "▁expression",
        -10.608965354980967
      ],
      [
        "▁ultimate",
        -10.60901622370688
      ],
      [
        "▁division",
        -10.609020440895053
      ],
      [
        "▁wolf",
        -10.609068166534605
      ],
      [
        "▁golden",
        -10.609166667828136
      ],
      [
        "▁domain",
        -10.609517721504242
      ],
      [
        "▁vice",
        -10.609533186171387
      ],
      [
        "▁sa",
        -10.609976527546952
      ],
      [
        "▁execute",
        -10.609988059695105
      ],
      [
        "▁commissioner",
        -10.610973520017144
      ],
      [
        "▁chao",
        -10.611461681449917
      ],
      [
        "place",
        -10.612358627958319
      ],
      [
        "▁quarter",
        -10.61334190096745
      ],
      [
        "▁length",
        -10.615267848238721
      ],
      [
        "▁accurate",
        -10.615629651648124
      ],
      [
        "▁turk",
        -10.6163078599938
      ],
      [
        "▁cast",
        -10.618473501584917
      ],
      [
        "▁90",
        -10.618855870499425
      ],
      [
        "▁non",
        -10.619112135647978
      ],
      [
        "▁bare",
        -10.619239895079962
      ],
      [
        "▁28",
        -10.620473060980338
      ],
      [
        "▁hel",
        -10.62121156283647
      ],
      [
        "▁folk",
        -10.621623227545252
      ],
      [
        "rove",
        -10.62185091221443
      ],
      [
        "▁easie",
        -10.622652499575889
      ],
      [
        "▁tip",
        -10.623338263815539
      ],
      [
        "▁twist",
        -10.62437976730957
      ],
      [
        "▁advise",
        -10.62470189765805
      ],
      [
        "▁burn",
        -10.624882692086185
      ],
      [
        "2000",
        -10.626658273486367
      ],
      [
        "▁@",
        -10.626769861778712
      ],
      [
        "▁reveal",
        -10.627872016056749
      ],
      [
        "ooh",
        -10.630190602987193
      ],
      [
        "▁severe",
        -10.631055263494092
      ],
      [
        "quino",
        -10.6314911436173
      ],
      [
        "▁declare",
        -10.631922347647691
      ],
      [
        "▁mission",
        -10.633800838548881
      ],
      [
        "▁arrival",
        -10.634786551059024
      ],
      [
        "▁uk",
        -10.635249096146042
      ],
      [
        "▁dese",
        -10.637219772809047
      ],
      [
        "▁agricultur",
        -10.637400190588657
      ],
      [
        "▁arrange",
        -10.637976986828736
      ],
      [
        "▁friendl",
        -10.638192124520026
      ],
      [
        "▁entit",
        -10.638784880252425
      ],
      [
        "▁faith",
        -10.63978139548609
      ],
      [
        "▁consequence",
        -10.639955602195824
      ],
      [
        "▁colleague",
        -10.63995560399809
      ],
      [
        "▁currenc",
        -10.639958279145699
      ],
      [
        "▁pump",
        -10.639960449070573
      ],
      [
        "▁cupcake",
        -10.63997556283564
      ],
      [
        "▁fuel",
        -10.6400230384415
      ],
      [
        "▁bubble",
        -10.64005059095579
      ],
      [
        "▁excuse",
        -10.64007023566051
      ],
      [
        "▁academic",
        -10.64007612812488
      ],
      [
        "▁prime",
        -10.6400818785618
      ],
      [
        "▁airfare",
        -10.640144228531504
      ],
      [
        "▁hurry",
        -10.64017810107492
      ],
      [
        "▁collective",
        -10.640225754741168
      ],
      [
        "▁glove",
        -10.64024677956659
      ],
      [
        "▁description",
        -10.64035094148231
      ],
      [
        "▁serving",
        -10.640394827659371
      ],
      [
        "▁background",
        -10.64058975895766
      ],
      [
        "effects",
        -10.640598227788825
      ],
      [
        "▁romantic",
        -10.640611834156466
      ],
      [
        "▁royal",
        -10.640674051424295
      ],
      [
        "▁galo",
        -10.640898282491072
      ],
      [
        "▁expectation",
        -10.641299912534256
      ],
      [
        "▁carolin",
        -10.641470230247617
      ],
      [
        "▁fl",
        -10.641712822536778
      ],
      [
        "sumption",
        -10.641726261652634
      ],
      [
        "▁crop",
        -10.641962360498233
      ],
      [
        "▁passe",
        -10.642734746711357
      ],
      [
        "▁devil",
        -10.644316134551527
      ],
      [
        "▁farmer",
        -10.64458249802076
      ],
      [
        "▁narrow",
        -10.64462082837066
      ],
      [
        "▁definition",
        -10.644838887239226
      ],
      [
        "▁muslim",
        -10.644924713644894
      ],
      [
        "▁annual",
        -10.645190472647986
      ],
      [
        "▁relie",
        -10.64541631853028
      ],
      [
        "▁31",
        -10.645576919170747
      ],
      [
        "▁inc",
        -10.645589759363595
      ],
      [
        "▁repeated",
        -10.646083178890326
      ],
      [
        "▁th",
        -10.64624115544634
      ],
      [
        "mission",
        -10.646434504548896
      ],
      [
        "▁spoon",
        -10.646773149538134
      ],
      [
        "▁tickle",
        -10.647505060173135
      ],
      [
        "ice",
        -10.648357171994482
      ],
      [
        "▁critical",
        -10.648606795364962
      ],
      [
        "down",
        -10.648905925759635
      ],
      [
        "itch",
        -10.649551155761374
      ],
      [
        "▁promote",
        -10.650463891495734
      ],
      [
        "▁tru",
        -10.651000160490288
      ],
      [
        "marie",
        -10.651678532516947
      ],
      [
        "▁foods",
        -10.651813369563875
      ],
      [
        "▁coat",
        -10.651883689527047
      ],
      [
        "▁pro",
        -10.653316512592347
      ],
      [
        "▁arrow",
        -10.65364442202247
      ],
      [
        "tractor",
        -10.655518399427164
      ],
      [
        "▁inter",
        -10.65650788437878
      ],
      [
        "▁commercial",
        -10.657234942714716
      ],
      [
        ".net",
        -10.657325731428072
      ],
      [
        "▁wor",
        -10.65777072177167
      ],
      [
        "cca",
        -10.660616229142693
      ],
      [
        "rick",
        -10.661697807383852
      ],
      [
        "igator",
        -10.662131938134959
      ],
      [
        "▁demonstrate",
        -10.662777626039876
      ],
      [
        "▁hung",
        -10.663447922740545
      ],
      [
        "wide",
        -10.664000976784887
      ],
      [
        "▁kiss",
        -10.665685405655493
      ],
      [
        "▁penny",
        -10.665900646165543
      ],
      [
        "vod",
        -10.666833552153705
      ],
      [
        "▁hire",
        -10.667170202158855
      ],
      [
        "unch",
        -10.667498699175887
      ],
      [
        "▁transfer",
        -10.667513488406904
      ],
      [
        "stance",
        -10.667934698345755
      ],
      [
        "ryan",
        -10.668634723726985
      ],
      [
        "▁experiment",
        -10.670170863452721
      ],
      [
        "▁prepare",
        -10.67087981934662
      ],
      [
        "cient",
        -10.671248104220084
      ],
      [
        "▁lo",
        -10.672374242106871
      ],
      [
        "kyo",
        -10.673105416084391
      ],
      [
        "▁familiar",
        -10.67327604701373
      ],
      [
        "▁steve",
        -10.673702822242172
      ],
      [
        "▁horses",
        -10.673998541054296
      ],
      [
        "▁troop",
        -10.674209493716663
      ],
      [
        "▁republic",
        -10.675306851214124
      ],
      [
        "▁stream",
        -10.675579369937422
      ],
      [
        "▁pad",
        -10.675626994599979
      ],
      [
        "▁adjust",
        -10.6768267717064
      ],
      [
        "▁register",
        -10.676993011971437
      ],
      [
        "▁village",
        -10.676996262961085
      ],
      [
        "▁pepper",
        -10.676996789342631
      ],
      [
        "▁basket",
        -10.676997047820237
      ],
      [
        "▁revenue",
        -10.677023126926397
      ],
      [
        "▁confidential",
        -10.677026652333216
      ],
      [
        "▁translation",
        -10.677067797602714
      ],
      [
        "▁towel",
        -10.67706916693559
      ],
      [
        "▁jewish",
        -10.677078815809654
      ],
      [
        "▁oppose",
        -10.67710547963749
      ],
      [
        "▁minimum",
        -10.67711103479479
      ],
      [
        "▁trash",
        -10.677153474785614
      ],
      [
        "▁arrangement",
        -10.677271937501107
      ],
      [
        "▁pleasure",
        -10.677338846643034
      ],
      [
        "▁medium",
        -10.677367995396702
      ],
      [
        "▁bang",
        -10.677503351053517
      ],
      [
        "▁unknown",
        -10.677895244418936
      ],
      [
        "rubber",
        -10.678193282626621
      ],
      [
        "▁industrial",
        -10.67874420624932
      ],
      [
        "▁wa",
        -10.679748975140624
      ],
      [
        "▁variet",
        -10.68057292130196
      ],
      [
        "▁kent",
        -10.681607136829053
      ],
      [
        "▁package",
        -10.682674889168899
      ],
      [
        "▁defin",
        -10.68271520362102
      ],
      [
        "▁soup",
        -10.685890028549066
      ],
      [
        "▁nick",
        -10.68676781999082
      ],
      [
        "▁revolution",
        -10.687569331349396
      ],
      [
        "▁75",
        -10.687586836255008
      ],
      [
        "▁shell",
        -10.687927680020687
      ],
      [
        "▁kar",
        -10.688105251252138
      ],
      [
        "▁nest",
        -10.688485101399053
      ],
      [
        "▁subscribe",
        -10.689037628423328
      ],
      [
        "▁witch",
        -10.689275620142912
      ],
      [
        "▁chose",
        -10.690338896573115
      ],
      [
        "▁1000",
        -10.692025195943994
      ],
      [
        "mir",
        -10.693520445208645
      ],
      [
        "▁info",
        -10.69360049243841
      ],
      [
        "▁asia",
        -10.693655945772992
      ],
      [
        "▁brush",
        -10.694405506724875
      ],
      [
        "45",
        -10.695121658300906
      ],
      [
        "▁victor",
        -10.695368261964413
      ],
      [
        "▁tha",
        -10.695881256422515
      ],
      [
        "▁origin",
        -10.695886071064194
      ],
      [
        "standing",
        -10.701215369151573
      ],
      [
        "▁engage",
        -10.701475441397722
      ],
      [
        "nforcement",
        -10.701739592626668
      ],
      [
        "lly",
        -10.701939642150954
      ],
      [
        "▁vlog",
        -10.702396571107348
      ],
      [
        "ture",
        -10.703924777918543
      ],
      [
        "▁nav",
        -10.704066343418571
      ],
      [
        "▁proceed",
        -10.704811851605992
      ],
      [
        "crome",
        -10.70482525315663
      ],
      [
        "▁surround",
        -10.705067835533352
      ],
      [
        "ked",
        -10.70821261067765
      ],
      [
        "sleep",
        -10.709004469803237
      ],
      [
        "ham",
        -10.71021882913987
      ],
      [
        "▁hill",
        -10.710775411531584
      ],
      [
        "▁sir",
        -10.710992267509207
      ],
      [
        "▁jihad",
        -10.713675284512215
      ],
      [
        "ford",
        -10.713852257125103
      ],
      [
        "nife",
        -10.713902450843413
      ],
      [
        "▁ruin",
        -10.714634879546086
      ],
      [
        "▁blank",
        -10.715426241650393
      ],
      [
        "▁derivative",
        -10.715454177635545
      ],
      [
        "▁disappear",
        -10.71545417772066
      ],
      [
        "▁mosquito",
        -10.71545418571732
      ],
      [
        "▁catholic",
        -10.715454213545634
      ],
      [
        "▁donkey",
        -10.715454449711203
      ],
      [
        "▁cigarette",
        -10.715455415740621
      ],
      [
        "▁sufficient",
        -10.715456302901693
      ],
      [
        "▁dursley",
        -10.715469054605634
      ],
      [
        "▁twentieth",
        -10.715490053023576
      ],
      [
        "▁michel",
        -10.715541144542215
      ],
      [
        "▁recall",
        -10.71571682909254
      ],
      [
        "▁achievement",
        -10.715915689652949
      ],
      [
        "▁wiggle",
        -10.716157940984598
      ],
      [
        "▁generat",
        -10.716656944478883
      ],
      [
        "▁angr",
        -10.716680917784924
      ],
      [
        "▁puzzle",
        -10.716800629216086
      ],
      [
        "▁height",
        -10.71685221578371
      ],
      [
        "▁strain",
        -10.716906622073882
      ],
      [
        "▁approximate",
        -10.71700748226778
      ],
      [
        "▁republican",
        -10.717209196858738
      ],
      [
        "▁swimm",
        -10.717526403400017
      ],
      [
        "▁neat",
        -10.717709697953786
      ],
      [
        "▁27",
        -10.717757059618053
      ],
      [
        "▁po",
        -10.71798005284145
      ],
      [
        "▁zoo",
        -10.718266639829716
      ],
      [
        "▁youtube",
        -10.718792225988427
      ],
      [
        "▁goat",
        -10.719067853852424
      ],
      [
        "▁identit",
        -10.71996411581322
      ],
      [
        "▁conclude",
        -10.720796530790711
      ],
      [
        "spos",
        -10.721396423824963
      ],
      [
        "▁battle",
        -10.722101043031984
      ],
      [
        "▁lick",
        -10.722211907594623
      ],
      [
        "▁theatre",
        -10.722282456850925
      ],
      [
        "lies",
        -10.723622438241641
      ],
      [
        "▁improv",
        -10.723914816316181
      ],
      [
        "▁psycholog",
        -10.724146710358768
      ],
      [
        "▁stands",
        -10.725430585844226
      ],
      [
        "▁libert",
        -10.726864079759157
      ],
      [
        "▁linguistic",
        -10.728067943508595
      ],
      [
        "▁shake",
        -10.728591376583516
      ],
      [
        "▁poo",
        -10.729374720832489
      ],
      [
        "▁196",
        -10.729713376362565
      ],
      [
        "▁joy",
        -10.729884695458313
      ],
      [
        "▁spread",
        -10.730233829926036
      ],
      [
        "▁occur",
        -10.73039701677291
      ],
      [
        "▁suffering",
        -10.730636132879816
      ],
      [
        "can",
        -10.732242192561788
      ],
      [
        "▁ap",
        -10.732930995793314
      ],
      [
        "▁killing",
        -10.734069097199203
      ],
      [
        "pm",
        -10.735687046232893
      ],
      [
        "▁bas",
        -10.736464902390715
      ],
      [
        "ul",
        -10.738415105807805
      ],
      [
        "ez",
        -10.738648797854506
      ],
      [
        "▁crie",
        -10.738946903934167
      ],
      [
        "cal",
        -10.740037336909701
      ],
      [
        "ification",
        -10.742381585234732
      ],
      [
        "▁ba",
        -10.74496585086639
      ],
      [
        "corporate",
        -10.745319541179256
      ],
      [
        "we",
        -10.745598495166892
      ],
      [
        "▁relations",
        -10.746863058816647
      ],
      [
        "▁hous",
        -10.74726451659713
      ],
      [
        "▁drawing",
        -10.748986134450448
      ],
      [
        "▁edit",
        -10.749216186899826
      ],
      [
        "▁happi",
        -10.74940921872308
      ],
      [
        "▁involv",
        -10.750650212576407
      ],
      [
        "ourse",
        -10.751247636399626
      ],
      [
        "▁hid",
        -10.752240348525863
      ],
      [
        "ensive",
        -10.752279674280125
      ],
      [
        "▁survive",
        -10.753315745605361
      ],
      [
        "▁ignore",
        -10.75333911091406
      ],
      [
        "▁strange",
        -10.753960512018477
      ],
      [
        "▁pric",
        -10.755179998442312
      ],
      [
        "▁infrastructure",
        -10.755454177611881
      ],
      [
        "▁mirror",
        -10.755454283110073
      ],
      [
        "▁tulsa",
        -10.755454710214895
      ],
      [
        "▁uniform",
        -10.75545577394531
      ],
      [
        "▁identify",
        -10.755456772823848
      ],
      [
        "▁regime",
        -10.75547346455303
      ],
      [
        "▁household",
        -10.75555519700738
      ],
      [
        "▁criminal",
        -10.755584979610694
      ],
      [
        "▁giant",
        -10.75558860357235
      ],
      [
        "▁selection",
        -10.755673885965015
      ],
      [
        "▁destination",
        -10.755718986438081
      ],
      [
        "▁incredibl",
        -10.755961767141375
      ],
      [
        "▁wire",
        -10.756004518654509
      ],
      [
        "▁strengthen",
        -10.756053393772984
      ],
      [
        "▁internal",
        -10.756183290202035
      ],
      [
        "delhi",
        -10.756225056046473
      ],
      [
        "▁pattern",
        -10.756553831156992
      ],
      [
        "▁andaman",
        -10.756767133131623
      ],
      [
        "▁numero",
        -10.757072838276528
      ],
      [
        "▁clay",
        -10.757300301800298
      ],
      [
        "▁frame",
        -10.757347982487728
      ],
      [
        "▁worrie",
        -10.758322163993117
      ],
      [
        "▁pure",
        -10.759033783089942
      ],
      [
        "▁prefer",
        -10.760074069480353
      ],
      [
        "▁łodz",
        -10.760465172426473
      ],
      [
        "▁cloud",
        -10.760488461353603
      ],
      [
        "▁contribute",
        -10.76120861728597
      ],
      [
        "▁e.g",
        -10.761304947935164
      ],
      [
        "▁oct",
        -10.76165208359147
      ],
      [
        "▁portion",
        -10.762109113342019
      ],
      [
        "upper",
        -10.763772436341624
      ],
      [
        "▁bulb",
        -10.764794775722478
      ],
      [
        "▁practical",
        -10.765295564266866
      ],
      [
        "own",
        -10.765764952257305
      ],
      [
        "▁conclusion",
        -10.765961595050323
      ],
      [
        "book",
        -10.766533442402004
      ],
      [
        "▁suck",
        -10.768823569326504
      ],
      [
        "▁destroy",
        -10.770344695398226
      ],
      [
        "ect",
        -10.770513991071478
      ],
      [
        "rdon",
        -10.771269038515912
      ],
      [
        "▁ex",
        -10.771467611179457
      ],
      [
        "pped",
        -10.771896706446725
      ],
      [
        "▁scare",
        -10.775099843694704
      ],
      [
        "▁talent",
        -10.775266238376563
      ],
      [
        "▁mid-",
        -10.775474875726736
      ],
      [
        "fence",
        -10.776174955194536
      ],
      [
        "▁cliff",
        -10.776409228229879
      ],
      [
        "▁yard",
        -10.777816973766724
      ],
      [
        "▁thin",
        -10.778605046806529
      ],
      [
        "▁curve",
        -10.77944191417053
      ],
      [
        "▁participati",
        -10.780991062958126
      ],
      [
        "▁negati",
        -10.781819820969176
      ],
      [
        "saw",
        -10.782349682960898
      ],
      [
        "▁thre",
        -10.78303001496809
      ],
      [
        "▁tw",
        -10.786399783303146
      ],
      [
        "▁licens",
        -10.787339981279587
      ],
      [
        "▁pa",
        -10.787415499536126
      ],
      [
        "▁mum",
        -10.78877191216584
      ],
      [
        "▁repeat",
        -10.791045497460473
      ],
      [
        "seni",
        -10.791435597854925
      ],
      [
        "▁excel",
        -10.791726598371657
      ],
      [
        "▁owl",
        -10.792299335931009
      ],
      [
        "▁jan",
        -10.793664819331095
      ],
      [
        "▁bin",
        -10.796057050931656
      ],
      [
        "▁visual",
        -10.796353072654654
      ],
      [
        "▁neighbour",
        -10.797090824046474
      ],
      [
        "▁protest",
        -10.797114487313682
      ],
      [
        "▁explanation",
        -10.797120848308989
      ],
      [
        "▁wizard",
        -10.79712085286776
      ],
      [
        "▁ingredient",
        -10.797120855822586
      ],
      [
        "▁counterfeit",
        -10.797120858351331
      ],
      [
        "▁attorney",
        -10.797120879374049
      ],
      [
        "▁entertain",
        -10.79712103558048
      ],
      [
        "▁taiwan",
        -10.797122719666971
      ],
      [
        "▁strawberr",
        -10.797122736579043
      ],
      [
        "▁recipient",
        -10.797126465499133
      ],
      [
        "▁urban",
        -10.797127185236755
      ],
      [
        "▁snitch",
        -10.797138992763136
      ],
      [
        "▁biological",
        -10.797151340052457
      ],
      [
        "▁equipment",
        -10.797155415842202
      ],
      [
        "▁saudi",
        -10.797157862377427
      ],
      [
        "▁recruit",
        -10.797173426913806
      ],
      [
        "▁seventeen",
        -10.797174497914561
      ],
      [
        "▁jason",
        -10.79718701767195
      ],
      [
        "▁recover",
        -10.79718861443732
      ],
      [
        "▁grape",
        -10.797205086492667
      ],
      [
        "▁commitment",
        -10.797288415911579
      ],
      [
        "▁desert",
        -10.797337105845424
      ],
      [
        "▁addiction",
        -10.797342299430149
      ],
      [
        "▁aesthetic",
        -10.797349474351513
      ],
      [
        "▁wipe",
        -10.797393444605484
      ],
      [
        "surgery",
        -10.797458545957532
      ],
      [
        "▁constituenc",
        -10.797488923026023
      ],
      [
        "▁horn",
        -10.797626160484466
      ],
      [
        "▁native",
        -10.797736578975387
      ],
      [
        "▁attitude",
        -10.797759189959189
      ],
      [
        "▁stress",
        -10.797829803498011
      ],
      [
        "▁predict",
        -10.797957384253374
      ],
      [
        "nger",
        -10.798026725728592
      ],
      [
        "stein",
        -10.798052991783155
      ],
      [
        "▁l2",
        -10.798502229734714
      ],
      [
        "▁laid",
        -10.798688172033064
      ],
      [
        "germany",
        -10.799149654879173
      ],
      [
        "▁actor",
        -10.79933856705993
      ],
      [
        "▁tower",
        -10.799684078141524
      ],
      [
        "▁opposite",
        -10.800134372784187
      ],
      [
        "▁crack",
        -10.800730288219127
      ],
      [
        "▁pipe",
        -10.801154760460776
      ],
      [
        "▁sue",
        -10.801789762288394
      ],
      [
        "▁glow",
        -10.801809710310977
      ],
      [
        "▁couch",
        -10.801903915011984
      ],
      [
        "▁surprising",
        -10.802518695929848
      ],
      [
        "▁quartile",
        -10.802723707665786
      ],
      [
        "2009",
        -10.802814237771738
      ],
      [
        "▁salon",
        -10.803383578051964
      ],
      [
        "▁producer",
        -10.80359305660781
      ],
      [
        "nato",
        -10.803768907338151
      ],
      [
        "▁pledge",
        -10.804405770054666
      ],
      [
        "pover",
        -10.80538834425773
      ],
      [
        "▁sunni",
        -10.805912196402737
      ],
      [
        "well",
        -10.806014861010466
      ],
      [
        "▁favour",
        -10.80615780095377
      ],
      [
        "ma",
        -10.806343190358676
      ],
      [
        "=",
        -10.806543207918986
      ],
      [
        "▁ku",
        -10.807313029917653
      ],
      [
        "ome",
        -10.808135256049795
      ],
      [
        "▁lab",
        -10.808430738788946
      ],
      [
        "▁surrounding",
        -10.808633078171725
      ],
      [
        "▁mental",
        -10.809851367845567
      ],
      [
        "▁!!!!",
        -10.810111483557117
      ],
      [
        "▁marked",
        -10.810359321801213
      ],
      [
        "▁helping",
        -10.81351877140591
      ],
      [
        "▁mayor",
        -10.814686423583248
      ],
      [
        "▁charles",
        -10.814972446365136
      ],
      [
        "92",
        -10.815210840311252
      ],
      [
        "▁jam",
        -10.816970550640557
      ],
      [
        "▁planet",
        -10.817116053762529
      ],
      [
        "▁researcher",
        -10.817824088152163
      ],
      [
        "▁ra",
        -10.818572821108948
      ],
      [
        "▁bond",
        -10.818788934732632
      ],
      [
        "presentation",
        -10.819051747750915
      ],
      [
        "val",
        -10.820544943913038
      ],
      [
        "▁taxi",
        -10.82133108329482
      ],
      [
        "▁pakistani",
        -10.82273346900761
      ],
      [
        "▁transform",
        -10.824709859831763
      ],
      [
        "▁re-",
        -10.82497196289489
      ],
      [
        "kin",
        -10.82581959579175
      ],
      [
        "▁functional",
        -10.825926272545274
      ],
      [
        "▁|",
        -10.82626397524356
      ],
      [
        "▁jo",
        -10.826476221747551
      ],
      [
        "▁shi",
        -10.82739305316671
      ],
      [
        "bye",
        -10.828792684039549
      ],
      [
        "▁scholars",
        -10.831053945614414
      ],
      [
        "▁suprem",
        -10.831132497642177
      ],
      [
        "▁reache",
        -10.832038534089088
      ],
      [
        "tie",
        -10.836463124803869
      ],
      [
        "▁smooth",
        -10.836535451611166
      ],
      [
        "▁commons",
        -10.836911207919147
      ],
      [
        "▁race",
        -10.83744544399997
      ],
      [
        "▁fold",
        -10.838203577853205
      ],
      [
        "▁harm",
        -10.838306538026362
      ],
      [
        "400",
        -10.838366317931214
      ],
      [
        "▁rail",
        -10.840497215547341
      ],
      [
        "▁explore",
        -10.840516437081051
      ],
      [
        "▁neighbor",
        -10.840570910538217
      ],
      [
        "▁argentin",
        -10.840599123224765
      ],
      [
        "▁contemporar",
        -10.840599329948763
      ],
      [
        "▁captain",
        -10.840599494622438
      ],
      [
        "▁multiple",
        -10.840599972397348
      ],
      [
        "▁prosper",
        -10.840603450003048
      ],
      [
        "▁strict",
        -10.840606181684462
      ],
      [
        "▁guilt",
        -10.840611983958931
      ],
      [
        "▁mechanic",
        -10.840623165032289
      ],
      [
        "▁password",
        -10.840639605883677
      ],
      [
        "▁spear",
        -10.840661800389789
      ],
      [
        "▁slice",
        -10.840667148466915
      ],
      [
        "▁lawyer",
        -10.840739069107132
      ],
      [
        "▁approval",
        -10.840773230908475
      ],
      [
        "▁crayon",
        -10.840820115282291
      ],
      [
        "▁missile",
        -10.840825314893308
      ],
      [
        "genda",
        -10.840946703623269
      ],
      [
        "▁massive",
        -10.84098319883882
      ],
      [
        "▁afterward",
        -10.841013760043824
      ],
      [
        "▁islamist",
        -10.84102669898954
      ],
      [
        "▁disney",
        -10.841068201953405
      ],
      [
        "▁gap",
        -10.841364577729621
      ],
      [
        "▁ansi-",
        -10.841757393364809
      ],
      [
        "▁spray",
        -10.841976863875445
      ],
      [
        "▁lanka",
        -10.84235598005506
      ],
      [
        "▁surviv",
        -10.842491587765876
      ],
      [
        "▁highlight",
        -10.842990659069066
      ],
      [
        "▁lil",
        -10.843303171061992
      ],
      [
        "▁recommendation",
        -10.84355056798796
      ],
      [
        "▁outer",
        -10.843815776275472
      ],
      [
        "▁insight",
        -10.843819931464978
      ],
      [
        "▁dial",
        -10.84413586700351
      ],
      [
        "▁mohamm",
        -10.844529308788083
      ],
      [
        "▁dollie",
        -10.844579664917157
      ],
      [
        "▁shift",
        -10.846140641439948
      ],
      [
        "▁discount",
        -10.84625211193121
      ],
      [
        "▁saddam",
        -10.846298555903166
      ],
      [
        "▁comparison",
        -10.846439168207889
      ],
      [
        "2017",
        -10.846440366143561
      ],
      [
        "▁judgment",
        -10.846455477523643
      ],
      [
        "▁70",
        -10.846791015204406
      ],
      [
        "bo",
        -10.846793110542928
      ],
      [
        "▁bench",
        -10.847682130696018
      ],
      [
        "▁belt",
        -10.847886185958567
      ],
      [
        "$",
        -10.848195276844443
      ],
      [
        "▁threaten",
        -10.848554868986577
      ],
      [
        "▁experimental",
        -10.848705718130368
      ],
      [
        "pain",
        -10.849076979261266
      ],
      [
        "▁38",
        -10.849223626605582
      ],
      [
        "▁entitle",
        -10.849301607788703
      ],
      [
        "▁asset",
        -10.849611084207282
      ],
      [
        "▁amend",
        -10.850966616687344
      ],
      [
        "▁ena",
        -10.85097165676835
      ],
      [
        "ca",
        -10.851231010539914
      ],
      [
        "▁su",
        -10.85214185728174
      ],
      [
        "▁cuba",
        -10.853090174801023
      ],
      [
        "▁dud",
        -10.853262688936018
      ],
      [
        "▁breast",
        -10.854467501360782
      ],
      [
        "▁shel",
        -10.854574504913128
      ],
      [
        "▁radio",
        -10.855707245547032
      ],
      [
        "▁rub",
        -10.855713316965002
      ],
      [
        "▁hunt",
        -10.855848509517351
      ],
      [
        "▁cognitive",
        -10.85599456808384
      ],
      [
        "▁core",
        -10.856216854587158
      ],
      [
        "ota",
        -10.856712229192548
      ],
      [
        "no",
        -10.857389413854147
      ],
      [
        "▁asian",
        -10.857596216973587
      ],
      [
        "▁iron",
        -10.858377371854115
      ],
      [
        "▁balle",
        -10.858666941160704
      ],
      [
        "▁rush",
        -10.85884207525876
      ],
      [
        "▁struggle",
        -10.86007306131967
      ],
      [
        "▁ka",
        -10.860084601782884
      ],
      [
        "▁pile",
        -10.860185965322444
      ],
      [
        "▁socks",
        -10.860483691963841
      ],
      [
        "▁coal",
        -10.861492636494678
      ],
      [
        "▁gate",
        -10.864344728203914
      ],
      [
        "rank",
        -10.866321391310318
      ],
      [
        "▁traditional",
        -10.866817768812274
      ],
      [
        "▁photo",
        -10.866965174020928
      ],
      [
        "▁ken",
        -10.869026364560414
      ],
      [
        "za",
        -10.870152006232557
      ],
      [
        "▁ph",
        -10.871040919833993
      ],
      [
        "▁combine",
        -10.871527907898383
      ],
      [
        "▁structural",
        -10.871566089344839
      ],
      [
        "▁ladder",
        -10.87184776182656
      ],
      [
        "▁guide",
        -10.871937762069011
      ],
      [
        "ideas",
        -10.872347555794574
      ],
      [
        "▁heads",
        -10.873210901391943
      ],
      [
        "03",
        -10.873424276067697
      ],
      [
        "▁grab",
        -10.873451269809014
      ],
      [
        "han",
        -10.873467247290739
      ],
      [
        "▁primar",
        -10.875570689309118
      ],
      [
        "▁crash",
        -10.876289153636115
      ],
      [
        "▁tri",
        -10.877720211678024
      ],
      [
        "▁bob",
        -10.878827554190345
      ],
      [
        "▁lean",
        -10.878958129518024
      ],
      [
        "▁domestic",
        -10.882327802105124
      ],
      [
        "▁gather",
        -10.882809720004936
      ],
      [
        "▁participate",
        -10.883091622070825
      ],
      [
        "▁preserve",
        -10.883595850234242
      ],
      [
        "▁punch",
        -10.883670850645078
      ],
      [
        "▁honor",
        -10.885384822340038
      ],
      [
        "nope",
        -10.885917189650097
      ],
      [
        "▁comprehensi",
        -10.886053661510902
      ],
      [
        "▁subsequent",
        -10.886053683899503
      ],
      [
        "▁prompt",
        -10.886054085900694
      ],
      [
        "▁flirt",
        -10.886055198424117
      ],
      [
        "▁outcome",
        -10.886066278521737
      ],
      [
        "▁unemploy",
        -10.8860695854591
      ],
      [
        "▁succeed",
        -10.88607166053625
      ],
      [
        "▁pirate",
        -10.886076237537889
      ],
      [
        "▁neighborhood",
        -10.88608315696616
      ],
      [
        "▁shiite",
        -10.886110813832385
      ],
      [
        "▁traged",
        -10.886120005528294
      ],
      [
        "▁throat",
        -10.886121049079524
      ],
      [
        "▁bucket",
        -10.886144276962208
      ],
      [
        "▁crew",
        -10.886149071227397
      ],
      [
        "▁tomato",
        -10.886157052122016
      ],
      [
        "▁gym",
        -10.886184857332262
      ],
      [
        "▁blink",
        -10.886262043604532
      ],
      [
        "▁cafe",
        -10.886264060648116
      ],
      [
        "▁leadership",
        -10.886269420217118
      ],
      [
        "▁blind",
        -10.886339565743008
      ],
      [
        "▁artwork",
        -10.886356547721572
      ],
      [
        "▁sweater",
        -10.886473413670434
      ],
      [
        "▁johnson",
        -10.886650165728279
      ],
      [
        "▁delay",
        -10.886769732351297
      ],
      [
        "▁thick",
        -10.88680403446686
      ],
      [
        "▁beatle",
        -10.88726973404917
      ],
      [
        "▁alleged",
        -10.8872795989728
      ],
      [
        "▁queries",
        -10.88784789816371
      ],
      [
        "shared",
        -10.888046484145423
      ],
      [
        "crazy",
        -10.88820220531592
      ],
      [
        "▁certificate",
        -10.88886470658096
      ],
      [
        "20",
        -10.889058227937056
      ],
      [
        "▁polish",
        -10.89011236778413
      ],
      [
        "▁trader",
        -10.890488766873787
      ],
      [
        "▁potato",
        -10.891925591778051
      ],
      [
        "▁expire",
        -10.892522626326532
      ],
      [
        "roni",
        -10.892645353774745
      ],
      [
        "▁anti",
        -10.8939553112974
      ],
      [
        "0,000",
        -10.894231091897938
      ],
      [
        "▁cracker",
        -10.894509967036505
      ],
      [
        "evolutionar",
        -10.894711839421877
      ],
      [
        "▁li",
        -10.894764587162273
      ],
      [
        "▁squeeze",
        -10.895474998389734
      ],
      [
        "▁swede",
        -10.896286418021813
      ],
      [
        "bones",
        -10.896688800102574
      ],
      [
        "▁gray",
        -10.896750577839168
      ],
      [
        "▁referr",
        -10.897168809944944
      ],
      [
        "▁exception",
        -10.897199395168812
      ],
      [
        "whil",
        -10.89761180441314
      ],
      [
        "▁incorporate",
        -10.897753991020904
      ],
      [
        "▁sq",
        -10.897781068538698
      ],
      [
        "▁stars",
        -10.898541172994772
      ],
      [
        "▁fashion",
[...]
