{
  "version": "1.0",
  "truncation": null,
  "padding": null,
  "added_tokens": [
    {
      "id": 0,
      "content": "[UNK]",
      "single_word": false,
      "lstrip": false,
      "rstrip": false,
      "normalized": false,
      "special": true
    },
    {
      "id": 1,
      "content": "[PAD]",
      "single_word": false,
      "lstrip": false,
      "rstrip": false,
      "normalized": false,
      "special": true
    },
    {
      "id": 2,
      "content": "[CLS]",
      "single_word": false,
      "lstrip": false,
      "rstrip": false,
      "normalized": false,
      "special": true
    },
    {
      "id": 3,
      "content": "[SEP]",
      "single_word": false,
      "lstrip": false,
      "rstrip": false,
      "normalized": false,
      "special": true
    },
    {
      "id": 4,
      "content": "[MASK]",
      "single_word": false,
      "lstrip": false,
      "rstrip": false,
      "normalized": false,
      "special": true
    }
  ],
  "normalizer": {
    "type": "Sequence",
    "normalizers": [
      {
        "type": "NFD"
      },
      {
        "type": "Lowercase"
      },
      {
        "type": "StripAccents"
      }
    ]
  },
  "pre_tokenizer": {
    "type": "Sequence",
    "pretokenizers": [
      {
        "type": "Metaspace",
        "replacement": "▁",
        "prepend_scheme": "always",
        "split": true
      }
    ]
  },
  "post_processor": {
    "type": "TemplateProcessing",
    "single": [
      {
        "SpecialToken": {
          "id": "[CLS]",
          "type_id": 0
        }
      },
      {
        "Sequence": {
          "id": "A",
          "type_id": 0
        }
      },
      {
        "SpecialToken": {
          "id": "[SEP]",
          "type_id": 0
        }
      }
    ],
    "pair": [
      {
        "SpecialToken": {
          "id": "[CLS]",
          "type_id": 0
        }
      },
      {
        "Sequence": {
          "id": "A",
          "type_id": 0
        }
      },
      {
        "SpecialToken": {
          "id": "[SEP]",
          "type_id": 0
        }
      },
      {
        "Sequence": {
          "id": "B",
          "type_id": 1
        }
      },
      {
        "SpecialToken": {
          "id": "[SEP]",
          "type_id": 1
        }
      }
    ],
    "special_tokens": {
      "[CLS]": {
        "id": "[CLS]",
        "ids": [
          2
        ],
        "tokens": [
          "[CLS]"
        ]
      },
      "[SEP]": {
        "id": "[SEP]",
        "ids": [
          3
        ],
        "tokens": [
          "[SEP]"
        ]
      }
    }
  },
  "decoder": {
    "type": "Metaspace",
    "replacement": "▁",
    "prepend_scheme": "always",
    "split": true
  },
  "model": {
    "type": "BPE",
    "dropout": null,
    "unk_token": "[UNK]",
    "continuing_subword_prefix": null,
    "end_of_word_suffix": null,
    "fuse_unk": false,
    "byte_fallback": false,
    "ignore_merges": false,
    "vocab": {
      "[UNK]": 0,
      "[PAD]": 1,
      "[CLS]": 2,
      "[SEP]": 3,
      "[MASK]": 4,
      "!": 5,
      "\"": 6,
      "#": 7,
      "$": 8,
      "%": 9,
      "&": 10,
      "'": 11,
      "(": 12,
      ")": 13,
      "*": 14,
      "+": 15,
      ",": 16,
      "-": 17,
      ".": 18,
      "/": 19,
      "0": 20,
      "1": 21,
      "2": 22,
      "3": 23,
      "4": 24,
      "5": 25,
      "6": 26,
      "7": 27,
      "8": 28,
      "9": 29,
      ":": 30,
      ";": 31,
      "<": 32,
      "=": 33,
      ">": 34,
      "?": 35,
      "@": 36,
      "[": 37,
      "\\": 38,
      "]": 39,
      "^": 40,
      "_": 41,
      "`": 42,
      "a": 43,
      "b": 44,
      "c": 45,
      "d": 46,
      "e": 47,
      "f": 48,
      "g": 49,
      "h": 50,
      "i": 51,
      "j": 52,
      "k": 53,
      "l": 54,
      "m": 55,
      "n": 56,
      "o": 57,
      "p": 58,
      "q": 59,
      "r": 60,
      "s": 61,
      "t": 62,
      "u": 63,
      "v": 64,
      "w": 65,
      "x": 66,
      "y": 67,
      "z": 68,
      "{": 69,
      "|": 70,
      "}": 71,
      "~": 72,
      "¢": 73,
      "£": 74,
      "§": 75,
      "­": 76,
      "°": 77,
      "±": 78,
      "²": 79,
      "³": 80,
      "·": 81,
      "º": 82,
      "½": 83,
      "×": 84,
      "ß": 85,
      "æ": 86,
      "ø": 87,
      "ł": 88,
      "œ": 89,
      "ɑ": 90,
      "ɔ": 91,
      "ə": 92,
      "ɛ": 93,
      "ʁ": 94,
      "ʃ": 95,
      "ʊ": 96,
      "ʒ": 97,
      "ʻ": 98,
      "ˈ": 99,
      "α": 100,
      "β": 101,
      "ε": 102,
      "η": 103,
      "θ": 104,
      "ι": 105,
      "μ": 106,
      "ν": 107,
      "ο": 108,
      "ρ": 109,
      "ς": 110,
      "σ": 111,
      "υ": 112,
      "φ": 113,
      "ω": 114,
      "ا": 115,
      "ح": 116,
      "د": 117,
      "ز": 118,
      "ص": 119,
      "ف": 120,
      "ن": 121,
      "ه": 122,
      "ي": 123,
      "–": 124,
      "—": 125,
      "‘": 126,
      "’": 127,
      "“": 128,
      "”": 129,
      "•": 130,
      "…": 131,
      "€": 132,
      "▁": 133,
      "☎": 134,
      "☏": 135,
      "♥": 136,
      "✉": 137,
      "一": 138,
      "况": 139,
      "口": 140,
      "古": 141,
      "司": 142,
      "和": 143,
      "图": 144,
      "夏": 145,
      "奈": 146,
      "子": 147,
      "山": 148,
      "樋": 149,
      "津": 150,
      "清": 151,
      "澹": 152,
      "琴": 153,
      "空": 154,
      "葉": 155,
      "谿": 156,
      "远": 157,
      "静": 158,
      "▁t": 159,
      "▁a": 160,
      "he": 161,
      "▁i": 162,
      "▁.": 163,
      "▁w": 164,
      "▁the": 165,
      "▁s": 166,
      "re": 167,
      "▁o": 168,
      "in": 169,
      "▁f": 170,
      "at": 171,
      "▁b": 172,
      "▁c": 173,
      "ou": 174,
      "er": 175,
      "▁m": 176,
      "nd": 177,
      "▁,": 178,
      "▁d": 179,
      "▁p": 180,
      "on": 181,
      "▁to": 182,
      "an": 183,
      "▁h": 184,
      "▁n": 185,
      "ing": 186,
      "en": 187,
      "▁th": 188,
      "or": 189,
      "es": 190,
      "▁l": 191,
      "ed": 192,
      "▁and": 193,
      "▁y": 194,
      "is": 195,
      "▁in": 196,
      "ll": 197,
      "om": 198,
      "it": 199,
      "ar": 200,
      "▁g": 201,
      "▁of": 202,
      "as": 203,
      "▁_": 204,
      "▁you": 205,
      "▁'": 206,
      "ic": 207,
      "al": 208,
      "▁e": 209,
      "ve": 210,
      "▁it": 211,
      "ow": 212,
      "le": 213,
      "▁on": 214,
      "gh": 215,
      "st": 216,
      "et": 217,
      "▁that": 218,
      "▁?": 219,
      "ay": 220,
      "▁wh": 221,
      "ion": 222,
      "▁he": 223,
      "ot": 224,
      "▁re": 225,
      "▁is": 226,
      "ut": 227,
      "▁u": 228,
      "▁be": 229,
      "ent": 230,
      "▁ha": 231,
      "▁fr": 232,
      "ght": 233,
      "▁do": 234,
      "▁'s": 235,
      "▁we": 236,
      "id": 237,
      "se": 238,
      "ke": 239,
      "ro": 240,
      "ight": 241,
      "ac": 242,
      "ver": 243,
      "▁for": 244,
      "▁st": 245,
      "ld": 246,
      "ur": 247,
      "ir": 248,
      "ly": 249,
      "▁from": 250,
      "ad": 251,
      "im": 252,
      "am": 253,
      "oo": 254,
      "▁was": 255,
      "▁me": 256,
      "▁what": 257,
      "▁r": 258,
      "▁an": 259,
      "all": 260,
      "il": 261,
      "▁this": 262,
      "ith": 263,
      "ct": 264,
      "▁with": 265,
      "▁at": 266,
      "▁se": 267,
      "▁li": 268,
      "▁fl": 269,
      "▁j": 270,
      "▁are": 271,
      "ant": 272,
      "▁k": 273,
      "▁as": 274,
      "ation": 275,
      "▁sh": 276,
      "ce": 277,
      "ter": 278,
      "▁have": 279,
      "▁ne": 280,
      "'t": 281,
      "▁n't": 282,
      "ch": 283,
      "▁not": 284,
      "ill": 285,
      "▁de": 286,
      "her": 287,
      "ould": 288,
      "▁flight": 289,
      "▁go": 290,
      "ore": 291,
      "▁-": 292,
      "▁my": 293,
      "ome": 294,
      "▁so": 295,
      "▁or": 296,
      "▁tr": 297,
      "op": 298,
      "ie": 299,
      "▁they": 300,
      "est": 301,
      "▁like": 302,
      "▁\"": 303,
      "▁su": 304,
      "▁ch": 305,
      "ge": 306,
      "▁con": 307,
      "▁whe": 308,
      "▁all": 309,
      "▁but": 310,
      "▁there": 311,
      "ab": 312,
      "ul": 313,
      "ist": 314,
      "▁can": 315,
      "ain": 316,
      "ust": 317,
      "pe": 318,
      "▁al": 319,
      "▁pro": 320,
      "th": 321,
      "▁ex": 322,
      "ol": 323,
      "qu": 324,
      "and": 325,
      "▁one": 326,
      "▁1": 327,
      "us": 328,
      "▁no": 329,
      "▁le": 330,
      "ive": 331,
      "ers": 332,
      "ig": 333,
      "▁your": 334,
      "▁com": 335,
      "pp": 336,
      "ess": 337,
      "▁flights": 338,
      "ost": 339,
      "▁v": 340,
      "um": 341,
      "ate": 342,
      "▁ab": 343,
      "ort": 344,
      "res": 345,
      "▁pl": 346,
      "el": 347,
      "ake": 348,
      "▁by": 349,
      "ity": 350,
      "▁wor": 351,
      "ap": 352,
      "un": 353,
      "ak": 354,
      "ook": 355,
      "▁ar": 356,
      "▁his": 357,
      "art": 358,
      "▁kn": 359,
      "ment": 360,
      "ies": 361,
      "nt": 362,
      "os": 363,
      "out": 364,
      "if": 365,
      "▁2": 366,
      "▁will": 367,
      "▁out": 368,
      "ally": 369,
      "▁ye": 370,
      "▁up": 371,
      "▁)": 372,
      "▁if": 373,
      "▁(": 374,
      "▁get": 375,
      "iv": 376,
      "very": 377,
      "▁had": 378,
      "▁am": 379,
      "ound": 380,
      "▁would": 381,
      "▁know": 382,
      "00": 383,
      "ard": 384,
      "▁she": 385,
      "au": 386,
      "ood": 387,
      "▁want": 388,
      "ack": 389,
      "▁see": 390,
      "▁some": 391,
      "itt": 392,
      "▁did": 393,
      "ast": 394,
      "ind": 395,
      "▁!": 396,
      "one": 397,
      "▁us": 398,
      "ice": 399,
      "red": 400,
      "▁how": 401,
      "▁te": 402,
      "fe": 403,
      "ck": 404,
      "ich": 405,
      "ink": 406,
      "ra": 407,
      "te": 408,
      "▁un": 409,
      "ia": 410,
      "day": 411,
      "▁af": 412,
      "▁just": 413,
      "▁who": 414,
      "▁sa": 415,
      "▁en": 416,
      "ine": 417,
      "▁tw": 418,
      "ame": 419,
      "▁gr": 420,
      "▁when": 421,
      "▁has": 422,
      "▁any": 423,
      "▁about": 424,
      "co": 425,
      "ans": 426,
      "▁cl": 427,
      "ong": 428,
      "ther": 429,
      "▁show": 430,
      "▁na": 431,
      "hing": 432,
      "our": 433,
      "▁ad": 434,
      "▁tim": 435,
      "ber": 436,
      "▁co": 437,
      "are": 438,
      "▁here": 439,
      "▁qu": 440,
      "▁man": 441,
      "▁were": 442,
      "▁which": 443,
      "mp": 444,
      "--": 445,
      "ag": 446,
      "▁fe": 447,
      "▁more": 448,
      "▁pr": 449,
      "▁:": 450,
      "▁them": 451,
      "▁now": 452,
      "ip": 453,
      "▁look": 454,
      "▁new": 455,
      "ase": 456,
      "▁pe": 457,
      "ide": 458,
      "▁ag": 459,
      "▁her": 460,
      "▁ro": 461,
      "ry": 462,
      "ud": 463,
      "ure": 464,
      "▁mo": 465,
      "ib": 466,
      "anc": 467,
      "ite": 468,
      "ah": 469,
      "▁'m": 470,
      "▁bec": 471,
      "ace": 472,
      "▁where": 473,
      "ough": 474,
      "▁than": 475,
      "▁him": 476,
      "▁'re": 477,
      "ous": 478,
      "▁other": 479,
      "▁air": 480,
      "▁ph": 481,
      "▁time": 482,
      "▁ev": 483,
      "▁sp": 484,
      "▁off": 485,
      "able": 486,
      "own": 487,
      "▁after": 488,
      "ions": 489,
      "▁their": 490,
      "▁think": 491,
      "ause": 492,
      "ick": 493,
      "ial": 494,
      "age": 495,
      "to": 496,
      "▁lo": 497,
      "▁need": 498,
      "▁put": 499,
      "▁work": 500,
      "▁dis": 501,
      "ays": 502,
      "▁over": 503,
      "▁been": 504,
      "▁ac": 505,
      "reat": 506,
      "▁fir": 507,
      "▁mom": 508,
      "act": 509,
      "▁right": 510,
      "▁two": 511,
      "▁bet": 512,
      "so": 513,
      "▁oh": 514,
      "▁san": 515,
      "▁too": 516,
      "ass": 517,
      "▁very": 518,
      "▁good": 519,
      "▁then": 520,
      "ail": 521,
      "ning": 522,
      "av": 523,
      "ose": 524,
      "▁br": 525,
      "▁comp": 526,
      "▁first": 527,
      "▁exp": 528,
      "▁our": 529,
      "▁sc": 530,
      "▁going": 531,
      "▁bo": 532,
      "ars": 533,
      "▁den": 534,
      "oston": 535,
      "▁because": 536,
      "ree": 537,
      "▁boston": 538,
      "my": 539,
      "we": 540,
      "▁cont": 541,
      "ect": 542,
      "▁could": 543,
      "▁make": 544,
      "▁per": 545,
      "▁well": 546,
      "▁let": 547,
      "▁peop": 548,
      "▁back": 549,
      "▁may": 550,
      "▁got": 551,
      "▁does": 552,
      "▁part": 553,
      "▁said": 554,
      "nder": 555,
      "iz": 556,
      "▁people": 557,
      "ue": 558,
      "▁car": 559,
      "ount": 560,
      "▁bl": 561,
      "ated": 562,
      "em": 563,
      "▁ser": 564,
      "▁also": 565,
      "▁denver": 566,
      "pt": 567,
      "..": 568,
      "▁res": 569,
      "ep": 570,
      "other": 571,
      "port": 572,
      "▁yeah": 573,
      "▁ple": 574,
      "ary": 575,
      "cl": 576,
      "▁into": 577,
      "▁ok": 578,
      "orm": 579,
      "ark": 580,
      "ww": 581,
      "land": 582,
      "▁take": 583,
      "▁these": 584,
      "ire": 585,
      "▁list": 586,
      "▁franc": 587,
      "ff": 588,
      "isco": 589,
      "ian": 590,
      "ile": 591,
      "▁francisco": 592,
      "▁way": 593,
      "dy": 594,
      "hed": 595,
      "▁down": 596,
      "ings": 597,
      "ph": 598,
      "ave": 599,
      "ence": 600,
      "▁che": 601,
      "▁pre": 602,
      "ang": 603,
      "ty": 604,
      "fore": 605,
      "▁even": 606,
      "▁ind": 607,
      "ress": 608,
      "▁spe": 609,
      "▁only": 610,
      "▁should": 611,
      "omet": 612,
      "alk": 613,
      "▁every": 614,
      "ance": 615,
      "ach": 616,
      "▁please": 617,
      "▁say": 618,
      "ish": 619,
      "▁ta": 620,
      "▁play": 621,
      "▁comm": 622,
      "ater": 623,
      "▁'ll": 624,
      "▁call": 625,
      "▁somet": 626,
      "og": 627,
      "ult": 628,
      "bur": 629,
      "▁gu": 630,
      "▁dr": 631,
      "▁po": 632,
      "▁bal": 633,
      "▁bu": 634,
      "▁mu": 635,
      "ical": 636,
      "▁act": 637,
      "anta": 638,
      "ren": 639,
      "▁okay": 640,
      "▁app": 641,
      "▁cr": 642,
      "▁again": 643,
      "▁before": 644,
      "▁imp": 645,
      "ines": 646,
      "▁jo": 647,
      "ens": 648,
      "cess": 649,
      "▁under": 650,
      "▁atl": 651,
      "▁betwe": 652,
      "▁between": 653,
      "ix": 654,
      "▁rec": 655,
      "▁wr": 656,
      "sel": 657,
      "▁;": 658,
      "▁inter": 659,
      "les": 660,
      "▁la": 661,
      "▁mor": 662,
      "▁atlanta": 663,
      "▁sm": 664,
      "▁long": 665,
      "ations": 666,
      "▁mommy": 667,
      "▁ca": 668,
      "li": 669,
      "ub": 670,
      "▁’": 671,
      "▁3": 672,
      "ade": 673,
      "▁bus": 674,
      "▁litt": 675,
      "urn": 676,
      "----": 677,
      "▁little": 678,
      "wn": 679,
      "ord": 680,
      "▁find": 681,
      "ors": 682,
      "▁come": 683,
      "▁ear": 684,
      "▁thr": 685,
      "form": 686,
      "▁op": 687,
      "▁dat": 688,
      "ited": 689,
      "▁many": 690,
      "▁–": 691,
      "ild": 692,
      "▁wan": 693,
      "▁gon": 694,
      "ton": 695,
      "▁rem": 696,
      "▁str": 697,
      "▁trans": 698,
      "lic": 699,
      "tim": 700,
      "▁serv": 701,
      "▁much": 702,
      "ign": 703,
      "▁big": 704,
      "▁those": 705,
      "ft": 706,
      "uct": 707,
      "▁mil": 708,
      "▁its": 709,
      "▁mon": 710,
      "ied": 711,
      "eric": 712,
      "▁pitt": 713,
      "sbur": 714,
      "▁day": 715,
      "▁dall": 716,
      "▁give": 717,
      "▁great": 718,
      "▁dallas": 719,
      "▁really": 720,
      "▁pittsbur": 721,
      "▁pittsburgh": 722,
      "▁why": 723,
      "▁eat": 724,
      "▁use": 725,
      "▁dad": 726,
      "gg": 727,
      "▁ke": 728,
      "▁hel": 729,
      "ting": 730,
      "amp": 731,
      "iss": 732,
      "▁hou": 733,
      "ks": 734,
      "ving": 735,
      "▁arr": 736,
      "▁help": 737,
      "▁phil": 738,
      "▁des": 739,
      "ory": 740,
      "▁americ": 741,
      "▁something": 742,
      "▁um": 743,
      "ool": 744,
      "▁around": 745,
      "▁tell": 746,
      "air": 747,
      "▁reg": 748,
      "▁200": 749,
      "oc": 750,
      "▁pres": 751,
      "ious": 752,
      "▁...": 753,
      "▁hi": 754,
      "ition": 755,
      "▁aw": 756,
      "▁dif": 757,
      "vel": 758,
      "▁uh": 759,
      "ved": 760,
      "inn": 761,
      "de": 762,
      "nds": 763,
      "xt": 764,
      "ons": 765,
      "ull": 766,
      "ise": 767,
      "▁yes": 768,
      "▁still": 769,
      "▁airl": 770,
      "ys": 771,
      "ily": 772,
      "▁morning": 773,
      "▁read": 774,
      "aking": 775,
      "ms": 776,
      "int": 777,
      "▁happ": 778,
      "▁att": 779,
      "ath": 780,
      "▁city": 781,
      "ict": 782,
      "adel": 783,
      "ates": 784,
      "__": 785,
      "oup": 786,
      "▁prob": 787,
      "▁'d": 788,
      "▁try": 789,
      "akes": 790,
      "self": 791,
      "▁most": 792,
      "▁baltim": 793,
      "▁baltimore": 794,
      "▁5": 795,
      "esday": 796,
      "phia": 797,
      "▁philadel": 798,
      "▁philadelphia": 799,
      "▁19": 800,
      "▁cle": 801,
      "▁count": 802,
      "od": 803,
      "▁fin": 804,
      "ron": 805,
      "▁pol": 806,
      "▁4": 807,
      "▁last": 808,
      "▁pm": 809,
      "▁inte": 810,
      "rent": 811,
      "▁book": 812,
      "ought": 813,
      "▁rep": 814,
      "▁bel": 815,
      "▁20": 816,
      "▁another": 817,
      "▁gl": 818,
      "ible": 819,
      "==": 820,
      "be": 821,
      "▁through": 822,
      "com": 823,
      "▁ap": 824,
      "▁sch": 825,
      "▁pos": 826,
      "ments": 827,
      "▁made": 828,
      "▁place": 829,
      "▁add": 830,
      "▁home": 831,
      "▁num": 832,
      "ci": 833,
      "▁bot": 834,
      "vers": 835,
      "▁[": 836,
      "▁el": 837,
      "iew": 838,
      "▁world": 839,
      "▁mar": 840,
      "▁fo": 841,
      "ert": 842,
      "▁]": 843,
      "▁doing": 844,
      "als": 845,
      "ents": 846,
      "▁years": 847,
      "ually": 848,
      "▁leav": 849,
      "▁—": 850,
      "▁wee": 851,
      "▁own": 852,
      "llow": 853,
      "▁talk": 854,
      "enc": 855,
      "▁kind": 856,
      "ful": 857,
      "▁em": 858,
      "▁cons": 859,
      "ange": 860,
      "▁year": 861,
      "▁frie": 862,
      "▁daddy": 863,
      "me": 864,
      "▁char": 865,
      "pect": 866,
      "thing": 867,
      "per": 868,
      "▁today": 869,
      "ject": 870,
      "▁rel": 871,
      "▁washing": 872,
      "▁food": 873,
      "▁pers": 874,
      "▁'ve": 875,
      "▁7": 876,
      "▁’s": 877,
      "▁stud": 878,
      "▁airlines": 879,
      "▁house": 880,
      "▁av": 881,
      "▁ho": 882,
      "ational": 883,
      "get": 884,
      "ather": 885,
      "read": 886,
      "uck": 887,
      "▁start": 888,
      "ities": 889,
      "▁same": 890,
      "▁things": 891,
      "▁bas": 892,
      "ident": 893,
      "▁went": 894,
      "▁stop": 895,
      "▁school": 896,
      "gr": 897,
      "▁ter": 898,
      "▁name": 899,
      "▁washington": 900,
      "oy": 901,
      "ock": 902,
      "www": 903,
      "▁wo": 904,
      "▁supp": 905,
      "▁diffe": 906,
      "mber": 907,
      "atch": 908,
      "uc": 909,
      "▁min": 910,
      "▁inst": 911,
      "orn": 912,
      "▁lot": 913,
      "▁gen": 914,
      "▁such": 915,
      "▁inform": 916,
      "▁mean": 917,
      "man": 918,
      "ves": 919,
      "▁best": 920,
      "nday": 921,
      "▁next": 922,
      "▁war": 923,
      "▁ob": 924,
      "▁fly": 925,
      "iving": 926,
      "▁bab": 927,
      "▁ele": 928,
      "▁old": 929,
      "**": 930,
      "▁sur": 931,
      "▁real": 932,
      "▁set": 933,
      "▁ask": 934,
      "ific": 935,
      "▁acc": 936,
      "▁sy": 937,
      "▁open": 938,
      "▁/": 939,
      "ever": 940,
      "▁dec": 941,
      "ork": 942,
      "▁three": 943,
      "▁6": 944,
      "▁inc": 945,
      "▁col": 946,
      "oman": 947,
      "▁while": 948,
      "▁turn": 949,
      "ank": 950,
      "▁quest": 951,
      "rest": 952,
      "▁im": 953,
      "▁hu": 954,
      "▁prov": 955,
      "▁wa": 956,
      "▁night": 957,
      "cept": 958,
      "!!": 959,
      "der": 960,
      "▁inv": 961,
      "▁hand": 962,
      "▁form": 963,
      "▁being": 964,
      "up": 965,
      "▁class": 966,
      "bo": 967,
      "ular": 968,
      "ince": 969,
      "▁spec": 970,
      "hes": 971,
      "▁feel": 972,
      "▁leaving": 973,
      "led": 974,
      "▁end": 975,
      "▁never": 976,
      "fect": 977,
      "no": 978,
      "▁wed": 979,
      "▁fun": 980,
      "▁--": 981,
      "▁united": 982,
      "urs": 983,
      "▁leave": 984,
      "▁head": 985,
      "▁american": 986,
      "▁dra": 987,
      "▁high": 988,
      "side": 989,
      "ating": 990,
      "ways": 991,
      "olog": 992,
      "▁service": 993,
      "▁number": 994,
      "▁room": 995,
      "▁information": 996,
      "▁thing": 997,
      "▁sub": 998,
      "ward": 999,
      "con": 1000,
      "▁sal": 1001,
      "ative": 1002,
      "▁life": 1003,
      "ne": 1004,
      "▁sl": 1005,
      "▁har": 1006,
      "▁person": 1007,
      "▁ass": 1008,
      "▁leg": 1009,
      "▁sit": 1010,
      "▁prod": 1011,
      "▁ve": 1012,
      "▁water": 1013,
      "▁used": 1014,
      "▁$": 1015,
      "ual": 1016,
      "▁0": 1017,
      "ope": 1018,
      "000": 1019,
      "▁far": 1020,
      "▁ent": 1021,
      "ient": 1022,
      "▁ret": 1023,
      "clud": 1024,
      "ss": 1025,
      "▁called": 1026,
      "▁fam": 1027,
      "▁keep": 1028,
      "▁away": 1029,
      "▁sat": 1030,
      "▁baby": 1031,
      "▁sk": 1032,
      "▁det": 1033,
      "▁eu": 1034,
      "▁rest": 1035,
      "ience": 1036,
      "ution": 1037,
      "▁“": 1038,
      "▁ed": 1039,
      "▁met": 1040,
      "▁lar": 1041,
      "▁red": 1042,
      "vern": 1043,
      "▁small": 1044,
      "▁else": 1045,
      "ures": 1046,
      "▁par": 1047,
      "▁rev": 1048,
      "ute": 1049,
      "▁coll": 1050,
      "▁contin": 1051,
      "rib": 1052,
      "▁sure": 1053,
      "▁group": 1054,
      "▁found": 1055,
      "▁bre": 1056,
      "▁child": 1057,
      "▁10": 1058,
      "▁love": 1059,
      "▁pub": 1060,
      "ces": 1061,
      "▁must": 1062,
      "▁always": 1063,
      "▁vis": 1064,
      "oun": 1065,
      "ug": 1066,
      "▁cour": 1067,
      "▁thought": 1068,
      "▁round": 1069,
      "▁”": 1070,
      "▁interest": 1071,
      "▁both": 1072,
      "--------": 1073,
      "▁gener": 1074,
      "nesday": 1075,
      "▁transport": 1076,
      "▁wednesday": 1077,
      "▁ma": 1078,
      "oney": 1079,
      "ices": 1080,
      "irl": 1081,
      "▁art": 1082,
      "▁light": 1083,
      "▁stand": 1084,
      "▁dep": 1085,
      "▁better": 1086,
      "▁different": 1087,
      "▁haf": 1088,
      "▁mr": 1089,
      "▁trip": 1090,
      "irect": 1091,
      "med": 1092,
      "▁hot": 1093,
      "▁ground": 1094,
      "▁mark": 1095,
      "▁intern": 1096,
      "▁since": 1097,
      "▁cent": 1098,
      "▁pa": 1099,
      "▁avail": 1100,
      "▁eng": 1101,
      "/2": 1102,
      "▁bro": 1103,
      "▁cur": 1104,
      "tle": 1105,
      "▁few": 1106,
      "▁partic": 1107,
      "▁month": 1108,
      "ger": 1109,
      "▁fa": 1110,
      "▁bir": 1111,
      "▁requ": 1112,
      "▁def": 1113,
      "▁four": 1114,
      "ics": 1115,
      "ably": 1116,
      "▁direct": 1117,
      "▁includ": 1118,
      "▁each": 1119,
      "aper": 1120,
      "▁poss": 1121,
      "▁might": 1122,
      "▁loc": 1123,
      "▁nice": 1124,
      "▁gre": 1125,
      "ash": 1126,
      "▁point": 1127,
      "▁8": 1128,
      "▁walk": 1129,
      "outh": 1130,
      "uring": 1131,
      "uss": 1132,
      "▁follow": 1133,
      "▁done": 1134,
      "▁remem": 1135,
      "ters": 1136,
      "▁available": 1137,
      "▁came": 1138,
      "▁ref": 1139,
      "▁report": 1140,
      "ared": 1141,
      "▁fact": 1142,
      "▁girl": 1143,
      "▁thank": 1144,
      "ts": 1145,
      "▁though": 1146,
      "▁took": 1147,
      "ale": 1148,
      "ower": 1149,
      "▁exper": 1150,
      "▁euro": 1151,
      "iness": 1152,
      "▁pet": 1153,
      "▁govern": 1154,
      "▁plan": 1155,
      "▁happen": 1156,
      "▁proble": 1157,
      "▁eas": 1158,
      "velop": 1159,
      "▁sw": 1160,
      "▁care": 1161,
      "ural": 1162,
      "iting": 1163,
      "ason": 1164,
      "ants": 1165,
      "▁week": 1166,
      "▁cap": 1167,
      "▁state": 1168,
      "▁ty": 1169,
      "▁hard": 1170,
      "▁ey": 1171,
      "▁201": 1172,
      "▁z": 1173,
      "▁sim": 1174,
      "▁mat": 1175,
      "▁non": 1176,
      "ense": 1177,
      "▁york": 1178,
      "ility": 1179,
      "▁cheap": 1180,
      "▁told": 1181,
      "▁seco": 1182,
      "▁belie": 1183,
      "ention": 1184,
      "▁conf": 1185,
      "▁dem": 1186,
      "▁ball": 1187,
      "▁hear": 1188,
      "▁alread": 1189,
      "▁already": 1190,
      "gan": 1191,
      "▁dog": 1192,
      "▁maybe": 1193,
      "▁states": 1194,
      "▁ext": 1195,
      "orr": 1196,
      "▁stay": 1197,
      "▁lead": 1198,
      "▁ju": 1199,
      "ny": 1200,
      "pr": 1201,
      "ality": 1202,
      "▁stre": 1203,
      "▁roman": 1204,
      "▁however": 1205,
      "▁hum": 1206,
      "ives": 1207,
      "▁thanks": 1208,
      "ling": 1209,
      "ina": 1210,
      "▁bad": 1211,
      "▁dist": 1212,
      "▁days": 1213,
      "▁sec": 1214,
      "▁looking": 1215,
      "conom": 1216,
      "▁pass": 1217,
      "▁econom": 1218,
      "stand": 1219,
      "ross": 1220,
      "▁run": 1221,
      "▁develop": 1222,
      "▁disc": 1223,
      "pl": 1224,
      "here": 1225,
      "ished": 1226,
      "▁je": 1227,
      "▁six": 1228,
      "▁hey": 1229,
      "▁meet": 1230,
      "▁sign": 1231,
      "▁adam": 1232,
      "io": 1233,
      "▁train": 1234,
      "▁bush": 1235,
      "▁remember": 1236,
      "▁fare": 1237,
      "ield": 1238,
      "▁data": 1239,
      "▁president": 1240,
      "▁nor": 1241,
      "▁uni": 1242,
      "ted": 1243,
      "ets": 1244,
      "osed": 1245,
      "▁second": 1246,
      ".com": 1247,
      "ness": 1248,
      "enty": 1249,
      "▁word": 1250,
      "____": 1251,
      "ik": 1252,
      "▁fil": 1253,
      "▁later": 1254,
      "▁laur": 1255,
      "ric": 1256,
      "▁9": 1257,
      "▁fall": 1258,
      "▁afterno": 1259,
      "▁job": 1260,
      "ues": 1261,
      "▁pie": 1262,
      "ised": 1263,
      "▁afternoon": 1264,
      "▁bit": 1265,
      "▁tom": 1266,
      "▁ge": 1267,
      "▁watch": 1268,
      "▁import": 1269,
      "ission": 1270,
      "▁friend": 1271,
      "ired": 1272,
      "▁nothing": 1273,
      "▁del": 1274,
      "▁actually": 1275,
      "▁aut": 1276,
      "▁oak": 1277,
      "ote": 1278,
      "tern": 1279,
      "▁resp": 1280,
      "▁hold": 1281,
      "▁expl": 1282,
      "▁early": 1283,
      "ven": 1284,
      "▁cor": 1285,
      "ards": 1286,
      "▁saw": 1287,
      "▁anything": 1288,
      "▁compan": 1289,
      "▁appro": 1290,
      "▁free": 1291,
      "▁val": 1292,
      "▁ide": 1293,
      "▁main": 1294,
      "▁unt": 1295,
      "▁left": 1296,
      "▁transportation": 1297,
      "▁laura": 1298,
      "▁cat": 1299,
      "▁cost": 1300,
      "▁med": 1301,
      "▁making": 1302,
      "▁ever": 1303,
      "▁business": 1304,
      "====": 1305,
      "▁st.": 1306,
      "ists": 1307,
      "▁says": 1308,
      "▁hour": 1309,
      "ism": 1310,
      "▁once": 1311,
      "stem": 1312,
      "▁airport": 1313,
      "▁milk": 1314,
      "▁face": 1315,
      "erg": 1316,
      "▁getting": 1317,
      "▁oakland": 1318,
      "▁mi": 1319,
      "▁ins": 1320,
      "▁doll": 1321,
      "less": 1322,
      "min": 1323,
      "▁line": 1324,
      "idd": 1325,
      "ction": 1326,
      "▁without": 1327,
      "▁lear": 1328,
      "ump": 1329,
      "▁earli": 1330,
      "body": 1331,
      "iet": 1332,
      "▁tu": 1333,
      "▁live": 1334,
      "ior": 1335,
      "tt": 1336,
      "▁sn": 1337,
      "▁fu": 1338,
      "▁bar": 1339,
      "▁mother": 1340,
      "▁country": 1341,
      "▁family": 1342,
      "▁public": 1343,
      "▁europe": 1344,
      "ble": 1345,
      "▁full": 1346,
      "▁hope": 1347,
      "▁iss": 1348,
      "▁understand": 1349,
      "ertain": 1350,
      "▁x": 1351,
      "▁thurs": 1352,
      "▁emp": 1353,
      "▁hair": 1354,
      "▁monday": 1355,
      "▁law": 1356,
      "▁cheapest": 1357,
      "▁five": 1358,
      "▁mus": 1359,
      "▁game": 1360,
      "▁thursday": 1361,
      "mm": 1362,
      "▁cre": 1363,
      "ider": 1364,
      "ample": 1365,
      "▁product": 1366,
      "▁pop": 1367,
      "▁sun": 1368,
      "▁pret": 1369,
      "▁system": 1370,
      "▁nat": 1371,
      "▁thir": 1372,
      "▁less": 1373,
      "▁adv": 1374,
      "▁buy": 1375,
      "▁probably": 1376,
      "▁trying": 1377,
      "cc": 1378,
      "▁money": 1379,
      "▁during": 1380,
      "▁using": 1381,
      "ize": 1382,
      "▁break": 1383,
      "az": 1384,
      "hip": 1385,
      "▁against": 1386,
      "aff": 1387,
      "▁sle": 1388,
      "▁pict": 1389,
      "▁paper": 1390,
      "▁sep": 1391,
      "▁process": 1392,
      "▁cut": 1393,
      "▁beh": 1394,
      "▁18": 1395,
      "by": 1396,
      "ned": 1397,
      "ten": 1398,
      "ental": 1399,
      "▁mem": 1400,
      "gether": 1401,
      "aw": 1402,
      "go": 1403,
      "ier": 1404,
      "▁ira": 1405,
      "▁pay": 1406,
      "▁15": 1407,
      "angu": 1408,
      "▁arriving": 1409,
      "▁draw": 1410,
      "▁pretty": 1411,
      "▁iraq": 1412,
      "uff": 1413,
      "arch": 1414,
      "alth": 1415,
      "▁prop": 1416,
      "▁11": 1417,
      "▁12": 1418,
      "▁commun": 1419,
      "▁question": 1420,
      "▁coun": 1421,
      "▁yet": 1422,
      "alf": 1423,
      "▁change": 1424,
      "▁grow": 1425,
      "▁friends": 1426,
      "▁wait": 1427,
      ",000": 1428,
      "▁land": 1429,
      "▁inf": 1430,
      "ages": 1431,
      "▁comple": 1432,
      "▁depart": 1433,
      "ries": 1434,
      "▁bed": 1435,
      "▁top": 1436,
      "ided": 1437,
      "unch": 1438,
      "▁move": 1439,
      "▁access": 1440,
      "ins": 1441,
      "▁father": 1442,
      "▁post": 1443,
      "▁least": 1444,
      "▁view": 1445,
      "br": 1446,
      "▁wanted": 1447,
      "▁enough": 1448,
      "▁everything": 1449,
      "▁large": 1450,
      "▁squ": 1451,
      "▁conc": 1452,
      "▁write": 1453,
      "▁terr": 1454,
      "ator": 1455,
      "▁langu": 1456,
      "ically": 1457,
      "ately": 1458,
      "▁twenty": 1459,
      "▁clean": 1460,
      "gram": 1461,
      "bers": 1462,
      "▁cal": 1463,
      "iday": 1464,
      "▁tech": 1465,
      "▁until": 1466,
      "▁field": 1467,
      "▁ce": 1468,
      "its": 1469,
      "▁white": 1470,
      "enth": 1471,
      "▁having": 1472,
      "▁appe": 1473,
      "▁government": 1474,
      "▁tuesday": 1475,
      "▁someone": 1476,
      "▁black": 1477,
      "nect": 1478,
      "inc": 1479,
      "ital": 1480,
      "▁sho": 1481,
      "▁goes": 1482,
      "ived": 1483,
      "▁times": 1484,
      "right": 1485,
      "▁men": 1486,
      "▁together": 1487,
      "▁hor": 1488,
      "▁ste": 1489,
      "▁means": 1490,
      "▁anim": 1491,
      "▁trave": 1492,
      "▁prof": 1493,
      "ipp": 1494,
      "▁whole": 1495,
      "▁office": 1496,
      "▁rece": 1497,
      "▁area": 1498,
      "▁dere": 1499,
      "gn": 1500,
      "▁wind": 1501,
      "▁int": 1502,
      "▁store": 1503,
      "▁order": 1504,
      "▁example": 1505,
      "▁pur": 1506,
      "▁indian": 1507,
      "rence": 1508,
      "▁techn": 1509,
      "aur": 1510,
      "▁ir": 1511,
      "▁outside": 1512,
      "ized": 1513,
      "▁return": 1514,
      "hu": 1515,
      "▁est": 1516,
      "nded": 1517,
      "ither": 1518,
      "▁program": 1519,
      "▁es": 1520,
      "ently": 1521,
      "ames": 1522,
      "▁short": 1523,
      "▁possible": 1524,
      "▁important": 1525,
      "aut": 1526,
      "bs": 1527,
      "ract": 1528,
      "ety": 1529,
      "▁youn": 1530,
      "▁result": 1531,
      "▁harry": 1532,
      "hen": 1533,
      "▁case": 1534,
      "▁ans": 1535,
      "▁prot": 1536,
      "▁creat": 1537,
      "ont": 1538,
      "kee": 1539,
      "ained": 1540,
      "▁enj": 1541,
      "▁children": 1542,
      "▁paul": 1543,
      "ee": 1544,
      "most": 1545,
      "▁south": 1546,
      "▁pain": 1547,
      "ional": 1548,
      "▁friday": 1549,
      "▁ben": 1550,
      "▁pick": 1551,
      "▁hit": 1552,
      "▁national": 1553,
      "ows": 1554,
      "▁chang": 1555,
      "▁const": 1556,
      "▁able": 1557,
      "aught": 1558,
      "▁himself": 1559,
      "▁check": 1560,
      "▁drink": 1561,
      "▁support": 1562,
      "▁univers": 1563,
      "▁hur": 1564,
      "urday": 1565,
      "▁proper": 1566,
      "▁bring": 1567,
      "▁miss": 1568,
      "▁dc": 1569,
      "▁equ": 1570,
      "imes": 1571,
      "▁build": 1572,
      "▁study": 1573,
      "▁saturday": 1574,
      "lish": 1575,
      "rap": 1576,
      "▁pot": 1577,
      "▁sunday": 1578,
      "ustom": 1579,
      "▁coming": 1580,
      "iven": 1581,
      "orrow": 1582,
      "▁hist": 1583,
      "▁jun": 1584,
      "▁elect": 1585,
      "▁north": 1586,
      "ma": 1587,
      "▁test": 1588,
      "▁seat": 1589,
      "▁deal": 1590,
      "▁polit": 1591,
      "wau": 1592,
      "▁&": 1593,
      "ese": 1594,
      "ston": 1595,
      "olis": 1596,
      "ife": 1597,
      "▁price": 1598,
      "▁milwau": 1599,
      "ency": 1600,
      "▁milwaukee": 1601,
      "cial": 1602,
      "▁htt": 1603,
      "▁near": 1604,
      "▁almost": 1605,
      "inner": 1606,
      "****": 1607,
      "▁http": 1608,
      "//": 1609,
      "://": 1610,
      "▁sing": 1611,
      "nding": 1612,
      "▁pen": 1613,
      "omme": 1614,
      "▁course": 1615,
      "▁particular": 1616,
      "cle": 1617,
      "▁reason": 1618,
      "▁ur": 1619,
      "▁connect": 1620,
      "▁recomme": 1621,
      "▁based": 1622,
      "▁problem": 1623,
      "ffect": 1624,
      "▁taking": 1625,
      "▁cult": 1626,
      "▁custom": 1627,
      "ummy": 1628,
      "▁joh": 1629,
      "▁international": 1630,
      "▁http://": 1631,
      "where": 1632,
      "▁agree": 1633,
      "▁box": 1634,
      "▁record": 1635,
      "▁experience": 1636,
      "▁sleep": 1637,
      "▁certain": 1638,
      "ery": 1639,
      "rop": 1640,
      "irt": 1641,
      "▁atte": 1642,
      "▁sever": 1643,
      "▁chr": 1644,
      "▁worth": 1645,
      "aps": 1646,
      "apolis": 1647,
      "▁close": 1648,
      "▁contro": 1649,
      "▁horse": 1650,
      "ove": 1651,
      "▁power": 1652,
      "ama": 1653,
      "ology": 1654,
      "▁maj": 1655,
      "▁months": 1656,
      "▁july": 1657,
      "▁side": 1658,
      "▁cop": 1659,
      "▁prom": 1660,
      "▁boy": 1661,
      "▁present": 1662,
      "ined": 1663,
      "▁beg": 1664,
      "ached": 1665,
      "▁fort": 1666,
      "▁flo": 1667,
      "▁16": 1668,
      "▁pho": 1669,
      "▁human": 1670,
      "▁several": 1671,
      "▁step": 1672,
      "arent": 1673,
      "▁company": 1674,
      "ased": 1675,
      "▁cond": 1676,
      "▁evening": 1677,
      "▁incre": 1678,
      "aim": 1679,
      "ced": 1680,
      "ruct": 1681,
      "▁pat": 1682,
      "▁tomorrow": 1683,
      "30": 1684,
      "ta": 1685,
      "▁aug": 1686,
      "▁mind": 1687,
      "▁past": 1688,
      "▁eff": 1689,
      "▁project": 1690,
      "▁ago": 1691,
      "▁everyone": 1692,
      "▁playing": 1693,
      "▁fares": 1694,
      "▁eyes": 1695,
      "iver": 1696,
      "▁die": 1697,
      "aces": 1698,
      "▁oper": 1699,
      "▁charl": 1700,
      "▁special": 1701,
      "▁salt": 1702,
      "ml": 1703,
      "▁fore": 1704,
      "ision": 1705,
      "▁looks": 1706,
      "▁commission": 1707,
      "▁arrive": 1708,
      "▁asked": 1709,
      "▁general": 1710,
      "▁major": 1711,
      "cent": 1712,
      "s.": 1713,
      "way": 1714,
      "▁los": 1715,
      "▁effect": 1716,
      "▁door": 1717,
      "▁kid": 1718,
      "▁mod": 1719,
      "▁happened": 1720,
      "▁language": 1721,
      "na": 1722,
      "▁opp": 1723,
      "▁bur": 1724,
      "▁beaut": 1725,
      "▁expect": 1726,
      "aken": 1727,
      "▁discuss": 1728,
      "▁john": 1729,
      "’t": 1730,
      "▁dinner": 1731,
      "▁n’t": 1732,
      "▁lou": 1733,
      "▁lim": 1734,
      "▁front": 1735,
      "▁soon": 1736,
      "▁sometimes": 1737,
      "▁treat": 1738,
      "▁sent": 1739,
      "▁fre": 1740,
      "aring": 1741,
      "▁chair": 1742,
      "▁news": 1743,
      "▁young": 1744,
      "utes": 1745,
      "▁shakes": 1746,
      "ago": 1747,
      "▁working": 1748,
      "▁review": 1749,
      "▁green": 1750,
      "▁along": 1751,
      "▁believe": 1752,
      "▁cup": 1753,
      "iter": 1754,
      "▁often": 1755,
      "room": 1756,
      "peare": 1757,
      "▁quite": 1758,
      "▁houston": 1759,
      "▁happy": 1760,
      "▁clear": 1761,
      "▁shakespeare": 1762,
      "▁coup": 1763,
      "▁mess": 1764,
      "▁half": 1765,
      "▁egg": 1766,
      "▁either": 1767,
      "▁health": 1768,
      "ush": 1769,
      "▁color": 1770,
      "huh": 1771,
      "▁ten": 1772,
      "▁file": 1773,
      "▁bill": 1774,
      "▁makes": 1775,
      "▁town": 1776,
      "▁gave": 1777,
      "▁rese": 1778,
      "▁sea": 1779,
      "▁grand": 1780,
      "▁uhhuh": 1781,
      "ged": 1782,
      "atic": 1783,
      "ana": 1784,
      "▁island": 1785,
      "ides": 1786,
      "▁amount": 1787,
      "▁phone": 1788,
      "▁space": 1789,
      "ensive": 1790,
      "ond": 1791,
      "▁sound": 1792,
      "▁ban": 1793,
      "▁camp": 1794,
      "ern": 1795,
      "▁mic": 1796,
      "stop": 1797,
      "▁chic": 1798,
      "ains": 1799,
      "▁anyone": 1800,
      "▁blue": 1801,
      "▁questions": 1802,
      "▁birth": 1803,
      "ched": 1804,
      "ob": 1805,
      "▁da": 1806,
      "enix": 1807,
      "omen": 1808,
      "▁eight": 1809,
      "ctor": 1810,
      "▁within": 1811,
      "▁strong": 1812,
      "▁phoenix": 1813,
      "ians": 1814,
      "ret": 1815,
      "ime": 1816,
      "▁others": 1817,
      "▁party": 1818,
      "▁enjoy": 1819,
      "▁august": 1820,
      "▁chicago": 1821,
      "loy": 1822,
      "oice": 1823,
      "▁table": 1824,
      "▁swe": 1825,
      "▁stuff": 1826,
      "▁whether": 1827,
      "istan": 1828,
      "▁huh": 1829,
      "▁control": 1830,
      "line": 1831,
      "▁q": 1832,
      "▁tick": 1833,
      "▁fut": 1834,
      "▁las": 1835,
      "ami": 1836,
      "▁sol": 1837,
      "▁exce": 1838,
      "▁17": 1839,
      "used": 1840,
      "▁199": 1841,
      "lf": 1842,
      "sh": 1843,
      "▁cook": 1844,
      "▁page": 1845,
      "▁offic": 1846,
      "▁nonstop": 1847,
      "cum": 1848,
      "▁rob": 1849,
      "▁milit": 1850,
      "▁started": 1851,
      "▁wonder": 1852,
      "▁simp": 1853,
      "ead": 1854,
      "▁fix": 1855,
      "▁cir": 1856,
      "▁level": 1857,
      "▁occ": 1858,
      "▁fire": 1859,
      "▁mag": 1860,
      "▁shop": 1861,
      "▁suc": 1862,
      "ulation": 1863,
      "tember": 1864,
      "▁instead": 1865,
      "▁current": 1866,
      "▁piece": 1867,
      "ster": 1868,
      "▁comes": 1869,
      "ung": 1870,
      "▁consider": 1871,
      "▁auth": 1872,
      "▁hours": 1873,
      "▁september": 1874,
      "ering": 1875,
      "▁across": 1876,
      "ocr": 1877,
      "▁talking": 1878,
      "▁type": 1879,
      "▁earliest": 1880,
      "▁er": 1881,
      "rew": 1882,
      "▁o'": 1883,
      "▁mill": 1884,
      "▁death": 1885,
      "▁soci": 1886,
      "▁social": 1887,
      "▁env": 1888,
      "▁enron": 1889,
      "▁quick": 1890,
      "▁idea": 1891,
      "gress": 1892,
      "▁seen": 1893,
      "▁sugg": 1894,
      "▁among": 1895,
      "▁including": 1896,
      "▁street": 1897,
      "▁suggest": 1898,
      "iod": 1899,
      "▁fel": 1900,
      "▁fish": 1901,
      "▁lic": 1902,
      "lect": 1903,
      "▁orig": 1904,
      "▁summ": 1905,
      "▁abe": 1906,
      "▁upon": 1907,
      "avor": 1908,
      "▁inde": 1909,
      "▁countries": 1910,
      "▁protect": 1911,
      "▁age": 1912,
      "▁park": 1913,
      "ister": 1914,
      "els": 1915,
      "▁recommend": 1916,
      "▁floor": 1917,
      "ming": 1918,
      "▁opt": 1919,
      "ination": 1920,
      "▁fine": 1921,
      "▁cause": 1922,
      "ones": 1923,
      "▁ya": 1924,
      "itting": 1925,
      "▁peace": 1926,
      "▁guys": 1927,
      "▁diff": 1928,
      "▁bird": 1929,
      "▁future": 1930,
      "▁dark": 1931,
      "▁pull": 1932,
      "▁chick": 1933,
      "▁percent": 1934,
      "▁local": 1935,
      "▁miami": 1936,
      "▁political": 1937,
      "crib": 1938,
      "gas": 1939,
      "▁id": 1940,
      "▁given": 1941,
      "aster": 1942,
      "▁hands": 1943,
      "acy": 1944,
      "▁organ": 1945,
      "▁alth": 1946,
      "▁become": 1947,
      "uary": 1948,
      "▁taken": 1949,
      "▁west": 1950,
      "▁sar": 1951,
      "▁mot": 1952,
      "▁toron": 1953,
      "▁ones": 1954,
      "ury": 1955,
      "▁china": 1956,
      "▁period": 1957,
      "clock": 1958,
      "▁guess": 1959,
      "----------------": 1960,
      "▁june": 1961,
      "▁although": 1962,
      "▁toronto": 1963,
      "ration": 1964,
      "▁fight": 1965,
      "▁heard": 1966,
      "▁allow": 1967,
      "▁alright": 1968,
      "▁quality": 1969,
      "▁rock": 1970,
      "▁picture": 1971,
      "▁profess": 1972,
      "▁university": 1973,
      "▁mine": 1974,
      "ising": 1975,
      "▁gone": 1976,
      "ley": 1977,
      "umb": 1978,
      "▁clot": 1979,
      "▁mov": 1980,
      "ograp": 1981,
      "▁minutes": 1982,
      "▁vegas": 1983,
      "▁market": 1984,
      "▁travel": 1985,
      "ral": 1986,
      "ril": 1987,
      "ouch": 1988,
      "itc": 1989,
      "urity": 1990,
      "amed": 1991,
      "▁ra": 1992,
      "ortun": 1993,
      "▁needs": 1994,
      "▁collect": 1995,
      "▁dollars": 1996,
      "▁http://www": 1997,
      "▁o'clock": 1998,
      "▁felt": 1999,
      "ok": 2000,
      "▁sor": 2001,
      "▁bag": 2002,
      "▁bear": 2003,
      "▁staff": 2004,
      "▁deb": 2005,
      "▁dead": 2006,
      "▁trad": 2007,
      "▁except": 2008,
      "que": 2009,
      "▁known": 2010,
      "▁ready": 2011,
      "▁repres": 2012,
      "▁geor": 2013,
      "▁women": 2014,
      "▁fur": 2015,
      "icy": 2016,
      "▁orland": 2017,
      "▁noon": 2018,
      "▁works": 2019,
      "iously": 2020,
      "▁visit": 2021,
      "▁defin": 2022,
      "▁following": 2023,
      "▁http://www.": 2024,
      "▁orlando": 2025,
      "▁lake": 2026,
      "▁anal": 2027,
      "▁kill": 2028,
      "ief": 2029,
      "▁cold": 2030,
      "ell": 2031,
      "ament": 2032,
      "pend": 2033,
      "▁quinn": 2034,
      "▁prev": 2035,
      "▁design": 2036,
      "▁restaur": 2037,
      "▁iran": 2038,
      "▁origin": 2039,
      "▁win": 2040,
      "▁fif": 2041,
      "▁bi": 2042,
      "ases": 2043,
      "ott": 2044,
      "▁road": 2045,
      "ec": 2046,
      "▁ah": 2047,
      "▁sour": 2048,
      "▁press": 2049,
      "▁forward": 2050,
      "▁story": 2051,
      "iron": 2052,
      "▁shall": 2053,
      "pped": 2054,
      "▁arg": 2055,
      "▁team": 2056,
      "▁looked": 2057,
      "▁mont": 2058,
      "ully": 2059,
      "▁surpr": 2060,
      "ergy": 2061,
      "▁answ": 2062,
      "▁sorry": 2063,
      "▁mummy": 2064,
      "▁dress": 2065,
      "▁init": 2066,
      "otte": 2067,
      "▁sev": 2068,
      "▁var": 2069,
      "▁kne": 2070,
      "ances": 2071,
      "▁accept": 2072,
      "▁email": 2073,
      "▁security": 2074,
      "▁behind": 2075,
      "▁animals": 2076,
      "▁environ": 2077,
      "ef": 2078,
      "za": 2079,
      "▁tour": 2080,
      "ories": 2081,
      "▁lat": 2082,
      "▁et": 2083,
      "rod": 2084,
      "▁!!!": 2085,
      "ference": 2086,
      "raft": 2087,
      "▁guy": 2088,
      "/200": 2089,
      "▁delta": 2090,
      "▁charlotte": 2091,
      "▁author": 2092,
      "ered": 2093,
      "uation": 2094,
      "▁wife": 2095,
      "ats": 2096,
      "▁don": 2097,
      "ane": 2098,
      "▁late": 2099,
      "▁living": 2100,
      "▁truck": 2101,
      "osp": 2102,
      "▁scient": 2103,
      "▁april": 2104,
      "ney": 2105,
      "▁educ": 2106,
      "▁english": 2107,
      "iddle": 2108,
      "ffe": 2109,
      "got": 2110,
      "ria": 2111,
      "▁sil": 2112,
      "▁sand": 2113,
      "▁fac": 2114,
      "▁due": 2115,
      "▁energy": 2116,
      "▁claim": 2117,
      "▁obs": 2118,
      "▁specific": 2119,
      "▁european": 2120,
      "▁christ": 2121,
      "▁success": 2122,
      "▁diffic": 2123,
      "ner": 2124,
      "reme": 2125,
      "erv": 2126,
      "▁middle": 2127,
      "▁parent": 2128,
      "▁ham": 2129,
      "▁ant": 2130,
      "▁wants": 2131,
      "▁usually": 2132,
      "ansas": 2133,
      "▁account": 2134,
      "▁third": 2135,
      "▁research": 2136,
      "▁lost": 2137,
      "▁inside": 2138,
      "▁dogg": 2139,
      "iding": 2140,
      "rael": 2141,
      "▁activ": 2142,
      "▁attached": 2143,
      "▁address": 2144,
      "▁respons": 2145,
      "fully": 2146,
      "▁>": 2147,
      "▁dan": 2148,
      "▁lab": 2149,
      "▁israel": 2150,
      "▁ann": 2151,
      "▁abs": 2152,
      "iful": 2153,
      "▁teac": 2154,
      "▁newark": 2155,
      "selves": 2156,
      "▁interv": 2157,
      "▁invol": 2158,
      "▁matter": 2159,
      "▁diego": 2160,
      "▁represent": 2161,
      "ges": 2162,
      "ium": 2163,
      "ured": 2164,
      "▁woman": 2165,
      "▁fair": 2166,
      "ature": 2167,
      "▁hors": 2168,
      "▁kitt": 2169,
      "ify": 2170,
      "ified": 2171,
      "▁object": 2172,
      "▁meeting": 2173,
      "zac": 2174,
      "real": 2175,
      "▁cam": 2176,
      "▁dow": 2177,
      "itive": 2178,
      "▁rele": 2179,
      "▁member": 2180,
      "▁ride": 2181,
      "▁ange": 2182,
      "▁super": 2183,
      "▁temp": 2184,
      "▁clim": 2185,
      "▁express": 2186,
      "▁balzac": 2187,
      "▁regard": 2188,
      "▁attack": 2189,
      "▁accord": 2190,
      "▁further": 2191,
      "ued": 2192,
      "ule": 2193,
      "▁tur": 2194,
      "▁aust": 2195,
      "▁fig": 2196,
      "▁lau": 2197,
      "▁lik": 2198,
      "▁aff": 2199,
      "▁perform": 2200,
      "▁military": 2201,
      "dd": 2202,
      "▁<": 2203,
      "▁sen": 2204,
      "ators": 2205,
      "ential": 2206,
      "▁docum": 2207,
      "▁speak": 2208,
      "▁wrong": 2209,
      "▁addition": 2210,
      "▁provide": 2211,
      "▁democr": 2212,
      "▁words": 2213,
      "▁indianapolis": 2214,
      "▁espe": 2215,
      "▁seattle": 2216,
      "▁begin": 2217,
      "▁beautiful": 2218,
      "▁george": 2219,
      "13": 2220,
      "▁port": 2221,
      "ony": 2222,
      "veland": 2223,
      "oose": 2224,
      "▁phot": 2225,
      "▁prep": 2226,
      "▁impro": 2227,
      "▁services": 2228,
      "▁cleveland": 2229,
      "cially": 2230,
      "▁copy": 2231,
      "▁environment": 2232,
      "ried": 2233,
      "▁%": 2234,
      "▁sort": 2235,
      "▁din": 2236,
      "▁jan": 2237,
      "▁kansas": 2238,
      "▁decl": 2239,
      "▁common": 2240,
      "▁earth": 2241,
      "▁members": 2242,
      "▁history": 2243,
      "▁couple": 2244,
      "ha": 2245,
      "▁bow": 2246,
      "▁born": 2247,
      "ots": 2248,
      "▁pract": 2249,
      "▁rights": 2250,
      "▁indust": 2251,
      "▁throw": 2252,
      "▁request": 2253,
      "========": 2254,
      "▁property": 2255,
      "▁excell": 2256,
      "▁downt": 2257,
      "▁bath": 2258,
      "▁lunch": 2259,
      "lly": 2260,
      "▁yourself": 2261,
      "ival": 2262,
      "▁india": 2263,
      "▁easy": 2264,
      "▁complete": 2265,
      "▁knew": 2266,
      "ls": 2267,
      "▁#": 2268,
      "▁pal": 2269,
      "▁hell": 2270,
      "▁jud": 2271,
      "▁dev": 2272,
      "▁feet": 2273,
      "▁poor": 2274,
      "▁detail": 2275,
      "________": 2276,
      "▁hurt": 2277,
      "▁kids": 2278,
      "▁birthday": 2279,
      "▁especially": 2280,
      "▁downtown": 2281,
      "craft": 2282,
      "fast": 2283,
      "gle": 2284,
      "igh": 2285,
      "oke": 2286,
      "uce": 2287,
      "▁fing": 2288,
      "▁item": 2289,
      "▁god": 2290,
      "ability": 2291,
      "▁moving": 2292,
      "▁thinking": 2293,
      "▁respect": 2294,
      "▁longer": 2295,
      "▁turned": 2296,
      "▁subject": 2297,
      "▁micro": 2298,
      "▁society": 2299,
      "lished": 2300,
      "▁oil": 2301,
      "▁di": 2302,
      "▁pan": 2303,
      "▁pack": 2304,
      "lling": 2305,
      "▁meas": 2306,
      "olution": 2307,
      "▁above": 2308,
      "▁applic": 2309,
      "▁financ": 2310,
      "▁books": 2311,
      "▁require": 2312,
      "▁issue": 2313,
      "▁breakfast": 2314,
      "▁counter": 2315,
      "book": 2316,
      "haps": 2317,
      "▁sad": 2318,
      "▁low": 2319,
      "▁lay": 2320,
      "▁lad": 2321,
      "▁star": 2322,
      "▁stra": 2323,
      "▁send": 2324,
      "▁jwww": 2325,
      "▁button": 2326,
      "▁tax": 2327,
      "▁key": 2328,
      "▁america": 2329,
      "airs": 2330,
      "▁glass": 2331,
      "▁highly": 2332,
      "▁hotel": 2333,
      "▁problems": 2334,
      "▁economic": 2335,
      "▁received": 2336,
      "▁agreement": 2337,
      "ograph": 2338,
      "▁excellent": 2339,
      "bit": 2340,
      "▁fill": 2341,
      "▁bat": 2342,
      "▁gas": 2343,
      "▁rather": 2344,
      "▁seven": 2345,
      "▁places": 2346,
      "▁yellow": 2347,
      "▁tex": 2348,
      "▁priv": 2349,
      "▁perhaps": 2350,
      "▁letter": 2351,
      "▁saying": 2352,
      "▁attention": 2353,
      "▁invest": 2354,
      "wards": 2355,
      "▁employ": 2356,
      "▁purp": 2357,
      "▁effort": 2358,
      "▁daily": 2359,
      "cr": 2360,
      "▁favor": 2361,
      "ouble": 2362,
      "▁mid": 2363,
      "▁east": 2364,
      "▁doctor": 2365,
      "ilities": 2366,
      "ula": 2367,
      "▁canad": 2368,
      "??": 2369,
      "ping": 2370,
      "xic": 2371,
      "▁tast": 2372,
      "▁civ": 2373,
      "itions": 2374,
      "▁reco": 2375,
      "▁rich": 2376,
      "▁russ": 2377,
      "aining": 2378,
      "▁alone": 2379,
      "▁seemed": 2380,
      "▁typ": 2381,
      "▁summer": 2382,
      "iny": 2383,
      "▁tot": 2384,
      "▁net": 2385,
      "▁rul": 2386,
      "▁tried": 2387,
      "▁seems": 2388,
      "▁admin": 2389,
      "▁comput": 2390,
      "▁expensive": 2391,
      "▁body": 2392,
      "▁30": 2393,
      "▁struct": 2394,
      "▁colle": 2395,
      "▁continental": 2396,
      "▁eye": 2397,
      "▁estab": 2398,
      "▁difficult": 2399,
      "/1": 2400,
      "hod": 2401,
      "▁hat": 2402,
      "▁myself": 2403,
      "▁sus": 2404,
      "anger": 2405,
      "▁eating": 2406,
      "▁minute": 2407,
      "▁fund": 2408,
      "▁chicken": 2409,
      "▁parents": 2410,
      "work": 2411,
      "▁takes": 2412,
      "▁mass": 2413,
      "ndred": 2414,
      "▁dom": 2415,
      "▁hol": 2416,
      "▁link": 2417,
      "▁beach": 2418,
      "urch": 2419,
      "terday": 2420,
      "▁exist": 2421,
      "▁ens": 2422,
      "mph": 2423,
      "▁listen": 2424,
      "▁describ": 2425,
      "▁yesterday": 2426,
      "▁finally": 2427,
      "▁below": 2428,
      "▁glob": 2429,
      "▁economy": 2430,
      "▁value": 2431,
      "▁doggie": 2432,
      "50": 2433,
      "fer": 2434,
      "ken": 2435,
      "▁touch": 2436,
      "head": 2437,
      "▁..": 2438,
      "rect": 2439,
      "▁cit": 2440,
      "▁hig": 2441,
      "▁ger": 2442,
      "▁exc": 2443,
      "▁nose": 2444,
      "▁fell": 2445,
      "▁weeks": 2446,
      "▁funny": 2447,
      "▁particip": 2448,
      "▁development": 2449,
      "▁natural": 2450,
      "▁ident": 2451,
      "▁restaurant": 2452,
      "▁texas": 2453,
      "▁ach": 2454,
      "▁son": 2455,
      "▁dest": 2456,
      "▁hop": 2457,
      "▁wear": 2458,
      "▁sty": 2459,
      "▁necess": 2460,
      "ille": 2461,
      "ization": 2462,
      "▁committ": 2463,
      "▁crit": 2464,
      "▁americans": 2465,
      "▁airline": 2466,
      "▁hundred": 2467,
      "▁deter": 2468,
      "▁court": 2469,
      "▁community": 2470,
      "▁louis": 2471,
      "ht": 2472,
      "ped": 2473,
      "▁mouth": 2474,
      "▁date": 2475,
      "ison": 2476,
      "asing": 2477,
      "utions": 2478,
      "▁web": 2479,
      "key": 2480,
      "▁spr": 2481,
      "▁bott": 2482,
      "▁entire": 2483,
      "▁official": 2484,
      "▁global": 2485,
      "ging": 2486,
      "iate": 2487,
      "ka": 2488,
      "oon": 2489,
      "▁foc": 2490,
      "icle": 2491,
      "▁heart": 2492,
      "idence": 2493,
      "▁self": 2494,
      "▁jap": 2495,
      "▁conv": 2496,
      "▁vide": 2497,
      "▁code": 2498,
      "▁aircraft": 2499,
      "▁event": 2500,
      "▁sched": 2501,
      "▁calif": 2502,
      "cil": 2503,
      "▁wall": 2504,
      "▁cred": 2505,
      "▁heav": 2506,
      "▁began": 2507,
      "▁jump": 2508,
      "▁ship": 2509,
      "ands": 2510,
      "▁afric": 2511,
      "▁moment": 2512,
      "rench": 2513,
      "▁benef": 2514,
      "▁according": 2515,
      "▁japan": 2516,
      "▁californ": 2517,
      "ipe": 2518,
      "ru": 2519,
      "▁site": 2520,
      "ream": 2521,
      "▁mad": 2522,
      "ndon": 2523,
      "▁nt": 2524,
      "▁lives": 2525,
      "▁exec": 2526,
      "▁london": 2527,
      "▁boat": 2528,
      "▁action": 2529,
      "iction": 2530,
      "▁slow": 2531,
      "▁create": 2532,
      "▁infl": 2533,
      "ey": 2534,
      "gy": 2535,
      "ler": 2536,
      "son": 2537,
      "▁tre": 2538,
      "▁sitting": 2539,
      "▁fail": 2540,
      "▁mos": 2541,
      "▁itself": 2542,
      "eth": 2543,
      "ima": 2544,
      "▁displ": 2545,
      "▁contact": 2546,
      "▁drive": 2547,
      "▁pock": 2548,
      "▁imag": 2549,
      "▁method": 2550,
      "▁internet": 2551,
      "▁seventh": 2552,
      "▁angeles": 2553,
      "▁administ": 2554,
      "▁achie": 2555,
      "ape": 2556,
      "iation": 2557,
      "▁oct": 2558,
      "▁div": 2559,
      "▁tow": 2560,
      "▁norm": 2561,
      "itch": 2562,
      "arr": 2563,
      "▁ep": 2564,
      "aced": 2565,
      "▁ris": 2566,
      "▁true": 2567,
      "istic": 2568,
      "▁seem": 2569,
      "astic": 2570,
      "▁manag": 2571,
      "ude": 2572,
      "▁kept": 2573,
      "▁position": 2574,
      "▁foot": 2575,
      "▁girls": 2576,
      "▁attemp": 2577,
      "▁california": 2578,
      "over": 2579,
      "▁ways": 2580,
      "▁french": 2581,
      "▁cross": 2582,
      "▁pu": 2583,
      "▁push": 2584,
      "▁hon": 2585,
      "▁station": 2586,
      "▁sex": 2587,
      "▁note": 2588,
      "resh": 2589,
      "▁somebody": 2590,
      "▁tele": 2591,
      "▁cover": 2592,
      "▁themselves": 2593,
      "▁needed": 2594,
      "▁compet": 2595,
      "▁policy": 2596,
      "ledge": 2597,
      "▁interested": 2598,
      "▁aud": 2599,
      "▁bud": 2600,
      "▁dry": 2601,
      "▁died": 2602,
      "▁honey": 2603,
      "lement": 2604,
      "▁u.": 2605,
      "▁webs": 2606,
      "▁whatever": 2607,
      "▁areas": 2608,
      "▁deli": 2609,
      "▁church": 2610,
      "▁moder": 2611,
      "▁carry": 2612,
      "▁charac": 2613,
      "▁mr.": 2614,
      "▁learn": 2615,
      "▁terror": 2616,
      "▁connection": 2617,
      "▁answer": 2618,
      "▁etc": 2619,
      "sy": 2620,
      "hem": 2621,
      "▁wik": 2622,
      "▁mer": 2623,
      "▁mention": 2624,
      "ida": 2625,
      "▁stick": 2626,
      "▁suff": 2627,
      "▁exact": 2628,
      "▁nove": 2629,
      "▁vi": 2630,
      "▁voice": 2631,
      "▁!!": 2632,
      "▁feed": 2633,
      "▁2000": 2634,
      "▁march": 2635,
      "▁continue": 2636,
      "▁square": 2637,
      "▁constit": 2638,
      "▁document": 2639,
      "ially": 2640,
      "ws": 2641,
      "▁ill": 2642,
      "▁base": 2643,
      "▁dig": 2644,
      "▁nine": 2645,
      "▁memph": 2646,
      "hers": 2647,
      "ored": 2648,
      "ibility": 2649,
      "▁became": 2650,
      "▁offer": 2651,
      "▁brought": 2652,
      "▁perfect": 2653,
      "▁writing": 2654,
      "▁police": 2655,
      "▁leaves": 2656,
      "▁relig": 2657,
      "▁peters": 2658,
      "▁friendly": 2659,
      "▁building": 2660,
      "▁clothes": 2661,
      "▁movie": 2662,
      "▁financial": 2663,
      "▁memphis": 2664,
      "i-": 2665,
      "oint": 2666,
      "ville": 2667,
      "▁sense": 2668,
      "▁cy": 2669,
      "▁mm": 2670,
      "▁goo": 2671,
      "▁uk": 2672,
      "▁king": 2673,
      "▁arm": 2674,
      "ivid": 2675,
      "▁prices": 2676,
      "▁driving": 2677,
      "liament": 2678,
      "▁parliament": 2679,
      "▁extreme": 2680,
      "▁secret": 2681,
      "▁message": 2682,
      "▁civil": 2683,
      "use": 2684,
      "ze": 2685,
      "isions": 2686,
      "▁rate": 2687,
      "▁deep": 2688,
      "▁therefore": 2689,
      "▁25": 2690,
      "▁unf": 2691,
      "▁enc": 2692,
      "▁coffe": 2693,
      "▁putting": 2694,
      "▁cheese": 2695,
      "burg": 2696,
      "▁2005": 2697,
      "▁apart": 2698,
      "▁decided": 2699,
      "▁signific": 2700,
      "▁correct": 2701,
      "▁earlier": 2702,
      "▁shoes": 2703,
      "▁culture": 2704,
      "▁independ": 2705,
      "gest": 2706,
      "▁fit": 2707,
      "eral": 2708,
      "▁dro": 2709,
      "vered": 2710,
      "▁stat": 2711,
      "akistan": 2712,
      "ipt": 2713,
      "▁board": 2714,
      "▁finished": 2715,
      "▁intell": 2716,
      "▁supposed": 2717,
      "▁assist": 2718,
      "▁issues": 2719,
      "▁music": 2720,
      "▁urs": 2721,
      "▁license": 2722,
      "▁interview": 2723,
      "▁coffee": 2724,
      "oz": 2725,
      "old": 2726,
      "▁cow": 2727,
      "▁catch": 2728,
      "▁mail": 2729,
      "▁mama": 2730,
      "str": 2731,
      "▁force": 2732,
      "▁vac": 2733,
      "▁arab": 2734,
      "▁21": 2735,
      "▁gets": 2736,
      "▁whose": 2737,
      "▁moved": 2738,
      "▁brother": 2739,
      "▁busy": 2740,
      "ences": 2741,
      "▁instit": 2742,
      "▁running": 2743,
      "▁corp": 2744,
      "▁xml": 2745,
      "▁products": 2746,
      "▁propos": 2747,
      "▁ticket": 2748,
      "▁november": 2749,
      "▁mur": 2750,
      "▁mater": 2751,
      "▁dam": 2752,
      "▁pakistan": 2753,
      "icles": 2754,
      "ades": 2755,
      "amb": 2756,
      "ilar": 2757,
      "▁jose": 2758,
      "iff": 2759,
      "▁text": 2760,
      "itely": 2761,
      "▁cru": 2762,
      "uced": 2763,
      "▁situation": 2764,
      "▁interesting": 2765,
      "▁leaders": 2766,
      "▁mike": 2767,
      "▁pictures": 2768,
      "▁eggs": 2769,
      "/2001": 2770,
      "▁ursula": 2771,
      "-m": 2772,
      ":00": 2773,
      "king": 2774,
      "ati": 2775,
      "ouse": 2776,
      "▁toast": 2777,
      "▁thous": 2778,
      "▁likely": 2779,
      "▁conte": 2780,
      "▁amaz": 2781,
      "▁recently": 2782,
      "▁relations": 2783,
      "▁broken": 2784,
      "▁window": 2785,
      "▁changes": 2786,
      "▁particularly": 2787,
      "▁latest": 2788,
      "▁education": 2789,
      "▁figure": 2790,
      "▁citiz": 2791,
      "een": 2792,
      "hol": 2793,
      "▁cra": 2794,
      "▁corn": 2795,
      "▁mount": 2796,
      "ann": 2797,
      "▁mexic": 2798,
      "▁flow": 2799,
      "▁momma": 2800,
      "▁studies": 2801,
      "▁capital": 2802,
      "▁introd": 2803,
      "▁opportun": 2804,
      "▁simply": 2805,
      "▁source": 2806,
      "▁computer": 2807,
      "▁website": 2808,
      "come": 2809,
      "oid": 2810,
      "▁wild": 2811,
      "▁fed": 2812,
      "▁mich": 2813,
      "▁nation": 2814,
      "▁lack": 2815,
      "▁liter": 2816,
      "ald": 2817,
      "▁isl": 2818,
      "ume": 2819,
      "▁disco": 2820,
      "▁contract": 2821,
      "▁tape": 2822,
      "▁implement": 2823,
      "▁century": 2824,
      "/2000": 2825,
      "▁points": 2826,
      "********": 2827,
      "▁dinos": 2828,
      "▁january": 2829,
      "▁ver": 2830,
      "▁tar": 2831,
      "oura": 2832,
      "▁rent": 2833,
      "▁meal": 2834,
      "ilt": 2835,
      "▁asso": 2836,
      "▁neigh": 2837,
      "▁worked": 2838,
      "▁individ": 2839,
      "rences": 2840,
      "▁warm": 2841,
      "▁filter": 2842,
      "▁quickly": 2843,
      "▁neighb": 2844,
      "20": 2845,
      "ri": 2846,
      "▁theory": 2847,
      "▁card": 2848,
      "oub": 2849,
      "▁mix": 2850,
      "▁gar": 2851,
      "icient": 2852,
      "▁dece": 2853,
      "▁13": 2854,
      "▁arch": 2855,
      "▁wrote": 2856,
      "▁....": 2857,
      "▁terms": 2858,
      "!!!!": 2859,
      "▁former": 2860,
      "▁personal": 2861,
      "▁broad": 2862,
      "▁include": 2863,
      ".com/": 2864,
      "aughter": 2865,
      "▁million": 2866,
      "▁sarah": 2867,
      "riage": 2868,
      "▁video": 2869,
      "▁credit": 2870,
      "▁associ": 2871,
      "▁song": 2872,
      "oud": 2873,
      "▁dav": 2874,
      "▁held": 2875,
      "oted": 2876,
      "▁gold": 2877,
      "▁ame": 2878,
      "▁knowledge": 2879,
      "itten": 2880,
      "▁save": 2881,
      "▁manage": 2882,
      "▁role": 2883,
      "▁science": 2884,
      "▁recent": 2885,
      "▁huge": 2886,
      "▁sky": 2887,
      "▁center": 2888,
      "▁customer": 2889,
      "▁kitty": 2890,
      "▁rules": 2891,
      "af": 2892,
      "che": 2893,
      "ding": 2894,
      "fort": 2895,
      "how": 2896,
      "west": 2897,
      "▁fresh": 2898,
      "▁cinc": 2899,
      "▁penc": 2900,
      "▁toys": 2901,
      "▁rad": 2902,
      "▁river": 2903,
      "▁served": 2904,
      "▁desp": 2905,
      "innati": 2906,
      "▁imm": 2907,
      "ological": 2908,
      "▁subst": 2909,
      "▁paris": 2910,
      "▁similar": 2911,
      "▁watching": 2912,
      "▁certainly": 2913,
      "▁petersburg": 2914,
      "▁islam": 2915,
      "▁cincinnati": 2916,
      "▁pencil": 2917,
      "ax": 2918,
      "ex": 2919,
      "zy": 2920,
      "▁ess": 2921,
      "▁vers": 2922,
      "▁tv": 2923,
      "ino": 2924,
      "▁bite": 2925,
      "▁minn": 2926,
      "▁hy": 2927,
      "▁threat": 2928,
      "▁jer": 2929,
      "▁shirt": 2930,
      "▁convers": 2931,
      "aint": 2932,
      "▁novel": 2933,
      "▁afgh": 2934,
      "▁naima": 2935,
      "▁scen": 2936,
      "▁contrib": 2937,
      "▁played": 2938,
      "ampa": 2939,
      "▁provided": 2940,
      "▁legal": 2941,
      "▁broke": 2942,
      "▁learning": 2943,
      "▁council": 2944,
      "▁growth": 2945,
      "▁montreal": 2946,
      "▁hello": 2947,
      "▁favorite": 2948,
      "▁committee": 2949,
      "▁significant": 2950,
      ".ht": 2951,
      "mon": 2952,
      "▁cry": 2953,
      "▁danger": 2954,
      "▁pred": 2955,
      "ishing": 2956,
      "oma": 2957,
      "uted": 2958,
      "▁beat": 2959,
      "▁wash": 2960,
      "ppy": 2961,
      "▁prior": 2962,
      "▁serve": 2963,
      "▁50": 2964,
      "▁713": 2965,
      "▁groups": 2966,
      "▁juice": 2967,
      "▁finger": 2968,
      "▁recogn": 2969,
      "▁focus": 2970,
      "▁modern": 2971,
      "▁afghan": 2972,
      "'s": 2973,
      "▁tampa": 2974,
      "▁wat": 2975,
      "▁wide": 2976,
      "▁duck": 2977,
      "▁nas": 2978,
      "isl": 2979,
      "ises": 2980,
      "oth": 2981,
      "▁wel": 2982,
      "▁weap": 2983,
      "allen": 2984,
      "▁orange": 2985,
      "▁trust": 2986,
      "▁challen": 2987,
      "▁14": 2988,
      "▁anyway": 2989,
      "▁fem": 2990,
      "▁carol": 2991,
      "▁blow": 2992,
      "▁bull": 2993,
      "▁written": 2994,
      "▁lots": 2995,
      "▁sweet": 2996,
      "▁definitely": 2997,
      "▁involved": 2998,
      "▁items": 2999,
      "▁influ": 3000,
      "for": 3001,
      "tain": 3002,
      "▁tac": 3003,
      "▁tie": 3004,
      "▁wish": 3005,
      "▁bread": 3006,
      "▁hus": 3007,
      "▁hung": 3008,
      "uth": 3009,
      "▁notice": 3010,
      "▁trouble": 3011,
      "▁comb": 3012,
      "▁saf": 3013,
      "▁roll": 3014,
      "▁spent": 3015,
      "▁moral": 3016,
      "▁reading": 3017,
      "▁emerg": 3018,
      "▁draft": 3019,
      "▁location": 3020,
      "▁training": 3021,
      "▁separ": 3022,
      "▁freed": 3023,
      "▁qa": 3024,
      "▁winter": 3025,
      "▁display": 3026,
      ".d": 3027,
      "lo": 3028,
      "more": 3029,
      "the": 3030,
      "val": 3031,
      "▁tal": 3032,
      "▁fle": 3033,
      "▁cool": 3034,
      "▁cities": 3035,
      "▁mir": 3036,
      "▁hang": 3037,
      "▁nort": 3038,
      "ened": 3039,
      "▁gard": 3040,
      "▁soft": 3041,
      "▁safe": 3042,
      "phone": 3043,
      "▁apply": 3044,
      "▁2004": 3045,
      "▁stillman": 3046,
      "▁final": 3047,
      "▁numbers": 3048,
      "▁walking": 3049,
      "▁concern": 3050,
      "ipped": 3051,
      "▁single": 3052,
      "▁professional": 3053,
      "▁original": 3054,
      "▁horsie": 3055,
      "▁improve": 3056,
      "▁u.s.": 3057,
      "▁material": 3058,
      "▁december": 3059,
      "cy": 3060,
      "face": 3061,
      "ike": 3062,
      "of": 3063,
      "▁ton": 3064,
      "▁tit": 3065,
      "▁tig": 3066,
      "▁bank": 3067,
      "▁drop": 3068,
      "▁piz": 3069,
      "onse": 3070,
      "▁toy": 3071,
      "▁nash": 3072,
      "▁ran": 3073,
      "▁rain": 3074,
      "▁24": 3075,
      "▁somewhere": 3076,
      "▁tea": 3077,
      "teen": 3078,
      "▁blood": 3079,
      "▁appre": 3080,
      "▁smell": 3081,
      "▁region": 3082,
      "▁weeke": 3083,
      "▁charge": 3084,
      "▁image": 3085,
      "▁immed": 3086,
      "▁legisl": 3087,
      "▁communic": 3088,
      "▁department": 3089,
      "▁fields": 3090,
      "▁cultural": 3091,
      "▁banana": 3092,
      "▁freedom": 3093,
      "ees": 3094,
      "mb": 3095,
      "▁ice": 3096,
      "enron": 3097,
      "▁ital": 3098,
      "idge": 3099,
      "▁track": 3100,
      "▁butter": 3101,
      "unt": 3102,
      "ift": 3103,
      "▁union": 3104,
      "▁blank": 3105,
      "▁everybody": 3106,
      "▁dr.": 3107,
      "▁farm": 3108,
      "▁non-": 3109,
      "▁response": 3110,
      "▁purch": 3111,
      "▁foreign": 3112,
      "▁total": 3113,
      "▁pocket": 3114,
      "▁amazing": 3115,
      "▁citizens": 3116,
      "▁nashville": 3117,
      ":30": 3118,
      "▁tiny": 3119,
      "▁ahead": 3120,
      "▁fast": 3121,
      "▁ba": 3122,
      "▁mis": 3123,
      "▁mach": 3124,
      "▁nin": 3125,
      "eng": 3126,
      "▁forgot": 3127,
      "▁100": 3128,
      "▁affect": 3129,
      "action": 3130,
      "▁pleas": 3131,
      "clus": 3132,
      "▁helpful": 3133,
      "▁regular": 3134,
      "▁2002": 3135,
      "▁197": 3136,
      "comp": 3137,
      "▁related": 3138,
      "▁decision": 3139,
      "▁columb": 3140,
      "▁waiting": 3141,
      "nov": 3142,
      "▁population": 3143,
      "▁results": 3144,
      "▁islands": 3145,
      "▁analys": 3146,
      "▁necessary": 3147,
      "▁bottom": 3148,
      "▁extremely": 3149,
      "80": 3150,
      "ires": 3151,
      "▁tired": 3152,
      "▁ow": 3153,
      "▁cand": 3154,
      "▁dir": 3155,
      "▁pil": 3156,
      "▁hosp": 3157,
      "eda": 3158,
      "iced": 3159,
      "▁jack": 3160,
      "▁concept": 3161,
      "▁congress": 3162,
      "▁exam": 3163,
      "pper": 3164,
      "▁vol": 3165,
      "ateg": 3166,
      "oss": 3167,
      "▁parts": 3168,
      "izing": 3169,
      "▁desk": 3170,
      "▁feeling": 3171,
      "▁article": 3172,
      "▁walked": 3173,
      "▁jeff": 3174,
      "▁concer": 3175,
      "▁appear": 3176,
      "hens": 3177,
      "▁percentage": 3178,
      "▁qaeda": 3179,
      "gon": 3180,
      "ham": 3181,
      "mar": 3182,
      "ober": 3183,
      "rict": 3184,
      "ugg": 3185,
      "▁swww": 3186,
      "▁band": 3187,
      "▁mist": 3188,
      "▁luck": 3189,
      "ario": 3190,
      "▁games": 3191,
      "roit": 3192,
      "▁rap": 3193,
      "ceed": 3194,
      "illy": 3195,
      "idered": 3196,
      "▁brit": 3197,
      "▁compl": 3198,
      "▁block": 3199,
      "▁joke": 3200,
      "▁2003": 3201,
      "▁repl": 3202,
      "▁student": 3203,
      "▁students": 3204,
      "▁detroit": 3205,
      "▁england": 3206,
      "▁reflect": 3207,
      "▁reports": 3208,
      "▁histor": 3209,
      "▁campa": 3210,
      "▁industry": 3211,
      "▁private": 3212,
      "▁ensure": 3213,
      "▁safety": 3214,
      "▁pizza": 3215,
      "89": 3216,
      "bed": 3217,
      "band": 3218,
      "uk": 3219,
      "▁fat": 3220,
      "▁bought": 3221,
      "▁cab": 3222,
      "erved": 3223,
      "sequ": 3224,
      "▁forget": 3225,
      "▁rub": 3226,
      "▁kitc": 3227,
      "▁neck": 3228,
      "▁sold": 3229,
      "itted": 3230,
      "▁adm": 3231,
      "▁bigger": 3232,
      "▁owner": 3233,
      "▁starting": 3234,
      "▁term": 3235,
      "▁famil": 3236,
      "▁mathem": 3237,
      "▁popular": 3238,
      "▁estim": 3239,
      "▁nearly": 3240,
      "▁grandm": 3241,
      "▁beginning": 3242,
      "▁bowl": 3243,
      "▁application": 3244,
      "▁canada": 3245,
      "▁october": 3246,
      "▁viol": 3247,
      "▁nasa": 3248,
      "▁appreci": 3249,
      "▁dirty": 3250,
      "39": 3251,
      "45": 3252,
      "ael": 3253,
      "ban": 3254,
      "ball": 3255,
      "cise": 3256,
      "ius": 3257,
      "ps": 3258,
      "▁ut": 3259,
      "▁wood": 3260,
      "▁wine": 3261,
      "▁sick": 3262,
      "ato": 3263,
      "atory": 3264,
      "atives": 3265,
      "▁piv": 3266,
      "ites": 3267,
      "▁gra": 3268,
      "asons": 3269,
      "imin": 3270,
      "▁ate": 3271,
      "ills": 3272,
      "ops": 3273,
      "▁choose": 3274,
      "ables": 3275,
      "▁plays": 3276,
      "ibly": 3277,
      "▁events": 3278,
      "▁expert": 3279,
      "▁transl": 3280,
      "▁finish": 3281,
      "▁marriage": 3282,
      "▁accident": 3283,
      "▁published": 3284,
      "▁max": 3285,
      "▁pieces": 3286,
      "▁appropr": 3287,
      "▁german": 3288,
      "▁schedule": 3289,
      "▁risk": 3290,
      "▁exactly": 3291,
      "▁kitchen": 3292,
      "@enron": 3293,
      "gar": 3294,
      "hood": 3295,
      "▁tank": 3296,
      "▁host": 3297,
      "ingu": 3298,
      "estern": 3299,
      "▁led": 3300,
      "▁ec": 3301,
      "▁heat": 3302,
      "▁jour": 3303,
      "olute": 3304,
      "igence": 3305,
      "▁vote": 3306,
      "▁spot": 3307,
      "▁resour": 3308,
      "lied": 3309,
      "▁consum": 3310,
      "▁considered": 3311,
      "▁slight": 3312,
      "▁central": 3313,
      "▁fax": 3314,
      "▁confir": 3315,
      "▁explain": 3316,
      "▁nature": 3317,
      "▁departing": 3318,
      "▁animal": 3319,
      "▁paint": 3320,
      "▁wonderful": 3321,
      "▁currently": 3322,
      "▁allowed": 3323,
      "▁college": 3324,
      "▁campaign": 3325,
      "01": 3326,
      "ek": 3327,
      "eapolis": 3328,
      "hib": 3329,
      "rain": 3330,
      "▁+": 3331,
      "▁tree": 3332,
      "▁bun": 3333,
      "▁caught": 3334,
      "▁named": 3335,
      "omer": 3336,
      "▁hen": 3337,
      "▁meat": 3338,
      "▁meant": 3339,
      "▁rab": 3340,
      "▁soph": 3341,
      "▁comments": 3342,
      "▁arms": 3343,
      "▁seeing": 3344,
      "▁phys": 3345,
      "▁overall": 3346,
      "▁scr": 3347,
      "▁contain": 3348,
      "▁indic": 3349,
      "ocol": 3350,
      "▁meaning": 3351,
      "▁opened": 3352,
      "▁limited": 3353,
      "▁absolute": 3354,
      "▁regarding": 3355,
      "dden": 3356,
      "▁style": 3357,
      "▁imagine": 3358,
      "▁dinosaur": 3359,
      "▁despite": 3360,
      "▁minneapolis": 3361,
      "light": 3362,
      "log": 3363,
      "hell": 3364,
      "▁bom": 3365,
      "▁mult": 3366,
      "▁daughter": 3367,
      "▁gives": 3368,
      "▁stren": 3369,
      "▁rout": 3370,
      "▁select": 3371,
      "▁liber": 3372,
      "▁aspect": 3373,
      "▁share": 3374,
      "▁sudden": 3375,
      "▁chance": 3376,
      "ively": 3377,
      "▁yours": 3378,
      "▁22": 3379,
      "▁knows": 3380,
      "▁adop": 3381,
      "aged": 3382,
      "anced": 3383,
      "▁spir": 3384,
      "▁letters": 3385,
      "▁bug": 3386,
      "▁greater": 3387,
      "▁regional": 3388,
      "▁added": 3389,
      "▁difference": 3390,
      "▁instruct": 3391,
      "▁flying": 3392,
      "▁opening": 3393,
      "▁standards": 3394,
      "▁paid": 3395,
      "▁engine": 3396,
      "▁eastern": 3397,
      "▁behav": 3398,
      "▁simple": 3399,
      "▁magic": 3400,
      "▁various": 3401,
      "▁straight": 3402,
      "▁types": 3403,
      "▁administration": 3404,
      "▁achieve": 3405,
      "▁michael": 3406,
      "▁amend": 3407,
      "-1": 3408,
      "60": 3409,
      "99": 3410,
      "nam": 3411,
      "▁tail": 3412,
      "▁wol": 3413,
      "▁sens": 3414,
      "▁size": 3415,
      "▁sister": 3416,
      "▁ol": 3417,
      "▁horr": 3418,
      "▁giving": 3419,
      "▁forces": 3420,
      "ulf": 3421,
      "▁1.": 3422,
      "▁comfort": 3423,
      "▁23": 3424,
      "tered": 3425,
      "▁grad": 3426,
      "▁clos": 3427,
      "▁brown": 3428,
      "▁impact": 3429,
      "like": 3430,
      "▁2001": 3431,
      "▁belong": 3432,
      "▁bottle": 3433,
      "▁hole": 3434,
      "▁stopover": 3435,
      "▁legs": 3436,
      "▁directive": 3437,
      "▁plane": 3438,
      "▁dogs": 3439,
      "▁media": 3440,
      "▁growing": 3441,
      "▁programme": 3442,
      "▁esc": 3443,
      "▁created": 3444,
      "▁customers": 3445,
      "▁fixed": 3446,
      "▁protection": 3447,
      "▁activities": 3448,
      "▁laugh": 3449,
      "▁david": 3450,
      "oh": 3451,
      "uel": 3452,
      "yond": 3453,
      "zz": 3454,
      "▁wil": 3455,
      "▁nations": 3456,
      "oring": 3457,
      "▁innov": 3458,
      "ici": 3459,
      "▁beyond": 3460,
      "ented": 3461,
      "▁ron": 3462,
      "ils": 3463,
      "▁libr": 3464,
      "▁shut": 3465,
      "hern": 3466,
      "▁ord": 3467,
      "▁altern": 3468,
      "▁plants": 3469,
      "▁adult": 3470,
      "ancing": 3471,
      "▁lock": 3472,
      "soft": 3473,
      "▁serious": 3474,
      "▁opin": 3475,
      "▁regards": 3476,
      "▁surv": 3477,
      "▁provides": 3478,
      "▁values": 3479,
      "▁cats": 3480,
      "▁changed": 3481,
      "▁potty": 3482,
      "▁attend": 3483,
      "cript": 3484,
      "▁federal": 3485,
      "▁dangerous": 3486,
      "▁tacoma": 3487,
      "▁grandmother": 3488,
      "▁streng": 3489,
      ".m": 3490,
      "rie": 3491,
      "ses": 3492,
      "wor": 3493,
      "wise": 3494,
      "▁breat": 3495,
      "erve": 3496,
      "▁hous": 3497,
      "▁names": 3498,
      "▁gun": 3499,
      "▁online": 3500,
      "▁repe": 3501,
      "▁reasons": 3502,
      "▁kore": 3503,
      "▁dear": 3504,
      "▁trade": 3505,
      "▁conference": 3506,
      "▁progress": 3507,
      "▁anywhere": 3508,
      "▁shows": 3509,
      "▁coast": 3510,
      "▁coach": 3511,
      "▁agre": 3512,
      "▁series": 3513,
      "▁poet": 3514,
      "▁built": 3515,
      "ublic": 3516,
      "time": 3517,
      "▁asking": 3518,
      "▁standard": 3519,
      "▁refer": 3520,
      "▁planning": 3521,
      "▁capac": 3522,
      "▁holding": 3523,
      "▁proposed": 3524,
      "▁returned": 3525,
      "▁frequ": 3526,
      "▁err": 3527,
      "▁liked": 3528,
      "▁photograph": 3529,
      "ying": 3530,
      "▁ign": 3531,
      "▁coo": 3532,
      "▁pill": 3533,
      "▁thus": 3534,
      "orate": 3535,
      "▁lower": 3536,
      "aries": 3537,
      "arily": 3538,
      "▁ears": 3539,
      "▁stood": 3540,
      "▁ru": 3541,
      "▁anth": 3542,
      "▁search": 3543,
      "▁lived": 3544,
      "antic": 3545,
      "▁kar": 3546,
      "▁deg": 3547,
      "▁plant": 3548,
      "apers": 3549,
      "▁unless": 3550,
      "▁princ": 3551,
      "▁evidence": 3552,
      "▁bright": 3553,
      "▁spend": 3554,
      "▁remain": 3555,
      "▁republic": 3556,
      "ground": 3557,
      "▁function": 3558,
      "▁largest": 3559,
      "▁experi": 3560,
      "▁ze": 3561,
      "▁ideas": 3562,
      "▁snow": 3563,
      "▁iraqi": 3564,
      "▁model": 3565,
      "▁>>": 3566,
      "▁climate": 3567,
      "▁<<": 3568,
      "▁democracy": 3569,
      "▁bathroom": 3570,
      "▁completely": 3571,
      "▁microsoft": 3572,
      "▁heavy": 3573,
      "▁opportunity": 3574,
      "▁analysis": 3575,
      "-c": 3576,
      "men": 3577,
      "ql": 3578,
      "het": 3579,
      "▁bra": 3580,
      "▁cage": 3581,
      "▁hm": 3582,
      "enn": 3583,
      "▁gall": 3584,
      "▁stories": 3585,
      "iring": 3586,
      "▁atm": 3587,
      "▁section": 3588,
      "antly": 3589,
      "▁choice": 3590,
      "ulate": 3591,
      "▁noise": 3592,
      "▁comment": 3593,
      "bert": 3594,
      "ips": 3595,
      "▁glad": 3596,
      "enced": 3597,
      "▁basis": 3598,
      "▁obv": 3599,
      "▁settle": 3600,
      "board": 3601,
      "▁leader": 3602,
      "▁distrib": 3603,
      "idden": 3604,
      "▁thirty": 3605,
      "▁technology": 3606,
      "▁equal": 3607,
      "▁increase": 3608,
      "▁occur": 3609,
      "▁option": 3610,
      "▁analy": 3611,
      "▁camel": 3612,
      "▁richard": 3613,
      "▁relationship": 3614,
      "▁target": 3615,
      "▁garden": 3616,
      "▁weekend": 3617,
      "▁cake": 3618,
      "eries": 3619,
      "▁mut": 3620,
      "▁reach": 3621,
      "uts": 3622,
      "▁hall": 3623,
      "iri": 3624,
      "▁rom": 3625,
      "▁rac": 3626,
      "▁chocol": 3627,
      "ument": 3628,
      "▁bye": 3629,
      "▁army": 3630,
      "▁closed": 3631,
      "▁moon": 3632,
      "▁brief": 3633,
      "▁guard": 3634,
      "▁actions": 3635,
      "▁happens": 3636,
      "▁county": 3637,
      "▁older": 3638,
      "ification": 3639,
      "▁continued": 3640,
      "▁standing": 3641,
      "▁followed": 3642,
      "▁reported": 3643,
      "▁career": 3644,
      "▁companies": 3645,
      "▁steps": 3646,
      "▁burb": 3647,
      "▁options": 3648,
      "▁bike": 3649,
      "▁surprise": 3650,
      "▁teacher": 3651,
      "▁additional": 3652,
      "▁mentioned": 3653,
      "▁google": 3654,
      "▁ukrain": 3655,
      "▁proposal": 3656,
      "hm": 3657,
      "net": 3658,
      "pa": 3659,
      "round": 3660,
      "▁*": 3661,
      "▁tas": 3662,
      "▁wet": 3663,
      "▁ble": 3664,
      "▁cash": 3665,
      "▁cases": 3666,
      "ero": 3667,
      "▁mc": 3668,
      "▁hide": 3669,
      "isf": 3670,
      "▁ul": 3671,
      "verage": 3672,
      "▁sell": 3673,
      "▁season": 3674,
      "▁depe": 3675,
      "▁defe": 3676,
      "uses": 3677,
      "▁via": 3678,
      "▁upd": 3679,
      "▁une": 3680,
      "▁quiet": 3681,
      "▁print": 3682,
      "ously": 3683,
      "▁span": 3684,
      "▁scre": 3685,
      "▁prete": 3686,
      "▁cromer": 3687,
      "▁impress": 3688,
      "▁aware": 3689,
      "▁throughout": 3690,
      "▁stopped": 3691,
      "▁surround": 3692,
      "▁sett": 3693,
      "▁larger": 3694,
      "▁experim": 3695,
      "▁passed": 3696,
      "▁barn": 3697,
      "ottable": 3698,
      "▁sandw": 3699,
      "▁temper": 3700,
      "▁practice": 3701,
      "▁details": 3702,
      "▁purpose": 3703,
      "▁taste": 3704,
      "▁higher": 3705,
      "▁africa": 3706,
      "▁japanese": 3707,
      "▁religious": 3708,
      "▁pivottable": 3709,
      "▁atmosp": 3710,
      "app": 3711,
      "iately": 3712,
      "ky": 3713,
      "mas": 3714,
      "ners": 3715,
      "sa": 3716,
      "▁wow": 3717,
      "▁bes": 3718,
      "▁cards": 3719,
      "▁match": 3720,
      "▁dream": 3721,
      "▁doub": 3722,
      "▁pin": 3723,
      "▁pus": 3724,
      "▁pig": 3725,
      "arant": 3726,
      "vere": 3727,
      "vert": 3728,
      "ams": 3729,
      "chan": 3730,
      "▁exch": 3731,
      "▁willing": 3732,
      "aud": 3733,
      "▁seek": 3734,
      "▁:)": 3735,
      "▁root": 3736,
      "▁accom": 3737,
      "▁brain": 3738,
      "cles": 3739,
      "▁guarant": 3740,
      "▁crow": 3741,
      "▁remark": 3742,
      "▁warhol": 3743,
      "▁edit": 3744,
      "▁facebook": 3745,
      "▁fully": 3746,
      "▁understanding": 3747,
      "▁potential": 3748,
      "▁reasonable": 3749,
      "▁licens": 3750,
      "--------------------------------": 3751,
      "▁requirements": 3752,
      "▁determin": 3753,
      "▁officials": 3754,
      "rupt": 3755,
      "▁encoura": 3756,
      ".doc": 3757,
      "▁tonight": 3758,
      "▁capacity": 3759,
      "▁princip": 3760,
      "just": 3761,
      "und": 3762,
      "▁western": 3763,
      "▁sql": 3764,
      "▁fant": 3765,
      "▁der": 3766,
      "▁poo": 3767,
      "▁path": 3768,
      "▁tool": 3769,
      "▁narr": 3770,
      "org": 3771,
      "omes": 3772,
      "▁gal": 3773,
      "▁offe": 3774,
      "▁whom": 3775,
      "▁stock": 3776,
      "▁rat": 3777,
      "▁worst": 3778,
      "▁twa": 3779,
      "▁acqu": 3780,
      "...": 3781,
      "▁chem": 3782,
      "▁surface": 3783,
      "▁format": 3784,
      "▁revolution": 3785,
      "▁learned": 3786,
      "▁laws": 3787,
      "▁terrible": 3788,
      "▁creative": 3789,
      "▁scientology": 3790,
      "▁russia": 3791,
      "▁manager": 3792,
      "▁character": 3793,
      "▁intelligence": 3794,
      "▁corner": 3795,
      "▁mexico": 3796,
      "▁management": 3797,
      ".html": 3798,
      "▁welcome": 3799,
      "▁weapons": 3800,
      "▁mathemat": 3801,
      "▁burbank": 3802,
      "-f": 3803,
      "46": 3804,
      "bby": 3805,
      "da": 3806,
      "hy": 3807,
      "inary": 3808,
      "▁bord": 3809,
      "▁master": 3810,
      "▁dance": 3811,
      "▁pink": 3812,
      "▁toward": 3813,
      "▁hun": 3814,
      "itation": 3815,
      "icing": 3816,
      "ctions": 3817,
      "▁lie": 3818,
      "▁traff": 3819,
      "iel": 3820,
      "ques": 3821,
      "▁teeth": 3822,
      "▁fellow": 3823,
      "▁sport": 3824,
      "▁spell": 3825,
      "▁balance": 3826,
      "▁remind": 3827,
      "uction": 3828,
      "▁attract": 3829,
      "▁required": 3830,
      "▁located": 3831,
      "▁swim": 3832,
      "▁confident": 3833,
      "▁demand": 3834,
      "▁unique": 3835,
      "▁film": 3836,
      "▁increased": 3837,
      "▁loud": 3838,
      "▁sounds": 3839,
      "▁organization": 3840,
      "▁initi": 3841,
      "▁activity": 3842,
      "▁likes": 3843,
      "▁constitution": 3844,
      "▁bulld": 3845,
      "▁husband": 3846,
      "▁hospital": 3847,
      "▁resources": 3848,
      "▁agreed": 3849,
      "-8": 3850,
      "10": 3851,
      "37": 3852,
      "ai": 3853,
      "ault": 3854,
      "ox": 3855,
      "rs": 3856,
      "tte": 3857,
      "▁bang": 3858,
      "▁mal": 3859,
      "▁dust": 3860,
      "▁psy": 3861,
      "▁lines": 3862,
      "▁e-m": 3863,
      "rog": 3864,
      "aches": 3865,
      "amental": 3866,
      "▁mel": 3867,
      "▁flor": 3868,
      "▁dey": 3869,
      "▁chines": 3870,
      "▁pros": 3871,
      "ivity": 3872,
      "▁uncle": 3873,
      "▁pean": 3874,
      "▁agric": 3875,
      "▁spoke": 3876,
      "▁workers": 3877,
      "▁boys": 3878,
      "▁content": 3879,
      "▁buck": 3880,
      "▁crack": 3881,
      "▁smart": 3882,
      "▁caused": 3883,
      "▁’re": 3884,
      "▁40": 3885,
      "▁avoid": 3886,
      "▁differences": 3887,
      "▁elev": 3888,
      "▁ended": 3889,
      "▁produc": 3890,
      "▁01": 3891,
      "▁03": 3892,
      "▁smaller": 3893,
      "▁mrs": 3894,
      "▁extra": 3895,
      "▁insur": 3896,
      "bruary": 3897,
      "▁cell": 3898,
      "▁appeared": 3899,
      "▁drinking": 3900,
      "▁elections": 3901,
      "▁circle": 3902,
      "▁occas": 3903,
      "▁auster": 3904,
      "================": 3905,
      "▁palest": 3906,
      "________________": 3907,
      "▁normal": 3908,
      "▁sexual": 3909,
      "▁unfortun": 3910,
      "▁independent": 3911,
      "ozer": 3912,
      "▁vacation": 3913,
      "▁thousands": 3914,
      "▁afghanistan": 3915,
      "▁sophie": 3916,
      "▁spirit": 3917,
      "▁cooper": 3918,
      "▁bulldozer": 3919,
      "▁chinese": 3920,
      "▁agricult": 3921,
      "15": 3922,
      "iar": 3923,
      "uit": 3924,
      "wh": 3925,
      "rel": 3926,
      "▁fol": 3927,
      "▁cart": 3928,
      "era": 3929,
      "▁du": 3930,
      "▁towards": 3931,
      "▁thom": 3932,
      "oration": 3933,
      "▁gree": 3934,
      "stairs": 3935,
      "▁stuck": 3936,
      "▁row": 3937,
      "▁flat": 3938,
      "▁truth": 3939,
      "▁exte": 3940,
      "▁lee": 3941,
      "▁vo": 3942,
      "▁28": 3943,
      "▁twel": 3944,
      "▁twice": 3945,
      "▁query": 3946,
      "▁february": 3947,
      "bered": 3948,
      "▁married": 3949,
      "▁decide": 3950,
      "▁metal": 3951,
      "▁directly": 3952,
      "▁jobs": 3953,
      "▁approach": 3954,
      "▁shoe": 3955,
      "▁windows": 3956,
      "▁condition": 3957,
      "▁billion": 3958,
      "▁initial": 3959,
      "▁environmental": 3960,
      "▁efforts": 3961,
      "▁structure": 3962,
      "▁fundamental": 3963,
      "gypt": 3964,
      "▁attempt": 3965,
      "▁cruise": 3966,
      "▁hungry": 3967,
      "▁chocolate": 3968,
      "▁atmosphere": 3969,
      "▁e-mail": 3970,
      ".c": 3971,
      "cious": 3972,
      "gu": 3973,
      "iers": 3974,
      "ients": 3975,
      "sc": 3976,
      "hel": 3977,
      "▁bay": 3978,
      "▁dut": 3979,
      "▁tor": 3980,
      "ica": 3981,
      "▁egypt": 3982,
      "aman": 3983,
      "▁proced": 3984,
      "▁van": 3985,
      "umn": 3986,
      "▁feat": 3987,
      "▁spread": 3988,
      "▁disp": 3989,
      "▁join": 3990,
      "ube": 3991,
      "▁transform": 3992,
      "▁emb": 3993,
      "▁babies": 3994,
      "▁species": 3995,
      "▁sales": 3996,
      "▁produce": 3997,
      "ounced": 3998,
      "▁included": 3999,
      "▁stayed": 4000,
      "▁stret": 4001,
      "▁developed": 4002,
      "▁costs": 4003,
      "▁insp": 4004,
      "▁mush": 4005,
      "▁changing": 4006,
      "▁construct": 4007,
      "▁electric": 4008,
      "▁increasing": 4009,
      "▁effective": 4010,
      "▁expected": 4011,
      "▁robin": 4012,
      "▁fifth": 4013,
      "▁afford": 4014,
      "▁glasses": 4015,
      "▁institutions": 4016,
      "▁flowers": 4017,
      "▁substant": 4018,
      "▁immediately": 4019,
      "▁machine": 4020,
      "bles": 4021,
      "lim": 4022,
      "oons": 4023,
      "t.": 4024,
      "▁@": 4025,
      "▁tall": 4026,
      "▁aim": 4027,
      "▁iod": 4028,
      "▁sam": 4029,
      "▁fan": 4030,
      "▁mac": 4031,
      "▁nap": 4032,
      "▁eth": 4033,
      "roll": 4034,
      "▁forms": 4035,
      "iled": 4036,
      "▁ken": 4037,
      "▁neg": 4038,
      "illa": 4039,
      "▁cha": 4040,
      "▁plans": 4041,
      "arty": 4042,
      "▁willi": 4043,
      "▁showed": 4044,
      "ague": 4045,
      "▁prim": 4046,
      "▁bray": 4047,
      "iance": 4048,
      "▁remo": 4049,
      "▁helped": 4050,
      "▁telling": 4051,
      "dered": 4052,
      "▁repair": 4053,
      "▁wedding": 4054,
      "▁skin": 4055,
      "▁belief": 4056,
      "▁conflic": 4057,
      "▁demon": 4058,
      "ieth": 4059,
      "awah": 4060,
      "▁penn": 4061,
      "▁conditions": 4062,
      "▁beauty": 4063,
      "▁movies": 4064,
      "▁tradition": 4065,
      "▁austral": 4066,
      "▁performance": 4067,
      "▁benefit": 4068,
      "▁execut": 4069,
      "▁digital": 4070,
      "▁individual": 4071,
      "▁conversation": 4072,
      "force": 4073,
      "▁columbus": 4074,
      "▁rapid": 4075,
      "▁british": 4076,
      "▁opinion": 4077,
      "▁korea": 4078,
      "▁crowd": 4079,
      "▁psych": 4080,
      "bi": 4081,
      "cast": 4082,
      "ches": 4083,
      "hi": 4084,
      "lies": 4085,
      "uf": 4086,
      "uate": 4087,
      "vant": 4088,
      "rem": 4089,
      "▁furn": 4090,
      "isation": 4091,
      "lebr": 4092,
      "▁france": 4093,
      "ights": 4094,
      "imum": 4095,
      "iles": 4096,
      "▁negot": 4097,
      "illed": 4098,
      "▁exer": 4099,
      "igr": 4100,
      "ession": 4101,
      "unk": 4102,
      "▁knock": 4103,
      "▁unc": 4104,
      "▁grant": 4105,
      "▁mode": 4106,
      "▁eval": 4107,
      "▁pericles": 4108,
      "emic": 4109,
      "ption": 4110,
      "▁prefer": 4111,
      "▁guid": 4112,
      "▁apple": 4113,
      "▁appoint": 4114,
      "▁datab": 4115,
      "▁arrange": 4116,
      "▁relative": 4117,
      "▁foods": 4118,
      "▁basic": 4119,
      "▁60": 4120,
      "▁subs": 4121,
      "▁satisf": 4122,
      "▁thoughts": 4123,
      "▁fourth": 4124,
      "▁easily": 4125,
      "▁believed": 4126,
      "▁jew": 4127,
      "▁systems": 4128,
      "▁memory": 4129,
      "▁territ": 4130,
      "▁celebr": 4131,
      "▁northwest": 4132,
      "▁newsp": 4133,
      "▁killed": 4134,
      "▁silver": 4135,
      "▁christmas": 4136,
      "▁lady": 4137,
      "▁established": 4138,
      "▁honest": 4139,
      "▁budget": 4140,
      "▁dropped": 4141,
      "▁context": 4142,
      "▁absolutely": 4143,
      "▁pillow": 4144,
      "09": 4145,
      "32": 4146,
      "bon": 4147,
      "ford": 4148,
      "ring": 4149,
      "sm": 4150,
      "▁wake": 4151,
      "▁fer": 4152,
      "▁cast": 4153,
      "▁hidden": 4154,
      "▁weas": 4155,
      "▁wealth": 4156,
      "▁mechan": 4157,
      "▁rough": 4158,
      "▁rates": 4159,
      "▁rule": 4160,
      "▁ang": 4161,
      "▁flag": 4162,
      "▁comed": 4163,
      "▁ability": 4164,
      "▁plus": 4165,
      "▁yep": 4166,
      "▁sheet": 4167,
      "rax": 4168,
      "▁otherwise": 4169,
      "▁spider": 4170,
      "▁bridge": 4171,
      "▁export": 4172,
      "▁perm": 4173,
      "▁drug": 4174,
      "▁finding": 4175,
      "▁miles": 4176,
      "▁fold": 4177,
      "▁basil": 4178,
      "▁veget": 4179,
      "▁enter": 4180,
      "▁zawah": 4181,
      "▁explore": 4182,
      "▁complex": 4183,
      "▁technical": 4184,
      "▁clearly": 4185,
      "▁solution": 4186,
      "▁sara": 4187,
      "▁successful": 4188,
      "▁responsible": 4189,
      "▁investig": 4190,
      "▁apartment": 4191,
      "▁version": 4192,
      "▁concerned": 4193,
      "▁suddenly": 4194,
      "iciency": 4195,
      "▁thomas": 4196,
      "▁zawahiri": 4197,
      "-p": 4198,
      "47": 4199,
      "bing": 4200,
      "▁tro": 4201,
      "▁ii": 4202,
      "▁santa": 4203,
      "▁fest": 4204,
      "▁pad": 4205,
      "▁pour": 4206,
      "▁nut": 4207,
      "esome": 4208,
      "▁gh": 4209,
      "▁gent": 4210,
      "▁und": 4211,
      "▁frank": 4212,
      "▁weather": 4213,
      "▁storm": 4214,
      "▁rice": 4215,
      "▁range": 4216,
      "iling": 4217,
      "▁sector": 4218,
      "▁shar": 4219,
      "▁delic": 4220,
      "▁goal": 4221,
      "ests": 4222,
      "ulated": 4223,
      "▁proceed": 4224,
      "▁exhib": 4225,
      "▁vir": 4226,
      "▁unp": 4227,
      "berry": 4228,
      "▁fear": 4229,
      "▁spl": 4230,
      "▁parties": 4231,
      "▁seriously": 4232,
      "....": 4233,
      "▁speed": 4234,
      "▁poll": 4235,
      "▁muse": 4236,
      "▁applied": 4237,
      "▁interp": 4238,
      "▁’m": 4239,
      "▁integr": 4240,
      "▁schol": 4241,
      "▁elements": 4242,
      "▁visa": 4243,
      "▁director": 4244,
      "▁leading": 4245,
      "▁advice": 4246,
      "▁creating": 4247,
      "▁effects": 4248,
      "▁healthy": 4249,
      "▁enjoyed": 4250,
      "▁fighting": 4251,
      "▁argument": 4252,
      "▁senate": 4253,
      "▁measures": 4254,
      "▁critic": 4255,
      "▁madam": 4256,
      "▁telev": 4257,
      "▁female": 4258,
      "▁tiger": 4259,
      "▁ukraine": 4260,
      "▁spanish": 4261,
      "▁screen": 4262,
      "▁palestin": 4263,
      "▁unfortunately": 4264,
      "-d": 4265,
      "14": 4266,
      "19": 4267,
      "69": 4268,
      "cher": 4269,
      "ev": 4270,
      "hold": 4271,
      "ij": 4272,
      "kes": 4273,
      "rast": 4274,
      "set": 4275,
      "tario": 4276,
      "uing": 4277,
      "wet": 4278,
      "▁average": 4279,
      "▁bul": 4280,
      "▁cars": 4281,
      "▁mary": 4282,
      "▁mhm": 4283,
      "▁pages": 4284,
      "inging": 4285,
      "itable": 4286,
      "lear": 4287,
      "▁ontario": 4288,
      "▁reference": 4289,
      "▁wearing": 4290,
      "▁ants": 4291,
      "▁james": 4292,
      "▁trail": 4293,
      "▁sugar": 4294,
      "▁consequ": 4295,
      "ulty": 4296,
      "ulations": 4297,
      "▁plate": 4298,
      "▁worse": 4299,
      "raid": 4300,
      "▁afraid": 4301,
      "▁grab": 4302,
      "▁showing": 4303,
      "▁load": 4304,
      "▁compon": 4305,
      "▁command": 4306,
      "▁calling": 4307,
      "uclear": 4308,
      "ologies": 4309,
      "▁salad": 4310,
      "▁grew": 4311,
      "▁peter": 4312,
      "▁medic": 4313,
      "▁cream": 4314,
      "▁menu": 4315,
      "▁sleeping": 4316,
      "▁projects": 4317,
      "▁reviews": 4318,
      "▁circ": 4319,
      "▁accepted": 4320,
      "▁labor": 4321,
      "▁released": 4322,
      "▁democratic": 4323,
      "▁prepared": 4324,
      "▁counterp": 4325,
      "▁lowest": 4326,
      "▁filled": 4327,
      "▁employees": 4328,
      "▁establish": 4329,
      "▁described": 4330,
      "▁spring": 4331,
      "▁slowly": 4332,
      "▁trees": 4333,
      "▁secretary": 4334,
      "▁mountain": 4335,
      "▁separate": 4336,
      "▁appropriate": 4337,
      "▁slightly": 4338,
      "▁bunny": 4339,
      "▁comfortable": 4340,
      "▁anthrax": 4341,
      "▁traffic": 4342,
      "-s": 4343,
      "ares": 4344,
      "iot": 4345,
      "ov": 4346,
      "ya": 4347,
      "▁tight": 4348,
      "▁aunt": 4349,
      "▁wal": 4350,
      "▁sink": 4351,
      "▁fred": 4352,
      "att": 4353,
      "▁boo": 4354,
      "▁male": 4355,
      "nda": 4356,
      "▁pants": 4357,
      "▁nuclear": 4358,
      "▁inj": 4359,
      "oming": 4360,
      "ito": 4361,
      "let": 4362,
      "oting": 4363,
      "▁weight": 4364,
      "▁stated": 4365,
      "▁rail": 4366,
      "▁kay": 4367,
      "▁wheel": 4368,
      "▁ven": 4369,
      "▁viet": 4370,
      "▁users": 4371,
      "cks": 4372,
      "teenth": 4373,
      "▁adjust": 4374,
      "▁rose": 4375,
      "▁airpl": 4376,
      "▁spok": 4377,
      "▁writ": 4378,
      "▁arrived": 4379,
      "▁mostly": 4380,
      "▁positive": 4381,
      "▁consist": 4382,
      "▁decades": 4383,
      "▁assess": 4384,
      "▁assum": 4385,
      "▁04": 4386,
      "▁famous": 4387,
      "▁defense": 4388,
      "▁easier": 4389,
      "▁distance": 4390,
      "▁explained": 4391,
      "▁production": 4392,
      "▁movement": 4393,
      "▁posted": 4394,
      "▁languages": 4395,
      "▁receive": 4396,
      "▁elected": 4397,
      "▁chris": 4398,
      "▁charlie": 4399,
      "▁birds": 4400,
      "▁motor": 4401,
      "▁surprised": 4402,
      "▁danny": 4403,
      "▁canadian": 4404,
      "????": 4405,
      "▁russian": 4406,
      "▁delivery": 4407,
      "▁characters": 4408,
      "▁wiki": 4409,
      "▁journ": 4410,
      "▁sandwich": 4411,
      "▁determined": 4412,
      "▁florida": 4413,
      "bre": 4414,
      "equ": 4415,
      "house": 4416,
      "iest": 4417,
      "kin": 4418,
      "mes": 4419,
      "▁…": 4420,
      "▁silly": 4421,
      "reg": 4422,
      "▁categ": 4423,
      "▁mwet": 4424,
      "▁dancing": 4425,
      "▁pun": 4426,
      "lla": 4427,
      "itter": 4428,
      "ara": 4429,
      "aration": 4430,
      "icip": 4431,
      "▁onto": 4432,
      "▁reve": 4433,
      "▁refe": 4434,
      "▁waste": 4435,
      "▁riding": 4436,
      "▁kick": 4437,
      "▁shot": 4438,
      "▁shad": 4439,
      "▁chap": 4440,
      "▁plenty": 4441,
      "osure": 4442,
      "▁2.": 4443,
      "▁26": 4444,
      "▁coord": 4445,
      "▁agency": 4446,
      "ancy": 4447,
      "▁evolution": 4448,
      "▁loved": 4449,
      "▁screw": 4450,
      "▁writer": 4451,
      "▁serves": 4452,
      "amples": 4453,
      "inny": 4454,
      "▁glo": 4455,
      "encies": 4456,
      "▁minister": 4457,
      "▁install": 4458,
      "▁accur": 4459,
      "▁decisions": 4460,
      "▁rooms": 4461,
      "▁legos": 4462,
      "▁08": 4463,
      "▁skills": 4464,
      "▁visited": 4465,
      "▁2010": 4466,
      "▁sixth": 4467,
      "▁signed": 4468,
      "byl": 4469,
      "▁properly": 4470,
      "▁majority": 4471,
      "▁discussion": 4472,
      "▁occup": 4473,
      "▁camera": 4474,
      "▁domin": 4475,
      "▁carrying": 4476,
      "▁multip": 4477,
      "▁alternative": 4478,
      "▁museum": 4479,
      "▁mweta": 4480,
      "3-": 4481,
      "40": 4482,
      "ole": 4483,
      "off": 4484,
      "rig": 4485,
      "wood": 4486,
      "xim": 4487,
      "▁tag": 4488,
      "▁sli": 4489,
      "▁fis": 4490,
      "▁mouse": 4491,
      "▁pow": 4492,
      "▁nana": 4493,
      "orary": 4494,
      "iture": 4495,
      "▁whale": 4496,
      "▁ji": 4497,
      "▁jam": 4498,
      "▁shape": 4499,
      "▁ordered": 4500,
      "▁chief": 4501,
      "▁arrest": 4502,
      "▁27": 4503,
      "▁amb": 4504,
      "▁uses": 4505,
      "▁gram": 4506,
      "▁shown": 4507,
      "▁cock": 4508,
      "▁firm": 4509,
      "▁expand": 4510,
      "▁cris": 4511,
      "▁transm": 4512,
      "▁award": 4513,
      "▁awesome": 4514,
      "▁basically": 4515,
      "▁handle": 4516,
      "▁vet": 4517,
      "▁faith": 4518,
      "▁facts": 4519,
      "▁2014": 4520,
      "▁hearing": 4521,
      "▁maint": 4522,
      "▁calc": 4523,
      "ipping": 4524,
      "▁shopping": 4525,
      "▁professor": 4526,
      "▁debate": 4527,
      "▁prevent": 4528,
      "▁scientific": 4529,
      "▁horses": 4530,
      "▁attacks": 4531,
      "▁turning": 4532,
      "▁judge": 4533,
      "▁measure": 4534,
      "▁african": 4535,
      "load": 4536,
      "▁italian": 4537,
      "▁aspects": 4538,
      "▁behavior": 4539,
      "▁obviously": 4540,
      "▁exchange": 4541,
      "▁offered": 4542,
      "▁executive": 4543,
      "▁database": 4544,
      "▁television": 4545,
      "25": 4546,
      "mer": 4547,
      "ture": 4548,
      "uch": 4549,
      "ware": 4550,
      "▁‘": 4551,
      "hest": 4552,
      "▁sant": 4553,
      "ining": 4554,
      "▁dough": 4555,
      "▁dirt": 4556,
      "▁nick": 4557,
      "▁lu": 4558,
      "▁yog": 4559,
      "▁gulf": 4560,
      "asc": 4561,
      "▁eb": 4562,
      "stick": 4563,
      "sec": 4564,
      "roy": 4565,
      "▁forth": 4566,
      "ada": 4567,
      "▁rare": 4568,
      "▁rude": 4569,
      "▁flood": 4570,
      "▁chann": 4571,
      "istics": 4572,
      "using": 4573,
      "▁nobody": 4574,
      "pping": 4575,
      "aph": 4576,
      "▁lose": 4577,
      "▁goods": 4578,
      "▁compar": 4579,
      "▁scary": 4580,
      "▁carried": 4581,
      "▁speaking": 4582,
      "▁commit": 4583,
      "▁bub": 4584,
      "ension": 4585,
      "▁smoke": 4586,
      "▁intended": 4587,
      "cient": 4588,
      "▁relax": 4589,
      "nobyl": 4590,
      "▁subm": 4591,
      "▁interests": 4592,
      "▁possibly": 4593,
      "▁80": 4594,
      "▁2012": 4595,
      "▁zero": 4596,
      "▁district": 4597,
      "▁medical": 4598,
      "▁funds": 4599,
      "▁bedroom": 4600,
      "▁cereal": 4601,
      "▁appears": 4602,
      "▁conduct": 4603,
      "▁oppos": 4604,
      "▁treated": 4605,
      "▁pulled": 4606,
      "▁sources": 4607,
      "▁authority": 4608,
      "▁observed": 4609,
      "▁daniel": 4610,
      "▁failed": 4611,
      "▁competition": 4612,
      "▁etc.": 4613,
      "chester": 4614,
      "▁sweetie": 4615,
      "▁rabbit": 4616,
      "▁fantastic": 4617,
      "▁demonstr": 4618,
      "-6": 4619,
      ".net": 4620,
      "35": 4621,
      "aa": 4622,
      "back": 4623,
      "dam": 4624,
      "eenth": 4625,
      "fare": 4626,
      "iw": 4627,
      "ien": 4628,
      "nown": 4629,
      "rial": 4630,
      "▁ale": 4631,
      "▁iron": 4632,
      "▁fuck": 4633,
      "▁mitc": 4634,
      "anim": 4635,
      "enue": 4636,
      "icide": 4637,
      "leys": 4638,
      "lection": 4639,
      "otes": 4640,
      "▁reli": 4641,
      "iders": 4642,
      "ros": 4643,
      "▁liqu": 4644,
      "▁jim": 4645,
      "▁kh": 4646,
      "▁noticed": 4647,
      "ores": 4648,
      "▁trial": 4649,
      "▁sust": 4650,
      "▁alle": 4651,
      "uled": 4652,
      "usion": 4653,
      "ivia": 4654,
      "▁user": 4655,
      "▁unlike": 4656,
      "▁justice": 4657,
      "▁manuf": 4658,
      "▁disaster": 4659,
      "▁scared": 4660,
      "▁partners": 4661,
      "claim": 4662,
      "▁commer": 4663,
      "▁calls": 4664,
      "▁driver": 4665,
      "▁’ve": 4666,
      "▁arrives": 4667,
      "▁198": 4668,
      "▁finance": 4669,
      "▁stops": 4670,
      "▁eleph": 4671,
      "▁formal": 4672,
      "▁factor": 4673,
      "▁governor": 4674,
      "▁snake": 4675,
      "▁efficient": 4676,
      "▁loss": 4677,
      "▁treatment": 4678,
      "▁levels": 4679,
      "▁claims": 4680,
      "▁teaching": 4681,
      "▁purple": 4682,
      "▁existing": 4683,
      "▁describe": 4684,
      "▁destroy": 4685,
      "▁bugs": 4686,
      "▁horrible": 4687,
      "▁settlement": 4688,
      "▁task": 4689,
      "▁chemical": 4690,
      "▁william": 4691,
      "▁counterparty": 4692,
      "▁mitchell": 4693,
      "▁manufact": 4694,
      "22": 4695,
      "36": 4696,
      "frie": 4697,
      "gin": 4698,
      "row": 4699,
      "tr": 4700,
      "ye": 4701,
      "yal": 4702,
      "▁tun": 4703,
      "▁theat": 4704,
      "▁sac": 4705,
      "▁sout": 4706,
      "rely": 4707,
      "▁bump": 4708,
      "▁cher": 4709,
      "▁cia": 4710,
      "erves": 4711,
      "▁dial": 4712,
      "▁pipe": 4713,
      "ona": 4714,
      "▁none": 4715,
      "▁nerv": 4716,
      "orum": 4717,
      "▁gi": 4718,
      "etime": 4719,
      "▁reb": 4720,
      "▁rene": 4721,
      "▁reached": 4722,
      "▁fork": 4723,
      "urt": 4724,
      "▁rib": 4725,
      "▁lif": 4726,
      "▁jen": 4727,
      "▁kim": 4728,
      "▁sup": 4729,
      "▁vast": 4730,
      "▁vice": 4731,
      "▁vince": 4732,
      "resp": 4733,
      "▁upstairs": 4734,
      "▁tend": 4735,
      "▁grass": 4736,
      "▁click": 4737,
      "▁club": 4738,
      "▁advert": 4739,
      "▁cogn": 4740,
      "aren": 4741,
      "▁quar": 4742,
      "▁proud": 4743,
      "iban": 4744,
      "ibilities": 4745,
      "▁exposure": 4746,
      "▁boom": 4747,
      "▁carr": 4748,
      "▁31": 4749,
      "▁remains": 4750,
      "▁string": 4751,
      "▁presence": 4752,
      "▁replic": 4753,
      "▁kinda": 4754,
      "▁instance": 4755,
      "▁dragon": 4756,
      "▁personally": 4757,
      "▁keeping": 4758,
      "▁markets": 4759,
      "▁happening": 4760,
      "▁airports": 4761,
      "▁advant": 4762,
      "▁techni": 4763,
      "▁missing": 4764,
      "▁boxes": 4765,
      "▁closely": 4766,
      "▁discussed": 4767,
      "▁robot": 4768,
      "▁raised": 4769,
      "▁trading": 4770,
      "▁previous": 4771,
      "▁excited": 4772,
      "▁eventually": 4773,
      "▁telephone": 4774,
      "▁assistance": 4775,
      "▁contemp": 4776,
      "▁discovered": 4777,
      "****************": 4778,
      "▁garage": 4779,
      "▁islamic": 4780,
      "▁taliban": 4781,
      "▁blanket": 4782,
      "▁physical": 4783,
      ".m.": 4784,
      "▁zeal": 4785,
      "▁mathematics": 4786,
      "▁sports": 4787,
      "▁stretch": 4788,
      "▁gentle": 4789,
      "▁airplane": 4790,
      "▁writers": 4791,
      ".g": 4792,
      "02": 4793,
      "18": 4794,
      "59": 4795,
      "gal": 4796,
      "had": 4797,
      "ivers": 4798,
      "mine": 4799,
      "mark": 4800,
      "nis": 4801,
      "nut": 4802,
      "▁.?": 4803,
      "▁won": 4804,
      "▁wand": 4805,
      "▁wig": 4806,
      "▁wav": 4807,
      "▁bunch": 4808,
      "▁crop": 4809,
      "▁mum": 4810,
      "▁mart": 4811,
      "▁dand": 4812,
      "▁double": 4813,
      "▁pool": 4814,
      "ening": 4815,
      "▁gro": 4816,
      "asp": 4817,
      "aling": 4818,
      "aled": 4819,
      "▁re-": 4820,
      "▁frame": 4821,
      "▁ring": 4822,
      "▁shark": 4823,
      "▁shock": 4824,
      "tering": 4825,
      "▁trick": 4826,
      "▁suicide": 4827,
      "▁conclus": 4828,
      "▁vict": 4829,
      "▁worry": 4830,
      "apt": 4831,
      "aked": 4832,
      "osop": 4833,
      "▁sav": 4834,
      "▁shower": 4835,
      "▁covered": 4836,
      "▁quart": 4837,
      "aging": 4838,
      "ipl": 4839,
      "itect": 4840,
      "▁offers": 4841,
      "▁resc": 4842,
      "▁precise": 4843,
      "▁apparent": 4844,
      "▁smith": 4845,
      "▁strugg": 4846,
      "▁useful": 4847,
      "▁descript": 4848,
      "athy": 4849,
      "▁polar": 4850,
      "▁75": 4851,
      "▁schools": 4852,
      "▁colon": 4853,
      "▁classes": 4854,
      "▁09": 4855,
      "▁lights": 4856,
      "▁centre": 4857,
      "▁remembered": 4858,
      "▁careful": 4859,
      "▁statement": 4860,
      "▁streets": 4861,
      "▁jelly": 4862,
      "▁respond": 4863,
      "▁approxim": 4864,
      "▁cutting": 4865,
      "▁payment": 4866,
      "▁views": 4867,
      "▁technologies": 4868,
      "▁missed": 4869,
      "▁cookies": 4870,
      "▁millions": 4871,
      "▁indeed": 4872,
      "▁pressure": 4873,
      "▁christian": 4874,
      "▁responsibility": 4875,
      "ifying": 4876,
      "▁convention": 4877,
      "▁audience": 4878,
      "▁independence": 4879,
      "▁damage": 4880,
      "▁thousand": 4881,
      "▁architect": 4882,
      "▁watched": 4883,
      "▁challenges": 4884,
      "▁title": 4885,
      "▁communication": 4886,
      "▁candid": 4887,
      "▁estimated": 4888,
      "▁adults": 4889,
      "▁doubt": 4890,
      "▁cooperation": 4891,
      "▁iodine": 4892,
      "▁territory": 4893,
      ":5": 4894,
      "ias": 4895,
      "rated": 4896,
      "uals": 4897,
      "wa": 4898,
      "word": 4899,
      "yl": 4900,
      "▁vern": 4901,
      "▁tummy": 4902,
      "▁ip": 4903,
      "▁odd": 4904,
      "▁ber": 4905,
      "▁cig": 4906,
      "▁cub": 4907,
      "▁mas": 4908,
      "▁hate": 4909,
      "▁nurs": 4910,
      "orp": 4911,
      "▁lion": 4912,
      "▁leng": 4913,
      "▁lingu": 4914,
      "eding": 4915,
      "itude": 4916,
      "arc": 4917,
      "ache": 4918,
      "ado": 4919,
      "imp": 4920,
      "aming": 4921,
      "▁meals": 4922,
      "▁rise": 4923,
      "▁flies": 4924,
      "▁kiss": 4925,
      "▁neither": 4926,
      "▁vall": 4927,
      "▁vill": 4928,
      "elines": 4929,
      "▁anybody": 4930,
      "▁robert": 4931,
      "▁dise": 4932,
      "▁acad": 4933,
      "anged": 4934,
      "▁player": 4935,
      "▁active": 4936,
      "▁recon": 4937,
      "▁launch": 4938,
      "▁transfer": 4939,
      "▁philosop": 4940,
      "▁2006": 4941,
      "▁obl": 4942,
      "▁setting": 4943,
      "▁symp": 4944,
      "▁column": 4945,
      "▁heads": 4946,
      "▁skitt": 4947,
      "▁generally": 4948,
      "▁includes": 4949,
      "▁greet": 4950,
      "▁2011": 4951,
      "▁developing": 4952,
      "▁autom": 4953,
      "▁approved": 4954,
      "iety": 4955,
      "▁creation": 4956,
      "▁studying": 4957,
      "▁eighth": 4958,
      "▁parking": 4959,
      "▁westchester": 4960,
      "▁motion": 4961,
      "▁fifty": 4962,
      "ervation": 4963,
      "▁relevant": 4964,
      "▁industrial": 4965,
      "▁straw": 4966,
      "▁suspect": 4967,
      "▁puppy": 4968,
      "▁neighbor": 4969,
      "▁families": 4970,
      "▁confirm": 4971,
      "works": 4972,
      "▁analyst": 4973,
      "▁pushed": 4974,
      "...@": 4975,
      "▁conflict": 4976,
      "▁furniture": 4977,
      "▁scholars": 4978,
      "▁santorum": 4979,
      "▁channel": 4980,
      "▁liquid": 4981,
      "▁zealand": 4982,
      "++": 4983,
      ".7": 4984,
      "05": 4985,
      "28": 4986,
      "34": 4987,
      "92": 4988,
      "bie": 4989,
      "boy": 4990,
      "ois": 4991,
      "ym": 4992,
      "yan": 4993,
      "hered": 4994,
      "▁os": 4995,
      "▁fab": 4996,
      "▁burn": 4997,
      "▁mun": 4998,
      "▁dh": 4999,
      "▁pair": 5000,
      "▁purs": 5001,
      "▁hill": 5002,
      "▁nic": 5003,
      "▁threw": 5004,
      "▁ly": 5005,
      "▁lope": 5006,
      "▁inn": 5007,
      "arra": 5008,
      "aly": 5009,
      "ette": 5010,
      "▁dose": 5011,
      "sey": 5012,
      "▁stir": 5013,
      "▁stage": 5014,
      "▁stup": 5015,
      "▁rome": 5016,
      "▁rug": 5017,
      "▁sees": 5018,
      "▁lift": 5019,
      "▁shi": 5020,
      "▁dele": 5021,
      "▁conclud": 5022,
      "▁virt": 5023,
      "▁placed": 5024,
      "▁somehow": 5025,
      "▁ene": 5026,
      "▁anymore": 5027,
      "▁quino": 5028,
      "ager": 5029,
      "▁moreau": 5030,
      "▁herself": 5031,
      "▁offices": 5032,
      "▁scott": 5033,
      "▁joined": 5034,
      "▁monkey": 5035,
      "▁helps": 5036,
      "▁glow": 5037,
      "▁conscious": 5038,
      "▁feels": 5039,
      "▁veh": 5040,
      "▁2015": 5041,
      "▁90": 5042,
      "▁info": 5043,
      "▁completed": 5044,
      "▁enjamb": 5045,
      "▁painting": 5046,
      "▁recommended": 5047,
      "▁sleepy": 5048,
      "▁1999": 5049,
      "▁circum": 5050,
      "▁magaz": 5051,
      "▁tourist": 5052,
      "▁representative": 5053,
      "▁copyright": 5054,
      "▁fingers": 5055,
      "▁hundreds": 5056,
      "▁ships": 5057,
      "▁cycle": 5058,
      "▁neighbour": 5059,
      "▁mixed": 5060,
      "▁waters": 5061,
      "▁influence": 5062,
      "▁legislation": 5063,
      "▁pleasant": 5064,
      "▁pilot": 5065,
      "▁replace": 5066,
      "▁soldiers": 5067,
      "▁adopted": 5068,
      "▁escape": 5069,
      "▁innovation": 5070,
      "▁strength": 5071,
      "▁pretend": 5072,
      "▁insurance": 5073,
      "▁twelve": 5074,
      "▁negoti": 5075,
      "▁appointment": 5076,
      "▁weasley": 5077,
      "▁ghost": 5078,
      "▁medicine": 5079,
      "▁jihad": 5080,
      "friend": 5081,
      "▁vernon": 5082,
      "▁stupid": 5083,
      "▁quinoa": 5084,
      "-b": 5085,
      "des": 5086,
      "dge": 5087,
      "ket": 5088,
      "rical": 5089,
      "łod": 5090,
      "▁till": 5091,
      "▁wit": 5092,
      "▁theod": 5093,
      "▁oce": 5094,
      "▁fav": 5095,
      "▁faces": 5096,
      "▁bin": 5097,
      "▁bother": 5098,
      "oul": 5099,
      "▁mission": 5100,
      "▁py": 5101,
      "orus": 5102,
      "lled": 5103,
      "▁ga": 5104,
      "▁yout": 5105,
      "ionally": 5106,
      "ids": 5107,
      "▁stan": 5108,
      "▁sem": 5109,
      "▁severe": 5110,
      "▁shr": 5111,
      "▁goals": 5112,
      "▁suit": 5113,
      "olic": 5114,
      "▁vlog": 5115,
      "appe": 5116,
      "aker": 5117,
      "▁unit": 5118,
      "▁twent": 5119,
      "▁nav": 5120,
      "▁manner": 5121,
      "▁pray": 5122,
      "▁evol": 5123,
      "▁loan": 5124,
      "▁compared": 5125,
      "▁scale": 5126,
      "izes": 5127,
      "▁jokes": 5128,
      "▁recip": 5129,
      "▁smile": 5130,
      "▁greatest": 5131,
      "gged": 5132,
      "▁dese": 5133,
      "▁owners": 5134,
      "▁stopping": 5135,
      "▁element": 5136,
      "▁reality": 5137,
      "▁realize": 5138,
      "▁syria": 5139,
      "▁colors": 5140,
      "ception": 5141,
      "▁assume": 5142,
      "▁detect": 5143,
      "▁foundation": 5144,
      "▁generation": 5145,
      "▁stands": 5146,
      "▁follows": 5147,
      "▁refused": 5148,
      "▁governments": 5149,
      "▁balloon": 5150,
      "standing": 5151,
      "▁empty": 5152,
      "▁concent": 5153,
      "▁bringing": 5154,
      "▁presented": 5155,
      "▁limit": 5156,
      "▁rocks": 5157,
      "▁clothing": 5158,
      "▁visitors": 5159,
      "▁designed": 5160,
      "▁employment": 5161,
      "▁totally": 5162,
      "▁network": 5163,
      "▁benefits": 5164,
      "▁cowboy": 5165,
      "▁rental": 5166,
      "▁golden": 5167,
      "▁northern": 5168,
      "▁concerns": 5169,
      "▁mistake": 5170,
      "▁lucky": 5171,
      "▁wolf": 5172,
      "▁orders": 5173,
      "▁ultim": 5174,
      "▁temperature": 5175,
      "▁greek": 5176,
      "▁egyptian": 5177,
      "▁electricity": 5178,
      "▁australia": 5179,
      "▁delicious": 5180,
      "▁vietnam": 5181,
      "▁grammar": 5182,
      "▁nervous": 5183,
      "▁replication": 5184,
      "▁length": 5185,
      "▁valley": 5186,
      "▁enjambment": 5187,
      "łodz": 5188,
      "11": 5189,
      "44": 5190,
      "cing": 5191,
      "dom": 5192,
      "fl": 5193,
      "known": 5194,
      "nic": 5195,
      "ship": 5196,
      "▁łodz": 5197,
      "▁taught": 5198,
      "rehens": 5199,
      "▁ooh": 5200,
      "▁bound": 5201,
      "▁bare": 5202,
      "▁bern": 5203,
      "▁cert": 5204,
      "▁map": 5205,
      "▁mars": 5206,
      "▁pump": 5207,
      "▁ll": 5208,
      "▁lick": 5209,
      "▁loose": 5210,
      "▁ing": 5211,
      "arian": 5212,
      "ashed": 5213,
      "vey": 5214,
      "sters": 5215,
      "▁beer": 5216,
      "▁bell": 5217,
      "entions": 5218,
      "▁forced": 5219,
      "ird": 5220,
      "▁sending": 5221,
      "▁lip": 5222,
      "▁conven": 5223,
      "ulating": 5224,
      "igator": 5225,
      "igration": 5226,
      "▁plastic": 5227,
      "aped": 5228,
      "▁unable": 5229,
      "▁twist": 5230,
      "▁moh": 5231,
      "▁dish": 5232,
      "▁disapp": 5233,
      "▁sche": 5234,
      "▁peoples": 5235,
      "▁background": 5236,
      "▁blog": 5237,
      "▁pleased": 5238,
      "▁commons": 5239,
      "▁imposs": 5240,
      "▁remained": 5241,
      "▁helping": 5242,
      "▁marie": 5243,
      "▁70": 5244,
      "▁suppose": 5245,
      "▁warming": 5246,
      "▁eleven": 5247,
      "▁sites": 5248,
      "▁collab": 5249,
      "▁visual": 5250,
      "▁curren": 5251,
      "▁direction": 5252,
      "▁2013": 5253,
      "▁gender": 5254,
      "▁importance": 5255,
      "▁muslim": 5256,
      "▁nato": 5257,
      "▁buying": 5258,
      "▁calm": 5259,
      "▁younger": 5260,
      "▁universal": 5261,
      "▁hurry": 5262,
      "▁buildings": 5263,
      "▁promised": 5264,
      "▁operators": 5265,
      "▁cupc": 5266,
      "▁controls": 5267,
      "▁collection": 5268,
      "▁fifteen": 5269,
      "▁answers": 5270,
      "▁announced": 5271,
      "▁expression": 5272,
      "▁speaker": 5273,
      "▁buttons": 5274,
      "▁batter": 5275,
      "▁highest": 5276,
      "▁participants": 5277,
      "▁deliver": 5278,
      "▁literature": 5279,
      "▁implementation": 5280,
      "▁associated": 5281,
      "▁essential": 5282,
      "▁purchase": 5283,
      "▁appearance": 5284,
      "▁familiar": 5285,
      "▁bomb": 5286,
      "▁breath": 5287,
      "▁repeated": 5288,
      "▁frequently": 5289,
      "▁elevator": 5290,
      "▁agriculture": 5291,
      "▁musharra": 5292,
      "▁exercise": 5293,
      "▁guidelines": 5294,
      "▁components": 5295,
      "▁dando": 5296,
      "▁ocean": 5297,
      "▁disappoint": 5298,
      "▁impossible": 5299,
      "▁musharraf": 5300,
      ".8": 5301,
      "29": 5302,
      "31": 5303,
      "ez": 5304,
      "ios": 5305,
      "och": 5306,
      "rad": 5307,
      "rition": 5308,
      "uated": 5309,
      "▁tent": 5310,
      "▁tab": 5311,
      "▁tul": 5312,
      "▁ai": 5313,
      "▁ack": 5314,
      "heet": 5315,
      "▁wis": 5316,
      "▁wars": 5317,
      "▁soup": 5318,
      "rep": 5319,
      "inting": 5320,
      "▁fal": 5321,
      "atically": 5322,
      "▁bon": 5323,
      "▁core": 5324,
      "▁mand": 5325,
      "▁ded": 5326,
      "▁drew": 5327,
      "▁pure": 5328,
      "▁loo": 5329,
      "icies": 5330,
      "ste": 5331,
      "enture": 5332,
      "entially": 5333,
      "▁froz": 5334,
      "idents": 5335,
      "▁stars": 5336,
      "▁rot": 5337,
      "▁rack": 5338,
      "ctors": 5339,
      "▁athens": 5340,
      "▁seed": 5341,
      "▁lies": 5342,
      "▁jul": 5343,
      "▁kent": 5344,
      "▁asse": 5345,
      "▁asia": 5346,
      "▁depend": 5347,
      "▁tract": 5348,
      "estic": 5349,
      "▁alligator": 5350,
      "ulous": 5351,
      "▁1000": 5352,
      "▁vod": 5353,
      "ums": 5354,
      "▁shell": 5355,
      "▁unknown": 5356,
      "▁enforce": 5357,
      "inews": 5358,
      "▁cliff": 5359,
      "▁que": 5360,
      "▁qual": 5361,
      "▁prime": 5362,
      "▁spos": 5363,
      "▁thinks": 5364,
      "actions": 5365,
      "▁complic": 5366,
      "▁bod": 5367,
      "▁server": 5368,
      "▁prem": 5369,
      "▁joe": 5370,
      "▁remove": 5371,
      "▁policies": 5372,
      "▁charged": 5373,
      "▁minor": 5374,
      "▁minimum": 5375,
      "▁election": 5376,
      "▁syr": 5377,
      "▁income": 5378,
      "▁provisions": 5379,
      "▁harv": 5380,
      "▁harmon": 5381,
      "▁swed": 5382,
      "▁extent": 5383,
      "▁humans": 5384,
      "▁explan": 5385,
      "▁medium": 5386,
      "▁hopefully": 5387,
      "▁advance": 5388,
      "▁steve": 5389,
      "▁traveling": 5390,
      "▁picked": 5391,
      "▁penny": 5392,
      "▁records": 5393,
      "▁promise": 5394,
      "▁chairs": 5395,
      "▁1991": 5396,
      "▁cooking": 5397,
      "▁considering": 5398,
      "▁peaceful": 5399,
      "▁restaurants": 5400,
      "▁facilities": 5401,
      "▁objects": 5402,
      "▁requested": 5403,
      "▁divers": 5404,
      "▁listening": 5405,
      "▁entirely": 5406,
      "▁failure": 5407,
      "▁administr": 5408,
      "▁puzz": 5409,
      "▁wikinews": 5410,
      "▁status": 5411,
      "▁mexican": 5412,
      "▁emergency": 5413,
      "▁pleasure": 5414,
      "▁instructions": 5415,
      "▁olivia": 5416,
      "▁experienced": 5417,
      "▁depends": 5418,
      "▁galois": 5419,
      "▁border": 5420,
      "▁confidential": 5421,
      "▁peanut": 5422,
      "▁relatively": 5423,
      "▁subscrib": 5424,
      "▁jewish": 5425,
      "▁newspaper": 5426,
      "▁commercial": 5427,
      "▁academic": 5428,
      "▁skittles": 5429,
      "▁currency": 5430,
      "▁frozen": 5431,
      "▁vodka": 5432,
      "-n": 5433,
      ".org": 5434,
      "38": 5435,
      "48": 5436,
      "df": 5437,
      "ech": 5438,
      "gam": 5439,
      "lin": 5440,
      "now": 5441,
      "nel": 5442,
      "ris": 5443,
      "sl": 5444,
      "vin": 5445,
      "zer": 5446,
      "▁tam": 5447,
      "▁tip": 5448,
      "▁tables": 5449,
      "▁sir": 5450,
      "▁sally": 5451,
      "rees": 5452,
      "▁bone": 5453,
      "▁cc": 5454,
      "▁cos": 5455,
      "▁cath": 5456,
      "erous": 5457,
      "▁migr": 5458,
      "▁dy": 5459,
      "▁dwww": 5460,
      "▁durs": 5461,
      "ano": 5462,
      "▁nest": 5463,
      "orial": 5464,
      "▁inh": 5465,
      "arf": 5466,
      "ales": 5467,
      "etch": 5468,
      "ayed": 5469,
      "▁upper": 5470,
      "▁beard": 5471,
      "sect": 5472,
      "acle": 5473,
      "iration": 5474,
      "▁rang": 5475,
      "▁ancient": 5476,
      "▁seating": 5477,
      "▁flu": 5478,
      "▁neat": 5479,
      "▁soil": 5480,
      "▁trash": 5481,
      "▁chat": 5482,
      "▁choo": 5483,
      "quito": 5484,
      "ategy": 5485,
      "arts": 5486,
      "▁knife": 5487,
      "▁seeking": 5488,
      "inking": 5489,
      "▁uns": 5490,
      "▁clock": 5491,
      "▁quant": 5492,
      "iped": 5493,
      "▁royal": 5494,
      "▁becomes": 5495,
      "▁airfare": 5496,
      "▁spin": 5497,
      "▁loves": 5498,
      "▁diss": 5499,
      "▁disappe": 5500,
      "▁boots": 5501,
      "▁perce": 5502,
      "▁everywhere": 5503,
      "▁crimin": 5504,
      "▁recall": 5505,
      "▁morality": 5506,
      "▁smo": 5507,
      "▁smok": 5508,
      "▁strategy": 5509,
      "▁owned": 5510,
      "▁basket": 5511,
      "▁informed": 5512,
      "▁incred": 5513,
      "▁slide": 5514,
      "▁produced": 5515,
      "▁05": 5516,
      "▁ski": 5517,
      "▁edge": 5518,
      "▁breaking": 5519,
      "▁planned": 5520,
      "▁weekly": 5521,
      "▁zoo": 5522,
      "▁stream": 5523,
      "▁passion": 5524,
      "place": 5525,
      "▁jean": 5526,
      "iki": 5527,
      "▁falls": 5528,
      "▁mainly": 5529,
      "▁maintain": 5530,
      "▁advanced": 5531,
      "▁drawing": 5532,
      "▁squir": 5533,
      "▁shorts": 5534,
      "▁connecting": 5535,
      "▁copies": 5536,
      "▁patient": 5537,
      "▁operation": 5538,
      "▁wondering": 5539,
      "▁magn": 5540,
      "▁raise": 5541,
      "▁originally": 5542,
      "▁anti-": 5543,
      "▁prepare": 5544,
      "▁devil": 5545,
      "▁microphone": 5546,
      "▁investment": 5547,
      "▁critical": 5548,
      "▁mosquito": 5549,
      "▁divide": 5550,
      "▁sufficient": 5551,
      "▁drove": 5552,
      "▁introduced": 5553,
      "▁hanging": 5554,
      "▁concepts": 5555,
      "▁historical": 5556,
      "▁rubber": 5557,
      "▁appreciate": 5558,
      "@enron.com": 5559,
      "▁container": 5560,
      "▁deriv": 5561,
      "▁narrow": 5562,
      "▁procedure": 5563,
      "▁inspired": 5564,
      "▁removed": 5565,
      "▁granted": 5566,
      "▁troops": 5567,
      "▁crisis": 5568,
      "iwan": 5569,
      "▁advantage": 5570,
      "▁cigare": 5571,
      "▁theodorus": 5572,
      "▁youtube": 5573,
      "▁twentieth": 5574,
      "▁enforcement": 5575,
      "-e": 5576,
      "-l": 5577,
      "-w": 5578,
      ".2": 5579,
      "/0": 5580,
      "16": 5581,
      "eur": 5582,
      "fa": 5583,
      "lers": 5584,
      "mail": 5585,
      "mod": 5586,
      "night": 5587,
      "rick": 5588,
      "uly": 5589,
      "▁i.": 5590,
      "▁ire": 5591,
      "▁sides": 5592,
      "▁oz": 5593,
      "▁bac": 5594,
      "▁cas": 5595,
      "▁cute": 5596,
      "▁pir": 5597,
      "▁punch": 5598,
      "▁toky": 5599,
      "▁hal": 5600,
      "▁hoo": 5601,
      "inger": 5602,
      "▁thro": 5603,
      "▁lank": 5604,
      "itate": 5605,
      "arm": 5606,
      "asy": 5607,
      "▁e.g": 5608,
      "otion": 5609,
      "▁bears": 5610,
      "▁stom": 5611,
      "▁stairs": 5612,
      "uries": 5613,
      "urning": 5614,
      "lyn": 5615,
      "lying": 5616,
      "▁rural": 5617,
      "▁anne": 5618,
      "▁flavor": 5619,
      "▁karen": 5620,
      "▁shared": 5621,
      "esthet": 5622,
      "▁congr": 5623,
      "▁alt.": 5624,
      "usal": 5625,
      "igning": 5626,
      "umble": 5627,
      "▁pled": 5628,
      "▁arrog": 5629,
      "osition": 5630,
      "iform": 5631,
      "▁knowing": 5632,
      "▁uniform": 5633,
      "▁ena": 5634,
      "▁clay": 5635,
      "▁client": 5636,
      "▁quote": 5637,
      "▁fee": 5638,
      "▁agents": 5639,
      "▁spoon": 5640,
      "▁log": 5641,
      "▁puts": 5642,
      "▁ourselves": 5643,
      "▁bob": 5644,
      "▁boot": 5645,
      "▁cheek": 5646,
      "▁spect": 5647,
      "▁speech": 5648,
      "▁dram": 5649,
      "▁cray": 5650,
      "▁joy": 5651,
      "▁laun": 5652,
      "▁38": 5653,
      "▁strange": 5654,
      "▁serving": 5655,
      "▁desire": 5656,
      "▁regulation": 5657,
      "▁attrib": 5658,
      "ronic": 5659,
      "▁booked": 5660,
      "▁relief": 5661,
      "▁household": 5662,
      "▁symb": 5663,
      "▁providing": 5664,
      "▁restrict": 5665,
      "▁marked": 5666,
      "▁passing": 5667,
      "▁signs": 5668,
      "▁files": 5669,
      "▁publicly": 5670,
      "▁processes": 5671,
      "▁behalf": 5672,
      "▁11:": 5673,
      "▁infrast": 5674,
      "▁squee": 5675,
      "▁equip": 5676,
      "iveness": 5677,
      "▁fortun": 5678,
      "ructure": 5679,
      "▁pattern": 5680,
      "▁operations": 5681,
      "▁tickets": 5682,
      "▁shops": 5683,
      "▁claimed": 5684,
      "▁specifically": 5685,
      "▁involve": 5686,
      "▁expressed": 5687,
      "▁senior": 5688,
      "▁documents": 5689,
      "▁declaration": 5690,
      "▁packed": 5691,
      "▁applications": 5692,
      "▁holt": 5693,
      "▁participation": 5694,
      "▁determine": 5695,
      "▁methods": 5696,
      "▁terrorist": 5697,
      "▁suffering": 5698,
      "▁constitu": 5699,
      "▁religion": 5700,
      "▁corporate": 5701,
      "▁individuals": 5702,
      "▁italy": 5703,
      "▁expertise": 5704,
      "▁germany": 5705,
      "▁amendments": 5706,
      "▁houses": 5707,
      "▁error": 5708,
      "▁accommod": 5709,
      "▁swimming": 5710,
      "▁folks": 5711,
      "▁negative": 5712,
      "▁angry": 5713,
      "▁chapter": 5714,
      "▁reliable": 5715,
      "▁wiggle": 5716,
      "▁lopez": 5717,
      "▁enemy": 5718,
      ".6": 5719,
      "07": 5720,
      "53-": 5721,
      "cal": 5722,
      "do": 5723,
      "e.": 5724,
      "gl": 5725,
      "gill": 5726,
      "lph": 5727,
      "ode": 5728,
      "rant": 5729,
      "tion": 5730,
      "ties": 5731,
      "▁|": 5732,
      "▁aid": 5733,
      "▁aesthet": 5734,
      "▁woo": 5735,
      "▁wiz": 5736,
      "▁witch": 5737,
      "▁sne": 5738,
      "▁sample": 5739,
      "▁saud": 5740,
      "▁session": 5741,
      "inated": 5742,
      "▁baking": 5743,
      "▁bones": 5744,
      "oured": 5745,
      "ndered": 5746,
      "▁dud": 5747,
      "▁dipl": 5748,
      "▁pra": 5749,
      "▁hind": 5750,
      "▁horn": 5751,
      "▁thin": 5752,
      "▁l2": 5753,
      "▁inqu": 5754,
      "▁infect": 5755,
      "▁gym": 5756,
      "icial": 5757,
      "stances": 5758,
      "ota": 5759,
      "verse": 5760,
      "verty": 5761,
      "▁stress": 5762,
      "irts": 5763,
      "▁raining": 5764,
      "▁ryan": 5765,
      "▁jason": 5766,
      "▁ker": 5767,
      "▁orient": 5768,
      "▁trib": 5769,
      "▁cance": 5770,
      "▁prove": 5771,
      "ivered": 5772,
      "▁outer": 5773,
      "▁coat": 5774,
      "mploy": 5775,
      "agues": 5776,
      "▁feather": 5777,
      "▁mob": 5778,
      "▁whereas": 5779,
      "web": 5780,
      "▁blind": 5781,
      "▁taiwan": 5782,
      "▁poverty": 5783,
      "▁actual": 5784,
      "▁recru": 5785,
      "▁laid": 5786,
      "▁strateg": 5787,
      "igned": 5788,
      "▁arrival": 5789,
      "▁desert": 5790,
      "▁2009": 5791,
      "▁attach": 5792,
      "▁attorn": 5793,
      "▁talked": 5794,
      "▁surger": 5795,
      "▁turns": 5796,
      "ologist": 5797,
      "▁harm": 5798,
      "▁entertain": 5799,
      "▁lovely": 5800,
      "▁lighting": 5801,
      "▁defined": 5802,
      "ashion": 5803,
      "▁refu": 5804,
      "▁carefully": 5805,
      "▁2016": 5806,
      "▁leads": 5807,
      "▁distingu": 5808,
      "▁economies": 5809,
      "▁trained": 5810,
      "▁corresp": 5811,
      "▁emph": 5812,
      "▁shoot": 5813,
      "▁stores": 5814,
      "▁protest": 5815,
      "▁constantly": 5816,
      "▁equival": 5817,
      "▁urban": 5818,
      "▁presentation": 5819,
      "▁models": 5820,
      "▁eighteen": 5821,
      "▁chickens": 5822,
      "▁collected": 5823,
      "▁surprising": 5824,
      "▁sevent": 5825,
      "▁!!!!": 5826,
      "▁silk": 5827,
      "▁hamas": 5828,
      "▁hamster": 5829,
      "▁teachers": 5830,
      "▁dining": 5831,
      "▁decline": 5832,
      "▁counterfe": 5833,
      "▁structural": 5834,
      "▁bottles": 5835,
      "▁scheduled": 5836,
      "▁walls": 5837,
      "▁pockets": 5838,
      "▁normally": 5839,
      "▁epis": 5840,
      "▁suffer": 5841,
      "▁murder": 5842,
      "▁scene": 5843,
      "▁contribution": 5844,
      "▁carolina": 5845,
      "▁mirr": 5846,
      "▁improvement": 5847,
      "▁ninet": 5848,
      "▁ninth": 5849,
      "▁translation": 5850,
      "▁consumption": 5851,
      "▁amendment": 5852,
      "▁housing": 5853,
      "▁romantic": 5854,
      "▁beside": 5855,
      "▁tools": 5856,
      "▁features": 5857,
      "▁exhibit": 5858,
      "▁palestinian": 5859,
      "▁spoken": 5860,
      "▁evolutionary": 5861,
      "▁theatre": 5862,
      "▁village": 5863,
      "▁oblig": 5864,
      "▁circumstances": 5865,
      "▁favour": 5866,
      "▁ingred": 5867,
      "▁tulsa": 5868,
      "▁acknow": 5869,
      "▁tractor": 5870,
      "▁catholic": 5871,
      "▁ireland": 5872,
      "▁tokyo": 5873,
      "▁e.g.": 5874,
      "▁congrat": 5875,
      "21": 5876,
      "bow": 5877,
      "bage": 5878,
      "d2": 5879,
      "dp": 5880,
      "den": 5881,
      "eing": 5882,
      "nat": 5883,
      "sp": 5884,
      "▁=": 5885,
      "▁ast": 5886,
      "▁wag": 5887,
      "▁sin": 5888,
      "▁sri": 5889,
      "▁bid": 5890,
      "▁couch": 5891,
      "▁ped": 5892,
      "▁pic": 5893,
      "▁papers": 5894,
      "oni": 5895,
      "oned": 5896,
      "anie": 5897,
      "▁ny": 5898,
      "▁l'": 5899,
      "▁yard": 5900,
      "oms": 5901,
      "▁gaz": 5902,
      "ione": 5903,
      "▁uv": 5904,
      "▁weak": 5905,
      "▁stone": 5906,
      "▁ram": 5907,
      "▁sept": 5908,
      "▁flower": 5909,
      "▁notes": 5910,
      "▁goat": 5911,
      "▁sole": 5912,
      "▁socks": 5913,
      "▁tra": 5914,
      "▁truly": 5915,
      "▁alloc": 5916,
      "erson": 5917,
      "▁vic": 5918,
      "▁abb": 5919,
      "▁plat": 5920,
      "akers": 5921,
      "▁29": 5922,
      "ounds": 5923,
      "▁shelf": 5924,
      "▁usual": 5925,
      "▁clin": 5926,
      "▁cloud": 5927,
      "▁coal": 5928,
      "▁pepper": 5929,
      "▁agent": 5930,
      "▁moham": 5931,
      "▁spain": 5932,
      "▁dishes": 5933,
      "▁disney": 5934,
      "▁score": 5935,
      "izations": 5936,
      "▁causes": 5937,
      "▁earned": 5938,
      "▁strict": 5939,
      "▁transaction": 5940,
      "▁desper": 5941,
      "ocent": 5942,
      "▁196": 5943,
      "▁belg": 5944,
      "▁adding": 5945,
      "▁numerous": 5946,
      "▁marbles": 5947,
      "▁kinds": 5948,
      "▁studied": 5949,
      "▁termin": 5950,
      "ucing": 5951,
      "▁synt": 5952,
      "▁decent": 5953,
      "▁hug": 5954,
      "▁formed": 5955,
      "▁highlight": 5956,
      "▁entit": 5957,
      "▁returning": 5958,
      "▁elsewhere": 5959,
      "▁continues": 5960,
      "▁breast": 5961,
      "▁internal": 5962,
      "▁seconds": 5963,
      "▁ballet": 5964,
      "▁password": 5965,
      "▁discount": 5966,
      "ikh": 5967,
      "▁falling": 5968,
      "▁geograph": 5969,
      "▁delhi": 5970,
      "▁coron": 5971,
      "▁dollar": 5972,
      "▁snitch": 5973,
      "▁fuel": 5974,
      "▁lawy": 5975,
      "▁paying": 5976,
      "▁159": 5977,
      "▁ansi-": 5978,
      "▁testing": 5979,
      "▁singing": 5980,
      "▁penal": 5981,
      "▁recorder": 5982,
      "▁powerful": 5983,
      "▁forever": 5984,
      "▁commissioner": 5985,
      "▁excel": 5986,
      "▁suggested": 5987,
      "▁protected": 5988,
      "▁agenda": 5989,
      "▁definition": 5990,
      "▁argent": 5991,
      "▁dressed": 5992,
      "▁donkey": 5993,
      "▁release": 5994,
      "▁turkey": 5995,
      "▁judg": 5996,
      "▁saddam": 5997,
      "▁battle": 5998,
      "▁domain": 5999,
      "▁domestic": 6000,
      "▁excuse": 6001,
      "▁identity": 6002,
      "▁perfectly": 6003,
      "▁cycl": 6004,
      "▁opportunities": 6005,
      "▁associate": 6006,
      "▁crying": 6007,
      "▁predict": 6008,
      "▁priority": 6009,
      "▁widely": 6010,
      "▁flex": 6011,
      "▁affected": 6012,
      "▁cabin": 6013,
      "▁experts": 6014,
      "▁henry": 6015,
      "▁poetry": 6016,
      "▁degree": 6017,
      "▁depending": 6018,
      "▁update": 6019,
      "▁prosper": 6020,
      "▁voices": 6021,
      "▁journal": 6022,
      "▁multiple": 6023,
      "▁opposite": 6024,
      "animals": 6025,
      "▁elephant": 6026,
      "▁southern": 6027,
      "▁cognitive": 6028,
      "▁quarter": 6029,
      "▁apparently": 6030,
      "▁bodies": 6031,
      "▁smooth": 6032,
      "▁alt.animals": 6033,
      "▁infrastructure": 6034,
      "▁equipment": 6035,
      "▁dudley": 6036,
      "▁diplom": 6037,
      "▁surgery": 6038,
      "▁emphas": 6039,
      ".p": 6040,
      "/c": 6041,
      "500": 6042,
      "ga": 6043,
      "gen": 6044,
      "gers": 6045,
      "jo": 6046,
      "ked": 6047,
      "kins": 6048,
      "life": 6049,
      "lishing": 6050,
      "rr": 6051,
      "rison": 6052,
      "tail": 6053,
      "under": 6054,
      "▁iv": 6055,
      "▁wave": 6056,
      "▁sight": 6057,
      "▁sau": 6058,
      "iner": 6059,
      "▁fashion": 6060,
      "ndad": 6061,
      "▁dent": 6062,
      "▁phen": 6063,
      "▁hire": 6064,
      "▁nope": 6065,
      "▁thick": 6066,
      "orated": 6067,
      "▁lord": 6068,
      "▁ltte": 6069,
      "▁incomp": 6070,
      "▁gdp": 6071,
      "leep": 6072,
      "▁reject": 6073,
      "▁merely": 6074,
      "▁rh": 6075,
      "▁rid": 6076,
      "allow": 6077,
      "▁selection": 6078,
      "▁ky": 6079,
      "▁asleep": 6080,
      "▁nep": 6081,
      "▁noted": 6082,
      "▁trump": 6083,
      "▁traged": 6084,
      "▁conver": 6085,
      "▁alas": 6086,
      "▁examples": 6087,
      "▁lean": 6088,
      "apes": 6089,
      "ifies": 6090,
      "▁somewh": 6091,
      "▁tear": 6092,
      "▁gray": 6093,
      "▁whenever": 6094,
      "▁nail": 6095,
      "▁coinc": 6096,
      "▁queries": 6097,
      "▁pron": 6098,
      "▁rolling": 6099,
      "▁spac": 6100,
      "▁dism": 6101,
      "▁comprehens": 6102,
      "▁cara": 6103,
      "▁reserve": 6104,
      "▁listed": 6105,
      "▁spending": 6106,
      "▁crime": 6107,
      "▁joint": 6108,
      "▁300": 6109,
      "ordon": 6110,
      "▁transp": 6111,
      "▁regist": 6112,
      "▁regions": 6113,
      "▁500": 6114,
      "▁46": 6115,
      "▁glor": 6116,
      "▁addiction": 6117,
      "▁talks": 6118,
      "▁charles": 6119,
      "▁avo": 6120,
      "▁incorp": 6121,
      "▁images": 6122,
      "▁waited": 6123,
      "▁subsequ": 6124,
      "connect": 6125,
      "▁entered": 6126,
      "ounce": 6127,
      "▁hotels": 6128,
      "▁balls": 6129,
      "▁staying": 6130,
      "▁distin": 6131,
      "▁runs": 6132,
      "▁jews": 6133,
      "▁delivered": 6134,
      "▁approval": 6135,
      "▁businesses": 6136,
      "▁issued": 6137,
      "▁muscles": 6138,
      "▁advis": 6139,
      "cca": 6140,
      "▁cleaning": 6141,
      "hua": 6142,
      "▁prompt": 6143,
      "▁expectations": 6144,
      "▁johnson": 6145,
      "▁researc": 6146,
      "▁cooked": 6147,
      "▁succeed": 6148,
      "▁collective": 6149,
      "▁killing": 6150,
      "▁biological": 6151,
      "▁teams": 6152,
      "▁variety": 6153,
      "zai": 6154,
      "▁tourists": 6155,
      "▁authorities": 6156,
      "▁israeli": 6157,
      "▁climb": 6158,
      "▁ladder": 6159,
      "▁mid-": 6160,
      "▁massive": 6161,
      "▁necessarily": 6162,
      "▁critics": 6163,
      "▁baseball": 6164,
      "▁intellect": 6165,
      "▁interviews": 6166,
      "▁pakistani": 6167,
      "▁leadership": 6168,
      "▁craw": 6169,
      "▁crazy": 6170,
      "▁implementing": 6171,
      "!!!!!!!!": 6172,
      ".htm": 6173,
      "▁emerging": 6174,
      "▁norton": 6175,
      "▁immediate": 6176,
      "▁replaced": 6177,
      "▁liberty": 6178,
      "▁graduate": 6179,
      "▁closer": 6180,
      "▁library": 6181,
      "▁experiences": 6182,
      "▁occurred": 6183,
      "▁unemploy": 6184,
      "▁surrounded": 6185,
      "▁principle": 6186,
      "▁psychology": 6187,
      "▁accurate": 6188,
      "▁doughnut": 6189,
      "▁alex": 6190,
      "▁alleged": 6191,
      "▁supreme": 6192,
      "▁contemporary": 6193,
      "▁neighborhood": 6194,
      "▁municip": 6195,
      "▁magazine": 6196,
      "▁witness": 6197,
      "▁certific": 6198,
      "stein": 6199,
      "▁puzzle": 6200,
      "▁dursleys": 6201,
      "▁ingredients": 6202,
      "▁mohammed": 6203,
      "▁somewhat": 6204,
      "▁researchers": 6205,
      "-3": 6206,
      "12": 6207,
      "23": 6208,
      "75": 6209,
      "cot": 6210,
      "ded": 6211,
      "jah": 6212,
      "ni": 6213,
      "ran": 6214,
      "ram": 6215,
      "wide": 6216,
      "▁tong": 6217,
      "▁tenth": 6218,
      "▁saint": 6219,
      "▁ou": 6220,
      "▁oly": 6221,
      "▁fans": 6222,
      "▁bos": 6223,
      "▁cro": 6224,
      "▁mud": 6225,
      "▁ding": 6226,
      "▁dar": 6227,
      "▁dim": 6228,
      "▁diver": 6229,
      "▁nook": 6230,
      "▁andaman": 6231,
      "▁insect": 6232,
      "▁gather": 6233,
      "▁gordon": 6234,
      "lets": 6235,
      "▁hero": 6236,
      "▁reform": 6237,
      "▁iso": 6238,
      "▁bee": 6239,
      "▁belly": 6240,
      "▁frag": 6241,
      "▁frog": 6242,
      "▁fruit": 6243,
      "▁doors": 6244,
      "▁dolph": 6245,
      "road": 6246,
      "ira": 6247,
      "▁rank": 6248,
      "▁jos": 6249,
      "▁jord": 6250,
      "▁ash": 6251,
      "▁asian": 6252,
      "▁shake": 6253,
      "▁deals": 6254,
      "iere": 6255,
      "▁sue": 6256,
      "▁alive": 6257,
      "▁alto": 6258,
      "quar": 6259,
      "anda": 6260,
      "▁leon": 6261,
      "▁vs.": 6262,
      "uments": 6263,
      "▁plot": 6264,
      "▁worms": 6265,
      "▁worried": 6266,
      "unte": 6267,
      "▁shel": 6268,
      "cki": 6269,
      "▁unex": 6270,
      "▁enh": 6271,
      "▁grown": 6272,
      "▁adequ": 6273,
      "▁pricing": 6274,
      "▁ros": 6275,
      "▁brows": 6276,
      "well": 6277,
      "wered": 6278,
      "▁mayor": 6279,
      "▁lists": 6280,
      "▁listing": 6281,
      "▁players": 6282,
      "▁cruc": 6283,
      "▁wrap": 6284,
      "▁interact": 6285,
      "▁strain": 6286,
      "▁strike": 6287,
      "▁arrow": 6288,
      "▁tells": 6289,
      "▁presents": 6290,
      "▁awful": 6291,
      "▁readers": 6292,
      "▁reply": 6293,
      "▁positions": 6294,
      "▁consult": 6295,
      "grad": 6296,
      "▁supper": 6297,
      "▁realized": 6298,
      "▁decade": 6299,
      "▁invited": 6300,
      "▁classical": 6301,
      "▁salon": 6302,
      "▁legit": 6303,
      "▁metro": 6304,
      "▁grounds": 6305,
      "▁default": 6306,
      "alecki": 6307,
      "▁planet": 6308,
      "▁swing": 6309,
      "▁captain": 6310,
      "▁statements": 6311,
      "▁2017": 6312,
      "▁distort": 6313,
      "▁fallu": 6314,
      "▁tomato": 6315,
      "ternal": 6316,
      "▁valid": 6317,
      "▁inspect": 6318,
      "▁dollie": 6319,
      "bye": 6320,
      "▁stead": 6321,
      "▁receiving": 6322,
      "▁paine": 6323,
      "▁bench": 6324,
      "▁potato": 6325,
      "▁connected": 6326,
      "▁attended": 6327,
      "▁begun": 6328,
      "▁efficiency": 6329,
      "▁michell": 6330,
      "▁sweater": 6331,
      "▁tickle": 6332,
      "▁considerable": 6333,
      "▁suggests": 6334,
      "▁debra": 6335,
      "icycle": 6336,
      "▁silence": 6337,
      "▁successfully": 6338,
      "▁absor": 6339,
      "▁kitten": 6340,
      "▁affair": 6341,
      "▁senator": 6342,
      "▁laden": 6343,
      "▁taxi": 6344,
      "▁structures": 6345,
      "▁colleagues": 6346,
      "▁susan": 6347,
      "▁identified": 6348,
      "▁audit": 6349,
      "▁mountains": 6350,
      "▁beatles": 6351,
      "▁713-8": 6352,
      "▁weapon": 6353,
      "▁legislative": 6354,
      "▁concerning": 6355,
      "▁estimate": 6356,
      "▁route": 6357,
      "▁wolves": 6358,
      "uela": 6359,
      "▁wilson": 6360,
      "▁braz": 6361,
      "▁settled": 6362,
      "▁experiment": 6363,
      "▁experimental": 6364,
      "▁guarantee": 6365,
      "▁duty": 6366,
      "▁construction": 6367,
      "▁substantial": 6368,
      "▁chaos": 6369,
      "▁primary": 6370,
      "▁beliefs": 6371,
      "▁rapidly": 6372,
      "▁festival": 6373,
      "▁padalecki": 6374,
      "▁bulb": 6375,
      "▁consequences": 6376,
      "▁cocktail": 6377,
      "▁sustain": 6378,
      "▁renew": 6379,
      "▁rescue": 6380,
      "▁approximately": 6381,
      "▁disease": 6382,
      "▁mohamed": 6383,
      "▁assemb": 6384,
      "▁diversity": 6385,
      "▁cigarette": 6386,
      "▁stomach": 6387,
      "▁saudi": 6388,
      "▁mirror": 6389,
      "▁entitled": 6390,
      "▁olymp": 6391,
      "▁jordan": 6392,
      "▁michelle": 6393,
      "#69": 6394,
      "-7": 6395,
      "-#69": 6396,
      ".x": 6397,
      ".st": 6398,
      ".uk": 6399,
      "49": 6400,
      "a.": 6401,
      "ba": 6402,
      "bel": 6403,
      "ca": 6404,
      "corn": 6405,
      "d-#69": 6406,
      "greg": 6407,
      "jam": 6408,
      "ki": 6409,
      "lor": 6410,
      "mat": 6411,
      "uous": 6412,
      "▁tan": 6413,
      "▁tel": 6414,
      "▁tied": 6415,
      "▁ict": 6416,
      "▁w.": 6417,
      "▁od": 6418,
      "▁fy": 6419,
      "▁fool": 6420,
      "▁fiction": 6421,
      "▁fbi": 6422,
      "▁cens": 6423,
      "▁m.": 6424,
      "▁mile": 6425,
      "▁pac": 6426,
      "▁pach": 6427,
      "▁toes": 6428,
      "▁hog": 6429,
      "▁hub": 6430,
      "enf": 6431,
      "orters": 6432,
      "▁lol": 6433,
      "▁lun": 6434,
      "▁luc": 6435,
      "▁ld2": 6436,
      "▁andy": 6437,
      "isp": 6438,
      "lli": 6439,
      "▁gross": 6440,
      "▁ends": 6441,
      "etic": 6442,
      "▁hes": 6443,
      "▁height": 6444,
      "▁hamm": 6445,
      "▁fright": 6446,
      "sex": 6447,
      "▁stor": 6448,
      "lder": 6449,
      "▁race": 6450,
      "▁anton": 6451,
      "▁kat": 6452,
      "▁shin": 6453,
      "▁shit": 6454,
      "illing": 6455,
      "▁suck": 6456,
      "▁alliance": 6457,
      "▁alike": 6458,
      "▁aband": 6459,
      "oses": 6460,
      "▁upside": 6461,
      "ounded": 6462,
      "▁teen": 6463,
      "▁saving": 6464,
      "▁saved": 6465,
      "▁cla": 6466,
      "ibald": 6467,
      "▁phr": 6468,
      "▁brand": 6469,
      "▁brings": 6470,
      "▁scan": 6471,
      "▁sciss": 6472,
      "▁contents": 6473,
      "▁perman": 6474,
      "izz": 6475,
      "▁resident": 6476,
      "eping": 6477,
      "iana": 6478,
      "▁shoulder": 6479,
      "▁everyday": 6480,
      "▁sometime": 6481,
      "▁acts": 6482,
      "▁underst": 6483,
      "▁’d": 6484,
      "▁’ll": 6485,
      "▁36": 6486,
      "▁uma": 6487,
      "▁regime": 6488,
      "▁2007": 6489,
      "▁2008": 6490,
      "▁hiking": 6491,
      "▁reprod": 6492,
      "▁glove": 6493,
      "▁elimin": 6494,
      "erties": 6495,
      "pective": 6496,
      "▁starts": 6497,
      "▁wentz": 6498,
      "▁supplies": 6499,
      "▁colour": 6500,
      "cont": 6501,
      "▁sale": 6502,
      "▁satan": 6503,
      "▁parad": 6504,
      "▁revised": 6505,
      "▁revenue": 6506,
      "▁courses": 6507,
      "▁possess": 6508,
      "▁pointed": 6509,
      "▁refrig": 6510,
      "▁swit": 6511,
      "▁matters": 6512,
      "▁believes": 6513,
      "▁extract": 6514,
      "▁secure": 6515,
      "▁popcorn": 6516,
      "▁sunni": 6517,
      "▁lesson": 6518,
      "going": 6519,
      "▁properties": 6520,
      "▁11/2": 6521,
      "▁programs": 6522,
      "▁answered": 6523,
      "▁drinks": 6524,
      "▁hurts": 6525,
      "▁seats": 6526,
      "▁recording": 6527,
      "▁begins": 6528,
      "▁floating": 6529,
      "▁forest": 6530,
      "▁burst": 6531,
      "▁tennis": 6532,
      "▁amounts": 6533,
      "▁banks": 6534,
      "▁strongly": 6535,
      "▁solid": 6536,
      "▁iranian": 6537,
      "▁fairly": 6538,
      "▁objectives": 6539,
      "▁portion": 6540,
      "▁detailed": 6541,
      "▁subjects": 6542,
      "▁susp": 6543,
      "▁spray": 6544,
      "▁focused": 6545,
      "▁jumped": 6546,
      "▁mosque": 6547,
      "▁tower": 6548,
      "arrass": 6549,
      "▁literary": 6550,
      "▁discover": 6551,
      "▁contracts": 6552,
      "▁hyp": 6553,
      "▁challenge": 6554,
      "▁software": 6555,
      "▁materials": 6556,
      "▁purchased": 6557,
      "▁volunte": 6558,
      "▁historic": 6559,
      "▁violence": 6560,
      "▁ignor": 6561,
      "▁karzai": 6562,
      "▁degrees": 6563,
      "▁republican": 6564,
      "▁initiative": 6565,
      "▁extended": 6566,
      "▁nutrition": 6567,
      "▁split": 6568,
      "▁pollution": 6569,
      "▁injury": 6570,
      "▁wikihow": 6571,
      "▁category": 6572,
      "▁shadow": 6573,
      "▁yoga": 6574,
      "▁comparison": 6575,
      "▁conclusion": 6576,
      "▁candidate": 6577,
      "▁i.e.": 6578,
      "▁throat": 6579,
      "▁lanka": 6580,
      "▁symbol": 6581,
      "▁constituency": 6582,
      "▁refuge": 6583,
      "▁pachom": 6584,
      "▁ld2d-#69": 6585,
      ".co": 6586,
      "/01": 6587,
      "0s": 6588,
      "17": 6589,
      "42": 6590,
      "76": 6591,
      "aurs": 6592,
      "bc": 6593,
      "bar": 6594,
      "bits": 6595,
      "dra": 6596,
      "fo": 6597,
      "ghed": 6598,
      "iqu": 6599,
      "ker": 6600,
      "la": 6601,
      "mn": 6602,
      "vo": 6603,
      "▁ted": 6604,
      "▁tough": 6605,
      "▁aer": 6606,
      "▁a.m.": 6607,
      "heast": 6608,
      "rey": 6609,
      "▁bars": 6610,
      "▁cale": 6611,
      "▁corr": 6612,
      "▁mental": 6613,
      "▁dw": 6614,
      "▁dun": 6615,
      "any": 6616,
      "▁native": 6617,
      "orter": 6618,
      "esh": 6619,
      "▁lind": 6620,
      "▁lying": 6621,
      "isters": 6622,
      "▁gn": 6623,
      "▁gif": 6624,
      "▁gift": 6625,
      "ala": 6626,
      "alvo": 6627,
      "▁eco": 6628,
      "leans": 6629,
      "▁rein": 6630,
      "uting": 6631,
      "▁fru": 6632,
      "idays": 6633,
      "urally": 6634,
      "amar": 6635,
      "▁meow": 6636,
      "▁sections": 6637,
      "▁jones": 6638,
      "▁shout": 6639,
      "▁neu": 6640,
      "▁gosh": 6641,
      "▁myst": 6642,
      "▁sov": 6643,
      "▁orleans": 6644,
      "▁cho": 6645,
      "▁chal": 6646,
      "▁allows": 6647,
      "uls": 6648,
      "usted": 6649,
      "▁alco": 6650,
      "▁voted": 6651,
      "aka": 6652,
      "ackle": 6653,
      "▁units": 6654,
      "▁enorm": 6655,
      "ansion": 6656,
      "▁clar": 6657,
      "▁feature": 6658,
      "▁pride": 6659,
      "▁nowhere": 6660,
      "▁roof": 6661,
      "udes": 6662,
      "ahan": 6663,
      "▁afterwards": 6664,
      "▁contained": 6665,
      "▁gotten": 6666,
      "▁carbon": 6667,
      "▁cargill": 6668,
      "▁resol": 6669,
      "▁reserves": 6670,
      "▁okina": 6671,
      "▁chew": 6672,
      "▁chest": 6673,
      "▁guer": 6674,
      "▁guests": 6675,
      "▁drama": 6676,
      "▁strik": 6677,
      "▁transition": 6678,
      "▁biggest": 6679,
      "▁monsters": 6680,
      "▁195": 6681,
      "coming": 6682,
      "▁terry": 6683,
      "▁obst": 6684,
      "ups": 6685,
      "▁fung": 6686,
      "news": 6687,
      "▁personality": 6688,
      "▁assass": 6689,
      "▁veter": 6690,
      "▁02": 6691,
      "▁keeps": 6692,
      "▁visiting": 6693,
      "▁generations": 6694,
      "▁arts": 6695,
      "▁mrs.": 6696,
      "▁directions": 6697,
      "▁pets": 6698,
      "▁capable": 6699,
      "▁confidence": 6700,
      "▁balloons": 6701,
      "▁distract": 6702,
      "▁respo": 6703,
      "▁lessons": 6704,
      "▁slee": 6705,
      "▁communities": 6706,
      "▁counsel": 6707,
      "▁topic": 6708,
      "▁largely": 6709,
      "▁cleaned": 6710,
      "▁programmes": 6711,
      "▁checked": 6712,
      "▁supporting": 6713,
      "▁equally": 6714,
      "▁politics": 6715,
      "▁operating": 6716,
      "▁expecting": 6717,
      "▁treatments": 6718,
      "▁cupboard": 6719,
      "▁towns": 6720,
      "▁enjoying": 6721,
      "▁solutions": 6722,
      "▁officer": 6723,
      "▁authors": 6724,
      "▁suggestions": 6725,
      "▁darkness": 6726,
      "▁montalvo": 6727,
      "▁scientists": 6728,
      "▁difficulty": 6729,
      "▁annual": 6730,
      "▁performed": 6731,
      "▁photo": 6732,
      "▁photos": 6733,
      "▁improving": 6734,
      "▁declared": 6735,
      "▁practical": 6736,
      "▁taxes": 6737,
      "▁typical": 6738,
      "▁holes": 6739,
      "▁linked": 6740,
      "▁committed": 6741,
      "▁convinc": 6742,
      "▁towel": 6743,
      "▁epm": 6744,
      "▁attempts": 6745,
      "▁pupp": 6746,
      "▁assistant": 6747,
      "▁cruel": 6748,
      "▁introduction": 6749,
      "▁radio": 6750,
      "▁immigration": 6751,
      "▁jerusal": 6752,
      "▁713-6": 6753,
      "▁columbia": 6754,
      "▁owl": 6755,
      "▁appreciated": 6756,
      "▁journey": 6757,
      "▁paintings": 6758,
      "▁routine": 6759,
      "▁closing": 6760,
      "▁belongs": 6761,
      "▁ordinary": 6762,
      "▁repeat": 6763,
      "▁errors": 6764,
      "▁printed": 6765,
      "▁dreams": 6766,
      "▁accompl": 6767,
      "▁encourage": 6768,
      "▁revolutionary": 6769,
      "▁peanuts": 6770,
      "▁embarrass": 6771,
      "▁affordable": 6772,
      "▁uncertain": 6773,
      "▁sharon": 6774,
      "▁interpret": 6775,
      "chernobyl": 6776,
      "▁occupation": 6777,
      "▁fucking": 6778,
      "▁destroyed": 6779,
      "▁manufacture": 6780,
      "▁sacr": 6781,
      "▁techniques": 6782,
      "▁martin": 6783,
      "▁polaroid": 6784,
      "▁conventional": 6785,
      "▁reconcil": 6786,
      "▁disappointed": 6787,
      "▁false": 6788,
      "▁dynam": 6789,
      "▁derivative": 6790,
      "▁launched": 6791,
      "▁attorney": 6792,
      "▁sept.": 6793,
      "▁alaska": 6794,
      "▁comprehensive": 6795,
      "▁crucial": 6796,
      "▁legitim": 6797,
      "▁scissors": 6798,
      "▁refriger": 6799,
      "▁okinawa": 6800,
      "▁jerusalem": 6801,
      ".5": 6802,
      "33": 6803,
      "aq": 6804,
      "aid": 6805,
      "don": 6806,
      "hus": 6807,
      "oe": 6808,
      "py": 6809,
      "rd": 6810,
      "rim": 6811,
      "v.": 6812,
      "wr": 6813,
      "zo": 6814,
      "▁ts": 6815,
      "▁www": 6816,
      "▁sher": 6817,
      "rete": 6818,
      "rels": 6819,
      "▁ox": 6820,
      "inent": 6821,
      "inity": 6822,
      "▁moo": 6823,
      "▁malf": 6824,
      "▁dur": 6825,
      "▁dia": 6826,
      "▁dub": 6827,
      "▁panc": 6828,
      "▁toll": 6829,
      "▁toler": 6830,
      "anas": 6831,
      "ania": 6832,
      "▁hut": 6833,
      "▁hint": 6834,
      "▁homes": 6835,
      "▁th-": 6836,
      "▁inner": 6837,
      "▁gap": 6838,
      "asse": 6839,
      "▁youth": 6840,
      "▁''": 6841,
      "▁eol": 6842,
      "▁forty": 6843,
      "▁stem": 6844,
      "▁rum": 6845,
      "▁rays": 6846,
      "▁rising": 6847,
      "ctic": 6848,
      "▁flash": 6849,
      "▁sha": 6850,
      "▁neil": 6851,
      "▁---": 6852,
      "▁chart": 6853,
      "▁chances": 6854,
      "▁conqu": 6855,
      "▁alban": 6856,
      "▁external": 6857,
      "ola": 6858,
      "▁noble": 6859,
      "igan": 6860,
      "▁teach": 6861,
      "ferences": 6862,
      "▁unha": 6863,
      "▁enable": 6864,
      "▁clair": 6865,
      "▁nails": 6866,
      "berg": 6867,
      "▁quoted": 6868,
      "▁rod": 6869,
      "▁evac": 6870,
      "aves": 6871,
      "▁brush": 6872,
      "▁expired": 6873,
      "▁scream": 6874,
      "▁bobo": 6875,
      "▁boats": 6876,
      "▁perling": 6877,
      "▁resist": 6878,
      "▁indones": 6879,
      "▁guest": 6880,
      "▁drank": 6881,
      "▁poem": 6882,
      "▁mugg": 6883,
      "▁cried": 6884,
      "▁imper": 6885,
      "▁implic": 6886,
      "▁undert": 6887,
      "▁35": 6888,
      "▁findings": 6889,
      "▁monit": 6890,
      "gging": 6891,
      "issions": 6892,
      "▁.....": 6893,
      "▁polish": 6894,
      "▁42": 6895,
      "▁reput": 6896,
      "▁belt": 6897,
      "bell": 6898,
      "cience": 6899,
      "▁fox": 6900,
      "▁persist": 6901,
      "▁wondered": 6902,
      "▁instant": 6903,
      "▁warning": 6904,
      "▁obt": 6905,
      "▁surge": 6906,
      "▁inc.": 6907,
      "▁handed": 6908,
      "▁heading": 6909,
      "▁situ": 6910,
      "▁07": 6911,
      "▁restr": 6912,
      "▁smallest": 6913,
      "▁paraly": 6914,
      "▁artist": 6915,
      "▁articles": 6916,
      "▁deploy": 6917,
      "▁centuries": 6918,
      "▁engage": 6919,
      "▁monthly": 6920,
      "▁requires": 6921,
      "▁factors": 6922,
      "▁girlfriend": 6923,
      "▁badly": 6924,
      "▁meetings": 6925,
      "▁delight": 6926,
      "▁emper": 6927,
      "▁productivity": 6928,
      "▁sque": 6929,
      "▁concrete": 6930,
      "▁steam": 6931,
      "▁irr": 6932,
      "▁resulted": 6933,
      "▁picking": 6934,
      "▁checking": 6935,
      "▁supported": 6936,
      "▁dealing": 6937,
      "▁promote": 6938,
      "ruction": 6939,
      "▁sentence": 6940,
      "▁chairman": 6941,
      "▁motiv": 6942,
      "▁bags": 6943,
      "▁exception": 6944,
      "▁previously": 6945,
      "▁argue": 6946,
      "▁initially": 6947,
      "▁educational": 6948,
      "▁silent": 6949,
      "▁facil": 6950,
      "▁faculty": 6951,
      "▁responsibilities": 6952,
      "▁annoy": 6953,
      "▁laughed": 6954,
      "▁preparing": 6955,
      "▁privile": 6956,
      "▁typically": 6957,
      "▁networks": 6958,
      "▁difficulties": 6959,
      "/11": 6960,
      "▁ensuring": 6961,
      "▁destination": 6962,
      "▁division": 6963,
      "▁crossing": 6964,
      "▁illust": 6965,
      "▁correctly": 6966,
      "▁literally": 6967,
      "▁dinosaurs": 6968,
      "▁archibald": 6969,
      "▁jersey": 6970,
      "▁recognition": 6971,
      "▁recognized": 6972,
      "▁displayed": 6973,
      "▁bagh": 6974,
      "▁liberal": 6975,
      "▁behavi": 6976,
      "▁laughing": 6977,
      "▁wilbur": 6978,
      "▁defend": 6979,
      "▁impressed": 6980,
      "▁besides": 6981,
      "▁licensed": 6982,
      "================================": 6983,
      "▁agricultural": 6984,
      "▁increasingly": 6985,
      "▁samuel": 6986,
      "▁comedy": 6987,
      "▁vegetables": 6988,
      "▁04:": 6989,
      "▁slipped": 6990,
      "claimed": 6991,
      "▁giant": 6992,
      "▁framework": 6993,
      "▁strawberry": 6994,
      "▁recipient": 6995,
      "▁ultimately": 6996,
      "▁lipstick": 6997,
      "▁convenient": 6998,
      "▁dedic": 6999,
      "▁complicated": 7000,
      "▁sweden": 7001,
      ".org/": 7002,
      "▁criminal": 7003,
      "▁arrogant": 7004,
      "▁squeeze": 7005,
      "▁wizard": 7006,
      "▁entertainment": 7007,
      "▁counterfeiting": 7008,
      "▁episode": 7009,
      "▁belgium": 7010,
      "▁tongue": 7011,
      "▁fallujah": 7012,
      "▁713-853-": 7013,
      "▁brazil": 7014,
      ".xls": 7015,
      "jamas": 7016,
      "▁pachomius": 7017,
      "▁enormous": 7018,
      "▁perlingiere": 7019,
      ",500": 7020,
      "-5": 7021,
      "8/2000": 7022,
      "bal": 7023,
      "cp": 7024,
      "cer": 7025,
      "dr": 7026,
      "fish": 7027,
      "lined": 7028,
      "lades": 7029,
      "ns": 7030,
      "not": 7031,
      "par": 7032,
      "tw": 7033,
      "warts": 7034,
      "▁tire": 7035,
      "▁tens": 7036,
      "▁trop": 7037,
      "▁som": 7038,
      "▁sore": 7039,
      "▁bart": 7040,
      "▁cind": 7041,
      "▁cree": 7042,
      "▁cows": 7043,
      "▁mou": 7044,
      "▁mant": 7045,
      "ndry": 7046,
      "▁dl": 7047,
      "▁dign": 7048,
      "▁dump": 7049,
      "▁p.": 7050,
      "▁pile": 7051,
      "▁pix": 7052,
      "ener": 7053,
      "orough": 7054,
      "▁lap": 7055,
      "▁andrew": 7056,
      "▁yield": 7057,
      "▁inch": 7058,
      "arge": 7059,
      "aroni": 7060,
      "▁gis": 7061,
      "▁gain": 7062,
      "▁eve": 7063,
      "store": 7064,
      "eter": 7065,
      "▁??": 7066,
      "▁whoo": 7067,
      "▁helic": 7068,
      "otional": 7069,
      "▁fran": 7070,
      "▁frust": 7071,
      "▁doo": 7072,
      "▁forg": 7073,
      "image": 7074,
      "▁rig": 7075,
      "allel": 7076,
      "▁aside": 7077,
      "▁shame": 7078,
      "▁shift": 7079,
      "▁neare": 7080,
      "chant": 7081,
      "illas": 7082,
      "▁---------------------------------": 7083,
      "▁troub": 7084,
      "esty": 7085,
      "▁sum": 7086,
      "▁suitc": 7087,
      "abilities": 7088,
      "▁prosec": 7089,
      "▁lemon": 7090,
      "▁league": 7091,
      "pport": 7092,
      "▁vul": 7093,
      "▁plain": 7094,
      "▁knee": 7095,
      "outs": 7096,
      "▁outstanding": 7097,
      "▁usi": 7098,
      "▁unus": 7099,
      "▁graph": 7100,
      "▁anyways": 7101,
      "▁clown": 7102,
      "▁co-": 7103,
      "▁quidd": 7104,
      "▁manip": 7105,
      "▁aggress": 7106,
      "▁rode": 7107,
      "itement": 7108,
      "ahar": 7109,
      "ousine": 7110,
      "▁airb": 7111,
      "▁locom": 7112,
      "▁disrupt": 7113,
      "▁firms": 7114,
      "▁betty": 7115,
      "▁compens": 7116,
      "▁denied": 7117,
      "▁contest": 7118,
      "▁contains": 7119,
      "▁lets": 7120,
      "▁backed": 7121,
      "▁download": 7122,
      "▁chess": 7123,
      "▁pre-": 7124,
      "▁guide": 7125,
      "▁writes": 7126,
      "▁finds": 7127,
      "▁dating": 7128,
      "▁greatly": 7129,
      "▁55": 7130,
      "▁1960": 7131,
      "▁48": 7132,
      "bean": 7133,
      "▁conserv": 7134,
      "▁terre": 7135,
      "▁supply": 7136,
      "▁accum": 7137,
      "▁provision": 7138,
      "▁neverthe": 7139,
      "▁slice": 7140,
      "▁vegan": 7141,
      "▁06": 7142,
      "▁entity": 7143,
      "▁entering": 7144,
      "▁enthus": 7145,
      "▁retired": 7146,
      "▁reduce": 7147,
      "▁reduced": 7148,
      "▁possibility": 7149,
      "▁confusion": 7150,
      "▁sixteen": 7151,
      "▁holds": 7152,
      "▁median": 7153,
      "▁dolly": 7154,
      "▁funding": 7155,
      "▁crew": 7156,
      "▁advise": 7157,
      "▁slept": 7158,
      "▁processing": 7159,
      "▁friendship": 7160,
      "▁appeal": 7161,
      "▁stepped": 7162,
      "▁ansi": 7163,
      "▁constant": 7164,
      "▁checks": 7165,
      "▁connections": 7166,
      "▁losing": 7167,
      "▁discussing": 7168,
      "▁officers": 7169,
      "▁militant": 7170,
      "▁era": 7171,
      "▁rapport": 7172,
      "▁winning": 7173,
      "▁ahmed": 7174,
      "▁tourism": 7175,
      "/2005": 7176,
      "▁responses": 7177,
      "▁representatives": 7178,
      "▁objective": 7179,
      "onym": 7180,
      "▁palace": 7181,
      "▁diaper": 7182,
      "▁fillmore": 7183,
      "▁purposes": 7184,
      "▁higuch": 7185,
      "▁exciting": 7186,
      "▁participate": 7187,
      "▁execute": 7188,
      "▁budd": 7189,
      "▁terrorism": 7190,
      "▁sticks": 7191,
      "▁kingdom": 7192,
      "▁brothers": 7193,
      "▁jerome": 7194,
      "▁recognize": 7195,
      "▁influenced": 7196,
      "▁combination": 7197,
      "engers": 7198,
      "▁blocks": 7199,
      "▁admitted": 7200,
      "▁violent": 7201,
      "▁consumer": 7202,
      "▁confirmed": 7203,
      "▁survive": 7204,
      "▁guns": 7205,
      "▁surrounding": 7206,
      "▁licensor": 7207,
      "▁poop": 7208,
      "▁borders": 7209,
      "▁banglades": 7210,
      "▁bucket": 7211,
      "▁spiritual": 7212,
      "▁procedures": 7213,
      "▁macaroni": 7214,
      "▁traditional": 7215,
      "▁evalu": 7216,
      "▁arrangements": 7217,
      "▁explorer": 7218,
      "▁coordin": 7219,
      "▁globe": 7220,
      "▁partnership": 7221,
      "▁description": 7222,
      "▁vehicle": 7223,
      "▁barely": 7224,
      "▁cupcakes": 7225,
      "▁smoking": 7226,
      "▁skiing": 7227,
      "▁dividends": 7228,
      "▁pirates": 7229,
      "▁feathers": 7230,
      "▁coalition": 7231,
      "▁phenomen": 7232,
      "▁spacetime": 7233,
      "▁insects": 7234,
      "▁joshua": 7235,
      "▁hogwarts": 7236,
      "▁understood": 7237,
      "▁alcohol": 7238,
      "▁emperor": 7239,
      "▁helicop": 7240,
      "▁quidditch": 7241,
      "▁nevertheless": 7242,
      "▁higuchi": 7243,
      "-be": 7244,
      ".j": 7245,
      "27": 7246,
      "ds": 7247,
      "dad": 7248,
      "ders": 7249,
      "down": 7250,
      "doc": 7251,
      "fin": 7252,
      "fit": 7253,
      "kka": 7254,
      "lines": 7255,
      "met": 7256,
      "nes": 7257,
      "nets": 7258,
      "pet": 7259,
      "rist": 7260,
      "rate": 7261,
      "uh": 7262,
      "uine": 7263,
      "whel": 7264,
      "wiki": 7265,
      "▁tons": 7266,
      "▁wise": 7267,
      "▁wipe": 7268,
      "▁theater": 7269,
      "▁sate": 7270,
      "▁sake": 7271,
      "ini": 7272,
      "inter": 7273,
      "inte": 7274,
      "▁fame": 7275,
      "▁fulf": 7276,
      "atures": 7277,
      "▁bands": 7278,
      "▁c.": 7279,
      "▁cu": 7280,
      "▁cord": 7281,
      "▁dies": 7282,
      "▁ps": 7283,
      "▁pant": 7284,
      "▁pag": 7285,
      "▁pian": 7286,
      "▁pier": 7287,
      "▁hiding": 7288,
      "oral": 7289,
      "▁lor": 7290,
      "▁les": 7291,
      "▁lit": 7292,
      "▁lil": 7293,
      "omy": 7294,
      "itated": 7295,
      "arians": 7296,
      "▁gel": 7297,
      "iches": 7298,
      "iculous": 7299,
      "▁eh": 7300,
      "▁elder": 7301,
      "leen": 7302,
      "▁ongoing": 7303,
      "otic": 7304,
      "▁reaction": 7305,
      "▁isda": 7306,
      "▁ua": 7307,
      "entive": 7308,
      "▁habit": 7309,
      "▁doctors": 7310,
      "▁weird": 7311,
      "ido": 7312,
      "aco": 7313,
      "acing": 7314,
      "aching": 7315,
      "▁stard": 7316,
      "▁stones": 7317,
      "aded": 7318,
      "iment": 7319,
      "▁rus": 7320,
      "▁rag": 7321,
      "▁rip": 7322,
      "▁rick": 7323,
      "▁ripe": 7324,
      "alled": 7325,
      "▁withdra": 7326,
      "▁sequ": 7327,
      "▁selling": 7328,
      "▁flour": 7329,
      "▁jes": 7330,
      "▁jill": 7331,
      "▁shade": 7332,
      "▁notion": 7333,
      "▁myster": 7334,
      "▁soda": 7335,
      "▁chalk": 7336,
      "▁chath": 7337,
      "▁wheels": 7338,
      "▁butt": 7339,
      "istry": 7340,
      "pel": 7341,
      "▁proof": 7342,
      "▁1,": 7343,
      "▁vital": 7344,
      "▁votes": 7345,
      "▁abroad": 7346,
      "acks": 7347,
      "▁unity": 7348,
      "▁whoa": 7349,
      "▁grill": 7350,
      "▁manual": 7351,
      "▁prison": 7352,
      "▁theme": 7353,
      "▁pere": 7354,
      "▁agencies": 7355,
      "▁moves": 7356,
      "ahoo": 7357,
      "▁becoming": 7358,
      "▁evil": 7359,
      "▁loans": 7360,
      "▁overwhel": 7361,
      "▁moments": 7362,
      "▁brian": 7363,
      "▁expansion": 7364,
      "▁resort": 7365,
      "lands": 7366,
      "▁chee": 7367,
      "▁cheaper": 7368,
      "▁cheney": 7369,
      "▁pregn": 7370,
      "▁shoulders": 7371,
      "▁driven": 7372,
      "▁acting": 7373,
      "▁crash": 7374,
      "▁interconnect": 7375,
      "▁longest": 7376,
      "▁32": 7377,
      "▁33": 7378,
      "▁dates": 7379,
      "▁philipp": 7380,
      "▁regret": 7381,
      "▁register": 7382,
      "▁uhoh": 7383,
      "▁1980": 7384,
      "▁45": 7385,
      "▁marx": 7386,
      "pected": 7387,
      "▁studio": 7388,
      "▁woke": 7389,
      "▁genuine": 7390,
      "▁invent": 7391,
      "▁invitation": 7392,
      "box": 7393,
      "▁drag": 7394,
      "▁harb": 7395,
      "▁assert": 7396,
      "▁assault": 7397,
      "▁edwards": 7398,
      "▁parallel": 7399,
      "▁10:": 7400,
      "▁generators": 7401,
      "▁wednesdays": 7402,
      "▁grey": 7403,
      "▁800": 7404,
      "▁walks": 7405,
      "▁capt": 7406,
      "▁matthe": 7407,
      "▁extensive": 7408,
      "▁passengers": 7409,
      "▁developments": 7410,
      "▁filed": 7411,
      "▁films": 7412,
      "▁memo": 7413,
      "▁steak": 7414,
      "▁resulting": 7415,
      "▁supports": 7416,
      "raph": 7417,
      "▁dealer": 7418,
      "▁opposed": 7419,
      "▁limousine": 7420,
      "▁stronger": 7421,
      "▁circles": 7422,
      "▁societ": 7423,
      "▁optim": 7424,
      "▁marketing": 7425,
      "▁debt": 7426,
      "▁tours": 7427,
      "▁latin": 7428,
      "▁donna": 7429,
      "▁facing": 7430,
      "▁observ": 7431,
      "▁supermark": 7432,
      "▁figures": 7433,
      "▁laundry": 7434,
      "▁senators": 7435,
      "▁photograp": 7436,
      "▁improved": 7437,
      "▁requests": 7438,
      "▁panel": 7439,
      "▁package": 7440,
      "▁establishing": 7441,
      "▁holiday": 7442,
      "▁links": 7443,
      "▁identify": 7444,
      "▁hoping": 7445,
      "▁self-": 7446,
      "▁execution": 7447,
      "▁achieving": 7448,
      "▁achieved": 7449,
      "▁managed": 7450,
      "▁crossed": 7451,
      "▁honor": 7452,
      "▁deliber": 7453,
      "▁terrorists": 7454,
      "▁sticker": 7455,
      "▁deeply": 7456,
      "▁vacc": 7457,
      "▁institution": 7458,
      "▁introduce": 7459,
      "▁michigan": 7460,
      "▁broadcast": 7461,
      "▁association": 7462,
      "▁songs": 7463,
      "▁radiation": 7464,
      "▁novels": 7465,
      "▁miramar": 7466,
      "▁applying": 7467,
      "▁communications": 7468,
      "▁farmer": 7469,
      "clusive": 7470,
      "▁pilgr": 7471,
      "▁complaint": 7472,
      "▁bombs": 7473,
      "▁selected": 7474,
      "▁instructor": 7475,
      "-1.doc": 7476,
      "▁referred": 7477,
      "▁photography": 7478,
      "▁ignore": 7479,
      "▁functional": 7480,
      "▁obvious": 7481,
      "▁targets": 7482,
      "▁mutation": 7483,
      "▁editor": 7484,
      "▁encouraged": 7485,
      "▁narrative": 7486,
      "▁malays": 7487,
      "▁producers": 7488,
      "▁extraord": 7489,
      "________________________________": 7490,
      "▁cartoon": 7491,
      "▁crowded": 7492,
      "▁evaluation": 7493,
      "▁roughly": 7494,
      "▁interpre": 7495,
      "▁palestinians": 7496,
      "▁coordination": 7497,
      "▁powder": 7498,
      "▁maintaining": 7499,
      "▁bubbles": 7500,
      "▁unlikely": 7501,
      "▁chernobyl": 7502,
      "▁advertising": 7503,
      "▁groc": 7504,
      "▁quartile": 7505,
      "▁navy": 7506,
      "▁bernou": 7507,
      "▁schema": 7508,
      "▁harvest": 7509,
      "▁ozone": 7510,
      "▁bacon": 7511,
      "▁spectac": 7512,
      "▁kerry": 7513,
      "▁strategies": 7514,
      "▁correspond": 7515,
      "▁l'enf": 7516,
      "▁platform": 7517,
      "▁argentina": 7518,
      "▁judgments": 7519,
      "▁intellectual": 7520,
      "▁certificate": 7521,
      "▁unexpected": 7522,
      "▁assembly": 7523,
      "▁storage": 7524,
      "▁antonio": 7525,
      "▁phrase": 7526,
      "▁permanent": 7527,
      "▁refrigerator": 7528,
      "▁restriction": 7529,
      "▁paralymp": 7530,
      "▁baghdad": 7531,
      "▁l'enfant": 7532,
      ".00": 7533,
      "/99": 7534,
      "/chernobyl": 7535,
      "03": 7536,
      "08": 7537,
      "65": 7538,
      "87": 7539,
      "ae": 7540,
      "fth": 7541,
      "gie": 7542,
      "gia": 7543,
      "hist": 7544,
      "ii": 7545,
      "iro": 7546,
      "lan": 7547,
      "mir": 7548,
      "mers": 7549,
      "rary": 7550,
      "rance": 7551,
      "uable": 7552,
      "wick": 7553,
      "worm": 7554,
      "zing": 7555,
      "▁tou": 7556,
      "▁tips": 7557,
      "▁awww": 7558,
      "▁wire": 7559,
      "▁wrest": 7560,
      "▁samples": 7561,
      "▁oath": 7562,
      "▁faster": 7563,
      "▁fishing": 7564,
      "▁fasc": 7565,
      "atra": 7566,
      "attered": 7567,
      "▁bw": 7568,
      "▁bicycle": 7569,
      "▁cp": 7570,
      "▁cous": 7571,
      "▁craft": 7572,
      "oupe": 7573,
      "▁ml": 7574,
      "▁mall": 7575,
      "▁mild": 7576,
      "▁df": 7577,
      "▁dave": 7578,
      "▁diet": 7579,
      "▁toile": 7580,
      "▁tooth": 7581,
      "▁hom": 7582,
      "▁nom": 7583,
      "▁nur": 7584,
      "▁thread": 7585,
      "▁thorough": 7586,
      "▁lone": 7587,
      "▁yo": 7588,
      "▁yay": 7589,
      "▁yummy": 7590,
      "▁inex": 7591,
      "▁inev": 7592,
      "llo": 7593,
      "lley": 7594,
      "itals": 7595,
      "ari": 7596,
      "▁gor": 7597,
      "▁gate": 7598,
      "▁gained": 7599,
      "▁whis": 7600,
      "▁whist": 7601,
      "▁frost": 7602,
      "▁doz": 7603,
      "rosh": 7604,
      "▁forb": 7605,
      "▁stability": 7606,
      "ading": 7607,
      "▁rush": 7608,
      "▁ruth": 7609,
      "▁ripped": 7610,
      "▁anx": 7611,
      "▁seas": 7612,
      "▁kos": 7613,
      "▁kash": 7614,
      "▁asyl": 7615,
      "▁shares": 7616,
      "cend": 7617,
      "▁soap": 7618,
      "▁sovere": 7619,
      "▁sush": 7620,
      "▁chain": 7621,
      "▁champ": 7622,
      "aine": 7623,
      "▁al.": 7624,
      "▁prol": 7625,
      "▁excess": 7626,
      "▁exists": 7627,
      "olit": 7628,
      "andra": 7629,
      "▁leash": 7630,
      "umes": 7631,
      "▁abc": 7632,
      "▁abd": 7633,
      "▁abst": 7634,
      "eless": 7635,
      "unia": 7636,
      "osen": 7637,
      "▁sheep": 7638,
      "▁sheikh": 7639,
      "▁wanting": 7640,
      "▁usa": 7641,
      "▁uncom": 7642,
      "▁sail": 7643,
      "▁enl": 7644,
      "▁adapt": 7645,
      "▁manuela": 7646,
      "▁feb": 7647,
      "▁fever": 7648,
      "▁prince": 7649,
      "▁prize": 7650,
      "▁aged": 7651,
      "▁roar": 7652,
      "▁roles": 7653,
      "▁moist": 7654,
      "ailand": 7655,
      "▁scoo": 7656,
      "▁bozo": 7657,
      "▁partner": 7658,
      "▁carn": 7659,
      "▁bless": 7660,
      "▁resolution": 7661,
      "▁residents": 7662,
      "▁indo": 7663,
      "ression": 7664,
      "▁crus": 7665,
      "▁criter": 7666,
      "▁impart": 7667,
      "▁interior": 7668,
      "▁cafe": 7669,
      "▁buses": 7670,
      "▁strat": 7671,
      "▁transit": 7672,
      "▁transactions": 7673,
      "▁eaten": 7674,
      "issance": 7675,
      "issipp": 7676,
      "ocado": 7677,
      "▁.......": 7678,
      "▁awake": 7679,
      "athan": 7680,
      "▁lasted": 7681,
      "▁posada": 7682,
      "▁worldwide": 7683,
      "▁charges": 7684,
      "▁persu": 7685,
      "▁avocado": 7686,
      "▁obtain": 7687,
      "ificent": 7688,
      "▁province": 7689,
      "▁nights": 7690,
      "!!!": 7691,
      "▁handling": 7692,
      "▁funeral": 7693,
      "▁functions": 7694,
      "▁drawn": 7695,
      "▁assets": 7696,
      "▁assigned": 7697,
      "▁lego": 7698,
      "▁legacy": 7699,
      "▁parake": 7700,
      "▁visible": 7701,
      "▁artists": 7702,
      "▁artistic": 7703,
      "▁broom": 7704,
      "▁define": 7705,
      "▁locations": 7706,
      "▁factory": 7707,
      "▁swinging": 7708,
      "▁weekday": 7709,
      "▁confused": 7710,
      "▁passport": 7711,
      "▁fallen": 7712,
      "▁valuable": 7713,
      "idding": 7714,
      "▁muscle": 7715,
      "▁sunny": 7716,
      "▁landed": 7717,
      "▁departure": 7718,
      "▁cerem": 7719,
      "▁ceiling": 7720,
      "▁horiz": 7721,
      "▁receipt": 7722,
      "▁technological": 7723,
      "▁shortly": 7724,
      "▁southwest": 7725,
      "▁universities": 7726,
      "▁mississipp": 7727,
      "▁electrical": 7728,
      "▁urg": 7729,
      "▁increases": 7730,
      "▁patience": 7731,
      "▁modify": 7732,
      "▁sooner": 7733,
      "▁cups": 7734,
      "▁grandma": 7735,
      "▁sounded": 7736,
      "▁bananas": 7737,
      "▁1998": 7738,
      "▁firef": 7739,
      "▁consideration": 7740,
      "▁deaths": 7741,
      "▁suggestion": 7742,
      "▁organized": 7743,
      "▁periods": 7744,
      "▁collecting": 7745,
      "▁defining": 7746,
      "▁educated": 7747,
      "▁anticip": 7748,
      "▁accounts": 7749,
      "▁addressed": 7750,
      "▁involving": 7751,
      "▁climbing": 7752,
      "▁attacked": 7753,
      "▁turtle": 7754,
      "▁paniot": 7755,
      "▁measured": 7756,
      "▁layout": 7757,
      "▁ladies": 7758,
      "▁civic": 7759,
      "/16": 7760,
      "509": 7761,
      "▁sonnets": 7762,
      "▁hopes": 7763,
      "▁risks": 7764,
      "▁attempted": 7765,
      "▁cross-": 7766,
      "▁coverage": 7767,
      "▁audio": 7768,
      "▁ille": 7769,
      "▁civilized": 7770,
      "▁statue": 7771,
      "▁proposals": 7772,
      "▁implemented": 7773,
      "▁islamists": 7774,
      "▁essentially": 7775,
      "▁hyd": 7776,
      "▁conversations": 7777,
      "▁scenes": 7778,
      "▁scenario": 7779,
      "▁regularly": 7780,
      "▁jacket": 7781,
      "▁appropri": 7782,
      "▁hence": 7783,
      "▁horror": 7784,
      "▁1.5": 7785,
      "▁strengt": 7786,
      "▁ruin": 7787,
      "▁gallery": 7788,
      "▁distribute": 7789,
      "▁distributed": 7790,
      "▁relationships": 7791,
      "▁mcdon": 7792,
      "▁impression": 7793,
      "▁hunting": 7794,
      "▁insurg": 7795,
      "▁occasionally": 7796,
      "while": 7797,
      "▁cartoons": 7798,
      "▁extend": 7799,
      "▁twelfth": 7800,
      "▁mushroom": 7801,
      "▁ethnic": 7802,
      "▁satisfied": 7803,
      "▁newspapers": 7804,
      "▁sharp": 7805,
      "▁virgin": 7806,
      "▁integrated": 7807,
      "ijing": 7808,
      "????????": 7809,
      "▁journals": 7810,
      "▁installed": 7811,
      "▁fisher": 7812,
      "▁expanding": 7813,
      "▁transmission": 7814,
      "▁awarded": 7815,
      "▁lux": 7816,
      "▁conducted": 7817,
      "▁rebu": 7818,
      "▁jenna": 7819,
      "▁struggle": 7820,
      "▁09:": 7821,
      "▁concluded": 7822,
      "▁syrian": 7823,
      "▁inhab": 7824,
      "▁quantity": 7825,
      "▁magnificent": 7826,
      "▁casual": 7827,
      "▁restrictions": 7828,
      "▁involvement": 7829,
      "▁mobile": 7830,
      "▁surprisingly": 7831,
      "▁biden": 7832,
      "▁victim": 7833,
      "▁gloria": 7834,
      "▁unemployment": 7835,
      "▁adequate": 7836,
      "▁fyi": 7837,
      "▁pacific": 7838,
      "▁suspic": 7839,
      ".co.uk": 7840,
      "▁calend": 7841,
      "▁mystery": 7842,
      "▁soviet": 7843,
      "▁malfoy": 7844,
      "▁unhappy": 7845,
      "▁suitcase": 7846,
      "▁vulner": 7847,
      "▁unusual": 7848,
      "▁graphic": 7849,
      "▁satell": 7850,
      "▁piano": 7851,
      "▁stardust": 7852,
      "▁matthew": 7853,
      "▁bernoulli": 7854,
      "▁kashmir": 7855,
      "▁asylum": 7856,
      "▁sushi": 7857,
      "▁ceremony": 7858,
      "▁mississippi": 7859,
      "▁paniotis": 7860,
      "▁virginia": 7861,
      ".3": 7862,
      ".b": 7863,
      ".cl": 7864,
      "04": 7865,
      "72": 7866,
      "ais": 7867,
      "cut": 7868,
      "case": 7869,
      "fall": 7870,
      "ique": 7871,
      "lv": 7872,
      "nal": 7873,
      "rin": 7874,
      "rons": 7875,
      "rier": 7876,
      "sing": 7877,
      "tc": 7878,
      "tical": 7879,
      "upt": 7880,
      "▁`": 7881,
      "▁**": 7882,
      "▁tid": 7883,
      "▁tap": 7884,
      "▁iq": 7885,
      "▁.doc": 7886,
      "▁wid": 7887,
      "▁wore": 7888,
      "▁wra": 7889,
      "▁therap": 7890,
      "▁theories": 7891,
      "▁s.": 7892,
      "▁sisters": 7893,
      "rer": 7894,
      "▁oven": 7895,
      "▁bent": 7896,
      "▁mort": 7897,
      "▁d'": 7898,
      "▁dor": 7899,
      "▁dick": 7900,
      "▁dated": 7901,
      "▁dumb": 7902,
      "▁dying": 7903,
      "▁pace": 7904,
      "▁pale": 7905,
      "▁toxic": 7906,
      "▁hook": 7907,
      "▁nida": 7908,
      "ena": 7909,
      "▁thailand": 7910,
      "▁l.": 7911,
      "▁lamb": 7912,
      "▁lenn": 7913,
      "eds": 7914,
      "eded": 7915,
      "ishes": 7916,
      "llah": 7917,
      "▁gently": 7918,
      "▁ginger": 7919,
      "▁gira": 7920,
      "▁ell": 7921,
      "▁eager": 7922,
      "sty": 7923,
      "stone": 7924,
      "▁hee": 7925,
      "▁revers": 7926,
      "▁renat": 7927,
      "▁beet": 7928,
      "▁beep": 7929,
      "▁beaches": 7930,
      "▁hack": 7931,
      "▁fries": 7932,
      "▁fried": 7933,
      "▁stamp": 7934,
      "▁staring": 7935,
      "▁stroll": 7936,
      "irs": 7937,
      "▁rwww": 7938,
      "▁rhy": 7939,
      "ilst": 7940,
      "ilty": 7941,
      "▁lips": 7942,
      "▁jur": 7943,
      "▁shore": 7944,
      "chi": 7945,
      "illion": 7946,
      "▁myce": 7947,
      "▁socot": 7948,
      "oph": 7949,
      "▁sufa": 7950,
      "▁chasing": 7951,
      "▁chips": 7952,
      "▁chosen": 7953,
      "gel": 7954,
      "▁conform": 7955,
      "abled": 7956,
      "▁alph": 7957,
      "▁alert": 7958,
      "▁lege": 7959,
      "▁leaf": 7960,
      "▁ves": 7961,
      "▁vent": 7962,
      "▁vig": 7963,
      "ateful": 7964,
      "▁abund": 7965,
      "▁worn": 7966,
      "aks": 7967,
      "▁ariz": 7968,
      "▁armed": 7969,
      "▁knight": 7970,
      "▁outcome": 7971,
      "ivals": 7972,
      "asts": 7973,
      "▁grit": 7974,
      "▁cohes": 7975,
      "▁mann": 7976,
      "agger": 7977,
      "▁herm": 7978,
      "▁rope": 7979,
      "▁rober": 7980,
      "▁mold": 7981,
      "▁phase": 7982,
      "▁evident": 7983,
      "▁offensive": 7984,
      "▁loving": 7985,
      "▁overse": 7986,
      "▁goode": 7987,
      "▁bran": 7988,
      "▁composition": 7989,
      "▁scar": 7990,
      "▁containing": 7991,
      "▁carriage": 7992,
      "▁chef": 7993,
      "▁spears": 7994,
      "ishment": 7995,
      "▁guilty": 7996,
      "▁drum": 7997,
      "▁pointing": 7998,
      "▁actor": 7999,
      "▁apples": 8000,
      "▁interrupt": 8001,
      "▁remote": 8002,
      "▁strip": 8003,
      "▁monster": 8004,
      "▁kevin": 8005,
      "▁arranged": 8006,
      "air@enron.com": 8007,
      "▁regul": 8008,
      "▁hipp": 8009,
      "▁hirosh": 8010,
      "▁happiness": 8011,
      "▁attitude": 8012,
      "ictions": 8013,
      "▁19th": 8014,
      "▁poland": 8015,
      "▁202": 8016,
      "▁20th": 8017,
      "▁glue": 8018,
      "comes": 8019,
      "▁elite": 8020,
      "▁marvel": 8021,
      "▁emma": 8022,
      "mec": 8023,
      "▁relation": 8024,
      "▁perspective": 8025,
      "▁avenue": 8026,
      "▁holy": 8027,
      "▁hokka": 8028,
      "uces": 8029,
      "▁sets": 8030,
      "▁incident": 8031,
      "▁impe": 8032,
      "▁invite": 8033,
      "▁classroom": 8034,
      "▁ending": 8035,
      "▁headed": 8036,
      "▁entry": 8037,
      "▁retail": 8038,
      "▁continent": 8039,
      "▁founded": 8040,
      "▁vision": 8041,
      "/26": 8042,
      "▁curious": 8043,
      "▁possibilities": 8044,
      "▁pete": 8045,
      "▁petunia": 8046,
      "▁easter": 8047,
      "▁hardly": 8048,
      "▁simpl": 8049,
      "▁extrem": 8050,
      "▁discip": 8051,
      "▁jeep": 8052,
      "▁trains": 8053,
      "▁geomet": 8054,
      "▁freeze": 8055,
      "▁valent": 8056,
      "▁snap": 8057,
      "▁funded": 8058,
      "▁publication": 8059,
      "▁breaks": 8060,
      "▁158": 8061,
      "▁drawer": 8062,
      "▁propose": 8063,
      "▁120": 8064,
      "▁12:": 8065,
      "▁grows": 8066,
      "▁poster": 8067,
      "▁travelling": 8068,
      "▁intense": 8069,
      "▁indiana": 8070,
      "▁shortest": 8071,
      "▁equality": 8072,
      "▁tested": 8073,
      "▁dealt": 8074,
      "▁politic": 8075,
      "▁customs": 8076,
      "▁recorded": 8077,
      "▁condem": 8078,
      "▁operator": 8079,
      "naissance": 8080,
      "▁messages": 8081,
      "▁colorado": 8082,
      "▁grandpa": 8083,
      "▁cookie": 8084,
      "▁parks": 8085,
      "▁rocket": 8086,
      "▁cloth": 8087,
      "oked": 8088,
      "▁debbie": 8089,
      "▁fifteenth": 8090,
      "▁acceptance": 8091,
      "▁obsf": 8092,
      "▁represented": 8093,
      "▁representation": 8094,
      "▁kittens": 8095,
      "▁climbed": 8096,
      "▁affairs": 8097,
      "▁portland": 8098,
      "▁industries": 8099,
      "▁devoted": 8100,
      "▁applicable": 8101,
      "books": 8102,
      "▁employed": 8103,
      "▁midnight": 8104,
      "▁tastes": 8105,
      "▁holidays": 8106,
      "▁existed": 8107,
      "▁listened": 8108,
      "▁deterior": 8109,
      "▁courtney": 8110,
      "▁heaven": 8111,
      "▁imagination": 8112,
      "▁managers": 8113,
      "▁notebook": 8114,
      "▁compete": 8115,
      "▁merchant": 8116,
      "▁arabia": 8117,
      "▁institute": 8118,
      "▁corporation": 8119,
      "▁murders": 8120,
      "▁joseph": 8121,
      "▁corners": 8122,
      "ourage": 8123,
      "▁mixture": 8124,
      "▁broader": 8125,
      "▁radical": 8126,
      "▁versions": 8127,
      "▁carol.st": 8128,
      "▁combined": 8129,
      "▁rolled": 8130,
      "▁talent": 8131,
      "▁tigers": 8132,
      "▁drops": 8133,
      "▁weekends": 8134,
      "▁pocketbook": 8135,
      "▁ninety": 8136,
      "▁admit": 8137,
      "393": 8138,
      "3989": 8139,
      "▁utter": 8140,
      "▁grape": 8141,
      "▁maximum": 8142,
      "▁scratch": 8143,
      "▁routes": 8144,
      "▁engineering": 8145,
      "▁locked": 8146,
      "▁survival": 8147,
      "▁searching": 8148,
      "▁distribution": 8149,
      "▁racial": 8150,
      "▁guardia": 8151,
      "▁reportedly": 8152,
      "▁tasks": 8153,
      "▁remarks": 8154,
      "▁principles": 8155,
      "▁pooh": 8156,
      "46-3": 8157,
      "▁initiated": 8158,
      "▁constitutional": 8159,
      "▁prospect": 8160,
      "▁produces": 8161,
      "▁occasions": 8162,
      "▁exerc": 8163,
      "▁knocked": 8164,
      "▁mechanism": 8165,
      "▁spokes": 8166,
      "▁arrested": 8167,
      "▁maintained": 8168,
      "▁yogurt": 8169,
      "▁commitment": 8170,
      "▁submitted": 8171,
      "▁demonstrate": 8172,
      "▁ribbon": 8173,
      "▁technique": 8174,
      "▁victor": 8175,
      "▁victory": 8176,
      "▁colonial": 8177,
      "▁architecture": 8178,
      "▁shiite": 8179,
      "▁battery": 8180,
      "▁racket": 8181,
      "▁subscribe": 8182,
      "▁cosm": 8183,
      "ipedia": 8184,
      "▁perceived": 8185,
      "▁incredibly": 8186,
      "▁dramatic": 8187,
      "▁crayons": 8188,
      "▁3889": 8189,
      "▁aesthetic": 8190,
      "▁inquir": 8191,
      "webber": 8192,
      "▁seventeenth": 8193,
      "▁astron": 8194,
      "▁abbas": 8195,
      "▁sauce": 8196,
      "▁dentist": 8197,
      "▁nephe": 8198,
      "▁ought": 8199,
      "▁altogether": 8200,
      "▁browser": 8201,
      "▁painewebber": 8202,
      "▁census": 8203,
      "▁neuro": 8204,
      "▁choices": 8205,
      "▁convinced": 8206,
      "▁713-646-3": 8207,
      "▁reputation": 8208,
      "▁713-853-3989": 8209,
      "▁nearest": 8210,
      "▁bangladesh": 8211,
      "▁extraordinary": 8212,
      "▁spectacular": 8213,
      "▁toilet": 8214,
      "▁criteria": 8215,
      "▁strengthen": 8216,
      "▁mcdonald": 8217,
      "▁satellite": 8218,
      ".clair@enron.com": 8219,
      "▁lennon": 8220,
      "▁giraffe": 8221,
      "▁renata": 8222,
      "▁socotra": 8223,
      "▁sufaat": 8224,
      "▁arizona": 8225,
      "▁hiroshima": 8226,
      "▁hokkaido": 8227,
      "▁carol.st.clair@enron.com": 8228,
      "▁713-646-3393": 8229,
      "&e": 8230,
      "-2": 8231,
      "-h": 8232,
      "/8": 8233,
      "/30": 8234,
      "400": 8235,
      "5/2001": 8236,
      "79": 8237,
      "91": 8238,
      "cas": 8239,
      "dle": 8240,
      "emp": 8241,
      "field": 8242,
      "iant": 8243,
      "ja": 8244,
      "mus": 8245,
      "nb": 8246,
      "pir": 8247,
      "rich": 8248,
      "rina": 8249,
      "tie": 8250,
      "tieth": 8251,
      "view": 8252,
      "wright": 8253,
      "▁tact": 8254,
      "▁a.": 8255,
      "▁ay": 8256,
      "▁ie": 8257,
      "▁sought": 8258,
      "▁sss": 8259,
      "▁signing": 8260,
      "▁fake": 8261,
      "▁fits": 8262,
      "▁bure": 8263,
      "▁borrow": 8264,
      "▁cau": 8265,
      "eration": 8266,
      "▁mop": 8267,
      "▁mice": 8268,
      "▁mous": 8269,
      "▁math": 8270,
      "▁maps": 8271,
      "▁dre": 8272,
      "▁dil": 8273,
      "▁dess": 8274,
      "▁dio": 8275,
      "▁pione": 8276,
      "online": 8277,
      "anes": 8278,
      "▁ht": 8279,
      "▁hay": 8280,
      "▁hmm": 8281,
      "▁naked": 8282,
      "esc": 8283,
      "esota": 8284,
      "▁lav": 8285,
      "isc": 8286,
      "isy": 8287,
      "▁inequ": 8288,
      "▁gest": 8289,
      "▁gum": 8290,
      "▁gem": 8291,
      "▁goose": 8292,
      "▁gcp": 8293,
      "ashes": 8294,
      "ico": 8295,
      "▁it's": 8296,
      "star": 8297,
      "stream": 8298,
      "eting": 8299,
      "▁heel": 8300,
      "▁heels": 8301,
      "▁hedge": 8302,
      "▁reward": 8303,
      "▁reception": 8304,
      "▁renaissance": 8305,
      "▁bean": 8306,
      "▁dobby": 8307,
      "see": 8308,
      "▁forum": 8309,
      "amon": 8310,
      "▁rand": 8311,
      "▁rud": 8312,
      "▁raw": 8313,
      "▁rides": 8314,
      "ilton": 8315,
      "▁ko": 8316,
      "▁ketch": 8317,
      "▁shy": 8318,
      "▁sharing": 8319,
      "▁shipping": 8320,
      "▁shirts": 8321,
      "▁neo": 8322,
      "cho": 8323,
      "▁dean": 8324,
      "herlands": 8325,
      "▁sock": 8326,
      "▁orche": 8327,
      "▁tray": 8328,
      "▁suffe": 8329,
      "▁chose": 8330,
      "▁allerg": 8331,
      "abil": 8332,
      "abeth": 8333,
      "ules": 8334,
      "▁exha": 8335,
      "ander": 8336,
      "▁lev": 8337,
      "▁vom": 8338,
      "▁vary": 8339,
      "▁venture": 8340,
      "umin": 8341,
      "apse": 8342,
      "▁araf": 8343,
      "osh": 8344,
      "osing": 8345,
      "▁outs": 8346,
      "▁upset": 8347,
      "▁ambit": 8348,
      "▁shed": 8349,
      "oodle": 8350,
      "asty": 8351,
      "▁grace": 8352,
      "▁adap": 8353,
      "▁coco": 8354,
      "▁cozy": 8355,
      "agraph": 8356,
      "▁moreover": 8357,
      "▁pee": 8358,
      "ahu": 8359,
      "▁phill": 8360,
      "▁offering": 8361,
      "▁workforce": 8362,
      "▁acade": 8363,
      "▁accomp": 8364,
      "asses": 8365,
      "▁bron": 8366,
      "▁brid": 8367,
      "▁brad": 8368,
      "▁brill": 8369,
      "▁brus": 8370,
      "▁firstly": 8371,
      "▁expense": 8372,
      "▁scot": 8373,
      "▁scrib": 8374,
      "▁boil": 8375,
      "▁bondad": 8376,
      "▁deny": 8377,
      "wear": 8378,
      "▁contrast": 8379,
      "▁blink": 8380,
      "▁blame": 8381,
      "▁blown": 8382,
      "class": 8383,
      "▁prest": 8384,
      "ressed": 8385,
      "▁playwright": 8386,
      "▁pod": 8387,
      "▁buzz": 8388,
      "▁crap": 8389,
      "▁imprison": 8390,
      "▁intercept": 8391,
      "▁morior": 8392,
      "▁causing": 8393,
      "lium": 8394,
      "▁opens": 8395,
      "▁straps": 8396,
      "▁stranger": 8397,
      "▁keen": 8398,
      "▁keys": 8399,
      "▁regulations": 8400,
      "▁57": 8401,
      "ront": 8402,
      "▁intend": 8403,
      "▁20,000": 8404,
      "▁apolog": 8405,
      "▁homeop": 8406,
      "▁marl": 8407,
      "▁marry": 8408,
      "meal": 8409,
      "▁persons": 8410,
      "▁72": 8411,
      "▁instr": 8412,
      "▁genius": 8413,
      "▁warrant": 8414,
      "▁surre": 8415,
      "▁surve": 8416,
      "▁decre": 8417,
      "▁questar": 8418,
      "▁imf": 8419,
      "▁wax": 8420,
      "▁specify": 8421,
      "▁assured": 8422,
      "▁vend": 8423,
      "▁mets": 8424,
      "▁reduction": 8425,
      "▁reducing": 8426,
      "▁trips": 8427,
      "▁particles": 8428,
      "▁fault": 8429,
      "▁deficiency": 8430,
      "▁switch": 8431,
      "▁swallow": 8432,
      "▁harder": 8433,
      "play": 8434,
      "▁sixteenth": 8435,
      "▁presidential": 8436,
      "▁universe": 8437,
      "▁explos": 8438,
      "▁insight": 8439,
      "▁insult": 8440,
      "▁snakes": 8441,
      "▁barb": 8442,
      "▁haircut": 8443,
      "▁sunlight": 8444,
      "▁thirtieth": 8445,
      "▁memorial": 8446,
      "▁iraqis": 8447,
      "▁waitress": 8448,
      "▁landing": 8449,
      "▁landsc": 8450,
      "▁movements": 8451,
      "▁traveled": 8452,
      "▁profit": 8453,
      "ippy": 8454,
      "▁winds": 8455,
      "▁potter": 8456,
      "▁agreements": 8457,
      "▁sweat": 8458,
      "▁laser": 8459,
      "▁1990": 8460,
      "▁1997": 8461,
      "▁enrononline": 8462,
      "▁organizations": 8463,
      "▁georgia": 8464,
      "▁argued": 8465,
      "▁knees": 8466,
      "▁acceptable": 8467,
      "▁scientist": 8468,
      "▁faced": 8469,
      "▁facility": 8470,
      "▁absent": 8471,
      "▁superior": 8472,
      "▁figured": 8473,
      "▁practices": 8474,
      "▁microsc": 8475,
      "▁privacy": 8476,
      "▁midwest": 8477,
      "▁recover": 8478,
      "▁netherlands": 8479,
      "▁computers": 8480,
      "▁describes": 8481,
      "▁destruction": 8482,
      "▁videos": 8483,
      "▁heavily": 8484,
      "▁executed": 8485,
      "▁mosle": 8486,
      "▁epist": 8487,
      "sylv": 8488,
      "▁merry": 8489,
      "▁feeding": 8490,
      "▁encoun": 8491,
      "▁citizen": 8492,
      "▁wildlife": 8493,
      "▁discovery": 8494,
      "▁minnesota": 8495,
      "▁contribute": 8496,
      "▁contributions": 8497,
      "▁challenging": 8498,
      "▁influential": 8499,
      "▁rolls": 8500,
      "▁flew": 8501,
      "▁miracle": 8502,
      "▁tracking": 8503,
      "▁butterf": 8504,
      "▁candy": 8505,
      "▁reflects": 8506,
      "▁ruby": 8507,
      "▁mathematic": 8508,
      "▁translated": 8509,
      "▁indicated": 8510,
      "▁achievement": 8511,
      "▁achievements": 8512,
      "▁impacts": 8513,
      "▁librarians": 8514,
      "▁frequent": 8515,
      "▁updates": 8516,
      "▁settings": 8517,
      "▁settlers": 8518,
      "▁pushing": 8519,
      "▁acquired": 8520,
      "▁mathematical": 8521,
      "▁cracker": 8522,
      "▁03:": 8523,
      "▁occasion": 8524,
      "▁volley": 8525,
      "▁tort": 8526,
      "▁vanilla": 8527,
      "▁primarily": 8528,
      "▁pennsylv": 8529,
      "▁australian": 8530,
      "▁guidance": 8531,
      "smith": 8532,
      "▁permission": 8533,
      "▁drugs": 8534,
      "▁vegetable": 8535,
      "▁boost": 8536,
      "▁assessment": 8537,
      "▁assuming": 8538,
      "▁motorcy": 8539,
      "▁revealed": 8540,
      "▁referen": 8541,
      "▁jamie": 8542,
      "▁rarely": 8543,
      ".net/": 8544,
      "▁pipeline": 8545,
      "▁lifetime": 8546,
      "********************************": 8547,
      "▁shocked": 8548,
      "▁precisely": 8549,
      "▁linguistic": 8550,
      "▁linguistics": 8551,
      "▁kissed": 8552,
      "▁philosophy": 8553,
      "▁innocent": 8554,
      "▁delete": 8555,
      "▁consciousness": 8556,
      "▁vehicles": 8557,
      "▁negotiations": 8558,
      "▁detective": 8559,
      "▁pumpkin": 8560,
      "▁wishes": 8561,
      "▁qualified": 8562,
      "▁explanation": 8563,
      "▁administrator": 8564,
      "▁tamil": 8565,
      "▁disappear": 8566,
      "▁pledge": 8567,
      "▁hindu": 8568,
      "▁cancel": 8569,
      "▁nineteenth": 8570,
      "▁desperate": 8571,
      "▁geographical": 8572,
      "▁ansi-92": 8573,
      "▁cabinet": 8574,
      "▁prosperous": 8575,
      "▁alt.animals.": 8576,
      "▁tragedies": 8577,
      "▁distinction": 8578,
      "▁eliminate": 8579,
      "▁linda": 8580,
      "▁fruits": 8581,
      "▁guerr": 8582,
      "news/": 8583,
      "▁reconciliation": 8584,
      "▁www.": 8585,
      "▁pancakes": 8586,
      "▁albania": 8587,
      "▁obtained": 8588,
      "▁situations": 8589,
      "▁tropical": 8590,
      "▁cindy": 8591,
      "▁rapporteur": 8592,
      "▁pierre": 8593,
      "▁bwi": 8594,
      "▁carnival": 8595,
      "▁stratford": 8596,
      "▁rebuild": 8597,
      "▁calendar": 8598,
      "▁legend": 8599,
      "▁vessel": 8600,
      "▁cohesion": 8601,
      "▁roberts": 8602,
      "▁bureau": 8603,
      "▁dessert": 8604,
      "▁ketchup": 8605,
      "▁suffered": 8606,
      "▁arafat": 8607,
      "▁academy": 8608,
      "▁moriori": 8609,
      "▁pennsylvania": 8610,
      "-9": 8611,
      ".1": 8612,
      "26": 8613,
      "43": 8614,
      "can": 8615,
      "cury": 8616,
      "hanie": 8617,
      "i.": 8618,
      "iences": 8619,
      "ko": 8620,
      "mond": 8621,
      "oard": 8622,
      "put": 8623,
      "rous": 8624,
      "tra": 8625,
      "zed": 8626,
      "▁tat": 8627,
      "▁ties": 8628,
      "▁tale": 8629,
      "▁az": 8630,
      "herent": 8631,
      "▁igu": 8632,
      "▁w-": 8633,
      "▁wy": 8634,
      "▁wing": 8635,
      "reced": 8636,
      "▁om": 8637,
      "▁oat": 8638,
      "inal": 8639,
      "inations": 8640,
      "athered": 8641,
      "▁bc": 8642,
      "▁bust": 8643,
      "▁bol": 8644,
      "▁cave": 8645,
      "▁cinn": 8646,
      "▁mim": 8647,
      "▁mood": 8648,
      "▁mwww": 8649,
      "▁mcc": 8650,
      "nders": 8651,
      "ndous": 8652,
      "▁dal": 8653,
      "▁damp": 8654,
      "▁pc": 8655,
      "▁pom": 8656,
      "▁pope": 8657,
      "▁pony": 8658,
      "▁p.m.": 8659,
      "▁poodle": 8660,
      "▁hr": 8661,
      "▁hong": 8662,
      "▁hoc": 8663,
      "▁n-": 8664,
      "eness": 8665,
      "orous": 8666,
      "▁lis": 8667,
      "▁lant": 8668,
      "▁lined": 8669,
      "▁laughter": 8670,
      "▁andre": 8671,
      "isd": 8672,
      "itis": 8673,
      "alities": 8674,
      "▁ewww": 8675,
      "leum": 8676,
      "▁onion": 8677,
      "ett": 8678,
      "ethe": 8679,
      "etary": 8680,
      "oty": 8681,
      "▁react": 8682,
      "▁reaches": 8683,
      "▁isol": 8684,
      "uther": 8685,
      "▁ug": 8686,
      "▁beings": 8687,
      "▁welf": 8688,
      "id=": 8689,
      "keley": 8690,
      "acam": 8691,
      "acious": 8692,
      "▁stol": 8693,
      "americ": 8694,
      "▁mecca": 8695,
      "▁ray": 8696,
      "▁rivers": 8697,
      "ili": 8698,
      "▁sear": 8699,
      "▁flir": 8700,
      "▁floy": 8701,
      "▁jar": 8702,
      "ante": 8703,
      "antics": 8704,
      "▁ka": 8705,
      "▁ku": 8706,
      "▁kil": 8707,
      "▁asy": 8708,
      "▁shackle": 8709,
      "▁notch": 8710,
      "▁sox": 8711,
      "▁trot": 8712,
      "▁trim": 8713,
      "▁trag": 8714,
      "opher": 8715,
      "▁cham": 8716,
      "▁chill": 8717,
      "abama": 8718,
      "isted": 8719,
      "▁alabama": 8720,
      "▁prohib": 8721,
      "▁lex": 8722,
      "▁leban": 8723,
      "ivet": 8724,
      "▁comic": 8725,
      "ppers": 8726,
      "▁vint": 8727,
      "uman": 8728,
      "▁abuse": 8729,
      "▁plaint": 8730,
      "eling": 8731,
      "▁worship": 8732,
      "apa": 8733,
      "unction": 8734,
      "▁arctic": 8735,
      "▁outdo": 8736,
      "▁ups": 8737,
      "ardon": 8738,
      "rape": 8739,
      "inea": 8740,
      "▁grid": 8741,
      "▁grim": 8742,
      "▁hasid": 8743,
      "▁clip": 8744,
      "berries": 8745,
      "▁quix": 8746,
      "▁newly": 8747,
      "▁pew": 8748,
      "▁wherever": 8749,
      "▁spa": 8750,
      "▁spons": 8751,
      "▁lobby": 8752,
      "▁putin": 8753,
      "▁disability": 8754,
      "▁ohio": 8755,
      "▁sang": 8756,
      "avis": 8757,
      "▁brick": 8758,
      "▁compr": 8759,
      "▁ours": 8760,
      "▁scored": 8761,
      "▁well-": 8762,
      "▁partly": 8763,
      "izabeth": 8764,
      "▁blount": 8765,
      "▁resume": 8766,
      "▁reserved": 8767,
      "▁play+": 8768,
      "ateral": 8769,
      "▁guadel": 8770,
      "▁guards": 8771,
      "▁guinea": 8772,
      "▁dried": 8773,
      "▁appet": 8774,
      "▁cape": 8775,
      "▁’’": 8776,
      "▁37": 8777,
      "▁earl": 8778,
      "▁datas": 8779,
      "▁remaining": 8780,
      "licit": 8781,
      "▁eats": 8782,
      "ggy": 8783,
      "▁200,000": 8784,
      "▁presum": 8785,
      "▁preserved": 8786,
      "▁awa": 8787,
      "▁mornings": 8788,
      "▁happily": 8789,
      "icted": 8790,
      "▁5:00": 8791,
      "▁polite": 8792,
      "bec": 8793,
      "▁elizabeth": 8794,
      "▁marc": 8795,
      "▁margin": 8796,
      "▁relating": 8797,
      "▁76": 8798,
      "▁hobby": 8799,
      "ocks": 8800,
      "▁supporters": 8801,
      "▁minim": 8802,
      "▁warned": 8803,
      "▁warwick": 8804,
      "▁obama": 8805,
      "▁baba": 8806,
      "▁oldest": 8807,
      "▁survey": 8808,
      "ifications": 8809,
      "▁waiver": 8810,
      "▁feelings": 8811,
      "▁headquar": 8812,
      "▁entrep": 8813,
      "▁skip": 8814,
      "▁skilled": 8815,
      "▁paragraph": 8816,
      "▁collaps": 8817,
      "▁collapse": 8818,
      "▁childhood": 8819,
      "▁visits": 8820,
      "▁generate": 8821,
      "▁artific": 8822,
      "▁artwork": 8823,
      "▁depth": 8824,
      "▁depos": 8825,
      "▁brook": 8826,
      "▁gregg": 8827,
      "▁pett": 8828,
      "▁petro": 8829,
      "▁planes": 8830,
      "▁caps": 8831,
      "▁capture": 8832,
      "▁2018": 8833,
      "▁zone": 8834,
      "▁distur": 8835,
      "▁filters": 8836,
      "▁9/11": 8837,
      "▁auto": 8838,
      "▁autumn": 8839,
      "▁exploration": 8840,
      "▁approve": 8841,
      "▁freely": 8842,
      "▁freezer": 8843,
      "▁ideal": 8844,
      "▁fuj": 8845,
      "▁barrel": 8846,
      "▁naturally": 8847,
      "▁adventure": 8848,
      "▁memories": 8849,
      "awi": 8850,
      "▁waiter": 8851,
      "inson": 8852,
      "ippers": 8853,
      "▁intrig": 8854,
      "▁irish": 8855,
      "▁missile": 8856,
      "▁junk": 8857,
      "▁nearby": 8858,
      "▁cultures": 8859,
      "▁copied": 8860,
      "▁promoted": 8861,
      "▁humanity": 8862,
      "▁stephanie": 8863,
      "▁augment": 8864,
      "▁specialist": 8865,
      "▁forehead": 8866,
      "▁limb": 8867,
      "▁banjo": 8868,
      "▁campus": 8869,
      "▁solve": 8870,
      "▁robinson": 8871,
      "▁suggesting": 8872,
      "▁summary": 8873,
      "▁recommendation": 8874,
      "umbled": 8875,
      "▁traveler": 8876,
      "▁traders": 8877,
      "▁represents": 8878,
      "▁roads": 8879,
      "▁latter": 8880,
      "▁donations": 8881,
      "aneously": 8882,
      "▁christopher": 8883,
      "▁addresses": 8884,
      "▁label": 8885,
      "▁labour": 8886,
      "▁announce": 8887,
      "▁absence": 8888,
      "▁temporary": 8889,
      "▁performing": 8890,
      "▁preparation": 8891,
      "▁copying": 8892,
      "▁throwing": 8893,
      "▁palm": 8894,
      "▁diapers": 8895,
      "▁laying": 8896,
      "▁batman": 8897,
      "▁russians": 8898,
      "/10": 8899,
      "▁existence": 8900,
      "▁destiny": 8901,
      "▁hearts": 8902,
      "▁inflation": 8903,
      "▁contacts": 8904,
      "▁contacted": 8905,
      "▁football": 8906,
      "▁competitive": 8907,
      "▁feedback": 8908,
      "▁documentation": 8909,
      "▁digging": 8910,
      "▁statistics": 8911,
      "▁murde": 8912,
      "▁damn": 8913,
      "ambling": 8914,
      "▁filtering": 8915,
      "▁garbage": 8916,
      "▁davis": 8917,
      "▁significantly": 8918,
      "▁husse": 8919,
      "▁emerged": 8920,
      "▁gardens": 8921,
      "▁tigger": 8922,
      "▁freedoms": 8923,
      "▁farmers": 8924,
      "▁foreigners": 8925,
      "▁affects": 8926,
      "▁examine": 8927,
      "▁examining": 8928,
      "▁appreciation": 8929,
      "▁grav": 8930,
      "▁resource": 8931,
      "▁consumers": 8932,
      "▁rabbits": 8933,
      "▁containers": 8934,
      "▁indicate": 8935,
      "▁indicates": 8936,
      "world": 8937,
      "▁brave": 8938,
      "▁racing": 8939,
      "▁briefly": 8940,
      "▁blew": 8941,
      "▁sandwiches": 8942,
      "▁guarantees": 8943,
      "▁hunh": 8944,
      "▁reminder": 8945,
      "▁eleventh": 8946,
      "▁01:": 8947,
      "▁folio": 8948,
      "▁281": 8949,
      ".c.": 8950,
      "▁aims": 8951,
      "▁napkin": 8952,
      "▁ethn": 8953,
      "▁enterpr": 8954,
      "▁investigation": 8955,
      "▁investigate": 8956,
      "▁virus": 8957,
      "▁unpreced": 8958,
      "▁criticism": 8959,
      "▁establishment": 8960,
      "▁consistent": 8961,
      "▁assumed": 8962,
      "▁categories": 8963,
      "▁kicked": 8964,
      "▁ambul": 8965,
      "▁bubble": 8966,
      "▁relaxed": 8967,
      "▁carrot": 8968,
      "▁waves": 8969,
      "▁crops": 8970,
      "▁conclusions": 8971,
      "▁cuba": 8972,
      "▁cuban": 8973,
      "▁automatically": 8974,
      "▁lyn": 8975,
      "▁seesaw": 8976,
      "▁pyram": 8977,
      "▁evolved": 8978,
      "▁concentration": 8979,
      "▁limitations": 8980,
      "▁collabor": 8981,
      "▁muslims": 8982,
      "▁repeatedly": 8983,
      "▁mandatory": 8984,
      "▁seeds": 8985,
      "gamer": 8986,
      "▁disappeared": 8987,
      "mail.com": 8988,
      "▁attributed": 8989,
      "▁fortune": 8990,
      "▁acknowled": 8991,
      "▁acknowledge": 8992,
      "▁wagon": 8993,
      "▁allocated": 8994,
      "▁lawyer": 8995,
      "▁cyclone": 8996,
      "▁dismiss": 8997,
      "▁incorporated": 8998,
      "▁diverse": 8999,
      "▁heroes": 9000,
      "▁absorb": 9001,
      "▁sustainable": 9002,
      "▁odara": 9003,
      "▁hammer": 9004,
      "▁katrina": 9005,
      "▁residential": 9006,
      "▁polaroids": 9007,
      "▁dynamic": 9008,
      "▁indonesia": 9009,
      "▁poems": 9010,
      "▁dedicated": 9011,
      "▁phenomenon": 9012,
      "▁jesus": 9013,
      "▁pregnant": 9014,
      "▁philippines": 9015,
      "▁supermarket": 9016,
      "▁vaccine": 9017,
      "▁malaysia": 9018,
      "▁nurse": 9019,
      "▁impartial": 9020,
      "▁firefox": 9021,
      "▁mycelium": 9022,
      "▁spokesman": 9023,
      "▁nephew": 9024,
      "▁html": 9025,
      "▁random": 9026,
      "▁oatmeal": 9027,
      "▁lantern": 9028,
      "▁welfare": 9029,
      "▁floyd": 9030,
      "▁shackleton": 9031,
      "▁plaintiff": 9032,
      "▁guadeloupe": 9033,
      "▁headquarters": 9034,
      "▁entrepren": 9035,
      "▁unprecedented": 9036,
[...]
