{
  "version": "1.0",
  "truncation": null,
  "padding": null,
  "added_tokens": [
    {
      "id": 0,
      "content": "[UNK]",
      "single_word": false,
      "lstrip": false,
      "rstrip": false,
      "normalized": false,
      "special": true
    },
    {
      "id": 1,
      "content": "[PAD]",
      "single_word": false,
      "lstrip": false,
      "rstrip": false,
      "normalized": false,
      "special": true
    },
    {
      "id": 2,
      "content": "[CLS]",
      "single_word": false,
      "lstrip": false,
      "rstrip": false,
      "normalized": false,
      "special": true
    },
    {
      "id": 3,
      "content": "[SEP]",
      "single_word": false,
      "lstrip": false,
      "rstrip": false,
      "normalized": false,
      "special": true
    },
    {
      "id": 4,
      "content": "[MASK]",
      "single_word": false,
      "lstrip": false,
      "rstrip": false,
      "normalized": false,
      "special": true
    }
  ],
  "normalizer": {
    "type": "Sequence",
    "normalizers": [
      {
        "type": "NFD"
      },
      {
        "type": "Lowercase"
      },
      {
        "type": "StripAccents"
      }
    ]
  },
  "pre_tokenizer": {
    "type": "Sequence",
    "pretokenizers": [
      {
        "type": "Metaspace",
        "replacement": "▁",
        "prepend_scheme": "always",
        "split": true
      }
    ]
  },
  "post_processor": {
    "type": "TemplateProcessing",
    "single": [
      {
        "SpecialToken": {
          "id": "[CLS]",
          "type_id": 0
        }
      },
      {
        "Sequence": {
          "id": "A",
          "type_id": 0
        }
      },
      {
        "SpecialToken": {
          "id": "[SEP]",
          "type_id": 0
        }
      }
    ],
    "pair": [
      {
        "SpecialToken": {
          "id": "[CLS]",
          "type_id": 0
        }
      },
      {
        "Sequence": {
          "id": "A",
          "type_id": 0
        }
      },
      {
        "SpecialToken": {
          "id": "[SEP]",
          "type_id": 0
        }
      },
      {
        "Sequence": {
          "id": "B",
          "type_id": 1
        }
      },
      {
        "SpecialToken": {
          "id": "[SEP]",
          "type_id": 1
        }
      }
    ],
    "special_tokens": {
      "[CLS]": {
        "id": "[CLS]",
        "ids": [
          2
        ],
        "tokens": [
          "[CLS]"
        ]
      },
      "[SEP]": {
        "id": "[SEP]",
        "ids": [
          3
        ],
        "tokens": [
          "[SEP]"
        ]
      }
    }
  },
  "decoder": {
    "type": "Metaspace",
    "replacement": "▁",
    "prepend_scheme": "always",
    "split": true
  },
  "model": {
    "type": "Unigram",
    "unk_id": 0,
    "vocab": [
      [
        "[UNK]",
        0.0
      ],
      [
        "[PAD]",
        0.0
      ],
      [
        "[CLS]",
        0.0
      ],
      [
        "[SEP]",
        0.0
      ],
      [
        "[MASK]",
        0.0
      ],
      [
        "▁",
        -2.110690925146132
      ],
      [
        ".",
        -3.1846937999436697
      ],
      [
        "s",
        -3.3242809533371194
      ],
      [
        "▁the",
        -3.5075552669604164
      ],
      [
        ",",
        -3.7760213988418325
      ],
      [
        "▁to",
        -4.008736415045574
      ],
      [
        "▁a",
        -4.176737613279197
      ],
      [
        "▁and",
        -4.193735932225877
      ],
      [
        "▁i",
        -4.318599313192324
      ],
      [
        "_",
        -4.376270909440393
      ],
      [
        "▁of",
        -4.427564664849921
      ],
      [
        "ing",
        -4.545053117655334
      ],
      [
        "▁in",
        -4.576958196560213
      ],
      [
        "▁you",
        -4.6153161406400685
      ],
      [
        "d",
        -4.624592694441384
      ],
      [
        "▁it",
        -4.726928169876812
      ],
      [
        "ed",
        -4.744450040012248
      ],
      [
        "y",
        -4.779469829151653
      ],
      [
        "?",
        -4.80301637181941
      ],
      [
        "▁that",
        -4.8104280602037885
      ],
      [
        "▁is",
        -5.04313524359411
      ],
      [
        "▁'s",
        -5.0737957986561195
      ],
      [
        "e",
        -5.1691962682259796
      ],
      [
        "▁on",
        -5.220034223822196
      ],
      [
        "t",
        -5.294947813664853
      ],
      [
        "▁from",
        -5.299721125886791
      ],
      [
        "▁for",
        -5.315417133321642
      ],
      [
        "▁do",
        -5.336960846171156
      ],
      [
        "ly",
        -5.357143573305281
      ],
      [
        "▁what",
        -5.434748855070913
      ],
      [
        "▁be",
        -5.459770669350215
      ],
      [
        "a",
        -5.476328713749103
      ],
      [
        "▁this",
        -5.525666814370673
      ],
      [
        "▁was",
        -5.532988591705138
      ],
      [
        "▁with",
        -5.564141715022645
      ],
      [
        "▁he",
        -5.565746873248857
      ],
      [
        "n",
        -5.665372315630012
      ],
      [
        "▁are",
        -5.6761599175124715
      ],
      [
        "▁we",
        -5.682693782229499
      ],
      [
        "▁have",
        -5.686491178486847
      ],
      [
        "'",
        -5.69437161137717
      ],
      [
        "n't",
        -5.700508560843277
      ],
      [
        "h",
        -5.766433629319456
      ],
      [
        "▁flight",
        -5.784321120711313
      ],
      [
        "▁me",
        -5.811234592810273
      ],
      [
        "▁not",
        -5.847244354033066
      ],
      [
        "▁my",
        -5.857638425659383
      ],
      [
        "▁like",
        -5.912223328670894
      ],
      [
        "o",
        -5.927449253470455
      ],
      [
        "m",
        -5.94190344262816
      ],
      [
        "▁go",
        -5.946882398137422
      ],
      [
        "\"",
        -5.947849655441507
      ],
      [
        "▁-",
        -5.990403206776993
      ],
      [
        "▁at",
        -5.996232306748602
      ],
      [
        "▁there",
        -6.006390684061386
      ],
      [
        "▁they",
        -6.029730906423381
      ],
      [
        "▁but",
        -6.055974842032456
      ],
      [
        "▁can",
        -6.061727614955381
      ],
      [
        "▁one",
        -6.083913968590603
      ],
      [
        "▁all",
        -6.088755789955635
      ],
      [
        "▁as",
        -6.143350174632775
      ],
      [
        "▁your",
        -6.166771680848174
      ],
      [
        "▁so",
        -6.172708631214579
      ],
      [
        "▁no",
        -6.1975709889844435
      ],
      [
        "▁or",
        -6.2027212631947855
      ],
      [
        "i",
        -6.227407456945962
      ],
      [
        "▁by",
        -6.299265326470644
      ],
      [
        "▁his",
        -6.309098557040949
      ],
      [
        ")",
        -6.356197672415474
      ],
      [
        "▁(",
        -6.415479152125002
      ],
      [
        "▁get",
        -6.420097628361268
      ],
      [
        "▁if",
        -6.420706898991442
      ],
      [
        "▁will",
        -6.431159039971422
      ],
      [
        "▁had",
        -6.440267417633004
      ],
      [
        "er",
        -6.441495801081872
      ],
      [
        "▁woul",
        -6.460836548165
      ],
      [
        "▁want",
        -6.478456246437365
      ],
      [
        "▁some",
        -6.483431549064245
      ],
      [
        "▁did",
        -6.488309556689624
      ],
      [
        "r",
        -6.5067420525300825
      ],
      [
        "▁an",
        -6.509655502143954
      ],
      [
        "▁up",
        -6.520983093248031
      ],
      [
        "▁she",
        -6.529322445891871
      ],
      [
        "▁know",
        -6.532407468061286
      ],
      [
        "▁how",
        -6.539833109445713
      ],
      [
        "es",
        -6.576667768758289
      ],
      [
        "▁see",
        -6.577185652147229
      ],
      [
        "▁out",
        -6.594545592021903
      ],
      [
        "▁!",
        -6.614369846299722
      ],
      [
        "▁when",
        -6.6478727160547315
      ],
      [
        "▁c",
        -6.650365793267689
      ],
      [
        "▁just",
        -6.655050872090717
      ],
      [
        "▁about",
        -6.663537952724889
      ],
      [
        "▁has",
        -6.663922105332211
      ],
      [
        "▁de",
        -6.699228870349755
      ],
      [
        "▁show",
        -6.714880631317068
      ],
      [
        "▁any",
        -6.731549556123709
      ],
      [
        "▁here",
        -6.73372114723732
      ],
      [
        "▁were",
        -6.744620403496097
      ],
      [
        "▁which",
        -6.746558529860892
      ],
      [
        "▁na",
        -6.7553218563647475
      ],
      [
        "▁who",
        -6.760839540717213
      ],
      [
        "▁look",
        -6.778209136828817
      ],
      [
        "▁:",
        -6.778565684838631
      ],
      [
        "▁now",
        -6.784795705602879
      ],
      [
        "al",
        -6.797691355795762
      ],
      [
        "▁her",
        -6.803517274753615
      ],
      [
        "▁more",
        -6.83215123158844
      ],
      [
        "▁them",
        -6.8409909685170875
      ],
      [
        "▁time",
        -6.860967189604516
      ],
      [
        "▁new",
        -6.868157617983487
      ],
      [
        "▁us",
        -6.868716299430657
      ],
      [
        "▁him",
        -6.876380115516426
      ],
      [
        "'re",
        -6.880591125261728
      ],
      [
        "▁where",
        -6.883743586279929
      ],
      [
        "▁other",
        -6.888545859315787
      ],
      [
        "cause",
        -6.90594487275808
      ],
      [
        "▁their",
        -6.91856524127114
      ],
      [
        "▁think",
        -6.925489475590657
      ],
      [
        "▁bo",
        -6.933120616285905
      ],
      [
        "▁make",
        -6.9623376850403
      ],
      [
        "▁put",
        -6.965871559939246
      ],
      [
        "on",
        -6.966654805166946
      ],
      [
        "l",
        -6.967596872511435
      ],
      [
        "▁need",
        -6.969055186428515
      ],
      [
        "▁been",
        -6.9835825368389095
      ],
      [
        "ies",
        -6.989642692808219
      ],
      [
        "▁two",
        -7.003714008803557
      ],
      [
        "▁san",
        -7.004442646937491
      ],
      [
        "f",
        -7.015998648135972
      ],
      [
        "▁oh",
        -7.021867228946971
      ],
      [
        "▁right",
        -7.025490632501689
      ],
      [
        "▁very",
        -7.0286577593682456
      ],
      [
        "-",
        -7.030311285255636
      ],
      [
        "▁good",
        -7.032497328292574
      ],
      [
        "ston",
        -7.0445966895835825
      ],
      [
        "▁first",
        -7.053065471880777
      ],
      [
        "ve",
        -7.055786969098668
      ],
      [
        "ould",
        -7.065536038045067
      ],
      [
        "ll",
        -7.0696516711225525
      ],
      [
        "▁our",
        -7.0895640917168725
      ],
      [
        "▁over",
        -7.105715152533445
      ],
      [
        "▁take",
        -7.116625241407271
      ],
      [
        "▁people",
        -7.123824289021645
      ],
      [
        "▁al",
        -7.127444345158489
      ],
      [
        "▁well",
        -7.133457600681014
      ],
      [
        "▁may",
        -7.150374277771511
      ],
      [
        "▁got",
        -7.164217127879691
      ],
      [
        "▁after",
        -7.168656356643923
      ],
      [
        "▁down",
        -7.175775143714223
      ],
      [
        "▁back",
        -7.180612791736257
      ],
      [
        "nver",
        -7.184128223153202
      ],
      [
        "▁way",
        -7.184336086504843
      ],
      [
        "▁say",
        -7.184892118500353
      ],
      [
        "▁yea",
        -7.203315353698497
      ],
      [
        "▁real",
        -7.203923345525226
      ],
      [
        "▁sai",
        -7.205845493782135
      ],
      [
        "▁into",
        -7.224175713034503
      ],
      [
        "▁day",
        -7.246345139779821
      ],
      [
        "▁these",
        -7.253867410807521
      ],
      [
        "▁francisco",
        -7.267183357757346
      ],
      [
        "▁work",
        -7.279929827908429
      ],
      [
        "▁come",
        -7.282047941079846
      ],
      [
        "one",
        -7.2960107339591325
      ],
      [
        "in",
        -7.29667651797196
      ],
      [
        "c",
        -7.300246802835721
      ],
      [
        "▁please",
        -7.303526839844157
      ],
      [
        "▁let",
        -7.313705757626118
      ],
      [
        "able",
        -7.329229472450566
      ],
      [
        "▁every",
        -7.3345302464084465
      ],
      [
        "▁only",
        -7.361807379064641
      ],
      [
        "▁should",
        -7.365029664549994
      ],
      [
        "thing",
        -7.366124456622458
      ],
      [
        "▁call",
        -7.368880482611513
      ],
      [
        "▁too",
        -7.378988522083097
      ],
      [
        "▁bet",
        -7.387746784748851
      ],
      [
        "▁list",
        -7.399313976268104
      ],
      [
        "p",
        -7.400208482078279
      ],
      [
        "▁am",
        -7.406901008994273
      ],
      [
        "▁oka",
        -7.412659611884165
      ],
      [
        "▁again",
        -7.416933451019094
      ],
      [
        "▁play",
        -7.423476044572913
      ],
      [
        "▁before",
        -7.42613581598839
      ],
      [
        "ween",
        -7.432885159270521
      ],
      [
        "▁doe",
        -7.433344144968005
      ],
      [
        "▁atlant",
        -7.45333013512289
      ],
      [
        "▁than",
        -7.458779256645077
      ],
      [
        "▁;",
        -7.462591472534205
      ],
      [
        "▁thing",
        -7.465676532246418
      ],
      [
        "▁give",
        -7.467729632042536
      ],
      [
        "sburg",
        -7.47430202383542
      ],
      [
        "▁mommy",
        -7.475343990323036
      ],
      [
        "▁off",
        -7.477174252953036
      ],
      [
        "▁long",
        -7.4782419893010905
      ],
      [
        "u",
        -7.480838163609222
      ],
      [
        "ce",
        -7.485834011927956
      ],
      [
        "th",
        -7.488313029111979
      ],
      [
        "als",
        -7.491390692187784
      ],
      [
        "more",
        -7.4917233970077435
      ],
      [
        "▁wan",
        -7.496578796929555
      ],
      [
        "▁little",
        -7.4988237254763686
      ],
      [
        "k",
        -7.5027061254147
      ],
      [
        "/",
        -7.503645023110884
      ],
      [
        "round",
        -7.505331410255688
      ],
      [
        "▁use",
        -7.5184578810870955
      ],
      [
        "ation",
        -7.5228149619595595
      ],
      [
        "▁’",
        -7.5249226341950655
      ],
      [
        "▁–",
        -7.526137586638797
      ],
      [
        "▁many",
        -7.529975529379893
      ],
      [
        "▁ta",
        -7.541648619893717
      ],
      [
        "▁even",
        -7.552070510611214
      ],
      [
        "▁year",
        -7.555570569637689
      ],
      [
        "▁gon",
        -7.5565598668112495
      ],
      [
        "le",
        -7.558384399947417
      ],
      [
        "▁car",
        -7.573982285514676
      ],
      [
        "▁pitt",
        -7.5762563765095825
      ],
      [
        "▁place",
        -7.577344469250605
      ],
      [
        "allas",
        -7.58669898441635
      ],
      [
        "▁great",
        -7.589721003978283
      ],
      [
        "▁find",
        -7.594692485942541
      ],
      [
        "▁why",
        -7.597085665656989
      ],
      [
        "w",
        -7.598477420180137
      ],
      [
        "est",
        -7.613687376625496
      ],
      [
        "g",
        -7.631972731027106
      ],
      [
        "▁muc",
        -7.632278853429421
      ],
      [
        "▁ca",
        -7.643402609916348
      ],
      [
        "▁something",
        -7.647690850222007
      ],
      [
        "▁tell",
        -7.6493372254836505
      ],
      [
        "self",
        -7.658877864511462
      ],
      [
        "▁mean",
        -7.669837740296945
      ],
      [
        "▁help",
        -7.673168630060495
      ],
      [
        "or",
        -7.676394336323445
      ],
      [
        "▁big",
        -7.692667113105705
      ],
      [
        "▁um",
        -7.716812434067876
      ],
      [
        "▁airline",
        -7.7202639102865955
      ],
      [
        "▁eat",
        -7.720878779287824
      ],
      [
        "▁name",
        -7.721797905434884
      ],
      [
        "▁morning",
        -7.722163364520266
      ],
      [
        "▁phil",
        -7.725117254408382
      ],
      [
        "▁state",
        -7.733175367344469
      ],
      [
        "▁city",
        -7.733284071474064
      ],
      [
        "is",
        -7.739548294585456
      ],
      [
        "ity",
        -7.746315171146865
      ],
      [
        "▁try",
        -7.7482743474828455
      ],
      [
        "▁balti",
        -7.753704748157096
      ],
      [
        "adelphi",
        -7.7597143146396075
      ],
      [
        "uch",
        -7.7797765506140415
      ],
      [
        "▁last",
        -7.7879890588299485
      ],
      [
        "▁pm",
        -7.795983553767158
      ],
      [
        "▁home",
        -7.796690566883207
      ],
      [
        "▁another",
        -7.798734033077263
      ],
      [
        "▁most",
        -7.8006344808654555
      ],
      [
        "▁through",
        -7.807145982891191
      ],
      [
        "▁made",
        -7.8140704615943175
      ],
      [
        "▁un",
        -7.818705422928185
      ],
      [
        "ever",
        -7.82099754618162
      ],
      [
        "b",
        -7.830816189670822
      ],
      [
        "▁[",
        -7.839817785191231
      ],
      [
        "]",
        -7.841520883354615
      ],
      [
        "▁world",
        -7.843046100127046
      ],
      [
        "▁still",
        -7.857067978864644
      ],
      [
        "▁american",
        -7.863230799424308
      ],
      [
        "—",
        -7.865858357824216
      ],
      [
        "▁talk",
        -7.872619204327979
      ],
      [
        "▁kind",
        -7.879358386612741
      ],
      [
        "▁...",
        -7.882051980483413
      ],
      [
        "ion",
        -7.882456451394015
      ],
      [
        "▁leave",
        -7.8899636785187885
      ],
      [
        "us",
        -7.890709422561235
      ],
      [
        "▁part",
        -7.893953462692045
      ],
      [
        "▁dadd",
        -7.894070274383779
      ],
      [
        "v",
        -7.903660002200423
      ],
      [
        "▁under",
        -7.904640306791521
      ],
      [
        "▁b",
        -7.909532749833698
      ],
      [
        "▁read",
        -7.912523595795771
      ],
      [
        "▁number",
        -7.914074443560368
      ],
      [
        "be",
        -7.921647292698226
      ],
      [
        "today",
        -7.9285849440496765
      ],
      [
        "▁yes",
        -7.931802837215329
      ],
      [
        "▁start",
        -7.9337557985508
      ],
      [
        "▁house",
        -7.940002397406655
      ],
      [
        "▁man",
        -7.945602638106581
      ],
      [
        "▁high",
        -7.953973797413773
      ],
      [
        "▁school",
        -7.954805803598736
      ],
      [
        "ting",
        -7.958126262443042
      ],
      [
        "washington",
        -7.959767678969132
      ],
      [
        "and",
        -7.965866647073895
      ],
      [
        "re",
        -7.975873814883065
      ],
      [
        "it",
        -7.987461975753254
      ],
      [
        "▁food",
        -7.988117216573517
      ],
      [
        "▁fare",
        -7.988921879632131
      ],
      [
        "out",
        -7.995598572902672
      ],
      [
        "▁2",
        -7.995748527592069
      ],
      [
        "▁best",
        -7.9979416200183175
      ],
      [
        "▁fly",
        -7.999713132529155
      ],
      [
        "▁went",
        -8.002511032373569
      ],
      [
        "▁1",
        -8.004107239603272
      ],
      [
        "▁lot",
        -8.00415074748623
      ],
      [
        "▁book",
        -8.006415353059388
      ],
      [
        "▁ask",
        -8.012661884421563
      ],
      [
        "▁whil",
        -8.016508477901041
      ],
      [
        "ment",
        -8.0340606895853
      ],
      [
        "▁three",
        -8.036842601612932
      ],
      [
        "▁sam",
        -8.043713896822133
      ],
      [
        "▁love",
        -8.053052321149085
      ],
      [
        "▁leav",
        -8.053432723013032
      ],
      [
        "ld",
        -8.055873611367744
      ],
      [
        "▁air",
        -8.060945843419617
      ],
      [
        "en",
        -8.06780958441735
      ],
      [
        "▁service",
        -8.06844991051392
      ],
      [
        "▁water",
        -8.072011259167786
      ],
      [
        "▁never",
        -8.074839550870452
      ],
      [
        "nex",
        -8.085519569969751
      ],
      [
        "▁--",
        -8.092089148442515
      ],
      [
        "▁united",
        -8.092383634507613
      ],
      [
        "ok",
        -8.096871598294403
      ],
      [
        "information",
        -8.09721970428875
      ],
      [
        "▁uh",
        -8.10017744350583
      ],
      [
        "▁own",
        -8.100669943219241
      ],
      [
        "▁night",
        -8.103103043740965
      ],
      [
        "ether",
        -8.107084496460843
      ],
      [
        "▁class",
        -8.107168945224245
      ],
      [
        "hose",
        -8.1158084034846
      ],
      [
        "▁per",
        -8.115944168171445
      ],
      [
        "▁life",
        -8.134779466710508
      ],
      [
        "▁old",
        -8.135583702464007
      ],
      [
        "▁room",
        -8.13569032124063
      ],
      [
        "▁open",
        -8.13794197672807
      ],
      [
        "▁hear",
        -8.13926442925893
      ],
      [
        "▁week",
        -8.153583587320089
      ],
      [
        "▁change",
        -8.169013526799223
      ],
      [
        "▁$",
        -8.171563594458725
      ],
      [
        "▁being",
        -8.176574936459161
      ],
      [
        "▁end",
        -8.184502156064179
      ],
      [
        "▁dat",
        -8.189512487696927
      ],
      [
        "3",
        -8.19003981968453
      ],
      [
        "▁baby",
        -8.194855042478995
      ],
      [
        "▁away",
        -8.197159076278737
      ],
      [
        "▁keep",
        -8.197476881969937
      ],
      [
        "▁5",
        -8.214563803547213
      ],
      [
        "▁“",
        -8.219498192965938
      ],
      [
        "ers",
        -8.219732724107537
      ],
      [
        "▁small",
        -8.222694629793512
      ],
      [
        "▁else",
        -8.22270945332868
      ],
      [
        "▁sure",
        -8.226459654778685
      ],
      [
        "land",
        -8.226492338215749
      ],
      [
        "▁turn",
        -8.229986899882306
      ],
      [
        "▁group",
        -8.23023192479933
      ],
      [
        "▁alway",
        -8.235948122721013
      ],
      [
        "each",
        -8.23744529425845
      ],
      [
        "▁must",
        -8.241219794278837
      ],
      [
        "▁3",
        -8.244225645207521
      ],
      [
        "”",
        -8.245347742086235
      ],
      [
        "▁hand",
        -8.246694806849197
      ],
      [
        "▁thought",
        -8.249919587355267
      ],
      [
        "4",
        -8.250022391761124
      ],
      [
        "▁point",
        -8.251470879358134
      ],
      [
        "▁both",
        -8.252629881125161
      ],
      [
        "▁transport",
        -8.255220898288353
      ],
      [
        "▁large",
        -8.255222090340801
      ],
      [
        "1",
        -8.260030591107782
      ],
      [
        "▁dis",
        -8.260947948016733
      ],
      [
        "ive",
        -8.261149788067685
      ],
      [
        "▁wednesday",
        -8.261849751828727
      ],
      [
        "▁better",
        -8.272232976048766
      ],
      [
        "▁trip",
        -8.275093447653383
      ],
      [
        "▁haf",
        -8.27562784397469
      ],
      [
        "▁nice",
        -8.278697003156218
      ],
      [
        "▁different",
        -8.28027178316285
      ],
      [
        "▁w",
        -8.282229186374902
      ],
      [
        "ember",
        -8.286168226909886
      ],
      [
        "▁feel",
        -8.288881644408038
      ],
      [
        "▁ground",
        -8.289711112974821
      ],
      [
        "x",
        -8.293377590143518
      ],
      [
        "www",
        -8.297395514715216
      ],
      [
        "▁few",
        -8.30620670085571
      ],
      [
        "▁seem",
        -8.30699954885089
      ],
      [
        "▁month",
        -8.307339928273406
      ],
      [
        "▁head",
        -8.309816086306272
      ],
      [
        "▁thank",
        -8.310127320130288
      ],
      [
        "thos",
        -8.310842670437147
      ],
      [
        "an",
        -8.312975580581437
      ],
      [
        "▁light",
        -8.318306913572393
      ],
      [
        "▁might",
        -8.320106633045821
      ],
      [
        "▁walk",
        -8.327676798164791
      ],
      [
        "▁since",
        -8.33037944379764
      ],
      [
        "▁10",
        -8.330625055443836
      ],
      [
        "▁cheap",
        -8.330729382436186
      ],
      [
        "▁live",
        -8.333478708496852
      ],
      [
        "▁remember",
        -8.33429582703582
      ],
      [
        "▁line",
        -8.335660089641088
      ],
      [
        "years",
        -8.33696611894339
      ],
      [
        "▁game",
        -8.338642087961867
      ],
      [
        "man",
        -8.354325263165144
      ],
      [
        "▁problem",
        -8.35965884851872
      ],
      [
        "ady",
        -8.366861076675818
      ],
      [
        "▁york",
        -8.370730123645084
      ],
      [
        "▁watch",
        -8.375740113885627
      ],
      [
        "▁stop",
        -8.37791698510326
      ],
      [
        "done",
        -8.37839647292963
      ],
      [
        "▁hard",
        -8.38303507687759
      ],
      [
        "▁came",
        -8.384052406680228
      ],
      [
        "▁stay",
        -8.389459497053537
      ],
      [
        "▁base",
        -8.39035502510356
      ],
      [
        "▁price",
        -8.391901960498425
      ],
      [
        "ic",
        -8.393134438662146
      ],
      [
        "▁second",
        -8.393244000220381
      ],
      [
        "2",
        -8.398209012183258
      ],
      [
        "▁alre",
        -8.40229573925065
      ],
      [
        "▁wait",
        -8.402515938490694
      ],
      [
        "0",
        -8.40382690485792
      ],
      [
        "▁4",
        -8.404071781315377
      ],
      [
        "▁far",
        -8.404558879032447
      ],
      [
        "▁found",
        -8.407396136201204
      ],
      [
        "▁area",
        -8.407465778006971
      ],
      [
        "ary",
        -8.40859966191551
      ],
      [
        "▁though",
        -8.41102322376003
      ],
      [
        "▁war",
        -8.41405275707977
      ],
      [
        "ness",
        -8.417467043767708
      ],
      [
        "▁dog",
        -8.418415799986196
      ],
      [
        "▁roman",
        -8.419627316447867
      ],
      [
        "▁girl",
        -8.421525517718608
      ],
      [
        "▁actual",
        -8.424107395137545
      ],
      [
        "▁eye",
        -8.425055503681268
      ],
      [
        "body",
        -8.425662225779625
      ],
      [
        "▁wo",
        -8.426948428370132
      ],
      [
        "less",
        -8.42778721254885
      ],
      [
        "▁close",
        -8.428001212959494
      ],
      [
        "▁order",
        -8.428741025470664
      ],
      [
        "6",
        -8.43714015480882
      ],
      [
        "▁famil",
        -8.443872145651877
      ],
      [
        "▁guy",
        -8.445270261676857
      ],
      [
        "▁happen",
        -8.446120638437414
      ],
      [
        "ally",
        -8.447824527349201
      ],
      [
        "ful",
        -8.45731050368832
      ],
      [
        "▁president",
        -8.457758082366407
      ],
      [
        "▁bush",
        -8.461350460334058
      ],
      [
        "▁adam",
        -8.464119666937176
      ],
      [
        "▁bad",
        -8.470565540021045
      ],
      [
        "▁train",
        -8.472207726590398
      ],
      [
        "▁data",
        -8.473668792459165
      ],
      [
        "la",
        -8.48361380350607
      ],
      [
        "▁friend",
        -8.483722750023482
      ],
      [
        "▁set",
        -8.486662284279054
      ],
      [
        "▁en",
        -8.487608782532138
      ],
      [
        "▁thanks",
        -8.489983926853373
      ],
      [
        "▁mr",
        -8.492580552350589
      ],
      [
        "▁20",
        -8.494754125735806
      ],
      [
        "▁re",
        -8.49827080635535
      ],
      [
        "▁6",
        -8.499070122244756
      ],
      [
        "▁afternoon",
        -8.50134919537432
      ],
      [
        "go",
        -8.504932474002603
      ],
      [
        "later",
        -8.505667703766218
      ],
      [
        "▁mak",
        -8.513295325051526
      ],
      [
        "▁case",
        -8.519662963241426
      ],
      [
        "▁ga",
        -8.521120631143344
      ],
      [
        "▁los",
        -8.521894928988438
      ],
      [
        "▁paper",
        -8.526605596817948
      ],
      [
        "▁report",
        -8.531188635847053
      ],
      [
        "▁early",
        -8.532608961470103
      ],
      [
        "▁provide",
        -8.53389191526489
      ],
      [
        "▁person",
        -8.534004082658075
      ],
      [
        "st.",
        -8.534235887702621
      ],
      [
        "▁sit",
        -8.53504072785267
      ],
      [
        "▁die",
        -8.537649293558122
      ],
      [
        "▁red",
        -8.537701460932027
      ],
      [
        "▁four",
        -8.539610323431619
      ],
      [
        "▁arriv",
        -8.540192877720816
      ],
      [
        "▁round",
        -8.542205308618612
      ],
      [
        "▁interest",
        -8.54275501938437
      ],
      [
        "▁left",
        -8.544553721439934
      ],
      [
        "▁laura",
        -8.544569489629893
      ],
      [
        "▁saw",
        -8.5483679525181
      ],
      [
        "▁milk",
        -8.549505226060493
      ],
      [
        "ous",
        -8.550573467572448
      ],
      [
        "▁minute",
        -8.553421980552844
      ],
      [
        "▁business",
        -8.553434851128365
      ],
      [
        "▁government",
        -8.55344965227295
      ],
      [
        "▁oakl",
        -8.557888699639268
      ],
      [
        "▁airport",
        -8.562419007895418
      ],
      [
        "▁bit",
        -8.565033584319373
      ],
      [
        "▁office",
        -8.565439035800129
      ],
      [
        "z",
        -8.57129271168499
      ],
      [
        "▁possibl",
        -8.572057871485715
      ],
      [
        "▁face",
        -8.572076290114563
      ],
      [
        "▁earlie",
        -8.577203176109492
      ],
      [
        "um",
        -8.577443561403523
      ],
      [
        "▁write",
        -8.579001540861594
      ],
      [
        "▁mom",
        -8.579025476554264
      ],
      [
        "▁monday",
        -8.580515888259974
      ],
      [
        "▁hu",
        -8.582393223800722
      ],
      [
        "▁move",
        -8.583936676542038
      ],
      [
        "▁mother",
        -8.585221710474556
      ],
      [
        "▁experience",
        -8.587245863846299
      ],
      [
        "▁dur",
        -8.587273341571802
      ],
      [
        "▁form",
        -8.58864682071377
      ],
      [
        "▁believe",
        -8.589709390052548
      ],
      [
        "▁probabl",
        -8.594336456236245
      ],
      [
        "ough",
        -8.594533824608146
      ],
      [
        "▁five",
        -8.594592988129541
      ],
      [
        "▁buy",
        -8.59565639354812
      ],
      [
        "▁thursday",
        -8.598987340062934
      ],
      [
        "▁fall",
        -8.600583580109777
      ],
      [
        "ar",
        -8.60146690232813
      ],
      [
        "el",
        -8.602987677555348
      ],
      [
        "ance",
        -8.6045993597772
      ],
      [
        "▁full",
        -8.606469035738552
      ],
      [
        "▁leas",
        -8.607845033226049
      ],
      [
        "used",
        -8.608313970536138
      ],
      [
        "uh",
        -8.610676682328338
      ],
      [
        "▁example",
        -8.613072065715457
      ],
      [
        "’",
        -8.614948150506539
      ],
      [
        "▁return",
        -8.617820741617678
      ],
      [
        "▁money",
        -8.617848630205112
      ],
      [
        "▁prett",
        -8.617948737855663
      ],
      [
        "▁country",
        -8.620826132617092
      ],
      [
        "▁learn",
        -8.622832162839648
      ],
      [
        "▁arrive",
        -8.623325532732458
      ],
      [
        "▁hey",
        -8.624937820071661
      ],
      [
        "▁j",
        -8.627728384178031
      ],
      [
        "cy",
        -8.628172946533443
      ],
      [
        "▁cost",
        -8.632232407038364
      ],
      [
        "▁issue",
        -8.641943982677617
      ],
      [
        "most",
        -8.642406178758543
      ],
      [
        "▁grow",
        -8.648109759709289
      ],
      [
        "▁hope",
        -8.64857519949134
      ],
      [
        "▁question",
        -8.650022513991718
      ],
      [
        "▁access",
        -8.661507963850699
      ],
      [
        "▁father",
        -8.661523370900508
      ],
      [
        "▁p",
        -8.663490570139123
      ],
      [
        "▁whole",
        -8.665175202955812
      ],
      [
        "▁white",
        -8.667215175841761
      ],
      [
        "▁job",
        -8.667896169433774
      ],
      [
        "▁until",
        -8.668005096793955
      ],
      [
        "▁piece",
        -8.671598588205706
      ],
      [
        "▁mil",
        -8.677409865720485
      ],
      [
        "5",
        -8.677593793684395
      ],
      [
        "▁bring",
        -8.678323184250381
      ],
      [
        "▁fact",
        -8.678833241672933
      ],
      [
        "▁system",
        -8.678952849972319
      ],
      [
        "once",
        -8.680103369069636
      ],
      [
        "ch",
        -8.68327927055956
      ],
      [
        "having",
        -8.68472514261152
      ],
      [
        "▁free",
        -8.68641181495531
      ],
      [
        "▁idea",
        -8.686544272553157
      ],
      [
        "yet",
        -8.687906051314283
      ],
      [
        "▁sea",
        -8.69071711307814
      ],
      [
        "▁public",
        -8.691186058723243
      ],
      [
        "▁language",
        -8.691736497560008
      ],
      [
        "▁tuesday",
        -8.69173649773623
      ],
      [
        "▁hair",
        -8.691771329987404
      ],
      [
        "▁type",
        -8.700072725501387
      ],
      [
        "▁field",
        -8.704170794719088
      ],
      [
        "▁add",
        -8.705579999270451
      ],
      [
        "cross",
        -8.70593587326811
      ],
      [
        "▁outside",
        -8.707697602825291
      ],
      [
        "where",
        -8.708864243568945
      ],
      [
        "▁course",
        -8.713305649566987
      ],
      [
        "▁process",
        -8.71650123826877
      ],
      [
        "▁color",
        -8.717654994043361
      ],
      [
        "▁near",
        -8.717728830870158
      ],
      [
        "▁mi",
        -8.718810333679684
      ],
      [
        "▁boy",
        -8.72091178092829
      ],
      [
        "▁twenty",
        -8.721993464482555
      ],
      [
        "▁hit",
        -8.723909664647593
      ],
      [
        "▁black",
        -8.72811193254887
      ],
      [
        "▁file",
        -8.72832733320966
      ],
      [
        "▁clean",
        -8.730379558071897
      ],
      [
        "▁south",
        -8.732693112686302
      ],
      [
        "kee",
        -8.732756966362732
      ],
      [
        "age",
        -8.73376954395122
      ],
      [
        "7",
        -8.735910349658216
      ],
      [
        "▁la",
        -8.736371114054894
      ],
      [
        "▁dere",
        -8.736412467480186
      ],
      [
        "▁hi",
        -8.738784818081754
      ],
      [
        "ry",
        -8.738797583889506
      ],
      [
        "▁view",
        -8.739331473410292
      ],
      [
        "ither",
        -8.73938481423794
      ],
      [
        "▁7",
        -8.741573334066597
      ],
      [
        "ish",
        -8.742881260164154
      ],
      [
        "▁friday",
        -8.744247796676603
      ],
      [
        "▁national",
        -8.745807333018398
      ],
      [
        "▁important",
        -8.746613299463252
      ],
      [
        "▁general",
        -8.749003738234471
      ],
      [
        "▁six",
        -8.750300175156129
      ],
      [
        "▁store",
        -8.751763011520652
      ],
      [
        "at",
        -8.75339178384311
      ],
      [
        "▁page",
        -8.753590633560062
      ],
      [
        "▁tog",
        -8.754278814729439
      ],
      [
        "▁result",
        -8.7550820930902
      ],
      [
        "▁sunday",
        -8.755129686476842
      ],
      [
        "▁reason",
        -8.758013626490609
      ],
      [
        "▁harr",
        -8.758614489813471
      ],
      [
        "▁12",
        -8.759758079016231
      ],
      [
        "▁char",
        -8.762211118201414
      ],
      [
        "▁g",
        -8.763842149921377
      ],
      [
        "▁children",
        -8.769479677745961
      ],
      [
        "▁paul",
        -8.770296344181565
      ],
      [
        "▁support",
        -8.770844655442062
      ],
      [
        "▁drink",
        -8.777127385063912
      ],
      [
        "▁draw",
        -8.780199699424843
      ],
      [
        "▁serve",
        -8.78123130320599
      ],
      [
        "▁friends",
        -8.786469787513301
      ],
      [
        "▁cut",
        -8.78664567261151
      ],
      [
        "▁saturday",
        -8.788326038445653
      ],
      [
        "▁study",
        -8.788326042436632
      ],
      [
        "▁ya",
        -8.790416365688424
      ],
      [
        "taking",
        -8.791577717762571
      ],
      [
        "▁power",
        -8.794440704946641
      ],
      [
        "▁space",
        -8.794565457162733
      ],
      [
        "▁dc",
        -8.795095778329749
      ],
      [
        "▁201",
        -8.796273403697683
      ],
      [
        "▁sometime",
        -8.80044495688238
      ],
      [
        "▁ball",
        -8.800914520391078
      ],
      [
        "▁horse",
        -8.803310890405147
      ],
      [
        "▁human",
        -8.804985780941017
      ],
      [
        "▁international",
        -8.811118984655028
      ],
      [
        "wau",
        -8.81115780592879
      ],
      [
        "ago",
        -8.812019772026423
      ],
      [
        "▁present",
        -8.81352582191851
      ],
      [
        "▁wh",
        -8.815531221395094
      ],
      [
        "aid",
        -8.815936114938943
      ],
      [
        "▁coming",
        -8.816586656765814
      ],
      [
        "▁particular",
        -8.816899398288342
      ],
      [
        "right",
        -8.817631992722369
      ],
      [
        "▁ever",
        -8.81879650042871
      ],
      [
        "▁8",
        -8.82392644719885
      ],
      [
        "polis",
        -8.833935394198711
      ],
      [
        "8",
        -8.834695972221827
      ],
      [
        "▁salt",
        -8.834741476181845
      ],
      [
        "▁pay",
        -8.837712302412891
      ],
      [
        "▁kid",
        -8.838158678311942
      ],
      [
        "▁ye",
        -8.842074823499043
      ],
      [
        "▁short",
        -8.84611415877806
      ],
      [
        "▁street",
        -8.846313150016012
      ],
      [
        "▁clear",
        -8.846314318212622
      ],
      [
        "▁sever",
        -8.847665528852957
      ],
      [
        "▁final",
        -8.849830545552535
      ],
      [
        "▁consider",
        -8.849911114042825
      ],
      [
        "▁certain",
        -8.850041345652993
      ],
      [
        "▁young",
        -8.850435745416684
      ],
      [
        "▁late",
        -8.850992797361453
      ],
      [
        "▁understand",
        -8.855197466785956
      ],
      [
        "▁evening",
        -8.855464090027883
      ],
      [
        "ne",
        -8.855550047711542
      ],
      [
        "▁deal",
        -8.856032001617063
      ],
      [
        "ter",
        -8.85628486183914
      ],
      [
        "▁worth",
        -8.856556562495978
      ],
      [
        "▁regard",
        -8.856871797938677
      ],
      [
        "▁pick",
        -8.857701035364038
      ],
      [
        "▁sleep",
        -8.858155731051788
      ],
      [
        "orrow",
        -8.858192384684234
      ],
      [
        "▁bear",
        -8.862343883352459
      ],
      [
        "▁jul",
        -8.863496314397807
      ],
      [
        "▁door",
        -8.866628656552944
      ],
      [
        "▁&",
        -8.868805820702493
      ],
      [
        "▁availab",
        -8.8699417991242
      ],
      [
        "▁18",
        -8.870129917706581
      ],
      [
        "▁top",
        -8.871879473956023
      ],
      [
        "▁company",
        -8.872611626123796
      ],
      [
        "▁care",
        -8.874060109362368
      ],
      [
        "▁green",
        -8.87705309160586
      ],
      [
        "▁test",
        -8.878769580868196
      ],
      [
        "▁check",
        -8.880028118704
      ],
      [
        "▁north",
        -8.881602118094422
      ],
      [
        "▁side",
        -8.882645899776687
      ],
      [
        "▁hold",
        -8.88311681366651
      ],
      [
        "▁sept",
        -8.883235098467251
      ],
      [
        "▁includ",
        -8.88338929268486
      ],
      [
        "▁hot",
        -8.88823318508438
      ],
      [
        "▁project",
        -8.889031018326621
      ],
      [
        "▁market",
        -8.889036550545605
      ],
      [
        "▁mind",
        -8.890796964220991
      ],
      [
        "▁quit",
        -8.89575384505783
      ],
      [
        "co",
        -8.89618445607
      ],
      [
        "▁post",
        -8.898449751362334
      ],
      [
        "▁dinner",
        -8.901542159205817
      ],
      [
        "▁broke",
        -8.901550495231158
      ],
      [
        "▁phone",
        -8.902037496050841
      ],
      [
        "▁force",
        -8.905385750198661
      ],
      [
        "▁run",
        -8.90568968163046
      ],
      [
        "nix",
        -8.90803270308206
      ],
      [
        "▁letter",
        -8.908721799793703
      ],
      [
        "▁happ",
        -8.90878396759236
      ],
      [
        "ami",
        -8.910150982968236
      ],
      [
        "▁past",
        -8.910720757834262
      ],
      [
        "▁become",
        -8.9142534314797
      ],
      [
        "▁visit",
        -8.916014919951678
      ],
      [
        "▁follow",
        -8.91637024296693
      ],
      [
        "clock",
        -8.920902741177713
      ],
      [
        "▁phoe",
        -8.927536832428814
      ],
      [
        "▁law",
        -8.930663167757965
      ],
      [
        "▁value",
        -8.931253495642476
      ],
      [
        "▁review",
        -8.933627299464728
      ],
      [
        "houston",
        -8.940329167663112
      ],
      [
        "ate",
        -8.940894353096706
      ],
      [
        "▁uhh",
        -8.941400166641625
      ],
      [
        "▁along",
        -8.941572400708452
      ],
      [
        "▁19",
        -8.942310503039678
      ],
      [
        "▁main",
        -8.94339970495031
      ],
      [
        "▁fish",
        -8.944178592713797
      ],
      [
        "▁shakespeare",
        -8.946710526842564
      ],
      [
        "▁enjoy",
        -8.946710876044026
      ],
      [
        "▁finish",
        -8.949112648888473
      ],
      [
        "gan",
        -8.950041346640099
      ],
      [
        "▁often",
        -8.952149713052748
      ],
      [
        "▁pass",
        -8.953374233824412
      ],
      [
        "▁recent",
        -8.953381520958759
      ],
      [
        "▁200",
        -8.956501464907683
      ],
      [
        "▁dollar",
        -8.960057607015719
      ],
      [
        "▁travel",
        -8.960281645727676
      ],
      [
        "▁continue",
        -8.96172366671523
      ],
      [
        "▁offer",
        -8.962703449896306
      ],
      [
        "▁cat",
        -8.96335485254064
      ],
      [
        "▁sun",
        -8.963409815284166
      ],
      [
        "▁times",
        -8.966875319244878
      ],
      [
        "▁event",
        -8.967180640059272
      ],
      [
        "▁amount",
        -8.967273996703048
      ],
      [
        "though",
        -8.967822940430462
      ],
      [
        "▁chic",
        -8.968100280093317
      ],
      [
        "▁recommend",
        -8.972928030217133
      ],
      [
        "▁strong",
        -8.973583441483463
      ],
      [
        "▁sound",
        -8.974149791204061
      ],
      [
        "▁half",
        -8.97729229055658
      ],
      [
        "▁record",
        -8.978538511752712
      ],
      [
        "▁island",
        -8.981513202845633
      ],
      [
        "▁control",
        -8.982512080418218
      ],
      [
        "na",
        -8.984970559444479
      ],
      [
        "▁11",
        -8.988878442061399
      ],
      [
        "▁august",
        -8.989512134434072
      ],
      [
        "▁vega",
        -8.990701175837446
      ],
      [
        "▁working",
        -8.991205870892783
      ],
      [
        "▁universit",
        -8.991250733710606
      ],
      [
        "▁fun",
        -8.991380245479144
      ],
      [
        "▁plan",
        -8.993163727058954
      ],
      [
        "▁stuff",
        -8.994021956822053
      ],
      [
        "▁enron",
        -9.00102015968347
      ],
      [
        "▁dad",
        -9.002465665080802
      ],
      [
        "town",
        -9.003116354853297
      ],
      [
        "▁del",
        -9.00337410118652
      ],
      [
        "▁front",
        -9.004119981534807
      ],
      [
        "lves",
        -9.006519378556158
      ],
      [
        "▁nonstop",
        -9.007954103362845
      ],
      [
        "▁ten",
        -9.008373636535941
      ],
      [
        "▁send",
        -9.008844233567228
      ],
      [
        "▁fine",
        -9.009548839411996
      ],
      [
        "▁con",
        -9.010519876616367
      ],
      [
        "▁less",
        -9.012216238683639
      ],
      [
        "▁tom",
        -9.012649596917733
      ],
      [
        "▁party",
        -9.012701688338016
      ],
      [
        "▁local",
        -9.015020617860426
      ],
      [
        "▁create",
        -9.018941836679673
      ],
      [
        "▁level",
        -9.02209404966884
      ],
      [
        "▁blue",
        -9.022465426131603
      ],
      [
        "▁questions",
        -9.024476465519005
      ],
      [
        "▁iraq",
        -9.0249435103264
      ],
      [
        "▁action",
        -9.027339301377186
      ],
      [
        "▁ago",
        -9.027432674077799
      ],
      [
        "▁answer",
        -9.029231960373998
      ],
      [
        "▁safe",
        -9.029289729456544
      ],
      [
        ".com",
        -9.03239237985592
      ],
      [
        "▁box",
        -9.033336393455073
      ],
      [
        "▁current",
        -9.033606280460923
      ],
      [
        "▁mine",
        -9.036331969858598
      ],
      [
        "▁usual",
        -9.036626734050836
      ],
      [
        "▁political",
        -9.036880229959673
      ],
      [
        "▁count",
        -9.04093205782212
      ],
      [
        "▁term",
        -9.043355689352698
      ],
      [
        "▁las",
        -9.04350596578248
      ],
      [
        "▁future",
        -9.043673060026613
      ],
      [
        "▁miss",
        -9.04829371937258
      ],
      [
        "▁fee",
        -9.04898881249204
      ],
      [
        "▁jun",
        -9.050764041390199
      ],
      [
        "▁quick",
        -9.05104599863264
      ],
      [
        "▁death",
        -9.05113003031646
      ],
      [
        "▁wear",
        -9.051584650293943
      ],
      [
        "▁chair",
        -9.058088629063892
      ],
      [
        "▁soon",
        -9.058312886234344
      ],
      [
        "▁push",
        -9.058336013276033
      ],
      [
        "▁floor",
        -9.05841193939208
      ],
      [
        "▁among",
        -9.058467907410513
      ],
      [
        "countries",
        -9.058492638352998
      ],
      [
        "▁matter",
        -9.058533468514993
      ],
      [
        "▁mov",
        -9.05983501014852
      ],
      [
        "▁word",
        -9.060721476001369
      ],
      [
        "▁john",
        -9.06074918424816
      ],
      [
        "▁sign",
        -9.060905241354563
      ],
      [
        "▁15",
        -9.061641885259224
      ],
      [
        "led",
        -9.06426567712528
      ],
      [
        ":",
        -9.064883757584255
      ],
      [
        "▁social",
        -9.0655195680046
      ],
      [
        "▁qualit",
        -9.065920475000091
      ],
      [
        "▁o'",
        -9.066124022633772
      ],
      [
        "▁complete",
        -9.066682646779949
      ],
      [
        "ur",
        -9.066758111881999
      ],
      [
        "▁picture",
        -9.066857957662544
      ],
      [
        "king",
        -9.068852740832206
      ],
      [
        "▁table",
        -9.072212629094079
      ],
      [
        "▁china",
        -9.073228518312536
      ],
      [
        "▁park",
        -9.07383277501534
      ],
      [
        "▁arm",
        -9.075684209550232
      ],
      [
        "▁hurt",
        -9.080798635100141
      ],
      [
        "▁16",
        -9.082868761543686
      ],
      [
        "hind",
        -9.083717238583784
      ],
      [
        "▁commission",
        -9.085221737325611
      ],
      [
        "▁town",
        -9.087191677273685
      ],
      [
        "▁act",
        -9.088249280765812
      ],
      [
        "▁pull",
        -9.08836381528841
      ],
      [
        "▁dark",
        -9.089561762167333
      ],
      [
        "▁land",
        -9.091455884121682
      ],
      [
        "▁men",
        -9.09158889855508
      ],
      [
        "▁star",
        -9.092191050770131
      ],
      [
        "▁art",
        -9.09658445407443
      ],
      [
        "ian",
        -9.101934882228502
      ],
      [
        "▁period",
        -9.1036147946473
      ],
      [
        "▁guess",
        -9.103632116850328
      ],
      [
        "▁fel",
        -9.10598721914538
      ],
      [
        "▁quin",
        -9.106384350520305
      ],
      [
        "▁receive",
        -9.10688886440464
      ],
      [
        "▁9",
        -9.109240468946819
      ],
      [
        "ront",
        -9.109680006711116
      ],
      [
        "lotte",
        -9.110090583579609
      ],
      [
        "▁meeting",
        -9.110408377584767
      ],
      [
        "▁break",
        -9.111372432573742
      ],
      [
        "▁concern",
        -9.11138032228477
      ],
      [
        "▁lake",
        -9.1115168179078
      ],
      [
        "▁cover",
        -9.111928548221252
      ],
      [
        "tic",
        -9.11235506067258
      ],
      [
        "▁customer",
        -9.11251998891052
      ],
      [
        "▁avail",
        -9.114457178937712
      ],
      [
        "▁major",
        -9.115996804478453
      ],
      [
        "▁abe",
        -9.116095024855735
      ],
      [
        "▁west",
        -9.1180442414622
      ],
      [
        "▁child",
        -9.119267566030757
      ],
      [
        "▁shoe",
        -9.12239334377102
      ],
      [
        "▁bird",
        -9.12516197961261
      ],
      [
        "▁develop",
        -9.125689969683158
      ],
      [
        "ark",
        -9.128925246395585
      ],
      [
        "▁wif",
        -9.129014967457117
      ],
      [
        "low",
        -9.129373529785958
      ],
      [
        "▁propert",
        -9.129998894033935
      ],
      [
        "▁rest",
        -9.133373334375026
      ],
      [
        "▁remain",
        -9.13499523326611
      ],
      [
        "▁member",
        -9.135104781596313
      ],
      [
        "▁movie",
        -9.1362984432395
      ],
      [
        "▁staff",
        -9.139971496358598
      ],
      [
        "▁mumm",
        -9.141092627535542
      ],
      [
        "▁rate",
        -9.141781476022066
      ],
      [
        "▁women",
        -9.143111539331548
      ],
      [
        "▁nation",
        -9.143540479755622
      ],
      [
        "▁noon",
        -9.143677233995657
      ],
      [
        "▁cup",
        -9.145202984178903
      ],
      [
        "▁ride",
        -9.145405091608175
      ],
      [
        "upon",
        -9.147969553603122
      ],
      [
        "▁following",
        -9.148361499741481
      ],
      [
        "▁direct",
        -9.149729673857163
      ],
      [
        "▁gone",
        -9.150858938630645
      ],
      [
        "▁student",
        -9.151054081568368
      ],
      [
        "▁hotel",
        -9.151285323086235
      ],
      [
        "▁indiana",
        -9.154179299997454
      ],
      [
        "way",
        -9.154362482172777
      ],
      [
        "▁include",
        -9.158399028612692
      ],
      [
        "▁cold",
        -9.158842961405547
      ],
      [
        "▁window",
        -9.160938087879138
      ],
      [
        "▁sara",
        -9.162596504027029
      ],
      [
        "security",
        -9.163202113510042
      ],
      [
        "ber",
        -9.163969319708126
      ],
      [
        "▁peter",
        -9.164567430058376
      ],
      [
        "ism",
        -9.16666832365511
      ],
      [
        "▁restaurant",
        -9.167380881927027
      ],
      [
        "▁road",
        -9.16739553737899
      ],
      [
        "▁special",
        -9.171130034827684
      ],
      [
        "▁econom",
        -9.172849385176107
      ],
      [
        "▁fire",
        -9.173735373340275
      ],
      [
        "▁seven",
        -9.175634564774391
      ],
      [
        "%",
        -9.175645344688505
      ],
      [
        "▁chicken",
        -9.17567064637397
      ],
      [
        "▁eas",
        -9.17609939814983
      ],
      [
        "▁team",
        -9.17732204072988
      ],
      [
        "orland",
        -9.179753778476384
      ],
      [
        "ent",
        -9.180098325892164
      ],
      [
        "▁story",
        -9.182050511401771
      ],
      [
        "▁forward",
        -9.182241384847156
      ],
      [
        "▁http://www.",
        -9.183639557177532
      ],
      [
        "do",
        -9.18366515075678
      ],
      [
        "▁em",
        -9.183700360478488
      ],
      [
        "ant",
        -9.183802500888401
      ],
      [
        "▁societ",
        -9.183978678774317
      ],
      [
        "▁email",
        -9.184054676960116
      ],
      [
        "▁couple",
        -9.184135715767901
      ],
      [
        "▁european",
        -9.187104396540345
      ],
      [
        "▁accept",
        -9.189212703710933
      ],
      [
        "▁appear",
        -9.192269565727562
      ],
      [
        "▁economic",
        -9.194706409798506
      ],
      [
        "▁rule",
        -9.196354052015227
      ],
      [
        "▁17",
        -9.196744493073922
      ],
      [
        "▁apri",
        -9.197441612437077
      ],
      [
        "▁bag",
        -9.198114830503624
      ],
      [
        "ca",
        -9.198476337394816
      ],
      [
        "▁living",
        -9.200859133915474
      ],
      [
        "▁english",
        -9.200942397566212
      ],
      [
        "▁throw",
        -9.202346458909041
      ],
      [
        "▁militar",
        -9.20383538844318
      ],
      [
        "craft",
        -9.206723222596532
      ],
      [
        "▁inside",
        -9.206897320075907
      ],
      [
        "▁due",
        -9.207636123223134
      ],
      [
        "▁hour",
        -9.207783898936029
      ],
      [
        "▁meet",
        -9.208146779065617
      ],
      [
        "▁difficult",
        -9.209403624184587
      ],
      [
        "▁energy",
        -9.20940364151111
      ],
      [
        "▁claim",
        -9.209461754907199
      ],
      [
        "▁research",
        -9.212870038211856
      ],
      [
        "▁continent",
        -9.214773648381014
      ],
      [
        "▁account",
        -9.218024317475916
      ],
      [
        "▁doctor",
        -9.21802463735566
      ],
      [
        "▁third",
        -9.21802557921756
      ],
      [
        "▁middle",
        -9.218037034945137
      ],
      [
        "▁fair",
        -9.218050607801949
      ],
      [
        "▁eight",
        -9.218121200044223
      ],
      [
        "▁shall",
        -9.21830187428946
      ],
      [
        "▁truck",
        -9.221664111555103
      ],
      [
        "▁sent",
        -9.222301650828399
      ],
      [
        "ma",
        -9.222471793277892
      ],
      [
        "given",
        -9.222850137447534
      ],
      [
        "▁parent",
        -9.223461412619987
      ],
      [
        "▁agreement",
        -9.227026387195583
      ],
      [
        "▁key",
        -9.227541136585408
      ],
      [
        "▁sorr",
        -9.23346099600229
      ],
      [
        "▁hands",
        -9.234889231192076
      ],
      [
        "▁increase",
        -9.235491904437726
      ],
      [
        "▁source",
        -9.235494510559853
      ],
      [
        "hap",
        -9.236115309012357
      ],
      [
        "▁drive",
        -9.239380930832205
      ],
      [
        "▁site",
        -9.240157890940544
      ],
      [
        "j",
        -9.244067455183473
      ],
      [
        "▁beautiful",
        -9.244341857364919
      ],
      [
        "▁communit",
        -9.244599005298348
      ],
      [
        "▁cleve",
        -9.247009448059693
      ],
      [
        "▁woman",
        -9.250441460554661
      ],
      [
        "▁common",
        -9.25269151917678
      ],
      [
        "▁explain",
        -9.253270027672247
      ],
      [
        "▁george",
        -9.253270029990183
      ],
      [
        "▁balzac",
        -9.253270031607753
      ],
      [
        "▁attack",
        -9.253273410948339
      ],
      [
        "▁further",
        -9.253275486619359
      ],
      [
        "▁dead",
        -9.253744866326358
      ],
      [
        "▁mont",
        -9.254587084658791
      ],
      [
        "▁building",
        -9.25962010568745
      ],
      [
        "▁mo",
        -9.260496314653931
      ],
      [
        "▁health",
        -9.26055316343788
      ],
      [
        "▁court",
        -9.262304576984036
      ],
      [
        "▁exist",
        -9.262321289396457
      ],
      [
        "▁rock",
        -9.262343825113144
      ],
      [
        "history",
        -9.265617130284138
      ],
      [
        "ling",
        -9.267109145755214
      ],
      [
        "9",
        -9.271036155232428
      ],
      [
        "▁document",
        -9.27137055224647
      ],
      [
        "▁stand",
        -9.271730230744483
      ],
      [
        "▁bus",
        -9.272207919687766
      ],
      [
        "▁beach",
        -9.274632987138187
      ],
      [
        "▁development",
        -9.27463672809779
      ],
      [
        "▁speak",
        -9.277473661024437
      ],
      [
        "▁kne",
        -9.277649917927985
      ],
      [
        "▁oil",
        -9.27795250616526
      ],
      [
        "▁date",
        -9.278501444809464
      ],
      [
        "▁rath",
        -9.27922217284827
      ],
      [
        "▁discuss",
        -9.280175595172125
      ],
      [
        "ton",
        -9.28034372586276
      ],
      [
        "▁seattle",
        -9.280533824798905
      ],
      [
        "▁voice",
        -9.280548915028822
      ],
      [
        "▁charge",
        -9.281298251310849
      ],
      [
        "ver",
        -9.281379162454073
      ],
      [
        "▁leg",
        -9.285956683667614
      ],
      [
        "▁america",
        -9.286323277760086
      ],
      [
        "taken",
        -9.28768737041544
      ],
      [
        "▁agree",
        -9.289488016599526
      ],
      [
        "▁kansa",
        -9.289500378032209
      ],
      [
        "▁depart",
        -9.289570398396975
      ],
      [
        "ory",
        -9.289905797471018
      ],
      [
        "head",
        -9.289978994358393
      ],
      [
        "▁position",
        -9.290027602799297
      ],
      [
        "▁sort",
        -9.29009688631288
      ],
      [
        "hours",
        -9.291874675348307
      ],
      [
        "▁bed",
        -9.29228597305574
      ],
      [
        "▁step",
        -9.293579781163817
      ],
      [
        "▁mark",
        -9.29418770118108
      ],
      [
        "ng",
        -9.295241168109335
      ],
      [
        "ical",
        -9.296566285789403
      ],
      [
        "▁personal",
        -9.296630766985398
      ],
      [
        "▁program",
        -9.296862043260322
      ],
      [
        "▁plant",
        -9.298184515590677
      ],
      [
        "▁hug",
        -9.298245971556026
      ],
      [
        "▁specific",
        -9.298583456228933
      ],
      [
        "▁request",
        -9.299149351015721
      ],
      [
        "▁figure",
        -9.299149567821399
      ],
      [
        "▁moment",
        -9.299682254400205
      ],
      [
        "▁trie",
        -9.299869467110327
      ],
      [
        "▁boat",
        -9.300858073900116
      ],
      [
        "un",
        -9.306470869571452
      ],
      [
        "▁card",
        -9.306940263587776
      ],
      [
        "▁angel",
        -9.307384220100303
      ],
      [
        "▁especial",
        -9.308583293374351
      ],
      [
        "▁lunch",
        -9.308616462018175
      ],
      [
        "▁million",
        -9.308691639522795
      ],
      [
        "▁poor",
        -9.309116605608372
      ],
      [
        "▁fund",
        -9.31041535085794
      ],
      [
        "▁india",
        -9.311761537167005
      ],
      [
        "▁dress",
        -9.312455175704052
      ],
      [
        "▁warm",
        -9.315080944183691
      ],
      [
        "▁born",
        -9.315634050609406
      ],
      [
        "ge",
        -9.316174644255085
      ],
      [
        "▁address",
        -9.317132897063875
      ],
      [
        "▁words",
        -9.317417765739055
      ],
      [
        "▁detail",
        -9.318107132695562
      ],
      [
        "▁ticket",
        -9.318107146535255
      ],
      [
        "▁birthday",
        -9.318130877247137
      ],
      [
        "▁fit",
        -9.319181698507327
      ],
      [
        "▁license",
        -9.320896866647749
      ],
      [
        "▁require",
        -9.321421861314532
      ],
      [
        "▁notice",
        -9.321824037108293
      ],
      [
        "▁wrong",
        -9.327583080429662
      ],
      [
        "▁subject",
        -9.327722467970936
      ],
      [
        "▁finger",
        -9.327785860099926
      ],
      [
        "▁doggie",
        -9.327792191517648
      ],
      [
        "▁item",
        -9.329225994106906
      ],
      [
        "▁#",
        -9.331827025711513
      ],
      [
        "▁official",
        -9.334188638220951
      ],
      [
        "▁comment",
        -9.336634010516198
      ],
      [
        "▁breakfast",
        -9.337431203582199
      ],
      [
        "▁activit",
        -9.33743242346427
      ],
      [
        "▁difference",
        -9.337435586275188
      ],
      [
        "▁above",
        -9.33743976845393
      ],
      [
        "▁excellent",
        -9.33755777641878
      ],
      [
        "▁connection",
        -9.33759973321517
      ],
      [
        "ought",
        -9.337933928836389
      ],
      [
        "▁design",
        -9.3396959709929
      ],
      [
        "▁pen",
        -9.341274413341607
      ],
      [
        "sterda",
        -9.342312734714648
      ],
      [
        "▁<",
        -9.342933037443999
      ],
      [
        "up",
        -9.345487104189061
      ],
      [
        "▁suggest",
        -9.34686318976625
      ],
      [
        "▁wonder",
        -9.347047500272053
      ],
      [
        "▁attention",
        -9.347235241179602
      ],
      [
        "aught",
        -9.34743792864527
      ],
      [
        "▁button",
        -9.349878035852033
      ],
      [
        "▁iran",
        -9.35124157833937
      ],
      [
        "▁turned",
        -9.354452461960932
      ],
      [
        "▁hell",
        -9.356743636293304
      ],
      [
        "▁effort",
        -9.357136114416566
      ],
      [
        "▁decision",
        -9.357136301262415
      ],
      [
        "▁daily",
        -9.357144207563572
      ],
      [
        "▁yellow",
        -9.357149626626997
      ],
      [
        "▁summer",
        -9.35735714128776
      ],
      [
        "▁glass",
        -9.358361734558507
      ],
      [
        "▁fill",
        -9.358645755467355
      ],
      [
        "▁hat",
        -9.360872708846314
      ],
      [
        "▁dec",
        -9.361016087443907
      ],
      [
        "▁east",
        -9.362681382162782
      ],
      [
        "bi",
        -9.366222666106582
      ],
      [
        "▁studie",
        -9.367136145534449
      ],
      [
        "▁texa",
        -9.367136185134461
      ],
      [
        "▁nose",
        -9.367883601499091
      ],
      [
        "▁gas",
        -9.371222469803246
      ],
      [
        "▁expens",
        -9.3712862780698
      ],
      [
        "▁slow",
        -9.372707157584495
      ],
      [
        "▁touch",
        -9.375764824549261
      ],
      [
        "▁di",
        -9.376562486328986
      ],
      [
        "▁shop",
        -9.37847110181173
      ],
      [
        "@",
        -9.378566312421405
      ],
      [
        "▁cook",
        -9.380129118232162
      ],
      [
        "▁code",
        -9.386551233399135
      ],
      [
        "▁filter",
        -9.387464080072611
      ],
      [
        "▁europe",
        -9.387649877186735
      ],
      [
        "▁earth",
        -9.387653700260495
      ],
      [
        "▁natural",
        -9.392413731165934
      ],
      [
        "▁listen",
        -9.392451629240071
      ],
      [
        "▁funn",
        -9.392538886974634
      ],
      [
        "animals",
        -9.394873706870165
      ],
      [
        "ke",
        -9.397019452665024
      ],
      [
        "▁surprise",
        -9.397750484487435
      ],
      [
        "▁square",
        -9.397750484507068
      ],
      [
        "▁message",
        -9.398352040729058
      ],
      [
        "▁bill",
        -9.399159379539089
      ],
      [
        "came",
        -9.40192064235088
      ],
      [
        "▁tie",
        -9.402340311349032
      ],
      [
        "▁tree",
        -9.403048535799108
      ],
      [
        "▁education",
        -9.408319806195745
      ],
      [
        "▁dirt",
        -9.408332391095385
      ],
      [
        "▁link",
        -9.408352352926876
      ],
      [
        "▁treat",
        -9.408524420862488
      ],
      [
        "▁moral",
        -9.408866280110518
      ],
      [
        "▁save",
        -9.409053306879102
      ],
      [
        "▁services",
        -9.409395060119145
      ],
      [
        "nstead",
        -9.41006014449998
      ],
      [
        "▁mouth",
        -9.414748719464534
      ],
      [
        "ol",
        -9.416998151380323
      ],
      [
        "▁peace",
        -9.418589605048016
      ],
      [
        "▁global",
        -9.418693466954627
      ],
      [
        "▁serious",
        -9.418698283038836
      ],
      [
        "▁equal",
        -9.4189530475963
      ],
      [
        "▁rain",
        -9.419097545787164
      ],
      [
        "▁vote",
        -9.420684451798778
      ],
      [
        "fore",
        -9.420873624774249
      ],
      [
        "▁fell",
        -9.421403429419447
      ],
      [
        "▁lay",
        -9.422298855710189
      ],
      [
        "▁original",
        -9.422954572626342
      ],
      [
        "▁attache",
        -9.426314290836283
      ],
      [
        "▁hundred",
        -9.429331769071293
      ],
      [
        "▁culture",
        -9.429331820456948
      ],
      [
        "▁ma",
        -9.429697676142379
      ],
      [
        "▁members",
        -9.430179714249398
      ],
      [
        "▁lead",
        -9.432477047847447
      ],
      [
        "real",
        -9.43334872305827
      ],
      [
        "▁saying",
        -9.43410131172246
      ],
      [
        "▁30",
        -9.437117730378862
      ],
      [
        "▁age",
        -9.437172280612625
      ],
      [
        "▁works",
        -9.43825315842958
      ],
      [
        "ame",
        -9.439943418377595
      ],
      [
        "▁entire",
        -9.440086994565432
      ],
      [
        "▁jump",
        -9.440099294806839
      ],
      [
        "lie",
        -9.44043305139423
      ],
      [
        "▁sense",
        -9.441503251995933
      ],
      [
        "ell",
        -9.444886023403242
      ],
      [
        "▁reach",
        -9.446454959474906
      ],
      [
        "▁nov",
        -9.4495655073376
      ],
      [
        "▁product",
        -9.449718401503606
      ],
      [
        "▁co",
        -9.450123393075764
      ],
      [
        "▁ha",
        -9.450371398082718
      ],
      [
        "▁except",
        -9.450567716450966
      ],
      [
        "▁video",
        -9.450954509841294
      ],
      [
        "▁situation",
        -9.450985024196136
      ],
      [
        "▁joke",
        -9.451043577869264
      ],
      [
        "kept",
        -9.451057302426563
      ],
      [
        "▁station",
        -9.4511039352032
      ],
      [
        "▁toward",
        -9.457786428738048
      ],
      [
        "▁ho",
        -9.45914420460392
      ],
      [
        "▁california",
        -9.461943029193467
      ],
      [
        "▁according",
        -9.464393798253909
      ],
      [
        "▁meal",
        -9.467305754521234
      ],
      [
        "▁total",
        -9.468581252792738
      ],
      [
        "rench",
        -9.471743763605613
      ],
      [
        "time",
        -9.471857912718825
      ],
      [
        "▁financial",
        -9.473055155300514
      ],
      [
        "▁focus",
        -9.47306103664041
      ],
      [
        "ville",
        -9.47311210791758
      ],
      [
        "internet",
        -9.473162263219523
      ],
      [
        "▁199",
        -9.473169165048795
      ],
      [
        "▁tire",
        -9.473230764085267
      ],
      [
        "▁computer",
        -9.47327578238847
      ],
      [
        "▁books",
        -9.474598085817089
      ],
      [
        "▁heart",
        -9.475660674753122
      ],
      [
        "▁london",
        -9.478505480818852
      ],
      [
        "▁mm",
        -9.480428448958286
      ],
      [
        "▁web",
        -9.48072785972948
      ],
      [
        "▁seat",
        -9.482838184661812
      ],
      [
        "▁scar",
        -9.48340280267465
      ],
      [
        "▁measure",
        -9.483783110525653
      ],
      [
        "▁bar",
        -9.483876930750107
      ],
      [
        "▁runn",
        -9.484089762105675
      ],
      [
        "▁pocket",
        -9.484290100006632
      ],
      [
        "▁contact",
        -9.484296387477514
      ],
      [
        "▁foot",
        -9.484299831221687
      ],
      [
        "▁mention",
        -9.484588926873448
      ],
      [
        "▁march",
        -9.484680772111556
      ],
      [
        "▁easi",
        -9.487918843895233
      ],
      [
        "▁manage",
        -9.491353282014357
      ],
      [
        "▁true",
        -9.492994277165591
      ],
      [
        "▁attempt",
        -9.49565373545919
      ],
      [
        "▁condition",
        -9.495654319318366
      ],
      [
        "▁role",
        -9.495977256187338
      ],
      [
        "▁schedule",
        -9.496637462556148
      ],
      [
        "▁writing",
        -9.499757216010629
      ],
      [
        "to",
        -9.501947237712361
      ],
      [
        "▁image",
        -9.502585984244803
      ],
      [
        "▁region",
        -9.505290057955552
      ],
      [
        "▁louis",
        -9.507083989462197
      ],
      [
        "▁vari",
        -9.50715630331109
      ],
      [
        "▁etc",
        -9.507263083113996
      ],
      [
        "▁wide",
        -9.51048249750217
      ],
      [
        "▁tin",
        -9.515301133976564
      ],
      [
        "▁necessar",
        -9.518775907108882
      ],
      [
        "▁application",
        -9.518787971464924
      ],
      [
        "mphi",
        -9.51885208520931
      ],
      [
        "▁honey",
        -9.518855007639225
      ],
      [
        "▁laugh",
        -9.519017535847773
      ],
      [
        "▁!!",
        -9.519095504829354
      ],
      [
        "pa",
        -9.51912176944303
      ],
      [
        "▁church",
        -9.51925028941398
      ],
      [
        "▁carry",
        -9.520196579238128
      ],
      [
        "▁anyway",
        -9.520493070846324
      ],
      [
        "▁driv",
        -9.52077592549944
      ],
      [
        "▁expect",
        -9.521119257113211
      ],
      [
        "▁roll",
        -9.52147682503382
      ],
      [
        "▁da",
        -9.522003271932482
      ],
      [
        "table",
        -9.52390385197878
      ],
      [
        "▁dry",
        -9.525010849610172
      ],
      [
        "▁describe",
        -9.525522008107774
      ],
      [
        "night",
        -9.527778920548826
      ],
      [
        ",000",
        -9.530298558458334
      ],
      [
        "▁extreme",
        -9.530540600509374
      ],
      [
        "▁exact",
        -9.53054060671722
      ],
      [
        "ship",
        -9.531321475262162
      ],
      [
        "▁catch",
        -9.531490511598019
      ],
      [
        "▁wish",
        -9.532715590805804
      ],
      [
        "2005",
        -9.533813012130038
      ],
      [
        "itting",
        -9.535205413654674
      ],
      [
        "▁pre",
        -9.536952425294292
      ],
      [
        "▁river",
        -9.542447015503829
      ],
      [
        "▁website",
        -9.54245533112593
      ],
      [
        "▁spoke",
        -9.542458363780348
      ],
      [
        "▁press",
        -9.543744565386097
      ],
      [
        "▁police",
        -9.54496472535226
      ],
      [
        "▁nine",
        -9.545700655649657
      ],
      [
        "▁qa",
        -9.547697008495298
      ],
      [
        "▁fight",
        -9.548672263215295
      ],
      [
        "tra",
        -9.550371830749375
      ],
      [
        "▁ok",
        -9.550818470593207
      ],
      [
        "am",
        -9.550880167961285
      ],
      [
        "▁shirt",
        -9.551059181587329
      ],
      [
        "▁parliament",
        -9.554493552817377
      ],
      [
        "▁location",
        -9.554493780787787
      ],
      [
        "▁interview",
        -9.554502264786347
      ],
      [
        "▁bottle",
        -9.554580256203653
      ],
      [
        "▁toast",
        -9.554908626216566
      ],
      [
        "▁feed",
        -9.55605623011457
      ],
      [
        "▁low",
        -9.558228096979883
      ],
      [
        "▁animal",
        -9.558772095940325
      ],
      [
        "hol",
        -9.562027609005087
      ],
      [
        "ut",
        -9.562924798003667
      ],
      [
        "ial",
        -9.563932432967317
      ],
      [
        "▁wall",
        -9.566548655837662
      ],
      [
        "▁response",
        -9.566688674121746
      ],
      [
        "▁cheese",
        -9.566734924014822
      ],
      [
        "▁israel",
        -9.566872956440172
      ],
      [
        "rought",
        -9.567266414186022
      ],
      [
        "▁center",
        -9.567354199101315
      ],
      [
        "▁trouble",
        -9.569455621754162
      ],
      [
        "rote",
        -9.570356433324545
      ],
      [
        "▁allow",
        -9.572259049912827
      ],
      [
        "▁decided",
        -9.572413947511766
      ],
      [
        "▁plann",
        -9.573225930598623
      ],
      [
        "▁produce",
        -9.574374820109579
      ],
      [
        "▁met",
        -9.576461025728655
      ],
      [
        "ard",
        -9.577914656570748
      ],
      [
        "▁respect",
        -9.578541884824286
      ],
      [
        "▁express",
        -9.578661855120743
      ],
      [
        "▁coffee",
        -9.579034367201183
      ],
      [
        "▁banana",
        -9.579056765914508
      ],
      [
        "▁article",
        -9.579453078906253
      ],
      [
        "▁2000",
        -9.579767030449148
      ],
      [
        "ul",
        -9.580887606843895
      ],
      [
        "▁lives",
        -9.580979085198262
      ],
      [
        "▁effect",
        -9.5810262067621
      ],
      [
        "▁method",
        -9.581739965195364
      ],
      [
        "▁mam",
        -9.582183775491627
      ],
      [
        "▁simpl",
        -9.582511500104253
      ],
      [
        "▁fix",
        -9.582726387519015
      ],
      [
        "▁supposed",
        -9.582854238197637
      ],
      [
        "wa",
        -9.582988744147611
      ],
      [
        "▁ship",
        -9.58299579343797
      ],
      [
        "known",
        -9.585728055379638
      ],
      [
        "ble",
        -9.587357474863847
      ],
      [
        "▁momm",
        -9.59031882555237
      ],
      [
        "▁correct",
        -9.591135409246123
      ],
      [
        "▁establish",
        -9.591199816683261
      ],
      [
        "▁xml",
        -9.591535452205235
      ],
      [
        "▁brother",
        -9.59171256850113
      ],
      [
        "▁music",
        -9.591893814116016
      ],
      [
        "▁professional",
        -9.591893957584276
      ],
      [
        "▁clothes",
        -9.592408331538316
      ],
      [
        "▁board",
        -9.59769363740402
      ],
      [
        "▁limit",
        -9.598493735873184
      ],
      [
        "▁blow",
        -9.601339602158582
      ],
      [
        "▁busy",
        -9.603340812917352
      ],
      [
        "ursu",
        -9.604034024043855
      ],
      [
        "▁benefit",
        -9.60419258551764
      ],
      [
        "century",
        -9.604195099998247
      ],
      [
        "▁jose",
        -9.604365444455068
      ],
      [
        "▁basic",
        -9.605028757166341
      ],
      [
        "mike",
        -9.605806760246097
      ],
      [
        "▁copy",
        -9.605969521257192
      ],
      [
        "▁policy",
        -9.607586368143515
      ],
      [
        "▁pro",
        -9.609254270203614
      ],
      [
        "▁legal",
        -9.61005899300328
      ],
      [
        "▁model",
        -9.610916612522498
      ],
      [
        "▁bite",
        -9.611682842718267
      ],
      [
        "▁stor",
        -9.61564020151745
      ],
      [
        "▁perfect",
        -9.61661433117304
      ],
      [
        "▁kitt",
        -9.616742033513498
      ],
      [
        "▁thousand",
        -9.617013196005946
      ],
      [
        "▁credit",
        -9.617013470603467
      ],
      [
        "▁capital",
        -9.617168328244263
      ],
      [
        "janu",
        -9.618472926794299
      ],
      [
        "▁stopp",
        -9.619711677499275
      ],
      [
        "▁programme",
        -9.62016778772118
      ],
      [
        "▁band",
        -9.62041148641521
      ],
      [
        "▁risk",
        -9.62249582809561
      ],
      [
        "ern",
        -9.6228230299025
      ],
      [
        "▁25",
        -9.62392075962967
      ],
      [
        "iz",
        -9.624309159666907
      ],
      [
        "▁god",
        -9.624399425659277
      ],
      [
        "▁tea",
        -9.624913155871642
      ],
      [
        "00",
        -9.627279813154061
      ],
      [
        "▁tape",
        -9.628673420061206
      ],
      [
        "▁implement",
        -9.63000010842476
      ],
      [
        "▁interesting",
        -9.635622634824017
      ],
      [
        "▁eggs",
        -9.638872826409635
      ],
      [
        "▁protect",
        -9.642788604672397
      ],
      [
        "▁opportunit",
        -9.643158001505945
      ],
      [
        "▁dinosaur",
        -9.643158053185688
      ],
      [
        "▁horsie",
        -9.643158491770572
      ],
      [
        "▁lack",
        -9.64335290147757
      ],
      [
        "▁fe",
        -9.643895192621116
      ],
      [
        "▁heat",
        -9.645708892671443
      ],
      [
        "▁begin",
        -9.645935491924284
      ],
      [
        "ext",
        -9.647535727139077
      ],
      [
        "▁taste",
        -9.648469540351181
      ],
      [
        "▁spend",
        -9.653657508579858
      ],
      [
        "▁share",
        -9.654334283899612
      ],
      [
        "▁deep",
        -9.656223545320879
      ],
      [
        "▁attend",
        -9.656410811179867
      ],
      [
        "▁individual",
        -9.656491334822192
      ],
      [
        "▁favorite",
        -9.656492078068059
      ],
      [
        "▁display",
        -9.656529535798407
      ],
      [
        "▁chance",
        -9.65659616495224
      ],
      [
        "▁indian",
        -9.657423355706943
      ],
      [
        "▁bowl",
        -9.657425474599266
      ],
      [
        "▁teacher",
        -9.657601474198891
      ],
      [
        "▁hole",
        -9.658975277183359
      ],
      [
        "▁spen",
        -9.660906217340049
      ],
      [
        "▁vi",
        -9.66132651039776
      ],
      [
        "▁egg",
        -9.66287215237973
      ],
      [
        "▁join",
        -9.665476100419786
      ],
      [
        "▁sat",
        -9.66709875026288
      ],
      [
        "que",
        -9.667501392792916
      ],
      [
        "▁pictures",
        -9.667946796804248
      ],
      [
        "▁science",
        -9.668877230120238
      ],
      [
        "▁christ",
        -9.669053098903134
      ],
      [
        "▁13",
        -9.670056837856903
      ],
      [
        "▁sevent",
        -9.670481296480114
      ],
      [
        "▁department",
        -9.670483412037596
      ],
      [
        "▁sa",
        -9.670603994473836
      ],
      [
        "▁juic",
        -9.671572975464667
      ],
      [
        "nati",
        -9.672944052042988
      ],
      [
        "▁former",
        -9.675220613764957
      ],
      [
        "▁fast",
        -9.6823550805322
      ],
      [
        "▁knowledge",
        -9.683703755024752
      ],
      [
        "▁sweet",
        -9.683714053121207
      ],
      [
        "▁election",
        -9.68375057790221
      ],
      [
        "▁population",
        -9.683816588097304
      ],
      [
        "▁camp",
        -9.68385010525161
      ],
      [
        "▁film",
        -9.684267409865003
      ],
      [
        "2001",
        -9.68462563009524
      ],
      [
        "▁enter",
        -9.684691606617378
      ],
      [
        "▁committee",
        -9.685432766748828
      ],
      [
        "▁normal",
        -9.686765004370724
      ],
      [
        "▁size",
        -9.688150297589063
      ],
      [
        "▁song",
        -9.688651805591247
      ],
      [
        "▁proper",
        -9.692457407326316
      ],
      [
        "▁environment",
        -9.693777286771422
      ],
      [
        "▁sky",
        -9.695966134764218
      ],
      [
        "▁similar",
        -9.697592367361906
      ],
      [
        "▁pencil",
        -9.697592390863555
      ],
      [
        "ritten",
        -9.697592875707066
      ],
      [
        "▁definite",
        -9.697593249635023
      ],
      [
        "▁fresh",
        -9.697594669657123
      ],
      [
        "incin",
        -9.697597130528724
      ],
      [
        "▁single",
        -9.698265300284387
      ],
      [
        "▁ensure",
        -9.698957246215503
      ],
      [
        "▁feeling",
        -9.69964929371854
      ],
      [
        "ow",
        -9.700098416719026
      ],
      [
        "aima",
        -9.701701177922459
      ],
      [
        "doc",
        -9.701714045978862
      ],
      [
        "▁author",
        -9.70272634558237
      ],
      [
        "ring",
        -9.708436303618065
      ],
      [
        "istan",
        -9.708618052338295
      ],
      [
        "lin",
        -9.709260587556557
      ],
      [
        "▁wine",
        -9.709417399686657
      ],
      [
        "by",
        -9.709913030258944
      ],
      [
        "▁council",
        -9.711676418475335
      ],
      [
        "▁afghan",
        -9.711676879239327
      ],
      [
        "▁section",
        -9.711678796338003
      ],
      [
        "▁orange",
        -9.71168474452815
      ],
      [
        "▁minne",
        -9.711751840532674
      ],
      [
        "▁winter",
        -9.711789315668955
      ],
      [
        "▁significant",
        -9.712431877480796
      ],
      [
        "ka",
        -9.712965971844788
      ],
      [
        "▁structure",
        -9.713526244076412
      ],
      [
        "tion",
        -9.715320447232061
      ],
      [
        "▁cultural",
        -9.718614661581416
      ],
      [
        "▁style",
        -9.721163858001741
      ],
      [
        "▁contain",
        -9.722102244674222
      ],
      [
        "wise",
        -9.72310055118416
      ],
      [
        "▁flower",
        -9.72407106966611
      ],
      [
        "ampa",
        -9.724334291700039
      ],
      [
        "▁pack",
        -9.72581657289173
      ],
      [
        "▁modern",
        -9.725968107295268
      ],
      [
        "▁sister",
        -9.726667349900657
      ],
      [
        "▁paris",
        -9.726854891184988
      ],
      [
        "▁writer",
        -9.730723302149174
      ],
      [
        "▁citi",
        -9.731247707540003
      ],
      [
        "board",
        -9.734514372975038
      ],
      [
        "ball",
        -9.735456526331923
      ],
      [
        "ten",
        -9.736529599559097
      ],
      [
        "ban",
        -9.738336094936113
      ],
      [
        "▁element",
        -9.74045806748644
      ],
      [
        "▁stillman",
        -9.74201174436058
      ],
      [
        "q",
        -9.74267333231628
      ],
      [
        "pe",
        -9.745087306711893
      ],
      [
        "day",
        -9.746262488875178
      ],
      [
        "▁owner",
        -9.746481118618597
      ],
      [
        "▁wash",
        -9.747210719414124
      ],
      [
        "▁trust",
        -9.747529212125123
      ],
      [
        "▁nor",
        -9.748309549724107
      ],
      [
        "me",
        -9.74935414636608
      ],
      [
        "ize",
        -9.751282857082785
      ],
      [
        "▁factor",
        -9.751978589810024
      ],
      [
        "▁contract",
        -9.754788948520382
      ],
      [
        "▁plane",
        -9.754984426574417
      ],
      [
        "za",
        -9.755144359341456
      ],
      [
        "▁avoid",
        -9.755161229833192
      ],
      [
        "▁draft",
        -9.75516124253118
      ],
      [
        "▁discover",
        -9.755180165069554
      ],
      [
        "▁cool",
        -9.755317914032538
      ],
      [
        "ated",
        -9.756999183769715
      ],
      [
        "men",
        -9.75742176758597
      ],
      [
        "side",
        -9.75758638880939
      ],
      [
        "▁union",
        -9.757814241853168
      ],
      [
        "▁content",
        -9.76034991455687
      ],
      [
        "▁bread",
        -9.762420685522327
      ],
      [
        "ley",
        -9.762480911671297
      ],
      [
        "bra",
        -9.762671170510112
      ],
      [
        "▁purpose",
        -9.770086597826602
      ],
      [
        "▁college",
        -9.77008660199133
      ],
      [
        "▁material",
        -9.770086626574553
      ],
      [
        "▁apply",
        -9.770101368884221
      ],
      [
        "▁u.s.",
        -9.77016092256641
      ],
      [
        "▁bank",
        -9.770307405782379
      ],
      [
        "▁non-",
        -9.77057673846306
      ],
      [
        "▁hang",
        -9.770826338591258
      ],
      [
        "▁option",
        -9.771293921114204
      ],
      [
        "▁pan",
        -9.772124994318528
      ],
      [
        "▁spot",
        -9.772210307294182
      ],
      [
        "▁user",
        -9.7725977645097
      ],
      [
        "▁release",
        -9.772673542286228
      ],
      [
        "▁note",
        -9.773592029486894
      ],
      [
        "pite",
        -9.773638036197937
      ],
      [
        "▁build",
        -9.774520787383507
      ],
      [
        "▁li",
        -9.77959618415152
      ],
      [
        "▁imagine",
        -9.779917628883577
      ],
      [
        "▁pet",
        -9.780275908790127
      ],
      [
        "▁body",
        -9.780608024909213
      ],
      [
        "ph",
        -9.781405488880342
      ],
      [
        "▁stick",
        -9.781962041750315
      ],
      [
        "▁dan",
        -9.782923278651323
      ],
      [
        "ax",
        -9.783787697190467
      ],
      [
        "▁text",
        -9.783956998623697
      ],
      [
        "▁object",
        -9.784580298140643
      ],
      [
        "▁weapon",
        -9.784831481171036
      ],
      [
        "bru",
        -9.784989222997316
      ],
      [
        "▁immediate",
        -9.785238113257092
      ],
      [
        "▁choice",
        -9.785238144991004
      ],
      [
        "▁!!!",
        -9.78523998710183
      ],
      [
        "▁daughter",
        -9.78524288231819
      ],
      [
        "▁smell",
        -9.785259174464777
      ],
      [
        "▁freedom",
        -9.785291403132787
      ],
      [
        "▁balance",
        -9.785297970897048
      ],
      [
        "▁weekend",
        -9.785364168289176
      ],
      [
        "▁nash",
        -9.786193392522243
      ],
      [
        "▁proposal",
        -9.78652897619099
      ],
      [
        "den",
        -9.787081112944382
      ],
      [
        "▁drop",
        -9.787818629343331
      ],
      [
        "bo",
        -9.789809948741592
      ],
      [
        "▁bigge",
        -9.790715925089376
      ],
      [
        "▁toys",
        -9.791460813423914
      ],
      [
        "▁sell",
        -9.791798941154907
      ],
      [
        "▁conference",
        -9.792719875119678
      ],
      [
        "der",
        -9.793723174916359
      ],
      [
        "▁reading",
        -9.793910993533501
      ],
      [
        "▁iraqi",
        -9.79443260715707
      ],
      [
        "if",
        -9.796788442961716
      ],
      [
        "▁super",
        -9.797825376278308
      ],
      [
        "▁depend",
        -9.800059894041423
      ],
      [
        "▁character",
        -9.80010936691262
      ],
      [
        "▁regular",
        -9.800622755236292
      ],
      [
        "▁conversation",
        -9.80062275938968
      ],
      [
        "▁amazing",
        -9.800623027550245
      ],
      [
        "▁pizza",
        -9.800626301292745
      ],
      [
        "▁private",
        -9.800630075403092
      ],
      [
        "▁approach",
        -9.800630078654883
      ],
      [
        "▁garden",
        -9.80064791951618
      ],
      [
        "▁percentage",
        -9.800756262712188
      ],
      [
        "▁jo",
        -9.801266498345191
      ],
      [
        "ba",
        -9.803789836953028
      ],
      [
        "2002",
        -9.806226720579868
      ],
      [
        "▁ne",
        -9.806641024857976
      ],
      [
        "line",
        -9.807951429194928
      ],
      [
        "▁track",
        -9.808687203715184
      ],
      [
        "▁fan",
        -9.809011803437201
      ],
      [
        "04",
        -9.811619857231127
      ],
      [
        "▁sub",
        -9.81495579292656
      ],
      [
        "▁bottom",
        -9.81624888455551
      ],
      [
        "▁forgot",
        -9.816343268386229
      ],
      [
        "▁stopover",
        -9.816410807734734
      ],
      [
        "▁marriage",
        -9.816440634138225
      ],
      [
        "▁desk",
        -9.816719146887912
      ],
      [
        "▁octo",
        -9.817245574336177
      ],
      [
        "▁sad",
        -9.818895537461184
      ],
      [
        "▁memor",
        -9.819328468796403
      ],
      [
        "▁affect",
        -9.81964649138688
      ],
      [
        "▁practice",
        -9.821482804827632
      ],
      [
        "▁cage",
        -9.821821646236907
      ],
      [
        "▁wind",
        -9.823343661043054
      ],
      [
        "▁pa",
        -9.824293033343189
      ],
      [
        "dding",
        -9.827208917207829
      ],
      [
        "nasa",
        -9.829058140483841
      ],
      [
        "▁trade",
        -9.830617392060867
      ],
      [
        "▁soft",
        -9.830685315338165
      ],
      [
        "▁congress",
        -9.83212074517401
      ],
      [
        "▁jeff",
        -9.8321207607825
      ],
      [
        "industry",
        -9.832125270945646
      ],
      [
        "▁initial",
        -9.832133948500315
      ],
      [
        "▁novel",
        -9.832517767986516
      ],
      [
        "▁directive",
        -9.832638896580356
      ],
      [
        "▁detr",
        -9.83395274811541
      ],
      [
        "▁engl",
        -9.834508088208718
      ],
      [
        "▁citizens",
        -9.834901822670005
      ],
      [
        "▁circle",
        -9.835618668826786
      ],
      [
        "▁additional",
        -9.837961385367189
      ],
      [
        "▁related",
        -9.838691165591062
      ],
      [
        "eating",
        -9.838898944209939
      ],
      [
        "<",
        -9.839146915763596
      ],
      [
        "nature",
        -9.839366831252967
      ],
      [
        "▁arab",
        -9.841619909784372
      ],
      [
        "▁print",
        -9.842973354020703
      ],
      [
        "▁raise",
        -9.843423119848616
      ],
      [
        "ect",
        -9.846567161221211
      ],
      [
        "▁maintain",
        -9.84824981134036
      ],
      [
        "▁campaign",
        -9.848249860097173
      ],
      [
        "▁search",
        -9.848260636226179
      ],
      [
        "▁choose",
        -9.848348057291776
      ],
      [
        "▁block",
        -9.848354458822566
      ],
      [
        "▁organization",
        -9.848366324861711
      ],
      [
        "▁neck",
        -9.848378123273388
      ],
      [
        "▁luck",
        -9.848432131313018
      ],
      [
        "▁corner",
        -9.848542807639053
      ],
      [
        "▁wonderful",
        -9.848602981004895
      ],
      [
        "val",
        -9.849743262171636
      ],
      [
        "▁manager",
        -9.850972541839447
      ],
      [
        "01",
        -9.851668051046154
      ],
      [
        "▁cry",
        -9.8529162074909
      ],
      [
        "▁successful",
        -9.854115096278555
      ],
      [
        "▁tax",
        -9.857524805872718
      ],
      [
        "▁cow",
        -9.858122861703407
      ],
      [
        "mas",
        -9.859155170771462
      ],
      [
        "canada",
        -9.863214348257449
      ],
      [
        "▁ben",
        -9.863769206371183
      ],
      [
        "▁propose",
        -9.864018577791931
      ],
      [
        "▁reflect",
        -9.864262228107101
      ],
      [
        "▁kitchen",
        -9.864643230376679
      ],
      [
        "▁hospital",
        -9.864666988967251
      ],
      [
        "▁forget",
        -9.864686995408416
      ],
      [
        "▁mountain",
        -9.864693994756621
      ],
      [
        "▁beginning",
        -9.86469625452229
      ],
      [
        "▁noise",
        -9.864855593430631
      ],
      [
        "▁fear",
        -9.865338650370372
      ],
      [
        "the",
        -9.871274675988419
      ],
      [
        "▁du",
        -9.874199545424956
      ],
      [
        "▁meat",
        -9.875004288091016
      ],
      [
        "▁24",
        -9.875263789549617
      ],
      [
        "▁pai",
        -9.875845502531245
      ],
      [
        "▁popular",
        -9.87743734496597
      ],
      [
        "▁>",
        -9.878871797059038
      ],
      [
        "▁ra",
        -9.8792704688856
      ],
      [
        "▁solution",
        -9.8813098884217
      ],
      [
        "▁pivot",
        -9.881309891627115
      ],
      [
        "▁estimate",
        -9.881309959474383
      ],
      [
        "▁expert",
        -9.88131020514642
      ],
      [
        "▁dream",
        -9.88131094968128
      ],
      [
        "▁administration",
        -9.881508508787235
      ],
      [
        "▁hall",
        -9.883073982675
      ],
      [
        "abilit",
        -9.883896664097735
      ],
      [
        "▁kar",
        -9.886854672797245
      ],
      [
        "▁wil",
        -9.887894913851088
      ],
      [
        "▁sick",
        -9.888129519581842
      ],
      [
        "▁reference",
        -9.889178437052202
      ],
      [
        "▁paint",
        -9.895707452857991
      ],
      [
        "▁news",
        -9.89658643658743
      ],
      [
        "▁represent",
        -9.89766840350115
      ],
      [
        "▁central",
        -9.897841719389916
      ],
      [
        "▁magic",
        -9.898153980832076
      ],
      [
        "▁pott",
        -9.898158871495973
      ],
      [
        "▁perform",
        -9.898186638001068
      ],
      [
        "▁electric",
        -9.898264151693875
      ],
      [
        "▁decade",
        -9.898315425291134
      ],
      [
        "▁root",
        -9.898516071481911
      ],
      [
        "▁fax",
        -9.89853003156525
      ],
      [
        "▁protection",
        -9.898736327878638
      ],
      [
        "▁mix",
        -9.899053505489828
      ],
      [
        "▁cake",
        -9.900733281387957
      ],
      [
        "▁involve",
        -9.901562975774794
      ],
      [
        "▁slight",
        -9.901677173853443
      ],
      [
        "▁employ",
        -9.901713782703276
      ],
      [
        "▁....",
        -9.90172232613978
      ],
      [
        "▁rep",
        -9.901734659067362
      ],
      [
        "▁confirm",
        -9.901938198332447
      ],
      [
        "▁seek",
        -9.903302305501953
      ],
      [
        "▁simple",
        -9.905218474980277
      ],
      [
        "▁advance",
        -9.90865817851856
      ],
      [
        "▁tank",
        -9.909263363327035
      ],
      [
        "▁determine",
        -9.910121331069078
      ],
      [
        "▁allowed",
        -9.910580429022925
      ],
      [
        "▁14",
        -9.911773339786762
      ],
      [
        "▁bug",
        -9.91260276038301
      ],
      [
        "our",
        -9.91276830316932
      ],
      [
        "▁media",
        -9.913879568911636
      ],
      [
        "oach",
        -9.914085367488486
      ],
      [
        "▁boot",
        -9.914296251690168
      ],
      [
        "▁mail",
        -9.91469375739693
      ],
      [
        "99",
        -9.915314391649291
      ],
      [
        "▁absolute",
        -9.915500417609689
      ],
      [
        "▁michael",
        -9.915500418025095
      ],
      [
        "▁potential",
        -9.91550042397089
      ],
      [
        "▁adult",
        -9.915501784515993
      ],
      [
        "▁overall",
        -9.9155785529851
      ],
      [
        "giving",
        -9.915636435630667
      ],
      [
        "▁repair",
        -9.915703758479577
      ],
      [
        "▁machine",
        -9.91585284110753
      ],
      [
        "▁demand",
        -9.915855763669594
      ],
      [
        "ill",
        -9.915907151146548
      ],
      [
        "▁requirement",
        -9.916095346372831
      ],
      [
        "▁accident",
        -9.917735234393678
      ],
      [
        "▁port",
        -9.918174530917973
      ],
      [
        "▁regional",
        -9.918302771300063
      ],
      [
        "▁hop",
        -9.919357901463101
      ],
      [
        "older",
        -9.919977073066384
      ],
      [
        "▁unit",
        -9.921918413531781
      ],
      [
        "▁effective",
        -9.92196455426576
      ],
      [
        "▁ran",
        -9.92255210602984
      ],
      [
        "▁butter",
        -9.922603009747759
      ],
      [
        "chest",
        -9.924432909028367
      ],
      [
        "▁duck",
        -9.927449595709108
      ],
      [
        "▁promise",
        -9.931740304960272
      ],
      [
        "eries",
        -9.931783974375996
      ],
      [
        "▁concept",
        -9.93251233046126
      ],
      [
        ":00",
        -9.932640591194126
      ],
      [
        "@enron",
        -9.933027976440375
      ],
      [
        "▁google",
        -9.933044345303479
      ],
      [
        "▁straight",
        -9.933044404108948
      ],
      [
        "ock",
        -9.93304797038439
      ],
      [
        "▁sudden",
        -9.933071253761694
      ],
      [
        "▁aspect",
        -9.933076936504849
      ],
      [
        "▁adopt",
        -9.933193122628374
      ],
      [
        "▁intend",
        -9.93319343234528
      ],
      [
        "▁stoo",
        -9.933922815022978
      ],
      [
        "▁eastern",
        -9.934032743527265
      ],
      [
        "▁welcome",
        -9.935202103966205
      ],
      [
        "▁authorit",
        -9.935222121018437
      ],
      [
        "▁lower",
        -9.936046028817472
      ],
      [
        "ner",
        -9.937109480560329
      ],
      [
        "▁basi",
        -9.939740769405816
      ],
      [
        "how",
        -9.941272071810815
      ],
      [
        "▁mrs",
        -9.944349068066085
      ],
      [
        "▁holding",
        -9.94615034452035
      ],
      [
        "cal",
        -9.946468439970424
      ],
      [
        "▁separate",
        -9.94976337226392
      ],
      [
        "▁cap",
        -9.949964741861807
      ],
      [
        ":30",
        -9.950380221426585
      ],
      [
        "▁climb",
        -9.9509014361498
      ],
      [
        "▁impact",
        -9.950908185606984
      ],
      [
        "▁murder",
        -9.950911669428923
      ],
      [
        "▁brown",
        -9.950914611581897
      ],
      [
        "▁apple",
        -9.950928622412604
      ],
      [
        "▁david",
        -9.950977513757202
      ],
      [
        "▁federal",
        -9.950978159106207
      ],
      [
        "▁fail",
        -9.951007268078662
      ],
      [
        "▁launch",
        -9.951034741677596
      ],
      [
        "▁robin",
        -9.951228648512899
      ],
      [
        "▁pop",
        -9.951241991008601
      ],
      [
        "▁tail",
        -9.951252722019806
      ],
      [
        "products",
        -9.951383965987247
      ],
      [
        "▁careful",
        -9.95155215080332
      ],
      [
        "▁belong",
        -9.951847242676223
      ],
      [
        "yond",
        -9.952707203188817
      ],
      [
        "thus",
        -9.955710150650393
      ],
      [
        "log",
        -9.955784301271596
      ],
      [
        "▁lu",
        -9.956642667668444
      ],
      [
        "▁gun",
        -9.959839404847983
      ],
      [
        "▁format",
        -9.959965483721815
      ],
      [
        "45",
        -9.960909563647416
      ],
      [
        "▁wild",
        -9.961629837635554
      ],
      [
        "▁opening",
        -9.962694552526525
      ],
      [
        "▁fixed",
        -9.963714512756567
      ],
      [
        "▁standards",
        -9.965826856330498
      ],
      [
        "▁arms",
        -9.965848527596988
      ],
      [
        "▁pakistan",
        -9.966108070144976
      ],
      [
        "zer",
        -9.966383989231012
      ],
      [
        "▁meaning",
        -9.967184083808768
      ],
      [
        "▁leaders",
        -9.968318992981235
      ],
      [
        "▁associate",
        -9.969083238319257
      ],
      [
        "▁grandmother",
        -9.969083262013848
      ],
      [
        "microsoft",
        -9.96908327221812
      ],
      [
        "▁version",
        -9.969086616999355
      ],
      [
        "▁spell",
        -9.969092168001383
      ],
      [
        "▁dangerous",
        -9.969143321488911
      ],
      [
        "▁span",
        -9.970306734274251
      ],
      [
        "▁21",
        -9.970416274627793
      ],
      [
        "let",
        -9.971331562660403
      ],
      [
        "▁speci",
        -9.971412479125568
      ],
      [
        "▁challenge",
        -9.971527823247287
      ],
      [
        "▁deliver",
        -9.972351403680232
      ],
      [
        "▁creat",
        -9.973021763643882
      ],
      [
        "▁match",
        -9.973547181187627
      ],
      [
        "▁dear",
        -9.974017695668877
      ],
      [
        "▁mode",
        -9.976102860976438
      ],
      [
        "▁wiki",
        -9.97717686597342
      ],
      [
        "▁blood",
        -9.978790852399284
      ],
      [
        "tacom",
        -9.979840619517153
      ],
      [
        "▁lo",
        -9.986010160558475
      ],
      [
        "▁evidence",
        -9.987601757404793
      ],
      [
        "▁built",
        -9.987601762619553
      ],
      [
        "▁climate",
        -9.987601785991513
      ],
      [
        "technology",
        -9.987601854776022
      ],
      [
        "▁capacit",
        -9.987601913356276
      ],
      [
        "▁tiger",
        -9.987602885495505
      ],
      [
        "▁coast",
        -9.987603420665652
      ],
      [
        "▁richard",
        -9.987667276166952
      ],
      [
        "▁brain",
        -9.987688248681579
      ],
      [
        "▁bike",
        -9.987796374156868
      ],
      [
        "mp",
        -9.987839017052647
      ],
      [
        "▁wheel",
        -9.988742054881627
      ],
      [
        "▁leader",
        -9.991558679813306
      ],
      [
        "▁chang",
        -9.99214408490508
      ],
      [
        "▁agenc",
        -9.992982355230923
      ],
      [
        "▁career",
        -9.99393235316414
      ],
      [
        "han",
        -9.99824207807052
      ],
      [
        "▁50",
        -9.998335813000487
      ],
      [
        "▁democra",
        -10.001191444379666
      ],
      [
        "20",
        -10.001526708764146
      ],
      [
        "▁mar",
        -10.00175708764746
      ],
      [
        "▁ex",
        -10.001798251826834
      ],
      [
        "▁season",
        -10.002171374254832
      ],
      [
        "▁lock",
        -10.003210629183046
      ],
      [
        "ger",
        -10.004056033654345
      ],
      [
        "some",
        -10.005918835884579
      ],
      [
        "▁percent",
        -10.006409525582331
      ],
      [
        "▁snow",
        -10.006426342739731
      ],
      [
        "▁cruise",
        -10.006469681496228
      ],
      [
        "▁opinion",
        -10.006469750389067
      ],
      [
        "▁reserve",
        -10.006469994009144
      ],
      [
        "▁heavy",
        -10.00647078917008
      ],
      [
        "▁companie",
        -10.006473164391856
      ],
      [
        "▁korea",
        -10.006475519770046
      ],
      [
        "▁>>",
        -10.006476768020956
      ],
      [
        "▁bathroom",
        -10.006507434364691
      ],
      [
        "▁firm",
        -10.006993626290296
      ],
      [
        "▁treatment",
        -10.007066302950303
      ],
      [
        "▁billion",
        -10.007149581485619
      ],
      [
        "▁brit",
        -10.007516667591869
      ],
      [
        "▁bright",
        -10.007891474228522
      ],
      [
        "dr.",
        -10.008225315074604
      ],
      [
        "stead",
        -10.008366388368803
      ],
      [
        "▁shape",
        -10.00889924773055
      ],
      [
        "▁statement",
        -10.009663711500165
      ],
      [
        "▁broad",
        -10.010057230502749
      ],
      [
        "▁camel",
        -10.011494897445377
      ],
      [
        "▁tourist",
        -10.012018839451896
      ],
      [
        "▁finding",
        -10.01206095645111
      ],
      [
        "ql",
        -10.012330241881449
      ],
      [
        "▁mass",
        -10.013635398401902
      ],
      [
        "▁moon",
        -10.015389610659525
      ],
      [
        "▁pant",
        -10.015791647987635
      ],
      [
        "▁sexual",
        -10.015825873304234
      ],
      [
        "▁analysis",
        -10.015832223571346
      ],
      [
        "ney",
        -10.016053647520998
      ],
      [
        "stair",
        -10.016926474644155
      ],
      [
        "▁twi",
        -10.01706945395919
      ],
      [
        "▁rose",
        -10.018377418477646
      ],
      [
        "workers",
        -10.021083746406328
      ],
      [
        "▁fat",
        -10.023592715000053
      ],
      [
        "▁hm",
        -10.02551853646519
      ],
      [
        "▁obvious",
        -10.025700457059136
      ],
      [
        "▁thirty",
        -10.02570046276863
      ],
      [
        "▁target",
        -10.025700538606355
      ],
      [
        "▁spider",
        -10.025702651163442
      ],
      [
        "▁glad",
        -10.025718585993477
      ],
      [
        "▁relationship",
        -10.025728300998134
      ],
      [
        "▁grant",
        -10.025766248628846
      ],
      [
        "▁performance",
        -10.02591091451503
      ],
      [
        "▁23",
        -10.026355160015346
      ],
      [
        "▁q",
        -10.027417098844456
      ],
      [
        "▁dance",
        -10.027654641216543
      ],
      [
        "▁ko",
        -10.027944319102001
      ],
      [
        "▁ka",
        -10.028788033291779
      ],
      [
        "▁terribl",
        -10.029193980637158
      ],
      [
        "▁prevent",
        -10.029506603070836
      ],
      [
        "▁goal",
        -10.02969750305027
      ],
      [
        "▁metal",
        -10.030736814917955
      ],
      [
        "▁ears",
        -10.031582824942353
      ],
      [
        "▁lego",
        -10.031676807192138
      ],
      [
        "▁online",
        -10.032597475748359
      ],
      [
        "▁litera",
        -10.03280344378394
      ],
      [
        "▁advi",
        -10.034686754393768
      ],
      [
        "▁22",
        -10.035206465547137
      ],
      [
        "▁via",
        -10.039026316221362
      ],
      [
        "▁100",
        -10.04374241413397
      ],
      [
        "▁poet",
        -10.044749716652573
      ],
      [
        "▁respond",
        -10.045308294981513
      ],
      [
        "▁religious",
        -10.045308308338903
      ],
      [
        "▁previous",
        -10.045308316675843
      ],
      [
        "▁husband",
        -10.045308406267768
      ],
      [
        "▁female",
        -10.045308438038642
      ],
      [
        "▁teeth",
        -10.045310675241952
      ],
      [
        "▁sector",
        -10.0453106843962
      ],
      [
        "▁cash",
        -10.046686728002554
      ],
      [
        "▁movement",
        -10.04673156544684
      ],
      [
        "▁director",
        -10.04700300083762
      ],
      [
        "▁*",
        -10.047004757361531
      ],
      [
        "gen",
        -10.048293178043448
      ],
      [
        "30",
        -10.048838007763935
      ],
      [
        "▁standard",
        -10.050118721849778
      ],
      [
        "▁improve",
        -10.050699656305607
      ],
      [
        "10",
        -10.057840256821477
      ],
      [
        "▁rich",
        -10.057967124022912
      ],
      [
        "crome",
        -10.059401278487872
      ],
      [
        "03",
        -10.059483288460754
      ],
      [
        "▁legislati",
        -10.059707920150586
      ],
      [
        "▁africa",
        -10.061812279532607
      ],
      [
        "▁twa",
        -10.064572666882441
      ],
      [
        "▁purchase",
        -10.064950455695456
      ],
      [
        "▁responsibilit",
        -10.065308293712524
      ],
      [
        "▁chocolate",
        -10.065308293740335
      ],
      [
        "▁atmospher",
        -10.065308792069155
      ],
      [
        "▁sandwich",
        -10.065309257249153
      ],
      [
        "▁quiet",
        -10.065312864475228
      ],
      [
        "▁relative",
        -10.065382112113014
      ],
      [
        "▁bridge",
        -10.065441334641996
      ],
      [
        "▁influence",
        -10.065548517406658
      ],
      [
        "facebook",
        -10.066169012051839
      ],
      [
        "▁creative",
        -10.066470821254253
      ],
      [
        "tuck",
        -10.066484123849369
      ],
      [
        "▁skin",
        -10.066804537869658
      ],
      [
        "▁gain",
        -10.068498035211007
      ],
      [
        "▁russian",
        -10.06869111459421
      ],
      [
        "▁independent",
        -10.070345568009989
      ],
      [
        "09",
        -10.070528505792176
      ],
      [
        "▁kill",
        -10.071484426090517
      ],
      [
        "▁bath",
        -10.071568384035
      ],
      [
        "▁dish",
        -10.071716238437228
      ],
      [
        "▁cats",
        -10.075171862840644
      ],
      [
        "bur",
        -10.075935174049809
      ],
      [
        "▁spring",
        -10.078080757652423
      ],
      [
        "▁addition",
        -10.07838689177965
      ],
      [
        "▁aware",
        -10.078719525998363
      ],
      [
        "▁flat",
        -10.07951537517836
      ],
      [
        "----------------",
        -10.079577377849565
      ],
      [
        "▁ant",
        -10.080239946367403
      ],
      [
        "▁institution",
        -10.080950326956575
      ],
      [
        "iv",
        -10.081323913746392
      ],
      [
        "▁remove",
        -10.082003293499016
      ],
      [
        "▁japane",
        -10.08252930171269
      ],
      [
        "▁photograph",
        -10.084774174838962
      ],
      [
        "▁player",
        -10.08523025469282
      ],
      [
        "▁surface",
        -10.085716533445046
      ],
      [
        "▁locate",
        -10.085720842179335
      ],
      [
        "▁applie",
        -10.085728937743422
      ],
      [
        "▁debate",
        -10.085732808120984
      ],
      [
        "▁amendment",
        -10.085875567709238
      ],
      [
        "ja",
        -10.085927563093332
      ],
      [
        "▁task",
        -10.086102913645934
      ],
      [
        "▁reported",
        -10.086160665599708
      ],
      [
        "▁technical",
        -10.086164922097815
      ],
      [
        "▁generation",
        -10.086290087334127
      ],
      [
        "burban",
        -10.08732134645332
      ],
      [
        "▁marri",
        -10.087866127981556
      ],
      [
        "▁ron",
        -10.088605153111956
      ],
      [
        "▁impos",
        -10.08877266014415
      ],
      [
        "▁wow",
        -10.088806477699574
      ],
      [
        "▁intelligence",
        -10.09010243022565
      ],
      [
        "&",
        -10.090499156885606
      ],
      [
        "▁ice",
        -10.090538299240118
      ],
      [
        "kin",
        -10.091968655942388
      ],
      [
        "▁sha",
        -10.092768660816331
      ],
      [
        "▁wood",
        -10.094394174387201
      ],
      [
        "▁mid",
        -10.09522908535953
      ],
      [
        "▁argument",
        -10.098843470974824
      ],
      [
        "▁painting",
        -10.099141430427157
      ],
      [
        "▁foreign",
        -10.099829128992525
      ],
      [
        "▁pig",
        -10.10287551270492
      ],
      [
        "▁russia",
        -10.103036785113714
      ],
      [
        "ped",
        -10.103866369386749
      ],
      [
        "▁euro",
        -10.104076380228658
      ],
      [
        "ez",
        -10.10454602991679
      ],
      [
        "▁threat",
        -10.105085372508498
      ],
      [
        "▁success",
        -10.10585248951411
      ],
      [
        "▁mexic",
        -10.106298372127883
      ],
      [
        "▁exchange",
        -10.106549793629114
      ],
      [
        "▁vacation",
        -10.106549954031559
      ],
      [
        "▁uncle",
        -10.106553485629956
      ],
      [
        "▁balloon",
        -10.106559901203179
      ],
      [
        "▁title",
        -10.106563571026586
      ],
      [
        "▁scientology",
        -10.106564047337244
      ],
      [
        "▁auster",
        -10.106571428778388
      ],
      [
        "▁cha",
        -10.1065725860667
      ],
      [
        "▁stock",
        -10.106601976122459
      ],
      [
        "▁worst",
        -10.106652446311205
      ],
      [
        "▁agent",
        -10.106698090185413
      ],
      [
        "▁apartment",
        -10.106781684081932
      ],
      [
        "▁visa",
        -10.106790633938335
      ],
      [
        "▁wake",
        -10.107004932843754
      ],
      [
        "▁discussion",
        -10.107396258065789
      ],
      [
        "▁representative",
        -10.108228030618797
      ],
      [
        "▁smart",
        -10.108540598185149
      ],
      [
        "he",
        -10.10945038671479
      ],
      [
        "ada",
        -10.11020344827254
      ],
      [
        "▁path",
        -10.110214551873685
      ],
      [
        "▁standing",
        -10.110312932191754
      ],
      [
        "▁carol",
        -10.11078712996399
      ],
      [
        "▁trans",
        -10.110816254126181
      ],
      [
        "▁digital",
        -10.111030240380583
      ],
      [
        "▁communication",
        -10.111088466466754
      ],
      [
        "▁dropp",
        -10.113328889773442
      ],
      [
        "▁male",
        -10.113889773929573
      ],
      [
        "▁environmental",
        -10.113961830187659
      ],
      [
        "▁rid",
        -10.114174434211424
      ],
      [
        "▁+",
        -10.114395544760105
      ],
      [
        "▁quote",
        -10.11467451639989
      ],
      [
        "▁eu",
        -10.114972811529228
      ],
      [
        "▁farm",
        -10.116393735060544
      ],
      [
        "▁judge",
        -10.116942639009645
      ],
      [
        "▁decide",
        -10.118295241703436
      ],
      [
        "▁connect",
        -10.118490712910988
      ],
      [
        "tte",
        -10.119953197851727
      ],
      [
        "50",
        -10.120576089611863
      ],
      [
        "▁refer",
        -10.120697109174595
      ],
      [
        "▁understanding",
        -10.121345812646842
      ],
      [
        "▁steps",
        -10.12569338554441
      ],
      [
        "▁range",
        -10.126773808927378
      ],
      [
        "chines",
        -10.127489913756424
      ],
      [
        "▁fundamental",
        -10.127584572650973
      ],
      [
        "▁secret",
        -10.127597904556094
      ],
      [
        "▁behavior",
        -10.127826386056253
      ],
      [
        "▁screen",
        -10.127826398040389
      ],
      [
        "▁brief",
        -10.127826453173816
      ],
      [
        "▁remind",
        -10.12782658872528
      ],
      [
        "▁fantas",
        -10.127827483662085
      ],
      [
        "▁unique",
        -10.127827673165898
      ],
      [
        "▁sophie",
        -10.127828015450469
      ],
      [
        "▁border",
        -10.127830377446637
      ],
      [
        "▁network",
        -10.127854193826293
      ],
      [
        "▁snake",
        -10.127863815822675
      ],
      [
        "▁bulldo",
        -10.127866217845947
      ],
      [
        "▁pour",
        -10.128236064087513
      ],
      [
        "▁fellow",
        -10.128261202067918
      ],
      [
        "▁franc",
        -10.128537127328268
      ],
      [
        "▁direction",
        -10.128811610736394
      ],
      [
        "▁pretend",
        -10.129017742174774
      ],
      [
        "▁meant",
        -10.129456147814743
      ],
      [
        "▁loud",
        -10.13023614110716
      ],
      [
        "▁sport",
        -10.13104721640882
      ],
      [
        "▁row",
        -10.131255232611101
      ],
      [
        "▁western",
        -10.131774571465037
      ],
      [
        "▁rabbit",
        -10.13267997513346
      ],
      [
        "light",
        -10.135463863030147
      ],
      [
        "room",
        -10.13808755411519
      ],
      [
        "ap",
        -10.139257339584764
      ],
      [
        "▁barn",
        -10.13935387348311
      ],
      [
        "house",
        -10.139412128694413
      ],
      [
        "▁award",
        -10.13967587482953
      ],
      [
        "▁lee",
        -10.140797173038525
      ],
      [
        "▁suit",
        -10.143391425788312
      ],
      [
        "▁handle",
        -10.14355734362127
      ],
      [
        "▁grand",
        -10.144066088913235
      ],
      [
        "29",
        -10.14554896461254
      ],
      [
        "▁ec",
        -10.148987172653293
      ],
      [
        "▁progress",
        -10.149288763779236
      ],
      [
        "icles",
        -10.149499871793047
      ],
      [
        "▁appreciate",
        -10.149565516494317
      ],
      [
        "▁provision",
        -10.149565516745943
      ],
      [
        "▁peanut",
        -10.149571125349702
      ],
      [
        "▁scene",
        -10.149604140522326
      ],
      [
        "▁swing",
        -10.150156399296481
      ],
      [
        "▁shot",
        -10.150761833300514
      ],
      [
        "▁mistake",
        -10.153070026048809
      ],
      [
        "▁ro",
        -10.15337763694323
      ],
      [
        "▁quer",
        -10.153811599649703
      ],
      [
        "▁cell",
        -10.154086300400447
      ],
      [
        "▁realize",
        -10.154332212575177
      ],
      [
        "▁tour",
        -10.156482469764978
      ],
      [
        "▁prove",
        -10.157057864345637
      ],
      [
        "▁bell",
        -10.160120159011026
      ],
      [
        "▁whom",
        -10.161364377646915
      ],
      [
        "▁tool",
        -10.161532185884758
      ],
      [
        "▁damage",
        -10.162052611606827
      ],
      [
        "▁dem",
        -10.16209754070518
      ],
      [
        "▁receiv",
        -10.162322328084517
      ],
      [
        "▁hungr",
        -10.163093214593914
      ],
      [
        "gg",
        -10.16923718288646
      ],
      [
        "▁columb",
        -10.17172236369067
      ],
      [
        "▁unfortunate",
        -10.1717877387128
      ],
      [
        "▁e-mail",
        -10.171787916590638
      ],
      [
        "▁robert",
        -10.171816081133688
      ],
      [
        "▁twel",
        -10.17191375555688
      ],
      [
        "▁jack",
        -10.171922731608444
      ],
      [
        "▁loan",
        -10.172090422881094
      ],
      [
        "▁truth",
        -10.172157925364118
      ],
      [
        "▁vet",
        -10.172244763013433
      ],
      [
        "▁update",
        -10.172275027905705
      ],
      [
        "▁assistan",
        -10.172842493327957
      ],
      [
        "▁appropriate",
        -10.17375246747173
      ],
      [
        "▁master",
        -10.175932835079756
      ],
      [
        "ative",
        -10.176149025366783
      ],
      [
        "▁collect",
        -10.177165309163149
      ],
      [
        "▁sheet",
        -10.177238956844239
      ],
      [
        "bu",
        -10.17853665486047
      ],
      [
        "▁extend",
        -10.178909892901782
      ],
      [
        "sible",
        -10.181815865550972
      ],
      [
        "ture",
        -10.18275719985803
      ],
      [
        "▁bomb",
        -10.183781407213807
      ],
      [
        "▁waste",
        -10.187495816058886
      ],
      [
        ".html",
        -10.18752008180054
      ],
      [
        "▁micro",
        -10.188316921194726
      ],
      [
        "▁cookie",
        -10.18885205539955
      ],
      [
        "▁plate",
        -10.18888036795219
      ],
      [
        "35",
        -10.189230478828645
      ],
      [
        "▁mad",
        -10.18962820108525
      ],
      [
        "▁function",
        -10.191538276403191
      ],
      [
        "▁http://",
        -10.194502692526891
      ],
      [
        "▁frequent",
        -10.194515011444956
      ],
      [
        "▁professor",
        -10.194515011481446
      ],
      [
        "▁egypt",
        -10.194515011659863
      ],
      [
        "▁increasing",
        -10.194515012082185
      ],
      [
        "▁stretch",
        -10.194515013858592
      ],
      [
        "▁fifth",
        -10.19451540854021
      ],
      [
        "▁approve",
        -10.194519583885796
      ],
      [
        "▁afford",
        -10.194523784331329
      ],
      [
        "▁syria",
        -10.1945311742022
      ],
      [
        "▁alternative",
        -10.194532032639895
      ],
      [
        "▁sugar",
        -10.194539061082024
      ],
      [
        "▁error",
        -10.19461380867925
      ],
      [
        "beauty",
        -10.194730005508848
      ],
      [
        "▁employee",
        -10.194821749637239
      ],
      [
        "▁rough",
        -10.195431719834014
      ],
      [
        "▁penn",
        -10.195477345944745
      ],
      [
        "▁rat",
        -10.195892530879975
      ],
      [
        "▁bray",
        -10.195968268073306
      ],
      [
        "▁bunn",
        -10.196384313577688
      ],
      [
        "▁setting",
        -10.196797359799707
      ],
      [
        "▁po",
        -10.197345202296649
      ],
      [
        "▁van",
        -10.197893254033675
      ],
      [
        "▁counter",
        -10.197991358772027
      ],
      [
        "tar",
        -10.198062305614501
      ],
      [
        "▁nail",
        -10.198935213444578
      ],
      [
        "▁dust",
        -10.20214760429698
      ],
      [
        "▁defens",
        -10.202943647188604
      ],
      [
        "ung",
        -10.203687892437726
      ],
      [
        "red",
        -10.204222250731835
      ],
      [
        "▁cloth",
        -10.204317639543255
      ],
      [
        "▁inform",
        -10.204341438173838
      ],
      [
        "▁hide",
        -10.205617158847433
      ],
      [
        "over",
        -10.206177090335597
      ],
      [
        "▁critic",
        -10.206229776102234
      ],
      [
        "▁197",
        -10.20669813280781
      ],
      [
        "80",
        -10.20715860944435
      ],
      [
        "▁reli",
        -10.207421129150859
      ],
      [
        "corn",
        -10.209089803179321
      ],
      [
        "resources",
        -10.209867982747287
      ],
      [
        "▁hearing",
        -10.21108953569042
      ],
      [
        "▁carrie",
        -10.211404600400625
      ],
      [
        "▁expected",
        -10.211980874735422
      ],
      [
        "▁map",
        -10.21200615359686
      ],
      [
        "▁sales",
        -10.21229907507539
      ],
      [
        "▁flow",
        -10.213016924564482
      ],
      [
        "▁shar",
        -10.213588460396542
      ],
      [
        "▁chris",
        -10.213829976748645
      ],
      [
        "▁none",
        -10.215063141729395
      ],
      [
        "▁facilit",
        -10.216483888858379
      ],
      [
        "▁breath",
        -10.217116888093052
      ],
      [
        "hiri",
        -10.21725733134869
      ],
      [
        "▁conflict",
        -10.21777082605991
      ],
      [
        "▁procedure",
        -10.217770826080582
      ],
      [
        "▁silver",
        -10.217770846404562
      ],
      [
        "▁degree",
        -10.217770953931332
      ],
      [
        "▁pillow",
        -10.217770966965203
      ],
      [
        "▁william",
        -10.21777764317622
      ],
      [
        "▁belief",
        -10.217779020953483
      ],
      [
        "▁crowd",
        -10.217780740551982
      ],
      [
        "▁rapid",
        -10.21778183918159
      ],
      [
        "▁shut",
        -10.21780745589063
      ],
      [
        "▁export",
        -10.217807672613027
      ],
      [
        "▁distance",
        -10.217837084684179
      ],
      [
        "▁gold",
        -10.21806574225786
      ],
      [
        "▁madam",
        -10.218884763382
      ],
      [
        "▁responsibl",
        -10.219597979601561
      ],
      [
        "▁finance",
        -10.220867580462208
      ],
      [
        "▁abilit",
        -10.22121687113951
      ],
      [
        "▁japan",
        -10.221438436627636
      ],
      [
        "▁comfortabl",
        -10.223838984418537
      ],
      [
        "▁pin",
        -10.22405271044688
      ],
      [
        "▁northwest",
        -10.224900099953922
      ],
      [
        "▁fl",
        -10.227971551349539
      ],
      [
        "▁essential",
        -10.229372245361304
      ],
      [
        "ence",
        -10.230958822211022
      ],
      [
        "▁tall",
        -10.231665791204136
      ],
      [
        "▁host",
        -10.234325722043257
      ],
      [
        "▁lie",
        -10.234635001440761
      ],
      [
        "killed",
        -10.23498502528092
      ],
      [
        "▁doubt",
        -10.236026183064565
      ],
      [
        "▁doll",
        -10.23659645665067
      ],
      [
        "▁inc",
        -10.237137942020972
      ],
      [
        "▁rent",
        -10.239293184575994
      ],
      [
        "▁birth",
        -10.239317413393717
      ],
      [
        "ition",
        -10.23933183625192
      ],
      [
        "▁achieve",
        -10.239478758686717
      ],
      [
        "▁strateg",
        -10.240804348512947
      ],
      [
        "phone",
        -10.241553625118126
      ],
      [
        "▁fifteen",
        -10.241580349265204
      ],
      [
        "▁australia",
        -10.241580349596557
      ],
      [
        "▁database",
        -10.241580487118913
      ],
      [
        "▁disaster",
        -10.241580511978885
      ],
      [
        "▁knock",
        -10.241580664635439
      ],
      [
        "▁budget",
        -10.24158073149216
      ],
      [
        "▁cream",
        -10.241581403393468
      ],
      [
        "▁context",
        -10.241581603930408
      ],
      [
        "▁territor",
        -10.241585626232105
      ],
      [
        "ific",
        -10.241589164866284
      ],
      [
        "▁honest",
        -10.241590786128212
      ],
      [
        "▁newspaper",
        -10.241596992573132
      ],
      [
        "▁camera",
        -10.241623163011877
      ],
      [
        "▁drug",
        -10.241680349541081
      ],
      [
        "▁operator",
        -10.24180876808273
      ],
      [
        "▁settlement",
        -10.241830222933274
      ],
      [
        "▁worse",
        -10.242245117010668
      ],
      [
        "▁happens",
        -10.24240516236205
      ],
      [
        "▁lady",
        -10.242770840355806
      ],
      [
        "▁basil",
        -10.24287081236978
      ],
      [
        "▁weather",
        -10.242917675068067
      ],
      [
        "▁payment",
        -10.242926189321846
      ],
      [
        "plus",
        -10.243945580044226
      ],
      [
        "▁fourth",
        -10.244751475161772
      ],
      [
        "▁assume",
        -10.244801673510842
      ],
      [
        "ible",
        -10.246069369895459
      ],
      [
        "▁nin",
        -10.246338649628894
      ],
      [
        "ious",
        -10.247761499715585
      ],
      [
        "▁beside",
        -10.2486832587701
      ],
      [
        "▁hill",
        -10.249408599086697
      ],
      [
        "▁string",
        -10.250868276788239
      ],
      [
        "▁jer",
        -10.252653602213147
      ],
      [
        "▁reasonabl",
        -10.252796406566286
      ],
      [
        ".com/",
        -10.254513540140222
      ],
      [
        "▁win",
        -10.257070057269518
      ],
      [
        "▁eb",
        -10.257073016906553
      ],
      [
        "▁storm",
        -10.2584710691087
      ],
      [
        "ware",
        -10.258684102026594
      ],
      [
        "▁za",
        -10.25891562763999
      ],
      [
        "▁score",
        -10.259043745732665
      ],
      [
        "▁guard",
        -10.26237707858473
      ],
      [
        "cu",
        -10.263530835550227
      ],
      [
        "▁mor",
        -10.264463048469738
      ],
      [
        "ukraine",
        -10.265970593325571
      ],
      [
        "▁constant",
        -10.265970655342059
      ],
      [
        "▁complex",
        -10.265970683409684
      ],
      [
        "ontario",
        -10.265971325679097
      ],
      [
        "▁minister",
        -10.26597862917258
      ],
      [
        "▁blanket",
        -10.265988700945782
      ],
      [
        "senate",
        -10.266013061955231
      ],
      [
        "▁wealth",
        -10.266033459774231
      ],
      [
        "▁flag",
        -10.266138604247727
      ],
      [
        "▁tight",
        -10.266259395016945
      ],
      [
        "▁stage",
        -10.266298354285347
      ],
      [
        "▁civil",
        -10.266464662505147
      ],
      [
        "▁santa",
        -10.26657717747492
      ],
      [
        "▁afr",
        -10.266706040099589
      ],
      [
        "▁max",
        -10.267132248909792
      ],
      [
        "▁rude",
        -10.267340455701271
      ],
      [
        "▁miles",
        -10.26746254395349
      ],
      [
        "▁terrorist",
        -10.268075640826545
      ],
      [
        "▁averag",
        -10.26824432219699
      ],
      [
        "▁pair",
        -10.269344214099743
      ],
      [
        "▁african",
        -10.270290561308567
      ],
      [
        "▁sample",
        -10.272307838266276
      ],
      [
        "thoma",
        -10.272442515438891
      ],
      [
        "▁pink",
        -10.272525716735514
      ],
      [
        "▁select",
        -10.272831383858781
      ],
      [
        "▁gu",
        -10.274091937806272
      ],
      [
        "▁pr",
        -10.274358834740093
      ],
      [
        "▁mess",
        -10.274387119149104
      ],
      [
        "▁inter",
        -10.274822219304859
      ],
      [
        "▁tent",
        -10.274987854206394
      ],
      [
        "▁lose",
        -10.280693216299284
      ],
      [
        "▁wave",
        -10.28345077545756
      ],
      [
        "▁mc",
        -10.284017250579184
      ],
      [
        "▁bi",
        -10.285288834459564
      ],
      [
        "qui",
        -10.285427742373791
      ],
      [
        "wood",
        -10.288039957230364
      ],
      [
        "▁pain",
        -10.289381024456759
      ],
      [
        "▁bat",
        -10.29031576955432
      ],
      [
        "▁exhibit",
        -10.290970593237803
      ],
      [
        "▁audience",
        -10.290970596165748
      ],
      [
        "▁famous",
        -10.290971373266569
      ],
      [
        "▁fruit",
        -10.290973171525478
      ],
      [
        "▁eleven",
        -10.29097497916988
      ],
      [
        "grew",
        -10.290989023220465
      ],
      [
        "▁speed",
        -10.291034298844382
      ],
      [
        "▁frank",
        -10.291096803198489
      ],
      [
        "▁rice",
        -10.291111176202852
      ],
      [
        "▁guarantee",
        -10.29118268446872
      ],
      [
        "▁christian",
        -10.291182714055434
      ],
      [
        "com",
        -10.291382057461998
      ],
      [
        "▁objective",
        -10.291408154474627
      ],
      [
        "▁florid",
        -10.29262060044545
      ],
      [
        "▁menu",
        -10.294186587621239
      ],
      [
        "▁formal",
        -10.294288786933485
      ],
      [
        "▁para",
        -10.296594289409622
      ],
      [
        "like",
        -10.296739192810087
      ],
      [
        "mir",
        -10.297578443637699
      ],
      [
        "dden",
        -10.299619863392211
      ],
      [
        "▁german",
        -10.299816269535565
      ],
      [
        "▁democratic",
        -10.300180635203041
      ],
      [
        "92",
        -10.300482421711243
      ],
      [
        "▁shopp",
        -10.301060833066511
      ],
      [
        "▁60",
        -10.30344918359824
      ],
      [
        "lan",
        -10.305411493064867
      ],
      [
        "ick",
        -10.306154288630658
      ],
      [
        "▁traffic",
        -10.307773132507739
      ],
      [
        "▁plays",
        -10.310439437498427
      ],
      [
        "▁ski",
        -10.31048337511999
      ],
      [
        "ama",
        -10.310697465695476
      ],
      [
        "▁involv",
        -10.31108653191347
      ],
      [
        "▁danc",
        -10.313755695431343
      ],
      [
        "▁hol",
        -10.315635653412048
      ],
      [
        "▁uk",
        -10.315911937753413
      ],
      [
        "nuclear",
        -10.316611619032743
      ],
      [
        "▁telephone",
        -10.316611621439773
      ],
      [
        "▁innovation",
        -10.316611639474308
      ],
      [
        "▁horribl",
        -10.316611688423677
      ],
      [
        "▁component",
        -10.316611704049892
      ],
      [
        "▁canadian",
        -10.316611948940148
      ],
      [
        "▁daniel",
        -10.316612239645341
      ],
      [
        "▁transaction",
        -10.316617778847638
      ],
      [
        "▁soldier",
        -10.316619016198324
      ],
      [
        "▁salad",
        -10.316622462657783
      ],
      [
        "▁executive",
        -10.316651523860182
      ],
      [
        "▁whale",
        -10.316660500757614
      ],
      [
        "▁robot",
        -10.316720193191557
      ],
      [
        "▁labor",
        -10.316850663281194
      ],
      [
        "▁attract",
        -10.317000536084421
      ],
      [
        "▁production",
        -10.317511459982441
      ],
      [
        "▁anthr",
        -10.318023080064965
      ],
      [
        "▁divers",
        -10.318829250614872
      ],
      [
        "▁jame",
        -10.320972508177654
      ],
      [
        "elected",
        -10.321041490120718
      ],
      [
        "▁lesson",
        -10.321059148398518
      ],
      [
        "▁oliv",
        -10.322280516188606
      ],
      [
        "▁secretary",
        -10.322434320239847
      ],
      [
        "▁beat",
        -10.322602282104445
      ],
      [
        "unch",
        -10.322724140641235
      ],
      [
        "▁introduce",
        -10.323800130394243
      ],
      [
        "▁awe",
        -10.326378978534514
      ],
      [
        "▁prepared",
        -10.327893564095293
      ],
      [
        "back",
        -10.328733704059953
      ],
      [
        "25",
        -10.329504982175218
      ],
      [
        "89",
        -10.330996378700112
      ],
      [
        "▁tip",
        -10.331900456875859
      ],
      [
        "▁smoke",
        -10.331996577912298
      ],
      [
        "chi",
        -10.332617651683922
      ],
      [
        "▁escape",
        -10.333284834302988
      ],
      [
        "▁mis",
        -10.334330207475858
      ],
      [
        "rick",
        -10.336353513719446
      ],
      [
        "48",
        -10.337284466838115
      ],
      [
        "▁weight",
        -10.339019735231794
      ],
      [
        "▁driver",
        -10.339334050995236
      ],
      [
        "▁active",
        -10.339582979820651
      ],
      [
        "02",
        -10.342054260156175
      ],
      [
        "▁mary",
        -10.342082911876357
      ],
      [
        "ler",
        -10.342705721412536
      ],
      [
        "▁encourage",
        -10.342927408468933
      ],
      [
        "▁temperature",
        -10.342927468541443
      ],
      [
        "▁weasley",
        -10.342928416668077
      ],
      [
        "▁pilot",
        -10.34293376514725
      ],
      [
        "▁counterpart",
        -10.3429386385031
      ],
      [
        "▁injur",
        -10.3429400842245
      ],
      [
        "▁positive",
        -10.342965982342612
      ],
      [
        "▁airplane",
        -10.342972056689744
      ],
      [
        "▁rise",
        -10.34297425742983
      ],
      [
        "graph",
        -10.343011180806965
      ],
      [
        "▁danny",
        -10.343024520981064
      ],
      [
        "▁yog",
        -10.343033384479648
      ],
      [
        "▁assess",
        -10.343103687080763
      ],
      [
        "▁plent",
        -10.343976136723859
      ],
      [
        "▁ph",
        -10.34409432495757
      ],
      [
        "▁fro",
        -10.344375981809062
      ],
      [
        "▁pipe",
        -10.345100703645041
      ],
      [
        "▁scient",
        -10.34612554124857
      ],
      [
        "▁sink",
        -10.346942201166364
      ],
      [
        "▁gra",
        -10.347328300759026
      ],
      [
        "▁ap",
        -10.34785031872364
      ],
      [
        "▁hum",
        -10.348545294327899
      ],
      [
        "▁fred",
        -10.349288767630693
      ],
      [
        "ug",
        -10.35001792987009
      ],
      [
        "▁container",
        -10.350121303948455
      ],
      [
        "▁announce",
        -10.350249226697157
      ],
      [
        "kay",
        -10.350870122778286
      ],
      [
        "▁copie",
        -10.351728089474703
      ],
      [
        "▁load",
        -10.351839575048125
      ],
      [
        "▁pie",
        -10.351885812835608
      ],
      [
        "▁regulation",
        -10.352967386299689
      ],
      [
        "ure",
        -10.35568020297045
      ],
      [
        "▁polic",
        -10.355867968522496
      ],
      [
        "arra",
        -10.356831415866921
      ],
      [
        "work",
        -10.357259988253897
      ],
      [
        "news",
        -10.357732911307155
      ],
      [
        "uff",
        -10.358125930545684
      ],
      [
        "▁emerg",
        -10.358396229214629
      ],
      [
        "ome",
        -10.35839675062744
      ],
      [
        "rove",
        -10.358945084371495
      ],
      [
        "▁suffer",
        -10.359061076999373
      ],
      [
        "mwe",
        -10.366369533252936
      ],
      [
        "till",
        -10.36754805567941
      ],
      [
        "healthy",
        -10.368751002962181
      ],
      [
        "▁typical",
        -10.369954444917601
      ],
      [
        "▁screw",
        -10.369954450744252
      ],
      [
        "▁vietnam",
        -10.369954460856993
      ],
      [
        "▁muscle",
        -10.369954471476415
      ],
      [
        "▁physical",
        -10.369954473318067
      ],
      [
        "▁…",
        -10.369954520836338
      ],
      [
        "▁museum",
        -10.369954586801832
      ],
      [
        "▁senator",
        -10.36995538749817
      ],
      [
        "▁expand",
        -10.369977676220946
      ],
      [
        "▁convention",
        -10.369979512617334
      ],
      [
        "▁television",
        -10.369980056054164
      ],
      [
        "▁pressure",
        -10.370035226025013
      ],
      [
        "▁kick",
        -10.370066391333268
      ],
      [
        "▁centre",
        -10.370189201686195
      ],
      [
        "▁dragon",
        -10.370266137481746
      ],
      [
        "▁cia",
        -10.370320128737045
      ],
      [
        "▁decline",
        -10.370415095736066
      ],
      [
        "▁exercise",
        -10.37043247030838
      ],
      [
        "▁guest",
        -10.370504939904428
      ],
      [
        "ade",
        -10.370607275862945
      ],
      [
        "▁boom",
        -10.371375229264633
      ],
      [
        "nia",
        -10.371513289516198
      ],
      [
        "▁smile",
        -10.372062889152552
      ],
      [
        "ang",
        -10.372082911507215
      ],
      [
        "▁manner",
        -10.372165751560535
      ],
      [
        "▁lion",
        -10.373116796550896
      ],
      [
        "▁jobs",
        -10.375744084568144
      ],
      [
        "▁recognize",
        -10.376926103252305
      ],
      [
        "▁reduce",
        -10.378090297829996
      ],
      [
        "▁stone",
        -10.379012293679802
      ],
      [
        "▁40",
        -10.381540585595609
      ],
      [
        "▁ear",
        -10.38259405138429
      ],
      [
        "▁skills",
        -10.384737631222668
      ],
      [
        "▁onto",
        -10.385081271869208
      ],
      [
        "ou",
        -10.38635891307158
      ],
      [
        "▁continu",
        -10.39029788918359
      ],
      [
        "▁replace",
        -10.391015041277388
      ],
      [
        "▁publishe",
        -10.391269459121366
      ],
      [
        "col",
        -10.39264029878201
      ],
      [
        "▁pi",
        -10.393276855283291
      ],
      [
        "▁bye",
        -10.39528662566088
      ],
      [
        "▁assist",
        -10.39677509759672
      ],
      [
        "ox",
        -10.397447973908214
      ],
      [
        "▁extra",
        -10.397511254402353
      ],
      [
        "▁channel",
        -10.397732336998034
      ],
      [
        "▁faith",
        -10.39773435037061
      ],
      [
        "▁chief",
        -10.39773723161268
      ],
      [
        "▁competition",
        -10.397738283577644
      ],
      [
        "▁shoot",
        -10.397743755440107
      ],
      [
        "▁monkey",
        -10.397753626589312
      ],
      [
        "▁italian",
        -10.397782447920566
      ],
      [
        "▁arrest",
        -10.397814324123372
      ],
      [
        "▁route",
        -10.397827473123733
      ],
      [
        "▁mouse",
        -10.397833522558603
      ],
      [
        "fu",
        -10.397987445420087
      ],
      [
        "▁collection",
        -10.398195238994829
      ],
      [
        "▁zero",
        -10.398249248472734
      ],
      [
        "▁visitor",
        -10.399743552355538
      ],
      [
        "▁patient",
        -10.39981818908918
      ],
      [
        "15",
        -10.399854932391154
      ],
      [
        "▁principle",
        -10.399925888063272
      ],
      [
        "▁net",
        -10.401066596418588
      ],
      [
        "ward",
        -10.401073746316484
      ],
      [
        "▁aim",
        -10.40255430408855
      ],
      [
        "leading",
        -10.403438852771846
      ],
      [
        "▁relevan",
        -10.403506579915252
      ],
      [
        "▁dr",
        -10.405585689585978
      ],
      [
        "▁operation",
        -10.405785285806717
      ],
      [
        "▁statu",
        -10.406032988046967
      ],
      [
        "▁hate",
        -10.407038485524048
      ],
      [
        "▁officer",
        -10.407281389913134
      ],
      [
        "▁speaker",
        -10.407529925894824
      ],
      [
        "▁chemical",
        -10.41289916569804
      ],
      [
        "▁laws",
        -10.41509608886502
      ],
      [
        "▁fa",
        -10.420919154536879
      ],
      [
        "▁26",
        -10.424633142651352
      ],
      [
        "▁participant",
        -10.426303641597428
      ],
      [
        "▁pleasant",
        -10.426303641741038
      ],
      [
        "▁district",
        -10.426303643373284
      ],
      [
        "▁affair",
        -10.42630365112278
      ],
      [
        "▁flavor",
        -10.42630371096175
      ],
      [
        "▁‘",
        -10.426303732217153
      ],
      [
        "▁destroy",
        -10.426303948978909
      ],
      [
        "▁relax",
        -10.426304589454867
      ],
      [
        "▁gulf",
        -10.426305061156878
      ],
      [
        "▁jean",
        -10.426313338635243
      ],
      [
        "▁publish",
        -10.426335209145517
      ],
      [
        "▁conduct",
        -10.426344445403078
      ],
      [
        "▁flood",
        -10.426347640037669
      ],
      [
        "▁resident",
        -10.42637906891599
      ],
      [
        "▁bedroom",
        -10.426491638390846
      ],
      [
        "▁governor",
        -10.426571862028021
      ],
      [
        "▁mitch",
        -10.426608282575557
      ],
      [
        "▁empt",
        -10.42672269524068
      ],
      [
        "▁rare",
        -10.426874130620437
      ],
      [
        "▁kitten",
        -10.427020435397363
      ],
      [
        "▁creation",
        -10.427324522277056
      ],
      [
        "▁hopeful",
        -10.427581362831411
      ],
      [
        "istic",
        -10.429607326843847
      ],
      [
        "▁insur",
        -10.429640475328652
      ],
      [
        "▁double",
        -10.430548551198807
      ],
      [
        "ov",
        -10.43249424701606
      ],
      [
        "▁historical",
        -10.433606706321772
      ],
      [
        "2006",
        -10.433686327146848
      ],
      [
        "33",
        -10.437282092678533
      ],
      [
        "hood",
        -10.437899364648572
      ],
      [
        "▁argue",
        -10.438188481059036
      ],
      [
        "nana",
        -10.440214302940365
      ],
      [
        "▁ham",
        -10.441899961786643
      ],
      [
        "rry",
        -10.44202909015865
      ],
      [
        "▁bother",
        -10.443598115306655
      ],
      [
        "▁inde",
        -10.445464983276828
      ],
      [
        "▁feature",
        -10.445876564763905
      ],
      [
        "port",
        -10.447998399201587
      ],
      [
        "▁mathematic",
        -10.448715529417779
      ],
      [
        "▁babi",
        -10.448979589876842
      ],
      [
        "▁constitution",
        -10.449179574246882
      ],
      [
        "▁indicate",
        -10.44927433654426
      ],
      [
        "▁justice",
        -10.450090688716578
      ],
      [
        "delivery",
        -10.450434141574254
      ],
      [
        "▁prior",
        -10.451705248927146
      ],
      [
        "▁provid",
        -10.452244639139087
      ],
      [
        "▁tend",
        -10.453420749743838
      ],
      [
        "▁exposure",
        -10.45571540651912
      ],
      [
        "▁elephant",
        -10.455715406668322
      ],
      [
        "▁purple",
        -10.455715425869911
      ],
      [
        "▁trial",
        -10.455765478606315
      ],
      [
        "▁tali",
        -10.455813788708507
      ],
      [
        "▁sex",
        -10.455929987544879
      ],
      [
        "▁garage",
        -10.455963519689222
      ],
      [
        "▁cast",
        -10.456128092209314
      ],
      [
        "▁nick",
        -10.4561843931608
      ],
      [
        "▁unlike",
        -10.456211722252007
      ],
      [
        "▁iodi",
        -10.456273634625928
      ],
      [
        "▁peaceful",
        -10.456323227843148
      ],
      [
        "rising",
        -10.4563568187761
      ],
      [
        "▁suggestion",
        -10.45684310109844
      ],
      [
        "▁28",
        -10.457089506727112
      ],
      [
        "▁cutting",
        -10.457904851691394
      ],
      [
        "▁priorit",
        -10.458128146347828
      ],
      [
        "▁cycle",
        -10.45835156672057
      ],
      [
        "▁burn",
        -10.458755781237144
      ],
      [
        "65",
        -10.45952435309573
      ],
      [
        "▁edge",
        -10.459718734361472
      ],
      [
        "fighting",
        -10.46068603423587
      ],
      [
        "▁apart",
        -10.460738841896056
      ],
      [
        "hua",
        -10.460975000066236
      ],
      [
        "▁bone",
        -10.46110715855911
      ],
      [
        "▁teaching",
        -10.462438238803172
      ],
      [
        "▁spread",
        -10.463060133405989
      ],
      [
        "▁instance",
        -10.464225923684529
      ],
      [
        "ev",
        -10.466156812353429
      ],
      [
        "2011",
        -10.468133301313475
      ],
      [
        "▁loss",
        -10.470000257403807
      ],
      [
        "uk",
        -10.471186578062445
      ],
      [
        "▁terr",
        -10.472895480351985
      ],
      [
        "▁relie",
        -10.47310473804265
      ],
      [
        "▁aw",
        -10.473145632189441
      ],
      [
        "▁efficient",
        -10.473679284245456
      ],
      [
        "options",
        -10.474510323829215
      ],
      [
        "▁sill",
        -10.474697976497428
      ],
      [
        "cca",
        -10.47512124720928
      ],
      [
        "▁ku",
        -10.475239036741879
      ],
      [
        "▁br",
        -10.475514990702454
      ],
      [
        "▁cere",
        -10.479930901375742
      ],
      [
        "▁pad",
        -10.480439040627425
      ],
      [
        "▁command",
        -10.48182298985724
      ],
      [
        "▁sixt",
        -10.482377895451302
      ],
      [
        "▁engine",
        -10.483035494486598
      ],
      [
        "▁desire",
        -10.484426909816467
      ],
      [
        "▁won",
        -10.484895780054858
      ],
      [
        "▁impress",
        -10.485640890726565
      ],
      [
        "▁presen",
        -10.485784913856694
      ],
      [
        "▁90",
        -10.485826383096526
      ],
      [
        "▁spirit",
        -10.486016320518878
      ],
      [
        "▁advantage",
        -10.486018436646036
      ],
      [
        "furniture",
        -10.486018437871685
      ],
      [
        "▁appointment",
        -10.486018440204242
      ],
      [
        "▁nervous",
        -10.486018453979115
      ],
      [
        "▁club",
        -10.486018664439484
      ],
      [
        "▁cowboy",
        -10.486019313474868
      ],
      [
        "▁monster",
        -10.486021383984014
      ],
      [
        "▁suicid",
        -10.486022628563441
      ],
      [
        "▁proud",
        -10.48603216624891
      ],
      [
        "▁trading",
        -10.486051023557724
      ],
      [
        "▁click",
        -10.486053287106989
      ],
      [
        "▁vince",
        -10.486054134035243
      ],
      [
        "▁crime",
        -10.486062851477456
      ],
      [
        "▁failure",
        -10.486074763547448
      ],
      [
        "▁bump",
        -10.486097733309402
      ],
      [
        "ping",
        -10.486103034621358
      ],
      [
        "▁enem",
        -10.486162909971284
      ],
      [
        "▁vast",
        -10.486317042702531
      ],
      [
        "▁pupp",
        -10.486492545178944
      ],
      [
        "▁kim",
        -10.487332275410319
      ],
      [
        "▁grass",
        -10.487614083607452
      ],
      [
        "▁medica",
        -10.488598033585468
      ],
      [
        "ica",
        -10.488731861152287
      ],
      [
        "▁sustain",
        -10.489127968356652
      ],
      [
        "▁define",
        -10.489659477557842
      ],
      [
        "▁rental",
        -10.489951185258876
      ],
      [
        "▁tear",
        -10.491736721749092
      ],
      [
        "▁excited",
        -10.493235021078787
      ],
      [
        "lic",
        -10.493763847351985
      ],
      [
        "net",
        -10.494037227126599
      ],
      [
        "▁shoulder",
        -10.494608757187331
      ],
      [
        "▁observe",
        -10.494898491682104
      ],
      [
        "▁graduate",
        -10.496494318348212
      ],
      [
        "▁religion",
        -10.496921386178219
      ],
      [
        "bun",
        -10.497498692967596
      ],
      [
        "57",
        -10.498842508495258
      ],
      [
        "ink",
        -10.50115597816097
      ],
      [
        "▁bay",
        -10.50172213408024
      ],
      [
        "▁aunt",
        -10.503079040419994
      ],
      [
        "▁bow",
        -10.503763584412715
      ],
      [
        "bald",
        -10.507096577473794
      ],
      [
        "▁palestinian",
        -10.50800676904329
      ],
      [
        "ked",
        -10.50869276657151
      ],
      [
        "ham",
        -10.508804268599729
      ],
      [
        "▁custom",
        -10.510480218505332
      ],
      [
        "▁exten",
        -10.51290662616825
      ],
      [
        "▁fold",
        -10.514292009695348
      ],
      [
        "▁settle",
        -10.515738485115406
      ],
      [
        "▁mum",
        -10.516554605137927
      ],
      [
        "▁israeli",
        -10.51679212729573
      ],
      [
        "▁technologi",
        -10.51721622882145
      ],
      [
        "▁obtain",
        -10.517268447945812
      ],
      [
        "santorum",
        -10.517268569465543
      ],
      [
        "▁cartoon",
        -10.517270024790777
      ],
      [
        "▁session",
        -10.517271841217937
      ],
      [
        "▁apparent",
        -10.517276682167717
      ],
      [
        "▁conclusion",
        -10.517290394102407
      ],
      [
        "▁income",
        -10.517468008148327
      ],
      [
        "▁motion",
        -10.517486458903269
      ],
      [
        "▁roar",
        -10.517536770653003
      ],
      [
        "▁greek",
        -10.517542266530935
      ],
      [
        "▁worry",
        -10.517642133320436
      ],
      [
        "kyo",
        -10.517741241495175
      ],
      [
        "▁shock",
        -10.517917488572339
      ],
      [
        "▁trick",
        -10.51801059985347
      ],
      [
        "▁shark",
        -10.518092222276552
      ],
      [
        "▁precise",
        -10.518115459348389
      ],
      [
        "▁artist",
        -10.51812468030623
      ],
      [
        "▁calm",
        -10.518189560684146
      ],
      [
        "▁odd",
        -10.518440073218736
      ],
      [
        "▁zoo",
        -10.5185796102988
      ],
      [
        "▁compare",
        -10.519069033084751
      ],
      [
        "▁engineer",
        -10.520355483651223
      ],
      [
        "▁useful",
        -10.521669423842965
      ],
      [
        "▁foundation",
        -10.521787345295497
      ],
      [
        "▁occurr",
        -10.52192837545811
      ],
      [
        "▁contribution",
        -10.52306848792525
      ],
      [
        "▁substantial",
        -10.523375054076503
      ],
      [
        "▁pl",
        -10.524106021628143
      ],
      [
        "uc",
        -10.52504281083085
      ],
      [
        "▁tw",
        -10.525414642763558
      ],
      [
        "▁independen",
        -10.52545616953168
      ],
      [
        "▁remark",
        -10.525526227016968
      ],
      [
        "▁forth",
        -10.526118159795649
      ],
      [
        "eau",
        -10.527988679102176
      ],
      [
        "14",
        -10.528230146203605
      ],
      [
        "▁conscious",
        -10.528532889278125
      ],
      [
        "▁dut",
        -10.529568962193654
      ],
      [
        "▁corp",
        -10.529915110126595
      ],
      [
        "▁majorit",
        -10.530252578214895
      ],
      [
        "05",
        -10.53053388543106
      ],
      [
        "▁ji",
        -10.531658675895141
      ],
      [
        "▁@",
        -10.532211793824363
      ],
      [
        "▁fo",
        -10.533088899512014
      ],
      [
        "▁fork",
        -10.533833199416847
      ],
      [
        "▁mere",
        -10.534507214489917
      ],
      [
        "iness",
        -10.534629597618617
      ],
      [
        "zen",
        -10.534951671116175
      ],
      [
        "▁stream",
        -10.53746626105836
      ],
      [
        "32",
        -10.537623053927572
      ],
      [
        "▁islami",
        -10.538509831801207
      ],
      [
        "▁invite",
        -10.539224588211962
      ],
      [
        "▁happi",
        -10.539679612311426
      ],
      [
        "▁happening",
        -10.53976581408779
      ],
      [
        "11",
        -10.540947425391506
      ],
      [
        "▁bin",
        -10.543304903335466
      ],
      [
        "▁thre",
        -10.544512521673305
      ],
      [
        "▁defin",
        -10.545639219223865
      ],
      [
        "▁vice",
        -10.545786746289593
      ],
      [
        "▁joe",
        -10.547289085135391
      ],
      [
        "itch",
        -10.548322765055907
      ],
      [
        "▁jew",
        -10.549191899785171
      ],
      [
        "▁candidate",
        -10.549526505503106
      ],
      [
        "▁speech",
        -10.549526518959805
      ],
      [
        "▁replication",
        -10.549526529820968
      ],
      [
        "▁fifty",
        -10.549526543081607
      ],
      [
        "▁suspect",
        -10.54952659630147
      ],
      [
        "▁disease",
        -10.549526658066519
      ],
      [
        "▁client",
        -10.549526784360548
      ],
      [
        "▁length",
        -10.549526808969862
      ],
      [
        "▁possibilit",
        -10.549526809705855
      ],
      [
        "▁analyst",
        -10.549526882265774
      ],
      [
        "▁zealand",
        -10.549527582844927
      ],
      [
        "▁column",
        -10.549528089427012
      ],
      [
        "▁philosoph",
        -10.549529334117159
      ],
      [
        "▁identifie",
        -10.549529733067324
      ],
      [
        "▁vegetable",
        -10.54953234248391
      ],
      [
        "▁restriction",
        -10.549545076720484
      ],
      [
        "▁medicine",
        -10.54954564433049
      ],
      [
        "▁elevator",
        -10.549564204791755
      ],
      [
        "▁reveal",
        -10.54956631645576
      ],
      [
        "▁feather",
        -10.549576584396348
      ],
      [
        "▁eighteen",
        -10.549590677394544
      ],
      [
        "▁chapter",
        -10.549591637669813
      ],
      [
        "12",
        -10.5496153485962
      ],
      [
        "▁marble",
        -10.549646858321212
      ],
      [
        "▁investment",
        -10.54983510276277
      ],
      [
        "▁tummy",
        -10.54990332100453
      ],
      [
        "▁gather",
        -10.549914380192575
      ],
      [
        "▁athen",
        -10.549988833966776
      ],
      [
        "▁kiss",
        -10.550259542708133
      ],
      [
        "▁gift",
        -10.550470762446997
      ],
      [
        "▁twist",
        -10.550509365375573
      ],
      [
        "▁batter",
        -10.550510088216257
      ],
      [
        "▁expression",
        -10.550522538712823
      ],
      [
        "▁mid-",
        -10.55079594226424
      ],
      [
        "▁shin",
        -10.551081389115904
      ],
      [
        "▁loose",
        -10.551112605155557
      ],
      [
        "▁valle",
        -10.551236807983564
      ],
      [
        "▁scott",
        -10.551960548403606
      ],
      [
        "▁slide",
        -10.55371293057009
      ],
      [
        "▁flie",
        -10.553733546761663
      ],
      [
        "▁turk",
        -10.55412649614756
      ],
      [
        "tie",
        -10.554727329840127
      ],
      [
        "▁sir",
        -10.557792510333403
      ],
      [
        "ification",
        -10.558107254913036
      ],
      [
        "▁shower",
        -10.558260304184964
      ],
      [
        "ice",
        -10.558461596491322
      ],
      [
        "▁server",
        -10.558506960297073
      ],
      [
        "▁attach",
        -10.55854306871271
      ],
      [
        "row",
        -10.56004450733474
      ],
      [
        "▁crop",
        -10.560286711246036
      ],
      [
        "19",
        -10.56101334514471
      ],
      [
        "ara",
        -10.56350448343034
      ],
      [
        "▁enable",
        -10.564029944179248
      ],
      [
        "▁ru",
        -10.564461068715325
      ],
      [
        "▁origin",
        -10.565251943939394
      ],
      [
        "▁cris",
        -10.565476687336322
      ],
      [
        "▁pool",
        -10.566077216848583
      ],
      [
        "coming",
        -10.56624891558956
      ],
      [
        "ryan",
        -10.5684410288311
      ],
      [
        "of",
        -10.569270198677982
      ],
      [
        "▁tradition",
        -10.570102620003526
      ],
      [
        "▁journal",
        -10.571059965017614
      ],
      [
        "▁trail",
        -10.571545882800596
      ],
      [
        "▁tag",
        -10.572858077238596
      ],
      [
        "▁terror",
        -10.575353490874198
      ],
      [
        "igator",
        -10.576204092542115
      ],
      [
        "▁info",
        -10.576563793590774
      ],
      [
        "drew",
        -10.58131894206332
      ],
      [
        "▁strength",
        -10.58211839080456
      ],
      [
        "nger",
        -10.582412575552038
      ],
      [
        "set",
        -10.582679685339476
      ],
      [
        "▁magazine",
        -10.582859834459201
      ],
      [
        "▁enjamb",
        -10.582859834903331
      ],
      [
        "▁stupid",
        -10.582859839452507
      ],
      [
        "▁ghost",
        -10.582859847646755
      ],
      [
        "▁strike",
        -10.582859963406152
      ],
      [
        "▁jihad",
        -10.582859975307258
      ],
      [
        "▁holiday",
        -10.58286036665667
      ],
      [
        "▁delicious",
        -10.58286063020628
      ],
      [
        "▁grammar",
        -10.582861315349714
      ],
      [
        "▁vehicle",
        -10.58286616736695
      ],
      [
        "▁skittle",
        -10.58286829910152
      ],
      [
        "▁mosque",
        -10.582868321141872
      ],
      [
        "▁emergenc",
        -10.582869857792877
      ],
      [
        "▁honor",
        -10.582874271621883
      ],
      [
        "vernon",
        -10.582874322475167
      ],
      [
        "▁gender",
        -10.582876374731716
      ],
      [
        "▁battle",
        -10.582879331435356
      ],
      [
        "▁sixteen",
        -10.582880363617004
      ],
      [
        "▁lift",
        -10.582889001904022
      ],
      [
        "▁initiative",
        -10.5829654307131
      ],
      [
        "▁motor",
        -10.583139792055967
      ],
      [
        "▁lope",
        -10.583157168972416
      ],
      [
        "▁scale",
        -10.583161245239344
      ],
      [
        "▁cheek",
        -10.583196916845157
      ],
      [
        "▁mush",
        -10.583199101632806
      ],
      [
        "▁copyright",
        -10.583261512549296
      ],
      [
        "▁appeal",
        -10.583262195154465
      ],
      [
        "▁festival",
        -10.583375383938204
      ],
      [
        "▁appearance",
        -10.583609487951573
      ],
      [
        "ran",
        -10.58365635758487
      ],
      [
        "▁smith",
        -10.584143386086993
      ],
      [
        "▁universal",
        -10.58427115450668
      ],
      [
        "▁circum",
        -10.584350089717578
      ],
      [
        "▁rome",
        -10.5843708858134
      ],
      [
        "2000",
        -10.584798244996552
      ],
      [
        "▁topic",
        -10.585216285669523
      ],
      [
        "▁31",
        -10.586080031462705
      ],
      [
        "▁worm",
        -10.586532116022799
      ],
      [
        "▁comb",
        -10.58655007205289
      ],
      [
        "put",
        -10.587113710177137
      ],
      [
        "▁hung",
        -10.58797578922968
      ],
      [
        "▁import",
        -10.591307647509158
      ],
      [
        "▁tha",
        -10.59174856202901
      ],
      [
        ".net",
        -10.594235836700705
      ],
      [
        "▁thin",
        -10.594894846250785
      ],
      [
        "▁jim",
        -10.595035809691604
      ],
      [
        "▁dose",
        -10.595101096983559
      ],
      [
        "▁mission",
        -10.595585506280928
      ],
      [
        "half",
        -10.598585665930027
      ],
      [
        "47",
        -10.598903428273713
      ],
      [
        "▁profit",
        -10.599711635779707
      ],
      [
        "71",
        -10.601412915472016
      ],
      [
        "▁generat",
        -10.601961778461472
      ],
      [
        "▁refuse",
        -10.60300430299268
      ],
      [
        "▁quarter",
        -10.603984920362915
      ],
      [
        "▁deni",
        -10.60412864764718
      ],
      [
        "▁herself",
        -10.604247452591345
      ],
      [
        "ict",
        -10.604750859033409
      ],
      [
        "ooh",
        -10.605749677050659
      ],
      [
        "▁min",
        -10.607581606784747
      ],
      [
        "▁suppose",
        -10.608007605505689
      ],
      [
        "▁den",
        -10.610324318455639
      ],
      [
        "▁rug",
        -10.611039682752914
      ],
      [
        "ack",
        -10.611183254849212
      ],
      [
        "gie",
        -10.611275666222886
      ],
      [
        "che",
        -10.611832502824024
      ],
      [
        "cient",
        -10.612346625792814
      ],
      [
        "bby",
        -10.612594519084897
      ],
      [
        "▁bare",
        -10.613495820078327
      ],
      [
        "16",
        -10.613948239869039
      ],
      [
        "▁invest",
        -10.616730576587257
      ],
      [
        "▁install",
        -10.616769249330629
      ],
      [
        "▁tru",
        -10.616985357433299
      ],
      [
        "▁arrange",
        -10.617021245797591
      ],
      [
        "▁librar",
        -10.617230484011968
      ],
      [
        "▁ultimate",
        -10.617342593153277
      ],
      [
        "▁division",
        -10.617342703614852
      ],
      [
        "▁doughnut",
        -10.617342741920208
      ],
      [
        "▁diaper",
        -10.617343350714389
      ],
      [
        "▁shadow",
        -10.61734366540847
      ],
      [
        "▁evolv",
        -10.617344074244933
      ],
      [
        "▁ocean",
        -10.617344530364237
      ],
      [
        "▁rescue",
        -10.61734788081375
      ],
      [
        "▁hamster",
        -10.617349688328288
      ],
      [
        "▁wolf",
        -10.617351157480938
      ],
      [
        "▁saving",
        -10.617355123918214
      ],
      [
        "▁domain",
        -10.617355865695838
      ],
      [
        "▁theodor",
        -10.61736034136996
      ],
      [
        "▁brush",
        -10.617376962218236
      ],
      [
        "▁guideline",
        -10.617385945783612
      ],
      [
        "▁vlog",
        -10.617428346524816
      ],
      [
        "▁bulb",
        -10.617428667753948
      ],
      [
        "▁instruction",
        -10.617453944703866
      ],
      [
        "▁sentence",
        -10.617490006804164
      ],
      [
        "▁declaration",
        -10.617541250439185
      ],
      [
        "▁predict",
        -10.617697434593438
      ],
      [
        "▁pe",
        -10.61774876937308
      ],
      [
        "▁mexican",
        -10.617782286930145
      ],
      [
        "▁golden",
        -10.617836084226049
      ],
      [
        "▁improvement",
        -10.617927494800107
      ],
      [
        "▁float",
        -10.618214120299589
      ],
      [
        "plastic",
        -10.618597613241578
      ],
      [
        "mus",
        -10.619910735786346
      ],
      [
        "▁youtube",
        -10.620181129345857
      ],
      [
        "28",
        -10.62185815116607
      ],
      [
        "▁rec",
        -10.621862213393564
      ],
      [
        "▁chao",
        -10.621931202211274
      ],
      [
        "use",
        -10.622095138858391
      ],
      [
        "▁soil",
        -10.622557573518423
      ],
      [
        "▁mac",
        -10.623878591826852
      ],
      [
        "▁accurate",
        -10.624879113448355
      ],
      [
        "▁willing",
        -10.625369568677524
      ],
      [
        "▁revolution",
        -10.626832117190407
      ],
      [
        "▁nest",
        -10.627307321529079
      ],
      [
        "▁knee",
        -10.628897878629612
      ],
      [
        "mate",
        -10.629489442668497
      ],
      [
        "▁folk",
        -10.629815415473114
      ],
      [
        "▁entr",
        -10.630774354841268
      ],
      [
        "tractor",
        -10.631450672262783
      ],
      [
        "▁dese",
        -10.631588515188948
      ],
      [
        "▁dar",
        -10.63163361038132
      ],
      [
        "▁commissioner",
        -10.631637436711575
      ],
      [
        "23",
        -10.632042522840937
      ],
      [
        "▁advise",
        -10.633260914069341
      ],
      [
        "▁non",
        -10.633527775382294
      ],
      [
        "▁ja",
        -10.633672933596658
      ],
      [
        "place",
        -10.637656600113402
      ],
      [
        "▁198",
        -10.638666084062546
      ],
      [
        "ron",
        -10.639549051850231
      ],
      [
        "ggy",
        -10.641243601753033
      ],
      [
        "▁examin",
        -10.641831756507909
      ],
      [
        "nife",
        -10.641903552458793
      ],
      [
        "▁observ",
        -10.642176299395176
      ],
      [
        "▁spin",
        -10.642921598265023
      ],
      [
        "▁severe",
        -10.646481089895452
      ],
      [
        "ong",
        -10.646513472199699
      ],
      [
        "▁arrival",
        -10.647029376733126
      ],
      [
        "gra",
        -10.64727561458218
      ],
      [
        "...@",
        -10.648684188787264
      ],
      [
        "▁agricultur",
        -10.65069067033455
      ],
      [
        "▁execute",
        -10.650918626614661
      ],
      [
        "sumption",
        -10.651145606797128
      ],
      [
        "▁coat",
        -10.651581897030603
      ],
      [
        "nato",
        -10.651728102642087
      ],
      [
        "▁occasion",
        -10.652064559460573
      ],
      [
        "quino",
        -10.652935349215323
      ],
      [
        "book",
        -10.65297354094892
      ],
      [
        "▁colleague",
        -10.65305687878982
      ],
      [
        "▁consequence",
        -10.6530568787914
      ],
      [
        "▁łodz",
        -10.653056878891201
      ],
      [
        "▁muslim",
        -10.653056879408851
      ],
      [
        "▁bubble",
        -10.653056912136021
      ],
      [
        "▁prime",
        -10.653057081609255
      ],
      [
        "▁description",
        -10.653057205241875
      ],
      [
        "▁cupcake",
        -10.653057547971539
      ],
      [
        "▁troop",
        -10.65305788557685
      ],
      [
        "▁narrow",
        -10.653058698466015
      ],
      [
        "▁annual",
        -10.65305883539796
      ],
      [
        "▁excuse",
        -10.653059158557767
      ],
      [
        "▁currenc",
        -10.653059223471057
      ],
      [
        "▁serving",
        -10.653063826425424
      ],
      [
        "▁pump",
        -10.653078945315205
      ],
      [
        "▁definition",
        -10.653097878762374
      ],
      [
        "▁arrow",
        -10.653114357740282
      ],
      [
        "▁fuel",
        -10.653120055288776
      ],
      [
        "▁glove",
        -10.653124821344814
      ],
      [
        "▁devil",
        -10.653183755565498
      ],
      [
        "▁academic",
        -10.653190002998794
      ],
      [
        "▁hurry",
        -10.653272573082301
      ],
      [
        "▁airfare",
        -10.653305784040528
      ],
      [
        "▁spoon",
        -10.653448240927236
      ],
      [
        "▁royal",
        -10.65347240636083
      ],
      [
        "▁collective",
        -10.653481996488331
      ],
      [
        "▁witch",
        -10.653548364935014
      ],
      [
        "▁background",
        -10.653560886235883
      ],
      [
        "▁bang",
        -10.65395506542368
      ],
      [
        "▁lick",
        -10.6539727981578
      ],
      [
        "▁hunt",
        -10.653988456246461
      ],
      [
        "▁romantic",
        -10.65412426718131
      ],
      [
        "▁carolin",
        -10.654402653331259
      ],
      [
        "▁expectation",
        -10.654759841574137
      ],
      [
        "▁80",
        -10.655356798333536
      ],
      [
        "▁galo",
        -10.65547613210546
      ],
      [
        "ida",
        -10.656919828389578
      ],
      [
        "▁fi",
        -10.656988512400135
      ],
      [
        "air",
        -10.657353883238265
      ],
      [
        "uv",
        -10.657608465178887
      ],
      [
        "▁entit",
        -10.65780297919869
      ],
      [
        "rid",
        -10.658610130942689
      ],
      [
        "▁ju",
        -10.658870308608169
      ],
      [
        "pped",
        -10.65889139144145
      ],
      [
        "▁critical",
        -10.659660459570462
      ],
      [
        "▁repeated",
        -10.660739323365387
      ],
      [
        "▁75",
        -10.661393194320247
      ],
      [
        "▁shi",
        -10.661791185996506
      ],
      [
        "▁farmer",
        -10.662410265827868
      ],
      [
        "▁tickle",
        -10.66308872250413
      ],
      [
        "well",
        -10.665183105997425
      ],
      [
        "can",
        -10.665266349456031
      ],
      [
        "gar",
        -10.666569556840187
      ],
      [
        "▁penny",
        -10.666833930131487
      ],
      [
        "▁cooperati",
        -10.667076553294612
      ],
      [
        "ened",
        -10.667697084268665
      ],
      [
        "▁rur",
        -10.66788316776373
      ],
      [
        "▁anti",
        -10.66816492555524
      ],
      [
        "▁edit",
        -10.668441317780491
      ],
      [
        "▁foods",
        -10.671967299432815
      ],
      [
        "▁goat",
        -10.673369628770416
      ],
      [
        "nforcement",
        -10.67393586884868
      ],
      [
        "▁dud",
        -10.674642082901018
      ],
      [
        "▁rob",
        -10.674787317297124
      ],
      [
        "+",
        -10.675891635056185
      ],
      [
        "▁commercial",
        -10.676322234497654
      ],
      [
        "uck",
        -10.676336926281596
      ],
      [
        "▁familiar",
        -10.676388450648162
      ],
      [
        "mission",
        -10.677307963272195
      ],
      [
        "alv",
        -10.677686583118367
      ],
      [
        "▁caus",
        -10.677700172145233
      ],
      [
        "▁improv",
        -10.679279037819898
      ],
      [
        "▁inspire",
        -10.6800490347184
      ],
      [
        "stance",
        -10.680890898746286
      ],
      [
        "ford",
        -10.682099648852157
      ],
      [
        "▁transfer",
        -10.683243407833611
      ],
      [
        "79",
        -10.683625667515319
      ],
      [
        "pain",
        -10.684495061939613
      ],
      [
        "▁gi",
        -10.684937501316117
      ],
      [
        "▁experiment",
        -10.68511484124122
      ],
      [
        "▁prepare",
        -10.685133437739573
      ],
      [
        "▁boxe",
        -10.685566690557422
      ],
      [
        "▁steve",
        -10.686865338504647
      ],
      [
        "▁asia",
        -10.687542102927893
      ],
      [
        "marie",
        -10.688961456294843
      ],
      [
        "▁flo",
        -10.68899300686492
      ],
      [
        "▁demonstrate",
        -10.689103167159136
      ],
      [
        "▁adjust",
        -10.689755552946872
      ],
      [
        "▁republic",
        -10.689833690183733
      ],
      [
        "▁pepper",
        -10.690093958007608
      ],
      [
        "▁register",
        -10.69009396646848
      ],
      [
        "▁village",
        -10.690094334221047
      ],
      [
        "▁basket",
        -10.690098863364812
      ],
      [
        "▁trash",
        -10.69013713394941
      ],
      [
        "▁confidential",
        -10.690148175378573
      ],
      [
        "▁revenue",
        -10.690149912493178
      ],
      [
        "▁minimum",
        -10.690177493151651
      ],
      [
        "▁towel",
        -10.690181506411674
      ],
      [
        "▁variet",
        -10.6901911927703
      ],
      [
        "▁medium",
        -10.690243268706293
      ],
      [
        "▁translation",
        -10.690253091726783
      ],
      [
        "▁jewish",
        -10.690282319893019
      ],
      [
        "▁oppose",
        -10.690360699500195
      ],
      [
        "▁pleasure",
        -10.690428575782683
      ],
      [
        "ator",
        -10.6904306573317
      ],
      [
        "▁arrangement",
        -10.69044994529427
      ],
      [
        "▁industrial",
        -10.690498041165007
      ],
      [
        "▁package",
        -10.69087149353949
      ],
      [
        "▁ruin",
        -10.69087150493164
      ],
      [
        "▁pure",
        -10.691025613023454
      ],
      [
        "down",
        -10.691207238837295
      ],
      [
        "▁1000",
        -10.691225181849898
      ],
      [
        "▁27",
        -10.691269326534902
      ],
      [
        "▁unknown",
        -10.691422071117294
      ],
      [
        "▁comp",
        -10.692910362382575
      ],
      [
        "▁bu",
        -10.693384585384921
      ],
      [
        "▁fr",
        -10.693589712303734
      ],
      [
        "▁spa",
        -10.693878023027727
      ],
      [
        "ium",
        -10.695019450875964
      ],
      [
        "▁kent",
        -10.69514489244392
      ],
      [
        "07",
        -10.695248358824648
      ],
      [
        "▁jam",
        -10.695293436486793
      ],
      [
        "rubber",
        -10.696611393905345
      ],
      [
        "▁subscribe",
        -10.698217931352625
      ],
      [
        "▁soup",
        -10.698429197187048
      ],
      [
        "vod",
        -10.70350005993351
      ],
      [
        "▁horses",
        -10.703773930854462
      ],
      [
        "rdon",
        -10.705559032877774
      ],
      [
        "wart",
        -10.708432151674318
      ],
      [
        "=",
        -10.708964138075011
      ],
      [
        "cc",
        -10.709125963716687
      ],
      [
        "▁victor",
        -10.709375739630467
      ],
      [
        "▁chose",
        -10.709466485652255
      ],
      [
        "▁shell",
        -10.709595302204487
      ],
      [
        "▁promote",
        -10.71052556835752
      ],
      [
        "▁stepp",
        -10.71063062307245
      ],
      [
        "44",
        -10.712050265437057
      ],
      [
        "▁cliff",
        -10.714366792073116
      ],
      [
        "▁proceed",
        -10.71747779256556
      ],
      [
        "▁surround",
        -10.717649986153484
      ],
      [
        "▁hire",
        -10.721434654871445
      ],
      [
        "▁distribute",
        -10.723239750403232
      ],
      [
        "off",
        -10.723431056066946
      ],
      [
        "wide",
        -10.723850446956583
      ],
      [
        "what",
        -10.724654423850538
      ],
      [
        "▁compar",
        -10.7265060471264
      ],
      [
        "▁stands",
        -10.728494727709155
      ],
      [
        "▁visual",
        -10.72854160845604
      ],
      [
        "▁disappear",
        -10.728555454294293
      ],
      [
        "▁puzzle",
        -10.728555454369001
      ],
      [
        "▁mosquito",
        -10.72855545473255
      ],
      [
        "▁derivative",
        -10.72855545498666
      ],
      [
        "▁smooth",
        -10.728555471043716
      ],
      [
        "▁catholic",
        -10.728555555510543
      ],
      [
        "▁donkey",
        -10.728556007490814
      ],
      [
        "▁prince",
        -10.728556139029576
      ],
      [
        "▁cigarette",
        -10.728557509289082
      ],
      [
        "▁sufficient",
        -10.72855890890747
      ],
      [
        "▁recall",
        -10.728566789447541
      ],
      [
        "▁strain",
        -10.728567099831047
      ],
      [
        "▁dursley",
        -10.728574964091752
      ],
      [
        "▁linguistic",
        -10.72858786301982
      ],
      [
        "▁twentieth",
        -10.728612881276039
      ],
      [
        "▁michel",
        -10.728617605931003
      ],
      [
        "▁negati",
        -10.728623640110941
      ],
      [
        "▁crash",
        -10.728683351544218
      ],
      [
        "▁blank",
        -10.728749409519615
      ],
      [
        "▁republican",
        -10.728825954070771
      ],
      [
        "▁achievement",
        -10.7290978717594
      ],
      [
        "▁wiggle",
        -10.729279436137528
      ],
      [
        "▁anti-",
        -10.729502996307387
      ],
      [
        "▁approximate",
        -10.73019407400477
      ],
      [
        "▁theatre",
        -10.73020437061382
      ],
      [
        "▁libert",
        -10.730385302185836
      ],
      [
        "▁neat",
        -10.730391220821932
      ],
      [
        "▁declare",
        -10.730699861379982
      ],
      [
        "▁swimm",
        -10.730705674072404
      ],
      [
        "▁identit",
        -10.73116339920798
      ],
      [
        "▁wor",
        -10.73124330382862
      ],
      [
        "▁oz",
        -10.731364191787012
      ],
      [
        "▁height",
        -10.731479768791978
      ],
      [
        "▁rank",
        -10.73159267788689
      ],
      [
        "▁angr",
        -10.734063359368655
      ],
      [
        "bar",
        -10.734132878615458
      ],
      [
        "seni",
        -10.73560570376194
      ],
      [
        "22",
        -10.736690801270752
      ],
      [
        "ists",
        -10.739003844804278
      ],
      [
        "▁engage",
        -10.739321097754152
      ],
      [
        "▁referr",
        -10.741654092160635
      ],
      [
        "▁psycholog",
        -10.742313790962726
      ],
      [
        "▁shake",
        -10.743065538873571
      ],
      [
        "▁suffering",
        -10.744368779883068
      ],
      [
        "bak",
        -10.746778412931935
      ],
      [
        "▁winn",
        -10.74828925045664
      ],
      [
        "▁relations",
        -10.748873949067764
      ],
      [
        "▁core",
        -10.74928383562515
      ],
      [
        "▁killing",
        -10.749646035638543
      ],
      [
        "▁nav",
        -10.750523448898749
      ],
      [
        "▁joy",
        -10.750862942204074
      ],
      [
        "ole",
        -10.752111130863483
      ],
      [
        "▁ob",
        -10.752132175660414
      ],
      [
        "jo",
        -10.75294507784175
      ],
      [
        "upper",
        -10.753982921410438
      ],
      [
        "▁hid",
        -10.755042014115952
      ],
      [
        "aut",
        -10.756751420403827
      ],
      [
        "corporate",
        -10.757839408953679
      ],
      [
        "own",
        -10.758015101183721
      ],
      [
        "▁hous",
        -10.758705381917613
      ],
      [
        "40",
        -10.760179469596256
      ],
      [
        "▁occur",
        -10.76259619868008
      ],
      [
        "▁poo",
        -10.763740881927855
      ],
      [
        "▁archi",
        -10.764852031947301
      ],
      [
        "▁obs",
        -10.765504318791983
      ],
      [
        "▁nap",
        -10.766030554932318
      ],
      [
        "▁drawing",
        -10.766137457413645
      ],
      [
        "▁strange",
        -10.767013586679413
      ],
      [
        "standing",
        -10.768185677403626
      ],
      [
        "▁excel",
        -10.768467164159492
      ],
      [
        "▁infrastructure",
        -10.768555454288393
      ],
      [
        "▁criminal",
        -10.768555459228915
      ],
      [
        "▁regime",
        -10.768555462731449
      ],
      [
        "▁mirror",
        -10.768555596390108
      ],
      [
        "▁incredibl",
        -10.768555746842548
      ],
      [
        "▁cloud",
        -10.768555904551764
      ],
      [
        "▁tulsa",
        -10.76855594581887
      ],
      [
        "▁uniform",
        -10.768556190571013
      ],
      [
        "▁numero",
        -10.768559079291517
      ],
      [
        "▁identify",
        -10.768559369907594
      ],
      [
        "▁drama",
        -10.768560046427782
      ],
      [
        "▁editor",
        -10.768562506082937
      ],
      [
        "▁curve",
        -10.76856415836835
      ],
      [
        "▁household",
        -10.768567627929322
      ],
      [
        "▁internal",
        -10.768574680800581
      ],
      [
        "▁convert",
        -10.76860737881222
      ],
      [
        "▁assign",
        -10.768615982689287
      ],
      [
        "▁frame",
        -10.76862578060513
      ],
      [
        "▁giant",
        -10.768668244012941
      ],
      [
        "▁yard",
        -10.768776346937871
      ],
      [
        "▁structural",
        -10.768817900618817
      ],
      [
        "delhi",
        -10.768835192492517
      ],
      [
        "▁talent",
        -10.768844975372923
      ],
      [
        "▁advertis",
        -10.768858172240119
      ],
      [
        "▁destination",
        -10.768881161653193
      ],
      [
        "▁owl",
        -10.768890416046322
      ],
      [
        "▁flash",
        -10.768896737991689
      ],
      [
        "▁selection",
        -10.769164228226858
      ],
      [
        "▁grill",
        -10.769174466469222
      ],
      [
        "▁e.g",
        -10.769204637557383
      ],
      [
        "▁andaman",
        -10.769370045463601
      ],
      [
        "▁strengthen",
        -10.769448904816455
      ],
      [
        "▁portion",
        -10.769488995062382
      ],
      [
        "sleep",
        -10.76971552039744
      ],
      [
        "▁pattern",
        -10.769788992858977
      ],
      [
        "▁wire",
        -10.769921602290708
      ],
      [
        "▁worrie",
        -10.770074443157228
      ],
      [
        "▁jan",
        -10.770128272425332
      ],
      [
        "▁vol",
        -10.77033911640478
      ],
      [
        "▁cra",
        -10.770489244355552
      ],
      [
        "ourse",
        -10.770547851135813
      ],
      [
        "▁prefer",
        -10.770710951335639
      ],
      [
        "▁ken",
        -10.770824522037053
      ],
      [
        "ota",
        -10.771890779930112
      ],
      [
        "▁08",
        -10.772278677404746
      ],
      [
        "59",
        -10.772279497904766
      ],
      [
        "pan",
        -10.772950157100972
      ],
      [
        "▁suck",
        -10.77344180189891
      ],
      [
        "▁pric",
        -10.773822875016206
      ],
      [
        "▁clay",
        -10.774065553618309
      ],
      [
        "▁earne",
        -10.774194694703219
      ],
      [
        "▁practical",
        -10.77494533322044
      ],
      [
        "▁conclude",
        -10.77526201578165
      ],
      [
        "▁re-",
        -10.77566741644102
      ],
      [
        "▁gap",
        -10.77581641635425
      ],
      [
        "39",
        -10.776799676239463
      ],
      [
        "▁38",
        -10.777363139350086
      ],
      [
        "ensive",
        -10.778729664102833
      ],
      [
        "nny",
        -10.778944793354459
      ],
      [
        "rank",
        -10.77938096985887
      ],
      [
        "nce",
        -10.782045779041292
      ],
      [
        "08",
        -10.78230054979344
      ],
      [
        "▁70",
        -10.782439245174592
      ],
      [
        "▁conc",
        -10.783780562406974
      ],
      [
        "▁licens",
        -10.78451555280747
      ],
      [
        "▁refus",
        -10.785633285280337
      ],
      [
        "fence",
        -10.785937719383535
      ],
      [
        "visibl",
        -10.785939633734177
      ],
      [
        "mmy",
        -10.78671166409096
      ],
      [
        "87",
        -10.787292565965839
      ],
      [
        "▁hoo",
        -10.787570290977923
      ],
      [
        "roni",
        -10.792855017514277
      ],
      [
        "▁bond",
        -10.79299730297747
      ],
      [
        "▁surviv",
        -10.793178500648578
      ],
      [
        "▁gal",
        -10.794557574347142
      ],
      [
        "rais",
        -10.7950412919919
      ],
      [
        "lep",
        -10.79966186976439
      ],
      [
        "bert",
        -10.799761556334962
      ],
      [
        "75",
        -10.800175485763262
      ],
      [
        "▁repeat",
        -10.803949018752935
      ],
      [
        "▁crack",
        -10.80568405002203
      ],
      [
        "cute",
        -10.807265017034533
      ],
      [
        "0,000",
        -10.808691772636516
      ],
      [
        "▁marked",
        -10.80921154762351
      ],
      [
        "▁choo",
        -10.809980314908291
      ],
      [
        "▁protest",
        -10.810123744764729
      ],
      [
        "▁neighbour",
        -10.810190019578275
      ],
      [
        "▁constituenc",
        -10.81022212095506
      ],
      [
        "▁recipient",
        -10.810222120955824
      ],
      [
        "▁quartile",
        -10.8102221209761
      ],
      [
        "▁recruit",
        -10.810222121340466
      ],
      [
        "▁surprising",
        -10.810222121396599
      ],
      [
        "▁ingredient",
        -10.810222121598668
      ],
      [
        "▁explanation",
        -10.810222122831732
      ],
      [
        "▁counterfeit",
        -10.810222124733336
      ],
      [
        "▁attorney",
        -10.810222135112395
      ],
      [
        "▁aesthetic",
        -10.810222154540618
      ],
      [
        "▁entertain",
        -10.810222165218441
      ],
      [
        "▁wizard",
        -10.810222207222346
      ],
      [
        "▁equipment",
        -10.810222223139435
      ],
      [
        "▁domestic",
        -10.810222431008352
      ],
      [
        "▁taiwan",
        -10.810222626762714
      ],
      [
        "▁suprem",
        -10.810222793004986
      ],
      [
        "▁switch",
        -10.810225063543834
      ],
      [
        "▁pledge",
        -10.810225363128149
      ],
      [
        "▁strawberr",
        -10.810227234492269
      ],
      [
        "▁saudi",
        -10.810230610779122
      ],
      [
        "▁blind",
        -10.810234089049047
      ],
      [
        "▁snitch",
        -10.810242766766192
      ],
      [
        "▁desert",
        -10.810249950455434
      ],
      [
        "▁urban",
        -10.810261619912966
      ],
      [
        "▁biological",
        -10.810264067212238
      ],
      [
        "▁recover",
        -10.810267270054846
      ],
      [
        "▁jason",
        -10.810275674283128
      ],
      [
        "▁seventeen",
        -10.81028026363319
      ],
      [
        "▁accus",
        -10.810395116892328
      ],
      [
        "▁salon",
        -10.81046216261635
      ],
      [
        "▁gym",
        -10.810464855330288
      ],
      [
        "▁commitment",
        -10.810468749765725
      ],
      [
        "▁grape",
        -10.810486007158968
      ],
      [
        "▁addiction",
        -10.810571369397785
      ],
      [
        "stein",
        -10.810637464037413
      ],
      [
        "▁combine",
        -10.810668072398679
      ],
      [
        "surgery",
        -10.810797319495457
      ],
      [
        "▁horn",
        -10.810847583471999
      ],
      [
        "▁saint",
        -10.810888602611652
      ],
      [
        "▁punch",
        -10.811104947497615
      ],
      [
        "▁amend",
        -10.811189902390101
      ],
      [
        "▁laid",
        -10.811246914494435
      ],
      [
        "▁tower",
        -10.81126120724376
      ],
      [
        "▁attitude",
[...]
