{
  "version": "1.0",
  "truncation": null,
  "padding": null,
  "added_tokens": [
    {
      "id": 4831,
      "content": "[SEP]",
      "single_word": false,
      "lstrip": false,
      "rstrip": false,
      "normalized": false,
      "special": true
    },
    {
      "id": 7974,
      "content": "[UNK]",
      "single_word": false,
      "lstrip": false,
      "rstrip": false,
      "normalized": false,
      "special": true
    },
    {
      "id": 10001,
      "content": "[MASK]",
      "single_word": false,
      "lstrip": false,
      "rstrip": false,
      "normalized": false,
      "special": true
    },
    {
      "id": 13137,
      "content": "[PAD]",
      "single_word": false,
      "lstrip": false,
      "rstrip": false,
      "normalized": false,
      "special": true
    },
    {
      "id": 13340,
      "content": "[CLS]",
      "single_word": false,
      "lstrip": false,
      "rstrip": false,
      "normalized": false,
      "special": true
    }
  ],
  "normalizer": {
    "type": "Sequence",
    "normalizers": [
      {
        "type": "NFD"
      },
      {
        "type": "Lowercase"
      },
      {
        "type": "StripAccents"
      }
    ]
  },
  "pre_tokenizer": {
    "type": "Sequence",
    "pretokenizers": [
      {
        "type": "Metaspace",
        "replacement": "▁",
        "prepend_scheme": "always",
        "split": true
      }
    ]
  },
  "post_processor": {
    "type": "TemplateProcessing",
    "single": [
      {
        "SpecialToken": {
          "id": "[CLS]",
          "type_id": 0
        }
      },
      {
        "Sequence": {
          "id": "A",
          "type_id": 0
        }
      },
      {
        "SpecialToken": {
          "id": "[SEP]",
          "type_id": 0
        }
      }
    ],
    "pair": [
      {
        "SpecialToken": {
          "id": "[CLS]",
          "type_id": 0
        }
      },
      {
        "Sequence": {
          "id": "A",
          "type_id": 0
        }
      },
      {
        "SpecialToken": {
          "id": "[SEP]",
          "type_id": 0
        }
      },
      {
        "Sequence": {
          "id": "B",
          "type_id": 1
        }
      },
      {
        "SpecialToken": {
          "id": "[SEP]",
          "type_id": 1
        }
      }
    ],
    "special_tokens": {
      "[CLS]": {
        "id": "[CLS]",
        "ids": [
          13340
        ],
        "tokens": [
          "[CLS]"
        ]
      },
      "[SEP]": {
        "id": "[SEP]",
        "ids": [
          4831
        ],
        "tokens": [
          "[SEP]"
        ]
      }
    }
  },
  "decoder": {
    "type": "Metaspace",
    "replacement": "▁",
    "prepend_scheme": "always",
    "split": true
  },
  "model": {
    "type": "WordPiece",
    "unk_token": "[UNK]",
    "continuing_subword_prefix": "##",
    "max_input_chars_per_word": 100,
    "vocab": {
      "▁controls": 0,
      "▁shed": 1,
      "▁evans": 2,
      "▁transparent": 3,
      "▁solidarity": 4,
      "▁sails": 5,
      "▁translation": 6,
      "▁complex": 7,
      "##arrass": 8,
      "▁deleg": 9,
      "▁punched": 10,
      "▁identical": 11,
      "▁wealth": 12,
      "▁traveler": 13,
      "▁713-853-3098": 14,
      "▁backyard": 15,
      "▁tracks": 16,
      "▁astride": 17,
      "▁urler": 18,
      "▁participated": 19,
      "▁broker": 20,
      "▁gil": 21,
      "▁n-": 22,
      "▁sch": 23,
      "##fl": 24,
      "▁squares": 25,
      "▁anx": 26,
      "▁.3": 27,
      "▁enrononline": 28,
      "▁10:30": 29,
      "##lem": 30,
      "▁wis": 31,
      "##ه": 32,
      "▁aim": 33,
      "▁343": 34,
      "▁17th": 35,
      "▁attention": 36,
      "##500": 37,
      "▁farmers": 38,
      "▁proust": 39,
      "▁limous": 40,
      "▁planted": 41,
      "##otted": 42,
      "▁encab": 43,
      "▁stays": 44,
      "▁charity": 45,
      "▁noone": 46,
      "▁scenic": 47,
      "▁7:00": 48,
      "▁inst": 49,
      "▁lifet": 50,
      "▁general": 51,
      "▁tex": 52,
      "##3736": 53,
      "▁09/15/99": 54,
      "▁repres": 55,
      "▁ran": 56,
      "▁turning": 57,
      "谿": 58,
      "##oning": 59,
      "##ador": 60,
      "##ions": 61,
      "▁owing": 62,
      "▁rid": 63,
      "▁lady": 64,
      "▁body": 65,
      "##icing": 66,
      "▁tv": 67,
      "▁columbus": 68,
      "##????????": 69,
      "▁vaccine": 70,
      "▁person": 71,
      "▁fract": 72,
      "##hone": 73,
      "▁producers": 74,
      "##iat": 75,
      "▁cha": 76,
      "▁relevant": 77,
      "##el": 78,
      "##mp": 79,
      "▁extraordinary": 80,
      "▁mailto:": 81,
      "▁zacarias": 82,
      "▁sexual": 83,
      "##ona": 84,
      "▁1965": 85,
      "▁08/03": 86,
      "▁cheer": 87,
      "▁conceptual": 88,
      "▁acts": 89,
      "▁odara": 90,
      "▁345-99": 91,
      "▁oreg": 92,
      "▁32": 93,
      "##iel": 94,
      "▁fallen": 95,
      "▁dots": 96,
      "▁dragon": 97,
      "▁extensible": 98,
      "▁cast": 99,
      "▁spells": 100,
      "▁display": 101,
      "▁labrador": 102,
      "▁alberta": 103,
      "▁om": 104,
      "##36": 105,
      "▁admit": 106,
      "##gal": 107,
      "▁explorer": 108,
      "▁forever": 109,
      "▁mathematical": 110,
      "##etts": 111,
      "##ppo": 112,
      "##etti": 113,
      "▁simply": 114,
      "▁12/2": 115,
      "▁receiving": 116,
      "▁chief": 117,
      "▁cleaner": 118,
      "##isandy": 119,
      "▁crunch": 120,
      "▁channel": 121,
      "##ements": 122,
      "▁literally": 123,
      "s": 124,
      "##raph": 125,
      "▁beater": 126,
      "▁moves": 127,
      "▁anem": 128,
      "##hand": 129,
      "##riers": 130,
      "▁suffered": 131,
      "▁on": 132,
      "▁differently": 133,
      "▁city": 134,
      "▁suck": 135,
      "▁plain": 136,
      "▁03:20": 137,
      "▁rept": 138,
      "▁gar": 139,
      "##apping": 140,
      "▁compuls": 141,
      "▁mechanics": 142,
      "▁impartial": 143,
      "▁hamm": 144,
      "▁identifying": 145,
      "##-fl": 146,
      "▁ingred": 147,
      "▁646-84": 148,
      "▁headlines": 149,
      "▁shall": 150,
      "▁^": 151,
      "##yard": 152,
      "▁-2-f.doc": 153,
      "▁empan": 154,
      "##ilit": 155,
      "▁favor": 156,
      "▁deep": 157,
      "▁insp": 158,
      "▁unit": 159,
      "▁leg": 160,
      "▁dogs": 161,
      "▁deduct": 162,
      "▁sto": 163,
      "▁corpus": 164,
      "▁ha": 165,
      "▁04:": 166,
      "▁brut": 167,
      "##inn": 168,
      "▁pu": 169,
      "m": 170,
      "##itally": 171,
      "▁pop": 172,
      "▁indiana": 173,
      "▁car": 174,
      "▁prosp": 175,
      "▁jr.": 176,
      "▁liby": 177,
      "▁grows": 178,
      "##eler": 179,
      "▁calif": 180,
      "▁diss": 181,
      "▁inexp": 182,
      "▁foul": 183,
      "##els@esa": 184,
      "▁older": 185,
      "▁group": 186,
      "▁furn": 187,
      "▁outside": 188,
      "##ade": 189,
      "▁formed": 190,
      "▁experiences": 191,
      "##ires": 192,
      "▁mere": 193,
      "▁procedures": 194,
      "▁fighter": 195,
      "▁took": 196,
      "##ump": 197,
      "▁1970s": 198,
      "▁wants": 199,
      "▁dispatch": 200,
      "▁bones": 201,
      "▁antonio": 202,
      "▁hoped": 203,
      "▁tell": 204,
      "##oring": 205,
      "▁tours": 206,
      "▁cent": 207,
      "▁ruin": 208,
      "##ounds": 209,
      "▁steal": 210,
      "▁exhausted": 211,
      "▁busy": 212,
      "▁chalk": 213,
      "▁___________": 214,
      "▁ugly": 215,
      "▁enthusi": 216,
      "▁jerome": 217,
      "▁traged": 218,
      "▁seiz": 219,
      "##pdf": 220,
      "▁tast": 221,
      "▁??": 222,
      "▁infl": 223,
      "▁received": 224,
      "▁ts": 225,
      "▁unfamiliar": 226,
      "▁salesman": 227,
      "##agh": 228,
      "ε": 229,
      "▁biograph": 230,
      "##ema": 231,
      "##9/2000": 232,
      "▁alert": 233,
      "▁thereby": 234,
      "##izers": 235,
      "▁merit": 236,
      "▁hoax": 237,
      "▁palacio": 238,
      "▁ambass": 239,
      "▁about": 240,
      "##inent": 241,
      "##-s": 242,
      "▁too": 243,
      "▁negotiations": 244,
      "##cond": 245,
      "▁ships": 246,
      "##ians": 247,
      "▁scott": 248,
      "▁ecc": 249,
      "▁satisf": 250,
      "▁coc": 251,
      "▁-": 252,
      "##inal": 253,
      "▁814": 254,
      "##谿": 255,
      "▁satisfied": 256,
      "▁specialized": 257,
      "▁84": 258,
      "▁nonstop": 259,
      "▁holiday": 260,
      "##/08": 261,
      "▁hew": 262,
      "▁css": 263,
      "##ually": 264,
      "▁circular": 265,
      "▁judges": 266,
      "##:38": 267,
      "##...": 268,
      "▁heading": 269,
      "▁celebr": 270,
      "##media": 271,
      "▁native": 272,
      "▁highly": 273,
      "##clus": 274,
      "##berts": 275,
      "##gling": 276,
      "▁blankets": 277,
      "##val": 278,
      "▁dinosaur": 279,
      "##ners": 280,
      "▁foo": 281,
      "##ive": 282,
      "▁artwork": 283,
      "▁quotes": 284,
      "▁rinny": 285,
      "▁ruse": 286,
      "▁jen": 287,
      "▁fatal": 288,
      "▁monsters": 289,
      "##tical": 290,
      "▁console": 291,
      "▁respons": 292,
      "##ha": 293,
      "##ish": 294,
      "##inski": 295,
      "▁vogelaviatio": 296,
      "▁205": 297,
      "▁dolphin": 298,
      "##ator": 299,
      "▁tac": 300,
      "▁hyatt": 301,
      "▁proceeds": 302,
      "▁knowing": 303,
      "▁kennedy": 304,
      "##rome": 305,
      "▁swung": 306,
      "##anmar": 307,
      "##ime": 308,
      "▁anderson": 309,
      "▁253": 310,
      "##ide": 311,
      "##reat": 312,
      "##51_": 313,
      "▁valent": 314,
      "▁downtown": 315,
      "##ival": 316,
      "▁mech": 317,
      "▁04/16/2001": 318,
      "▁weird": 319,
      "▁mycel": 320,
      "▁old": 321,
      "▁400": 322,
      "▁harsh": 323,
      "▁alphab": 324,
      "▁rank": 325,
      "▁orleans": 326,
      "▁cookie": 327,
      "▁diarr": 328,
      "▁yoko": 329,
      "▁bending": 330,
      "##tta": 331,
      "▁software": 332,
      "▁scientific": 333,
      "▁guaranty": 334,
      "▁bridges": 335,
      "▁yellow": 336,
      "▁justification": 337,
      "▁weekday": 338,
      "##’": 339,
      "▁recent": 340,
      "▁unl": 341,
      "##ommend": 342,
      "▁replied": 343,
      "▁dresses": 344,
      "▁newsgroup": 345,
      "##aki": 346,
      "▁cig": 347,
      "▁syria": 348,
      "▁sweden": 349,
      "##134": 350,
      "▁lennon": 351,
      "▁variation": 352,
      "▁pressure": 353,
      "▁supermarket": 354,
      "▁analysts": 355,
      "##ught": 356,
      "▁cocoa": 357,
      "##ili": 358,
      "▁democr": 359,
      "▁140": 360,
      "▁unsure": 361,
      "▁leon": 362,
      "▁easiest": 363,
      "▁lettuce": 364,
      "▁fairy": 365,
      "##isted": 366,
      "▁isi": 367,
      "▁amidst": 368,
      "▁tourist": 369,
      "▁cens": 370,
      "▁44,000": 371,
      "▁heaven": 372,
      "▁ser": 373,
      "▁advanced": 374,
      "##emical": 375,
      "5": 376,
      "▁espec": 377,
      "▁analys": 378,
      "▁welcomed": 379,
      "▁nwww": 380,
      "▁date": 381,
      "##–": 382,
      "##asant": 383,
      "▁models": 384,
      "▁raccoon": 385,
      "▁deserves": 386,
      "▁itiner": 387,
      "##rella": 388,
      "▁initiate": 389,
      "▁insulting": 390,
      "▁recreat": 391,
      "▁joseph": 392,
      "▁factions": 393,
      "▁builders": 394,
      "▁extrad": 395,
      "##+----------------": 396,
      "##health": 397,
      "##liament": 398,
      "##2s": 399,
      "▁bozo": 400,
      "▁manufacturing": 401,
      "▁artworks": 402,
      "▁gracious": 403,
      "▁fries": 404,
      "▁walls": 405,
      "##pack": 406,
      "##²": 407,
      "▁lion": 408,
      "▁mistake": 409,
      "▁worker": 410,
      "▁doub": 411,
      "▁doo": 412,
      "▁efficient": 413,
      "▁emer": 414,
      "▁palestinian": 415,
      "▁ekrap": 416,
      "##bach": 417,
      "▁travis": 418,
      "##exp": 419,
      "▁contem": 420,
      "▁giraff": 421,
      "▁perman": 422,
      "▁truth": 423,
      "▁soup": 424,
      "▁spaces": 425,
      "▁mainstream": 426,
      "##bridge": 427,
      "▁spite": 428,
      "▁sprouts": 429,
      "▁pronunciation": 430,
      "▁harv": 431,
      "▁cartoon": 432,
      "▁legitimate": 433,
      "▁lol": 434,
      "▁adop": 435,
      "▁upset": 436,
      "▁islamabad": 437,
      "▁<": 438,
      "▁both": 439,
      "▁interesting": 440,
      "##/13": 441,
      "▁folder": 442,
      "▁undermine": 443,
      "##/03": 444,
      "▁contained": 445,
      "▁ave": 446,
      "▁must": 447,
      "▁bye": 448,
      "▁spectac": 449,
      "▁uncover": 450,
      "▁eggs": 451,
      "▁honore": 452,
      "▁toys": 453,
      "▁unbel": 454,
      "▁monit": 455,
      "▁hipp": 456,
      "▁kansas": 457,
      "▁dando": 458,
      "##urs": 459,
      "▁reg": 460,
      "▁bush": 461,
      "▁hood": 462,
      "▁5.6": 463,
      "▁bos": 464,
      "▁fyi": 465,
      "▁18": 466,
      "▁ice": 467,
      "##thers": 468,
      "##two": 469,
      "▁overse": 470,
      "▁fired": 471,
      "##affle": 472,
      "▁cigare": 473,
      "▁founded": 474,
      "▁texts": 475,
      "##415-": 476,
      "▁atmosphere": 477,
      "x": 478,
      "▁conj": 479,
      "▁surprise": 480,
      "##57": 481,
      "▁***": 482,
      "##ract": 483,
      "##ve": 484,
      "▁rum": 485,
      "▁charming": 486,
      "▁marshmallow": 487,
      "##ups": 488,
      "▁nik": 489,
      "▁500": 490,
      "##aph": 491,
      "##tt": 492,
      "▁renov": 493,
      "▁lopez": 494,
      "##ignon": 495,
      "▁cognition": 496,
      "▁“": 497,
      "▁tells": 498,
      "▁affluent": 499,
      "▁strategic": 500,
      "##uge": 501,
      "##ative": 502,
      "▁princ": 503,
      "▁sponge": 504,
      "##ple": 505,
      "▁bondad": 506,
      "▁birthday": 507,
      "▁its": 508,
      "##22,000": 509,
      "▁mich": 510,
      "▁prevent": 511,
      "##people": 512,
      "▁harp": 513,
      "##ucker": 514,
      "▁waitress": 515,
      "▁feathers": 516,
      "##row": 517,
      "▁-----------------": 518,
      "▁fascinating": 519,
      "▁guests": 520,
      "▁quiet": 521,
      "▁nig": 522,
      "▁tel": 523,
      "▁stealing": 524,
      "▁,": 525,
      "##erc": 526,
      "▁sure": 527,
      "▁wherever": 528,
      "▁sanct": 529,
      "##ackl": 530,
      "▁wife": 531,
      "▁them": 532,
      "▁census": 533,
      "▁unpre": 534,
      "▁rums": 535,
      "##ille": 536,
      "▁falled": 537,
      "▁usually": 538,
      "▁document": 539,
      "▁miracle": 540,
      "▁men": 541,
      "##iety": 542,
      "##de": 543,
      "##ellig": 544,
      "▁damn": 545,
      "▁briefly": 546,
      "▁inherent": 547,
      "▁retain": 548,
      "▁presidency": 549,
      "▁writ": 550,
      "▁firmly": 551,
      "##eared": 552,
      "▁breaks": 553,
      "##asc": 554,
      "##th": 555,
      "▁transform": 556,
      "▁delta": 557,
      "▁escape": 558,
      "▁4": 559,
      "▁brick": 560,
      "▁ark": 561,
      "▁interests": 562,
      "##under": 563,
      "▁agency": 564,
      "▁huit": 565,
      "##.75": 566,
      "▁yup": 567,
      "▁fun": 568,
      "▁hero": 569,
      "▁helicopter": 570,
      "##land": 571,
      "▁opportunity": 572,
      "▁puppy": 573,
      "##-8": 574,
      "##ball": 575,
      "▁willingness": 576,
      "▁diet": 577,
      "##asts": 578,
      "▁temp": 579,
      "▁supernat": 580,
      "▁bangs": 581,
      "##rels": 582,
      "▁student": 583,
      "▁limits": 584,
      "##00": 585,
      "##...@": 586,
      "##gment": 587,
      "▁helm": 588,
      "▁smooth": 589,
      "##ery": 590,
      "▁-%": 591,
      "▁stand": 592,
      "ο": 593,
      "▁mozilla": 594,
      "▁laura": 595,
      "##isp": 596,
      "▁hann": 597,
      "▁ahab": 598,
      "##iz": 599,
      "▁spiderman": 600,
      "▁calgary": 601,
      "##rench": 602,
      "▁!?": 603,
      "▁shiite": 604,
      "▁virt": 605,
      "▁trillion": 606,
      "##6/": 607,
      "▁appeared": 608,
      "▁launched": 609,
      "▁foreigners": 610,
      "▁wheels": 611,
      "##ina": 612,
      "▁hym": 613,
      "▁nowhere": 614,
      "▁swiss": 615,
      "##bat": 616,
      "▁guard": 617,
      "▁dimin": 618,
      "▁ni": 619,
      "▁domestic": 620,
      "▁delicious": 621,
      "▁bet": 622,
      "▁semin": 623,
      "▁beaten": 624,
      "▁infected": 625,
      "▁caring": 626,
      "##eurs": 627,
      "▁authentic": 628,
      "▁step": 629,
      "▁west": 630,
      "▁everywhere": 631,
      "▁obtain": 632,
      "▁horizont": 633,
      "▁fut": 634,
      "##ass": 635,
      "▁demonstration": 636,
      "▁boat": 637,
      "▁conclud": 638,
      "▁dow": 639,
      "▁mostly": 640,
      "##39": 641,
      "##-9004": 642,
      "▁hog": 643,
      "▁sub": 644,
      "▁booked": 645,
      "▁admiration": 646,
      "##azz": 647,
      "▁prov": 648,
      "##tip": 649,
      "▁01:0": 650,
      "##reck": 651,
      "▁spotted": 652,
      "▁beautiful": 653,
      "##ed": 654,
      "▁rest": 655,
      "▁----------------------------------------------------------------------": 656,
      "▁'ll": 657,
      "##phis": 658,
      "##4-": 659,
      "##-79": 660,
      "##ocol": 661,
      "▁cuban": 662,
      "▁odds": 663,
      "▁joking": 664,
      "▁burrow": 665,
      "##a.": 666,
      "▁prepared": 667,
      "##łod": 668,
      "▁aggressive": 669,
      "▁communicate": 670,
      "▁–": 671,
      "▁sal": 672,
      "▁wandering": 673,
      "▁circulation": 674,
      "▁ink": 675,
      "▁congregation": 676,
      "##ially": 677,
      "▁ripped": 678,
      "▁cambod": 679,
      "▁-----------------------------------------------------------------------": 680,
      "▁qual": 681,
      "##70": 682,
      "▁montana": 683,
      "##fort": 684,
      "▁stretching": 685,
      "▁pillars": 686,
      "▁resp": 687,
      "▁saud": 688,
      "▁ari": 689,
      "▁600": 690,
      "▁royal": 691,
      "##rets": 692,
      "▁lung": 693,
      "▁susan": 694,
      "▁parent": 695,
      "##ks": 696,
      "▁soul": 697,
      "▁online": 698,
      "▁argent": 699,
      "▁conver": 700,
      "##ental": 701,
      "▁competent": 702,
      "▁spa": 703,
      "▁amazing": 704,
      "▁contract": 705,
      "▁instruments": 706,
      "▁extinction": 707,
      "##izz": 708,
      "▁argued": 709,
      "▁mile": 710,
      "▁1100": 711,
      "##dam": 712,
      "▁russ": 713,
      ",": 714,
      "##ibility": 715,
      "##oust": 716,
      "▁notwi": 717,
      "▁unconsc": 718,
      "##izes": 719,
      "▁sweeping": 720,
      "▁his": 721,
      "##osure": 722,
      "▁aft": 723,
      "▁substantial": 724,
      "▁nah": 725,
      "▁================================": 726,
      "##els": 727,
      "##47": 728,
      "▁thrown": 729,
      "▁byebye": 730,
      "##461": 731,
      "##iy": 732,
      "▁cartoons": 733,
      "##0's": 734,
      "▁violence": 735,
      "##irm": 736,
      "▁tendencies": 737,
      "▁communication": 738,
      "▁pardon": 739,
      "▁cameras": 740,
      "▁raised": 741,
      "▁poetry": 742,
      "▁rul": 743,
      "▁legal": 744,
      "▁earthqu": 745,
      "▁dispute": 746,
      "▁click": 747,
      "##ellow": 748,
      "##order": 749,
      "▁al.": 750,
      "▁is": 751,
      "▁e.g": 752,
      "▁category": 753,
      "▁cryst": 754,
      "▁political": 755,
      "##.916.718": 756,
      "▁slowly": 757,
      "­": 758,
      "▁1st": 759,
      "▁beck": 760,
      "×": 761,
      "▁nasser": 762,
      "▁wrote": 763,
      "##rev": 764,
      "▁isolated": 765,
      "▁mater": 766,
      "##inte": 767,
      "▁money": 768,
      "▁campa": 769,
      "▁veget": 770,
      "##ulty": 771,
      "▁calf": 772,
      "▁freight": 773,
      "▁800.713.8": 774,
      "▁peas": 775,
      "▁basis": 776,
      "▁inc.": 777,
      "▁consideration": 778,
      "▁works": 779,
      "▁without": 780,
      "▁1996": 781,
      "▁manhattan": 782,
      "▁proud": 783,
      "▁string": 784,
      "▁1939": 785,
      "▁weeds": 786,
      "▁another": 787,
      "▁tide": 788,
      "##iots": 789,
      "##fast": 790,
      "▁scrib": 791,
      "▁vagu": 792,
      "▁balloons": 793,
      "▁disaster": 794,
      "▁sections": 795,
      "▁realized": 796,
      "##hab": 797,
      "##ips": 798,
      "▁democratic": 799,
      "▁:?": 800,
      "▁enjoyed": 801,
      "一": 802,
      "▁fiji": 803,
      "▁friendsh": 804,
      "▁vcu": 805,
      "▁processor": 806,
      "▁1291": 807,
      "▁chris": 808,
      "▁republican": 809,
      "##ymp": 810,
      "▁flap": 811,
      "▁introd": 812,
      "▁noise": 813,
      "▁mayor": 814,
      "▁moscow": 815,
      "▁john": 816,
      "##ici": 817,
      "▁pain": 818,
      "▁composition": 819,
      "▁tina": 820,
      "▁reject": 821,
      "##teous": 822,
      "▁collective": 823,
      "▁no-6": 824,
      "▁default": 825,
      "▁throat": 826,
      "▁vis": 827,
      "▁turkey": 828,
      "▁whist": 829,
      "▁assigned": 830,
      "▁although": 831,
      "▁2010": 832,
      "▁guys": 833,
      "▁01:14": 834,
      "▁condition": 835,
      "▁glac": 836,
      "▁popeye": 837,
      "▁loi": 838,
      "▁including": 839,
      "##-w": 840,
      "##ingle": 841,
      "▁descri": 842,
      "▁curly": 843,
      "▁slim": 844,
      "##driver": 845,
      "▁succeed": 846,
      "▁striking": 847,
      "▁comic": 848,
      "▁ayman": 849,
      "▁worry": 850,
      "##ilton": 851,
      "▁treatise": 852,
      "▁technology": 853,
      "▁abs": 854,
      "▁1590": 855,
      "##orno": 856,
      "▁mullah": 857,
      "▁interference": 858,
      "▁pakistan": 859,
      "▁revol": 860,
      "▁donkey": 861,
      "▁kenya": 862,
      "▁mah": 863,
      "▁cry": 864,
      "▁am": 865,
      "▁presented": 866,
      "▁dead": 867,
      "▁dickens": 868,
      "##izabeth": 869,
      "##shire": 870,
      "▁ur": 871,
      "##enses": 872,
      "▁compr": 873,
      "▁revised": 874,
      "##ll": 875,
      "##iph": 876,
      "▁despite": 877,
      "▁already": 878,
      "##bruary": 879,
      "▁shark": 880,
      "▁dreamed": 881,
      "▁battle": 882,
      "▁sunny": 883,
      "▁cupcakes": 884,
      "▁equ": 885,
      "▁bankrupt": 886,
      "▁moving": 887,
      "▁homes": 888,
      "▁broader": 889,
      "▁80": 890,
      "▁count": 891,
      "▁alab": 892,
      "▁locomotive": 893,
      "##nut": 894,
      "▁nym": 895,
      "▁whit": 896,
      "##season": 897,
      "ɑ": 898,
      "▁lasting": 899,
      "▁northeast": 900,
      "##asses": 901,
      "▁shining": 902,
      "▁phail": 903,
      "▁mac": 904,
      "▁sparks": 905,
      "##ok": 906,
      "##lands": 907,
      "##aly": 908,
      "▁ministry": 909,
      "▁mak": 910,
      "##person": 911,
      "▁consequently": 912,
      "▁713-654-1281": 913,
      "▁muse": 914,
      "▁sends": 915,
      "▁pir": 916,
      "▁idiot": 917,
      "▁customizing": 918,
      "▁delay": 919,
      "▁scale": 920,
      "▁reaching": 921,
      "##ican": 922,
      "▁loved": 923,
      "▁killing": 924,
      "▁awards": 925,
      "▁ma": 926,
      "▁male": 927,
      "▁sixth": 928,
      "▁bottle": 929,
      "▁vent": 930,
      "▁towns": 931,
      "▁296": 932,
      "##maid": 933,
      "##清": 934,
      "##75": 935,
      "▁1926": 936,
      "▁stands": 937,
      "▁purple": 938,
      "▁stud": 939,
      "▁traditional": 940,
      "▁relaxing": 941,
      "##stand": 942,
      "▁section": 943,
      "▁bart": 944,
      "##,00": 945,
      "▁ton": 946,
      "##:00": 947,
      "▁counterfeiting": 948,
      "▁attem": 949,
      "##acks": 950,
      "▁fost": 951,
      "▁opponent": 952,
      "▁heels": 953,
      "##ux": 954,
      "▁tires": 955,
      "▁oatmeal": 956,
      "▁spir": 957,
      "▁fab": 958,
      "▁1.25": 959,
      "▁dollie": 960,
      "▁whee": 961,
      "▁crews": 962,
      "▁darker": 963,
      "▁br": 964,
      "▁paral": 965,
      "▁notebook.url": 966,
      "▁affairs": 967,
      "▁serving": 968,
      "▁outdo": 969,
      "▁themselves": 970,
      "##orders": 971,
      "▁soap": 972,
      "▁appears": 973,
      "▁anti": 974,
      "##onym": 975,
      "▁evol": 976,
      "▁pat": 977,
      "▁motiv": 978,
      "##ius": 979,
      "▁1596": 980,
      "▁ev": 981,
      "▁programmes": 982,
      "##uts": 983,
      "▁biden": 984,
      "▁slippers": 985,
      "▁cin": 986,
      "▁l'enfant": 987,
      "▁analyses": 988,
      "▁extension": 989,
      "▁?????": 990,
      "▁likewise": 991,
      "▁`": 992,
      "▁emotion": 993,
      "▁rin": 994,
      "▁dul": 995,
      "##ak": 996,
      "##:18": 997,
      "▁lib": 998,
      "##ick": 999,
      "▁existed": 1000,
      "▁hear": 1001,
      "▁dine": 1002,
      "##ena": 1003,
      "▁twice": 1004,
      "▁laund": 1005,
      "##d2": 1006,
      "▁remo": 1007,
      "▁orchest": 1008,
      "▁add": 1009,
      "▁possessed": 1010,
      "▁massac": 1011,
      "##imes": 1012,
      "▁statements": 1013,
      "▁ba'ath": 1014,
      "▁hiroshima": 1015,
      "ə": 1016,
      "▁socotra": 1017,
      "▁viewers": 1018,
      "▁television": 1019,
      "▁think": 1020,
      "##cel": 1021,
      "▁informed": 1022,
      "▁2008": 1023,
      "##lu": 1024,
      "▁obsf": 1025,
      "##evs": 1026,
      "##ca": 1027,
      "▁critical": 1028,
      "##aren": 1029,
      "▁?!?": 1030,
      "▁venezuela": 1031,
      "##step": 1032,
      "##17": 1033,
      "▁78": 1034,
      "▁750,000": 1035,
      "##algami": 1036,
      "▁particle": 1037,
      "▁tens": 1038,
      "##-nine": 1039,
      "##ottable": 1040,
      "▁od": 1041,
      "▁researchers": 1042,
      "▁departure": 1043,
      "##/16": 1044,
      "▁doggy": 1045,
      "▁rat": 1046,
      "▁sleepy": 1047,
      "▁guidelines": 1048,
      "▁gaz": 1049,
      "▁212": 1050,
      "▁04:37": 1051,
      "▁relig": 1052,
      "▁absorb": 1053,
      "▁connecting": 1054,
      "▁pacific": 1055,
      "##otional": 1056,
      "▁reservation": 1057,
      "▁protests": 1058,
      "##imm": 1059,
      "▁block": 1060,
      "▁five": 1061,
      "▁companion": 1062,
      "▁discipline": 1063,
      "▁nyc": 1064,
      "▁spos": 1065,
      "##boy": 1066,
      "▁ap": 1067,
      "##-23": 1068,
      "▁gov": 1069,
      "▁load": 1070,
      "##org": 1071,
      "▁decades": 1072,
      "▁famous": 1073,
      "##uh": 1074,
      "##ippers": 1075,
      "▁sundays": 1076,
      "▁descriptions": 1077,
      "▁reapp": 1078,
      "▁answering": 1079,
      "▁bandaid": 1080,
      "▁shri": 1081,
      "##ioned": 1082,
      "##rist": 1083,
      "▁mum": 1084,
      "▁prey": 1085,
      "▁teeth": 1086,
      "▁3.8": 1087,
      "▁assumptions": 1088,
      "##.co": 1089,
      "▁attempted": 1090,
      "▁bulldozer": 1091,
      "▁administr": 1092,
      "▁diandra": 1093,
      "▁brit": 1094,
      "▁tokyo": 1095,
      "▁chalabi": 1096,
      "##ucing": 1097,
      "▁gates": 1098,
      "▁evely": 1099,
      "##tain": 1100,
      "▁expectancy": 1101,
      "##/31": 1102,
      "▁yesterday": 1103,
      "##andy": 1104,
      "▁rasp": 1105,
      "▁setting": 1106,
      "▁49": 1107,
      "▁natural": 1108,
      "▁kwok": 1109,
      "▁exercise": 1110,
      "▁entry": 1111,
      "##ception": 1112,
      "##eration": 1113,
      "##ament": 1114,
      "▁negotiating": 1115,
      "##alth": 1116,
      "▁mutil": 1117,
      "##not": 1118,
      "▁artificial": 1119,
      "▁replaced": 1120,
      "##ust": 1121,
      "##rism": 1122,
      "▁consult": 1123,
      "▁crops": 1124,
      "▁adds": 1125,
      "▁spinning": 1126,
      "▁regulate": 1127,
      "▁prestig": 1128,
      "##ugg": 1129,
      "▁marketers": 1130,
      "##umental": 1131,
      "▁fac": 1132,
      "##zing": 1133,
      "##31": 1134,
      "▁nylon": 1135,
      "▁dum": 1136,
      "##63": 1137,
      "##-468-3": 1138,
      "▁bull": 1139,
      "##-ter": 1140,
      "##aw": 1141,
      "▁subscribers": 1142,
      "##ason": 1143,
      "▁entirely": 1144,
      "▁basic": 1145,
      "▁enrongss.xls": 1146,
      "▁confir": 1147,
      "##enc": 1148,
      "▁expression": 1149,
      "▁falls": 1150,
      "##339": 1151,
      "▁hung": 1152,
      "▁laure": 1153,
      "▁mr.": 1154,
      "##90": 1155,
      "##len": 1156,
      "▁naq": 1157,
      "##osing": 1158,
      "▁american": 1159,
      "▁salt": 1160,
      "▁seeing": 1161,
      "▁700": 1162,
      "▁******************************************************************": 1163,
      "##rian": 1164,
      "▁knowledg": 1165,
      "▁mandatory": 1166,
      "▁http://www": 1167,
      "▁c.": 1168,
      "##stairs": 1169,
      "##t": 1170,
      "▁cere": 1171,
      "▁babies": 1172,
      "▁uma": 1173,
      "##ahu": 1174,
      "▁wed": 1175,
      "##ression": 1176,
      "▁pros": 1177,
      "▁ua": 1178,
      "##ct": 1179,
      "▁orient": 1180,
      "##je": 1181,
      "##.doc": 1182,
      "▁overpriced": 1183,
      "▁intrig": 1184,
      "##iter": 1185,
      "§": 1186,
      "##gue": 1187,
      "▁interpretation": 1188,
      "▁1562": 1189,
      "▁nashville": 1190,
      "▁tip": 1191,
      "▁more": 1192,
      "##13": 1193,
      "##wards": 1194,
      "▁2.7": 1195,
      "▁motorcy": 1196,
      "▁insight": 1197,
      "##saoui": 1198,
      "##ortun": 1199,
      "##.676": 1200,
      "▁engineering": 1201,
      "▁just": 1202,
      "##.782": 1203,
      "▁spray": 1204,
      "##itage": 1205,
      "▁ich": 1206,
      "##ging": 1207,
      "##uct": 1208,
      "▁gon": 1209,
      "##ateral": 1210,
      "##elle": 1211,
      "▁05/01/2001": 1212,
      "##xce": 1213,
      "▁pops": 1214,
      "##'t": 1215,
      "##ock": 1216,
      "▁background": 1217,
      "##opment": 1218,
      "▁207": 1219,
      "▁homeland": 1220,
      "▁garden": 1221,
      "▁1776": 1222,
      "▁cruel": 1223,
      "▁displayed": 1224,
      "f": 1225,
      "▁ecodesign": 1226,
      "▁myth": 1227,
      "▁================================================": 1228,
      "▁poet": 1229,
      "##oui": 1230,
      "▁ld2d-#693": 1231,
      "▁10:34": 1232,
      "▁safet": 1233,
      "##ients": 1234,
      "▁americas": 1235,
      "▁appli": 1236,
      "##raz": 1237,
      "▁worst": 1238,
      "▁sad": 1239,
      "##oko": 1240,
      "▁executive": 1241,
      "▁fire": 1242,
      "##ru": 1243,
      "▁crawl": 1244,
      "##rums": 1245,
      "##eline": 1246,
      "▁sketch": 1247,
      "▁fri": 1248,
      "▁brazil": 1249,
      "##iley": 1250,
      "▁mi": 1251,
      "▁because": 1252,
      "▁missed": 1253,
      "##udd": 1254,
      "##alle": 1255,
      "##mail.com": 1256,
      "▁tale": 1257,
      "▁oppose": 1258,
      "▁-final.doc": 1259,
      "▁creek": 1260,
      "▁guadel": 1261,
      "▁1954": 1262,
      "##****": 1263,
      "▁1980s": 1264,
      "##vid": 1265,
      "▁accuracy": 1266,
      "##arias": 1267,
      "▁proposed": 1268,
      "▁s-": 1269,
      "▁overalls": 1270,
      "▁increased": 1271,
      "▁stratford": 1272,
      "##-------": 1273,
      "▁nag": 1274,
      "▁regarded": 1275,
      "▁sentences": 1276,
      "▁people": 1277,
      "▁organisation": 1278,
      "##acked": 1279,
      "▁extremist": 1280,
      "##where": 1281,
      "▁displays": 1282,
      "▁ruled": 1283,
      "##zzy": 1284,
      "##ather": 1285,
      "##aria": 1286,
      "▁transwest": 1287,
      "▁err": 1288,
      "▁infection": 1289,
      "▁2018": 1290,
      "▁cupboard": 1291,
      "▁technologies": 1292,
      "▁wisdom": 1293,
      "|": 1294,
      "▁illust": 1295,
      "##id=": 1296,
      "▁ais": 1297,
      "##=": 1298,
      "▁shibu": 1299,
      "▁seem": 1300,
      "▁naked": 1301,
      "▁dea": 1302,
      "##ived": 1303,
      "▁iodine": 1304,
      "▁incorpor": 1305,
      "▁judge": 1306,
      "##ination": 1307,
      "▁whoo": 1308,
      "##oren": 1309,
      "▁agrees": 1310,
      "▁tik": 1311,
      "▁fireplace": 1312,
      "▁available": 1313,
      "##cat": 1314,
      "##anas": 1315,
      "▁construction": 1316,
      "▁agreeing": 1317,
      "▁license": 1318,
      "▁broom": 1319,
      "▁occasionally": 1320,
      "##os": 1321,
      "▁faced": 1322,
      "▁marlow": 1323,
      "▁alligator": 1324,
      "▁region": 1325,
      "▁considered": 1326,
      "▁alive": 1327,
      "##/c": 1328,
      "▁authorities": 1329,
      "▁handling": 1330,
      "▁crayons": 1331,
      "▁disasters": 1332,
      "##wart": 1333,
      "##pir": 1334,
      "▁cooper": 1335,
      "▁finally": 1336,
      "▁ahmed": 1337,
      "##coming": 1338,
      "▁directives": 1339,
      "▁maxim": 1340,
      "▁individuals": 1341,
      "##ati": 1342,
      "▁letters": 1343,
      "▁endang": 1344,
      "▁hunh": 1345,
      "▁sliding": 1346,
      "▁neighbourhood": 1347,
      "▁parish": 1348,
      "▁stip": 1349,
      "▁alban": 1350,
      "▁cc": 1351,
      "▁forster": 1352,
      "▁realize": 1353,
      "▁ignorance": 1354,
      "▁perlingiere": 1355,
      "i": 1356,
      "▁officers": 1357,
      "▁math": 1358,
      "▁enov": 1359,
      "▁shouting": 1360,
      "▁easter": 1361,
      "▁resour": 1362,
      "▁speculation": 1363,
      "▁eczema": 1364,
      "##.ca": 1365,
      "▁sovereign": 1366,
      "▁intoler": 1367,
      "▁bernoul": 1368,
      "▁sizes": 1369,
      "▁salty": 1370,
      "##ategy": 1371,
      "##time": 1372,
      "▁bog": 1373,
      "##hi": 1374,
      "▁notice": 1375,
      "##ibu": 1376,
      "▁france": 1377,
      "▁spanish": 1378,
      "▁apparently": 1379,
      "▁baby": 1380,
      "##ulations": 1381,
      "▁a.": 1382,
      "▁jere": 1383,
      "▁ambul": 1384,
      "▁overnight": 1385,
      "##icking": 1386,
      "##bod": 1387,
      "▁yemen": 1388,
      "##irs": 1389,
      "▁ours": 1390,
      "▁redlined": 1391,
      "▁traff": 1392,
      "▁reaction": 1393,
      "▁symbol": 1394,
      "##while": 1395,
      "▁itself": 1396,
      "▁producing": 1397,
      "##iard": 1398,
      "##.85": 1399,
      "▁enjamb": 1400,
      "▁isl": 1401,
      "##ations": 1402,
      "▁ect": 1403,
      "▁cared": 1404,
      "▁victim": 1405,
      "##itting": 1406,
      "▁10/23/2000": 1407,
      "▁---------------------------------------------------------------------": 1408,
      "▁cup": 1409,
      "##ief": 1410,
      "▁palm": 1411,
      "▁kath": 1412,
      "▁tom": 1413,
      "▁accused": 1414,
      "▁drinking": 1415,
      "##ls": 1416,
      "▁tor": 1417,
      "▁scissors": 1418,
      "▁1000": 1419,
      "▁heart": 1420,
      "▁insights": 1421,
      "▁disregard": 1422,
      "▁36": 1423,
      "▁agg": 1424,
      "▁yourselves": 1425,
      "##k.url": 1426,
      "▁750": 1427,
      "▁stocks": 1428,
      "##gill": 1429,
      "##ans": 1430,
      "▁absent": 1431,
      "▁policymakers": 1432,
      "▁mob": 1433,
      "▁preferred": 1434,
      "▁assign": 1435,
      "##ets": 1436,
      "▁orth": 1437,
      "▁****": 1438,
      "▁rufus": 1439,
      "##smith": 1440,
      "##way": 1441,
      "##ounding": 1442,
      "##443-3": 1443,
      "▁accompanied": 1444,
      "▁1583": 1445,
      "##iques": 1446,
      "▁islam": 1447,
      "##~*": 1448,
      "##ertain": 1449,
      "▁dough": 1450,
      "##i.": 1451,
      "▁associ": 1452,
      "▁attachments": 1453,
      "▁frustrated": 1454,
      "##tax": 1455,
      "##ley": 1456,
      "▁transc": 1457,
      "▁motives": 1458,
      "▁rav": 1459,
      "▁yay": 1460,
      "▁purely": 1461,
      "▁entity": 1462,
      "##encies": 1463,
      "##8/2001": 1464,
      "▁carpet": 1465,
      "▁ports": 1466,
      "##ess": 1467,
      "##pay": 1468,
      "▁moder": 1469,
      "##uff": 1470,
      "▁users": 1471,
      "##ignment": 1472,
      "▁w-": 1473,
      "▁give": 1474,
      "▁despair": 1475,
      "▁influenced": 1476,
      "▁fol": 1477,
      "▁beneath": 1478,
      "##url": 1479,
      ";": 1480,
      "▁swim": 1481,
      "▁flex": 1482,
      "▁overthrow": 1483,
      "##pan": 1484,
      "▁sweep": 1485,
      "▁interjection": 1486,
      "▁cyclone": 1487,
      "▁movement": 1488,
      "▁lik": 1489,
      "##........": 1490,
      "##air@enron.com": 1491,
      "▁planes": 1492,
      "▁presc": 1493,
      "▁dese": 1494,
      "##essed": 1495,
      "##igh": 1496,
      "##==": 1497,
      "##ill": 1498,
      "▁with": 1499,
      "▁pose": 1500,
      "▁jurisdiction": 1501,
      "▁thames": 1502,
      "▁temporary": 1503,
      "▁counted": 1504,
      "##ikh": 1505,
      "▁chan": 1506,
      "▁ter": 1507,
      "▁children": 1508,
      "##ilis": 1509,
      "▁ph": 1510,
      "##ω": 1511,
      "▁export": 1512,
      "▁amm": 1513,
      "▁israeli": 1514,
      "▁petunia": 1515,
      "▁othello": 1516,
      "▁kurtz": 1517,
      "▁dancers": 1518,
      "▁husband": 1519,
      "▁philipp": 1520,
      "β": 1521,
      "▁corresponding": 1522,
      "##rew": 1523,
      "▁eag": 1524,
      "##idding": 1525,
      "▁calendar": 1526,
      "▁firm": 1527,
      "##usion": 1528,
      "▁pan": 1529,
      "##lah": 1530,
      "▁gas": 1531,
      "▁cape": 1532,
      "▁success": 1533,
      "▁annual": 1534,
      "▁df": 1535,
      "##pet": 1536,
      "##itten": 1537,
      "▁modes": 1538,
      "▁stub": 1539,
      "##ice": 1540,
      "▁hidden": 1541,
      "▁overc": 1542,
      "▁magnificent": 1543,
      "▁units": 1544,
      "▁discussions": 1545,
      "▁smugg": 1546,
      "▁travelers": 1547,
      "##ications": 1548,
      "▁713-853-1696": 1549,
      "▁encoun": 1550,
      "##ateg": 1551,
      "##-sh": 1552,
      "▁ka": 1553,
      "▁highest": 1554,
      "▁woud": 1555,
      "e": 1556,
      "▁try": 1557,
      "▁however": 1558,
      "▁entrepren": 1559,
      "##cing": 1560,
      "▁loading": 1561,
      "▁running": 1562,
      "▁gray": 1563,
      "▁encomp": 1564,
      "▁kyoto": 1565,
      "##orp": 1566,
      "▁assuming": 1567,
      "▁'d": 1568,
      "▁singing": 1569,
      "▁inexpensive": 1570,
      "##ograph": 1571,
      "▁setup": 1572,
      "##read": 1573,
      "▁telling": 1574,
      "##enos": 1575,
      "▁noses": 1576,
      "▁vomiting": 1577,
      "##acer": 1578,
      "##eet": 1579,
      "▁welf": 1580,
      "▁gym": 1581,
      "▁cause": 1582,
      "▁hurricane": 1583,
      "▁venez": 1584,
      "▁silkie": 1585,
      "##ition": 1586,
      "▁visits": 1587,
      "▁regions": 1588,
      "▁urg": 1589,
      "▁evolving": 1590,
      "▁pattern": 1591,
      "▁scenario": 1592,
      "##ained": 1593,
      "▁talked": 1594,
      "▁plot": 1595,
      "▁chips": 1596,
      "▁rough": 1597,
      "▁options": 1598,
      "▁patience": 1599,
      "▁oh": 1600,
      "▁edges": 1601,
      "▁recover": 1602,
      "▁persp": 1603,
      "##iny": 1604,
      "▁soldiers": 1605,
      "▁design": 1606,
      "▁mixture": 1607,
      "▁purse": 1608,
      "▁employed": 1609,
      "##endous": 1610,
      "▁birdie": 1611,
      "##arians": 1612,
      "▁father": 1613,
      "▁roast": 1614,
      "▁incub": 1615,
      "▁chasing": 1616,
      "▁stages": 1617,
      "▁authors": 1618,
      "▁tri": 1619,
      "▁unf": 1620,
      "##sl": 1621,
      "##oween": 1622,
      "▁charlie": 1623,
      "▁sufaat": 1624,
      "▁riding": 1625,
      "▁pockets": 1626,
      "▁henry": 1627,
      "▁156": 1628,
      "▁ought": 1629,
      "##119": 1630,
      "▁militant": 1631,
      "##thst": 1632,
      "▁268": 1633,
      "▁dentist": 1634,
      "▁extremely": 1635,
      "##inea": 1636,
      "▁http://www.mike": 1637,
      "▁baseball": 1638,
      "▁uncommon": 1639,
      "▁expensive": 1640,
      "▁unre": 1641,
      "##8": 1642,
      "▁nj": 1643,
      "▁chas": 1644,
      "▁occur": 1645,
      "▁taken": 1646,
      "▁inc": 1647,
      "▁carolina": 1648,
      "##onna": 1649,
      "▁au": 1650,
      "▁xsl": 1651,
      "▁solution": 1652,
      "##ˈ": 1653,
      "▁limited": 1654,
      "▁instant": 1655,
      "##3098": 1656,
      "##rimin": 1657,
      "##elson": 1658,
      "▁alcal": 1659,
      "▁ribbon": 1660,
      "##let": 1661,
      "▁pilgr": 1662,
      "##2,000": 1663,
      "##.edu/": 1664,
      "▁contex": 1665,
      "▁volunteer": 1666,
      "▁intended": 1667,
      "▁pile": 1668,
      "▁kam": 1669,
      "▁bernard": 1670,
      "▁indicated": 1671,
      "##alt": 1672,
      "▁pairs": 1673,
      "▁protecting": 1674,
      "▁her": 1675,
      "▁competing": 1676,
      "▁regulation": 1677,
      "##onsc": 1678,
      "▁developer": 1679,
      "▁expectation": 1680,
      "▁figure": 1681,
      "##unga": 1682,
      "▁interact": 1683,
      "##bum": 1684,
      "▁die": 1685,
      "##men": 1686,
      "▁carry": 1687,
      "▁religious": 1688,
      "##389": 1689,
      "▁homemade": 1690,
      "▁temper": 1691,
      "##yn": 1692,
      "▁jove": 1693,
      "▁professionals": 1694,
      "▁french": 1695,
      "▁3/8/00": 1696,
      "▁07:24": 1697,
      "▁free": 1698,
      "▁memories": 1699,
      "▁yours": 1700,
      "##6th": 1701,
      "▁amendments": 1702,
      "琴": 1703,
      "▁detroit": 1704,
      "▁brows": 1705,
      "▁prospect": 1706,
      "##:02": 1707,
      "▁frera": 1708,
      "▁visa": 1709,
      "##92": 1710,
      "▁barack": 1711,
      "▁ehrm": 1712,
      "##8196021": 1713,
      "▁continental": 1714,
      "##ble": 1715,
      "▁ber": 1716,
      "▁convinc": 1717,
      "##anes": 1718,
      "▁ex": 1719,
      "▁details": 1720,
      "▁calling": 1721,
      "▁length": 1722,
      "##/26": 1723,
      "▁germany": 1724,
      "▁ginger": 1725,
      "##ising": 1726,
      "▁earl": 1727,
      "▁mistakes": 1728,
      "##so": 1729,
      "##run": 1730,
      "##pi": 1731,
      "##oke": 1732,
      "##lae": 1733,
      "▁envelop": 1734,
      "▁louis": 1735,
      "##ructure": 1736,
      "▁arabic": 1737,
      "▁blind": 1738,
      "▁khan": 1739,
      "▁mailing": 1740,
      "▁unple": 1741,
      "▁linking": 1742,
      "##yal": 1743,
      "##orial": 1744,
      "▁emph": 1745,
      "##zed": 1746,
      "▁remain": 1747,
      "▁chess": 1748,
      "▁wit": 1749,
      "##nik": 1750,
      "▁quietly": 1751,
      "▁according": 1752,
      "▁sant": 1753,
      "▁nar": 1754,
      "▁hoping": 1755,
      "##ancement": 1756,
      "##bo": 1757,
      "▁tile": 1758,
      "▁reiter": 1759,
      "##ario": 1760,
      "▁1918": 1761,
      "##-to": 1762,
      "##ones@": 1763,
      "▁09:14": 1764,
      "▁semantic": 1765,
      "##orus": 1766,
      "▁signs": 1767,
      "▁sang": 1768,
      "▁fed": 1769,
      "▁invo": 1770,
      "ن": 1771,
      "▁affirm": 1772,
      "▁throu": 1773,
      "▁beaut": 1774,
      "▁prefer": 1775,
      "▁vehicle": 1776,
      "##ence": 1777,
      "##owning": 1778,
      "##8/2000": 1779,
      "▁281-": 1780,
      "##anch": 1781,
      "▁gramp": 1782,
      "▁constitutional": 1783,
      "▁gab": 1784,
      "##.45": 1785,
      "▁shut": 1786,
      "##top": 1787,
      "▁345-9945": 1788,
      "##uling": 1789,
      "▁center": 1790,
      "▁funeral": 1791,
      "▁foc": 1792,
      "##ptions": 1793,
      "▁cra": 1794,
      "▁discouraging": 1795,
      "##.9": 1796,
      "▁mummy": 1797,
      "##born": 1798,
      "▁intelligent": 1799,
      "▁tripped": 1800,
      "##¢": 1801,
      "##6": 1802,
      "▁proficiency": 1803,
      "▁ship": 1804,
      "▁scre": 1805,
      "▁maybe": 1806,
      "▁ont": 1807,
      "▁coach": 1808,
      "##!!!": 1809,
      "▁shocked": 1810,
      "▁closer": 1811,
      "▁golf": 1812,
      "▁by": 1813,
      "##ini": 1814,
      "▁treating": 1815,
      "▁told": 1816,
      "▁located": 1817,
      "▁202.45": 1818,
      "##oth": 1819,
      "▁heater": 1820,
      "##etary": 1821,
      "▁metropolitan": 1822,
      "▁coat": 1823,
      "▁residents": 1824,
      "▁dev": 1825,
      "▁conditional": 1826,
      "▁coconut": 1827,
      "##aps": 1828,
      "▁effects": 1829,
      "▁18,000": 1830,
      "▁defin": 1831,
      "▁label": 1832,
      "▁storm": 1833,
      "##gre": 1834,
      "▁needing": 1835,
      "##ologue": 1836,
      "▁lengthy": 1837,
      "▁lighting": 1838,
      "▁mrs": 1839,
      "##n.": 1840,
      "▁philip": 1841,
      "##hol": 1842,
      "▁angel": 1843,
      "▁net": 1844,
      "▁det": 1845,
      "▁extant": 1846,
      "##station": 1847,
      "##•": 1848,
      "▁al": 1849,
      "##ingu": 1850,
      "▁captured": 1851,
      "▁713-646-3393": 1852,
      "▁1848": 1853,
      "▁bud": 1854,
      "▁societ": 1855,
      "▁jeffs": 1856,
      "▁inspire": 1857,
      "▁ballet": 1858,
      "▁combination": 1859,
      "▁191": 1860,
      "▁whistle": 1861,
      "▁liquidweb": 1862,
      "##cab": 1863,
      "▁categories": 1864,
      "##2/2000": 1865,
      "▁drinks": 1866,
      "▁contexts": 1867,
      "▁headquart": 1868,
      "▁flo": 1869,
      "▁releases": 1870,
      "▁wav": 1871,
      "▁austin": 1872,
      "▁accepting": 1873,
      "▁profess": 1874,
      "##itude": 1875,
      "▁cleaning": 1876,
      "▁differences": 1877,
      "##ptive": 1878,
      "▁crap": 1879,
      "▁pump": 1880,
      "▁08/03/2000": 1881,
      "##,5": 1882,
      "##b)": 1883,
      "▁sean": 1884,
      "▁dried": 1885,
      "▁lone": 1886,
      "▁pers": 1887,
      "▁.x": 1888,
      "##acle": 1889,
      "▁psychology": 1890,
      "▁wave": 1891,
      "##ateful": 1892,
      "##...@gmail.com": 1893,
      "▁russell": 1894,
      "##lemm": 1895,
      "##bur": 1896,
      "▁sports": 1897,
      "##ocation": 1898,
      "▁chinese": 1899,
      "▁managing": 1900,
      "##clusions": 1901,
      "▁jeep": 1902,
      "▁tie": 1903,
      "##----------": 1904,
      "##onents": 1905,
      "##-in": 1906,
      "▁subscribe": 1907,
      "▁departures": 1908,
      "▁year": 1909,
      "▁strengthen": 1910,
      "▁waist": 1911,
      "▁quickly": 1912,
      "▁minn": 1913,
      "▁chernobyl": 1914,
      "▁eastward": 1915,
      "▁ride": 1916,
      "▁widely": 1917,
      "▁locally": 1918,
      "##lessness": 1919,
      "▁p.": 1920,
      "▁resilience": 1921,
      "##jud": 1922,
      "##--------": 1923,
      "▁conclusion": 1924,
      "▁o'clock": 1925,
      "▁dignit": 1926,
      "▁desir": 1927,
      "▁cheaper": 1928,
      "##eller": 1929,
      "▁libr": 1930,
      "▁intellect": 1931,
      "##1-90": 1932,
      "▁marks": 1933,
      "▁ruy": 1934,
      "▁''": 1935,
      "▁requires": 1936,
      "▁albania": 1937,
      "▁guessed": 1938,
      "▁undertaken": 1939,
      "▁contributing": 1940,
      "▁contrib": 1941,
      "▁complic": 1942,
      "▁flav": 1943,
      "▁41": 1944,
      "▁2100": 1945,
      "▁completed": 1946,
      "▁efficiency": 1947,
      "▁obv": 1948,
      "▁betty": 1949,
      "▁sperm": 1950,
      "##iew": 1951,
      "▁amounts": 1952,
      "▁david": 1953,
      "▁australian": 1954,
      "▁mult": 1955,
      "▁accordingly": 1956,
      "##ς": 1957,
      "##&": 1958,
      "▁pom": 1959,
      "##yen": 1960,
      "▁roles": 1961,
      "▁tankers": 1962,
      "▁’": 1963,
      "▁and": 1964,
      "▁cookies": 1965,
      "▁vernon": 1966,
      "▁1602": 1967,
      "▁tips": 1968,
      "##uela": 1969,
      "▁frust": 1970,
      "▁pressed": 1971,
      "▁polit": 1972,
      "▁does": 1973,
      "▁allegedly": 1974,
      "▁actress": 1975,
      "▁88": 1976,
      "▁alley": 1977,
      "##ook": 1978,
      "▁war": 1979,
      "▁pictures": 1980,
      "▁avo": 1981,
      "▁paul": 1982,
      "##ities": 1983,
      "▁mathematics": 1984,
      "##atio": 1985,
      "▁1868": 1986,
      "▁governor": 1987,
      "##aked": 1988,
      "▁nmem": 1989,
      "▁rac": 1990,
      "##worms": 1991,
      "▁graves": 1992,
      "▁calculations": 1993,
      "▁partner": 1994,
      "▁environmental": 1995,
      "##ature": 1996,
      "▁plut": 1997,
      "##obar": 1998,
      "▁warning": 1999,
      "▁1575": 2000,
      "▁concluded": 2001,
      "▁interviewed": 2002,
      "▁bm": 2003,
      "▁aer": 2004,
      "▁example": 2005,
      "▁vlog": 2006,
      "▁updates": 2007,
      "##awed": 2008,
      "▁higher": 2009,
      "ʊ": 2010,
      "▁snitch": 2011,
      "▁moral": 2012,
      "▁yoga": 2013,
      "▁bathroom": 2014,
      "▁igts": 2015,
      "▁pro-beijing": 2016,
      "▁houston": 2017,
      "##apped": 2018,
      "▁dong": 2019,
      "▁virgin": 2020,
      "##/index": 2021,
      "▁ht": 2022,
      "▁creating": 2023,
      "▁settle": 2024,
      "▁kiss": 2025,
      "▁westchester": 2026,
      "▁barnes": 2027,
      "▁lawn": 2028,
      "▁shrug": 2029,
      "##%": 2030,
      "##26": 2031,
      "▁provide": 2032,
      "##20s": 2033,
      "▁flight": 2034,
      "▁percell,": 2035,
      "▁aladar": 2036,
      "▁murdered": 2037,
      "▁phone": 2038,
      "▁so-called": 2039,
      "##old": 2040,
      "▁suffer": 2041,
      "▁always": 2042,
      "▁01:58": 2043,
      "▁terre": 2044,
      "##enga": 2045,
      "▁these": 2046,
      "##avian": 2047,
      "▁drafting": 2048,
      "▁yoy": 2049,
      "##.7822": 2050,
      "##isia": 2051,
      "▁residence": 2052,
      "▁scary": 2053,
      "▁arrives": 2054,
      "##ifies": 2055,
      "##clined": 2056,
      "▁settlements": 2057,
      "▁rubble": 2058,
      "▁str": 2059,
      "▁chase": 2060,
      "▁world": 2061,
      "▁attentive": 2062,
      "##59": 2063,
      "▁survival": 2064,
      "▁instinct": 2065,
      "▁theirs": 2066,
      "▁freezing": 2067,
      "##away": 2068,
      "▁prett": 2069,
      "▁sophistic": 2070,
      "##:1": 2071,
      "▁text": 2072,
      "▁coastal": 2073,
      "▁turned": 2074,
      "▁ups": 2075,
      "▁indonesia": 2076,
      "##ammed": 2077,
      "##being": 2078,
      "▁smiling": 2079,
      "##tered": 2080,
      "##urse": 2081,
      "▁runner": 2082,
      "▁representing": 2083,
      "##lik": 2084,
      "##ides": 2085,
      "▁session": 2086,
      "▁applying": 2087,
      "▁breed": 2088,
      "▁colonies": 2089,
      "▁1999": 2090,
      "##arents": 2091,
      "▁mt": 2092,
      "##-3393": 2093,
      "▁between": 2094,
      "▁6": 2095,
      "▁tact": 2096,
      "▁dropped": 2097,
      "▁best": 2098,
      "▁lisa": 2099,
      "▁administration": 2100,
      "##@enron.com": 2101,
      "▁jane": 2102,
      "▁theories": 2103,
      "##ength": 2104,
      "▁xslt": 2105,
      "▁acid": 2106,
      "▁squeak": 2107,
      "▁arizona": 2108,
      "##.": 2109,
      "▁hes": 2110,
      "▁37": 2111,
      "▁713-853-3989": 2112,
      "▁200,000": 2113,
      "##k": 2114,
      "▁ent": 2115,
      "▁actions": 2116,
      "▁dr.": 2117,
      "▁temple": 2118,
      "▁publicly": 2119,
      "▁new": 2120,
      "##ord": 2121,
      "▁rise": 2122,
      "▁books": 2123,
      "▁swinging": 2124,
      "▁determin": 2125,
      "##-cage": 2126,
      "▁arbitr": 2127,
      "▁mand": 2128,
      "▁borg": 2129,
      "▁imple": 2130,
      "▁_______": 2131,
      "▁apparent": 2132,
      "▁portland": 2133,
      "▁paralympics": 2134,
      "##ney": 2135,
      "▁simon": 2136,
      "▁813": 2137,
      "##pite": 2138,
      "▁who's": 2139,
      "##ines": 2140,
      "##:13": 2141,
      "▁heritage": 2142,
      "▁administ": 2143,
      "▁towing": 2144,
      "▁colon": 2145,
      "▁recon": 2146,
      "▁votes": 2147,
      "▁site": 2148,
      "▁tin": 2149,
      "##ersonal": 2150,
      "▁interest": 2151,
      "▁advance": 2152,
      "▁jellyfish": 2153,
      "▁model": 2154,
      "▁compat": 2155,
      "▁dissatisf": 2156,
      "▁acting": 2157,
      "##ens": 2158,
      "##3rd": 2159,
      "▁wides": 2160,
      "▁blowing": 2161,
      "▁hospitals": 2162,
      "▁happier": 2163,
      "▁verse": 2164,
      "▁absor": 2165,
      "##uries": 2166,
      "▁ambitious": 2167,
      "▁enrongss": 2168,
      "▁san": 2169,
      "▁619": 2170,
      "▁subd": 2171,
      "##ites": 2172,
      "▁5:00": 2173,
      "##oid": 2174,
      "▁tracking": 2175,
      "▁1955": 2176,
      "▁act": 2177,
      "##eap": 2178,
      "▁bureauc": 2179,
      "##don": 2180,
      "▁mathem": 2181,
      "▁150,000": 2182,
      "▁smok": 2183,
      "▁slide": 2184,
      "▁southwest": 2185,
      "▁responses": 2186,
      "▁buddy": 2187,
      "▁worthy": 2188,
      "▁tet": 2189,
      "##ould": 2190,
      "##lected": 2191,
      "##alee": 2192,
      "##________________": 2193,
      "##oking": 2194,
      "▁650": 2195,
      "##amm": 2196,
      "▁berry": 2197,
      "##fe": 2198,
      "##ked": 2199,
      "▁pupp": 2200,
      "##ocado": 2201,
      "▁???": 2202,
      "##ead": 2203,
      "▁pinkies": 2204,
      "▁rebecca": 2205,
      "▁trails": 2206,
      "▁spent": 2207,
      "▁mechanic": 2208,
      "▁makes": 2209,
      "▁bask": 2210,
      "##ds": 2211,
      "##ocular": 2212,
      "▁wrestle": 2213,
      "▁indication": 2214,
      "##merce": 2215,
      "##woman": 2216,
      "##fet": 2217,
      "▁accommod": 2218,
      "▁hate": 2219,
      "##we": 2220,
      "##wash": 2221,
      "▁pot": 2222,
      "▁candle": 2223,
      "▁invite": 2224,
      "▁essentially": 2225,
      "▁commit": 2226,
      "▁belly": 2227,
      "##wind": 2228,
      "##rus": 2229,
      "##41": 2230,
      "▁horiz": 2231,
      "▁neither": 2232,
      "▁10": 2233,
      "▁denmark": 2234,
      "##ext": 2235,
      "▁acquisition": 2236,
      "▁snowboard": 2237,
      "▁ai": 2238,
      "##oh": 2239,
      "▁harrison": 2240,
      "▁necessarily": 2241,
      "▁impression": 2242,
      "##ashed": 2243,
      "▁purch": 2244,
      "▁blount": 2245,
      "##cases": 2246,
      "▁1896": 2247,
      "▁888": 2248,
      "▁stirrup": 2249,
      "##esy": 2250,
      "##ision": 2251,
      "▁sheikh": 2252,
      "##boats": 2253,
      "▁lym": 2254,
      "##?": 2255,
      "▁entered": 2256,
      "▁ties": 2257,
      "▁panic": 2258,
      "▁third": 2259,
      "▁montalvo": 2260,
      "▁will": 2261,
      "▁rare": 2262,
      "▁marg": 2263,
      "▁behin": 2264,
      "##iw": 2265,
      "▁vig": 2266,
      "▁edward": 2267,
      "▁classroom": 2268,
      "##igu": 2269,
      "▁preparing": 2270,
      "##aroni": 2271,
      "▁#": 2272,
      "▁hi": 2273,
      "▁fbi": 2274,
      "▁photography": 2275,
      "▁did": 2276,
      "▁cal": 2277,
      "▁problems": 2278,
      "▁proven": 2279,
      "▁charged": 2280,
      "##enue": 2281,
      "##stellar": 2282,
      "▁quaffle": 2283,
      "▁waited": 2284,
      "▁thous": 2285,
      "##/26/2000": 2286,
      "▁robin": 2287,
      "▁phoebe": 2288,
      "▁rides": 2289,
      "▁margin": 2290,
      "▁characters": 2291,
      "▁trained": 2292,
      "▁continents": 2293,
      "##ning": 2294,
      "▁conspir": 2295,
      "▁character": 2296,
      "##}": 2297,
      "▁plenty": 2298,
      "▁glue": 2299,
      "▁flir": 2300,
      "▁jur": 2301,
      "▁pet": 2302,
      "##ato": 2303,
      "▁advantage": 2304,
      "▁crad": 2305,
      "▁unequ": 2306,
      "▁dist": 2307,
      "▁behind": 2308,
      "▁renata": 2309,
      "▁legitimacy": 2310,
      "##pp": 2311,
      "▁noon": 2312,
      "▁opinion": 2313,
      "▁priest": 2314,
      "▁dam": 2315,
      "##jal": 2316,
      "▁ocean": 2317,
      "▁reader": 2318,
      "▁components": 2319,
      "##rible": 2320,
      "▁mission": 2321,
      "▁strong": 2322,
      "##char": 2323,
      "▁information": 2324,
      "##ost": 2325,
      "▁borrow": 2326,
      "##ico": 2327,
      "▁eups": 2328,
      "##ountry": 2329,
      "##orie": 2330,
      "▁eight": 2331,
      "▁faces": 2332,
      "▁estimates": 2333,
      "##itement": 2334,
      "▁kleen": 2335,
      "▁empirical": 2336,
      "##urious": 2337,
      "▁manifest": 2338,
      "▁==============================================================================": 2339,
      "▁healthy": 2340,
      "▁swed": 2341,
      "▁investors": 2342,
      "▁morocco": 2343,
      "▁1564": 2344,
      "▁timing": 2345,
      "▁substant": 2346,
      "▁kitchen": 2347,
      "▁discussed": 2348,
      "▁carney": 2349,
      "▁dub": 2350,
      "▁]": 2351,
      "##olis": 2352,
      "▁pred": 2353,
      "•": 2354,
      "▁oregon": 2355,
      "▁congratulate": 2356,
      "▁1819": 2357,
      "▁minded": 2358,
      "▁excitement": 2359,
      "▁main": 2360,
      "▁drew": 2361,
      "▁emper": 2362,
      "▁ages": 2363,
      "▁stra": 2364,
      "##ibly": 2365,
      "▁vote": 2366,
      "▁$": 2367,
      "▁team": 2368,
      "▁onions": 2369,
      "▁pastor": 2370,
      "▁unemploy": 2371,
      "##uc": 2372,
      "##amo": 2373,
      "##ex": 2374,
      "▁licensing": 2375,
      "▁findings": 2376,
      "▁marketing": 2377,
      "▁significant": 2378,
      "##k.": 2379,
      "▁cooler": 2380,
      "▁microphone": 2381,
      "▁swirl": 2382,
      "▁daisy": 2383,
      "##acion": 2384,
      "▁brand": 2385,
      "▁taking": 2386,
      "▁wore": 2387,
      "▁trunk": 2388,
      "▁emphasis": 2389,
      "▁visited": 2390,
      "##vers": 2391,
      "##fer": 2392,
      "▁register": 2393,
      "▁neil": 2394,
      "▁carne": 2395,
      "▁cheapest": 2396,
      "▁least": 2397,
      "##n": 2398,
      "##adelp": 2399,
      "▁americans": 2400,
      "▁beard": 2401,
      "▁3/9": 2402,
      "▁defend": 2403,
      "##津": 2404,
      "▁boss": 2405,
      "▁specials": 2406,
      "▁bc": 2407,
      "▁chos": 2408,
      "##9th": 2409,
      "▁doorway": 2410,
      "▁list": 2411,
      "▁supple": 2412,
      "▁believed": 2413,
      "▁buggy": 2414,
      "古": 2415,
      "▁rats": 2416,
      "▁nad": 2417,
      "▁lew": 2418,
      "▁brain": 2419,
      "##-f": 2420,
      "▁attach": 2421,
      "▁colle": 2422,
      "▁decided": 2423,
      "▁packed": 2424,
      "▁frost": 2425,
      "▁dizzy": 2426,
      "▁christmas": 2427,
      "##uss": 2428,
      "▁chath": 2429,
      "▁pony": 2430,
      "▁edition": 2431,
      "▁sentence": 2432,
      "▁depos": 2433,
      "▁categ": 2434,
      "▁trading": 2435,
      "▁merry": 2436,
      "▁accidents": 2437,
      "▁mil": 2438,
      "▁1787": 2439,
      "▁08/0": 2440,
      "##28": 2441,
      "▁screws": 2442,
      "##nia": 2443,
      "▁mas": 2444,
      "▁lank": 2445,
      "##eweb": 2446,
      "▁elaborate": 2447,
      "▁chairman": 2448,
      "▁2030": 2449,
      "▁deter": 2450,
      "##7/99": 2451,
      "▁still": 2452,
      "▁ethnic": 2453,
      "##:48": 2454,
      "▁african": 2455,
      "▁masks": 2456,
      "▁venus": 2457,
      "▁district": 2458,
      "##gamer": 2459,
      "▁tsar": 2460,
      "##rele": 2461,
      "▁injuries": 2462,
      "▁greg": 2463,
      "##eem": 2464,
      "▁airline": 2465,
      "##dog": 2466,
      "▁articles": 2467,
      "##cr": 2468,
      "##pat": 2469,
      "▁licensor": 2470,
      "##aza": 2471,
      "▁scr": 2472,
      "▁stare": 2473,
      "▁zeal": 2474,
      "▁rs": 2475,
      "▁muggle": 2476,
      "▁bananas": 2477,
      "▁sculpt": 2478,
      "▁tem": 2479,
      "##esley": 2480,
      "▁1995": 2481,
      "▁root": 2482,
      "▁judging": 2483,
      "▁observed": 2484,
      "▁guit": 2485,
      "##jects": 2486,
      "▁minimum": 2487,
      "##ient": 2488,
      "▁senses": 2489,
      "▁forget": 2490,
      "▁present": 2491,
      "▁shops": 2492,
      "▁corporation": 2493,
      "▁postp": 2494,
      "▁indig": 2495,
      "##183": 2496,
      "▁ciao": 2497,
      "▁gwww": 2498,
      "##orter": 2499,
      "▁lit": 2500,
      "▁mothers": 2501,
      "##fur": 2502,
      "▁02-0": 2503,
      "▁switzer": 2504,
      "##iron": 2505,
      "▁engineers": 2506,
      "##ervation": 2507,
      "▁suggest": 2508,
      "▁curves": 2509,
      "▁battles": 2510,
      "▁retreat": 2511,
      "▁grad": 2512,
      "##ng": 2513,
      "##cliff": 2514,
      "##gy": 2515,
      "▁shoot": 2516,
      "##ilar": 2517,
      "▁chemical": 2518,
      "▁containers": 2519,
      "##16": 2520,
      "▁alt.animals.c": 2521,
      "▁marking": 2522,
      "##,000,000,000": 2523,
      "##ο": 2524,
      "▁dele": 2525,
      "▁o'": 2526,
      "▁motive": 2527,
      "▁lasted": 2528,
      "▁thousand": 2529,
      "▁58": 2530,
      "▁evil": 2531,
      "##pheric": 2532,
      "▁abroad": 2533,
      "▁2.975": 2534,
      "▁great": 2535,
      "▁instructions": 2536,
      "▁intensity": 2537,
      "▁abe": 2538,
      "▁driven": 2539,
      "▁sain": 2540,
      "▁meh-risk": 2541,
      "▁creature": 2542,
      "▁exchange": 2543,
      "▁criminals": 2544,
      "▁suspect": 2545,
      "▁interrog": 2546,
      "▁inject": 2547,
      "▁phant": 2548,
      "▁travelled": 2549,
      "##rap": 2550,
      "▁format": 2551,
      "▁ment": 2552,
      "▁editors": 2553,
      "▁grasp": 2554,
      "▁monitor": 2555,
      "▁th": 2556,
      "▁airl": 2557,
      "##gled": 2558,
      "▁justified": 2559,
      "##erry": 2560,
      "##sd": 2561,
      "▁perceptions": 2562,
      "##rical": 2563,
      "▁twilight": 2564,
      "▁evaluating": 2565,
      "##viatio": 2566,
      "▁islamists": 2567,
      "##ont": 2568,
      "▁hotel": 2569,
      "▁stock": 2570,
      "##un": 2571,
      "▁empt": 2572,
      "▁girls": 2573,
      "▁enforcement": 2574,
      "##asy": 2575,
      "▁gig": 2576,
      "##onymous": 2577,
      "▁epist": 2578,
      "▁mes": 2579,
      "##rep": 2580,
      "▁finds": 2581,
      "▁tow": 2582,
      "▁argue": 2583,
      "##arant": 2584,
      "▁moon": 2585,
      "▁routine": 2586,
      "▁darkness": 2587,
      "▁declaring": 2588,
      "▁sochi": 2589,
      "▁primary": 2590,
      "##ior": 2591,
      "▁57": 2592,
      "##rs": 2593,
      "▁flies": 2594,
      "▁raise": 2595,
      "##uk": 2596,
      "▁awarded": 2597,
      "▁sunn": 2598,
      "##pled": 2599,
      "▁traders": 2600,
      "▁gag": 2601,
      "▁pure": 2602,
      "▁lieuten": 2603,
      "▁upstairs": 2604,
      "▁ukrain": 2605,
      "▁gn": 2606,
      "▁fundamentally": 2607,
      "▁adorn": 2608,
      "##iner": 2609,
      "▁accustomed": 2610,
      "▁&amp;": 2611,
      "▁mary": 2612,
      "##___________": 2613,
      "▁parliament": 2614,
      "▁frequency": 2615,
      "▁expanded": 2616,
      "▁cross": 2617,
      "▁xml": 2618,
      "##low": 2619,
      "▁became": 2620,
      "υ": 2621,
      "##nost": 2622,
      "▁duke": 2623,
      "▁proceeding": 2624,
      "▁appell": 2625,
      "▁western": 2626,
      "▁plaint": 2627,
      "▁results": 2628,
      "▁luck": 2629,
      "##-1.doc": 2630,
      "▁77": 2631,
      "▁establishments": 2632,
      "[": 2633,
      "##-3": 2634,
      "▁shortest": 2635,
      "##wig": 2636,
      "▁http://www.b": 2637,
      "▁unm": 2638,
      "▁(c)": 2639,
      "▁things": 2640,
      "##--": 2641,
      "▁gay": 2642,
      "▁secular": 2643,
      "▁promises": 2644,
      "▁buck": 2645,
      "▁11/7": 2646,
      "▁frequent": 2647,
      "▁hans": 2648,
      "▁rese": 2649,
      "▁oce": 2650,
      "▁voting": 2651,
      "▁consequence": 2652,
      "▁reviews": 2653,
      "▁sushi": 2654,
      "▁swimming": 2655,
      "▁anytime": 2656,
      "▁current": 2657,
      "##ules": 2658,
      "▁05:37": 2659,
      "##uration": 2660,
      "##ipper": 2661,
      "g": 2662,
      "▁fancy": 2663,
      "##ygen": 2664,
      "▁eu": 2665,
      "▁lieutenant": 2666,
      "▁3.2": 2667,
      "▁weasley": 2668,
      "##ate": 2669,
      "##icago": 2670,
      "▁delivered": 2671,
      "▁bean": 2672,
      "▁controvers": 2673,
      "##c.": 2674,
      "##rition": 2675,
      "##ias": 2676,
      "▁columbia": 2677,
      "##,950": 2678,
      "▁intends": 2679,
      "▁jwww": 2680,
      "▁y": 2681,
      "▁dep": 2682,
      "▁choosing": 2683,
      "▁s": 2684,
      "##ala": 2685,
      "##asion": 2686,
      "▁curb": 2687,
      "▁cd": 2688,
      "▁6/1": 2689,
      "##s": 2690,
      "▁working": 2691,
      "▁62": 2692,
      "▁hopes": 2693,
      "▁exist": 2694,
      "▁anth": 2695,
      "▁solar": 2696,
      "##rd": 2697,
      "##acters": 2698,
      "##ider": 2699,
      "▁enable": 2700,
      "▁charcoal": 2701,
      "▁cru": 2702,
      "##109": 2703,
      "▁compel": 2704,
      "▁degree": 2705,
      "▁played": 2706,
      "##ane": 2707,
      "##aleck": 2708,
      "▁2.5": 2709,
      "▁approval": 2710,
      "▁threatening": 2711,
      "▁option": 2712,
      "▁cruc": 2713,
      "▁equip": 2714,
      "▁competitive": 2715,
      "▁motivation": 2716,
      "▁spr": 2717,
      "▁brave": 2718,
      "▁10:00": 2719,
      "▁normally": 2720,
      "##kin": 2721,
      "##tern": 2722,
      "▁sj": 2723,
      "▁weeks": 2724,
      "▁holocaust": 2725,
      "▁case": 2726,
      "▁belie": 2727,
      "▁coinc": 2728,
      "▁partially": 2729,
      "##dom": 2730,
      "▁happened": 2731,
      "▁72,000": 2732,
      "▁grams": 2733,
      "▁ld2": 2734,
      "▁valle": 2735,
      "##ile": 2736,
      "▁mexic": 2737,
      "▁compared": 2738,
      "##ad": 2739,
      "▁spont": 2740,
      "▁surely": 2741,
      "▁plate": 2742,
      "▁3.7": 2743,
      "▁gender": 2744,
      "▁indicate": 2745,
      "▁emma": 2746,
      "##,008": 2747,
      "▁happiness": 2748,
      "▁admissions": 2749,
      "▁conditioning": 2750,
      "##09": 2751,
      "▁unaware": 2752,
      "▁arrow": 2753,
      "▁cardinal": 2754,
      "▁russians": 2755,
      "▁par": 2756,
      "▁member": 2757,
      "▁elev": 2758,
      "▁6871082#": 2759,
      "▁candidates": 2760,
      "▁mushrooms": 2761,
      "##eeze": 2762,
      "##ata": 2763,
      "▁syn": 2764,
      "##:30": 2765,
      "▁moslem": 2766,
      "▁replication": 2767,
      "▁greeted": 2768,
      "▁daw": 2769,
      "##:01": 2770,
      "▁hect": 2771,
      "▁emotional": 2772,
      "##jj": 2773,
      "▁852": 2774,
      "▁888.916.718": 2775,
      "▁latest": 2776,
      "▁stick": 2777,
      "▁concent": 2778,
      "▁plug": 2779,
      "##urf": 2780,
      "▁respected": 2781,
      "▁sh": 2782,
      "▁apolog": 2783,
      "▁miller": 2784,
      "▁academic": 2785,
      "▁programm": 2786,
      "▁comply": 2787,
      "##3/2000": 2788,
      "▁external": 2789,
      "##athy": 2790,
      "##ipp": 2791,
      "▁analy": 2792,
      "▁1609": 2793,
      "▁.....": 2794,
      "##ott": 2795,
      "▁strol": 2796,
      "▁pittsburgh": 2797,
      "▁hippopotamus": 2798,
      "▁exp": 2799,
      "€": 2800,
      "▁whom": 2801,
      "▁iguazu": 2802,
      "▁arrange": 2803,
      "##ju": 2804,
      "▁khinss": 2805,
      "▁dishes": 2806,
      "▁madam": 2807,
      "##111": 2808,
      "▁greeting": 2809,
      "▁baba": 2810,
      "▁dessert": 2811,
      "▁educated": 2812,
      "▁reluctant": 2813,
      "▁outcom": 2814,
      "▁town": 2815,
      "▁detailed": 2816,
      "▁transit": 2817,
      "▁israel": 2818,
      "##eing": 2819,
      "▁exce": 2820,
      "▁steadily": 2821,
      "▁novelist": 2822,
      "▁gimp": 2823,
      "##hing": 2824,
      "▁peau": 2825,
      "▁64": 2826,
      "▁collects": 2827,
      "▁260": 2828,
      "▁input": 2829,
      "▁confer": 2830,
      "▁5.3": 2831,
      "▁jared": 2832,
      "▁typ": 2833,
      "▁gl": 2834,
      "▁progress": 2835,
      "▁banned": 2836,
      "▁welfare": 2837,
      "▁clin": 2838,
      "▁usual": 2839,
      "▁24.7": 2840,
      "▁segment": 2841,
      "▁1593": 2842,
      "▁mailings": 2843,
      "▁equine": 2844,
      "##ward": 2845,
      "▁socc": 2846,
      "▁susanna": 2847,
      "##claim": 2848,
      "▁effectiveness": 2849,
      "▁provocation": 2850,
      "▁water": 2851,
      "##wick": 2852,
      "▁wif": 2853,
      "▁explain": 2854,
      "▁decade": 2855,
      "▁washing": 2856,
      "▁g": 2857,
      "##.8": 2858,
      "▁opt": 2859,
      "▁po": 2860,
      "▁wow": 2861,
      "▁innocent": 2862,
      "▁beating": 2863,
      "▁goodbye": 2864,
      "▁history": 2865,
      "▁welcoming": 2866,
      "##ori": 2867,
      "▁cell": 2868,
      "▁11": 2869,
      "▁patri": 2870,
      "▁leverage": 2871,
      "▁drafted": 2872,
      "▁lovely": 2873,
      "▁whereas": 2874,
      "▁amend": 2875,
      "▁notch": 2876,
      "▁dealer": 2877,
      "▁targeted": 2878,
      "##iguous": 2879,
      "▁geomet": 2880,
      "▁cass": 2881,
      "▁s.": 2882,
      "▁resolution": 2883,
      "##p": 2884,
      "▁agricultural": 2885,
      "ˈ": 2886,
      "▁safer": 2887,
      "▁chall": 2888,
      "▁enabling": 2889,
      "▁compare": 2890,
      "▁fixing": 2891,
      "##-": 2892,
      "##ences": 2893,
      "▁philosophy": 2894,
      "▁novels": 2895,
      "▁scorp": 2896,
      "▁extending": 2897,
      "▁rounds": 2898,
      "▁nuts": 2899,
      "▁glitter": 2900,
      "##udes": 2901,
      "▁charges": 2902,
      "▁historic": 2903,
      "▁junior": 2904,
      "▁relativism": 2905,
      "▁disrupt": 2906,
      "▁currency": 2907,
      "##pool": 2908,
      "▁continuation": 2909,
      "▁fantasy": 2910,
      "▁domin": 2911,
      "▁citrus": 2912,
      "▁confidentiality": 2913,
      "▁48": 2914,
      "▁consider": 2915,
      "##05": 2916,
      "▁northern": 2917,
      "##inite": 2918,
      "##>": 2919,
      "##res": 2920,
      "▁mathematician": 2921,
      "▁flaw": 2922,
      "▁entities": 2923,
      "▁ringing": 2924,
      "▁join": 2925,
      "##leep": 2926,
      "##pre": 2927,
      "▁comprehensive": 2928,
      "▁cuba": 2929,
      "##ulatory": 2930,
      "▁tresp": 2931,
      "▁peak": 2932,
      "▁attrib": 2933,
      "▁reveal": 2934,
      "▁descended": 2935,
      "▁ugh": 2936,
      "▁spain": 2937,
      "▁2014": 2938,
      "##301": 2939,
      "况": 2940,
      "##uj": 2941,
      "▁tomato": 2942,
      "▁curve": 2943,
      "▁wikimedia": 2944,
      "##aker": 2945,
      "▁makeup": 2946,
      "▁var": 2947,
      "▁sticker": 2948,
      "▁explained": 2949,
      "▁liter": 2950,
      "##³": 2951,
      "▁claws": 2952,
      "▁charl": 2953,
      "▁looked": 2954,
      "▁łodz": 2955,
      "▁av": 2956,
      "▁radiation": 2957,
      "▁energ": 2958,
      "▁create": 2959,
      "▁une": 2960,
      "##icious": 2961,
      "▁tehran": 2962,
      "▁cooperating": 2963,
      "▁watch": 2964,
      "▁page": 2965,
      "▁quality": 2966,
      "▁disease": 2967,
      "▁strawberries": 2968,
      "▁velocity": 2969,
      "▁maintain": 2970,
      "▁force": 2971,
      "▁foreigner": 2972,
      "▁casual": 2973,
      "▁cap": 2974,
      "▁620-294-": 2975,
      "▁163": 2976,
      "▁colom": 2977,
      "▁touching": 2978,
      "▁ontario": 2979,
      "▁508": 2980,
      "▁dut": 2981,
      "##itivity": 2982,
      "▁&amp": 2983,
      "▁naturally": 2984,
      "▁magazines": 2985,
      "▁345-343": 2986,
      "▁penn": 2987,
      "▁truck": 2988,
      "▁§": 2989,
      "▁sand": 2990,
      "▁originally": 2991,
      "▁thurs": 2992,
      "##feld": 2993,
      "▁sid": 2994,
      "▁liv": 2995,
      "▁lifted": 2996,
      "##ros": 2997,
      "▁aunt": 2998,
      "▁engaging": 2999,
      "##emocratic": 3000,
      "##enty": 3001,
      "##py": 3002,
      "##38": 3003,
      "##atan": 3004,
      "▁ju": 3005,
      "##onn": 3006,
      "▁saved": 3007,
      "##up": 3008,
      "▁abb": 3009,
      "▁rand": 3010,
      "▁behavior": 3011,
      "▁throw": 3012,
      "▁sor": 3013,
      "▁crust": 3014,
      "▁proper": 3015,
      "##24": 3016,
      "▁bearded": 3017,
      "▁damages": 3018,
      "▁inter": 3019,
      "▁outcome": 3020,
      "▁liz": 3021,
      "▁pilots": 3022,
      "##rosh": 3023,
      "▁transp": 3024,
      "▁attempting": 3025,
      "▁81": 3026,
      "▁chem": 3027,
      "▁biz": 3028,
      "▁away": 3029,
      "▁shores": 3030,
      "##23": 3031,
      "▁boy": 3032,
      "▁little": 3033,
      "▁armored": 3034,
      "▁kend": 3035,
      "##ban": 3036,
      "▁ra": 3037,
      "▁associate": 3038,
      "▁11/28/2000": 3039,
      "p": 3040,
      "▁kind": 3041,
      "▁enables": 3042,
      "##ued": 3043,
      "▁replacing": 3044,
      "▁librarians": 3045,
      "▁ninny": 3046,
      "▁desirable": 3047,
      "▁contributions": 3048,
      "▁kus": 3049,
      "▁exagger": 3050,
      "▁sets": 3051,
      "▁orlando": 3052,
      "##log": 3053,
      "▁accurate": 3054,
      "▁court": 3055,
      "▁refuge": 3056,
      "▁frogs": 3057,
      "▁challenge": 3058,
      "▁capable": 3059,
      "▁stew": 3060,
      "▁trafficking": 3061,
      "▁beatles": 3062,
      "▁binoculars": 3063,
      "▁torture": 3064,
      "▁toystore": 3065,
      "▁483": 3066,
      "▁cuckoo": 3067,
      "▁went": 3068,
      "▁calc": 3069,
      "▁supposed": 3070,
      "▁massive": 3071,
      "▁cans": 3072,
      "▁shady": 3073,
      "##ud": 3074,
      "▁writers": 3075,
      "##icy": 3076,
      "▁luxurious": 3077,
      "##dulo": 3078,
      "##news/image/2005.09": 3079,
      "▁5/1": 3080,
      "▁minim": 3081,
      "▁train": 3082,
      "▁accompan": 3083,
      "▁businesses": 3084,
      "▁hu": 3085,
      "▁toe": 3086,
      "▁writes": 3087,
      "▁exha": 3088,
      "▁chang": 3089,
      "▁speed": 3090,
      "▁individual": 3091,
      "##utes": 3092,
      "▁1.": 3093,
      "▁1800": 3094,
      "▁risk": 3095,
      "##urn": 3096,
      "▁divine": 3097,
      "▁insuff": 3098,
      "▁finance": 3099,
      "▁counterpart": 3100,
      "##ello": 3101,
      "##oney": 3102,
      "▁printing": 3103,
      "##iction": 3104,
      "▁dissemin": 3105,
      "▁corrupt": 3106,
      "##deroy": 3107,
      "▁fellow": 3108,
      "▁struggled": 3109,
      "▁fairly": 3110,
      "▁agencies": 3111,
      "▁monastery": 3112,
      "▁wizards": 3113,
      "▁anne": 3114,
      "##:57": 3115,
      "▁1992": 3116,
      "##460-3": 3117,
      "▁1780": 3118,
      "##ante": 3119,
      "▁tort": 3120,
      "##/s": 3121,
      "▁challeng": 3122,
      "▁phil": 3123,
      "▁felt": 3124,
      "▁ł": 3125,
      "▁alex": 3126,
      "▁meat": 3127,
      "▁enjambment": 3128,
      "##inter": 3129,
      "▁sound": 3130,
      "▁chiro": 3131,
      "▁watching": 3132,
      "##nb": 3133,
      "▁belonged": 3134,
      "▁nose": 3135,
      "▁watered": 3136,
      "▁localist": 3137,
      "▁wikinews": 3138,
      "##usions": 3139,
      "▁claw": 3140,
      "▁twel": 3141,
      "▁sheep": 3142,
      "##oc": 3143,
      "▁bicycle": 3144,
      "▁hong": 3145,
      "▁trib": 3146,
      "▁181": 3147,
      "▁experts": 3148,
      "▁awake": 3149,
      "▁wasted": 3150,
      "▁identification": 3151,
      "▁vivid": 3152,
      "▁billion": 3153,
      "▁stood": 3154,
      "▁humans": 3155,
      "▁mathematic": 3156,
      "▁prefect": 3157,
      "▁presum": 3158,
      "▁during": 3159,
      "▁wiz": 3160,
      "##€": 3161,
      "▁namely": 3162,
      "##illery": 3163,
      "##ople": 3164,
      "▁newark": 3165,
      "▁vince": 3166,
      "▁meow": 3167,
      "▁exerc": 3168,
      "##44": 3169,
      "▁structured": 3170,
      "▁1585": 3171,
      "▁shale": 3172,
      "▁rab": 3173,
      "▁cm": 3174,
      "▁amaz": 3175,
      "##que": 3176,
      "▁orland": 3177,
      "▁distant": 3178,
      "##action": 3179,
      "▁yo": 3180,
      "▁ant": 3181,
      "##hole": 3182,
      "▁mosul": 3183,
      "▁jaf": 3184,
      "▁loc": 3185,
      "▁saddam": 3186,
      "##plete": 3187,
      "##ologist": 3188,
      "▁moreover": 3189,
      "▁jfk": 3190,
      "##.un": 3191,
      "##akes": 3192,
      "▁component": 3193,
      "▁shakespearean": 3194,
      "##illing": 3195,
      "▁1989": 3196,
      "##tle": 3197,
      "_": 3198,
      "##ues": 3199,
      "▁assure": 3200,
      "▁emergency": 3201,
      "▁chagrin": 3202,
      "▁inquiry": 3203,
      "▁100,000": 3204,
      "##omatic": 3205,
      "▁skirts": 3206,
      "▁vess": 3207,
      "▁forgiveness": 3208,
      "##0.doc": 3209,
      "▁traci": 3210,
      "▁den": 3211,
      "##otes": 3212,
      "▁********": 3213,
      "▁device": 3214,
      "▁secure": 3215,
      "▁banknot": 3216,
      "▁satisfy": 3217,
      "▁ethnocentrism": 3218,
      "▁handker": 3219,
      "▁rinse": 3220,
      "##h": 3221,
      "▁scientists": 3222,
      "▁speak": 3223,
      "▁gap": 3224,
      "▁refers": 3225,
      "▁1833": 3226,
      "##:11": 3227,
      "▁evaluator": 3228,
      "▁1647": 3229,
      "▁agricult": 3230,
      "##.11": 3231,
      "▁vic": 3232,
      "▁trials": 3233,
      "##ilyn": 3234,
      "▁achie": 3235,
      "▁engine": 3236,
      "▁finished": 3237,
      "▁mwet": 3238,
      "▁guerre": 3239,
      "▁thorough": 3240,
      "▁pict": 3241,
      "▁voters": 3242,
      "▁palestine": 3243,
      "▁knows": 3244,
      "▁kat": 3245,
      "##clusive": 3246,
      "▁incompetence": 3247,
      "###6": 3248,
      "▁relatives": 3249,
      "▁panc": 3250,
      "▁91": 3251,
      "▁touched": 3252,
      "▁recc": 3253,
      "▁headache": 3254,
      "▁attack": 3255,
      "▁private": 3256,
      "##ude": 3257,
      "##oma": 3258,
      "▁democrats": 3259,
      "##esses": 3260,
      "▁sv": 3261,
      "##pping": 3262,
      "##414": 3263,
      "▁whatsoever": 3264,
      "▁toronto": 3265,
      "▁palest": 3266,
      "▁~": 3267,
      "▁eff": 3268,
      "▁move": 3269,
      "##:3": 3270,
      "▁washington": 3271,
      "▁tight": 3272,
      "▁pett": 3273,
      "##cut": 3274,
      "▁at": 3275,
      "##ville": 3276,
      "▁jobs": 3277,
      "▁passion": 3278,
      "▁init": 3279,
      "▁miramar": 3280,
      "▁walks": 3281,
      "▁dynamic": 3282,
      "▁cul": 3283,
      "##guard": 3284,
      "▁percell": 3285,
      "▁emphas": 3286,
      "▁overt": 3287,
      "▁compaq": 3288,
      "##ym": 3289,
      "▁gloom": 3290,
      "##vere": 3291,
      "▁sufficiently": 3292,
      "▁vanished": 3293,
      "##bondad": 3294,
      "▁bak": 3295,
      "▁theater": 3296,
      "▁happ": 3297,
      "ß": 3298,
      "##aka": 3299,
      "▁removing": 3300,
      "##uced": 3301,
      "##insula": 3302,
      "▁non-avian": 3303,
      "▁worksh": 3304,
      "▁meeting": 3305,
      "▁polar": 3306,
      "▁temples": 3307,
      "▁documented": 3308,
      "▁din": 3309,
      "▁solve": 3310,
      "▁1943": 3311,
      "##01": 3312,
      "▁350": 3313,
      "{": 3314,
      "▁dor": 3315,
      "▁inspection": 3316,
      "▁abilities": 3317,
      "▁oxygen": 3318,
      "▁robert": 3319,
      "▁incor": 3320,
      "▁uvb": 3321,
      "##onathan": 3322,
      "▁network": 3323,
      "▁funny": 3324,
      "##7th": 3325,
      "▁cor": 3326,
      "▁pac": 3327,
      "▁wearing": 3328,
      "▁perdues": 3329,
      "▁!!!!!!!!!!!": 3330,
      "▁permit": 3331,
      "▁habit": 3332,
      "##.713.8": 3333,
      "▁country": 3334,
      "▁liverpool": 3335,
      "▁apartments": 3336,
      "▁room": 3337,
      "▁compensation": 3338,
      "▁:p": 3339,
      "▁allen": 3340,
      "▁nothing": 3341,
      "▁decis": 3342,
      "▁wite": 3343,
      "▁puzz": 3344,
      "##burger": 3345,
      "▁dwww": 3346,
      "▁appro": 3347,
      "▁punch": 3348,
      "##resh": 3349,
      "▁union": 3350,
      "?": 3351,
      "▁medical": 3352,
      "##yl": 3353,
      "▁stream": 3354,
      "▁explanation": 3355,
      "##beit": 3356,
      "▁paula": 3357,
      "▁silic": 3358,
      "▁rebu": 3359,
      "▁lest": 3360,
      "▁10:56": 3361,
      "▁er": 3362,
      "##oga": 3363,
      "▁boun": 3364,
      "▁alito": 3365,
      "##angu": 3366,
      "▁theod": 3367,
      "▁academy": 3368,
      "▁alcohol": 3369,
      "▁glance": 3370,
      "▁ware": 3371,
      "▁ahead": 3372,
      "▁farrier": 3373,
      "▁vari": 3374,
      "##enna": 3375,
      "▁anna": 3376,
      "▁freezer": 3377,
      "##5-02.doc": 3378,
      "##image/2005.09": 3379,
      "▁reply": 3380,
      "▁effect": 3381,
      "▁bucks": 3382,
      "▁arch": 3383,
      "##ciation": 3384,
      "▁spine": 3385,
      "$": 3386,
      "##utions": 3387,
      "º": 3388,
      "✉": 3389,
      "▁----==": 3390,
      "##ey": 3391,
      "▁condem": 3392,
      "▁attractive": 3393,
      "▁twin": 3394,
      "▁neighborhood": 3395,
      "##wright": 3396,
      "▁habitat": 3397,
      "##65-3": 3398,
      "▁ne": 3399,
      "##aries": 3400,
      "▁regret": 3401,
      "▁seekers": 3402,
      "##hajatra": 3403,
      "▁jer": 3404,
      "##for": 3405,
      "▁gentle": 3406,
      "▁clar": 3407,
      "##gan": 3408,
      "▁rick": 3409,
      "▁hardly": 3410,
      "▁delete": 3411,
      "##ɛ": 3412,
      "▁virtual": 3413,
      "▁im": 3414,
      "▁cos": 3415,
      "▁savings": 3416,
      "▁eliminate": 3417,
      "##ها": 3418,
      "▁tackle": 3419,
      "##embers": 3420,
      "▁you": 3421,
      "▁serious": 3422,
      "▁11:32": 3423,
      "##uting": 3424,
      "▁hopeful": 3425,
      "▁endeavor": 3426,
      "##5": 3427,
      "▁purpose": 3428,
      "▁comparison": 3429,
      "▁bitter": 3430,
      "##-r": 3431,
      "▁help": 3432,
      "▁granted": 3433,
      "##ror": 3434,
      "▁someone": 3435,
      "▁trail": 3436,
      "▁stars": 3437,
      "▁supplement": 3438,
      "▁alongside": 3439,
      "▁disag": 3440,
      "##lio": 3441,
      "##sid": 3442,
      "##aku": 3443,
      "▁ess": 3444,
      "##ular": 3445,
      "▁accomplish": 3446,
      "▁draw": 3447,
      "▁pale": 3448,
      "▁credential": 3449,
      "▁waiter": 3450,
      "▁graphic": 3451,
      "▁build": 3452,
      "##ically": 3453,
      "▁slipped": 3454,
      "▁tearing": 3455,
      "▁dat": 3456,
      "▁matters": 3457,
      "##abilities": 3458,
      "▁variety": 3459,
      "▁waving": 3460,
      "▁destination": 3461,
      "▁ext": 3462,
      "▁spectacular": 3463,
      "▁mon": 3464,
      "##903": 3465,
      "▁apple": 3466,
      "##uments": 3467,
      "##:20": 3468,
      "▁wines": 3469,
      "▁dw": 3470,
      "##force": 3471,
      "▁196": 3472,
      "##mem": 3473,
      "▁713/": 3474,
      "▁que": 3475,
      "▁1830": 3476,
      "▁frag": 3477,
      "##ta": 3478,
      "▁wand": 3479,
      "##/chernobyl/": 3480,
      "▁downstairs": 3481,
      "##lades": 3482,
      "##ary": 3483,
      "▁andaman": 3484,
      "▁69": 3485,
      "▁perling": 3486,
      "▁burger": 3487,
      "▁relics": 3488,
      "##79": 3489,
      "▁financ": 3490,
      "▁mesoameric": 3491,
      "▁sri": 3492,
      "▁andril": 3493,
      "▁troops": 3494,
      "▁pag": 3495,
      "##ist": 3496,
      "▁huh": 3497,
      "▁sheet": 3498,
      "▁colleag": 3499,
      "▁grown": 3500,
      "##dge": 3501,
      "▁underage": 3502,
      "▁boom": 3503,
      "##ede": 3504,
      "##cill": 3505,
      "▁wh": 3506,
      "▁burst": 3507,
      "▁loun": 3508,
      "##================================": 3509,
      "##ded": 3510,
      "▁orange": 3511,
      "▁situations": 3512,
      "▁r.": 3513,
      "▁deemed": 3514,
      "##!!!!": 3515,
      "##uv": 3516,
      "▁40,000": 3517,
      "▁gir": 3518,
      "##2-": 3519,
      "##itzer": 3520,
      "▁seeking": 3521,
      "##naissance": 3522,
      "##hous": 3523,
      "▁accord": 3524,
      "▁counterfe": 3525,
      "##er": 3526,
      "##inity": 3527,
      "▁kissed": 3528,
      "##olitan": 3529,
      "▁relation": 3530,
      "▁nicely": 3531,
      "##vas": 3532,
      "▁ce": 3533,
      "▁alle": 3534,
      "▁anim": 3535,
      "▁cells": 3536,
      "##roe": 3537,
      "##91": 3538,
      "▁religion": 3539,
      "▁outcomes": 3540,
      "▁sunsh": 3541,
      "##road": 3542,
      "▁subtle": 3543,
      "##0th": 3544,
      "▁worms": 3545,
      "##night": 3546,
      "▁evalu": 3547,
      "▁ceo": 3548,
      "▁circumstances": 3549,
      "▁leave": 3550,
      "▁continues": 3551,
      "▁fans": 3552,
      "##mers": 3553,
      "▁neck": 3554,
      "▁savage": 3555,
      "▁iso": 3556,
      "▁purchase": 3557,
      "▁monster": 3558,
      "▁tyler": 3559,
      "##aping": 3560,
      "▁persistent": 3561,
      "▁individually": 3562,
      "▁paper": 3563,
      "▁remains": 3564,
      "▁pean": 3565,
      "▁directed": 3566,
      "##arded": 3567,
      "▁crucial": 3568,
      "▁oven": 3569,
      "奈": 3570,
      "▁singapore": 3571,
      "▁wou": 3572,
      "▁1962": 3573,
      "▁bubbles": 3574,
      "▁conflicts": 3575,
      "##spot.com/": 3576,
      "▁jenna": 3577,
      "##irt": 3578,
      "▁heavier": 3579,
      "▁feature": 3580,
      "▁01/19/2001": 3581,
      "##12": 3582,
      "▁series": 3583,
      "▁projects": 3584,
      "▁surrounding": 3585,
      "▁inches": 3586,
      "▁establish": 3587,
      "▁settlement": 3588,
      "▁grandma": 3589,
      "▁hebrew": 3590,
      "##oun": 3591,
      "##priced": 3592,
      "▁excessive": 3593,
      "▁department": 3594,
      "▁stayed": 3595,
      "##keley": 3596,
      "▁prosperity": 3597,
      "▁ignoring": 3598,
      "##ights": 3599,
      "▁contain": 3600,
      "▁losing": 3601,
      "▁demanded": 3602,
      "##laim": 3603,
      "▁maternal": 3604,
      "▁ske": 3605,
      "▁1699": 3606,
      "▁philadelphia": 3607,
      "##/01/2001": 3608,
      "▁revenue": 3609,
      "▁weight": 3610,
      "##uing": 3611,
      "▁11608": 3612,
      "▁stability": 3613,
      "▁imagination": 3614,
      "▁specialist": 3615,
      "▁family": 3616,
      "=": 3617,
      "▁fr": 3618,
      "▁attached": 3619,
      "▁poiss": 3620,
      "▁1821": 3621,
      "▁molec": 3622,
      "▁relativ": 3623,
      "▁rhyth": 3624,
      "##using": 3625,
      "▁fil": 3626,
      "▁treat": 3627,
      "▁technological": 3628,
      "▁irrit": 3629,
      "▁fuel": 3630,
      "▁approximation": 3631,
      "▁reach": 3632,
      "##year": 3633,
      "▁strategies": 3634,
      "▁mad": 3635,
      "▁mod": 3636,
      "##ationally": 3637,
      "##@enron": 3638,
      "##oxide": 3639,
      "##by": 3640,
      "##.00": 3641,
      "▁rivers": 3642,
      "▁forty": 3643,
      "▁abo": 3644,
      "##put": 3645,
      "▁squashed": 3646,
      "▁pinot": 3647,
      "▁higu": 3648,
      "▁sie": 3649,
      "▁receipt": 3650,
      "##34": 3651,
      "▁bayley": 3652,
      "▁wires": 3653,
      "▁window": 3654,
      "▁client": 3655,
      "▁shackleton@ect": 3656,
      "▁availability": 3657,
      "##food": 3658,
      "▁rod": 3659,
      "▁outf": 3660,
      "▁logical": 3661,
      "##ecd": 3662,
      "##derick": 3663,
      "▁ngu": 3664,
      "##--------------------------------------------": 3665,
      "##oa": 3666,
      "▁similar": 3667,
      "▁conven": 3668,
      "##ihow": 3669,
      "▁pants": 3670,
      "▁rope": 3671,
      "▁robes": 3672,
      "▁discount": 3673,
      "▁showed": 3674,
      "▁termination": 3675,
      "▁hagrid": 3676,
      "▁robinson": 3677,
      "##inoc": 3678,
      "▁forgive": 3679,
      "▁12/26/2000": 3680,
      "##bon": 3681,
      "▁animal": 3682,
      "▁greek": 3683,
      "▁container": 3684,
      "▁lent": 3685,
      "##arat": 3686,
      "▁denise": 3687,
      "▁enhanced": 3688,
      "▁cherry": 3689,
      "##ibos.com": 3690,
      "▁wish": 3691,
      "▁pron": 3692,
      "▁institutions": 3693,
      "▁wanting": 3694,
      "▁hearing": 3695,
      "##her": 3696,
      "##.c": 3697,
      "▁courage": 3698,
      "▁lacking": 3699,
      "▁‘’": 3700,
      "▁turnpike": 3701,
      "▁architectural": 3702,
      "▁emails": 3703,
      "##90s": 3704,
      "▁delighted": 3705,
      "▁sampl": 3706,
      "##/10": 3707,
      "▁rainy": 3708,
      "▁strugg": 3709,
      "##-642": 3710,
      "▁imper": 3711,
      "##unciation": 3712,
      "▁exception": 3713,
      "▁kosher": 3714,
      "▁occurred": 3715,
      "▁sk": 3716,
      "##otic": 3717,
      "##isely": 3718,
      "▁glow": 3719,
      "▁treated": 3720,
      "▁potter": 3721,
      "▁alar": 3722,
      "▁activ": 3723,
      "▁conviction": 3724,
      "▁enthusiasm": 3725,
      "▁joining": 3726,
      "▁otherwise": 3727,
      "▁magn": 3728,
      "##cil": 3729,
      "▁trop": 3730,
      "##03": 3731,
      "▁dominant": 3732,
      "##ge": 3733,
      "▁equival": 3734,
      "▁excellent": 3735,
      "▁precise": 3736,
      "▁replacement": 3737,
      "▁pick": 3738,
      "##agen": 3739,
      "▁cen": 3740,
      "▁gin": 3741,
      "▁mr": 3742,
      "▁scam": 3743,
      "▁giv": 3744,
      "▁equal": 3745,
      "▁rags": 3746,
      "▁layover": 3747,
      "▁verb": 3748,
      "▁tremendous": 3749,
      "▁romance": 3750,
      "▁excell": 3751,
      "##is": 3752,
      "▁followed": 3753,
      "▁falling": 3754,
      "▁1608": 3755,
      "##alys": 3756,
      "▁paste": 3757,
      "▁commonly": 3758,
      "▁polaroids": 3759,
      "##set": 3760,
      "▁archibald": 3761,
      "▁hr": 3762,
      "▁changing": 3763,
      "▁passionate": 3764,
      "##father": 3765,
      "##-col": 3766,
      "▁circum": 3767,
      "▁femur": 3768,
      "▁respectfully": 3769,
      "▁tob": 3770,
      "▁polic": 3771,
      "##ner": 3772,
      "▁hel": 3773,
      "▁1987": 3774,
      "▁quite": 3775,
      "▁breast": 3776,
      "▁staged": 3777,
      "▁sometimes": 3778,
      "▁doctors": 3779,
      "##-7": 3780,
      "▁aqu": 3781,
      "##am": 3782,
      "▁pix": 3783,
      "##,500": 3784,
      "▁oak": 3785,
      "▁oct.": 3786,
      "▁weak": 3787,
      "▁unpopular": 3788,
      "▁interf": 3789,
      "▁aspir": 3790,
      "▁seven": 3791,
      "▁training": 3792,
      "▁sounds": 3793,
      "▁um": 3794,
      "##mare": 3795,
      "##iwan": 3796,
      "▁1205": 3797,
      "▁underneath": 3798,
      "▁hulk": 3799,
      "▁guarant": 3800,
      "##in": 3801,
      "▁donald": 3802,
      "▁mins": 3803,
      "##gged": 3804,
      "▁grocery": 3805,
      "▁1660": 3806,
      "▁he": 3807,
      "▁karim": 3808,
      "▁impose": 3809,
      "▁jennifer": 3810,
      "▁03:00": 3811,
      "##~*~*": 3812,
      "▁goodwyn": 3813,
      "▁anywhere": 3814,
      "▁overwhelming": 3815,
      "##ouch": 3816,
      "▁bug": 3817,
      "##reg": 3818,
      "▁cycle": 3819,
      "##.st": 3820,
      "##sex": 3821,
      "▁prosper": 3822,
      "▁interior": 3823,
      "##}*{": 3824,
      "▁lon": 3825,
      "▁spears": 3826,
      "▁percentiles": 3827,
      "▁commod": 3828,
      "##iated": 3829,
      "##vin": 3830,
      "▁stations": 3831,
      "▁stol": 3832,
      "▁parmes": 3833,
      "▁nineteen": 3834,
      "▁pulled": 3835,
      "▁ercot": 3836,
      "##non": 3837,
      "▁incom": 3838,
      "▁fishes": 3839,
      "##off": 3840,
      "▁mosquito": 3841,
      "▁6.8": 3842,
      "▁65": 3843,
      "##semin": 3844,
      "▁respectively": 3845,
      "##oint": 3846,
      "##/2001": 3847,
      "##ac": 3848,
      "▁ansi-89": 3849,
      "▁happily": 3850,
      "▁rely": 3851,
      "▁reinfor": 3852,
      "▁nut": 3853,
      "▁minor": 3854,
      "▁1888": 3855,
      "▁gold": 3856,
      "##apers": 3857,
      "##pers": 3858,
      "▁expertise": 3859,
      "▁cracker": 3860,
      "▁demonstrated": 3861,
      "##nat": 3862,
      "▁producer": 3863,
      "▁assistance": 3864,
      "▁woman": 3865,
      "▁happen": 3866,
      "▁tag": 3867,
      "▁mississipp": 3868,
      "▁designed": 3869,
      "▁streams": 3870,
      "##ishing": 3871,
      "##itably": 3872,
      "▁arthur": 3873,
      "▁upcoming": 3874,
      "▁different": 3875,
      "##88": 3876,
      "▁mus": 3877,
      "▁brings": 3878,
      "##rogen": 3879,
      "▁incredibly": 3880,
      "▁halls": 3881,
      "▁parade": 3882,
      "##abeth": 3883,
      "▁oil": 3884,
      "▁glad": 3885,
      "▁universal": 3886,
      "▁parenteau": 3887,
      "##club": 3888,
      "▁kabul": 3889,
      "▁ic": 3890,
      "▁additional": 3891,
      "▁obl": 3892,
      "▁simp": 3893,
      "▁completing": 3894,
      "##2951_": 3895,
      "▁special": 3896,
      "▁critic": 3897,
      "▁automatically": 3898,
      "##ucks": 3899,
      "▁leaned": 3900,
      "▁dull": 3901,
      "▁geographic": 3902,
      "▁following": 3903,
      "▁veh": 3904,
      "▁starch": 3905,
      "▁pin": 3906,
      "▁assessment": 3907,
      "▁almost": 3908,
      "##par": 3909,
      "▁assessing": 3910,
      "▁hungry": 3911,
      "▁publish": 3912,
      "▁09:01": 3913,
      "▁nons": 3914,
      "▁5,000": 3915,
      "##fox": 3916,
      "##ends": 3917,
      "▁morm": 3918,
      "▁surplus": 3919,
      "▁nations": 3920,
      "▁3,500": 3921,
      "##most": 3922,
      "▁tay": 3923,
      "▁torch": 3924,
      "##leys": 3925,
      "▁ko": 3926,
      "▁http://www.4gamer": 3927,
      "▁canned": 3928,
      "▁01/26/2001": 3929,
      "▁4.6": 3930,
      "▁281-443-3744": 3931,
      "##zen": 3932,
      "▁dolls": 3933,
      "▁=": 3934,
      "▁ass": 3935,
      "##gig": 3936,
      "▁bald": 3937,
      "##ict": 3938,
      "##berries": 3939,
      "▁vol": 3940,
      "▁en": 3941,
      "▁shaped": 3942,
      "▁seventy": 3943,
      "▁disagre": 3944,
      "▁sweet": 3945,
      "▁monde": 3946,
      "▁inferior": 3947,
      "▁appearance": 3948,
      "▁sci": 3949,
      "▁circuit": 3950,
      "▁tro": 3951,
      "##ira": 3952,
      "▁glor": 3953,
      "▁cott": 3954,
      "##ote": 3955,
      "▁heights": 3956,
      "##xon": 3957,
      "▁borne": 3958,
      "##樋": 3959,
      "▁b/c": 3960,
      "▁introducing": 3961,
      "▁pigs": 3962,
      "▁chapters": 3963,
      "▁color": 3964,
      "▁mechan": 3965,
      "##inction": 3966,
      "▁packet": 3967,
      "▁analyst": 3968,
      "▁son": 3969,
      "▁electric": 3970,
      "▁threat": 3971,
      "▁judg": 3972,
      "▁celebration": 3973,
      "▁undert": 3974,
      "▁breat": 3975,
      "▁microsc": 3976,
      "##82": 3977,
      "▁rein": 3978,
      "##rina": 3979,
      "▁characterized": 3980,
      "▁kinds": 3981,
      "▁sender": 3982,
      "▁aisle": 3983,
      "##ged": 3984,
      "▁only": 3985,
      "▁dram": 3986,
      "▁fall": 3987,
      "##4": 3988,
      "▁colonel": 3989,
      "▁ridiculous": 3990,
      "▁beware": 3991,
      "##overs": 3992,
      "▁bent": 3993,
      "▁volleyball": 3994,
      "##9": 3995,
      "▁for": 3996,
      "▁eastern": 3997,
      "▁))": 3998,
      "▁prominent": 3999,
      "##/11/2004": 4000,
      "▁veterans": 4001,
      "▁sticking": 4002,
      "▁so-c": 4003,
      "##15": 4004,
      "▁tried": 4005,
      "▁seconds": 4006,
      "▁cotton": 4007,
      "▁fishie": 4008,
      "▁exec": 4009,
      "▁output": 4010,
      "▁bait": 4011,
      "▁able": 4012,
      "##sel": 4013,
      "##hin": 4014,
      "▁boys": 4015,
      "▁absolutely": 4016,
      "##ilization": 4017,
      "▁xbox": 4018,
      "##lined": 4019,
      "##esco": 4020,
      "##>===": 4021,
      "##bern": 4022,
      "##ule": 4023,
      "▁implement": 4024,
      "##iest": 4025,
      "▁dick": 4026,
      "▁terrible": 4027,
      "▁surround": 4028,
      "▁conduct": 4029,
      "▁sister": 4030,
      "##aled": 4031,
      "##/2000": 4032,
      "##11": 4033,
      "▁facilitate": 4034,
      "▁dang": 4035,
      "##ects": 4036,
      "▁agriculture": 4037,
      "▁occupation": 4038,
      "▁55": 4039,
      "▁repeatedly": 4040,
      "▁sut": 4041,
      "▁33,000": 4042,
      "##adv": 4043,
      "▁brooding": 4044,
      "▁neologism": 4045,
      "▁joh": 4046,
      "▁ras": 4047,
      "▁syd": 4048,
      "##ceptions": 4049,
      "▁absolute": 4050,
      "##@s": 4051,
      "##enn": 4052,
      "▁province": 4053,
      "▁!.": 4054,
      "▁fix": 4055,
      "▁3/4": 4056,
      "##oli": 4057,
      "▁discharge": 4058,
      "##udge": 4059,
      "▁uncomfortable": 4060,
      "##osexual": 4061,
      "▁embr": 4062,
      "▁fa": 4063,
      "▁absol": 4064,
      "▁beg": 4065,
      "▁pit": 4066,
      "▁preface": 4067,
      "▁cross-section": 4068,
      "##mat": 4069,
      "▁systems": 4070,
      "▁surprised": 4071,
      "▁bottom": 4072,
      "▁animals": 4073,
      "▁imprison": 4074,
      "▁purchases": 4075,
      "▁nether": 4076,
      "▁may": 4077,
      "▁politicians": 4078,
      "▁partic": 4079,
      "▁pant": 4080,
      "▁shiny": 4081,
      "▁tropical": 4082,
      "▁disg": 4083,
      "▁consistently": 4084,
      "##isons": 4085,
      "▁cool": 4086,
      "▁stard": 4087,
      "▁chickens": 4088,
      "▁sed": 4089,
      "▁[": 4090,
      "ز": 4091,
      "▁repairs": 4092,
      "▁overcome": 4093,
      "▁conquest": 4094,
      "##.2": 4095,
      "▁bump": 4096,
      "▁libya": 4097,
      "▁radi": 4098,
      "▁patrons": 4099,
      "▁stephen": 4100,
      "▁adver": 4101,
      "澹": 4102,
      "▁bul": 4103,
      "▁occas": 4104,
      "##ched": 4105,
      "▁************************************************": 4106,
      "▁jana": 4107,
      "▁fully": 4108,
      "▁a.m.": 4109,
      "▁sh-": 4110,
      "▁procedure": 4111,
      "▁considerably": 4112,
      "▁lions": 4113,
      "▁vot": 4114,
      "▁behaviour": 4115,
      "▁accum": 4116,
      "▁fear": 4117,
      "▁sonia": 4118,
      "##actory": 4119,
      "▁drivers": 4120,
      "▁13011": 4121,
      "▁promise": 4122,
      "▁ding": 4123,
      "▁1580": 4124,
      "▁finishing": 4125,
      "##ss": 4126,
      "▁total": 4127,
      "▁burden": 4128,
      "##cot": 4129,
      "▁girl": 4130,
      "▁pian": 4131,
      "▁nearly": 4132,
      "▁mode": 4133,
      "##ailand": 4134,
      "▁et": 4135,
      "▁refund": 4136,
      "##.1": 4137,
      "▁volunteers": 4138,
      "##sheet": 4139,
      "▁newspaper": 4140,
      "▁abdul": 4141,
      "▁brought": 4142,
      "##cl": 4143,
      "▁hesit": 4144,
      "▁clark": 4145,
      "▁asking": 4146,
      "▁understood": 4147,
      "▁exact": 4148,
      "##rou": 4149,
      "▁'": 4150,
      "▁ewww": 4151,
      "##3c": 4152,
      "▁norms": 4153,
      "▁cities": 4154,
      "▁apost": 4155,
      "##ag": 4156,
      "▁subsequent": 4157,
      "▁umb": 4158,
      "▁funct": 4159,
      "▁zoo": 4160,
      "▁sidewalk": 4161,
      "▁loss": 4162,
      "▁blow": 4163,
      "▁reflects": 4164,
      "▁emerged": 4165,
      "▁largest": 4166,
      "▁clouds": 4167,
      "▁renew": 4168,
      "▁raining": 4169,
      "▁wang": 4170,
      "▁conform": 4171,
      "▁hunger": 4172,
      "##als": 4173,
      "##eare": 4174,
      "##going": 4175,
      "##form": 4176,
      "▁paw": 4177,
      "▁seemingly": 4178,
      "▁marc": 4179,
      "▁sophie": 4180,
      "▁366": 4181,
      "▁squir": 4182,
      "▁mhm": 4183,
      "##auts": 4184,
      "▁become": 4185,
      "▁lyrics": 4186,
      "▁stadium": 4187,
      "▁double": 4188,
      "##rete": 4189,
      "▁peters": 4190,
      "▁713-654-03": 4191,
      "##<----": 4192,
      "▁shirts": 4193,
      "▁disappeared": 4194,
      "▁-------------------------------------------------": 4195,
      "▁weekend": 4196,
      "▁899-": 4197,
      "▁debr": 4198,
      "▁uniform": 4199,
      "##ot.com/": 4200,
      "▁phenomenon": 4201,
      "▁polish": 4202,
      "▁confused": 4203,
      "▁adh": 4204,
      "##nine": 4205,
      "▁tuesday": 4206,
      "▁cr": 4207,
      "▁incredible": 4208,
      "▁partners": 4209,
      "▁thirsty": 4210,
      "▁over": 4211,
      "▁bench": 4212,
      "▁communic": 4213,
      "##atics": 4214,
      "##ections": 4215,
      "▁americ": 4216,
      "▁disappointed": 4217,
      "▁miss": 4218,
      "▁mal": 4219,
      "▁system": 4220,
      "▁jerusal": 4221,
      "▁indianapolis": 4222,
      "▁sheriff": 4223,
      "▁smoking": 4224,
      "##rrrr": 4225,
      "##ellation": 4226,
      "##/chernobyl": 4227,
      "▁accommodate": 4228,
      "▁domains": 4229,
      "▁styrofoam": 4230,
      "▁crushing": 4231,
      "‘": 4232,
      "▁password": 4233,
      "##ieve": 4234,
      "##eak": 4235,
      "▁ball": 4236,
      "▁helping": 4237,
      "▁mim": 4238,
      "▁filthy": 4239,
      "▁g.": 4240,
      "▁winking": 4241,
      "##oration": 4242,
      "##edge": 4243,
      "##icts": 4244,
      "##se": 4245,
      "##side": 4246,
      "▁amusement": 4247,
      "▁460": 4248,
      "▁continually": 4249,
      "▁744": 4250,
      "▁starbucks": 4251,
      "▁identify": 4252,
      "▁sunglasses": 4253,
      "▁rig": 4254,
      "▁plastic": 4255,
      "▁popular": 4256,
      "▁solemn": 4257,
      "▁practicing": 4258,
      "▁massachusetts": 4259,
      "▁climb": 4260,
      "▁mud": 4261,
      "##alds": 4262,
      "▁dolph": 4263,
      "##ou": 4264,
      "▁'s": 4265,
      "##uations": 4266,
      "▁conversations": 4267,
      "▁trot": 4268,
      "▁possible": 4269,
      "▁naughty": 4270,
      "##iv": 4271,
      "▁teachers": 4272,
      "##48": 4273,
      "▁noticed": 4274,
      "▁sailed": 4275,
      "▁patient": 4276,
      "##aded": 4277,
      "▁2.15": 4278,
      "##usters": 4279,
      "▁sport": 4280,
      "▁supply": 4281,
      "▁tang": 4282,
      "##itters": 4283,
      "##091": 4284,
      "▁arguing": 4285,
      "##light": 4286,
      "▁capacities": 4287,
      "▁norway": 4288,
      "▁properly": 4289,
      "▁restrict": 4290,
      "##amed": 4291,
      "▁uns": 4292,
      "▁stall": 4293,
      "▁falluj": 4294,
      "▁esther": 4295,
      "##lo": 4296,
      "▁powell": 4297,
      "##θ": 4298,
      "▁bond": 4299,
      "▁three": 4300,
      "▁guess": 4301,
      "▁impressive": 4302,
      "ɛ": 4303,
      "▁inevitably": 4304,
      "▁belts": 4305,
      "▁1957": 4306,
      "▁twenty-six": 4307,
      "▁nor": 4308,
      "▁supporter": 4309,
      "▁tug": 4310,
      "▁belt": 4311,
      "▁semi-": 4312,
      "▁limerick": 4313,
      "##ihu": 4314,
      "▁yaz": 4315,
      "▁disp": 4316,
      "▁dec": 4317,
      "▁flat": 4318,
      "▁stomach": 4319,
      "▁violent": 4320,
      "▁changed": 4321,
      "##uled": 4322,
      "▁females": 4323,
      "▁insec": 4324,
      "▁staff": 4325,
      "▁mutual": 4326,
      "▁halloween": 4327,
      "##ez": 4328,
      "▁auntie": 4329,
      "##:40": 4330,
      "▁06": 4331,
      "▁sitting": 4332,
      "##25": 4333,
      "▁catch": 4334,
      "▁thro": 4335,
      "▁metrop": 4336,
      "▁yes": 4337,
      "▁patterns": 4338,
      "▁reconst": 4339,
      "▁|--------+----------------": 4340,
      "▁selection": 4341,
      "▁attain": 4342,
      "▁semantics": 4343,
      "▁tribe": 4344,
      "▁ing": 4345,
      "▁238": 4346,
      "▁incorrect": 4347,
      "▁lab": 4348,
      "▁harrow": 4349,
      "##greg": 4350,
      "##0": 4351,
      "▁rained": 4352,
      "▁lips": 4353,
      "▁iraq": 4354,
      "▁press": 4355,
      "▁besid": 4356,
      "▁out": 4357,
      "▁sorts": 4358,
      "▁lets": 4359,
      "##ony": 4360,
      "▁organizations": 4361,
      "▁observe": 4362,
      "▁types": 4363,
      "▁specim": 4364,
      "▁visas": 4365,
      "▁immigrants": 4366,
      "▁hundreds": 4367,
      "##hy": 4368,
      "▁lay": 4369,
      "▁bowl": 4370,
      "▁ling": 4371,
      "▁outs": 4372,
      "▁doors": 4373,
      "▁accompl": 4374,
      "▁abuse": 4375,
      "▁mixing": 4376,
      "▁broad": 4377,
      "▁infrastructure": 4378,
      "▁pon": 4379,
      "▁questioning": 4380,
      "▁fleet": 4381,
      "##aaaa": 4382,
      "▁supermark": 4383,
      "▁vendors": 4384,
      "##berger": 4385,
      "##atively": 4386,
      "##iday": 4387,
      "▁gulf": 4388,
      "▁iq": 4389,
      "▁astronauts": 4390,
      "▁numer": 4391,
      "▁endangered": 4392,
      "▁holders": 4393,
      "▁bre": 4394,
      "▁gun": 4395,
      "##bles": 4396,
      "▁co-": 4397,
      "▁october": 4398,
      "▁heavy": 4399,
      "▁island": 4400,
      "▁queb": 4401,
      "▁jap": 4402,
      "##parnasse": 4403,
      "▁olive": 4404,
      "▁superb": 4405,
      "▁levels": 4406,
      "##aa": 4407,
      "▁mosqu": 4408,
      "▁tiny": 4409,
      "▁sole": 4410,
      "▁choms": 4411,
      "▁confidence": 4412,
      "▁labrad": 4413,
      "▁patron": 4414,
      "▁maria": 4415,
      "▁stranger": 4416,
      "▁9221": 4417,
      "▁sop": 4418,
      "▁pos": 4419,
      "##_^": 4420,
      "▁historical": 4421,
      "##uted": 4422,
      "▁decree": 4423,
      "▁faster": 4424,
      "▁distribute": 4425,
      "##,": 4426,
      "▁want": 4427,
      "▁lower": 4428,
      "▁hang": 4429,
      "▁rome": 4430,
      "▁myster": 4431,
      "▁altogether": 4432,
      "▁party": 4433,
      "▁defe": 4434,
      "▁highlight": 4435,
      "##tec": 4436,
      "▁i.e.": 4437,
      "▁stored": 4438,
      "▁refugees": 4439,
      "##asp": 4440,
      "▁70.85": 4441,
      "▁snuffy": 4442,
      "▁pools": 4443,
      "▁enough": 4444,
      "▁fujairah": 4445,
      "▁paints": 4446,
      "▁magaz": 4447,
      "▁sm": 4448,
      "▁s’": 4449,
      "▁guacam": 4450,
      "▁published": 4451,
      "##gate": 4452,
      "▁cub": 4453,
      "▁abol": 4454,
      "▁board": 4455,
      "##otamus": 4456,
      "▁vertical": 4457,
      "▁young": 4458,
      "##ef": 4459,
      "▁vest": 4460,
      "▁symptoms": 4461,
      "▁exchanged": 4462,
      "▁personal": 4463,
      "##/15": 4464,
      "▁apply": 4465,
      "▁assassination": 4466,
      "##ower": 4467,
      "▁melt": 4468,
      "▁bosnia": 4469,
      "▁transformative": 4470,
      "▁pione": 4471,
      "▁your": 4472,
      "▁orientation": 4473,
      "▁gre": 4474,
      "▁capture": 4475,
      "▁prototy": 4476,
      "▁elbow": 4477,
      "##/0": 4478,
      "▁alan": 4479,
      "▁simple": 4480,
      "▁critics": 4481,
      "▁sla": 4482,
      "##lets": 4483,
      "##weight": 4484,
      "▁absurd": 4485,
      "▁10/26/2000": 4486,
      "▁arises": 4487,
      "▁mentioned": 4488,
      "▁toes": 4489,
      "##iao": 4490,
      "▁pleased": 4491,
      "▁hilar": 4492,
      "##inary": 4493,
      "▁st.": 4494,
      "▁lee": 4495,
      "▁th-": 4496,
      "▁reserves": 4497,
      "▁ocho": 4498,
      "▁brooms": 4499,
      "##ix": 4500,
      "▁territ": 4501,
      "##oam": 4502,
      "▁carrots": 4503,
      "▁dramatic": 4504,
      "▁staring": 4505,
      "▁notify": 4506,
      "▁hino": 4507,
      "▁topic": 4508,
      "▁529999": 4509,
      "##ension": 4510,
      "▁remote": 4511,
      "▁escaped": 4512,
      "##ahoo": 4513,
      "▁d": 4514,
      "▁a": 4515,
      "▁50,000": 4516,
      "▁suprem": 4517,
      "▁drift": 4518,
      "▁objections": 4519,
      "▁paine": 4520,
      "▁involved": 4521,
      "▁nutrition": 4522,
      "▁devised": 4523,
      "▁rapporteur": 4524,
      "▁cle": 4525,
      "▁manual": 4526,
      "▁appet": 4527,
      "▁earthworms": 4528,
      "▁computing": 4529,
      "▁orchestra": 4530,
      "▁u.s.": 4531,
      "▁chop": 4532,
      "##ioch": 4533,
      "▁lacks": 4534,
      "##adas": 4535,
      "▁amsterdam": 4536,
      "##verage": 4537,
      "▁plants": 4538,
      "▁ratt": 4539,
      "▁huckle": 4540,
      "▁skirt": 4541,
      "##ties": 4542,
      "▁ro": 4543,
      "▁regarding": 4544,
      "▁4.0": 4545,
      "##atted": 4546,
      "▁enormous": 4547,
      "▁vangu": 4548,
      "▁murph": 4549,
      "▁ordered": 4550,
      "▁elite": 4551,
      "▁climbed": 4552,
      "▁barrel": 4553,
      "▁poss": 4554,
      "▁panel": 4555,
      "▁offered": 4556,
      "▁injury": 4557,
      "##zales": 4558,
      "▁wiki": 4559,
      "▁hut": 4560,
      "▁neigh": 4561,
      "▁fried": 4562,
      "▁firing": 4563,
      "▁1605": 4564,
      "▁loads": 4565,
      "▁vine": 4566,
      "##oubtedly": 4567,
      "##zer": 4568,
      "▁ordinary": 4569,
      "▁formica": 4570,
      "▁324": 4571,
      "▁4_28_00.doc": 4572,
      "▁bible": 4573,
      "▁deadbol": 4574,
      "▁formal": 4575,
      "▁decline": 4576,
      "##ii": 4577,
      "▁huck": 4578,
      "▁dependent": 4579,
      "##*": 4580,
      "▁bill": 4581,
      "▁1964": 4582,
      "▁consumer": 4583,
      "▁proceeded": 4584,
      "▁acceptance": 4585,
      "##kes": 4586,
      "▁sta": 4587,
      "▁crying": 4588,
      "▁continuing": 4589,
      "##rovers": 4590,
      "▁capt": 4591,
      "▁potato": 4592,
      "▁incomes": 4593,
      "##ernobyl": 4594,
      "##fill": 4595,
      "▁professors": 4596,
      "##cht": 4597,
      "▁can": 4598,
      "▁interv": 4599,
      "▁clock": 4600,
      "▁passcode": 4601,
      "▁speaker": 4602,
      "##xic": 4603,
      "##athan": 4604,
      "##‘": 4605,
      "▁;": 4606,
      "##ety": 4607,
      "▁dog": 4608,
      "##alvo": 4609,
      "▁eug": 4610,
      "##ifications": 4611,
      "▁examination": 4612,
      "▁law": 4613,
      "▁concer": 4614,
      "▁lists": 4615,
      "▁unif": 4616,
      "▁sore": 4617,
      "▁duel": 4618,
      "▁paradig": 4619,
      "▁wa": 4620,
      "##iately": 4621,
      "▁racial": 4622,
      "▁uss": 4623,
      "▁recognised": 4624,
      "▁retired": 4625,
      "▁da": 4626,
      "##wik": 4627,
      "▁performances": 4628,
      "▁hards": 4629,
      "▁achieve": 4630,
      "▁evenings": 4631,
      "▁log": 4632,
      "▁cindy": 4633,
      "▁manh": 4634,
      "##ooth": 4635,
      "▁wonderful": 4636,
      "▁mass": 4637,
      "▁laptop": 4638,
      "▁sussex": 4639,
      "▁avoiding": 4640,
      "##otts": 4641,
      "▁toaster": 4642,
      "▁last": 4643,
      "▁1623": 4644,
      "##-up": 4645,
      "▁hot": 4646,
      "▁unity": 4647,
      "▁/": 4648,
      "▁scramb": 4649,
      "▁padd": 4650,
      "▁-ect": 4651,
      "z": 4652,
      "▁colin": 4653,
      "▁legitim": 4654,
      "▁fitness": 4655,
      "▁slope": 4656,
      "▁memphis": 4657,
      "##chart": 4658,
      "▁quantity": 4659,
      "▁814.863": 4660,
      "▁tolerate": 4661,
      "▁pleas": 4662,
      "##osoph": 4663,
      "▁compound": 4664,
      "▁nazi": 4665,
      "▁eich": 4666,
      "##arm": 4667,
      "##pri": 4668,
      "▁abbas": 4669,
      "##ns": 4670,
      "▁mask": 4671,
      "##ington": 4672,
      "▁follows": 4673,
      "▁comput": 4674,
      "▁feather": 4675,
      "▁struggling": 4676,
      "▁713": 4677,
      "▁judiciary": 4678,
      "▁magical": 4679,
      "▁some": 4680,
      "▁communications": 4681,
      "▁naim": 4682,
      "##asible": 4683,
      "##:46": 4684,
      "▁overchar": 4685,
      "▁featured": 4686,
      "▁ear": 4687,
      "▁blackline": 4688,
      "▁stan": 4689,
      "▁jumping": 4690,
      "▁grampy": 4691,
      "▁replace": 4692,
      "##onomy": 4693,
      "##irical": 4694,
      "▁rumsfeld": 4695,
      "▁get": 4696,
      "▁thread": 4697,
      "▁route": 4698,
      "##esc": 4699,
      "▁stolen": 4700,
      "▁table": 4701,
      "▁yn": 4702,
      "▁tenth": 4703,
      "▁2.6": 4704,
      "▁essential": 4705,
      "##ody": 4706,
      "▁familiar": 4707,
      "▁68": 4708,
      "▁proved": 4709,
      "▁swap": 4710,
      "##mes": 4711,
      "▁burbank": 4712,
      "▁85": 4713,
      "▁slightly": 4714,
      "▁reliable": 4715,
      "##arr": 4716,
      "▁185": 4717,
      "▁reasonably": 4718,
      "▁pic": 4719,
      "▁cou": 4720,
      "▁run": 4721,
      "▁inhab": 4722,
      "▁pierre": 4723,
      "▁bar": 4724,
      "##bucks": 4725,
      "▁protocol": 4726,
      "▁noir": 4727,
      "##erina": 4728,
      "▁sticky": 4729,
      "##mar": 4730,
      "▁chomsky": 4731,
      "▁fraud": 4732,
      "##tha": 4733,
      "▁symbols": 4734,
      "▁around": 4735,
      "▁donated": 4736,
      "▁brief": 4737,
      "▁classes": 4738,
      "▁neoclass": 4739,
      "▁connections": 4740,
      "▁particular": 4741,
      "##ant": 4742,
      "▁against": 4743,
      "▁dism": 4744,
      "▁atmospheric": 4745,
      "▁25": 4746,
      "▁de": 4747,
      "▁hast": 4748,
      "▁tar": 4749,
      "##stem": 4750,
      "▁data": 4751,
      "▁regional": 4752,
      "▁sp": 4753,
      "▁ambulance": 4754,
      "▁gosh": 4755,
      "▁kil": 4756,
      "▁guinea": 4757,
      "▁tele": 4758,
      "▁dismissed": 4759,
      "▁incorporate": 4760,
      "▁upd": 4761,
      "▁bedroom": 4762,
      "##ech": 4763,
      "##siana": 4764,
      "▁flau": 4765,
      "▁households": 4766,
      "▁everybody": 4767,
      "▁a1": 4768,
      "##idable": 4769,
      "▁altern": 4770,
      "▁patients": 4771,
      "##adays": 4772,
      "▁idea": 4773,
      "▁cer": 4774,
      "▁suff": 4775,
      "▁infer": 4776,
      "▁104": 4777,
      "▁bugs": 4778,
      "▁cham": 4779,
      "##ology": 4780,
      "▁shift": 4781,
      "##ale": 4782,
      "##boo": 4783,
      "▁leop": 4784,
      "▁licking": 4785,
      "▁icing": 4786,
      "▁futures": 4787,
      "##gu": 4788,
      "▁thane": 4789,
      "▁caribbean": 4790,
      "▁experienced": 4791,
      "##card": 4792,
      "▁wong": 4793,
      "▁08/17/2000": 4794,
      "▁essie": 4795,
      "▁civilization": 4796,
      "▁representative": 4797,
      "▁oops": 4798,
      "▁aka": 4799,
      "▁agre": 4800,
      "▁vehicles": 4801,
      "##-l": 4802,
      "▁indeed": 4803,
      "##icles": 4804,
      "##-01": 4805,
      "▁sue": 4806,
      "▁trusted": 4807,
      "▁prel": 4808,
      "▁countries": 4809,
      "▁marriage": 4810,
      "▁unusual": 4811,
      "▁rect": 4812,
      "▁engineer": 4813,
      "▁sorry": 4814,
      "##ething": 4815,
      "▁wilder": 4816,
      "▁prohibited": 4817,
      "▁relations": 4818,
      "▁°": 4819,
      "▁york": 4820,
      "▁record": 4821,
      "▁'m": 4822,
      "##keys": 4823,
      "▁allegations": 4824,
      "▁1835": 4825,
      "▁presumably": 4826,
      "▁fit": 4827,
      "▁sox": 4828,
      "▁deg": 4829,
      "▁lbs": 4830,
      "[SEP]": 4831,
      "▁jam": 4832,
      "▁millisandy": 4833,
      "▁---=": 4834,
      "▁oppos": 4835,
      "##ensus": 4836,
      "▁strategy": 4837,
      "▁unlikely": 4838,
      "▁tone": 4839,
      "##em": 4840,
      "##inned": 4841,
      "▁where": 4842,
      "▁lockhart": 4843,
      "▁sd": 4844,
      "##bol": 4845,
      "▁conqu": 4846,
      "▁gail": 4847,
      "▁admir": 4848,
      "▁sar": 4849,
      "##ignation": 4850,
      "▁shooting": 4851,
      "▁deriv": 4852,
      "▁ner": 4853,
      "▁exhibit": 4854,
      "▁transport": 4855,
      "▁rocket": 4856,
      "##ords": 4857,
      "▁tur": 4858,
      "##chant": 4859,
      "▁nandaro": 4860,
      "▁leadership": 4861,
      "##iana": 4862,
      "##rib": 4863,
      "▁benefited": 4864,
      "▁11:0": 4865,
      "##son": 4866,
      "▁bernoulli": 4867,
      "▁cutting": 4868,
      "▁satan": 4869,
      "##riv": 4870,
      "▁anymore": 4871,
      "▁democrat": 4872,
      "##entary": 4873,
      "▁dresser": 4874,
      "▁cosplay": 4875,
      "##arter": 4876,
      "▁manusc": 4877,
      "▁manner": 4878,
      "▁coins": 4879,
      "▁si": 4880,
      "##atory": 4881,
      "▁were": 4882,
      "▁prim": 4883,
      "##laimed": 4884,
      "##υ": 4885,
      "▁shia": 4886,
      "##uch": 4887,
      "▁warwick": 4888,
      "▁microw": 4889,
      "▁tul": 4890,
      "▁exam": 4891,
      "##-like": 4892,
      "▁albeit": 4893,
      "##aint": 4894,
      "##ify": 4895,
      "▁02/13/2001": 4896,
      "▁rating": 4897,
      "##ee": 4898,
      "##unic": 4899,
      "##c": 4900,
      "▁grants": 4901,
      "##ren": 4902,
      "▁chill": 4903,
      "##grin": 4904,
      "▁hide": 4905,
      "▁dirt": 4906,
      "▁juice": 4907,
      "▁az": 4908,
      "##ansen": 4909,
      "▁committed": 4910,
      "▁ie6": 4911,
      "▁12:1": 4912,
      "##river": 4913,
      "▁provided": 4914,
      "##mike": 4915,
      "▁vc": 4916,
      "▁1991": 4917,
      "▁advant": 4918,
      "▁stre": 4919,
      "▁everyone": 4920,
      "▁sew": 4921,
      "▁sunlight": 4922,
      "▁floren": 4923,
      "▁occurs": 4924,
      "▁roy": 4925,
      "▁offended": 4926,
      "##ently": 4927,
      "▁il": 4928,
      "##if": 4929,
      "▁streets": 4930,
      "▁auth": 4931,
      "▁snap": 4932,
      "▁upload": 4933,
      "▁airplanes": 4934,
      "##ercial": 4935,
      "▁aspects": 4936,
      "▁covering": 4937,
      "##anie": 4938,
      "▁las": 4939,
      "▁essex": 4940,
      "##ales": 4941,
      "▁autonomy": 4942,
      "▁possibilities": 4943,
      "##bean": 4944,
      "▁paniot": 4945,
      "▁equipment": 4946,
      "▁pennies": 4947,
      "▁machine": 4948,
      "▁springs": 4949,
      "▁misc": 4950,
      "▁goodness": 4951,
      "▁invasion": 4952,
      "▁disgust": 4953,
      "▁opened": 4954,
      "▁medieval": 4955,
      "▁07/14/2000": 4956,
      "##499": 4957,
      "▁then": 4958,
      "▁nav": 4959,
      "▁ownership": 4960,
      "▁langu": 4961,
      "##bling": 4962,
      "▁thais": 4963,
      "▁congr": 4964,
      "##r": 4965,
      "▁keep": 4966,
      "▁vs.": 4967,
      "▁moist": 4968,
      "▁roly": 4969,
      "▁developments": 4970,
      "▁musical": 4971,
      "▁or": 4972,
      "▁coron": 4973,
      "##oyd": 4974,
      "▁successor": 4975,
      "##resp": 4976,
      "▁sending": 4977,
      "##================": 4978,
      "▁mut": 4979,
      "▁assem": 4980,
      "▁!!!!!!": 4981,
      "▁drives": 4982,
      "▁profile": 4983,
      "▁idle": 4984,
      "▁expense": 4985,
      "▁end": 4986,
      "##ference": 4987,
      "##eurial": 4988,
      "##4014": 4989,
      "▁advised": 4990,
      "▁deal": 4991,
      "▁experim": 4992,
      "▁quartile": 4993,
      "—": 4994,
      "##boro": 4995,
      "ف": 4996,
      "▁creative": 4997,
      "▁pyth": 4998,
      "▁datab": 4999,
      "▁1600": 5000,
      "##ying": 5001,
      "▁mou": 5002,
      "▁tralee": 5003,
      "▁twelfth": 5004,
      "▁lope": 5005,
      "##ba": 5006,
      "▁revision": 5007,
      "▁detective": 5008,
      "▁rings": 5009,
      "▁jerk": 5010,
      "▁jerry": 5011,
      "▁albert": 5012,
      "▁mart": 5013,
      "▁dates": 5014,
      "▁lust": 5015,
      "▁bullet": 5016,
      "▁unnecess": 5017,
      "▁nord": 5018,
      "▁play": 5019,
      "▁friends": 5020,
      "▁prompt": 5021,
      "▁11:36": 5022,
      "▁chosen": 5023,
      "▁position": 5024,
      "▁unfortunately": 5025,
      "▁noisy": 5026,
      "##h-": 5027,
      "▁stole": 5028,
      "▁ver": 5029,
      "▁hodge": 5030,
      "##si": 5031,
      "##ovo": 5032,
      "▁holes": 5033,
      "▁claims": 5034,
      "▁restaur": 5035,
      "▁founder": 5036,
      "▁causes": 5037,
      "▁chased": 5038,
      "▁adventure": 5039,
      "▁transition": 5040,
      "▁und": 5041,
      "▁pause": 5042,
      "▁japan": 5043,
      "##vals": 5044,
      "▁tragedy": 5045,
      "##54-": 5046,
      "▁benef": 5047,
      "▁111": 5048,
      "▁voice": 5049,
      "▁solid": 5050,
      "▁kicked": 5051,
      "▁tx": 5052,
      "▁smoke": 5053,
      "▁walter": 5054,
      "▁sou": 5055,
      "▁well": 5056,
      "##oo": 5057,
      "##ilty": 5058,
      "▁reminder": 5059,
      "▁attendees": 5060,
      "▁embarrassment": 5061,
      "##store": 5062,
      "▁predators": 5063,
      "▁zawah": 5064,
      "▁measures": 5065,
      "▁overfl": 5066,
      "▁penal": 5067,
      "##aq": 5068,
      "▁1115": 5069,
      "▁racing": 5070,
      "▁n'": 5071,
      "▁labour": 5072,
      "##[": 5073,
      "▁hermione": 5074,
      "▁fireman": 5075,
      "▁se": 5076,
      "▁11-20-": 5077,
      "▁awoh": 5078,
      "▁repet": 5079,
      "▁trem": 5080,
      "##odes": 5081,
      "▁carroll": 5082,
      "▁450": 5083,
      "▁gregg": 5084,
      "▁38,000": 5085,
      "##istry": 5086,
      "▁services": 5087,
      "##van": 5088,
      "▁eats": 5089,
      "##.org/": 5090,
      "▁kept": 5091,
      "▁erase": 5092,
      "##unition": 5093,
      "▁ruler": 5094,
      "##ihood": 5095,
      "▁privet": 5096,
      "▁skittles": 5097,
      "▁recommendations": 5098,
      "▁seed": 5099,
      "▁myanmar": 5100,
      "▁dipl": 5101,
      "##pike": 5102,
      "##izing": 5103,
      "▁lem": 5104,
      "▁glob": 5105,
      "▁apartment": 5106,
      "▁yoyo": 5107,
      "▁pleasant": 5108,
      "▁htt": 5109,
      "▁learn": 5110,
      "▁helps": 5111,
      "##eping": 5112,
      "▁facilit": 5113,
      "▁involvement": 5114,
      "▁mor": 5115,
      "▁jelly": 5116,
      "▁assume": 5117,
      "##iev": 5118,
      "▁fdi": 5119,
      "▁gorbach": 5120,
      "▁enj": 5121,
      "▁printed": 5122,
      "▁obama": 5123,
      "▁urged": 5124,
      "##.p": 5125,
      "▁napkin": 5126,
      "##big": 5127,
      "##entions": 5128,
      "▁alphabet": 5129,
      "▁filing": 5130,
      "▁zurbaran": 5131,
      "ص": 5132,
      "▁timer": 5133,
      "▁papa": 5134,
      "▁horm": 5135,
      "##abor": 5136,
      "▁grew": 5137,
      "##2-6": 5138,
      "▁testament": 5139,
      "▁plural": 5140,
      "▁nurse": 5141,
      "▁sinh": 5142,
      "▁bold": 5143,
      "##erto": 5144,
      "▁virtuous": 5145,
      "##var": 5146,
      "▁submit": 5147,
      "##ool": 5148,
      "▁notebook": 5149,
      "##olit": 5150,
      "▁stay": 5151,
      "##iver": 5152,
      "▁death": 5153,
      "▁arri": 5154,
      "▁deny": 5155,
      "▁titles": 5156,
      "##outh": 5157,
      "▁greens": 5158,
      "▁pay": 5159,
      "▁news": 5160,
      "▁thus": 5161,
      "▁oneself": 5162,
      "▁designs": 5163,
      "▁1598": 5164,
      "▁complim": 5165,
      "▁awful": 5166,
      "▁eec": 5167,
      "▁mitch": 5168,
      "▁drank": 5169,
      "▁civilians": 5170,
      "▁corp.": 5171,
      "▁143": 5172,
      "▁1986": 5173,
      "▁direction": 5174,
      "▁marvel": 5175,
      "▁20": 5176,
      "▁suggestion": 5177,
      "▁catastroph": 5178,
      "▁budget": 5179,
      "##lec": 5180,
      "##940": 5181,
      "▁notion": 5182,
      "##pg": 5183,
      "▁ar": 5184,
      "▁bat": 5185,
      "▁obligations": 5186,
      "▁dry": 5187,
      "▁make": 5188,
      "▁wee": 5189,
      "##sylv": 5190,
      "▁couples": 5191,
      "▁freed": 5192,
      "##iment": 5193,
      "▁diving": 5194,
      "▁pancakes": 5195,
      "▁plus": 5196,
      "▁all": 5197,
      "##eter": 5198,
      "##85": 5199,
      "##bled": 5200,
      "▁depending": 5201,
      "▁eh": 5202,
      "▁determination": 5203,
      "▁keen": 5204,
      "▁christoph": 5205,
      "▁prag": 5206,
      "##/he": 5207,
      "##ached": 5208,
      "##kana": 5209,
      "▁banana": 5210,
      "▁hopeless": 5211,
      "▁circles": 5212,
      "▁repetition": 5213,
      "▁hussein": 5214,
      "▁apologize": 5215,
      "▁comp": 5216,
      "▁bri": 5217,
      "▁signific": 5218,
      "▁1971": 5219,
      "▁pow": 5220,
      "▁lwww": 5221,
      "##.16": 5222,
      "##al.doc": 5223,
      "##819602175": 5224,
      "##ilities": 5225,
      "##oulders": 5226,
      "▁piec": 5227,
      "▁unknown": 5228,
      "▁stores": 5229,
      "▁115": 5230,
      "▁phones": 5231,
      "▁ena": 5232,
      "▁type": 5233,
      "▁affected": 5234,
      "▁enact": 5235,
      "▁trale": 5236,
      "▁wrink": 5237,
      "▁proph": 5238,
      "▁again": 5239,
      "▁represents": 5240,
      "▁whale": 5241,
      "▁646-8420": 5242,
      "▁relationships": 5243,
      "▁refugee": 5244,
      "▁1039": 5245,
      "▁adn": 5246,
      "▁130": 5247,
      "▁implemented": 5248,
      "▁646": 5249,
      "▁03/21/2001": 5250,
      "##redes": 5251,
      "▁laser": 5252,
      "▁organize": 5253,
      "▁appear": 5254,
      "▁1,000": 5255,
      "##osal": 5256,
      "▁datasheet": 5257,
      "▁dealt": 5258,
      "▁aboard": 5259,
      "▁milky": 5260,
      "▁automatic": 5261,
      "▁doctrine": 5262,
      "▁damned": 5263,
      "▁grapes": 5264,
      "▁podcast": 5265,
      "▁sust": 5266,
      "▁posture": 5267,
      "##:56": 5268,
      "▁primarily": 5269,
      "▁anything": 5270,
      "▁burnt": 5271,
      "▁kin": 5272,
      "▁diary": 5273,
      "▁federal": 5274,
      "▁heel": 5275,
      "▁joe": 5276,
      "▁eval": 5277,
      "##les": 5278,
      "▁harbour": 5279,
      "▁ie": 5280,
      "▁1850": 5281,
      "▁sank": 5282,
      "##ance": 5283,
      "▁conducted": 5284,
      "##asser": 5285,
      "##rict": 5286,
      "▁neo": 5287,
      "##uring": 5288,
      "##av": 5289,
      "▁telev": 5290,
      "##-d": 5291,
      "▁eligible": 5292,
      "▁rom": 5293,
      "▁718-780": 5294,
      "▁gathering": 5295,
      "▁victor": 5296,
      "▁nutritional": 5297,
      "▁shakes": 5298,
      "▁privile": 5299,
      "▁official": 5300,
      "▁joined": 5301,
      "▁coun": 5302,
      "▁that": 5303,
      "▁palace": 5304,
      "##37": 5305,
      "▁brig": 5306,
      "▁sandwiches": 5307,
      "▁beginning": 5308,
      "▁actor": 5309,
      "▁subject": 5310,
      "▁abbreviation": 5311,
      "▁tabled": 5312,
      "▁lucy": 5313,
      "▁wolf": 5314,
      "▁director": 5315,
      "▁socially": 5316,
      "##star": 5317,
      "▁robot": 5318,
      "▁hack": 5319,
      "▁left": 5320,
      "##mines": 5321,
      "##s/": 5322,
      "▁thank": 5323,
      "##inded": 5324,
      "##.6": 5325,
      "▁stripes": 5326,
      "##/200": 5327,
      "▁tra": 5328,
      "▁crossing": 5329,
      "▁settled": 5330,
      "▁spell": 5331,
      "▁199": 5332,
      "##rell": 5333,
      "▁401": 5334,
      "▁compress": 5335,
      "##ila": 5336,
      "▁whether": 5337,
      "▁rural": 5338,
      "▁higuchi": 5339,
      "▁mohammed": 5340,
      "▁brook": 5341,
      "▁1998": 5342,
      "##lace": 5343,
      "▁documentation": 5344,
      "▁bapt": 5345,
      "▁thron": 5346,
      "▁management": 5347,
      "▁mezza": 5348,
      "▁norm": 5349,
      "▁taxes": 5350,
      "▁sel": 5351,
      "▁bombings": 5352,
      "▁sunk": 5353,
      "##six": 5354,
      "▁glass": 5355,
      "▁12": 5356,
      "▁describe": 5357,
      "▁centre": 5358,
      "▁desper": 5359,
      "##40": 5360,
      "▁chocol": 5361,
      "▁sweetie": 5362,
      "##|": 5363,
      "##cle": 5364,
      "##ame": 5365,
      "▁persu": 5366,
      "▁participating": 5367,
      "▁wtc": 5368,
      "##en": 5369,
      "▁cod": 5370,
      "▁sample": 5371,
      "##nov": 5372,
      "▁elk": 5373,
      "▁crossed": 5374,
      "▁gallery": 5375,
      "▁gala": 5376,
      "▁vegas": 5377,
      "▁push": 5378,
      "▁low": 5379,
      "▁porch": 5380,
      "▁negative": 5381,
      "##mart": 5382,
      "▁awkward": 5383,
      "##oting": 5384,
      "▁fare": 5385,
      "▁peanuts": 5386,
      "▁march": 5387,
      "μ": 5388,
      "▁transferred": 5389,
      "▁ta": 5390,
      "##etics": 5391,
      "▁spor": 5392,
      "##ght": 5393,
      "▁employ": 5394,
      "▁literary": 5395,
      "##man": 5396,
      "▁six": 5397,
      "▁investig": 5398,
      "▁unim": 5399,
      "▁along": 5400,
      "▁restriction": 5401,
      "▁website": 5402,
      "▁retrosp": 5403,
      "▁shelf": 5404,
      "▁150": 5405,
      "▁provoked": 5406,
      "▁crack": 5407,
      "▁plaster": 5408,
      "▁intensive": 5409,
      "▁britney": 5410,
      "##use": 5411,
      "▁approached": 5412,
      "##nesday": 5413,
      "##ger": 5414,
      "▁sinc": 5415,
      "▁grades": 5416,
      "▁tended": 5417,
      "▁e-m": 5418,
      "▁index": 5419,
      "▁soccer": 5420,
      "▁jug": 5421,
      "##460-33": 5422,
      "▁labor": 5423,
      "▁gor": 5424,
      "▁poles": 5425,
      "▁pumpkin": 5426,
      "▁sustained": 5427,
      "▁spect": 5428,
      "▁residential": 5429,
      "▁defended": 5430,
      "▁1959": 5431,
      "▁garbage": 5432,
      "▁displaced": 5433,
      "##science": 5434,
      "▁include": 5435,
      "##9.3": 5436,
      "▁7": 5437,
      "##rof": 5438,
      "▁breakthrough": 5439,
      "▁military": 5440,
      "▁grass": 5441,
      "##ind": 5442,
      "▁hajj": 5443,
      "▁carnival": 5444,
      "##nament": 5445,
      "▁answers": 5446,
      "▁lap": 5447,
      "##________________________________": 5448,
      "▁cancel": 5449,
      "##page": 5450,
      "▁civ": 5451,
      "##conn": 5452,
      "##encing": 5453,
      "▁cries": 5454,
      "▁addicted": 5455,
      "##acon": 5456,
      "▁tempt": 5457,
      "▁evolution": 5458,
      "▁asy": 5459,
      "▁pretend": 5460,
      "▁dark": 5461,
      "##e@enron": 5462,
      "▁initiated": 5463,
      "▁mexican": 5464,
      "▁pledged": 5465,
      "▁voc": 5466,
      "1": 5467,
      "▁austral": 5468,
      "▁null": 5469,
      "##amped": 5470,
      "▁haircut": 5471,
      "▁appointed": 5472,
      "▁syri": 5473,
      "▁deb": 5474,
      "▁ensures": 5475,
      "▁thomas": 5476,
      "▁connect": 5477,
      "##inging": 5478,
      "##uated": 5479,
      "▁diff": 5480,
      "▁claim": 5481,
      "▁fourth": 5482,
      "▁expect": 5483,
      "▁sharp": 5484,
      "▁posada": 5485,
      "▁watering": 5486,
      "▁mont": 5487,
      "▁12.": 5488,
      "##********************************": 5489,
      "▁hosting": 5490,
      "▁chathams": 5491,
      "▁hus": 5492,
      "▁standards": 5493,
      "▁03:3": 5494,
      "▁dil": 5495,
      "▁mood": 5496,
      "▁eleventh": 5497,
      "▁predicted": 5498,
      "▁dun": 5499,
      "##umph": 5500,
      "##mon": 5501,
      "▁meh-": 5502,
      "##ault": 5503,
      "▁thirty": 5504,
      "▁09/16": 5505,
      "##-th": 5506,
      "▁features": 5507,
      "▁courses": 5508,
      "▁distributing": 5509,
      "▁iraqi": 5510,
      "▁,?": 5511,
      "▁deck": 5512,
      "▁seems": 5513,
      "▁dursleys": 5514,
      "ł": 5515,
      "##.go": 5516,
      "▁public": 5517,
      "▁update": 5518,
      "▁decre": 5519,
      "▁incorporated": 5520,
      "##gar": 5521,
      "▁capability": 5522,
      "▁robots": 5523,
      "▁stronger": 5524,
      "▁quest": 5525,
      "▁non": 5526,
      "▁vac": 5527,
      "##birds": 5528,
      "##aq.com": 5529,
      "▁solas": 5530,
      "##roid": 5531,
      "##leen": 5532,
      "##pe": 5533,
      "▁backwards": 5534,
      "##.asp": 5535,
      "▁'71": 5536,
      "▁names": 5537,
      "##ogether": 5538,
      "▁fake": 5539,
      "▁goes": 5540,
      "▁stab": 5541,
      "▁spons": 5542,
      "▁goo": 5543,
      "##-looking": 5544,
      "▁acceptable": 5545,
      "▁buildings": 5546,
      "▁production": 5547,
      "▁correctly": 5548,
      "▁5.8": 5549,
      "▁folio": 5550,
      "##umbling": 5551,
      "▁volume": 5552,
      "▁adam": 5553,
      "▁manufactured": 5554,
      "▁benefits": 5555,
      "▁constit": 5556,
      "▁marie": 5557,
      "▁muslim": 5558,
      "▁greetings": 5559,
      "▁humanities": 5560,
      "▁real": 5561,
      "▁compensate": 5562,
      "▁weap": 5563,
      "▁ee": 5564,
      "##ize": 5565,
      "▁mco": 5566,
      "▁timothy": 5567,
      "▁iron": 5568,
      "▁camera": 5569,
      "▁transmission": 5570,
      "▁celebrating": 5571,
      "▁katrina": 5572,
      "##aurs": 5573,
      "▁04/30/2001": 5574,
      "▁regist": 5575,
      "##ills": 5576,
      "▁samuel": 5577,
      "##vd": 5578,
      "▁4:30": 5579,
      "▁reflection": 5580,
      "▁evidently": 5581,
      "##10": 5582,
      "##ipple": 5583,
      "▁groan": 5584,
      "▁childhood": 5585,
      "▁spots": 5586,
      "▁satisfactory": 5587,
      "##oral": 5588,
      "▁batt": 5589,
      "▁divided": 5590,
      "▁taj": 5591,
      "▁optim": 5592,
      "▁spring": 5593,
      "▁berkeley": 5594,
      "▁afghanistan": 5595,
      "##.1234": 5596,
      "##ampa": 5597,
      "##ways": 5598,
      "▁fat": 5599,
      "##arency": 5600,
      "##wi": 5601,
      "▁vog": 5602,
      "▁desire": 5603,
      "▁column": 5604,
      "▁includ": 5605,
      "▁ind": 5606,
      "##clud": 5607,
      "▁affl": 5608,
      "▁lt": 5609,
      "▁clause": 5610,
      "▁remainder": 5611,
      "##aire": 5612,
      "▁hire": 5613,
      "▁reforms": 5614,
      "##ella": 5615,
      "▁loyal": 5616,
      "▁loan": 5617,
      "▁0": 5618,
      "▁compet": 5619,
      "▁os": 5620,
      "▁1616": 5621,
      "▁consent": 5622,
      "##olf": 5623,
      "▁annex": 5624,
      "##act": 5625,
      "▁freedom": 5626,
      "▁collections": 5627,
      "▁1179": 5628,
      "▁prohib": 5629,
      "▁elements": 5630,
      "##§": 5631,
      "▁v.": 5632,
      "▁forms": 5633,
      "##eau": 5634,
      "▁sincerely": 5635,
      "##bank": 5636,
      "▁convenience": 5637,
      "##agon": 5638,
      "▁flexible": 5639,
      "▁follow": 5640,
      "▁p.m": 5641,
      "▁doggie": 5642,
      "▁looks": 5643,
      "▁distortion": 5644,
      "▁poses": 5645,
      "▁but": 5646,
      "▁brass": 5647,
      "▁xiii": 5648,
      "▁hats": 5649,
      "▁whoever": 5650,
      "▁municipalities": 5651,
      "##bir": 5652,
      "##葉": 5653,
      "##tto": 5654,
      "▁subsid": 5655,
      "##emade": 5656,
      "▁paralymp": 5657,
      "▁sect": 5658,
      "▁subur": 5659,
      "▁disappointment": 5660,
      "▁less": 5661,
      "▁attracted": 5662,
      "##upunct": 5663,
      "▁hugo": 5664,
      "▁1691": 5665,
      "##-27": 5666,
      "▁stared": 5667,
      "▁interviews": 5668,
      "▁immunity": 5669,
      "▁existing": 5670,
      "▁difficulties": 5671,
      "▁safety": 5672,
      "▁licenses": 5673,
      "▁blond": 5674,
      "▁joke": 5675,
      "æ": 5676,
      "##five": 5677,
      "▁thursdays": 5678,
      "▁baath": 5679,
      "##apt": 5680,
      "▁nevertheless": 5681,
      "▁cz": 5682,
      "▁animation": 5683,
      "▁hitting": 5684,
      "▁boing": 5685,
      "▁dest": 5686,
      "▁formats": 5687,
      "▁esp": 5688,
      "口": 5689,
      "▁religions": 5690,
      "▁libriv": 5691,
      "▁gras": 5692,
      "▁quant": 5693,
      "##lied": 5694,
      "▁departs": 5695,
      "▁broadcasting": 5696,
      "▁fro": 5697,
      "▁okay": 5698,
      "▁depend": 5699,
      "▁necess": 5700,
      "##igator": 5701,
      "▁dri": 5702,
      "▁clothes": 5703,
      "▁difficult": 5704,
      "▁full": 5705,
      "##veland": 5706,
      "▁proc": 5707,
      "▁knocked": 5708,
      "▁refusing": 5709,
      "▁messy": 5710,
      "▁times": 5711,
      "▁bachel": 5712,
      "▁sing": 5713,
      "▁du": 5714,
      "▁fashion": 5715,
      "▁transmedia": 5716,
      "▁guided": 5717,
      "▁tournament": 5718,
      "▁ang": 5719,
      "▁chair": 5720,
      "▁bunch": 5721,
      "##umble": 5722,
      "▁giov": 5723,
      "▁steph": 5724,
      "▁happening": 5725,
      "▁martin": 5726,
      "##.3": 5727,
      "▁dodge": 5728,
      "▁appreciated": 5729,
      "▁weasleys": 5730,
      "##/26/2001": 5731,
      "##/2": 5732,
      "▁ohio": 5733,
      "▁community": 5734,
      "▁obviously": 5735,
      "##ape": 5736,
      "##)": 5737,
      "▁computer": 5738,
      "▁:(": 5739,
      "▁cleric": 5740,
      "##ho": 5741,
      "▁guidance": 5742,
      "▁’’": 5743,
      "▁sat": 5744,
      "▁somehow": 5745,
      "##xim": 5746,
      "▁opportun": 5747,
      "▁harmonisation": 5748,
      "▁thresh": 5749,
      "▁rub": 5750,
      "▁vary": 5751,
      "##ih": 5752,
      "▁item": 5753,
      "▁gloria": 5754,
      "##alo": 5755,
      "▁love": 5756,
      "##break": 5757,
      "▁w3c": 5758,
      "▁dall": 5759,
      "▁escaping": 5760,
      "▁suddenly": 5761,
      "▁modification": 5762,
      "▁auch": 5763,
      "▁month": 5764,
      "▁limb": 5765,
      "▁ultimately": 5766,
      "▁do": 5767,
      "▁valuable": 5768,
      "▁respect": 5769,
      "▁studies": 5770,
      "▁camps": 5771,
      "▁supporting": 5772,
      "▁focuses": 5773,
      "##”": 5774,
      "▁amendment": 5775,
      "▁canc": 5776,
      "▁wind": 5777,
      "▁myself": 5778,
      "▁alabama": 5779,
      "▁forgotten": 5780,
      "▁4.": 5781,
      "▁aimed": 5782,
      "▁jonathan": 5783,
      "▁sensing": 5784,
      "▁unconscious": 5785,
      "▁bee": 5786,
      "▁hano": 5787,
      "▁deed": 5788,
      "▁earning": 5789,
      "##rie": 5790,
      "▁react": 5791,
      "##bun": 5792,
      "▁maris": 5793,
      "▁financing": 5794,
      "▁leaving": 5795,
      "##ummy": 5796,
      "▁schroedter": 5797,
      "##entive": 5798,
      "▁came": 5799,
      "##acent": 5800,
      "▁ed": 5801,
      "▁gloves": 5802,
      "▁warn": 5803,
      "▁additionally": 5804,
      "▁c": 5805,
      "▁christians": 5806,
      "▁deaths": 5807,
      "▁campaigns": 5808,
      "▁oper": 5809,
      "▁begun": 5810,
      "▁pasta": 5811,
      "▁wol": 5812,
      "▁naming": 5813,
      "▁recognize": 5814,
      "▁sl": 5815,
      "##oes": 5816,
      "▁closest": 5817,
      "▁postural": 5818,
      "▁editions": 5819,
      "▁hearings": 5820,
      "▁93": 5821,
      "##oir": 5822,
      "▁scholars": 5823,
      "▁syrian": 5824,
      "▁cowboy": 5825,
      "▁roberts": 5826,
      "▁convince": 5827,
      "▁kuwait": 5828,
      "##vel": 5829,
      "▁bone": 5830,
      "##orous": 5831,
      "##essions": 5832,
      "▁confirmed": 5833,
      "▁commentary": 5834,
      "##iers": 5835,
      "▁horizon": 5836,
      "▁cases": 5837,
      "▁convenient": 5838,
      "▁travelling": 5839,
      "▁60": 5840,
      "▁surprisingly": 5841,
      "▁306": 5842,
      "▁tant": 5843,
      "▁compl": 5844,
      "##oted": 5845,
      "▁thanksg": 5846,
      "▁1929": 5847,
      "▁banner": 5848,
      "##able": 5849,
      "▁applied": 5850,
      "##gia": 5851,
      "▁01:09": 5852,
      "▁patrick": 5853,
      "▁nandakke": 5854,
      "▁conservation": 5855,
      "##anim": 5856,
      "▁sealed": 5857,
      "▁eighteenth": 5858,
      "▁julien": 5859,
      "▁upon": 5860,
      "▁numb": 5861,
      "▁confidential": 5862,
      "##78": 5863,
      "##ung": 5864,
      "##risk": 5865,
      "▁johann": 5866,
      "##igr": 5867,
      "##ploy": 5868,
      "▁cow": 5869,
      "▁03/28/2001": 5870,
      "##odox": 5871,
      "▁airbnb": 5872,
      "▁solved": 5873,
      "##apolis": 5874,
      "▁169": 5875,
      "▁sunni": 5876,
      "▁4:50": 5877,
      "##itation": 5878,
      "▁quixote": 5879,
      "▁sitara": 5880,
      "▁un": 5881,
      "▁self": 5882,
      "▁met": 5883,
      "▁point": 5884,
      "▁complicated": 5885,
      "##ims": 5886,
      "##irect": 5887,
      "▁radio": 5888,
      "##100": 5889,
      "##edie": 5890,
      "##elled": 5891,
      "##cast": 5892,
      "▁urine": 5893,
      "##300": 5894,
      "##ky": 5895,
      "▁fast": 5896,
      "##iance": 5897,
      "##iasm": 5898,
      "##do": 5899,
      "▁uncle": 5900,
      "¢": 5901,
      "##ica": 5902,
      "▁stuck": 5903,
      "▁expand": 5904,
      "▁prepare": 5905,
      "##wiki": 5906,
      "▁coin": 5907,
      "▁ruins": 5908,
      "▁basket": 5909,
      "▁flowed": 5910,
      "▁compliments": 5911,
      "▁rev": 5912,
      "▁lift": 5913,
      "##arts": 5914,
      "##rors": 5915,
      "▁sources": 5916,
      "##况": 5917,
      "▁acknowledged": 5918,
      "▁later": 5919,
      "▁dealing": 5920,
      "##urity": 5921,
      "▁reass": 5922,
      "▁organization": 5923,
      "和": 5924,
      "▁codes": 5925,
      "▁audiences": 5926,
      "##attering": 5927,
      "▁filtered": 5928,
      "##cohol": 5929,
      "▁schools": 5930,
      "▁episode": 5931,
      "▁nix": 5932,
      "▁dire": 5933,
      "▁dread": 5934,
      "▁sarah": 5935,
      "▁disappear": 5936,
      "▁bry": 5937,
      "##ara": 5938,
      "##ox": 5939,
      "##ector": 5940,
      "▁exch": 5941,
      "▁wing": 5942,
      "▁max": 5943,
      "▁something": 5944,
      "▁spl": 5945,
      "▁parad": 5946,
      "▁dreams": 5947,
      "▁brilliant": 5948,
      "▁rele": 5949,
      "▁flats": 5950,
      "▁aster": 5951,
      "##β": 5952,
      "▁twisted": 5953,
      "##aneous": 5954,
      "▁legislation": 5955,
      "##ino": 5956,
      "▁thru": 5957,
      "▁legos": 5958,
      "##otte": 5959,
      "##__________": 5960,
      "##ull": 5961,
      "▁reputation": 5962,
      "▁portions": 5963,
      "##ding": 5964,
      "▁batter": 5965,
      "▁sensitivity": 5966,
      "▁)": 5967,
      "▁doct": 5968,
      "▁rebels": 5969,
      "▁grizz": 5970,
      "▁1:30": 5971,
      "##ijing": 5972,
      "##umn": 5973,
      "▁iod": 5974,
      "▁viet": 5975,
      "▁brian": 5976,
      "▁supers": 5977,
      "##wr": 5978,
      "##y@ect": 5979,
      "▁volley": 5980,
      "▁karen": 5981,
      "▁trav": 5982,
      "▁movements": 5983,
      "▁cas": 5984,
      "##portion": 5985,
      "▁dece": 5986,
      "▁purchasing": 5987,
      "▁youth": 5988,
      "▁no": 5989,
      "▁harder": 5990,
      "▁arrog": 5991,
      "▁finals": 5992,
      "▁cash": 5993,
      "▁contribution": 5994,
      "▁2003": 5995,
      "▁66": 5996,
      "▁deeper": 5997,
      "▁ident": 5998,
      "▁800-5": 5999,
      "##erves": 6000,
      "▁improve": 6001,
      "▁scan": 6002,
      "▁immers": 6003,
      "▁peach": 6004,
      "##ε": 6005,
      "▁weekly": 6006,
      "▁fiction": 6007,
      "▁generally": 6008,
      "▁stupid": 6009,
      "▁lakes": 6010,
      "▁presidents": 6011,
      "▁hy": 6012,
      "▁identity": 6013,
      "▁etc.": 6014,
      "▁computers": 6015,
      "▁atlanta": 6016,
      "▁imposs": 6017,
      "##ole": 6018,
      "▁sli": 6019,
      "▁11/2": 6020,
      "▁sectors": 6021,
      "▁shoe": 6022,
      "▁mild": 6023,
      "▁musharraf": 6024,
      "▁release": 6025,
      "▁pc": 6026,
      "##through": 6027,
      "##xual": 6028,
      "▁comedy": 6029,
      "▁comple": 6030,
      "▁x": 6031,
      "##cceed": 6032,
      "▁patty": 6033,
      "▁sherry": 6034,
      "ʃ": 6035,
      "▁fist": 6036,
      "▁ann": 6037,
      "▁librivox": 6038,
      "▁manners": 6039,
      "##eer": 6040,
      "##red": 6041,
      "▁beyond": 6042,
      "▁murder": 6043,
      "▁reop": 6044,
      "▁classified": 6045,
      "##glasses": 6046,
      "▁vital": 6047,
      "##as": 6048,
      "▁lost": 6049,
      "▁typically": 6050,
      "▁{": 6051,
      "▁alt.animals.": 6052,
      "▁530": 6053,
      "▁europ": 6054,
      "▁reck": 6055,
      "▁name": 6056,
      "▁broth": 6057,
      "▁southern": 6058,
      "▁most": 6059,
      "▁thirds": 6060,
      "▁commun": 6061,
      "##liness": 6062,
      "##an": 6063,
      "▁sovereignty": 6064,
      "▁cooperate": 6065,
      "▁friend": 6066,
      "▁coming": 6067,
      "##sequ": 6068,
      "##iot": 6069,
      "▁muh": 6070,
      "▁forum": 6071,
      "▁gaining": 6072,
      "▁shapes": 6073,
      "##aro": 6074,
      "▁hos": 6075,
      "▁ripe": 6076,
      "▁towels": 6077,
      "▁shame": 6078,
      "##ume": 6079,
      "▁2.": 6080,
      "▁derrick": 6081,
      "▁phd": 6082,
      "▁aircraft": 6083,
      "▁3": 6084,
      "▁grow": 6085,
      "▁pre": 6086,
      "▁box": 6087,
      "▁competition": 6088,
      "▁launching": 6089,
      "▁mini": 6090,
      "▁piz": 6091,
      "▁presents": 6092,
      "▁barrett": 6093,
      "▁trouble": 6094,
      "▁|": 6095,
      "▁santorum": 6096,
      "▁confine": 6097,
      "##bound": 6098,
      "##ois": 6099,
      "▁ate": 6100,
      "▁prison": 6101,
      "##ound": 6102,
      "▁04:17": 6103,
      "##uclear": 6104,
      "##anks": 6105,
      "▁glove": 6106,
      "▁switzerland": 6107,
      "▁got": 6108,
      "▁letter": 6109,
      "##airah": 6110,
      "▁1967": 6111,
      "▁foundation": 6112,
      "▁158": 6113,
      "▁insert": 6114,
      "##lies": 6115,
      "##bor": 6116,
      "▁homeopath": 6117,
      "##flies": 6118,
      "▁620-": 6119,
      "▁prec": 6120,
      "▁breathing": 6121,
      "##uction": 6122,
      "##grad": 6123,
      "▁saying": 6124,
      "##ulate": 6125,
      "▁rahman": 6126,
      "##erre": 6127,
      "▁oc": 6128,
      "▁buses": 6129,
      "▁transparency": 6130,
      "##logspot.com/": 6131,
      "▁mets": 6132,
      "▁reservations": 6133,
      "▁m.": 6134,
      "▁wet": 6135,
      "▁palestinians": 6136,
      "▁carey": 6137,
      "▁instr": 6138,
      "▁o": 6139,
      "▁sugg": 6140,
      "##+": 6141,
      "½": 6142,
      "▁fasc": 6143,
      "▁smurf": 6144,
      "▁713-654-": 6145,
      "▁growing": 6146,
      "▁showing": 6147,
      "▁lamb": 6148,
      "▁accustom": 6149,
      "▁arranged": 6150,
      "##ress": 6151,
      "▁nancy": 6152,
      "##active": 6153,
      "▁julie": 6154,
      "▁takeoff": 6155,
      "静": 6156,
      "▁technical": 6157,
      "▁ew": 6158,
      "▁hal": 6159,
      "##ivan": 6160,
      "▁afric": 6161,
      "##case": 6162,
      "▁chea": 6163,
      "▁www.": 6164,
      "▁hull": 6165,
      "##lause": 6166,
      "▁convergence": 6167,
      "▁meantime": 6168,
      "▁lea": 6169,
      "▁4-12": 6170,
      "▁roared": 6171,
      "▁shovel": 6172,
      "▁christopher": 6173,
      "▁waff": 6174,
      "▁land": 6175,
      "##asa": 6176,
      "▁swedish": 6177,
      "▁perm": 6178,
      "▁dent": 6179,
      "▁republic": 6180,
      "▁spending": 6181,
      "▁forb": 6182,
      "▁fifteen": 6183,
      "▁herein": 6184,
      "▁fin": 6185,
      "▁varied": 6186,
      "▁lav": 6187,
      "▁herself": 6188,
      "##itals": 6189,
      "▁activity": 6190,
      "▁like": 6191,
      "▁nonsense": 6192,
      "▁bigger": 6193,
      "▁shiites": 6194,
      "▁15": 6195,
      "▁kitty": 6196,
      "▁considering": 6197,
      "▁terrorist": 6198,
      "▁wake": 6199,
      "▁137": 6200,
      "▁width": 6201,
      "##oto": 6202,
      "▁share": 6203,
      "▁wooden": 6204,
      "##peare": 6205,
      "▁tragic": 6206,
      "▁3889": 6207,
      "▁82": 6208,
      "▁zero": 6209,
      "津": 6210,
      "▁feasible": 6211,
      "▁compulsive": 6212,
      "▁beloved": 6213,
      "▁gorio": 6214,
      "▁passengers": 6215,
      "##tedly": 6216,
      "##inking": 6217,
      "▁flick": 6218,
      "▁endea": 6219,
      "▁505-625": 6220,
      "▁departing": 6221,
      "▁33": 6222,
      "##riage": 6223,
      "▁host": 6224,
      "▁frisco": 6225,
      "▁openly": 6226,
      "▁reflect": 6227,
      "▁restrictions": 6228,
      "▁beauty": 6229,
      "##urning": 6230,
      "▁auster": 6231,
      "▁sour": 6232,
      "▁picnic": 6233,
      "▁chamber": 6234,
      "▁environments": 6235,
      "▁imprisoned": 6236,
      "▁brains": 6237,
      "##expl": 6238,
      "▁shit": 6239,
      "▁notably": 6240,
      "▁deliberate": 6241,
      "▁canad": 6242,
      "##ope": 6243,
      "▁na": 6244,
      "##8-3": 6245,
      "▁(b)": 6246,
      "##airs": 6247,
      "▁dash": 6248,
      "▁+45": 6249,
      "▁hub": 6250,
      "▁find": 6251,
      "▁surviv": 6252,
      "▁4:00": 6253,
      "##@compaq.com": 6254,
      "▁reality": 6255,
      "▁concepts": 6256,
      "▁dinos": 6257,
      "▁border": 6258,
      "▁charter": 6259,
      "##lics": 6260,
      "▁debbie": 6261,
      "▁conducting": 6262,
      "▁invent": 6263,
      "▁connectionstring": 6264,
      "▁hiding": 6265,
      "##icial": 6266,
      "▁x3": 6267,
      "▁childcare": 6268,
      "▁proof": 6269,
      "▁viv": 6270,
      "##win": 6271,
      "▁offensive": 6272,
      "▁helicop": 6273,
      "##84": 6274,
      "▁alber": 6275,
      "▁momma": 6276,
      "##ughter": 6277,
      "▁uncertainty": 6278,
      "▁speech": 6279,
      "▁315": 6280,
      "▁revolution": 6281,
      "▁neural": 6282,
      "##ras": 6283,
      "▁police": 6284,
      "▁attend": 6285,
      "▁gardens": 6286,
      "▁praise": 6287,
      "▁dissemination": 6288,
      "▁pave": 6289,
      "▁i": 6290,
      "▁ell": 6291,
      "▁lasts": 6292,
      "▁islamic": 6293,
      "▁signed": 6294,
      "▁vallee": 6295,
      "##ped": 6296,
      "▁alcalde": 6297,
      "▁mcg": 6298,
      "#": 6299,
      "▁walnut": 6300,
      "▁exceptional": 6301,
      "▁discip": 6302,
      "▁here": 6303,
      "▁clim": 6304,
      "▁matt": 6305,
      "▁tastes": 6306,
      "▁99": 6307,
      "##keep": 6308,
      "▁spend": 6309,
      "##esome": 6310,
      "▁co": 6311,
      "▁prayer": 6312,
      "▁el": 6313,
      "▁fountain": 6314,
      "▁shoo": 6315,
      "▁bands": 6316,
      "▁squeeze": 6317,
      "▁nierman": 6318,
      "##68": 6319,
      "▁transm": 6320,
      "▁approxim": 6321,
      "##word": 6322,
      "##west": 6323,
      "▁socialist": 6324,
      "▁neoclassical": 6325,
      "▁resulting": 6326,
      "▁iranian": 6327,
      "▁hay": 6328,
      "▁fundament": 6329,
      "##oured": 6330,
      "▁haven": 6331,
      "▁1504": 6332,
      "▁movie": 6333,
      "▁hur": 6334,
      "▁optimistic": 6335,
      "▁halfway": 6336,
      "▁fork": 6337,
      "▁59": 6338,
      "▁won": 6339,
      "▁underlying": 6340,
      "▁chard": 6341,
      "##------": 6342,
      "▁anton": 6343,
      "##.m.": 6344,
      "▁doctor": 6345,
      "##abul": 6346,
      "▁iss": 6347,
      "▁magazine": 6348,
      "▁nim": 6349,
      "▁carol": 6350,
      "▁fact": 6351,
      "##e": 6352,
      "▁teach": 6353,
      "##head": 6354,
      "▁adjustments": 6355,
      "▁spilled": 6356,
      "##velop": 6357,
      "##za": 6358,
      "▁bunk": 6359,
      "▁successful": 6360,
      "##ologically": 6361,
      "▁renewed": 6362,
      "▁te": 6363,
      "▁down": 6364,
      "▁reads": 6365,
      "▁unexpected": 6366,
      "##bar": 6367,
      "▁lately": 6368,
      "▁tickles": 6369,
      "▁school": 6370,
      "▁web": 6371,
      "▁discourse": 6372,
      "##eapolis": 6373,
      "##gn": 6374,
      "##oy": 6375,
      "##ult": 6376,
      "▁above": 6377,
      "##==============": 6378,
      "▁mathemat": 6379,
      "▁1985": 6380,
      "▁propose": 6381,
      "##bee": 6382,
      "▁theat": 6383,
      "▁hotline": 6384,
      "▁recommend": 6385,
      "##bers": 6386,
      "▁messed": 6387,
      "▁entrance": 6388,
      "▁explos": 6389,
      "▁bradley": 6390,
      "▁bring": 6391,
      "▁wor": 6392,
      "▁chewing": 6393,
      "▁curs": 6394,
      "▁wakes": 6395,
      "##tc": 6396,
      "▁ordering": 6397,
      "▁monitoring": 6398,
      "##rate": 6399,
      "▁highlights": 6400,
      "▁quilis": 6401,
      "##asis": 6402,
      "##antly": 6403,
      "▁apart": 6404,
      "▁1145": 6405,
      "▁tradem": 6406,
      "▁versa": 6407,
      "▁46": 6408,
      "▁dere": 6409,
      "▁rains": 6410,
      "▁blueberry": 6411,
      "▁revisions": 6412,
      "▁nato": 6413,
      "▁fal": 6414,
      "##uz": 6415,
      "##@p": 6416,
      "▁mong": 6417,
      "▁search": 6418,
      "▁minnesota": 6419,
      "▁arrogant": 6420,
      "##andra": 6421,
      "▁stat": 6422,
      "▁europe": 6423,
      "##omm": 6424,
      "▁dol": 6425,
      "##ibilities": 6426,
      "▁reserv": 6427,
      "▁effective": 6428,
      "##inate": 6429,
      "▁922": 6430,
      "##thing": 6431,
      "▁lapt": 6432,
      "##aya": 6433,
      "▁egypt": 6434,
      "▁overwhel": 6435,
      "▁gravity": 6436,
      "##tegr": 6437,
      "▁ability": 6438,
      "▁insur": 6439,
      "▁adap": 6440,
      "▁wag": 6441,
      "▁wai": 6442,
      "▁cauc": 6443,
      "▁prejudice": 6444,
      "▁script": 6445,
      "▁surrender": 6446,
      "▁ginny": 6447,
      "▁farms": 6448,
      "##@esa": 6449,
      "▁counters": 6450,
      "##ensed": 6451,
      "▁periods": 6452,
      "##ives": 6453,
      "▁citizen": 6454,
      "▁bleeding": 6455,
      "▁tame": 6456,
      "▁wizard": 6457,
      "▁round": 6458,
      "▁eye": 6459,
      "▁1925": 6460,
      "##oard": 6461,
      "▁rachel": 6462,
      "##_00.doc": 6463,
      "▁folded": 6464,
      "▁industries": 6465,
      "▁smell": 6466,
      "##enues": 6467,
      "##quis": 6468,
      "▁ali": 6469,
      "▁=---": 6470,
      "▁apron": 6471,
      "##athers": 6472,
      "▁cath": 6473,
      "▁rode": 6474,
      "##ths": 6475,
      "##cept": 6476,
      "▁intelligence": 6477,
      "▁obt": 6478,
      "▁styl": 6479,
      "##vember": 6480,
      "▁thirt": 6481,
      "##mer": 6482,
      "α": 6483,
      "▁11/08/2000": 6484,
      "##onsider": 6485,
      "##.co.uk/": 6486,
      "▁collect": 6487,
      "▁03": 6488,
      "▁enl": 6489,
      "▁ld2d-#6": 6490,
      "▁vib": 6491,
      "▁ideal": 6492,
      "▁cats": 6493,
      "▁imported": 6494,
      "##raved": 6495,
      "▁ros": 6496,
      "##.2461": 6497,
      "▁687": 6498,
      "▁leopold": 6499,
      "▁interface": 6500,
      "▁elpaso": 6501,
      "▁broken": 6502,
      "##.x": 6503,
      "▁van": 6504,
      "▁kandahar": 6505,
      "▁202.456": 6506,
      "##ads": 6507,
      "▁represent": 6508,
      "▁squ": 6509,
      "▁prol": 6510,
      "▁medic": 6511,
      "▁discovered": 6512,
      "▁columns": 6513,
      "##ent": 6514,
      "##ode": 6515,
      "##utory": 6516,
      "##awah": 6517,
      "▁unique": 6518,
      "▁vulner": 6519,
      "▁deserve": 6520,
      "▁laos": 6521,
      "▁donna": 6522,
      "▁outdoors": 6523,
      "▁humanity": 6524,
      "▁immigration": 6525,
      "##innati": 6526,
      "▁continent": 6527,
      "▁greece": 6528,
      "▁glanced": 6529,
      "##ares": 6530,
      "##unk": 6531,
      "##@trans": 6532,
      "▁editor": 6533,
      "▁yan": 6534,
      "▁organizing": 6535,
      "▁operator": 6536,
      "▁….": 6537,
      "▁harvard": 6538,
      "▁switched": 6539,
      "▁pettigrew": 6540,
      "▁spore": 6541,
      "▁guarantee": 6542,
      "##isc": 6543,
      "##gr": 6544,
      "▁cows": 6545,
      "▁locomot": 6546,
      "▁precious": 6547,
      "##xtures": 6548,
      "▁introduced": 6549,
      "▁01/25/2001": 6550,
      "▁1951": 6551,
      "##ath": 6552,
      "##orne": 6553,
      "▁grain": 6554,
      "▁trees": 6555,
      "▁bridge": 6556,
      "▁yard": 6557,
      "▁distort": 6558,
      "▁has": 6559,
      "▁cost-e": 6560,
      "▁provider": 6561,
      "▁takes": 6562,
      "▁flea": 6563,
      "▁bever": 6564,
      "▁neu": 6565,
      "▁gotten": 6566,
      "a": 6567,
      "▁custom": 6568,
      "▁substantive": 6569,
      "▁barn": 6570,
      "▁business": 6571,
      "▁appetite": 6572,
      "▁club": 6573,
      "▁weekends": 6574,
      "▁argues": 6575,
      "▁---->===}*{===<----": 6576,
      "▁202.7": 6577,
      "▁1799": 6578,
      "▁be": 6579,
      "▁ax": 6580,
      "η": 6581,
      "▁bodies": 6582,
      "▁organic": 6583,
      "▁abd": 6584,
      "▁holds": 6585,
      "▁gis": 6586,
      "▁ric": 6587,
      "▁unanim": 6588,
      "▁neighbours": 6589,
      "▁elect": 6590,
      "▁balloon": 6591,
      "##ith": 6592,
      "▁amazingly": 6593,
      "▁sponsored": 6594,
      "▁tank": 6595,
      "##uel": 6596,
      "##ading": 6597,
      "▁champ": 6598,
      "▁f-": 6599,
      "▁1:00": 6600,
      "+": 6601,
      "▁fulf": 6602,
      "▁107": 6603,
      "##ades": 6604,
      "▁---": 6605,
      "▁:-)": 6606,
      "▁honda": 6607,
      "##cross": 6608,
      "##ree": 6609,
      "▁homeless": 6610,
      "▁dogg": 6611,
      "##sp": 6612,
      "▁title": 6613,
      "▁davis": 6614,
      "▁supports": 6615,
      "▁robust": 6616,
      "##-on": 6617,
      "▁jo": 6618,
      "▁saudi": 6619,
      "▁713-654-0365": 6620,
      "##roduct": 6621,
      "▁restr": 6622,
      "▁cind": 6623,
      "##esota": 6624,
      "##rier": 6625,
      "▁kerry": 6626,
      "▁6871082": 6627,
      "▁1944": 6628,
      "▁boston": 6629,
      "▁yaw": 6630,
      "##erson": 6631,
      "▁austria": 6632,
      "▁chat": 6633,
      "▁del": 6634,
      "▁dab": 6635,
      "▁cam": 6636,
      "##f": 6637,
      "▁plant": 6638,
      "▁liquid": 6639,
      "##down": 6640,
      "##ending": 6641,
      "▁hardness": 6642,
      "##lessly": 6643,
      "##ored": 6644,
      "▁asserted": 6645,
      "▁spear": 6646,
      "▁quino": 6647,
      "▁tub": 6648,
      "▁1.00": 6649,
      "▁ago": 6650,
      "▁troubles": 6651,
      "▁!!!": 6652,
      "▁giants": 6653,
      "▁spout": 6654,
      "▁economically": 6655,
      "▁airport": 6656,
      "##ating": 6657,
      "▁mat": 6658,
      "▁appreciate": 6659,
      "▁sensible": 6660,
      "##ript": 6661,
      "▁solutions": 6662,
      "▁575": 6663,
      "▁wr": 6664,
      "▁achievement": 6665,
      "▁mother": 6666,
      "##asing": 6667,
      "▁mom": 6668,
      "▁beaches": 6669,
      "▁honest": 6670,
      "▁application": 6671,
      "▁dress": 6672,
      "▁hob": 6673,
      "##tact": 6674,
      "##elling": 6675,
      "##achel": 6676,
      "##earing": 6677,
      "▁worlds": 6678,
      "▁cro": 6679,
      "##amese": 6680,
      "▁sit": 6681,
      "▁registered": 6682,
      "▁environment": 6683,
      "▁cox": 6684,
      "▁boards": 6685,
      "▁0590": 6686,
      "##ا": 6687,
      "▁charco": 6688,
      "##ι": 6689,
      "##gers": 6690,
      "▁unrelated": 6691,
      "▁diversity": 6692,
      "▁adequate": 6693,
      "ʁ": 6694,
      "▁ward": 6695,
      "##leon": 6696,
      "▁eating": 6697,
      "▁learning": 6698,
      "##____": 6699,
      "▁chocolate": 6700,
      "▁turtle": 6701,
      "▁wagon": 6702,
      "▁inhabit": 6703,
      "▁vinny": 6704,
      "▁grabbed": 6705,
      "▁22nd": 6706,
      "▁turistica": 6707,
      "▁appropriations": 6708,
      "▁operations": 6709,
      "▁lana": 6710,
      "▁sus": 6711,
      "▁dy": 6712,
      "▁di": 6713,
      "▁february": 6714,
      "▁pilgrims": 6715,
      "▁thinking": 6716,
      "▁scient": 6717,
      "▁judgment": 6718,
      "▁p&l": 6719,
      "▁had": 6720,
      "▁2nd": 6721,
      "▁sector": 6722,
      "▁416-865-3": 6723,
      "▁exhibits": 6724,
      "▁businessmen": 6725,
      "##cell": 6726,
      "##itative": 6727,
      "▁intense": 6728,
      "▁compreh": 6729,
      "▁chicken": 6730,
      "▁distribution": 6731,
      "▁hedwig": 6732,
      "▁debts": 6733,
      "▁teaching": 6734,
      "##chester": 6735,
      "▁attributed": 6736,
      "##thansa": 6737,
      "▁2:30": 6738,
      "▁hospital": 6739,
      "▁she": 6740,
      "▁embarrass": 6741,
      "##87": 6742,
      "▁wales": 6743,
      "▁09:": 6744,
      "##obia": 6745,
      "▁recre": 6746,
      "▁cleared": 6747,
      "▁instead": 6748,
      "▁when": 6749,
      "▁positions": 6750,
      "▁say": 6751,
      "▁kleenex": 6752,
      "▁maintains": 6753,
      "▁memorial": 6754,
      "▁appearing": 6755,
      "##ob": 6756,
      "▁families": 6757,
      "##-0": 6758,
      "▁!!!!!!!!!!!!!!!": 6759,
      "▁story": 6760,
      "▁invest": 6761,
      "▁first": 6762,
      "##emy": 6763,
      "▁beach": 6764,
      "▁mornings": 6765,
      "▁rust": 6766,
      "▁top": 6767,
      "##orrow": 6768,
      "▁silly": 6769,
      "▁careful": 6770,
      "##eable": 6771,
      "##aroo": 6772,
      "▁outstanding": 6773,
      "▁worked": 6774,
      "▁copies": 6775,
      "▁taller": 6776,
      "▁emb": 6777,
      "▁enterpr": 6778,
      "##otra": 6779,
      "▁tricks": 6780,
      "▁stable": 6781,
      "##othy": 6782,
      "##rah": 6783,
      "▁enc": 6784,
      "▁translates": 6785,
      "▁marginal": 6786,
      "▁cre": 6787,
      "##ins": 6788,
      "▁ded": 6789,
      "▁videos": 6790,
      "▁couch": 6791,
      "▁saint": 6792,
      "▁slight": 6793,
      "▁county": 6794,
      "▁ath": 6795,
      "##27": 6796,
      "▁wild": 6797,
      "▁!!!!!!!!!!!!!": 6798,
      "▁....................": 6799,
      "▁no.": 6800,
      "▁matches": 6801,
      "▁impul": 6802,
      "##anan": 6803,
      "▁medium": 6804,
      "▁experi": 6805,
      "▁macbeth": 6806,
      "▁windows": 6807,
      "▁sev": 6808,
      "##stances": 6809,
      "▁pe": 6810,
      "▁humaine": 6811,
      "▁197": 6812,
      "##drft": 6813,
      "▁noida": 6814,
      "▁wondering": 6815,
      "▁civilian": 6816,
      "▁july": 6817,
      "▁as": 6818,
      "▁span": 6819,
      "▁tool": 6820,
      "▁bn": 6821,
      "▁mall": 6822,
      "##-p": 6823,
      "▁disappoint": 6824,
      "▁pencil": 6825,
      "▁vogelaviatiolap": 6826,
      "▁satisfaction": 6827,
      "##ooking": 6828,
      "▁thunder": 6829,
      "▁stella": 6830,
      "▁spin": 6831,
      "▁nu": 6832,
      "##cont": 6833,
      "▁conscious": 6834,
      "▁neat": 6835,
      "##iah": 6836,
      "##des": 6837,
      "▁d.": 6838,
      "▁clients": 6839,
      "##ishly": 6840,
      "▁milit": 6841,
      "##atures": 6842,
      "▁beverage": 6843,
      "##bha": 6844,
      "▁rhythm": 6845,
      "▁lu": 6846,
      "##`": 6847,
      "▁195": 6848,
      "##law": 6849,
      "▁electron": 6850,
      "▁louisiana": 6851,
      "▁tit": 6852,
      "▁degrees": 6853,
      "▁|--------+----------------------->": 6854,
      "▁dav": 6855,
      "▁corp": 6856,
      "▁gifu": 6857,
      "▁impact": 6858,
      "▁protect": 6859,
      "▁liked": 6860,
      "▁australia": 6861,
      "##eny": 6862,
      "##@ect": 6863,
      "▁dolphins": 6864,
      "▁drug": 6865,
      "▁·": 6866,
      "▁subs": 6867,
      "▁remarkably": 6868,
      "▁fallujah": 6869,
      "##ada": 6870,
      "##otion": 6871,
      "▁logic": 6872,
      "##ieved": 6873,
      "▁cray": 6874,
      "##www": 6875,
      "▁dc": 6876,
      "##43": 6877,
      "▁aw": 6878,
      "²": 6879,
      "▁dipped": 6880,
      "▁interrupt": 6881,
      "▁requ": 6882,
      "▁integration": 6883,
      "##az": 6884,
      "▁cincinnati": 6885,
      "##roc": 6886,
      "▁wra": 6887,
      "▁snail": 6888,
      "▁price": 6889,
      "##---------------": 6890,
      "▁devast": 6891,
      "▁avenue": 6892,
      "##es": 6893,
      "▁economists": 6894,
      "▁location": 6895,
      "▁enjoys": 6896,
      "▁lords": 6897,
      "▁phen": 6898,
      "▁chardonnay": 6899,
      "▁carro": 6900,
      "▁sweat": 6901,
      "##erick": 6902,
      "##x": 6903,
      "▁adopted": 6904,
      "##anic": 6905,
      "▁guerr": 6906,
      "▁considers": 6907,
      "▁---------------------------------": 6908,
      "▁extract": 6909,
      "##ober": 6910,
      "##ization": 6911,
      "##akers": 6912,
      "##eff": 6913,
      "▁actively": 6914,
      "▁wives": 6915,
      "▁deserted": 6916,
      "▁titanic": 6917,
      "▁chant": 6918,
      "##ion": 6919,
      "▁studio": 6920,
      "▁knew": 6921,
      "##ises": 6922,
      "##elia": 6923,
      "▁renee": 6924,
      "▁reportedly": 6925,
      "▁manipulating": 6926,
      "▁sump": 6927,
      "▁2006": 6928,
      "▁starvation": 6929,
      "▁secur": 6930,
      "▁demon": 6931,
      "▁blackl": 6932,
      "▁sharing": 6933,
      "▁petsmart": 6934,
      "▁piled": 6935,
      "▁w.": 6936,
      "▁forecast": 6937,
      "▁4_28": 6938,
      "▁rabbits": 6939,
      "##2000": 6940,
      "▁north": 6941,
      "▁belief": 6942,
      "##mir": 6943,
      "▁blanc": 6944,
      "▁vacc": 6945,
      "##t.": 6946,
      "▁fisher": 6947,
      "▁indiffer": 6948,
      "▁chuck": 6949,
      "▁judgments": 6950,
      "▁1579": 6951,
      "▁obstacle": 6952,
      "##/03/2001": 6953,
      "▁demand": 6954,
      "▁jeop": 6955,
      "▁ensuring": 6956,
      "##te": 6957,
      "##vant": 6958,
      "▁80,000": 6959,
      "ا": 6960,
      "▁petition": 6961,
      "##53-3119": 6962,
      "▁framed": 6963,
      "▁begins": 6964,
      "##:50": 6965,
      "▁dand": 6966,
      "▁parking": 6967,
      "▁12:30": 6968,
      "##------->": 6969,
      "▁debris": 6970,
      "▁carr": 6971,
      "▁21st": 6972,
      "▁pushing": 6973,
      "##apor": 6974,
      "▁parake": 6975,
      "▁bea": 6976,
      "##iles": 6977,
      "▁sunday": 6978,
      "▁faint": 6979,
      "##ocratic": 6980,
      "##isb": 6981,
      "▁task": 6982,
      "▁adding": 6983,
      "##opod": 6984,
      "▁reading": 6985,
      "##.25": 6986,
      "▁chronic": 6987,
      "▁1724": 6988,
      "▁seaman": 6989,
      "##iloqu": 6990,
      "▁monthly": 6991,
      "▁42,000": 6992,
      "▁nick": 6993,
      "▁spelling": 6994,
      "▁picked": 6995,
      "##oup": 6996,
      "▁post": 6997,
      "▁implementing": 6998,
      "▁i.": 6999,
      "##ays": 7000,
      "▁grandmother": 7001,
      "##igs": 7002,
      "▁horsie": 7003,
      "▁liqu": 7004,
      "##ita": 7005,
      "##ability": 7006,
      "▁inequality": 7007,
      "▁developed": 7008,
      "▁glasses": 7009,
      "▁ale": 7010,
      "▁ulterior": 7011,
      "▁principle": 7012,
      "##aim": 7013,
      "▁calculated": 7014,
      "▁chand": 7015,
      "▁stating": 7016,
      "▁freedoms": 7017,
      "##ited": 7018,
      "▁argentina": 7019,
      "▁advert": 7020,
      "▁word": 7021,
      "##.d.": 7022,
      "▁345": 7023,
      "`": 7024,
      "▁reli": 7025,
      "▁investment": 7026,
      "▁lev": 7027,
      "▁obs": 7028,
      "##ough": 7029,
      "▁avoided": 7030,
      "▁raphael": 7031,
      "▁forming": 7032,
      "▁chrome": 7033,
      "##-kedne": 7034,
      "▁sharks": 7035,
      "▁need": 7036,
      "▁09/16/99": 7037,
      "▁seis": 7038,
      "##@comp": 7039,
      "▁krist": 7040,
      "▁drying": 7041,
      "▁probably": 7042,
      "▁counsel": 7043,
      "▁candid": 7044,
      "##600": 7045,
      "▁salsa": 7046,
      "##noon": 7047,
      "▁strat": 7048,
      "▁complete": 7049,
      "▁shackle": 7050,
      "▁fluff": 7051,
      "▁macaroni": 7052,
      "▁shakespeare": 7053,
      "##irts": 7054,
      "▁screw": 7055,
      "▁ps": 7056,
      "▁stair": 7057,
      "▁negotiation": 7058,
      "▁femoral": 7059,
      "▁decl": 7060,
      "▁19": 7061,
      "##ty": 7062,
      "▁surpr": 7063,
      "##um": 7064,
      "▁dro": 7065,
      "##imum": 7066,
      "▁jack": 7067,
      "▁homeopathy": 7068,
      "▁comm": 7069,
      "▁1902": 7070,
      "▁course": 7071,
      "##tsbur": 7072,
      "▁vogel": 7073,
      "▁567.77": 7074,
      "##ication": 7075,
      "##-12": 7076,
      "▁equity": 7077,
      "▁peek": 7078,
      "▁ib": 7079,
      "▁reimbur": 7080,
      "▁rack": 7081,
      "▁cabbage": 7082,
      "▁1849": 7083,
      "##^": 7084,
      "##ß": 7085,
      "▁pad": 7086,
      "▁luf": 7087,
      "▁med": 7088,
      "▁accidentally": 7089,
      "▁accountant": 7090,
      "▁products": 7091,
      "▁lose": 7092,
      "##aring": 7093,
      "▁latter": 7094,
      "▁oppress": 7095,
      "▁damasc": 7096,
      "▁jew": 7097,
      "▁lin": 7098,
      "▁dated": 7099,
      "▁awa": 7100,
      "▁questioned": 7101,
      "##ons": 7102,
      "▁recipient": 7103,
      "▁conf": 7104,
      "▁1779": 7105,
      "▁ens": 7106,
      "▁orbit": 7107,
      "▁equally": 7108,
      "▁chu": 7109,
      "▁score": 7110,
      "▁sooner": 7111,
      "▁2.9": 7112,
      "▁sense": 7113,
      "▁publication": 7114,
      "▁nice": 7115,
      "▁loses": 7116,
      "▁allergic": 7117,
      "▁documents": 7118,
      "▁aesth": 7119,
      "▁cook": 7120,
      "▁terrif": 7121,
      "▁shorts": 7122,
      "▁passport": 7123,
      "##roit": 7124,
      "##aine": 7125,
      "##eval": 7126,
      "▁discret": 7127,
      "##umes": 7128,
      "▁kr": 7129,
      "##illed": 7130,
      "▁mushroom": 7131,
      "▁google": 7132,
      "##igger": 7133,
      "▁finest": 7134,
      "##d-": 7135,
      "▁scored": 7136,
      "▁lymph": 7137,
      "##oll": 7138,
      "▁collaborative": 7139,
      "▁records": 7140,
      "▁itinerary": 7141,
      "▁3,": 7142,
      "##gor": 7143,
      "##ried": 7144,
      "▁tops": 7145,
      "▁sisters": 7146,
      "▁indoor": 7147,
      "##lin": 7148,
      "▁630": 7149,
      "▁durs": 7150,
      "▁viewed": 7151,
      "##eras": 7152,
      "##/2004": 7153,
      "▁green": 7154,
      "▁excuse": 7155,
      "▁buba": 7156,
      "▁amending": 7157,
      "▁bookstore": 7158,
      "▁janice": 7159,
      "▁assass": 7160,
      "▁281": 7161,
      "▁1604": 7162,
      "▁seeds": 7163,
      "▁related": 7164,
      "▁laughter": 7165,
      "##-class": 7166,
      "▁updated": 7167,
      "##eces": 7168,
      "##app": 7169,
      "▁ash": 7170,
      "##inny": 7171,
      "▁airports": 7172,
      "##arg": 7173,
      "▁player": 7174,
      "▁armen": 7175,
      "▁valley": 7176,
      "▁spong": 7177,
      "##dies": 7178,
      "▁bites": 7179,
      "##-a": 7180,
      "▁night": 7181,
      "▁mish": 7182,
      "▁u": 7183,
      "▁dollars": 7184,
      "▁sens": 7185,
      "▁bulld": 7186,
      "▁participant": 7187,
      "▁soph": 7188,
      "▁neolog": 7189,
      "▁crazy": 7190,
      "▁approve": 7191,
      "##:39": 7192,
      "##ansa": 7193,
      "▁attitude": 7194,
      "##ann": 7195,
      "▁assist": 7196,
      "##η": 7197,
      "▁mcdon": 7198,
      "##orton": 7199,
      "▁confirming": 7200,
      "▁donate": 7201,
      "▁treaty": 7202,
      "▁schem": 7203,
      "▁curry": 7204,
      "▁respects": 7205,
      "▁spacecraft": 7206,
      "▁places": 7207,
      "▁terrorists": 7208,
      "▁quack": 7209,
      "▁cour": 7210,
      "##712": 7211,
      "▁eng": 7212,
      "▁taliban": 7213,
      "▁augment": 7214,
      "▁hurting": 7215,
      "▁proponents": 7216,
      "▁mouse": 7217,
      "▁est": 7218,
      "##ague": 7219,
      "##-faced": 7220,
      "##xture": 7221,
      "▁promised": 7222,
      "▁william": 7223,
      "▁proprietary": 7224,
      "▁amazed": 7225,
      "▁alleg": 7226,
      "▁ignor": 7227,
      "##acts": 7228,
      "▁tree": 7229,
      "##ories": 7230,
      "▁xii": 7231,
      "▁such": 7232,
      "▁pieces": 7233,
      "▁needs": 7234,
      "##eless": 7235,
      "##ective": 7236,
      "##very": 7237,
      "▁pajamas": 7238,
      "▁wast": 7239,
      "▁dl": 7240,
      "▁jac": 7241,
      "▁descend": 7242,
      "▁meiring": 7243,
      "##eding": 7244,
      "##-e": 7245,
      "▁propos": 7246,
      "##corn": 7247,
      "▁relying": 7248,
      "▁hunt": 7249,
      "##int": 7250,
      "##·": 7251,
      "##rison": 7252,
      "▁shore": 7253,
      "##itted": 7254,
      "▁write": 7255,
      "##body": 7256,
      "▁10:25": 7257,
      "▁19th": 7258,
      "##oss": 7259,
      "▁reserved": 7260,
      "▁contrary": 7261,
      "▁storms": 7262,
      "▁personality": 7263,
      "▁boundaries": 7264,
      "▁colombo": 7265,
      "##isms": 7266,
      "▁thrones": 7267,
      "▁feathered": 7268,
      "##vern": 7269,
      "▁rap": 7270,
      "▁1560": 7271,
      "##wise": 7272,
      "##ughty": 7273,
      "▁proclaim": 7274,
      "##ck": 7275,
      "▁recru": 7276,
      "▁mar": 7277,
      "##he": 7278,
      "▁1832": 7279,
      "##version": 7280,
      "▁sneeze": 7281,
      "▁exit": 7282,
      "▁blast": 7283,
      "▁fingers": 7284,
      "▁ve": 7285,
      "▁1110": 7286,
      "▁shackl": 7287,
      "▁yack": 7288,
      "▁athlet": 7289,
      "▁final": 7290,
      "##ening": 7291,
      "##ished": 7292,
      "##-3989": 7293,
      "▁kitten": 7294,
      "▁invoice": 7295,
      "▁removal": 7296,
      "▁tribal": 7297,
      "▁auto": 7298,
      "##rants": 7299,
      "##orescent": 7300,
      "▁:": 7301,
      "##olly": 7302,
      "##ross": 7303,
      "##ria": 7304,
      "▁struct": 7305,
      "▁drawn": 7306,
      "##product": 7307,
      "##its": 7308,
      "▁03/02/2001": 7309,
      "▁inquir": 7310,
      "▁prior": 7311,
      "##ione": 7312,
      "##elf": 7313,
      "##rim": 7314,
      "▁bh": 7315,
      "▁foreign": 7316,
      "▁ladies": 7317,
      "▁grounds": 7318,
      "▁syrup": 7319,
      "▁accent": 7320,
      "▁skull": 7321,
      "▁34": 7322,
      "▁suggested": 7323,
      "##sters": 7324,
      "▁ongoing": 7325,
      "▁scene": 7326,
      "▁mailman": 7327,
      "▁yahoo!": 7328,
      "▁mate": 7329,
      "▁trapped": 7330,
      "▁veteran": 7331,
      "##sus": 7332,
      "▁facility": 7333,
      "▁playing": 7334,
      "▁inapp": 7335,
      "##-c": 7336,
      "##ro": 7337,
      "▁negoti": 7338,
      "▁wine": 7339,
      "▁prestigious": 7340,
      "▁412": 7341,
      "##une": 7342,
      "▁civet": 7343,
      "▁require": 7344,
      "▁ekrapels@esa": 7345,
      "▁buttons": 7346,
      "▁04:28": 7347,
      "▁reported": 7348,
      "▁earlier": 7349,
      "▁physical": 7350,
      "##ece": 7351,
      "▁impeachment": 7352,
      "▁traveling": 7353,
      "θ": 7354,
      "▁lucky": 7355,
      "▁chines": 7356,
      "▁struggle": 7357,
      "▁bath": 7358,
      "▁pl": 7359,
      "▁look": 7360,
      "▁foot": 7361,
      "▁assault": 7362,
      "▁kingdom": 7363,
      "▁intake": 7364,
      "##tr": 7365,
      "▁worldwide": 7366,
      "▁1900": 7367,
      "▁bust": 7368,
      "▁!!": 7369,
      "##etheless": 7370,
      "▁&": 7371,
      "▁gem": 7372,
      "▁pizza": 7373,
      "▁2:00": 7374,
      "##bour": 7375,
      "##shore": 7376,
      "▁cock": 7377,
      "▁granger": 7378,
      "▁pending": 7379,
      "##are": 7380,
      "##ash": 7381,
      "▁jumps": 7382,
      "▁ern": 7383,
      "▁env": 7384,
      "##1/2001": 7385,
      "▁promoted": 7386,
      "▁reaff": 7387,
      "##illa": 7388,
      "##ively": 7389,
      "▁bosom": 7390,
      "▁batch": 7391,
      "▁peroxide": 7392,
      "▁waiver": 7393,
      "▁birds": 7394,
      "▁notable": 7395,
      "▁qx": 7396,
      "▁heavily": 7397,
      "▁poodle": 7398,
      "▁polly": 7399,
      "▁oth": 7400,
      "▁transported": 7401,
      "##-of": 7402,
      "##onnay": 7403,
      "▁fever": 7404,
      "▁promote": 7405,
      "▁turns": 7406,
      "▁yahoo": 7407,
      "▁emission": 7408,
      "▁dining": 7409,
      "▁judy": 7410,
      "▁hurt": 7411,
      "▁pimple": 7412,
      "▁hundred": 7413,
      "##edter": 7414,
      "##aments": 7415,
      "▁enemy": 7416,
      "##go": 7417,
      "##.htm": 7418,
      "▁acquis": 7419,
      "▁inex": 7420,
      "▁unles": 7421,
      "▁s/he": 7422,
      "##king": 7423,
      "▁territory": 7424,
      "▁greet": 7425,
      "▁effectively": 7426,
      "▁diana": 7427,
      "▁somm": 7428,
      "##ocr": 7429,
      "▁generic": 7430,
      "##30": 7431,
      "##abled": 7432,
      "▁easier": 7433,
      "##ters": 7434,
      "##sy": 7435,
      "▁defence": 7436,
      "▁dada": 7437,
      "▁speakers": 7438,
      "##iod": 7439,
      "▁illness": 7440,
      "##ottie": 7441,
      "▁ku": 7442,
      "▁sinking": 7443,
      "▁quarters": 7444,
      "▁yummy": 7445,
      "##gregation": 7446,
      "▁reim": 7447,
      "▁colonial": 7448,
      "▁recall": 7449,
      "▁blinking": 7450,
      "▁awareness": 7451,
      "▁philosopher": 7452,
      "##enix": 7453,
      "▁outlets": 7454,
      "▁parach": 7455,
      "▁account": 7456,
      "▁les": 7457,
      "▁subjected": 7458,
      "▁charm": 7459,
      "▁eager": 7460,
      "▁chantilly": 7461,
      "▁raf": 7462,
      "▁ven": 7463,
      "▁fill": 7464,
      "▁asylum": 7465,
      "##isure": 7466,
      "▁snakes": 7467,
      "▁embed": 7468,
      "##ado": 7469,
      "▁contr": 7470,
      "▁300": 7471,
      "▁1801": 7472,
      "▁verd": 7473,
      "▁links": 7474,
      "▁authority": 7475,
      "▁contacts": 7476,
      "▁clinging": 7477,
      ":": 7478,
      "▁nook": 7479,
      "▁governments": 7480,
      "##ification": 7481,
      "▁sho": 7482,
      "▁wounds": 7483,
      "▁whole": 7484,
      "▁carol.st.clair@enron.com": 7485,
      "4": 7486,
      "▁adj": 7487,
      "##.ht": 7488,
      "##itly": 7489,
      "##agan": 7490,
      "▁electrical": 7491,
      "▁reput": 7492,
      "▁dwarf": 7493,
      "▁jenn": 7494,
      "▁blink": 7495,
      "##igible": 7496,
      "▁statue": 7497,
      "▁directly": 7498,
      "##/30": 7499,
      "▁ancest": 7500,
      "▁jacket": 7501,
      "▁demands": 7502,
      "▁interventions": 7503,
      "▁hit": 7504,
      "▁defining": 7505,
      "▁4.7": 7506,
      "▁subscrib": 7507,
      "▁administrative": 7508,
      "##aste": 7509,
      "▁unaccept": 7510,
      "##amus": 7511,
      "▁crowd": 7512,
      "▁lur": 7513,
      "##fly": 7514,
      "▁tren": 7515,
      "##unks": 7516,
      "##ub": 7517,
      "▁compassion": 7518,
      "▁org": 7519,
      "▁superf": 7520,
      "▁compan": 7521,
      "▁ye": 7522,
      "▁app": 7523,
      "##oler": 7524,
      "▁harness": 7525,
      "▁pard": 7526,
      "▁strike": 7527,
      "▁turis": 7528,
      "##ural": 7529,
      "▁directions": 7530,
      "▁columb": 7531,
      "▁tru": 7532,
      "▁ger": 7533,
      "##ounce": 7534,
      "▁condemn": 7535,
      "▁patt": 7536,
      "##-and": 7537,
      "▁serpent": 7538,
      "▁mujahedeen": 7539,
      "##aganda": 7540,
      "▁meanwhile": 7541,
      "##it": 7542,
      "▁elevator": 7543,
      "▁mos": 7544,
      "▁tract": 7545,
      "▁crown": 7546,
      "▁proclaimed": 7547,
      "▁saf": 7548,
      "##,0": 7549,
      "▁22": 7550,
      "##pr": 7551,
      "##to": 7552,
      "▁molly": 7553,
      "##-by": 7554,
      "▁monkeys": 7555,
      "▁01/1": 7556,
      "▁yog": 7557,
      "▁steel": 7558,
      "▁distributed": 7559,
      "▁fiscal": 7560,
      "▁soil": 7561,
      "▁styles": 7562,
      "▁surface": 7563,
      "▁hasidim": 7564,
      "▁bs": 7565,
      "▁influ": 7566,
      "##stream": 7567,
      "▁explo": 7568,
      "##hill": 7569,
      "##ince": 7570,
      "▁suffering": 7571,
      "▁lottery": 7572,
      "▁feed": 7573,
      "▁teaspoon": 7574,
      "▁start": 7575,
      "▁[...]": 7576,
      "▁evolve": 7577,
      "ح": 7578,
      "▁snack": 7579,
      "▁stad": 7580,
      "##hn": 7581,
      "▁sexually": 7582,
      "##ute": 7583,
      "▁guards": 7584,
      "▁museums": 7585,
      "▁helmet": 7586,
      "▁carn": 7587,
      "▁danc": 7588,
      "▁rejected": 7589,
      "▁control": 7590,
      "▁consum": 7591,
      "▁owl": 7592,
      "▁inning": 7593,
      "▁found": 7594,
      "▁gang": 7595,
      "▁complaining": 7596,
      "▁ep": 7597,
      "▁fir": 7598,
      "▁calculation": 7599,
      "▁offer": 7600,
      "▁coordination": 7601,
      "##acht": 7602,
      "▁peop": 7603,
      "▁ench": 7604,
      "▁nier": 7605,
      "▁subway": 7606,
      "▁bag": 7607,
      "▁principles": 7608,
      "▁intellectual": 7609,
      "▁kitt": 7610,
      "▁due": 7611,
      "▁seventeenth": 7612,
      "##744": 7613,
      "▁dem": 7614,
      "▁fresh": 7615,
      "▁farmer": 7616,
      "▁pyr": 7617,
      "▁disability": 7618,
      "▁hind": 7619,
      "▁teleph": 7620,
      "▁remained": 7621,
      "▁`s": 7622,
      "##.718": 7623,
      "▁recruiting": 7624,
      "##orm": 7625,
      "▁forty-": 7626,
      "▁prospects": 7627,
      "##cho": 7628,
      "▁horse": 7629,
      "▁rel": 7630,
      "▁justice": 7631,
      "▁04": 7632,
      "▁hok": 7633,
      "▁laundry": 7634,
      "##ortium": 7635,
      "▁pins": 7636,
      "##65": 7637,
      "▁ad": 7638,
      "##lac": 7639,
      "▁profits": 7640,
      "##rant": 7641,
      "▁customers": 7642,
      "▁718": 7643,
      "▁rolled": 7644,
      "▁jar": 7645,
      "▁airpl": 7646,
      "▁chef": 7647,
      "▁similarly": 7648,
      "▁bou": 7649,
      "▁curren": 7650,
      "▁importance": 7651,
      "▁smile": 7652,
      "▁adm": 7653,
      "▁silk": 7654,
      "▁grit": 7655,
      "▁yogurt": 7656,
      "▁crum": 7657,
      "▁colleges": 7658,
      "##-8031": 7659,
      "▁obligation": 7660,
      "##encer": 7661,
      "▁vacuum": 7662,
      "▁gen": 7663,
      "▁texas": 7664,
      "▁backed": 7665,
      "##ari": 7666,
      "##-50": 7667,
      "▁02/27/2001": 7668,
      "##ah": 7669,
      "▁gisb": 7670,
      "▁climbing": 7671,
      "▁dusty": 7672,
      "▁leonardo": 7673,
      "▁typical": 7674,
      "##.com/wikihow": 7675,
      "▁humor": 7676,
      "▁techn": 7677,
      "##.uk": 7678,
      "##reml": 7679,
      "▁fifty": 7680,
      "▁rene": 7681,
      "▁staircase": 7682,
      "▁pooh": 7683,
      "▁copied": 7684,
      "▁fox": 7685,
      "▁bab": 7686,
      "▁handed": 7687,
      "▁grace": 7688,
      "▁drunk": 7689,
      "▁comedie": 7690,
      "▁gonzales": 7691,
      "▁stillman": 7692,
      "▁river": 7693,
      "##rest": 7694,
      "▁stopping": 7695,
      "▁emperor": 7696,
      "▁malf": 7697,
      "▁1230": 7698,
      "▁drops": 7699,
      "▁entrep": 7700,
      "▁returns": 7701,
      "▁injust": 7702,
      "▁lease": 7703,
      "▁catalog": 7704,
      "▁autom": 7705,
      "▁rested": 7706,
      "▁ped": 7707,
      "▁candy": 7708,
      "▁mills": 7709,
      "▁1970": 7710,
      "##lest": 7711,
      "▁economies": 7712,
      "▁antiqu": 7713,
      "▁jurisd": 7714,
      "▁exclaim": 7715,
      "##ave": 7716,
      "##dging": 7717,
      "▁next": 7718,
      "▁arrangements": 7719,
      "☎": 7720,
      "▁dill": 7721,
      "▁limitation": 7722,
      "▁fine": 7723,
      "▁rot": 7724,
      "▁>----------------------------------------------------------------------------": 7725,
      "▁fabio": 7726,
      "##eo": 7727,
      "▁con": 7728,
      "▁proceed": 7729,
      "▁handle": 7730,
      "▁charge": 7731,
      "##anced": 7732,
      "▁fishing": 7733,
      "▁hed": 7734,
      "\\": 7735,
      "▁muggles": 7736,
      "▁fled": 7737,
      "##ansas": 7738,
      "▁offers": 7739,
      "##;": 7740,
      "▁geor": 7741,
      "##ores": 7742,
      "▁boring": 7743,
      "▁intact": 7744,
      "▁africa": 7745,
      "##onse": 7746,
      "##after": 7747,
      "▁wall": 7748,
      "▁show": 7749,
      "▁nasa": 7750,
      "▁shot": 7751,
      "▁instructor": 7752,
      "▁scrub": 7753,
      "▁ammunition": 7754,
      "##hee": 7755,
      "▁memoir": 7756,
      "▁bassiana": 7757,
      "▁meth": 7758,
      "▁violation": 7759,
      "##inger": 7760,
      "▁merchant": 7761,
      "▁congratulations": 7762,
      "##opular": 7763,
      "▁aside": 7764,
      "▁buzz": 7765,
      "▁percent": 7766,
      "▁informacion": 7767,
      "▁unload": 7768,
      "##/10/2000": 7769,
      "▁paid": 7770,
      "▁umbrella": 7771,
      "▁handsome": 7772,
      "▁vend": 7773,
      "▁till": 7774,
      "▁examine": 7775,
      "▁receive": 7776,
      "▁ted": 7777,
      "▁charles": 7778,
      "##port": 7779,
      "▁curse": 7780,
      "▁backward": 7781,
      "▁flights": 7782,
      "▁76": 7783,
      "▁form": 7784,
      "▁conceived": 7785,
      "▁comment": 7786,
      "▁newsp": 7787,
      "▁seattle": 7788,
      "##dred": 7789,
      "▁860": 7790,
      "▁boost": 7791,
      "▁discrim": 7792,
      "▁described": 7793,
      "▁ey": 7794,
      "##day": 7795,
      "▁veto": 7796,
      "##-991-90": 7797,
      "▁exactly": 7798,
      "▁come": 7799,
      "▁event": 7800,
      "▁fortune": 7801,
      "##822": 7802,
      "▁marilyn": 7803,
      "▁stories": 7804,
      "▁cy": 7805,
      "▁frozen": 7806,
      "##cp": 7807,
      "##y": 7808,
      "▁dans": 7809,
      "▁neighbors": 7810,
      "▁mm": 7811,
      "▁phillip": 7812,
      "▁memorable": 7813,
      "▁re": 7814,
      "##iss": 7815,
      "##zz": 7816,
      "▁sunken": 7817,
      "▁lim": 7818,
      "▁gone": 7819,
      "▁zip": 7820,
      "▁cir": 7821,
      "##ause": 7822,
      "▁gam": 7823,
      "##information": 7824,
      "▁genuine": 7825,
      "▁strain": 7826,
      "▁bowling": 7827,
      "▁shower": 7828,
      "##ark": 7829,
      "▁.xsl": 7830,
      "##mann": 7831,
      "▁presently": 7832,
      "##liers": 7833,
      "▁grid": 7834,
      "▁volunt": 7835,
      "##子": 7836,
      "##://": 7837,
      "▁alth": 7838,
      "▁princess": 7839,
      "▁income": 7840,
      "▁willow": 7841,
      "▁sufficient": 7842,
      "▁210": 7843,
      "##°": 7844,
      "▁elena": 7845,
      "##olyn": 7846,
      "▁luc": 7847,
      "▁liberal": 7848,
      "▁globe": 7849,
      "▁entire": 7850,
      "##奈": 7851,
      "▁noble": 7852,
      "▁eleven": 7853,
      "▁300,000": 7854,
      "▁wool": 7855,
      "▁gorbachev": 7856,
      "▁certific": 7857,
      "▁mant": 7858,
      "y": 7859,
      "▁cupcake": 7860,
      "▁pro": 7861,
      "▁set": 7862,
      "##ire": 7863,
      "▁obliged": 7864,
      "▁1968": 7865,
      "▁soldier": 7866,
      "▁after": 7867,
      "▁nights": 7868,
      "▁fabric": 7869,
      "▁casualties": 7870,
      "▁24,000": 7871,
      "▁0.00": 7872,
      "▁heather": 7873,
      "▁lesson": 7874,
      "##13.8": 7875,
      "▁harbor": 7876,
      "▁fuck": 7877,
      "▁____________________________________________________________": 7878,
      "…": 7879,
      "▁establishment": 7880,
      "▁sett": 7881,
      "▁resume": 7882,
      "▁neurol": 7883,
      "▁auckland": 7884,
      "▁barger": 7885,
      "▁anxious": 7886,
      "▁flew": 7887,
      "▁paragraph": 7888,
      "▁audience": 7889,
      "▁nz": 7890,
      "##16.718": 7891,
      "▁1594": 7892,
      "##,9": 7893,
      "▁totally": 7894,
      "##uter": 7895,
      "▁performed": 7896,
      "##box": 7897,
      "▁addresses": 7898,
      "▁liver": 7899,
      "##tica": 7900,
      "##lord": 7901,
      "▁himself": 7902,
      "##4/2001": 7903,
      "##me": 7904,
      "##edience": 7905,
      "▁disney": 7906,
      "▁planned": 7907,
      "▁exploring": 7908,
      "##elines": 7909,
      "##orough": 7910,
      "▁plaintiffs": 7911,
      "▁1952": 7912,
      "▁coll": 7913,
      "▁telephone": 7914,
      "▁forster@enron": 7915,
      "▁tabennese": 7916,
      "▁horn": 7917,
      "▁owns": 7918,
      "▁governmental": 7919,
      "▁mark": 7920,
      "##phere": 7921,
      "▁banjo": 7922,
      "▁needles": 7923,
      "▁cultures": 7924,
      "##zes": 7925,
      "▁soda": 7926,
      "##========": 7927,
      "##gam": 7928,
      "▁recording": 7929,
      "▁groom": 7930,
      "▁1584": 7931,
      "▁ghost": 7932,
      "▁scheduled": 7933,
      "▁tanks": 7934,
      "▁manag": 7935,
      "▁into": 7936,
      "##ages": 7937,
      "▁delivery": 7938,
      "▁witness": 7939,
      "##reen": 7940,
      "▁it's": 7941,
      "▁states": 7942,
      "##uf": 7943,
      "##erous": 7944,
      "▁afterwards": 7945,
      "##ings": 7946,
      "▁diseases": 7947,
      "▁coast": 7948,
      "▁chances": 7949,
      "▁perfect": 7950,
      "▁senators": 7951,
      "▁produc": 7952,
      "▁encouraged": 7953,
      "▁manufactur": 7954,
      "▁eyes": 7955,
      "##esa": 7956,
      "▁atop": 7957,
      "##ual": 7958,
      "▁ninety": 7959,
      "##ber": 7960,
      "▁sydney": 7961,
      "▁asked": 7962,
      "▁conference": 7963,
      "▁proposals": 7964,
      "▁closing": 7965,
      "##art": 7966,
      "##kee": 7967,
      "▁leonard": 7968,
      "ν": 7969,
      "##eenth": 7970,
      "▁realizing": 7971,
      "##uman": 7972,
      "▁remove": 7973,
      "[UNK]": 7974,
      "▁sold": 7975,
      "▁hosp": 7976,
      "▁180": 7977,
      "▁aims": 7978,
      "▁consc": 7979,
      "▁11:00": 7980,
      "##ivers": 7981,
      "▁airplane": 7982,
      "▁linda": 7983,
      "▁crib": 7984,
      "▁painful": 7985,
      "▁blocks": 7986,
      "▁ign": 7987,
      "##ack": 7988,
      "##ga": 7989,
      "▁pipeline": 7990,
      "▁8:30": 7991,
      "▁queries": 7992,
      "▁cosm": 7993,
      "▁skill": 7994,
      "##uffling": 7995,
      "▁mosc": 7996,
      "▁stink": 7997,
      "##soft": 7998,
      "▁communities": 7999,
      "▁voices": 8000,
      "▁adapted": 8001,
      "▁explains": 8002,
      "▁courtney": 8003,
      "▁deput": 8004,
      "▁ursula": 8005,
      "##brew": 8006,
      "▁ask": 8007,
      "▁pink": 8008,
      "▁middle": 8009,
      "▁spacetime": 8010,
      "▁lumin": 8011,
      "##ett": 8012,
      "##2-0": 8013,
      "##atia": 8014,
      "▁seventh": 8015,
      "##sh-e": 8016,
      "▁hold": 8017,
      "▁newly": 8018,
      "▁revers": 8019,
      "▁cuis": 8020,
      "▁ostr": 8021,
      "▁detail": 8022,
      "▁strictly": 8023,
      "▁diplomats": 8024,
      "##stone": 8025,
      "▁holoca": 8026,
      "##uded": 8027,
      "##rid": 8028,
      "▁acknowled": 8029,
      "▁hee": 8030,
      "▁jews": 8031,
      "▁midwest": 8032,
      "▁oval": 8033,
      "▁spit": 8034,
      "▁scrap": 8035,
      "▁commonplace": 8036,
      "##łodz": 8037,
      "▁hurried": 8038,
      "▁removed": 8039,
      "##issance": 8040,
      "▁gif": 8041,
      "##pper": 8042,
      "##itz": 8043,
      "▁haf": 8044,
      "▁jeans": 8045,
      "##med": 8046,
      "##hia": 8047,
      "▁weakened": 8048,
      "▁biological": 8049,
      "▁locations": 8050,
      "▁burn": 8051,
      "▁wal": 8052,
      "▁mariner": 8053,
      "▁comes": 8054,
      "▁serv": 8055,
      "▁conn": 8056,
      "▁transformation": 8057,
      "▁linked": 8058,
      "▁27": 8059,
      "▁desperately": 8060,
      "▁luther": 8061,
      "▁contracts": 8062,
      "##itely": 8063,
      "##iful": 8064,
      "▁unlimited": 8065,
      "▁wider": 8066,
      "▁destinations": 8067,
      "▁disappearance": 8068,
      "▁cold": 8069,
      "▁views": 8070,
      "▁poll": 8071,
      "##wn": 8072,
      "▁billing": 8073,
      "##il": 8074,
      "▁prof": 8075,
      "▁former": 8076,
      "##rop": 8077,
      "▁chute": 8078,
      "▁buttered": 8079,
      "▁emp": 8080,
      "▁maple": 8081,
      "▁pretending": 8082,
      "##with": 8083,
      "##care": 8084,
      "▁monumental": 8085,
      "▁policy": 8086,
      "##sey": 8087,
      "▁warming": 8088,
      "##=1": 8089,
      "##œ": 8090,
      "▁jean": 8091,
      "▁vod": 8092,
      "▁diag": 8093,
      "##ze": 8094,
      "##_de": 8095,
      "##itch": 8096,
      "##sa": 8097,
      "##bby": 8098,
      "##gely": 8099,
      "##ificent": 8100,
      "▁craft": 8101,
      "##roleum": 8102,
      "▁tim": 8103,
      "▁phys": 8104,
      "▁1,6": 8105,
      "▁bathtub": 8106,
      "##istic": 8107,
      "▁accomm": 8108,
      "▁institute": 8109,
      "▁aro": 8110,
      "▁mice": 8111,
      "▁intentions": 8112,
      "▁carl": 8113,
      "▁booking": 8114,
      "##ases": 8115,
      "▁fridays": 8116,
      "▁fish": 8117,
      "##vn": 8118,
      "▁investigate": 8119,
      "▁twa": 8120,
      "▁k": 8121,
      "##raid": 8122,
      "▁110": 8123,
      "▁rever": 8124,
      "▁sunshine": 8125,
      "▁1950": 8126,
      "##id": 8127,
      "▁referee": 8128,
      "▁packages": 8129,
      "▁taipe": 8130,
      "##ug": 8131,
      "▁farm": 8132,
      "##ming": 8133,
      "##arent": 8134,
      "▁189": 8135,
      "▁gdp": 8136,
      "▁281-435-0295": 8137,
      "▁self-": 8138,
      "▁!!!!": 8139,
      "##ollow": 8140,
      "▁bes": 8141,
      "▁avoid": 8142,
      "▁have": 8143,
      "▁essence": 8144,
      "▁depends": 8145,
      "##omin": 8146,
      "##…": 8147,
      "▁holly": 8148,
      "▁returning": 8149,
      "▁brightness": 8150,
      "▁vene": 8151,
      "▁1592": 8152,
      "▁book": 8153,
      "▁knee": 8154,
      "▁affect": 8155,
      "▁obtained": 8156,
      "▁3.1": 8157,
      "▁w": 8158,
      "▁impossible": 8159,
      "▁’d": 8160,
      "##,8": 8161,
      "##14": 8162,
      "##an@trans": 8163,
      "▁lid": 8164,
      "▁scream": 8165,
      "▁lou": 8166,
      "▁initially": 8167,
      "▁unfold": 8168,
      "##uary": 8169,
      "▁firefox": 8170,
      "▁lott": 8171,
      "##hr": 8172,
      "##iness": 8173,
      "▁ag": 8174,
      "▁nom": 8175,
      "▁fighting": 8176,
      "▁sag": 8177,
      "▁bro": 8178,
      "▁prob": 8179,
      "▁bath+room": 8180,
      "▁path": 8181,
      "▁sched": 8182,
      "▁reint": 8183,
      "▁separation": 8184,
      "▁scared": 8185,
      "▁sweater": 8186,
      "▁survive": 8187,
      "##ento": 8188,
      "▁photographer": 8189,
      "▁poland": 8190,
      "▁prevention": 8191,
      "##ny": 8192,
      "▁encounter": 8193,
      "▁through": 8194,
      "▁apar": 8195,
      "##??": 8196,
      "▁ebs": 8197,
      "##ater": 8198,
      "##ulk": 8199,
      "▁frustration": 8200,
      "▁ital": 8201,
      "▁compon": 8202,
      "▁supported": 8203,
      "##.09": 8204,
      "▁adoption": 8205,
      "▁elder": 8206,
      "▁rocky": 8207,
      "▁season": 8208,
      "##hood": 8209,
      "▁technique": 8210,
      "##report": 8211,
      "▁pitter": 8212,
      "▁obsession": 8213,
      "▁seam": 8214,
      "▁aging": 8215,
      "▁herm": 8216,
      "##ork": 8217,
      "##come": 8218,
      "##oca": 8219,
      "▁inland": 8220,
      "▁resumed": 8221,
      "▁eighty": 8222,
      "▁report": 8223,
      "▁lick": 8224,
      "##ints": 8225,
      "▁scattered": 8226,
      "##.clair@enron.com": 8227,
      "▁sil": 8228,
      "▁ig": 8229,
      "▁interstellar": 8230,
      "▁conditions": 8231,
      "▁manufact": 8232,
      "▁healing": 8233,
      "##tie": 8234,
      "▁discom": 8235,
      "▁east": 8236,
      "##hea": 8237,
      "▁joan": 8238,
      "▁measure": 8239,
      "##29": 8240,
      "##itt": 8241,
      "▁surgery": 8242,
      "▁steak": 8243,
      "▁fer": 8244,
      "▁limitations": 8245,
      "▁scent": 8246,
      "▁netherlands": 8247,
      "▁gib": 8248,
      "▁wishes": 8249,
      "▁grumbles": 8250,
      "##va": 8251,
      "##ongss": 8252,
      "▁evelyn": 8253,
      "##bard": 8254,
      "▁severe": 8255,
      "▁biting": 8256,
      "▁23rd": 8257,
      "▁industry": 8258,
      "▁sw": 8259,
      "▁lot": 8260,
      "▁abund": 8261,
      "##lier": 8262,
      "▁tran": 8263,
      "▁riverside": 8264,
      "▁sars": 8265,
      "▁n": 8266,
      "▁andrillae": 8267,
      "^": 8268,
      "▁managers": 8269,
      "ς": 8270,
      "▁ring": 8271,
      "▁sally": 8272,
      "##zo": 8273,
      "▁pine": 8274,
      "##ership": 8275,
      "▁5": 8276,
      "▁934": 8277,
      "▁probability": 8278,
      "▁reporter": 8279,
      "▁refrigerator": 8280,
      "##obiograph": 8281,
      "▁belongs": 8282,
      "▁6:30": 8283,
      "▁priv": 8284,
      "▁ackn": 8285,
      "##.xls": 8286,
      "##-84": 8287,
      "▁bce": 8288,
      "▁crop": 8289,
      "▁notwithstanding": 8290,
      "▁haha": 8291,
      "▁backup": 8292,
      "##four": 8293,
      "▁insist": 8294,
      "##(": 8295,
      "##ulous": 8296,
      "▁issue": 8297,
      "▁838": 8298,
      "▁1.75": 8299,
      "▁punchline": 8300,
      "<": 8301,
      "##1": 8302,
      "▁aged": 8303,
      "▁crush": 8304,
      "▁engaged": 8305,
      "▁bunn": 8306,
      "▁thri": 8307,
      "▁fee": 8308,
      "##rel": 8309,
      "▁nineteenth": 8310,
      "##ders": 8311,
      "▁pen": 8312,
      "▁forty-eight": 8313,
      "▁notions": 8314,
      "##worm": 8315,
      "##erald": 8316,
      "▁greenhouse": 8317,
      "▁bureaucr": 8318,
      "▁moussaoui": 8319,
      "▁don": 8320,
      "o": 8321,
      "▁bengal": 8322,
      "▁lyr": 8323,
      "▁cleaned": 8324,
      "▁waive": 8325,
      "▁166": 8326,
      "▁preval": 8327,
      "▁desperate": 8328,
      "▁memor": 8329,
      "##wet": 8330,
      "▁hurts": 8331,
      "▁product": 8332,
      "▁conquer": 8333,
      "##________": 8334,
      "▁sympt": 8335,
      "▁earliest": 8336,
      "▁others": 8337,
      "▁pack": 8338,
      "▁stir": 8339,
      "▁fright": 8340,
      "▁eol": 8341,
      "▁1222": 8342,
      "▁quix": 8343,
      "▁tut": 8344,
      "##emort": 8345,
      "▁musician": 8346,
      "▁1300": 8347,
      "▁paths": 8348,
      "##ounded": 8349,
      "▁construct": 8350,
      "▁sc": 8351,
      "▁branch": 8352,
      "##.4": 8353,
      "▁flowing": 8354,
      "▁titled": 8355,
      "▁national": 8356,
      "▁crime": 8357,
      "▁enterprise": 8358,
      "##kward": 8359,
      "▁game": 8360,
      "▁01/2": 8361,
      "▁workforce": 8362,
      "##etically": 8363,
      "▁many": 8364,
      "##ocity": 8365,
      "##000": 8366,
      "▁longer": 8367,
      "▁entrepreneurial": 8368,
      "##**********************************": 8369,
      "▁indians": 8370,
      "▁laden": 8371,
      "##:44": 8372,
      "▁hier": 8373,
      "▁experiments": 8374,
      "▁notified": 8375,
      "▁frederick": 8376,
      "##ml": 8377,
      "▁hors": 8378,
      "▁him": 8379,
      "▁wik": 8380,
      "▁paren": 8381,
      "▁1920": 8382,
      "▁217": 8383,
      "▁phill": 8384,
      "##friend": 8385,
      "▁bringing": 8386,
      "▁brothers": 8387,
      "▁ref": 8388,
      "##standing": 8389,
      "▁8:00": 8390,
      "▁goode": 8391,
      "▁bland": 8392,
      "▁commitment": 8393,
      "▁interview": 8394,
      "##cal": 8395,
      "##ister": 8396,
      "▁pa": 8397,
      "▁interval": 8398,
      "▁mike": 8399,
      "▁leigh": 8400,
      "▁770": 8401,
      "▁direct": 8402,
      "##dp": 8403,
      "▁expansion": 8404,
      "##well": 8405,
      "##asiness": 8406,
      "▁pass": 8407,
      "##chernobyl": 8408,
      "▁bomb": 8409,
      "##ard": 8410,
      "##ij": 8411,
      "▁photos": 8412,
      "##i-": 8413,
      "▁lock": 8414,
      "##berry": 8415,
      "▁pointing": 8416,
      "##engers": 8417,
      "▁unfortunate": 8418,
      "##ur": 8419,
      "▁check": 8420,
      "▁hence": 8421,
      "▁03/09/2000": 8422,
      "▁35": 8423,
      "▁rude": 8424,
      "▁bailey": 8425,
      "##isy": 8426,
      "▁man": 8427,
      "▁concert": 8428,
      "▁j.": 8429,
      "##esty": 8430,
      "▁rag": 8431,
      "▁chest": 8432,
      "▁theory": 8433,
      "▁800": 8434,
      "##bug": 8435,
      "▁should": 8436,
      "▁1774": 8437,
      "##view": 8438,
      "▁oath": 8439,
      "▁ple": 8440,
      "▁dud": 8441,
      "##fr": 8442,
      "▁thoughts": 8443,
      "▁demonstrates": 8444,
      "▁veins": 8445,
      "▁transwestern": 8446,
      "▁chicago": 8447,
      "▁richard": 8448,
      "▁frontier": 8449,
      "▁caul": 8450,
      "u": 8451,
      "▁alice": 8452,
      "##22": 8453,
      "▁progressive": 8454,
      "▁sadr": 8455,
      "▁reaches": 8456,
      "▁selected": 8457,
      "▁invented": 8458,
      "▁attempts": 8459,
      "▁festivals": 8460,
      "▁asyl": 8461,
      "▁jump": 8462,
      "##ripts": 8463,
      "▁procrast": 8464,
      "▁squirt": 8465,
      "##per": 8466,
      "▁nin": 8467,
      "▁race": 8468,
      "▁yorkshire": 8469,
      "##erving": 8470,
      "▁securing": 8471,
      "▁dual": 8472,
      "▁cat": 8473,
      "▁b/": 8474,
      "▁interconn": 8475,
      "▁gramm": 8476,
      "▁cheeks": 8477,
      "▁concern": 8478,
      "##ictions": 8479,
      "▁cav": 8480,
      "▁pret": 8481,
      "▁der": 8482,
      "▁film": 8483,
      "▁so": 8484,
      "▁comb": 8485,
      "▁pirates": 8486,
      "▁substit": 8487,
      "▁politically": 8488,
      "##roy": 8489,
      "##inson": 8490,
      "▁beau": 8491,
      "▁bruce": 8492,
      "▁castle": 8493,
      "▁relent": 8494,
      "▁brenner": 8495,
      "##ret": 8496,
      "##ants": 8497,
      "▁sandra": 8498,
      "▁viewing": 8499,
      "▁nationality": 8500,
      "▁going": 8501,
      "▁b": 8502,
      "##yan": 8503,
      "▁dream": 8504,
      "##umbled": 8505,
      "##mas": 8506,
      "▁bel": 8507,
      "▁peanut": 8508,
      "##.99": 8509,
      "▁!!!!!!!!!!": 8510,
      "##-ch": 8511,
      "##tery": 8512,
      "▁ski": 8513,
      "▁audio": 8514,
      "▁exped": 8515,
      "##dt": 8516,
      "##vet": 8517,
      "##18": 8518,
      "▁iii": 8519,
      "▁penc": 8520,
      "▁soot": 8521,
      "▁cooked": 8522,
      "##oud": 8523,
      "▁truly": 8524,
      "▁guerrillas": 8525,
      "##att": 8526,
      "##ests": 8527,
      "▁bu": 8528,
      "##ense": 8529,
      "▁reflected": 8530,
      "▁strengthening": 8531,
      "##nasse": 8532,
      "##45": 8533,
      "▁unn": 8534,
      "▁scope": 8535,
      "▁preparation": 8536,
      "##:19": 8537,
      "##????????????????": 8538,
      "▁king": 8539,
      "▁financially": 8540,
      "▁millions": 8541,
      "▁thirty-": 8542,
      "▁revenues": 8543,
      "▁legisl": 8544,
      "▁cocktail": 8545,
      "▁merely": 8546,
      "▁scoring": 8547,
      "▁trial": 8548,
      "▁tot": 8549,
      "##0072": 8550,
      "▁indic": 8551,
      "▁two": 8552,
      "▁protected": 8553,
      "▁1928": 8554,
      "##ption": 8555,
      "▁t-": 8556,
      "##-10": 8557,
      "▁contents": 8558,
      "▁1820": 8559,
      "▁fares": 8560,
      "▁coo": 8561,
      "▁guilt": 8562,
      "##terior": 8563,
      "▁schemes": 8564,
      "##o-": 8565,
      "▁caucas": 8566,
      "▁rapidly": 8567,
      "▁preserve": 8568,
      "▁establishing": 8569,
      "▁wealthy": 8570,
      "##ellar": 8571,
      "▁thursday": 8572,
      "▁dis": 8573,
      "##ect": 8574,
      "▁split": 8575,
      "▁prevail": 8576,
      "▁smart": 8577,
      "▁consciousness": 8578,
      "▁worn": 8579,
      "▁controversial": 8580,
      "▁gle": 8581,
      "▁-----------------------------------------------------------------": 8582,
      "7": 8583,
      "▁dh": 8584,
      "▁manuela": 8585,
      "▁cabinet": 8586,
      "##stein": 8587,
      "▁mangal": 8588,
      "▁lor": 8589,
      "▁murderer": 8590,
      "▁laughs": 8591,
      "▁arkansas": 8592,
      "▁gm": 8593,
      "▁28,000": 8594,
      "▁toast": 8595,
      "▁gallon": 8596,
      "▁olmec": 8597,
      "▁gri": 8598,
      "▁ian": 8599,
      "▁way": 8600,
      "##oven": 8601,
      "##031": 8602,
      "▁second": 8603,
      "▁arvn": 8604,
      "▁ferc": 8605,
      "▁mill": 8606,
      "▁sara": 8607,
      "▁warned": 8608,
      "▁genius": 8609,
      "▁liberty": 8610,
      "▁was": 8611,
      "▁poverty": 8612,
      "▁elimin": 8613,
      "##.61": 8614,
      "▁240": 8615,
      "▁territories": 8616,
      "▁charitable": 8617,
      "▁preferences": 8618,
      "▁listing": 8619,
      "▁bludgers": 8620,
      "▁restaurants": 8621,
      "##ang": 8622,
      "▁mosquitoes": 8623,
      "▁soft": 8624,
      "▁expecting": 8625,
      "##igrew": 8626,
      "▁agent": 8627,
      "##ographic": 8628,
      "▁connection": 8629,
      "▁baggage": 8630,
      "▁strolled": 8631,
      "▁aftermath": 8632,
      "▁million": 8633,
      "▁clan": 8634,
      "▁adv": 8635,
      "##51": 8636,
      "##gom": 8637,
      "##ishment": 8638,
      "##esque": 8639,
      "▁uhh": 8640,
      "▁drain": 8641,
      "##gest": 8642,
      "##umber": 8643,
      "▁alliance": 8644,
      "##.co.uk": 8645,
      "▁filed": 8646,
      "▁wi": 8647,
      "▁partly": 8648,
      "j": 8649,
      "▁clear": 8650,
      "▁needed": 8651,
      "▁arafat": 8652,
      "##74": 8653,
      "▁operation": 8654,
      "▁evidence": 8655,
      "▁hor": 8656,
      "▁jih": 8657,
      "##plus": 8658,
      "▁peace": 8659,
      "▁lonely": 8660,
      "▁landscape": 8661,
      "▁significantly": 8662,
      "▁image": 8663,
      "##rent": 8664,
      "▁girlfriend": 8665,
      "▁figures": 8666,
      "▁ip": 8667,
      "▁career": 8668,
      "▁revealed": 8669,
      "▁separate": 8670,
      "▁pear": 8671,
      "▁shif": 8672,
      "▁martyrs": 8673,
      "▁mommy": 8674,
      "▁lig": 8675,
      "▁engels": 8676,
      "▁mcdonald": 8677,
      "▁ecs": 8678,
      "##ł": 8679,
      "##bond": 8680,
      "▁expenses": 8681,
      "##ancing": 8682,
      "▁select": 8683,
      "▁glo": 8684,
      "▁mel": 8685,
      "##======": 8686,
      "▁glowing": 8687,
      "▁yea": 8688,
      "▁lipsticks": 8689,
      "##how": 8690,
      "▁though": 8691,
      "▁stup": 8692,
      "▁utah": 8693,
      "##α": 8694,
      "▁1-8": 8695,
[...]
