{
  "version": "1.0",
  "truncation": null,
  "padding": null,
  "added_tokens": [
    {
      "id": 1495,
      "content": "[CLS]",
      "single_word": false,
      "lstrip": false,
      "rstrip": false,
      "normalized": false,
      "special": true
    },
    {
      "id": 2762,
      "content": "[MASK]",
      "single_word": false,
      "lstrip": false,
      "rstrip": false,
      "normalized": false,
      "special": true
    },
    {
      "id": 5645,
      "content": "[PAD]",
      "single_word": false,
      "lstrip": false,
      "rstrip": false,
      "normalized": false,
      "special": true
    },
    {
      "id": 6045,
      "content": "[UNK]",
      "single_word": false,
      "lstrip": false,
      "rstrip": false,
      "normalized": false,
      "special": true
    },
    {
      "id": 7928,
      "content": "[SEP]",
      "single_word": false,
      "lstrip": false,
      "rstrip": false,
      "normalized": false,
      "special": true
    }
  ],
  "normalizer": {
    "type": "Sequence",
    "normalizers": [
      {
        "type": "NFD"
      },
      {
        "type": "Lowercase"
      },
      {
        "type": "StripAccents"
      }
    ]
  },
  "pre_tokenizer": {
    "type": "Sequence",
    "pretokenizers": [
      {
        "type": "Metaspace",
        "replacement": "▁",
        "prepend_scheme": "always",
        "split": true
      }
    ]
  },
  "post_processor": {
    "type": "TemplateProcessing",
    "single": [
      {
        "SpecialToken": {
          "id": "[CLS]",
          "type_id": 0
        }
      },
      {
        "Sequence": {
          "id": "A",
          "type_id": 0
        }
      },
      {
        "SpecialToken": {
          "id": "[SEP]",
          "type_id": 0
        }
      }
    ],
    "pair": [
      {
        "SpecialToken": {
          "id": "[CLS]",
          "type_id": 0
        }
      },
      {
        "Sequence": {
          "id": "A",
          "type_id": 0
        }
      },
      {
        "SpecialToken": {
          "id": "[SEP]",
          "type_id": 0
        }
      },
      {
        "Sequence": {
          "id": "B",
          "type_id": 1
        }
      },
      {
        "SpecialToken": {
          "id": "[SEP]",
          "type_id": 1
        }
      }
    ],
    "special_tokens": {
      "[CLS]": {
        "id": "[CLS]",
        "ids": [
          1495
        ],
        "tokens": [
          "[CLS]"
        ]
      },
      "[SEP]": {
        "id": "[SEP]",
        "ids": [
          7928
        ],
        "tokens": [
          "[SEP]"
        ]
      }
    }
  },
  "decoder": {
    "type": "Metaspace",
    "replacement": "▁",
    "prepend_scheme": "always",
    "split": true
  },
  "model": {
    "type": "Unigram",
    "unk_id": 6045,
    "vocab": [
      [
        "▁shed",
        -10.338589670652677
      ],
      [
        "▁and",
        -10.843541831848249
      ],
      [
        "▁legislature",
        -10.698920082361969
      ],
      [
        "▁spani",
        -9.835388413342354
      ],
      [
        "one",
        -7.505439725207756
      ],
      [
        "eral",
        -11.845563440408633
      ],
      [
        "▁124",
        -12.957445890925836
      ],
      [
        "▁post",
        -8.21368532157217
      ],
      [
        "ed",
        -3.9099723365377272
      ],
      [
        ".net",
        -9.80846492820864
      ],
      [
        "▁peel",
        -10.792317086096173
      ],
      [
        "▁effective",
        -9.175270313222226
      ],
      [
        "▁al",
        -5.883539490107041
      ],
      [
        "▁per",
        -7.651239297079777
      ],
      [
        "▁li",
        -12.400345616303753
      ],
      [
        "▁conscious",
        -9.77696837891372
      ],
      [
        "▁pad",
        -9.751500756020015
      ],
      [
        "▁fabric",
        -10.782230009007378
      ],
      [
        "▁sin",
        -10.268003290543396
      ],
      [
        "▁flavor",
        -9.683897521339254
      ],
      [
        "▁pm",
        -7.046624845514733
      ],
      [
        "▁elaborate",
        -10.973139097793489
      ],
      [
        "▁frequenc",
        -10.973139122380898
      ],
      [
        "▁76",
        -11.534173471198564
      ],
      [
        "▁occurr",
        -9.776968278096408
      ],
      [
        "▁5",
        -8.813230402229319
      ],
      [
        "▁j",
        -7.754156936974304
      ],
      [
        "line",
        -9.413211024688355
      ],
      [
        "8011",
        -13.265494279497794
      ],
      [
        "▁railway",
        -10.78259210052808
      ],
      [
        "▁alre",
        -7.660596022457105
      ],
      [
        "583",
        -14.127899028574245
      ],
      [
        "▁mom",
        -7.819081400025759
      ],
      [
        "▁production",
        -9.580345379370915
      ],
      [
        "ish",
        -8.23995531956783
      ],
      [
        "▁launch",
        -9.208678384082257
      ],
      [
        "▁lifestyle",
        -10.973140972294438
      ],
      [
        "▁300",
        -10.870247792781871
      ],
      [
        "▁unique",
        -9.385421554095007
      ],
      [
        "▁bunn",
        -9.45496783020425
      ],
      [
        "▁low",
        -8.654194471717037
      ],
      [
        "▁fifty",
        -10.236686281632453
      ],
      [
        "_____",
        -12.7106387805992
      ],
      [
        "▁twa",
        -9.31546027163797
      ],
      [
        "▁dimension",
        -10.621973686626875
      ],
      [
        "▁criteri",
        -10.550571235774022
      ],
      [
        "ek",
        -12.70059248770749
      ],
      [
        "▁cutting",
        -9.718855201826862
      ],
      [
        "▁negotiation",
        -10.205352931878844
      ],
      [
        "▁win",
        -9.546417672640114
      ],
      [
        "▁invent",
        -10.202104857930625
      ],
      [
        "life",
        -10.943993183330058
      ],
      [
        "858",
        -14.142649939049774
      ],
      [
        "▁3",
        -8.585018104094017
      ],
      [
        "▁02:2",
        -13.25195685742674
      ],
      [
        "▁cha",
        -11.250268752536995
      ],
      [
        "▁video",
        -8.708548482727391
      ],
      [
        "▁22,",
        -14.13564255438126
      ],
      [
        "▁event",
        -8.288376792463676
      ],
      [
        "▁wind",
        -9.041806547572808
      ],
      [
        "▁infect",
        -10.69789289619604
      ],
      [
        "▁12.4",
        -12.675189927992927
      ],
      [
        "?????????????",
        -12.71603858496709
      ],
      [
        "▁gam",
        -10.54330296832061
      ],
      [
        "unic",
        -14.169007212126958
      ],
      [
        "▁am",
        -9.866600663869718
      ],
      [
        "▁4.",
        -14.174409290499899
      ],
      [
        "▁web",
        -8.707674925952503
      ],
      [
        "▁mass",
        -9.275943492125531
      ],
      [
        "▁sap",
        -11.09131312668061
      ],
      [
        "fid",
        -12.179832456372521
      ],
      [
        "ada",
        -9.230859282777807
      ],
      [
        "▁award",
        -9.386453371563798
      ],
      [
        "g&",
        -11.096875282320301
      ],
      [
        "832",
        -13.25468514613769
      ],
      [
        "ua",
        -9.500032956693179
      ],
      [
        "yo",
        -12.980137273398649
      ],
      [
        "mo",
        -11.05508503396024
      ],
      [
        "▁relevan",
        -9.665040727552835
      ],
      [
        "▁clinic",
        -10.370075657248501
      ],
      [
        "▁fifteen",
        -10.550682654688677
      ],
      [
        "▁plate",
        -9.42978862977814
      ],
      [
        "seven",
        -11.950148330680463
      ],
      [
        "burn",
        -10.86871051009459
      ],
      [
        "▁wear",
        -8.274042707586668
      ],
      [
        "nver",
        -6.4505950741997635
      ],
      [
        "▁keep",
        -7.455030079453249
      ],
      [
        "net",
        -10.00313213250049
      ],
      [
        "27",
        -10.991960113745264
      ],
      [
        "▁internal",
        -10.026183894072787
      ],
      [
        "▁operate",
        -10.704235954051942
      ],
      [
        "0072",
        -13.439753158054558
      ],
      [
        "ura",
        -10.534559506215393
      ],
      [
        "▁dong",
        -11.004985380303683
      ],
      [
        "▁local",
        -8.272617127562505
      ],
      [
        "▁israel",
        -8.826317731794024
      ],
      [
        "▁intention",
        -10.255178754485943
      ],
      [
        "▁ten",
        -9.875351497645157
      ],
      [
        "▁nonsens",
        -11.084266166044502
      ],
      [
        "57",
        -11.891159420239507
      ],
      [
        "▁inc",
        -9.08541703512168
      ],
      [
        "▁feeling",
        -9.010242694322397
      ],
      [
        "69",
        -11.839517049892248
      ],
      [
        "ns",
        -12.598912361396305
      ],
      [
        "▁fever",
        -10.436682111850317
      ],
      [
        "▁c",
        -7.001118939860497
      ],
      [
        "▁disappoint",
        -10.306302219207758
      ],
      [
        "cus",
        -14.750903904043147
      ],
      [
        "▁annex",
        -11.08874485218461
      ],
      [
        "0,000",
        -10.195250905356877
      ],
      [
        "▁recipient",
        -10.067815841254962
      ],
      [
        "▁wash",
        -8.8186276693769
      ],
      [
        "▁bla",
        -10.66547882595629
      ],
      [
        "澹",
        -12.833785825435129
      ],
      [
        "▁expert",
        -9.13890369569092
      ],
      [
        "1/2",
        -11.189346582601061
      ],
      [
        "▁random",
        -10.782424371423929
      ],
      [
        "▁s.",
        -10.629615480501327
      ],
      [
        "▁06/01/200",
        -12.339716654186573
      ],
      [
        "▁intelligent",
        -11.20925020890288
      ],
      [
        "▁marx",
        -10.485231116177626
      ],
      [
        "-",
        -6.6558495924259145
      ],
      [
        "▁bobb",
        -11.050338377718365
      ],
      [
        "▁abe",
        -8.32297401654299
      ],
      [
        "▁http://",
        -9.4520909100886
      ],
      [
        "▁hit",
        -7.964894790564406
      ],
      [
        "▁invi",
        -10.6974386588658
      ],
      [
        "▁right",
        -6.270653959419714
      ],
      [
        "mine",
        -11.79533885365613
      ],
      [
        "▁leaders",
        -9.262508924031085
      ],
      [
        "ridge",
        -10.625448970823681
      ],
      [
        "▁hedge",
        -10.698928098408363
      ],
      [
        "84",
        -12.264908599423453
      ],
      [
        "▁earth",
        -8.64532043558489
      ],
      [
        "▁fi",
        -12.276772853692052
      ],
      [
        "▁little",
        -6.756416918978919
      ],
      [
        "▁devote",
        -10.427830082543995
      ],
      [
        "ck",
        -11.501990416744686
      ],
      [
        "▁isda",
        -10.424876960385172
      ],
      [
        "▁bit",
        -7.810951364632925
      ],
      [
        "85",
        -12.218760611373044
      ],
      [
        "wikipedia",
        -11.084252198310033
      ],
      [
        "30",
        -9.658731711958618
      ],
      [
        ".htm",
        -10.360523915528816
      ],
      [
        "rising",
        -9.814152427969711
      ],
      [
        "▁yea",
        -6.460565176963068
      ],
      [
        "▁play+grou",
        -10.873821088501428
      ],
      [
        "een",
        -10.053247329201625
      ],
      [
        "er",
        -8.73873720195392
      ],
      [
        "vi",
        -13.271633197609209
      ],
      [
        "483",
        -13.516001727325241
      ],
      [
        "▁plaintiff",
        -10.782253669719442
      ],
      [
        "tra",
        -11.286326700046635
      ],
      [
        "▁erase",
        -10.996810911656796
      ],
      [
        ".99",
        -13.829769440686343
      ],
      [
        "▁incubat",
        -11.084305446558652
      ],
      [
        "▁go",
        -11.944803889857337
      ],
      [
        "ce",
        -6.707250711934617
      ],
      [
        "▁wagon",
        -10.700438899651251
      ],
      [
        "▁trend",
        -10.254525871019972
      ],
      [
        "▁act",
        -8.345860179927508
      ],
      [
        "3-16",
        -14.136905767427562
      ],
      [
        "thr",
        -11.182826915678534
      ],
      [
        ".78",
        -14.47481841691544
      ],
      [
        "▁12:4",
        -13.516124200810152
      ],
      [
        "▁soon",
        -8.322823599925718
      ],
      [
        "▁163",
        -12.509491590173866
      ],
      [
        "▁no-",
        -13.47376073561761
      ],
      [
        "mul",
        -11.833896043499934
      ],
      [
        "ext",
        -7.649550094451109
      ],
      [
        "▁charge",
        -8.54806971049041
      ],
      [
        "▁clause",
        -10.634656630255527
      ],
      [
        "02",
        -11.000492439779539
      ],
      [
        "▁uk",
        -9.796629383737784
      ],
      [
        "▁representation",
        -10.311150562286752
      ],
      [
        "shal",
        -11.894227517962465
      ],
      [
        "50",
        -10.090879082816057
      ],
      [
        "orrow",
        -8.115700336615571
      ],
      [
        "▁virtual",
        -10.362554844554719
      ],
      [
        "quino",
        -10.505480623860873
      ],
      [
        "▁02:4",
        -13.19370597151417
      ],
      [
        "when",
        -10.093911075754406
      ],
      [
        "▁quot",
        -11.012410731660072
      ],
      [
        "▁los",
        -7.763301937634287
      ],
      [
        "0000",
        -13.705120895521137
      ],
      [
        "▁asian",
        -10.12307226087226
      ],
      [
        "▁productive",
        -11.013172743341498
      ],
      [
        "▁713-654-",
        -12.338945399348273
      ],
      [
        "▁ad",
        -13.069983555914995
      ],
      [
        "▁pressure",
        -9.627669301113205
      ],
      [
        "their",
        -9.446301580601954
      ],
      [
        "▁write",
        -7.835614184940715
      ],
      [
        "▁youth",
        -10.362876922292854
      ],
      [
        "7:3",
        -13.59615174620778
      ],
      [
        "▁sock",
        -10.628883240796343
      ],
      [
        "uck",
        -10.257283761250696
      ],
      [
        "11-",
        -13.161902737639597
      ],
      [
        "▁port",
        -9.120980125631112
      ],
      [
        "▁mistake",
        -9.40717504513859
      ],
      [
        "▁rinse",
        -10.782767716487317
      ],
      [
        "truck",
        -10.351035891065324
      ],
      [
        "▁panel",
        -10.363738447183305
      ],
      [
        "▁wou",
        -13.229284662502392
      ],
      [
        "▁consist",
        -10.254514990933082
      ],
      [
        "▁boxe",
        -9.929398466386692
      ],
      [
        "▁min",
        -12.218398821156091
      ],
      [
        "3.8",
        -12.702689943172382
      ],
      [
        "rio",
        -11.368284490750389
      ],
      [
        "193",
        -14.38386731268611
      ],
      [
        "▁rush",
        -10.111933897292074
      ],
      [
        "▁saddam",
        -10.111302390269547
      ],
      [
        "▁situat",
        -11.208460947332666
      ],
      [
        "▁cake",
        -9.157675138773254
      ],
      [
        "▁repeated",
        -9.928620188757991
      ],
      [
        "▁gym",
        -10.068078908405791
      ],
      [
        "nata",
        -10.789670591084066
      ],
      [
        "▁popular",
        -9.124669048485398
      ],
      [
        "nca",
        -12.403582309077763
      ],
      [
        "▁silkie",
        -10.635416506247132
      ],
      [
        "more",
        -6.852969888899753
      ],
      [
        "▁drag",
        -10.77971198718258
      ],
      [
        "ottie",
        -11.203777375557895
      ],
      [
        "print",
        -10.673588507722767
      ],
      [
        "ound",
        -10.239940844336504
      ],
      [
        "iji",
        -11.001225357799534
      ],
      [
        "▁dead",
        -8.511929414312135
      ],
      [
        "▁fake",
        -10.62221587017501
      ],
      [
        "▁xv",
        -13.162449918911665
      ],
      [
        "▁hid",
        -9.837729331349369
      ],
      [
        "▁struggle",
        -10.193871526927166
      ],
      [
        "194",
        -14.45571447231612
      ],
      [
        "▁interact",
        -10.507899277201977
      ],
      [
        "presentation",
        -10.506606720923452
      ],
      [
        "▁sleep",
        -8.101267159867184
      ],
      [
        "tangle",
        -11.08437780800704
      ],
      [
        "pover",
        -10.107722259940449
      ],
      [
        "tu",
        -11.618331073044228
      ],
      [
        "▁permit",
        -10.538948456232369
      ],
      [
        "▁fil",
        -10.3999925728365
      ],
      [
        "al",
        -9.879150985532643
      ],
      [
        "▁protect",
        -8.899782816520466
      ],
      [
        "▁revolution",
        -9.88044153998165
      ],
      [
        "ig",
        -9.772597130105794
      ],
      [
        "▁spring",
        -9.32533119850187
      ],
      [
        "▁sleeve",
        -10.306999996939576
      ],
      [
        "8,8",
        -13.136802463436528
      ],
      [
        "▁marine",
        -10.335232068725157
      ],
      [
        "▁concentrate",
        -10.972435086980399
      ],
      [
        "▁brass",
        -10.882739485267997
      ],
      [
        "er",
        -10.869329306103351
      ],
      [
        "▁lime",
        -10.363357443698016
      ],
      [
        "y",
        -5.310532547169549
      ],
      [
        "▁scann",
        -11.093382694906582
      ],
      [
        "▁code",
        -8.641263454512213
      ],
      [
        "▁transition",
        -10.307949856833767
      ],
      [
        "▁know",
        -5.7441817362972625
      ],
      [
        "ev",
        -9.873346847116805
      ],
      [
        "u",
        -7.139613557669702
      ],
      [
        "▁committe",
        -10.308668485151847
      ],
      [
        "▁amid",
        -11.533324385705862
      ],
      [
        "lo",
        -9.686887479395796
      ],
      [
        "▁wednesday",
        -7.519443471921703
      ],
      [
        "▁copy",
        -8.863153176486648
      ],
      [
        "▁manipulat",
        -10.621979844381222
      ],
      [
        "immigration",
        -10.25436769463617
      ],
      [
        "▁reserve",
        -9.264064336902718
      ],
      [
        "▁still",
        -7.114101251391491
      ],
      [
        "▁team",
        -8.434061617845794
      ],
      [
        "▁m.",
        -10.114025076790021
      ],
      [
        "▁straight",
        -9.190638234466917
      ],
      [
        "▁politic",
        -10.302718565225753
      ],
      [
        "hich",
        -14.237104677914536
      ],
      [
        "www",
        -7.609954759208668
      ],
      [
        "isation",
        -10.367091781794418
      ],
      [
        "▁cha",
        -9.83474512130551
      ],
      [
        "▁notice",
        -8.576804992108414
      ],
      [
        "bert",
        -10.242654352680248
      ],
      [
        "▁200,",
        -14.14712352768953
      ],
      [
        "ant",
        -12.35508495949109
      ],
      [
        "▁abo",
        -9.942026802887208
      ],
      [
        "▁713/8",
        -14.340536229756822
      ],
      [
        "▁destroy",
        -9.683897589894258
      ],
      [
        "▁114",
        -13.672578331648024
      ],
      [
        "if",
        -10.983017135113453
      ],
      [
        "▁acro",
        -10.689507265366785
      ],
      [
        "up",
        -9.571776430989441
      ],
      [
        "▁quarter",
        -9.81708088388471
      ],
      [
        "▁de",
        -13.02013865677002
      ],
      [
        "4-",
        -13.552675663638237
      ],
      [
        "▁nam",
        -10.715254853365963
      ],
      [
        "h",
        -9.117748607228467
      ],
      [
        "▁major",
        -8.370324619599955
      ],
      [
        "▁dab",
        -10.902979590423204
      ],
      [
        "▁laundr",
        -10.42137876648194
      ],
      [
        "▁pl",
        -10.286805097221208
      ],
      [
        "▁morning",
        -6.9817030623203244
      ],
      [
        "▁alexand",
        -11.185491854750431
      ],
      [
        "▁gray",
        -10.178894564130413
      ],
      [
        "▁loss",
        -10.018440900185789
      ],
      [
        "▁wal",
        -10.271796404305537
      ],
      [
        "▁log",
        -10.08206878732548
      ],
      [
        "▁brand",
        -10.261122783878198
      ],
      [
        "och",
        -10.365450393427368
      ],
      [
        "▁cope",
        -11.00506652439455
      ],
      [
        "▁middle",
        -8.475625066981417
      ],
      [
        "▁ma",
        -10.677501707364895
      ],
      [
        "▁franc",
        -9.407964931714847
      ],
      [
        "▁browser",
        -10.362555224308817
      ],
      [
        "▁lit",
        -10.449367339077524
      ],
      [
        "▁militar",
        -8.459025526855871
      ],
      [
        "▁guitar",
        -11.08425207516053
      ],
      [
        "▁collection",
        -9.656853409245846
      ],
      [
        "▁3-5",
        -14.178510138455286
      ],
      [
        "▁scent",
        -10.785406109721967
      ],
      [
        "body",
        -10.179364759477298
      ],
      [
        "▁historical",
        -9.69079308828038
      ],
      [
        "▁sut",
        -11.019368493883382
      ],
      [
        "▁revise",
        -10.156753188198486
      ],
      [
        "▁bon",
        -11.44154234529399
      ],
      [
        "▁partial",
        -10.981810534576992
      ],
      [
        "▁73",
        -12.691161218511667
      ],
      [
        "ix",
        -12.696653061457788
      ],
      [
        "ether",
        -7.940213336792466
      ],
      [
        "▁43",
        -12.118601240506226
      ],
      [
        "▁grandmother",
        -9.226677100744084
      ],
      [
        "▁economic",
        -8.452623553565067
      ],
      [
        "▁abou",
        -6.522750562308343
      ],
      [
        "▁iso",
        -10.295115650840907
      ],
      [
        "▁mean",
        -6.91240497839214
      ],
      [
        "chene",
        -11.13974037262285
      ],
      [
        "lump",
        -10.898721281335666
      ],
      [
        "▁ital",
        -9.875697668932332
      ],
      [
        "is",
        -7.522896626817521
      ],
      [
        "▁twirl",
        -11.085729714778335
      ],
      [
        "nt",
        -15.500372919647573
      ],
      [
        "▁architect",
        -10.96838616691122
      ],
      [
        "ex",
        -9.281783810318018
      ],
      [
        "▁share",
        -8.799696603581921
      ],
      [
        "▁vintage",
        -10.873144820074906
      ],
      [
        "▁chick",
        -10.893145825371228
      ],
      [
        "ine",
        -9.24255656706951
      ],
      [
        "▁lu",
        -11.835344235695308
      ],
      [
        "▁initiative",
        -9.84099475373919
      ],
      [
        "▁sentiment",
        -11.084262694515118
      ],
      [
        "▁comb",
        -10.372946331290741
      ],
      [
        "▁melanie",
        -10.873139982195664
      ],
      [
        "!!!!!!!!!!!!!!!!",
        -11.406486109637537
      ],
      [
        "▁revenue",
        -9.947753609610423
      ],
      [
        "age",
        -11.003488229021976
      ],
      [
        "▁march",
        -8.742655882322797
      ],
      [
        "▁forecast",
        -11.084301800983066
      ],
      [
        "ification",
        -9.80287009699273
      ],
      [
        "▁hum",
        -9.940930220010681
      ],
      [
        "▁importan",
        -10.282433620549224
      ],
      [
        "ar",
        -8.96739030467699
      ],
      [
        "ris",
        -10.491595483652752
      ],
      [
        "▁commun",
        -11.030934135768177
      ],
      [
        "▁cross-",
        -10.823791946579682
      ],
      [
        "▁favor",
        -10.218145956383687
      ],
      [
        "▁skirt",
        -10.550582358574758
      ],
      [
        "▁lope",
        -9.840881221715948
      ],
      [
        "▁j",
        -10.937809915570798
      ],
      [
        "▁orientation",
        -10.97487353961395
      ],
      [
        "720",
        -13.183827365458086
      ],
      [
        "▁approximate",
        -9.988716370749165
      ],
      [
        "top",
        -10.27891227166043
      ],
      [
        "▁1.0",
        -13.891586422040152
      ],
      [
        "ivo",
        -10.916121020340515
      ],
      [
        "▁unl",
        -9.680113489348734
      ],
      [
        "aden",
        -11.835808419303513
      ],
      [
        "▁exten",
        -9.764618087497988
      ],
      [
        "van",
        -10.504208816453044
      ],
      [
        "▁sc",
        -12.508886063818235
      ],
      [
        "▁tiger",
        -9.245198975223296
      ],
      [
        "▁vi",
        -11.090089463635374
      ],
      [
        "▁weekend",
        -9.043186274808786
      ],
      [
        "▁wink",
        -10.311075316492127
      ],
      [
        "▁admir",
        -10.254499118101068
      ],
      [
        "▁pest",
        -11.0932835540957
      ],
      [
        "▁franco",
        -11.101711939672366
      ],
      [
        "hat",
        -7.3915594095763515
      ],
      [
        "▁boost",
        -10.555594823568532
      ],
      [
        "<",
        -7.273053706688606
      ],
      [
        "▁learn",
        -7.88042129122728
      ],
      [
        "clusive",
        -11.119254990182814
      ],
      [
        "▁b",
        -7.155592931822902
      ],
      [
        "▁robot",
        -9.711791175242558
      ],
      [
        "▁expose",
        -10.904598698611846
      ],
      [
        "▁baba",
        -10.894556038690567
      ],
      [
        "▁carolin",
        -9.922967456489788
      ],
      [
        ".com",
        -8.322054983344787
      ],
      [
        "oto",
        -10.913814579791683
      ],
      [
        "▁sixt",
        -9.245239739577888
      ],
      [
        "▁drunk",
        -10.782230973077153
      ],
      [
        "▁cycle",
        -9.747507064698562
      ],
      [
        "▁qui",
        -10.101082129592585
      ],
      [
        "uf",
        -11.175036411485149
      ],
      [
        "eau",
        -10.253468116882853
      ],
      [
        "▁inde",
        -9.667730167186834
      ],
      [
        "▁mor",
        -9.778046396027692
      ],
      [
        "▁becom",
        -10.499615983742935
      ],
      [
        "▁element",
        -8.998054476934989
      ],
      [
        "▁wav",
        -10.50523074739857
      ],
      [
        "▁inflation",
        -10.698896780851863
      ],
      [
        "▁sufficient",
        -9.98615615527456
      ],
      [
        "▁|",
        -9.754805093749667
      ],
      [
        "▁turned",
        -8.648522304257177
      ],
      [
        "▁shah",
        -10.920497979420233
      ],
      [
        "▁nonstop",
        -8.265548227104436
      ],
      [
        "b",
        -7.499961753875149
      ],
      [
        "▁broom",
        -10.423432896332802
      ],
      [
        ".8",
        -14.11670206142243
      ],
      [
        "▁person",
        -7.789927045074678
      ],
      [
        "▁twel",
        -10.421944521785562
      ],
      [
        "▁temple",
        -10.308089099180016
      ],
      [
        "hai",
        -12.449413438634446
      ],
      [
        "_______________",
        -10.368062127986821
      ],
      [
        "msel",
        -12.496307117546552
      ],
      [
        "▁even",
        -6.782816792514361
      ],
      [
        "▁grip",
        -10.949213861747415
      ],
      [
        "▁46",
        -11.362534726783958
      ],
      [
        "▁tel",
        -10.530182352291902
      ],
      [
        "▁197",
        -9.69459253888492
      ],
      [
        "lace",
        -11.855295916706593
      ],
      [
        "ountain",
        -10.972564648702694
      ],
      [
        "▁2000",
        -9.714470099810217
      ],
      [
        "which",
        -9.262264540950643
      ],
      [
        "▁teen",
        -10.623483841898741
      ],
      [
        "▁orange",
        -8.969270651009642
      ],
      [
        "▁distract",
        -10.806672564793171
      ],
      [
        "▁30,0",
        -14.113596497784208
      ],
      [
        "▁champion",
        -11.084909105306407
      ],
      [
        "4",
        -9.551184002865773
      ],
      [
        "▁heaven",
        -10.362557677018103
      ],
      [
        "▁han",
        -12.544716207967019
      ],
      [
        "175",
        -13.89952388135222
      ],
      [
        "▁mrs",
        -9.3615233859849
      ],
      [
        "▁strain",
        -9.986977529289321
      ],
      [
        "▁exceptional",
        -10.732586149771393
      ],
      [
        "▁attachment",
        -10.42366629778322
      ],
      [
        "▁prosecutor",
        -11.08425020904966
      ],
      [
        "1/8",
        -12.30354400335542
      ],
      [
        "▁ag",
        -10.388638485166753
      ],
      [
        "0",
        -10.782683652942984
      ],
      [
        "ou",
        -11.274927960313955
      ],
      [
        "▁radi",
        -9.89921035706232
      ],
      [
        "▁download",
        -10.42199723261336
      ],
      [
        "8.",
        -12.843129431892798
      ],
      [
        "▁jess",
        -10.786509836177169
      ],
      [
        "▁shoulder",
        -9.655325938927177
      ],
      [
        "▁room",
        -7.3800578799824645
      ],
      [
        "▁bu",
        -5.83388619210857
      ],
      [
        "rete",
        -10.200325196388052
      ],
      [
        "▁alleged",
        -10.156753319927555
      ],
      [
        "▁secure",
        -10.218344977783595
      ],
      [
        "▁abuse",
        -10.363283460497282
      ],
      [
        "▁ye",
        -7.899840741072135
      ],
      [
        "il",
        -8.404542542897484
      ],
      [
        "▁more",
        -6.036639033968968
      ],
      [
        "▁bowl",
        -8.915394627159664
      ],
      [
        "▁42,00",
        -13.782910433321955
      ],
      [
        "▁pet",
        -9.005199560456031
      ],
      [
        "▁player",
        -9.370077421276076
      ],
      [
        "▁relationship",
        -9.283337721318198
      ],
      [
        "▁scenario",
        -10.362554829206719
      ],
      [
        "▁cand",
        -10.55232531109695
      ],
      [
        "▁lives",
        -8.987456441984108
      ],
      [
        "bbc",
        -10.700912641340947
      ],
      [
        "▁sense",
        -8.698475774852616
      ],
      [
        "ward",
        -10.031064876724026
      ],
      [
        "▁council",
        -8.969267946425328
      ],
      [
        "▁1-800-",
        -12.663110100375741
      ],
      [
        "oul",
        -11.013200914464909
      ],
      [
        "▁bil",
        -11.005537854427239
      ],
      [
        "orti",
        -11.126882874253962
      ],
      [
        "▁eight",
        -9.059025391871746
      ],
      [
        "▁timing",
        -10.873267822616477
      ],
      [
        "tamus",
        -11.113826096523448
      ],
      [
        "▁gaza",
        -10.974482408114456
      ],
      [
        "rous",
        -10.803450791515008
      ],
      [
        "▁media",
        -8.900765811820936
      ],
      [
        "if",
        -9.854273665376308
      ],
      [
        "▁board",
        -8.796111760294771
      ],
      [
        "▁equivalent",
        -10.787338395453988
      ],
      [
        "glass",
        -11.058906392238704
      ],
      [
        "▁million",
        -9.714007873929823
      ],
      [
        "▁expir",
        -10.730687461086426
      ],
      [
        "nondelibreate",
        -12.83378457584191
      ],
      [
        "▁this",
        -10.553284573521324
      ],
      [
        "self",
        -7.580187025236799
      ],
      [
        "▁crossing",
        -10.266192068243237
      ],
      [
        "▁lake",
        -8.371272675956211
      ],
      [
        "▁excited",
        -9.758622470540478
      ],
      [
        "▁odd",
        -9.775211919052893
      ],
      [
        "a",
        -3.033586768312313
      ],
      [
        "▁07:",
        -12.030054931065974
      ],
      [
        "▁detr",
        -9.091675216079931
      ],
      [
        "▁fear",
        -9.12317845442543
      ],
      [
        "▁teach",
        -10.177180199698679
      ],
      [
        "▁impartial",
        -10.782263638098122
      ],
      [
        "▁participant",
        -9.68389736136428
      ],
      [
        "▁screen",
        -9.385420392795186
      ],
      [
        "came",
        -8.775453636545953
      ],
      [
        "s",
        -3.2339556402487712
      ],
      [
        "75",
        -11.071151051921955
      ],
      [
        "pal",
        -12.510807336189368
      ],
      [
        "▁recent",
        -8.211008927317451
      ],
      [
        "▁education",
        -8.676287189590543
      ],
      [
        "▁moslem",
        -10.69889757726148
      ],
      [
        "▁roast",
        -10.97317924388968
      ],
      [
        "53",
        -12.926587056744161
      ],
      [
        "we",
        -8.08422633573031
      ],
      [
        "-f",
        -11.867378889831972
      ],
      [
        "ore",
        -12.117485135914382
      ],
      [
        "do",
        -9.846160357156576
      ],
      [
        "▁baby",
        -7.45338679853995
      ],
      [
        "▁representative",
        -9.364530787346673
      ],
      [
        "'",
        -5.811804410257997
      ],
      [
        "where",
        -11.75353131760598
      ],
      [
        "md",
        -11.141550706240368
      ],
      [
        "▁plast",
        -10.971902917848457
      ],
      [
        "ied",
        -10.031937227247091
      ],
      [
        "▁summar",
        -10.167849183697484
      ],
      [
        "▁racket",
        -10.622152089241034
      ],
      [
        "▁confidence",
        -10.254367695694974
      ],
      [
        "▁squash",
        -10.873140376564779
      ],
      [
        "whil",
        -10.789586528270528
      ],
      [
        "’",
        -7.123051210512561
      ],
      [
        "▁relative",
        -9.3230722447374
      ],
      [
        "wi",
        -9.55300905205746
      ],
      [
        "▁belief",
        -9.475365837398577
      ],
      [
        "▁81",
        -14.132712190650901
      ],
      [
        "▁play",
        -6.6231897240285145
      ],
      [
        "▁sport",
        -9.386736886292443
      ],
      [
        "▁after",
        -9.748141363374536
      ],
      [
        "▁1/",
        -13.887911633017264
      ],
      [
        "▁import",
        -9.88753724402639
      ],
      [
        "▁identi",
        -10.676848703557246
      ],
      [
        "ium",
        -10.288458490563283
      ],
      [
        "▁rest",
        -8.3962735459037
      ],
      [
        "▁health",
        -8.212131579872535
      ],
      [
        "▁cloth",
        -9.451844180782675
      ],
      [
        "▁713-853-",
        -12.650615157195254
      ],
      [
        "▁limousine",
        -10.42137835894662
      ],
      [
        "▁satellite",
        -10.550545144310844
      ],
      [
        "▁basket",
        -9.947689586132517
      ],
      [
        "▁07",
        -14.85886526325713
      ],
      [
        "▁al",
        -7.856982673714978
      ],
      [
        "________________",
        -9.675548522665636
      ],
      [
        "▁gather",
        -9.807318566942248
      ],
      [
        "▁202-",
        -14.080987957304744
      ],
      [
        "▁message",
        -8.65617995854252
      ],
      [
        "▁deal",
        -8.104452548948185
      ],
      [
        "001",
        -12.849675556321584
      ],
      [
        "▁technique",
        -9.743612156323895
      ],
      [
        "▁chor",
        -10.878942323700588
      ],
      [
        "665",
        -14.029149014813683
      ],
      [
        "▁heal",
        -10.557732414120334
      ],
      [
        "▁worry",
        -9.775230001408566
      ],
      [
        "36",
        -11.652622853764742
      ],
      [
        "▁dem",
        -9.69989078906838
      ],
      [
        "ther",
        -10.379418511021798
      ],
      [
        "▁barrel",
        -10.307236268637428
      ],
      [
        "▁address",
        -8.57038704206899
      ],
      [
        "▁hug",
        -8.55825019292379
      ],
      [
        "▁pom",
        -10.758217265956368
      ],
      [
        "▁andaman",
        -10.026150148558429
      ],
      [
        "▁!",
        -6.755596490218561
      ],
      [
        "enti",
        -12.154891043607538
      ],
      [
        "▁connected",
        -10.254950085545678
      ],
      [
        "ect",
        -9.905673899473904
      ],
      [
        "of",
        -10.387444100209503
      ],
      [
        "▁derive",
        -10.97357463945604
      ],
      [
        "449",
        -14.15307238737037
      ],
      [
        "▁find",
        -6.839903537726631
      ],
      [
        "▁fame",
        -10.364349642941828
      ],
      [
        "ob",
        -11.496845026184019
      ],
      [
        "▁vast",
        -9.744470614321973
      ],
      [
        "▁whil",
        -7.852958576257973
      ],
      [
        "▁shiite",
        -10.156876261658965
      ],
      [
        "▁ob",
        -9.94689202988137
      ],
      [
        "195",
        -14.098294440862103
      ],
      [
        "se",
        -10.116435411708396
      ],
      [
        "▁discriminat",
        -10.873595797475925
      ],
      [
        "▁hussein",
        -10.782230467622774
      ],
      [
        "▁condition",
        -8.753249109736508
      ],
      [
        "▁follow",
        -8.161544618847138
      ],
      [
        "▁louis",
        -8.76461621472598
      ],
      [
        "▁surface",
        -9.343312016479421
      ],
      [
        "▁malfo",
        -10.545441264749448
      ],
      [
        "▁adjust",
        -9.947002420506642
      ],
      [
        "▁witch",
        -9.911587183688408
      ],
      [
        "tory",
        -10.19499551277244
      ],
      [
        "--------------",
        -9.780025658042359
      ],
      [
        "any",
        -9.173355829436742
      ],
      [
        "▁was",
        -5.269250295583504
      ],
      [
        "▁shopp",
        -9.559939624826331
      ],
      [
        "3.30",
        -13.842287739511173
      ],
      [
        "▁members",
        -8.754821145162007
      ],
      [
        "▁qa",
        -8.806594226707492
      ],
      [
        "▁sch",
        -11.04252027193222
      ],
      [
        "▁fight",
        -8.47028326476148
      ],
      [
        "▁squirt",
        -10.362554929779831
      ],
      [
        "▁unexpected",
        -10.483878358994067
      ],
      [
        "▁await",
        -10.78225767087819
      ],
      [
        "f",
        -4.036213711664914
      ],
      [
        "▁646-",
        -12.991578501901367
      ],
      [
        "nte",
        -11.329980172230284
      ],
      [
        "▁problem",
        -7.617252621318437
      ],
      [
        "▁tip",
        -9.590451127015182
      ],
      [
        "▁cocktail",
        -10.2043677066754
      ],
      [
        "▁deadline",
        -11.085482313062178
      ],
      [
        "▁harmonis",
        -10.376695013296981
      ],
      [
        "▁mau",
        -10.752713958860419
      ],
      [
        "ø",
        -12.833785825435129
      ],
      [
        "▁snake",
        -9.38542073547698
      ],
      [
        "▁recogni",
        -10.181320860438602
      ],
      [
        "▁tho",
        -8.708963387563907
      ],
      [
        "▁da",
        -12.782111484042257
      ],
      [
        "▁system",
        -7.934558105987523
      ],
      [
        "▁tippy",
        -10.873264095122337
      ],
      [
        "▁500",
        -10.955114086710612
      ],
      [
        "▁x",
        -10.277760178101254
      ],
      [
        "n",
        -9.616052484599335
      ],
      [
        "▁pric",
        -10.191303320883982
      ],
      [
        "▁survey",
        -10.369168625885816
      ],
      [
        "▁sussex",
        -10.973217328020851
      ],
      [
        "▁202.4",
        -14.138177894591795
      ],
      [
        "▁fuel",
        -9.911371422154803
      ],
      [
        "man@e",
        -12.817118239485756
      ],
      [
        "anders",
        -10.902641924962657
      ],
      [
        "▁funnel",
        -10.78527659658753
      ],
      [
        "▁ow",
        -9.81590645955922
      ],
      [
        "▁hell",
        -8.577527358787936
      ],
      [
        "ter",
        -10.432873965842234
      ],
      [
        "▁gun",
        -9.2190870035348
      ],
      [
        "▁polar",
        -10.69923363789085
      ],
      [
        "▁pakistan",
        -9.224720600257486
      ],
      [
        "▁182",
        -11.921712514434294
      ],
      [
        "▁infinit",
        -10.698897661972119
      ],
      [
        "n'",
        -9.381928970317361
      ],
      [
        "3-3",
        -13.158791324548858
      ],
      [
        "▁rubb",
        -10.556193243532423
      ],
      [
        "▁careful",
        -9.209808356231283
      ],
      [
        "▁govern",
        -10.256767498350003
      ],
      [
        "▁nail",
        -9.455161150031387
      ],
      [
        "▁float",
        -9.877077042697405
      ],
      [
        "▁d'",
        -11.991204330988092
      ],
      [
        "care",
        -10.673365544268545
      ],
      [
        "▁peter",
        -8.435930581279571
      ],
      [
        "▁examin",
        -10.40894579969902
      ],
      [
        "▁1.",
        -12.094938996564373
      ],
      [
        "▁grammar",
        -9.840460227214418
      ],
      [
        "4-3",
        -14.138263700674802
      ],
      [
        "▁russia",
        -9.359103812867705
      ],
      [
        "▁physical",
        -9.627548393460176
      ],
      [
        "▁mcg",
        -11.039267585948807
      ],
      [
        "colin",
        -11.187993983627077
      ],
      [
        "▁owners",
        -10.375647256691646
      ],
      [
        "▁!!!!!!!",
        -11.688410197959811
      ],
      [
        "▁understanding",
        -9.408217047078852
      ],
      [
        "▁engine",
        -9.739069501954194
      ],
      [
        "dw",
        -12.848581974628713
      ],
      [
        "▁strike",
        -9.840472291679719
      ],
      [
        "▁foreigner",
        -10.444335220204398
      ],
      [
        "nife",
        -9.990148098623385
      ],
      [
        "▁answer",
        -8.28682518310099
      ],
      [
        "65",
        -11.062979589335493
      ],
      [
        "▁progress",
        -9.406538376805553
      ],
      [
        "▁christian",
        -9.548968311450828
      ],
      [
        "▁ram",
        -9.93450016978628
      ],
      [
        "▁famil",
        -7.701694862887733
      ],
      [
        "▁mouse",
        -9.655521115019415
      ],
      [
        "scope",
        -10.616551876894626
      ],
      [
        "▁extreme",
        -8.788134320524446
      ],
      [
        "▁cracker",
        -10.163463600744313
      ],
      [
        "%",
        -11.209249942480854
      ],
      [
        "▁frontier",
        -10.783475190147874
      ],
      [
        "▁accommodate",
        -11.123945676984308
      ],
      [
        "▁4",
        -9.98122661536941
      ],
      [
        "onto",
        -8.33604868004476
      ],
      [
        "▁london",
        -8.731668120950399
      ],
      [
        "▁order",
        -7.689555316556323
      ],
      [
        "▁hil",
        -11.033613786924562
      ],
      [
        "▁passion",
        -10.31468458078601
      ],
      [
        "▁10.",
        -12.227526544380565
      ],
      [
        "wau",
        -8.069574009509946
      ],
      [
        "▁bulldo",
        -9.385435394454971
      ],
      [
        "▁conform",
        -10.62223196113791
      ],
      [
        "den",
        -9.087725871295806
      ],
      [
        "▁fluid",
        -10.622243741345308
      ],
      [
        "▁=",
        -10.869655881095504
      ],
      [
        "▁duckie",
        -10.81920791047557
      ],
      [
        "lan",
        -9.887229948535019
      ],
      [
        "▁breath",
        -9.468799828326695
      ],
      [
        "▁filth",
        -11.085999536042905
      ],
      [
        "▁attention",
        -8.604839086216852
      ],
      [
        "▁yan",
        -10.876802819939186
      ],
      [
        "▁abstract",
        -10.97314429791317
      ],
      [
        "▁immense",
        -10.975990935391113
      ],
      [
        "news",
        -9.776762005602396
      ],
      [
        "▁nan",
        -12.25253368878968
      ],
      [
        "▁rome",
        -9.847033492724538
      ],
      [
        "▁context",
        -9.499181823347236
      ],
      [
        "▁plug",
        -10.734393576495323
      ],
      [
        "▁compound",
        -10.550579954677715
      ],
      [
        "place",
        -9.970270574572172
      ],
      [
        "meter",
        -10.504192174387097
      ],
      [
        "z",
        -11.758838788587859
      ],
      [
        "▁card",
        -8.584562181125989
      ],
      [
        "▁albania",
        -10.362642799032344
      ],
      [
        "▁phil",
        -6.981496531733099
      ],
      [
        "▁quote",
        -9.39944893569014
      ],
      [
        "ki",
        -11.83482000002184
      ],
      [
        "▁prepare",
        -9.939418236022362
      ],
      [
        "▁consider",
        -8.115239313969617
      ],
      [
        "▁argu",
        -10.567350716739064
      ],
      [
        "▁30",
        -11.084408056997972
      ],
      [
        "▁łodz",
        -12.833783221425183
      ],
      [
        "▁accurac",
        -11.209250214708716
      ],
      [
        "ganda",
        -10.871272004792155
      ],
      [
        "fi",
        -11.328054049889788
      ],
      [
        "▁pronounce",
        -10.699390621285309
      ],
      [
        "7/9",
        -12.765859434088394
      ],
      [
        "pass",
        -10.768434800115557
      ],
      [
        "▁bag",
        -8.436553402376084
      ],
      [
        "sible",
        -9.173462979821124
      ],
      [
        "!!!!!!!!!!!!!!",
        -12.295588014338717
      ],
      [
        "!!!!",
        -9.691707156797474
      ],
      [
        "media",
        -10.396040399386203
      ],
      [
        "▁ap",
        -9.409162409789095
      ],
      [
        "ught",
        -8.638387818111717
      ],
      [
        "▁sample",
        -9.523654875330958
      ],
      [
        "▁what",
        -5.09320280019549
      ],
      [
        "▁future",
        -8.301271372954384
      ],
      [
        "▁airline",
        -6.977882350243302
      ],
      [
        "▁afterward",
        -10.111357485578354
      ],
      [
        "▁white",
        -7.924957886826736
      ],
      [
        "▁apply",
        -9.030911858741433
      ],
      [
        "sion",
        -10.424354767085728
      ],
      [
        "▁northeast",
        -10.483879635694619
      ],
      [
        "▁pre",
        -8.89534139102248
      ],
      [
        "▁366",
        -12.639888687731418
      ],
      [
        "cia",
        -11.334118227712164
      ],
      [
        "ansen",
        -13.637565979844098
      ],
      [
        "▁seal",
        -10.198472083714798
      ],
      [
        "light",
        -9.497353822158251
      ],
      [
        "hua",
        -10.519227549924604
      ],
      [
        "▁ya",
        -12.898998956236886
      ],
      [
        "mon",
        -9.708812970665495
      ],
      [
        "39",
        -11.637206619097427
      ],
      [
        "▁butterfl",
        -10.700816987314223
      ],
      [
        "buck",
        -11.059213604200227
      ],
      [
        "▁encourage",
        -9.60052112823979
      ],
      [
        "▁dud",
        -9.932512515900438
      ],
      [
        "▁take",
        -6.268031808232548
      ],
      [
        "▁tea",
        -8.885492223483286
      ],
      [
        "▁class",
        -7.3837290081576015
      ],
      [
        "▁grain",
        -10.4848623637211
      ],
      [
        "▁employ",
        -9.156157894048636
      ],
      [
        "uri",
        -11.894408370198882
      ],
      [
        "▁press",
        -8.804496807644863
      ],
      [
        "▁approve",
        -9.570717233175927
      ],
      [
        "▁innovative",
        -10.873405067601121
      ],
      [
        "▁0",
        -12.590165494098184
      ],
      [
        "ung",
        -9.465420556680959
      ],
      [
        "ve",
        -7.289909953273477
      ],
      [
        "wa",
        -12.083792402984447
      ],
      [
        "▁16,",
        -14.139170133244486
      ],
      [
        "doc",
        -9.634255655510263
      ],
      [
        "▁da",
        -13.348798848459843
      ],
      [
        "▁dutch",
        -11.086037303387592
      ],
      [
        "▁bla",
        -11.153801094753153
      ],
      [
        "▁jump",
        -8.697701325878736
      ],
      [
        "▁rang",
        -10.027473499589643
      ],
      [
        "▁sequence",
        -10.78223306919667
      ],
      [
        "▁backward",
        -10.701961728181358
      ],
      [
        "▁star",
        -8.317383557827743
      ],
      [
        "▁juic",
        -8.92950417007518
      ],
      [
        "▁254",
        -14.829903551071716
      ],
      [
        "▁article",
        -8.83707676878501
      ],
      [
        "beauty",
        -9.45227822281813
      ],
      [
        "▁37",
        -11.88765483250735
      ],
      [
        "x",
        -9.923621729153174
      ],
      [
        "▁tam",
        -10.51966364938942
      ],
      [
        "▁lunch",
        -8.566171830671895
      ],
      [
        "out",
        -7.858831281268998
      ],
      [
        "▁outline",
        -11.094219830048704
      ],
      [
        "▁opt",
        -10.886424240305194
      ],
      [
        "▁o'c",
        -8.376772786656169
      ],
      [
        "713.86",
        -12.636824810014524
      ],
      [
        "▁adviser",
        -10.9832161353241
      ],
      [
        "▁modest",
        -11.094211895295786
      ],
      [
        "▁cancer",
        -10.873230252226753
      ],
      [
        "▁worth",
        -8.112003809419583
      ],
      [
        "ing",
        -9.928808428270834
      ],
      [
        "sis",
        -12.693411606486883
      ],
      [
        "▁to",
        -8.619996718894246
      ],
      [
        "▁town",
        -8.240935918116394
      ],
      [
        "▁better",
        -7.529875546611563
      ],
      [
        "▁bronz",
        -10.873139455963921
      ],
      [
        "▁hig",
        -10.422960124931194
      ],
      [
        "4-6",
        -14.856897830413907
      ],
      [
        "24",
        -10.79235968292323
      ],
      [
        "ation",
        -10.323213255553187
      ],
      [
        "ukraine",
        -9.523565031294602
      ],
      [
        "▁real",
        -6.447431398550839
      ],
      [
        "▁camera",
        -9.50068615968036
      ],
      [
        "▁pho",
        -10.845826107710002
      ],
      [
        "▁bless",
        -10.565649587140063
      ],
      [
        "▁turtle",
        -10.483883256237753
      ],
      [
        "▁travel",
        -8.214959285963763
      ],
      [
        "▁corrupt",
        -10.621973656080424
      ],
      [
        "▁raid",
        -11.086113231501947
      ],
      [
        "▁traveler",
        -10.301337493693392
      ],
      [
        "▁22",
        -10.973191979732043
      ],
      [
        "▁circum",
        -9.841160603545681
      ],
      [
        "-2",
        -11.920185692866024
      ],
      [
        "▁nazi",
        -11.08462085375221
      ],
      [
        "▁05:",
        -13.864709534199491
      ],
      [
        "▁augment",
        -10.782233177353874
      ],
      [
        "▁shade",
        -10.309871582071008
      ],
      [
        "▁47",
        -12.395029450852924
      ],
      [
        "▁consol",
        -11.088312524713245
      ],
      [
        "#",
        -12.793241489426944
      ],
      [
        "空",
        -12.833785825435129
      ],
      [
        "12",
        -10.115966630470972
      ],
      [
        "▁move",
        -7.884898788569941
      ],
      [
        "▁executive",
        -9.574310482411583
      ],
      [
        "▁luxur",
        -10.973139510593205
      ],
      [
        "ritten",
        -8.955216860392161
      ],
      [
        "▁jason",
        -10.06796867416301
      ],
      [
        "▁850",
        -12.738656435075244
      ],
      [
        ",000",
        -9.14239492692628
      ],
      [
        "▁subject",
        -8.58531618994361
      ],
      [
        "▁complex",
        -9.523564447795286
      ],
      [
        "ed",
        -9.811572089528623
      ],
      [
        "▁zo",
        -10.998873661242811
      ],
      [
        "minate",
        -10.993126635007146
      ],
      [
        "▁bright",
        -9.26642981440937
      ],
      [
        "▁tunnel",
        -10.55054533816844
      ],
      [
        "▁whipp",
        -11.088592871576495
      ],
      [
        "ut",
        -9.198612629286396
      ],
      [
        "▁help",
        -6.918072615016294
      ],
      [
        "▁food",
        -7.176777099072254
      ],
      [
        "▁object",
        -9.041198399435679
      ],
      [
        "▁herself",
        -10.235000470458207
      ],
      [
        "oo",
        -10.573184319002312
      ],
      [
        "▁ep",
        -9.881222948691478
      ],
      [
        "▁prayer",
        -10.627417579358552
      ],
      [
        "▁disrupt",
        -10.421378540388849
      ],
      [
        "****************",
        -9.647989595493517
      ],
      [
        "▁anyway",
        -8.776648282742809
      ],
      [
        "po",
        -13.790623849186558
      ],
      [
        "mi",
        -10.085077495834087
      ],
      [
        "▁fix",
        -8.828776728669421
      ],
      [
        "▁mystery",
        -10.483879285138752
      ],
      [
        "▁president",
        -7.71426759051692
      ],
      [
        "▁baker",
        -10.912674112482717
      ],
      [
        "▁ben",
        -8.996996115228672
      ],
      [
        "hol",
        -9.001898470515815
      ],
      [
        "▁ou",
        -10.262009073803753
      ],
      [
        "▁prospect",
        -10.48387896697021
      ],
      [
        "▁basic",
        -8.865345052444496
      ],
      [
        "aid",
        -8.980888963073902
      ],
      [
        "▁imagination",
        -10.551068692518175
      ],
      [
        "▁data",
        -7.727877367826411
      ],
      [
        "}",
        -11.333785825435129
      ],
      [
        "▁po",
        -9.736513970615437
      ],
      [
        "▁justice",
        -9.690381009134365
      ],
      [
        "▁nanda",
        -11.373803937697424
      ],
      [
        "▁melt",
        -10.383589936719918
      ],
      [
        "1",
        -8.721474785169907
      ],
      [
        "▁weight",
        -9.578458903833841
      ],
      [
        "▁thr",
        -8.152049216504125
      ],
      [
        "▁snack",
        -10.483896756056883
      ],
      [
        "▁band",
        -8.883103168476957
      ],
      [
        "71",
        -11.60846397450329
      ],
      [
        "▁pudd",
        -10.993211504636179
      ],
      [
        "▁deliberate",
        -10.483878387701438
      ],
      [
        "~",
        -9.582223498820056
      ],
      [
        "▁evans",
        -10.97808831655384
      ],
      [
        "plastic",
        -9.887731683576222
      ],
      [
        "▁96/",
        -13.462906433389357
      ],
      [
        "▁06/0",
        -14.136984329702415
      ],
      [
        "▁discourag",
        -10.973518002183923
      ],
      [
        "▁pencil",
        -8.955186415849358
      ],
      [
        "6",
        -8.138127856803997
      ],
      [
        "▁restaurant",
        -8.424974601917057
      ],
      [
        "▁neighbor",
        -10.11123368444347
      ],
      [
        "▁audience",
        -9.548564336239389
      ],
      [
        "▁description",
        -9.910656727339655
      ],
      [
        "▁intellectual",
        -10.25436796455335
      ],
      [
        "山",
        -12.833785825435129
      ],
      [
        "ه",
        -14.203297884361366
      ],
      [
        "▁tasting",
        -10.807199133888707
      ],
      [
        "▁carol",
        -9.362572025720514
      ],
      [
        "ble",
        -13.325705585333473
      ],
      [
        "ulation",
        -11.002238990791497
      ],
      [
        "▁resist",
        -10.363136722932449
      ],
      [
        "3-32",
        -14.140185884914017
      ],
      [
        "▁flie",
        -9.807853956987563
      ],
      [
        "▁156",
        -11.352272366395722
      ],
      [
        "▁chest",
        -10.210835437385603
      ],
      [
        "▁shackle",
        -10.873139206618037
      ],
      [
        "▁invitation",
        -10.363814143225648
      ],
      [
        "la",
        -8.939497410352898
      ],
      [
        "▁simple",
        -9.16226029597457
      ],
      [
        "ated",
        -9.376059212414237
      ],
      [
        "▁honest",
        -9.499185949862639
      ],
      [
        "▁driver",
        -9.572565374928324
      ],
      [
        "▁129",
        -12.292761266971034
      ],
      [
        "kat",
        -10.785619882956034
      ],
      [
        "information",
        -7.360091903266648
      ],
      [
        "▁tourist",
        -9.267349256962817
      ],
      [
        "▁get",
        -9.018875979559912
      ],
      [
        "305",
        -14.449579635922536
      ],
      [
        "bu",
        -8.933136665927833
      ],
      [
        "187",
        -12.753397997597109
      ],
      [
        "▁histor",
        -10.527085506116297
      ],
      [
        "▁rifle",
        -10.973145156223907
      ],
      [
        "2000",
        -9.70736640342331
      ],
      [
        "▁arch",
        -10.883210280371463
      ],
      [
        "pike",
        -10.88679229561571
      ],
      [
        "zi",
        -10.854500550381056
      ],
      [
        "!!!!!!!!!!!",
        -12.790094382530567
      ],
      [
        "▁homeopath",
        -10.698898800782441
      ],
      [
        "va",
        -9.82661049775386
      ],
      [
        "▁xml",
        -8.849131228084183
      ],
      [
        "marie",
        -10.454421070252378
      ],
      [
        "▁yellow",
        -8.614741321517261
      ],
      [
        "-------------",
        -10.204800430093533
      ],
      [
        "▁wiki",
        -9.207627838534826
      ],
      [
        "▁where",
        -8.802452388749018
      ],
      [
        "▁slice",
        -10.11130148491057
      ],
      [
        "▁dramatic",
        -10.36285685661835
      ],
      [
        "▁penny",
        -9.938203514414871
      ],
      [
        "roni",
        -10.076164355454045
      ],
      [
        "▁be",
        -6.99458582791663
      ],
      [
        "▁tube",
        -10.637353572919544
      ],
      [
        "hu",
        -10.177736831634473
      ],
      [
        "▁rating",
        -10.798922707093958
      ],
      [
        "▁investigation",
        -10.484413067809
      ],
      [
        "▁50",
        -9.85620643860546
      ],
      [
        "▁179",
        -12.177181067986169
      ],
      [
        "▁gu",
        -11.83470245911374
      ],
      [
        "▁$",
        -8.88609295041069
      ],
      [
        "ical",
        -8.670614710682718
      ],
      [
        "▁172",
        -13.09131332977712
      ],
      [
        "▁allocat",
        -10.235516861576203
      ],
      [
        "▁105",
        -13.812547057226544
      ],
      [
        "3/10/",
        -13.858668163224241
      ],
      [
        "▁bath",
        -9.327314677299698
      ],
      [
        "713-853-3",
        -14.69068872296564
      ],
      [
        "▁love",
        -7.309301433863601
      ],
      [
        "qui",
        -10.31687270070033
      ],
      [
        "▁integr",
        -10.249748207991804
      ],
      [
        "▁sp",
        -9.448108329777904
      ],
      [
        "▁style",
        -8.971282525436244
      ],
      [
        "▁feed",
        -8.833696497134564
      ],
      [
        "▁sink",
        -9.602638274731227
      ],
      [
        "▁jane",
        -10.57102750948751
      ],
      [
        "ida",
        -10.062880400488224
      ],
      [
        "▁hunh",
        -10.782827101910152
      ],
      [
        "▁canadian",
        -9.574205372869981
      ],
      [
        "▁eas",
        -8.417393767588418
      ],
      [
        "▁spice",
        -11.107184777066141
      ],
      [
        "▁pla",
        -10.776013639092602
      ],
      [
        "▁superb",
        -11.111043902644049
      ],
      [
        "▁debut",
        -10.973148977735374
      ],
      [
        "erre",
        -11.834469720779595
      ],
      [
        "▁ge",
        -10.184432201086086
      ],
      [
        "▁solve",
        -10.476053078191834
      ],
      [
        "▁indian",
        -8.915089792179348
      ],
      [
        "ß",
        -12.833785825435129
      ],
      [
        "▁involvement",
        -10.4859251383747
      ],
      [
        "▁goose",
        -10.699703285467194
      ],
      [
        "▁all",
        -7.308132405240762
      ],
      [
        "▁deserve",
        -10.362569114872025
      ],
      [
        "▁hal",
        -10.332912452363267
      ],
      [
        "4/200",
        -11.696837855527704
      ],
      [
        "▁expectation",
        -9.914362365066339
      ],
      [
        "▁225",
        -12.177426783633818
      ],
      [
        "▁cruel",
        -10.306999290650564
      ],
      [
        "▁01/2",
        -13.14262021468103
      ],
      [
        "▁anticipate",
        -11.137130087799024
      ],
      [
        "▁machine",
        -9.173094665394029
      ],
      [
        "nt",
        -9.48315929559227
      ],
      [
        "▁operative",
        -10.974529270296333
      ],
      [
        "!!!!!!!!!!!!!!!",
        -11.78750431147864
      ],
      [
        "▁trash",
        -9.948010524712183
      ],
      [
        "▁convenient",
        -10.362554829351422
      ],
      [
        "▁motion",
        -9.775332028648016
      ],
      [
        "▁slow",
        -8.625579336918518
      ],
      [
        "▁minister",
        -9.52359771966728
      ],
      [
        "rove",
        -9.802426282176228
      ],
      [
        "za",
        -9.528997129283837
      ],
      [
        "cent",
        -10.40397727995201
      ],
      [
        "ugh",
        -10.799613475865524
      ],
      [
        "view",
        -10.595704871521047
      ],
      [
        "▁.......",
        -12.942341377205102
      ],
      [
        "▁miram",
        -10.4217188290074
      ],
      [
        "by",
        -9.258694004423091
      ],
      [
        "▁steak",
        -10.483882522389678
      ],
      [
        "dominant",
        -11.02387044484599
      ],
      [
        "▁framework",
        -10.307084840116433
      ],
      [
        "ular",
        -10.562250258082946
      ],
      [
        "▁swallow",
        -10.621974229591077
      ],
      [
        "akan",
        -12.241331569319104
      ],
      [
        "▁focus",
        -8.730657250069413
      ],
      [
        "▁loom",
        -10.97617272575432
      ],
      [
        "▁re-",
        -10.048096196068752
      ],
      [
        "▁chip",
        -10.28197374326766
      ],
      [
        "▁888",
        -15.102084738941228
      ],
      [
        "▁holiday",
        -9.84045520745625
      ],
      [
        "▁turn",
        -7.4735667017925715
      ],
      [
        "171",
        -13.819819207365457
      ],
      [
        "▁photograph",
        -9.336721744667937
      ],
      [
        "▁+45",
        -12.642880847425277
      ],
      [
        "▁indoor",
        -10.782235469962759
      ],
      [
        "▁male",
        -9.375924948884723
      ],
      [
        "▁cultural",
        -8.970567883913088
      ],
      [
        "ack",
        -9.76645184946713
      ],
      [
        "170",
        -14.674369146106468
      ],
      [
        "▁francisco",
        -6.5247777840419205
      ],
      [
        "evel",
        -10.97180094236422
      ],
      [
        "▁specify",
        -10.622017947604288
      ],
      [
        "▁appeal",
        -9.840468049808036
      ],
      [
        "4",
        -12.19660516221797
      ],
      [
        "▁on",
        -6.888680401716107
      ],
      [
        "▁apo",
        -10.990728966092083
      ],
      [
        "▁single",
        -8.955590215494038
      ],
      [
        "▁protest",
        -10.067630981717372
      ],
      [
        "oral",
        -10.763098550143075
      ],
      [
        "10",
        -9.765559445705975
      ],
      [
        "▁tail",
        -9.208738562798509
      ],
      [
        "▁tall",
        -9.475657944293513
      ],
      [
        "rent",
        -10.515982332423805
      ],
      [
        "prop",
        -10.365018816758836
      ],
      [
        "▁ill",
        -9.943678002587184
      ],
      [
        "▁lose",
        -9.560895771100656
      ],
      [
        "4.7",
        -12.15067148440598
      ],
      [
        "▁anti",
        -10.088555111136227
      ],
      [
        "▁commitment",
        -10.06831984992056
      ],
      [
        "01",
        -10.69383216144587
      ],
      [
        "▁plant",
        -8.564721984931827
      ],
      [
        "▁page",
        -8.002149902982854
      ],
      [
        "▁administrat",
        -10.066846773898053
      ],
      [
        "▁91",
        -13.654755750579636
      ],
      [
        "▁stay",
        -7.647084889668953
      ],
      [
        "ca",
        -8.252335262780884
      ],
      [
        "▁8:3",
        -12.739873861330425
      ],
      [
        "issan",
        -10.91471763161999
      ],
      [
        "▁assistan",
        -9.424803992360244
      ],
      [
        "▁emergenc",
        -9.840475346217156
      ],
      [
        "bye",
        -10.207259023339528
      ],
      [
        "▁interjection",
        -11.084250208948113
      ],
      [
        "sh",
        -11.580471676368933
      ],
      [
        "▁greeting",
        -10.363356476549598
      ],
      [
        "▁domain",
        -9.874948404542526
      ],
      [
        "▁satisfact",
        -10.555784743981635
      ],
      [
        "▁trim",
        -11.100986070987782
      ],
      [
        "▁most",
        -7.018956699682697
      ],
      [
        "▁wee",
        -10.434030456801738
      ],
      [
        "▁distinction",
        -10.550552807064125
      ],
      [
        "▁terre",
        -10.747630374118458
      ],
      [
        "▁sub",
        -9.224662261207182
      ],
      [
        "▁predict",
        -9.875423179182691
      ],
      [
        "▁submitt",
        -10.560915627134758
      ],
      [
        "▁eng",
        -8.949208129558002
      ],
      [
        "▁po",
        -11.008071481084977
      ],
      [
        "▁away",
        -7.493676026543827
      ],
      [
        "▁elbow",
        -10.782230378206922
      ],
      [
        "▁refer",
        -9.381174092002295
      ],
      [
        "▁heart",
        -8.733621495611612
      ],
      [
        "▁woman",
        -8.502980456225128
      ],
      [
        "▁tray",
        -10.441970949039163
      ],
      [
        "▁pupp",
        -9.743793142133914
      ],
      [
        "▁ferr",
        -10.106624938140355
      ],
      [
        "804",
        -15.394592738338083
      ],
      [
        "ell",
        -8.400179467499125
      ],
      [
        "▁mia",
        -11.835498122457036
      ],
      [
        "ible",
        -9.758858697396299
      ],
      [
        "▁600",
        -11.992235792398532
      ],
      [
        "▁ra",
        -9.462075593728784
      ],
      [
        "▁kick",
        -9.627784484248615
      ],
      [
        "▁desperate",
        -10.205149944016684
      ],
      [
        "6:5",
        -14.245778065733244
      ],
      [
        "▁premium",
        -11.084250776352164
      ],
      [
        "-20",
        -14.062585561929335
      ],
      [
        "eries",
        -9.215375674315126
      ],
      [
        "▁09:",
        -12.264147356493275
      ],
      [
        "▁281-518-",
        -13.136774397976367
      ],
      [
        "▁fir",
        -11.005064603428156
      ],
      [
        "▁census",
        -10.550609585763745
      ],
      [
        "mala",
        -11.120796003906795
      ],
      [
        "▁regard",
        -8.110749527844678
      ],
      [
        "▁11.",
        -12.246845594090738
      ],
      [
        "surgery",
        -10.073628301901158
      ],
      [
        "▁costume",
        -10.783949542322876
      ],
      [
        "▁pian",
        -10.48852277553748
      ],
      [
        "▁belt",
        -10.114843530013616
      ],
      [
        "▁discount",
        -10.111361096708025
      ],
      [
        "▁participati",
        -10.818503586278975
      ],
      [
        "▁evolv",
        -9.874936370379228
      ],
      [
        "▁157",
        -12.084632893631422
      ],
      [
        "▁dim",
        -10.840637767454819
      ],
      [
        "▁bulb",
        -9.8749469175353
      ],
      [
        "▁>",
        -9.25200696802715
      ],
      [
        "▁admitted",
        -10.421553032521256
      ],
      [
        "▁hungr",
        -9.421505513942542
      ],
      [
        "▁cowboy",
        -9.743615033969302
      ],
      [
        "▁:",
        -7.256476862053417
      ],
      [
        "▁truth",
        -9.429978628376253
      ],
      [
        "ee",
        -10.720525926017277
      ],
      [
        "tagon",
        -10.816536665264755
      ],
      [
        "▁curat",
        -11.085247760210613
      ],
      [
        "▁grande",
        -11.042194639497195
      ],
      [
        "▁345-",
        -11.796213981224737
      ],
      [
        "▁tolerat",
        -10.976632258988321
      ],
      [
        "▁sit",
        -7.52758754723961
      ],
      [
        "▁advantage",
        -9.743612156453075
      ],
      [
        "▁mam",
        -8.874823739281819
      ],
      [
        "▁notion",
        -10.077543876072896
      ],
      [
        "14",
        -10.356076179222697
      ],
      [
        "▁billion",
        -10.983429258751208
      ],
      [
        "!!!!!!!",
        -11.378490256407192
      ],
      [
        "▁self",
        -9.041629833148797
      ],
      [
        "▁483",
        -12.866366678941011
      ],
      [
        "▁folder",
        -11.106187786831919
      ],
      [
        "▁17",
        -10.782245585253664
      ],
      [
        "▁striv",
        -10.877207190306837
      ],
      [
        "/21/200",
        -13.001555604525423
      ],
      [
        "och",
        -12.918959700262555
      ],
      [
        "▁wil",
        -12.654613728656043
      ],
      [
        "▁nice",
        -7.536357891801644
      ],
      [
        "8/01",
        -14.138566737487656
      ],
      [
        "▁hub",
        -11.366333878990952
      ],
      [
        "▁crash",
        -9.98615963372275
      ],
      [
        "121",
        -13.863877334317046
      ],
      [
        "▁stun",
        -10.983111795516683
      ],
      [
        "▁stack",
        -10.97445518656735
      ],
      [
        "▁lifetime",
        -10.554194908489867
      ],
      [
        "▁filter",
        -8.645072239826987
      ],
      [
        "▁tre",
        -9.99675730152057
      ],
      [
        "▁total",
        -8.708634889825497
      ],
      [
        "▁desert",
        -10.067892908168949
      ],
      [
        "ase",
        -10.78973269745037
      ],
      [
        "irr",
        -12.829351814011266
      ],
      [
        "▁advise",
        -9.912028745128671
      ],
      [
        "▁playwright",
        -10.69891107249346
      ],
      [
        "..",
        -11.613151332723893
      ],
      [
        "!!!!!!!!!!!!!",
        -12.30698754839941
      ],
      [
        "▁ron",
        -9.217835943510662
      ],
      [
        "▁phone",
        -8.133027680288292
      ],
      [
        "andy",
        -9.98619636907725
      ],
      [
        "▁sq",
        -9.251753467931723
      ],
      [
        "▁enhance",
        -10.307037034714982
      ],
      [
        "▁416-865-370",
        -12.667278132134355
      ],
      [
        "▁meat",
        -9.122382270561744
      ],
      [
        "▁liver",
        -10.951239035914238
      ],
      [
        "ketch",
        -10.620191418066447
      ],
      [
        "▁upper",
        -10.00775950595508
      ],
      [
        "got",
        -12.9597684416641
      ],
      [
        "▁educate",
        -10.421378912509311
      ],
      [
        "to",
        -10.339334777003861
      ],
      [
        "▁officer",
        -9.671135448160328
      ],
      [
        "▁environmental",
        -9.371191840705933
      ],
      [
        "▁dancer",
        -10.916711993011237
      ],
      [
        "▁refund",
        -10.699100592639054
      ],
      [
        "▁quack",
        -11.084367520765891
      ],
      [
        "▁tor",
        -8.082311227337001
      ],
      [
        "▁pretend",
        -9.387367967308139
      ],
      [
        "▁uhh",
        -8.351133090417981
      ],
      [
        "▁08:0",
        -12.552782992181449
      ],
      [
        "▁wag",
        -10.820295173950202
      ],
      [
        "▁absent",
        -10.707100284758077
      ],
      [
        "▁inherit",
        -11.084258142103687
      ],
      [
        "77",
        -12.614120500178377
      ],
      [
        "▁iris",
        -10.515298404737104
      ],
      [
        "hundred",
        -12.469625072036138
      ],
      [
        "▁string",
        -9.492072391848916
      ],
      [
        "2-20",
        -13.143407717162013
      ],
      [
        "▁crie",
        -10.262155058521222
      ],
      [
        "▁an",
        -6.4124937552070085
      ],
      [
        "▁#",
        -9.176891655473467
      ],
      [
        "path",
        -10.955338474678383
      ],
      [
        "▁fourth",
        -9.499175065965673
      ],
      [
        "merida",
        -10.783692921566256
      ],
      [
        "▁yes",
        -7.209091090792579
      ],
      [
        "ston",
        -6.309361508078603
      ],
      [
        "ax",
        -9.180098302678786
      ],
      [
        "▁return",
        -7.875419268427524
      ],
      [
        "▁finger",
        -8.585793179689816
      ],
      [
        "roll",
        -10.28995736936308
      ],
      [
        "▁musician",
        -10.874777041976019
      ],
      [
        "▁fac",
        -10.219118484401793
      ],
      [
        "▁under",
        -8.752557188756818
      ],
      [
        "▁pizza",
        -9.058225023239046
      ],
      [
        "▁1960",
        -11.084250244129834
      ],
      [
        "▁510-642-",
        -13.136770579314764
      ],
      [
        "▁750",
        -12.229681738664153
      ],
      [
        "twenty",
        -11.271913807343168
      ],
      [
        "▁rider",
        -11.041609719656446
      ],
      [
        "-",
        -4.2914603317907005
      ],
      [
        "▁si",
        -9.832855249378149
      ],
      [
        "▁interference",
        -10.973194083582447
      ],
      [
        "▁stillman",
        -9.001052209822694
      ],
      [
        "▁haircut",
        -10.622281997406839
      ],
      [
        "▁daughter",
        -9.042834527859924
      ],
      [
        "▁exhibit",
        -9.548564316089628
      ],
      [
        "▁surplus",
        -11.209250211141214
      ],
      [
        "▁20",
        -8.49387196891552
      ],
      [
        "▁sweater",
        -10.158709255728454
      ],
      [
        "▁insect",
        -10.204544091751508
      ],
      [
        "▁value",
        -8.191214021686617
      ],
      [
        "▁police",
        -8.804575288289929
      ],
      [
        "am",
        -12.966085211699605
      ],
      [
        "▁femora",
        -11.084339054378685
      ],
      [
        "▁retain",
        -10.873585930166469
      ],
      [
        "▁--",
        -7.940506446943768
      ],
      [
        "▁scribble",
        -10.782230021613067
      ],
      [
        "▁vessel",
        -10.698897976939016
      ],
      [
        "▁kent",
        -9.95490671918438
      ],
      [
        "ry@enron",
        -11.848195031338767
      ],
      [
        "▁establishment",
        -10.372533127952549
      ],
      [
        "▁carne",
        -10.972961012151051
      ],
      [
        "▁floor",
        -8.316029719346911
      ],
      [
        "▁zac",
        -11.073291581889665
      ],
      [
        "▁flourish",
        -11.084465176906907
      ],
      [
        "▁dat",
        -8.77097999038324
      ],
      [
        "620",
        -14.246999949014942
      ],
      [
        "▁pete",
        -10.672562620191462
      ],
      [
        "▁asset",
        -10.112671690500227
      ],
      [
        "▁picture",
        -8.28902122602114
      ],
      [
        "▁51",
        -12.853110873290898
      ],
      [
        "650",
        -14.807816924349003
      ],
      [
        "thirty",
        -12.183877326748673
      ],
      [
        "▁bak",
        -9.915362075010409
      ],
      [
        "▁danny",
        -9.600606259402063
      ],
      [
        "▁vomit",
        -10.782238152140465
      ],
      [
        "ile",
        -12.729286221543994
      ],
      [
        "922",
        -12.522603151732726
      ],
      [
        "ell",
        -11.871927484342326
      ],
      [
        "▁print",
        -9.079069130684047
      ],
      [
        "▁route",
        -9.657903526493904
      ],
      [
        "▁remarkabl",
        -10.389585100228677
      ],
      [
        "▁03:4",
        -12.536190960354327
      ],
      [
        "▁o",
        -10.961654798814939
      ],
      [
        "▁twenty-f",
        -12.946639624578596
      ],
      [
        "▁prince",
        -9.986150261646342
      ],
      [
        "they",
        -8.51994232805994
      ],
      [
        "▁solution",
        -9.139008841750574
      ],
      [
        "▁key",
        -8.484768462327857
      ],
      [
        "▁casual",
        -10.770752255974218
      ],
      [
        "▁motor",
        -9.840610077927533
      ],
      [
        "▁quiet",
        -9.322999391073672
      ],
      [
        "▁friday",
        -8.001843765119784
      ],
      [
        "▁female",
        -9.302902584175493
      ],
      [
        "▁warning",
        -10.391558131966397
      ],
      [
        "▁preferabl",
        -11.167434356257967
      ],
      [
        "▁adult",
        -9.173094693974939
      ],
      [
        "▁moham",
        -10.201316315726167
      ],
      [
        "▁up",
        -6.475747422416015
      ],
      [
        "▁chalk",
        -10.484778205254052
      ],
      [
        "▁soup",
        -9.961064608481632
      ],
      [
        "345-",
        -13.370892840682906
      ],
      [
        "▁assist",
        -9.661615380039985
      ],
      [
        "▁proceed",
        -9.962258143406764
      ],
      [
        "▁50,",
        -14.133980551149136
      ],
      [
        "▁for",
        -9.358701241817672
      ],
      [
        "▁177",
        -10.99413094039157
      ],
      [
        "▁releas",
        -10.920720059712794
      ],
      [
        "oursel",
        -11.26406108510363
      ],
      [
        "029",
        -14.571113188046223
      ],
      [
        "kin",
        -9.891673832123367
      ],
      [
        "st",
        -6.99241356099325
      ],
      [
        "arctic",
        -10.785328606408319
      ],
      [
        "▁realise",
        -10.663869402260746
      ],
      [
        "▁complian",
        -10.973140849643853
      ],
      [
        "▁math",
        -10.720070540265677
      ],
      [
        "▁invasi",
        -10.973341193301934
      ],
      [
        "▁rocket",
        -10.367554758589847
      ],
      [
        "pact",
        -10.880286362034163
      ],
      [
        "▁.2",
        -12.818583968968841
      ],
      [
        "▁jihad",
        -9.840453569321053
      ],
      [
        "nti",
        -11.703237119192112
      ],
      [
        "▁mh",
        -9.452780866665378
      ],
      [
        "ha",
        -9.601993731172117
      ],
      [
        "▁neck",
        -9.105903831150789
      ],
      [
        "▁iraqi",
        -9.057995711614069
      ],
      [
        "▁chang",
        -9.195557309020312
      ],
      [
        "▁pu",
        -10.644626408145367
      ],
      [
        "▁simultaneous",
        -10.873139097778193
      ],
      [
        "ary",
        -7.565911730171641
      ],
      [
        "▁somethin",
        -7.378481269236485
      ],
      [
        "▁lexic",
        -10.961740967565884
      ],
      [
        "19",
        -10.456865167975522
      ],
      [
        "▁amaze",
        -10.973247720852486
      ],
      [
        "▁therap",
        -10.865503248450585
      ],
      [
        "most",
        -8.003636098482094
      ],
      [
        "bald",
        -10.17965172118081
      ],
      [
        "one",
        -10.618925815360097
      ],
      [
        "▁shy",
        -10.62989802750641
      ],
      [
        "▁pivot",
        -9.13890421962273
      ],
      [
        "▁dust",
        -9.418672047758305
      ],
      [
        "▁african",
        -9.530535689183772
      ],
      [
        "▁attach",
        -9.03417307993718
      ],
      [
        "▁dinosaur",
        -8.900755064400187
      ],
      [
        "▁hop",
        -11.83466611609779
      ],
      [
        "00",
        -11.338619248245909
      ],
      [
        "▁pop",
        -9.193950031686068
      ],
      [
        "way",
        -8.645593651391925
      ],
      [
        "▁magnific",
        -10.485194129636461
      ],
      [
        "▁child",
        -8.37677597984495
      ],
      [
        "▁opening",
        -9.301654071613436
      ],
      [
        "▁++",
        -13.436075599114549
      ],
      [
        "▁100",
        -9.714914411262882
      ],
      [
        "▁venture",
        -10.307054513452616
      ],
      [
        "▁disco",
        -10.835856600365666
      ],
      [
        "▁face",
        -7.830147147524809
      ],
      [
        "....",
        -10.495299798696006
      ],
      [
        "▁lab",
        -9.870482063777704
      ],
      [
        "▁construct",
        -10.419738533303297
      ],
      [
        "name",
        -10.486359765719351
      ],
      [
        "琴",
        -12.833785825435129
      ],
      [
        "10/20",
        -13.973159258028971
      ],
      [
        "camo",
        -10.868434306164147
      ],
      [
        "▁cub",
        -10.964025412535719
      ],
      [
        "▁american",
        -7.120184207789342
      ],
      [
        "▁sew",
        -10.730086097046147
      ],
      [
        "urs",
        -11.334386090581136
      ],
      [
        "▁continent",
        -8.468002396080681
      ],
      [
        "gui",
        -11.165989951246562
      ],
      [
        "333",
        -14.345008994232288
      ],
      [
        "▁fo",
        -12.838710837665342
      ],
      [
        "▁1.6",
        -12.34208568727186
      ],
      [
        "19-2",
        -14.135609393524858
      ],
      [
        "▁x",
        -8.663881306236346
      ],
      [
        "▁boo",
        -10.477239473166328
      ],
      [
        "3/4",
        -12.323964283376021
      ],
      [
        "▁house",
        -7.187298756520365
      ],
      [
        "te",
        -10.853311653238517
      ],
      [
        "▁satan",
        -10.570689332598333
      ],
      [
        "ced",
        -12.752075754843505
      ],
      [
        "▁poo",
        -9.991591175357835
      ],
      [
        "▁dear",
        -9.235538882342603
      ],
      [
        "▁liber",
        -10.951031623260318
      ],
      [
        "▁luther",
        -10.87329492147498
      ],
      [
        "▁drift",
        -10.973293215019027
      ],
      [
        "▁word",
        -8.278749321263371
      ],
      [
        "front",
        -11.05359308017691
      ],
      [
        "▁use",
        -6.632537810678495
      ],
      [
        "quarter",
        -10.756297794344388
      ],
      [
        "▁die",
        -7.781664094991877
      ],
      [
        "jama",
        -10.884845336795617
      ],
      [
        "▁tomm",
        -10.905212448280473
      ],
      [
        "▁side",
        -8.06770306737863
      ],
      [
        "▁correspondence",
        -10.782336227724157
      ],
      [
        "sphere",
        -11.084344018115987
      ],
      [
        "ria",
        -11.73691810135671
      ],
      [
        "59",
        -12.012136318615285
      ],
      [
        "▁jame",
        -9.589597741223777
      ],
      [
        "▁content",
        -9.01372874874559
      ],
      [
        "▁scholar",
        -10.349349034379241
      ],
      [
        "828-",
        -13.137496001915123
      ],
      [
        "▁dollar",
        -8.217972870313835
      ],
      [
        "▁vet",
        -9.409198912199674
      ],
      [
        "▁chute",
        -10.973441359350653
      ],
      [
        "▁la",
        -7.904863133567718
      ],
      [
        "ial",
        -8.85682778059008
      ],
      [
        "ur",
        -10.5066774424536
      ],
      [
        "776",
        -12.023279956286235
      ],
      [
        "▁drawing",
        -10.12176973869357
      ],
      [
        "7.3",
        -12.70913607973589
      ],
      [
        "▁24",
        -9.636353922881266
      ],
      [
        "▁japan",
        -9.482287619868831
      ],
      [
        "▁regional",
        -9.177320772649427
      ],
      [
        "▁examine",
        -10.43344293428124
      ],
      [
        "▁evaluat",
        -10.11030663666757
      ],
      [
        "airbnb",
        -10.78223183272435
      ],
      [
        "▁ramp",
        -11.115502458776644
      ],
      [
        "al",
        -10.361669615324121
      ],
      [
        "upper",
        -10.178111168113647
      ],
      [
        "▁240",
        -13.106045885865703
      ],
      [
        "▁exact",
        -8.788134548729051
      ],
      [
        "▁deposit",
        -10.669935623028433
      ],
      [
        "▁mis",
        -9.928265337287938
      ],
      [
        "▁sw",
        -9.439053817588057
      ],
      [
        "▁circu",
        -10.420086463471744
      ],
      [
        "▁cry",
        -9.108958169507517
      ],
      [
        "“",
        -6.515170392843602
      ],
      [
        "▁tummy",
        -9.807217156515375
      ],
      [
        "shore",
        -10.949051467294982
      ],
      [
        "▁0.05",
        -13.136790309889701
      ],
      [
        "▁wizard",
        -10.067816128528214
      ],
      [
        "▁^",
        -11.511548002523554
      ],
      [
        "α",
        -11.833785825395173
      ],
      [
        "town",
        -8.368010673077002
      ],
      [
        "c",
        -6.857402155246581
      ],
      [
        "1,",
        -14.673378306135053
      ],
      [
        "▁possession",
        -10.36255485277689
      ],
      [
        "▁sale",
        -10.179520140623758
      ],
      [
        "▁border",
        -9.385474837556275
      ],
      [
        "▁disorder",
        -10.873140580116985
      ],
      [
        "lena",
        -11.13308553045484
      ],
      [
        "▁ruler",
        -11.012571321199605
      ],
      [
        "ti",
        -11.721458890591762
      ],
      [
        "▁kiss",
        -9.809046638854664
      ],
      [
        "@enron",
        -9.186026037313589
      ],
      [
        "ya",
        -12.271013452895533
      ],
      [
        "▁holocaust",
        -10.973139097792046
      ],
      [
        "usi",
        -10.751881598698496
      ],
      [
        "`",
        -11.307802325334926
      ],
      [
        "ill",
        -10.131124135757073
      ],
      [
        "▁oak",
        -7.78465491882055
      ],
      [
        "▁principle",
        -9.655739769141405
      ],
      [
        "▁bank",
        -9.028098151087228
      ],
      [
        "▁doughnut",
        -9.874936426282439
      ],
      [
        "▁collapse",
        -10.20436901743862
      ],
      [
        "▁avoid",
        -9.012767046517897
      ],
      [
        "/01",
        -12.978977334180982
      ],
      [
        "▁bridge",
        -9.323140178129563
      ],
      [
        "▁23",
        -10.030498826871938
      ],
      [
        "bby",
        -9.93645208046426
      ],
      [
        "▁saw",
        -7.795989903789526
      ],
      [
        "▁pose",
        -10.46370333331644
      ],
      [
        "▁drink",
        -8.034724400246262
      ],
      [
        "▁show",
        -5.970318070480243
      ],
      [
        "▁....",
        -10.491737081619904
      ],
      [
        "▁tag",
        -9.676440447499155
      ],
      [
        "▁sunn",
        -10.603610305596899
      ],
      [
        "▁atlant",
        -6.7109201785828185
      ],
      [
        "18/",
        -14.138103351134408
      ],
      [
        "▁gr",
        -10.339923065306172
      ],
      [
        "▁peace",
        -8.676055608737634
      ],
      [
        "▁intend",
        -9.190664007654163
      ],
      [
        "▁desk",
        -9.075860319009784
      ],
      [
        "▁flu",
        -10.47516982256949
      ],
      [
        "▁manage",
        -8.756721150847328
      ],
      [
        "ف",
        -12.833785825435129
      ],
      [
        "▁royal",
        -9.910749390134207
      ],
      [
        "▁aggressive",
        -10.782500001088744
      ],
      [
        "▁nah",
        -10.91806674624446
      ],
      [
        "graph",
        -10.61870139870344
      ],
      [
        "▁trigger",
        -11.084318940227922
      ],
      [
        "▁balti",
        -7.011295923499061
      ],
      [
        "▁multiple",
        -10.111295169131482
      ],
      [
        "▁treat",
        -8.6655024072791
      ],
      [
        "ate",
        -7.970077845651387
      ],
      [
        "ri",
        -8.049557552297205
      ],
      [
        "▁rent",
        -9.50679364064101
      ],
      [
        "49",
        -12.046337643457095
      ],
      [
        "gue",
        -10.497366488242804
      ],
      [
        "▁science",
        -8.90554277928733
      ],
      [
        "▁communit",
        -8.505529887664174
      ],
      [
        "▁transformation",
        -10.552991782242126
      ],
      [
        "▁hu",
        -7.9626253850837525
      ],
      [
        "▁imprison",
        -10.698896674172563
      ],
      [
        "▁tactic",
        -10.6990387585676
      ],
      [
        "▁calculation",
        -10.788770170427583
      ],
      [
        "▁asyl",
        -10.48970998789505
      ],
      [
        "▁god",
        -9.188733570179135
      ],
      [
        "▁short",
        -8.068090473482703
      ],
      [
        "fth",
        -10.223022180069869
      ],
      [
        "ji",
        -10.468742829244865
      ],
      [
        "▁artwork",
        -10.157144001435805
      ],
      [
        "▁...............",
        -13.349509917108687
      ],
      [
        "▁permanent",
        -10.254368743501209
      ],
      [
        "▁38",
        -10.592551675736491
      ],
      [
        "▁steam",
        -10.42095619549449
      ],
      [
        "▁accompan",
        -10.78245403043924
      ],
      [
        "▁cheap",
        -8.580361714666562
      ],
      [
        "▁assum",
        -10.405099238509848
      ],
      [
        ":00",
        -9.712247828919523
      ],
      [
        "ove",
        -12.445527802350513
      ],
      [
        "▁risk",
        -8.86184843609528
      ],
      [
        "dra",
        -10.577543245678065
      ],
      [
        "▁mobile",
        -10.491702122992727
      ],
      [
        "how",
        -12.00020881905705
      ],
      [
        "▁beast",
        -11.084767835117031
      ],
      [
        "to",
        -8.568824384538232
      ],
      [
        "▁angle",
        -10.707286844098736
      ],
      [
        "world",
        -10.847732144510669
      ],
      [
        "▁glamo",
        -11.08437573166784
      ],
      [
        "▁cancel",
        -10.307090867762613
      ],
      [
        "▁gap",
        -10.03508961409538
      ],
      [
        "asnondelibreaten",
        -11.833786315327183
      ],
      [
        "▁throat",
        -10.156748802465845
      ],
      [
        "tub",
        -10.468112016233555
      ],
      [
        "sky",
        -10.668733407829906
      ],
      [
        "▁fuss",
        -11.093835632945332
      ],
      [
        "▁driv",
        -8.762500317779459
      ],
      [
        "her",
        -7.767715035430991
      ],
      [
        "▁works",
        -9.07721609789462
      ],
      [
        "[CLS]",
        0.0
      ],
      [
        "▁third",
        -8.493086579592074
      ],
      [
        "▁l'e",
        -10.36747170203419
      ],
      [
        "eec",
        -10.798463564139205
      ],
      [
        "▁issue",
        -7.8994683171990365
      ],
      [
        "▁’",
        -10.228851442284377
      ],
      [
        "▁integrate",
        -10.25900908705318
      ],
      [
        "▁12:42",
        -13.166541441986316
      ],
      [
        "▁suggestion",
        -9.716268978266022
      ],
      [
        "igator",
        -9.92405412604732
      ],
      [
        "▁skittle",
        -9.840453616678788
      ],
      [
        "▁1030",
        -14.191480154345427
      ],
      [
        "▁monaster",
        -11.090454011677629
      ],
      [
        "pression",
        -11.182970721705052
      ],
      [
        "am",
        -8.751407306297265
      ],
      [
        "▁server",
        -9.82197898953482
      ],
      [
        "▁talent",
        -10.026276871861983
      ],
      [
        "▁midwest",
        -10.637891023701902
      ],
      [
        "▁ginger",
        -10.623815494166784
      ],
      [
        "▁artificial",
        -10.782234905805863
      ],
      [
        "▁how",
        -8.861903242976682
      ],
      [
        "59,",
        -14.128729149811772
      ],
      [
        "▁traffic",
        -9.572708649024872
      ],
      [
        "▁tab",
        -10.345234292705108
      ],
      [
        "▁avail",
        -9.253036216915278
      ],
      [
        "▁statute",
        -10.873702188177758
      ],
      [
        "▁183",
        -10.543131175840324
      ],
      [
        "fu",
        -10.2520490595709
      ],
      [
        "▁",
        -1.3739155028004877
      ],
      [
        "▁27",
        -10.732058639073955
      ],
      [
        "▁200",
        -7.835194488110917
      ],
      [
        "▁emil",
        -10.973735754305352
      ],
      [
        "▁method",
        -8.839900117692412
      ],
      [
        "▁05:3",
        -12.668251370718806
      ],
      [
        "▁335",
        -13.289610428496676
      ],
      [
        "▁chapter",
        -9.807190365250314
      ],
      [
        "▁athen",
        -9.859163454921605
      ],
      [
        "c",
        -6.053272481059237
      ],
      [
        "▁12:0",
        -12.672542544953671
      ],
      [
        "ha",
        -10.276535708534153
      ],
      [
        "▁feel",
        -7.534497227242223
      ],
      [
        "ff",
        -9.298201613901163
      ],
      [
        "▁cousin",
        -10.621985770981672
      ],
      [
        "▁etc",
        -8.776424771210493
      ],
      [
        "▁jud",
        -10.592944357146493
      ],
      [
        "▁let",
        -6.560592762468597
      ],
      [
        "right",
        -8.178679926087064
      ],
      [
        "ole",
        -10.14142842405845
      ],
      [
        "eol",
        -10.406421876790422
      ],
      [
        "▁near",
        -8.493275322131005
      ],
      [
        "▁for",
        -10.508521129987447
      ],
      [
        "▁dignit",
        -10.854460898547245
      ],
      [
        "▁caution",
        -10.973143235969845
      ],
      [
        "▁holding",
        -9.241074712082153
      ],
      [
        "▁datasheet",
        -10.782579545198551
      ],
      [
        "▁adam",
        -7.721631801519224
      ],
      [
        "▁up",
        -6.8551603158540315
      ],
      [
        "▁bell",
        -9.34409901729765
      ],
      [
        "▁achiev",
        -10.124040477643891
      ],
      [
        "▁plu",
        -10.581368776502407
      ],
      [
        "ies",
        -6.20435151805251
      ],
      [
        "wise",
        -9.220251406717114
      ],
      [
        "mi",
        -10.350978540918218
      ],
      [
        "▁perceive",
        -10.421391781380118
      ],
      [
        "erno",
        -12.834028763676212
      ],
      [
        "▁truck",
        -8.462301455477888
      ],
      [
        "▁hers",
        -12.827484547626566
      ],
      [
        "▁texa",
        -8.624730545374206
      ],
      [
        "▁harmon",
        -10.606856239634842
      ],
      [
        "▁rail",
        -10.111542284518068
      ],
      [
        "▁magician",
        -10.974477225271045
      ],
      [
        "▁sacre",
        -11.084314192861953
      ],
      [
        "▁ours",
        -11.486000418694196
      ],
      [
        "▁accus",
        -10.404098791092213
      ],
      [
        "▁improve",
        -9.343227650206593
      ],
      [
        "▁simpl",
        -8.809611150738293
      ],
      [
        "▁resolve",
        -11.089183476267916
      ],
      [
        "▁reward",
        -10.36316106623224
      ],
      [
        "▁vacu",
        -10.973253659171904
      ],
      [
        "▁evil",
        -10.421388575750399
      ],
      [
        "▁coron",
        -10.113023550767714
      ],
      [
        "homa",
        -11.107778053053801
      ],
      [
        "itie",
        -9.804402092164613
      ],
      [
        "ian",
        -8.500126074296503
      ],
      [
        "▁milk",
        -7.807794509389648
      ],
      [
        "▁av",
        -13.367145336733245
      ],
      [
        "▁1.2",
        -12.884990035352798
      ],
      [
        "▁kath",
        -10.553857542772787
      ],
      [
        "▁phenomen",
        -10.421399869634929
      ],
      [
        "▁du",
        -9.594023106383748
      ],
      [
        "185",
        -14.936288602100408
      ],
      [
        "▁fi",
        -10.326349963524976
      ],
      [
        "▁creativ",
        -11.199712686530338
      ],
      [
        "la",
        -10.269817022195172
      ],
      [
        "▁ku",
        -10.599635454007057
      ],
      [
        "▁frie",
        -10.82735528891203
      ],
      [
        "▁motivation",
        -10.873139103038191
      ],
      [
        "▁united",
        -7.351920910224737
      ],
      [
        "▁its",
        -7.72296247419334
      ],
      [
        "▁du",
        -10.433267498874658
      ],
      [
        "wart",
        -10.303383653084605
      ],
      [
        "whos",
        -12.609213014906798
      ],
      [
        "them",
        -9.499452395420116
      ],
      [
        "▁am",
        -7.520988588867129
      ],
      [
        "▁mask",
        -10.307595552842113
      ],
      [
        "▁410-468-3",
        -13.136770579350877
      ],
      [
        "▁ghost",
        -9.840453805032464
      ],
      [
        "▁liberal",
        -10.255461818913398
      ],
      [
        "▁get",
        -5.735858642197
      ],
      [
        "▁organization",
        -9.106141914490811
      ],
      [
        "▁,",
        -8.356357715006416
      ],
      [
        "▁job",
        -7.892940234901602
      ],
      [
        "ock",
        -9.98356814984513
      ],
      [
        "▁deny",
        -10.554684630802532
      ],
      [
        "▁era",
        -9.915296927339309
      ],
      [
        "'s",
        -9.29672248805738
      ],
      [
        "▁impact",
        -9.208514341806804
      ],
      [
        "26",
        -11.044531444058311
      ],
      [
        "▁happens",
        -9.756012780593961
      ],
      [
        "▁unknown",
        -9.94768764085454
      ],
      [
        "▁alternative",
        -9.452148556009037
      ],
      [
        "▁index",
        -10.974472342159496
      ],
      [
        "47",
        -11.086617663416181
      ],
      [
        "▁patient",
        -9.658679189255121
      ],
      [
        "▁do",
        -12.000557710238303
      ],
      [
        "▁nu",
        -10.421026734128361
      ],
      [
        "▁state",
        -6.990105886890453
      ],
      [
        "▁judgment",
        -10.111450781742505
      ],
      [
        "▁pancake",
        -10.483904894072653
      ],
      [
        "▁marri",
        -9.343370162338168
      ],
      [
        "▁’",
        -8.643293563333359
      ],
      [
        "▁luck",
        -9.1062310936973
      ],
      [
        "cha",
        -12.098391471455841
      ],
      [
        "▁remind",
        -9.38542537827361
      ],
      [
        "tte",
        -13.86112417319225
      ],
      [
        "▁author",
        -8.957173358623304
      ],
      [
        "▁silen",
        -10.199970308854196
      ],
      [
        "▁full",
        -7.8561436211605615
      ],
      [
        "▁publish",
        -8.962630177023936
      ],
      [
        "▁power",
        -8.058886506483084
      ],
      [
        "▁guerrilla",
        -10.698896674451039
      ],
      [
        "pe",
        -9.30945529402215
      ],
      [
        "▁slave",
        -10.362607587771247
      ],
      [
        "▁pleasant",
        -9.683897362402389
      ],
      [
        "cc",
        -10.689679487776264
      ],
      [
        "ibilit",
        -10.602331615067648
      ],
      [
        "▁dolphin",
        -10.204367706832988
      ],
      [
        "xsl",
        -10.981309638386165
      ],
      [
        "د",
        -11.833785825435129
      ],
      [
        "cion",
        -13.357598950459646
      ],
      [
        "▁dri",
        -10.771114292758138
      ],
      [
        "▁'",
        -8.499373499932924
      ],
      [
        "▁boot",
        -9.163013781762231
      ],
      [
        "▁at",
        -9.24471656869415
      ],
      [
        "▁burn",
        -9.667671962602784
      ],
      [
        "▁k",
        -11.022160819746752
      ],
      [
        "▁influen",
        -10.484547158755351
      ],
      [
        "▁pickle",
        -11.107768104612832
      ],
      [
        "▁.",
        -6.116290613496916
      ],
      [
        "994",
        -12.619595990323594
      ],
      [
        "si",
        -11.213306943358026
      ],
      [
        "▁span",
        -10.061237115324715
      ],
      [
        "▁emperor",
        -10.362554830427175
      ],
      [
        "▁mar",
        -9.104443359614772
      ],
      [
        "▁bull",
        -10.555431341155888
      ],
      [
        "▁iu",
        -11.539925515610605
      ],
      [
        "▁leisure",
        -11.084250451910332
      ],
      [
        "▁spirit",
        -9.743608631066458
      ],
      [
        "▁awake",
        -10.483890606377358
      ],
      [
        "globe",
        -10.37077260754506
      ],
      [
        "standing",
        -10.281065856891491
      ],
      [
        "tyler",
        -11.054904945206218
      ],
      [
        "▁click",
        -9.74361346957305
      ],
      [
        "▁scan",
        -10.555954591156478
      ],
      [
        "ia",
        -8.034470899378539
      ],
      [
        "▁1.4",
        -12.362851284027002
      ],
      [
        "▁973-",
        -13.13680914866104
      ],
      [
        "▁75",
        -10.786024161906026
      ],
      [
        "0.23",
        -13.696436300133028
      ],
      [
        "▁audit",
        -10.15676455097204
      ],
      [
        "mp",
        -9.53389577911485
      ],
      [
        "▁mad",
        -9.456303742328492
      ],
      [
        "head",
        -8.672593617448424
      ],
      [
        "uni",
        -13.005202505838987
      ],
      [
        "▁draco",
        -10.97316230132834
      ],
      [
        "▁someon",
        -8.389355761262244
      ],
      [
        "ab",
        -12.134109862263205
      ],
      [
        "▁it",
        -7.425108546980831
      ],
      [
        "▁currenc",
        -9.910656282398373
      ],
      [
        "▁photo",
        -10.082778506771009
      ],
      [
        "▁rapporteur",
        -10.421378358520037
      ],
      [
        "▁control",
        -8.241589411148528
      ],
      [
        "▁25.",
        -14.400507833653686
      ],
      [
        "▁missi",
        -10.631172510193263
      ],
      [
        "▁telephone",
        -9.574805872846179
      ],
      [
        "@",
        -10.078275383865435
      ],
      [
        "▁conference",
        -9.04425441188977
      ],
      [
        "▁complement",
        -11.084251502249018
      ],
      [
        "▁713-853-30",
        -12.918016569717029
      ],
      [
        "▁lobby",
        -10.782443130946803
      ],
      [
        "▁correct",
        -8.848082190692677
      ],
      [
        "▁study",
        -8.045934415874715
      ],
      [
        "▁tau",
        -10.965296760509407
      ],
      [
        "40",
        -11.033972871619602
      ],
      [
        "enron",
        -11.020742050745039
      ],
      [
        "▁memor",
        -9.1431398826326
      ],
      [
        "▁minorit",
        -10.952712007260772
      ],
      [
        "▁digg",
        -10.700975331876998
      ],
      [
        "▁initiat",
        -9.947087319060564
      ],
      [
        "thin",
        -7.525429256744984
      ],
      [
        "270",
        -11.860042949136494
      ],
      [
        "▁para",
        -10.100087377997593
      ],
      [
        "▁portray",
        -11.084281985948444
      ],
      [
        "▁reveal",
        -9.807131693457865
      ],
      [
        "▁315",
        -13.155477789292316
      ],
      [
        "history",
        -8.608259189325832
      ],
      [
        "▁fruit",
        -9.548574298883736
      ],
      [
        "▁alcohol",
        -10.538867401135802
      ],
      [
        "▁upside",
        -10.257175337530626
      ],
      [
        "naiss",
        -11.833792202418863
      ],
      [
        "▁technical",
        -9.343310187811191
      ],
      [
        "ug",
        -9.674912179649512
      ],
      [
        "▁northwest",
        -9.481563775086435
      ],
      [
        "r.",
        -10.13031318877856
      ],
      [
        "▁ingredient",
        -10.06781584798188
      ],
      [
        "▁guild",
        -10.973152135145865
      ],
      [
        "▁odara",
        -10.698898615638793
      ],
      [
        "▁wonderful",
        -9.106555518415144
      ],
      [
        "x",
        -7.981746832535319
      ],
      [
        "▁resident",
        -9.68404071248232
      ],
      [
        "bra",
        -10.299640402628482
      ],
      [
        "▁bert",
        -10.928570099223114
      ],
      [
        "▁front",
        -8.253063980619388
      ],
      [
        "18",
        -11.156516477548015
      ],
      [
        "▁monk",
        -10.485541011990424
      ],
      [
        "ov",
        -9.767176147223115
      ],
      [
        "!?!?",
        -12.308329842777054
      ],
      [
        "▁oath",
        -10.550564432933415
      ],
      [
        "eve",
        -10.31123112989284
      ],
      [
        "leur",
        -11.834203543590597
      ],
      [
        "th",
        -7.114558713916185
      ],
      [
        "▁flexibilit",
        -11.084263892446321
      ],
      [
        "▁date",
        -8.485175268656285
      ],
      [
        "▁raise",
        -9.307571758468216
      ],
      [
        "▁punctu",
        -11.08425033107353
      ],
      [
        "28",
        -10.97103305750776
      ],
      [
        "/13/200",
        -12.943764559729503
      ],
      [
        "▁clay",
        -10.036692393104618
      ],
      [
        "▁jungle",
        -10.873154223361327
      ],
      [
        "▁medal",
        -10.874648199305858
      ],
      [
        "▁coast",
        -9.245211602458163
      ],
      [
        "▁negotiat",
        -10.20338342726102
      ],
      [
        "▁salon",
        -10.067976965406952
      ],
      [
        "▁sang",
        -10.775440601106125
      ],
      [
        "------------",
        -10.630566914886277
      ],
      [
        "\\",
        -11.833785825435129
      ],
      [
        "rice",
        -11.031928129019633
      ],
      [
        "▁quantit",
        -10.565069967206448
      ],
      [
        "▁protection",
        -9.157104932572686
      ],
      [
        "▁anti-",
        -10.254052816132312
      ],
      [
        "▁haf",
        -7.746963796290526
      ],
      [
        "▁meter",
        -10.356874062823099
      ],
      [
        "▁knight",
        -10.20558794290887
      ],
      [
        "▁knee",
        -9.894490405340115
      ],
      [
        "▁mac",
        -9.799652425538548
      ],
      [
        "▁manufacturer",
        -10.560429993632692
      ],
      [
        "64",
        -12.106504557730869
      ],
      [
        "▁degree",
        -9.47562404155615
      ],
      [
        "▁'s",
        -7.340703092259739
      ],
      [
        "▁complain",
        -10.301544449659234
      ],
      [
        "▁external",
        -10.254367829945295
      ],
      [
        "sti",
        -12.903858762386612
      ],
      [
        "▁ambitious",
        -10.873146829491942
      ],
      [
        "▁client",
        -9.80712078592235
      ],
      [
        "▁price",
        -7.655481973824937
      ],
      [
        "▁camp",
        -8.940700988802973
      ],
      [
        "▁ag",
        -9.062038990771534
      ],
      [
        "▁vi",
        -9.182863351817204
      ],
      [
        "▁link",
        -8.6658025783777
      ],
      [
        "▁medit",
        -11.056034207544538
      ],
      [
        "essie",
        -11.067723525337712
      ],
      [
        "▁dub",
        -10.39829606080935
      ],
      [
        "h",
        -5.068145445380351
      ],
      [
        "nd",
        -12.574555320074737
      ],
      [
        "▁parliament",
        -8.812087271922188
      ],
      [
        "▁crowd",
        -9.476926501554429
      ],
      [
        "0.00",
        -12.093399042272235
      ],
      [
        "************",
        -13.088782841857965
      ],
      [
        "▁d",
        -9.553231019557948
      ],
      [
        "▁gil",
        -11.019719633217903
      ],
      [
        "compaq.com",
        -11.085452085135776
      ],
      [
        "▁rare",
        -9.684382366829245
      ],
      [
        "70",
        -10.094034072897363
      ],
      [
        "/03",
        -14.34099684011953
      ],
      [
        "▁phrase",
        -10.25437030354695
      ],
      [
        "300",
        -11.818994592795601
      ],
      [
        "56",
        -12.270905061205728
      ],
      [
        "▁leon",
        -10.908242213754813
      ],
      [
        "▁kin",
        -10.643367201731566
      ],
      [
        "▁rescue",
        -9.87494931159543
      ],
      [
        "usa",
        -12.832706118609991
      ],
      [
        "▁entit",
        -9.90816746409653
      ],
      [
        "▁horses",
        -10.123208117387705
      ],
      [
        "▁401",
        -14.13652949020046
      ],
      [
        "▁fore",
        -9.677585858184017
      ],
      [
        "▁interpretation",
        -10.623802134642816
      ],
      [
        "ons",
        -10.56595692661573
      ],
      [
        "up",
        -8.753341417653875
      ],
      [
        "▁over",
        -7.36005997528514
      ],
      [
        "▁0.",
        -13.638150010343118
      ],
      [
        "▁138",
        -12.92362701465887
      ],
      [
        "▁hundred",
        -9.481396688621842
      ],
      [
        "249",
        -14.261623159528837
      ],
      [
        "▁+1",
        -12.26268493713398
      ],
      [
        "▁hold",
        -8.12880221659761
      ],
      [
        "a",
        -8.241796670952791
      ],
      [
        "▁420",
        -12.876752718469392
      ],
      [
        "▁clar",
        -10.713316466102865
      ],
      [
        "▁servant",
        -10.873139181658324
      ],
      [
        "▁natural",
        -8.558330571881157
      ],
      [
        "/25/200",
        -12.112325426631577
      ],
      [
        "leans",
        -10.307879103370025
      ],
      [
        "uma",
        -10.957900631582513
      ],
      [
        "179",
        -13.39745496023807
      ],
      [
        "22",
        -10.750684418784664
      ],
      [
        "▁gentle",
        -10.494918343451673
      ],
      [
        "=============",
        -11.216882392454107
      ],
      [
        "▁regret",
        -10.156748692735986
      ],
      [
        "▁barn",
        -9.399672418148816
      ],
      [
        "▁sake",
        -10.363180213463842
      ],
      [
        "============",
        -11.363268911856814
      ],
      [
        "▁bid",
        -9.962144390340566
      ],
      [
        "elia",
        -10.710021214375006
      ],
      [
        "919",
        -14.487614837274576
      ],
      [
        "▁guide",
        -10.21224067162671
      ],
      [
        "▁sorr",
        -8.46755420336326
      ],
      [
        "▁mohamm",
        -10.114359489354625
      ],
      [
        "▁classic",
        -10.365574844729636
      ],
      [
        "▁bill",
        -8.658093049267228
      ],
      [
        "▁meaning",
        -9.363749474879175
      ],
      [
        "43",
        -12.249869721942224
      ],
      [
        "▁dip",
        -11.085540310382648
      ],
      [
        "▁them",
        -6.589170159202508
      ],
      [
        "▁pitch",
        -10.624703098271443
      ],
      [
        "ard",
        -13.130028084185607
      ],
      [
        "▁lie",
        -9.050131991599887
      ],
      [
        "el",
        -11.736101132493474
      ],
      [
        "▁actress",
        -10.97316910449439
      ],
      [
        "▁contact",
        -8.741895650522395
      ],
      [
        "▁irre",
        -11.205714063362205
      ],
      [
        "▁seven",
        -8.978118629881944
      ],
      [
        "▁addresse",
        -10.927621424870253
      ],
      [
        "ja",
        -12.13970297163354
      ],
      [
        "▁edit",
        -9.912282292532446
      ],
      [
        "uchi",
        -10.351889406709885
      ],
      [
        "▁vol",
        -10.213493279735793
      ],
      [
        "▁threaten",
        -10.114871678192507
      ],
      [
        "▁islamist",
        -10.113644401077655
      ],
      [
        "ko",
        -10.171531401936113
      ],
      [
        "▁pursu",
        -10.944607685626538
      ],
      [
        "▁assign",
        -10.026196719945812
      ],
      [
        "▁191",
        -11.896980550058402
      ],
      [
        "▁jenn",
        -10.389167631225849
      ],
      [
        "▁guy",
        -7.7004890689592
      ],
      [
        "842",
        -12.352497377056995
      ],
      [
        "▁16.",
        -14.199282383172989
      ],
      [
        "na",
        -12.932588719732408
      ],
      [
        "▁claw",
        -11.086750261910474
      ],
      [
        "▁thre",
        -9.627823232223626
      ],
      [
        "▁inspiration",
        -11.086379355328912
      ],
      [
        "▁196",
        -10.370659192566032
      ],
      [
        "▁wine",
        -8.970752331541515
      ],
      [
        "6-",
        -13.674574631379441
      ],
      [
        "▁idiot",
        -10.873139288814624
      ],
      [
        "▁by",
        -9.863838491433988
      ],
      [
        "▁cor",
        -10.112123094158898
      ],
      [
        "ikh",
        -11.10451871092272
      ],
      [
        "▁hate",
        -9.691702620320942
      ],
      [
        "▁g",
        -7.650181126835428
      ],
      [
        "▁hat",
        -8.53135205741857
      ],
      [
        "▁713/853-",
        -13.136770601229294
      ],
      [
        "37,0",
        -14.136448329617062
      ],
      [
        "r",
        -6.00790320594875
      ],
      [
        "▁tha",
        -4.704439761942432
      ],
      [
        "zu",
        -10.380894990605798
      ],
      [
        "▁separat",
        -10.686925538784612
      ],
      [
        "▁arrive",
        -7.901899479042665
      ],
      [
        "lock",
        -8.187548455389415
      ],
      [
        "wikihow",
        -10.213938585777234
      ],
      [
        "▁traditional",
        -10.127235216054286
      ],
      [
        "▁69",
        -13.421823213516547
      ],
      [
        "▁rhythm",
        -11.084250209378883
      ],
      [
        "ur",
        -11.393468614066895
      ],
      [
        "▁gentlem",
        -11.116521412924591
      ],
      [
        "▁horsie",
        -8.914086456739675
      ],
      [
        "▁obstacle",
        -10.621973597665901
      ],
      [
        "▁conviction",
        -10.699656887747961
      ],
      [
        "▁official",
        -8.586600793156787
      ],
      [
        "▁transport",
        -7.512818640918077
      ],
      [
        "▁entrepreneur",
        -10.78223000686885
      ],
      [
        "ul",
        -12.818709659508759
      ],
      [
        "broad",
        -10.458101864185505
      ],
      [
        "▁their",
        -6.577564744618091
      ],
      [
        "p",
        -7.972623554296507
      ],
      [
        "ley",
        -8.723333522603777
      ],
      [
        "▁reviv",
        -10.97336889035007
      ],
      [
        "ese",
        -13.969336546849245
      ],
      [
        "gar",
        -10.117817981444787
      ],
      [
        "▁nak",
        -10.630678359349384
      ],
      [
        "▁undertake",
        -10.622077302442465
      ],
      [
        "▁187",
        -11.728130844442212
      ],
      [
        "▁divers",
        -9.59153674329994
      ],
      [
        "▁strong",
        -8.231082438299033
      ],
      [
        "▁04:0",
        -12.773739120218524
      ],
      [
        "▁welcome",
        -9.201376930136448
      ],
      [
        "▁laure",
        -10.879866111901205
      ],
      [
        "▁kingdom",
        -10.421538404211905
      ],
      [
        "▁ld2d-#693",
        -10.782014692013933
      ],
      [
        "▁ok",
        -8.384361398967076
      ],
      [
        "▁oil",
        -8.522924481945939
      ],
      [
        "ppy",
        -10.99901904496162
      ],
      [
        "▁receive",
        -8.509869303689786
      ],
      [
        "t",
        -8.622881059948114
      ],
      [
        "008",
        -13.284409566334318
      ],
      [
        "ch",
        -12.08501243113893
      ],
      [
        "▁bleed",
        -10.914453633963511
      ],
      [
        "▁novelist",
        -10.70096777392445
      ],
      [
        "▁moo",
        -10.774072696878319
      ],
      [
        "▁jar",
        -10.262709601577356
      ],
      [
        "▁experience",
        -7.845855437230273
      ],
      [
        "▁plo",
        -11.202356351835785
      ],
      [
        "▁mention",
        -8.765077179867944
      ],
      [
        "▁mill",
        -10.55763810155433
      ],
      [
        "▁clock",
        -9.991985763781523
      ],
      [
        "▁ice",
        -9.134265575820562
      ],
      [
        "▁quit",
        -8.420873754523155
      ],
      [
        "ight",
        -7.917709111600756
      ],
      [
        "▁interfere",
        -11.08424644966685
      ],
      [
        "▁southwest",
        -10.487899462797216
      ],
      [
        "▁transmitt",
        -10.557547469064236
      ],
      [
        "▁60,",
        -14.127858255991535
      ],
      [
        "▁friend",
        -7.704360411853865
      ],
      [
        "▁buddhist",
        -11.084255402050815
      ],
      [
        "▁ball",
        -7.999732829961001
      ],
      [
        "pdf",
        -10.255628992738792
      ],
      [
        "▁rob",
        -10.18374252843906
      ],
      [
        "150",
        -15.027533495975852
      ],
      [
        "▁santa",
        -9.527575930950608
      ],
      [
        "/15/200",
        -11.71241481715062
      ],
      [
        "▁confirm",
        -9.2635565498862
      ],
      [
        "▁affect",
        -9.073841518225603
      ],
      [
        "▁gulf",
        -9.683899644226974
      ],
      [
        "▁7",
        -9.056723086095095
      ],
      [
        "▁psych",
        -11.160885993962271
      ],
      [
        "600",
        -11.637633919009222
      ],
      [
        "07",
        -11.86690334019674
      ],
      [
        "...............",
        -11.472085322917493
      ],
      [
        "???????????????",
        -11.554970775406666
      ],
      [
        "▁broke",
        -8.214928836177446
      ],
      [
        "883",
        -14.15438031203266
      ],
      [
        "▁shine",
        -11.04270335710804
      ],
      [
        "out",
        -9.061841395065887
      ],
      [
        "▁homosexual",
        -11.084250209205056
      ],
      [
        "▁heat",
        -8.763110575261006
      ],
      [
        "▁bagg",
        -10.98548629895857
      ],
      [
        "▁fly",
        -7.267932427625445
      ],
      [
        "▁disagree",
        -10.873139847553551
      ],
      [
        "41",
        -12.725585459944703
      ],
      [
        "r",
        -4.496868874099677
      ],
      [
        "▁be",
        -11.273560827601584
      ],
      [
        "g",
        -7.134346932207946
      ],
      [
        "endou",
        -10.81039620476071
      ],
      [
        "339",
        -11.238809738318704
      ],
      [
        "▁network",
        -9.385474428738236
      ],
      [
        "▁euro",
        -9.345873372603453
      ],
      [
        "▁fifth",
        -9.452232373785431
      ],
      [
        "rre",
        -12.785449329254648
      ],
      [
        "▁emission",
        -10.421660995390901
      ],
      [
        "26/0",
        -14.093152072854176
      ],
      [
        "▁12:",
        -12.101167411589989
      ],
      [
        "▁ba",
        -11.474094207813557
      ],
      [
        "-518",
        -14.187807511083523
      ],
      [
        "it",
        -9.19020715973075
      ],
      [
        "▁scrambl",
        -10.973139103297207
      ],
      [
        "▁wow",
        -9.364503754678372
      ],
      [
        "uh",
        -8.20771102106255
      ],
      [
        "▁des",
        -9.820925513461214
      ],
      [
        "▁section",
        -8.96936023308644
      ],
      [
        "tial",
        -10.123767922022834
      ],
      [
        "▁sugar",
        -9.452173019472287
      ],
      [
        "▁teacher",
        -8.915643045252391
      ],
      [
        "▁83",
        -15.322788547072959
      ],
      [
        "▁agricultural",
        -10.366051476349973
      ],
      [
        "▁manager",
        -9.110328011213706
      ],
      [
        "him",
        -9.53100735965861
      ],
      [
        "*",
        -8.451504526190725
      ],
      [
        "20",
        -9.664350029724119
      ],
      [
        "▁ethnocentri",
        -11.084250208892616
      ],
      [
        "91",
        -11.944342016206539
      ],
      [
        "▁p.m",
        -10.254386378599051
      ],
      [
        "▁sound",
        -8.231313584953632
      ],
      [
        "▁stadium",
        -10.87313912836256
      ],
      [
        "▁label",
        -10.225638731557837
      ],
      [
        "oach",
        -9.17870659778825
      ],
      [
        "▁campaign",
        -9.105843721439113
      ],
      [
        "▁aisle",
        -11.084449726584925
      ],
      [
        "▁encounter",
        -10.550545984719854
      ],
      [
        "▁agreement",
        -8.511502147942181
      ],
      [
        "▁favorite",
        -8.914110698792726
      ],
      [
        "etic",
        -10.543931013159224
      ],
      [
        "▁stars",
        -10.446578348065646
      ],
      [
        "▁ya",
        -9.476042642476957
      ],
      [
        "▁handl",
        -10.323534643606212
      ],
      [
        "uction",
        -10.371252983794573
      ],
      [
        "▁sola",
        -10.746024876768761
      ],
      [
        "▁mur",
        -10.987044337471406
      ],
      [
        "▁kansa",
        -8.539770468004393
      ],
      [
        "▁describe",
        -8.88905322501011
      ],
      [
        "▁assume",
        -9.530681234997301
      ],
      [
        "he",
        -7.136458974037556
      ],
      [
        "▁unemploy",
        -10.15680767686933
      ],
      [
        "▁road",
        -8.43327568167518
      ],
      [
        "▁envelope",
        -11.094138390792462
      ],
      [
        "▁wh",
        -10.483639927514325
      ],
      [
        "▁04:",
        -12.413054408096652
      ],
      [
        "ight",
        -12.834719490624838
      ],
      [
        "cinna",
        -10.873620870596088
      ],
      [
        "▁services",
        -8.815271832094506
      ],
      [
        "▁shelter",
        -10.550991501949838
      ],
      [
        "inches",
        -10.859283484310678
      ],
      [
        "▁thread",
        -10.55080099658728
      ],
      [
        "▁gone",
        -8.432336216418669
      ],
      [
        "6.3",
        -14.15124683494006
      ],
      [
        "▁functional",
        -10.076453321198054
      ],
      [
        "▁blank",
        -9.985967813730909
      ],
      [
        "==========",
        -12.002215571696562
      ],
      [
        "▁persian",
        -10.873516893617701
      ],
      [
        "▁mood",
        -10.80088021996229
      ],
      [
        "▁interior",
        -10.484951003392592
      ],
      [
        "▁hill",
        -9.566889628728445
      ],
      [
        "▁imagine",
        -9.043286949930211
      ],
      [
        "demic",
        -10.699018809228818
      ],
      [
        "▁choo",
        -10.111816456168068
      ],
      [
        "▁time",
        -6.0771170514633415
      ],
      [
        "▁personalit",
        -10.590570452780067
      ],
      [
        "▁sir",
        -9.875637114542162
      ],
      [
        "▁adequate",
        -10.208911520232537
      ],
      [
        "▁doggie",
        -8.585602087281515
      ],
      [
        "▁spore",
        -10.874514914584548
      ],
      [
        "ami",
        -11.171813005991753
      ],
      [
        "▁sauce",
        -10.421543581335143
      ],
      [
        "▁crisp",
        -10.976628823118238
      ],
      [
        "▁passport",
        -10.55121168145962
      ],
      [
        "▁spend",
        -8.916611899490949
      ],
      [
        "▁regular",
        -9.058216524715608
      ],
      [
        "▁mc",
        -9.628672447463806
      ],
      [
        "▁va",
        -13.588427220972488
      ],
      [
        "▁federal",
        -9.208650277256993
      ],
      [
        "▁register",
        -9.947687800632444
      ],
      [
        "837",
        -14.148190312760422
      ],
      [
        "▁levi",
        -10.975562109103297
      ],
      [
        "urler",
        -11.195041481570172
      ],
      [
        "▁sh",
        -8.65026203836372
      ],
      [
        "▁pray",
        -10.54586515302908
      ],
      [
        "▁212",
        -12.060189136539739
      ],
      [
        "▁jesu",
        -10.622448360598924
      ],
      [
        "▁416",
        -14.782803597790648
      ],
      [
        "▁brad",
        -10.750187136980092
      ],
      [
        "▁10:5",
        -11.912176536891272
      ],
      [
        "abo",
        -13.226014168214702
      ],
      [
        "▁94720-",
        -13.136776257797244
      ],
      [
        "▁karl",
        -11.138561168755805
      ],
      [
        "rs",
        -10.527302468335112
      ],
      [
        "▁01/1",
        -11.985543249189035
      ],
      [
        "▁independen",
        -9.77064997430328
      ],
      [
        "▁borgi",
        -11.086483350127166
      ],
      [
        "crazy",
        -10.157027014643486
      ],
      [
        "cin",
        -12.841946993867692
      ],
      [
        "▁.32",
        -14.792785263810401
      ],
      [
        "▁district",
        -9.683897364850015
      ],
      [
        "▁onion",
        -10.320959234672143
      ],
      [
        "=",
        -9.47938422417725
      ],
      [
        "▁antonio",
        -10.421492793025996
      ],
      [
        "▁chew",
        -10.308804566796516
      ],
      [
        "-7",
        -12.297963295908984
      ],
      [
        "whom",
        -13.147185253957925
      ],
      [
        "×",
        -11.833785825435129
      ],
      [
        "▁hammer",
        -10.421395625710122
      ],
      [
        "▁pregnan",
        -10.483878886229391
      ],
      [
        "erome",
        -10.519516830348334
      ],
      [
        "▁important",
        -8.002763386549248
      ],
      [
        "▁enjoy",
        -8.204305387255843
      ],
      [
        "▁chairman",
        -10.310408972950427
      ],
      [
        "▁group",
        -7.486920746737258
      ],
      [
        "▁comment",
        -8.592913554637315
      ],
      [
        "101",
        -12.952621968553853
      ],
      [
        "▁kam",
        -11.998371256610433
      ],
      [
        "▁expect",
        -8.766445120151669
      ],
      [
        "v",
        -7.64784536874474
      ],
      [
        "1.",
        -10.975907898287584
      ],
      [
        "▁theodor",
        -9.874936342052687
      ],
      [
        "▁civilization",
        -10.62206643398177
      ],
      [
        "▁158",
        -10.771498006496458
      ],
      [
        "393",
        -11.979993705934664
      ],
      [
        "▁abc",
        -10.55315817587254
      ],
      [
        "phone",
        -9.775553562698688
      ],
      [
        "▁substanti",
        -10.76685357444342
      ],
      [
        "e",
        -4.602601403317653
      ],
      [
        "-46",
        -14.683129009797762
      ],
      [
        "▁reception",
        -10.550865507729316
      ],
      [
        "▁left",
        -7.802147178864391
      ],
      [
        "▁thou",
        -10.500572065356513
      ],
      [
        "ological",
        -10.202655226948623
      ],
      [
        "▁extraordinar",
        -10.483878358852513
      ],
      [
        "▁virgi",
        -10.42137848210575
      ],
      [
        "509",
        -14.165141654191874
      ],
      [
        "64-7",
        -13.572722259480487
      ],
      [
        "rg",
        -11.834427539130644
      ],
      [
        "▁ash",
        -10.42042303889278
      ],
      [
        "▁cleric",
        -10.973176579381743
      ],
      [
        "▁celebration",
        -10.484871031734622
      ],
      [
        "▁201",
        -8.15549122295678
      ],
      [
        "▁tuesday",
        -7.9493302519740325
      ],
      [
        "21",
        -11.158998581851865
      ],
      [
        "▁tsar",
        -10.973347328799576
      ],
      [
        "▁crucial",
        -10.204367698919711
      ],
      [
        "▁12/",
        -14.078541079163124
      ],
      [
        "▁bra",
        -10.249151430181135
      ],
      [
        "▁foundation",
        -9.784632926658542
      ],
      [
        "▁unnecessar",
        -11.20925021182549
      ],
      [
        "▁josh",
        -10.290418357686457
      ],
      [
        "-6",
        -12.344996043092538
      ],
      [
        "▁01:5",
        -12.124920194609327
      ],
      [
        "in",
        -6.812645498638378
      ],
      [
        "▁gentleman",
        -11.085593229846864
      ],
      [
        "bond",
        -11.105194501331919
      ],
      [
        "▁prevail",
        -10.87313950421714
      ],
      [
        "▁mor",
        -12.568118998306696
      ],
      [
        "▁scale",
        -9.84071725393196
      ],
      [
        "▁bat",
        -9.819321890693324
      ],
      [
        "+++",
        -13.65833462004859
      ],
      [
        "▁we",
        -12.03066344970174
      ],
      [
        "6/200",
        -15.097693619441639
      ],
      [
        "▁160",
        -10.48923474133084
      ],
      [
        "▁step",
        -8.51172678844682
      ],
      [
        "yard",
        -10.624917448303096
      ],
      [
        "_______",
        -10.805570786638603
      ],
      [
        "▁alt.animals.",
        -10.553587556405924
      ],
      [
        "▁dal",
        -10.650001091976666
      ],
      [
        "▁mutual",
        -10.782235539557208
      ],
      [
        "▁7.",
        -12.563655679205034
      ],
      [
        "550",
        -14.138024971197327
      ],
      [
        "425",
        -14.180756138798783
      ],
      [
        "▁urs",
        -8.863958073948023
      ],
      [
        "▁!!!!",
        -9.884799963893974
      ],
      [
        "▁dragg",
        -10.484540829240409
      ],
      [
        "▁hub",
        -10.801801898119855
      ],
      [
        "et",
        -10.675836850049606
      ],
      [
        "45",
        -10.75905829108645
      ],
      [
        "▁penalt",
        -10.782640377643007
      ],
      [
        "▁tell",
        -6.906932338357019
      ],
      [
        "▁spider",
        -9.283295180277678
      ],
      [
        "▁yoyo",
        -10.973143194596831
      ],
      [
        "▁precise",
        -9.776355421215523
      ],
      [
        "8389",
        -13.541293472806034
      ],
      [
        "▁efficien",
        -10.198952793563505
      ],
      [
        "aima",
        -8.956940157347182
      ],
      [
        "▁cou",
        -10.858686679206002
      ],
      [
        "▁mm",
        -8.79408386791583
      ],
      [
        "nc",
        -13.143028727913363
      ],
      [
        "ity",
        -6.983142717109059
      ],
      [
        "ara",
        -10.38420504990581
      ],
      [
        "▁bottom",
        -9.073841554591539
      ],
      [
        "uta",
        -10.96004014275531
      ],
      [
        "▁wall",
        -8.730214424684723
      ],
      [
        "/16/200",
        -11.522972034904177
      ],
      [
        "▁search",
        -9.10585886283555
      ],
      [
        "▁tana",
        -10.82534201347118
      ],
      [
        "▁harr",
        -8.007388779922819
      ],
      [
        "▁working",
        -8.325255110505058
      ],
      [
        "▁winn",
        -10.00125401625725
      ],
      [
        "▁88",
        -13.04942698006511
      ],
      [
        "▁li",
        -9.134548271373834
      ],
      [
        "================",
        -9.93165574775562
      ],
      [
        "▁hurri",
        -10.782253229947424
      ],
      [
        "▁essen",
        -10.801219908939622
      ],
      [
        "▁respond",
        -9.30290202273884
      ],
      [
        "her",
        -11.334030496893174
      ],
      [
        "▁pai",
        -9.136408446243367
      ],
      [
        "▁pow",
        -10.086335375846483
      ],
      [
        "riori",
        -10.701347265442699
      ],
      [
        "1/30/",
        -14.050747197655259
      ],
      [
        "•",
        -12.833785825435129
      ],
      [
        "▁rain",
        -8.676584227600062
      ],
      [
        "▁systematic",
        -10.62199773448522
      ],
      [
        "▁rib",
        -10.937757574828813
      ],
      [
        "▁eye",
        -7.682078734997096
      ],
      [
        "▁equivalen",
        -10.867578689185054
      ],
      [
        "▁advertis",
        -10.027649214794119
      ],
      [
        "*****",
        -11.566808758753416
      ],
      [
        "▁04:5",
        -13.362917933474566
      ],
      [
        "▁desir",
        -10.48546760983999
      ],
      [
        "8-37",
        -14.882399749141332
      ],
      [
        "nathan",
        -10.573789380699868
      ],
      [
        "sa",
        -10.695860057288726
      ],
      [
        "▁good",
        -6.299121307940173
      ],
      [
        "▁cyclone",
        -10.307023162573316
      ],
      [
        "some",
        -9.085706270044335
      ],
      [
        "▁dentist",
        -10.483887671462217
      ],
      [
        "do",
        -9.304210382376619
      ],
      [
        "▁kid",
        -8.09327007034939
      ],
      [
        "▁native",
        -10.068069071139936
      ],
      [
        "▁3/9/",
        -13.141521256888392
      ],
      [
        "j",
        -11.993990655777992
      ],
      [
        "▁execute",
        -9.950429432794612
      ],
      [
        "▁canne",
        -11.00107064858711
      ],
      [
        "▁grape",
        -10.067953544676161
      ],
      [
        "▁łodz",
        -10.067815840752065
      ],
      [
        "▁climb",
        -9.208533246993113
      ],
      [
        "ffin",
        -11.192192670975723
      ],
      [
        "▁responsibilit",
        -9.322902013417542
      ],
      [
        "0981",
        -14.135593250866743
      ],
      [
        "363",
        -14.556768785455324
      ],
      [
        "▁pillow",
        -9.475364856555213
      ],
      [
        "eenth",
        -9.71809106585776
      ],
      [
        "6.2",
        -13.267387170213453
      ],
      [
        "▁rein",
        -10.38062310876426
      ],
      [
        "▁tar",
        -10.7397437686294
      ],
      [
        "±",
        -14.13677057935472
      ],
      [
        "▁call",
        -6.627181724743064
      ],
      [
        "▁curve",
        -10.026154957621898
      ],
      [
        "arra",
        -9.661732579722017
      ],
      [
        "7",
        -8.305378306802192
      ],
      [
        "▁studio",
        -10.307000357603705
      ],
      [
        "▁round",
        -7.5928805542551485
      ],
      [
        "hallow",
        -11.103156054070269
      ],
      [
        "&",
        -10.750452492101797
      ],
      [
        ";",
        -12.303437246021387
      ],
      [
        "ius",
        -10.471658471223911
      ],
      [
        "▁romance",
        -10.8115959335913
      ],
      [
        "▁bin",
        -9.6610324373028
      ],
      [
        "▁mari",
        -11.608463054468066
      ],
      [
        "▁piece",
        -7.929776084190847
      ],
      [
        "ban",
        -9.460161785489724
      ],
      [
        "▁advance",
        -9.187060429267405
      ],
      [
        "▁pot",
        -10.095223320954554
      ],
      [
        "▁experiment",
        -9.942244963103835
      ],
      [
        "1.75",
        -12.636868206891616
      ],
      [
        "on",
        -6.434801464072722
      ],
      [
        "31",
        -11.692241147114807
      ],
      [
        "▁install",
        -9.873700194819445
      ],
      [
        "▁pure",
        -9.948496827320778
      ],
      [
        "▁fact",
        -7.942860533828772
      ],
      [
        "▁ga",
        -12.271472656463636
      ],
      [
        "▁congress",
        -9.089726586740422
      ],
      [
        "▁crop",
        -9.849031564781006
      ],
      [
        "▁c",
        -9.43580686398338
      ],
      [
        "▁merit",
        -10.782670180670198
      ],
      [
        "▁cow",
        -9.11295927612094
      ],
      [
        "▁crawl",
        -10.36416018695488
      ],
      [
        "page",
        -10.442552356874586
      ],
      [
        "▁fold",
        -9.769774027660766
      ],
      [
        "▁713-6",
        -13.034209030646098
      ],
      [
        "▁boom",
        -9.631582630288975
      ],
      [
        "down",
        -10.066886239285454
      ],
      [
        "▁thei",
        -15.11873651409302
      ],
      [
        "6-84",
        -14.806907614809187
      ],
      [
        "▁absen",
        -10.791681368771604
      ],
      [
        "under",
        -10.713415379023516
      ],
      [
        "1030",
        -15.236251623969013
      ],
      [
        "▁2051",
        -13.376212310261275
      ],
      [
        "taking",
        -8.046389070022471
      ],
      [
        "▁w.",
        -10.273830386683649
      ],
      [
        "▁3,20",
        -14.285822218088654
      ],
      [
        "▁?????",
        -14.162893315589255
      ],
      [
        "▁throw",
        -8.451380294034394
      ],
      [
        "▁offer",
        -8.200846703104524
      ],
      [
        "▁u.",
        -10.366438404033563
      ],
      [
        "band",
        -10.650115086136228
      ],
      [
        "▁evaluation",
        -10.363863580829555
      ],
      [
        "▁withdraw",
        -10.483878382730937
      ],
      [
        "▁further",
        -8.510869129574889
      ],
      [
        "century",
        -8.861814597322066
      ],
      [
        "ei",
        -12.533510383517699
      ],
      [
        "▁apple",
        -9.208888715283639
      ],
      [
        "▁enterprise",
        -10.873139102883327
      ],
      [
        "i",
        -9.80170027582974
      ],
      [
        "▁hog",
        -10.208087255347845
      ],
      [
        "▁stuff",
        -8.251634003677033
      ],
      [
        "▁recognize",
        -9.629563296634123
      ],
      [
        "▁ena",
        -10.089514242043123
      ],
      [
        "▁psycholog",
        -9.850127191668175
      ],
      [
        "▁cap",
        -9.28969438673027
      ],
      [
        "▁thirt",
        -11.589558869595724
      ],
      [
        "▁203.",
        -13.141448739224419
      ],
      [
        "▁energy",
        -8.466997461311127
      ],
      [
        "****",
        -11.720199025079861
      ],
      [
        "berkeley",
        -11.08425073845234
      ],
      [
        "▁map",
        -9.449652112771531
      ],
      [
        "▁language",
        -7.949330217281645
      ],
      [
        "▁80",
        -10.64119910423305
      ],
      [
        "▁ni",
        -9.857046971209625
      ],
      [
        "▁lantern",
        -10.78223061098274
      ],
      [
        "cient",
        -9.908996480231783
      ],
      [
        "▁knock",
        -9.499175025023927
      ],
      [
        "▁140",
        -13.557539680807714
      ],
      [
        "aat",
        -10.600805449444916
      ],
      [
        "▁1.",
        -11.516512236922686
      ],
      [
        "▁lanka",
        -10.11130469733655
      ],
      [
        "▁ka",
        -11.80448258593769
      ],
      [
        "clair",
        -10.596027052839531
      ],
      [
        "▁golden",
        -9.876150185289776
      ],
      [
        "▁kind",
        -7.1335061063185785
      ],
      [
        "▁college",
        -9.02768057999804
      ],
      [
        "▁03",
        -11.284359577117705
      ],
      [
        "▁2.0",
        -11.449299207262337
      ],
      [
        "▁ambulance",
        -10.782230293840053
      ],
      [
        "004",
        -12.193711620918602
      ],
      [
        "▁endanger",
        -10.782230120846496
      ],
      [
        "andi",
        -12.83477122878123
      ],
      [
        "▁robbi",
        -11.128564904719159
      ],
      [
        "▁conclusion",
        -9.774862157549517
      ],
      [
        "int",
        -12.839402515140927
      ],
      [
        "▁cuba",
        -10.104603280832787
      ],
      [
        "102",
        -15.442535429656798
      ],
      [
        "ady",
        -7.638505959234532
      ],
      [
        "▁co",
        -11.924018800984362
      ],
      [
        "▁ne",
        -9.20321900348517
      ],
      [
        "▁metropoli",
        -11.087056827575786
      ],
      [
        "▁exist",
        -8.520010701450786
      ],
      [
        "▁micro",
        -9.427415796789694
      ],
      [
        "▁375",
        -13.567938652830124
      ],
      [
        "▁bird",
        -8.378669166328248
      ],
      [
        "▁shore",
        -10.216982745968023
      ],
      [
        "▁ruin",
        -9.948368777946149
      ],
      [
        "▁big",
        -6.967008261820933
      ],
      [
        "▁finding",
        -9.422643015323228
      ],
      [
        "▁recover",
        -10.067899112831862
      ],
      [
        "▁ocean",
        -9.874937163773595
      ],
      [
        "▁169",
        -11.526929689379745
      ],
      [
        "▁chef",
        -10.624313700391756
      ],
      [
        "ino",
        -10.146744242787907
      ],
      [
        "▁02:3",
        -14.039135444681827
      ],
      [
        "▁de",
        -9.38426533896157
      ],
      [
        "▁sector",
        -9.303006791755726
      ],
      [
        "▁ship",
        -8.751198079522283
      ],
      [
        "▁steer",
        -10.97350129065047
      ],
      [
        "▁has",
        -6.8581785637493855
      ],
      [
        "▁instant",
        -10.204377402794236
      ],
      [
        "▁forum",
        -10.484998183881094
      ],
      [
        "===========",
        -11.614216336397975
      ],
      [
        "和",
        -12.833785825435129
      ],
      [
        "▁convert",
        -10.029357588634547
      ],
      [
        "ier",
        -9.34119833028225
      ],
      [
        "▁5.1",
        -13.468397919273812
      ],
      [
        "▁counsel",
        -10.306999286176705
      ],
      [
        "▁laws",
        -9.8503651936506
      ],
      [
        "▁savage",
        -10.483879326471028
      ],
      [
        "one",
        -8.958250372823366
      ],
      [
        "▁bear",
        -8.10825277360431
      ],
      [
        "▁rock",
        -8.519707724901053
      ],
      [
        "▁budget",
        -9.499174560523482
      ],
      [
        "▁770",
        -13.561149847827556
      ],
      [
        "▁increasing",
        -9.452108736266501
      ],
      [
        "▁transparen",
        -10.48387894933041
      ],
      [
        "____________",
        -12.477825512840543
      ],
      [
        "▁useful",
        -9.78515183736997
      ],
      [
        "▁greas",
        -10.973152101639501
      ],
      [
        "▁1996",
        -11.89624821019811
      ],
      [
        "▁112",
        -13.20433502805754
      ],
      [
        "▁rub",
        -10.168139659864543
      ],
      [
        "well",
        -10.278309650911378
      ],
      [
        "rry",
        -10.098921721006654
      ],
      [
        "▁operation",
        -9.301029896347814
      ],
      [
        "in",
        -7.521211146093937
      ],
      [
        "st",
        -12.984708586078437
      ],
      [
        "▁303-",
        -13.136798001269481
      ],
      [
        "▁oppress",
        -11.09464536834083
      ],
      [
        "▁b",
        -10.167201760957562
      ],
      [
        "▁louisian",
        -11.086608324410061
      ],
      [
        "▁scot",
        -10.545246675391496
      ],
      [
        "▁10:46",
        -13.191033757998555
      ],
      [
        "shima",
        -10.422041543253608
      ],
      [
        "▁bench",
        -10.112803623073946
      ],
      [
        "00",
        -9.744067134870264
      ],
      [
        "▁momm",
        -8.900877225897347
      ],
      [
        "▁who",
        -9.77453779214179
      ],
      [
        "▁abilit",
        -9.347728917489423
      ],
      [
        "▁20,000",
        -11.18698593061998
      ],
      [
        "▁artist",
        -9.776934371833772
      ],
      [
        "▁paw",
        -11.091095130442133
      ],
      [
        "?????",
        -11.077398246995248
      ],
      [
        "nut",
        -10.65491105913275
      ],
      [
        "▁color",
        -7.975312836366239
      ],
      [
        "▁movement",
        -9.305682674770164
      ],
      [
        "▁del",
        -11.06091041640448
      ],
      [
        "▁net",
        -9.572443247893244
      ],
      [
        "▁array",
        -11.086151217435793
      ],
      [
        "▁debate",
        -9.343335723780509
      ],
      [
        "▁rose",
        -9.317844527618277
      ],
      [
        "▁origin",
        -9.986028843094855
      ],
      [
        "▁forgot",
        -9.073852814432453
      ],
      [
        "▁report",
        -7.7755583564881805
      ],
      [
        "535",
        -13.34204307208362
      ],
      [
        "▁weaken",
        -10.976991419956672
      ],
      [
        "▁125",
        -12.781539555372706
      ],
      [
        "▁jer",
        -9.9761851117503
      ],
      [
        "te",
        -15.405337077280535
      ],
      [
        "▁09:5",
        -13.197391014154238
      ],
      [
        "▁institute",
        -10.423962749011809
      ],
      [
        "▁conservation",
        -11.209250211288964
      ],
      [
        "im",
        -8.884759882471188
      ],
      [
        "747",
        -12.054775261011347
      ],
      [
        "▁21",
        -9.720348909308502
      ],
      [
        "▁memorial",
        -10.69962452396595
      ],
      [
        "▁gum",
        -10.631521985532578
      ],
      [
        "▁faint",
        -11.084267017502647
      ],
      [
        "▁trading",
        -9.743831549720417
      ],
      [
        "▁fit",
        -8.559964024200578
      ],
      [
        "▁couch",
        -10.070680095625164
      ],
      [
        "▁ninety",
        -11.07772853787612
      ],
      [
        "▁surgeon",
        -10.874727293739172
      ],
      [
        "▁background",
        -9.911567567866742
      ],
      [
        "▁10:4",
        -12.397343587659027
      ],
      [
        "▁website",
        -8.800046261706354
      ],
      [
        "▁tru",
        -9.800951603678632
      ],
      [
        "▁beneficia",
        -10.973375269007084
      ],
      [
        "▁wiggle",
        -9.98728672386784
      ],
      [
        "muel",
        -10.34189084126414
      ],
      [
        "▁cuc",
        -10.702438069313784
      ],
      [
        "10",
        -10.470433479940175
      ],
      [
        "▁welcom",
        -11.01712026475972
      ],
      [
        "▁fork",
        -9.685730496842861
      ],
      [
        "to",
        -9.200376153881685
      ],
      [
        "▁excess",
        -10.550562445581454
      ],
      [
        "go",
        -10.366859053500345
      ],
      [
        "▁window",
        -8.417129021806172
      ],
      [
        "▁4.",
        -11.347282326888081
      ],
      [
        "▁6/1",
        -13.68037551197092
      ],
      [
        "▁convey",
        -11.084416653453022
      ],
      [
        "▁edward",
        -10.026649394389592
      ],
      [
        "2/",
        -14.043906342491137
      ],
      [
        "▁standards",
        -9.257269154148753
      ],
      [
        "▁hung",
        -9.81963923021652
      ],
      [
        "▁stroll",
        -10.550715348338382
      ],
      [
        "▁bother",
        -9.68913144319813
      ],
      [
        "sie",
        -11.754802446786904
      ],
      [
        "▁hi",
        -8.170927441392577
      ],
      [
        "alaba",
        -10.553160435148431
      ],
      [
        "y",
        -9.961283824744118
      ],
      [
        "▁na",
        -11.357453840286972
      ],
      [
        "▁vlog",
        -9.875054812367786
      ],
      [
        "▁robe",
        -10.828161857964457
      ],
      [
        "▁horribl",
        -9.574205454371512
      ],
      [
        "g",
        -6.298432668733279
      ],
      [
        "▁!!!",
        -8.747253193189774
      ],
      [
        "▁site",
        -8.50319084476613
      ],
      [
        "▁pro",
        -8.946599094671818
      ],
      [
        "▁crom",
        -9.303208057407991
      ],
      [
        "m",
        -4.126316415305995
      ],
      [
        "432",
        -13.678790289678101
      ],
      [
        "nde",
        -12.81357135271133
      ],
      [
        "▁proceeding",
        -10.668841601076785
      ],
      [
        "▁project",
        -8.146639795652543
      ],
      [
        "▁mouss",
        -10.700183873829056
      ],
      [
        "▁branch",
        -10.77560239826677
      ],
      [
        "▁phillip",
        -10.782234522955564
      ],
      [
        "delhi",
        -10.02637984006667
      ],
      [
        "▁dangerous",
        -9.226805459243224
      ],
      [
        "29.",
        -13.145976147055816
      ],
      [
        "▁swap",
        -10.98790692180973
      ],
      [
        "▁tin",
        -8.692355116401423
      ],
      [
        "▁allow",
        -8.804257228262099
      ],
      [
        "▁movie",
        -8.396301792864575
      ],
      [
        "thi",
        -7.4687070885228275
      ],
      [
        "▁belgi",
        -10.362107626399617
      ],
      [
        "▁12",
        -8.716716429943682
      ],
      [
        "▁figure",
        -8.55674353959412
      ],
      [
        "2",
        -10.53881921003439
      ],
      [
        "▁partner",
        -10.349314017229075
      ],
      [
        "|",
        -9.70691813184516
      ],
      [
        "me",
        -8.491665941977896
      ],
      [
        "▁gar",
        -11.938717667428307
      ],
      [
        "9/11",
        -11.116867274471282
      ],
      [
        "!!!!!!!!!!",
        -11.520021148139234
      ],
      [
        "ecca",
        -10.938936590055048
      ],
      [
        "-----------",
        -11.0313601562369
      ],
      [
        "▁elder",
        -10.484244448914763
      ],
      [
        "▁cradle",
        -10.873139415213295
      ],
      [
        "cious",
        -10.899994821185008
      ],
      [
        "▁ethic",
        -10.790297215860974
      ],
      [
        "▁flew",
        -10.698948896580314
      ],
      [
        "then",
        -6.304621920954483
      ],
      [
        "over",
        -10.135244341423348
      ],
      [
        "▁landing",
        -10.551452720486946
      ],
      [
        "▁foster",
        -11.084467409001967
      ],
      [
        "▁whee",
        -10.779511923805421
      ],
      [
        "▁banjo",
        -10.698956502375562
      ],
      [
        "▁averag",
        -9.523692171080093
      ],
      [
        "\"",
        -4.250245863309695
      ],
      [
        "nook",
        -10.166981447595251
      ],
      [
        "▁dand",
        -9.800602745083479
      ],
      [
        "▁paine",
        -10.227321389786928
      ],
      [
        "ett",
        -13.27741638829742
      ],
      [
        "▁moderate",
        -10.701869998622572
      ],
      [
        "▁emerg",
        -9.520259465764106
      ],
      [
        "what",
        -7.9954044867101235
      ],
      [
        "▁190",
        -11.796319890941167
      ],
      [
        "▁21,",
        -14.146030434996668
      ],
      [
        "son@",
        -12.833766077176563
      ],
      [
        "▁eve",
        -10.429775631390832
      ],
      [
        "▁civilize",
        -10.484638688785727
      ],
      [
        "▁funn",
        -8.652168365494113
      ],
      [
        "du",
        -12.226091588455981
      ],
      [
        "▁cartoon",
        -9.774865484621335
      ],
      [
        "▁instrument",
        -10.69889667364693
      ],
      [
        "▁law",
        -8.146995868553539
      ],
      [
        "▁refuse",
        -10.096490427288598
      ],
      [
        "89",
        -10.782289073033326
      ],
      [
        "▁#",
        -13.65519821920551
      ],
      [
        "▁kell",
        -10.994236221906172
      ],
      [
        "120",
        -14.384824411656979
      ],
      [
        "▁alway",
        -7.494077491090278
      ],
      [
        "▁abbreviation",
        -11.084250208928754
      ],
      [
        ":15",
        -12.622561123925353
      ],
      [
        "ar",
        -7.965964220060477
      ],
      [
        "▁charles",
        -10.073862865423585
      ],
      [
        "ic",
        -7.528556480818282
      ],
      [
        "▁prop",
        -12.834253715479338
      ],
      [
        "▁rank",
        -9.897470499584426
      ],
      [
        "51",
        -13.168608066560093
      ],
      [
        "ty",
        -8.090588672545262
      ],
      [
        "▁geographical",
        -10.62406800676357
      ],
      [
        "▁moment",
        -8.557791436270698
      ],
      [
        "ten",
        -9.120651061828884
      ],
      [
        "/4",
        -14.507837677050668
      ],
      [
        "▁incredibl",
        -10.026149544886373
      ],
      [
        "▁carrot",
        -10.254409270645382
      ],
      [
        "▁415.",
        -13.853516783498604
      ],
      [
        "▁hook",
        -10.63727748395278
      ],
      [
        "6.8",
        -11.52194411340363
      ],
      [
        "▁receipt",
        -10.483878368499408
      ],
      [
        "97",
        -11.603342702020502
      ],
      [
        "▁commission",
        -8.3410138646631
      ],
      [
        "▁sympath",
        -10.306999293729387
      ],
      [
        "▁own",
        -7.355152662122664
      ],
      [
        "▁dunn",
        -10.782321786566396
      ],
      [
        "uc",
        -12.842263175669295
      ],
      [
        "▁treatment",
        -9.265273919885482
      ],
      [
        "▁predator",
        -10.254372035817202
      ],
      [
        "▁choice",
        -9.0428396835315
      ],
      [
        "herself",
        -13.45138161859207
      ],
      [
        "▁urban",
        -10.067824236583757
      ],
      [
        "▁depart",
        -8.546685954523994
      ],
      [
        "▁08:2",
        -12.405270304354552
      ],
      [
        "▁francis",
        -11.087628223068057
      ],
      [
        "▁weekday",
        -10.552593004906736
      ],
      [
        "▁vogel",
        -12.833785843711352
      ],
      [
        "▁why",
        -6.9237535254701035
      ],
      [
        "▁possesse",
        -10.973174792224851
      ],
      [
        "▁compassion",
        -11.084250339928246
      ],
      [
        "▁shout",
        -10.307112749166887
      ],
      [
        "fore",
        -8.751763233800682
      ],
      [
        "▁laid",
        -10.069988113535608
      ],
      [
        "▁sponsor",
        -10.782231072615552
      ],
      [
        "▁tons",
        -10.64213656056911
      ],
      [
        "▁export",
        -9.499238822260022
      ],
      [
        "ham",
        -9.872893983544602
      ],
      [
        "▁sail",
        -10.186589821493465
      ],
      [
        "/29/200",
        -13.527257651397825
      ],
      [
        "▁qu",
        -10.412207750123624
      ],
      [
        "813",
        -12.636830846163312
      ],
      [
        "▁attempt",
        -8.75324748236065
      ],
      [
        "▁nine",
        -9.205736100991716
      ],
      [
        "▁habit",
        -10.66931990549255
      ],
      [
        "▁tree",
        -8.66131432277415
      ],
      [
        "▁instance",
        -9.71432769384752
      ],
      [
        "200",
        -8.756247508088084
      ],
      [
        "ch",
        -7.661779220352709
      ],
      [
        "altho",
        -11.741346848193063
      ],
      [
        "through",
        -10.025984896003525
      ],
      [
        "tery",
        -10.722350268244758
      ],
      [
        "▁threat",
        -9.362625527334512
      ],
      [
        "▁d",
        -10.280019826971163
      ],
      [
        "5:1",
        -12.952843723349199
      ],
      [
        "▁coupon",
        -10.624072695211321
      ],
      [
        "▁mum",
        -9.776753028765317
      ],
      [
        "▁compensation",
        -11.084250316031385
      ],
      [
        "▁steve",
        -9.942482136974146
      ],
      [
        ".4",
        -12.436816092376473
      ],
      [
        "go",
        -7.828250290974991
      ],
      [
        "▁shorts",
        -10.49088240066591
      ],
      [
        "▁emotion",
        -10.967011937434215
      ],
      [
        "ver",
        -11.941202826001042
      ],
      [
        ".9",
        -13.237707183940275
      ],
      [
        "▁hermi",
        -10.699223612173219
      ],
      [
        "▁notabl",
        -11.189700688768166
      ],
      [
        "5",
        -11.2014486825648
      ],
      [
        "▁grass",
        -9.747686775499886
      ],
      [
        "755",
        -14.450526138564245
      ],
      [
        "▁us",
        -11.512281127981279
      ],
      [
        "▁supplement",
        -10.782321196666741
      ],
      [
        "gli",
        -10.823220541600403
      ],
      [
        "▁challenge",
        -9.233768861981016
      ],
      [
        "▁amuse",
        -10.885630252194463
      ],
      [
        "▁florid",
        -9.550972857015589
      ],
      [
        "an",
        -7.749024924842498
      ],
      [
        "▁quick",
        -8.308569840722752
      ],
      [
        "▁father",
        -7.9196914763000725
      ],
      [
        "▁commissioner",
        -9.897748857497746
      ],
      [
        "▁george",
        -8.510863764464974
      ],
      [
        "▁02",
        -12.852745059953298
      ],
      [
        "▁painful",
        -11.086559195918362
      ],
      [
        "▁steps",
        -9.47062441429753
      ],
      [
        "▁05908",
        -14.137857475199201
      ],
      [
        "pool",
        -10.86570847116308
      ],
      [
        "▁1,",
        -11.196637822129153
      ],
      [
        "yo",
        -15.099394858063626
      ],
      [
        "▁scatter",
        -10.782232701828015
      ],
      [
        "row",
        -9.896580482552924
      ],
      [
        "▁lb",
        -10.783618444690232
      ],
      [
        "ro",
        -11.369268642045476
      ],
      [
        "▁worship",
        -10.779421287507963
      ],
      [
        "▁ac",
        -9.710727086754801
      ],
      [
        "▁755",
        -13.738721046877318
      ],
      [
        "35-",
        -12.600562428656753
      ],
      [
        "▁manuscript",
        -10.873139609598834
      ],
      [
        "▁columb",
        -9.416684963412077
      ],
      [
        "g.",
        -9.666834862862881
      ],
      [
        "▁kill",
        -8.62201226921261
      ],
      [
        "▁symbol",
        -10.421182334513556
      ],
      [
        "▁work",
        -11.833785839142507
      ],
      [
        "pan",
        -10.17074739312022
      ],
      [
        "▁book",
        -7.220696943215867
      ],
      [
        "mart",
        -10.440612187667245
      ],
      [
        "▁wil",
        -9.163200589105934
      ],
      [
        "▁ago",
        -8.30489380358946
      ],
      [
        "▁425-415-30",
        -13.13677057933544
      ],
      [
        "▁944-",
        -13.13846371516161
      ],
      [
        "▁whom",
        -9.933139747952437
      ],
      [
        "▁basi",
        -9.223738261959738
      ],
      [
        "▁toll",
        -10.39540193772413
      ],
      [
        "▁sooner",
        -10.400181632701488
      ],
      [
        "v",
        -10.803216070016004
      ],
      [
        "▁09:2",
        -12.432918097703686
      ],
      [
        "▁firm",
        -9.264443195184324
      ],
      [
        "▁found",
        -7.662833526269344
      ],
      [
        "▁arrest",
        -9.655336391081956
      ],
      [
        "nix",
        -8.167615380050695
      ],
      [
        "▁violen",
        -10.275246393532704
      ],
      [
        "▁aspect",
        -9.190640413785733
      ],
      [
        "▁whit",
        -10.837248722398089
      ],
      [
        "▁concentration",
        -10.622230306402338
      ],
      [
        "our",
        -14.203397884361365
      ],
      [
        "genda",
        -10.29826526687497
      ],
      [
        "▁3",
        -10.470862676844959
      ],
      [
        "▁103",
        -13.542774831643694
      ],
      [
        "▁absolute",
        -9.173094137321737
      ],
      [
        "▁tulsa",
        -10.026151011125464
      ],
      [
        "▁contrast",
        -10.700966935499807
      ],
      [
        "▁poop",
        -10.206310785270084
      ],
      [
        "▁afford",
        -9.452129781111907
      ],
      [
        "▁noon",
        -8.408007409882366
      ],
      [
        "ful",
        -7.756954765414779
      ],
      [
        "▁or",
        -9.547816572173035
      ],
      [
        "▁.....",
        -12.265366154194604
      ],
      [
        "▁facult",
        -10.30700205514011
      ],
      [
        ":32",
        -12.490201473690343
      ],
      [
        "avia",
        -10.558225672703909
      ],
      [
        "▁developer",
        -10.673851438671011
      ],
      [
        "▁fi",
        -14.154370951148584
      ],
      [
        "9",
        -9.761469071731689
      ],
      [
        "ca",
        -9.144750437210643
      ],
      [
        "ad",
        -13.093669832419437
      ],
      [
        "ka",
        -11.598593399000144
      ],
      [
        "▁prefer",
        -10.036384042793918
      ],
      [
        "ll",
        -5.735079957665787
      ],
      [
        "▁bug",
        -9.144577828000006
      ],
      [
        "ly",
        -12.684573575705421
      ],
      [
        "▁depict",
        -10.78381867318382
      ],
      [
        "▁buri",
        -10.783036128557075
      ],
      [
        "▁killing",
        -10.080638348429739
      ],
      [
        "▁associate",
        -9.22667695934851
      ],
      [
        "▁explosive",
        -11.209250209117135
      ],
      [
        "▁08:3",
        -12.515232474275917
      ],
      [
        "emp",
        -11.876212475785815
      ],
      [
        "▁lip",
        -10.716563262835747
      ],
      [
        "416",
        -15.207281602474177
      ],
      [
        "▁pony",
        -10.783132127397295
      ],
      [
        "nfant",
        -10.483870515745163
      ],
      [
        "▁moon",
        -9.271432626961925
      ],
      [
        "▁inside",
        -8.956089121354628
      ],
      [
        "▁nw",
        -11.09150879260685
      ],
      [
        "ist",
        -8.227925635947678
      ],
      [
        "▁!!!!!!",
        -11.049216165262706
      ],
      [
        "▁weapon",
        -9.039450327971604
      ],
      [
        "▁han",
        -10.372876117014705
      ],
      [
        "▁z",
        -11.679987020174599
      ],
      [
        "420",
        -13.637063103502198
      ],
      [
        "▁inevitabl",
        -10.550545110781142
      ],
      [
        "+",
        -9.375196107582328
      ],
      [
        "▁thing",
        -6.598772447468989
      ],
      [
        "▁scientology",
        -9.364982753419213
      ],
      [
        "▁134",
        -14.919254389209478
      ],
      [
        "▁laptop",
        -10.973202611702124
      ],
      [
        "th",
        -13.300727225114228
      ],
      [
        "▁again",
        -7.029466446335007
      ],
      [
        "mike",
        -8.877175224612067
      ],
      [
        "▁right",
        -11.051770298862332
      ],
      [
        "▁val",
        -9.47660142037704
      ],
      [
        "▁til",
        -14.239400027983454
      ],
      [
        "713-",
        -15.202423208569172
      ],
      [
        "▁+++",
        -12.358572978158323
      ],
      [
        "▁memoir",
        -10.782232839824534
      ],
      [
        "▁tri",
        -8.384749075884825
      ],
      [
        "▁surviv",
        -9.995050917382727
      ],
      [
        "▁)",
        -8.872842140444845
      ],
      [
        "▁size",
        -8.943134331160117
      ],
      [
        "nson@enron",
        -11.833845510207494
      ],
      [
        "man",
        -12.141727430762012
      ],
      [
        "▁ther",
        -6.904655898983937
      ],
      [
        "▁retreat",
        -10.87313914459913
      ],
      [
        "▁dislike",
        -10.551371030564349
      ],
      [
        "▁structure",
        -8.97181510545484
      ],
      [
        "▁youtube",
        -9.87493843164854
      ],
      [
        "古",
        -12.833785825435129
      ],
      [
        "▁gear",
        -10.6996935562554
      ],
      [
        "▁5",
        -11.486037404032146
      ],
      [
        "▁afternoon",
        -7.758943884537265
      ],
      [
        "▁remote",
        -10.62202741693656
      ],
      [
        "▁pay",
        -8.09979969254273
      ],
      [
        "1:",
        -14.542473638832032
      ],
      [
        "▁wonder",
        -8.604444397065972
      ],
      [
        "among",
        -11.64830135198203
      ],
      [
        "ford",
        -9.786995027015621
      ],
      [
        "bun",
        -10.560419836200156
      ],
      [
        "rui",
        -11.834054007462155
      ],
      [
        ".782",
        -12.337539463900077
      ],
      [
        "180",
        -13.39582288160893
      ],
      [
        "▁abbas",
        -10.55056130100833
      ],
      [
        "▁draw",
        -8.023142053893745
      ],
      [
        "stead",
        -8.272547320490578
      ],
      [
        "▁rip",
        -9.74814727716516
      ],
      [
        "61",
        -12.975113719148485
      ],
      [
        "pa",
        -13.720982255518187
      ],
      [
        "ther",
        -7.090046076519714
      ],
      [
        "force",
        -10.660635018840182
      ],
      [
        "▁appropriate",
        -9.432296933988706
      ],
      [
        "▁bangladesh",
        -10.867528499405825
      ],
      [
        "▁as",
        -6.912757811287375
      ],
      [
        "▁direct",
        -8.406305212865606
      ],
      [
        "281",
        -13.08571318027819
      ],
      [
        "▁company",
        -8.128477239894305
      ],
      [
        "▁gar",
        -9.858379495443078
      ],
      [
        "craft",
        -8.465931625215791
      ],
      [
        "▁consent",
        -10.786497342468856
      ],
      [
        "▁michael",
        -9.173094140490939
      ],
      [
        "7,5",
        -14.136437153738301
      ],
      [
        "▁yo",
        -11.72382369226988
      ],
      [
        "▁connect",
        -9.363794353351953
      ],
      [
        "on",
        -10.927554331646155
      ],
      [
        "▁glacier",
        -11.084250209879071
      ],
      [
        "▁ridiculous",
        -10.873309578703292
      ],
      [
        "▁sustain",
        -9.744585281804113
      ],
      [
        "▁session",
        -9.774872792862244
      ],
      [
        "oxi",
        -10.751375792651329
      ],
      [
        "▁review",
        -8.191228696821646
      ],
      [
        "[MASK]",
        0.0
      ],
      [
        "▁material",
        -9.027680630673654
      ],
      [
        "ily",
        -9.067209170638304
      ],
      [
        "▁litera",
        -9.55165512951099
      ],
      [
        "▁rental",
        -9.746425132348913
      ],
      [
        "ladie",
        -10.653143941266732
      ],
      [
        "▁sovereign",
        -10.550545035231512
      ],
      [
        "▁165",
        -13.333829689480131
      ],
      [
        "▁catch",
        -8.789110931341876
      ],
      [
        "▁secretary",
        -9.575888758086439
      ],
      [
        "▁summ",
        -10.780632045419036
      ],
      [
        "111",
        -12.788292034875846
      ],
      [
        "ff",
        -11.980794772189306
      ],
      [
        "internet",
        -8.73156106710295
      ],
      [
        "▁argentin",
        -10.111294106890856
      ],
      [
        "▁stable",
        -10.996689230876141
      ],
      [
        "▁interrupt",
        -10.625044490176375
      ],
      [
        "▁elite",
        -10.550816276136345
      ],
      [
        "▁symptom",
        -11.084297502871946
      ],
      [
        "▁headache",
        -10.974435596490418
      ],
      [
        "▁global",
        -8.67628738823569
      ],
      [
        "bever",
        -11.340099135873393
      ],
      [
        "▁wol",
        -9.949220266966652
      ],
      [
        "▁with",
        -10.577457793838306
      ],
      [
        "▁03/",
        -13.930564962300714
      ],
      [
        "▁remember",
        -7.5918894277223075
      ],
      [
        "▁place",
        -6.830668594570771
      ],
      [
        "▁before",
        -8.625549974881018
      ],
      [
        "▁hebrew",
        -11.20925021008891
      ],
      [
        "▁western",
        -9.369088236322312
      ],
      [
        "▁default",
        -10.204367698915043
      ],
      [
        "4-449",
        -13.136787201776146
      ],
      [
        "ick",
        -10.132046877133082
      ],
      [
        "▁05/0",
        -13.800770594177061
      ],
      [
        "▁primari",
        -10.64238478458082
      ],
      [
        "▁designate",
        -11.154347884831648
      ],
      [
        "▁171",
        -13.30374834720713
      ],
      [
        "▁u",
        -9.187278560530263
      ],
      [
        "▁decade",
        -9.155944193568827
      ],
      [
        "✉",
        -11.333785825435129
      ],
      [
        "wide",
        -10.086089268928692
      ],
      [
        "▁bread",
        -9.014134261037015
      ],
      [
        "▁uh",
        -7.30352553536834
      ],
      [
        "79",
        -11.29484954084604
      ],
      [
        "wear",
        -11.204002201397703
      ],
      [
        "▁synta",
        -10.307684800099798
      ],
      [
        "toxic",
        -10.620979383968251
      ],
      [
        "▁hu",
        -10.54529047320942
      ],
      [
        "▁urin",
        -10.974675384450661
      ],
      [
        "master",
        -11.06119709878956
      ],
      [
        "▁03/0",
        -11.442809681049695
      ],
      [
        "be",
        -7.3382005433760105
      ],
      [
        "rais",
        -10.934649994852478
      ],
      [
        "▁iq",
        -10.622076643145727
      ],
      [
        "▁non-",
        -9.04289584016876
      ],
      [
        "▁shin",
        -9.75049094754396
      ],
      [
        "▁involve",
        -9.483667105606104
      ],
      [
        "▁holder",
        -10.78671918398154
      ],
      [
        "ours",
        -13.89115337414983
      ],
      [
        "ook",
        -11.182728768570309
      ],
      [
        "▁bite",
        -8.882192736897272
      ],
      [
        "750",
        -14.563579567680097
      ],
      [
        "gur",
        -11.012294776216754
      ],
      [
        "ott",
        -9.763156690135414
      ],
      [
        "▁cit",
        -9.32307346964867
      ],
      [
        "▁see",
        -5.838848389374716
      ],
      [
        "wo",
        -11.00704601879946
      ],
      [
        "9",
        -8.142959650847832
      ],
      [
        "▁sigh",
        -10.967727821731627
      ],
      [
        "▁acupunctur",
        -11.209250208901995
      ],
      [
        "▁option",
        -8.629982394301976
      ],
      [
        "▁sandwich",
        -9.322909567810164
      ],
      [
        "▁measure",
        -8.82170350278074
      ],
      [
        "▁top",
        -8.030367224448653
      ],
      [
        "▁receiv",
        -9.091497159262875
      ],
      [
        "▁earn",
        -9.688818002807789
      ],
      [
        "888.",
        -12.636947950041677
      ],
      [
        "▁???",
        -12.15424849418477
      ],
      [
        "re",
        -9.464589152516979
      ],
      [
        "▁disturb",
        -10.782230017059518
      ],
      [
        "▁microscop",
        -10.705930218179468
      ],
      [
        "▁chamber",
        -10.782231221353268
      ],
      [
        "▁height",
        -9.986259286483449
      ],
      [
        "▁arrogant",
        -10.30863613314014
      ],
      [
        "▁65",
        -11.678712553193165
      ],
      [
        "▁02:1",
        -12.451409666312614
      ],
      [
        "▁balloon",
        -9.364163480317831
      ],
      [
        "8",
        -8.166321644259856
      ],
      [
        "▁believe",
        -7.85162323027068
      ],
      [
        "▁cost",
        -7.890335100128528
      ],
      [
        "▁accurate",
        -9.876345296489148
      ],
      [
        "▁muff",
        -11.086259669152037
      ],
      [
        "[",
        -6.198132057417013
      ],
      [
        "++++++",
        -11.00302849415197
      ],
      [
        "▁wrap",
        -10.20275401625351
      ],
      [
        "▁bust",
        -10.689696948332692
      ],
      [
        "labi",
        -11.104361439136788
      ],
      [
        "▁improv",
        -9.873926820320495
      ],
      [
        "▁ken",
        -9.94309372024912
      ],
      [
        "▁10:3",
        -12.310518676031213
      ],
      [
        "▁hurry",
        -9.910946570297073
      ],
      [
        "un",
        -9.193911747915312
      ],
      [
        "♥",
        -12.833785825435129
      ],
      [
        ")",
        -11.209250208901656
      ],
      [
        "▁principal",
        -10.782230006869987
      ],
      [
        "▁office",
        -7.822017503973564
      ],
      [
        "▁shovel",
        -11.086593187879595
      ],
      [
        "/01/200",
        -12.253837409322445
      ],
      [
        "088",
        -14.609238966070613
      ],
      [
        "!!!!!!",
        -10.851202100899231
      ],
      [
        "▁give",
        -6.569044848676262
      ],
      [
        "▁rhino",
        -10.782230774427454
      ],
      [
        "▁enron",
        -8.301320029435264
      ],
      [
        "▁510",
        -14.65838821448321
      ],
      [
        "p",
        -9.077018352588304
      ],
      [
        "▁glad",
        -9.283312268740836
      ],
      [
        ":",
        -15.518265406639655
      ],
      [
        "kan",
        -13.878336595411938
      ],
      [
        "▁emotional",
        -10.979304004788368
      ],
      [
        "▁crate",
        -11.084452426312467
      ],
      [
        "▁the",
        -9.847847264519224
      ],
      [
        "del",
        -13.592865985019715
      ],
      [
        "▁curious",
        -10.42140571106518
      ],
      [
        "ota",
        -10.081100537911363
      ],
      [
        "▁loan",
        -9.429887506525649
      ],
      [
        "▁fin",
        -10.231516812266767
      ],
      [
        "▁mine",
        -10.774985846253598
      ],
      [
        "▁mount",
        -10.491689334224944
      ],
      [
        "▁ari",
        -10.9643028161149
      ],
      [
        "▁put",
        -6.221635324443237
      ],
      [
        "▁labor",
        -9.57459367068969
      ],
      [
        "shire",
        -10.423135002491737
      ],
      [
        "▁0.00",
        -15.109614267568244
      ],
      [
        "▁occur",
        -10.023447959209639
      ],
      [
        "▁shadow",
        -9.87493756778584
      ],
      [
        "▁indi",
        -11.04205246981168
      ],
      [
        "▁brother",
        -8.849407188241042
      ],
      [
        "▁contemporar",
        -10.111294101529586
      ],
      [
        "▁settle",
        -9.771911506636336
      ],
      [
        "nda",
        -9.881652007303375
      ],
      [
        "▁employee",
        -9.45261656198875
      ],
      [
        "▁1000",
        -10.355355157779499
      ],
      [
        "▁rode",
        -10.370388089257775
      ],
      [
        "▁stamp",
        -11.20911858789488
      ],
      [
        "▁usual",
        -8.294175329753353
      ],
      [
        "▁serve",
        -8.037806622712779
      ],
      [
        "▁jones",
        -10.316613612649606
      ],
      [
        "▁bubble",
        -9.910650756671924
      ],
      [
        "▁island",
        -8.22835318912909
      ],
      [
        "▁worst",
        -9.365023829943588
      ],
      [
        "▁able",
        -8.105547329319004
      ],
      [
        "▁summer",
        -8.615156397380883
      ],
      [
        "▁van",
        -9.562859974576504
      ],
      [
        "amp",
        -10.903858134684649
      ],
      [
        "▁position",
        -8.539686451992031
      ],
      [
        "▁smith",
        -9.787028199575548
      ],
      [
        "related",
        -11.117318286679861
      ],
      [
        "▁lodg",
        -10.62261085279007
      ],
      [
        "▁char",
        -8.018682344236296
      ],
      [
        "hal",
        -12.115204267614162
      ],
      [
        "▁853-",
        -14.134241513096976
      ],
      [
        "▁practical",
        -10.03219373853603
      ],
      [
        "▁of",
        -10.271062706744775
      ],
      [
        "▁trot",
        -10.783143822318094
      ],
      [
        "-",
        -11.33326351805243
      ],
      [
        "raz",
        -12.216306027598758
      ],
      [
        "▁blueberr",
        -10.87348919033801
      ],
      [
        "▁fleet",
        -11.101417952336762
      ],
      [
        "▁maca",
        -10.217989222855012
      ],
      [
        "▁minor",
        -10.375098538087073
      ],
      [
        "▁produce",
        -8.848843811157037
      ],
      [
        "▁cover",
        -8.369377328714162
      ],
      [
        "571",
        -14.156374722740878
      ],
      [
        "no",
        -10.6955255510563
      ],
      [
        "▁proof",
        -10.484037411919687
      ],
      [
        "▁genuine",
        -10.483878365707556
      ],
      [
        "▁peek",
        -10.9814191326297
      ],
      [
        "▁!?!",
        -14.014058543488009
      ],
      [
        "▁correspond",
        -10.78212379728984
      ],
      [
        "▁golf",
        -10.973682995264534
      ],
      [
        "bar",
        -10.14239108575932
      ],
      [
        "▁bean",
        -10.078103541352045
      ],
      [
        "▁soldier",
        -9.574259415485042
      ],
      [
        "half",
        -9.960722211744548
      ],
      [
        "▁ana",
        -10.446390125435023
      ],
      [
        "▁vision",
        -10.484130588957454
      ],
      [
        "▁listen",
        -8.652816277108192
      ],
      [
        "▁neo",
        -9.919572678084233
      ],
      [
        "bi",
        -8.910361586796142
      ],
      [
        "▁e.g",
        -11.33402471195896
      ],
      [
        "ors",
        -9.483204885093222
      ],
      [
        "▁astronaut",
        -11.209250208958494
      ],
      [
        "and",
        -3.8970350390850186
      ],
      [
        "tion",
        -9.013993685284298
      ],
      [
        "▁tribe",
        -10.720551045264124
      ],
      [
        "fence",
        -10.30956950608956
      ],
      [
        "th",
        -8.187693223871944
      ],
      [
        "435",
        -13.081662452102297
      ],
      [
        "▁y",
        -12.731331290976454
      ],
      [
        "38",
        -11.571807773434363
      ],
      [
        "▁dick",
        -10.622675451820747
      ],
      [
        "▁860",
        -13.31026522641037
      ],
      [
        "▁lei",
        -13.470949667794718
      ],
      [
        "▁season",
        -9.248332791050084
      ],
      [
        "▁overcom",
        -10.786662451436817
      ],
      [
        "▁bald",
        -10.854832258179222
      ],
      [
        "▁domestic",
        -10.067816125409335
      ],
      [
        "pos",
        -10.531974967040128
      ],
      [
        "opher",
        -10.633137544442626
      ],
      [
        "▁format",
        -9.215496976939292
      ],
      [
        "▁pie",
        -9.571091870884427
      ],
      [
        "▁210",
        -12.59373170075374
      ],
      [
        "▁joint",
        -10.175624316707406
      ],
      [
        "一",
        -12.833785825435129
      ],
      [
        "▁hostil",
        -11.095690854744861
      ],
      [
        "▁peanut",
        -9.452117736950006
      ],
      [
        "▁electric",
        -9.155873102452997
      ],
      [
        "▁reservation",
        -10.421378360632154
      ],
      [
        "▁def",
        -10.450420868665107
      ],
      [
        "▁mouth",
        -8.666992190670056
      ],
      [
        "▁happening",
        -9.914543032080713
      ],
      [
        "▁speaker",
        -9.670637949003032
      ],
      [
        "eur",
        -12.843554417548672
      ],
      [
        "▁sent",
        -8.479552331171764
      ],
      [
        "▁chair",
        -8.315479766564518
      ],
      [
        "▁communist",
        -10.425161423851383
      ],
      [
        "▁223",
        -13.579519920084984
      ],
      [
        "▁inspir",
        -10.721101419095906
      ],
      [
        "ا",
        -12.833785825398431
      ],
      [
        "▁church",
        -8.76700001969672
      ],
      [
        "▁susan",
        -10.204478479882056
      ],
      [
        "▁fashion",
        -10.156749172775537
      ],
      [
        "▁potato",
        -10.156750059154401
      ],
      [
        "▁rot",
        -10.045272757946453
      ],
      [
        "▁kitchen",
        -9.122237068411469
      ],
      [
        "case",
        -11.110437938765031
      ],
      [
        "▁myceli",
        -10.621973699964737
      ],
      [
        "▁prob",
        -11.152579614308333
      ],
      [
        "▁cough",
        -10.89356251595644
      ],
      [
        "hoe",
        -10.844896429361297
      ],
      [
        "▁record",
        -8.22145530443655
      ],
      [
        "▁propert",
        -8.396754565936831
      ],
      [
        "▁cal",
        -10.258542711671321
      ],
      [
        "▁veteran",
        -10.483885136786792
      ],
      [
        "748",
        -13.395315422654793
      ],
      [
        "▁sneez",
        -11.084252858369165
      ],
      [
        "▁participate",
        -10.289281120787095
      ],
      [
        "▁robert",
        -9.429419381940164
      ],
      [
        "▁taste",
        -8.913784963038744
      ],
      [
        "▁m",
        -9.468035479108513
      ],
      [
        "▁may",
        -7.182855929768164
      ],
      [
        "374",
        -14.171634080521564
      ],
      [
        "▁utilit",
        -10.48388314492855
      ],
      [
        "▁voice",
        -8.538168063413751
      ],
      [
        "acio",
        -11.783930075849659
      ],
      [
        "▁yield",
        -10.421378660246614
      ],
      [
        "▁her",
        -9.726959644502351
      ],
      [
        "▁713-853-3",
        -10.96826864569135
      ],
      [
        "▁tickle",
        -9.922821781373251
      ],
      [
        "▁creative",
        -9.325209902463534
      ],
      [
        "our",
        -8.449365008953343
      ],
      [
        "▁scient",
        -9.601163815918593
      ],
      [
        "▁pre-",
        -10.18933125995792
      ],
      [
        "163",
        -15.14065267998616
      ],
      [
        "me",
        -9.799251337819435
      ],
      [
        "▁928",
        -14.21094168812489
      ],
      [
        "▁taylor",
        -10.873139244553116
      ],
      [
        "▁dinner",
        -8.159157259826387
      ],
      [
        "▁successful",
        -9.107243610514848
      ],
      [
        "▁230",
        -11.64354903219914
      ],
      [
        "▁offend",
        -10.783645873545835
      ],
      [
        "rank",
        -10.157654785705393
      ],
      [
        "▁h-00",
        -14.077939751247342
      ],
      [
        "ul",
        -12.144280310333313
      ],
      [
        "▁flexibl",
        -11.087126812306446
      ],
      [
        ":0",
        -13.24566744499743
      ],
      [
        "▁investigat",
        -11.031164998501893
      ],
      [
        "▁labour",
        -10.699100853361198
      ],
      [
        "wh",
        -12.45689844506478
      ],
      [
        "---->",
        -11.77556405770272
      ],
      [
        "▁bay",
        -9.760641887762839
      ],
      [
        "▁manifest",
        -11.084253117265948
      ],
      [
        "dy",
        -12.875179971822407
      ],
      [
        "▁procedure",
        -9.475364548367429
      ],
      [
        "▁socks",
        -10.154595911521278
      ],
      [
        "▁often",
        -8.204318893928306
      ],
      [
        "mail",
        -10.7506421492864
      ],
      [
        "▁murderer",
        -10.808071338190853
      ],
      [
        "field",
        -10.337021971103859
      ],
      [
        "▁11:16:",
        -13.156524772672467
      ],
      [
        "900",
        -12.649802691990901
      ],
      [
        "▁df",
        -10.563077858529102
      ],
      [
        "▁complet",
        -10.267186840989106
      ],
      [
        "ls",
        -11.685671346963831
      ],
      [
        "▁english",
        -8.458450690811581
      ],
      [
        "lap",
        -12.842704468806712
      ],
      [
        "▁04:4",
        -12.694115992812023
      ],
      [
        "▁11/8/",
        -13.136932820969
      ],
      [
        "▁brush",
        -9.874961141542752
      ],
      [
        "▁rebel",
        -10.910375777774538
      ],
      [
        "▁epi",
        -10.768127818459682
      ],
      [
        "▁v",
        -9.59243631711555
      ],
      [
        "santorum",
        -9.774881382732016
      ],
      [
        "▁scor",
        -10.936680727427506
      ],
      [
        "▁water",
        -7.3433845228055326
      ],
      [
        "▁related",
        -9.08533728740783
      ],
      [
        "be",
        -8.125530184423782
      ],
      [
        "888",
        -14.243603115788291
      ],
      [
        "67.7",
        -12.63684079713223
      ],
      [
        "▁seek",
        -9.085974236951703
      ],
      [
        "0.2",
        -14.1427018553399
      ],
      [
        "▁motive",
        -10.622001044666902
      ],
      [
        "/news/",
        -10.698912211907698
      ],
      [
        "iling",
        -10.20389837161698
      ],
      [
        "▁migrate",
        -11.084250420452125
      ],
      [
        "0",
        -9.597530363980795
      ],
      [
        "▁editor",
        -10.022216625980503
      ],
      [
        "04/0",
        -14.183241206755312
      ],
      [
        "▁government",
        -7.811072301366397
      ],
      [
        "parnass",
        -10.873144692489142
      ],
      [
        "▁outfit",
        -10.622000019134093
      ],
      [
        "▁hm",
        -9.359473734038662
      ],
      [
        "ne",
        -12.218300795250945
      ],
      [
        "92",
        -10.54845270092631
      ],
      [
        "▁abundant",
        -11.087255735208817
      ],
      [
        "?",
        -10.782211464504316
      ],
      [
        "▁woke",
        -10.307006825855852
      ],
      [
        "▁iraq",
        -8.27978349047526
      ],
      [
        "▁participat",
        -9.87216361338525
      ],
      [
        "▁invite",
        -9.897004579483346
      ],
      [
        "▁na",
        -11.199504350597584
      ],
      [
        "▁5/1",
        -12.79150994845858
      ],
      [
        "▁stand",
        -8.48568162038282
      ],
      [
        "▁2.1",
        -13.29552063672877
      ],
      [
        "▁drawer",
        -10.474598376935136
      ],
      [
        "▁excit",
        -10.38666624403752
      ],
      [
        "▁plunge",
        -10.973350559591818
      ],
      [
        "☎",
        -11.833785825435129
      ],
      [
        "▁shoe",
        -8.380056526732112
      ],
      [
        "form",
        -11.74397402995111
      ],
      [
        "▁cleve",
        -8.502031710780809
      ],
      [
        "▁se",
        -9.672007415461184
      ],
      [
        "▁pal",
        -11.623352589811217
      ],
      [
        "▁urgent",
        -10.782477655880484
      ],
      [
        "▁3-52",
        -13.137000630792741
      ],
      [
        "▁text",
        -9.04007653836441
      ],
      [
        "▁stand",
        -11.833815694314197
      ],
      [
        "ware",
        -9.559928505583992
      ],
      [
        "5.6",
        -13.1400501831892
      ],
      [
        "sheet",
        -11.05801709104227
      ],
      [
        "▁specialist",
        -10.310566882413637
      ],
      [
        "▁le",
        -10.86344947938667
      ],
      [
        "▁705",
        -13.150366755684853
      ],
      [
        "ooh",
        -9.903849316898613
      ],
      [
        "▁gel",
        -10.226393329864845
      ],
      [
        "▁maxim",
        -10.30730871791731
      ],
      [
        "▁plan",
        -8.239561364058881
      ],
      [
        "0",
        -7.942014689472323
      ],
      [
        "▁carry",
        -8.779016953830144
      ],
      [
        "500",
        -11.860447827041963
      ],
      [
        "▁braver",
        -11.10181731081446
      ],
      [
        "ans",
        -11.365661282671361
      ],
      [
        "▁22",
        -10.168178807948134
      ],
      [
        "▁inn",
        -10.585373812009351
      ],
      [
        "▁irritat",
        -10.973165780840041
      ],
      [
        "@enron",
        -9.947791281457736
      ],
      [
        "▁administration",
        -9.13928665952518
      ],
      [
        "▁4",
        -10.546337851859157
      ],
      [
        "bi",
        -11.03152925061998
      ],
      [
        "folio",
        -10.652678599379442
      ],
      [
        "!!!!!",
        -11.993799257598972
      ],
      [
        "▁period",
        -8.361212000972992
      ],
      [
        "▁25",
        -9.47633880356933
      ],
      [
        "und",
        -8.394454848542383
      ],
      [
        "▁normal",
        -8.94424101414015
      ],
      [
        "cho",
        -11.189655478675734
      ],
      [
        "▁newspaper",
        -9.49919608104054
      ],
      [
        "▁struggl",
        -10.893942819916926
      ],
      [
        "▁julie",
        -10.4269512489411
      ],
      [
        "▁32",
        -11.230927335086662
      ],
      [
        "round",
        -7.710117922089975
      ],
      [
        "ne",
        -8.313038250622252
      ],
      [
        "▁preserve",
        -10.36081549136328
      ],
      [
        "1602",
        -12.75286170753208
      ],
      [
        "▁pledge",
        -10.067825178185675
      ],
      [
        "avoc",
        -10.493480038705066
      ],
      [
        "▁salt",
        -8.092118074436844
      ],
      [
        "st.",
        -7.76723701790979
      ],
      [
        "▁assess",
        -9.600744185649958
      ],
      [
        "▁journey",
        -10.204367825285065
      ],
      [
        "▁funeral",
        -10.362623540963945
      ],
      [
        "▁sa",
        -11.392299626641806
      ],
      [
        "nn",
        -12.65929978841836
      ],
      [
        "u",
        -9.36905735747882
      ],
      [
        "▁yours",
        -10.490369004197085
      ],
      [
        "▁political",
        -8.294564553285074
      ],
      [
        "▁month",
        -7.566381804033583
      ],
      [
        ".html",
        -9.431463438081433
      ],
      [
        "▁introduc",
        -10.203232039118484
      ],
      [
        "is",
        -9.444125738853518
      ],
      [
        "hou",
        -10.891721015640892
      ],
      [
        "▁celebrit",
        -10.97313909796923
      ],
      [
        "▁fax",
        -9.15672666313013
      ],
      [
        "▁2:30",
        -11.734134949673816
      ],
      [
        "let",
        -11.33634975264456
      ],
      [
        "▁line",
        -7.575646412263138
      ],
      [
        "▁chief",
        -9.655331813129523
      ],
      [
        "▁down",
        -6.894787423979743
      ],
      [
        "com",
        -13.080497432130679
      ],
      [
        "▁swim",
        -10.2033959054891
      ],
      [
        "▁aunt",
        -9.554086079127023
      ],
      [
        "▁tile",
        -10.87746874288479
      ],
      [
        "▁1327",
        -13.139428332926997
      ],
      [
        "art",
        -13.09379638849015
      ],
      [
        "tw",
        -10.822631328216058
      ],
      [
        "hers",
        -14.748162080548967
      ],
      [
        "▁hearing",
        -9.580778608738798
      ],
      [
        "▁select",
        -9.256702041383065
      ],
      [
        "▁111",
        -12.80605270452926
      ],
      [
        "▁modifi",
        -10.87314303083782
      ],
      [
        "pped",
        -9.370824367222053
      ],
      [
        "▁enter",
        -8.9423131211093
      ],
      [
        "▁unusual",
        -10.421378464939114
      ],
      [
        "ps",
        -11.805325689791168
      ],
      [
[...]
