{
  "version": "1.0",
  "truncation": null,
  "padding": null,
  "added_tokens": [
    {
      "id": 2922,
      "content": "[CLS]",
      "single_word": false,
      "lstrip": false,
      "rstrip": false,
      "normalized": false,
      "special": true
    },
    {
      "id": 5628,
      "content": "[MASK]",
      "single_word": false,
      "lstrip": false,
      "rstrip": false,
      "normalized": false,
      "special": true
    },
    {
      "id": 11188,
      "content": "[PAD]",
      "single_word": false,
      "lstrip": false,
      "rstrip": false,
      "normalized": false,
      "special": true
    },
    {
      "id": 11971,
      "content": "[UNK]",
      "single_word": false,
      "lstrip": false,
      "rstrip": false,
      "normalized": false,
      "special": true
    },
    {
      "id": 15816,
      "content": "[SEP]",
      "single_word": false,
      "lstrip": false,
      "rstrip": false,
      "normalized": false,
      "special": true
    }
  ],
  "normalizer": {
    "type": "Sequence",
    "normalizers": [
      {
        "type": "NFD"
      },
      {
        "type": "Lowercase"
      },
      {
        "type": "StripAccents"
      }
    ]
  },
  "pre_tokenizer": {
    "type": "Sequence",
    "pretokenizers": [
      {
        "type": "Metaspace",
        "replacement": "▁",
        "prepend_scheme": "always",
        "split": true
      }
    ]
  },
  "post_processor": {
    "type": "TemplateProcessing",
    "single": [
      {
        "SpecialToken": {
          "id": "[CLS]",
          "type_id": 0
        }
      },
      {
        "Sequence": {
          "id": "A",
          "type_id": 0
        }
      },
      {
        "SpecialToken": {
          "id": "[SEP]",
          "type_id": 0
        }
      }
    ],
    "pair": [
      {
        "SpecialToken": {
          "id": "[CLS]",
          "type_id": 0
        }
      },
      {
        "Sequence": {
          "id": "A",
          "type_id": 0
        }
      },
      {
        "SpecialToken": {
          "id": "[SEP]",
          "type_id": 0
        }
      },
      {
        "Sequence": {
          "id": "B",
          "type_id": 1
        }
      },
      {
        "SpecialToken": {
          "id": "[SEP]",
          "type_id": 1
        }
      }
    ],
    "special_tokens": {
      "[CLS]": {
        "id": "[CLS]",
        "ids": [
          2922
        ],
        "tokens": [
          "[CLS]"
        ]
      },
      "[SEP]": {
        "id": "[SEP]",
        "ids": [
          15816
        ],
        "tokens": [
          "[SEP]"
        ]
      }
    }
  },
  "decoder": {
    "type": "Metaspace",
    "replacement": "▁",
    "prepend_scheme": "always",
    "split": true
  },
  "model": {
    "type": "Unigram",
    "unk_id": 11971,
    "vocab": [
      [
        "insula",
        -10.909970574537862
      ],
      [
        "▁lihaib",
        -12.771025606645795
      ],
      [
        "▁revenue",
        -9.916657221648252
      ],
      [
        "▁and",
        -10.843541831848249
      ],
      [
        "ka",
        -9.462469678476062
      ],
      [
        "▁ol",
        -10.387598845353358
      ],
      [
        "apping",
        -12.561662700212564
      ],
      [
        "▁vibrate",
        -13.039873129406367
      ],
      [
        "clusion",
        -13.479792938709984
      ],
      [
        "▁effac",
        -12.77102503868559
      ],
      [
        "▁initiative",
        -9.809483346079332
      ],
      [
        "generalization",
        -13.72526078987588
      ],
      [
        "▁decorat",
        -13.031813316054091
      ],
      [
        "▁deduct",
        -11.940715726562601
      ],
      [
        "▁su",
        -9.464120617989122
      ],
      [
        "▁descendant",
        -11.487848532632956
      ],
      [
        "eral",
        -11.845563440408633
      ],
      [
        "▁katherin",
        -11.938883871432456
      ],
      [
        "▁tentative",
        -12.27166785086389
      ],
      [
        "ve",
        -7.179020698767757
      ],
      [
        "▁taxi",
        -10.041528748031457
      ],
      [
        "▁closing",
        -10.277914645348933
      ],
      [
        "▁steps",
        -9.433483485824073
      ],
      [
        "▁outward",
        -11.322949226440935
      ],
      [
        "▁van",
        -9.55093929889825
      ],
      [
        "▁dirt",
        -8.651547687024628
      ],
      [
        "of",
        -7.711049108475499
      ],
      [
        "▁armenian",
        -11.179681042059672
      ],
      [
        "iv",
        -11.113264430465756
      ],
      [
        "▁certain",
        -8.085923568764741
      ],
      [
        "der",
        -9.911072845102526
      ],
      [
        "▁broadcast",
        -10.275932196325744
      ],
      [
        "▁female",
        -9.271819749451994
      ],
      [
        "▁plai",
        -13.491956321451294
      ],
      [
        "quantcast",
        -12.271142779993571
      ],
      [
        "▁holle",
        -13.53643238617889
      ],
      [
        "▁li",
        -12.400345616303753
      ],
      [
        "776",
        -12.023279956286233
      ],
      [
        "▁evident",
        -10.590891473546405
      ],
      [
        "redirect",
        -12.77102570712411
      ],
      [
        "adorama",
        -12.771233643101034
      ],
      [
        "▁bart",
        -11.66240338754041
      ],
      [
        "▁deb",
        -11.980849869929894
      ],
      [
        "care",
        -10.804070875372984
      ],
      [
        "▁prayerful",
        -12.774527656055092
      ],
      [
        "▁had",
        -6.4077211948751165
      ],
      [
        "▁add",
        -7.885037266552459
      ],
      [
        "▁li",
        -9.833723559422006
      ],
      [
        "raz",
        -12.288098988449617
      ],
      [
        "415-",
        -14.136912363440238
      ],
      [
        "▁canop",
        -11.937750387404341
      ],
      [
        "▁male",
        -9.339202156147657
      ],
      [
        "▁determinant",
        -12.772066323110316
      ],
      [
        "thes",
        -10.35223510998032
      ],
      [
        "short",
        -13.734158210451941
      ],
      [
        "301",
        -13.512431290676588
      ],
      [
        "ence",
        -9.546866182161564
      ],
      [
        "▁shinz",
        -10.765341572535748
      ],
      [
        "▁husa",
        -13.172414466073889
      ],
      [
        "▁epit",
        -12.787176163425704
      ],
      [
        "▁airport",
        -7.788935029333188
      ],
      [
        "▁three-",
        -12.77267110894094
      ],
      [
        "37",
        -12.331917746806008
      ],
      [
        "▁repose",
        -12.8532437472733
      ],
      [
        "▁lei",
        -13.470949667794704
      ],
      [
        "immigrate",
        -12.31250702864704
      ],
      [
        "vous",
        -12.553446107218154
      ],
      [
        "▁espeak",
        -11.937822143410786
      ],
      [
        "▁subsid",
        -12.521905649284912
      ],
      [
        "▁improper",
        -12.771025174503428
      ],
      [
        "▁condense",
        -11.6878100770872
      ],
      [
        "▁z",
        -10.946294564368744
      ],
      [
        "▁volta",
        -12.936714843679455
      ],
      [
        "▁reason",
        -8.008277299169304
      ],
      [
        "▁fernande",
        -13.64371871080097
      ],
      [
        "▁suspicio",
        -11.320365635902283
      ],
      [
        "▁300",
        -10.870247792781871
      ],
      [
        "-b-n-nook-",
        -12.771024968107888
      ],
      [
        "avage",
        -12.838381629231884
      ],
      [
        "▁hmmm",
        -11.938561837777172
      ],
      [
        "▁headache",
        -10.942401112658686
      ],
      [
        "▁external",
        -10.31499705528825
      ],
      [
        "▁night",
        -7.3225187343142295
      ],
      [
        "_____",
        -12.7106387805992
      ],
      [
        "▁reckless",
        -12.271048086151657
      ],
      [
        "ualit",
        -12.815279023061853
      ],
      [
        "ut",
        -11.124828315595806
      ],
      [
        "ught",
        -9.078472867052106
      ],
      [
        "▁felici",
        -12.271710424192669
      ],
      [
        "▁deep",
        -8.909455406582445
      ],
      [
        "▁trouble",
        -8.797952202050485
      ],
      [
        ".6",
        -13.375721379214077
      ],
      [
        "▁draw",
        -7.99494800725838
      ],
      [
        "▁margaret",
        -11.687691940156714
      ],
      [
        "gator",
        -12.726198653301857
      ],
      [
        "▁prejudice",
        -11.321024918855434
      ],
      [
        "▁pee",
        -10.490666942158963
      ],
      [
        "rake",
        -12.359133705594408
      ],
      [
        "▁delicious",
        -9.809375611639368
      ],
      [
        "▁texa",
        -8.629496271547978
      ],
      [
        "▁urin",
        -10.942427776597278
      ],
      [
        "grin",
        -12.854004987911791
      ],
      [
        "kater",
        -13.638751426201923
      ],
      [
        "▁sale",
        -10.164476776015857
      ],
      [
        "▁atrocit",
        -11.937691760599781
      ],
      [
        "▁spoon",
        -9.882330661998505
      ],
      [
        "02",
        -11.27753252043884
      ],
      [
        "▁leader",
        -9.186244450534927
      ],
      [
        "▁horses",
        -10.151165203199758
      ],
      [
        "▁arsenal",
        -12.771989832456892
      ],
      [
        "▁bloom",
        -11.053340671904042
      ],
      [
        "unic",
        -14.169007212126958
      ],
      [
        "▁fitful",
        -12.799794618046109
      ],
      [
        "j",
        -12.636770579354717
      ],
      [
        "▁box",
        -8.260758712933153
      ],
      [
        "▁4.",
        -14.174409290499899
      ],
      [
        "▁groan",
        -11.178412916947485
      ],
      [
        "▁eternal",
        -11.691311019178551
      ],
      [
        "▁negotiation",
        -10.173941998965581
      ],
      [
        "aid",
        -8.89542693891707
      ],
      [
        "▁assur",
        -10.860890752474742
      ],
      [
        "▁trigger",
        -11.053214747472015
      ],
      [
        "▁brita",
        -11.266975077337845
      ],
      [
        "▁redistribut",
        -11.68769160918289
      ],
      [
        "fid",
        -12.179832456372521
      ],
      [
        "▁haye",
        -12.814381255145308
      ],
      [
        "▁180",
        -11.117175652875954
      ],
      [
        "▁exposure",
        -9.682231250619903
      ],
      [
        "mo",
        -11.05508503396024
      ],
      [
        "▁keyword",
        -12.272834652972481
      ],
      [
        "▁sap",
        -11.046574861390464
      ],
      [
        "/01",
        -12.97897733418098
      ],
      [
        "▁household",
        -9.995200189332262
      ],
      [
        "-fla",
        -11.937746634334216
      ],
      [
        "▁24",
        -9.636353922881263
      ],
      [
        "▁dramatist",
        -12.771230763194595
      ],
      [
        "▁farc",
        -12.667132085374767
      ],
      [
        "▁jit",
        -11.498373117267487
      ],
      [
        "▁exemplifie",
        -12.271032471259774
      ],
      [
        "regardles",
        -12.54007091594521
      ],
      [
        "▁1.5",
        -10.928556940654719
      ],
      [
        "▁confidence",
        -10.224430378369961
      ],
      [
        "▁artifact",
        -12.771039888293778
      ],
      [
        "▁mh",
        -9.769646276500175
      ],
      [
        "▁voc",
        -12.525671809699196
      ],
      [
        "▁geopolitic",
        -12.271045563050716
      ],
      [
        "▁dissent",
        -12.771614288006136
      ],
      [
        "▁apologetic",
        -12.790028385061218
      ],
      [
        "▁belt",
        -10.083858126446547
      ],
      [
        "pie",
        -12.697975665333882
      ],
      [
        "▁nov",
        -8.694879589491203
      ],
      [
        "▁vegetarian",
        -11.330854940048425
      ],
      [
        "▁heave",
        -12.773939743544858
      ],
      [
        "bean",
        -11.932299394976173
      ],
      [
        "▁owe",
        -10.428647237004009
      ],
      [
        "▁nun",
        -12.574840033727485
      ],
      [
        "▁scharf",
        -12.271058264251428
      ],
      [
        "▁outline",
        -11.094199732288324
      ],
      [
        "▁mess",
        -9.453931917759402
      ],
      [
        "▁saint",
        -10.320249004994903
      ],
      [
        "▁is",
        -6.683859530650609
      ],
      [
        "▁united",
        -7.320445391741941
      ],
      [
        "▁humiliat",
        -13.286562077169568
      ],
      [
        "▁label",
        -10.447660279914533
      ],
      [
        "▁purcha",
        -13.696730334154816
      ],
      [
        "▁soft",
        -9.073710756614961
      ],
      [
        "▁dori",
        -11.357380646172034
      ],
      [
        "▁message",
        -8.624998333866724
      ],
      [
        "tique",
        -11.681323004458875
      ],
      [
        "in",
        -10.121798497307285
      ],
      [
        "▁promise",
        -9.154769986636623
      ],
      [
        "▁communist",
        -10.393032178324608
      ],
      [
        "199",
        -11.808463155916122
      ],
      [
        "sburg",
        -6.701282769664859
      ],
      [
        "lates",
        -11.659649245351194
      ],
      [
        "quin",
        -11.652992441983224
      ],
      [
        "▁glad",
        -9.252219436869352
      ],
      [
        "▁bulb",
        -9.846028466105544
      ],
      [
        "▁devote",
        -10.395833836270544
      ],
      [
        "▁outcast",
        -12.773738343843052
      ],
      [
        "zzin",
        -12.793386161694936
      ],
      [
        "▁flag",
        -9.543042410247374
      ],
      [
        "49",
        -12.046337643457093
      ],
      [
        "▁angel",
        -8.52683209654578
      ],
      [
        "ch",
        -11.427146876420405
      ],
      [
        "▁hansk",
        -11.7744996056149
      ],
      [
        "100",
        -11.126169046448926
      ],
      [
        "▁before",
        -8.594264723349406
      ],
      [
        "▁08/1",
        -12.915334419237052
      ],
      [
        "apr",
        -12.761695658241619
      ],
      [
        "▁introduce",
        -9.536927535545741
      ],
      [
        "just",
        -12.706092648916735
      ],
      [
        "澹",
        -12.833785825435129
      ],
      [
        "rogen",
        -12.08808753806369
      ],
      [
        "rdles",
        -12.781862386662901
      ],
      [
        "▁abbot",
        -11.937707620599834
      ],
      [
        "▁organizer",
        -12.848874593075477
      ],
      [
        "▁delay",
        -10.126102012040619
      ],
      [
        "reynol",
        -12.271349798093878
      ],
      [
        "rina",
        -11.866548814814722
      ],
      [
        "nonym",
        -10.944557569313114
      ],
      [
        "▁marc",
        -11.36702764233468
      ],
      [
        "children",
        -11.653764981622329
      ],
      [
        "▁blaze",
        -11.937906770312702
      ],
      [
        "▁mailing",
        -10.692571906369682
      ],
      [
        "▁nipp",
        -11.946663904063966
      ],
      [
        "poibeau",
        -12.77102554266287
      ],
      [
        "▁observation",
        -10.276767997646491
      ],
      [
        "rinn",
        -11.086878613349402
      ],
      [
        "▁tread",
        -12.275037081114101
      ],
      [
        "▁tul",
        -13.712024257615557
      ],
      [
        "▁smug",
        -12.271026558814865
      ],
      [
        "▁perr",
        -10.871309809157
      ],
      [
        "▁ado",
        -13.688403774374684
      ],
      [
        "▁gem",
        -11.131966750583114
      ],
      [
        "▁majorit",
        -9.726812828059105
      ],
      [
        "▁juli",
        -12.401795826039368
      ],
      [
        "▁shell",
        -9.881490213104946
      ],
      [
        "▁priest",
        -10.753169422404563
      ],
      [
        "▁jana",
        -11.203426605496132
      ],
      [
        "▁siz",
        -12.207433158797107
      ],
      [
        "▁update",
        -9.410169028233204
      ],
      [
        "▁naga",
        -12.774464733019656
      ],
      [
        "▁metal",
        -9.256622936906556
      ],
      [
        "inism",
        -12.822792585255668
      ],
      [
        "▁supporter",
        -10.380139957767865
      ],
      [
        "al",
        -6.318447710076003
      ],
      [
        "▁implement",
        -8.856511394801277
      ],
      [
        "engue",
        -13.331726559098598
      ],
      [
        "▁knock",
        -9.468109760597066
      ],
      [
        "ł",
        -13.34803063232274
      ],
      [
        "▁nause",
        -12.271899757424322
      ],
      [
        "table",
        -8.85162440036796
      ],
      [
        "ize",
        -9.671354800948738
      ],
      [
        "▁comedian",
        -11.688848416498134
      ],
      [
        "bodi",
        -12.984360091006103
      ],
      [
        "▁dutch",
        -11.054347605752646
      ],
      [
        "ov",
        -11.386597512417616
      ],
      [
        "ck",
        -11.501990416744686
      ],
      [
        "▁fight",
        -8.541089991810024
      ],
      [
        "▁occur",
        -9.974438837500056
      ],
      [
        "15",
        -10.272007946672392
      ],
      [
        "▁dynam",
        -13.516028504175482
      ],
      [
        "▁impression",
        -10.391561414883618
      ],
      [
        "▁madam",
        -9.444882522311879
      ],
      [
        "▁runner",
        -11.085658879956537
      ],
      [
        "tuff",
        -12.19726664666998
      ],
      [
        "▁kurd",
        -12.396870262043777
      ],
      [
        "▁parish",
        -11.784485697028442
      ],
      [
        "horse",
        -12.546502779237326
      ],
      [
        "880",
        -15.446409968184138
      ],
      [
        "▁file",
        -7.951375675129915
      ],
      [
        "▁preach",
        -11.684809211027401
      ],
      [
        "aged",
        -12.095787045695662
      ],
      [
        "th",
        -13.300727225114223
      ],
      [
        "▁arriv",
        -7.762889860048588
      ],
      [
        "her",
        -7.76771503543099
      ],
      [
        "▁diligen",
        -12.271080632352058
      ],
      [
        "▁knit",
        -12.763471918946168
      ],
      [
        "▁fo",
        -12.595832372441103
      ],
      [
        "torical",
        -12.77223530820747
      ],
      [
        "static",
        -11.944971457818024
      ],
      [
        "▁thermo",
        -11.937750492557036
      ],
      [
        "▁amin",
        -11.510102761746982
      ],
      [
        "approve",
        -12.733692905267214
      ],
      [
        "▁irrigat",
        -13.26152897075096
      ],
      [
        "▁fire",
        -8.405103585204603
      ],
      [
        "or",
        -11.559536562033587
      ],
      [
        "47",
        -12.108463626789693
      ],
      [
        "▁many",
        -6.778663455800115
      ],
      [
        "/2005.09/200509",
        -10.941974639705515
      ],
      [
        "lla",
        -13.042193289045917
      ],
      [
        "er",
        -8.73873720195392
      ],
      [
        "/08",
        -13.152034735197498
      ],
      [
        "▁nw",
        -11.06360465873902
      ],
      [
        "iro",
        -11.028842095006745
      ],
      [
        "orno",
        -12.273991413104481
      ],
      [
        "epic",
        -11.370594919457814
      ],
      [
        "▁inconsidera",
        -12.787048020608767
      ],
      [
        "▁mega",
        -11.495988601934299
      ],
      [
        "accept",
        -11.649874007772747
      ],
      [
        "tra",
        -11.286326700046635
      ],
      [
        "proof",
        -12.732557420078383
      ],
      [
        "▁9",
        -12.530469924805026
      ],
      [
        "stic",
        -13.27024951275185
      ],
      [
        "▁trust",
        -9.055256010409646
      ],
      [
        "▁go",
        -11.944803889857337
      ],
      [
        "sett",
        -11.425641893087697
      ],
      [
        "fashion",
        -12.732849052382495
      ],
      [
        "res",
        -11.577153767094357
      ],
      [
        "ting",
        -12.485813309269616
      ],
      [
        "intend",
        -12.735156386585395
      ],
      [
        "▁temp",
        -11.413519611214639
      ],
      [
        "▁with",
        -10.644170103195178
      ],
      [
        "▁waitress",
        -10.667858094881096
      ],
      [
        "▁canoe",
        -11.938318922471776
      ],
      [
        "ustache",
        -11.177362825398792
      ],
      [
        "▁ocean",
        -9.844294809283426
      ],
      [
        "▁shrugg",
        -11.488144345199094
      ],
      [
        "▁nudg",
        -12.275691765576488
      ],
      [
        "15",
        -12.408181624703616
      ],
      [
        "▁c",
        -7.305209582171904
      ],
      [
        "▁polan",
        -10.649444942097709
      ],
      [
        "▁communicat",
        -11.17459785052648
      ],
      [
        "configure",
        -13.079336219206537
      ],
      [
        "▁1030",
        -14.191480154345426
      ],
      [
        "▁gramp",
        -10.844456656306205
      ],
      [
        "koh",
        -12.664762700300573
      ],
      [
        "▁hypno",
        -11.86918327780393
      ],
      [
        "lette",
        -11.943758003198942
      ],
      [
        "mul",
        -11.833896043499934
      ],
      [
        "changes",
        -13.119253994489608
      ],
      [
        "▁polaroid",
        -10.275921742300685
      ],
      [
        "mma",
        -12.694404551471447
      ],
      [
        "▁ide",
        -13.271005410087644
      ],
      [
        "▁167",
        -13.956538851473839
      ],
      [
        "-mak",
        -12.30967287068683
      ],
      [
        "essi",
        -12.449912786814064
      ],
      [
        "▁dilution",
        -12.771394931948421
      ],
      [
        "▁gapin",
        -12.810397423016125
      ],
      [
        "▁warne",
        -11.235299160568223
      ],
      [
        "▁version",
        -9.197547530393393
      ],
      [
        "▁signall",
        -11.966381940561297
      ],
      [
        "▁how",
        -8.86190324297668
      ],
      [
        "▁merg",
        -12.506006958774481
      ],
      [
        "▁bomba",
        -12.608339440232312
      ],
      [
        "illiard",
        -12.778875947135226
      ],
      [
        "righteous",
        -12.808918456858368
      ],
      [
        "ific",
        -9.493922301888361
      ],
      [
        "ological",
        -10.557615380163773
      ],
      [
        "▁refu",
        -13.710583760787943
      ],
      [
        "▁str",
        -11.212083249767655
      ],
      [
        "▁drumstick",
        -12.271051789286396
      ],
      [
        "▁deadline",
        -11.054861987146262
      ],
      [
        "▁loyal",
        -11.321283034968824
      ],
      [
        "murra",
        -12.410485749323403
      ],
      [
        "▁chain",
        -10.277916427938417
      ],
      [
        "▁183",
        -10.543131175840323
      ],
      [
        "1.0",
        -14.84823629622486
      ],
      [
        "affle",
        -11.252152528332552
      ],
      [
        "▁unde",
        -12.681447764453567
      ],
      [
        "▁upper",
        -10.070677967796625
      ],
      [
        "uncan",
        -12.28475871377605
      ],
      [
        "▁fourteen",
        -11.178259674534512
      ],
      [
        "1,6",
        -13.588833239361369
      ],
      [
        "▁recommendation",
        -10.087024403324186
      ],
      [
        "▁cavern",
        -11.937822670266861
      ],
      [
        "▁electron",
        -12.782827421628621
      ],
      [
        "immigrate/",
        -13.613777207369257
      ],
      [
        "▁kil",
        -12.580134014517196
      ],
      [
        "▁ad",
        -13.069983555914995
      ],
      [
        "frey",
        -11.940868219288488
      ],
      [
        "▁rabin",
        -12.773022022744048
      ],
      [
        "▁snack",
        -10.45280269433322
      ],
      [
        "ausch",
        -12.819351779634646
      ],
      [
        ".asp?",
        -13.49529402259211
      ],
      [
        "▁carve",
        -11.398799247170661
      ],
      [
        "▁3,",
        -11.986573016429364
      ],
      [
        "7:3",
        -13.59615174620778
      ],
      [
        "well",
        -10.547416033661259
      ],
      [
        "▁washing",
        -10.318235407494512
      ],
      [
        "tion",
        -12.18006846808419
      ],
      [
        "▁books",
        -8.869066131289934
      ],
      [
        "▁don",
        -9.516565426204346
      ],
      [
        "c",
        -6.053272481059235
      ],
      [
        "▁plane",
        -8.978943073873094
      ],
      [
        "▁12:0",
        -12.67254254495367
      ],
      [
        "▁ambulance",
        -10.75114768440716
      ],
      [
        "11-",
        -13.161902737639597
      ],
      [
        "▁hour",
        -7.8831402478187655
      ],
      [
        "▁historic",
        -10.209439845010861
      ],
      [
        "▁translation",
        -9.916857940393674
      ],
      [
        "▁initial",
        -9.05863298986868
      ],
      [
        "▁bert",
        -11.244477569220141
      ],
      [
        "▁usi",
        -10.434073353173611
      ],
      [
        "kash",
        -10.544107282789941
      ],
      [
        "143",
        -12.771073909851655
      ],
      [
        "▁chunk",
        -11.687928885689912
      ],
      [
        "coal",
        -11.293245493096125
      ],
      [
        "▁wait",
        -7.628881298341619
      ],
      [
        ".enron.com",
        -12.77381937994672
      ],
      [
        "▁both",
        -9.853021443392569
      ],
      [
        "▁cleric",
        -10.943173059701428
      ],
      [
        "▁ven",
        -11.644097251587407
      ],
      [
        "ino",
        -11.442656562307324
      ],
      [
        "surf",
        -12.714642823311516
      ],
      [
        "▁claus",
        -11.304718238773454
      ],
      [
        "ators",
        -11.322879976361271
      ],
      [
        "resolve",
        -12.7357803067681
      ],
      [
        "▁15",
        -10.85181305045938
      ],
      [
        "▁6.",
        -13.152792151780693
      ],
      [
        "lung",
        -12.735797096888078
      ],
      [
        "▁deep-",
        -12.80888107381407
      ],
      [
        "▁prepared",
        -9.563861907011514
      ],
      [
        "▁sticker",
        -10.68537459352208
      ],
      [
        "▁elevator",
        -9.776055758918528
      ],
      [
        "▁transition",
        -10.27843793600777
      ],
      [
        "▁vintage",
        -10.84207099094114
      ],
      [
        "▁compound",
        -10.519480462786905
      ],
      [
        "▁thi",
        -5.393002986392684
      ],
      [
        "rio",
        -11.368284490750389
      ],
      [
        "▁hawk",
        -12.354167093739768
      ],
      [
        "yard",
        -10.685194754089508
      ],
      [
        "▁asht",
        -12.499783570796373
      ],
      [
        "▁matur",
        -12.682517453371371
      ],
      [
        "▁mound",
        -11.939360790169445
      ],
      [
        "-and-",
        -12.068570560333756
      ],
      [
        "▁rhodesian",
        -12.780172689725559
      ],
      [
        "crust",
        -12.393791479268593
      ],
      [
        "▁assum",
        -10.436525807449554
      ],
      [
        "▁ku",
        -10.880494582081441
      ],
      [
        "▁co",
        -11.082967748862702
      ],
      [
        "▁squ",
        -13.700658491699896
      ],
      [
        "ington",
        -11.145723595615285
      ],
      [
        "▁sch",
        -11.042520271932212
      ],
      [
        "▁controll",
        -11.32614274306232
      ],
      [
        "▁glass",
        -8.576904705188431
      ],
      [
        "troy",
        -12.31711293537601
      ],
      [
        "▁relative",
        -9.292401008265685
      ],
      [
        "▁assistan",
        -9.435637114811371
      ],
      [
        "▁advertise",
        -11.612285118420901
      ],
      [
        "▁francis",
        -11.05571083357284
      ],
      [
        "▁zippe",
        -11.69867975070564
      ],
      [
        "/default.",
        -12.771024932072018
      ],
      [
        "▁dealership",
        -11.178610546232036
      ],
      [
        "▁location",
        -8.783184749830792
      ],
      [
        "▁editors",
        -11.36141594605
      ],
      [
        "▁efficien",
        -10.16849390512325
      ],
      [
        "gold",
        -12.322997403787571
      ],
      [
        "▁alleged",
        -10.128888384177387
      ],
      [
        "▁01/19/",
        -12.359978021860881
      ],
      [
        "a-da",
        -12.555875732035808
      ],
      [
        "mi",
        -10.350978540918216
      ],
      [
        "it",
        -8.78622266717897
      ],
      [
        "woman",
        -11.649584605025527
      ],
      [
        "▁flame",
        -11.184390205854799
      ],
      [
        "▁president",
        -7.6833183013355795
      ],
      [
        "80",
        -10.68097320844364
      ],
      [
        "nca",
        -12.403582309077763
      ],
      [
        "▁symboli",
        -13.640835928614067
      ],
      [
        "▁jenni",
        -11.512332715598868
      ],
      [
        "▁gospel",
        -11.48772910322774
      ],
      [
        "▁request",
        -8.525677880670354
      ],
      [
        "▁215",
        -12.777466169421308
      ],
      [
        "▁revise",
        -10.304131805593514
      ],
      [
        "▁vietnam",
        -9.596468568358045
      ],
      [
        "▁malac",
        -12.917065050174983
      ],
      [
        "ostrom",
        -13.19599204968617
      ],
      [
        "▁transcendent",
        -12.771206106802573
      ],
      [
        "▁brai",
        -12.943131172967771
      ],
      [
        "vitaliz",
        -13.398696339336912
      ],
      [
        "▁region",
        -8.734371069200465
      ],
      [
        "wood",
        -9.674393694152194
      ],
      [
        "▁extensive",
        -10.45290853526611
      ],
      [
        "**************",
        -12.41740498694943
      ],
      [
        "▁calendar",
        -10.519469458307736
      ],
      [
        "▁maniac",
        -11.937759883289154
      ],
      [
        "▁resonate",
        -12.771032503041662
      ],
      [
        "▁tempt",
        -13.672809803034841
      ],
      [
        "▁deliver",
        -8.89733287540365
      ],
      [
        "▁complement",
        -11.05316815587164
      ],
      [
        "biblio",
        -12.78385279433739
      ],
      [
        "▁27",
        -10.732058639073951
      ],
      [
        "▁blackline",
        -11.943692798681155
      ],
      [
        "ledge",
        -13.477971002790516
      ],
      [
        "▁raid",
        -11.05483139638761
      ],
      [
        "▁05:3",
        -12.668251370718803
      ],
      [
        "uard",
        -12.308082924086976
      ],
      [
        "▁apprehensi",
        -11.687694416117791
      ],
      [
        "4503",
        -12.771107719311784
      ],
      [
        "paper",
        -11.44913668191269
      ],
      [
        "▁silkie",
        -10.603442107597477
      ],
      [
        "▁mutilat",
        -11.876506753617962
      ],
      [
        "▁quin",
        -8.280769087586435
      ],
      [
        "▁brim",
        -12.7849703659419
      ],
      [
        "▁inhabit",
        -11.692902932829131
      ],
      [
        "▁horse",
        -8.005628658395885
      ],
      [
        "▁cind",
        -10.392851555089221
      ],
      [
        "▁prerequisite",
        -11.937748464152687
      ],
      [
        "83",
        -12.471646851363039
      ],
      [
        "al",
        -9.879150985532643
      ],
      [
        "▁currenc",
        -9.87957271757537
      ],
      [
        "▁utiliz",
        -12.515142598487085
      ],
      [
        "▁rom",
        -11.282763908237797
      ],
      [
        "ocre",
        -11.93927961824082
      ],
      [
        "qu",
        -13.726881833055192
      ],
      [
        "▁copyright",
        -9.810911484194529
      ],
      [
        "ridge",
        -10.628733116850587
      ],
      [
        "▁1.2",
        -12.884990035352796
      ],
      [
        "▁ton",
        -10.646729838551583
      ],
      [
        "▁met",
        -8.697074375226915
      ],
      [
        "▁fifteen",
        -10.523208807659708
      ],
      [
        "handa",
        -12.373084785685478
      ],
      [
        "▁bust",
        -10.966586849770037
      ],
      [
        "▁aggregat",
        -12.812273258621083
      ],
      [
        "▁whee",
        -11.05623901353594
      ],
      [
        "▁coat",
        -9.856826399576349
      ],
      [
        "holster",
        -11.949295406419559
      ],
      [
        "▁insult",
        -10.670510905522107
      ],
      [
        "▁spokes",
        -11.05993017085557
      ],
      [
        "▁scandal",
        -11.937914412901332
      ],
      [
        "tru",
        -13.26221595935078
      ],
      [
        "▁guarant",
        -11.051299086063889
      ],
      [
        "▁832.676.",
        -13.136770579315858
      ],
      [
        "rock",
        -12.1621962725517
      ],
      [
        "▁chec",
        -12.639227028802345
      ],
      [
        "▁sam",
        -7.104623726683211
      ],
      [
        "▁attorney",
        -10.036733409803904
      ],
      [
        "▁belonging",
        -12.402230118003283
      ],
      [
        "lo",
        -9.686887479395796
      ],
      [
        "▁freeze",
        -10.602062362012926
      ],
      [
        "wikipedia",
        -11.053168735607464
      ],
      [
        "▁sms",
        -11.970100993981475
      ],
      [
        "▁authori",
        -12.708347981201447
      ],
      [
        "▁fright",
        -12.852595024356532
      ],
      [
        "▁its",
        -7.722962474193338
      ],
      [
        "famous",
        -12.733111301450247
      ],
      [
        "▁window",
        -8.386212845496097
      ],
      [
        "▁leaf",
        -10.591624354398355
      ],
      [
        "▁muslim",
        -9.880427737057387
      ],
      [
        "▁prepayment",
        -12.27102503094932
      ],
      [
        "▁mast",
        -12.351109470895901
      ],
      [
        "▁?",
        -6.9934883581140035
      ],
      [
        "▁prolif",
        -12.191573455599668
      ],
      [
        "▁l'e",
        -10.337012014284383
      ],
      [
        "hobby",
        -10.696077188833522
      ],
      [
        "▁shirts",
        -11.315399278906993
      ],
      [
        "▁investigat",
        -11.474624430980013
      ],
      [
        "▁analog",
        -11.597104875852972
      ],
      [
        "▁hav",
        -10.724106208928315
      ],
      [
        "▁adel",
        -12.24730839798779
      ],
      [
        "xt",
        -12.343904911487094
      ],
      [
        "▁grabb",
        -10.634165256154638
      ],
      [
        "band",
        -10.87463427898313
      ],
      [
        "▁important",
        -7.971769248826035
      ],
      [
        "▁ren",
        -11.585671338064026
      ],
      [
        "tangle",
        -11.881843919984354
      ],
      [
        "▁killer",
        -11.357527221680012
      ],
      [
        "48-",
        -13.88655511899733
      ],
      [
        "▁nodd",
        -11.595945879459396
      ],
      [
        "mozilla",
        -10.942089007675213
      ],
      [
        "▁imperfection",
        -12.771024919061272
      ],
      [
        "▁reveal",
        -9.852581274733687
      ],
      [
        "aring",
        -13.546838966292466
      ],
      [
        "cup",
        -12.762630506788511
      ],
      [
        "▁scale",
        -9.815445497789504
      ],
      [
        "▁habitat",
        -11.248734615343631
      ],
      [
        "▁permissi",
        -12.634004756737717
      ],
      [
        "▁non-violen",
        -12.777110199086595
      ],
      [
        "oregon",
        -10.92991700456696
      ],
      [
        "▁transit",
        -10.516773170275481
      ],
      [
        "bert",
        -10.242654352680248
      ],
      [
        "▁musta",
        -13.579458677124641
      ],
      [
        "26",
        -11.04453144405831
      ],
      [
        "▁wet-nurse",
        -12.77102491894749
      ],
      [
        "sippi",
        -10.51917531402085
      ],
      [
        "▁kidd",
        -11.199068929026515
      ],
      [
        "▁prosper",
        -10.080216592856212
      ],
      [
        "▁4",
        -10.898863716027128
      ],
      [
        "▁categori",
        -10.519375031721474
      ],
      [
        "▁lisa",
        -11.941259589044439
      ],
      [
        "▁authorize",
        -12.012819644150555
      ],
      [
        "▁bibl",
        -11.102756902516255
      ],
      [
        "▁centi",
        -12.700314417679703
      ],
      [
        "▁hug",
        -8.613435810714293
      ],
      [
        "▁penal",
        -11.699201957336367
      ],
      [
        "▁11/",
        -12.525804538246266
      ],
      [
        "▁vern",
        -9.778422147018894
      ],
      [
        "up",
        -9.571776430989441
      ],
      [
        "ent",
        -9.418400762850508
      ],
      [
        "▁biod",
        -12.00730973137312
      ],
      [
        "spoon",
        -13.73399690949839
      ],
      [
        "▁cancellation",
        -11.688507326409932
      ],
      [
        "cular",
        -10.56175181533875
      ],
      [
        "homa",
        -11.211867257100742
      ],
      [
        "▁loan",
        -9.399992151825298
      ],
      [
        "▁blea",
        -12.271948814299165
      ],
      [
        "▁bowl",
        -8.885102476270593
      ],
      [
        "▁academi",
        -12.410279257235572
      ],
      [
        "tiers",
        -13.249062264178804
      ],
      [
        "▁purple",
        -9.682227265277469
      ],
      [
        "otto",
        -13.575182211495108
      ],
      [
        "▁magazine",
        -9.80937112135819
      ],
      [
        "eval",
        -11.722576046305502
      ],
      [
        "icken",
        -11.958201771072307
      ],
      [
        "▁deal",
        -8.12987272765628
      ],
      [
        "|",
        -9.706918131845164
      ],
      [
        "ecomm",
        -11.895900605454536
      ],
      [
        "▁accelerate",
        -12.017753017989987
      ],
      [
        "4,",
        -13.632813365008479
      ],
      [
        "4-",
        -13.552675663638237
      ],
      [
        "▁contribut",
        -11.349658585020645
      ],
      [
        "venue",
        -12.223354456277272
      ],
      [
        "hunt",
        -12.642736111597365
      ],
      [
        "runa",
        -12.355882225173941
      ],
      [
        "airbnb",
        -10.751147862516405
      ],
      [
        "▁control",
        -8.213158584384855
      ],
      [
        "▁brand",
        -10.445081720901237
      ],
      [
        "▁petition",
        -11.17900402395624
      ],
      [
        "▁soci",
        -12.789395290875767
      ],
      [
        "▁cruel",
        -10.275922440846838
      ],
      [
        "▁replace",
        -9.607796711242282
      ],
      [
        "▁shop-",
        -12.81999662496591
      ],
      [
        "erous",
        -13.10190855501497
      ],
      [
        "▁281-51",
        -14.136807499320865
      ],
      [
        "▁aim",
        -9.606113338696282
      ],
      [
        "▁esco",
        -11.820600437112883
      ],
      [
        "▁doctor",
        -8.480018895048438
      ],
      [
        "▁donkey",
        -9.955069179487964
      ],
      [
        "hours",
        -10.169921252367848
      ],
      [
        "▁shark",
        -9.74547587176037
      ],
      [
        "uz",
        -12.361995108720608
      ],
      [
        "▁ma",
        -10.677501707364895
      ],
      [
        "▁clima",
        -13.00254963150685
      ],
      [
        "ye",
        -12.846015260932829
      ],
      [
        "▁01:0",
        -13.214497832237065
      ],
      [
        "▁festoon",
        -12.771047446071382
      ],
      [
        "ated",
        -10.183199856482407
      ],
      [
        "important",
        -12.23207328708532
      ],
      [
        "hou",
        -11.43350194633304
      ],
      [
        "▁afore",
        -12.315702939375711
      ],
      [
        "taulbee",
        -12.771026760877401
      ],
      [
        "▁creek",
        -10.842062727100869
      ],
      [
        "folio",
        -10.781630759249175
      ],
      [
        "another",
        -10.357494289543578
      ],
      [
        "▁antiquit",
        -11.49736492776583
      ],
      [
        "ur",
        -10.844631267559638
      ],
      [
        "▁glaze",
        -11.687692041721164
      ],
      [
        "addle",
        -11.360458075326095
      ],
      [
        "▁peer",
        -11.189939923523228
      ],
      [
        "▁attract",
        -9.542473562682526
      ],
      [
        "▁irregular",
        -12.771024965748435
      ],
      [
        "genda",
        -10.18216829857965
      ],
      [
        "▁vivi",
        -11.469866258129654
      ],
      [
        "▁ok",
        -8.365073073697065
      ],
      [
        "▁45",
        -11.407942744300975
      ],
      [
        "▁comparison",
        -10.08122873991749
      ],
      [
        "▁expression",
        -9.845897593419942
      ],
      [
        "rre",
        -12.785449329254636
      ],
      [
        "▁granddaughter",
        -11.937693048882375
      ],
      [
        "▁expecta",
        -12.03845044520262
      ],
      [
        "▁?!?",
        -13.647540773753782
      ],
      [
        "▁crate",
        -11.065139986331879
      ],
      [
        "108",
        -12.52073979168762
      ],
      [
        "▁alias",
        -11.699991872506942
      ],
      [
        "bul",
        -11.822307506419225
      ],
      [
        "▁include",
        -8.386153009119287
      ],
      [
        "▁musli",
        -12.786967680360593
      ],
      [
        "▁snoo",
        -12.272391219248357
      ],
      [
        "▁gym",
        -10.12579115801853
      ],
      [
        "▁lavator",
        -11.688542226931501
      ],
      [
        "▁extinct",
        -12.770377073042875
      ],
      [
        "mayur...",
        -12.704135256971979
      ],
      [
        "▁hitch",
        -12.30780001168475
      ],
      [
        "▁dealer",
        -10.353923069851856
      ],
      [
        "▁bump",
        -9.743907710101125
      ],
      [
        "ix",
        -12.696653061457788
      ],
      [
        "▁lank",
        -12.759623948637966
      ],
      [
        "680",
        -12.884090929504227
      ],
      [
        "du",
        -12.226091588455985
      ],
      [
        "▁intensi",
        -11.603732035930912
      ],
      [
        "▁percentile",
        -10.590925451683322
      ],
      [
        "+",
        -15.518165406639653
      ],
      [
        "▁needle",
        -12.696269405966401
      ],
      [
        "▁kenne",
        -10.91978318848825
      ],
      [
        "98",
        -12.26854134829917
      ],
      [
        "ach",
        -10.517438948825294
      ],
      [
        "durham",
        -11.178524221420663
      ],
      [
        "scheu",
        -12.279918277959021
      ],
      [
        "store",
        -10.354762353120947
      ],
      [
        "▁chev",
        -12.48073115452808
      ],
      [
        "▁bel",
        -10.74633251227808
      ],
      [
        "tel",
        -12.258190552242459
      ],
      [
        "▁30",
        -11.053215980612269
      ],
      [
        "ament",
        -11.42709927794382
      ],
      [
        "▁steril",
        -11.937928756965892
      ],
      [
        "ami",
        -8.224386150422728
      ],
      [
        "▁admit",
        -10.479301819799014
      ],
      [
        "▁harrow",
        -11.180520279250578
      ],
      [
        "▁elm",
        -12.177608526709578
      ],
      [
        "▁passionate",
        -11.178734789979343
      ],
      [
        "▁slan",
        -12.64979343087707
      ],
      [
        "▁drought",
        -12.81810764168836
      ],
      [
        "▁specific",
        -8.524596701948816
      ],
      [
        "p",
        -7.728617573861871
      ],
      [
        "▁tap",
        -10.447693957545257
      ],
      [
        "▁34",
        -11.553169520873858
      ],
      [
        "▁b",
        -7.279666368017974
      ],
      [
        "▁’",
        -8.643293563333355
      ],
      [
        "pur",
        -12.299009795912772
      ],
      [
        "▁nav",
        -9.770402691421696
      ],
      [
        "▁'60",
        -12.771024951232178
      ],
      [
        "▁fishie",
        -11.291891027893284
      ],
      [
        "conne",
        -11.333805720331656
      ],
      [
        "▁ya",
        -14.202852529658713
      ],
      [
        "▁astronomer",
        -12.276471620353146
      ],
      [
        "28",
        -11.333881110935947
      ],
      [
        "jin",
        -12.42863322812298
      ],
      [
        "▁lu",
        -11.835344235695308
      ],
      [
        "▁un",
        -7.3093290410498275
      ],
      [
        "▁driver",
        -9.539943597164932
      ],
      [
        "!!!!!!!!!!!!!!!!",
        -11.406486109637537
      ],
      [
        "▁ginggo",
        -12.7729024728084
      ],
      [
        "age",
        -11.003488229021976
      ],
      [
        "stocks",
        -11.467547854038468
      ],
      [
        "▁arms",
        -9.30284980730337
      ],
      [
        "▁hassle",
        -11.331859177602043
      ],
      [
        "5000",
        -13.766487213310354
      ],
      [
        "kinner",
        -13.332781037875193
      ],
      [
        "▁handle",
        -9.358272373095756
      ],
      [
        "trivan",
        -13.557583731002614
      ],
      [
        "▁claudi",
        -11.941396102528607
      ],
      [
        "▁permission",
        -10.591642182176598
      ],
      [
        "▁olive",
        -11.097695039808238
      ],
      [
        "▁failure",
        -9.712602446359046
      ],
      [
        "dict",
        -12.108261435810489
      ],
      [
        "dependenc",
        -11.92406611471257
      ],
      [
        "▁snuggl",
        -12.271123042698465
      ],
      [
        "▁true",
        -8.717262175689232
      ],
      [
        "rote",
        -9.017427670767091
      ],
      [
        "bourg",
        -11.644405614674604
      ],
      [
        "▁as",
        -6.878746681766298
      ],
      [
        "▁hatch",
        -11.808190004314605
      ],
      [
        "▁minimum",
        -9.916697603757392
      ],
      [
        "▁temple",
        -10.276202293076805
      ],
      [
        "▁mosco",
        -11.053316458046336
      ],
      [
        "▁shakespeare",
        -8.173221813635005
      ],
      [
        "ris",
        -10.491595483652752
      ],
      [
        "▁sogg",
        -13.365991187649517
      ],
      [
        "▁explain",
        -8.479782400557099
      ],
      [
        "▁tongue",
        -10.223302787887299
      ],
      [
        "▁spine",
        -11.534109255476727
      ],
      [
        "▁in",
        -5.625432472469342
      ],
      [
        "▁contract",
        -8.996111718513756
      ],
      [
        "▁southwar",
        -11.961732715934716
      ],
      [
        "lax",
        -12.388152555920625
      ],
      [
        "▁192",
        -11.940572024467409
      ],
      [
        "96/",
        -13.587633075698617
      ],
      [
        "version",
        -12.867918457848775
      ],
      [
        "wau",
        -8.03806729107273
      ],
      [
        "▁environment",
        -8.918875902083945
      ],
      [
        "-chin",
        -12.770047514052841
      ],
      [
        "▁nort",
        -10.135265303465058
      ],
      [
        "▁specifie",
        -10.753178518403315
      ],
      [
        "▁flexibilit",
        -11.056091579872765
      ],
      [
        "ide",
        -12.580259333869602
      ],
      [
        "▁socialist",
        -11.057239967739086
      ],
      [
        "▁j",
        -10.937809915570798
      ],
      [
        "▁effe",
        -12.270987365124665
      ],
      [
        "*************",
        -12.742044969050148
      ],
      [
        "empt",
        -13.138400064754542
      ],
      [
        "▁isi",
        -11.432946812485598
      ],
      [
        "720",
        -13.183827365458086
      ],
      [
        "variabl",
        -12.77012700071994
      ],
      [
        "▁strategic",
        -11.18335439528865
      ],
      [
        "▁accent",
        -11.05277603433385
      ],
      [
        "▁manual",
        -10.223483237660684
      ],
      [
        "▁spare",
        -11.088325854506692
      ],
      [
        "▁gif",
        -11.3887395293413
      ],
      [
        "▁infection",
        -10.842818861012963
      ],
      [
        "▁unl",
        -9.680113489348734
      ],
      [
        "▁elbow",
        -10.751148910851308
      ],
      [
        "▁towel",
        -9.916750877301748
      ],
      [
        "▁beach",
        -8.498174015493353
      ],
      [
        "▁charm",
        -10.235285410833258
      ],
      [
        "aden",
        -11.835808419303513
      ],
      [
        "not",
        -11.658178870951364
      ],
      [
        "▁ka",
        -9.794270332031976
      ],
      [
        "▁real",
        -6.447094046216681
      ],
      [
        "270",
        -11.860042949136492
      ],
      [
        "▁hesitant",
        -11.957315019229805
      ],
      [
        "▁expel",
        -12.765426012466916
      ],
      [
        "▁pani",
        -10.5222310052072
      ],
      [
        "▁hamper",
        -11.68784291916159
      ],
      [
        "▁intruder",
        -12.271629115003002
      ],
      [
        "▁energetic",
        -11.937693221277819
      ],
      [
        "95",
        -11.454904720194877
      ],
      [
        "▁hippo",
        -12.270222510277982
      ],
      [
        "▁silk",
        -10.737364125747987
      ],
      [
        "57",
        -11.325032455504559
      ],
      [
        "head",
        -8.691959368316997
      ],
      [
        "▁mem",
        -8.742872535017423
      ],
      [
        "▁vi",
        -11.090089463635374
      ],
      [
        "▁touchstone",
        -12.774444337303692
      ],
      [
        "hagi",
        -12.778429411233759
      ],
      [
        ",10",
        -14.134301008475441
      ],
      [
        "▁independent",
        -9.29543920288602
      ],
      [
        "ph",
        -10.369143403305259
      ],
      [
        "▁arie",
        -12.11041855052252
      ],
      [
        "▁exile",
        -10.942340173647354
      ],
      [
        "▁chronicle",
        -11.697979923895751
      ],
      [
        "w",
        -7.371528495809018
      ],
      [
        "▁dup",
        -12.66858666574059
      ],
      [
        "▁trumpet",
        -11.48813838142249
      ],
      [
        "<",
        -7.273053706688606
      ],
      [
        "▁propa",
        -10.673648769863885
      ],
      [
        "▁09",
        -12.32159795519803
      ],
      [
        "▁soccer",
        -10.942062959938912
      ],
      [
        "▁indonesia",
        -10.746536370820472
      ],
      [
        "columbia",
        -10.23220573517129
      ],
      [
        "▁illness",
        -11.322634212667602
      ],
      [
        "▁consol",
        -11.694583088890408
      ],
      [
        "▁non-re",
        -12.897294096262332
      ],
      [
        "530",
        -12.305600989107392
      ],
      [
        "▁barre",
        -13.378731703946695
      ],
      [
        "▁cass",
        -11.710389384462639
      ],
      [
        "▁totalitarian",
        -11.937750620913343
      ],
      [
        "▁fulfill",
        -10.75263689424613
      ],
      [
        "▁anthr",
        -9.543673524212151
      ],
      [
        "▁suppose",
        -9.82698333814301
      ],
      [
        "▁vote",
        -8.63000697400393
      ],
      [
        "▁me",
        -10.451061185956231
      ],
      [
        "▁gcp",
        -10.672692414624999
      ],
      [
        "▁suppress",
        -11.321027113721305
      ],
      [
        "shaft",
        -12.219284024603157
      ],
      [
        "▁territori",
        -12.57306707979349
      ],
      [
        "▁mathematical",
        -10.540595460968941
      ],
      [
        "▁none",
        -10.232103982260913
      ],
      [
        "lta",
        -8.541158900868876
      ],
      [
        "▁ingredient",
        -10.036733419100656
      ],
      [
        "▁‘",
        -9.464789161370842
      ],
      [
        "▁stubborn",
        -11.937711530071372
      ],
      [
        "▁compensate",
        -11.178167789044343
      ],
      [
        "317",
        -12.522027844751662
      ],
      [
        "▁consume",
        -10.873547322022286
      ],
      [
        "▁boutique",
        -12.271037216695557
      ],
      [
        "21",
        -12.767048714775799
      ],
      [
        "▁scr",
        -13.619123054623294
      ],
      [
        "yodo",
        -13.70415321943695
      ],
      [
        "▁crumple",
        -11.48774723875109
      ],
      [
        "▁body",
        -8.625550819198237
      ],
      [
        "hbow",
        -12.817832018228794
      ],
      [
        "▁brace",
        -12.277664863119007
      ],
      [
        "bbc.co.uk/",
        -12.751142013648275
      ],
      [
        "▁auster",
        -9.33312200488118
      ],
      [
        "1/13/200",
        -13.410633610127512
      ],
      [
        "▁athen",
        -9.812101298363299
      ],
      [
        "▁element",
        -8.966979742850643
      ],
      [
        "▁6",
        -8.907968840771385
      ],
      [
        "▁ferv",
        -13.033989917583916
      ],
      [
        "oz",
        -13.096519113337362
      ],
      [
        "▁|",
        -9.754805093749667
      ],
      [
        "▁exer",
        -13.690220268905266
      ],
      [
        "▁155",
        -13.151098116993188
      ],
      [
        "---------",
        -11.421537248111761
      ],
      [
        "▁prep",
        -11.929275979344798
      ],
      [
        "▁old-",
        -12.973800654509247
      ],
      [
        "ins",
        -12.689876329818206
      ],
      [
        "▁ross",
        -11.912349915247956
      ],
      [
        "▁kyle.jones@ra",
        -12.271026950231807
      ],
      [
        "▁curse",
        -10.897483312941375
      ],
      [
        "stock",
        -11.949234200591992
      ],
      [
        "▁humi",
        -12.81172279263445
      ],
      [
        "rays",
        -11.90781633254403
      ],
      [
        "▁line",
        -7.575687118592803
      ],
      [
        "▁monet",
        -10.958456137185223
      ],
      [
        "hai",
        -12.449413438634446
      ],
      [
        "▁jesu",
        -10.592995384485882
      ],
      [
        "991",
        -12.803767022995842
      ],
      [
        "sonic.net",
        -11.937751705157668
      ],
      [
        "▁kahn",
        -12.271765261976038
      ],
      [
        "idual",
        -13.001112994029276
      ],
      [
        ".",
        -7.129630536881227
      ],
      [
        ":14",
        -12.45722038868527
      ],
      [
        "▁laurel",
        -12.779128890162788
      ],
      [
        "▁spani",
        -9.684868326677664
      ],
      [
        "lace",
        -11.855295916706593
      ],
      [
        "▁quest",
        -10.368487324942507
      ],
      [
        "▁curio",
        -12.771881462247178
      ],
      [
        "▁clutch",
        -11.937691629803927
      ],
      [
        "▁shadow",
        -9.844641604530043
      ],
      [
        "▁acknowledg",
        -11.88903209861479
      ],
      [
        "motion",
        -13.457712457585467
      ],
      [
        "▁mersey",
        -12.77985263593938
      ],
      [
        "▁puc",
        -11.632578464564997
      ],
      [
        "▁islami",
        -9.733033555520851
      ],
      [
        "▁soul",
        -10.524513467477822
      ],
      [
        "▁palac",
        -12.759988141751585
      ],
      [
        "uv",
        -12.043404756869997
      ],
      [
        "uvr",
        -12.023385965794546
      ],
      [
        "▁spoil",
        -11.322009960034391
      ],
      [
        "▁octo",
        -9.051896506150467
      ],
      [
        "▁60,00",
        -13.953467716680116
      ],
      [
        "▁decision",
        -8.58367416454994
      ],
      [
        "▁appropriation",
        -10.844421077355051
      ],
      [
        "1/8",
        -12.30354400335542
      ],
      [
        "▁scissor",
        -10.223287083176098
      ],
      [
        "92",
        -10.519483038575355
      ],
      [
        "0",
        -10.782683652942984
      ],
      [
        "▁calzo",
        -13.190962382552707
      ],
      [
        "▁license",
        -8.549734218544184
      ],
      [
        "▁wu",
        -11.989006802138531
      ],
      [
        "▁orchestra",
        -10.667814263123358
      ],
      [
        "▁attack",
        -8.480321317388771
      ],
      [
        "usi",
        -10.751881598698503
      ],
      [
        "▁arrow",
        -9.881326776478023
      ],
      [
        "▁decorate",
        -12.549267528489485
      ],
      [
        "831",
        -13.883646719328421
      ],
      [
        "▁cut",
        -7.915109882909753
      ],
      [
        "▁pimple",
        -11.178457035298468
      ],
      [
        "▁controversial",
        -11.181282950674412
      ],
      [
        "▁capture",
        -10.173361408052486
      ],
      [
        "mez",
        -11.562416178141168
      ],
      [
        "▁m1",
        -12.27035151935806
      ],
      [
        "▁gnome",
        -11.178171339096032
      ],
      [
        "▁tail",
        -9.178751558747656
      ],
      [
        "▁discusse",
        -12.306132172012184
      ],
      [
        "web.com",
        -13.689904817910449
      ],
      [
        "▁forth",
        -9.801713274643173
      ],
      [
        "▁disast",
        -12.273913780415914
      ],
      [
        "▁regina",
        -11.937700580084948
      ],
      [
        "▁resid",
        -12.865785721178494
      ],
      [
        "caribbean",
        -10.84259186772603
      ],
      [
        "mock",
        -12.377282800191175
      ],
      [
        "evel",
        -11.881075522496404
      ],
      [
        "▁ken",
        -10.09191009710976
      ],
      [
        "▁truste",
        -12.03145156601289
      ],
      [
        "▁wheez",
        -12.27323056151762
      ],
      [
        "▁kay",
        -9.683184196181744
      ],
      [
        ".x",
        -10.583177836037848
      ],
      [
        "▁invit",
        -10.550281314632702
      ],
      [
        "bell",
        -10.5780434009997
      ],
      [
        "▁erase",
        -11.011641144502924
      ],
      [
        "itive",
        -11.5061803284364
      ],
      [
        "0.00",
        -12.093399042272234
      ],
      [
        "▁chang",
        -9.209133462754872
      ],
      [
        "▁value",
        -8.176458583374021
      ],
      [
        "▁d",
        -9.553231019557947
      ],
      [
        "ves",
        -10.411447126366902
      ],
      [
        "▁chatter",
        -11.945525063481242
      ],
      [
        "asis",
        -11.962728997898349
      ],
      [
        "▁dais",
        -11.346476218088506
      ],
      [
        "▁wri",
        -12.913896727988977
      ],
      [
        "▁erect",
        -11.688077610801509
      ],
      [
        "lari",
        -13.672786369848778
      ],
      [
        "/03",
        -14.340996840119528
      ],
      [
        "▁271",
        -13.991854088309571
      ],
      [
        "empirical",
        -12.7311202285793
      ],
      [
        "resume",
        -12.73199546929392
      ],
      [
        "▁discharge",
        -11.321024926539849
      ],
      [
        "▁menace",
        -11.937987788263843
      ],
      [
        "▁oblivio",
        -12.272108271211819
      ],
      [
        ".6",
        -12.64527802129072
      ],
      [
        "▁rums",
        -11.413712369814773
      ],
      [
        "▁collection",
        -9.625098864908422
      ],
      [
        "▁mar",
        -10.401359365061806
      ],
      [
        "mercury",
        -10.751156119004843
      ],
      [
        "anders",
        -10.775984352920917
      ],
      [
        "▁cost-effective",
        -11.687691736550759
      ],
      [
        "regions",
        -13.371096617706694
      ],
      [
        "▁confirmation",
        -11.498245820158038
      ],
      [
        "▁termin",
        -11.184406195674113
      ],
      [
        "▁sequence",
        -10.752046747393976
      ],
      [
        "rece",
        -12.623314329642294
      ],
      [
        "▁eight",
        -9.059025391871746
      ],
      [
        "▁airfare",
        -9.880086044190612
      ],
      [
        "mor",
        -13.22662618153365
      ],
      [
        "▁toilet",
        -10.519490817392247
      ],
      [
        "▁kha",
        -11.669005645881944
      ],
      [
        "▁m-",
        -12.98542073608795
      ],
      [
        "▁confident",
        -10.223172483919827
      ],
      [
        "nasa",
        -9.097994503694679
      ],
      [
        "change",
        -13.709682952040898
      ],
      [
        "cris",
        -12.73394466099109
      ],
      [
        "▁chat",
        -10.581095709844927
      ],
      [
        "▁teache",
        -12.62490981377118
      ],
      [
        "▁magic",
        -9.174711496993254
      ],
      [
        "▁cuc",
        -10.669591485440158
      ],
      [
        "▁/",
        -8.874696097338475
      ],
      [
        "ratify",
        -12.219378623915471
      ],
      [
        "▁publisher",
        -11.206028702013718
      ],
      [
        "▁gr",
        -11.134879156247369
      ],
      [
        "therland",
        -10.709465466234313
      ],
      [
        "▁dur",
        -11.543879909839234
      ],
      [
        "▁138",
        -12.923627014658868
      ],
      [
        "▁nev",
        -11.688407617698045
      ],
      [
        "▁shuttle",
        -10.751163700487387
      ],
      [
        "▁grapple",
        -12.799512729006848
      ],
      [
        "olon",
        -13.095348741024111
      ],
      [
        "restaurant",
        -13.732212970797718
      ],
      [
        "▁te",
        -11.089711619745222
      ],
      [
        "▁hundred",
        -9.48139668862184
      ],
      [
        "▁boyfriend",
        -10.751217698552948
      ],
      [
        "dom",
        -10.420248988122175
      ],
      [
        "friend",
        -12.486680654169023
      ],
      [
        "???",
        -11.362839390116868
      ],
      [
        "▁earning",
        -11.742933997989068
      ],
      [
        "▁integr",
        -10.22139083374508
      ],
      [
        "▁barne",
        -11.259890908433583
      ],
      [
        "fur",
        -11.451631266718906
      ],
      [
        "▁roads",
        -11.485452012019051
      ],
      [
        "▁worsen",
        -12.35786474248555
      ],
      [
        "▁catch",
        -8.757749565015171
      ],
      [
        ".k.",
        -13.717723324890045
      ],
      [
        "▁chun",
        -13.552830826610714
      ],
      [
        "arcelo",
        -12.193230794806858
      ],
      [
        "▁instrument",
        -10.667814247565538
      ],
      [
        "▁wid",
        -11.176691513609239
      ],
      [
        "ly",
        -4.551989708774343
      ],
      [
        "▁bobb",
        -10.928390282827003
      ],
      [
        "▁cross-section",
        -11.321804873607629
      ],
      [
        "▁apr",
        -11.951635479666628
      ],
      [
        "▁detention",
        -11.689348053012921
      ],
      [
        "rez",
        -13.057736546319969
      ],
      [
        "▁light",
        -7.530362200636359
      ],
      [
        "25/01",
        -14.134086391909378
      ],
      [
        "▁recieve",
        -11.487699381220558
      ],
      [
        "▁prior",
        -9.681975753190367
      ],
      [
        "▁experience",
        -7.814034814205732
      ],
      [
        "▁apt",
        -13.015510215145884
      ],
      [
        "▁curtain",
        -10.942058667046394
      ],
      [
        "t2",
        -13.005322731802757
      ],
      [
        "▁marble",
        -9.776097398920275
      ],
      [
        "/25/200",
        -12.112325426631575
      ],
      [
        "15/200",
        -14.513831683276631
      ],
      [
        "▁free",
        -7.928056576757955
      ],
      [
        "▁acce",
        -12.79318901220347
      ],
      [
        "-f",
        -11.867378889831972
      ],
      [
        "▁nava",
        -12.61635462906123
      ],
      [
        "▁pirate",
        -10.125697133592931
      ],
      [
        "▁vacu",
        -10.942083178258725
      ],
      [
        "▁broke",
        -8.177119833687811
      ],
      [
        "03/",
        -13.793640388604162
      ],
      [
        "phile",
        -12.844802586420444
      ],
      [
        "▁perceive",
        -10.538602983206566
      ],
      [
        "▁norma",
        -12.446787246579197
      ],
      [
        "idget",
        -12.839041706201698
      ],
      [
        "▁ukrainian",
        -10.844218413605667
      ],
      [
        "onnais",
        -10.943006704232154
      ],
      [
        "▁lid",
        -11.288195124550127
      ],
      [
        "▁kool",
        -12.272047975242424
      ],
      [
        "▁brave",
        -10.659379904964311
      ],
      [
        "▁worse",
        -9.53826379352922
      ],
      [
        "▁chris",
        -9.484609048464268
      ],
      [
        "▁convict",
        -10.941428513543707
      ],
      [
        "'",
        -5.811804410257997
      ],
      [
        "▁affirm",
        -11.48765710975911
      ],
      [
        "where",
        -11.75353131760598
      ],
      [
        "oxon",
        -12.01575774882157
      ],
      [
        "9",
        -11.466649511569717
      ],
      [
        "▁lady",
        -9.469560550032481
      ],
      [
        "md",
        -11.141550706240368
      ],
      [
        "/chernobyl",
        -12.56036118666511
      ],
      [
        "▁hungr",
        -9.385990844694225
      ],
      [
        "▁multi",
        -10.671702765899695
      ],
      [
        "▁senseless",
        -11.945507130787117
      ],
      [
        "olomit",
        -12.304981737921482
      ],
      [
        "56",
        -12.270905061205724
      ],
      [
        "rough",
        -12.356819406430677
      ],
      [
        "▁livelihood",
        -12.27164854712536
      ],
      [
        "▁minis",
        -13.144657626592254
      ],
      [
        "▁pastor",
        -11.494399206590902
      ],
      [
        "touch",
        -12.722580709163442
      ],
      [
        "vial",
        -13.047599213073488
      ],
      [
        "▁number",
        -7.1407375071254044
      ],
      [
        "▁exemption",
        -12.771315389867715
      ],
      [
        "▁register",
        -9.916605308763625
      ],
      [
        "▁sony",
        -12.062819627783014
      ],
      [
        "iled",
        -12.38753389978561
      ],
      [
        "▁1/",
        -13.887911633017264
      ],
      [
        "▁gentrifi",
        -12.772793567243317
      ],
      [
        "▁railway",
        -10.751500047627646
      ],
      [
        "▁abrupt",
        -11.687691646488574
      ],
      [
        "▁calme",
        -12.895557872528538
      ],
      [
        "________________",
        -9.675548522665636
      ],
      [
        "▁scroll",
        -12.27108149415593
      ],
      [
        "novation",
        -12.444641026711643
      ],
      [
        "▁pant",
        -9.274934976654905
      ],
      [
        "▁involve",
        -9.029128264276164
      ],
      [
        "▁blizzard",
        -11.68769159117101
      ],
      [
        "▁raspberr",
        -12.271042976435277
      ],
      [
        "▁creat",
        -9.20003173820627
      ],
      [
        "hard",
        -11.96666061154179
      ],
      [
        "gel",
        -11.565112937311959
      ],
      [
        "ible",
        -9.953605949338941
      ],
      [
        "os",
        -14.26619170470223
      ],
      [
        "▁gland",
        -12.407040930799694
      ],
      [
        "▁downgrad",
        -12.963760789468642
      ],
      [
        "shake",
        -13.64956032231358
      ],
      [
        "aja",
        -10.818905304154402
      ],
      [
        "▁whiske",
        -13.61609978486559
      ],
      [
        "▁nation",
        -8.366999374784056
      ],
      [
        "œ",
        -12.833785825435129
      ],
      [
        "▁pictures",
        -8.960196453408477
      ],
      [
        "bound",
        -11.282722482673728
      ],
      [
        "▁direct",
        -8.375839342928
      ],
      [
        "▁+1",
        -12.262684937133976
      ],
      [
        "intelligence",
        -12.732721488502964
      ],
      [
        "spiritual",
        -12.732736287271223
      ],
      [
        "▁right-",
        -13.45864675730288
      ],
      [
        "rah",
        -10.517368723059008
      ],
      [
        "▁16.",
        -14.199282383172987
      ],
      [
        "▁confusi",
        -10.464043171553406
      ],
      [
        "▁wiki",
        -9.177953407526243
      ],
      [
        "▁breyer",
        -11.944964591962524
      ],
      [
        "▁milk",
        -7.776440351307286
      ],
      [
        "/26/200",
        -11.340770759941886
      ],
      [
        "▁fame",
        -10.337346448060373
      ],
      [
        "▁181",
        -12.672201436613298
      ],
      [
        "mark",
        -10.621917972637679
      ],
      [
        "▁grumbl",
        -12.696827894393238
      ],
      [
        "▁196",
        -10.37065919256603
      ],
      [
        "6-",
        -13.67457463137944
      ],
      [
        "port",
        -10.902393954912327
      ],
      [
        "▁disobedien",
        -11.937931234427559
      ],
      [
        "▁structure",
        -8.940602130377624
      ],
      [
        "▁deff",
        -12.278807163784009
      ],
      [
        "aught",
        -8.80776384810802
      ],
      [
        "enti",
        -12.154891043607538
      ],
      [
        "▁iodise",
        -11.170365585037302
      ],
      [
        "▁dept",
        -12.274858671285841
      ],
      [
        "▁consent",
        -10.755100158793853
      ],
      [
        "ikh",
        -11.443955526860874
      ],
      [
        "▁cane",
        -11.335335863183962
      ],
      [
        "▁713/853-",
        -13.136770601229292
      ],
      [
        "moleste",
        -13.422121741792672
      ],
      [
        "▁arbitrar",
        -11.888611545159605
      ],
      [
        "cuba",
        -11.89893466807211
      ],
      [
        "▁geometr",
        -10.84077619320835
      ],
      [
        "▁sc",
        -10.92278751992093
      ],
      [
        "▁jaff",
        -11.489322559353285
      ],
      [
        "ob",
        -11.496845026184019
      ],
      [
        "▁starch",
        -11.498594797444333
      ],
      [
        "▁tha",
        -4.70443976194243
      ],
      [
        "83",
        -12.269689501822032
      ],
      [
        "iction",
        -10.208830396174184
      ],
      [
        "▁mea",
        -13.20492108077581
      ],
      [
        "▁coil",
        -11.49149498360734
      ],
      [
        "internet",
        -8.700040823313046
      ],
      [
        "▁appeal",
        -9.809627024633599
      ],
      [
        "▁drap",
        -11.939174809534396
      ],
      [
        "▁knowledge",
        -8.910829588656497
      ],
      [
        "▁stoddar",
        -12.771031326795129
      ],
      [
        "andy",
        -10.241894915144922
      ],
      [
        "▁ir",
        -10.768104120555726
      ],
      [
        "▁specialize",
        -11.37559855001938
      ],
      [
        "1990",
        -11.179726178731531
      ],
      [
        "sc",
        -12.953296218781974
      ],
      [
        "▁uphold",
        -11.939123922876183
      ],
      [
        "▁cabbage",
        -10.7511531742798
      ],
      [
        "rational",
        -12.924680474753595
      ],
      [
        "steamboat",
        -13.72393198425926
      ],
      [
        "▁bray",
        -9.42398363156472
      ],
      [
        "760",
        -13.822357955819468
      ],
      [
        "▁mu",
        -11.027751101871818
      ],
      [
        "iv",
        -11.534717983037273
      ],
      [
        "▁report",
        -7.756703079653569
      ],
      [
        "▁scholars",
        -10.18121624071428
      ],
      [
        "▁marg",
        -12.864869576035044
      ],
      [
        "real",
        -8.87686779890781
      ],
      [
        "ncin",
        -13.558407084832833
      ],
      [
        "▁d'et",
        -12.302202262167324
      ],
      [
        "▁gal",
        -11.00165630977661
      ],
      [
        "▁basic",
        -8.83250828517955
      ],
      [
        "▁hor",
        -11.464129427629091
      ],
      [
        "▁clear",
        -8.073170186317311
      ],
      [
        "▁ba",
        -9.891256062925736
      ],
      [
        "▁surgeon",
        -10.84360028087723
      ],
      [
        "▁nazare",
        -12.77102795993122
      ],
      [
        "net",
        -10.330432599169502
      ],
      [
        "war",
        -12.294744634745067
      ],
      [
        "▁vautrin",
        -12.771024962337496
      ],
      [
        "▁ger",
        -11.65491017624486
      ],
      [
        "▁04:0",
        -12.773739120218522
      ],
      [
        "nfant",
        -10.452761054289732
      ],
      [
        "/26/",
        -14.189086006831158
      ],
      [
        "rahu",
        -11.694914210849197
      ],
      [
        "tering",
        -11.955156624475029
      ],
      [
        "▁wi",
        -11.262385832930065
      ],
      [
        "▁skull",
        -11.321024931496192
      ],
      [
        "look",
        -11.021916326349881
      ],
      [
        "▁valer",
        -13.370852813329332
      ],
      [
        "uff",
        -11.575844210681685
      ],
      [
        "▁unlock",
        -11.710133047961296
      ],
      [
        "▁spo",
        -9.76267961728645
      ],
      [
        "▁tick",
        -11.799207460707299
      ],
      [
        "▁burning",
        -10.915436014860934
      ],
      [
        "▁caca",
        -12.27240866599375
      ],
      [
        "▁pala",
        -12.802520898452487
      ],
      [
        "▁playful",
        -13.027141216278796
      ],
      [
        "▁enjamb",
        -9.809371121369908
      ],
      [
        "▁track",
        -9.029502525982792
      ],
      [
        "▁distort",
        -10.941423641687889
      ],
      [
        "▁folder",
        -11.067165350356763
      ],
      [
        "▁sled",
        -11.509897282089911
      ],
      [
        "kpa",
        -11.503513320364354
      ],
      [
        "-and-a",
        -13.118828396842458
      ],
      [
        "160",
        -12.373121820272264
      ],
      [
        "▁magnet",
        -11.536439306939917
      ],
      [
        "▁",
        -3.595384568914831
      ],
      [
        "lam",
        -11.414288032594797
      ],
      [
        "▁wir",
        -12.677735126091495
      ],
      [
        "▁soon",
        -8.294961486067711
      ],
      [
        "9.3",
        -14.113070844606726
      ],
      [
        "▁russian",
        -9.295929118712987
      ],
      [
        "▁shone",
        -11.18114767576062
      ],
      [
        "▁russia",
        -9.329269592259166
      ],
      [
        "▁hurry",
        -9.880041004042127
      ],
      [
        "star",
        -10.85811497811271
      ],
      [
        "▁apath",
        -12.777957710944483
      ],
      [
        "▁horn",
        -10.03892774128432
      ],
      [
        "▁arise",
        -11.194920158417421
      ],
      [
        "▁inexp",
        -11.036777923214236
      ],
      [
        "▁turb",
        -12.317406884871705
      ],
      [
        "staikos",
        -12.774267220710309
      ],
      [
        "▁twa",
        -9.288908725683786
      ],
      [
        "▁clue",
        -11.32103983498273
      ],
      [
        "▁china",
        -8.299897727319347
      ],
      [
        "▁pearl",
        -11.488230304647603
      ],
      [
        "▁hold",
        -8.10080720317428
      ],
      [
        "ø",
        -12.833785825435129
      ],
      [
        "▁sla",
        -12.335474944779664
      ],
      [
        "▁lumino",
        -11.333286047432916
      ],
      [
        "▁69",
        -13.421823213516543
      ],
      [
        "▁background",
        -9.880550168061108
      ],
      [
        "▁distracted",
        -12.338895679099851
      ],
      [
        "ibilit",
        -10.74907256446204
      ],
      [
        "▁tile",
        -10.848793776071338
      ],
      [
        "▁exchang",
        -13.658042429023142
      ],
      [
        "▁opportunit",
        -8.869913634605021
      ],
      [
        "▁indirect",
        -11.178167790055062
      ],
      [
        "▁vital",
        -10.38705174172738
      ],
      [
        "▁custom",
        -9.737801481225073
      ],
      [
        "▁pope",
        -10.815466633832102
      ],
      [
        "▁33",
        -11.540855205242465
      ],
      [
        "▁frown",
        -11.688108518753008
      ],
      [
        "▁perfection",
        -11.847118551911413
      ],
      [
        "▁sniff",
        -11.687703416684432
      ],
      [
        "nz",
        -11.370958843495169
      ],
      [
        "▁anger",
        -10.842492728936506
      ],
      [
        "▁drag",
        -10.74881816052982
      ],
      [
        "▁cl",
        -11.287922132669348
      ],
      [
        "-fire",
        -12.77457701694342
      ],
      [
        "like",
        -9.323308356957925
      ],
      [
        "accenture",
        -12.272580733050711
      ],
      [
        "▁gaz",
        -11.862607603179908
      ],
      [
        "▁x",
        -10.277760178101254
      ],
      [
        "▁sho",
        -11.234726588860852
      ],
      [
        "n",
        -9.616052484599335
      ],
      [
        "▁helm",
        -11.975452039469655
      ],
      [
        "▁pric",
        -10.191303320883982
      ],
      [
        "local",
        -13.73384952694256
      ],
      [
        "▁disrupt",
        -10.667118041501727
      ],
      [
        "▁fabulous",
        -11.178170713055753
      ],
      [
        "▁adam",
        -7.690652088565816
      ],
      [
        "wa",
        -14.382662615359283
      ],
      [
        "▁202.4",
        -14.138177894591795
      ],
      [
        "man@e",
        -12.817118239485756
      ],
      [
        "kie",
        -12.47193979457045
      ],
      [
        "▁gangl",
        -13.57964432258847
      ],
      [
        "conced",
        -13.717233213029512
      ],
      [
        "fli",
        -13.677620488801818
      ],
      [
        "▁a.m.",
        -10.276317288402367
      ],
      [
        "▁nurtur",
        -13.434273507109367
      ],
      [
        "▁propert",
        -8.364605058753625
      ],
      [
        "▁graphic",
        -10.399808647526124
      ],
      [
        "▁vin",
        -10.818602022898604
      ],
      [
        "▁modification",
        -10.942086224927543
      ],
      [
        "ook",
        -11.15794943095893
      ],
      [
        "ter",
        -10.432873965842234
      ],
      [
        "ie",
        -10.95734811548726
      ],
      [
        "▁scrutin",
        -12.24036803409251
      ],
      [
        "mor",
        -12.96230066143719
      ],
      [
        "▁struggle",
        -10.131359483769483
      ],
      [
        "▁16.3",
        -12.638100918095688
      ],
      [
        "▁bay",
        -9.744828062625007
      ],
      [
        "07",
        -11.866903340196739
      ],
      [
        "▁bef",
        -13.003209720930867
      ],
      [
        "▁flow",
        -9.44331739145428
      ],
      [
        "weekly",
        -12.330876969114824
      ],
      [
        "▁182",
        -11.921712514434294
      ],
      [
        "▁shrew",
        -12.24883188111153
      ],
      [
        "883",
        -14.154380312032659
      ],
      [
        "▁petrol",
        -10.754347869174957
      ],
      [
        "n'",
        -9.381928970317361
      ],
      [
        "1.8",
        -12.279299099288764
      ],
      [
        "▁floor",
        -8.284896276561962
      ],
      [
        "3-3",
        -13.158791324548858
      ],
      [
        "speed",
        -11.693600805264712
      ],
      [
        "▁scorn",
        -12.315009930490751
      ],
      [
        "ational",
        -12.203971442537636
      ],
      [
        "▁equalis",
        -13.007687395528052
      ],
      [
        "▁bata",
        -12.586925231956648
      ],
      [
        "▁endure",
        -11.676382465264693
      ],
      [
        "r",
        -4.496868874099675
      ],
      [
        "embassy",
        -11.759470602943953
      ],
      [
        "▁d'",
        -11.991204330988092
      ],
      [
        "▁undertake",
        -10.591000548755929
      ],
      [
        "▁grocer",
        -11.158659368697908
      ],
      [
        "▁soften",
        -12.919120980932746
      ],
      [
        "ch",
        -12.085012431138926
      ],
      [
        "/8",
        -12.703324266057255
      ],
      [
        "54",
        -12.752706464365087
      ],
      [
        "▁interjection",
        -11.053167775985484
      ],
      [
        "▁1.",
        -12.094938996564373
      ],
      [
        "limp",
        -12.276080744364679
      ],
      [
        "▁ugl",
        -10.759410492040603
      ],
      [
        "▁gullib",
        -12.401199464929404
      ],
      [
        "▁generalization",
        -12.796280729130018
      ],
      [
        "explorer.msn.com",
        -12.771025029657212
      ],
      [
        "▁provoke",
        -11.158586404485385
      ],
      [
        "▁admission",
        -11.487894304250755
      ],
      [
        "▁viol",
        -12.571286354379637
      ],
      [
        "67",
        -13.61606973550646
      ],
      [
        "eological",
        -11.96731927160531
      ],
      [
        "▁reassur",
        -12.462566015158195
      ],
      [
        "firefox",
        -10.66783561820382
      ],
      [
        "dw",
        -12.848581974628713
      ],
      [
        "▁flora",
        -12.392771342929425
      ],
      [
        "▁lett",
        -11.061828687669914
      ],
      [
        "-cage-",
        -12.271025122798875
      ],
      [
        "3:5",
        -14.20824709956423
      ],
      [
        "▁http://h",
        -13.707622213966978
      ],
      [
        "▁din",
        -9.841042533797038
      ],
      [
        "▁x36",
        -12.271103170064222
      ],
      [
        "inter",
        -12.246162188309896
      ],
      [
        "▁kol",
        -12.419438025034461
      ],
      [
        "26/0",
        -14.093152072854174
      ],
      [
        "▁quarter",
        -9.791096550289211
      ],
      [
        "boro",
        -11.280647296985745
      ],
      [
        "▁ba",
        -11.474094207813556
      ],
      [
        "▁fil",
        -10.678056777802396
      ],
      [
        "646-",
        -10.793300965609516
      ],
      [
        "▁phy",
        -13.183882944274552
      ],
      [
        "▁original",
        -8.65037225448328
      ],
      [
        "lt.",
        -12.282062373103603
      ],
      [
        "▁–",
        -8.83025937391971
      ],
      [
        "▁camp",
        -8.93790399739756
      ],
      [
        "▁cod",
        -10.941306471430842
      ],
      [
        "take",
        -11.02433264860213
      ],
      [
        "▁recurr",
        -12.23868391392369
      ],
      [
        "▁umb",
        -11.201851532843978
      ],
      [
        "▁cheque",
        -11.938119192630293
      ],
      [
        "bald",
        -10.401678172841203
      ],
      [
        "rity",
        -11.357057224740869
      ],
      [
        "-workers",
        -12.034799630083947
      ],
      [
        "▁tons",
        -10.531424766846161
      ],
      [
        "▁happi",
        -9.918632005935876
      ],
      [
        "▁amplifi",
        -12.77102493078819
      ],
      [
        "▁ar",
        -10.524785217097024
      ],
      [
        "▁jac",
        -11.939867650386898
      ],
      [
        "▁83",
        -15.322788547072957
      ],
      [
        "▁census",
        -10.51948720213806
      ],
      [
        "ski",
        -12.042231313241379
      ],
      [
        "▁pois",
        -11.333552217442818
      ],
      [
        "▁stake",
        -11.696045722734514
      ],
      [
        "▁http://www.ne",
        -11.877525451853995
      ],
      [
        "▁art",
        -8.371726870589836
      ],
      [
        "▁display",
        -8.883026519516676
      ],
      [
        "aneous",
        -11.94538099050345
      ],
      [
        "▁legend",
        -10.591140052901673
      ],
      [
        "▁bei",
        -11.893038399157946
      ],
      [
        "▁woo",
        -10.118959556734804
      ],
      [
        "▁shop",
        -8.634681514336533
      ],
      [
        "llor",
        -12.622336930652702
      ],
      [
        "▁craz",
        -12.812228132139996
      ],
      [
        "rodin",
        -12.829518651597418
      ],
      [
        "persistent",
        -13.733700623777873
      ],
      [
        "chord",
        -13.562212319477954
      ],
      [
        "hocke",
        -11.122845218360679
      ],
      [
        "attack",
        -12.73302324585201
      ],
      [
        "▁apple",
        -9.353553001722844
      ],
      [
        "eologis",
        -11.196736447100312
      ],
      [
        "▁limitation",
        -10.39539010040167
      ],
      [
        "out",
        -9.263236778794568
      ],
      [
        "▁rode",
        -10.337663510674258
      ],
      [
        "▁=",
        -10.869655881095504
      ],
      [
        "▁horizon",
        -11.321343413958699
      ],
      [
        "▁terrace",
        -12.273314830942969
      ],
      [
        "estor",
        -13.064562394839806
      ],
      [
        "▁armchair",
        -12.271330236861834
      ],
      [
        "▁jk",
        -13.0131376176334
      ],
      [
        "▁dand",
        -9.850707535455877
      ],
      [
        "▁marci",
        -11.202705153672866
      ],
      [
        "-an",
        -12.874454014881369
      ],
      [
        "dresser",
        -12.23060576071679
      ],
      [
        "▁walt",
        -13.057617937676463
      ],
      [
        "ina",
        -11.045093614955894
      ],
      [
        "▁final",
        -8.105039147030963
      ],
      [
        "▁kath",
        -10.523431709510152
      ],
      [
        "▁epi",
        -10.929906157032448
      ],
      [
        "duck",
        -12.879285635143736
      ],
      [
        "▁viewer",
        -12.746036209888684
      ],
      [
        "▁mont",
        -8.435591425475472
      ],
      [
        "▁buba",
        -11.32162077526448
      ],
      [
        "▁secret",
        -9.454333070180235
      ],
      [
        "▁carrie",
        -9.613899712959405
      ],
      [
        "▁hamil",
        -11.390204565462817
      ],
      [
        "▁naturalist",
        -12.12885667868274
      ],
      [
        "ʊ",
        -12.771024918840538
      ],
      [
        "rove",
        -9.921126073363725
      ],
      [
        "▁permeate",
        -12.271035405241022
      ],
      [
        "gcp",
        -12.732643510793945
      ],
      [
        "3.1",
        -12.945575938572821
      ],
      [
        "tte",
        -9.513176272221262
      ],
      [
        "▁frame",
        -9.99523368563353
      ],
      [
        "▁nan",
        -12.25253368878968
      ],
      [
        "▁rebelli",
        -12.184807252996714
      ],
      [
        "▁mitten",
        -12.77111722195984
      ],
      [
        "▁representative",
        -9.333572042445665
      ],
      [
        "▁co",
        -8.904656448230618
      ],
      [
        "antifraud",
        -12.771025586100777
      ],
      [
        "▁fuj",
        -11.209056165816179
      ],
      [
        "upi",
        -12.279900069656145
      ],
      [
        "▁azzam",
        -12.773175153950643
      ],
      [
        "ist",
        -8.876461395104915
      ],
      [
        "▁crayon",
        -10.08050941417212
      ],
      [
        ":5",
        -14.280357869335672
      ],
      [
        "▁guide",
        -10.144948422332918
      ],
      [
        "unit",
        -13.710423202346755
      ],
      [
        "▁stelle",
        -12.805679194544958
      ],
      [
        "re",
        -7.41821081394474
      ],
      [
        "▁job",
        -7.863934615544019
      ],
      [
        "▁achiev",
        -10.171010293555158
      ],
      [
        "▁detail",
        -8.544865571091288
      ],
      [
        "▁fray",
        -11.953583476601887
      ],
      [
        "achi",
        -12.353416979541896
      ],
      [
        "▁łodz",
        -12.833783221425183
      ],
      [
        "$$",
        -11.687718784621106
      ],
      [
        "cre",
        -13.452445740389438
      ],
      [
        "▁inflation",
        -10.667909255758545
      ],
      [
        "▁rave",
        -11.949350345317923
      ],
      [
        "tan",
        -10.293532286935195
      ],
      [
        "fi",
        -11.328054049889788
      ],
      [
        "▁lament",
        -11.964689168967828
      ],
      [
        "7/9",
        -12.765859434088394
      ],
      [
        "▁annual",
        -9.880772549002284
      ],
      [
        "us",
        -7.936784403825471
      ],
      [
        "▁stirrup",
        -10.942178029872021
      ],
      [
        "▁journalist",
        -11.214764125155282
      ],
      [
        "!!!!!!!!!!!!!!",
        -12.295588014338717
      ],
      [
        "▁fili",
        -12.274604366325143
      ],
      [
        "▁florid",
        -9.518672735542715
      ],
      [
        "!!!!",
        -9.691707156797474
      ],
      [
        "imbe",
        -13.220081335584748
      ],
      [
        "▁teach",
        -10.26370529433906
      ],
      [
        "▁paradigm",
        -11.487693393787302
      ],
      [
        "▁downsiz",
        -13.126944325088246
      ],
      [
        "▁pull",
        -8.336410152986165
      ],
      [
        "▁moment",
        -8.526182710012856
      ],
      [
        "▁07/1",
        -11.467963282922423
      ],
      [
        "▁ord",
        -13.140606060513807
      ],
      [
        "▁recommend",
        -8.198951833439198
      ],
      [
        "▁tham",
        -11.26713278775613
      ],
      [
        "▁infertil",
        -11.937703889680794
      ],
      [
        "coat",
        -11.28418501679419
      ],
      [
        "▁deteriorate",
        -11.381394510091514
      ],
      [
        "/31/200",
        -14.53124509196579
      ],
      [
        "ps.",
        -12.097903778654935
      ],
      [
        "▁saluta",
        -12.771430908616688
      ],
      [
        "▁bc",
        -10.810165663142394
      ],
      [
        "▁morning",
        -6.950680026616309
      ],
      [
        "▁plut",
        -12.796305062109527
      ],
      [
        "▁grandma",
        -10.174431505378145
      ],
      [
        "▁mater",
        -12.800149542408803
      ],
      [
        "/forum/",
        -12.771030715538926
      ],
      [
        "sion",
        -10.424354767085728
      ],
      [
        "▁monarch",
        -10.842070845557068
      ],
      [
        "▁lava",
        -11.9884572288973
      ],
      [
        "▁provocation",
        -11.487899797938905
      ],
      [
        "▁enclos",
        -11.847180595959774
      ],
      [
        "▁shorten",
        -11.995271934711141
      ],
      [
        "▁gtc",
        -11.93798898804232
      ],
      [
        "eet",
        -13.026196635505968
      ],
      [
        "nforcement",
        -10.1024472787549
      ],
      [
        "▁refus",
        -10.283155167358386
      ],
      [
        "▁alter",
        -10.403380494915734
      ],
      [
        "city",
        -11.446592089729227
      ],
      [
        "▁com",
        -9.986242493050487
      ],
      [
        "/9",
        -15.44729760529276
      ],
      [
        "▁pro",
        -12.087576576142846
      ],
      [
        "837",
        -14.14819031276042
      ],
      [
        "▁ya",
        -12.898998956236886
      ],
      [
        "▁god",
        -9.228570150685648
      ],
      [
        "▁abu",
        -12.659050262975363
      ],
      [
        "▁hopki",
        -12.97453589276314
      ],
      [
        "ire",
        -11.360514358261332
      ],
      [
        "▁sh",
        -8.650262038363719
      ],
      [
        "▁bur",
        -10.606677224105793
      ],
      [
        "▁armenia",
        -12.266590629314686
      ],
      [
        "▁fourth",
        -9.468113900551128
      ],
      [
        "zem",
        -11.035336853363994
      ],
      [
        "9025",
        -13.941520505513102
      ],
      [
        "▁committment",
        -12.771697553181145
      ],
      [
        "▁less",
        -8.081663408408101
      ],
      [
        "▁wagg",
        -11.945076249699245
      ],
      [
        "33",
        -11.518810232972715
      ],
      [
        "oose",
        -11.373428647165948
      ],
      [
        "▁david",
        -9.177941271524086
      ],
      [
        "▁fee",
        -8.276345604987096
      ],
      [
        "▁richard",
        -9.214174753860537
      ],
      [
        "▁non",
        -9.749685132467587
      ],
      [
        "▁10:5",
        -11.91217653689127
      ],
      [
        "▁…",
        -9.423272303804795
      ],
      [
        "▁are",
        -7.145531265747977
      ],
      [
        "▁isle",
        -12.381822790086822
      ],
      [
        "uri",
        -11.894408370198882
      ],
      [
        "▁lymph",
        -12.208655751506814
      ],
      [
        "▁postpone",
        -11.405036864163037
      ],
      [
        "abo",
        -13.2260141682147
      ],
      [
        "▁94720-",
        -13.136776257797242
      ],
      [
        "handler",
        -13.68526984252621
      ],
      [
        "oces",
        -12.897569169501748
      ],
      [
        "▁emotional",
        -10.952279036605972
      ],
      [
        "▁102",
        -12.015717884418416
      ],
      [
        "▁abnormal",
        -12.27103062301842
      ],
      [
        "▁0",
        -12.590165494098184
      ],
      [
        "920",
        -12.849170236525222
      ],
      [
        "-living",
        -12.781630867420715
      ],
      [
        "▁capita",
        -12.78095329738648
      ],
      [
        "54",
        -12.93635787977736
      ],
      [
        "cato",
        -11.946515533569777
      ],
      [
        "▁choos",
        -11.321835766690214
      ],
      [
        "cture",
        -13.693807038996459
      ],
      [
        "▁heavi",
        -10.223286145817305
      ],
      [
        "▁java",
        -12.277439060045076
      ],
      [
        "▁polluter",
        -12.279744646721454
      ],
      [
        "truth",
        -13.592763872320395
      ],
      [
        "wa",
        -12.083792402984447
      ],
      [
        "▁updat",
        -12.244806141089336
      ],
      [
        "▁lens",
        -11.413237430105626
      ],
      [
        "▁imper",
        -11.842697742911147
      ],
      [
        "▁plumb",
        -12.34075075870596
      ],
      [
        "raz",
        -12.216306027598762
      ],
      [
        "zz",
        -11.790287464662859
      ],
      [
        "09/",
        -13.576926037779199
      ],
      [
        "▁langui",
        -12.772390628753495
      ],
      [
        "=",
        -9.479384224177249
      ],
      [
        "-of-",
        -11.688483253210668
      ],
      [
        "ozen",
        -9.916278138248533
      ],
      [
        "ellen",
        -11.944308985310117
      ],
      [
        "▁squashe",
        -11.88019707134773
      ],
      [
        "▁dab",
        -10.932624278258885
      ],
      [
        "▁spiel",
        -12.772175538611247
      ],
      [
        "gara",
        -11.954461009560596
      ],
      [
        "▁scene",
        -9.421047166399372
      ],
      [
        "▁endow",
        -12.825318439151864
      ],
      [
        "cent",
        -10.823422790160254
      ],
      [
        "▁addresse",
        -10.72325442743966
      ],
      [
        "▁daw",
        -11.378178876505107
      ],
      [
        "eck",
        -12.128021416698637
      ],
      [
        "▁predict",
        -10.037039386842535
      ],
      [
        "▁he",
        -10.151374235281452
      ],
      [
        "▁theft",
        -11.687766065865821
      ],
      [
        "▁skimm",
        -11.948183107961691
      ],
      [
        "▁rediscover",
        -12.771148756725001
      ],
      [
        "▁monster",
        -9.712843741587722
      ],
      [
        "▁mid",
        -9.46688288545224
      ],
      [
        "▁girlfriend",
        -10.223337690642772
      ],
      [
        "▁crown",
        -10.845741555657472
      ],
      [
        "tha",
        -7.447652869023347
      ],
      [
        "am",
        -11.474157171086143
      ],
      [
        "bb",
        -11.953589324145495
      ],
      [
        "▁suffering",
        -9.989409081390667
      ],
      [
        "▁branch",
        -10.760065838268059
      ],
      [
        "popular",
        -11.449592635277359
      ],
      [
        "t",
        -5.43927371524618
      ],
      [
        "▁flag-",
        -12.790380620329412
      ],
      [
        "ing",
        -9.928808428270834
      ],
      [
        "393",
        -11.979993705934662
      ],
      [
        "sis",
        -12.693411606486883
      ],
      [
        "8/10/200",
        -13.466113830950322
      ],
      [
        "▁lotf",
        -13.102317455227633
      ],
      [
        "townsend",
        -12.780839977442882
      ],
      [
        "▁fascinat",
        -10.767510341758424
      ],
      [
        "▁affirmative",
        -12.771164684268212
      ],
      [
        "▁lounge",
        -11.487698219841857
      ],
      [
        "tart",
        -12.323299743615799
      ],
      [
        "eye",
        -12.03173654359087
      ],
      [
        "▁thought",
        -7.473682830390388
      ],
      [
        "▁dia",
        -13.086237827269645
      ],
      [
        "▁04:3",
        -12.399758770173818
      ],
      [
        "▁mid-oc",
        -13.548573843758419
      ],
      [
        "▁ground",
        -7.511000339399028
      ],
      [
        "▁consen",
        -11.480617684877242
      ],
      [
        "64-7",
        -13.572722259480486
      ],
      [
        "▁nash",
        -8.999511191950436
      ],
      [
        "05",
        -11.333808753995704
      ],
      [
        "▁cropduster",
        -11.937693280478804
      ],
      [
        "▁veroni",
        -12.575949161309305
      ],
      [
        "ki",
        -12.612514497577099
      ],
      [
        "ation",
        -10.323213255553187
      ],
      [
        "▁prohibition",
        -12.775955591747051
      ],
      [
        "clear",
        -13.033043829191742
      ],
      [
        "▁depress",
        -11.939819595929658
      ],
      [
        "▁enchant",
        -12.865299404968226
      ],
      [
        "▁traged",
        -10.125687550825472
      ],
      [
        "in/",
        -13.488847829405021
      ],
      [
        "▁combine",
        -10.17059698893397
      ],
      [
        "▁concede",
        -13.240353127060532
      ],
      [
        "/rp/chernobyl/c",
        -13.554489583654052
      ],
      [
        "▁back",
        -6.439929621419231
      ],
      [
        "emona",
        -12.993893676324175
      ],
      [
        "▁dut",
        -9.761847293230907
      ],
      [
        "93",
        -11.856309454895467
      ],
      [
        "ecker",
        -12.11457265026241
      ],
      [
        "▁cub",
        -11.347656619638556
      ],
      [
        "▁salad",
        -9.544311282491861
      ],
      [
        "▁absor",
        -12.769974966724213
      ],
      [
        "▁infe",
        -13.350432542125402
      ],
      [
        "999",
        -12.57747659635982
      ],
      [
        "▁betta",
        -11.97358389318823
      ],
      [
        "▁multiple",
        -10.080214869572686
      ],
      [
        "▁lesson",
        -9.550908371119709
      ],
      [
        "light",
        -9.787493304109189
      ],
      [
        "▁pleasure",
        -9.91719712262989
      ],
      [
        "▁05:",
        -13.864709534199491
      ],
      [
        "ibra",
        -13.62029731802884
      ],
      [
        "▁smok",
        -10.298602289706487
      ],
      [
        "▁guardia",
        -10.58835474449521
      ],
      [
        "▁winter",
        -8.938271952999607
      ],
      [
        "▁toil",
        -11.95534531367246
      ],
      [
        "!",
        -11.178167775983392
      ],
      [
        "空",
        -12.833785825435129
      ],
      [
        "ical",
        -8.83701131838244
      ],
      [
        "fertilize",
        -13.732908437998878
      ],
      [
        "2-66",
        -13.140576993165098
      ],
      [
        "▁interven",
        -10.94196066323911
      ],
      [
        "12",
        -10.115966630470972
      ],
      [
        "▁evolv",
        -10.461227263065467
      ],
      [
        "solubl",
        -11.938023662357338
      ],
      [
        "▁latin",
        -10.27735996946861
      ],
      [
        "▁shu",
        -11.605474654976895
      ],
      [
        "▁hydro",
        -10.842500912110982
      ],
      [
        "▁juggl",
        -12.305887872959257
      ],
      [
        "▁clatter",
        -11.940027829201435
      ],
      [
        "▁grimace",
        -12.271076710497248
      ],
      [
        "▁l.p",
        -12.817984553812025
      ],
      [
        "ed",
        -9.811572089528623
      ],
      [
        "▁sandwich",
        -9.291826491677178
      ],
      [
        "▁maria",
        -11.715515423327307
      ],
      [
        "▁explode",
        -12.090375612428064
      ],
      [
        "-to-",
        -11.478913699933816
      ],
      [
        "▁tang",
        -12.72579364881601
      ],
      [
        "pa",
        -10.827296361980743
      ],
      [
        "▁place",
        -6.805931458064666
      ],
      [
        "▁maz",
        -12.633302618060172
      ],
      [
        "guide",
        -12.743175499797413
      ],
      [
        "▁half-",
        -11.704149073189882
      ],
      [
        "▁kenneth",
        -11.488924313081013
      ],
      [
        "trust",
        -12.63267937400847
      ],
      [
        "▁lin",
        -11.790307960165437
      ],
      [
        "▁switch",
        -10.208291133616264
      ],
      [
        "▁thrift",
        -11.178182145333931
      ],
      [
        "▁158",
        -10.771498006496454
      ],
      [
        "▁navigate",
        -13.435127352232428
      ],
      [
        "▁annexe",
        -12.792657498160327
      ],
      [
        "corp.",
        -11.075493180346236
      ],
      [
        "▁carpet",
        -10.842527139429773
      ],
      [
        "nana",
        -9.662043387588838
      ],
      [
        "-1.",
        -11.020711380884578
      ],
      [
        "▁trailer",
        -11.190127834841359
      ],
      [
        "▁subtle",
        -11.321069086042911
      ],
      [
        "▁marsh",
        -12.269869498158089
      ],
      [
        "▁clip",
        -10.459290285960769
      ],
      [
        "▁pancr",
        -12.776415874910901
      ],
      [
        "▁mad",
        -9.521693967141598
      ],
      [
        "▁macke",
        -12.78453672022234
      ],
      [
        "▁pitche",
        -11.633387420488653
      ],
      [
        "lected",
        -12.76094343186615
      ],
      [
        "calzo",
        -13.71489172581607
      ],
      [
        "▁favorite",
        -8.883008716693354
      ],
      [
        "▁roos",
        -11.96050269701204
      ],
      [
        "425",
        -14.180756138798781
      ],
      [
        "▁genes",
        -11.009101964216502
      ],
      [
        "ok",
        -11.717409675203276
      ],
      [
        "▁area",
        -7.581083465610427
      ],
      [
        "▁elect",
        -10.626021067955413
      ],
      [
        "▁halt",
        -11.378860094874803
      ],
      [
        "ware",
        -9.664186661923734
      ],
      [
        "▁121",
        -14.581591867325713
      ],
      [
        "▁gala",
        -11.702631264584346
      ],
      [
        "▁sainte",
        -12.530755743878256
      ],
      [
        "bias",
        -12.219736439551708
      ],
      [
        "▁hunche",
        -12.774643383999049
      ],
      [
        "▁noticeabl",
        -13.008262386965207
      ],
      [
        "▁phu",
        -13.528729103728962
      ],
      [
        "oo",
        -10.573184319002312
      ],
      [
        "▁650",
        -13.191743379778188
      ],
      [
        "▁slovenia",
        -11.687693277672654
      ],
      [
        "ther",
        -9.816198836317017
      ],
      [
        "▁opt",
        -11.414640689267928
      ],
      [
        "▁7.2",
        -11.34898867292298
      ],
      [
        "kat",
        -10.909520301264195
      ],
      [
        "****************",
        -9.647989595493517
      ],
      [
        "▁jong",
        -12.285763934122796
      ],
      [
        "▁jordan",
        -10.275746002012342
      ],
      [
        "▁moham",
        -10.171012349595554
      ],
      [
        "▁has",
        -6.848591457078751
      ],
      [
        "▁arrogan",
        -11.482875406956547
      ],
      [
        "96",
        -11.613919797726453
      ],
      [
        "▁worm",
        -9.76191744687536
      ],
      [
        "▁mach",
        -11.993781064601764
      ],
      [
        "▁logg",
        -11.945964510881492
      ],
      [
        "pepsi",
        -11.93991152655491
      ],
      [
        "▁traveller",
        -11.501980331923136
      ],
      [
        "▁lear",
        -10.94358538162402
      ],
      [
        "▁shel",
        -9.88288980363493
      ],
      [
        "▁river",
        -8.789148816525994
      ],
      [
        "▁sponsor",
        -10.751164505538458
      ],
      [
        "▁afterward",
        -10.080238951155533
      ],
      [
        "▁obs",
        -10.417048564803027
      ],
      [
        "▁shorthand",
        -12.773450887302529
      ],
      [
        "bag",
        -11.997412215922065
      ],
      [
        "category",
        -10.173291454594933
      ],
      [
        "▁instant",
        -10.174397629426068
      ],
      [
        ":46",
        -13.579038763616383
      ],
      [
        "/16/200",
        -11.522972034904175
      ],
      [
        "pit",
        -12.597640795167584
      ],
      [
        "trina",
        -10.89231954910543
      ],
      [
        "huac",
        -11.956439917691903
      ],
      [
        "▁horribl",
        -9.543261343163753
      ],
      [
        "}",
        -11.333785825435129
      ],
      [
        "▁dada",
        -11.17321667106772
      ],
      [
        "▁grandson",
        -12.27337381855356
      ],
      [
        "▁hau",
        -12.753008223545823
      ],
      [
        "▁nanda",
        -11.373803937697424
      ],
      [
        "▁gibb",
        -13.571882857125491
      ],
      [
        "rdon",
        -9.948414300064211
      ],
      [
        "▁medica",
        -9.651600998394716
      ],
      [
        "#",
        -13.722533176121074
      ],
      [
        "▁alchem",
        -13.727953020272022
      ],
      [
        "▁aw",
        -8.844585833961844
      ],
      [
        "acia",
        -12.35067822828685
      ],
      [
        "▁spen",
        -8.968166960507443
      ],
      [
        "6/200",
        -15.097693619441635
      ],
      [
        "▁bass",
        -11.52284377850817
      ],
      [
        "▁shovel",
        -11.055652006072538
      ],
      [
        "▁crumbl",
        -11.926163203716277
      ],
      [
        "▁petti",
        -11.76290091755178
      ],
      [
        "▁teaching",
        -9.695177397784795
      ],
      [
        "hm",
        -10.400943848880734
      ],
      [
        "leopa",
        -12.771566608188902
      ],
      [
        "1.5",
        -12.30403993063978
      ],
      [
        "▁vehicle",
        -9.809371998290747
      ],
      [
        "surgery",
        -10.04751816862867
      ],
      [
        "values",
        -11.227392804242173
      ],
      [
        "/03/200",
        -12.14697268704212
      ],
      [
        "▁beatle",
        -10.127242914953383
      ],
      [
        "▁cu",
        -10.20122600720561
      ],
      [
        "t-",
        -11.273127511116757
      ],
      [
        "▁implant",
        -11.487699032831506
      ],
      [
        "▁five",
        -12.348662870367757
      ],
      [
        "1960",
        -11.315720686444235
      ],
      [
        "and",
        -10.665447951536812
      ],
      [
        "▁apron",
        -11.488930424743995
      ],
      [
        "linguistic",
        -12.732980649107592
      ],
      [
        "ashim",
        -12.792109001825114
      ],
      [
        "▁krist",
        -12.707191848607874
      ],
      [
        "▁mcg",
        -11.311842152829668
      ],
      [
        "▁roger",
        -11.321401914046538
      ],
      [
        "▁rank",
        -9.99691420265277
      ],
      [
        "▁reform",
        -10.222343602962525
      ],
      [
        "▁favourite",
        -11.938033959006251
      ],
      [
        "1.",
        -12.184348602532562
      ],
      [
        "▁music",
        -8.818213750095747
      ],
      [
        "~",
        -9.582223498820056
      ],
      [
        "▁revolutioniz",
        -12.841219562839946
      ],
      [
        "▁exercis",
        -11.834210044261127
      ],
      [
        "▁whoops",
        -11.998946345040586
      ],
      [
        "▁swo",
        -12.77159045121725
      ],
      [
        "▁04:5",
        -13.362917933474565
      ],
      [
        "142",
        -13.600140993251275
      ],
      [
        "▁num",
        -11.689565112383082
      ],
      [
        "c-",
        -12.972229384061876
      ],
      [
        "▁pound",
        -10.391801741254
      ],
      [
        "山",
        -12.833785825435129
      ],
      [
        "▁byr",
        -10.85908050699996
      ],
      [
        "onia",
        -10.935221471102944
      ],
      [
        "▁tam",
        -11.098531843846185
      ],
      [
        "▁mock",
        -12.3176383995572
      ],
      [
        "crazy",
        -10.161328598765765
      ],
      [
        "▁barrette",
        -11.955776893485655
      ],
      [
        "hill",
        -11.35088808273894
      ],
      [
        "ه",
        -14.203297884361366
      ],
      [
        "▁diag",
        -12.070155495954367
      ],
      [
        "00",
        -10.825008994298004
      ],
      [
        "▁congratulation",
        -10.842056973470775
      ],
      [
        "ble",
        -13.325705585333473
      ],
      [
        "▁bonn",
        -12.518489556223095
      ],
      [
        "▁pel",
        -12.774833086456406
      ],
      [
        "▁use",
        -6.596342102290537
      ],
      [
        "▁scammer",
        -11.688482077562767
      ],
      [
        "biscu",
        -12.77151261182729
      ],
      [
        "▁subse",
        -12.886837474206839
      ],
      [
        "▁conv",
        -12.76231307101075
      ],
      [
        "ample",
        -12.805755590924715
      ],
      [
        "marie",
        -10.154224965686264
      ],
      [
        "▁hegemon",
        -12.771091811292417
      ],
      [
        "▁donut",
        -12.808022350363776
      ],
      [
        "▁well",
        -6.348680697706744
      ],
      [
        "borg",
        -11.320000993971512
      ],
      [
        "▁housewi",
        -12.569015916783815
      ],
      [
        "▁3/9/",
        -13.14152125688839
      ],
      [
        "▁inspire",
        -9.87800220157507
      ],
      [
        "▁roar",
        -9.743973459266439
      ],
      [
        "ove",
        -11.814824832607663
      ],
      [
        "▁spider",
        -9.25224263874279
      ],
      [
        "▁balzac",
        -8.47978131491601
      ],
      [
        "ought",
        -9.453957320742106
      ],
      [
        "▁channel",
        -9.62487912973235
      ],
      [
        "▁rail",
        -10.080156657509935
      ],
      [
        "▁tragic",
        -11.053173151640726
      ],
      [
        "▁acrylic",
        -11.937691870774568
      ],
      [
        "weaponize",
        -11.966152109849606
      ],
      [
        "▁dwelling",
        -12.332183823625396
      ],
      [
        "staunch",
        -12.773615242506382
      ],
      [
        "▁k",
        -8.466481655722358
      ],
      [
        "▁strict",
        -10.080225751184424
      ],
      [
        "▁minor",
        -10.35203094668341
      ],
      [
        "▁detective",
        -10.591276807737572
      ],
      [
        "▁philosopher",
        -10.758801363547358
      ],
      [
        "▁hankie",
        -12.812358931413595
      ],
      [
        "▁dillard",
        -12.271085840968947
      ],
      [
        "▁elaborate",
        -10.94205667869055
      ],
      [
        "305",
        -14.449579635922536
      ],
      [
        "match",
        -13.009504238139831
      ],
      [
        "▁crash",
        -10.087202478812525
      ],
      [
        "▁reject",
        -10.125666258625651
      ],
      [
        "bu",
        -8.933136665927833
      ],
      [
        "▁yarn",
        -11.68779153288372
      ],
      [
        "187",
        -12.753397997597109
      ],
      [
        "▁killing",
        -10.00347607923452
      ],
      [
        "▁problem",
        -7.586170141214148
      ],
      [
        "hi",
        -9.42458128149114
      ],
      [
        "▁secretion",
        -12.793235221600316
      ],
      [
        "▁crawf",
        -13.419917881614714
      ],
      [
        "▁sid",
        -11.56414447088602
      ],
      [
        "▁pinch",
        -10.837995699404324
      ],
      [
        "wet",
        -12.226384985385943
      ],
      [
        "▁solom",
        -12.804777193794846
      ],
      [
        "▁noon",
        -8.377573727683348
      ],
      [
        "▁flexibl",
        -11.057594326298153
      ],
      [
        "!!!!!!!!!!!",
        -12.790094382530567
      ],
      [
        "▁steward",
        -12.778904408244529
      ],
      [
        "ow",
        -10.620396625819371
      ],
      [
        "zer",
        -9.232960750336773
      ],
      [
        "▁distinctive",
        -12.27181092003682
      ],
      [
        "▁ripple",
        -11.695927922481326
      ],
      [
        "▁hotdog",
        -11.489210259278492
      ],
      [
        "▁yack",
        -11.322061510512455
      ],
      [
        "▁x33",
        -11.93991825188356
      ],
      [
        "▁pulle",
        -12.349083150562187
      ],
      [
        "▁regime",
        -9.995066820102418
      ],
      [
        "▁overhea",
        -12.462661600716096
      ],
      [
        "▁oka",
        -6.637594034817865
      ],
      [
        "▁spru",
        -12.939562922779107
      ],
      [
        "valenc",
        -12.846219330932941
      ],
      [
        "▁glimmer",
        -12.771025056070732
      ],
      [
        "▁where",
        -8.802452388749018
      ],
      [
        "▁unrel",
        -11.86563834396023
      ],
      [
        "31",
        -11.692241147114805
      ],
      [
        "▁folk",
        -9.847178860899405
      ],
      [
        "▁settler",
        -10.52462464148243
      ],
      [
        "kha",
        -13.620988252282125
      ],
      [
        "respect",
        -13.73365710230267
      ],
      [
        "▁dow",
        -12.161066766794061
      ],
      [
        "13",
        -10.571710913851275
      ],
      [
        "▁devil",
        -9.879883230561958
      ],
      [
        "▁ambi",
        -11.705824098218812
      ],
      [
        "▁obl",
        -12.722384941511116
      ],
      [
        "▁drizzl",
        -13.434701370299601
      ],
      [
        "washington",
        -7.186604175804263
      ],
      [
        "/~",
        -12.771092500946189
      ],
      [
        "for",
        -13.304615301027066
      ],
      [
        "aboo",
        -12.75702056814236
      ],
      [
        "▁presiden",
        -11.314670851177256
      ],
      [
        "▁jacket",
        -10.331773651230753
      ],
      [
        "▁pang",
        -11.719441056446142
      ],
      [
        "▁procedure",
        -9.44453654702903
      ],
      [
        "-b",
        -11.568492036549882
      ],
      [
        "▁expell",
        -12.27636427245838
      ],
      [
        "▁gte",
        -11.948128203318188
      ],
      [
        "▁queue",
        -11.321030087698277
      ],
      [
        "▁179",
        -12.177181067986169
      ],
      [
        "▁gu",
        -11.83470245911374
      ],
      [
        "▁balochi",
        -11.939134581910508
      ],
      [
        "▁opossum",
        -12.2710249407847
      ],
      [
        "▁pag",
        -10.739891569544566
      ],
      [
        "▁after-",
        -12.786290317872032
      ],
      [
        "sun",
        -13.006053659873134
      ],
      [
        "▁muggle",
        -10.331474886500231
      ],
      [
        "6-84",
        -14.806907614809186
      ],
      [
        "▁f.",
        -12.1078003503353
      ],
      [
        "▁metaphysic",
        -12.271151718830321
      ],
      [
        "▁shand",
        -13.12122054002057
      ],
      [
        "▁self-regulati",
        -12.724072645960163
      ],
      [
        "▁swing",
        -9.383467288778466
      ],
      [
        "▁climb",
        -9.177433091050627
      ],
      [
        "▁bengal",
        -11.324074774101879
      ],
      [
        ">",
        -8.485528575884176
      ],
      [
        "affin",
        -13.007641329278451
      ],
      [
        "-04",
        -14.123579800210045
      ],
      [
        "manor",
        -12.844805029661533
      ],
      [
        "▁offend",
        -11.634806562490654
      ],
      [
        "▁par",
        -10.847458532643536
      ],
      [
        "▁diminishe",
        -12.518066815034064
      ],
      [
        "▁urgent",
        -10.751284022894007
      ],
      [
        "▁negat",
        -11.032526588317928
      ],
      [
        "1/200",
        -13.24735849196466
      ],
      [
        "347",
        -12.395691842297392
      ],
      [
        "▁forc",
        -12.577520839258913
      ],
      [
        "ntact",
        -11.69101493209715
      ],
      [
        "▁reference",
        -9.1163840438889
      ],
      [
        "▁agel",
        -11.201662259577493
      ],
      [
        "ins",
        -12.84528629625656
      ],
      [
        "-in-",
        -12.272193148973834
      ],
      [
        "▁stooge",
        -11.688715674789849
      ],
      [
        "▁europ",
        -11.270999431473793
      ],
      [
        "▁negotiate",
        -11.078581807731725
      ],
      [
        "arriage",
        -10.982246373060672
      ],
      [
        "▁comp.sources.",
        -11.687691585560374
      ],
      [
        "▁trott",
        -12.473774638997986
      ],
      [
        "▁corresponding",
        -11.330683516014963
      ],
      [
        "ow",
        -13.920453066150825
      ],
      [
        "▁whats",
        -11.26542166168438
      ],
      [
        "▁pattern",
        -9.996569816869243
      ],
      [
        "▁rena",
        -10.145616765252822
      ],
      [
        "▁solv",
        -10.928449119015276
      ],
      [
        "▁tiger",
        -9.214547810918342
      ],
      [
        "coli",
        -11.937441279969983
      ],
      [
        "▁creature",
        -10.842275463231639
      ],
      [
        "▁fireplace",
        -11.053857616802393
      ],
      [
        "erre",
        -11.834469720779595
      ],
      [
        "28",
        -11.378940060574218
      ],
      [
        "minate",
        -11.750390542524816
      ],
      [
        "▁fatt",
        -11.987522132661283
      ],
      [
        "▁since",
        -10.353748570839585
      ],
      [
        "mar",
        -11.878759200109332
      ],
      [
        "und",
        -11.813595838952976
      ],
      [
        "▁kendr",
        -12.607296816439124
      ],
      [
        "2-3",
        -14.13762684307704
      ],
      [
        "ß",
        -12.833785825435129
      ],
      [
        "▁driv",
        -8.744765231871838
      ],
      [
        "bring",
        -12.738203493294744
      ],
      [
        "▁instigate",
        -12.271024988000061
      ],
      [
        "▁203.",
        -13.141448739224417
      ],
      [
        "▁apologize",
        -11.06175387638933
      ],
      [
        "ebbe",
        -12.7671703494182
      ],
      [
        "▁definite",
        -8.924110384119079
      ],
      [
        "▁general",
        -7.982615391036728
      ],
      [
        "▁any",
        -8.313978061899988
      ],
      [
        "▁korea",
        -9.233412547175622
      ],
      [
        "▁deposit",
        -10.641193673706951
      ],
      [
        "▁bending",
        -11.191743903592187
      ],
      [
        "ity",
        -7.057959802844108
      ],
      [
        "oul",
        -11.421026711817436
      ],
      [
        "▁stroke",
        -11.693405665138867
      ],
      [
        "tail",
        -12.733875195446386
      ],
      [
        "▁bj",
        -12.812555936063202
      ],
      [
        "xx",
        -12.929198159530694
      ],
      [
        "ratio",
        -13.693592973957482
      ],
      [
        "▁digg",
        -10.675598706837912
      ],
      [
        "▁normall",
        -11.501313969182466
      ],
      [
        "aux",
        -12.8366506743101
      ],
      [
        "▁annoyance",
        -12.775543292515428
      ],
      [
        "▁cha",
        -11.250268752536988
      ],
      [
        "▁journey",
        -10.173285284310602
      ],
      [
        "aku",
        -11.581255570216264
      ],
      [
        "▁appetiz",
        -11.937691599335224
      ],
      [
        "▁haze",
        -12.46094630832275
      ],
      [
        "▁preface",
        -11.487711035480674
      ],
      [
        "features",
        -12.455527580618242
      ],
      [
        "▁contribute",
        -10.02830082286619
      ],
      [
        "▁scott",
        -9.78157780970104
      ],
      [
        "19032951_4",
        -12.364847159398307
      ],
      [
        "▁massacre",
        -11.754410202993721
      ],
      [
        "▁piccadill",
        -12.271125412530633
      ],
      [
        "ryan",
        -9.91803749065544
      ],
      [
        "▁mango",
        -11.968032691273155
      ],
      [
        "teur",
        -12.601943138174624
      ],
      [
        "▁dog",
        -7.640505127272489
      ],
      [
        "▁duster",
        -12.363171464203585
      ],
      [
        "▁ji",
        -12.359967820454228
      ],
      [
        "▁jen",
        -10.263180566866884
      ],
      [
        "hog",
        -13.729270817355184
      ],
      [
        "415",
        -15.196552822100085
      ],
      [
        "▁u.",
        -11.12884631915573
      ],
      [
        "▁seamstress",
        -12.27102511851845
      ],
      [
        "▁.......",
        -12.942341377205102
      ],
      [
        "▁skate",
        -12.588532984164289
      ],
      [
        "ax",
        -9.498075937158813
      ],
      [
        "▁relativis",
        -11.363412231835508
      ],
      [
        "▁pier",
        -10.544007679223432
      ],
      [
        "▁swirl",
        -11.48769444212164
      ],
      [
        "▁trini",
        -11.832612072120137
      ],
      [
        "▁sprinkl",
        -12.27106064486875
      ],
      [
        "▁dinner",
        -8.128212543324667
      ],
      [
        "▁syrup",
        -10.842057327631808
      ],
      [
        "lled",
        -12.399659886897119
      ],
      [
        "▁eric",
        -11.187144671116991
      ],
      [
        "▁small",
        -7.449204461528797
      ],
      [
        "▁andaman",
        -9.995069489209708
      ],
      [
        "▁rep",
        -10.148949753296769
      ],
      [
        ":50",
        -14.10412921044257
      ],
      [
        "▁imagin",
        -11.49713493669336
      ],
      [
        "▁2.0",
        -11.449299207262335
      ],
      [
        "004",
        -12.1937116209186
      ],
      [
        "▁chic",
        -8.19724647946007
      ],
      [
        "▁crouche",
        -11.938801397004069
      ],
      [
        "akan",
        -12.241331569319104
      ],
      [
        "▁pigg",
        -12.526398057093662
      ],
      [
        "▁dinosaur",
        -8.869676176337919
      ],
      [
        "th",
        -7.353972408991394
      ],
      [
        "▁attribute",
        -10.514556991192649
      ],
      [
        "▁wash",
        -8.791874007591318
      ],
      [
        "▁vice",
        -9.725347587378076
      ],
      [
        "een",
        -10.134809323558137
      ],
      [
        "▁guadeloupe",
        -10.751147574288767
      ],
      [
        "▁30,",
        -14.133461492039803
      ],
      [
        "▁mumble",
        -12.162806613521845
      ],
      [
        "▁connections",
        -10.828112249964592
      ],
      [
        "▁stead",
        -11.922919359473937
      ],
      [
        "▁please",
        -6.530199793389457
      ],
      [
        "▁burp",
        -11.69104854031632
      ],
      [
        "ibbon",
        -12.770998414699884
      ],
      [
        "▁runflat",
        -12.771024959436387
      ],
      [
        "▁stretch",
        -9.443871858174088
      ],
      [
        "civet",
        -11.180804659519637
      ],
      [
        "▁tweet",
        -11.943005172310617
      ],
      [
        "▁mauri",
        -12.915880373413124
      ],
      [
        "▁impose",
        -11.262945422730905
      ],
      [
        "tenance",
        -10.84292160146014
      ],
      [
        "cam",
        -13.526957247658657
      ],
      [
        "▁factotum",
        -12.271025320646848
      ],
      [
        "▁dell",
        -12.218687542621993
      ],
      [
        "cott",
        -12.028115483768604
      ],
      [
        "▁brick",
        -10.592190314645514
      ],
      [
        "llah",
        -10.727723554335093
      ],
      [
        "▁translat",
        -11.113921475386743
      ],
      [
        "▁impo",
        -13.71574347294216
      ],
      [
        "1-51",
        -14.136826951535191
      ],
      [
        ".0",
        -12.397871425506054
      ],
      [
        "get",
        -13.245362460261234
      ],
      [
        "▁smack",
        -11.178172372929795
      ],
      [
        "▁375",
        -13.567938652830122
      ],
      [
        "felines.",
        -12.771027634627501
      ],
      [
        "▁grue",
        -12.782661503274463
      ],
      [
        "▁distinction",
        -10.519614937282334
      ],
      [
        "▁straighten",
        -11.703328143388351
      ],
      [
        "oda",
        -13.178690811145522
      ],
      [
        "▁social",
        -8.303978583839312
      ],
      [
        "▁ne",
        -9.752435587208844
      ],
      [
        "▁evacuate",
        -10.988065785980794
      ],
      [
        "eiji",
        -13.257142350095522
      ],
      [
        "107",
        -12.935676077658487
      ],
      [
        "▁emphasis",
        -10.892402445069706
      ],
      [
        "ance",
        -7.981951880339642
      ],
      [
        "▁rattl",
        -11.720341688128723
      ],
      [
        "▁wel",
        -10.452125002941226
      ],
      [
        "▁woods",
        -11.15621949689127
      ],
      [
        "▁chef",
        -10.591500768673246
      ],
      [
        "▁acqui",
        -13.715209706009743
      ],
      [
        "▁digi",
        -12.626482661853453
      ],
      [
        "lugu",
        -12.77192750554875
      ],
      [
        "▁reuse",
        -13.655268365805771
      ],
      [
        "▁gentlem",
        -11.292054282163473
      ],
      [
        "▁ferri",
        -13.50874015715414
      ],
      [
        "▁9",
        -10.07482853981363
      ],
      [
        "▁hoodi",
        -12.89953903980425
      ],
      [
        "▁cascade",
        -12.28380569875234
      ],
      [
        "▁all-",
        -13.443267750911396
      ],
      [
        "▁exercise",
        -9.608853159435835
      ],
      [
        "▁engrav",
        -11.937698941138741
      ],
      [
        "▁petunia",
        -10.519462751098155
      ],
      [
        "smut",
        -12.271594386469797
      ],
      [
        "article",
        -13.690058388500232
      ],
      [
        "▁consist",
        -10.45230822261459
      ],
      [
        "▁funnel",
        -10.752251250615537
      ],
      [
        "▁al",
        -9.59365962293792
      ],
      [
        "▁repai",
        -11.999918879741037
      ],
      [
        "▁meir",
        -11.178680290669146
      ],
      [
        "▁flopp",
        -11.945743611656725
      ],
      [
        "▁1930",
        -12.271024944226012
      ],
      [
        "▁marque",
        -12.322274019944826
      ],
      [
        "jj",
        -10.752411902458382
      ],
      [
        "▁citi",
        -9.210682858273511
      ],
      [
        "▁punctuat",
        -12.886910097997045
      ],
      [
        "ect",
        -11.733665998967979
      ],
      [
        "pulse",
        -12.27049709718004
      ],
      [
        "▁...............",
        -13.349509917108678
      ],
      [
        "▁spur",
        -11.9338980512381
      ],
      [
        "▁770",
        -13.561149847827554
      ],
      [
        "2.1",
        -13.66157177077054
      ],
      [
        "die",
        -10.223377604815687
      ],
      [
        "▁hijacker",
        -11.937691585850054
      ],
      [
        "▁liar",
        -12.273685196279214
      ],
      [
        "▁tri",
        -9.213428597710502
      ],
      [
        "▁creative",
        -9.293847552582928
      ],
      [
        "▁plead",
        -11.730548742755412
      ],
      [
        "▁esp",
        -12.280478828913344
      ],
      [
        "▁dynamic",
        -10.390371108991783
      ],
      [
        "▁bann",
        -11.531968307856317
      ],
      [
        "atomic",
        -11.487299963298092
      ],
      [
        "▁virtuo",
        -11.492259720409097
      ],
      [
        "▁abbe",
        -11.950384898683291
      ],
      [
        "▁boost",
        -10.53193615735358
      ],
      [
        "▁equator",
        -12.77106675541644
      ],
      [
        "▁112",
        -13.204335028057539
      ],
      [
        "ginn",
        -11.51677083872962
      ],
      [
        "help",
        -12.757863410658857
      ],
      [
        "▁blindfold",
        -12.771040001705847
      ],
      [
        "▁popul",
        -11.769231935247674
      ],
      [
        "ours",
        -12.332390364283658
      ],
      [
        "128",
        -13.29157952732675
      ],
      [
        "▁garb",
        -10.593180679608317
      ],
      [
        "▁persia",
        -12.267615975585281
      ],
      [
        "▁interrogate",
        -12.850734802311516
      ],
      [
        "▁jiu",
        -12.272011733271874
      ],
      [
        "▁settle",
        -9.74106380241893
      ],
      [
        "rry",
        -10.425866491429705
      ],
      [
        "▁counsel",
        -10.452221334475347
      ],
      [
        "▁hock",
        -13.319988128172195
      ],
      [
        "▁po",
        -11.008071481084977
      ],
      [
        "▁norwegian",
        -11.487691585507442
      ],
      [
        "▁unpai",
        -12.543786969486934
      ],
      [
        "our",
        -11.818521937071932
      ],
      [
        "▁broom",
        -10.676654993324274
      ],
      [
        "853-3",
        -14.140827607357917
      ],
      [
        "▁gree",
        -10.899000227903045
      ],
      [
        "▁b",
        -10.16720176095756
      ],
      [
        "▁advancement",
        -11.695014623024251
      ],
      [
        "▁scream",
        -10.173363934915292
      ],
      [
        "thur",
        -12.151354372116844
      ],
      [
        "▁spann",
        -11.959926764603175
      ],
      [
        "lincoln",
        -12.771030456785725
      ],
      [
        "militar",
        -12.726816833096517
      ],
      [
        "▁lu",
        -9.840953056148255
      ],
      [
        "▁pal",
        -11.011786454927975
      ],
      [
        "bile",
        -13.71657116151708
      ],
      [
        "seattlepi.",
        -12.829784307368415
      ],
      [
        "log",
        -11.56513823003277
      ],
      [
        "▁mistress",
        -12.271052200166322
      ],
      [
        "08",
        -11.3293503899011
      ],
      [
        "▁silver",
        -9.516899630728059
      ],
      [
        "killed",
        -9.826705243293603
      ],
      [
        "▁mia",
        -11.835498122457036
      ],
      [
        "▁drunk",
        -10.902316004630817
      ],
      [
        "sauce",
        -12.754636390866086
      ],
      [
        "pression",
        -11.371496488120634
      ],
      [
        "▁600",
        -11.992235792398532
      ],
      [
        "▁centralize",
        -12.302149794660517
      ],
      [
        "▁old",
        -7.3385351628289825
      ],
      [
        "▁inevitabl",
        -10.519462844923941
      ],
      [
        "▁punishment",
        -11.053411273176987
      ],
      [
        "▁adult",
        -9.142057309654328
      ],
      [
        "▁169",
        -11.526929689379742
      ],
      [
        "▁applaud",
        -12.328024508859858
      ],
      [
        "▁814",
        -13.626596620227597
      ],
      [
        "▁encr",
        -12.377974192441275
      ],
      [
        "▁intr",
        -11.352675253674466
      ],
      [
        "▁cas",
        -12.414239616479904
      ],
      [
        "▁blade",
        -11.488350362677444
      ],
      [
        "rent",
        -11.478215618129267
      ],
      [
        "▁useful",
        -9.752026017065837
      ],
      [
        "▁kar",
        -9.4285348573738
      ],
      [
        "▁reward",
        -10.331783769733233
      ],
      [
        "▁officer",
        -9.638921675089435
      ],
      [
        "▁expans",
        -13.080068865319422
      ],
      [
        "▁runn",
        -8.81138605063844
      ],
      [
        "▁thieve",
        -11.95416551547091
      ],
      [
        "▁mingle",
        -12.340157107574962
      ],
      [
        "ander",
        -13.438109718162139
      ],
      [
        "▁del",
        -11.060910416404479
      ],
      [
        "pi.",
        -12.787478660160291
      ],
      [
        "▁take",
        -6.237107942179385
      ],
      [
        "▁>",
        -9.25200696802715
      ],
      [
        "▁hutt",
        -12.202238324123982
      ],
      [
        "/obi",
        -13.6007465214918
      ],
      [
        "▁untie",
        -11.69302792478429
      ],
      [
        "itarian",
        -12.771986346556803
      ],
      [
        "yours",
        -13.83576927956286
      ],
      [
        "▁occupie",
        -11.053167878099458
      ],
      [
        "mund",
        -12.072988250408624
      ],
      [
        "ee",
        -10.720525926017277
      ],
      [
        "▁station",
        -8.679756692121972
      ],
      [
        "▁09:5",
        -13.197391014154237
      ],
      [
        "guard",
        -12.111231648022583
      ],
      [
        "▁secretar",
        -12.485897253997855
      ],
      [
        "gree",
        -12.725181866128915
      ],
      [
        "jump",
        -13.734059489439609
      ],
      [
        "▁bath+",
        -11.321197178704669
      ],
      [
        "▁crucial",
        -10.173843572658448
      ],
      [
        "diana",
        -11.646764951582865
      ],
      [
        "▁foods",
        -10.35743818037427
      ],
      [
        "shield",
        -12.22773833502689
      ],
      [
        "▁3",
        -10.562554746008258
      ],
      [
        "gorge",
        -11.489012651987958
      ],
      [
        "▁detector",
        -11.93971892322572
      ],
      [
        "...",
        -9.005493748066167
      ],
      [
        "▁hahaha",
        -12.771246649944718
      ],
      [
        "▁lit",
        -10.735389868393513
      ],
      [
        "ere",
        -12.161093486031731
      ],
      [
        "issu",
        -12.797155964838314
      ],
      [
        "apologetic",
        -13.724013038992382
      ],
      [
        ",300",
        -12.803982360712016
      ],
      [
        "▁ooz",
        -12.040913333626774
      ],
      [
        "▁allocat",
        -11.237040598097849
      ],
      [
        "▁starr",
        -11.531963036077855
      ],
      [
        "▁pre-fab",
        -12.771025033914853
      ],
      [
        "▁bubble",
        -9.879614711968017
      ],
      [
        "▁uh",
        -7.2775824444014905
      ],
      [
        "▁10:4",
        -12.397343587659025
      ],
      [
        "!!!!!!!",
        -11.378490256407192
      ],
      [
        "▁souvenir",
        -12.771024945763486
      ],
      [
        "dan",
        -11.181267619385988
      ],
      [
        "▁colomb",
        -11.321084856369326
      ],
      [
        "▁nat",
        -12.155850108950167
      ],
      [
        "▁til",
        -12.301726577056355
      ],
      [
        "thograph",
        -12.798782618940262
      ],
      [
        "▁clump",
        -11.938820070926965
      ],
      [
        "▁policymak",
        -11.186097550214484
      ],
      [
        "▁energy",
        -8.436206229233992
      ],
      [
        "▁turk",
        -9.843874442656599
      ],
      [
        "▁drizzle",
        -12.370055109604822
      ],
      [
        "▁collaps",
        -12.318761472555089
      ],
      [
        "▁mayur",
        -12.325083642279942
      ],
      [
        "och",
        -12.918959700262555
      ],
      [
        "▁bigge",
        -8.913034209574072
      ],
      [
        "▁hub",
        -11.366333878990952
      ],
      [
        "▁adopt",
        -9.159658775389747
      ],
      [
        "▁riddle",
        -12.773848469964936
      ],
      [
        "▁valid",
        -10.275033958472543
      ],
      [
        "▁hike",
        -11.739690896863879
      ],
      [
        "▁blood",
        -9.19516757105282
      ],
      [
        "arling",
        -12.91275585039828
      ],
      [
        "baath",
        -12.729367039909544
      ],
      [
        "▁recall",
        -9.955188303300616
      ],
      [
        "▁kine",
        -12.57681968486899
      ],
      [
        "▁cancel",
        -10.510747732023765
      ],
      [
        "credit",
        -13.733778905977788
      ],
      [
        "k",
        -6.845849443488207
      ],
      [
        "▁perve",
        -11.716235691192754
      ],
      [
        "ase",
        -10.78973269745037
      ],
      [
        "▁glisten",
        -11.93769220996791
      ],
      [
        "irr",
        -12.829351814011266
      ],
      [
        "▁6/1",
        -13.680375511970919
      ],
      [
        ".5",
        -11.877263202958112
      ],
      [
        "▁active",
        -9.550458635502546
      ],
      [
        "▁comfort",
        -10.52427729978768
      ],
      [
        "!!!!!!!!!!!!!",
        -12.30698754839941
      ],
      [
        "▁bathroom",
        -9.233058033756842
      ],
      [
        "▁consultant",
        -12.27290581291799
      ],
      [
        "3",
        -9.772266817123713
      ],
      [
        "▁spence",
        -11.712372643450642
      ],
      [
        "▁reciproc",
        -11.937691585514388
      ],
      [
        "▁desperat",
        -12.85468903692011
      ],
      [
        "▁sj",
        -11.079100537701738
      ],
      [
        "▁over",
        -7.215890673759656
      ],
      [
        "▁twit",
        -13.019317112019476
      ],
      [
        "▁bernard",
        -10.942070835545112
      ],
      [
        "▁booz",
        -12.278133964029148
      ],
      [
        "▁ex",
        -10.27708053350082
      ],
      [
        "▁repurpos",
        -12.771027140727037
      ],
      [
        "24",
        -12.096653605591772
      ],
      [
        "▁cur",
        -11.638933819015957
      ],
      [
        "▁at",
        -10.976289584009782
      ],
      [
        "▁soak",
        -10.936603298325002
      ],
      [
        "course",
        -11.799888102261692
      ],
      [
        "▁india",
        -8.531676135239588
      ],
      [
        "▁tor",
        -8.137728991097376
      ],
      [
        "ile",
        -11.870530406756517
      ],
      [
        "london",
        -11.899140248609225
      ],
      [
        "wart",
        -10.317850694067541
      ],
      [
        "▁passion",
        -10.279719718984444
      ],
      [
        "177",
        -13.361139344580991
      ],
      [
        "▁transact",
        -12.77018866870162
      ],
      [
        "structure",
        -13.721703988003894
      ],
      [
        "▁chamber",
        -10.751188912505913
      ],
      [
        "▁budd",
        -10.446999528718639
      ],
      [
        "hobh",
        -11.001611438055935
      ],
      [
        "oming",
        -11.768811367263895
      ],
      [
        "to",
        -10.339334777003861
      ],
      [
        "▁prophet",
        -10.945837062531197
      ],
      [
        "▁disadvantage",
        -12.27102492484887
      ],
      [
        "▁mailto:",
        -11.687691534660173
      ],
      [
        "▁pa",
        -9.68578111468014
      ],
      [
        "▁dualit",
        -12.859535528047287
      ],
      [
        "▁advert",
        -10.520561557170847
      ],
      [
        "l",
        -6.231528932805012
      ],
      [
        "▁platt",
        -11.902913622514717
      ],
      [
        "▁allie",
        -12.520143765767198
      ],
      [
        "▁presume",
        -11.688145187853435
      ],
      [
        "▁redden",
        -12.808196924185339
      ],
      [
        "▁supplie",
        -10.340582007694014
      ],
      [
        "▁21",
        -9.720348909308498
      ],
      [
        "g",
        -6.298432668733277
      ],
      [
        "▁yoursel",
        -9.209680784957502
      ],
      [
        "▁webb",
        -12.427224787761487
      ],
      [
        "▁kansa",
        -8.510107757168509
      ],
      [
        "m",
        -4.126316415305993
      ],
      [
        "awn",
        -13.729390630932636
      ],
      [
        "wig",
        -10.8958632392089
      ],
      [
        "scape",
        -11.938412213761755
      ],
      [
        "ksm",
        -11.205878351249234
      ],
      [
        "▁guine",
        -10.670042433102445
      ],
      [
        "mike",
        -8.856429272855694
      ],
      [
        "fluent",
        -11.438655837047975
      ],
      [
        "▁ninety",
        -11.077728537876116
      ],
      [
        "▁nanc",
        -10.881533727840322
      ],
      [
        "▁processe",
        -10.250494391988136
      ],
      [
        "inburg",
        -12.271513559844642
      ],
      [
        "▁bil",
        -11.503810032817338
      ],
      [
        "ox",
        -12.380420962898427
      ],
      [
        "▁swim",
        -10.17222132302193
      ],
      [
        "▁contingent",
        -12.272274126403218
      ],
      [
        "tyler",
        -11.051153778674085
      ],
      [
        "enos",
        -11.181490156242058
      ],
      [
        "▁scare",
        -10.296840913113085
      ],
      [
        "aire",
        -11.527976900470591
      ],
      [
        "▁grie",
        -12.431341922697513
      ],
      [
        "▁kent",
        -9.922484047122593
      ],
      [
        "▁moto",
        -12.7752986292666
      ],
      [
        "▁pointe",
        -12.627479262789542
      ],
      [
        "kee",
        -8.004581105559133
      ],
      [
        "coming",
        -10.78428875000018
      ],
      [
        "lender",
        -12.413601976425161
      ],
      [
        "▁fal",
        -12.161057113031559
      ],
      [
        "▁dissatisf",
        -11.321045863615812
      ],
      [
        "beresford",
        -12.27105540353095
      ],
      [
        "▁government",
        -7.779980431184556
      ],
      [
        "cited",
        -11.9910264994968
      ],
      [
        "▁arrangement",
        -9.917174660111236
      ],
      [
        "▁kn",
        -12.404742774922447
      ],
      [
        "▁repair",
        -9.142569246119862
      ],
      [
        "ta",
        -13.295403756520322
      ],
      [
        "▁flew",
        -10.667988761910237
      ],
      [
        "▁prop",
        -11.814543183060648
      ],
      [
        "▁pea",
        -11.136137467423406
      ],
      [
        "▁characteristic",
        -10.753269987225362
      ],
      [
        "winds",
        -11.651785058686649
      ],
      [
        "thi",
        -7.468707088522826
      ],
      [
        "▁whisper",
        -10.842059240047954
      ],
      [
        "▁supplier",
        -11.493178500807241
      ],
      [
        "▁slipper",
        -10.598444988833762
      ],
      [
        "▁yum",
        -11.95642185555182
      ],
      [
        "bc",
        -11.968397221973099
      ],
      [
        "▁stunt",
        -12.288104816528445
      ],
      [
        "▁curricul",
        -12.23541971851069
      ],
      [
        "fro",
        -7.918171548395992
      ],
      [
        "▁zac",
        -11.02143769728193
      ],
      [
        "levant",
        -11.59002399645257
      ],
      [
        "▁producer",
        -10.046877767173548
      ],
      [
        "▁assassinate",
        -11.32492457341762
      ],
      [
        "▁12",
        -8.71671642994368
      ],
      [
        "▁antig",
        -12.601429633032607
      ],
      [
        "▁follow",
        -8.130827517318195
      ],
      [
        "eta",
        -9.564740455031949
      ],
      [
        "ibble",
        -12.971995059150897
      ],
      [
        "▁central",
        -9.124706542098671
      ],
      [
        "naire",
        -12.940305238354611
      ],
      [
        "▁risk",
        -8.832129357431555
      ],
      [
        "▁rename",
        -11.945877283387489
      ],
      [
        "▁carne",
        -10.902487916648898
      ],
      [
        "▁evans",
        -10.998597790038184
      ],
      [
        "▁long",
        -6.7276208226665855
      ],
      [
        "▁identifie",
        -9.776044122463443
      ],
      [
        "▁brain",
        -9.306787388137078
      ],
      [
        "4:5",
        -14.567715117453755
      ],
      [
        "▁weblog",
        -12.27141651074736
      ],
      [
        "▁squire",
        -12.305720986815059
      ],
      [
        "bond",
        -11.026732676225684
      ],
      [
        "lite",
        -13.026558545203791
      ],
      [
        "kept",
        -8.681752012304464
      ],
      [
        "atta",
        -12.241038137187177
      ],
      [
        "2011/09/",
        -12.77102513205533
      ],
      [
        "▁shre",
        -11.931390794731872
      ],
      [
        "▁declar",
        -10.889279765342447
      ],
      [
        "▁mommi",
        -12.149840610854454
      ],
      [
        "▁rape",
        -11.131820916630955
      ],
      [
        "▁russ",
        -13.377653755505312
      ],
      [
        "twenty",
        -11.271913807343168
      ],
      [
        "zola",
        -11.943174181344117
      ],
      [
        "▁2/",
        -14.396171217010771
      ],
      [
        "▁marshal",
        -11.18275554990067
      ],
      [
        "%20",
        -12.271036772128575
      ],
      [
        "707",
        -13.147084992139545
      ],
      [
        "▁clark",
        -11.491385380126822
      ],
      [
        "▁reconstruct",
        -11.876776644459401
      ],
      [
        "scale",
        -11.905341699143776
      ],
      [
        "▁flie",
        -9.786389637578026
      ],
      [
        "location",
        -11.55925886484914
      ],
      [
        "▁bram",
        -13.583274477295488
      ],
      [
        "freeze",
        -12.231930919296405
      ],
      [
        "▁frogg",
        -12.259515300570554
      ],
      [
        "▁bran",
        -11.182750503425062
      ],
      [
        "▁bon",
        -11.541878356723414
      ],
      [
        "▁corpora",
        -12.267629013503564
      ],
      [
        "▁facult",
        -10.27591835650351
      ],
      [
        "▁striking",
        -10.942056793726847
      ],
      [
        "▁fuss",
        -11.059114982851101
      ],
      [
        "▁hysteri",
        -12.271156445661967
      ],
      [
        "viabl",
        -13.65000831048324
      ],
      [
        "imag",
        -13.689705557446539
      ],
      [
        "▁ridiculous",
        -10.84212537875476
      ],
      [
        "▁queen",
        -10.862078708911413
      ],
      [
        "▁minus",
        -12.276856854849894
      ],
      [
        "▁insur",
        -9.668436115628175
      ],
      [
        "▁re-elect",
        -11.706345143749177
      ],
      [
        "▁contribution",
        -9.609763487113302
      ],
      [
        "▁toss",
        -11.192816930011016
      ],
      [
        "▁cancell",
        -11.973609498385768
      ],
      [
        "▁kinsm",
        -12.598609007549047
      ],
      [
        "▁feather",
        -9.776197841816732
      ],
      [
        "▁glen",
        -11.48027665278649
      ],
      [
        "mec",
        -10.57763543975337
      ],
      [
        "off",
        -10.177103808200409
      ],
      [
        "▁exploit",
        -10.842056875324733
      ],
      [
        "bra",
        -11.96493340707573
      ],
      [
        "▁hut",
        -11.031820940061476
      ],
      [
        "oge",
        -12.160063850342283
      ],
      [
        "▁ambassador",
        -11.321024918841626
      ],
      [
        "▁ascetic",
        -11.687714356342942
      ],
      [
        "▁chateau",
        -12.27138747652835
      ],
      [
        "▁launcher",
        -11.729705831522026
      ],
      [
        "▁literal",
        -10.220681000192126
      ],
      [
        "▁taunt",
        -11.938198023609866
      ],
      [
        "▁uppercas",
        -12.782496917401872
      ],
      [
        "▁flatten",
        -12.272012858308942
      ],
      [
        "▁190",
        -11.796319890941165
      ],
      [
        "▁anti-american",
        -12.77107331120149
      ],
      [
        "▁bonus",
        -11.322559543985987
      ],
      [
        "▁cultural",
        -8.940167763278254
      ],
      [
        "▁cheap",
        -8.89648185000848
      ],
      [
        "ry@enron",
        -11.848195031338767
      ],
      [
        "▁dilut",
        -13.434264262019848
      ],
      [
        "▁multiplie",
        -12.771037929163425
      ],
      [
        "▁marketplace",
        -12.274455743224923
      ],
      [
        "▁fashion",
        -10.128481744243299
      ],
      [
        "▁decei",
        -12.793743511515107
      ],
      [
        "-size",
        -12.628541845438626
      ],
      [
        "▁overall",
        -9.142117926059184
      ],
      [
        "▁bloody",
        -10.846417317462613
      ],
      [
        "▁wrestle",
        -10.786250617596187
      ],
      [
        "vin",
        -12.001076051216183
      ],
      [
        "▁ignoran",
        -10.37983086032456
      ],
      [
        "▁disposa",
        -13.41692882230911
      ],
      [
        "▁fab",
        -12.751020966142542
      ],
      [
        "▁child",
        -8.346402045167022
      ],
      [
        "461",
        -13.307979721832812
      ],
      [
        "ja",
        -12.135023217070916
      ],
      [
        "▁indiana",
        -8.381465214687736
      ],
      [
        "▁gimm",
        -12.77115463328076
      ],
      [
        "▁o'c",
        -8.37285993363732
      ],
      [
        "ا",
        -12.833785825398444
      ],
      [
        "▁barb",
        -11.122910597253032
      ],
      [
        "hear",
        -12.140187242508556
      ],
      [
        "▁froth",
        -12.77505563906902
      ],
      [
        "▁greeting",
        -10.33609113564849
      ],
      [
        "f-",
        -11.064041680389467
      ],
      [
        "ile",
        -12.729286221543994
      ],
      [
        "▁enterprise",
        -10.842927906126402
      ],
      [
        "▁philip",
        -11.325978413441156
      ],
      [
        "▁relinquish",
        -12.771025279354685
      ],
      [
        "ugge",
        -12.770680740753868
      ],
      [
        "▁lord",
        -10.131717748259728
      ],
      [
        "▁pool",
        -9.758339218205256
      ],
      [
        "▁turn",
        -7.44566673299254
      ],
      [
        "▁apples",
        -11.064731109965845
      ],
      [
        "▁gravit",
        -11.075176199333315
      ],
      [
        "▁sadr",
        -11.340690580602963
      ],
      [
        "▁sper",
        -13.25625495807749
      ],
      [
        "ell",
        -11.871927484342326
      ],
      [
        "members",
        -12.746378175484114
      ],
      [
        "▁trunk",
        -10.519472150008944
      ],
      [
        "own",
        -10.453181026012984
      ],
      [
        "▁cor",
        -10.732409848009189
      ],
      [
        "cha",
        -12.098391471455832
      ],
      [
        "▁intellectual",
        -10.223285778690714
      ],
      [
        "rado",
        -11.349301113651752
      ],
      [
        "/4",
        -14.507837677050667
      ],
      [
        "▁twenty-f",
        -12.946639624578596
      ],
      [
        "▁abo",
        -12.294097976718358
      ],
      [
        "▁react",
        -10.78258439279709
      ],
      [
        "ccp",
        -12.59201883707455
      ],
      [
        "enron@e",
        -12.771024640767054
      ],
      [
        "emma",
        -10.548182546709164
      ],
      [
        "8181",
        -12.77106504192485
      ],
      [
        "nce",
        -11.447446105333947
      ],
      [
        "▁intertext",
        -12.272339757748995
      ],
      [
        "▁mw",
        -9.584486875786913
      ],
      [
        "▁corner",
        -9.264345518022349
      ],
      [
        "▁jeopard",
        -11.32102491917067
      ],
      [
        "▁formation",
        -12.02588648407334
      ],
      [
        "▁strapp",
        -12.79969142920488
      ],
      [
        "▁we",
        -11.031951154787404
      ],
      [
        "▁tummy",
        -9.776143651579552
      ],
      [
        "▁international",
        -8.037630768109947
      ],
      [
        "▁carry",
        -8.74786032819355
      ],
      [
        "▁advocate",
        -11.48769158599841
      ],
      [
        "▁estimate",
        -9.119225003796716
      ],
      [
        "ett",
        -11.553554038130578
      ],
      [
        "▁copper",
        -11.937725654892104
      ],
      [
        "▁domino",
        -11.689044416609697
      ],
      [
        "▁carni",
        -10.592506058465757
      ],
      [
        "▁business",
        -7.779955117239607
      ],
      [
        "▁plant",
        -8.526813124392387
      ],
      [
        "▁mixture",
        -10.519572626652506
      ],
      [
        "▁hind",
        -11.444034329834569
      ],
      [
        "▁align",
        -11.940229277270793
      ],
      [
        "▁congo",
        -11.49190174820919
      ],
      [
        ";",
        -12.771024918880485
      ],
      [
        "▁bern",
        -12.884839810986927
      ],
      [
        "▁terribl",
        -9.254060597216991
      ],
      [
        "▁strong",
        -8.200403239249017
      ],
      [
        "▁po",
        -9.973674005390842
      ],
      [
        "turism",
        -12.780921683391933
      ],
      [
        "sonic",
        -11.73678908921507
      ],
      [
        "citation",
        -13.529572609913577
      ],
      [
        "▁baron",
        -12.335433246114581
      ],
      [
        "▁[",
        -8.84560095193122
      ],
      [
        "▁cei",
        -11.457929639250214
      ],
      [
        "▁that",
        -9.043178361988634
      ],
      [
        "▁brag",
        -13.646567595789717
      ],
      [
        "▁diminish",
        -12.07259289997536
      ],
      [
        "▁marking",
        -12.028236256129022
      ],
      [
        "up",
        -9.084873353512815
      ],
      [
        "▁industrialist",
        -11.939431589794607
      ],
      [
        "ma",
        -13.489069089140443
      ],
      [
        "ever",
        -7.490676714588052
      ],
      [
        "▁theolog",
        -12.959149606198402
      ],
      [
        "▁202",
        -11.617891900155044
      ],
      [
        "▁propose",
        -9.069591722304178
      ],
      [
        "▁hospital",
        -9.124766813551542
      ],
      [
        "▁hoove",
        -12.651481246324366
      ],
      [
        "09/20",
        -13.900643861991314
      ],
      [
        "▁flipp",
        -11.700614831769833
      ],
      [
        "poly",
        -11.631933393073142
      ],
      [
        "▁abbreviation",
        -11.053167776861596
      ],
      [
        "▁attribut",
        -11.95759795433451
      ],
      [
        "▁por",
        -11.091585840317387
      ],
      [
        "▁weekend",
        -9.011915090337943
      ],
      [
        "▁iot",
        -11.938722194848221
      ],
      [
        "▁asyl",
        -10.458381563352386
      ],
      [
        "essie",
        -11.04380442293721
      ],
      [
        "▁redeem",
        -11.48786969077437
      ],
      [
        "▁aphid",
        -12.771052441425233
      ],
      [
        "▁contemplat",
        -13.419184343259218
      ],
      [
        "▁chatt",
        -11.019744184084697
      ],
      [
        "▁shah",
        -10.976989956992856
      ],
      [
        "▁accumulat",
        -11.472648396308243
      ],
      [
        "ida",
        -10.104367638237713
      ],
      [
        "▁invasi",
        -10.942095951731849
      ],
      [
        "▁grum",
        -12.773583420397559
      ],
      [
        "▁speck",
        -11.693007239374024
      ],
      [
        "ticket",
        -13.733231690140585
      ],
      [
        "unja",
        -12.364357788032681
      ],
      [
        "kinaw",
        -10.23547974738146
      ],
      [
        "ight",
        -7.917709111600755
      ],
      [
        "▁sent",
        -8.4663570374647
      ],
      [
        "▁indulge",
        -12.024517770520548
      ],
      [
        "▁appointment",
        -9.712551705773633
      ],
      [
        "▁gum",
        -10.656267834892171
      ],
      [
        "▁ottle",
        -12.772475151891646
      ],
      [
        "▁spontaneous",
        -12.271251722246493
      ],
      [
        "u",
        -7.903191793250448
      ],
      [
        "▁boast",
        -11.180389409068788
      ],
      [
        "one",
        -10.618925815360097
      ],
      [
        "human",
        -11.648871704380753
      ],
      [
        "altho",
        -11.74134684819306
      ],
      [
        "had",
        -12.799048928546274
      ],
      [
        "ch",
        -8.197892680772354
      ],
      [
        "▁offer",
        -8.167962577761394
      ],
      [
        "▁helicopter",
        -10.390295925599684
      ],
      [
        "▁heap",
        -11.938964969262262
      ],
      [
        "b.",
        -12.033788032754092
      ],
      [
        "▁socio-",
        -12.771296892976373
      ],
      [
        "▁universidad",
        -11.937694863800035
      ],
      [
        "?var=",
        -12.271024920135774
      ],
      [
        "▁hop",
        -11.83466611609779
      ],
      [
        "▁limb",
        -10.279254871447757
      ],
      [
        "5:1",
        -12.952843723349197
      ],
      [
        "huff",
        -12.86607409176559
      ],
      [
        "▁correlat",
        -11.321039450276961
      ],
      [
        "▁pay",
        -8.083696239427066
      ],
      [
        "▁michi",
        -10.33197351609421
      ],
      [
        "▁imprison",
        -10.667814244305625
      ],
      [
        "argument",
        -11.649547414759255
      ],
      [
        "ll",
        -11.63392656839943
      ],
      [
        "▁++",
        -13.436075599114549
      ],
      [
        "▁brigade",
        -11.690968705393889
      ],
      [
        "▁thom",
        -11.740976580260154
      ],
      [
        "▁relativ",
        -12.597671249284108
      ],
      [
        "urgenc",
        -12.470388770865572
      ],
      [
        "kistan",
        -12.82374539699424
      ],
      [
        "▁host",
        -9.491603520472465
      ],
      [
        "▁motivat",
        -12.821829159889893
      ],
      [
        "▁dud",
        -10.087135544004754
      ],
      [
        "琴",
        -12.833785825435129
      ],
      [
        "▁astronom",
        -12.265607756995493
      ],
      [
        "▁dollar",
        -8.186979842646153
      ],
      [
        "▁starter",
        -12.77016571416303
      ],
      [
        "years",
        -9.834647757761092
      ],
      [
        "urs",
        -11.334386090581136
      ],
      [
        "▁classmate",
        -12.272993785575025
      ],
      [
        "▁gorse",
        -12.782937503996907
      ],
      [
        "▁arbitrari",
        -12.343547915873714
      ],
      [
        "755",
        -14.450526138564243
      ],
      [
        "cia",
        -13.345864833292708
      ],
      [
        "7",
        -10.667394602211175
      ],
      [
        "▁fo",
        -12.838710837665342
      ],
      [
        "▁gener",
        -10.459652214110182
      ],
      [
        "cile",
        -12.089836697053984
      ],
      [
        "▁bond",
        -10.047663536153099
      ],
      [
        "after",
        -11.63697640333626
      ],
      [
        "▁demo",
        -11.111657638048138
      ],
      [
        "▁cow",
        -9.080757271103298
      ],
      [
        "fr",
        -13.637637297361698
      ],
      [
        "level",
        -12.73842365596187
      ],
      [
        "skitt",
        -13.715990797339833
      ],
      [
        "▁guer",
        -12.294420405811902
      ],
      [
        "▁hat",
        -8.497842149105196
      ],
      [
        "▁intermediat",
        -11.937721353105452
      ],
      [
        "is",
        -7.5887397610774
      ],
      [
        "ology",
        -12.168127090924367
      ],
      [
        "▁bunk",
        -11.49736732466651
      ],
      [
        "▁pu",
        -10.986192588383584
      ],
      [
        "▁02",
        -12.852745059953296
      ],
      [
        "▁robotic",
        -11.693997785665397
      ],
      [
        "te",
        -10.853311653238517
      ],
      [
        "▁05908",
        -14.1378574751992
      ],
      [
        "ced",
        -12.752075754843505
      ],
      [
        "calf",
        -11.529826154473866
      ],
      [
        "▁1,",
        -11.196637822129151
      ],
      [
        "alle",
        -12.34670558163401
      ],
      [
        "ie",
        -8.010069914366987
      ],
      [
        "rations",
        -12.491177346469147
      ],
      [
        "▁division",
        -9.844638388336918
      ],
      [
        "▁trivia",
        -11.930174224362588
      ],
      [
        "rise",
        -11.919168930655324
      ],
      [
        "▁architectural",
        -11.194742525434389
      ],
      [
        "▁jo",
        -10.076107961138003
      ],
      [
        "▁cruci",
        -12.763773481698346
      ],
      [
        "▁post",
        -8.30038995195396
      ],
      [
        "▁rope",
        -10.4528410042971
      ],
      [
        "2/22/200",
        -13.31876325343751
      ],
      [
        "spaceflight",
        -12.771087665261744
      ],
      [
        "▁baha",
        -12.99453582458455
      ],
      [
        "▁applau",
        -11.299740094213568
      ],
      [
        "gate",
        -11.347888978168545
      ],
      [
        "▁di",
        -8.187060580328158
      ],
      [
        "5-5",
        -14.771435945680576
      ],
      [
        "▁chanti",
        -11.659849339827964
      ],
      [
        "▁commun",
        -12.979058086209179
      ],
      [
        "comprehend",
        -12.771024923821829
      ],
      [
        "missiv",
        -12.77670025726203
      ],
      [
        "can",
        -12.12391493848291
      ],
      [
        "hingy",
        -12.68212429047286
      ],
      [
        "▁rec",
        -11.305070924016551
      ],
      [
        "▁majest",
        -12.770762326491528
      ],
      [
        "▁barrac",
        -12.868103424609577
      ],
      [
        "ria",
        -11.73691810135671
      ],
      [
        "fill",
        -11.021985724068747
      ],
      [
        "▁search",
        -9.148471293524906
      ],
      [
        "▁barbar",
        -11.333114978426154
      ],
      [
        "▁will",
        -9.24605846161403
      ],
      [
        "ho",
        -15.25680992906695
      ],
      [
        "akes",
        -11.576361492430832
      ],
      [
        "▁rang",
        -10.13573466934331
      ],
      [
        "ports",
        -12.130459242118713
      ],
      [
        "▁hege",
        -12.77708821967488
      ],
      [
        "▁peace",
        -8.64461842137532
      ],
      [
        "▁absent",
        -10.673908665613073
      ],
      [
        "cap",
        -12.933563407044753
      ],
      [
        "▁crazie",
        -13.694314544563513
      ],
      [
        "▁755",
        -13.738721046877316
      ],
      [
        "▁sport",
        -9.357616770458497
      ],
      [
        "clubs.psu.edu/u",
        -12.771024918840547
      ],
      [
        "▁come",
        -6.508327616769699
      ],
      [
        "communication",
        -12.733014089148073
      ],
      [
        "▁underpinn",
        -12.773069328587495
      ],
      [
        "▁stumble",
        -12.271077914154107
      ],
      [
        "▁burke",
        -12.271923547238162
      ],
      [
        "political",
        -13.730392201363795
      ],
      [
        "ombard",
        -12.770628371620075
      ],
      [
        "▁dock",
        -11.082922227136638
      ],
      [
        "▁gis",
        -10.512233618311198
      ],
      [
        "ter",
        -9.167958002228128
      ],
      [
        "▁escalat",
        -12.299105304196267
      ],
      [
        "▁signoff",
        -11.178890432837717
      ],
      [
        "▁ara",
        -12.89273471998274
      ],
      [
        "along",
        -11.988352002306266
      ],
      [
        "▁noise",
        -9.093442802863276
      ],
      [
        "acture",
        -11.957018755348962
      ],
      [
        "metcalfe",
        -12.771120995749055
      ],
      [
        "tech",
        -12.57441189133373
      ],
      [
        "▁accurate",
        -9.845963564515523
      ],
      [
        "7.3",
        -12.70913607973589
      ],
      [
        "▁heating",
        -11.00132337620847
      ],
      [
        "▁penta",
        -13.47990592594265
      ],
      [
        "▁pol",
        -11.285661276914093
      ],
      [
        "▁subdu",
        -13.259274601489976
      ],
      [
        "▁loss",
        -9.869672316509153
      ],
      [
        "retta",
        -11.9141864305576
      ],
      [
        "▁four",
        -8.19459969449109
      ],
      [
        "▁supplement",
        -10.75122471351771
      ],
      [
        "ice",
        -10.671132192785878
      ],
      [
        "▁favorabl",
        -11.58122076799142
      ],
      [
        "▁realist",
        -10.399955784896154
      ],
      [
        "▁eva",
        -11.32416102823863
      ],
      [
        "▁hyper",
        -11.689127138478597
      ],
      [
        "oise",
        -12.067213743643661
      ],
      [
        "▁forum",
        -10.459905129392702
      ],
      [
        "rift",
        -12.766015761658949
      ],
      [
        "ura",
        -11.05574696324475
      ],
      [
        "▁galle",
        -12.812421025290538
      ],
      [
        "@i",
        -12.84705275439496
      ],
      [
        "▁massage",
        -11.490318048123994
      ],
      [
        "mikegigi.com/",
        -11.687691585548906
      ],
      [
        "▁qualit",
        -8.292803398280194
      ],
      [
        "▁scenario",
        -10.3314723961986
      ],
      [
        "▁approximate",
        -9.957490745443224
      ],
      [
        "▁contractor",
        -11.187331795844182
      ],
      [
        "▁pinpoint",
        -12.77123675587023
      ],
      [
        "▁though",
        -8.493401804165082
      ],
      [
        "▁islamist",
        -10.082448690286071
      ],
      [
        "▁certificate",
        -10.129745803559697
      ],
      [
        "▁fluff",
        -11.05597111804646
      ],
      [
        "▁enroll",
        -11.688499362570369
      ],
      [
        "▁brows",
        -12.25702389729704
      ],
      [
        "chronic",
        -13.042056684528083
      ],
      [
        "▁overcompensat",
        -12.771027752992767
      ],
      [
        "ike",
        -11.0019617878357
      ],
      [
        "▁indi",
        -11.601819092377912
      ],
      [
        "▁hugg",
        -11.715287093171789
      ],
      [
        "1",
        -9.973635362692885
      ],
      [
        "median",
        -11.013249412734034
      ],
      [
        "adequate",
        -11.98711789397736
      ],
      [
        "▁distress",
        -12.27106973503174
      ],
      [
        "▁aft",
        -12.836827706927231
      ],
      [
        "discriminate",
        -12.269778367142026
      ],
      [
        "nato",
        -9.888938337747382
      ],
      [
        "tes",
        -12.617106815335635
      ],
      [
        "tips",
        -13.224900714291078
      ],
      [
        ":32",
        -12.490201473690341
      ],
      [
        "▁fi",
        -14.154370951148582
      ],
      [
        "“",
        -6.515170392843602
      ],
      [
        "▁thyr",
        -11.48802989067511
      ],
      [
        "▁tutorial",
        -11.944952464808402
      ],
      [
        "ro",
        -11.369268642045473
      ],
      [
        "▁catalog",
        -11.519805211418184
      ],
      [
        "▁resemble",
        -11.520714677292336
      ],
      [
        "leen",
        -11.627284023512916
      ],
      [
        "ad",
        -13.093669832419435
      ],
      [
        ">>",
        -10.623999691705132
      ],
      [
        "ll",
        -5.735079957665786
      ],
      [
        "▁foss",
        -11.963734918860885
      ],
      [
        "iture",
        -12.306597024417758
      ],
      [
        "▁transformati",
        -11.875037073748429
      ],
      [
        "▁behave",
        -11.688952752187024
      ],
      [
        "so",
        -6.584119861661964
      ],
      [
        "▁dott",
        -12.757564435596748
      ],
      [
        "side",
        -8.89657388628326
      ],
      [
        "ough",
        -7.867185190780687
      ],
      [
        "▁poet",
        -9.272168215173696
      ],
      [
        "▁jafar",
        -11.499833672163664
      ],
      [
        "write",
        -13.580019822118674
      ],
      [
        "▁chouan",
        -12.771186900269424
      ],
      [
        "▁p.m",
        -10.340852781310012
      ],
      [
        "▁lend",
        -11.989373350031801
      ],
      [
        "▁second-",
        -11.727312159595332
      ],
      [
        "▁mini-",
        -12.272458642950225
      ],
      [
        "▁according",
        -8.693495186282604
      ],
      [
        "▁memoir",
        -10.751183445389968
      ],
      [
        "ti",
        -11.721458890591762
      ],
      [
        "▁sara",
        -8.387410189491597
      ],
      [
        "▁recite",
        -12.294352705648988
      ],
      [
        "▁aristocrat",
        -11.58417639022477
      ],
      [
        "oom",
        -12.53596697715926
      ],
      [
        "▁rightful",
        -13.170917760107328
      ],
      [
        "▁dila",
        -13.30441986224564
      ],
      [
        "`",
        -11.307802325334926
      ],
      [
        "▁painting",
        -9.338134997613142
      ],
      [
        "▁lega",
        -10.445830851845756
      ],
      [
        "▁prominen",
        -10.519571105282466
      ],
      [
        "▁yawn",
        -11.32143861203171
      ],
      [
        "9:5",
        -13.213451670145258
      ],
      [
        "▁bodi",
        -10.665169949830334
      ],
      [
        "▁pranks",
        -12.271585827449275
      ],
      [
        "▁abdul",
        -11.261791599030861
      ],
      [
        "active",
        -11.492592839766802
      ],
      [
        "lous",
        -12.892849346540897
      ],
      [
        "▁adhere",
        -12.384157533049688
      ],
      [
        "witha",
        -12.011321655770658
      ],
      [
        "itude",
        -11.517604043635856
      ],
      [
        "▁uran",
        -12.84260346586187
      ],
      [
        "▁nam",
        -10.767186663273295
      ],
      [
        "▁plau",
        -12.584880937981302
      ],
      [
        "clinics",
        -12.636216671409422
      ],
      [
        "▁!!!!!!",
        -11.049216165262704
      ],
      [
        "nik",
        -11.391804607005728
      ],
      [
        "▁fluent",
        -12.012584663685397
      ],
      [
        "opher",
        -10.70034284528143
      ],
      [
        "▁....",
        -10.491737081619904
      ],
      [
        "420",
        -13.637063103502197
      ],
      [
        "+wor",
        -12.543970897302758
      ],
      [
        "▁serge",
        -11.937892995948364
      ],
      [
        "▁elizabeth",
        -10.751147573987314
      ],
      [
        "enovate",
        -11.687660860905828
      ],
      [
        "rack",
        -11.915475132069552
      ],
      [
        "-100",
        -12.78482290670136
      ],
      [
        "ouch",
        -12.596279137222128
      ],
      [
        "▁hire",
        -9.948603565507993
      ],
      [
        "▁keen",
        -10.830931347045773
      ],
      [
        "▁locate",
        -9.379792752675682
      ],
      [
        "▁analytic",
        -11.489500052301835
      ],
      [
        "▁abs",
        -12.172012380966098
      ],
      [
        "▁let",
        -6.544467096717447
      ],
      [
        "▁sick",
        -9.109803067572283
      ],
      [
        "ennes",
        -10.855968504032813
      ],
      [
        "ف",
        -12.833785825435129
      ],
      [
        "cooper",
        -12.732431489660991
      ],
      [
        "urse",
        -13.093039487908218
      ],
      [
        "▁morph",
        -13.683000284106162
      ],
      [
        "▁sin",
        -10.974806028051116
      ],
      [
        "cargill",
        -10.223314256871282
      ],
      [
        "▁til",
        -14.239400027983452
      ],
      [
        "supplies",
        -11.153031866340239
      ],
      [
        "713-",
        -15.20242320856917
      ],
      [
        "clause",
        -12.732368137543217
      ],
      [
        "pl",
        -11.628615207034395
      ],
      [
        "▁2",
        -11.194826221527975
      ],
      [
        "▁roadway",
        -12.280170470447548
      ],
      [
        "▁http://l",
        -12.988081702923504
      ],
      [
        "▁penalt",
        -10.759648167918318
      ],
      [
        "▁respectful",
        -10.945231610881331
      ],
      [
        "▁geometric",
        -12.276357014830737
      ],
      [
        "akin",
        -12.642234539576735
      ],
      [
        "were",
        -13.682562872252992
      ],
      [
        "pal",
        -12.453399306718758
      ],
      [
        "▁bever",
        -11.41786386549112
      ],
      [
        "olshe",
        -13.009136741893956
      ],
      [
        "▁zone",
        -10.625439386056627
      ],
      [
        ")",
        -4.6644456325463
      ],
      [
        "237",
        -13.823535084092077
      ],
      [
        "tra",
        -9.657570608654877
      ],
      [
        "▁remark",
        -9.76383202076653
      ],
      [
        "▁hunter",
        -11.707328572361758
      ],
      [
        "religion",
        -12.232696367356336
      ],
      [
        "▁engl",
        -11.676691832492924
      ],
      [
        "▁wealthie",
        -13.12990144681547
      ],
      [
        "▁chew",
        -10.27650325259544
      ],
      [
        "sfo",
        -11.723716914706943
      ],
      [
        "▁probab",
        -12.20367533582008
      ],
      [
        "▁breakfast",
        -8.563943955483424
      ],
      [
        "du",
        -14.4639147343424
      ],
      [
        "▁inst",
        -12.314629858997446
      ],
      [
        "▁derivative",
        -9.955066741223892
      ],
      [
        "▁ban",
        -10.641777024873901
      ],
      [
        "▁prize",
        -10.275975941912822
      ],
      [
        "▁rhin",
        -12.784008586860114
      ],
      [
        "▁storefront",
        -12.772643073767632
      ],
      [
        "▁furr",
        -13.070177774418129
      ],
      [
        "▁synthe",
        -13.696422175729719
      ],
      [
        "▁code",
        -8.608836374102463
      ],
      [
        "▁indicate",
        -9.685963560282667
      ],
      [
        "▁perch",
        -12.907579538980421
      ],
      [
        "▁sea",
        -7.994623863060849
      ],
      [
        "9/200",
        -11.994173130074632
      ],
      [
        "▁vaga",
        -12.791054647539255
      ],
      [
        "▁repeal",
        -12.771304998920252
      ],
      [
        "▁trustworth",
        -12.772065714318321
      ],
      [
        "1:",
        -14.54247363883203
      ],
      [
        "▁row",
        -9.346129963483953
      ],
      [
        "▁trance",
        -12.274889832257612
      ],
      [
        "▁even",
        -6.763263606964352
      ],
      [
        "▁sexual",
        -9.235626164867464
      ],
      [
        "▁repute",
        -13.306845130208504
      ],
      [
        "▁consequence",
        -9.87956816605267
      ],
      [
        "▁ingest",
        -13.0584947425753
      ],
      [
        "▁midwest",
        -10.595631304913958
      ],
      [
        "▁baath",
        -11.956448781342695
      ],
      [
        "▁distributor",
        -12.777015127609694
      ],
      [
        "htm",
        -13.561726255925807
      ],
      [
        "▁drown",
        -11.178265620760431
      ],
      [
        "urant",
        -12.772860668219911
      ],
      [
        "▁cripple",
        -11.937706328381198
      ],
      [
        "▁mi",
        -11.290189893230615
      ],
      [
        "▁ant",
        -11.860894755500915
      ],
      [
        "▁kra",
        -12.29975264800211
      ],
      [
        "napol",
        -12.517391103557879
      ],
      [
        "▁tug",
        -10.842084043484277
      ],
      [
        "▁interpretation",
        -10.592014432028325
      ],
      [
        "▁sovereign",
        -10.519462601230423
      ],
      [
        "ou",
        -12.238124525840142
      ],
      [
        "▁brum",
        -13.061591388015144
      ],
      [
        "▁different",
        -7.508521806021959
      ],
      [
        "▁boat",
        -8.519920887376216
      ],
      [
        "▁empire",
        -11.178167883095261
      ],
      [
        "▁sump",
        -11.05551483582055
      ],
      [
        "oma",
        -11.493960536567002
      ],
      [
        "▁repri",
        -12.813705421500925
      ],
      [
        "▁submitt",
        -10.531461490107805
      ],
      [
        "rape",
        -11.352169065753053
      ],
      [
        "▁incidental",
        -12.070679831422886
      ],
      [
        "▁mello",
        -13.170972960265221
      ],
      [
        "abo",
        -13.4393374251526
      ],
      [
        "▁pollutant",
        -12.271294229949119
      ],
      [
        "▁examine",
        -10.335320211514293
      ],
      [
        "▁ju",
        -12.091573502807867
      ],
      [
        "▁striv",
        -10.772022547614304
      ],
      [
        "xl",
        -11.848180246930774
      ],
      [
        "▁they",
        -5.616133746390839
      ],
      [
        "▁norm",
        -10.701516229587181
      ],
      [
        "▁enhance",
        -10.535142361603539
      ],
      [
        "▁retail",
        -10.601441459406223
      ],
      [
        "shakes",
        -12.814335894205612
      ],
      [
        "asnondelibreaten",
        -11.833786315327183
      ],
      [
        "61",
        -12.975113719148483
      ],
      [
        "tt",
        -12.075768069728676
      ],
      [
        "▁gustav",
        -11.964091548195102
      ],
      [
        "apat",
        -12.699607179371476
      ],
      [
        "▁refin",
        -12.433191213070916
      ],
      [
        "▁succumb",
        -12.271025674739978
      ],
      [
        "▁exception",
        -10.142414733980065
      ],
      [
        "▁numeric",
        -12.772336703093865
      ],
      [
        "▁mysterious",
        -10.942214089038595
      ],
      [
        "▁kni",
        -11.892089409325154
      ],
      [
        "▁murder",
        -9.416968879988966
      ],
      [
        "▁ray",
        -9.968500516799471
      ],
      [
        "▁one",
        -6.3396020121112375
      ],
      [
        "▁expansi",
        -10.426450326561511
      ],
      [
        "[CLS]",
        0.0
      ],
      [
        "281",
        -13.085713180278189
      ],
      [
        "lotte",
        -8.361948391806447
      ],
      [
        "▁jess",
        -10.893005920365354
      ],
      [
        "alan",
        -13.459070155736535
      ],
      [
        "▁erik",
        -11.937872333943208
      ],
      [
        "▁capabilit",
        -10.331657005169587
      ],
      [
        "▁inaugura",
        -11.488001741720916
      ],
      [
        "045",
        -14.051548089164976
      ],
      [
        "▁mid-20",
        -13.418734948821484
      ],
      [
        "read",
        -11.211394947208115
      ],
      [
        "▁inter",
        -9.813585210963854
      ],
      [
        "598",
        -13.839166517124491
      ],
      [
        "unh",
        -12.090958139393953
      ],
      [
        "broke",
        -12.735325720917164
      ],
      [
        "▁filipino",
        -12.77102493533198
      ],
      [
        "▁kingdom",
        -10.390395349414732
      ],
      [
        "▁optim",
        -11.77213294410007
      ],
      [
        "cock",
        -12.666994989178974
      ],
      [
        "wa",
        -9.327411686636298
      ],
      [
        "3:2",
        -15.156802643993807
      ],
      [
        "down",
        -10.059011562882215
      ],
      [
        "list",
        -11.477499810391173
      ],
      [
        "▁blur",
        -12.270388859693607
      ],
      [
        "▁chandelier",
        -11.937691598241594
      ],
      [
        "inuit",
        -12.271625633591059
      ],
      [
        "▁anna",
        -11.079328088412133
      ],
      [
        "▁ecc",
        -12.475813559950488
      ],
      [
        "found",
        -12.276843776786766
      ],
      [
        "▁raisin",
        -11.669493496174328
      ],
      [
        "▁hospita",
        -12.786019229127117
      ],
      [
        "▁louis",
        -8.733955205646343
      ],
      [
        "-stain",
        -12.771489338830843
      ],
      [
        "▁displease",
        -12.771025033878852
      ],
      [
        "bbie",
        -10.50507119842176
      ],
      [
        "▁designate",
        -11.085916165704738
      ],
      [
        "▁misfortune",
        -11.937691585578253
      ],
      [
        "▁danny",
        -9.569529855695919
      ],
      [
        "▁hyperlink",
        -12.771037306670106
      ],
      [
        "▁min",
        -10.348254621189522
      ],
      [
        "▁praise",
        -10.528923992709782
      ],
      [
        "▁e.",
        -11.004428150084673
      ],
      [
        "▁productiv",
        -10.320896983686197
      ],
      [
        "▁permanent",
        -10.223285631064215
      ],
      [
        "▁telephon",
        -12.757678217768795
      ],
      [
        "▁successful",
        -9.076619171330098
      ],
      [
        "▁stopp",
        -8.837043180502244
      ],
      [
        "▁taper",
        -11.07934461933521
      ],
      [
        "▁13",
        -11.983422368500314
      ],
      [
        "any",
        -12.632996616841742
      ],
      [
        "▁fist",
        -11.503325375200124
      ],
      [
        "▁165",
        -13.33382968948013
      ],
      [
        "▁advance",
        -9.227280155012155
      ],
      [
        "▁reassure",
        -11.594361006926597
      ],
      [
        "▁mek",
        -12.283155805998817
      ],
      [
        "▁harvest",
        -10.45332825493628
      ],
      [
        "minute",
        -13.729298209120754
      ],
      [
        "▁speech",
        -9.776037855607964
      ],
      [
        "▁past",
        -8.379963428371191
      ],
      [
        "ison",
        -10.526677725204083
      ],
      [
        "overt",
        -11.336755311614159
      ],
      [
        "ms",
        -11.919613931885362
      ],
      [
        "▁ranking",
        -12.131807615582954
      ],
      [
        "▁squeez",
        -12.58414266934491
      ],
      [
        "▁liza",
        -12.752044098731114
      ],
      [
        "▁crush",
        -10.78597685373635
      ],
      [
        "111",
        -12.788292034875845
      ],
      [
        "6/9",
        -12.808934602602186
      ],
      [
        "▁discredit",
        -12.771154018586213
      ],
      [
        "▁prison",
        -10.938452964313937
      ],
      [
        "game",
        -12.73638720881321
      ],
      [
        "64",
        -11.687826364436361
      ],
      [
        "▁messag",
        -11.684484762892899
      ],
      [
        "▁acc",
        -10.442670164225598
      ],
      [
        "▁story",
        -8.414758993731734
      ],
      [
        "▁burger",
        -10.667873172765905
      ],
      [
        "▁neurolog",
        -11.549615803286216
      ],
      [
        "▁rigg",
        -12.654888378947255
      ],
      [
        "chiba",
        -11.488831721530598
      ],
      [
        "▁challeng",
        -10.586586147629259
      ],
      [
        "ron.com",
        -12.859529594059007
      ],
      [
        "▁spectacular",
        -10.590891193851833
      ],
      [
        "▁335",
        -13.289610428496676
      ],
      [
        "▁product",
        -8.20667209902329
      ],
      [
        "orefront",
        -12.842924309566747
      ],
      [
        "bro",
        -12.197640388031763
      ],
      [
        "moon",
        -12.742008601968422
      ],
      [
        "▁massacr",
        -13.421060318421075
      ],
      [
        "▁interpret",
        -10.353402451017407
      ],
      [
        "▁'",
        -9.94311635916527
      ],
      [
        "▁professional",
        -8.81868493798937
      ],
      [
        "▁crab",
        -11.060372177806041
      ],
      [
        "▁deserve",
        -10.331531461925847
      ],
      [
        "ishi",
        -13.45967001163117
      ],
      [
        "▁stifle",
        -12.271025470086997
      ],
      [
        "▁woul",
        -6.0900188466739795
      ],
      [
        "ha",
        -10.276535708534153
      ],
      [
        "▁glamo",
        -11.266221202787714
      ],
      [
        "▁dwarf",
        -10.844210069545367
      ],
      [
        "▁fortune",
        -10.452805879688658
      ],
      [
        "▁apartment",
        -9.333434631148561
      ],
      [
        "▁venu",
        -11.156537059213145
      ],
      [
        "▁ker",
        -11.21819332502225
      ],
      [
        "rous",
        -10.622234501840271
      ],
      [
        "4-449",
        -13.136787201776144
      ],
      [
        "▁edward",
        -9.99534264662632
      ],
      [
        "-out",
        -11.49376986200338
      ],
      [
        "▁tog",
        -7.984001669389438
      ],
      [
        "▁garc",
        -12.08735735683906
      ],
      [
        "▁experiment",
        -9.909929098579607
      ],
      [
        "▁beside",
        -11.694727223843978
      ],
      [
        "spectro",
        -12.978525086140143
      ],
      [
        "▁mars",
        -11.455161625232158
      ],
      [
        "▁careful",
        -9.178461348281562
      ],
      [
        "▁confide",
        -12.771337500368347
      ],
      [
        "cinna",
        -10.842854151362275
      ],
      [
        "▁luncheon",
        -11.68816159583864
      ],
      [
        "▁hang",
        -8.997515797125317
      ],
      [
        "▁catastroph",
        -12.750503220434625
      ],
      [
        "▁amphi",
        -12.771288016197799
      ],
      [
        "1950",
        -12.272492544277936
      ],
      [
        "▁any",
        -6.4990892147259105
      ],
      [
        "▁collapse",
        -10.217163889488162
      ],
      [
        "atherin",
        -11.56253547387431
      ],
      [
        "▁very",
        -6.256917658958747
      ],
      [
        "oka",
        -12.83294292877692
      ],
      [
        "apor",
        -10.942944850011125
      ],
      [
        "▁perception",
        -10.842161813770762
      ],
      [
        "▁vulnerab",
        -11.053145633773045
      ],
      [
        "▁suspend",
        -11.178167834242487
      ],
      [
        "▁conclud",
        -11.689954283064365
      ],
      [
        "▁exclusive",
        -11.055309593632382
      ],
      [
        "▁deteriorat",
        -11.768014168068127
      ],
      [
        "▁gastr",
        -11.963632837193721
      ],
      [
        "ulation",
        -12.059833895601844
      ],
      [
        "▁for",
        -10.508521129987447
      ],
      [
        "▁empirical",
        -11.18733824703405
      ],
      [
        "hot",
        -13.707460487042143
      ],
      [
        "▁tee",
        -12.051917512325366
      ],
      [
        "▁scient",
        -9.57087471415161
      ],
      [
        "proxim",
        -11.938316413101722
      ],
      [
        "▁caul",
        -11.674592902791211
      ],
      [
        "▁atm",
        -12.281985210486383
      ],
      [
        "▁naturalis",
        -12.249056977801889
      ],
      [
        "▁parachute",
        -11.687691586439666
      ],
      [
        "▁azur",
        -12.272776211486885
      ],
      [
        "▁one",
        -6.703143481594612
      ],
      [
        "▁kari",
        -11.108878788999736
      ],
      [
        "erra",
        -12.847165898298035
      ],
      [
        "stuar",
        -11.302512810778286
      ],
      [
        "▁jawahar",
        -12.771066592969223
      ],
      [
        "▁coordinati",
        -10.582478751805292
      ],
      [
        "▁meow",
        -10.276068507847882
      ],
      [
        "ndi",
        -11.862362591743297
      ],
      [
        "otis",
        -10.53075887287424
      ],
      [
        "▁coz",
        -10.592747770579216
      ],
      [
        "▁reveren",
        -11.715455715618807
      ],
      [
        "▁baboo",
        -12.843557080496574
      ],
      [
        "▁stick",
        -9.010277298612937
      ],
      [
        "erno",
        -12.834028763676212
      ],
      [
        "69",
        -12.771524869246624
      ],
      [
        "▁algo",
        -12.58612588436298
      ],
      [
        "▁cognitive",
        -10.08322882114519
      ],
      [
        "quili",
        -11.184270844714355
      ],
      [
        "▁ronn",
        -11.553425619291303
      ],
      [
        "information",
        -7.326725036468212
      ],
      [
        "▁yor",
        -13.643864780075436
      ],
      [
        "▁kru",
        -11.914836735009754
      ],
      [
        "fe",
        -11.211557085735926
      ],
      [
        "▁scam",
        -11.557798003212392
      ],
      [
        "▁sex",
        -9.682892952062888
      ],
      [
        "▁statue",
        -10.374439868336918
      ],
      [
        "▁williams",
        -11.392191687608783
      ],
      [
        "▁eyebrow",
        -11.687691944507044
      ],
      [
        "rat",
        -12.017678604027854
      ],
      [
        "ritis",
        -12.178338773134232
      ],
      [
        "nna",
        -12.905493034759864
      ],
      [
        "▁brother",
        -8.81820856713465
      ],
      [
        "▁bail",
        -12.27198707935755
      ],
      [
        "▁psalm",
        -12.771044587883516
      ],
      [
        "▁lamb",
        -10.676822534866783
      ],
      [
        "▁care",
        -8.129399895844612
      ],
      [
        "saib",
        -11.474396831631156
      ],
      [
        "▁heavy",
        -9.232981354789754
      ],
      [
        "▁bell",
        -9.394371164851755
      ],
      [
        "▁syria",
        -9.421323912107951
      ],
      [
        "▁rot",
        -10.61122038757042
      ],
      [
        "▁cress",
        -12.284007640098348
      ],
      [
        "pot",
        -11.33480740779841
      ],
      [
        "quest",
        -11.913642409714301
      ],
      [
        "▁chal",
        -10.944341054908971
      ],
      [
        "▁cord",
        -10.64144667426995
      ],
      [
        "cious",
        -11.34171026211518
      ],
      [
        "▁raptor",
        -12.771056057772451
      ],
      [
        "▁dominan",
        -12.506694804591499
      ],
      [
        "interference",
        -13.734181234222149
      ],
      [
        "▁poo",
        -9.958939928868144
      ],
      [
        "▁av",
        -13.367145336733245
      ],
      [
        "▁indicati",
        -12.053702475341593
      ],
      [
        "▁constrain",
        -12.78344685689847
      ],
      [
        "▁obliterat",
        -12.771025214237437
      ],
      [
        "▁multinational",
        -12.771039509024856
      ],
      [
        "▁attn",
        -12.271881781278472
      ],
      [
        "ign",
        -11.72137258058951
      ],
      [
        "▁scheme",
        -10.590902741375334
      ],
      [
        "888.",
        -12.636947950041675
      ],
      [
        "▁simultaneous",
        -10.842056664859964
      ],
      [
        "▁generate",
        -10.256645029684769
      ],
      [
        "▁ques",
        -11.86941972493624
      ],
      [
        "▁inherent",
        -11.178168066332045
      ],
      [
        "▁ni",
        -10.814888720447627
      ],
      [
        "▁rooster",
        -11.68787323893004
      ],
      [
        "▁certificat",
        -12.746632916643318
      ],
      [
        "▁sour",
        -11.703334186756825
      ],
      [
        "▁scramble",
        -11.500594170780793
      ],
      [
        "▁synta",
        -10.276170513835531
      ],
      [
        "▁flash",
        -10.251004719088035
      ],
      [
        "▁idol",
        -12.771110895361762
      ],
      [
        "number",
        -12.726743620288383
      ],
      [
        "▁lot",
        -7.246639639650355
      ],
      [
        "la",
        -10.269817022195172
      ],
      [
        "▁manner",
        -9.598766341712004
      ],
      [
        "▁ranj",
        -12.801834970776783
      ],
      [
        "therapist",
        -11.492988193467642
      ],
      [
        "▁bombing",
        -10.73930511102781
      ],
      [
        "▁amnest",
        -11.938251917527477
      ],
      [
        "mber",
        -13.419821147085688
      ],
      [
        "▁masque",
        -12.771931039588504
      ],
      [
        "▁plural",
        -12.070298220511503
      ],
      [
        "▁paternal",
        -12.773978257138086
      ],
      [
        "▁ballast",
        -12.77447333157586
      ],
      [
        "dental",
        -11.06530653982842
      ],
      [
        "oper",
        -11.611904063216604
      ],
      [
        "▁&",
        -9.827902169549398
      ],
      [
        "▁ventur",
[...]
